#version: 0.2 - Trained by `huggingface/tokenizers`
e r
Ġ Ġ
e n
c h
i n
Ġ d
ĠĠ ĠĠ
i e
u n
s t
a n
e i
o n
e s
Ġ S
a l
t e
s ch
a r
e in
a u
g e
o r
un d
u r
Ã ¼
a t
Ġd er
i t
Ġ w
Ġ s
i ch
e l
Ã ¤
Ġ und
Ġ v
Ġ A
Ġ B
e t
a s
Ġ b
Ġd ie
un g
Ġ D
Ġ i
Ġ 1
Ġ M
Ġ in
e m
Ġ ein
Ġ (
a m
h r
ĠĠĠĠ ĠĠĠĠ
Ġ m
Ġ n
Ġ z
Ġ K
Ġ F
Ġ G
t en
o l
d e
ĠĠ Ġ
Ġ E
Ġ P
t er
Ġ au
Ġ f
l e
g en
i s
t i
d er
Ġ H
Ġ W
Ġ T
d en
i sch
Ã ¶
Ġ L
Ġ R
t r
a ch
i l
b er
â Ģ
Ġ er
u m
Ġ I
u s
o m
r e
an d
Ġv on
Ġ V
c k
Ġ1 9
Ġ 2
Ġ h
u t
r o
l ich
Ġ N
a b
i on
Ġ J
i er
Ġd en
s e
i g
Ã¼ r
Ġ C
Ġ k
i r
Ġ ge
en t
Ċ ĠĠĠĠĠĠĠĠ
ei t
Ġd es
ĠĠĠĠ ĠĠĠ
Ġm it
in g
Ġi m
Ġ an
) ;
Ġ g
Ã Ł
Ġ al
Ġd as
u l
r a
an n
r ei
Ġ2 0
Ġau f
Ġ O
Ġz u
i st
a d
f t
e st
ie l
Ġ t
s en
Ġv er
Ġ Z
i k
e b
Ġ o
Ġ U
Ġ l
ĠS ch
a hr
a g
Ġi st
Ġf Ã¼r
Ġ p
el l
Ġ =
Ċ ĠĠĠĠĠĠĠ
ĉ ĉ
f f
Ġw ur
h e
Ġd em
i c
Ġ âĢ
ĠS t
e h
s p
Ġ {
v er
at ion
isch en
w ei
ĠI n
a h
i en
ich t
Ġau s
ĠV er
e d
Ġ st
ti on
Ġal s
o t
ĠD ie
Ġein e
r i
Ġs ich
Ġ Ċ
Ġ }
o w
Ġ r
o s
e g
Ġwur de
m en
e u
Ã¤ n
Ġ un
er n
c e
Ġb ei
al l
k t
in d
e w
ĠA n
Ġ c
b en
Ġw ar
s er
sch a
g er
o ch
ei ch
a p
es ch
ĊĠĠĠĠĠĠĠĠ ĠĠĠ
ĠE r
Ġs ein
h n
ĠJ ahr
o p
) ,
er t
en d
ung en
o g
Ã¼ ber
ei l
Ã¼ n
i m
u b
e hr
u ch
ge t
or t
0 0
u f
l in
Ġau ch
et z
Ġw ir
ĠS p
r ie
isch e
Ġ20 1
a te
Ġb e
es s
ur n
st er
( )
e c
e ut
Ġ Ã¼ber
scha ft
Ġn ach
an g
st en
Ġ sch
l er
Ġ j
l a
ur ch
ung s
r an
m er
Ġ am
g t
ĠU n
o d
r u
l ie
i d
ar t
Ġb is
as s
ĠE in
Ċ ĠĠĠ
âĢ ľ
au s
n en
eut sch
ĠA r
Ġn icht
Ġs ie
Ġz ur
Ġ a
er s
1 9
i z
Ġ1 8
ĠâĢ ŀ
Ġw er
Ġ20 0
ol l
et urn
Ċ ĉĉ
Ã¶ r
te l
ĠS tr
I n
ĠA l
Ġz um
Ã¤ t
âĢ ĵ
Ġ 3
Â ł
e x
Ġein er
u g
p e
Ġ um
Ġwer den
q u
ch en
e ch
Ġ es
i v
ĠS ie
Ġv or
t s
Ġw ie
a k
Ġh at
ĊĠĠĠĠĠĠĠĠ ĠĠĠĠĠĠĠĠ
ĠP ro
Ġun ter
am e
st ell
D ie
z en
Ã¶ n
h l
Ã¤ r
Ġd urch
ĠâĢ ĵ
ge l
Ġ "
Ġwir d
or d
Ġ ab
ul l
ter n
i b
h al
Ġs ind
Ġo der
Ġi f
u e
i gen
or m
en n
au f
Ġ ent
ĠE n
Ġi hr
Ã¼ ck
a ge
h er
Ġein em
te t
ch e
isch er
k s
e p
) .
l o
ge b
eb en
st e
ar b
g r
Ġein en
Ġ tr
lich en
Ġ /
ĊĠĠĠĠĠĠĠĠ ĠĠĠĠĠĠĠ
ei ter
ĠB er
p tion
Ġ re
ĠM it
el t
Ġ19 9
er k
Ã¼ hr
r Ã¤
Ġ Ã
i f
e f
ĠD er
ier t
ah l
ĠA us
l and
n er
u d
u p
Ġs p
o k
ti g
E x
ub l
il d
u st
e k
at z
Ċ ĉ
p l
ur g
r it
i a
o b
S tr
i ck
o de
il l
h en
us s
ĠA b
i ge
ĠG r
p ar
( );
sp iel
Ġ -
rei ch
ad t
Ġn ull
el n
lich e
r au
ĠO r
e z
ar d
Ġn ew
Ġdas s
ul t
in z
p f
ĠM a
wei se
o f
i al
o hn
a v
at ur
ĠA uf
om m
ei ten
e y
Ġr eturn
g es
ĠC h
Ġ 4
ce ption
a y
2 0
in al
. .
Ã¤ l
Ġt he
a st
a c
1 8
ĠM ar
Ġ19 8
o v
t h
u ÃŁ
s s
Ċ ĠĠĠĠ
S t
an z
Ã¤ hr
it z
Ġz wei
ab en
ĠD as
ein e
at h
m al
an t
ĠN ach
et er
ĠL and
on n
Ġ/ /
ĠV or
l en
i p
Ġs o
at en
y pe
ec t
Ġo f
am m
ĠI m
p t
ubl ic
Ġ +
l ass
Ex ception
r es
al t
eit s
or en
b j
om p
rei s
Ġ19 7
a ck
te m
ver s
m e
o ur
ro ÃŁ
o c
ĊĠĠĠĠ Ġ
b urg
e v
h t
Ġ 5
Ġn ur
ich te
in e
Ġd eutsch
f ol
ĠH er
Ġn och
on t
Ġs ow
Ġm ehr
k en
Ġb est
( "
Ġ 0
Ġwur den
Ġn eu
p er
p h
p r
b au
Str ing
Ġ( *
Ġan der
i le
ber g
it ion
at t
ab le
ut z
f l
en s
Ġv om
b ar
ĠStr ing
ach t
der n
ĠF l
Ã ©
as e
Ġ19 6
a f
sch en
in t
g l
etz t
ĠD eutsch
b r
it Ã¤t
s h
ĠB r
ation al
al ue
el d
N ame
Ġz w
ier te
ei ster
ei m
ĠZ eit
Ġge w
ĠSt adt
Ġl ie
par am
k eit
l em
p en
om men
b e
W eb
n et
ĠP l
el le
i an
Ġa ber
C on
r eturn
Ã¤ ch
D er
Ġdie s
n is
Q u
ier en
il m
ĠA m
Ġw eiter
a z
d u
n e
lin ks
it er
E n
un k
s k
ĠK on
Web links
Ġb er
Ġ1 7
a gen
ĊĠĠĠĠĠĠĠĠĠĠĠĠĠĠĠĠ ĠĠĠ
ah n
Ġ et
l ag
Ġ &
Ġsow ie
Ġm an
i o
Ġ e
l ei
Ġ19 4
r ich
l os
ĠT he
Ġ 9
m ann
hr ow
Ġp ro
f er
Ã¼ t
ti v
Ġ= =
i re
o ck
f ten
p ublic
d em
Ġb es
f orm
Ġk Ã¶n
ar k
m it
Ġ19 5
it y
Ġd ar
Ġk ann
g esch
e gen
en z
ĠG em
at er
f Ã¼hr
Ġ 6
T ype
ei te
ĠR eg
ĠF ran
Ġ gen
as sen
l ung
P ro
Ã¼ d
a in
eh en
ff en
ĠSp iel
am men
Ġd e
Ġ le
g lie
Ġge gen
sch ie
g lich
f ahr
ol og
r Ã¼
Ã¶ l
i te
et t
ĠJ o
ei gen
d ig
h und
E inz
st an
ol le
ĠM us
Ġ ex
ol it
i vers
w er
ĠK l
ĠG esch
Ġsein er
et h
A n
p ro
u le
er v
S B
z eich
Ġwie der
eh men
f en
em ber
Ġein es
t eil
ie s
o st
und en
Ġ el
ach weise
Ġsein e
ru p
z eit
Ġs oll
ĠUn ter
Einz eln
ier ung
y m
Einzeln achweise
Ġ1 5
ÃŁ e
ĠB ei
ib t
s et
spiel er
lie ÃŁ
Ã¶ ff
an s
at a
i um
am en
ie le
e kt
or g
ĠB au
Ġhat te
in gen
hund ert
Ġ19 3
ik er
is sen
a is
bj ect
b all
ch t
ann t
Ġh aben
SB N
ie der
ĠI SBN
Ġdie ser
ĠT h
l i
Ġg es
b st
ĠGem ein
ge ben
Ġt h
Ġ1 6
ĠE s
ar l
ĠG eb
ic e
in n
sp r
ell en
Ġf or
Ċ ĊĠĠĠĠĠĠĠ
us ammen
ĠJahr e
ers on
n ah
e ck
s b
Ġbe f
h eit
u te
s el
at or
al s
ĠG es
ĠU m
S ch
Ġ 7
p ut
m ein
or f
Ġ ich
ab e
D as
y st
Ġg r
w a
l eich
Ġge t
Ġ 8
al e
Ã¼n d
im m
ĠT eil
Ġ <
ie t
ĠJahr hundert
og ra
ĠS o
I m
A l
Ġzw ischen
y n
ik an
ĠkÃ¶n nen
ad d
Ġj e
Ġge h
A r
E r
Ġt o
Ġwar en
Ġb eg
tr ag
on g
ar r
ĠR o
ĠJahr en
Ġr es
L ist
a il
w ick
ĠU S
w ar
ig er
ĠH au
ĠÃ ľ
Ġs el
ei st
iter atur
k l
) )
or e
in ter
U n
č Ċĉĉ
ĠK ir
Ġt hrow
Ġ !
on der
et en
is s
Ġs eit
Ġ Qu
1 7
Ã¶ s
ol d
Ġj ed
ĠB o
iv e
en er
Ġb et
Ġk l
al d
ur op
ĠEn t
f all
Ġi s
st ra
am il
yst em
ĠB l
Ġg roÃŁ
ap p
t or
Ġf ol
in der
er en
ĠSt a
t o
h m
I N
Ã¤ hl
at ch
" ,
ĠW elt
e an
Ġ en
Ġdie se
und es
o un
= =
e qu
ĠBer lin
() .
hal ten
w erk
Ġzur Ã¼ck
an k
ĠS te
o ff
ĠAr b
Ã¤ ter
Ġ Y
ÃŁ en
on d
1 0
ĠI hr
R es
Ġbe k
z eu
at s
Ġer h
ĠUn ivers
y p
Ġaus ge
" );
V er
st r
l es
te x
Ġ and
ĠL ist
a x
or den
it t
f or
Ġ1 0
Ġd rei
o ol
I d
rie g
m ent
o hl
am er
eh t
ti gen
am t
scha ften
in den
Ġer sten
m us
Ã¤ u
as ser
m in
ing s
st and
ĊĠĠĠĠĠĠĠĠĠĠĠĠĠĠĠĠ ĠĠĠĠĠĠĠĠ
E R
Ġ |
gen d
ĠP h
() )
iel t
00 0
t schaft
r om
ĠÃľ ber
ĠB e
Ġbei m
ĠE x
Ġd ann
o id
Ġan ge
l au
Ġh er
k e
ti l
ĠW ir
Ġd am
al en
Ã¤n d
la ge
ation en
z e
Ġin t
Ġh eu
Ġ :
Ġgeh Ã¶r
ĠC hr
Ġal le
Ġ1 4
Ġer st
w end
ach e
an gen
ex t
Ã¤hr end
Ġ! =
glie d
n ung
h aus
el s
Ã¼ l
Ġ1 2
âĢ Ļ
an der
stell t
z u
i ff
() );
ĠA d
Ã¶ glich
ent lich
or n
Ġg esch
Ġw enn
b t
fol g
m a
m eister
un st
1 5
ĠO ber
Ġk onn
ĠP ar
ri v
Ġg ibt
ster reich
ĠZ u
Ġ eigen
an ge
il der
tex t
ĠF ilm
Ġth is
hn e
- -
e am
ĠG er
um ent
Ġjed och
f e
1 6
ĠM en
au l
.. .
Ġ1 3
uÃŁ ball
Ġihr e
ĠL eben
Ġv iel
y s
Ġ ch
ĠH and
o ber
Ġh ier
1 2
m an
k er
und e
de x
re u
ist or
b ild
Ã¤ d
Ġf inal
ĠN eu
v or
sch l
er e
z w
Ġun ser
ur e
Ġf Ã¼hr
ĠSch w
G eb
r at
rie d
ĠGemein de
rie b
ĠÃ ĸ
ach en
ra d
L iteratur
c tion
as se
k tion
r en
P ar
ĠB undes
ĠP f
ein en
ie d
1 4
Ġ19 2
b o
Ġ )
t on
ĠA ut
Ġsp Ã¤ter
C h
Ġdeutsch er
our ce
ab ei
i den
en tr
p ert
sch e
Ġs ehr
ĠL e
ind et
Ã¶n ig
Ġel se
ar ten
iel d
f ig
au er
ist er
Ċ Ġ
s atz
V alue
ĠE l
o u
ĠA ug
ri ft
au t
ĠB es
Ġd a
a der
ĠDeutsch land
ĠB et
7 8
lich er
iz e
Ġi hn
z er
ĠJ an
ig n
oun t
Ġv oid
ĠF or
Ġet wa
ier ten
Ġw el
it h
ĠR e
t es
ĠG e
ĠF amil
ess ion
ti ge
O N
on e
S p
s etz
Ċĉĉ ĉĉ
ĠM in
Ġ *
st adt
ei g
ge w
st ein
ru ck
schie den
au m
un i
in a
ĠP r
hal b
Ġin s
te d
ĠM on
Ġh in
ei d
ĠF rau
ĠB and
Geb oren
( ),
at ic
re ch
tern ehmen
stell ung
ĠN ord
u ff
Ġw as
Ċĉĉ ĉ
Ġg leich
Ġsein en
en k
ra y
Ġsein em
ĠP erson
g ang
h of
1 3
i de
ĠGr und
ĠM ann
Ġdies em
O r
en den
m ar
ĠJ ul
on s
o sten
/ /
ĠPl atz
ation s
un kt
Ġander en
z ial
ĠW est
ĠG roÃŁ
en de
Ã¤r z
b l
Ġ ar
t t
Ġz usammen
r icht
M it
w ir
ist en
Ċ Ċ
i x
a de
ĠM Ã¼n
ur z
ge mein
rÃ¤ s
ien st
ĠL u
ĠK Ã¶nig
in k
gt h
Ġlie gt
Ã¤n der
Ġg er
ĠEn de
Ã¤n ger
ĊĠĠĠĠĠĠĠĠĠĠĠĠĠĠĠĠ ĠĠĠĠĠĠĠ
Ġ '
am p
s on
Ġver l
ur t
ĠOr t
Ġ& &
al er
Ġber eits
ĠAug ust
) );
Ġver b
Ã¶ ÃŁ
s g
p on
Ġw o
s uch
ĠVer ein
Ġb esch
eit ung
ol f
or k
k ehr
2 00
ĠM an
Ġim mer
Ġk eine
ult ur
rup pe
M ann
ĠFran k
u ar
Ã¶ ch
b ach
Ġc on
ĠK unst
al ien
Ã¤l t
ĠE urop
ĠS e
issen schaft
Ġge l
ber t
Ã¶ff entlich
ĠR ech
ĠP art
ĠN ov
Ġ eh
ĠW ei
ĠIn tern
Ġer ste
ĠB ez
Ġsch on
Ã¤ m
Ġein z
Ġihr er
f Ã¼
C lass
h ann
[ ]
kt ober
s o
z ahl
ĠP ol
ie f
a den
ĠJ uni
ais on
tem ber
Ã¤ uf
N ach
ĠHau pt
ĠS ep
Ġsel bst
Ġfol gen
ĠR ei
2 1
r on
u ten
f ach
la gen
le g
ĠVer b
ĠH o
Ã¼t z
gr und
Ġkonn te
ĠB ild
omp on
k reis
an den
Ġun s
ti er
Ã¼r ger
Ã¼n f
ĠS h
ĠF rei
Ġv ier
ĠT r
re g
I D
Ġt eil
c c
ran z
ĠV ol
m Ã¤
d r
ĠF Ã¼r
ti k
Ã¼n st
Ġ19 0
an is
ing er
ĠM ed
olog ie
Ġheu te
Ġd ort
f inal
k eiten
ĠH aus
mit tel
ier e
ĠMa i
o ut
ĠH och
ĠPro du
pr il
h au
ĠG ew
Ġl etz
Ġi hm
om mer
in nen
Ġp ar
5 0
Ġ eben
c t
ĠO ktober
O bject
ĠJul i
erv ice
ĠS Ã¼d
Ġein ge
ĠĊ Ċ
f o
t ag
Ġk am
ĠC on
ĠB est
. )
ĠM o
ĠW erk
tr y
Ġc ase
os ition
h a
Ġver schieden
ĠSt ud
Ã ¡
l ig
Ġst atic
ĠSep tember
Ġb r
sch lieÃŁ
ĠM Ã¤rz
isch es
Ã¤n g
ĠJ u
ogra ph
i tel
sch n
le x
ag er
b uch
r y
un ter
ĠG ra
S ie
D eutsch
Ġs on
pon se
h eim
ĠK inder
o gen
ess age
ĠA k
w alt
f eld
Ġge f
ĠB eg
w ahl
1 1
e um
Ġo hne
Ġdam it
ĠF ahr
b ahn
ĠUnivers itÃ¤t
Ġ >
o ten
ich er
ie b
ĠMus ik
or ben
Ã¼ s
Ġneu e
r or
ĠP olit
re d
A T
es sen
f ang
fall s
em al
zeich net
ĠJan uar
Ġw en
de ut
lin e
ĠJo hann
ĠF ol
unk tion
ĠA pril
ĠW eb
Ġ %
ĠStr a
hal t
ĠLand es
a ce
r ik
ez ember
ĠI I
ĠD ar
ĠĠĠĠĠĠĠĠ ĠĠĠĠĠĠĠĠ
lo ck
Ġw Ã¤hrend
c ode
A us
ĠList e
el m
Ġal l
Ġal ler
ĠChr ist
Ã¶ st
ĠU r
Ġsp iel
Ġst att
ch er
Ġb el
re ate
ĠDie se
ur r
ĠN ew
Ġbei den
al is
es en
č ĊĠĠĠĠĠĠĠ
ion en
ĠSp r
ti m
ĠKir che
ĠF r
im e
ĠF ried
ĠNov ember
Â Ń
p p
ĠO l
E N
ĠN ational
ĠK omm
res ult
op h
lem ent
amer ikan
as h
z ei
Ġgr Ã¶ÃŁ
M ap
er b
n ew
te te
K ey
al se
ell schaft
Ġer sch
ĠD urch
eth od
Ġ .
Ġer folg
ar i
a kt
ĠB uch
A m
ot t
Ġb en
Ġ X
Ġ3 0
Ġ201 8
equ est
ach sen
ĠA t
ĠUn ternehmen
ri ff
ĠĊ ĠĊ
Ġo b
ig keit
l an
ĠV on
ern se
Ã¤ch st
as k
ĠS aison
h in
ĠGesch ichte
ĠD ezember
ĠW ert
ti f
ĠW asser
ĠAl s
ĠT ra
ĠZ wei
âĢľ ,
stan ce
ro up
ĠR eich
de ck
a w
č Ċĉ
ĠF re
Ġ on
ranz Ã¶s
ĠMen schen
Ġ Â
ĠW ien
w ohn
ĠIn d
os s
ool ean
m s
gl eich
em ent
ar n
ĠIn ter
Ġ201 0
al ter
Ġ| |
Ġ18 9
ĠSch l
rÃ¤s iden
Ġer n
n eh
19 9
mal s
âĢľ .
ĠMit tel
ĠSch ul
ĠEin e
f te
st it
Ã¤ tig
app end
h ol
de te
c on
fÃ¼hr t
A d
Ġg ab
ĠF orm
los s
Ã¤ hn
is h
D ata
l auf
Ġv alue
Ġst eht
ĠZ w
Ġg anz
Ġm us
E in
eb ru
Ġd abei
ĠMit glied
Ġdies es
az u
c ri
ĠT ag
ebru ar
Ġz un
ĠâĢ ł
at iv
Ġ arb
Ġf est
A R
Ġihr en
ech n
Ġneu en
kt ur
eh n
am es
ei le
stra ÃŁe
stell er
c o
u tion
kt u
ĠD aten
Ġ201 1
Ġge b
sch utz
ti ert
ĠSch wei
ver b
sch ule
Ã¤t z
Ġ200 8
ogra f
ĠN ieder
g abe
Ã¤u de
n ame
Ġb ew
S T
Ġthrow s
ff iz
Ġ it
Par am
ĠVer lag
a ar
Ã¤n de
li ent
R equest
ire kt
b ew
h ein
ĠS k
ĠW il
i us
3 0
Ġ201 6
ĠG l
Ġres ult
Ġ9 78
v ent
A t
k ommen
Ġge st
ĠG ener
Ġdes sen
Ġ201 4
ĠR om
Ġ ur
ĠH am
i der
Ġ200 9
ĠS er
G esch
sh all
lin k
nah me
ĠH Ã¶
h and
ech s
Ġd u
ym p
ĠF ebruar
Ġ201 3
v al
Ġ2 5
ĠAr ch
Ġ201 2
Ġk on
ĠÃ Ħ
k on
Ġ200 7
ann te
Ġf rÃ¼
p s
rei chen
ĠE m
Ġh abe
ar ch
Ġ201 5
ĠN amen
Ġb zw
Ġ201 7
ĠL ei
st ru
ie g
Ġ u
y te
uch t
zeu g
Ġweiter e
Ġs ei
Ġl ang
er st
ĠW ohn
oll en
um en
R E
al b
ĠMÃ¼n chen
wick lung
tr Ã¤
o te
Ã¼ b
ĠPro f
p unkt
Ġw ei
T o
o ub
ge h
ĠK rieg
Ġ ro
fahr en
len gth
ich tig
Ã¼nd et
Ġn ot
it zen
P ath
ĠF uÃŁball
u ilder
2 2
z ent
ĠAr t
u er
nis se
ten t
ĠM al
Ġk omm
Ġer reich
Ġeh emal
Ġ1 1
Ġ qu
le gen
ĠE d
Ã¤ s
ĠG egen
ÃŁ er
rup pen
reu z
Ġerh ielt
ĊĠĠĠĠĠĠĠĠ Ġ
an st
ĠPh il
Ġal lem
tr ib
ĠR Ã¼ck
ie w
Ġder en
rie ben
gr amm
Ġbes onder
geb iet
s ol
p el
pert y
Ġ200 6
ĠH ol
Ã¤hl t
re cht
los sen
z ug
ĉĉ ĉĉ
schie d
Ġs Ã¼d
is k
Ġst ell
s ion
Ġf inden
F ile
A L
riv ate
Ġ18 8
oub le
ge stellt
ech sel
Ġ at
ĠA uch
il it
schl uss
est er
uf en
ri d
d orf
ĠN atur
wei l
L eben
S et
Ġdeutsch en
sch ul
em en
Ġn ah
k ir
Ġtr ue
ĠR ep
ubl ik
ĠArb eit
Ġg ut
eu er
Ġh and
== ==
Ġson dern
ĠC o
ĠZ usammen
ĠS al
w eg
ti gt
Ġ2 4
ĠK n
in en
ĠPerson en
ri de
Ã Ń
Ġp ublic
k rieg
us e
Ġf ranzÃ¶s
O R
ĠK arl
ra ft
O ver
M ar
6 0
ach te
ow n
f ern
ĠL ehr
k te
ĠSch au
al ten
en nen
Ġ or
ĠFamil ie
w e
Ã¼ ss
Ġn un
ĠB ew
Ġander e
Ġbef indet
ĠR es
ĠM od
th is
c es
Ġc atch
in s
ĠI s
Ġh o
Ġm uss
ein er
ad em
p ort
Ġf Ã¼nf
Ã¤n dig
sch er
urr ent
Ġge mein
ec tion
ĠP er
is mus
stell en
Ġb ie
ĠC ar
A b
ĠS c
ĠDie s
Ġbek annt
M od
Gesch ichte
ĠD u
w est
Ã¼ hl
ĠBer eich
uff er
s am
Ġ20 00
Ã¶ m
ĠD es
ĠK ap
ĠF est
mÃ¤ ÃŁ
at us
am pf
at ive
el e
Ġ200 5
qu est
ĠK r
Ġer w
ra g
ĠM eister
re chen
a i
ĠAl l
ĠS eite
ĠM ich
Ġv iele
ur s
Ġden en
z ie
ĠT itel
al if
in er
N ode
ar e
Ġf alse
4 0
E lement
z iel
L A
G est
ch n
T ra
Ã¶r der
Ġtr y
ĠLeben s
Ã¤n ge
ran k
le gt
Over ride
ĠWeb s
h ard
Ġp er
ĠM ill
tiv e
h Ã¤lt
Ġw orden
im mer
ĠS tel
y l
ĠS ystem
v en
w as
l u
ĠB ar
ges etzt
ĠL in
ĠA uÃŁ
ol um
Ġd i
ĠSt and
o ge
pl atz
. ,
Ã¤ h
ĠG ef
ĠE is
j ekt
ĠReg ion
em a
ĠS ohn
ĠFried rich
aul t
ei tet
ich ten
p rÃ¤
glie der
as st
ab el
ĠS a
ar y
Ġer halten
ernse h
eite te
Ġzun Ã¤chst
f c
ĠW er
ĠB ay
ĠS ommer
Ġeben falls
v e
Ġbeg ann
ĠD an
ĠFrau en
Ġ200 4
ĠBer g
Ã ³
ĠK reis
sp ort
ĠM et
j Ã¤hr
ĠI l
ĠSp ort
j ahr
tr agen
2 5
a ff
Ġr und
7 0
ĠW ahl
hn en
rei b
e ad
ĠDeutsch en
Gest orben
ĠIn form
ĠD i
Ġa k
g or
Ã¶ sterreich
f r
Ġz ahl
ĠL ie
zen tr
ĠEin wohn
ĠD r
Ã¤ ft
d ings
Ġje weil
ĠH ein
ig ht
Ġsoll te
ĠJu gend
sch rift
ran s
ĠB ahn
ĠAl b
Ġdie sen
ir k
Ġm Ã¶glich
ar m
Ġa ktu
ĠO st
et te
ĠR ad
re ck
c om
ei den
h o
Ġ201 9
w and
Ã¶l ker
Ġb oolean
f ra
ur m
at es
ĠFl ug
il ter
s w
ĠO n
neh mer
Ġ em
19 8
Ã¼nst ler
kl Ã¤r
h elm
M an
se e
al le
ut ter
ĠS an
Ġ( âĢ
Str eam
g te
ĠN ame
fig ur
* *
Ġ1 00
isch of
Ġb eh
Ã¤ re
ĠF ra
Ġ [
ov e
up er
Ġ end
In dex
ĠFran z
fol ge
tor y
ann ten
ri te
Ġdeutsch e
w ort
Ġin tern
us er
ĠB Ã¼
enn t
in o
ĠB as
on nen
g aben
ĠB el
Ġ ,
ĠT od
F ield
Ġletz ten
r sg
s icht
Ġwel che
+ +
ath ol
rau m
Ġent wick
gl isch
w ig
Ġ x
ĠM ag
den k
Ġau ÃŁer
ont ain
Ġ te
bild ung
ess or
st off
Ġein ige
ĠH ier
b lem
Ġd azu
ĠB Ã¼rger
ĠÃĸ sterreich
ur o
um s
ĠIhr e
ĠK ar
ĠW eiter
4 5
gen ommen
c lass
in de
ĠH ans
d ruck
ĠG en
y r
Ġge gr
le hr
ĠO bj
Ġh ei
ber eich
F uÃŁball
Ċ ĊĠĠĠĠĠĠĠĠĠĠĠ
M essage
G e
tr eten
ĠB esch
D ef
S S
ut t
o ver
u ck
Ġsch w
Ġsch n
alt ung
ĠPolit iker
A uf
er y
Ġgew ann
Ġ200 3
č ĊĠĠĠĠĠĠĠĠĠĠĠ
Ġander em
f Ã¤l
w ie
ĠS el
b ei
Ġs et
sch ein
iss ion
Ġver Ã¶ffentlich
z t
Ġin ter
k m
o se
Ġ2 2
ĠS eit
L E
om b
rÃ¤siden t
che ck
nah men
och en
able d
ĠK ultur
e er
f ilm
in anz
Ġdar auf
Ġ ev
is e
Ġ199 0
ĠO bject
rei che
Ã¼ck e
ap an
Ġd ef
ĠAn d
Ġet was
B ei
ut h
ĠF ach
sp iele
et s
ĠP at
-- --
a e
ĠC l
Con text
Ġein fach
ĠT eam
Ġk ein
ĠH il
h le
eth ode
ĠgroÃŁ e
al itÃ¤t
st ag
e ader
ĠgroÃŁ en
H and
ĠB en
ĠG el
Ġ200 2
T ime
la y
ĠL a
ser v
b ez
h af
Ã¤ che
B er
an ce
ĠLand kreis
Ġn eben
f urt
k auf
O f
e e
imm t
ot or
l y
Ġ2 1
ĠB i
Ġ200 1
ach ten
ĠT er
arb eit
Ġre g
st Ã¤nd
Ġin ner
Ġk ommen
op f
ĠPro v
ur en
ar s
Ġge ht
l ang
av a
Ġge m
ĠN e
U til
ic a
< /
Ġf rei
d ienst
et ter
Ċ ĊĠĠĠ
ĠJahr es
it ter
ĠSch n
re ak
B uilder
ig ung
Ġver wend
8 0
Ġver m
ges amt
Ġv oll
u es
Res ponse
Ġkomm t
ge st
ell er
2 3
ĠB ern
ri m
un ft
M E
2 4
Ġ2 3
ĠJ ohn
ĠH eim
an c
ĠF ot
Ġw ill
Ã¤ ten
Ġ y
Ġl assen
ĠK o
hr en
S ervice
D R
b et
l t
B y
Ġ18 6
R eg
p or
Ġihr em
n a
o und
U R
rit er
a el
am ent
ĠW ill
gesch ichte
W ir
ĠD a
F orm
ĠP eter
z ig
g ument
ĠVol ks
ek te
A N
I fc
p rivate
ĊĠĠĠĠĠĠĠĠĠĠĠĠĠĠĠĠĠĠĠĠĠĠĠĠ ĠĠĠ
sch w
Ã¼s sen
n ungen
Ġ18 7
ĠF all
ĠM art
ĠD orf
ĠF er
Ġ2 6
fÃ¼hr ung
lo se
čĊĉĉ ĉ
ĠArb eits
an zen
I T
ĠGr Ã¼n
ĠKir chen
Ġm ir
ĠgehÃ¶r t
ind ung
č Ċ
H rsg
is ion
In fo
an ten
ĠHer z
Ġbe zeichnet
um mer
w ert
ater ial
d ate
k a
nah m
schn itt
ĠHer r
St ate
Ġspiel te
Ġhat ten
Ġh och
ilit Ã¤r
ing t
or s
ĊĠĠĠĠĠĠĠĠ ĠĠĠĠ
ti schen
Ġg ing
Ġnah m
bau t
Ġals o
en der
En abled
ur ger
Ġent sp
ĠR ah
Ġm o
ĠPar is
il om
Ġ199 9
arr iere
ĠEr n
st Ã¼tz
r em
ĠD em
es se
v alue
ĠI ch
Ġ2 8
Ġ5 0
ĠFol ge
ot he
ĠS eiten
h eits
setz ung
Ã¶r per
ffiz iel
l ist
P D
z el
icht ung
equ als
re uÃŁ
Ġst ehen
D E
sch au
ok en
wir tschaft
st a
ro w
ĠO b
O Exception
Ġsch lieÃŁ
Ġbest eht
Ġin d
et ten
.) :
ĠOl ymp
Ġal len
Ġd och
ĠFamil ien
eich t
Sie he
sch eid
ĠZ entr
ne te
ĠWil helm
ĠG o
ers Ã¶n
min ister
rit ten
w w
w ard
ĠA u
ge ord
it te
ev Ã¶lker
Ġersch ien
ĠR u
Ġzwei ten
amerikan ischer
ĠMar k
T he
U S
o int
En try
for der
Ã¤ ss
ĠAn fang
h Ã¤ng
Ġp olit
Ġn e
ĠUnivers ity
Ġ20 20
l ow
ĠI t
t hrow
ĠRech ts
es onder
l ungen
ĠP aul
ar a
ĠM or
Ġre ch
om it
fÃ¼ g
ge f
ĠF ir
Ġst ark
ĠSch rift
ĠBet rieb
ĠS itz
ti c
Ġm ich
Ġ2 7
ust r
Ġher aus
ei gt
Ġ199 8
Ġm al
ĠSta ats
au r
ĠT echn
ip p
Ġmehr ere
ograph ie
ĠPart ei
Ġm achen
Deutsch er
el te
ĠA p
ĠB urg
ĠT or
om in
h ung
Ċ Ċĉ
et r
Ġver st
u k
ĠSch iff
Ġintern ational
Ġw egen
ti sch
Ġst ud
I I
ar get
ĠN eben
Ã¤t ze
ĠG u
Ġl og
ĠW eg
ĠIn stit
d ie
ĠEin satz
Ġw Ã¼r
g ie
Ġs ol
E s
at ten
Ġh inter
Ġm ax
ig es
ei sten
ern e
av on
an gel
b ack
ĠMus eum
3 5
ĠU hr
ĠH istor
Ar ray
rÃ¤ ger
ĠOr g
r et
Ġo bject
sch ung
ĠRah men
w elt
rit t
Ġd ah
ĠSchau spieler
ar en
Ġw e
G roup
ich tet
ĠWelt krieg
ĠSta aten
ĠMann schaft
ĠR aum
Ġk urz
Ġverwend et
cc ess
il t
ĠVer s
ĠHam burg
ĠK Ã¶l
utz t
Ġh istor
o x
m l
ver ein
hau sen
4 8
ĠJahrhundert s
Ġsein es
ĠB ru
ic al
g angen
ĠS il
IN G
ĠW ie
ra k
Ġerst mals
ĠB ad
ĠG ruppe
ĠY ork
is se
teil ung
ais er
an a
ĠAl t
ĠE uro
ti sche
ĠH a
ol e
ig a
Ġver w
ĠIntern ational
ate gor
ik a
Ġ ?
z ep
ograf ie
ĠR ich
9 0
Ġb rit
ĠSpiel er
olum n
lo ster
ĠEinwohn er
ĠJo se
spr Ã¼n
s weise
ak e
P erson
ein ander
um ber
tt p
ĠH eil
Ġ( !
n ot
ĠZ iel
ge geben
all en
ĠEn g
Ġ199 6
Ġaller dings
ri ften
Ġden n
g n
ti me
lie b
l ing
ig t
onn ection
) :
ĠWir tschaft
ĠGeb Ã¤ude
es ser
ond on
o ot
F or
En t
Ġ194 5
kir che
. âĢľ
ompon ent
Ġf and
A C
Ã¤m pf
Ġum f
h eiten
ĠC omp
t lich
am mer
h ei
19 7
i as
Ġk ey
Ġn ame
Ġ â
Ã ĸ
Mit glied
d es
Ã¼ gel
amm lung
ĠF unktion
Ġverschieden en
unk te
{ @
ĠW or
la st
al k
ĠS ti
och ter
Ġ199 2
ĠK ont
ĠP reis
2 8
Ġ add
ĠD abei
Ġre quest
Ġw ith
Ġin stance
le ben
ĠSch m
ĠZ ahl
ĠfÃ¼hr te
stan den
wei ter
S E
Ġ197 0
ĠVer walt
ĠWebs ite
ier ungs
ei er
Ġs etz
ĠL auf
ĠR hein
Ã¶r d
j a
esonder e
Ġ198 0
ĠW olf
2 6
ĠD re
m b
ob il
ĠK an
l et
ĠHol z
d s
am b
eg t
ĠK Ã¼
ĠT em
ĠE igen
ĠB ed
ĠW inter
ĠF eld
k ey
ser ie
ĠAl ter
3 3
h il
Ġc a
ĠW ald
Pro perty
Ġeigen en
ĠgehÃ¶r te
ĠEurop a
ĠLu ft
ĠD ort
i ver
res se
ra un
Ġst and
om pl
Ġ2 9
ĠT ro
uch s
Ġbe de
Ġgen annt
ĠD ienst
Ġtr at
ĠK at
af Ã¼r
Ġweiter en
lich t
Ġo ft
ĠEr z
ck er
trib ute
ĠBei spiel
Ã¼nd ung
ti eren
arb eiter
2 7
Al s
ĠT re
k ten
I ON
Ġs echs
ĠEr st
Ġ199 7
am s
ĠK ur
ar te
Ġs pe
ĠM Ã¤n
ĠZ ug
um e
st Ã¤ndig
ĠS Ã¼
ĠR ef
Ġr el
ĠA mer
Ã ¨
ĠG old
te ger
au en
ĠV ater
Ġ18 5
ck en
sb esondere
ob ei
Ġ Ã¶sterreich
stan ts
19 6
ig it
D es
ĠB eh
ilom eter
qu e
ĠL ondon
schlieÃŁ end
ĠMit te
il le
om as
ĠUS A
us Ã¤tz
ĠEnt wicklung
at Ã¼r
ock ey
b el
icht s
> >
ĠN r
Ġ4 0
Ġt ype
Ã¤s st
s ize
m ed
om at
lich es
du z
2 9
ĠGe org
ĠP al
E m
ĠAn t
Ġ199 4
ĠH of
Ġw eil
Ã¤t te
gen den
Ġ _
l og
ie gel
st elle
ĠS ol
Res ource
Ġein mal
t z
ĠfÃ¼hr t
ĠLei p
ĠMich ael
4 9
F ac
m od
y ch
Ġjeweil s
V al
Ġd avon
ic ation
Ġw est
Ġw eit
ĠI hnen
ĠGener al
s eite
ĠM eter
Ġ199 5
u ter
ĠUn d
Ġ Ã¤l
3 9
ut put
G ibt
ĠE le
Ġm Ã¼ssen
ĠL eist
Ġ @
sp ro
ic s
oc ol
t her
pr ession
c l
ge ber
Ã¼ ler
et ers
Ġf ast
Ġsch wer
c a
Ġ #
or y
Ġg ilt
pt y
S er
ĠGes ellschaft
all s
Ġf indet
ĠH ar
utt g
a ÃŁ
w issenschaft
ĠF C
h Ã¶
Ġc reate
ĠStra ÃŁe
s etzt
ĠF rÃ¼
Ġl ange
19 0
den s
I C
lehr er
sk i
anis ation
Ġbesonder s
g lichen
3 8
J ahr
] ;
Ġ199 3
ĠVer tr
ĠSchwei zer
eu te
f el
o ok
ĠT our
ig ten
ĠHÃ¶ he
ĠHein rich
am a
Ġunter schied
ĠL ud
ĠGra f
ĠD at
A s
j ect
ĠT ochter
ro s
c y
t ocol
ĠE v
Ġw obei
ĠFrank reich
uch en
g o
F ilm
ĠMa x
E D
ĠPl an
3 6
ĠR est
ĠArch ite
ĠProv inz
4 4
w Ã¼r
in es
n ehmen
Ġk m
tik el
ĠG eh
ik ation
ĠH ann
g s
' s
reib ung
ĠT ext
un n
Ġarb eitete
Ġab sol
war z
Ġw echsel
ĠPro zent
Ġ20 21
k au
Ġmus ste
Ġm eisten
ĠGeb iet
wei s
L O
lei st
wend ung
ist ischen
n ull
Ġs ehen
ĠRom an
ĠD on
19 5
Ġn Ã¤ch
ief ert
S h
l ungs
ĠGesch Ã¤ft
ĠSta at
ĠT age
ĠRe gel
lig a
auf en
av e
m Ã¶glich
ĠW e
att ung
C ode
ĠD is
rei se
a ffen
ap pen
ĠD en
ĠSo zial
z ogen
age ment
ol oge
Ġgegr Ã¼ndet
Ġ( (
Ġ Ð
ek tr
Ġd irekt
ĠD e
urn al
ch es
it u
R ef
richt ung
Ġviel en
Ġbie tet
S c
zei tig
Ġkl ein
it ten
eck e
Ġer f
ĠKl ein
Ġ18 0
l d
ĠMar kt
Ġ199 1
Ã¼ck en
Ġauf grund
ĠM ath
o den
ass ung
Ġer rich
iz in
to String
3 7
L og
l Ã¤nd
Ġl ist
ett bew
ĠC olle
her e
y d
st eil
k o
Ġfolgen den
W ith
ib le
w ay
Ġinner halb
trÃ¤ ge
S ize
ĠSt uttg
ĠSte in
ĠK Ã¼nstler
C lient
ĠEr geb
Un ivers
Ġ196 0
leg al
ĠEis en
ĠA ss
ĠI OException
ĠObj ekt
Ġins gesamt
ĠK reuz
ĠP ark
pert ies
ĠG ast
Ã¼t zen
ĠN utz
Ġj etzt
ĠKomm un
Ġ Ã¶ff
au ch
ĠM Ã¶glich
Ġan geb
ĠCh ar
ĠA lex
ĠC omm
ĠPro blem
Ġab ge
Param eter
le ch
Ġm eist
Ġ198 8
ĠA s
w ehr
a he
ig h
Ġd o
Ġl a
Ġstud ierte
Ġal les
ĠP ap
ĠKÃ¶l n
ĠSch loss
ib li
ĠMill ionen
figur ation
eh l
ĠR ot
ĠS eine
Ġw h
st ieg
ran ken
L iefert
a ir
ĠP ort
Ã¶r t
sten s
ig inal
adem ie
Ġkonn ten
Ġb lei
ĠZwei ten
ĠBer uf
Ġv al
t ler
om e
ĠC or
az z
g ruppe
ĠI de
Ġf rom
Ġn ieder
Ġ198 9
ĠN o
ĠMart in
ĠW Ã¤hrend
č ĊĠĠĠ
ĠThe ater
ĠFrank furt
f ter
ĠPro jekt
iz ed
en gth
den t
ĠR el
Ġkl eine
ĠT el
ĠF arb
y le
ĠB ischof
ĠC he
Ġges am
ĠM at
4 6
4 7
C O
fahr t
ak tion
ges etz
b y
Ã¤r en
ĠEin zel
ĠkÃ¶n n
ate d
g ar
Ã¼r z
FuÃŁball spieler
ust rie
in ner
ĠK aiser
E igen
ec ord
ge fÃ¼hrt
Ġf ile
Ġz eigt
en glisch
ĠS ein
or ge
Ã¼n dete
ĠU l
ĠH e
Ã¤ f
Ġn Ã¶rd
arb eiten
ĠInform ationen
9 9
lich keit
ber ger
Form at
Ġt Ã¤tig
A P
Ġ( )
i at
sch iff
ĠK omp
Ġ as
ĠV ier
ĠProdu ktion
ĠK ompon
Ġd eut
if c
ĠAm t
Ã¤n dern
spr ach
ac t
V ers
ech t
uch e
Ġur sprÃ¼n
ĠM utter
ĠDeutsch e
ĠB ef
Ġje der
E vent
il den
âĢ ¦
Ġunser e
Ġerfolg te
Ã¤uf ig
ĠN orden
Ġex ist
ĠschlieÃŁ lich
M ethod
ĠR olle
i ent
in ition
Ġ3 1
ĠLeip zig
s itzen
ĠB evÃ¶lker
ĠD enk
her r
w Ã¤r
Ġo p
4 3
R O
Ġd afÃ¼r
deut ung
Ġf r
ar ben
ĠB ro
Ġ ...
Ġsich er
op pel
B au
ik en
k tr
os it
T ext
u h
ĠMar ia
rei ben
j et
Ġkl einen
Ġw ichtig
fl uss
b urger
ĠK loster
ĠS icher
gemein de
b est
h anden
Ġd an
Ġk ur
f est
Ġl in
ĠB is
ĠAr ray
p art
Res ult
ĠD am
Ġle ben
Al l
t ei
Ġgegen Ã¼ber
Ġb reak
ĠReg ierung
an de
ĠVer trag
ak ter
Ġo ffen
sch t
ĠLud wig
k ung
ag es
F Ã¼r
Ġd ouble
ĠS tim
a j
w agen
< ?
ĠTh omas
ĠPf arr
Man ager
M us
ul d
Ã ľ
Ġwechsel te
ĠStra ÃŁen
m o
ĠAuÃŁ er
in ation
sch lag
ĠSch utz
Ġp l
Ġm ein
ide o
ĠStuttg art
ĠR ed
Ġit alien
3 2
ĠPro gramm
- ,
ĠT ri
ail le
Ã¼ ter
Ġs og
ir st
Ġp rÃ¤
Ar gument
L oc
ĠE p
V or
ĠH inter
te c
mann schaft
Ġverschieden e
cri pt
anst alt
ĠSch ule
verb and
w or
ĠL es
Ġd ien
ĠD av
Ġf l
it s
Ġerreich te
ĠG eld
Ġl Ã¤sst
Ġschn ell
ge gen
ĠD o
Ġin sbesondere
ĠG Ã¶
" )
Ġver such
Ġ' \
N ull
k unft
Ã¼r k
Ġsow ohl
rau ch
u ft
ĠT yp
ĠZ ur
Er ror
Ã¤ chen
Ġb y
Ġk osten
M et
Ġ198 7
stell ungen
eu ch
a sch
lau b
Ġk n
Ġent fern
ĠR en
it Ã¤ten
ĠG est
om en
ĠL iteratur
Ġo ber
Ġunser er
8 9
ĠZ eich
ĠM ap
ĠBes itz
ĠBeg inn
ĠIn s
ot s
st reck
Ġb lieb
Ġm Ã¶ch
Con fig
tiv en
in c
al y
war e
3 1
ĠSel bst
Ġw ahr
Ġz eit
is iert
ĠHo tel
P ack
Ġge geben
ĠIn nen
shall er
ĠK ilometer
St and
tier te
mb H
la v
gen t
Ġgel ang
pro du
Ġn atÃ¼r
i ft
ge hen
Ġz ehn
Ġp ol
h am
t ype
atur e
f s
Ã¶st lich
eck en
ĠW ein
ĠA c
ĠW al
p reis
==== ====
s ych
os oph
w asser
re p
Ġ Ã¼b
z immer
Ġf orm
Ã¶s ung
ĠS en
und er
ĠOr ts
em at
tr itt
ĠB ur
ĠK ind
Ġbis her
ĠHeim at
ĠW enn
ĠR uss
Ġgemein sam
le y
ĠR ichtung
ĠC lass
Ġ198 6
z Ã¼
Ġn ord
ig te
ĠM ethode
ti ger
geb aut
I tem
S ystem
ĠDie ser
Ġvor handen
f an
ĠF Ã¼hr
ĠW ieder
ĠM ehr
Ġcase Ifc
enz e
c reate
ern er
ĠSt art
ĠSch Ã¼ler
ĠSÃ¼ den
Ġl ong
b ed
ĠP ass
Ġw ohl
ĠM aler
Ġern eut
issen schaften
Ġhin aus
an e
ol ution
ro p
Ġihn en
E ine
lo ad
ĠM il
get C
In stance
Ġgeb oren
in dex
ĠAn g
ĠL ang
od y
Ġn ie
iz ei
ĠO t
ĠK ant
ĠF ile
uch te
O n
m m
s burg
8 5
Ã¤uf er
f ert
ing le
ad a
Ã¤ user
f re
In ter
ern en
++ )
Ġer klÃ¤r
ĠSchwei z
b es
ag t
Mar shaller
8 6
R ep
Ġal ten
o ben
at te
ĠT ex
Ġ> =
ĠT urn
O ption
Ġh Ã¶ch
lo b
gen de
ĠK unden
ĠO p
ord nung
Ġ198 4
ver kehr
C H
Ã¶ ÃŁe
ĠAn zahl
G r
get Name
L and
Ġh erv
pl an
Ġinstance of
Ġerrich tet
ĠS yn
Ġf ort
al z
ĠE t
ĠIn sel
l v
Ġ195 0
ĠE he
B uffer
ĠS til
ĠSt Ã¤d
fÃ¼hr er
ĠBe deutung
ĠIt alien
s l
ĠC ount
ĠR ev
k n
ab hÃ¤ng
ĠF il
im ent
ĠBo den
ĠVer kehr
ĠW ind
ist r
and id
ĠKrieg s
Ġz usÃ¤tz
U T
ĠG mbH
Ġzwei te
3 4
ier s
ĠAlb um
ĠT ab
ant wort
Ġsch Ã¶n
ĠFuÃŁball spieler
id u
c ess
Ġ198 5
re ad
ĠAnd re
ĠK urz
ĠW ochen
Ġen gl
Ġgew Ã¤hlt
I ch
ĠO s
7 5
ĠK in
op er
fl Ã¤che
V on
i am
es e
ĠC ol
Ġ198 3
Ġ ad
T yp
ĠF ort
ÃŁ t
Ġbe vor
Ġ Ã¤
Ġmit tel
S el
ĠChrist ian
Ġb ed
Ġ197 2
an ischen
Ġbest en
u ild
hau pt
Fac tory
ym n
Univers itÃ¤t
m Ã¶
ist ik
n ach
ĠS am
ent lichen
Ġst r
geb Ã¤ude
Ġ up
omm and
sp l
ĠZ um
Ġ197 9
Ġm in
ĠIl legal
ĠG ot
Ġd ata
ĠIntern et
lin gen
ĊĠĠĠĠĠĠĠĠĠĠĠĠĠĠĠĠ ĠĠĠĠ
ĠGes amt
s ystem
ĠK or
ĠM ont
os sen
eg r
k el
ĠM otor
Ġwen ig
schaft s
Ġw ich
g Ã¤n
ĠAut or
tocol Marshaller
ĠA ben
ĠM er
ĠJ e
ĠKl asse
te gr
ĠBes uch
ĠSchrift steller
ic an
spiel sweise
u el
Ġent stand
ĠEn er
Ġein gesetzt
ĊĠĠĠĠĠĠĠĠĠĠĠĠĠĠĠĠĠĠĠĠĠĠĠĠ ĠĠĠĠĠĠĠĠĠĠĠĠĠĠĠĠ
Ġdah er
ĠÃ¼ber nahm
fol gt
P l
ĠF ernseh
ol ler
st art
sen d
sch eiden
or gen
se hen
an ien
Ġs ub
ĠN Ã¤
ist ische
bar en
b Ã¼
ĠH in
S eit
w ohl
Ð ¾
an ken
ĠW ar
Ġbes ser
ĠOlymp ischen
Ġ6 0
le ge
s ub
ev el
Ġ org
Ġw oll
Ġ198 2
ĠReg ie
ĠMin ister
Con stants
ĠJ ur
Ġehemal igen
Ġver sch
ck e
Ġm ar
r Ã¤n
en ce
eil nehmer
Or t
ĠN or
Ġst art
Ġerfolg reich
F ernseh
9 5
Ġm od
U N
gesch lossen
au se
Ã¤ch lich
ĠO sten
bar e
Ġ{ @
O bj
C ount
ĠB ilder
en zen
all y
am ens
Ġ198 1
f il
ge m
schul lehrer
h as
Ġst amm
ichte te
Ġm ethod
ĠTh ema
b ek
ĠH el
ĠM os
ĠAn ton
gr ess
r ist
Ġzw ar
N ot
Ġem pf
ĠZw ischen
Eigen schaft
Ġzu dem
ger icht
ĠRo bert
mÃ¤ÃŁ ig
z ess
ger ufen
w eit
W elt
Ġbest imm
ibli othe
Ġgen au
urop Ã¤
Ġent standen
Ġso zial
ĠL og
Ġ197 8
im al
Ġsoll en
ĠG ed
op p
ac tion
ontain er
( (
v oll
ĠP osition
Ġm acht
m et
hr ead
Ġge legen
Ġges p
ue ck
ĠProf essor
ion s
Ġ< =
eg ung
Ġdeut lich
ĠgehÃ¶r en
ĠEr folg
Ġbest ehen
Ġdar unter
zeu ge
ie sen
Ã¤n den
geb ot
ĠAuÃŁer dem
den burg
ĠWest en
4 2
al tet
val id
Ġb in
Ġnicht s
Ġ197 4
Ġn ahe
ul ar
Ġp ath
Ġsog ar
f red
K l
Ġhand elt
st Ã¼ck
inz u
pr int
ch ron
er r
b eh
Ġ acht
Ġf re
ĠEn d
ok rat
Ġs omit
Ġf ield
ĠG re
C E
ĠMit arbeiter
Ġeigen e
Ġzahl reiche
Ver ein
de b
iv idu
F A
ĠS im
Ġr Ã¶m
ĠSp iele
ettbew erb
ort h
b te
ĠP o
ein t
ĠOn line
ĠD om
Ġin dex
ĠP or
Ġv an
sch ech
ri gen
Ġn o
ĠT est
ĠM y
on en
N A
ĠVer fÃ¼g
ĠBay ern
u x
Ġbei spielsweise
Ġheu tigen
Ġj a
ium s
b ol
l as
la den
ĠfrÃ¼ her
Ġin put
St atus
Ġ(âĢ ł
ĠverÃ¶ffentlich t
T rans
Ġ check
um m
ad urch
ri x
ĠD DR
m ark
ut zen
geb ung
A p
ĠB ran
Ġsie ben
ild et
throw s
z y
ser t
. :
ĠH alb
ĠT rans
U r
Con tent
br uch
ĠAuf lage
ĠErn st
g ra
ĠF rie
ĠE ben
ok al
Ġ196 8
ĠStud ien
cri ption
b ank
eich nung
riv at
k ungen
Ġ197 5
Ġl ag
Ġfolgen der
ĠM Ã¼l
Ġst ar
ĠG ut
n o
Ġwen iger
werk e
ir t
ĠC arl
ĠO per
te chn
net en
EN T
ĠP rÃ¤
Ġdan ach
te st
ĠW issenschaft
ak te
ĠMa in
Ġ Ã¤hn
ĠSt u
ĠT on
Ġentsp rechen
olit ik
ĠInstit ut
st ehen
Ã¼r t
C omponent
al og
it i
Ġh Ã¶
Ġlie ÃŁ
Ġstell t
u hr
" .
ĠM ilitÃ¤r
ĠF euer
Ġdam als
ten s
Ġbef inden
Ġr uss
Ġs h
ĠMit glieder
Util s
ĠS oc
Ġi d
ĠEr d
meister schaft
ag ue
ĠVerwalt ungs
bl ick
Ġn ational
ges ellschaft
f Ã¼r
f ile
it ial
P er
I S
L o
ĠE ing
ĠH en
ĠCount y
Ã¤hl en
A G
ĠT o
Em pty
me e
ĠV o
tr e
tec ted
et ail
Ġ197 1
M ail
ĠII I
r acht
ĠF inal
ĠH or
ot h
P E
Ġso gen
ĠA ir
ĠVer l
ĠFre und
ĠD ok
A ut
ĠH ei
ĠM aterial
ĠR und
ish ockey
Ġwel ches
Ġc urrent
Ġ197 6
A S
s ie
Ġre gel
ĠP fl
iv al
ĠÂ »
Ä ģ
Ġh Ã¤ufig
ĠS achsen
G em
ymn as
l am
ffiziel le
Ġ ung
ungs k
> ();
6 5
h ang
ikan ischen
ĠEle ktr
in i
iz iert
Ġ196 9
Ġletz te
ĠJohann es
Å į
mal e
ĠK Ã¶rper
ag s
ect or
a un
it or
Ġge ben
Ġp ersÃ¶n
ur f
U p
Ġs c
Ġsie he
4 1
ĠSch wer
lei d
ĠSal z
ĠG i
itz t
Deutsch land
z i
ar ian
t he
un ge
w o
Ġw elt
ich ter
ĠL age
ĠEr w
Die se
Ð °
ĠD ruck
deck t
A D
Ġver fÃ¼
ont in
v est
un ction
b and
och e
St art
" ;
eh ler
Pack age
p ts
ĠwÃ¼r de
ĠS and
ĠSt ad
Ġre cht
ow er
Ġ(âĢ ŀ
re v
Ġlie gen
zeich nungen
Ġer k
ĠAr ten
fra ge
K on
Ġteil weise
7 7
T Y
f rei
ĠL o
ei der
Ġ197 7
C all
ĠP ost
8 8
Ġ us
on a
ĠP rÃ¤sident
um er
Ã¤t zen
ĠAm ts
ĠOrt steil
Ġgef unden
Ġ197 3
ĠK ategor
ĠF e
u he
Ġ Q
ĠZ ust
ĠV iel
ĠS ex
il la
Ġc m
de d
D ate
ĠB ach
ti tel
l eitung
ĠC om
c urrent
ei ger
Ġer Ã¶ff
H och
R el
: //
d o
itz e
ĠMÃ¤n ner
Ġk lass
Ġzu vor
r ach
ĠS ong
ĠG ar
op e
E S
D at
us h
Vers ion
ĠF el
oc ument
an o
ĠS ek
get S
sch inen
rei te
d ien
ĠG ruppen
Ġabsol v
A ccess
im a
tei dig
teil t
c m
it en
zeich en
ĠB ot
ĠT al
In put
Ċĉĉĉĉ ĉ
9 8
Ġgen utzt
ĠG ott
sp rech
i j
ĠAr tikel
ĠN etz
Ã¼s se
as il
č ĊĠĠĠĠĠĠĠĠĠĠĠĠĠĠĠ
la ck
âĢľ )
F rau
6 4
is p
ff set
it al
F rom
Ã¤l fte
ĠHil fe
f ord
Ġein igen
Ġz og
ĠBru der
Ġst arb
ĠVerfÃ¼g ung
ĠHerz og
ĠD rei
ft ung
ĠRei he
ĠK ol
tem berg
Ġgem acht
i men
st all
Ġdef ault
ĠR ein
Ġherv or
h an
ĠW o
re f
Ġst ate
form at
w ald
ĠT op
T able
an te
ĠB or
ĠB all
en te
rei fen
Hand ler
u al
ĠB Ã¶
ĠBeg riff
Ġauf ge
ĠfranzÃ¶s ischen
af en
F l
ĠI r
ĊĠĠĠĠĠĠĠĠĠĠĠĠĠĠĠĠĠĠĠĠĠĠĠĠ ĠĠĠĠĠĠĠĠ
Ġo ut
ĠR egen
ĠH al
0 5
ĠF en
ĠCh arl
ĠNÃ¤ he
Mod el
ut ton
ĠJo urnal
Ġ196 4
Ġerreich t
ges ehen
ĠgrÃ¶ÃŁ ten
Â »
Ġau t
Ã¤t ten
t c
irekt or
T oken
ĠC ap
rei bt
geb ie
Ġres ponse
Ġg ar
Ġch ar
not ation
ĠEl tern
Ġerw Ã¤hn
ik e
Ġ196 7
ĠA G
ĠAl le
ĠMed ien
ach er
schlieÃŁ lich
F F
ĠH om
ĠL au
d a
z ehn
Ġbet eil
ot z
ĠHer ren
B r
w rite
Ġi r
pl ate
ite d
Aus wahl
ĠStel le
ĠB al
ĠC D
Ã¤u ft
ĠRech t
9 6
enn ung
Ġger ade
Ġpar am
Ġd el
f ried
Ġs of
ĠEr fahr
ĠVerb indung
ĠHann over
ĠF inanz
zentr um
ĠSpr ache
U m
ĠA ward
Ġverb unden
Ġbie ten
ow s
An d
ĠBevÃ¶lker ung
Ã¼ hle
ol a
Ã¤ te
ĠGeschÃ¤ft s
ĠS ub
Ġw es
Ġange geben
Ġb yte
W est
Ġpro tocolMarshaller
ĠFor sch
ĠW el
ĠSie d
ĠGr ab
stru ktur
ĠC ity
wei sen
Ġd r
Â ²
ĠA ber
us st
Ġstell te
Ã¶ hn
Ġk ompl
Ġzur ueck
Ġak tiv
ĠK osten
Ġge hen
ul ti
L ine
an lage
ĠDre h
Ġ196 6
pr Ã¼
ĠnÃ¤ch sten
7 6
ĠA f
Ġent hÃ¤lt
ativ en
ĠBahn hof
ĠSie g
At tribute
ien s
Ġsoll ten
Å Ĥ
ĠK arriere
Ã¶ pf
w esen
ru g
Ġ reich
ĠD res
list e
ĠS onn
ĠB ank
sh ip
Å ¡
List ener
' )
Ġver lie
jÃ¤hr igen
Ãľ ber
5 5
as ste
ĠVerein igten
m el
Ġ193 3
u tet
ord in
ĠK raft
ĠNach t
IN D
dr ess
Ġnach dem
tag s
P art
Ġth at
R e
w ind
ĠS ervice
ĠRei se
ĠG arten
ĠN ot
in put
arb eitet
ĠBerlin er
Tra ce
ĠAus bildung
ann e
rich ten
ĠArray List
k eits
Ġver tr
ĠCh em
n ext
iv en
ĠSer ie
ĠZ Ã¼r
Ġgleich en
ut es
ro ss
ier ungen
yn c
st at
Ġw ollen
tr ue
ĠB aden
ĠE hren
9 3
z z
rie ch
D ec
Ġz ul
Ġeinz el
ĠT ran
Ġ196 5
spiel en
as en
ĠM eer
en ter
rei ten
Ch ar
Ġk einen
ire c
Ġm on
u sch
ain er
Ġfol gte
Ã¼ss eld
re am
ĠF Ã¶rder
re e
ĠM el
en e
Ġl eicht
ĠAuf trag
fl ug
Def inition
M L
geh end
ĠDav id
ende te
ĠAk ademie
ei s
ĠB raun
ĠG leich
ĠSa int
C ase
Ġh inzu
Ġmit tler
. <
Ġr em
L e
M ed
f rau
O T
f Ã¤h
Ġ196 2
Ġgew esen
ex ik
En d
ĠSpiel en
ĠPolit ik
Ã §
ann el
f Ã¶r
ĠT a
Ġte chn
F ilter
ra x
Ġ( =
ĠL Ã¶
lo at
Ġfolgen de
** **
an y
ĠMa ÃŁ
b esch
final e
f ield
am eister
Ġver s
ĠNach dem
Ġw issenschaft
lie ben
Ð ¸
Ġ196 1
ĠMin uten
ĠG eist
Ġk amen
ĠD el
eil en
en a
ĠA ch
p le
M P
p ol
fol ger
l Ã¤ss
ĠCh or
ĠK auf
Ð µ
Ġen g
âĢ Ŀ
Sp iel
ĠBas is
ĠGes etz
Ġel ektr
ĠIn n
j e
ab il
Ġver f
ĠEr sten
Ġ196 3
Ġauf genommen
ĠJose ph
ik t
ang s
rit te
Un ter
ĠPol izei
Ġbei de
Ġpro duz
Ã¤d ag
ab r
ĠEng land
6 1
> (
Ġr et
C omp
or ie
G ener
O G
Ġwir k
ĠGemein den
Ġwh ile
ial og
ĠD ach
ĠD iv
Ġ scha
ĠS uper
Argument Exception
ay er
Ġentfern t
W erk
ĠH Ã¤lfte
Ġ193 0
ĠQu alitÃ¤t
g liche
Ġm achte
od es
ĠRich ard
ĠSil ber
ĠOt to
k ap
ĠM ad
ĠL iga
id th
ot her
ikan er
S o
in ts
ĠM ein
end et
ĠHer mann
ĠDam it
arl ament
c ase
ud em
ĠAuÃŁ en
ibliothe k
H er
ĠB us
H eader
Ã¤ us
ĠP il
Ġ8 0
Ġ ra
tr a
ĠVor sitzen
f ung
Ġ193 9
ĠFra ge
U ser
k rÃ¤
Ġn ode
ei en
Ġtr ans
n am
ĠW h
Ġentwick elt
g ten
c le
Ġz ie
ĠEner gie
ĠAr m
Ġje den
ĠPr ess
Ġ194 0
Ġon line
ol den
Ex pression
Ġwei ÃŁ
Ġer r
op y
T r
ĠK opf
ĠFrÃ¼ h
z eiten
ĠR ud
deb ug
i os
ĠS in
Ġehemal ige
Ġbest and
ĠDenk mal
ĠSt unden
Ġe uropÃ¤
dig t
Ġdam al
J o
ĠB ek
ĠM e
isse ur
T h
Ġ3 5
arb eitung
Ġd Ã¼r
eu e
ĠWolf gang
Ġmehr eren
Ġn orm
ĠStr ecke
ĠV al
ym bol
ĠV en
ĠRep ublik
an ger
ĠauÃŁer dem
Ġc lass
ĠK ampf
ĠC as
rie ges
U L
Ġsetz te
r hein
ag n
Ġ195 8
Ġge tr
olog ische
ĠG al
ĠL i
ar f
ĠLe ague
E T
Ġ193 8
is ierung
Ã¤tig keit
ĠF ig
ĠJ apan
ĠS tern
inn t
ch ester
ĠSe e
a ile
ĠB und
re c
D F
par k
l ar
b ie
Ġf er
ĠDies es
Ġal t
an ische
ĠD och
ĠT ier
ĠSch Ã¶n
ĠUnter such
Ġ19 20
Ġho hen
eh len
ick en
ik al
ĠDes ign
k reuz
.. ..
Ã¼rt temberg
ĠKon z
Ver lag
rÃ¤s ent
ĠR ock
hÃ¤lt nis
den tif
Ġer ziel
Ġl oc
Ġer ster
ĠFl uss
ĠM c
Ge ographie
ĠfÃ¼hr en
v el
Ġk ehr
Gem ein
r uf
ĠF uÃŁ
ĠWor ld
ĠL icht
ĠD ist
Ġ194 4
O L
la ce
9 7
w egen
Ġ Å
ele te
A B
Ġbede uten
6 2
ĠÂ «
Ã¼ss el
ĠVer sion
Ġver z
eh m
ĠWerk e
ĠJ azz
ier ter
eren ce
zeu gt
Ġgemein s
d am
der s
ec ted
| |
itz er
ĠMÃ¶glich keit
Ġdar Ã¼ber
ing ton
rik a
N ames
T rÃ¤ger
er ror
Ġbes uchte
---- ----
Ġ195 2
mar kt
8 7
Ġunter stÃ¼tz
Ġeben so
Ġspe ziel
ĠUnter stÃ¼tz
Ġt yp
Ġsch l
N umber
Ġre ad
setz en
ol or
ft ware
ĠW ider
o is
hal te
Im pl
streck e
wei g
pr ess
Ã¤ um
Ġc omp
Ã¼ ch
20 18
olog ischen
Ġm ed
o der
ĠP unkt
ĠGes und
or te
tig keit
Ċĉĉĉĉ ĉĉ
ĠTag es
zep t
it ch
ĠW ort
Pro du
Ġeh er
ey er
Sp ort
it sch
Ġam er
P r
str ing
ition s
Ġm eine
rit z
on es
ĠÃ¤ uÃŁ
ĠS em
Ġr ule
Ġsch rieb
ie h
le b
ĠH essen
Ġer reichen
Ġ9 0
O utput
Ġ195 6
Ġst ellen
it a
Ġben Ã¶
P ol
P age
in ge
Ġs er
ver walt
rei sen
ĠSt amm
F I
ĠC al
sch riften
S ON
Ġj apan
Ġ195 7
Ġres ource
zeu gen
Ã¤nder t
so zial
ĠD Ã¼sseld
Ġz erst
ent wicklung
at tern
Ġs e
ĠN ik
z uf
im men
ĠH all
Ġsp ielt
ĠH an
Ġge k
ĠHer aus
ĠBr on
Ċ ĊĠĠĠĠĠĠĠĠĠĠĠĠĠĠĠ
ĠĠĠĠ ĠĠ
ĠD enn
ĠR ang
Ġ195 5
Ġinter ess
ĠSt Ã¼ck
k omm
w art
kt or
kau ft
ĠErgeb nis
g ien
Ċ ĊĠĠĠĠĠ
Ĥ ¬
Ġs uper
Ġf alls
ĠÃ¼ber n
Ġbeg r
ĠFir ma
Ġz eigen
gel Ã¶st
ell a
] .
w ord
Ġspiel en
C T
etz ung
ĠÃĸ ff
our ces
E L
W enn
ĠK ranken
ĠLehr er
ĠStand ard
ĠâĢ ¦
ĠLin ie
ĠBr and
F C
Ġd ir
hl et
Ġan schlieÃŁend
Ġt c
ĠMod ell
aler ie
eig ht
z ip
Ġg erne
L ength
m on
ĠD ep
tig ung
ĠIllegal ArgumentException
8 4
t um
ĠStud ium
l l
6 6
Ġb as
le cht
ot te
ĠKont akt
S I
ra p
ĠD ef
kl us
t liche
Ġ7 0
F e
Ġsel ten
st ud
el ten
ĠArb eiten
Ġge d
ĠPhil osoph
Ġwoll te
Ġk omp
ĠA pp
ĠL ou
rit ik
ĠInd ustrie
ĠSc ien
l n
ĠD eb
9 4
ĠI D
in fo
aile d
_ _
or a
Ġ195 4
ĠkÃ¶nn te
ab rik
end es
ĠSchl acht
S V
i i
A mer
ĠÃ¤l ter
Ġn ehmen
ag o
ĠursprÃ¼n glich
ĠR os
Ġgen er
ir ks
ĠVer gleich
gel n
Ġ194 3
Ġ194 6
west en
C hr
ĠP op
ĠP rivat
Ad dress
Ġf inanz
ĊĠĠĠĠĠĠĠĠĠĠĠĠĠĠĠĠĠĠĠĠĠĠĠĠ ĠĠĠĠĠĠĠ
ĠPart ner
ĠS onder
ĠL eiter
ĠPr inz
Ġson st
k athol
ĠA ust
ĠR at
ĠAmer ican
u ster
Qu ery
ĠGl as
l ad
Ġ195 9
ontain s
ĠAr mee
per atur
eid el
inde stens
s berg
ing ungen
ĠZ udem
Ġho he
ĠW and
sp h
i ol
ĠA ustr
l ern
au sch
S ub
ĠAu gen
Ent ity
st ant
Ġver ein
wie gend
Ġw Ã¤re
Ã¤ gt
ien ten
In teger
Ġbet rÃ¤
ĠFen ster
ĠV oll
S ource
iz er
Ġbesch Ã¤f
sta at
ĠB rit
Ġk athol
ĠS et
Fernseh serie
ĠS m
ĠAlex ander
Ġerh Ã¤lt
T eilnehmer
an ad
O per
ĠF ern
" ))
Ġ194 1
ra tet
eh ens
ĠTh emen
em b
gr Ã¼n
pro tected
9 2
Ġm indestens
In ner
K ir
on ie
Ġz entr
fÃ¶r m
g arten
s ei
Ġg ute
rÃ¤siden ten
ĠFra gen
Ġ ap
Ġne un
ĠSta ff
ĠBÃ¼rger meister
i que
ĠK om
ĠS old
ĠD oppel
entr y
ĠAus wahl
mar shall
ĠâĢ ľ
Ex ec
b Ã¼rger
ĠP an
ĠSte uer
ĠZentr um
C onnection
ĠP ublik
st att
ĠS Ã¤nger
ĠW alter
Ġeinzel nen
Ġg l
Ġweiter hin
c lient
ĠBez eichnung
ĠPr em
G es
ĠR itter
ig keiten
Ġent halten
w ill
Ġl and
ĠBr un
ĠGeb ie
rax is
d in
ĠMÃ¼l ler
N o
ĠEurop Ã¤
ĠR ecord
Ã³ n
0 9
R I
Ġd ritten
Ġer weiter
Ġun ver
fahr er
d ata
ĠKon tr
0 6
ĠR unde
ĠBau m
en ten
ĠGr Ã¼ndung
Ġorg anis
ĠEnt scheid
ĠT eile
f alen
ĠV ideo
tem ent
lag er
Ġal te
Ã¤n gen
ĠZÃ¼r ich
ĠB d
ĠJ ean
ul a
l assen
Ġer z
ĠverÃ¶ffentlich te
al es
sch uss
unk ten
ĠReich s
yn am
0 1
Ġev ent
ha ft
ĠJ ack
Ġex ten
Ġo ther
j o
ĠP reuÃŁ
ĠW all
N ext
ĠSt at
Ġabsolv ierte
8 3
ĠDan ach
un ternehmen
Ġ195 3
stra hl
ĠPh ys
zei gt
Ġihr es
B IND
ĠEr k
A ction
ĠA g
Ġ194 8
anst altung
te ten
ieren den
Ġaktu ellen
In t
Ar ch
ĠSp ez
ĠVerb and
ĠP unkte
Ġj ava
k raft
y a
ĠK ern
v iew
Ġl Ã¤nger
richt ungen
BIND ING
ĠL Ã¤nge
il ler
ĠProdu kt
yn chron
S etzt
ch ar
pf er
Ġer folgt
7 2
ter s
om o
re quest
Ġm essage
ub e
ĠCh ina
m und
ĠC ms
M S
n eter
ot al
Ġj Ã¼n
ĠW ahr
ĠL ied
lie gen
. -
c ing
Ġt arget
Ġunser en
Ġ194 9
ĠS ow
Ġar e
ĠKÃ¶nig reich
rem ove
b eg
au ber
ĠR a
ic tion
ĠWien er
E X
Ġgr Ã¼ndete
st eh
l Ã¶sung
Ġstamm t
S e
ĠSch warz
A X
Z u
ĠT im
ic o
imm ung
Ã¶ sen
ff er
ĠNach folger
v is
Ġcon text
ĠPfl anzen
ĠDres den
c el
ĠW as
Ġc all
ut her
Ġj Ã¤hr
Ġmo der
ĠsÃ¼d lich
ĠKompon ist
d aten
er tif
Ġbe zie
M on
Ġo ben
C he
O S
Ġmo dern
lich keiten
au b
7 9
d k
Q L
land s
olle ction
ou ver
and elt
Ġver hei
Ġeinz ige
ĠUnterstÃ¼tz ung
H ol
Con figuration
ekt or
Ġwel cher
Ġl o
tig te
meister schaften
Ġev angel
ĠVer f
Ġtr otz
ari able
mit t
ĠVer Ã¶ffentlich
ĠEx ception
is c
k an
Ä į
ĠS u
eh mer
Ġsie ht
ĠCl ub
m eld
st anz
ĠP arlament
s a
bet rieb
ĠGeb urt
ĠKategor ie
k arte
ĠM ess
ĠgrÃ¶ÃŁ te
ĠP sych
oss ible
ĠT her
Ġo ffiziel
ate in
wÃ¼r dig
0 3
Ñ Ģ
ie ben
au sen
S te
d i
m ap
ĠD ann
Ġneu er
ĠR h
mus eum
M ax
st o
Ġsel ben
ĠFol gen
fall en
Ġumf asst
S up
oll ar
Ġre c
is Empty
S D
ĠJ ac
Ġtr ad
lin ie
mus ik
h istor
Ġb ilden
ĠNach bar
Ġ+ =
0 7
Ġk ennen
Ġge baut
Ġ194 2
eich er
r ess
Ġ );
Ġs ex
Ġsch loss
d at
eig net
ĠR em
om an
ill en
ad ata
Ġwirk lich
ĠStadt teil
ĠPol en
b ef
h Ã¶r
In tern
ĠP e
ĠL Ã¤nder
bau ten
ĠnatÃ¼r lich
ĠZeit punkt
ĠUm gebung
ĠerwÃ¤hn t
8 2
Ġbes itzt
ut ure
ĠWill iam
C olumn
ĠT ruppen
ic ate
Ġbe ein
ĠGr Ã¶ÃŁe
b ro
ymnas ium
0 2
I ter
o o
u a
ĠIn teger
tr aum
spr uch
Ġausge zeichnet
r c
deut sch
ĠH Ã¶r
Ã¤t ter
<? >
Ġ4 5
ĠHer bst
W er
l eiter
Ġ195 1
. ");
oc i
ĠJose f
Ġw ohn
Ġhei ÃŁt
č ĊĠĠĠĠĠ
ĠP fer
ĠL eitung
eg ment
m ut
Ġbek annte
ei sen
ĠAb geord
ĠBl ick
Hoch schullehrer
ti en
k i
Ġp rom
7 1
âĢ ŀ
Ġrech ts
Ġinternational en
p ath
ĠS ant
ĠZeit schrift
ĠEisen bahn
ĠJ er
q l
ĠR ennen
ek tion
Ġind ividu
am in
ĠAb schluss
z a
ĠO ffizielle
ie ur
ĠDÃ¼sseld orf
U E
rei ber
rie f
ĠSt ock
ĠForsch ungs
ĠR un
Ġp rak
im it
ĠnÃ¶rd lich
z og
ra tete
qu es
ĠbetrÃ¤ gt
ĠJ ames
ĠM ass
ĠIhr en
ĠT urm
' t
Ġ tem
Ġj Ã¼d
ug h
Ġvor her
ĠReg ierungs
Â °
ma ÃŁ
a at
Ġb ildet
ahr en
ĠAn schluss
hal le
be ck
C ache
ĠUm welt
m atch
! !
ĠB onn
br acht
leich t
ĠfranzÃ¶s ische
c tor
Ã¤ch s
en g
Ġneu es
M eter
ĠOrg anisation
st ate
Ġein ger
ir m
S C
ĠVerein s
u c
P oint
ow ed
Ref erence
NA ME
m ehr
et a
an lagen
ell es
Ġerh Ã¶
Ã¤d chen
ĠDok ument
Ã¼hr en
ĠIhr er
Ġdien te
A ss
st Ã¤tte
ĠCh amp
Ġ5 00
C D
ĠVol k
ĠBest and
ĠE lement
Ġen try
Ã¼ st
N ew
Ġh au
Ġent spr
ĠFor schung
ĠWei se
Ġgesam te
ver t
ĠK amer
ak tiv
b ten
ĠAr n
hal ts
ĠOr gel
ĠKl aus
Ġverl oren
C ON
ĠT Ã¼r
Ã¡ n
ĠPhil ipp
u hl
ers eits
Ã¤hl te
i w
ab l
Ġblei bt
Ġd at
ĠN orm
ah nen
Ġdar f
art s
Ġle dig
b ischof
form ation
Ġpol n
v ider
âĢ ĺ
ĠUn ion
ĠÃ¤l te
V iew
ĠB on
Ġk aum
ay s
Pro perties
Ġje de
ĠS Ã¤
Ġ193 6
r am
ĠMa c
ĠEv angel
ĠF und
ĠAn gel
tern ehmer
amil ie
s c
ez ep
W eiter
ab eth
ĠfranzÃ¶s ischer
P h
amerikan ische
Ġern annt
6 7
denk mal
9 1
n ungs
Ċ ĠĠ
T ag
Ð ½
ĠD azu
ĠK re
ĠZusammen arbeit
r unde
Ġh as
Ġc om
halt ung
L evel
g Ã¤nger
ĠJ es
ir g
z us
Ġpro f
Ġst ammen
D urch
s itz
Ġf anden
em ann
ĠAk tiv
v on
Ġn immt
Ġdes halb
ĠAben d
0 4
L ink
Ã¼ ge
at ers
Ġi de
ass el
ĠGer man
ĠKant on
M in
ra el
Ġgew orden
ĠmÃ¶ch te
Ġledig lich
g y
ĠOr iginal
Ġentwick elte
schein lich
ĠGot tes
P f
ĠW ol
Ġh ol
Ġp ass
pl ication
Ġ194 7
Ġgesch lossen
ĠhÃ¶ her
Ġm ap
tr ieb
Ġbeg innt
anstalt ungen
par tement
lu ster
Typ es
Ġwir tschaft
Ã¼nd eten
E d
T ask
w ork
Ġin dem
Ġt Ã¤
d et
ie ger
ĠL OG
ĠGÃ¶ tt
g ibt
ĠGe orge
g ut
ĠL ab
Ġ193 7
ĠprÃ¤ sen
P ort
s dorf
ap e
ĠB ud
ann ot
zw ischen
Ġd adurch
Ġp r
bar keit
ĠLie be
y al
Ġp assen
18 5
pro chen
ĠH elm
ĠR Ã¶
ĠStr u
N ational
ĠOr d
olog y
Ġ3 2
ĠC an
Ġarb eiten
Ur l
= "
ĠH u
ĠfrÃ¼ hen
Ġkn app
Ġex ec
ĠR and
ĠEs sen
ĠT rad
um p
ĠVer wendung
G B
Ġs etzt
et ern
ĠGr enze
ond s
Ġb l
Ġf iel
ĠKir ch
icher ung
ĠfrÃ¼ h
g a
Ġm Ã¶
er ei
Ġh Ã¤tte
ungs ver
ĠN icht
ra ph
ĠVer such
ĠZu kunft
on y
ĠE hr
ĠH art
ĠÃ¶ff entlichen
ĠB ack
jÃ¤hr ige
T em
Ġb em
Ġer war
Ġein f
la f
M ill
ĠAn n
Ġbef and
ĠAut o
ĠEnt wick
ĠBay er
c ontains
Ġver k
Ġzul etzt
ge g
ĠS uche
B e
ge stell
qu ar
Ġvoll stÃ¤ndig
Ġ193 4
Ġer mÃ¶glich
les en
ĠB eim
ĠAn ti
ie ÃŁen
ĠP lay
Ġge stellt
lo c
rech ts
b ase
t a
t d
Ġs ervice
O ber
ĠS w
get Value
v o
ĠSchauspieler in
ĠÃ¶sterreich ischer
ĠZu ge
trib utes
wÃ¤r ts
k ampf
Ġel ement
ĠFl Ã¤che
Ġpolit ischen
As ync
ĠProdu kte
P osition
ĠL eg
8 1
y th
ĠB lack
Ġh el
ĠSpr ach
egr Ã¼ndet
den ten
pf lich
ĠAl ten
der ung
zeich nis
TY PE
D O
ĠP et
uf e
\ "
ĠK er
ent liche
z ub
at ter
ĠD ek
Ġverhei ratet
verwalt ung
i or
eu cht
ĠTeil nehmer
haf en
ĠFarb e
Ġg riech
7 3
ĠA ktion
au ern
ĠJ ust
Ġgleich zeitig
or gt
Ã¤ ger
ĠP re
ĠH eidel
Ġkehr te
ĠWirtschaft s
irec tory
A uch
s Ã¤tze
R o
V erk
ĠJ ung
ĠSch lag
ĊĠĠĠĠĠĠĠĠĠĠĠĠ Ġ
low ak
ĠAn gebot
ĠD isk
Ġunser em
L egt
iel ten
ĠD Ã©
ic t
lau ben
7 4
rei tet
ĠSt ar
Ġbr ingen
Ġhei ratete
J ob
L ong
ĠBes onder
C ms
fl Ã¤chen
ĠMÃ¼n ster
Ġbel eg
g arn
end ar
ĠBez irk
ĠFinal e
U M
Ã ¸
all el
Ãĸ sterreich
ie ÃŁ
Ġb ald
ĠD amen
n amen
By tes
e en
og le
Ġzahl reichen
eich en
Ġnot wend
ĠHoch schule
ĠGr and
ĠL ager
la w
haus es
f unk
k ra
st attung
I L
Ġh ab
Ã¤n n
au tor
ĠE ich
Ġ- >
mittel t
Ã¶l f
ĠTra in
hol z
inde st
ĠK olle
Ġf irst
mÃ¤ ler
h eb
Ġo bj
ĠAn lage
lie fert
ek ten
ian a
Ġjed em
k r
Ñ ģ
ĠF ac
Ġgesam ten
Ċ Ċĉĉ
Ġsof ort
C o
b us
Ġtrad ition
Ġer forder
lin ge
bez irk
get Message
ven tion
Ñ Ĥ
ĠG ran
rau cht
Ġ ed
ĠW ander
ag te
for schung
6 8
ĠG et
ĠMed izin
ĠT ur
and lung
ist in
ĠZeit ung
Ġwer de
ri ck
j ekte
um Ã¤n
ĠAuf gaben
ĠQu alif
neh m
ap ie
ĠK al
k ur
ĠR iver
ĠBr Ã¼
Ġ193 5
ĠR enn
ĠR ob
ĠVerkehr s
ĠAl ler
imm el
ĠDi pl
ĠAndre as
Ġent scheiden
Ã¼hl en
T ER
W Ã¼rttemberg
ĠG ro
ĠV ic
Ġge pl
ĠAus gabe
Ġeigen tlich
f unktion
H ttp
Ġganz e
v ille
ĠH igh
ĠZ immer
op s
etz en
B C
ĠAl bert
Ġgen ommen
Ġd ire
ic es
l Ã¤ufer
v m
ĠS atz
ge legt
ĠL ong
ĠIn str
ĠF Ã¤l
ieren de
Ġblei ben
ĠzusÃ¤tz lich
ep age
ĠH um
ĠZ ei
ver tr
org ung
rep ublik
Ġ text
ĠMa schinen
0 8
S ession
ĠSt ate
Ġs b
ĠAn na
if e
An y
Ġn ext
Ġer setzt
ĠTra iner
Ġaktu elle
Ã¼ ten
ri ffen
ĠS V
ĠK omb
ĠG it
ĠW erner
id t
T ree
Ġver kauf
hil fe
1 00
Ã¤n gt
kl asse
G egrÃ¼ndet
ĠĠĠĠ Ġ
ww w
m at
6 3
h Ã¤user
ech net
end orf
D a
Ġp h
ĠP rÃ¼
ĠW ehr
Ã¼r n
Ġbrit ischen
Val id
ĠT V
spr ache
ĠM ik
ĠN ur
Ġge prÃ¤
ink el
A c
Ġs od
sp art
ĠMon ate
Ġst Ã¤r
ib r
ĠAut om
b is
or ien
de f
ber n
ĠMus ic
itu ation
st il
ĠP ri
() ))
spr ung
Ð¾ Ð
An notation
Ġwelt weit
ĠStÃ¤d te
ĠEin fluss
ĠS zen
ick t
Ġwen ige
techn ik
I V
ire d
ĠspÃ¤ter en
ĠEm pf
stru ktion
Ġd est
ĠK op
ĠC re
c omp
Ġs ize
ĠM acht
Ã¼ck s
alif orn
Ã¤hr t
ĠMen sch
ks am
Ġmar shall
ĠJ ak
ĠH alle
ohl en
wissenschaft ler
Ġdamal igen
B yte
Ġall gemein
Ġerschien en
Ġun mittel
ĠRo sen
Ä «
rei he
ĠCharl es
un ion
ĠAb s
bau m
ĠO pen
H el
I t
Ġ19 00
Ġgr und
Ġbr achte
K ultur
ie fer
Ġh alten
Ġo ption
ĠRuss land
umen te
ĠH ash
tr ainer
Ġp aar
ĠStr om
Ġlog ger
ĠG Ã¤
ĠBei trag
tier ung
Ġaus schlieÃŁlich
Ġqu alif
Ã¼ gen
ĠP aar
Ġ19 14
Ġzw eit
rid ge
ce pt
lo sen
ĠEx per
b s
on om
ĠM erk
Obj ekt
ref ix
ab ase
p unkte
Ġw or
PD F
c up
il es
Ġf ind
ĠHau p
Ġausge w
ĠHand el
tier ten
w in
ĠS ammlung
ĠBild ung
G er
Ġ time
Ser ver
ĠColle ction
Ġup date
6 9
b ung
Ġs w
Ã¼l lt
ĠF ischer
ĠRel ig
ĠT at
Ġver d
ĠK u
Ġso ur
ock en
I P
T H
m ax
Ċ ĠĊ
an walt
ĠAn der
f ekt
ĠM iss
ĠBr emen
D ep
l ong
Ġk rit
ĠIde en
m t
ĠE g
Ġbest e
()) );
Ġall ein
St ore
Ġben annt
Ġd ich
ti al
Ġbek ommen
ĠWeiter e
serv ice
ĠColle ge
ĠZusammen hang
Jahr hundert
ĠStim men
ĠRecord s
m esser
setz ungen
ĠRud olf
ĠGer icht
ĠHerr schaft
ĠW oche
ĠV iz
Ġkl einer
ĠHeil igen
V AL
isch em
ĠN orth
ĠAn schlieÃŁend
tr em
ib el
ĠW ild
Ġ19 18
gemein schaft
ĠFahr zeug
Ġbede utet
Ġl angen
Ġpolit ische
Ġver br
k unde
ĠF ehler
ter t
W riter
ĠDar stellung
west lich
Ġjeweil igen
ĠKin dern
Ġl eich
Ġre p
pro gramm
ishockey spieler
schl Ã¤
k und
t lichen
Ġ19 19
ĠIn f
Ġunter st
Amer ikaner
un sch
c is
Ch ild
Ġf in
stand s
čĊĉĉ ĉĉ
Ġehemal iger
ĠStaff el
M atch
h auer
Ġge fÃ¼hrt
Ġp osit
iz ation
Ã© r
sh of
stit ut
Ġreg ion
w en
Ġm en
Ġtr Ã¤gt
Ġ ag
Ġre st
ĠerÃ¶ff net
h te
ĠVer kauf
Ġmus sten
Ġl ine
ĠD or
m p
Ã¼r gen
Ġgel ten
ĠChar akter
print ln
Ġd unk
Ġw rite
scha fter
Ġjed es
ĠE U
le ger
ĠL Ã¤ndern
d el
ĠS onnen
at hlet
Ġh ttp
Ġc an
Tra cing
Ġ rei
Ġ* /
er in
ien en
ĠUn ited
ĠgroÃŁ er
etail s
ĠI V
|| (
R ule
arr y
S P
ĠK ab
Gemein de
ĠL ink
C omm
u gen
g ruppen
Ġp art
Ġr ichtig
zahl en
ĠÃ¼bern ommen
ĠS l
erv let
Service Response
ĠZeich en
aly se
el se
ĠEinwohn ern
f ort
Ġm ark
Ġdef in
ĠNutz ung
ĠLou is
M e
Ġz eig
Ġr ich
Ġbel ieb
Ġp ort
Ġp reuÃŁ
Ġgr Ã¼n
lau bt
S ec
Ġbeteil igt
C om
O P
o us
ĠS S
ĠSo uth
ĠUnternehmen s
is D
Con tr
med aille
ĠverfÃ¼ gt
ĠDiv ision
Ġsod ass
sch ine
Ġm m
ĠÃ¼ber geben
stÃ¤nd ige
R uft
n itz
ĠG ust
| }
Ġ euch
Â «
ĠS amm
Ġkosten los
p oint
z ur
R eader
ĠAn gaben
Ġsei en
Ġumf assen
ĠIn ner
ĠRad io
ĠB ig
iel le
res ource
h el
s es
ĠFot os
b rit
ul en
enz t
Ġ1 000
Ġs ah
Ġb ein
Ġa c
mittel n
ĠBen utz
ĠB ab
Im age
ĠFot o
l eit
or ten
ĠJ ob
alis ierung
ĠL Ã¼
Un it
ĠSoc iet
u z
ĠC amp
id a
ĠMo dern
K arriere
ĠG attung
ĠStr af
I M
at ung
auf trag
R A
Ġd igit
Ġverl or
n ey
p ed
Ġb uffer
ĠH oll
ro ffen
Ġ192 8
ĠBez irks
======== ========
ĠAb st
pts Ã¤chlich
B lock
p ack
er o
ĠA v
at ik
ĠChrist oph
le hn
ĠVorsitzen der
ra w
Ġl aut
ĠSt ahl
Ġwest lich
ur a
ĠP la
ĠU N
ĠSp anien
ommer ce
ĠZ uf
B ahn
w urf
ĠS icht
Ã¼ ste
sp rÃ¼
Ġtr agen
ĠIm m
Ġch ines
. "
on ym
Ġb au
ĠM Ã¤dchen
ist ent
ĠVer br
ĠFÃ¼r st
Ġstatt f
ĠLeist ung
ĉ ĠĠĠ
ĠMus iker
Ġgesch rieben
ĠArchite ktur
r ats
N eu
k ret
ĠS up
Ġdurch gefÃ¼hrt
Ġschw ed
Ġerziel te
ĠS ing
ĠBetrieb s
Ġregel mÃ¤ÃŁig
ĠW etter
ĠFamilien name
ĠMath emat
es h
ĠB arb
Ġent lang
wer ks
zeich nung
Al b
l Ã¤nder
W ie
Ġf unktion
Ġle bt
ĠNatur schutz
UR L
ehens wÃ¼rdig
g yp
in sel
ĠW ies
ĠVer fahren
ĠAus stellung
ĠSold aten
Ġsour ce
r and
eb ug
leg ung
ĠStru ktur
Ġ193 2
Ġverm ut
W Ã¤hrend
ĠT hr
ĠN amens
par se
ĠGegen satz
Tracing Enabled
ĠA uff
ser e
iff er
ask et
cript or
Ã¤dag og
B undes
au st
ĠD ir
ĠW ettbewerb
wei te
w echsel
ĠB ill
ĠW es
ĠVer teidig
eich ert
ĠunterstÃ¼tz t
ul ation
ec ts
Ġent st
Ġentsp rech
ĠVertr eter
ĠZust and
Ġ Ã¶stlich
ĠH und
ĠH off
ĠR ek
Ġh al
Ġan s
Ġfol gt
ĠVier tel
ĠB eck
Ġge bracht
get R
ĠTrad ition
ĠL im
ri a
Ġ192 9
st Ã¤r
Ġer ror
ag d
ĠFried hof
Ġt un
is Any
wei le
ĠAut ob
ĠÃĦ n
kir chen
ĠTel ef
Ä ±
ler s
Ġl au
amerikan ischen
Ã¶rder t
l s
p ossible
Ġd ur
it ts
ĠT om
bl att
lÃ¤nd ischen
ad o
iv il
ĠT agen
ĠSch ool
Ã¼n dig
ĠJu den
AT E
z Ã¤hl
Ġun abhÃ¤ng
az in
isAny TracingEnabled
b yte
all owed
vers ion
ĠFl or
Ġzun ehmen
Ġges etzt
Ġaut omat
ĠS ar
ĠM ul
ĠW ach
b as
ĠC up
Ġst aat
Ġexten ds
ĠK as
ĠK ammer
ĠO ff
ĠDÃ© partement
Ġvermut lich
5 3
h emal
st Ã¤d
T P
ĠSicher heit
E urop
r ig
ĠD ank
ĠWer te
d ar
ĠMar c
ĠR Ã¤
Ġg uten
ĠSch war
g ab
ĠF arben
ĠG Ã¼n
Ã¶ nen
ver se
ĠArch iv
ĠErgeb nisse
K reis
pf el
lei tet
Ġerh eb
ĠG Ã¼ter
M ethode
P reis
f ace
ĠWei hn
ĠBran denburg
M ode
ĠS ec
Ġer inn
Ã¤l lt
ĠNeu e
ĠBez ug
ehenswÃ¼rdig keiten
a ster
i ar
B ase
N eben
an ischer
Ġro w
zie hen
lav ier
p osition
ĠM as
ĠK arten
ach ts
Ġk or
ass ungs
S G
n ern
Ġm atch
ĠSpez ial
ge d
for men
ĠW issen
ĠSch les
Ġ3 00
ĠLand schaft
D I
T arget
om ent
ra te
ic y
Ġander er
gang s
ĠS ingle
P olit
ie gen
ĠK lass
ĠI st
mit glied
eth oden
ĠBÃ¼ cher
Ã¼ m
ok e
Aus zeichnungen
ĠM ot
ĠVerwalt ung
ĠL ive
re en
ĉĉĉĉ ĉĉ
n ess
Ġin tegr
rei g
ĠMet all
P os
Ã ¢
Ġ user
wie sen
K E
ĠF ernse
ĠH y
ĠL os
ĠÃĸ l
Ġn utzen
ĠN av
Ġdi ent
ĠTechn ik
B and
Ġh ave
ra f
Ġt ats
ĠEl is
ĠIntern al
Ġj unge
geh Ã¶
Ġbesch rieben
Sel ect
v ier
er m
Ġw ww
Ġver lieÃŁ
Ġin form
ist isch
Ġrel ativ
Ġlin ks
Ã¤s ser
ĠerklÃ¤r t
Ġein st
ĠH ir
ver lag
Ġst ieg
E Object
r ing
in ar
Ġver antwort
Ġl ast
G et
Ġs uchen
ĠP a
ist ry
Ġ192 6
e ar
Ġber eit
Ġfer tig
B ean
Ġum fang
ĠSpiel zeit
red it
Ġbrit ischer
ĠB il
age gen
Ġkl ar
Ġhau ptsÃ¤chlich
ĠW issenschaften
ĠN ummer
ĠZentr al
Ġk aufen
Ġsol che
Ġangeb oten
Ġsogen annten
Ġver gleich
ri ge
Sp ec
ĠF in
ĠDeutsch er
Ġbeleg te
ĠC entr
Ġâ Ĥ¬
N ieder
S U
ĠT Ã¤tigkeit
ĠIn vest
gel assen
Ã¶st lichen
sie he
o tion
Ã¤n e
ti st
ĠW echsel
od or
ĠMann schaften
Ġsch war
anz e
ĠComp uter
y pen
ĠA ud
ĠBer eits
Ġdar in
ĠSo ftware
ikan ische
ĠS ach
ver trag
Ĩ Ĵ
au ran
ĠF ak
eim ar
Ġwieder um
ĠHau t
Ġcon fig
Ber lin
ĠU p
Ġausge tragen
ĠBraun sch
au pt
ĠVor der
ĠInter esse
ĠDan iel
Ġs k
gew icht
Val ues
und le
sp ann
Ġ} );
Ġweiter er
m acht
ur y
ĠFir men
Ġj ungen
ĠFrei burg
f alse
ĠS ib
ĠD irektor
ĠW affen
Ġgesch affen
Ġpar se
ĠB ra
Ġ3 6
ĠMa il
ĠS ter
ĠPf lege
Werk e
Ġh ielt
fol gen
ĠeuropÃ¤ ischen
H istor
d as
¿ ½
Ġbet rieben
Ġ192 5
al a
ro und
ã ģ
ĠM Ã¤r
ĠV is
M ark
ĠS at
ĠF ritz
Ġ192 1
wert ung
Verk ehr
c lose
Ġex ception
Z ur
Ġw ider
ĠE vent
ĠEp is
asket ball
ig i
ĠGroÃŁ en
Ġhistor ischen
D B
e den
eil t
ehr t
ĠKon s
ĠT isch
ĠC ast
ĠUr s
d f
Con stra
zeich nete
er te
ĠT enn
ett ings
gent in
T E
g ing
Ġzw Ã¶lf
stoff e
Verein igte
ï ¿½
st Ã¤nde
ĠL A
ck s
ĠHeidel berg
S a
st rÃ¤ger
Ġo utput
ĠâĢ ļ
ĠQu ellen
Bau werk
sub string
d or
Ġgew innen
ĠHinter grund
C ollection
H ier
P RO
Ġex p
Ġwichtig sten
S Ã¼d
ĠM Ã¶
ĠK ey
ind ungen
Ġent deckt
20 17
O l
f rie
ĠL eicht
ĠBl ut
app ing
brit ann
ĠSp Ã¤ter
erk unft
r is
ĠE lem
ha ber
G ER
Ã¶r en
Up date
ĠHom epage
ĠP raxis
Ġtr e
reu en
ĠKomm and
gef Ã¤hr
5 1
Ġn ied
ĠArb eiter
h or
Ġer l
ĠNational sozial
ĠRef orm
h ungs
r el
Ġm ag
ĠK up
ĠO ffiz
ĠAn teil
ĠAl fred
ĠPat ienten
Ġentsprech end
C l
ĠH aar
ĠReg isseur
ĠSchul en
ĠFest ival
Def ault
forder ungen
Ġd ec
ĠD igit
gr aben
ĠSociet y
D ir
I s
ĠL ok
gesch oss
wer te
ĠDem okrat
ĠOrg anis
5 7
ĠR ec
ver l
ĠSie ger
AT ION
Ġf uer
ĠT schech
Ġk anad
Ġver treten
ed ia
k or
ĠMa inz
Ġdar an
ten d
ĠL inz
sel ben
alis iert
Param eters
5 8
h agen
ĠGes prÃ¤
A M
x y
sch m
Ã¼ck t
bo gen
Ġgleich nam
w issenschaften
em pl
ĠString Builder
ĠHaupt stadt
c er
ĠD ro
ĠJ SON
ust om
ĠBau ern
ĠKarl s
Ġval id
R ad
v an
ĠH on
ken nen
krÃ¤ fte
n ummer
on ik
ĠS n
ĠNach richten
ĠWebs eite
T echn
ĠG lock
ĠW agen
ĠL ieb
own load
5 6
O ut
Ġver kauft
ĠGr enz
Ġ192 7
A pp
ur ity
ĠT Ã¼b
Ġ4 00
gew iesen
ĠAc adem
ĠEin fÃ¼hrung
iz ierte
E l
c as
ĠD ah
ĠO pfer
ĠAuf stieg
ĠSchw ester
Ġ193 1
klÃ¤r ung
ĠSt atus
geb racht
Ġeinz eln
ĠProblem e
Ä ĩ
Ã¼ hm
ĠO ption
ess el
urn ier
Ġle bte
ĠBesch reibung
ĠStel len
ĠM ount
ĠT ype
Ġg Ã¼nst
iel len
par e
Ġbest immt
Option s
Ã¼hr ung
tig ten
ĠAd olf
ĠFÃ¼hr ung
s m
in ce
ti scher
ĠMa ster
ĠDar m
Ġm ilitÃ¤r
Ġh Ã¤lt
mar y
5 2
R ecord
un t
fer enz
il dete
Ġt Ã¼rk
geb ote
ach im
Ġg anzen
Ġc olumn
Ã¼r f
rie ster
ĠHand els
schau spieler
d urch
Sch wei
Ġfol gten
er er
er be
Ġ1 20
sp ir
Ġr ein
ichte ten
m ission
z ul
ĠPro zess
F unction
cc ount
arch iv
Ġwich tige
ĠStu denten
Ġunmittel bar
B esch
Str a
ev ent
ĠHein z
fan ter
p o
at is
gen er
ach tet
Ġi tem
Ġm einer
ĠP ier
ĠN ic
Ġbe an
ĠÃ ī
Ã¼tz t
UL T
ĠB u
Ġ19 10
ĠGel Ã¤nde
wind igkeit
5 9
ĠB ist
ĠR eb
get Class
ĠSte fan
ĠKap elle
ĠN Ã¼rn
Ġl ength
tel l
Ġbestimm ten
h och
p os
ĠÃ Ĺ
b a
p rÃ¤sident
ĠK andid
ad el
ĠPerson al
lin ik
omm ern
gn ore
ĠBr em
Ġpar ent
Ġan zu
ger s
ĠKl assen
d essen
ĠT iere
om et
pl y
Ġverl Ã¤uft
ĠD ev
ad rat
Ġun bek
ay out
ĠHau se
Ch ange
Ġverlie hen
ouver ne
deut schen
Trace Component
ĠS um
ĠM ission
ĠK lavier
ĠH eute
ĠLand wirtschaft
ĠdÃ¼r fen
Ġs ynchron
ro t
ĠAuf gabe
Ġpro perty
ch ten
ĠK iel
se x
lie fer
denk mÃ¤ler
West falen
Ġv Ã¶l
Loc al
S k
] ,
Ġge halten
Ġver fÃ¼g
vers ammlung
Ġgew onnen
Ġzerst Ã¶rt
ĠM ur
ht t
ĠTem peratur
as p
Ġaus ger
ĠStr eit
reg ierung
gangen en
ĠBesuch er
f ilter
Ġd ep
ĠP rom
St adt
ÃŃ n
s ein
an isch
as ure
ges p
ĠÃľ berg
P S
st ab
ĠW M
ĠT ore
Ġo per
ĠMat th
mÃ¶ gen
ĠVo gel
C ontainer
O b
u age
Ã¤ den
Ġ ter
an i
ĠK rim
Ġer baut
Ġ192 3
ĠPap st
Ġprom ov
Ġ{ }
Ġaus geb
E hemal
st ed
Ġs agte
Ã¶ hne
tr Ã¤t
Ġb lock
ist enz
iter ator
Ad resse
fr ist
ĠM and
Call back
ĠL eit
ĠFran cis
ĠDar Ã¼ber
ĊĠĠĠĠĠĠĠĠĠĠĠĠ ĠĠ
ĠRich ter
Ġwahr scheinlich
ei ben
ĠW appen
ĠStand ort
Ã ½
el and
l uss
Ã Ħ
ĠT e
ĠVer halten
ĠÃ¼ber wiegend
ĠGrund lage
Ġwen igen
ĠJak ob
it le
ent al
Ã¶r de
ĠBew egung
T hread
Ġsch warz
Ġet c
Ġeng ag
p ace
Ġbe endete
Ġlie fert
minister ium
el ement
Ã £
ĠK ritik
ĠAuf bau
b uild
ĠAus s
ĠFl Ã¼gel
Ġitalien ischer
v olle
ĠL y
Ġver pflich
Ġ192 4
ĠKomm ent
Mus ik
B l
Ġw eg
Ġl ok
Or g
we der
tr o
la zz
ĠAus druck
ied lung
ĠAng riff
ĠSow jet
ĠW eil
Ġerst es
z ern
at oren
ĠH ab
ĠMeister schaft
ĠL ig
Ġ19 12
Ġar ch
rik t
ĠDreh buch
ĠScien ce
ĠPar am
j or
Ġverl assen
ĠKar te
ĠS ign
ĠBes atz
ĠTran sport
sch te
Ġer fahren
gebie te
v a
Ġ ti
ĠG rie
un e
u til
Ġ Ã¶
ĠK a
ĠV ort
Ġtr an
st echn
as on
ĠEr inner
Ġunterschied lichen
ard s
ĠBei trÃ¤ge
F r
w ander
ĠY ou
Ġausge stat
Ġversuch t
ĠGust av
c ol
Ġp rivate
ud es
ĠSer ver
5 4
b i
c ar
w al
Ġg roup
ep ar
Par ser
ĠSommer spiele
ie hung
ĠK och
ĠT ar
In d
ĠRo yal
ar tet
der t
ĠO x
ĠEn gel
Ã¼l len
ĠSti ftung
arian te
g ern
g Ã¼l
ĠG alerie
Ġkompl ett
ĠR is
Ġle gte
Ġsetz en
Input Stream
T O
c ed
d t
g au
ĠH eer
ĠV om
p end
ĠC oun
Ã¤nd ler
Ġarb eitet
ĠermÃ¶glich t
T R
ĠAn wendung
Ã© e
echs eln
din and
ĠGÃ¶tt ingen
art h
Ġsow jet
ieh ungen
at o
ip s
Ġbet rug
Ġch ild
ĠĊĠĊ ĠĊ
stÃ¤nd igen
Ġin zwischen
Ã¶r den
r aten
u gend
rie be
ĠElis abeth
ar ischen
et ing
ĠF ein
ĠRev olution
R em
tr ans
ĠVer lauf
get Type
20 10
St yle
Pro vider
Ġun ten
b aden
Ġle er
ĠAller dings
britann ien
G roÃŁ
Ġ3 8
hl en
leg te
o sen
ei sch
ĠK ult
ot ten
ĠOr te
schul en
ĠS PD
au x
ĠE reig
ĠGeburt stag
B is
F ol
av en
ennt nis
Ġdarauf hin
ĠW unsch
Ġvor bei
ĠHer steller
Ã¼l l
ĠMor gen
c i
Ġb uilder
Ġ3 4
arr en
ĠA sp
Ġ3 3
ĠIs land
ĠLeist ungen
ĠChe f
ĠAustr alien
B ox
n ational
it ur
Ġge bild
ĠO ut
sh eim
ĠBo x
ash ington
Ġhel fen
Ġ ;
ist an
geb nisse
tig es
amer ika
ĠE ck
ac ter
ĠGew inn
Met adata
par ator
st ern
ĠP orn
ĠRe al
gemein den
wo od
Ġir gend
exik on
ĠPhilosoph ie
I G
d ouble
ĠB yte
ĠK urt
ĠÃĸff entlich
h u
k g
Ġd re
Ã¶ der
Ġp riv
Ã© s
ĠDat ei
Ġmittel s
Ġd ritte
ĠIn halt
leist ung
( '
O ffset
k ultur
ĠK assel
ĠHo hen
ch mal
al ys
ĠD ate
ech te
Ġ15 0
zu stellen
ĠEntscheid ung
ĠM em
om ain
Ġher gestellt
Ġbet re
ĠÃĦ r
Aut or
Weiter e
y er
ĠVer m
ver fahren
ĠBeruf s
ĠTurn ier
Ã ±
ĠK enn
ĠE du
ĠN a
Ã¼t te
Ġverb reitet
II I
ĠNik ol
Ġ old
is on
ĠObj ekte
c ul
ĠC O
ot a
Ġheu tige
lob al
ĠS ym
ar re
lin ien
19 45
Ġunter such
gr Ã¶ÃŁ
ĠgrÃ¶ÃŁ ere
B ild
Ġin itial
Ġo ffset
ue ber
ar tige
ĠP au
G ruppe
or et
A ug
t eile
ĠIn gen
ick s
Ġentspr icht
B est
Ġz Ã¤hlt
ĠZ eiten
ed ig
pr et
C C
L abel
st ift
ĠE ss
ĠB lock
ĠT Ã¼rk
ĠAb teilung
Ġbesonder e
ĠwÃ¼r den
R oot
f ur
Ġf e
ĠS on
rÃ¤ ume
ohn er
Qu ellen
Ġbek annten
ĠSchm idt
ĠmÃ¶ch ten
us ion
Ġh eil
ĠSchw eden
leist ungen
ĠMos kau
ĠG rad
is ierte
fra gen
ĠgeprÃ¤ gt
Ġder zeit
ĠR ath
Ġersch eint
ĠSin ne
j ava
Ġ eb
Ġ( "
Ã¶ ss
20 14
ĠKÃ¶nig s
Ġ192 2
ĠBeh andlung
i od
gel d
gew Ã¶hn
Nach dem
ĠBild ungs
Ġeinge stellt
u ell
Ġd agegen
ĠM ol
ĠH Ã¤user
Ġst ets
ĠBr Ã¼cke
ĠGer hard
ĠIde e
st Ã¤tten
ĠT own
Ġp ost
rÃ¤ f
ĠSti ft
ĠU ser
ĠB re
sp ar
Ġsp ec
R L
ir d
ĠLe on
ĠLu x
ĠauÃŁer halb
Z um
ĠW erb
ot o
Ġbek am
oper ation
F rank
L in
sch uhe
Ġf ilter
akt or
ĠMet ern
w an
Ġent stehen
ĠGew icht
k lass
k omp
ĠB Ã¤
is Entry
ĠH it
ĠC orn
Ġher r
ĠC a
ĠRech te
Ġob wohl
ĠBraunsch weig
isEntry Enabled
ĠLauf e
ĠhÃ¶ch sten
Ġb itte
de st
ĠH afen
ĠI f
ĠMittel alter
ĠSicher heits
Str u
ol s
ĠSch ne
ĠHÃ¶ hen
ĠB rau
Ġin tens
ĠF ass
ĠP ubl
io us
ĠIhr em
ĠMen ge
Iter ator
sp er
20 15
Ġdeutsch sprach
') ||(
n ant
ie m
il en
anz er
fer ence
ĠAut oren
ĠGeh eim
ĠB rief
sp or
ĠOr tschaft
Ġgen annten
ĠWider stand
ĠVer anstaltungen
20 16
th ur
gesch rieben
wahl en
deck en
< >();
Ġw id
Ġo ff
En um
ĠsÃ¼d lichen
ontin ue
k opf
eit ag
up pen
Ġmehr fach
ĠKon fl
Ġ190 8
Che ck
y g
or der
ut or
ant as
rech er
Ġmax imal
ĠErfahr ungen
tr at
Er baut
ĠgehÃ¶r ten
glieder t
ĠRhein land
ĠTÃ¼b ingen
an er
Ġw issen
Ã¤ her
ĠIn iti
ĠEr weiter
ĠAb schnitt
List e
Or der
z un
ar zt
ĠH ttp
ĠFlug hafen
ĠjÃ¤hr lich
Ġs agt
ir che
ann en
Mod if
F uture
Z eit
k osten
or weg
D ollar
T V
ĠG olden
lan de
Ġb i
ĠM un
bo x
ge legen
ĠK rank
Ġp lan
ord s
Ġviel leicht
dien ste
au d
ĠD Ã¤n
glie dern
P AR
h ler
on ien
ĠR am
ow a
200 6
P an
] );
p hen
ch em
ĠS uch
Ġ19 17
Ġgesp ielt
b ul
ur es
Ġ19 11
ĠJ os
arb e
ĠWir kung
Par ent
R ec
n etz
w es
as er
Ã¤n ner
Ġdar gestellt
Ġerw arb
Ġinternational e
Exec ution
ĠE ff
ĠEin trag
Ġ190 5
5 00
s Ã¤tz
ĠB ol
ĠIl l
ĠS end
ir ge
ow ski
Ġle bten
Ġcon tent
LO G
Ġgegeben en
Ġ ass
ĠL ieder
ĠEn gl
20 11
Ġkann st
amil ien
ĠAll gemein
ĠSied lung
ĠWohn ung
s achsen
Ġw uchs
hand el
ĠBas el
ĠVor gÃ¤nger
Field s
zip lin
z o
ge fÃ¼
em ark
teil en
ĠFer dinand
len burg
ĠFor st
ĠFr ont
gem eine
P ER
ĠW ag
Ġl etzt
l Ã¤uf
omb in
D P
m ack
tr ack
N O
hr e
ĠR ing
Ġge z
Ġauf gerufen
ĠRest auran
leid ung
Ġrem ove
ĠKonz ert
Ġmoder nen
k tiv
an en
ĠS eb
Ġf lieÃŁ
ak er
Ġander s
weg s
Ġproduz iert
ĠD Ã¶r
Ġer kennen
Ġan ti
ĠDeutschland s
ĠKn oten
Ċ ĊĠĠĠĠĠĠĠĠĠĠĠĠĠĠĠĠĠĠĠ
st ad
ur al
Ġges ehen
ide os
ĠHo use
ĠPort ug
ĠrÃ¶m isch
oci ation
f abrik
ĠSch riften
ĠP unkten
ĠR ab
Ġt able
get D
++ ;
Ġunterst Ã¼tzen
ĠG all
ĠL am
ĠNord rhein
Ã¤hn ung
ĠÂ §
ĠOb serv
Ġw ert
ĠB row
ĠH ard
ĠSt off
ĠAuf grund
Ġar gs
ĠSchn itt
Ġzu erst
In valid
ĠSchau spiel
Ġbr eit
Ġh il
B oolean
n s
stell te
ock et
co ver
O p
t ml
au ff
ab les
ĠÃ¤hn lich
S ti
ĠAr zt
20 12
Ġbr ingt
g roup
st uhl
ĠL ad
ĠUnter richt
Ġhin gegen
ĠVic tor
m ung
u id
et work
Param s
ĠFranz Ã¶s
B A
H ash
W arn
Ġm ass
Ġg alt
ĠFeuer wehr
ĠEuropÃ¤ ischen
ĠVer hÃ¤ltnis
ĠHen ry
n ode
ĠE ro
ĠZ ul
Ġc lient
ĠBern hard
c r
Ã º
th eit
D A
sch loss
Ġt op
ĠJahr zehn
Ġges etz
off iz
sch auer
ĠT ime
ik ations
St ack
ĠVor aus
re a
Ġh eader
ĠTeam s
Ġengl ischen
ĠSonn tag
Ġfin ally
Ġd auer
un c
br Ã¼cke
ĠGra fen
Ġgef Ã¤hr
T im
w ach
Ġz eich
Ġzu gleich
og n
Ġamer ikanischen
ĠjÃ¼n ger
ĠS ituation
ĠG ru
ĠL aut
Ġ6 5
W ind
ĠR ost
Ġab geschlossen
res ent
ĠÃ¶sterreich ischen
fel der
Ã¼n der
ĠBr asil
b orn
f assung
ĠA str
Ã© n
Ġbrit ische
mÃ¶glich keiten
s eit
ess ages
H L
ol o
uch ten
Ã¶r ung
Ġqu ery
Ġkur ze
P T
ĠC lau
Ġan ges
ER R
200 9
ĠTro tz
I OException
m ord
ĠI T
ĠC r
Ġan erk
D igit
Å Ļ
Ġge eignet
ĠRes erv
Ġval ues
Ã¤us ern
h i
Ġ Ã¶ffentlich
Ġb lau
Lo ader
Ġausgestat tet
it hm
ĠTh Ã¼r
200 8
ra gen
h men
ĠS or
ĠP eters
Ġk ultur
M o
k rieges
ĠâĢ ¢
Ġch rist
M A
20 13
Ġverw enden
ĠZei traum
ag ne
por ted
Ġerweiter t
st ation
at al
Ġw eist
kon om
N ord
Ã ´
bild ungs
Ġmus ikal
Ġhoch wer
Ġlin ken
ĠD ol
Ġp re
ĠEr de
ech ts
Ġverantwort lich
s With
Ġ( ,
ĠK rÃ¤
ĠP resse
ĠH immel
ĠSch uhe
ert ung
ĠAuf nahme
ĠFr em
ĠInform ation
. ),
z in
Ġd Ã¤n
ĠFahr zeuge
Ġâ ĨĴ
Ġ ehr
al te
Ã¼ mer
Ġer gÃ¤n
ind ustrie
ĠPro te
ack en
ĠBron z
ie den
on ischen
ĠG ir
elt a
av or
alis mus
ĠCar ol
ĠFrÃ¼h jahr
ig r
Ġsch lech
ĠEin ige
ĠEd ition
produ ktion
Oper ation
ĠOr dens
omm un
reg ion
ul ts
Ċĉ ĠĠĠ
orden s
ĠDaten bank
H T
im ple
Ġa v
ĠĊĊ ĠĊ
Ġs agen
ĠH ill
ru he
ĠBundes liga
bo ten
ĠGl Ã¼ck
ĠMÃ¶glich keiten
Ã£ o
R ead
Ġwir kte
gr enze
ĠTeil en
rech te
ĠInter view
UR I
Ġstar tete
o ugh
ro chen
ĠSo und
ĠBl Ã¼ten
ĠGroÃŁ britannien
meld ung
s ur
er weise
Ġw under
Ġh eim
ĠZ us
Ġverst Ã¤r
Ġweit gehend
Me asure
Ġ one
Ġbe ob
onn e
ĠBei de
ĠK ron
ĠUn ternehmer
Ġent gegen
bau er
ĠGroÃŁ e
value Of
ĠEhe frau
ĠW ashington
ĠI N
Ġge mÃ¤ÃŁ
iel l
ĠLand tag
ĠgrÃ¶ÃŁ eren
hand lungen
Ġzeig te
ĠL aw
Ġl ock
Ã¤hl ten
ĠFor men
m aterial
ĠV iele
mer ksam
Ġbest Ã¤
ian o
eck lenburg
t op
Ã ¥
ter e
Ġl os
d b
l Ã¶
ĠS C
Ġs ech
Ġf ac
ĠZw eit
Ġbestimm te
ĠvÃ¶l lig
i ber
z ell
Å «
Ġj em
ste ck
Ġre duz
Ġbek omm
hÃ¶ he
p olitik
en tim
st Ã¼cke
at alog
ĠZ ahn
Ã¤n en
Ġc onnection
ĠInternational en
L ock
Ġm ust
ber eitung
ĠEr satz
ĠErfahr ung
rei f
Ġc o
get eilt
Ġsch eint
Ã¤mpf en
ĠKÃ¼ che
Client Exception
P o
t ok
op tion
prÃ¤ sen
R ow
ĠP riester
att form
ĠStud io
ĠGrÃ¼n den
ĠnÃ¶rd lichen
ĠbeschÃ¤f tigt
is en
ĠR od
Ġg o
D el
ĠB ett
ĠL ind
ĠR ezep
Ġg ingen
Ġat tr
ĠTod es
son sten
C al
z ust
Ã ł
Ġs ession
ĠF al
ĠVer antwort
N on
ĠAl tern
Ã¤hr ung
con text
Ġwei b
Ġrech ten
Ġs ystem
ĠWir k
Ġwest lichen
č ĊĠĠĠĠĠĠĠĠĠĠĠĠĠĠĠĠĠĠĠ
um pf
j en
om a
omin iert
T op
ri p
B utton
ĠD rit
ik on
ell o
ver treten
ĠÃ¼ber haupt
pf lege
ĠMon at
Ġloc al
re form
200 5
fra struktur
ĠSalz burg
k Ã¼nf
Ð º
ĠD E
ĠD ichter
ten sion
Ġent weder
ĠLie fer
bez ogen
gest altung
H ost
g g
h em
it es
ĠVer d
ite in
Ġkomm un
Wir tschaft
Ġentsprechen den
ĠHaup tr
ĠL oc
Ġk Ã¼nstler
ĠLeist ungs
J vm
r t
Ġein gesch
ĠK athol
Ġ19 15
ip pe
Ã¶s ungen
ĠPfarr er
ĠPfarr kirche
mÃ¶ glichen
ĠfrÃ¼her en
Ġmittler weile
ĠBund est
Ġbeein fl
Ġ q
ĠG eg
ĠSp ann
pf licht
Ġbeg onnen
ĠWeltkrieg s
M ember
R un
f amilie
ĠF isch
sk a
ĠUl rich
Ġop ti
st he
ĠR ail
ĠI P
se ud
ik o
all er
w ischen
Ġl eitete
G ew
g Ã¤nge
ĠW ett
ĠN ahr
ĠIn tegr
ĠBild hauer
ĠHam burger
oot ball
ĠhÃ¶ch ste
p erson
ei ÃŁ
Ġge kommen
Ġsp rach
pl Ã¤tze
ank e
Ġerst reck
Ġ190 7
ĠGesund heits
Ġtre ffen
h orn
il ian
sk y
org anisation
isD ebug
2 000
k unst
ĠK ath
ĠMan agement
Ã¤h ler
D oc
ei ert
em it
ĠG as
ĠW eimar
P attern
ĠAl pen
Ġweiter es
Ġsogen annte
Ġer le
ĠO k
sp iegel
ĠIns gesamt
ĠAcadem y
ĠT ok
Ġp erson
Ġmen sch
ur i
sp ek
Ġdah in
ĠArchite kt
D S
W idth
ĠB a
ver stÃ¤nd
od ing
ĠFlug zeug
h aben
Ġs icht
ĠKap it
ĠArchite kten
ĠD ampf
ĠSp iegel
mer kungen
p aar
ul pt
ĠKomb ination
Hel per
k arten
ol er
ĠUn garn
ĠVerÃ¶ffentlich ung
ĠA R
ĠB reite
ĠP ersÃ¶n
den ken
čĊ čĊĠĠĠĠĠĠĠ
rap per
Alb um
Ġn eg
Ġz Ã¤hlen
ĠG roup
ff e
Ġst anden
mal er
n icht
ĠVer Ã¤nder
get Key
- )
200 7
ĠComm un
ĠFe der
ĠJac ob
ĠJ Ã¼rgen
ĠEr b
ĠSÃ¼d westen
ĠInter essen
w Ã¤l
Ġn utz
ri b
Ġc ode
fÃ¤l le
p a
ĠBl att
It alien
D ouble
T I
ĠSch on
ĠMaÃŁ nahmen
ĠM auer
Ġge zeigt
ap ter
ĠAt hen
b ilder
j i
etr ic
Ġwes entlich
ĠFÃ¶rder ung
ĠS dk
ren nen
ĠErz Ã¤hl
ĠDeb Ã¼t
Ġsynchron ized
st ream
Ġruss ischen
c en
Ġs ucht
Ġc ount
auf hin
Besch reibung
ĠS ur
ĠZ eu
uÃŁ er
fer tigt
Ġur l
Ġunterschied liche
**** ****
W ork
Ã¤ st
ĠV an
ĠNord osten
haf te
Ġitalien ischen
Ġd or
Ġ19 13
ĠWei ÃŁ
ĠWies baden
Ol ymp
n t
ĠS inn
au p
Ġver h
stell ungs
Ã¤l de
lei hung
ĠHistor iker
D isk
Ġ rad
ĠD eck
D en
ei se
af el
ĠGew alt
Ġprof ession
in ess
time Exception
Ġt ief
ĠÃľber setzung
ĠSchiff e
Ġeinger ichtet
g u
ĠE st
ig ner
af rika
Des criptor
ĠKommun ikation
ĠSdk ClientException
g rad
ĠB an
Ã¤n k
end a
az on
ĠJo achim
ĠAd els
ĠMon aten
U I
Ġver sion
ĠUn abhÃ¤ng
ĠKon zept
Ġ7 5
ĠGÃ¤ ste
b ad
o ks
st eiger
ĠS ab
ĠW ohl
rei ter
ip ps
ĠFilm s
Ġben utzt
p ft
et ts
ĠD ouble
Ġk einer
ap pe
lie d
ĠTeil nahme
ouverne ur
isDebug Enabled
Ġ use
il er
Ġp os
ĠEr zie
aus stellung
Ġ190 6
) {
B o
y e
ĠE ind
sen de
Ġpro cess
ĠFig ur
ĠT ir
ick e
H E
p olit
ĠP DF
Ġf ehlen
ann ter
rich ter
Ġend gÃ¼l
S A
ĠW Ã¼rz
ohn t
ĠErz bischof
F unktion
f rom
ĠK rieges
der ungen
Ġr en
ob ile
Ġl ern
ĠIn fanter
wir kungen
Ġ190 9
Ġbel egt
Fe ature
iw od
k ern
Ã ĥ
ie fe
ei tern
Ġs amm
ĠP rÃ¤sidenten
il s
fur ter
ĠD B
Ġn um
ĠK ro
ak a
Ġre qu
th or
ĠF o
ĠE ast
ĠN ode
Ġver sehen
ĠIn dex
iz enz
Ġlie f
State ment
S O
c ia
er ben
ist e
m ir
in zen
Ġn umber
ĠMar ie
ss ystem
Ġber Ã¼hm
sb ach
ĠMag de
ĠnÃ¤ch ste
L ast
i Äĩ
u elle
in os
ĠSch ritt
lie s
hol t
ĠRÃ¼ck kehr
ĠElem ente
un a
Ġp op
Ã¶r ter
rup p
ĠBest e
olum b
ĠP ok
Ġ4 2
htt p
Ġl Ã¶
iz ieren
if ft
ĠBÃ¼ ro
ĠFunktion en
E Class
ĠB ass
Ġb ildete
Ã¶ z
op old
ĠDurch messer
ĠMax im
ĠSim on
ĠM ach
Ġt oken
Ġver wand
Ġ4 8
ho uld
T eam
Ġber ichtet
ĠEx empl
con fig
ĠÃ¼b rigen
itein ander
ĠThe ologe
Ġen dete
ĠEng agement
il ien
ekt ar
ĠQu er
ĠTex te
Ġv ari
ĠH erkunft
ĠR oll
ul gar
ill on
trÃ¤ ger
or es
at i
ĠT anz
Ã¶ ÃŁen
ĠN un
Ġnah men
bÃ¼ cher
" ).
t arget
Ġ Î
Ġf al
ĠN och
od urch
ĠNÃ¼rn berg
F ound
Ġd isk
ĠD auer
ĠW a
Ġh Ã¤tten
arb urg
Ġ/ *
Ġre f
mit h
ĠFahr er
ĊĠĠĠĠĠĠĠĠĠĠĠĠĠĠĠĠĠĠĠĠĠĠĠĠĠĠĠĠĠĠĠĠĠĠĠĠĠĠĠĠ ĠĠĠĠĠĠĠĠĠĠĠĠĠĠĠĠ
ĠV illa
ĠBet eil
Ġpar ams
ĠD ialog
ĠG lauben
Ġvor gesehen
fÃ¼hr en
ĠAd el
isp lay
V ariable
z wei
hrow able
Ġgemeins amen
ĠS us
ĠK Ã¼n
Ġf Ã¤llt
ell schaften
Ġeinz ig
ĠEben e
ĠUS S
ĠBundes republik
ĠAutom obil
ĠAus land
Ġar gument
Ġober en
ĠSchwer punkt
ĠDah er
Stra ÃŁe
Ġ ueber
Ġs org
ĠSch lieÃŁ
Ġp ubl
ĠHer stellung
Ġber uf
ĠThe odor
Ġro ot
hei mer
ĠGre en
kathol ischer
Ġf eier
ĠL Ã¶sung
Ġk o
he ute
ĠEin heit
Ã¶ff nung
vor sitzen
ĠRef er
M eister
S egment
ei fen
Ġer stellt
ĠB ier
ĠT rau
Ġr Ã¼ck
ĠSp itze
ĠGeb ur
zug s
ĠSeb ast
P lan
v ar
Ã¼ cht
Ġw odurch
Ġb ar
ĠK urs
Ġst Ã¤d
ap el
bie ter
Ġgleichnam igen
p ass
ĠOr den
fl Ã¼gel
Ã¼nd ungs
equ ence
ĠComp any
Ġgepl ant
m ethod
et on
ĠV iol
ĠWe ge
n ers
ab elle
Ġst ream
ĠEurop ameister
ĠGo ogle
ĠAutob ahn
d ach
ar ische
ug o
ĠLin ien
FA ULT
lÃ¤ss lich
m ag
Al le
Ã¤chs ischen
Ġf loat
ĠVer dienst
() ).
ĠStr e
Ġzwei mal
Ġange legt
ĠBrÃ¼ der
ĠDarm stadt
k ammer
Ã¶ t
wei ht
Ġ190 3
Ġaktu ell
klus ive
S yn
Ġs ign
ĠNeu en
ĠNeu bau
zÃ¼ ge
ĠSant a
ĠTelef on
N r
S ervlet
c ast
p ers
u it
Ġau str
lie genden
ak et
ob j
Ġtats Ã¤chlich
B ar
i ode
Ġs ec
is ation
ĠAn trag
Un ternehmen
Loc ation
ĠErw achsen
> ,
st euer
ĠF Ã¼nf
ĠG ymnasium
ĠPart y
Output Stream
ĠÃĸffentlich keit
b oolean
z eigen
exik o
P ass
ĠM ir
Ġm einen
Ġf uhr
Ġ19 16
ph an
Ġdenn och
M en
ĠM und
ĠL abel
Group Name
ĠD ec
Ġm el
Ġbet roffen
ĠMin er
ĠM Ã¶n
Ġp f
Stru ct
B i
d is
enn fahrer
Ver Ã¶ffentlich
Ġger ing
200 4
ĠIs lam
ĠJournal ist
heb ung
k u
y c
am i
ĠÃ¼ber ra
ult Ã¤t
ĠFre unde
Aug ust
D ocument
Ġl eider
ite ktur
ĠMod el
ĠbenÃ¶ tigt
V ol
se qu
ic ro
ran ge
(" \
ĠBez iehungen
ĠGesund heit
o e
Ġver gangenen
Ġ3 7
mann s
Ġexec ute
J son
Ġs hould
ber ech
Ġbest ritt
ĠgroÃŁ es
Ġon ly
Ġne ed
Constra ints
B ack
k op
o ffen
ĠK ing
ig keits
ĠStr and
tiv ity
ĠSh ow
part ner
z um
Ġw and
and a
ĠÃ¼ber tragen
ĠfÃ¼hr ten
Ġstr ing
sted t
T est
ĠF le
B ound
ĠR au
tre ffen
F inal
f ft
ĠD ien
Ġf ound
ĠV it
ul es
Ġp ri
ex ec
k y
n y
w ith
Ġd ein
ĠV aters
ann er
Ġform at
ĠPrem ier
P re
V ar
a ber
b chen
Ġs up
ĠK os
tr ich
Ã¼r en
eu ert
ĠAr ts
In s
ont o
i Ã¨
read y
Welt meisterschaft
B Ã¼rger
Ġ Ä
Ġm sg
Ġh alb
Ġt ask
pl atten
ĠProf il
ĠD adurch
ĠR ap
ĠI ter
B ody
D em
b aus
ĠRÃ¼ck en
arian ten
b n
ar ina
ĠB ob
ĠM isch
ĠEr ich
Er folge
ĠHand buch
ĉĉĉĉ ĉ
ĠKomp osition
Ġdien en
ĠFig uren
on ial
ri an
iz ierten
hal ter
ĠBo ol
wend ungen
Ġschw ier
or age
Ġ190 4
ĠZug ang
L age
ab s
Ġmax im
prÃ¼ ft
ĠPreuÃŁ en
B evÃ¶lker
ĠW Ã¤r
ĠFernse hen
vier tel
R ange
V D
Ġbef ore
ĠLin ks
ĠRegion al
ĠGeist licher
ĠFÃ¤l len
K an
st eine
Ġs Ã¤m
Ġsp richt
ĠFer ien
ĠUntersuch ung
steh ung
z one
ment s
Ġunterschied lich
ĠB ord
ab geord
Ġsch reiben
gel t
man agement
ĠNord westen
ĠSchl uss
Kl asse
zun ehmen
Å ¾
Ġv ierten
ĠH orn
Ġauf gelÃ¶st
Ġgebild et
ort s
ĠMar ine
ĠLand tags
werk en
ĠOber st
ĠRei hen
alis at
Ġentsprechen de
ĠSib Tr
ĠAuf ent
ĠStra ÃŁ
ĠK aff
ĠV iew
lin der
Ġber ufen
Ġexist iert
Polit iker
ĠVer gangen
ind ing
Ġel f
geord net
asil ian
ĠE ur
ĠVer anstaltung
Ġent ity
Ġtr ug
ĠPublik um
Ġm et
ĠE ber
ĠP u
ĠThe orie
fÃ¼hr ten
bahn hof
C olor
ĠH ub
ges sen
ĠGrÃ¼n der
ĠJur ist
Ġsw itch
v ir
Ġn amens
Ġl esen
tern al
Sch riften
Er ster
Ġeinge fÃ¼hrt
ĠLeicht athlet
ein s
af e
ĠKon gress
Ġkur zen
F irst
b lock
t au
Ġb ase
ĠK e
ĠC enter
ĠAn frage
ĠBereich en
ĠAn spruch
hard t
sert ation
iwod schaft
ĠBool ean
U ID
Ġn Ã¶
Ã¤m lich
ĠSpr achen
ĠPartei en
fÃ¤h igkeit
ĠSowjet union
ti z
Ġ4 4
ĠSÃ¼d osten
we ge
ĠDon au
ĠGest altung
ĠS erv
ar ray
Ġn atur
asser t
Ġar ray
ĠZw eck
ĠPor trÃ¤t
dentif ier
m Ã¼hle
ie fen
ar p
ĠF reu
Ġan hand
ĠO ffen
eg al
ib il
ĠEm p
ĠEd ward
Pf alz
k urs
ĠB ibliothek
tr oll
ĠV ar
Ġ3 9
Ġab gerufen
ĠOr chester
c ount
Ġbes itzen
ĠT Ã¶ch
Ġtr itt
ĠChem ie
ĠParam eter
ĠHoch schullehrer
V P
Ġm Ã¤nn
Ġer laubt
ĠEr schein
Ġro t
ĠWeihn achts
s em
Ġsel ber
lig isten
Ġben ach
âĢ¦ ]
Tem plate
H aupt
L iter
sch ef
ĠT ief
Ġp osition
ser ver
Ġab geb
nis sen
En g
Ġverb esser
ĠArch Ã¤
Des cription
C ap
c lu
k urr
Ġc ontinue
ĠFran ken
ĠBo ot
so ap
ĠWeiter en
ĠFrie den
Ð »
Ġs rc
de u
ĠJ ed
kret Ã¤r
K urz
c ause
il a
Ġl en
scha ffen
sicht lich
Ġmod el
B ag
h ar
ut s
Ġver p
ĠIn halte
gesch Ã¤ft
war n
alen der
Ch annel
ĠLei den
ĠIs rael
Ġhistor ische
-------- --------
KE Y
R ed
ĠR icht
St ud
ĠOx ford
Ã¶ ck
ĠL it
Ġer mÃ¶glichen
bo ard
c essor
Ġg eist
ĠSch laf
ĠEin richtung
Ġunter sch
Ġreich t
ĠBrit ish
E ishockeyspieler
j ew
ur l
ĠAn s
ĠZu schauer
ĊĠĠĠĠĠĠĠĠĠĠĠĠĠĠĠĠĠĠĠĠĠĠĠĠĠĠĠĠĠĠĠĠ ĠĠĠ
ĠUntersuch ungen
ĠInstr ument
ĠF Ã¤h
ex it
ĠAuf lÃ¶sung
ograph ische
P ool
r iss
Ġd eine
ĠW Ã¼r
ennt nisse
Ġmed izin
IN E
Ġ189 8
At tributes
ĠIns eln
Ġentst eht
i tem
Ġvor aus
Ġ5 5
ĠEd el
Ġor iginal
D ist
f els
v ed
on ische
op en
Ġersch einen
ĠAngel es
M at
Ġv is
ĠM Ã¼hl
ÃŁ ig
Ġdurch schnitt
ĠGra z
Ġstark e
ĠerklÃ¤r te
Ġscha ffen
z te
ĠP rag
ab teilung
ate ur
Ġab ger
Ġman chmal
Id s
ĠSam stag
ĠGrie chen
ĠEdu ard
ĠRath aus
b uffer
z iger
it ies
ub il
ĠLand schafts
Ġet abl
The ater
l or
l Ã¤nge
ĠG ang
Ã¶ die
Ġun er
zen e
ikan ischer
ma schinen
geh Ã¶r
ĠHer bert
setz te
alb um
ĠDan eben
ĠVers icher
Ġt Ã¶
ĠSch r
Ġp hil
up date
ail able
ar in
or fen
ĠK anz
Ġf reuen
ist s
19 18
gel eitet
Ġpro perties
200 3
unter richt
ĠLauf bahn
Met a
ĠpersÃ¶n lichen
Ġbis lang
ex p
ĠKan ada
D e
t al
ĠM id
ĠJ on
Ġt otal
ard inal
Ġerh ielten
Reg ion
log ger
ĠM ethoden
ĠC amb
ĠEr f
ix el
bew egung
LO W
lÃ¤nd ische
ĠAss ociation
ĠÃ¤lte ste
st eigen
ĠS ig
ĠS Ã¶hne
at in
ĠU RL
V ER
ĠK art
iel en
ĠEm il
obil ien
Warn ings
g reifen
n um
s ource
er ber
Ġw achsen
ĠG au
re st
ul i
Ġentwick eln
ĠInstit ute
ĠÃ¶ff entliche
ertif icate
m essage
et ch
ĠM r
uss ion
ĠEnt fern
ĠFÃ¼r sten
ĠZahl en
emb le
mitt lung
ĠChamp ion
Z E
ĠM ethod
tr an
ech ten
Org anisation
H o
Ġn orweg
ĠU fer
ell i
ĠPro z
fÃ¼hr te
ĠBru st
ĠVergangen heit
r Ã¼ck
| -
k Ã¶rper
at ing
Ġges ellschaft
Ġbeg innen
krieg s
ĠBew ohner
Ä Ľ
ĠM obil
ĠAb itur
20 19
til ler
umen ten
ĠFall s
C ommand
ĠD ata
Ġf ahren
ist ischer
ord net
Ġbet rach
ĠL exikon
ĠIn g
ks h
Ġerforder lich
Ġb ild
gen Ã¶ss
ĠZ un
ĠSt ation
Ġzum indest
Ġum geben
her zog
ĠCh ic
ĠStel lung
ĠmÃ¶glich st
ĠTer min
ĠPlan ung
ĠQualif ikation
ĠL iter
ĠLe opold
ĠSer ien
" ));
E hr
al em
ĠM is
Ġt schech
Ġsp ort
vers orgung
bl Ã¤tter
lehr e
ĠHeraus geber
L ang
M B
y t
ĠM ak
ra ys
ver k
ĠSp ec
qu ery
ĠX ML
Ġstell vertreten
Ġversuch te
Sup press
Ġnotwend ig
I f
T A
h s
p ul
ĠV ik
Ġ189 0
Kir chen
in ken
st um
Ġn Ã¤mlich
le f
ir urg
eu ten
Ã¼t ze
Pl atz
sÃ¤tz lich
B as
v ol
al tete
re den
ais s
ĠBew eg
M O
ĠB ir
ĠW aren
ig ger
ĠKomm ission
ĠgrÃ¶ÃŁ er
At om
b und
c oding
n es
Ġan schlieÃŁ
wei st
ĠBeg r
ĠBayer ischen
Ġeinzeln e
ĠIngen ieur
p re
Ġin stall
ĠL ake
ĠUr laub
fre und
k om
} ,
Ġm iteinander
ĠJ agd
ĠSp aÃŁ
ster dam
id ae
ĠEin richtungen
aus schuss
ĠGer ichts
Ġ190 1
ĠKap itel
ĠAktiv itÃ¤ten
ĠBenutz er
> <
P olitik
V is
d ition
Ġs an
ĠH ell
ĠT onnen
Ġver geben
Ġj ob
fen ster
ĠzurÃ¼ck ge
aff el
akte ur
ĠWo iwodschaft
ĠjÃ¼d ischen
W il
olog ischer
ĠKl ima
ĠSan kt
Ġaustr al
er ten
Ġp sych
ĠRo ten
Ġbet rieb
histor iker
ch est
Ġum ben
ĠTh is
ĠSm art
J uni
t x
al ia
ĠM i
ĠL iv
ĠDist rikt
ĠHash Map
ĠFak ultÃ¤t
ĠNach richt
wer den
ĠOrg an
ĠOrd nung
p ool
w itz
Ġ Ã¶stlichen
Ġk auf
ĠO ne
Ġbesonder en
ĠBevÃ¶lker ungs
Ġstar ken
Ġoffiziel l
ĠGesprÃ¤ ch
ĠMatth ias
ĠA ktu
et he
ĠH amm
ĠT u
ĠC all
ĠEr folge
ial e
ĠWir ken
ĠBez iehung
res ponse
ack er
Ġerh oben
hand lung
Ġor ien
ĠBesch Ã¤f
Ġf Ã¼n
ĠH ockey
Ã¶ se
Ã¶ tz
Ġt au
ev ice
urop a
ĠPap ier
ĠFrie dens
ĠPrinz ip
L S
etz te
ett o
dig ung
D C
ĠG reg
le d
ek tiv
ĠMar ke
Ġgew Ã¤hr
gesch lagen
Ġ< <
// //
ĠOb wohl
ĠKranken haus
L ayout
N E
ĠB asketball
ut nant
ĠCD U
ĠObserv able
C oun
Â ³
sp rechen
int on
br ingen
ĠRe aktion
200 1
deut sche
reuÃŁ en
unn el
ĠHe ft
ĠBesitz er
Ġgelegen en
Suppress Warnings
ra c
Ã¼n den
Ġsp rechen
ĠGes icht
ĠMein ung
F ailed
Ġd ank
iz iner
our s
SD AP
A uth
el en
Sch ema
bo den
ĠFrei zeit
Ġor der
Ġreg istr
ĠFil me
ĠB ade
ĠN ull
Ġver kehr
ĠGegen wart
Ġmein em
F rei
ti ere
ĠGesch ichten
Er st
Ã³ w
w uchs
Ġh ast
ĠAn f
ĠMar ien
onn ect
Ġverschieden er
Ġmodern e
f arben
s or
w ettbewerb
ain ing
Ġwe der
ĠtÃ¤ glich
Pro ject
Ser ie
Ġautomat isch
ĠNationalsozial ismus
D ar
ĠS ak
Ġw riter
ĠM ulti
ĠW in
ĠU kra
Ġun gefÃ¤hr
Ġ18 70
ĠStr ecken
rit iker
itÃ¤t s
ĠBe am
Ġnahe zu
il i
ĠAus einander
ĠGebur ts
ich tigt
ĠM ah
ol ogen
ĠL ern
etz ten
Ã¼ck lich
if ic
Ab sol
ĠGeg ner
ĠMagde burg
B ad
Ã¤ fer
ĠM ecklenburg
se d
ĠBer icht
haf ten
ĠTenn is
H aus
in ia
ĠF ield
vers icherung
Pan el
Ġi l
ĠEr l
ĠSp itzen
pl atte
lowak ei
ahr t
ĠThe ologie
ĠGemein der
mod ell
Chr ist
sph Ã¤re
Intern al
aliforn ien
in ne
Ã¼ pf
ĠMar y
Ġ190 2
Ġkon zentr
ĠRelig ion
C reate
ĠL en
ĠR ollen
ĠSt Ã¤r
sp lan
ĠNational mannschaft
Ġgest altet
ĠR ett
ĠEin s
ĠBr ig
B et
F ran
m auer
ĠS ud
ĠPl atten
ĠBl og
scheid et
ĠGed anken
ĠprÃ¤sen tiert
h Ã¼ter
ĠM esse
ĠN ah
Ġan gesehen
he d
me er
stra ÃŁen
ĠMon ument
ĠMuseum s
) ");
P O
l eiten
en gl
ĠH ow
ĠT au
id s
ĠEin sch
gr enzen
Ġzunehmen d
ĠWÃ¼rz burg
ar io
ar tigen
Ġb lieben
ĠL ove
eb ook
wei ler
la in
ch ip
ĠA st
Ġm aÃŁ
ĠK le
ol z
ĠW it
us se
enn e
lo k
ĠGr enzen
ĠLu c
Ġeinz igen
rid Bag
spl atz
Ġus w
ĠHelm ut
l it
at ische
ĠGeb rauch
Ber g
ĠEigen schaften
ĠrÃ¶m ischen
ĠPier re
t Ã¼mer
ĠT it
ĠR umÃ¤n
eb el
ru e
ĠSchl Ã¼ssel
ĠEntwick lungs
ĠverfÃ¼g bar
y an
ge tr
ach ed
us en
ik i
Ġ4 1
ĠVor stand
ĠBahn strecke
gra f
Ġb auen
ab et
ĠJuli us
ĠInd ien
Ġs orgen
sp f
if y
ial izer
anz ig
ĠWelt meisterschaft
ĠFor um
ĠOper ation
ent in
osit ory
ĠMathemat ik
f ind
n chen
u ccess
Ġp o
ss on
ĠGener ation
Ġkathol ischen
z ung
ĠForm el
Jahr en
P ersÃ¶n
m ie
r ang
sp ez
Ã¤r ten
gr ab
ĠBer atung
ĠBr enn
ĠLe der
leg ten
Ã¶rder ung
ĠEing ang
ĠPfer de
ĠBarb ara
b reak
g round
Ġf ein
ĠR uf
ug ies
her ren
ĠFl ucht
ĠBen ed
Ġklass ischen
ĠTÃ¼rk ei
G en
at her
ĠB res
ĠM assen
ĠM eyer
ĠAus nahme
ĠNieder sachsen
usÃ¤tz lich
ĠTÃ¶ch ter
c opy
m ond
Ġw a
Ã¤ udes
Ġb ut
est e
Ġver schw
reg ister
rÃ¤n kt
ĠNor wegen
ch ner
ĠP C
ĠV ari
B eim
S ehenswÃ¼rdigkeiten
k as
m and
ĠK ais
zeich nen
Ġen glisch
ry pt
trÃ¤ gen
Ġgegr Ã¼ndeten
ĠSebast ian
K o
S eine
ĠS oll
ĠM au
ĠT rÃ¤ger
Ġdar aus
teil s
ĠPf ad
Ap plication
P ri
r Ã¼cken
te uer
ĠF ell
ĠEn s
Ġsp Ã¤t
Con s
ĠWelt krieges
ĠMod elle
Ġho her
Trans action
ĠL ot
Ġpar allel
Ã¶m isch
Jahr e
ĠSonn e
Ġverpflich tet
F ranz
m otor
ar kt
Ġ2 50
Ġl Ã¤ng
ĠDie ter
ak ademie
ĠPro jekte
Ġtr af
ĠMa y
ov a
ĠD omin
ĠL egen
il ber
Ġl Ã¤uft
Ġ[ âĢ¦]
ĠÃ¶sterreich ische
Europ ameister
Ġan t
ĠSch reib
Ġc ache
ĠMar ken
Pro zent
Sch w
Ġ189 9
ĠN omin
Ġr un
ĠOr tes
ä ¸
Ġw ork
ver lÃ¤ss
200 2
Ġreg ul
ĠBed ingungen
ĠStÃ¤d ten
cle ar
Ass ign
C P
z if
ĠK eller
ĠAnt wort
C A
Element s
b indung
le te
ĠH Ã¼gel
ĠAn lagen
tel s
echs elt
S l
c s
c al
ĠS of
ĠL eute
ber eit
ator s
ĠQu elle
ieb el
ĠL ast
199 9
Ġzie hen
Ġpriv aten
o y
ĠT ats
Ġ4 3
rÃ¼ st
ĠRes ult
Ġser ver
ĠM exiko
ad or
Ġ6 4
Ġsozial en
ĠDÃ¤n emark
ERR OR
Ġbekomm t
Ã¼ gt
ĠT sch
ab end
Ġauf gestellt
ĠSt att
ĠAn dr
age d
ĠSong s
cel ona
I E
Ġb ack
ĠW egen
ĠkÃ¶nn ten
ĠAf rika
P ost
S ign
n ov
t ur
ĠSch ach
ver anstaltung
ĠBar on
Ġsol chen
zuf Ã¼hren
schlÃ¤ ge
Ġerinn ert
at om
ĠM ond
ĠT w
est amp
Die ser
ĠFl Ã¤chen
Qu eue
sb ez
ĠWei ÃŁen
ĠProduktion s
Mus eum
entim eter
I gnore
N e
Ġd elete
ĠK rie
ĠK Ã¶r
Ġl ernen
teil ungen
gor ithm
Ã¶ gel
ĠBau werk
Ġbesch reibt
wor ten
rÃ¤sent anten
ĠRost ock
ridBag Constraints
D ialog
Ġc lose
Ġent schieden
Ġar g
ĠLehr e
Ġerz Ã¤hlt
ĠSchles wig
m es
ĠP ath
Ġver legt
olog isch
Inter face
ĠChic ago
D irectory
K ompon
ur ren
ver zeichnis
St at
maÃŁ nahmen
ei he
ĠB art
Ġin fo
ĠJ ud
ĊĠĠĠĠĠĠĠĠ ĊĠĠĠĠĠĠĠ
res sen
Ġgew Ã¼n
ĠAm sterdam
Ġland wirtschaft
ĠKamer a
. _
k Ã¼rz
Ġz er
ĠP reise
up p
zeit ung
inder t
val u
ÃŃ a
imen sion
ĠP ie
um b
re al
chip karte
L a
S pr
d auer
ĠS E
Ġb uild
Ġf ung
Ġer zeugt
Ġbenach bar
us k
Ġ189 6
ĠGef ahr
ĠSchn ell
ĠJust iz
Ġeb enda
i ro
l ein
st aben
ĠB ert
ĠE M
Ġsch ied
ĠOp ern
ĠTab elle
ĠKarls ruhe
ĠMount ain
D u
b ody
Ġ4 9
ĠFer tig
Ã¤mpf er
ĠAr thur
arb eitete
ay a
ĠFl eisch
Ġausge fÃ¼hrt
ĠHand ball
199 8
ĠGel egen
ĠbestÃ¤ tigt
ĠS P
Ġn Ã¤her
ier end
ĠAn h
ĠStud ie
Reg iment
ĠHistor y
Ġparam eter
iffer enz
N S
ig in
ĠC ode
ĠBl au
ĠschÃ¶n e
ch te
ein heit
Ã¤ b
ĠT ode
Ġzu stÃ¤ndig
Ġc annot
ĠAus gang
acht ung
mar sch
ĠKÃ¶nig in
ĠMeer es
Ġerr ichtete
Ġgemeins ame
o ir
st Ã¤nden
ĠK amp
ĠN S
Ġauf gebaut
Ġst yle
ĠAus bau
ige m
Reg istry
ĠÃ¤lter en
VAL UE
g i
ĠP od
Ġc ons
Ġsch reibt
Ġ188 0
ĊĠĠĠĠĠĠĠĠĠĠĠĠĠĠĠĠĠĠĠĠ ĉĠĠĠ
Mill is
g ung
ei ge
Ġk ombin
ĠO ster
Ġj ahr
eite ten
ma schine
ĠBi ograph
ĠHalb finale
Ġkomp lex
ĠInfanter ie
Ġ iter
ĠEn glisch
ĠKl ub
An halt
wir kung
akt oren
sta aten
Ġrel igi
ĠFernseh serie
ĠKÃ¼n ste
in it
st ufe
Ġw Ã¼n
ĠH em
ig ungs
ĠSt urm
Ġbe cause
ug in
D aten
d irektor
Ġver ur
ag a
lass ung
reu ung
Ġper f
ĠBÃ¼ hnen
ĠWag ner
u ellen
Ġs epar
em ed
ra gt
Ġtr ifft
ĠHaus es
Ġletz ter
ĠCon tent
Ã¤ng nis
Ġs inn
ĠVer mÃ¶gen
check ed
cl ub
ĠjÃ¼n g
( _
B S
d own
Ġau ÃŁen
Ġver Ã¤ndert
ĠEin heiten
ast rop
Un able
Ġdo es
ĠMinister prÃ¤sident
B el
F alls
f alt
m eter
eh lt
ĠBe ob
Ġur kund
iar den
al th
und ert
Ġs orgt
ĠIn put
ĠFr eitag
zÃ¼ glich
p c
ĠÃ¼ber w
la c
atur es
)) );
Ġrech te
ĠWe ber
Ġgriech ischen
ĠP en
ĠT raum
rit or
ĠGemein schaft
ĠGer Ã¤te
Ġwel chem
amp le
P RE
h ost
ĠB y
ĠK alk
ĠH ugo
ĠI d
Ġe ff
Ġeinge tragen
Ġbel g
hin dern
ement s
ĠKÃ¼ sten
Ġumben annt
M Ã¤rz
m inton
u en
ei r
ĠS au
Ġn ominiert
Ġan y
âĢľ ).
Ber eits
Ġklein ere
has Next
Jo hann
Ġbetrach tet
ĠP ed
ĠSte phan
Ġda ÃŁ
ĠBest ell
ĠÃĦ gyp
Ġspeziel l
char At
L I
S ettings
ĠÃ¼ber nehmen
Ġch em
199 0
ĠMil ch
Ġbezie hungs
h et
Ġd is
ĠJ a
ĠC am
sp unkt
os a
ip pen
ĠWh ite
W E
ĠF la
ir n
get Id
aus gabe
ĠPro p
ip al
ĠJuni oren
b ahnen
k ore
er a
ar rei
as ien
ĠL ew
um in
Ġc ol
ĠAuf nahmen
Ġ4 7
Ġgen ug
ĠWill i
ĠNutz er
rep lace
u i
sch wer
el a
ĠI fc
Ġo ver
Ġwir ken
Ġ4 6
Dec lar
f a
v ollen
Ġb ayer
Ġo st
Ġst at
ĠKon zer
ĠRo h
Ġmittel alter
ĠSÃ¤nger in
W rapper
Ġ Ã¼
ĠA achen
ol t
ĠT hread
iert es
199 6
ĠDes halb
Ġend et
sei tig
K W
S H
ĠA ff
ĠP ul
ber icht
ĠSt unde
In nen
In stitut
ĊĠĠĠĠĠĠĠĠĠĠĠĠĠĠĠĠ Ġ
br and
hof en
stit ution
ĠWieder auf
Ġparam eters
f ranzÃ¶s
v ater
ĠS QL
au ten
Ġein geb
Ġh Ã¶ren
ĠIn frastruktur
Ġ18 48
pf l
ĠBo ok
ĠDaten schutz
ĠAs ien
ĠBrasil ien
W as
c ard
ei ste
on st
re ht
se y
ĠAus zeichnung
ges prochen
Ġzwei ter
Ġviel fÃ¤l
Ġerw orben
ĠKo ordin
ĠDat um
Ġby tes
ĠerhÃ¤lt lich
A v
F re
b raun
Ã Ĺ
ĠB ell
Ġeigen es
ĠGew erk
ĠSchn eider
Ġklein es
ĠNetz werk
Ġbeziehungs weise
in us
Ġb uf
Ġ1 10
sen der
stell ten
ĠDis sertation
Ġengl ischer
National mannschaft
ĠIniti ative
ch or
ĠG lei
Ġc al
cri be
Hand lung
G o
k in
r ol
r amm
Ġzu geordnet
Ġaus zu
Ġc l
eil er
In v
Ġvor gestellt
Ġunter halb
Ġ189 7
ĠBar celona
ĠmÃ¶glich erweise
ĠRu hr
Ã¤mpf e
B undle
N um
T itel
ĠB om
ĠAn forderungen
zen ten
ĠMed ia
Key s
ĠKr ist
ĠLebens mittel
index Of
< >(
Ã¼ h
ĠZ ivil
ĠSie ben
ĠkÃ¶n ne
Ġangegeben en
ĠKontr olle
ĠOffiz ier
Ġerstreck t
F ried
I FC
n i
Ã¤ ure
ĠM ode
ĠH as
ĠL ine
ĠBot schafter
ĠVen edig
Ġgetr ennt
j ob
st atus
ess in
ST R
State Exception
Ġwich tigen
D ur
Ġin nen
ĠF F
ĠT yr
ĠV Ã¶lker
iv ision
ĠGr amm
Ġber Ã¼cks
Ġschwer en
streck en
de gang
ĠP S
ĠP as
ĠL ar
org an
icher heit
ĠursprÃ¼n glichen
Ġnational en
. /
ĠP ots
get Property
ĠSp eicher
Ġent schied
F ahr
Ġer lang
us sen
ĠInstit ution
ĠViel zahl
chten stein
d ing
k unden
er ung
ĠO z
Ġbe endet
sh aus
ĠMich el
kurr enz
b an
st re
ĠT oten
ĠL ib
il de
Ġc omm
iz ierung
Ġsp Ã¤ten
ĠSch aden
ger ichts
ĠFl Ã¼cht
ĠRe de
IT Y
b or
st ock
Ġj ung
lo h
geb lich
C K
I A
K n
on ia
ĠL ust
ĠAn th
ator ium
Ġdeutschsprach igen
ĠCamb ridge
t l
ĠW ell
Ġg olden
ĠReg ionen
Ġex trem
ĠTab ellen
ã ĥ
ei ern
al m
em e
ĠF inn
ĠL eb
ro id
ĠZ erst
Ġl iter
Ġbr asilian
ĠTa schen
Ġtechn ischen
ĠP ast
Ġal ready
lÃ¤nd ischer
ĠWind ows
ĠHor st
Ġbas iert
ĠSch le
Ġunter en
li as
ĠQu adrat
ĠMin ute
ĠRu h
Ġoffiziel len
x ml
ĠK ob
end s
Ġbes aÃŁ
ĠReg ister
ĠGrund stÃ¼ck
ĠTrain ing
ĠRail way
J an
J Ã¤hr
S ingle
ð Ł
ĠV irg
end ing
Pro cess
ĠFrank furter
ontin u
ich ert
ĠO der
est en
ĠWelt meister
Ġbedeuten d
C ar
g as
ĠP anzer
wei ÃŁ
M ich
W h
o ire
ar tig
Ã¼ te
Ã¤ ÃŁ
ĠM ech
re h
ĠN ow
ĠEin kauf
Ġ" /
if ied
ĠUm setzung
ĠQu ar
ĠSchw ier
ĠMan fred
Ġbeh andelt
ĠBÃ¼ hne
igh ts
Ġlo ad
n ap
Ã ª
Ġf lie
ĠR E
ess ern
utz ung
ĠFrei en
ĠStre et
H e
H ein
Ã¤ ub
ĠG rÃ¤
Ġauf gefÃ¼hrt
mit glieder
ĠErweiter ung
Ġpop ul
B eg
Ê ¿
Ġd ate
ĠD inge
Ġwir kt
Ġunter scheiden
Ġhand le
verein s
A ccount
U ri
r un
t yp
Ġr uh
iz ont
our t
ĠWerk en
riff e
deck ung
ĠInd ividu
Ġend lich
e arch
au ert
ĠD etails
ĠM uster
her steller
if ication
land es
Ġle hr
199 1
ĠBeh Ã¶rden
F B
M essages
ĠP ir
ĠZ auber
Ġ8 00
Ġwissenschaft lichen
Ġwissenschaft liche
zÃ¤hl ung
S QL
n itten
Ġp rev
Ã¶r g
Ġges und
Ġteil s
Ġgegr Ã¼ndete
Film ografie
bÃ¼rger meister
ĠVerÃ¶ffentlich ungen
ĠstÃ¤r ker
B oot
G raph
k ul
p ost
ĠS ender
te am
or ph
Ġb ist
ĠP etr
ob el
res p
oren z
ĠBr uch
lei der
Ã¼t ten
ĠkÃ¶n ig
Ã¤dag oge
w riter
Ġein iger
Ġn am
ĠW en
ĠL ande
ĠVer z
ĠVerb esser
ĠStim me
ĠPhys ik
ĠMik ro
ĠFrancis co
O st
f ac
m ine
Â ®
Ġein schlieÃŁlich
ra in
Ġver hindern
he ad
Ex p
ĠMus een
ĠGes ang
ied elt
Ġte st
herr schaft
Ġph ys
B ew
h Ã¤ndler
Å Ħ
ĠS av
sp ur
Ġseit dem
ief el
Ġ188 5
Ġ188 8
ko hol
ĠDipl om
v ard
Å Ł
ĠB och
ĠD et
Ã¼r zt
Ġl auf
ĠEr ste
ĠMo tiv
Not Null
Ġbestehen den
stud ium
ped ition
ĠB io
ĠK am
ĠP ian
ĠZ it
ak u
Ġhier bei
ĠWei bchen
199 5
ĠpersÃ¶n lich
def ault
gr Ã¶ÃŁe
min ist
ĠFahr t
Ġ189 5
ĠAbgeord neten
ĠK redit
Ġden k
ĠUn sere
Ġ/ >
mal en
ĠGesch mack
pro f
iat eilnehmer
. ).
B ez
E Mail
ol i
ub a
ĠÃ ł
inz ip
Ġ6 00
Ġcon vert
ĠHam mer
ĠBed arf
m as
in ten
Ġv ar
Ġn ennen
ĠF ilter
ĠN eum
Ġim age
ĠZ er
Ġc le
Ġ18 60
tet t
Ġre ag
Ġe he
ĠReg iment
An merkungen
ĠAd am
ĠzusÃ¤tz liche
ĠCol or
ĠSek unden
Pol icy
Kir che
s ign
v as
on ald
ĠK Ã¶
Ġan genommen
Ġsch eiter
Ġsch rift
con stants
stru ctor
ĠKo operation
ĠThÃ¼r ingen
e der
hr op
ĠR aj
ĠN ap
ĠMit gliedern
Ġverb indet
ĠNieder l
Ġoffen en
ĠBestand teil
t urm
on i
ar g
Ġs or
ĠĊ Ġ
Ġa ction
Ã¤r ung
erk ennung
ĠKon rad
Ar b
schn itts
anc en
Ġerwar tet
O K
r uss
ã Ĥ
Ġbes etzt
rag ment
Ġjapan ischer
stechn ik
M apping
W ert
u ay
sch ten
ĠL ife
Ġt ag
ĠÃ¤lte sten
ĠflieÃŁ t
Ġ assert
Ġg rau
ver teidig
ĠAn k
ĠAn alyse
ath on
ĠFot ograf
fÃ¶rm ig
ĠB os
se c
ĠSt ates
ĠTr ier
ĠLok omo
Ġh ell
rei strÃ¤ger
Ġ" ,
ens ion
spieler in
Ġverl Ã¤nger
out h
ĠHil fs
ĠMark us
verkehr s
ĠunabhÃ¤ng ig
K arl
t w
Ġal tern
ap h
ĠStr ate
a illen
v es
ĠS ymbol
Ġw echseln
ĠF ar
Ġsp anischen
ĠGemein sam
ive au
ĠBes etzung
Ġfrei en
DE FAULT
ĠBed Ã¼rf
Ã «
ĠS aar
de hn
Ġver urs
Ġ15 00
ĠUm bau
ĠAll tag
ĠInternational e
Hol stein
S ein
S um
z ellen
ie ten
ĠR ay
im ation
ĠAr r
ix ed
ĠTem pel
Ignore Case
Ġn on
ul f
Ġbe zeichnete
Ġspe zial
Ġpl atz
Ġgar an
ĠDenkmal schutz
ĠKup fer
' );
M M
d ner
Ġer mittelt
ent wick
Ġst Ã¤ndig
eich e
ay ern
ĠGesch lech
ĠPol y
ĠInd ian
ĠChe ck
ĠEpis oden
Frank reich
w ell
ĠB Ã¤nde
Ġb raucht
ĠH ektar
Ġge tragen
Ġt hr
ĠAl te
form ationen
ĠFranz isk
Ġscha ff
B en
S ep
ĠD ub
ĠL och
Sp ace
denk male
ĠFac ebook
gehÃ¶ rigen
p pen
Ġd omin
ann a
ob by
ĠCh urch
OR T
ĠGraf schaft
Land kreis
in str
Ġver n
Ġif c
mÃ¤ÃŁ ige
M ain
b ungen
h art
ĠMar gar
for scher
setz er
ĠRund funk
ĠRun timeException
Ġchines ischen
Ġstattf inden
g riffen
h es
m sg
r ingen
ĠT s
ing u
get Instance
ang es
Ġbeg leitet
str om
ategor y
ĠKommun al
ĠGest alt
Dat ei
ĠLÃ¶ wen
ĠJack son
S pe
Ġf arb
ig hl
Ã¤ch er
199 7
b Ã¶
e o
Ġl atein
ĠSp itz
ĠPro j
ph ase
fahr ts
pro perty
ĠAug sburg
ĠMann heim
reg isseur
bed ingungen
sprech end
M ath
h old
ĠW urz
ĠVer k
tel n
ett ing
ĠUnter schied
Ġget Ã¶
ĠÃľber sicht
ĠPf arrei
ĠStel l
ĠSa al
Sc ope
ĠQ ue
ĠInn ov
H eight
Ì Ī
ĠL ag
ĠR io
Ġk Ã¼
stell ig
Ġre ader
rup ted
Un d
ĠGer Ã¤t
Ġat tribute
the EObject
A bst
sch Ã¶n
ĠB em
ĠD ynam
Ġn ennt
ĠAn wesen
ug os
Ġtr ain
sk on
IN T
Ġgleich e
ĠFrei heit
Ġspiel ten
ĠHa ft
Not Found
Ġjapan ischen
ĠParlament s
Ġpoln ischen
ĠRestauran t
ĠM io
ĠF lie
ĠV il
end o
ant eil
jahr es
ĠAlt ar
verband es
Ġwich tiger
ĠerhÃ¶ ht
N OT
Z wischen
h off
k w
ĠS mith
ĠM ord
ĠH Ã¶ch
ĠUn fall
Ã¶r ungen
med izin
tiller ie
w all
in f
el emen
Ġl ink
ĠFl ag
Ġbesch lossen
Ġ188 9
spl it
J SON
z lich
Ġb ot
ĠM att
ĠK alifornien
ĠG olf
re gel
ĠStr eam
Ġtr eten
bar er
199 4
ĠRegen sburg
' ,
Ġ app
ĠS ens
Ġb rau
ĠK ul
Ġer gibt
uff ix
tt ps
tif ication
ĠInform ations
ĠBron ze
d ung
Ġ orden
au te
und et
ĠB ein
Ġf allen
ĠJ etzt
Ġim pl
Ġst eigen
Ġab zu
Mod ule
fr ont
mod el
fÃ¼r st
> )
b al
f ir
i pe
s an
s cription
ĠB itte
ĠH yp
ĠAn gebote
id o
Ġpro du
Ar t
ĠNieder lage
Ġverst ehen
ĠLi ber
ĠGlock en
T eil
s up
un nen
ĠG anz
ĠH ey
Ġun ge
iden z
fang s
& #
sch irm
el or
Ġin it
Ġzu folge
aus bildung
Ġange p
ĠHoch zeit
ĠSpr inger
hÃ¤lt nisse
ĠDort mund
Ġbein hal
Ġ5 1
atch er
folg ung
eig h
ĠFir st
Ġitalien ische
ĊĠĠĠĠĠĠĠĠĠĠĠĠĠĠĠĠĠĠĠĠĠĠĠĠĠĠĠĠĠĠĠĠĠĠĠĠĠĠĠĠ ĠĠĠĠĠĠĠĠ
Ġverf asste
ĠImm obilien
p al
Ñ ĥ
ĉ ĠĠĠĠĠĠ
sch i
ĠA ster
ok ument
Al t
ĠWelt cup
jÃ¤hr iger
bereich e
Ġheraus gegeben
ĠAp ost
AG E
A k
c z
c ore
t ums
Ġd ist
ie be
ĠS eg
Ã¤ fte
ĠK linik
ĠG Ã¶r
pro jekt
ĠRei sen
AC T
Ehemal ige
vir on
e get
n d
ĠS oph
Ġst ru
ahl en
ick er
ĠSe en
geh oben
ĠMill iarden
D i
ol ver
In itial
Ġges ucht
Ġzie ht
Ġkathol ische
ĠBist um
ĠPortug al
P air
b it
p ommern
ĠM icro
Ġein s
Ġo ffizielle
ĠEurop as
ilom etern
ĠKÃ¼ ste
ĠCas ino
ĠBronz emed
Ġjem and
Ġl eist
ĠâĢ Ķ
Ġ5 2
Ġother lv
M ilitÃ¤r
ach ter
ĠZ oll
ger Ã¤t
Ġsp ann
ĠFahr rad
ĠTer ror
Ġy ou
ĠBur gen
ĊĠĠĠĠĠĠĠĠĠĠĠĠĠĠĠĠĠĠĠĠ ĠĠ
ĠpreuÃŁ ischen
ĠCorn el
ĠBres lau
m or
r ic
ĠD ownload
Ġein deu
ot ograf
199 3
Ġwei sen
use eland
Ap i
F OL
L en
X ml
m lich
m ont
se g
ep p
ay load
ĠMar i
ĠKon zep
licher weise
ĠGrund lagen
Ġsh ort
ĠMaterial ien
al om
au g
ĠVer w
ĠGr Ã¼ndungs
ĠTra g
jahr en
ĠAlb recht
weis ung
On ly
Ġeinf ache
A F
W e
t able
â Ĥ¬
Ġ Ã¶rt
ĠKon struktion
dem okrat
hol m
Ġbegann en
ĠAlex and
send ung
ĠBesonder s
Olymp iateilnehmer
D DR
g Ã¤ng
el ine
ĠF abrik
lo ud
up pert
az if
Ġpro blem
sb urger
ĠBundes ver
ĠJohann a
AR T
yd ro
ĠHotel s
ĠAng st
abr Ã¼ck
lad ung
Ges ellschaft
E le
ei de
ĠM Ã©
Ġm er
ĠL ein
ĠL or
ĠN ationen
ĠEr leb
Ġpro p
trag ung
schn itte
Sie g
ĠSk i
ĠB it
Ġ( ;
ĠV I
ig ungen
ĠAn gabe
Ġwar um
riter ien
Spiel er
P I
f arbe
v in
ĠSt ich
Ġaus fÃ¼hr
mus iker
aiss ance
k ow
is ierten
ĠT rieb
ĠV el
ent um
est and
ĠspÃ¤ter e
ĠKloster s
ĠMehr heit
ĠmÃ¶ glichen
{ }
ĠB ase
am at
ĠH T
Ġk g
ĠRo hr
ĠPh ot
ĠCon tr
Ad d
aur er
sto ÃŁ
tell igen
Ġdor tigen
w ner
ĠN ote
ĠZ iele
wei ten
ĠAn zei
im pl
Ġnach hal
geb nis
Ġeigen er
ĠMon te
AR L
Ġak tiven
ĠKÃ¶l ner
ĠGleich zeitig
ĠDipl omat
b ibliothek
n abrÃ¼ck
ĠM oment
Ġf ach
ir c
Ġ20 22
ĠZ o
Ġl es
sb ruck
unn ing
Contr ol
S PD
Ġ reichen
on str
ĠD ial
Ġf rem
Ġg Ã¼l
ĠRo ad
wir t
ĠForm at
Ġwei ÃŁen
ĠJes u
ĠJos Ã©
ar ia
ĠA x
ĠD ich
ĠR ol
ĠJ ungen
Ġst atus
rie s
ate ll
af r
ĠPl Ã¤tze
ma ÃŁen
sprech er
Schwei z
f ailed
s Ã¤nger
et enz
em burg
Ġst ill
ĠHer zen
ĠUnivers itÃ¤ten
tisch es
ĠPrÃ¼ f
B ef
O M
em pf
ed ule
ĠFÃ¼hr er
strahl ung
gestell ten
e ff
Type Reference
bes itz
Ġrequ ired
I dentifier
k olle
l itz
ĠK ohl
get String
av ax
Ġbest ell
ĠFra ktion
kap elle
i ques
at tet
ĠR ie
ĠR equest
Ġh ost
ĠUn ser
geb irge
Ġ5 6
ĠGroÃŁ teil
start sWith
ĠAnton io
Ġrich tige
H inter
in ischen
is a
Ġg ro
Ġsch uf
our cen
for mer
val ues
ĠGef angen
Ġlist ener
ĠBef ehl
ĠGal ax
ĠZus atz
F O
w s
w el
am ik
ĠJ ava
ĠÃ¼ber sch
ĠAl li
be am
Ã¤nger ung
ĠAk tien
ĠNew s
Ġ189 3
ĠSend ung
- /
it o
Ġs ymbol
gen ossen
Ġge fallen
Ex tension
Ġander es
Ġex tr
ĠY o
ĠBe geg
ĠGegen d
schiff e
EX T
p lay
y b
ĠF ootball
ĠO ver
ĠSch aff
ĠSt o
Ġre al
ĠOr chest
sh ot
ĠGi pfel
P refix
R eturn
h eil
ĠP seud
ĠH av
ĠW ik
ĠW end
ig an
Ġan f
ost on
Ġper fekt
Ġhervor ra
b ein
l im
t Ã¤
ch ange
ĠM u
ĠE arl
tr ies
Ġh Ã¤uf
ak en
ĠKl im
Ġvertr at
O F
i Ã³n
ĠS T
Ġi dentif
sp olitik
Ġc opy
In sel
Qu alif
rat es
ĠMo der
Ġklein eren
Ġengl ische
Ġsozial e
ĠExper ten
" :
D is
J apan
T erm
k Ã¼ste
ĠF antas
ĠT eu
ind ungs
sh ire
teil te
Ġange zeigt
Ġbeh aup
ĠSyn chron
ĠErk rank
Ġport ugies
ĠChampion ship
M ag
is ieren
ĠR ub
ĠR ess
ion e
ĠSt an
Ã¤r t
org anis
ĠMÃ¼n chner
Ġ187 1
ĠAmts zeit
ĠKrim inal
M aler
j an
an gebot
ĠH ay
Ã¶ ger
Ġdes cription
Ġj son
ĠAus stattung
yn th
sw ald
ĠGrÃ¼n en
Gr und
ordin ate
clu de
K unst
s ession
le ute
ien z
Ġsch ot
gel s
form ance
ĠEnt stehung
ĠMittel punkt
ĠRes ource
f in
Ã ¦
ĠB lo
ĠH rsg
ĠV ariante
Ġge legt
Ġan gen
ĠHerr n
ĠInstitut s
Ġorganis iert
ĠB M
em an
ĠH ess
ri z
ĠEin en
ire ct
wer ten
red icate
Ġlang sam
urs or
Ġbisher igen
ĠGebie ts
Ġtrotz dem
W or
Ġd ro
Ġd ek
Ġan geschlossen
Ġc as
br Ã¼
ĠCon c
Ġgest alten
Ġruss ische
Ġpromov iert
B uch
Ċ Ċĉĉĉ
an ie
ĠM ut
ĠVer eine
Ġc omponent
ard o
fl ow
Ã¤ch t
equals IgnoreCase
Gener ator
ĠD ur
ĠW ork
us alem
ĠJ ena
Ġan lÃ¤sslich
sp reis
ĠÃ¼ber setzt
Res ources
ĠSh op
Ġfre und
Ġdisk u
Ä ĥ
ie ht
ĠE h
ĠE ugen
eh end
ĠOr ten
wohn er
Ġ189 1
ĠNikol aus
G E
b eu
sch rank
Ġn annte
ĠGem Ã¤lde
Ġhin ein
Ã¤nder te
ĠVerein igung
ĠVers and
ĠAlt stadt
ĠIllegal StateException
Ġdefault Case
ĠGebie te
ĠA ction
ĠB at
Ġm e
Ġm Ã¼ndet
sp ace
ĠEr Ã¶ffnung
Ġab gesch
Ã¼t ter
Ġgr enzt
Ġchar akter
Ġrich tigen
ĠVerbr eitung
C R
R echts
ĠL angen
ir chen
Ġsch Ã¶nen
Ġ18 50
ov en
Ã¼t t
ĠNeu stadt
Ġ) ?
ande ur
c tr
ol ve
Ġver ab
hen tic
ĠAward s
Ġtechn ische
Ċĉĉĉĉĉĉ ĉ
ĠKolle gen
Ġverbr achte
r ight
al o
Ġp reis
Ġc lazz
ĠWelt meisterschaften
AT A
ĠerÃ¶ff nete
ĠArn old
ĠN am
sb ed
best and
ĠGeschÃ¤fts fÃ¼hrer
ĠhÃ¶her en
Cal endar
viron ment
E t
I l
K omp
L auf
s ver
Ġin klusive
tr itte
ĠI dent
ow itsch
St ar
Einz el
Ġverst orben
bed ingt
Ġverkauf te
Ġbau te
H eute
al i
Ġw Ã¤hlen
Ġver anst
auf nahme
ĠFran Ã§
imm ungen
ĠMark eting
rÃ¼st ung
F OR
ĠG un
ĠP res
rau t
ĠGe denk
ĠSoc ial
C up
S cript
Ġt hen
reich er
ĠNach folge
sh ausen
Array List
Null able
s ing
ĠP ow
and t
Ġgel angen
schlieÃŁ en
ĠRu he
Ġempf ehlen
Ġnational e
O pen
ĠC ons
ĠC lient
ĠIn stall
Ġfor der
ĠHand werk
Ġgetr offen
omet ry
Sti ftung
Wind ow
C lose
Ġein zu
Ġg ern
Ġaus reich
bau en
ĠUm gang
ĠEurop ean
Ġexist ieren
gÃ¤n glich
Z one
ĠD irekt
ĠVer zeichnis
ĠBundes staat
ĠNieder lande
ĠMet rop
ĠRegel n
Ġruss ischer
ĠAbgeord neter
r olle
ĠP ack
Ġp orn
ĠSt Ã¼cke
icht lich
ĠAr men
ĠGes am
ĠBo gen
bo ok
ĠRek ord
ei be
ĠR oss
Ġg ros
he ber
Str ate
par ent
Ġle ft
Ġange k
Ġher um
Ġ189 4
Com parator
D an
em p
ĠK Ã¼hl
isch Ã¶
ger Ã¤te
ap i
Ġ5 3
Pro gramm
ĠPf licht
ĠSyn ag
Intern ational
F iles
M ENT
em ie
ĠVer wand
ner stag
gesch windigkeit
off set
Ġbesch Ã¤
verb indung
ĠKategor ien
ĠLab or
ServiceResponse Async
NotFound Exception
B E
C or
W ei
f euer
Ġd ocument
un checked
ĠP ower
ĠC onn
ĠZ usÃ¤tzlich
bau te
Ġbes uchen
ĠAd ler
Ġgeb lieben
ĠBus iness
ĠIll ustr
ĠKais ers
F amilie
ĠF unk
Ġp asst
Ġaus dr
Ã¶ff net
Ġverl etzt
ĠBel gien
ĠInn sbruck
Ġdunk el
frie den
Wil helm
S equence
z n
ie ck
ĠC op
Ġt mp
Ġst rate
Ġj o
ĠPro perty
ĠCh ance
20 20
ĠWest ern
Ġverst arb
Ġumf asste
ĠKat zen
ĠVerf assung
Ġeinf achen
M ehr
ĠR et
Ã¶r dern
af ft
br onn
ĠAt om
ĠLÃ¼ beck
ĠS un
te sten
Ġsch Ã¼tzen
Ġent h
ĠAb stand
ĠNach wuchs
Ġle gen
Ġher unter
Ġposit iv
I F
X ML
n ieder
ĠĠ Ċ
Ġh ttps
eich ern
ĠAus zeichnungen
ĠVertr ieb
D est
R Ã¶misch
ĠB utton
Ġm y
Ġp age
ĠEr richtung
aus s
wor fen
' :
Ġd Ã¼n
ol en
Ġg uter
eh Ã¶r
Ġst arten
Ġvor wiegend
auf nahmen
Ġtr aten
ĠSpiel tag
fahr zeug
Er gebnisse
Ġ189 2
dat um
Ġsicht bar
> ()
p ap
ĠK ardinal
ĠV ideos
sp itze
ĠAl p
ĠAm ateur
199 2
ĠPer spek
ĠGef Ã¼hl
Ġkommen den
Ġvorhanden en
Produ ktion
ĠSzen e
in ett
st ritten
ĠM ans
ĠT ob
ĠR al
Ġc or
ĠIm age
ĠSk ulpt
ĠschlieÃŁ en
Ġkor re
Ġunbek annt
ĠFreu de
Ã¤ ck
ĠF ro
ĠP ra
Ġk ont
Ġp ack
ĠOr der
ĠAuf sicht
Ġ+ +
ond iss
vertr eter
w Ã¤hnung
ĠB Ã¶r
Ġzu kÃ¼nf
im eter
ĠSp Ã¤t
ĠBern d
sprÃ¼n glich
ĠAben teuer
Ġtradition ellen
b egr
n ames
ĠSch atten
arb eitern
ĠRo se
ĠPh ase
deck e
Time out
R est
S ow
T hrowable
ar ed
he dr
Ġ18 78
lo ÃŁ
if est
ĠAd resse
ĠsÃ¼d Ã¶stlich
ĠSam uel
Ġwes halb
Ġheil igen
g le
ut sch
lich em
ĠN R
Ġver boten
ĠDie trich
Ġj ur
wir k
ĠFre e
S ARL
T er
l ings
ĠM arburg
ĠT ax
Ġk re
Ġp attern
ĠHin weise
abgeord neter
ĠBronzemed aille
; &#
d y
ar o
au thor
ĠA fr
tr op
Ġh a
Ġge Ã¤ndert
ĠSch ild
Ġst ren
all iga
ak i
ok ens
ĠSÃ¼d west
ĠBest er
ĠWerk statt
ĠSer ies
prÃ¼ fung
Ġlau tet
J ose
r ennfahrer
ie bt
âĢ ¯
ĠO pp
Ġt here
Ġr ight
Ġbef ind
ĠBl ue
Ġhin ten
SE T
abil ity
Ġnorm al
================ ================
ĠBil dern
ĠKandid aten
ĠKomment ar
ĠBened ikt
M otor
P eter
c olumn
st on
ĠM ie
Ġin spir
ĠP enn
ĠT O
Ġh ieÃŁ
19 15
Ġbeg eist
ĠBl umen
Ġviel er
ĠMet al
ĠVerband s
ĠP riv
ĠL at
Ġ- -
ite kt
Ġteil nehmen
ĠGott fried
ĠSzen en
ĠGÃ¼n ter
ĠEntfern ung
ĠgetÃ¶ tet
K omm
N ov
b ett
ĠP rix
ti ver
isch t
Ġl eitet
ĠKunst stoff
LA SS
ĠTer r
ĠTex as
ĠJes us
lehn t
R ezep
S ocket
Ð ²
ĠB ull
ro ot
ĠMar s
ĠVor bild
Ġ5 4
fahr ens
Ġ8 5
ĠOber Ã¶sterreich
ĠSc ott
stant in
Ġzentr ale
ĠMail and
ĠendgÃ¼l tig
ĠsÃ¤m tliche
ĠGriechen land
r oll
ĠE uch
ir ch
ri min
war en
ĠHoch schul
ĠOrganis ationen
track ing
FOL LOW
W ien
m Ã¤ch
ĠH enn
Ã¶ tt
ĠZ ub
Ġp asse
ĠVer n
ĠAl ben
Ġbest anden
Ã¤nd igen
Ġunser es
ĠStaat sb
produ zent
Ġwoll ten
Ġgelegen e
gebie ten
agn ost
F est
g reg
v oke
ĠD ay
ĠK il
ĠG a
ĠG att
ĠL etz
ĠN ation
qu elle
ition en
ĠBl ues
ĠJugend liche
ĠOs car
jen igen
k amp
ĠG riff
ĠJ son
he ader
men ge
Ġbe en
aus o
Ã¤nd ige
bach er
Ġdi verse
Mus iker
ĠOs nabrÃ¼ck
ĠGebie ten
Ġehr en
N atur
Ġw idth
Ġb raun
ĠK Ã¶n
ĠSt ory
Ġsch lecht
ĠPass ag
Ġallgemein en
ĠMÃ¶ bel
M ulti
m ess
v inz
ĠS ir
Ġs l
ĠB Ã¼r
ak es
ĠAb t
sk l
ĠRes earch
ĠWahl kreis
ĠInnen stadt
Stand ard
ĠIr land
Ġmittler en
ĠG ouverneur
ĠH arry
all o
ĠBe at
fÃ¤l lig
mo sphÃ¤re
ĠLes er
Ġrec ord
ĠfÃ¼n ften
ĠPots dam
H tml
Ġd eb
ĠK un
ĠR Ã¶m
os se
ĠSp recher
ĠAr gentin
ĠAus bildungs
len z
Ã¼l ern
ĠPol iz
AN CE
ĠhÃ¶ here
Ġschwar zen
Ġlok alen
C onn
Ġd b
et ung
Ġ( ),
Ġm ake
ĠH Ã¶l
re y
op Ã¤d
etz ungen
Ġex pl
Ġbef anden
Ġgesch Ã¼tzt
ĠOber flÃ¤che
ĠMaler ei
C ol
K inder
M ai
r al
r as
st immen
Ġm Ã¼s
Ġauf treten
wei ger
Ġaus gesch
Ġunter gebracht
ĠZu cker
EN D
umm ern
ibr ary
N ON
ch ern
Ġd ok
ĠM es
ann i
ĠZ y
ĠZ Ã¼ge
ĠFel ix
ĠDenn och
ĠVerÃ¤nder ungen
S uch
c u
sch icht
ĠH ome
ĠL ev
Ġk Ã¶rper
Ġge zogen
ĠSch mer
ĠBuch staben
Ġdi ver
druck t
ĠOb last
ĠschlieÃŁ t
ĠSchriftsteller in
ĠStad tr
ĠModern e
spann ung
ĠArr ondiss
in ary
ĠM essage
ĠL atein
Ġer geben
Ġc ap
ob ald
ĠEnt wurf
ĠÃľber blick
ĠBe ach
ĠHand lung
Ġar ab
ace ae
ĠDar aufhin
With ServiceResponseAsync
ĠJer usalem
/ >
F lag
f irst
k ont
ĠD J
ĠM uss
tr ee
ĠN at
Ġst ation
ges ellschaften
St affel
ĠUm feld
ĠverfÃ¼ gen
ĠCarol ina
ĠVerantwort ung
4 00
d elete
ĠA C
Ġm ulti
ĠH agen
Ġge fertigt
ver ter
alt ar
ĠFran ce
ĠLe e
ĠNieder Ã¶sterreich
Ġ187 5
Ġversuch en
other lv
ĠNic ol
ĠSmart ph
ĠUkra ine
U B
r ession
ĠC ur
Ġauf zu
ru st
me te
ĠKrank heit
E M
W R
Ġ est
Ġw eite
Ġb it
ĠK Ã¼nst
ĠG ame
ĠO f
Ã¼n digt
Ã¤t t
qu enz
ĠAm b
Ġerreich ten
ĠCo ok
ĠKan al
Film titel
Jahrhundert s
Ġdefin iert
ĠAuss age
Non Null
T ags
d ay
ĠT ipps
ĠL em
eb e
Ġl aufen
Ġerfolg reichen
Ġspe zif
P hil
ļ Ń
an th
em ory
ab or
Ġbe auftrag
atur en
Ġthe EObject
ĠMan ager
ĠTre ffen
Ġzeit weise
besch reibung
ĠÃĦgyp ten
ĠG ames
re uth
Ġsch wei
eck t
ĠHo sp
aw t
gef angen
part ei
opp elt
AB LE
Ġspeziel le
Se arch
ĠD afÃ¼r
sen s
ĠAn lass
Ġum ge
br eitung
Ġwh ich
Ġgrund sÃ¤tzlich
ĠTown ship
B it
T ro
j ust
Ġ Ã¤ndern
ĠB Ã¼nd
ĠB ibel
Ġm ay
ĠF ast
ĠZ ell
ik ationen
ĠMit tler
Ġverb essern
ĠÃĦn derungen
ĠBrem er
frist ig
Kompon ist
Ġverur teilt
or fer
Ġm ore
Ġf rau
ti us
ingen ieur
ele ase
gn or
aktion en
irt ual
ĠpersÃ¶n liche
i h
l isten
ĠP age
ĠVer dienste
ed y
oll ow
yn ast
gew inn
Ġgel b
con tent
zeug ung
198 9
forder t
ĠMÃ¤n nchen
T our
k re
ĠS ache
Ġn ow
ab els
ing ung
ĠVer arbeitung
Ġlie ÃŁen
gesetz ten
ĠApp le
Ġzentr alen
ĠGÃ¼n ther
u an
z ut
eit ungs
eb au
be cken
lei ben
ĠSo zi
Ġ188 6
ĠMag azin
Dec imal
Ġfertig gestellt
ĠEpis ode
Ġw hen
ĠK ost
qu alitÃ¤t
ĠMar g
kir ch
Ġ187 4
ĠTre ffer
ĠGraf ik
Ġschl ug
Ġtem plate
ĠNaturschutz gebiet
Ġbeinhal tet
Ġmehr erer
ĠMin i
ĠX X
glieder ung
198 0
AC E
ĠBach elor
ĠWel tr
ĠTher apie
es p
em als
ĠL Ã¶sungen
ĠAn sicht
of en
ĠAuf merksam
ĠFest ung
uck et
ĠTour ismus
ĠClau d
/ *
J ava
M art
t oken
ĠG n
ĠW Ã¤l
ĠR iesen
Ġnach fol
AL L
way s
Ġschwed ischen
C ur
ĠK ader
ĠN ight
ĠC ross
rau cher
zeit schrift
Ġ188 4
ĠTechn ologie
Ġverw endete
Ã¨ s
Ġgelegen tlich
ĠMy th
ĠFreund in
ĠScien ces
ĠAllgemein en
ĠverstÃ¤r kt
ĠEind ruck
f loat
an dern
ĠE ishockey
ĠRo ute
Ġis lam
Or iginal
ĠErz b
Ġbezie ht
ĠB rie
Ġ( ).
Ġm ech
Ġz Ã¤hlte
tr im
ĠJ ubil
ir ke
ĠSt ol
Ġc ommand
tel le
igen t
ĠVor stands
ĊĠĠĠĠĠĠĠĠĠĠĠĠĠĠĠĠĠĠĠĠĠĠĠĠ ĠĠĠĠ
back tracking
ĠEt hn
alys is
ĠKonfl ik
G H
H alb
f ession
ĠB iele
as i
Ġh um
ot oren
Ã¶n t
Ġle hn
ail ure
ĠRechts anwalt
Ġnord Ã¶stlich
ĠMotor rad
ĠOption al
prÃ¤sen z
V A
c ape
er tet
en kt
st atic
ĠF as
Ġan sonsten
amm ern
Ġ5 8
Ã¤tz t
ĠBereich e
sw ert
ĠNe useeland
Ġsol cher
ĠKompon isten
Ġjeder zeit
Ġgeboren e
ĠS ul
ĠD ra
Ġin nov
ĠV f
ig ran
Ġzu gÃ¤nglich
Ġunter wegs
stan bul
pro cess
Ġall eine
ĠDi Ã¶z
ĠDo ktor
Sep tember
ugos law
R uss
S an
v iel
sch ild
Ġm achten
ĠT en
Ġk Ã¼rz
ĠAn erkennung
ĠEr ster
Ġzum eist
Ġbes ucht
ĠGed ichte
Ġgesp eichert
R oman
k B
w inkel
ĠB ow
ĠF ans
ĠEin z
Ġab hÃ¤ng
Ġber ech
ober t
Ã¡ s
ĠSpr ing
Ġhand elte
Ġ187 7
Ġschwer e
ĠVerl Ã¤ngerung
Ġpasse d
F L
g ier
Ġ hr
ĠS omit
ĠF alle
ĠP ublic
Ġf inn
ĠW art
ĠL inden
ro y
Ġp ers
mer k
ĠBei spiele
ma jor
Ġcon figuration
ĠsÃ¼d westlich
Ġ188 2
mÃ¤ÃŁ igen
Ġem pty
Ġkur zer
ĠÃ¤lter e
ĠKapit Ã¤n
g asse
s um
ĠE ishockeyspieler
ĠH Ã¼
ent s
ul er
Ġver setzt
ver lauf
od a
rit ter
ĠUm fang
Ġkon troll
wor tet
ĠRob in
ĠÃľberg ang
Ġurkund lich
V ector
h Ã¤usern
ĠE UR
ĠN eck
ĠO tt
ap s
ap elle
ĠAus fÃ¼hrung
ob ject
Ġ9 5
li ver
ĠChr on
ĠWest falen
[] )
out put
LA N
ĠWahl en
ĠPolitiker in
Header s
ĠCre ek
ĠBab y
\ \
o z
Ġd oc
ĠA ur
ĠH ot
Ã¶ scht
ab t
se kretÃ¤r
ĠSp ir
ĠAl kohol
Ġdar stellt
Ġbew usst
ĠVerlag s
arch ie
Ġ188 7
Log ger
ĠPort al
ĠAust ausch
ĠBrun o
Ġprof it
sprÃ¼ che
ĠAstr onom
rupted Exception
m acher
Â ´
in stitut
ĠA S
ĠF ehl
ĠE ier
ĠW inkel
Ġan fangs
ĠJahr hund
ĠSp uren
ĠÃĦ hn
yr am
Ġ186 8
low en
haupt stadt
Dat um
Wer degang
exec ute
Ġdok umen
C urrent
R S
k ar
an on
at tr
ĠD VD
re qu
Ġent lassen
Ġbet r
ĠDurch fÃ¼hrung
197 5
ĠZug riff
komm t
ĠVerf assungs
ĠLOG GER
ĠViz ep
gehÃ¶ rige
ĠTschech ien
W ar
f u
k ommand
ran denburg
ĠKon zentr
ĠAd d
Ċĉĉĉĉ ĉĉĉĉ
ĠWohn zimmer
Ġ188 3
Ġlern te
ĠT un
ab len
Ġver t
ĠSch all
ĠSp ur
enn zeichnet
ant a
En de
ĠGra ph
lu ft
ĠGef Ã¤ngnis
Ġnord westlich
ĠWissenschaft ler
Ġans Ã¤ss
Ġuntersuch t
Ġhil ft
Ġschaff te
C ommerce
M er
S ol
m y
Ġ ).
ĠS auer
itt le
ĠAt lan
ĠĊĠĊ ĠĊĠĊ
Wir d
.... ....
dor fer
BevÃ¶lker ungs
Ġbenachbar ten
ĠNiederl anden
( ...
P ers
W S
i oren
ar isch
ĠK oll
Ġab gest
geb oren
ĠBer ge
ĠSchw anz
Ġbew egen
minister iums
ĠDokument ation
ĠGit arr
Ġfunktion iert
gefÃ¼ gt
P lay
l iteratur
ch a
ar tikel
is st
ĠW Ã¼n
ĠC ro
ĠEin stellung
up le
ath an
Ġres p
Ã¤u den
ĠBar ock
ĠKo hle
Ġerf Ã¼llt
ĠBek annt
Ġwirtschaft lichen
W ord
d h
ĠB uffer
ĠG ymnas
ĠL izenz
ĠN ick
ĠC le
Ġl imit
res erv
Pro p
ĠBau er
arr ier
Ġro ten
K Ã¶nig
M sg
M AX
d ist
ĠK G
um l
ĠN SDAP
Ġent f
eben e
Ġdies mal
wend et
iff eren
ĠMont ag
Ġfre ie
eucht ung
ĠRÃ¤ ume
ĠVort eil
Ġintens iv
k at
n eu
ei ro
ĠA gent
Ġn ames
ĠK ai
ĠAn ne
Ġwar ten
stell ers
gel Ã¤nde
ĠAb stra
Ġ< /
dienst kreuz
ĠEinwohner zahl
ĠEben so
Lo ad
ĠErinner ung
ĠergÃ¤n zt
P A
Ġ ol
st em
ĠK ino
ĠP el
Ġf Ã¼hl
ion ier
Ġk Ã¼nf
Ã¼t tel
Ġdar um
Ġreg ister
scheid ung
Ġpolit isch
Ġzeit genÃ¶ss
ĠÃĦn derung
Erster wÃ¤hnung
D evice
s aison
ra ÃŁe
Ġver teilt
ĠSch ott
Ġp oint
Ġun gewÃ¶hn
ĠVor bereitung
Ġlie fern
Ġges prochen
Ġ7 2
ĠFr ucht
verein igung
fre ie
ĠTex til
gebie ts
sto ffen
ĠPrÃ¼ fung
ĠIntegr ation
W ill
t ot
Ġd on
al u
ĠB ast
ĠJ Ã¶rg
Ġges agt
hau se
Ġdamal ige
zus etzen
Ġerinn ern
ĠIter ator
Ġabger issen
kÃ¼rz ung
d oc
ĠĠĠĠĠĠĠĠ ĠĠĠ
Ġer folgen
ĠZ entimeter
ech ter
amer a
ĠMeister schaften
ĠFrÃ¼ hl
hoch schule
ĠZun Ã¤chst
F ranzÃ¶s
J uli
or men
ĠT auf
ĠSch reiben
ĠGroÃŁ herzog
ĠÂ ·
ĠNe ur
ĠTem plate
ĠHal te
Ġoption s
ĠP oint
ĠN ad
ĠZ e
ĠZ ehn
Ġ5 7
amt es
eig ung
Ġerfolg reiche
arm on
ĠÅ ł
Ġrule Jvm
Ġfeier te
Kirchen gebÃ¤ude
M Ã¼n
v ens
ĠV inc
ĠC ru
Ġaus gebaut
Ġbe qu
ang o
Ġ18 15
Ġum s
Ġlie genden
Ġ) *
ĠRep ar
Ġ187 9
Ġoffen bar
Loc ale
Ġtem p
Ġerwar ten
ĠHum an
ĠInternal SARL
Ġv ia
Ġ( _
ĠH arr
ĠVor stellung
spr uchs
ĠÃĸsterreich ischen
Ġschn eller
Ġstamm te
Ġzie mlich
Ġbem erk
B O
e ber
p il
ch ild
ĠB oston
ĠF inger
ĠV i
ĠAn bieter
Ġsp anischer
ele ge
Ġak tive
Ġ186 7
ĠEng ine
ĠEben falls
bro chen
ĠAnder e
Ġdur fte
p reuÃŁen
ĠB R
Ġb reite
and s
ĠC ann
Ġver g
âĢľ -
Ġ" '
ĠKl ang
ĠChr isten
ĠfÃ¼hr enden
198 4
Ġb reiten
ĠD ollar
ĠM inder
is burg
ĠSt au
get T
ech er
ĠBer ater
min istr
ĠLie bl
Sh ort
Ġober halb
ĠStad ion
ĠB la
ĠP rim
ĠH als
rÃ¤ umen
ĠAus wirkungen
gesch lecht
Ġ6 6
Ġbr ach
198 8
ĠW ellen
Ġdurch aus
ĠMa schine
ost a
ĠWochen ende
fil me
ĠKol onial
strahl t
ĠCentr al
n orm
on te
sch Ã¼tzen
ĠH Ã¤
ĠW Ã¼rttemberg
ĠSp e
âĢľ ),
Ġa fter
ok us
ĠSpiel s
Ã¤tz ung
ĠKr one
ĠHier bei
Produ ct
ĠRumÃ¤n ien
V om
l abel
r ein
s ite
st ar
ol ph
ĠP oten
ĠN erv
ĠJ Ã¤ger
est ern
Ġt hread
Ã¼n de
ĠÃľber nahme
ĠEx istenz
port al
Ge org
ektr um
ĠDel eg
Ġevangel ischen
ĠWehr macht
Ġsowjet ischen
en se
ĠM d
Ġ} ;
og a
im um
Ġj ust
ob jekt
ĠPr inc
Ġ' "
ĠProf ess
atÃ¼r lich
Ġerrich ten
contains Key
ĠBrow n
Ġw eb
ĠD unk
Ġz ogen
ĠK y
ĠG od
tr ace
Ġer stellen
and o
Ġge lesen
iv als
ĠBr ut
Ġpro ject
olog ien
Ġgleich er
198 2
Ġbestehen de
Ġged reht
E qu
m i
p at
w h
w idth
an ik
ĠL as
Ġzu verlÃ¤ss
ĠAn ge
erk l
Ġbef Ã¶rdert
ĠWie sen
ĠMad rid
ĠJac ques
ĠDrehbuch autor
national spieler
Disk ografie
Q U
ur er
Ġv ol
ĠH ead
men s
Ġsch m
Ċĉĉ Ċĉ
gl as
eld et
sk ar
ĠGesch windigkeit
ĠInd ust
cy cl
Ġangeb racht
ĠRot h
ĠSchlieÃŁ lich
ĠAufmerksam keit
S w
f ass
v ey
on line
sch ritt
or um
19 38
if iers
Pro xy
Ġbef est
Ġbeh and
tic ast
Ġpl Ã¶tz
o h
at io
ĠM ov
Ġge eig
Ġan notation
Ġgen annte
Ġle gt
ĠUniversitÃ¤t s
ĠUr teil
ĠReich stag
hol en
ĠKrieg sende
ĠJugend lichen
Digit alisat
BevÃ¶lkerungs entwicklung
A pril
S onst
W asser
k ind
l Ã©
ĠP rak
ĠR eiter
ĠSp ren
oc ation
ĠPar ad
zw ungen
Ġ187 3
ĠRegierung schef
Schwei zer
V ari
Ã¼ re
ĠA ar
ĠG rim
ĠL aden
ĠR ow
ĠSt ab
ri ver
Die ses
ĠAus sicht
Ã¼l le
ĠAd vent
ĠKap ital
jahr e
fÃ¤l len
Film schauspieler
ĠDis ziplin
ĠSek ret
UL L
dar steller
ĠLieb es
l igen
Ġ1 15
ĠR ainer
ber uf
ers dorf
du ktion
Ġex per
ĠBl Ã¤tter
Ġgel ungen
ĠOl denburg
Ġamer ikanische
ĠDef ault
CD U
ĠEreig nisse
H Ã¶r
U P
ĠS ehenswÃ¼rdigkeiten
et ti
Ġb undes
Ġm ex
ĠR av
Ġg ridBagConstraints
ĠAl les
Ġtr ocken
ĠCh allen
Ġch ange
ĠLie chtenstein
Ġerf Ã¼llen
On line
Rel ation
ĠWach stum
R ennen
c omm
m ach
ĠEr wer
19 70
Ġ18 00
Ġgen ieÃŁen
Ġth an
Un sere
stÃ¤nd nis
Ġ187 6
ĠDorf es
rÃ¤sent ation
fÃ¶rm igen
Ġpromov ierte
Ġ{} ",
ĠUnabhÃ¤ng igkeit
ĠArrondiss ement
f rÃ¼
g roÃŁ
z ert
Ġv iew
Ġf u
ĠR olf
ĠSch Ã¼lern
Ġc onn
Ġbe achten
Ġj en
ungs mittel
Ġ5 9
Data Type
spro gramm
Ġse arch
Ġprak tisch
ĠFrem d
: :
A uÃŁer
t licher
ĠR ac
ĠV og
eu ern
Ġvor ber
Ġ" );
ĠMa jor
ĠPf alz
wir d
ĠChrist us
ĠArbeit geber
vorsitzen der
Struct ural
Jan uar
ĠYo ung
) ).
È Ļ
č ĊĠĠĠĠĠĠĠĠ
ĠS z
sch reiben
ĠP ay
ĠW itten
Ġk rÃ¤f
Ġan n
ĠSch icks
Ġst op
Ġc luster
ph ys
Ġange hÃ¶r
ĠBundes wehr
enden cy
ĠIntern ets
lex ikon
ĠBew ertung
Ġ186 1
urnal ist
stÃ¤r ke
ĠBesatz ung
ĠHit ler
un ken
ĠF ab
rei ft
gr enz
br ig
Pro jekt
bild ungen
Ġgest orben
ĠProm otion
Ġbeeinfl usst
b art
r eit
r iger
ar gs
ier er
rie den
Ġnach gewiesen
ĠVerb indungen
ĠMo z
ĠKont in
ĠKant ons
ĠdÃ¼r fte
ĠDrit tel
D ay
V I
c ons
g han
ein richtungen
ĠF a
Ġf lex
ist ics
ĠAr ab
19 43
gr Ã¼ndung
ĠWir d
ha i
Ġ188 1
Mod ell
ĠSystem e
ĠAlter s
ĠSchwar zen
ĠKonfl ikt
E G
K K
o ul
Ġv oller
ĠA cker
Ġer leben
Ġst il
tel finale
ĠBer gen
ĠKon stanz
ĠUm satz
ĠGemeinde gebiet
ĠRest e
ĊĠĠĠĠĠĠĠĠĠĠĠĠĠĠĠĠĠĠĠĠĠĠĠĠĠĠĠĠĠĠĠĠ ĠĠĠĠĠĠĠ
fÃ¤h ig
ĠHoff mann
ĠHir sch
Ġkanad ischer
Ġstellvertreten der
Fried rich
ich tigen
ĠE th
ad bach
uf er
19 33
Ġvor ne
Sch ule
ond ition
Ġgesch lagen
ĠursprÃ¼n gliche
zy linder
ĠRein hard
Part ition
ĠGelegen heit
B rite
b il
á ¸
es heim
ĠS he
Ġn Ã¤chst
ĠH ex
ĠW under
ĠT ak
Ã¶ te
ĠR ats
Ġk Ã¤mpf
ĠSch lei
Ġum stritten
ak on
ĠGr Ã¶ÃŁen
Ġat om
forder ung
gef unden
ĠKÃ¼ chen
ĠJe der
Ġin to
Ġf inde
ig tes
ĠSt or
ial en
ht ml
Ġgew Ã¶hn
ĠKon serv
fahr ten
wa ffe
add All
deck te
sw issenschaft
ĠBrun nen
spart ei
Mat rix
. ",
P al
f amilien
ĠB am
ĠD rag
ĠM etz
ĠF assung
ol is
ach s
Ġo s
od ox
Ġ18 40
lo gen
ac ity
ĠGesch enk
man ager
ĠProdu zent
ĠGew erbe
alis ierte
Ge ografie
Eng ine
Cons umer
ĠOz ean
ĠAnzei ge
C luster
d ir
m essen
Ġin folge
ĠK el
ĠF I
ach us
us ste
ĠAut os
Ġcon tr
Ġerweiter te
igr ation
D ezember
r n
ĠV ir
Ġver gessen
Ġst abil
ern ame
ĠSie gen
gesch Ã¼tz
Un ser
Ġausge wiesen
ichtig ung
ĠSal v
ĠAu ge
ĠnatÃ¼r liche
Ġbed ro
ĠTrain ings
b uilder
an ia
ĠD Ã¼n
ĠM Ã¼hle
ĠK Z
Ġk om
ĠO d
ĠIhr es
198 6
ĠElektr o
deutsch land
ĠNorm al
D o
e ep
h lich
s ql
ĠW uppert
ach se
ĠN u
Ġst imm
Ġum gew
ĠAm azon
Ġ6 8
ĠFrei will
ĠVers orgung
Ã¤te stens
ĠBud ap
ĠBiele feld
O C
V ideo
h ammer
Ġn a
ĠF it
ti ment
ĠW asch
gend es
Ġch annel
ĠBet on
198 7
Sec urity
Ġanerk annt
ĠKath arina
ĠLeichtathlet ik
endo ktor
st reifen
at iver
it ro
ĠM eld
ver hÃ¤ltnis
Ã¶l z
min a
Ã¤d t
kehr t
Ġak adem
ĠKirchen gemeinde
ĠTechn ischen
eier mark
er z
it is
Ġver arbeitet
br unnen
ĠSte u
ĠÃ¼b lich
zÃ¼ g
frei en
ĠCollection s
Contr oller
Ġreduz iert
D r
al it
Ġi den
ĠH end
ĠW is
Ġunter scheidet
Ġlie b
lau be
man ischen
alis ieren
Ġfest gelegt
Ġnieder lÃ¤ndischen
ĠPsych ologie
ĠDek an
Ãĸsterreich er
Ã¤dagog ik
ĠHeer es
PersÃ¶n lichkeiten
ĠEns emble
ĠHÃ¶ch st
F S
n acht
or ity
ĠF ire
ow o
Ġc ontainer
ĠEx ec
so ft
Ġpass iert
ĠFÃ¤h igkeiten
ĠAnh Ã¤nger
Ġerlang te
tw och
m ethode
an alyse
Ġin ne
Ġein heit
ĠN ie
ier endes
Ġzu gelassen
Ġzu frieden
Ġum gebaut
ep pe
ĠGr aben
ĠAuf l
ph y
olle ctor
ĠSchw ein
Ã¤tig keiten
spro zess
Fl ug
ĠbenÃ¶ tigen
Ġausgew Ã¤hlt
ĠlÃ¶ ste
B us
G u
f inder
w ein
ĠL ED
ĠI stanbul
ĠAn trieb
Ġj ener
olog ical
ĠInter pret
ĠMittel meer
Ġvertr ieben
ĠSem inar
offiz ier
( @
k al
le un
ĠT ank
ĠL evel
Ġk ennt
id x
Ã¤r m
Ġre v
ĠAb stieg
)) )
ĠSchm uck
ĠKat alog
ĠBesatz ungs
A ktu
] [
d rom
k rank
Ġ ep
ĠL ange
19 78
ĠAb ra
Ġwel chen
lauf en
ĠDon nerstag
ĠnatÃ¼r lichen
ĠmÃ¶ gliche
loc al
ĠKu gel
Z wei
n oten
Ñ ı
ĠF u
le bt
ĠW ende
ĠV ul
ĠC at
Ġum gesetzt
ohn e
ĠGeb Ã¤udes
iss ing
ĠMon ats
ĠMÃ¤n nern
ĠKommand o
Ġausreich end
ĠKÃ¼nst lern
g un
ĠS ei
ĠP osten
der e
ĠH allen
ĠW itt
Ġthe oret
Pro cessor
schie de
Mit tel
Ġger iet
Ġ187 2
čĊ čĊĉ
Ġgelang te
ĠerklÃ¤r en
ĠSied lungs
Ġtrans action
ĠEuropÃ¤ ische
ĠjÃ¼d ische
Ġinform ieren
ĠAltern ative
B aden
N odes
O ktober
Ġd ynam
Ġb Ã¼rger
ĠP last
ir a
ex ception
Ġgen auso
ĠHau pts
ĠPar tien
ĠAutor in
ĠHin weis
ĠVerl ust
Ġproduz ierte
ĠDokument ar
Ġwid mete
Lang uage
es er
ĠM aus
ĠH eck
ĠL ord
ĠZ DF
omm el
Ã¤ch se
ĠKl eine
Ã¤uf e
Ġben annte
aff e
Ġ186 5
ĠHar ald
Ġbekannte sten
Final e
B es
j ection
el be
Ġm orgen
ĠG h
ĠT ick
ĠL ight
ĠJ ens
ĠAus stellungen
land schaft
Ġverwend eten
ĠKult urg
ĠFranzÃ¶s isch
Ġdeb Ã¼
i y
m ol
Ã¼ se
at ischen
el er
ĠE la
Ġh off
ĠU d
ĠAus sch
ov ed
sk irche
Deutsch e
Ġ186 9
ĠAmer ica
abr iel
ĠDep art
yg on
nap shot
N onn
c il
y ball
Ġ tim
os ite
Ã¤n glich
ill y
ĠMar sch
ack e
ĠzurÃ¼ck gegeben
iden t
yl van
beh Ã¶rde
Ġschwar ze
verstÃ¤nd lich
K lass
u hen
ĠS her
sch ungs
ĠK Ã¤r
ĠF A
ĠE ver
ĠL uther
Ġh Ã¤ngt
ĠN az
Ġk ost
he ater
onn a
burg h
AN D
ompl et
Ġid x
ĠMerk male
ĠGreg or
Ġal ter
sp rÃ¤sident
ĠSie ge
enn bar
ok ol
Sch n
ĠQu ery
wend ungs
Ch ain
Ġfrei will
des ign
wÃ¼r fe
Ġklass ische
umin ium
3 00
A gent
H O
R F
g al
k anz
Ġ 00
ĠW Ã¶rter
ĠT y
ĠC ent
Ġan bie
ot os
gr Ã¤
Ġnoch mals
ĠOrt schaften
Ġbegr enzt
spez if
ĠNomin ierung
ĠVirg inia
Ġ achten
st unden
ĠM B
em in
ĠK en
ĠVer sch
rÃ¤ der
Ver tex
Ġhier fÃ¼r
Auf grund
sprach ige
a ft
c an
Â §
ie ber
ĠM ei
ĠN est
Ġo pen
ĠBer ech
Ġlie ben
inn es
Ġis rael
str eit
ĠBet reiber
ĠWil son
ĠSystem s
197 2
Dat abase
Ã¶pf e
Ġjapan ische
Ã¼st et
Ġwirtschaft liche
ĠMaxim ilian
ĠÄ Į
ĠSynag oge
8 00
; ;
or i
Ġs m
ĠG ab
ĠT ay
Ġge p
ik at
ĠSch Ã¼tzen
ĠVer leihung
lie gt
Ġvor ge
ph a
Ġger inger
tif act
R ev
u den
or ter
ĠF ord
Ġf ehlt
ĠW S
Ġh undert
Ġver an
ĠIn sbesondere
ĊĠĠĠĠ ĠĠ
pt on
ĠThe at
ĠFrei herr
ĠFre unden
Ġur i
Ġ186 6
gef asst
Welt meisterschaften
gestell te
zust and
TI ME
B ig
F rÃ¼
} .
Ġs ql
ĠP ader
ĠH D
ĠAuf ruf
amm elt
ĠPl attform
ĠeuropÃ¤ ische
beg inn
T ran
ĠA TP
ĠE N
ĠI ran
ent ity
Ġg lob
ĠEr gÃ¤n
ĠSp ar
ĠAl so
ill ing
res ources
zeu ger
Ad apter
ĠDienst leistungen
Ã¨ re
stehen den
ĠVal id
entry Set
Comm on
Ġintegr iert
achus etts
Ä Ł
ĠB ut
de p
ĠH ild
ab schnitt
eich nungen
ĠEr furt
ĠAuf tritt
ian ischen
az itÃ¤t
system e
Ġdire kten
Ġscheiter te
A lias
V O
r ise
y cle
ang a
ĠPl at
ĠBau ch
ĠSpr int
Ġmeisten s
ĠAndre a
ĠCom ic
ĠSilber medaille
ĠVik tor
ĠRett ungs
Ġbrau chen
] )
c or
el y
ĠM Ã¼hlen
de pen
ĠN umber
ĠC arr
ĠO ri
Ġver lei
id ad
ĠIm pl
wir ken
schau en
ĠAu ft
PRO PER
ĠDÃ¶r fer
? ?
c all
p age
s ort
s inn
ĠG etr
tr ieben
Ġk aiser
ĠO liver
os h
id es
ĠIm mer
Ġsow eit
Ġ9 9
Ã¼l lung
Ġverb inden
Ġak zep
ĠWal es
ĠEt appe
ĠKauf mann
Abst ra
ynast ie
E P
E ishockey
F ach
G ET
j amin
k Ã¶nig
k ette
v i
or o
scha ff
im ir
ĠEin er
20 21
ire ktion
ĠQu ell
aler weise
ĠGo ethe
ĠEigen tÃ¼mer
ĠKind heit
ĠSpec ial
ĠS achen
ĠB ulgar
ĠE cke
ĠL ock
Ġer for
ĠN eb
Ġp ut
Ġaus einander
Ã¤l ter
Ã¤hr ungs
Ġpro tected
ĠKÃ¶nig sberg
ĠSchiff s
ategor ie
ĠAmer ika
Fernseh film
Ġstaat lichen
Ġuntersch rieb
F low
d om
ĠS ed
it alien
ĠK ra
ĠH op
Ġge laden
ĠO h
Ġver haf
wei ch
esch ichte
ĠSp enden
ĠBr Ã¼cken
Ġle vel
ĠKo al
bÃ¼ ro
Ġdenk mal
l at
m ain
Ä Ļ
Î ±
Ġin vest
ĠK ohlen
is er
ck t
ul iert
ation Exception
Ã¤hr en
Ã¼l ler
Ġbel iebt
ĠfrÃ¼ here
Ġ186 4
Ġrest aur
B M
B U
M etric
at isch
it ation
Ġs im
ĠV alue
Ġl agen
eg er
Ã¤n omen
lie der
ĠMit arbeitern
bo ot
oph on
ĠKont akte
Ġspeziel len
ĠDisk ussion
ĠDemokrat ischen
ĠBeteil igung
Ġangep asst
R ock
S ing
m etr
st es
ĠN et
ion al
Ġge liefert
ĠÃ¼ber all
ĠGr au
ĠStadt gebiet
ĠKon kurrenz
Ġber aten
gesch icht
Ġ6 1
ĠEx pression
Ġgesch ieht
ĠÃĸsterreich s
ĠWeiter hin
Ġ186 2
ĠSen ioren
ĠPrÃ¤ fekt
Frau en
ĠMel od
ĠMathemat iker
ĠWilli ams
ĠKoordin aten
Ġforder te
N icht
m Ã¤r
st ahl
st eig
sch end
ar ischer
ein heiten
ist et
atz e
par ks
Ġzwei er
Ã¶l l
zahl t
ake te
ĠAss istent
ĠRen aissance
kn own
ĠGi ov
Ġmittler e
aliforn ia
Ġfe ature
ĠdebÃ¼ tierte
B ek
J ohn
N orm
P aul
n g
n ik
te in
Ġs egment
Ġp refix
ĠAb satz
Ġlie fer
Ġbesser e
ĠInf os
ĠViertel finale
Ġhochwer tige
ĠZeu g
VerÃ¶ffentlich ungen
ĠBoch um
C ertificate
D elete
M erk
ĠF els
ist a
Ã¤n ke
19 39
ĠNord amerika
ron om
ĠAt trib
OR D
Ġbevor zu
ĠSum me
liefer ung
ĠJahrzehn ten
B B
L uft
S til
U s
an ier
Ġm at
ĠV alle
Ġge g
Ġauf gel
ĠIn schrift
Ġst ra
men sion
Ġunter lag
ant es
Ã© d
Ġgew id
ĠLe o
Ġgel ingt
ĠBern ard
197 4
ĠEvangel ischen
ĠGemeinder at
S eite
T hr
ĠF ound
Ġk ompon
Ġt olle
ans as
ator in
wa ffen
kl ar
Ġgewann en
hÃ¶ fe
Ġstar tet
ĠbeschÃ¤f tigte
ĠÃ¶ k
ĠExempl are
urren cy
Rezep tion
P C
w eb
Ġ ðŁ
ĠD etail
em s
ĠG ep
ed s
19 20
ĠPl Ã¤ne
Ġher e
ĠSchw imm
Ġger ingen
Ã¡ r
ĠGo od
ĠKompon enten
Ġverkauf en
Ġbeob achtet
f eier
ĠA ccess
Ġer o
ro ck
Ġver dien
eb urg
ĠVor trag
Ġbest ellen
Ġbet reibt
ĠRe ad
ĠParis er
ĠFil men
ĠTest ament
Per mission
ĠFel der
usst sein
H am
ĠK ann
Ġp oten
he et
ph il
Ġ7 00
Ġseit her
ĠAt mosphÃ¤re
UN G
ĠBot schaft
P AT
Z entr
g ast
s rc
w id
Ġw omit
Ġf Ã¶rdern
is her
ĠC ow
ĠC oll
ser ien
tern e
enn er
Ġmehr mals
riter ia
ĠErn Ã¤hrung
Parameter ized
Ġerheb lich
Ġinform iert
ĠPetr us
g Ã¤
ar c
ĠK abel
re ste
ĠJ ones
ĠKon text
mit tag
Ġgeh ei
ĠFor ce
ĠWei s
ĠOl d
ĠWohn haus
ĠVertrag s
ĠGre at
abil itÃ¤t
spart ner
Ġausgeb ildet
ĠBundesver dienstkreuz
h ou
ĠD un
ĠV orm
ĠZ iegel
Ġst ack
ĠEr klÃ¤rung
ĠPro tocolMarshaller
if iziert
ĠUr sprung
Ġwei ÃŁe
let on
ĠRed aktion
UN D
ĠBran chen
ĠStock holm
Ġoff ens
ĠAndr Ã©
(... )");
S ER
W rite
k ins
m eier
r in
ĠB ug
ĠP okal
il me
ber atung
om er
Ġk inder
Ġk irch
Ġp rÃ¼
ow itz
ĊĠĠĠĠ ĊĠĠĠ
ĠTh or
ommer ziel
ĠAll gemeine
Hand le
ĠReform ation
Stack Trace
A rea
F ont
M aterial
m os
or chester
ĠE ch
ĠP in
ti als
ĠJ Ã¼n
Ġsich ern
ĠY or
ĠChr is
Ġgest artet
ĠPosition en
Ġzerst Ã¶r
! âĢľ
) -
R ender
S uper
ĠS I
le ft
ĠW ater
ĠO berg
19 14
ĠJur y
ĠPfer d
Ġletzt lich
Ġkauf te
E p
c ontainer
s v
u ht
ĠS qu
as sten
Ġb ody
ĠV iet
iel ler
Ġr ies
zen s
ib l
up pe
ĠFre der
ĠRep rÃ¤sentanten
ĠMor itz
Ġhol te
ĠVerteidig ungs
ĠMiner al
A cc
E hren
ĠT Ã¤ter
ĠL aus
ĠR och
ing ham
ĠO m
ĠSt iefel
og ramm
ens ure
ĠFl otte
Ġ6 3
ute te
Class Name
ĠverÃ¶ffentlich ten
urf ace
Ġleich ter
opÃ¤d ie
Nonn ull
ylvan ia
c ache
k ov
p unkten
ĠF Ã¼
ic z
Die s
Ġ12 5
ĠNord west
ĠKreis es
Ġop tim
Ġumfang reiche
Ġlehr te
M a
M ass
t ax
ein richtung
ĠW ay
Ġt oll
wei he
ĠĊ ĊĠ
eil ung
Ġ3 000
tif y
ĠCo ver
klÃ¤r t
Ġengag ierte
cover y
ĠdÃ¤n ischen
ĠnÃ¶ tig
ĠRuh estand
ĠVerbesser ung
ĠabhÃ¤ng ig
1 10
G ymnasium
b rechen
ĠM atch
ro hr
Ġge pf
Ġge Ã¶ffnet
Ġl anger
iv es
Ġ0 4
Ġ6 2
ĠSta ates
ĠHerr scher
sta ates
not ations
197 9
ĠWor ksh
ĠSyn th
ĠKer amik
hor st
T ri
V ier
f ranken
h ten
ĠB arn
ĠH eb
Ġh eight
ĠSch Ã¤den
Ġp df
Ġbe zÃ¼glich
ĠAl len
ĠMit twoch
ĠAb wehr
bar ung
ĠJo e
Ġ14 0
ĠMan uel
rim inal
fried hof
ĠStat istik
Strate gy
er ing
Ġm Ã¤ch
ab schluss
ĠC lem
ak eten
gew Ã¤chse
Ġgef Ã¶rdert
Ġ> >
ĠReich es
figur en
ĠAnd roid
andid ate
ĠVerteidig ung
steck t
ĠDien ste
Ġdiver sen
B eh
K ar
O B
S aison
ar Access
Ġs ame
ĠK Ã¼r
ĠL eucht
lich ten
ĠO bst
ĠSch um
ĠVer stÃ¤ndnis
Ã¤t tern
Ġvor kommen
rit iken
Ġwieder holt
Ġverl ang
chn ik
ĠRegion alliga
Ġindividu elle
ĠBudap est
D omain
O ff
Ñ ĭ
ge wer
ĠA z
ĠB enz
ĠP ers
Ġer mord
ex ten
ok u
pro blem
Er n
IN ST
Ġern st
Ã¤tig te
ĠPreuÃŁ ischen
ĠChamp ions
adel ph
o use
ĠK ub
ĠT iefe
ĠR eh
ach ing
Ġge weiht
19 30
ĠGesch ichts
Ġch ron
ĠProdu kten
ĠChrist i
ĠBerg bau
ĠTer ritor
Ġinner en
ĠkÃ¶nn t
ĠCharl otte
Ġevangel ische
kan al
Ġoption al
ĉĉĉĉĉĉ ĉ
Ã¢ te
c ap
y o
in stance
an ti
Ã¤ use
Ġv ierte
ĠA N
ĠD own
ĠK reu
ĠL okal
get P
In formation
ĠPar allel
ĠRep ort
197 6
Ġsof ern
ĠunterstÃ¼tz te
Ġdire kte
ĠCoun try
lef on
ĠverlÃ¤nger t
ĠErzb ist
l aus
t ask
v ideo
č ĊĠĠĠĠĠĠĠĠĠĠĠĠĠĠĠĠĠĠĠĠĠĠĠ
ĠK rei
ĠK arn
ĠT unnel
ĠJ unge
ru der
Ġel eg
str asse
ĠBur schen
Ġpassen de
Hinter grund
D enk
b lau
Ã¼ cher
ĠL ichten
Ġvon einander
ĠSch los
19 44
fl Ã¼sse
ĠPl us
ark e
Ġbesch loss
Ġeinge laden
ĠJu an
ish ing
Ġentwick elten
Ġkosten lose
Ġged acht
ĠRÃ¶ mer
Ġverhaf tet
H il
T S
d igen
s ylvania
y wood
ĠB ald
ĠW omen
ber to
Ġl it
Ġun bedingt
Ġa ct
St ad
our i
ĠBau ten
stra fe
ĠVerb raucher
Ġeinge st
buch autor
ĠSpr ung
ĠPat rick
ĠBi ografie
ĠGold medaille
ĠTri b
arp us
Meta Data
m Ã¼n
u v
Ġ ei
ĠS ession
ĠF eier
Ġf a
ber ater
ĠC ob
ent hal
Ġauf gehoben
Ġr umÃ¤n
List en
Ġern annte
Ġbew eg
Ġhand ler
sport ler
Ġwichtig ste
ĠStraÃŁen bahn
Ġfort an
Ġindividu ellen
J ugend
m ech
o ter
ĠG abriel
is hed
ĠR up
ĠC alifornia
ĠSt ationen
ĠVer handlungen
Ġc olor
hl t
ip edia
ĠFranz osen
ĠBi ographie
ĠEv a
ĠMÃ¤r chen
Ġperson en
elemen te
Ġstrate g
D ivision
ĠA cht
ĠH ighl
Ã¼hr t
Ar gs
stra te
ĠKomm andeur
Ġkon serv
ĠOlymp ia
ĠAp othe
Ġpr int
ĠNahr ung
ĠSchwier igkeiten
I hr
U RE
en hagen
an iker
ĠH ad
ĠT am
ic on
Ġab w
Ġ6 7
off s
ĠOber bÃ¼rgermeister
Ġrel ev
anstalt ungs
Nov ember
( !
E C
L P
f al
Ġd t
al ity
em eister
ĠT oken
ien te
ok raten
fer en
schie ÃŁen
ĠzurÃ¼ck kehr
ĠChrist op
ĠRes ponse
anc el
ĠSti pend
leist ungs
ĠErw Ã¤hnung
Ġposit ive
Ġtran spor
ĠKaff ee
ĠberÃ¼cks ichtigt
C ell
g ard
r ufen
sch el
ot ter
qu is
los igkeit
Pro file
pro p
Ġres ources
tor hÃ¼ter
Ġfest ge
Ġaktu elles
198 5
ĠRest aur
Vor pommern
valid ate
ĠHauptr olle
b Ã¤
h Ã¼tte
al teten
Ġs end
ĠD ein
ĠW alt
Ġl ive
rau ff
ast ung
ĠGesch lecht
pro zess
ĠBo oks
isten ce
zahl ung
bez eichnung
ĠFer r
Ġgek ennzeichnet
Ġmaxim ale
gehÃ¶r igkeit
Ġbild eten
cycl op
st eile
is emit
ĠI tem
Ġt her
Ġver grÃ¶ÃŁ
ĠÃ¼ber zeugt
Ġ18 49
Ġvor genommen
Ġ8 8
ĠEx pl
Ġgef angen
Ein wohner
arch itektur
ÃŃ o
197 1
ĠHÃ¶he punkt
ĠMat rix
ĠViel falt
ĠForsch ungen
Gener al
ĠDef inition
A ME
C opy
H ans
s Ã¤
Ī Ĵ
ich e
Ġb ound
ĠG or
ĠH Ã¤nde
tr itts
ig ation
ĠAn gelegen
att le
ata illon
Ġstell ten
ĠProv inzen
Ġkompl ette
ĠÃ¼bern immt
ĠmilitÃ¤r ischen
ĠÃĦr zte
BÃ¼rger meister
Abstra ct
T L
w achsen
Ġw asser
ĠA tel
ĠB enn
ĠK orn
ĠP on
ĠP le
ĠW ettbew
Ġdes selben
Ġg u
Ġr ange
ben e
19 28
Pro f
198 1
ĠJohn son
ĠMun ic
S ymbol
ĠA gr
ĠG ross
ĠN ich
ĠJ Ã¼d
Ġst ore
19 19
ĠSpiel klasse
Sch on
ĠÃĸ k
Group s
197 7
ĠBischof s
ĠDo ug
ĠHalb insel
ĠAustr al
ĠgÃ¼nst ig
ĠTok io
fir ma
P at
a wa
r ollen
ĠD ass
ĠH ut
tr Ã¤ch
urn e
hl on
Ġab s
if er
pf alz
Ġeigen stÃ¤ndige
hof er
verb indungen
Ġ185 9
Item s
Ġresource GroupName
Bundes liga
ĠNav y
ĠErwachsen en
ĠbeschÃ¤ digt
Mart in
o zi
z ien
ĠE k
ĠU til
Ġbei gesetzt
ĠAr me
Ġander erseits
ĠBr Ã¼ssel
At tr
ĠMag az
Ġoffen e
Ġus ed
ĠRol and
Ã¤cht nis
ĠArgentin ien
B und
V ID
e de
Ġd oppel
un s
an ts
ĠA ct
Ġh ef
Ġl eisten
tion en
ĠAr g
ant ast
ĠZw angs
ĠZeich nungen
IV E
tok oll
ĠPremier minister
E ff
L aut
N etwork
y k
č ĊĠĠĠĠ
ĠA cc
ĠD ark
ĠK av
om etr
Ġge plan
ĠZ war
pf lan
ĠCh am
Ġeinge gliedert
ĠCar los
ĠBad minton
ĠGÃ¶ t
ĠRis iko
ĠTir ol
F eld
I O
M Ã¶
S im
a al
b uf
g f
an ch
ĠL et
ĠSt aub
ĠIn c
ĠAn im
ĠAn aly
Ã¶n e
per iode
Ġverm eiden
ĠÃ¤uÃŁ erst
kathol ische
ĠPublik ationen
Ġrei ste
ĠFass ade
Ġfac tory
ĠFranÃ§ ois
P rÃ¼
b old
e oc
m ember
ei ra
Ã¼ sten
at ien
Ã¤ hne
ĠB uck
ĠM eg
ĠR id
ĠC reate
ĠO skar
Ġ" +
ant on
Ġbest immen
Ã¶l be
ĠBas il
itu de
ĠSen at
Welt meister
frei heit
ĠWahr heit
iction ary
ĠTim es
Ġregion alen
ĠpreuÃŁ ischer
ĠVerbr eitungs
Ġchrist lichen
pflan zen
E v
G egen
z usammen
and te
eh le
ĠDie sel
ak ten
Ã© b
Ġeigen tlichen
such t
ĠDurch schnitt
ĠLeip ziger
fest ival
ĠÃ¼b lichen
eta ill
ĠKop enhagen
ĠÃ¼bergeben en
ĠAufent halt
ĠKob lenz
b le
ar ter
Ġs itzen
am ts
ĠF red
ĠE sp
ot tes
Ġc oun
Ġent worfen
ĠAus schuss
Ġ6 9
ĠSpiel ern
Sch l
ĠBel ager
ĠPat ri
ĠSÃ¤ ulen
irurg ie
Ġumgew andelt
L imit
v ia
x x
ĠM eine
Ġg aben
ĠPro ject
gesch ichten
vor stand
ĠWohn ungen
ins eln
++ ]
Rep ort
ĠEing abe
ÅĤ aw
ĠLink ed
gesp ielt
Ġverh indert
d lich
k ter
Ð ´
Ã¤ p
ĠH ang
ber ge
ig l
Ġan grenzen
Ġr om
Ġtr afen
ian s
Ġ9 6
pro fil
bo urg
ĠSÃ¼d afrika
ĠÃĦ m
Ġ186 3
hÃ¶ hung
atter ie
Ġarch Ã¤
ĠErzÃ¤hl ung
Ġsorg te
Ġstru ktur
ĠPader born
L ayer
b ieren
i qu
ĠF unde
ĠG ol
ĠP ant
le utnant
ĠV arianten
Ġh aus
ĠC ab
ĠIn stanz
19 34
ĠAb b
ĠAb lauf
Ġbest ehend
dig er
Ġges ichert
ĠPh o
ĠSh ort
Ġhei ÃŁen
By Comparator
Ġverst eht
gehen de
fÃ¶rm ige
ĠAsp ekte
Ġphil osoph
Ġehren amt
ĠAbra ham
adelph ia
E CT
G C
K ind
ar is
ien ce
Ġr oman
ern t
ĠAn wendungen
Ġa cc
ĠGem ark
Ġeigen tliche
deut scher
Ã¶st liche
zentr ums
ĠComm on
plan ung
ĠJe ff
Ġempf angen
ĠÃ¤hn liche
Med ia
ĠPhys iker
CON T
ĠCentr e
B uild
g in
r Ã¶
el f
et tet
ĠF air
ĠL az
ĠJ enn
lie derung
ĠMar x
ĠKon ferenz
Ġausge strahlt
ĠCor por
ĠHan se
ĠInf ektion
ĠBuffer ed
A ber
al in
ein satz
ur ist
et isch
ĠM asse
Ġein erseits
ĠE valu
Ġf ehl
ĠH ong
re z
ic us
os er
ĠEr be
op ran
im s
ĠCh a
ĠNeu es
ĠEl f
ĠEl l
ĠCon rad
Ġ% .
Ġbezie hen
ĠKab inett
ĠHoff nung
ebau ung
m utter
v org
w ahr
an gebote
at tribute
Ġs ur
Ã¤ ser
ĠK ilometern
ber gen
ad s
Ġre port
Ã¤l le
ĠIm per
An fang
Er zeugt
ĠNeu er
bo und
trÃ¤ glich
Ġâ ļŃ
ĠTre e
ĠGeneral major
CO L
UT F
Exec utor
ĠJed och
V iele
st ore
or er
ĠB ang
ĠB od
Ġi gnor
ĠL ob
ĠV ill
ĠJ ar
Ġt iefer
ĠZ eile
19 00
19 36
qu ote
hl eten
Ġ" .
ens is
Id x
ĠBet reuung
Ġgut es
ĠPer formance
ĠLandkreis es
ĠVort eile
D am
N ummer
m Ã¤nn
ĠS atell
sch wei
Ġf f
Ġf indest
se h
Ã¼r mer
ĠIn se
ĠÃľ b
Ġ13 0
ĠGel ehr
ĠSol o
ĠUp date
Ġmensch lichen
ĠstÃ¤d tischen
ĠRess ourcen
A lex
h eben
an ter
ĠG ute
ĠE P
ĠR unden
Ġaus geschlossen
lin es
ĠStr eich
Ġverb lieben
ĠEurop e
ĠPart ie
Ġstatt dessen
Ã¤mpf ung
ĠDat abase
ĠNor bert
Ġerziel en
ĠPrem iere
Absol ute
ĠInput Stream
C lau
ĠS yl
sch lossen
ĠM alt
Ġf Ã¤hrt
Ġbe zogen
19 50
ord nen
Ġent decken
geb oten
tem peratur
ĠZeit schriften
ĠSk la
197 3
Ġnie mand
ĠverfÃ¼ gte
Ġbedeuten de
ehm igung
Ġnied riger
pfl anz
w enn
ĠS A
ĠF DP
ra ck
ĠAn meldung
ac y
mit ive
ĠPr int
hol ung
Ġkon zip
Ġser ial
ĠBaum w
Ġbem Ã¼
ĠSat tel
ĠtÃ¼rk ischen
ĠInstitution en
P okal
f ache
Ä ħ
Ġw Ã¤ren
ĠF ett
ĠE i
ĠT ask
Ġver folgt
ĠEr ic
ĠEr hebung
ĠMar in
Ġkon stru
Ġind ustr
AC K
196 9
Ġgepl anten
Ac tivity
ĠSter nen
ĠVersicher ungs
Ġfung ierte
ontinu ier
I st
S Ã¤nger
b undes
at ungs
Ġw Ã¤chst
Ġv irt
ĠR ue
Ġh e
Ġh l
ĠSp ark
Ġbe geg
ĠAl uminium
qu alif
anz eigen
spr icht
Map per
Ġben utz
ĠSk y
the ater
ĠWo od
ĠHu bert
ĠstÃ¤r k
ĠMul ticast
ĠmilitÃ¤r ische
Ġfal sch
J azz
f Ã¶rderung
ĠS yd
ĠG il
ĠH ung
ier bar
param eter
rich tet
schl Ã¼sse
ĠBand s
com pare
fÃ¤l lt
ĠÃ¶ff nen
ĠHei z
Ã¼ndig te
ĠDemokrat ie
ĠAuss agen
ĠEreig nis
ĠLux emburg
ĠLad y
ĠAuseinander setzung
L ehr
L ower
N LS
O ne
T or
W el
c p
ĠS eil
ĠM aur
ĠW arn
âĢ ¢
ĠV eg
Ġo ur
Ġst eigt
ĠAn bau
ĠMa ÃŁe
amm lungen
res h
Ġber ichtete
ock el
als ieger
ĠTr ennung
yl l
Ġzahl en
Ġindividu ell
ĠWes entlichen
U C
c at
h ab
y ce
Â ¼
ĠS yr
ĠK und
and in
Ġge arbeitet
Ġdar stellen
ĠSpiel film
ĠKn ochen
198 3
Ġ185 5
uld a
Ġerz ielt
Sow jet
P L
R ole
T C
r d
r ichtete
Ġn ack
ti a
Ġk Ã¼nst
Ġge leitet
ĠAr rays
iv a
Ã¤r er
fÃ¼hr ungen
Sch iff
ong ol
inder ung
ober flÃ¤che
Mod us
lu ste
Ġpoln ischer
Franz ose
C re
F ra
ge mÃ¤ÃŁ
or ges
hr ingen
ĠK lin
Ġf unction
ĠL il
ĠI R
Ġgr atis
Ġdrei mal
ade d
ĠSe ele
Sie ger
ĠGen e
ĠBesch luss
ĠVolks zÃ¤hlung
Ġ185 6
ĠBef est
ĠStim m
ĠAndre w
Ġnational sozial
ĠMot to
ĠBu en
ĠKonzer te
A tt
H Ã¶
x i
Ġd ella
ĠA L
as ks
ir es
Ġr ichtet
hen den
af eln
Ġpro v
Ġat tributes
ĠLehr stuhl
Ġoft mals
196 8
Ġdest ination
Ġstaat liche
Fr ame
Ġpersonen bezogen
M ein
f ul
st einen
am ing
ĠN ass
-- ;
ĠJul ia
ograf ische
ĠCar lo
Ġkey s
Ġ185 7
nehm ern
ĠPeters burg
Ġeindeu tig
ĠWuppert al
L ie
l och
p rÃ¤sidenten
ĠD al
Ġauf merksam
ĠAr tillerie
qu ert
Ġtr op
berg s
An gabe
amen te
ĠAk te
Inter val
ĠBÃ¶ hmen
Mon th
ĠInner en
rib ution
mir al
J a
b ell
s in
Ġ ul
st im
sch rau
Ġein gebaut
Ġf eiern
ĠT ool
ĠZ eilen
ĠVer st
Ġr aus
auf lÃ¶sung
pl es
ip her
lau ch
ĠMed aille
omb ard
Ġ185 4
aun a
Ġmon at
Ġra sch
Ġinteress iert
Ph one
ĠStruktur en
ĠTemperatur en
ĠWeil er
******** ********
dis ziplin
ĠMisch ung
ĠErschein ung
ĠGiov anni
K rieg
O UT
R eich
W ohn
i ologie
Ġb ad
ĠF an
ĠN ort
ĠO hne
Ġver sen
Ã¤n zer
get X
ĠÃ¼ber zeugen
Ġall gemeine
Ġx ml
Ġadd ress
ĠBro t
Date Time
CT ION
ĠRegierungs bezirk
Ġgez Ã¤hlt
olumb ia
D etails
p rev
ĠB ecken
Ġb ill
Ġh art
ir ken
Ġver standen
ag ing
ver g
ĠEn kel
ett a
ĠMag n
ĠStil l
ĠFÃ¤l le
Ehr ungen
Ġleist ungs
m isch
m inal
n ur
or ia
Ã¼ ben
eg ate
ler in
Ġex tra
ction s
Ġar gentin
ĠSaison ende
Ã¤s se
ĠHil de
itu ationen
Ġgenau e
ĠDok umente
Le ft
ĠGesetz es
rec ated
VAL ID
Ã¼ndig ung
P op
z ule
Å Ľ
sch lagen
Ġs Ã¼
Ġs ilber
ĠB orn
is m
ĠL eh
ĠL eu
Ġg ra
Ġauf einander
Ġt ot
Ġl Ã¤nd
wei chen
Ġst et
ĠStr ei
ĠAus gaben
br Ã¼ck
Ġ8 4
ĠÃľber leben
ograph ischen
verb Ã¤nde
Ġit s
ĠHÃ¶ hlen
Ġor igin
evel op
SI ZE
ĠprÃ¤sen tieren
ĠVoraus setzungen
ĠkÃ¼ mm
Ġbequ em
K at
l ige
Ð ¼
st ufen
ich en
ĠD ritten
ĠG ieÃŁen
ig ion
ĠC la
ĠSch enk
Ġ18 30
ip per
Sch utz
ou v
ĠTr end
gesetz es
Ġrest lichen
Vol ks
ĠEber hard
rue ft
ĠEla eoc
Ã¢te au
R equ
m aurer
w ender
ĠM ike
ĠF uchs
tr olle
Ġk ontinuier
ra hmen
Ġc ur
get Field
arb on
ĠKon stantin
ĠGesch w
Ġth emat
ĠSte phen
Ġeinge weiht
stit u
ĠBew erb
ĠBen jamin
ĠKind es
Ġsamm eln
Pass word
ĠStÃ¤r ke
C ategory
K reuz
S am
ch annel
ĠD ocument
Ġk lin
ĠÃ¼ber liefert
Ġsie gte
St orage
ĠKl ar
org ungs
ĠGew Ã¤sser
ĠReich en
ĠDu isburg
Ġstehen den
Ġerr ichteten
ĠMÃ¶n chen
ĠÃ¶rt lichen
g io
m uster
z esse
ĠB anken
ĠR ektor
Ġg raph
19 17
Ġvor Ã¼ber
ste te
sh ow
Mit te
rÃ¤s id
Ġeh emals
Ġbew aff
Ġbew egt
Ġnun mehr
film ung
ĠEle ctr
Arch itektur
Column s
Ro ute
ĠSamm el
Ġvalid ate
Ġrechte ck
rauff Ã¼hrung
F uÃŁ
c onnection
in iti
el ektr
Ġm ath
ĠK leidung
ĠP av
om s
ĠSch atz
Ġlie ber
Ġe ffiz
fahr zeuge
ingen d
Ġausge stellt
Ġinter pret
Hand ball
ĠHeil bronn
ĠTro cken
leist et
produ kte
ĠFÃ¼hr ungs
ĠLau b
ĠNR W
ĠElaeoc arpus
ĠS y
ur st
ĠK ell
ĠR auch
Ġge kauft
ĠU E
ĠJahr gang
op le
19 29
arb rÃ¼cken
amm ad
Ġ0 1
ĠEx tr
schl Ã¼ssel
ĠHen ri
Ġfinanz iellen
PT ION
Ġkombin iert
franzÃ¶s isch
sup ported
F E
J J
M I
g h
in as
au e
Ġder selben
Ã¤ le
ĠA re
em m
ĠL eich
ĠL av
ĠR eit
Ġk ommerziel
Ġt ut
ri pt
19 40
Ġre d
Ġman chen
sb et
ĠSchw estern
eid et
tik a
ĠBuch t
ĠSchul d
ĠCor ps
ĠRen ov
ĠEmpf eh
ĠTat ort
Sa int
ĠNap ole
B ern
R hein
k ord
st het
ĠA qu
Ġin kl
em pty
ĠP ension
ĠH C
ĠH altung
ĠR ic
ĠV ector
Ġbei der
ĠOr ien
ĠVor stellungen
geben en
ĠEx pedition
verb rauch
ĉĉĉĉ ĉĉĉĉ
ĠMill ion
ĠHei de
ĠZuf luss
frie s
Change d
Ġbayer ischen
ĠFantas y
h um
ĠS om
ĠB ag
ĠB usch
ĠJ ord
ver leihung
ehr ung
ĠFl Ã¼ss
ĠBet racht
ĠHaus halts
ativ es
ĠGen f
ĠFlor ida
ĠLew is
prof essor
ĠSchott land
n ord
ĠB urn
Ġf iles
Ġden ken
ent schieden
ĠU we
Ġl eiten
ver halten
Ġr Ã¤um
ĠAn ders
aus geber
ĠPro perties
Ġ" ";
St a
ĠFl ach
fahr ung
Un garn
ĠOber liga
ĠSitz e
ĠHar z
ĠComm and
ĠÃ¤uÃŁ eren
ĠRun s
ĠDro gen
ĠReserv e
sthe orie
ĠplÃ¶tz lich
Ġexper imen
K or
Q UE
n Ã¼tz
es k
ar mee
ĠD og
ĠM organ
ĠK ompl
ĠR ied
ber s
re ut
Ġl ook
end el
ĠEin kommen
ĠDeutsch es
Ġgew isse
Ġ7 6
Er stellt
Ã¶s ser
ĠHand lungs
ĠSchw Ã¤b
Ġcon f
Ġfest gestellt
ĠMill imeter
Des c
ĠHerzog tum
Med aille
AX B
Ġpassen den
Ġopti mal
ĠmaÃŁ geblich
ĠSQL Exception
hedr ale
en ke
ar z
ĠM uh
ĠC our
Ġauf gegeben
Ġj avax
ĠAl f
ard in
form ed
ĠFran ces
stan ces
Ġex pression
ĠEx il
ĠFor scher
etr ics
ĠDe ath
ĠgrÃ¶ÃŁten teils
čĊĉĉĉĉ ĉ
ĠWerb ung
ĠKrÃ¤ fte
ĠBegeg nung
ĠAbstra ct
Ġgewid met
u ge
an es
au ft
ur teilung
ĠK h
ĠK alender
Ġauf s
br unn
sb ild
ĠSte ve
Ġgesch ickt
Ġerfolg ten
ose x
Ġnieder lÃ¤ndischer
komm ission
ĠVictor ia
ĠPersÃ¶n lichkeiten
Bound s
S erv
d imension
m achen
w ich
Ã ī
ĠS Ã£o
ge ht
it as
ĠJ im
ĠSt eiermark
get Resource
ĠBer ger
ĠMar io
Ġres ul
man uel
Ġhand eln
ĠauÃŁer gewÃ¶hn
Ġengag iert
ĠMonument s
ĠZub ehÃ¶r
C LASS
K ur
z ucht
st immung
et ische
Ġ1 13
ĠK ein
ĠN Ã¶rd
Ġsp anische
ill es
ĠBau reihe
Ġange wand
Ã¤tig ung
ĠHeimat stadt
kn Ã¼pf
ĠFreund schaft
ĠDrit ter
Ġschwier ig
ĠIdent itÃ¤t
ĠSekret Ã¤r
b in
k ompon
ĠA le
ĠD orn
Ġ1 14
Ġm obil
ĠK im
ĠK ast
ĠT ol
ĠL ack
ĠVer pflicht
ĠAn satz
ob ahn
ren ten
ĠMan chester
ĠAt hlet
ĠSchul ter
Ġbeh err
Ġverm utet
196 2
by tes
ĠzusÃ¤tz lichen
Per iod
__ __
Ġgener ate
ĠDek or
nehm ung
Ġzweit es
ĠAud io
Ġmittelalter lichen
ĠBom ben
ĠZerst Ã¶rung
Ġbestell t
ĠOpp osition
ĠTO DO
D okument
c us
Ġs eiten
ĠK riterien
ĠE mer
ĠP ool
is l
Ġver zeichnet
Ġ8 6
Ġger inge
Ã¤m m
zie hung
196 6
go ogle
ĠKin os
ĠSem in
ĠHash Set
ĠEro ber
F amilien
L uther
S ION
n ten
o ti
t Ã©
st urm
ĠD ecken
ĠM iet
ĠV II
ic i
ĠAr k
Ġa ccess
19 10
ak tive
Ġre form
ĠIm pul
be an
Con stant
eck er
Ġ7 1
ĠRo y
Ġen ger
Ġteil en
Ġerreich bar
istr ict
Verein igtes
Ġausger ichtet
: "
et o
Ġm ain
Ġm ember
ĠF eu
le vel
ĠT oren
Ġer leich
Ġl ust
19 12
Ġ18 14
Ġab ges
ĠAb hÃ¤ng
Qu elle
Ġ9 8
Ġausge prÃ¤
ĠNeu zeit
ĠGrund schule
ĠJuni or
Ġgef Ã¤r
ĠZwei g
Tra iner
ĠGrÃ¼n de
sta ats
Ġwissenschaft licher
Ġfinanz ielle
wach ung
ĠReihen folge
ibil ity
Ġgaran tiert
Ġdenkmal geschÃ¼tz
D isplay
n ischen
o ice
en ken
in ternal
ĠS ehr
Ġs um
ĠB uk
ĠM P
ĠVer g
og o
get Attribute
tem p
Ġ8 3
Ġres ults
ĠSe gel
anis mus
ĠWerk zeug
rÃ¤siden tschaft
ĠOlymp ische
195 9
ĠSand stein
Hol der
zub auen
Sum mary
H or
b ury
d ichte
k ons
ĠH imm
ver kauf
ek tive
zeit lich
Ġgef eiert
Char acter
ĠPri or
Ġbelieb te
Ġermord et
Ġgeplan te
A f
E B
M AT
b rech
Ġ append
on c
ĠA kt
ĠD oc
Ġf ull
ĠV ide
Ġp rivat
eh er
Ġ16 0
ĠRo ger
ĠEnt ity
IN TER
Par se
dr ama
Ġgem Ã¼t
Ġerk ennt
sph ase
No tification
ungsver fahren
ĠAktion en
ĠVorder grund
ĠWÃ¤r me
ĠTats ache
Merk male
I hre
Ġm or
ĠF unction
ĠV alen
ĠC ontainer
Ġk ar
Ġge zwungen
ĠVer leger
Ġst ep
19 25
ĠLand s
ĠPl Ã¤nen
Ġgen utz
pro perties
ĠVerb indungs
ĠTr ink
ĠPhil adelphia
ĠTel ek
Bau denkmal
zÃ¼ gen
gra fen
Ġhinzu gefÃ¼gt
Ġtyp es
stud ien
mut able
Ġide en
iÃ¨ re
S imple
ie u
ĠB reiten
ĠD ritt
ti le
ĠZ ut
ĠEr sch
etz e
Ġsp lit
ĠAb d
param s
ain s
ĠMen gen
ĠMittel feld
ĠArbeit nehmer
ĠAnfang s
ĠTyp s
ĠKriegs gefangen
ĠBahnhof s
verl ust
T ax
a schen
ĠB ibliothe
ĠT ypen
ĠC el
ĠC ard
ĠC af
ĠZ ellen
ĠZ irk
aus stattung
19 60
Exception Constants
Ver b
ober haupt
ĠÃĦ l
ĠAll ein
ĠRev iew
ĠFinanz ierung
ĠGit arre
ĠHund ert
Cl ub
ĠGlauben s
ĠRaj on
ĠVizep rÃ¤sident
u ste
Ġf as
ĠW Ã¤hler
ĠL ow
um a
ĠC H
ann over
ĠIn valid
ĠIn tens
() ),
Ġab gel
ĠGrund riss
Ġ% )
ĠAlb ums
ĠauÃŁer orden
Ġangeb lich
ĠFort setzung
ĠDrei ÃŁig
bas is
ĠBestell ung
Dest ination
V oid
s Ã¼d
in ing
ĠT an
St ation
Ġ// $
bau werk
Ã¤ch te
sk o
Ġ9 00
ias ieger
ĠFel sen
ĠHoll ywood
ĠBeweg ungs
ĠTay lor
S or
w enden
ĠA tt
om os
ĠN i
ĠC onnection
Ġl aden
ĠSp ace
ran che
reich es
ges prÃ¤
Ã¤l lig
Ġ7 7
imm ern
ĠPar ks
ĠMann es
Ġlang uage
ĠOst preuÃŁen
Ġschn elle
Ġleich te
Ġabgeb rochen
Ġbegeist ert
s st
z ant
Ñ Į
sp ec
Ġunter teilt
Ġ0 5
ph abet
Ġlie be
sg ruppe
Ġbesch rÃ¤nkt
196 5
beh alten
End point
Ġvers orgt
ĠMass achusetts
Ġqualif izierte
stÃ¤d ter
Fol der
ĠSchne e
Ġsech sten
Ġinstall iert
A ch
H K
S al
s orge
Ġd icht
it iert
ĠP ak
ĠV ieh
Ġl abel
19 23
ĠEn cyclop
old ing
Ver walt
code d
sw itch
ender t
DE F
ĠWor ten
ĠKor ps
ĠTo urn
ĠErw art
ES CO
ĠBon us
Ġide al
D ienst
S pl
st yp
ĠD M
ĠD ick
ĠK rÃ¼
ĠH aw
ĠL ittle
ĠC er
Ġk r
Ġauf nehmen
ĠSch alt
ed el
ĠMus ical
Ġ7 8
ĠMed ik
othe k
190 7
ĊĠĠĠĠĠĠĠĠĠĠĠĠĠĠĠĠĠĠĠĠ ĉĠĠĠĠĠĠ
ĠAir es
Ġerk ennbar
agn ose
wander ung
Ġdisku tiert
hentic ation
L ud
R ows
c ms
in itial
Ġs ym
ĠD eut
Ġk ap
ir gs
ĠO hr
Ġp Content
ĠEr m
ĠJahr buch
ehr en
ang le
Ġsch ul
ĠEin blick
Ġ3 50
oc us
En coding
Ġfest en
Ġbesonder er
reib ungen
ĠSÃ¼ ÃŁ
ĠGed icht
ĠlÃ¤nger e
resource GroupName
ĠMarc us
ced es
ĠBrig ade
ĠMicro soft
ĠChristop her
G el
R ot
c lazz
Ġ $
it us
Ġn utzt
ĠF ox
ĠP ixel
ĠC y
Ġt itle
Ġver mittelt
ĠSt ufe
ver Ã¶ffentlich
ian ce
Ġgesch m
ĠMin dest
ĠKinder garten
AT OR
ĠDurch schnitts
ĠAt tribute
co der
ĠMag net
ĠFach werk
ĠSchwer in
ĠJournal isten
irec tor
So zial
Ġkrit isiert
ĠViz emeister
ĠRezep t
kore a
Parameterized TypeReference
ĠInse kten
B asketball
l Ã¶sen
ĠS G
ĠK ent
ĠF okus
Ġver mitteln
ĠVer anstaltungs
Ġunter schieden
Ġgesch Ã¼tz
hand els
ĠCap t
ĠAf ghan
ĠAnti ke
ĠThr on
ĠDir igent
ĠTschech os
ĠKomment are
ĠBeam ten
i able
s d
u y
Î ¿
ĠR ÃŃo
im b
ĠEin zugs
19 27
Ġ18 20
her stellung
ĠVor arl
Ġgen Ã¼
Ġ8 1
war f
ĠBundes land
ĠVol ker
ĠRes idenz
ĠWinter spiele
Ġ180 3
Ġexist ing
fre unde
Ġnorm alen
grÃ¼n den
Ġcall back
Ġlo op
ĠerhÃ¶ hen
Rem ote
ĠSym ph
Servlet Request
Ġperf ekte
ĠBM W
ĠSchicks al
ĠW at
if ier
Ġber echnet
ite e
ĠLu is
Nach bar
ĠGew inner
Ã¶m m
ĠOn lin
Ġpolit ischer
ĠTem p
ĠBef rei
ĠKonz ern
ĠÃ¤uÃŁ er
ĠPrinz essin
Ph ys
omet rie
Lin ie
ĠjÃ¼nger en
Ġkorre kt
G it
K Ã¼nstler
K ritik
R h
R aum
d le
ie de
ĠB ak
ĠB auf
re de
ĠV Ã¶gel
Ġt our
ĠSch Ã¤d
ĠEr ik
Ġj eg
iz en
Ġwie s
(" /
Ġbef Ã¼r
ĠPr ince
ct ure
ĠMo or
Ġgeb unden
Ġhistor iques
ĠAnton ius
ĠStern e
Names pace
ĠPubl iz
Po inter
a o
g Ã¼r
u de
ĠB ock
den berg
ĠR ag
Ġg gf
ad ier
ĠIn telligen
ate way
ĠCh arts
ĠMar ch
ĠVor name
Ġ7 3
kl assen
Ġhier zu
schn itten
ĠGegen stand
190 5
Ġabsol ut
ĠErd geschoss
ĠGet rei
Ð¾Ð ²
Histor y
ĠBrow ser
ĠPast or
g alerie
Ã ¯
Ġ eignet
Ġh om
ĠC ell
ĠO ran
ĠSch icht
Ġab gegeben
ok er
ult an
ais e
ĠY our
ĠCon fig
ĠKur fÃ¼rst
Ġfr isch
other apie
Ġorganis ierte
ĠInstr umente
ĠOk res
ĠLegen de
ĠFinn land
Ġbedeutend sten
I R
st ationen
Ġw eich
ĠM usch
Ġin iti
ĠG lo
ĠP s
men te
nen nung
ĠAb tei
gl adbach
lei sten
los er
Ġpro ps
ĠBundes regierung
SS R
ĠGast geber
gericht shof
Ġfield s
current Time
ĠVorsitzen de
!! !
lehn ung
ĠSign al
ĠEh emann
ĠSmartph one
Cur ve
INST ANCE
F Ã¼gt
X base
Z usammen
an trieb
ĠS amen
ĠM all
ĠF erner
Ġf lag
ĠH ost
ad i
Ġver r
Ġl Ã¶sen
ic ations
stell ern
lei b
iss ar
ĠZwei ter
Option al
FI X
match er
Ġelement s
ĠKandid at
cul us
Ġnutz te
Men u
ĠOberg esch
ĠUE FA
A U
B al
B atch
T ab
U l
n immt
sch Ã¼ler
Ġw ann
ĠB our
ĠK ritiker
ĠE R
ĠL Ã©
re ct
ĠIn halts
her apie
Ġ9 1
Ġ8 2
== '
Res ults
ĠHand y
Ġhin sichtlich
ĠSÃ¼d ost
Ã¤ndig keit
ĠPaul us
Ġhistor isch
ĠTre ff
Ser ial
ĠZust immung
kathol ischen
ĠSamm lungen
ĠUrs ache
ilen ame
b org
d on
h y
n ommen
Ġ egal
sch reiber
ein kommen
ĠR as
ri o
Ġj ene
Ġre alisiert
pf en
Ġ5 000
Ġ0 7
wer ben
Ġ7 4
fe ature
ĠStud ies
Ġ185 2
euch ten
ĠHon or
ĠErinner ungen
M ont
j Ã¤ger
ĠS v
it ing
le k
ĠH alt
ĠC olumbia
ĠSch uh
lin ois
pl Ã¤tzen
ac o
ac ional
schen den
olle ct
als o
ĠOber flÃ¤chen
Ġbesch rieb
ĠUr ban
Ġro te
Ġeinfach er
190 6
Ġpl us
ĠSieg fried
Arch Ã¤
kur renten
ĠBeck er
Techn ik
ĠRefer enz
ĠWiederauf bau
ĠErleb nis
B ank
K ilometer
T urn
T ube
W olf
n isch
ĠS iz
al ts
ĠA quar
ĠG ul
ĠG reif
Ġh or
ir r
Ġge gangen
ĠZ one
Ġp ool
ver gleich
up l
ek ing
ĠNach frage
ĠLand rat
olle yball
ĠEx p
ĠLe ber
ele ted
list ener
190 8
Method s
Land es
ĠFrÃ¼h stÃ¼ck
Ġfiel en
Sonst iges
v anc
Ġd auert
ĠB ul
ĠG lobal
Ġf ailed
den kt
ech e
ĠAus stellungs
ĠGr ill
ĠNach kommen
ĠVor gehen
ens ive
ĠzurÃ¼ck zu
Ġben utzen
ĠUl m
Ġevangel isch
Ġbetre ffen
ĠRestauran ts
Ġzeich net
Ġfrau en
ĠKoal ition
H S
O wner
c ies
s f
u cc
x id
ĠH els
ĠH Ã¤usern
ber ts
Ġan ger
Ġt ags
ĠVer ordnung
Ġr oll
19 21
Ġ18 13
qu ellen
ĠMar cel
Ġausge st
ari at
ĠRep ubl
west lichen
196 4
Ġbeteil igte
//// ////
Ġregistr iert
ĠGeschlech ts
Ġausdr Ã¼cklich
ĠPrÃ¤fekt ur
A ustr
I B
l ach
au ens
Ġs erv
Ġs amt
ĠA B
ĠH ack
and el
ert ungen
Ġbis schen
19 22
ian er
ĠKl einen
Sch we
ail and
ĠHand eln
Sp eichert
Reg istr
ĠBed ien
FI EL
match es
Ġkanad ischen
ĠanschlieÃŁ enden
ĠWit we
L INE
M IN
s ammlung
Ġ echte
ĠS ind
ĠA y
ĠD istrict
ĠF unc
ĠT ieren
ĠL td
ĠO v
ĠEin sÃ¤tze
19 42
ĠStr eifen
Ġle g
ekt oren
Ġ8 7
... ]
ĠEl iz
rech nung
ĠAk ten
ĠTor onto
195 6
ĠMinister ium
mark e
ĠPorn o
Top ic
ĠErzie hung
! =
M ac
f lie
Ċ ĊĠĠĠĠĠĠĠĠ
Ġ []
ĠS ech
Ġm ode
Ġf ix
ĠC ra
Ġmit ten
uch er
Ġvor stellen
ĠLand gericht
En glisch
ĠBo y
ĠBl u
Ġzusammen gefasst
ĠLu zern
Ġerf Ã¤hrt
ĠKomp lex
laub nis
ĠSing les
Ob wohl
stift ung
Ġspezial isiert
" ),
# #
D isp
T ool
h Ã¶ch
i op
sch eibe
ĠF itz
ĠF ulda
ĠL ook
Ġdem okrat
ĠIn haber
Ġc ell
Ġbe ant
ĠUn der
19 35
Ġ18 45
Ġ18 47
ahl ung
ip eline
mann schaften
ĠPh Ã¤nomen
ĠBet roffen
ott om
Ġqu er
we en
Ġheraus ra
ĠVers ionen
ĠTon y
ĠNachbar gemeinden
ĠMem or
ĠAtel ier
D on
G ra
T M
Ã¼ g
ĠF aust
ĠH Ã¤nden
ien e
ĠVer mut
th ers
Ġbest er
sh aber
ĠBet riebe
Ġteil te
euer ung
ĠDu o
ĠProblem en
inc ipal
ĠSek tion
ĠDres dner
Ġland es
Match er
ĠStreit krÃ¤fte
Mich ael
S ite
W A
c ur
l Ã¤ndern
o on
w il
w issen
ã Ģ
ĠB alk
Ġ1 16
ĠVer folgung
ĠAn walt
19 37
19 46
Ġ18 18
ĠVor lage
ĠEl s
Ġger ufen
ĠWeiter bildung
Sc reen
bes itzer
ĠWar schau
ĠDenkmal pflege
ĠAust rag
Ed ge
Ġentst amm
ĠJahrzehn te
" -
H eil
N a
S uccess
d ates
Ġw ord
Ġs ingle
ĠD ifferen
ĠW ick
ĠN ep
Ġge folgt
ver anstaltungen
get Parent
if ikation
ĠAb sol
ĠVor les
gl eis
ĠAk adem
ĠHil f
arbeit ungs
ĠHel den
ĠPil ot
ĠOrchest ra
ĠFrÃ¼hl ing
D oppel
F loat
G ef
l inger
ar es
Ġv ariable
ĠP est
ĠT R
ĠN on
ĠC ustom
ens us
ens wert
sb es
ĠEx port
ied s
halt ungs
hol ungs
196 3
ĠArm y
ĠRh yth
ĠOff ice
Ġoper ation
ĠErwachsen e
JÃ¤hr ige
ĠBedÃ¼rf nisse
N etz
S en
a int
h aut
Ġ ord
st isch
ĠK rak
ĠG ros
ĠL ap
ĠAn st
ĠEin zug
ĠEin tritt
Ex pr
ĠUnter kunft
ĊĠĠĠĠĠĠĠĠĠĠĠĠĠĠĠĠĠĠĠĠĠĠĠĠ ĠĠĠĠĠĠ
ĠDr ama
ĠHistor ic
ĠDon ald
Ã¼rz te
Ġsicher te
Ġverlie f
stad ion
lac ement
Ele ktr
Ġiden tisch
PROPER TY
n umber
s ieg
un ks
ĠS ich
ĠK ore
ĠF arm
ĠL ub
ĠJ AXB
Ġauf geteilt
ĠU RI
ver arbeitung
ĠSp rech
ĠSp alte
Ġab geleitet
Ġgew orfen
Ġman che
wer fer
Ġbeg rÃ¼
zw eck
To String
Ġerhalten en
ĠSan ierung
Ñģ ÑĤ
Ġdigit ale
Bi ografie
E U
S urface
j son
un er
Ġi ll
ĠM am
ĠK Ã¤
ĠF aktoren
ĠG ibt
ĠW id
ĠV Ã¶l
Ġh ash
ĠN ag
19 48
19 41
Ġsp r
ĠGr as
ev or
ĠRo te
ask a
Ġgest altete
sw ing
ĠSeit dem
rem e
wirtschaft s
ĠHistor ischen
ĠDav is
ĠSchÃ¼ler innen
ĠEt wa
ĠUN ESCO
wal ts
Ġanti ken
option s
ĠAR D
Ġren ov
Ġdek or
ĠPenn sylvania
B ook
V E
in ed
ĠG allen
ĠW lad
ber ichte
ĠAn ten
im age
la fen
19 24
Ġre q
ia e
rich en
Ġ9 3
ĠGem Ã¼se
Ġange ordnet
Ġu kra
alle utnant
ĠNe apel
ĠRu der
190 1
ĠLog istik
person en
exp ected
ĠFit ness
gun sten
M emory
R ight
k am
m esse
st yle
Ġs itzt
Ġf ahr
Ã¶ ten
Ã¶ hnen
ro ad
ĠC osta
Ġauf w
Ġc tx
ĠEin stieg
ĠSte ink
Ã¤m mer
ĠKat al
Ġinteress ante
Ġtradition elle
ĠBundest ags
wh ile
a dern
i ffen
st Ã¼cken
it tel
ĠD sch
Ġein gemein
ĠF usion
ĠG rupp
ĠH unde
ĠL eut
ĠL ohn
ĠAl an
ock er
ĠLe er
ĠRei fen
ron en
ĠUr heber
Ġqu adrat
ĠDes igner
Ġy our
ĠHar vard
Met al
ĠVen ez
ĠRos a
ĠEntwick lungen
Tim estamp
STR ING
ĠLein wand
ĠAlli anz
L ei
P G
R et
h Ã¤ngen
t Ã¤u
at sch
ĠB reis
as et
ĠF Ã¤r
ĠR y
ĠR Ã¤um
ĠJ Ã¤nner
19 13
Ġ3 60
ine a
Ġet hn
ĠSo ft
Ġviel fach
Ġeinge zogen
ĠDar stellungen
SS ION
aur us
ĠDienst ag
Ġ185 8
190 2
Ġerf asst
bÃ¼ hne
FI LE
Ġpoln ische
Ġren omm
Ġwand te
ĠSyd ney
P ap
T enn
r unden
w Ã¤
it ive
Ġw ind
Ġs auber
Ġv en
ĠB ean
Ġm erk
ĠP ut
ent z
ĠZ wick
ĠSch uppen
Ġdurch ge
che f
ĠString Buffer
ĠGeb Ã¤uden
Ar g
dr Ã¼ckt
ĠStud ios
ĠĠĠĠĠĠĠĠĠĠĠĠĠĠĠĠ ĠĠĠĠĠĠĠĠĠĠĠĠĠĠĠĠ
wohn ung
AR D
ĠRÃ¼ck tritt
ĠSa arbrÃ¼cken
Ġkein em
Ġunterschied licher
195 1
Ġdan eben
Ã¤chs ische
cept or
ĠEro tik
ĠWett kampf
P resent
T schech
Ġ ener
Ġd etaill
ĠS lowakei
ge halt
Ġw here
ĠF ur
ti rol
ĠN utzen
ĠN HL
ab on
ĠC hl
Ġk reis
ĠSt ufen
Ġaus gel
eg g
im o
ex ists
Ġdurch setzen
Ġsp Ã¤testens
ĠCh ile
ĠBe weis
ĠHaus halt
zentr en
Ġbeh erber
ĠGu ide
ĠKat astrop
195 7
ĠFlor ian
ĠSoph ie
F in
b reite
b ayern
k es
ĠF utter
ol stadt
ĠH af
ĠC irc
ul us
ĠZ ertif
ĠSch u
ĠEr mitt
In f
ĠBer ichte
ĠAuf tritte
ĠVor gang
amm ung
dig te
ĠZu vor
ĠStud iums
ĠKn ow
ĠSchm id
196 1
195 8
wÃ¤r tigen
gÃ¤n gen
Ġmod ule
ĠEntscheid ungen
Ste p
ĠKre bs
ĠSec urity
ĠWeimar er
verteidig er
ĠLokomo tiven
ĠBuen os
g Ã¤u
m all
Ġd einen
ĠS K
ĠG ard
ĠE b
ĠP ac
ĠH at
Ġer ober
and om
Ġh ess
ro d
Ã¼r zen
wei lig
Ġa f
lo hn
lo ym
ac es
St unden
ĠLand gemeinde
tem pt
ĠFl ora
Ġpro te
Ġgen ehm
Pro ps
ĠUnter schiede
spr achen
ĠBe arbeitung
ĠVerein ten
new Instance
ĠInter ruptedException
zie h
ĠWer ft
zentr ale
ĠMag d
orth odox
ĠRelig ions
parse Int
ĠKons ul
Ġweib lichen
ĠPseud onym
G raf
S L
Ġd iff
ĠB Ã¤r
ĠK eine
om aten
Ġge prÃ¼ft
ru le
lie hen
auf tritt
vers icher
sh afen
Er ste
ĠSte ine
kreis es
ĠAt tr
fÃ¤l ischen
196 7
ĠVal entin
Ã¼st ung
Mill ionen
Histor ische
Ġerl Ã¤u
Modif ier
gefÃ¼ hl
ĠSchlaf zimmer
ĠFF DC
ĠGemark ung
L iga
p ern
Ġd auern
ĠS ac
ge x
Ġs ens
ĠA ven
Ġm Ã¼sse
ĠR ut
Ġo cc
ĠSch mal
ĠSch iller
ĠIn t
ĠAus richtung
ĠEs c
Ġbek annter
alle d
ĠPat ent
ĠSin f
Ġumfassen de
leit ungen
ĠCoun cil
ĠEuropameister schaft
lok omo
Ġangek Ã¼ndigt
Ġbevorzu gt
MÃ¶ gliche
B Y
C ollector
L ied
L EN
a ÃŁen
sch les
em atic
ĠT SV
Ġdes ign
ik ro
ĉĉ ĉ
ic it
ĠSt ars
sp ark
ĠAr ist
ĠCh ines
agen tur
lei dete
Ver band
Ã¤nder ung
aw s
ĠMart ÃŃn
Ġ180 8
Ġangegeben e
ĠWand el
Arch iv
Hash Map
Ġdauer haft
ĠhÃ¤uf iger
Z ug
f ein
k Ã¼nstler
st u
au ben
ĠK enntnis
ĠG T
ĠR iv
ĠR Ã©
Ġk unst
Ġk Ã¼ndigte
Ġl eiden
ri fft
Ġr etten
Ġbe arbeitet
ran ch
19 32
Ġ18 37
Ġtr ee
ĠVor feld
sh ut
Ġ9 2
mit tler
Ġgeh abt
Un ternehmer
ĠEx press
ĠGer d
Ġhin weg
Class es
hand le
ĠTour isten
195 2
Rep ository
ĠVorsitzen den
ĠErk enntnis
Ã± a
ĠFal ken
Ġverbesser t
ĠInstall ation
ĠB rian
et ik
am ann
ĠF ont
ten nis
ĠN etwork
rei hen
rei tete
ĠSch uss
ĠVer teilung
00 00
19 26
ĠCh ancen
ĠBest immung
ymp ath
ĠOn kel
Ġte lefon
bet eil
Reg ie
ĠStaats oberhaupt
wissenschaft lichen
Ġ180 6
Ġleben den
Ġtyp ischen
ĠAust ria
Ġmoder ner
Ġtradition ell
schlÃ¤ gen
Ġbeob achten
ĠBundest ag
Ã¤nk ischen
Ġbetroffen en
ĠHosp ital
ĠWÃ¼n sche
AuÃŁer dem
ĠDoug las
W o
W appen
u uml
v oid
ĠB ap
Ġ1 12
ĠK ok
ĠK etten
ĠR uth
ĠI wan
ist isches
Ġ0 9
Ġe ach
ond itions
amer ik
Ġ| =
ĠHand werks
schutz gebiet
ĠWeiter entwicklung
bereich en
ĠTurn iers
Ġloc ation
ĠMc C
Ġschwed ischer
ĠWeihn achten
ĠCO VID
Ġmusikal ische
andin av
G O
M as
R eihe
T AG
a ver
e j
e ars
ĠA er
Ġin halt
ĠK unde
ĠF avor
ĠP ic
ĠL iss
ĠL oth
Ġal ias
ĠO ch
Ġab gelÃ¶st
ĠBer Ã¼cks
ock e
mÃ¤ ss
Ġerw achsen
Ġmo tiv
ĠrÃ¶m ische
Mon itor
Ġnotwend igen
ĠBam berg
E isen
T ex
a a
d ige
p op
el in
Ġi gnore
ĠM ilit
de v
ĠP ommern
ĠP azif
Ġer zeugen
Ġzu gunsten
19 11
Ġ18 39
tag on
ĠInter ess
jÃ¤hr ig
ĠHier zu
190 3
190 9
Ġentfern en
emat ik
ĠLang haus
frau en
bef ehl
Ġtime out
Ġletzt es
Ġerle bte
Ġbrasilian ischer
Ġcas ino
ĠSkulpt uren
requ ire
Lud wig
P riv
r s
Ġd irectory
Ã¼ pft
Ġf rag
ĠEr stellung
ĠEin fach
Ġre prÃ¤sen
ĠOr th
ĠMa j
anst alter
ĠLie ben
ĠTechn ische
ĠEigen tum
Fac tor
ĠEv olution
195 5
ĠOs lo
Ġelektr ische
Ġdigit alen
ĠDigit al
Ġlok ale
ĠPau lo
ĠEins Ã¤tzen
ĠFertig stellung
N ur
R ichtung
V G
b eln
f z
h Ã¤n
k ol
in voke
ĠS ax
Ġ1 17
em er
ab ilit
rÃ¤ um
ant ie
ian i
ĠChr onik
Ġ12 00
ps ych
ĠLei b
ĠSport ler
ĠFot ografie
Ġsetz ten
IC E
print StackTrace
ĠDist anz
sa al
Ġdat iert
Ġtats Ã¤ch
dor ff
ĠBÃ¤ ume
Ġmusikal ischen
Ġkeiner lei
ĠEmp ire
ĠProz esse
Ġprev ious
Ġgesund heit
ĠViet nam
ĠMÃ¶nchen gladbach
F ernse
P ier
R ate
ï ¼
or p
ĠP ionier
ĠL Ã¼n
ach el
ĠV in
ĠV eget
ĠN iveau
Ġan spruchs
lin s
ĠSp err
ang riff
ĠAr zn
ĠEn zy
ok a
ĠGr en
ock t
ĠSpiel zeiten
sb ahn
add ing
stra int
ĠY ear
ĠEx trem
Ġins zen
ĠHaupt bahnhof
ĠNieder lagen
ĠSan ti
Ã¤ss ern
Parameter ID
ĠMer cedes
ĠMÃ¼l l
Ġloc ale
beg riff
ĠJer sey
Constra int
ĠLy on
ĠGeheim nis
db c
ĠPow iat
erkl Ã¤rung
Listen ers
W id
c onn
n utzung
o ÃŁen
der en
Ġer b
ĠO ste
Ġp or
ĠBr eit
az ier
io den
Ġ8 9
Ar ten
Ġis ol
ĠRech nung
over n
Ġdien ten
rÃ¤n kungen
fred akteur
leid et
DO M
else a
Ġzeig ten
esh old
Verkehr s
Ġbetre ut
ĠEff ekt
ĠServ ices
reden tials
currentTime Millis
H eim
M D
S ee
U uid
W ahl
l ation
p hal
ein trag
Ġs ang
ĠK au
Ġauf weisen
end em
ĠAr ena
Ġunter richtete
ĠNach lass
Res olver
ĠDar win
Ġfrei er
Ġversch oben
pol izei
Sup port
Ġweib liche
ĠDreiÃŁig jÃ¤hrigen
H err
I AL
g Ã¤rten
á ¹
Ġw Ã¶ch
ĠM ex
ĠF ron
ĠG on
ĠH ert
ĠT able
ro h
Ġl v
Ġa fr
ĠVor schlag
ĠPl ate
An notations
eig n
mittel alter
Deutsch es
ĠChrist ine
ĠRel ief
ĠRen ten
ĠJur a
ĠVersuch e
ĠVerkauf s
Modif ied
P rÃ¤sident
c omponent
v ari
z elt
st etten
te or
ge gangen
et wa
ĠD irk
ĠM esser
ĠR on
ĠR eu
Ġk op
Ġan alys
ĠZ wer
ed a
id ak
19 31
enn zeichen
ĠBer eit
ĠAus grab
Pro gress
ĠÃľber setzer
ĠGer ade
ĠBundes straÃŁe
ĠMed iziner
deck er
itte e
ĠAp i
Ġsk ip
ĠTar if
ĠLux us
mag azin
ĠInnov ation
ĠBÃ¼nd nis
exten ds
Ã¤p st
W issenschaft
l iger
m u
ei mer
Ġm ut
ĠF Ã¤hr
ĠP iz
ĠP rÃ¤sidentschaft
ĠI dentif
ĠSch ult
ĠAn reg
ĠPro test
ev al
Ġgen auer
Ġgr Ã¼ndeten
Al ben
off er
Auf gelÃ¶st
ĠVertr auen
ĠKommun ikations
Ġbed ient
ĠStad trat
ĠSold at
Ġgrund legen
Techn ische
cas Type
ĠAuseinander setzungen
ĠStrate gie
ĠkÃ¤mpf te
evelop ment
H z
M T
N un
S ong
U UID
k reise
ĠB arr
ĠB rad
ĠSch acht
ĠAn nahme
ĠEin ladung
Ġ18 35
auf gaben
her it
Ã¤l te
mal erei
bar es
ĠSpiel ers
Ġviel es
ĠMo tive
ĠDar steller
Ġgeb raucht
ĠLebens raum
ĠRechts an
ĠSitz ung
ĠKont o
ontin ental
Ġverf asst
ĠTÃ¼r en
funktion Ã¤r
Ġschwed ische
Ġhil f
ĠTrotz dem
ĠSab ine
G leich
H allo
J ECT
f le
g rid
p Ã¤dagoge
z it
st op
ĠA D
ĠH us
Ġer lern
Ġk ul
Ġaus gesetzt
ak s
ak tiven
uss ball
Ã¼t zer
ĠGesch icht
str Ã¶m
ign ment
kon struktion
Ã¼b ung
ĠPhil ip
ĠMich igan
ĠMitte le
ĠKÃ¼nstler in
ĠWar um
Ġbesser en
Aut o
ĠChem iker
ĠErschein ungs
ĠDokumentar film
ĠVerbreitungs gebiet
z eits
č ĊĠĠĠĠĠĠĠĠĠ
ĠG ord
ĠP ur
ĠP ad
um pen
ro g
ĠU rauffÃ¼hrung
Ġl iber
end ung
la ster
19 49
rÃ¤ g
ĠCh annel
ĠMar co
Pro tocol
Ġher zlich
ren ce
Ġverl ieren
ĠMo ore
195 4
CO DE
ĠKomp etenz
UT E
system s
ĠFernseh film
ĠSim ple
Fl uss
Ġservice Callback
Ġpart ition
ĠkÃ¼nstler ische
ĠErzÃ¤hl ungen
Europameister schaft
, -
T itle
g riff
n ische
Ċ ĊĠĠĠĠĠĠĠĠĠĠĠĠĠĠĠĠĠĠĠĠĠĠĠ
Ġ ec
Ġ arr
ch i
ĠG is
ĠP yram
Ġl ib
ĠNach kriegs
ĠKon stru
lei tete
Ġ9 7
ĠJo han
Ġerst mal
Ġgest ern
Ġvoll stÃ¤ndige
tic a
ĠPal ast
ĠBegriff e
ĠTher es
auff ol
Ġopti male
Ġil leg
ĠPian ist
organis ationen
F u
F iction
h aven
l ess
sch atz
ge zogen
Ġs yn
ĠA gn
ĠF res
ĠG umm
de uten
ĠH ins
Ġge test
Ġge teilt
ĠO utput
eb r
tig keiten
Ġlie gende
lei h
Al low
ĠList en
ĠGew erb
ĠZwei te
Ġschw ach
Ġ185 3
190 4
Ġerr ang
Ġevent uell
ĠNachbar n
Ġbeein druck
ĠSpann ung
Ġdurchschnitt liche
Ġeingest uft
C L
R und
R om
T RI
r ath
s Ã¤chsischen
v oller
sch lies
ĠB ibli
et scher
Ġf erner
Ġf otograf
ĠJ ugoslaw
ĠC os
ĠSch ein
ĠVer stÃ¤r
eu x
ĠAn sprech
Ġ18 44
Ġunter stellt
18 97
gl os
ĠPl atte
Ġdar auffol
ĠAd ministr
recht lichen
ka sten
Ġabge lehnt
CO MP
Â» ,
ĠRem ote
ĠberÃ¼hm ten
ĠClaud ia
ĠFound ation
B ot
O t
P R
R ein
U hr
W ein
c ent
c ell
ĠS einen
ĠB eine
ĠW ichtig
ĠT uch
ĠEn tert
Ã¼hr ungen
ĠAus sehen
Ġsp aren
uss ia
ĠAuf klÃ¤rung
los ure
Ġle gend
ĠÃĸ konom
ĠZw ecke
Ġdef inition
por ary
ĠWor te
ĠTre ppen
gesetz te
ĠTex ten
Ġfre e
annot ation
ĠEich en
Ġverbesser te
Ġschwei zer
ĠOh io
A ud
F k
P ublik
R itter
W M
f uÃŁ
k inder
Ġ echt
ich tige
Ġb undle
ĠT afel
ĠT Ã¤tigkeiten
il ch
ĠV ektor
ĠEr nennung
la ve
ay r
Con dition
ator y
amil ton
Ã¤m me
ĠHistor ische
Sc ale
Ġscha fft
ĠHart mann
Ac tive
Ġleich ten
ĠCast le
ĠDigit alisat
ĠFein d
Liter al
Ġdurchschnitt lich
ĠErl angen
Arb eits
Ġanbie ten
k W
k le
ĠS af
ĠD au
Ġi bn
ĠM Ã¼ndung
ĠK leid
ĠW y
ĠW Ã¶r
Ġer gab
om on
Ġg laub
ad es
ĠU t
ver ordnung
auf lage
sh Ã¶
enz el
inder ten
ĠFrei stil
lock en
ĠSport s
Ġem otion
schau ern
ĠBru ce
Ġexten sion
ĠEvent s
kÃ¼nf te
Ġsec ond
ĠmÃ¤nn lichen
Ġnorweg ischen
ĠAx el
ĠDiÃ¶z ese
ĠDunk el
H om
I con
h ain
in th
un ch
on omen
or de
ĠN eg
ĠN ev
Ġver Ã¤ndern
ah me
Ġ18 16
ĠPro tot
per rt
ĠSte iner
Ġbesonder es
ĠsÃ¼d liche
ĠRuss ischen
ĠQualitÃ¤t s
ĠSchÃ¶n heit
minist rat
feren ces
r um
al ben
ĠB ande
ĠD eine
Ġst re
Ġc ollection
ate l
Ġes sen
Ex tr
ĠGesch Ã¤fte
Ġausge dehn
ĠRe alitÃ¤t
mar ken
ĠHoch wasser
ĠWohn ungs
ĠWer ks
ĠTechn ology
ĠStim mung
Ġgelang t
Ġerk annt
ĠMot oren
ĠUrs ula
Ġkultur ellen
ĠVerÃ¤nder ung
Kurz film
ĠLeiden schaft
Assign able
resp ond
L eicht
P ark
S oll
b ur
c io
c oun
Ġ att
Ġ Ã¤nderte
ĠG uten
ĠG Ã¤rten
ĠP lace
ĠW esen
ĠN oten
ent ums
ĠâĢ ĺ
olog in
pro ject
lieÃŁ t
ĠgroÃŁ em
Ġbr achten
Ġgef ragt
Ã¤ft s
Ġwest liche
ĠProgramm e
ĠschÃ¶n sten
Ġbedeuten den
Ã¤um t
sei tige
ĠKre ativ
Ġav ailable
ĠInternets eite
H A
c enter
k Ã¼hl
Ġ å
ĠT ap
ĠV ize
ĠC av
ul ationen
ĠAn kunft
Ġ18 43
Ġent deckte
ĠAus bruch
18 96
Ġex klus
spr ingen
Ġen ge
str ong
ĠOl iv
ĠfrÃ¼ he
key Set
ĠKat hedrale
ĠBeh and
ĠDo zent
Th is
ausen de
ĠGerman y
ĠHoll and
komp lex
Ġaustral ischen
ĠFlie ger
ĠFlag ge
ĠNeck ar
ĠRac ing
Ġrestaur iert
ĠValle y
E E
E lem
W eiÃŁ
f inanz
m auern
u is
Ġd avor
st amm
Ġv o
et ischen
ĠP ause
ĠW affe
ĠL yn
ĠR ick
tr ei
ĠI gn
Ġh Ã¶r
ag on
ver schluss
Ġun ivers
Ġvor n
pl ung
ick te
ĠVor runde
Ġbeg leiten
iss ionen
ink i
pp s
kon zept
stru ction
gramm arAccess
Ġjeweil ige
tic al
Ġmethod Name
Welt cup
ĠSied lungen
ĠEhren bÃ¼rger
sper re
ĠAnth ony
Ġbeauftrag t
ĠGitarr ist
ĠBulgar ien
ĠBerÃ¼cks ichtigung
Ġs aÃŁ
Ġ1 18
ĠP os
Ġf ilm
ĠH inzu
Ġh alt
ĠO ft
Ġbe deckt
Ġ18 36
of ern
Ã¤ch ter
mit te
gew orfen
ide en
Ġ' ,
tik um
tik eln
ĠAt hleten
ĠRad rennfahrer
ĠAnt hrop
ĠKaiser reich
Gr Ã¼n
Ġregion ale
Ġexp ected
ĠLandtags wahl
Vis ible
h ers
p m
s eiten
Ã ®
el i
ĠH Ã¼tte
ĠI C
Ġg arten
ert o
ud a
ĠCh elsea
Ġ0 8
Ġgew issen
unk er
ĠUm stÃ¤nden
eid ung
ĠHaupt mann
ĠAt las
ĠCl ark
Ġinternational er
ĠDen ken
Rel igion
Ġdefault Value
Ġumfang reichen
ĠAud i
ĠPok er
in sp
ĠS id
ĠS echs
ur b
ĠK lagen
ĠG rÃ¤f
ĠE id
Ġf ra
ĠW ho
ĠL Ã¤ng
Ġst euer
Ġst erben
Ġun it
Ġab stra
lo yd
(" ,
Ġex pr
to Array
ĠJul ian
Ġgel Ã¶scht
schn eiden
ĠDurch bruch
Ber eich
Ġgem essen
ĠVolks republik
tieren den
gehen den
Ġentstanden en
ĠEnd spiel
Ġsc ope
Ġus ing
asp iele
Coun ter
ĠAufsicht s
F er
G lobal
W N
c olor
Ġd elta
ĠD IN
Ġm oment
ĠK ie
ĠH ed
ĠI hm
ĠV as
Ġk Ã¤mpfen
ed lin
Ġsch auen
Ġ18 38
Ġ18 32
Ã¶r n
arb eits
gr am
Ġsp iegel
fl eisch
sb rauch
sel ect
Ġ7 9
Ġbet ont
Ġgesch Ã¤tzt
bew eg
ĠCl aus
UR CE
Ġverbunden en
ĠSn ow
Ġjung er
S K
a sten
d ocument
f ix
h ut
l eister
Î ¹
ĠS ag
ĠH ahn
tr es
Ġer werben
se arch
get Path
ĠSp ektrum
Ġbe enden
qu er
ĠCh i
18 99
ain ment
Al gorithm
ĠÃľber ra
Ġbesch reiben
bach s
ĠĊĊ ĠĊĠĊ
ĠGener ationen
ho use
ĠGu y
ĠFrÃ¼ chte
Ġmethod s
Ġclass Name
ĠHan au
ĠgefÃ¤hr det
BevÃ¶lker ung
Tro tz
1 12
H C
I Z
M al
a ire
m d
on ic
ar us
it Ã©
ĠB j
ĠP all
ĠH i
ĠL ip
ĠR um
ĠJ ag
ĠU s
Ġ= >
Ġ18 41
ĠMar athon
ĠVor jahr
ĠMus kel
ĠUm frage
ĠSÃ¼d amerika
ĠHÃ¶ hle
Des ign
ĠComm ittee
Ñģ Ðº
Ġqualif izierten
ĠVoraus setzung
Absol vent
Ġangen ehm
ĠObergesch oss
F ebruar
H as
M Ã¤nner
g ru
k Ã¶pf
k Ã¤mpfe
ĠB in
ĠD ame
ol in
ĠW ith
ĠT U
ĠAr gument
In halt
ĠAl i
Al p
add ress
Ġbew ertet
Ġkein es
ĠAnt worten
unn able
Event s
Ġfl Ã¼ch
Ġsh ow
Ġbeteil igten
Ġrem ote
Med iziner
ĠDisk uss
Ġwor auf
ĠMiss ouri
Ġverbr ingen
ĠruleJvm ParameterizedTypeReference
zule gen
B esonder
G rid
P ORT
Z eich
k eln
t Ã¼r
} );
Ġd ritt
sch lei
at hlon
ĠB eth
ĠD FB
Ġf ur
Ġge fahren
ver d
ĠAr te
Ġsie d
Ġges ammelt
ĠJan eiro
Ġger aten
ĠTra ck
schw itz
Ent wicklung
195 3
Ġ180 9
ĠKommun e
ĠAmts gericht
ĠDiv is
ĠSchlag zeuger
ĠAbst ammung
ĠNamens geber
ĠLoc al
ĠFell ow
ĠBelager ung
ĠEliz abeth
E LE
H in
f onds
ĠS ED
ĠM ind
le hen
ĠH obby
ĠV all
ĠN atÃ¼rlich
get Time
Ġ18 46
eten zen
ĠgroÃŁ zÃ¼g
Ver breitung
Ã¤m pft
ĠCon text
Ġern euert
verb ot
RE AD
Ġinner e
ĠStaats anwalt
ĠÃ¤ gyp
ĠBal kon
meld ungen
ĠtÃ¼rk ischer
ĠwÃ¼n schen
ĠWurz eln
Ġveranst altet
Y ear
c os
p us
á »
ĠD y
ol as
Ġf amil
ĠL ey
ĠL ade
ĠR aub
ĠI v
re ader
ĠC her
Ġg riff
Ġg lauben
Ġdem nach
ap ply
Ġunter nahm
Ġab gebaut
ĠÃ ©
ĠAus gleich
pl omat
18 90
ieren der
ail s
ĠBo ys
Ġeinz iger
leg ungen
ĠFest ivals
Ġzahl reicher
ĠAp pl
ĠNeben fluss
Ġbisher ige
ĠClass ic
bed arf
ĠKurz film
ĠAir port
ĠVerl etzungen
Ġentspr ingt
ĠAuff assung
stÃ¤d te
ĠNationalsozial isten
klass igen
ĠSor timent
ĠWirk lichkeit
ĠBrie fe
ĠClem ens
ĠAngelegen heiten
loym ent
S tel
e ffiz
h ier
st one
Ġs olle
ĠD Ã¼r
ĠL aur
ier tem
Ġver teidig
ĠSch Ã¤fer
ed o
ĠAb schied
Ġwieder her
Ġ16 00
ĠEnt deckung
iden ce
ĠGe orges
Aus gabe
ST ART
ĠWebs eiten
schein lichkeit
Ġgem isch
ĠErn est
ĠZur Ã¼ck
Ġzurueck gegeben
ĠService Future
ĠSar ah
Ġdauer te
Bef ore
Ġverstorben en
ischÃ¶ fe
D reh
F T
h ash
p pe
un en
ur laub
ĠD ritte
ĠF iction
ĠT ed
ĠC ott
ah ne
Ġst arben
String Builder
be auftrag
ĠKon sol
lei den
inder te
ĠUr sprÃ¼nglich
not Null
Ġstand ard
ĠBro ad
ĠBran che
ĠÃ¤hn lichen
ÑĢ Ð°
Kultur denkmal
Ġac tive
ĠSchles ien
ĠKommand ant
ĠGir l
ĠErzie hungs
ĠFÃ¤h igkeit
ĠEinkauf s
ĠMyth ologie
Ham burg
X X
Ä Ĺ
sch reibung
ĠF oss
ĠH ef
Ġr ief
Ġent s
18 95
ĠZeit ungen
ĠBau meister
ĠBez eichnungen
ĠVerb rechen
kon ferenz
ĠZusammen schluss
ĠWill y
ĠRechts wissenschaften
tic s
ĠrÃ¶m ischer
Ġreich te
cul ate
ĠKaff e
Ġmet adata
Ġmedizin ischen
Ġsinn voll
Declar ation
ĠRepar atur
ĠHild esheim
! ");
K ap
k ritiker
in formationen
un te
ĠS ummer
Ġf Ã¼hlen
ĠT hal
ĠT hrowable
ĠL ernen
ĠC lin
Ġal b
ahr er
Ġp fl
rit able
ick el
ev in
Ġzw anzig
Ġbef asst
gew achsen
ĠWest er
ash i
ĠProf i
Ġho hem
Ġerhalten e
ĠBay reuth
ĠHeil ige
sl etter
Ġdat abase
Ġchines ische
Bild ung
tran sport
ĠAfghan istan
C ast
D ruck
n ing
n ow
z weig
in kt
in ische
ĠS und
ĠB uild
ĠD R
ĠD est
ĠG y
ĠL is
ĠIn spir
ord nungen
ĠBer atungs
ĠAb fahrt
Ġ0 2
Ġe qu
ĠY am
ĠKunst denkmÃ¤ler
Ġschn ellen
SE CON
Ġfl ach
Ġvorhanden e
ĠStu hl
rev olution
Pr int
Ġprak tische
Ġhol z
ĠBesonder heit
ĠCamp us
Ġdur ften
imple Name
ĠVerdienst ordens
Ġbefind lichen
Ġlehn te
6 00
A g
H ex
P Ãĸ
b on
p ri
ge tragen
ĠA T
Ġz us
ĠK rau
ĠL esen
ĠJ am
ed uler
Ġsch ein
lie gende
ĠStr ess
ech tigkeit
ord neten
enn ame
String Utils
Ġber uht
Ġfor dert
ĠBl as
pp ed
ĠFre ie
ĠRÃ¼ck zug
ĠGef Ã¤hr
gra ph
Ġung arischen
Le ague
Med ien
verstÃ¤nd nis
ĠQuadrat k
/ {
A K
F ull
p reise
r und
Ġd omain
Ġi Phone
ĠE con
gen s
ĠR Ã¼
ĠJ g
Ġaus gesprochen
ĠAr tist
18 98
ĠPl Ã¤tzen
Ġbet reiben
Ġ10 1
riv e
Ġgef Ã¤llt
check EMail
uk le
CE SS
ĠZÃ¼r cher
ĠKom fort
ĠEvangel ische
ĠQualif ikations
ĠDor othe
Lin ks
ĠPok alsieger
Ġgesellschaft lichen
ĠQue en
beam ter
Ġnachfol genden
checkEMail Adresse
= '
> .
M aster
O D
Ġ iterator
Ġd st
Ã¼ bt
ĠG R
ĠP eking
ĠN an
eb t
sp olit
hn er
ĠStr Ã¶m
ire ction
Ġres olve
ĠProdu zenten
ĠUr kunde
US A
Ġ185 1
cl us
ĠGraf iker
ĠFrankreich s
ĠPil oten
Child ren
Ġmark iert
ĠÃĦm ter
G etter
u der
Ï Ħ
in sert
st age
ĠB reak
ĠD ead
ĠM ix
ĠF aktor
ti ker
ĠH eld
Ã¶ hm
ĠL Ã¼b
ĠC urt
ir us
rei en
Ġo k
get Request
get Absolute
Ġ18 25
lo y
ev en
Ġpro vider
Ġger echt
Class Loader
Ġpar ser
ĠPer u
ĠStu dent
krÃ¤ ften
Oper ator
Ġsamm elte
ĠPed ro
Fk EMail
L ive
N or
S ql
h Ã¤
h Ã¤nge
w ur
ĠA sh
ĠB ilden
ĠM essen
ĠE ms
ĠP eer
ĠH Ã¤r
ĠH Ã¤ndler
ĠW ed
re port
ul ierung
Ġp ush
wei len
scha f
ĠEr forschung
ĠCh ild
ĠBl Ã¼te
ĠSe eh
Ġbel egen
Client Execution
stehen de
ĠHei rat
quar tier
Gemeinde auflÃ¶sung
ogn ition
ĠZeu gen
Il legal
ĠHimm els
= \"
A A
o i
Ġw Ã¤hlte
Ġb reiter
ĠM Ã¼
ĠJ ew
eb all
Ġp al
sp eicher
get Annotation
Ġre ason
Ã¤l en
18 85
ĠAm ph
zw ald
LE D
ĠPal m
AP I
ĠGot ha
ĠWissenschaft s
ĠVerl etzung
mel den
ĠSow ohl
vis or
Ġhol en
ĠBrau t
lÃ¤uf e
ĠLiefer ung
Ġbefore ClientExecution
Hein rich
Ġlauf enden
pap ier
Ġprofit ieren
Ġeingemein det
B itte
F ragment
N av
b ilden
h Ã¼gel
æ ľ
en ge
sch reiten
ĠP rivate
ĠH Ã¼r
us el
ĠV ision
ir kt
ĠIn tr
Ġst ein
ĠSp alten
rie t
Ġ/ **
ĠMit begr
ob e
18 93
Ġ9 4
set Attribute
ĠBet rag
Ġind ischen
fest e
ĠOp tim
Ġempf ohlen
ĠermÃ¶glich te
ĠgrÃ¼n en
ĠVerteidig er
ĠRÃ¤ umen
ĠApost ol
Ġdokumen tiert
ĠEngine ering
ĠUd SSR
ĠTschechos lowakei
ĠBreis gau
Ġgetest et
T al
j u
Ġs ince
ĠB elle
ĠP ia
ach ment
ro th
ĠN au
ul arb
Ġr ichtete
ce ae
ess a
rÃ¤ uch
res pon
Ġber ichten
dig ten
ĠUnter grund
Sp iele
Mann schaft
AR N
ĠNatur park
Ġvoll kommen
ĠVolks schule
ĠDem onstr
Ġkurz zeitig
sprach igen
beh Ã¶rden
ĠSalz burger
Ġinteress ant
ĠEvangel isch
ĠGit arren
Ã´ ne
Ã¤rt ner
innes ota
B ur
Ċ Ċĉĉĉĉ
Ġ ew
ĠR ey
ĠVer hÃ¤ltnisse
ind lich
id sch
Ġre ference
St ats
Ġneu tr
Sch rift
ĠRe chen
Ġbesch rÃ¤n
Ġro b
emen tierung
Man agement
čĊ čĊĠĠĠĠĠĠĠĠĠĠĠ
Ser ializer
Ġober e
Pr ice
ĠEhr enz
ĠTur in
! )
I X
N och
T el
W ald
b rief
w Ã¼n
ĠD avon
tr echt
Ġge gliedert
Ġauf geb
ĠMa st
Ġdeutsch es
Ġbes etzten
Ġbeg in
ĠBl itz
kon stru
Ġrech ter
sie ht
ĠSek und
Ġtrans form
Ġbegr Ã¼ndet
ĠKomb in
ĠInner e
Rec ei
Ġkultur elle
ĠAusgang spunkt
ĠLetz ter
Ã©b ec
( -
B enz
H ead
I ST
c ommerce
h arm
È Ľ
ĠB aus
ĠF our
ĠG az
ver eine
ug by
ĠAb bau
ĠMar shall
Ġausge legt
ĠMÃ¼n z
such e
Ġselbst verstÃ¤ndlich
Ġteil t
ME SS
ĠGu ido
gra de
stud io
ĠGottes dienst
ĠAnder son
aust ausch
ĠCommun ity
Ġregul Ã¤ren
S ach
W ild
f ehler
h on
o iden
Ã °
ĠS ara
Ġs enden
Ġdie jenigen
ĠP for
ĠP KK
ĠL Ã¶s
Ġer setzen
and al
ab wehr
ĠAn liegen
op hen
ĠÃ¼ber tr
ob i
Ġgew innt
ĠPl att
Ġverl auf
ĠBÃ¼ chern
Ent fern
azz o
ĠnÃ¶rd liche
herr n
Ġfr ame
ĠRed akteur
Ġnie mals
sl eiter
Ġnorm alerweise
verwalt ungs
isc ons
Ġsah en
Ġstattf and
ĠBrau erei
ĠSto ÃŁ
Ġbehand eln
ĠSyr ien
F R
P OS
l ik
Ġ Ê¿
au ÃŁ
ĠB ien
ĠB ridge
ĠR eut
ĠV III
Ġl eiste
op fer
Ġ18 21
ib us
spiel s
reich t
En tries
Ġbes ieg
ivers itÃ¤t
teil ungs
rom an
ĠCl ara
Ã¶pf er
ĠLeg isl
Ġnied rig
ĠjÃ¼ng ste
PRE FIX
ĠGrÃ¤ ber
MÃ¼n chen
ĠLoth ar
F ootball
P ubl
k Ã¼
Ð ¹
č ĊĠ
Ġm ac
ĠG ift
ĠP Ã©
ĠL orenz
ĠI sol
ro tt
ĠC ache
sp aren
ew ald
rie ge
id den
18 92
ĠNach mittag
ĠVor haben
fer tigung
ĠTh ailand
Ar rays
ĠBo ard
AB C
ĠHeraus forderung
ĠkÃ¼nstler ischen
ĠErkrank ung
ĠMagd alen
? )
C an
G old
L ook
T urnier
c re
f assungs
o hle
au scht
Ġw on
as List
ĠĠĠĠĠĠĠĠ Ġ
Ġn odes
Ġdes c
Ġ18 10
Ġunter brochen
ac tive
ss itz
mit ten
ata ill
Ã¼nst ige
ĠAt l
ĠGener alleutnant
ĠFest schrift
Pl ugin
ĠErw in
ĠGeist es
So ftware
ĠBek ann
ĠLi u
sei tigen
ĠExper iment
Ġgesetz lichen
ĠHow ard
ĠgewÃ¼n schten
ĠKÃ¤r nten
ĠBundesverdienstkreuz es
ĠErober ung
ĠgenÃ¼ gend
+ "
. âĢĵ
? âĢľ
L eist
d re
x FF
Å ¼
Î ½
or ff
ĠF lex
ĠF Ã¶der
ĠE C
ĠP y
ĠP un
um ul
Ġdes wegen
Ġp rim
ĠAn gehÃ¶rigen
Ġc re
ĠAl m
rÃ¤ fte
sk e
sk ammer
ĠUm zug
Ġsel ect
Ġen orm
Ġher an
Ch arl
ĠSe a
deck ten
Ein ige
ĠArbeit spl
wissenschaft liche
ĠMil ler
ĠBesuch ern
Fe atures
ĠInner halb
ĠWes er
DA Y
ĠPersÃ¶n lichkeit
ĠKav aller
Dam it
h eight
v enz
Ñ ĩ
å ı
ĠM eilen
Ġein iges
ĠL ac
ri um
ĠAn wender
ger t
ger echnet
Ġbe zeichnen
ungs zeit
iz it
int Value
En gl
ĠTh em
ĠBo hr
ĠBild schirm
tag es
Ġwei ss
ĠFolge zeit
Ġherv orge
ĠJe de
Ġtyp ische
ĠSteuer ung
Byte Array
Ġerschienen en
ĠSec ret
Ġunmittelbar er
sthe ater
ĠKart off
Ġcle ar
Ġschot tischen
Ġangrenzen den
Ġkonzip iert
O s
T F
Ġs ure
et sch
is Assignable
ĠW ink
ĠT ote
il ation
Ġge lo
Ġg ere
ic er
op ol
og ne
Ġ18 34
enn te
ov o
Ar tikel
ĠSchw ieger
ĠEl be
Ã¤nder ungen
Ġverl iert
ĠFahr zeugen
ĠLandes regierung
yl on
ĠDan ce
figur ations
lÃ¤nd isch
Ġzentr al
ĠWol ken
ĠEuropameister schaften
Hein z
russ isch
ĠSozi ologie
Ġmath emat
ĠgefÃ¤r bt
Ġfas zin
b eben
v Ã¶gel
Ø §
ĠA tem
ĠF ame
ol es
ĠH eu
ĠH ind
ĠH ass
ĠR ib
Ġzu stÃ¤ndigen
Ġnach weis
Ġsp eichern
ov iÄĩ
Con structor
ĠBe au
Ã¤nd ischen
ĠZu schauern
ilder t
sche e
aut obahn
lig ht
ĠNational en
wohn ungen
leben s
ĠTri o
ĠÃ¼b licherweise
Land tags
rist all
krÃ¤ f
Ġhab ilit
Ġhal ben
Ġvergleich sweise
ĠBist ums
ĠKro atien
Ins gesamt
ĠBiograph isches
Ġreligi Ã¶sen
Ġthr ough
D b
g ei
s iedlung
ĠO den
ĠVer fahrens
ĠAn leitung
aus stellungen
19 47
hen de
ĠVor sprung
fÃ¼hr ende
Ġausge geben
Ver fahren
ĠPh arm
bo y
ĠMed aillen
ĠInd ustr
ĠGl Ã¤ub
ĠGen ehmigung
Part ei
ĠErk enntnisse
EX CE
Ġevangel ischer
wes ens
marsch all
Ã¼h ungen
ĠSpe ed
ĠAbhÃ¤ng igkeit
Ġdarauffol genden
L it
a er
s uper
w Ã¤nde
Ġ echten
sch ema
Ġs uch
Ã¤ ums
Ġb rauch
ĠK ass
ĠK reise
ĠK Ã¤mpfe
ĠF ind
ti um
ĠC ad
ist ing
Ġt x
ĠAn sonsten
im iter
aus wahl
zen en
geb ra
ĠAus rÃ¼stung
ĠAm tes
ĠBau werke
ank a
amp a
ĠHaupt darsteller
Ġqu e
ĠMeister titel
ĠDi am
Ġgem eldet
ĠBetrieb ssystem
ĠPfl anze
aun us
Ġumfassen den
Meister schaft
ĠArchÃ¤ ologie
Ġbeherber gt
C as
D onald
M or
M ul
k ong
t in
ç ļ
Ġd ick
al ing
Ġs ort
ĠB ie
ĠB utter
ĠH eid
ut ing
Ġauf wend
Ġzu gewiesen
Ġst ieÃŁ
Ġc ir
get Node
Ġbe ur
ib m
18 89
ev oll
ian ischer
ond a
ĠFor est
ĠOrt steile
ĠProf ession
ĠfranzÃ¶s isch
ĠKr ise
ĠDr amat
ĠWill en
Ġabsol ute
Sh ow
ĠMer c
ĠGut schein
Ġamer ikanischer
ĠPan or
Valid ID
ĠOrgan ist
Christ ian
ĠRal f
A fter
g eist
s ied
Ċ ĊĠ
Ġd einer
an aly
Ġm u
ĠW oll
la de
Ġab schloss
auf ent
Ġneu esten
Sch lag
ĠTeil nehmern
ĠMed ium
ĠUr kunden
uck er
Ġstehen de
ĠRef lex
ĠPor sche
rug uay
kraft werk
ĠlÃ¤nger en
Ġrec ei
Ġwor aufhin
Ger man
ĠStraÃŁ burg
Jose ph
ĠTerr asse
ĠprÃ¼ fen
D isc
G l
H ome
I p
S ynchron
c ommand
k andid
w oche
ĠA gen
ĠB ebauung
ĠM ale
ĠK enntnisse
ĠP RO
ĠP aket
le ep
ĠH arm
ĠH amilton
Ġk ro
ist ern
ĠAl ice
pl ier
vers ation
ĠStadt bezirk
ĠMittel n
AR K
ĠGegen stÃ¤nde
Ġgemein nÃ¼tz
Ġem p
geord nete
Sh op
ĠBro ok
ĠJournal istin
ĠSem ester
vertr etung
ĠPubl ishing
ĠÃ¼berra schend
ĠBeweg ungen
Ko ordinate
Ġoffens ichtlich
ĠHins icht
L ou
R Ã¼ck
j ar
s im
ĠM ang
Ġm uÃŁ
ĠG ur
Ġh y
ot es
19 16
oc aust
lieÃŁ en
ĠQu edlin
Ġbek leidete
stein er
Ã¤nder ten
ĠInd ones
ee ded
row ser
ĠDis play
ĠMont age
Kl ein
ĠChem nitz
Ġbegr Ã¼ndete
ĠBrit en
ĠGlock e
national mannschaft
grÃ¶ÃŁ te
ĠZul assung
ĠClau de
Ġschlech ten
array copy
Ġmedizin ische
ausschuss es
> -
B R
p an
w Ã¶rter
ol ine
Ġf icken
le p
is pr
ĠT eich
Ã¶ ster
ĠC ass
ĠZ oo
ĠU K
he orie
eh me
ot ti
ungs an
ĠBr et
Ġbet rifft
eid igen
ĠRei s
ĠBew usstsein
ĠMod ul
ĠBeruf ung
Ġlin ker
Up per
ĠKol onie
Comp uter
Ġprak tischen
Ed it
Co uld
Ġqualif izieren
ibil itÃ¤t
ĠVermÃ¶gen s
Av ailable
Ġverdien en
G S
H P
H erkunft
U se
c atch
f angen
g ow
ĠS erb
sch in
ge laden
ĠK ru
ĠF euch
ĠP oll
ĠH ip
ĠW eich
ĠVer mittlung
Ġ18 42
Ġtr ugen
18 83
Ġbest attet
Ġviel mehr
gew Ã¶lbe
ief ern
ĠVol ume
ĠBest immungen
anc er
ipp i
lech te
Obj ects
Start seite
ĠKontr oll
ĠAbgeord nete
ĠerhÃ¶ hte
Sa ale
rip pen
Ġprofession elle
ĠStatt dessen
ĠGewerk schaft
ĠTob ias
ĠAgent ur
ĠMuh ammad
m ass
m ethoden
s sen
Ġ ..
Ġd ay
ĠB lei
ĠM ig
ĠM ust
Ġein heim
ĠL ibrary
ĠR ain
re q
ĠN AS
ĠC P
ent urm
Ġr hein
ĠAn sprÃ¼che
ap pt
ĠAus flug
18 87
ip io
eim ate
Con verter
teil ten
ĠHau st
ĠHaupt ort
ĠRÃ¼ck seite
Mar ia
Ġsol ange
ĠPal Ã¤
ĠhÃ¶ch st
ĠMos k
ĠEing angs
getS impleName
Ġzul Ã¤ss
ĠHeraus forderungen
Ġselten er
Ġhab t
ĠtÃ¼rk ische
Ġmensch liche
ĠSoll te
sbez irk
izont al
A gg
d an
h ielt
h essen
m ak
m otoren
v ik
Ġd own
ĠS ain
it iv
ĠB ah
ĠB ey
ol ved
ĠV ariable
Ġge be
Ġl Ã¤dt
ĠSch ei
ah ler
Ġaus sehen
ungs weise
ran ke
av i
sk op
Ġbes ei
heit lich
ikan ten
kl opÃ¤die
els on
ina e
Ã¶ch er
ograph y
Ġ% ,
ĠDar in
ST AT
ĠLin ke
ĠInform atik
Ber uf
ĠSchloss es
dent ity
produ kt
ĠHin dern
Ġrule X
ĠPartner schaft
ĠtÃ¤ glichen
ĠZimmer mann
edig lich
ĠKomposition en
ĠBegr Ã¼ndung
ĠVinc ent
ĠMoz art
PAT H
Ġleiste te
E V
S u
S ection
b inding
f aktor
j ugend
sch ungen
Ġw ild
ĠM ake
sen z
ĠIn itial
ĠAn to
ĠSp er
ĠMa yer
ĠUnter haltung
ĠGes ellschaften
Ġch ain
ĠBet reu
ĠNord ost
Ġverl Ã¤sst
ĠCon ference
con f
Ġmein t
Ðµ Ð½
ĠRitter gut
ĠMagaz ine
Lower Case
L B
T okens
e he
t mp
Ġ eig
ĠS we
sch Ã¤
Ġs u
ĠF uture
de z
ĠR ande
Ġver ring
ĠDie sen
get Text
Ġ18 33
qu en
Ġunter richtet
auf bau
ĠEn try
ĠAuf wand
uÃŁ en
ĠReg isse
olit h
sel f
ĠQu artet
ĠWeb prÃ¤senz
ĠIl linois
ĠMannschaft s
ĠGeneral stab
ĠRoman e
ĠNo Such
Ġchar acter
rec ord
verl etzung
ĠjÃ¼nger e
ĠKanz el
Juni oren
ĠTaschen buch
ĠIndust ri
ĠHels inki
Ġprote stan
D etail
a it
g ieb
ge gr
Ġs ank
Ġf liegen
ĠW ars
ĠR og
il fe
ĠV ia
ĠC in
Ġp at
ĠÃ¼ber prÃ¼ft
ek ord
Ġ- =
inz uf
sb uch
Im port
ĠSchw ert
ĠTr in
Ġall mÃ¤
alse kretÃ¤r
ĠDu ft
Ġbeh eimate
Ġintern al
FuÃŁball torhÃ¼ter
Ġangeb aut
ĠTest s
Ġstate ment
ĠjÃ¤hr liche
ĠKa stell
steuer ung
ĠKai ro
ĠInterpret ation
Ġstet ig
isAssignable From
1 20
E uro
S m
k reisen
w Ã¤hlen
Ġin sert
Ġm ach
Ġh erk
ĠSch rau
ag ert
Ġp ur
sp ol
ex pression
Ġtr ace
ĠMit tag
ĠAuf stand
sk Ã½
ark tischen
Sch edule
ĠGer tr
Ġwill kommen
ĠAs yl
Ġnieder lÃ¤ndische
ĠBur k
Ġverz ichtet
Ġcomp ute
ĠPop ular
Ġwohn te
resent ation
---------------- ----------------
ĠStell vertreter
Ġol ymp
grenz ung
ĠTheat re
depen dent
ĠCorpor ation
I r
t age
st ack
al ische
ĠD ifferenz
ĠP unk
Ġf ern
ĠL ehen
ĠR onald
Ġer baute
ĠI SO
ĠC rist
ĠO RF
Ġl ei
Ġl uther
ic ates
wei tern
Ġbe deut
art a
lo v
res et
Ġgesch w
ĠSchw anger
ĠAut omat
ĠCon stants
ĠZwei fel
Ein en
ĠLei der
ament o
ĠMor ris
ĠPlan et
ĠMarkt platz
CH E
ĠPil ger
Ġgener ell
Sub scription
grÃ¼n de
Ġprak tiz
ĠHaar e
ĠYou Tube
Kan al
fass ade
Ġseiten s
Ġd ruck
ĠS ockel
ĠG Ã¼l
ĠT um
il o
Ġmit hilfe
Ġzu geschrieben
ist oire
ver teilung
ĠPro st
18 86
wer fen
ĠSchw ed
ĠWei ss
ius eppe
sol venz
druck s
FuÃŁball trainer
ĠTro ck
ĠProjekt s
ĠRen Ã©
ĠhÃ¤ufig sten
Ġung laub
ĠDreh arbeiten
Valid ation
Ġkanad ische
ĠKrank heiten
VER SION
Ġverurs acht
ĠMitbegr Ã¼nder
N amen
S F
d ies
t otal
in haber
st uf
an us
ar ett
ĠB eu
ĠM eier
am azon
ĠW alk
ĠL ov
ĠI ron
Ġh Ã¶lz
ĠC loud
Ġver wirk
ik um
ĠfÃ¼r s
ver y
ĠAn ordnung
Ġ18 17
Ġvor geschlagen
pf Ã¤l
18 80
ĠNach hal
ens ystem
tiv o
kl ang
ĠUnivers al
aut omaten
eig ern
Or gel
ĠHoch schulen
ĠEm ma
ĠLebens jahr
ĠLondon er
ĠPark platz
ĠGed Ã¤chtnis
fÃ¼r sten
Ġap plication
Ġap ply
ous ine
ĠJSON Object
Ġirgend wie
Ġspec ified
Ġanges iedelt
Ġenth ielt
Denk mal
B ass
p assen
u tive
ĠS ource
ĠD anzig
Ġein gew
ĠW eit
Ã¶ d
Ġk andid
rei bst
Ġver mein
ĠIn fo
ĠEr halt
rie st
lie ss
ĠEin trÃ¤ge
Ġab out
lo ok
Ã© es
Ã¶ff entlichen
Ġget an
mar ine
ĠFr isch
ĠWeiter lesen
back ground
Rep l
Ġelektr ischen
ĠWahr nehmung
steh er
Ġide ale
ĠSchwar ze
ĠSec ond
ĠKrie ger
ĠBeob acht
fac es
ĠWurz el
ĠfÃ¼hl t
ĠJÃ¼n ger
QUE ST
ĠEinzugs gebiet
FIEL D
1 14
B oden
P rÃ¤
S etz
k ab
on er
Ġw eiten
Ġs ome
em ar
ĠK ay
ĠR ast
Ġer fol
Ġan treten
Ġan stelle
ĠVer luste
Ġc ause
Ġ18 28
enn amen
if orm
ĠUnter lagen
ĠUS D
enden cies
fÃ¼ hl
Path s
ÃŃ k
Ã¤h ern
ĠFlug zeuge
Ġhistor ique
ĠHe art
ĠSicher ung
Ġbegr aben
ĠHon ig
ĠlÃ¤ng st
Ġjahr el
Ġbelg ischen
ĠFlÃ¼cht linge
ĠPerspek tive
ĠBerech nung
Sing les
ronom ie
EXCE PTION
N ein
d n
f ast
g ium
s ame
st imm
an schluss
ein g
ĠB ienen
ĠH l
den z
ĠSch eiben
Ġr Ã¶
Ġ18 12
ĠPro ph
ĠPro tagon
rÃ¤ u
ĠGr Ã¶n
ac cept
18 88
br em
ian ische
ĠStud ierenden
Ġkon kr
File Name
Ġbeh alten
Ġstamm ten
ĠStu art
Ġschl Ã¤gt
Max im
ĠJob s
ced ure
ĠFle cken
ĠBade zimmer
ĠAster oid
ĠRav ens
Ġvorber eitet
ĠAnsprech partner
M etrics
R obert
S zene
k Ã¤
m ail
p ause
Ġd iv
ĠK ette
ĠH Ã¼tten
ĠT ai
ĠL aser
ĠU SB
Ġl et
Ġp e
ed es
os k
ser tion
id ar
ĠMa z
ĠVor trÃ¤ge
ĠQu art
ĠZu hause
ĠFilm regisseur
Ġzusammen gestellt
ĠMo h
ĠFach bereich
ĠLuft fahrt
Ġeinzel ner
Ġbegr enz
Ġfinanz iert
ĠKom Ã¶die
Ġgriech ische
ĠDate Time
Ġpubl iziert
ĠStan ley
ĠChallen ger
grÃ¤ ber
ĠSanti ago
C annot
b og
ĠB org
Ġin v
ĠK em
ĠG os
Ã¶ cke
ĠL ars
and ie
Ġg eile
ĠSch iffen
ĠDie t
Ġc ommun
ĠEr haltung
get B
lie f
Ġvor ange
tern ehm
rÃ¤ te
Ġwieder hol
set Property
Ã¶ff nungs
Ġeigen stÃ¤ndig
Ch em
ĠBeg leitung
Ġqu alit
reck en
Ġhistor ischer
ĠDat eien
Ġad ap
Table Name
ĠFluss es
loc ation
Russ land
ĠGord on
A ktiv
F ollow
L es
V B
i ja
j un
o om
p lain
Ġ tier
Ġv olle
ĠA rea
ĠB rid
ĠĠĠĠĠĠĠĠ ĠĠĠĠĠĠĠ
Ġz ertif
Ġf und
ĠH ohl
ĠL etter
il ang
ĠN ar
ul ierte
ĠSch ema
ĠVer pack
Ġc ustom
eil le
our en
ĠFl ur
sb eg
app y
app ed
ĠfÃ¼hr ende
Or ts
ĠVerb rauch
ĠGra ham
Leben s
uck s
bez irks
mod elle
Ġleben s
Ġorganis ieren
Ġberuf lichen
Ġorien tiert
ĠErkrank ungen
Ġarab ischen
ĠJubil Ã¤um
ĠErzbist um
Pier re
Ġ', '
iscons in
çļ Ħ
H F
K om
P UT
b ole
h us
h ing
l is
w ache
w ende
as y
Ġb utton
ĠM ent
ĠE sch
ĠP rÃ¤sentation
ĠW rest
om eter
Ġt ollen
sp unkte
ap o
rie gen
In tegr
Ġvor an
ĠNach weis
Con f
los ing
ĠGeb irgs
Ġange messen
hau ser
echs lungs
Ġkon f
ĠSc reen
anc y
ĠRu ine
Person en
Ġcreate d
ĠKompon ente
Ġlin ke
kn oten
ĠErd beben
ĠTal ent
Ã¶pf ung
Ġproduz ieren
Ġvorher igen
ĠPlay er
gener ate
Ehemal iges
ĠBeschÃ¤f tigten
ÅĦ ski
ĠSkla ven
R en
R enn
S dk
c ial
e te
ie in
es see
au gen
ĠM ahl
am o
ĠF ri
Ġf all
ĠW arm
ĠV W
Ġl ux
ĠSch af
ĠSt ore
Ġaus ges
ĠEin stellungen
Ġ18 31
gr ammen
tig keits
ac tor
Ġbest Ã¤tigte
IN VALID
ĠzurÃ¼ck zufÃ¼hren
ĠAd ams
bo urne
Ċĉĉĉĉ ĉĉĉĉĉ
ĠGra phen
Ġverw altet
fel de
struktur en
Page Link
Ġentscheiden d
ĠHigh way
ĠExper imen
DI AL
ĠElem enten
ĠByte Array
ĠNa gel
Ġgez ielt
ĠJon athan
ĠProj ekten
sbed ingungen
zut age
T otal
k arriere
l uther
} .<
or b
ĠB ehr
Ġb ulgar
ĠH arb
ĠR af
Ġan wes
ĠO ct
ĠZ ucht
ĠSch e
ĠSt apel
sp Ã¤ter
ĠEr hÃ¶hung
eut zutage
ĠÃ¼ber arbeitete
Ġsch lagen
ĠAr min
Ġtr ock
ĠAus lÃ¤nder
up s
ok o
av ior
St op
stan de
amen ten
ander s
ĠGe denkt
ĠBest en
ĠEd in
recht liche
Ber echnet
ĠKur se
spro blem
ĠTour en
ĠÐ ¿
Ġcm d
prÃ¼ fen
Ġdest o
Ġqualif iziert
ĠKult us
ĠGolden en
Ġwunder schÃ¶n
Ġneg ative
ĠgewÃ¤hr leisten
ĠTs un
Ġausgesch ieden
Ġhum an
ĠYor ker
Leicht athlet
R M
k os
k urz
u ver
ĠS ey
ĠS tif
ar ab
ar est
Ġs Ã¤chsischen
ĠG ib
ĠL an
il lo
ĠC ore
ing st
ra z
ĠSch ienen
ĠEr ror
get Default
ĠÃ¼ber ein
Ġsch lossen
ĠÃ ģ
ss ue
tem pel
ĠFl orenz
ĠgehÃ¶r enden
Or dens
Ġverb leiben
Ġeinz iges
ĠCo us
ĠIs a
40 6
Ã³ r
Ġschwer er
dat ei
ĠWettbewerb s
ĠSym pt
Po ints
ĠErf inder
ĠTyr ann
ĠMetrop olit
ĠvorÃ¼ber gehend
> </
E valu
G ateway
H ar
in stall
ie ge
st Ã¶rungen
ĠK ot
ĠK anten
Ġf ran
ĠL ehn
ĠV ent
Ġl at
Ġun klar
get Next
Ġbe zog
ĠEin tr
Ġ18 11
Ċĉĉ ĠĠĠ
ex tr
Ġvor zu
rit ische
18 94
ont act
ĠBr ett
Sch ul
13 4
ĠPlan ungs
Rep rÃ¤sentanten
ĠViel leicht
flug zeug
MP TY
ĠPhilipp inen
ĠGran de
ĠKlass iker
ĠBÃ¤ cker
Ġheader s
ĠNahr ungs
Ġsorg fÃ¤l
ĠDub lin
schi ffen
Ġverab schied
akes pe
ĠJahrhund erte
ĠJAXB Element
A ir
D av
G A
R ing
i ak
s z
s icher
w elle
ĠB og
as ar
ĠD ob
Ġein gel
ĠF eiert
ten ded
ĠW orm
and ra
ĠN O
Ġg laubt
Ġt okens
Ġr s
Ġwar m
iz a
ĠAl ois
ov on
ant o
ĠNach ruf
Ġbes iedelt
Sch au
enk te
ĠKunst geschichte
AT O
Man aged
welt meisterschaften
Ãĸ ff
iver y
Ġsicher lich
ĠIns zen
ĠInnen raum
Sel ected
uel a
opp ing
sprech ung
Sport ler
ĠEntwick ler
Ġausgew Ã¤hlten
Bet rieb
ĠAster oiden
ĠSatell iten
W al
Z iel
k Ã¶r
s icherheit
Ġ ĊĠĠĠĠĠĠĠĠĠĠĠ
ĠS eh
ĠS ix
Ġs uchte
Ġein setz
ĠK evin
ĠW ass
ir bt
ist iken
ad Ã©
ĠSch al
Ġp ending
ĠSt Ã¼tz
os is
ass istent
Ġsie bten
ohn en
eter min
(" -
Ã¶l n
Ġges ungen
ĠQu Ã©bec
ĠWei h
ĠSÃ¼d seite
use el
All gemein
ĠGesamt wertung
ĠFuÃŁ gÃ¤nger
Ġpass word
ĠGesprÃ¤ che
ĠgÃ¼nst igen
getr iebe
ĠGlei s
ĠHend rik
. ;
d ro
m ode
y ter
ar isches
ĠB BC
ĠE y
ĠE pp
ĠH ob
Ã¶ konom
ĠI b
re gen
and emie
ĠV iv
ĠJ imm
ĠSt Ã¼rmer
Ġc ommerce
ap ur
ster s
if izierung
ĠReg istr
spr ungs
sb ek
ĠQu ad
ĠBet ten
ĠPlatz ierung
ĠVerein igte
ĠRei ÃŁ
ĠBuch es
ograf ien
ĠBi ber
Ġbezeichnet en
Ġstud ieren
Ġbede utete
tieren de
stÃ¤ndig keit
Ġ180 7
Ġzeit gleich
Ġgegeben e
Th omas
ĠAustr alia
ĠKÃ¶nigreich s
Ġdre hte
ĠEss ay
Ġplan en
Ġmel dete
ĠmÃ¤nn liche
ArchÃ¤ ologischer
Publik ationen
H g
J ean
f isch
j er
ge hr
at form
Ġs ee
Ġein setzen
ĠG riech
ĠW Ã¤nde
Ġh igh
ĠJ i
Ġt iefen
Ġl as
ĠIn v
get Local
Ġbe zahlen
Ġj ugend
Ġum liegenden
Ġent sprach
vers uch
ĠKon sequ
for um
out ube
ĠCon serv
Ġben annten
ĠEm ail
ĠGen au
IT E
ĠVers ammlung
ĠSti ck
ĠDis ney
ĠKreuz es
ĠprÃ¤ z
ĠCap it
ĠAch telfinale
ĠTages zeitung
Ste in
ĠHum bold
Ġcolumn s
ĠÃ¶ konom
Ġgolden en
ĠLiebl ings
Ġakadem ischen
Setz liste
D och
D abei
j on
n au
o ad
Ġw enden
Ã¤ uÃŁ
Ġz ivil
ĠK ies
ĠF asch
ĠF onds
ĠG iebel
ĠP Ã¤dagog
Ġf etch
ĠW DR
ĠT all
um pe
ĠV at
ĠJ en
ag ra
ĠSt urz
ang aben
id as
ĠAb kommen
pro vinz
ĠBo u
ĠAd ress
Ch arts
ide d
ĠEurop ap
ĠHoch zeits
zei tige
Ġte sten
Ġhinter en
Ġrel ation
Trans form
ĠWel che
ĠPrem ium
vo gel
ĠSchlag zeug
sprÃ¼ fung
iffer ent
ĠWissen s
Ġschlech ter
ĠVf L
ĠMemor ial
getAbsolute Path
C ustom
D iff
N UM
R oll
s ich
er de
st Ã¤
sch ichten
au to
Ã¤ ule
get Parameter
Ġ18 19
ek tiven
Ġ4 50
Ġ17 0
set s
ĠBau arbeiten
Ġen gen
ĠPol ar
Ã¶st licher
ari us
stru ct
ĠBel euchtung
Ġinter nen
ĠPat rim
ĠZahl ungs
ĠLuft waffe
ook ie
ĠGeh irn
ĠAss istenz
ikal ische
ĠÅ ģ
Sport veranstaltung
Ġgl Ã¤n
ĠClub s
ĠFund platz
Ġgeschlossen en
lowak ischen
Ġanges ichts
Ġco uld
ĠKathol iken
ĠSus anne
ĠDec r
sem ester
Ġstren g
Tran sport
ĠGÃ¶t ter
ĠGrÃ¤f in
B uf
B ilder
g ymnasium
s i
w n
ĠS ultan
al ischen
Ġs ave
ĠB innen
ĠD ecke
Ġein fluss
ĠF reis
ĠE qu
ĠP rec
ĠL ediglich
Ġh ielten
ier n
ĠC ourt
Ġk W
ĠSch a
ĠSch aum
ĠIn solvenz
Ġsch ema
if tet
tig ungs
ĠOr n
br ach
ĠMus culus
ĠBo ots
ĠGrund stein
50 9
wort h
ĠBÃ¼rger krieg
Reg ister
Ġ180 2
ĠTurn er
emb ran
ĠSach ver
ĠEngl ischen
Ġverp asste
ĠWalt her
Serv ices
1 15
B or
F ailure
h allen
p assung
w ise
ĠS ams
ĠS tett
Ġf ik
ĠL j
ĠR in
ĠR ange
um fang
re ktur
ing hausen
Ġan im
Ġver schl
Ġa ccount
18 91
Ġzw ang
ĠPl ant
lag t
enz eit
ogra fen
ĠSte ck
ĠSe arch
ĠFrei heits
ĠEd itions
ĠHa ag
oot h
ĠPlan eten
ĠNutz ungs
imen ter
Ġverd ient
Ã¼ll te
Ġzeich nete
Sign ature
typ es
ĠNeum ann
ĠEcon om
ReprÃ¤sentanten haus
F ort
T Ã¼rk
Ġ Ã¶stliche
or ger
it at
Ġs am
el ung
ĠB arth
ĠF lieÃŁ
ĠP ank
ĠP reisen
ĠT T
ĠR he
ĠZ elle
ahr ung
ver antwort
ien d
ĠUn gl
Ġent w
ac a
ĠBr Ã¼n
Ġ17 93
ett y
stan ten
ĠGemein det
ĠMÃ¼n zen
ograph ien
ĠInd iana
Ġqu eue
ĠsÃ¼d afr
ĠZusammen setzung
ĠRef le
mod ifiers
Ref eren
ĠLau ter
Gener ic
Sport liche
ĠPan el
Ġrep rÃ¤sent
ĠSl alom
wal de
Ġsowjet ische
ĠFass aden
Ġbeeinfl ussen
ĠTw itter
Stat istik
seg ment
ĠEncyclop edia
ĠEntert ainment
amazon aws
b Ã¼r
b evÃ¶lker
l Ã¼sse
n on
Ġ art
ĠS D
ar ing
Ġm iss
ĠG am
ĠT Ã¤nzer
ĠSch ritte
ĠAn notation
âĢľ :
18 79
Ġ0 6
ĠGer ichte
ĠFol k
ĠReich weite
ĠSchul z
con figuration
zeug te
ĠHol ocaust
ĠDi mension
ĠGen re
geord neter
ĠGu ard
akter ien
Sel ector
irt y
Ġverz ichten
ĠDÃ¼sseld orfer
ĠVerband es
ĠBud get
BC I
onom ie
ĠAuff Ã¼hrung
Ġmass iv
Ġzeich nen
Ġerle bt
ĠCook ies
Us age
==' \
ĠLiss abon
H op
J B
g Ã¼ter
Â ¤
st ums
sch mer
Ġs uccess
ĠB eute
ĠD in
Ġ( +
ĠF liegen
ĠH eiden
ĠT H
ĠR aketen
um me
ĠIn sp
Ġc p
Ġbe z
ster ben
Ġvor erst
Ã¼ck te
of ilm
fl Ã¼ge
dig ungen
An t
Ġth em
ĠGes ell
ĠSe ef
RE D
ĠBas ic
Ġerf uhr
Ġ180 4
ĠErfolg s
do or
Ġwes entlichen
Ġra w
Jo urnalist
ĠHÃ¶r spiel
Ġrep lace
ĠMand at
ĠMÃ¶n ch
ĠWik ipedia
Ġgros sen
Ġkom fort
schaff ung
ĠElf meter
ouv elle
ĠSiz ilien
vanc ed
B urg
it Ã¤n
ĠA mal
ĠD ing
ĠD eh
ĠD ak
Ġm ul
ĠF alk
ĠP ig
Ġf il
ĠT ru
ĠT een
Ġ2 20
ĠC A
ul ieren
ĠZ Ã¤hne
ĠSch ub
ĠSch ieds
ez eit
br Ã¼cken
ite es
iet z
Al tern
to LowerCase
ĠHaus halte
ĠFr acht
ĠÂ °
ĠKn ei
Ã¶rder te
ĠÃĸsterreich ische
ĠFer tigung
ĊĠĠĠĠĠĠĠĠĠĠĠĠ ĉĠĠĠ
ĠAnt eile
Log in
kn Ã¼pft
Ġmin im
ĠLog o
Ġabsolv iert
ĠBayer ische
ĠVerhalten s
Ġprofession ellen
Ġkost et
T x
ĠK ick
ĠK lage
ĠK essel
Ġau st
Ġer weitern
re fer
ĠN acional
Ġden ke
ir l
Ġr unden
Ġun be
Ġc ontains
get M
geb r
utz er
Ġpro j
schie bung
sb esch
Ã¤u schen
ON G
ĠKunst historiker
Ġbew ohnt
ĠMod us
ĠAll tags
ox id
ĠEigen schaft
ĠPlan ungen
ĠChe fredakteur
Ġas iat
ĠschÃ¶n er
Ġbed ingt
ĠHel fer
ichter stattung
ĠGesetz e
ĠArm strong
ĠÅ ½
ĠMaschinen bau
ĠRezep tion
Ġneg ativ
ĠTrau er
ĠEdel stahl
ĠSchaff ung
ĠPerspek tiven
Flag s
ĠProfess ur
ĠZut aten
ĠPak istan
E ner
F K
S R
b anken
f it
h all
l yn
v gl
ĠS i
ĠD evelopment
ĠF len
ĠF loat
re b
ĠJ ay
ir ts
ul k
Ġt wo
he ft
ver hÃ¤ltnisse
esch en
id i
Ġent warf
br achte
ĠTh ese
Sch m
Ġange meld
12 5
setz ungs
gemein schaften
ĠKÃ¶nig lichen
ĠNational versammlung
ĠSen ats
Ġad ded
Ġerfolgreich sten
eiger t
Ġgl Ã¼cklich
Ġcom pare
ĠGÃ¤ sten
ĠFranzÃ¶s ischen
ĠSchr Ã¶der
led ge
skl asse
kre te
ĠGrim m
Ġbedro ht
Verwalt ungs
R ei
T uple
j ana
k ischen
un ten
ĠS ten
au me
Ġs onn
ĠM ore
ĠH arn
Ġer teilt
ĠN ebel
Ġan gesch
Ġp Node
ĠEr ben
end sWith
ub s
Ġj etz
ĠUn i
Ġent tÃ¤u
ip se
wer de
Ġkl icken
Ġen coding
Ġch unk
Ġar men
ĠBuch en
ĠGen ossen
ĠSol ar
spro jekt
<? >>
verband s
ĠFort schritt
has Access
Ġtechn isch
ĠDist rik
ouver n
kur se
Gew Ã¤sser
Qualif ikation
Wid get
A UT
M G
ĠF ut
Ġf ragen
ck et
Ġg reift
Ġt at
ien ne
Ġsch ar
Ġ18 27
wick elt
ĠJan e
ĠGroÃŁ vater
Mit glieder
such en
ĠHo he
ĠTr ump
con vert
ĠLauf zeit
ĠKreuz ung
Sel bst
fil men
ĠHerren haus
ĠPublik ation
Ges amt
hÃ¶r en
ĠNÃ¼rn berger
ĠThÃ¼r inger
ĠAufent halts
Auth or
Ġpopul Ã¤r
Beg riff
Bew egung
Spl it
ĠJugoslaw ien
DIAL OG
D om
D ATA
E O
E ben
l Ã¶s
l imit
Ċ ĠĊĠĊ
un fall
an os
sch uh
Ġw usste
ĠB Ã©
ĠD oll
ĠD iss
am ar
ĠG ent
ti zen
ĠW are
Ġan g
ĠSch okol
get Bytes
ĠSp ons
ĠAr range
pe kt
Ġle ere
Ġgegen einander
ĠÃľber tragung
ĠGl etscher
ĠKreis stadt
alle e
FuÃŁball nationalspieler
ĠWill em
row s
ĠTor ped
Sc an
ĠRot ter
Ġversuch ten
ĠÃ¼b te
ĠNor weg
Ġentstanden e
Â» .
Re al
âĢĿ ,
kap itel
ĠMe teor
ĠbeschÃ¤f tigen
Ġap i
Hol z
Ġposit iven
Ġdunk len
Ġdec lar
inten do
ĠReichstag s
Bek annte
Ġcir ca
Sdk Internal
an al
sch Ã¤den
Ġb Ã¶hm
ĠM Ã¤
ĠK olumb
ĠG eiger
ĠE if
ĠP fe
ĠT ib
ĠR eturn
re geln
Ġauf bew
ist ers
Ġl ike
Ġp ossible
ĠSt one
ĠAn merkungen
Ġc ool
ĠPro gress
enn ungs
ĠVor kommen
Ġnoch mal
Ġ10 5
ĠPf le
ĠFor derungen
schlieÃŁ t
lauf bahn
ĠRep ert
Tra ck
Ġdi plomat
ĠDr achen
Ġev alu
23 4
mÃ¶glich keit
Ġmein te
ĠjÃ¤hr lichen
Ġtem por
ĠPaar e
Ġerheb t
ĠLeon hard
Ġsup port
ĠKonzep te
ĠStol per
ĠMartÃŃn ez
7 00
J ul
L im
Z eitung
k ranken
t temberg
t itle
Ð ·
ĠS ne
ĠM ater
Ġm Ã¼
ĠG iuseppe
ĠH erne
us sten
ĠJ ochen
ag ten
ĠâĢ Ļ
Ġr ender
ĠAn ruf
op ter
ak ul
av y
ĠKon fession
ĠJo int
Sch warz
ĠZu gehÃ¶rigkeit
ĠBeg leit
Ġersch ossen
ĠReich sk
con tr
Ġgemein t
Ġ[ ...]
ĠZahl reiche
Ġ180 5
osoph ie
getC urrent
ĠGot th
Her steller
Ġnorm ale
ĠStandard s
lÃ¤ufer in
ĠUrs achen
ĠÃ¶ fter
gelegen en
ĠEngl ish
ĠrÃ¼ck te
ĠProp ag
Ġidentif iziert
FuÃŁ noten
ĠallmÃ¤ hlich
A Z
G L
H a
M ore
S Ã¶hne
T B
W eimar
d itions
f ell
r ut
s al
at on
Ġb ud
ĠK it
ĠK eil
ĠP ep
ĠR i
om i
ĠC ord
Ġan trat
ĠO swald
ĠZ in
ĠSt eiger
ot op
Ġr eine
zen sion
ep pen
Ġre par
ia de
ip er
ht hal
ĠFl Ã¼sse
ĠÃľber reste
lau tern
bild ner
ĠPf und
[] []
ĠKap azitÃ¤t
ĠDre ieck
ĠPal Ã¤st
wÃ¼r de
asch inen
Ġnational er
Ġklass ischer
Ġwes entliche
mon at
Ġerl itt
Cap acity
Ġstation iert
ĠWitten berg
ĠSteu ern
ĠAuft akt
Entfern t
ĠKavaller ie
SdkInternal List
1 16
M issing
P ure
w appen
in formation
it r
Ġs ettings
Ġb al
Ġm a
Ġm apping
ĠK PD
ti d
ĠL enk
ĠN iger
ĠZ ier
ĠAn wendungs
ert h
ĠFl y
Ã¤ch ern
ĠGemein schafts
Ar n
Un known
schl usst
Geb iet
stein s
gebiet es
ho tel
ĠMath ematic
ĠWein bau
ĊĠĠĠĠĠĠĠĠĠĠĠĠĠĠĠĠĠĠĠĠĠĠĠĠĠĠĠĠĠĠĠĠĠĠĠĠĠĠĠĠ ĠĠĠ
ĠAf rik
ĠAch ter
Ġerz Ã¤hlen
ĠKrist all
ĠBem Ã¼hungen
Ġhr sg
ĠPrinc eton
ĠBurschen schaft
ĠErm land
beteil igung
T ile
W inter
p x
p zig
Ġ \"
on struktion
Ã¼ tern
ĠH its
ist urnier
Ġl okal
ger ichte
Ġvor gegeben
stell bar
Ġ" \
Ġent scheidet
br ett
En vironment
Ġges perrt
Sch ach
ĠBe end
meister s
aut omat
Ġverb reitete
ĠMan usk
ĠRech er
ĠSh akespe
ĠMitglied schaft
preis es
ĠEhe paar
umm el
Lo op
ĠElektr onik
ĠGar den
Ã¶pf en
Her ausgeber
Ġstammen de
Ġchines ischer
ĠHy per
ĠHab ilit
LOG GER
Declar ed
ĠGatt ungen
Original titel
ĠAlf ons
ĠErwart ungen
A ff
B ayern
P reistrÃ¤ger
V ors
f uÃŁball
h oven
o sp
p okal
sch altung
Ġb atch
Ġein her
ĠU eber
Ġl i
ĠSt all
sp an
Ġr ole
Ġbe zahlt
ĠÃ¼ber region
geb Ã¤udes
ult ure
omm ission
ĠKon j
ĠJo yce
ĠPf eil
ĠNational park
ĠBew ertungen
ĠOn t
Ġhei ÃŁ
ĠEhren mitglied
ĠMess ages
Nieder lage
durch schnitt
tau send
Ġsor tiert
instr ument
ĠContr ol
ĠVul kan
Requ ired
D D
E K
N C
S onder
T en
f ull
h ir
k ologie
Ġd oppelt
st al
Ġw ovon
Ġv iert
ĠA real
ĠD um
ĠG ig
ĠG UI
ĠE cht
Ġk ind
Ġver Ã¶ffentlichen
ĠZ ag
Ġl ohnt
Ġp Ã¤dagog
ver n
Ġsich ere
get Max
Ġunter e
Ġ" )
Ġab gew
fl ush
Ġgew Ã¤hlten
ĠKl etter
Ġges endet
Ġbef re
Ġbef reit
ĠBundes kanz
rech ten
Ġverl aufen
ĠVerb ot
buch t
zei tigen
ĠFre quenz
Ġte uer
ĠKan te
ĠVertr etern
Ġ180 1
ĠZeich ner
ĠLou ise
jo in
Ġunbek annten
kom Ã¶die
Ġreag iert
dehn ung
ĠSchum ann
L Ã¤ufer
P K
d l
h end
i ation
w ider
z oll
el ing
ĠB ruck
ĠK i
ĠK leider
ĠE cken
ĠP M
ĠH K
ĠR eck
ĠN OT
ĠC hen
Ġauf gest
ĠZ ig
Ġl ob
mer kung
ĠEin bau
18 81
lag ert
mit gliedern
stan zen
Ã¼nd ungen
Er z
Ã¤u ber
Ġeigen em
Ch unk
ĠMo os
Key word
ĠKultur en
ĠErst ligisten
Ġwahr en
ĠAdels geschlecht
ACT ION
Ġmer ge
ĠSauer stoff
ĠEdin burgh
bevÃ¶lker ung
, "
C odes
k rat
k tive
p refix
s ow
ä º
ĠS lowen
sch Ã¼tz
et tel
Ġb o
ĠH Ã¤ft
ĠW etz
ben ennung
ĠUn it
iz able
ohn ern
18 77
eigen en
Sch Ã¶n
Ã¼nd lich
ĠQu in
Ġange kommen
ĠVerb Ã¤nde
ĠDar unter
Ġall owed
gleich en
ĠRom eo
Ġper man
omb ination
Ġfrei gegeben
ĠStaats sekretÃ¤r
Ġverlie h
ĠNot wend
Ġfinanz iell
ĠjÃ¼d ischer
ĠAbst immung
Block ing
VerÃ¶ffentlich t
ĠAns ichten
ĠgewÃ¤hr leistet
Bad minton
Ġchem ische
ĠJahrhund erten
Relation ship
D own
L C
a endert
b ranche
f utter
k ritik
Ï Ĥ
Ġs obald
ĠB ody
ĠR umpf
ĠC SU
Ġge ehrt
Ġan zeigen
ĠDie go
od ie
ĠMit ter
ĠMar ok
ov ice
be er
rÃ¼ der
ĠTh om
ĠBe er
stit ute
ĠÃĦ uÃŁer
Ġbeh ielt
haf ter
ipp ing
Ã¨ ne
aj ew
ĠBesitz ungen
Ġwahr genommen
ĠPo sen
Ġwohn en
ĠEmpf Ã¤nger
ĠHy b
Ġdein em
ĠKÃ¶r pers
Ġcle an
ĠTrieb wagen
ĠWeltr ang
Ġislam ischen
ĠSpren g
gÃ¤ ste
Ern st
B ER
B randenburg
C enter
G i
L ex
M ON
P redicate
R a
Ñ ħ
ĠB ent
as a
ĠM inden
Ġm ol
ĠK alten
ĠF ull
ĠT Ã¤
ĠC ON
ist ic
ik ern
Ġc ontain
schaft lichen
od on
lie be
Ġ18 24
ĠStr als
Ġsp ace
ial ize
Ġthe y
ĠVor gÃ¤nge
able Future
Type Enum
ĠVol umen
ĠHoch stift
ĠX V
ĠGef ahren
ĠBi ologie
ision s
ĠUl l
ĠMaler in
Ġaktiv iert
ĠLi bert
ĠFund ament
Assign ment
ĠMountain s
ĠÃ¼ brig
Ġliefer te
ĠTerritor ium
Alex ander
ĠOrien tierung
ĠVerpflicht ung
ĠGul den
B lack
B elege
D rei
Ġ 000
in herit
un ternehmer
sch ar
at ra
et al
ĠK ommen
Ġzu zu
Ġsch Ã¤tz
Ġ18 23
Ġ" ]
ĠAuf hebung
An ti
pro jekte
iss ippi
ĠFilm fest
link plain
com e
ĠKar os
ĠVers orgungs
ĠStaat lichen
ĠTage bau
ĠKÃ¼nstler s
ĠBÃ¶ hm
fÃ¤h ige
leb nis
Ġausger Ã¼stet
ĠUnterricht s
Ġhochwer tigen
ĠZweit ligisten
Struct ure
ĠJed es
Stud ien
jew itsch
ĠDial ekt
beu tel
ĠStaatsb Ã¼rger
ĠKonzentr ations
Ġkompon ierte
Ġverlang t
ĠHumbold t
C arl
K r
L exikon
M ir
R ich
S etting
j ap
k loster
o tel
an dete
ar fs
Ġs erb
Ġb at
ĠM ey
le ted
ĠR ez
ĠR itu
Ġh Ã¤ngen
ĠC hal
Ġg old
ĠO S
Ġaus reichen
pf arr
omm e
onn ef
Ġkon vention
Mar kt
ĠfÃ¼nf te
ĠOst se
last ung
ĠIde al
ĠProduktion en
Ġdr auf
ĠStat ue
ĠEmpf ang
Ġlau tete
Bl ank
trans form
ĠGru yter
ĠKron en
MO DE
Ġverblieben en
wÃ¤ sche
ELE MENT
A ktion
C ard
J Ã¼rgen
T re
l ernen
Å ĳ
ch is
an kt
sch ew
Ã¤ umen
ĠA ri
ĠB E
ĠG lob
ter nen
ĠI S
ut able
Ġge ograph
Ġauf weist
ĠVer schw
och t
och em
ĠSp eyer
ĠEin es
arb eiteten
tig ungen
ĠStadt verwaltung
ĠJo urn
Ġel e
li ff
Ġange h
dr unde
ĠAt tent
Ġlang jÃ¤hrigen
recht lich
ĠCo up
ĠWer be
Ġaktu alisiert
bez irke
geord neten
ĠRegel ung
Ġexist s
ĠMehr ere
Pl us
ĠEben en
ĠBor is
Ġjeden falls
ĠPe ople
Ġwirtschaft lich
zub ilden
ĠGericht shof
Ġbean trag
ĠPriv ile
ĠWÃ¤l der
ĠNass au
2 50
J e
L ight
b ig
c luster
g ott
s ichtig
t urnier
w etter
y y
z ahn
Ġd ritter
es ien
sch eiben
ĠB Ã¤ren
ĠM Ã¶rder
ĠP ont
Ġf ail
ĠL ith
ĠV olleyball
ra h
ed back
ĠSp anier
pl ates
ĠCh ief
set Value
Ġbeg inn
str ument
Ġange griffen
Ġgel Ã¶st
Ġeinz us
fÃ¼ gt
ĠBÃ¼rger schaft
ĠWinter spielen
ĠStuttg arter
Argument s
grÃ¼n der
ĠKop ie
Ġinitial ize
ĠDÃ¶r fern
Theater schauspieler
ĠkÃ¼nf tig
ĠPlast ik
Schwe den
Ġven ez
) }
B I
H ER
O W
W G
l ab
Ġm is
ten ts
ĠP ink
ĠH ydro
ĠW LAN
ĠL ungen
Ġer mitteln
lich keits
ĠN y
ĠC ant
Ġk rank
ĠPro cess
Ġtr ag
urg ie
ĠAuf stellung
ĠAuf lagen
ac cess
Ġ0 3
ens or
Ġgew erb
sk rise
Ġpro gress
dem ar
ĠÃĸ st
ĠMed al
ĠFr is
AR Y
Ġkon tr
ĠPat ient
hei de
ĠSchm etter
hÃ¶ hle
ĠPass au
ĠFil ial
Sel ection
oo ks
ĠprÃ¤sen tierte
Bahn hof
ĠKlass ische
Ġter m
ĠWiderstand sk
oir es
ĠCornel ius
ĠgewÃ¶hn lich
ĠMeld ung
Ġerfol glos
A qu
B inding
N eue
P ane
f achen
h ans
w ann
Ġ Ã¤ndert
Ġd isc
ĠS IM
ĠS ituationen
al p
sch ers
ar gument
ĠA fter
ĠF rom
ti ce
ĠN N
all i
get Data
ĠAr c
Ã¤t sel
Ex per
St Ã¤d
ĠBau t
Sch wer
Ġgeh eim
15 0
Ġbesch leun
Aus bildung
RE F
ĠKn ie
ĠStand orte
Ge ographische
ĠSchiff es
ĠBeh Ã¶rde
System atik
AS K
Äģ r
Jo in
ĠLÃ¤nder spiel
orien tierte
ĠTelef onn
Ġchild ren
ĠHub raum
ĠkÃ¶nig lichen
ĠHT ML
sÃ¤nger in
Term inal
ĠPassag ier
Ġaufgel istet
! "
D ynastie
H R
R ang
an as
Ã¤ ge
Ġz Ã¤hlten
ĠK atze
Ġg iven
Ġ18 29
Ġ" ).
ige st
18 71
Ġ17 98
dem ann
wer tet
ĠY oga
Ġgesch ah
ĠMitglied s
Ġur auf
45 3
ĠGel b
Ġdah inter
ĠZug leich
prÃ¼ f
ĠTa sche
ĠÃĸff nung
ĠEhr endoktor
ĠunabhÃ¤ng igen
ĠunabhÃ¤ng ige
ĠAngriff e
ĠGir ls
ĠSchlieÃŁ ung
ĠSP Ãĸ
ĠNapole on
ĠGetrei de
Ġbesieg te
g igen
g riech
k Ã¤mpfen
m is
t f
st Ã¤tigkeit
ĠD ag
ĠD opp
ĠM innesota
ĠK uchen
ĠK Ã¤ufer
ĠF uk
ĠG overn
ĠP i
ĠP ick
Ġf uture
le der
ach es
Ġge he
ĠSch ichten
Ġun b
Ġun regel
ĠAn atom
ĠAuf treten
18 84
Ġzwei geschoss
ĠVor sitz
ĠKon f
ahn sinn
ĠSo ul
Al so
add Content
werk statt
ON E
ĠSchl ange
ĠZahl ung
ĠÃ¶ff net
ĠProjekt es
Obj ekte
ĠAuftrag s
ĠMaÃŁ nahme
Ġkehr t
Ġdeutschsprach ige
cr ement
Servlet Response
Ehr endoktor
Ġverschw unden
ĠSchmer z
ĠangehÃ¶r te
ĠZwick au
ĠPac ific
ĠBeend igung
) (
N am
d iv
u gel
v ariante
w ochen
z onen
Ġ reisen
es a
ĠS ven
und eten
it im
Ġs uche
Ġund er
ĠD aw
ĠT ee
Ã¶ h
ro hung
ĠJ r
Ġver dr
ĠZ en
ĠIn vas
ah m
ap eu
ĠEr Ã¶ffnungs
ert s
ĠÃ¼ber nahmen
ungs ort
Ġsp ir
ĠGr em
be cker
ĠKon go
Ġman geln
Pro vinz
ĠSpiel feld
fahr ungen
Ġseiner zeit
Ġ7 50
Ġseit lich
ĠMen Ã¼
ĠBes iedlung
ĠWei den
Ġarb eiteten
ĠNieder schlag
ĠArch ive
ĠPhil ologie
ĠStand orten
bet reiber
ĠTechn ologien
zep te
Format ter
Ġtyp isch
anad ier
ĠWall fahrts
ĠLy rik
ĠDebÃ¼t album
names pace
ĠmÃ¼s ste
ĠDiskuss ionen
D ownload
D imension
d omain
Ġ \
ĠD amm
Ġ( Â§
Ġm eta
ĠK ansas
de utet
ĠR asse
Ġer laub
get User
Ġsch malen
la k
Ġum gest
ĠEn z
erk rank
ill i
Ã¤l ern
18 82
ĠUnter brech
ĠSe el
ĠBeg leiter
ĠUr sprungs
ĠSk el
Ġor ient
ĠOst see
ĠFlug platz
class Name
čĊ čĊĠĠĠ
ĠTechn iken
(( (
Ġsc an
Re gel
ĠVerf asser
Dep recated
Bundes staat
ĠInvest itionen
ĠPoliz isten
ĠErwer b
member s
ĠBekann theit
N SDAP
P ad
P reuÃŁen
j as
k ompl
p attern
Ã ²
al itÃ¤ten
sch Ã¤tzung
ĠM aul
ĠF eucht
ĠH ain
ĠH Ã¼l
ĠL ep
ĠL ett
ĠR ott
ĠI an
ro de
ĠJ un
Ġg Ã¤n
rei fer
ĠSch reiber
ind el
op el
ĠÃ¼ber lassen
aus strahlung
Ġunter ird
Ã¤r chen
18 73
Ġber uh
Ġ17 00
zeit lichen
ator ische
ĠKir cht
ogen e
Ġbew erten
Ġqu asi
platz ierten
ĠAp ache
ĠKomp etenzen
ĠcaseIfc Object
Ġelektr onischen
Byte Buffer
Ġbein ahe
Ġstattf indet
polit iker
Ġmel den
ku gel
ĠKamp agne
Ġbelg ischer
Ġgolden e
Ġreag ieren
Ġportugies ischen
ĠHess ischen
ĠWÃ¶rter buch
mall iste
B its
D IS
S ehr
S napshot
V irtual
W K
a sche
h ow
ge kommen
ĠM auern
Ġin f
ĠL ibr
Ġg Ã¤ng
ul in
ĠSt abilitÃ¤t
ĠVer anstalter
op ro
im port
Ġsch icken
iz ismus
Ġunter halten
ib Package
Ã¼hr er
ĠAus lands
pl ibPackage
ĠGr ass
ĠGeb irge
ĠBest ehen
Ã¤ng ern
ĠFre y
Ġarb eits
ĠSohn es
dienst es
ĠMark graf
ĠHin blick
oth urn
tra it
zub ringen
ĠCre w
ĠergÃ¤n zen
ĠBeschÃ¤f tigung
ĠStatt halter
ĠPir aten
Stad ion
Ġkontinuier lich
B ro
C I
L egen
L abels
f acht
p reuÃŁ
t as
â ĨĴ
sch alten
ĠM ob
ĠK um
ĠG aul
ĠH ugh
ĠH olding
ĠL iver
il f
ĠZ Ã¼nd
ĠZ eche
ĠIn halten
Ġun bew
Ġc f
get In
la sten
ĠAb fall
18 64
amm ler
gesch Ã¤fte
Ġher ab
Ġselbst Ã¤ndig
ĠCon figuration
Ġverschieden sten
OR Y
Ab kÃ¼rzung
med ien
spro du
mo tiv
rÃ¤n kung
tre al
Ġerk annte
ĠPil z
ĠEich st
ĠGÃ¼ter s
ĠKons um
htt ps
ĠVerm ess
Ġblau en
SO URCE
Ġverwand t
ĠBem erk
Jose f
ĠVog t
ĠGeschw ister
feature ID
Ġhabilit ierte
C ity
H it
M eine
S epar
Z ahl
b ab
f arb
j s
z up
Ï ģ
und s
Ġs ite
ĠA hm
Ġi v
ĠK emp
Ġer inner
ĠJ h
ĠJ as
Ġge druckt
ist ol
Ġver folg
Ġver legte
ĠâĢ º
ĠAn gl
ĠÃ¼ber leben
ĠAl fa
ĠMit ch
ef el
par at
pr inzip
Ã© l
be arbeitung
Pro fil
set Text
sb ibliothek
ĠGes and
war te
ĠSchw aben
ĠRe eder
ĠEd mund
ĠRes ol
ĠGef echt
sw issenschaften
ĠTer mine
Ġstark er
weis ungen
ĠSen ior
ĠMotor sport
Ġklass isch
ĠBor ussia
vel ope
Ġverz wei
Amer ican
ĠEntscheid ungs
ĠEhr e
ĠImm un
ĠFin anzen
rel ation
ĠberÃ¼hm te
berech tigt
ĠWÃ¤r m
ĠgewÃ¼n schte
Ġliter arischen
Ġimpl emen
We ek
ĠFrances co
ĠCaf Ã©
Ġherk Ã¶mm
D J
E ach
â ĪĴ
on anz
at um
it ischen
ĠA M
ĠB iel
Ġf ot
is ierungs
ĠT enden
ĠI rak
ĠV es
ĠC arn
ad ing
ad ap
ell ow
ff end
Ġ} ,
Ġun weit
ĠAn gehÃ¶rige
ĠJahr est
Ġsch arf
âĢľ ;
iz es
stell ungsk
ĠAb bildung
ĠMar ion
ĠVor gaben
Ġ17 89
Ã¶l ln
urt stag
ĠFrei maurer
ĠLandes amt
ĠGener ald
RE QUEST
ĠNatur al
Tra in
ĠVerwaltungs sitz
Ġexec ution
Polit ische
Ġeingesch rÃ¤nkt
ĠOffen bach
ĠMr d
ĠKrie ge
feuer wehr
Ġbetr achten
Ġtranspor tiert
Fra ktion
ĠRÃ¤um lichkeiten
ĠErmitt lungen
Ġkonkr eten
A V
P il
m ans
m eyer
s zene
Ð ³
Ġw ant
ĠM obile
is Trace
Ġan zus
Ġg ast
Ġst immt
eg ation
ĠAn stieg
ĠEr laubnis
ass o
av ed
ov Ã¡
Ġander n
ĠZeit ungs
Ġbeg angen
Ġange wendet
ĠSe es
ĠFol genden
ĠStra ft
alis ierten
ĠNational rat
Ġho hes
ĠSil v
ĠAnt arc
As String
Ġwahr e
ĠWal ker
Dec l
ĠSup port
ĠOffiz iere
ĠKanz lei
ĠFreiwill igen
ĠIntens iv
Pointer Exception
ĠSinf onie
M el
i Ã©
en gt
Ġd ei
st el
es is
or ed
Ã¤ ften
ĠB lech
et or
Ġf ried
ĠJ ungs
Ġk alt
Ġver sp
Ġp lay
ic ode
Ġaus ser
os ion
ce ed
och ten
Ġ18 22
Ġ18 26
Ġ4 000
Ġe ure
Ġgeh andelt
Er mittelt
ĠBo sch
ĠFor derung
mar ck
ĠMo on
DE X
ĠOlymp iasieger
ĠDam als
ĠSen ator
fre quenz
ĠGre y
Content Type
ĠOper a
Ġelektr onische
Ġunver Ã¤ndert
Min ister
Dep endency
ĠgrÃ¼n den
Fol gende
ĠGru ben
Ġeinzig artige
ĠRap per
Kan ada
ĠSof ia
Pers istence
ĠbÃ¼rger lichen
Ġact ual
Ġnationalsozial istischen
Sta ats
g st
u alitÃ¤t
Ð ±
Ġd achte
Ġ1 11
Ġm obile
Ã¶ re
ĠL yr
ĠR asen
Ġk ons
Ġge boten
Ġg ross
Ġver tritt
ag i
Ġsich eren
Ġr uft
ec tic
ĠSie gel
Ġvor zeitig
gr en
18 76
18 67
ip el
fol io
ĠString Utils
Ġweiter entwick
ĠKl ick
ĠGeb et
Ġgr amm
Ġzwischen zeitlich
ote chnik
ĠDi abet
ĠBel ieb
ĠGel ieb
por tiert
key s
ĠTo uch
Ġaut hen
ĠUntersuch ungs
museum s
Ġerheb liche
Ġmatch er
Ġitem s
ĠAnwesen heit
ĠMatt he
ĠPassag iere
ĠzuverlÃ¤ss ig
Ot to
ĠLegisl atur
K EN
K ategorie
W egen
q Path
r ong
s n
Ġ ),
Ġd eu
st ill
ar if
ĠP end
Ġf Ã¶rdert
ĠW isconsin
Ġ2 30
Ġk rei
Ġver weist
eb st
ic um
Ġr as
Ġun mÃ¶glich
ĠAn fÃ¼hrer
rie ve
ĠSie b
Ġvor l
ĠAb kÃ¼rzung
ĠMar qu
anz eige
sb l
Ġbef asste
Ġres erv
ĠEx pon
ĠSe eb
ĠAk k
Ġmus st
Ġsol ches
IC HT
best immung
Ġbestimm ter
ĠGott lieb
ĠMensch heit
Stra ÃŁen
Ġsowjet ischer
Best e
Ġchrist liche
Run timeException
minist ers
gÃ¤ng ig
Ġkont ak
ĠzeitgenÃ¶ss ischen
ĠDepart ment
ĠVorles ungen
ĠKrak au
ĠAusgrab ungen
ĠQuedlin burg
Ġverabschied et
ectic ut
B ud
G TH
R ud
V o
k it
p osten
t hen
z heim
es i
ĠB eil
ĠM AX
Ġn Ã¼tz
Ġz iel
ĠR ent
ĠI X
Ġim m
Ġan sehen
ul ations
Ġauf zunehmen
est ed
ĠZ ak
Ġp p
ĠSt op
sp erson
sp anisch
Ġst eigern
im i
get E
ĠEin nahmen
ĠEn ter
Ġsp ont
ĠVor schriften
trag s
kl ein
ĠPh asen
ĠNord seite
ĠLu ck
ĠWei ÃŁe
ĠOl den
LA Y
amb a
ĠAmer ikaner
mod ule
Ġabge halten
Ġabge legt
CO UN
ĠZeich nung
bÃ¼ chern
Ġempf ing
Ġregel mÃ¤ÃŁige
aktiv iert
Ġnotwend ige
Ġverkauf ten
ĠdÃ¤n ische
ĠRod rig
ĠPortrÃ¤t s
Ġnorweg ische
ĠTeu fel
ĠSkulpt ur
gewinn ung
ĠAtlan tik
Ġverlei ht
ĠWorksh ops
ĠkÃ¼mm ern
= (
B all
D M
F all
S Y
f ers
j ut
m ake
s Ã¤tzen
al and
Ġw ay
Ġs cript
Ã¤ he
Ġin tr
Ġf lei
ĠT orf
ĠL ug
ĠL enn
ĠV eter
ro v
est raÃŁe
ĠSt uck
ĠVer einen
Ġc r
Ġc ast
get Method
ru pt
ĠEin flÃ¼sse
az wischen
fer enzen
Ã¤u ter
Ġerst aun
Ġ12 8
ĠGer Ã¤ten
13 0
Ġeinz uf
ĠRei fe
ĠFre undes
ffiz ienz
ampf adern
ĠCl ar
cl one
Gr ab
gem Ã¤lde
Ġsc ale
ÅĤ a
funktion en
Rule Call
ĠÃ¼bergeben e
Ġvergleich bar
ĠOrganis ations
Ġkonzentr ieren
ĠGeschlech ter
ĠHandwerk er
ĠlÃ¤nd lichen
Ġerlern te
inherit Doc
B ind
D ann
H en
H of
K ritiken
Z ero
a art
k k
à ¸
ich i
ĠK ran
ĠP aten
ĠP kw
Ġf Ã¤l
ĠH onnef
ĠL utz
ĠR ates
ach tete
ĠV amp
Ġh Ã¶rt
ĠN ack
ir ges
men gen
scha den
Ġunter einander
geb unden
ĠAus gangs
18 70
Ġbeg leitete
Ġres et
schieden e
ID s
schn ell
ĠGef Ã¼hle
ĠBel astung
bez ug
ĠRegel ungen
ĠPass wort
sl alom
ĠTrans action
ĠSied ler
ĠbenÃ¶ tigte
ĠNorm andie
ĠRand om
Cl ick
Ġdec ode
ĠGolden e
ĠGall ery
Ġetabl iert
Ġschrift lich
Ġbehaup tet
ĠansÃ¤ss ig
ognition Exception
/ -
H alle
V M
b om
b Ã¶r
b utton
f i
k asse
m aus
s is
ĠS egment
ĠM Ã¶r
am pen
ĠG uer
Ġf ehler
ĠN intendo
ĠC z
ad ow
Ġver glichen
ĠSch affen
ĠSch loÃŁ
Ġp red
ĠIn zwischen
Ġst irbt
ĠAb riss
ĠIm mutable
Ġpro gramm
olog isches
pro vis
ou x
eig ten
ĠHaus halten
ha elt
ĠGl anz
Ġschn eiden
schein end
ĠHeil ig
ĠGeh alt
ĠTo y
ĠLau ra
Ġwohn zimmer
Job s
ĠMol ek
ĠZul etzt
Ġschlech te
Ġargument s
ĠBegr Ã¼nder
Ġtau cht
Ġnam entlich
ĠBÃ¶r sen
agnost ik
igran ten
bil dern
ĠRup recht
TRI B
Agg reg
> \
B order
G ran
G rad
P or
V oll
c ert
d lichen
h yd
m Ã¼ller
n ÃŃ
p he
y en
å ħ
Ġs a
ĠA uer
Ġb aut
Ġin formation
Ġm ater
ĠK iew
ti r
ĠT epp
lich ung
Ġk ub
rei fe
Ġzu stande
Ġver tik
Ġver weiger
Ġo hn
ag an
ah a
Ġsch licht
ĠAb bruch
ac iÃ³n
ĠVor bereit
af ter
Ġgew achsen
ĠAm ate
ĠKon figuration
Ġgegen seitig
ĠUnter k
Ġgesch eiter
ĠPar se
rik e
Ġgeb rÃ¤uch
Ġkomm e
ĠKultur denkmÃ¤ler
fÃ¤h igen
Ġbedeuten der
emb les
Ġgriech ischer
Ġfind By
Ġlern t
ĠÃ¼brigen s
Ġsport liche
ĠRett ung
Sl ot
Inv ocation
ĠSaar land
Ġorden tlich
ĠAlli ierten
ĠKonflik ten
Ġvert eidigen
Ġbefest igt
Ev angel
ĠVeg as
Leichtathlet ik
E A
G ar
P rev
b ruder
c ole
d ater
f la
h yth
u eller
ei tig
sch ach
Ġs ingen
Ġs enk
ĠF ische
ĠR aff
Ġh tml
ĠC u
ir en
Ġan al
Ġc ondition
ĠÃ¼ber prÃ¼fen
ĠUn entschieden
Ġzur zeit
erk loster
ĠAb bildungen
par ed
fl Ã¤ch
Sp anien
ĠMan che
Ġersch lossen
hand werk
ĠPhil ippe
ĠRad sport
bet riebe
Ġexist ierte
ĠRein hold
Ġverlie bt
ĠÃ¤uÃŁ erte
Ġverein bar
Ġkathol ischer
ĠNachbar schaft
ĠAktiv itÃ¤t
ĠBack stein
Ã¸ r
Ġed ge
ĠstÃ¤r ken
ĠBil anz
Nieder lande
ĠMaster s
ĠEdu c
ommun ikation
ĠAltern ativ
Ġsan iert
ĠPfad finder
instr umente
ĠMaur ice
ĠBalk an
D N
P M
S uffix
T ick
o a
Ġ ĊĠĠĠĠĠĠĠ
ĠS uff
at ischer
Ġw endet
ĠK iss
ĠK fz
ĠP iet
le bte
ber eiten
ĠI ce
ro ute
Ġzu fÃ¤llig
Ã¶r tlich
ĠVor lÃ¤ufer
ĠIm pf
ĠFl ash
Ġbes aÃŁen
Ġgesch afft
ĠMon treal
bl ut
mittel te
ct x
schlieÃŁ ung
ĠPolit ische
ĠRom ans
Mar ie
ĠGef allen
ĠSti rn
ĠGeh Ã¤use
ĠMath ias
CH AR
ĠJazz musiker
Pol y
ĠDeb atte
Ġhau pt
aktiv itÃ¤t
ĠCan ada
Ġgriech isch
Comm it
ĠTisch tennis
ĠMainz er
sex trem
tro ffen
ĠVit amin
Ġmet all
ĠIng rid
ĠIndividu en
genossen schaft
Ġhoff e
Ġabw echslungs
ĠMittele uropa
A SS
G alerie
K arte
R U
W ords
å Ī
st itel
ĠS ervlet
au schen
Ġv ollen
Ġb ilder
ĠF PÃĸ
ĠG eister
ol et
ĠH Ã¤nd
ĠT in
ĠT ast
ĠT rÃ¼
ĠR app
Ġh ellen
ĠN ak
ĠC ultur
Ġver eint
os kop
Ã¶r er
ĠAus scheiden
Ġsp iele
18 48
18 74
ĠLand schaften
pr inz
ens eits
ĠFl u
An n
ren ch
ĠLandes hauptstadt
ĠNew sletter
ĠTer minal
ook er
Ġkosten losen
Pack et
iam i
ĠLo h
umer ation
vis it
ĠGerman istik
Ġentscheiden den
ĠBig Decimal
Ġdre hen
ĠHT TP
ĠCop a
ĠRal ph
ĠMie ter
kont akte
ĠMov ie
Eff ekt
Allow ed
ĠMosk auer
C S
R echt
S eiten
V en
c odes
n ien
n itro
u in
w urz
sch es
Ġw olle
ĠB ann
ĠD all
ĠD Ã¤m
ĠM igration
Ġin clude
ĠE w
ĠE leg
ĠE arth
ĠP utz
Ġk at
Ġge fordert
ent wurf
Ġan halten
ĠU V
ĠAn ime
ĠEin heits
iz ing
Ġvor nehm
ek e
ac ters
18 78
br on
čĊĉĉ ĉĉĉĉ
Ver lauf
ren e
ign on
ĠAugust in
Ġgel ernt
ĠSchl Ã¶sser
ĠMod ule
fra gt
ĠPat tern
schw ung
mod us
ĠSozial demokrat
ĠOp tik
Comp osite
ĠWahr scheinlichkeit
ĠLeg ion
ĠStraf e
ĠStoff e
ĠSound track
ĠDatenschutz erklÃ¤rung
ĠColor ado
Ġgros se
ĠKÃ¶n ige
Ġfreiwill ig
Einwohner entwicklung
ĠJord an
Ġrenov iert
K loster
N et
O der
P seud
S end
W ettbewerb
j ung
m ungs
s amen
u w
á ĥ
in ischer
st ige
ĠB oll
ĠB ens
Ġb eb
ĠK amb
ĠT akt
ĠL agen
tr ad
Ġge form
Ġge zeichnet
Ġauf steigen
Ġr einen
ger Ã¤ten
Ġsch einen
ĠUn ternehm
ial is
18 72
St aat
fl ossen
Ġber lin
sb ew
ĠÃľ bungen
ĠBo ule
Ġausge liehen
str and
stand es
ĠChr omos
ĠMon ika
Ġverb and
[] {
ĠVerb und
unter such
zie her
ĠIt al
ĠTor hÃ¼ter
ĠAnt isemit
Sh ape
ĠChar lie
Ġpl ant
Ġdr ingend
Ġkompl etten
Her ren
kr ise
ĠSamm ler
Rem ove
Ġaustral ischer
PO ST
Ġlandwirtschaft lichen
Ġreligi Ã¶se
ĠvielfÃ¤l tige
Ġnachhal tig
ĠKaisers lautern
Ġinspir iert
Ġfu hren
initi ative
ĠBehand lungs
' re
) ),
D enn
G ruppen
o es
ie se
Ġin neh
ĠL ess
ĠC art
Ġg laube
ĠO ther
ĠAn zeigen
ec tive
ru h
Ġdurch fÃ¼hren
ĠAuf zeichnungen
ition al
att an
ĠZeit alter
Ġpro fil
wa it
ail y
Un ion
Ġgesch nitten
ĠMan gel
Ġteil genommen
ĠMed ical
ĠProf is
tent wicklung
ĠRad i
Index Of
ĠDa im
Ã¨ res
ĠÐ ²
Ġfre ue
Ġverz ichtete
weig ht
Ġkomp eten
bef est
Ġerforder t
Sec ret
ĠLim burg
ĠBÃ¤ umen
ĠKathol ische
ĠViol ine
Ġextr act
Wor ld
ĠFI FA
Hil fs
ĠRestaur ierung
PrÃ¼ ft
ĠGreif swald
Registr ation
Ġill ustr
C ore
G ed
b ot
b els
w g
Ġ ten
sch ne
Ġw ander
ĠA PI
ĠB le
ĠB uff
ĠD Ã¶
Ġn s
Ġau to
Ġf assen
ĠT iefen
ĠR iet
ĠI G
and ro
ul u
Ġver teilen
Ġr aum
ec ess
mer s
ru ption
Ġtr igger
ĠIm p
ĠBr om
Ġe G
ĠBl um
Ġgesch ehen
rad io
Ġverb lieb
ĠNational e
zei le
akt ur
ement ation
Ġfest e
kon trolle
ĠCo oper
ĠSal on
Ġ24 0
ĠGef ol
fr em
LO C
ĠChar acter
Format Exception
kel enz
Trans former
ĠBot aniker
Ġret val
OL D
Ġrule ValidID
Ġentscheiden de
ĠFÃ¼rst entum
ĠRis iken
Ġgebild eten
produktion en
Ġreduz ieren
oler anz
Ġetabl ieren
ĠtÃ¶ ten
Ġtschech ischer
Ġwa it
ĠMargar et
ĠGÃ¶r litz
impl ements
ĠGalax y
riz ona
rieden heit
Ġrev olution
ĠVorarl berg
ĠGon z
ĠJimm y
G eh
L Y
L y
P ublic
T un
W ieder
f lechte
j ev
p ush
Â ½
ar ien
ge mÃ¤
em on
Ġein genommen
ti co
ĠW Ã¤
um ph
Ġg lobal
sp uren
eg a
od ore
ĠAr sen
Ġvor geschrieben
hal s
ĠCh at
ĠCh ang
Ġet liche
schie ben
ym ph
ĠEnt lassung
ĠAd olph
entr ick
ĠLu kas
ash ion
Ġlang jÃ¤hrige
jÃ¤hr iges
ĠBel eg
Bei spiel
SE D
Ġfile Name
Ġwichtig es
ĠProgramm s
ĠschÃ¶n es
bÃ¼ ros
ĠMinister prÃ¤sidenten
Comp lete
jo urnalist
Ġbekannte ste
ĠpreuÃŁ ische
ĠgÃ¼nst ige
IG N
entim etern
ĠEdward s
ĠHarr is
norm al
ĠFerr ari
C le
G ast
P andemie
U ST
b zw
l ate
p aket
Ñ Ĩ
Ġd ra
st unde
ĠS cript
Ġs en
ĠB irg
Ġb itten
ĠD ess
ĠG Ã¼r
ĠP Ã¤dagoge
ĠR iga
ĠR ally
tr itten
om orph
ri que
im p
get Status
lo or
gr Ã¶ÃŁen
ĠAb teilungen
acht al
fer ien
Ġbes etzte
geben e
geben den
iet ung
tor wart
tex te
Ġvier mal
ĠMich ail
ĠLin ux
ĠBern er
ĠAu schwitz
Ġfl achen
ĠAc adÃ©
nach lÃ¤ss
sie ger
ĠCD s
vertr et
ĠIngen ie
ĠbestÃ¤ tigen
ĠAnge la
ĠStipend ium
ĠAgr ar
Ġwon ach
D ev
P P
T ier
W F
b atch
k up
ĠA pfel
ĠB lin
Ġein ver
ĠE X
ĠR Ã¼d
ĠN ATO
Ġk Ã¼r
Ġzu geteilt
Ã¤n ze
ew itz
Ġc arry
esch t
ĠSp in
iz itÃ¤t
ak el
Ġunter s
Ġab gesehen
ste cken
Ġ17 50
ĠKl arin
ĠGesch wind
ans ion
ystem e
ĠLe verk
ĠAug uste
rech ter
Ġper iod
ĠSystem atik
Ge ometry
uck y
Ġhinter lassen
ĠHa wa
AP P
schiff s
ifc Structural
bes uch
Trans ition
ĠCom edy
Ġausgew Ã¤hlte
Ġkrit isierte
po ints
Ġhervorra gend
Ġjo in
Ã¶nt gen
ĠCru z
mach ung
ĠDekan at
ĠErgÃ¤n zung
ĠCha os
ĠEnzy klopÃ¤die
' .
} -
Ġd ev
Ġd one
sch Ã¼tze
ge fahr
ĠB ac
ĠM ongol
le v
is or
is Not
ĠR it
ĠR anger
ĠC row
Ġauf zubauen
sen den
Ġl andete
ver mÃ¶gen
Ġst eckt
ot yp
Ġun zÃ¤hl
iv alen
Die ter
ĠAus kunft
ĠAuf trÃ¤ge
mal t
sk osten
fen b
Ar ab
ĊĠĠĠĠĠĠĠĠĠĠĠĠĠĠĠĠĠĠĠĠĠĠĠĠ ĠĠĠĠĠ
ĠHand lungen
ĠKÃ¶nig lich
Ġbel ast
Ġern euten
ĠBesch werden
uropÃ¤ ischen
Ġregel mÃ¤ÃŁigen
Ġung arische
Ġir ischen
Jo achim
Ġerziel ten
betrieb s
ÑĢ Ð¸
ony me
Ġdunk le
Ġumfassen d
ĠEff ekte
Ġref lek
ĠBasketball spieler
ĠSchreib weise
ĠTats Ã¤chlich
Ġkomplex en
ĠMari anne
ĠKil ogramm
ĠReprÃ¤sentanten hauses
ĠAgn es
ĠKlagen furt
H annover
S ommer
S ound
T her
l ia
Ġd isplay
on us
sch anze
ar um
Ġw Ã¤r
Ġin mitten
Ġein ander
ĠT arn
âĢ Ķ
ro it
ĠN iem
Ġo wner
ĠSch o
Ġaus gelÃ¶st
op ath
od s
ru ine
Ġvor deren
Ġsp itz
rit ing
ĠAb sicht
ĠStadt zentrum
form ular
Ġange trieben
Ġkon krete
ĠDi agnose
yr er
ĠAp plication
ĠVers icherung
ĠCal endar
ĠGlas gow
ĠVoll zeit
Ġbeein trÃ¤ch
ĠTÃ¼r ken
Ġservice Name
yth ing
Ġkrit isch
Ehemal iger
ĠByte Buffer
Ġheil ige
Ġwert volle
Ġfac tor
Italien er
Ġproblem los
Ter min
ĠParad ies
Ġlit au
ĠHanse stadt
ĠTrink wasser
gesprÃ¤ ch
ĠKore a
ĠDorothe a
ĠMagdalen a
ĠAnto ine
B inary
V R
f ill
i u
v om
y i
z iele
ie hen
un iversitÃ¤t
ĠS O
ĠS ier
ĠB evor
ĠD atein
ĠM eist
Ġn umer
ĠG ray
ĠT wo
Ġh ead
se es
Ġk el
Ġauf ger
eu gen
og ie
her z
Ġpro xy
ĠUm benennung
Ã¼nd igen
ĠRo berts
ĠÃľber lieferung
ĠÃľber wachung
bl ing
ĠgrÃ¶ÃŁ erer
ĠWert ung
Ġkon sequ
ĠEd gar
ĠSport arten
ĠOst ern
ĠLa ien
Gr and
ĠMel bourne
ĠWh at
histor ische
ĠSant os
ĠHu ber
ĠEg al
ĠNikol ai
Syn drom
tau chen
ĠspÃ¤t go
Ġlandwirtschaft liche
Ġlatein ischen
Ġbefind liche
mess ungen
ĠNicol as
ĠImpl ementierung
ĠHong kong
ĠgÃ¤n zlich
a ine
b io
r v
Ġ ensure
Ġd Ã©
on o
ĠB GB
ĠD il
ĠF ul
ĠT omm
ĠT iger
Ġer setzte
rei z
ĠZ ar
Ġp air
Ġaus lÃ¤ndische
Ġsch me
Ġtr eu
18 62
ile y
fl ut
br ingung
Type Name
Ġex akt
ĠUnter scheidung
ats u
iff ern
Ã¶ÃŁ t
Ġbew ohn
Ã¤s sert
ĠFest ungs
ven ce
utt a
ĠSeit her
Ġverm ehrt
Ġwill st
bet rag
ĠBoden see
Ġbed ienen
ux e
Äģ n
ĠArm ut
Ġprom inen
stÃ¤r k
Ġrow s
ĠFak ten
Ġnied rigen
Ġanzu zeigen
Ġherr scht
PAR AM
Ġwunder bar
Ġabgeb ildet
Ġgesellschaft liche
Ġtschech ischen
ĠSchmer zen
;; ;;
ĠAustral ian
Ġgere gelt
Ġfran Ã§
1 17
H al
L u
S ender
k ular
å Ń
ei bt
ar men
au th
Ġder er
ĠD id
Ġm ache
Ġm ove
ĠK uba
ĠP aw
ĠT otal
ĠL enz
re as
ut down
Ġal li
Ġzu gehÃ¶rigen
ĠZ elt
sp e
Ġbei tragen
ĠSp lit
Ġ" \"
ode st
sk irchen
Ġ17 90
Ġ17 92
Ġman ager
Ġe urop
fer red
ĠGes angs
Ġ10 2
Ġ10 8
ĠÃľber legungen
ĠPar ti
gew Ã¤sser
ĠGroÃŁ es
Ã¤uf en
ĠGra v
ĠDar auf
ĠDr am
stag s
ĠNe un
ĠSil ver
Ġwh at
ĠPort o
Met ern
ĠOrts name
Ġmon tiert
Expression s
ĠSchÃ¶n e
ĠÃ¤uÃŁ ere
ĠVolk es
ĠCa stell
ĠKrÃ¤ uter
ĠDE FAULT
ĠSak rist
Ġeff ektiv
ĠQue ens
ĠApost el
ĠdÃ¼n n
Ġpack age
ĠungewÃ¶hn lich
ĠPubliz ist
A uÃŁen
W eight
j urist
n ote
v arianten
Ġ ell
Ġd ownload
st ich
te ams
Ã¤ en
Ġn etwork
ĠK Ã¤mpfen
ĠG itter
ĠT auch
Ã¶ sten
ĠL ex
ĠL ost
ier eg
ing o
Ġg raf
ad resse
ĠSt ark
ĠAn halt
Ġc ms
Ġc ursor
ĠStr ahl
Ġunter zeichnet
gr au
ĠBer kel
ĠAus wertung
18 75
stan ti
inn ung
Ġkl are
ohl t
ĠÃľber setzungen
ĠAd miral
ĠNeu tr
ĠGe denken
ĠLu ise
ĠSh ang
ĠWil den
ĠArbeit splatz
fra ktion
por ter
fel den
ĠKlein stadt
Ġober sten
lav a
ham pton
Ġrecht zeitig
mel de
ĠMass age
Sec ond
Ġkor rig
asp ielen
wander er
dest ination
ĠBol iv
ĠBegeg nungen
Close d
ĠHaupts itz
Ġkaiser lichen
Zentr um
Ġgepf legt
ĠBefrei ung
ï¼ Į
ĠVeget ation
Landtags abgeordneter
Lou is
ĠRotter dam
ĠLiver pool
F el
M ask
V iel
i Äį
m asse
m ulti
p n
v iert
Ġd rit
ĠD eg
ĠK alt
ĠF rag
ter en
ĠH Ã¤ufig
ĠN Ã¤hr
ab i
Ġk reuz
ell s
ru hen
Ġunter nehmen
Ġ" "
18 68
ĠIm port
fer tigte
ĠTh at
Ġeigen stÃ¤ndigen
unde te
gew ehr
ĠSÃ¼d tirol
ott a
ĠSchn abel
wÃ¤r tig
ĠLog ik
Ġrem oved
Her mann
pack t
ĠSchwar zwald
ĠInvest ment
ĠRis ik
ĠAsp ekt
ĠTime Unit
ĠjÃ¼nger er
wÃ¤l te
HE AD
ĠPrinzip ien
Ġorder ByComparator
Ġporn o
ĊĠĠĠĠĠĠĠĠĠĠĠĠĠĠĠĠĠĠĠĠĠĠĠĠĠĠĠĠ ĉĠĠĠ
omplet ableFuture
ĠLaus anne
ĠIntelligen z
ĠWlad imir
ĠStaatsanwalt schaft
ĠEintr acht
ĠPfe ffer
B L
G let
g ottes
in chen
on de
ĠS M
ĠS ay
sch ritte
ĠB olog
ĠB atter
Ġi p
Ġein sch
ol ia
Ġf usion
is ser
Ã¶ ser
ĠN ULL
ig ur
ĠO K
Ġzu gesch
ap olis
ĠEr kelenz
Ġum gehend
ĠPro tokoll
ĠMit teilungen
IN FO
Ã¤u er
Ġher z
ĠMon ster
ha ar
AT TRIB
Ġall ow
ĠSk ispr
ĠHerr schafts
fel dern
ĠTage buch
ĠRel ation
Bau werke
Ġmein es
ĠTo ul
ĠFel dern
Br Ã¼cke
ĠCas par
ĠÃ¤lter er
ynam ic
Ġumfang reich
Ġgleichnam ige
Ġnorweg ischer
Pri mitive
Ġcap t
telle ktu
á¸ ¥
inzuf Ã¼gen
? ,
B W
K as
p resse
en ix
ie ÃŁt
ĠD ikt
ĠD ictionary
am pe
ĠK rypt
ĠG aler
ĠG liederung
Ġf ragt
ĠW ey
ĠI F
ab b
Ġauf tritt
ik es
Ġum welt
gr at
ĠGr unde
rau ms
av ing
ĠVor ort
Der iv
spr int
Ġen den
Ġen tries
ĠFilm produzent
ĠBundes staates
ĠTr ik
AT ED
oph il
ĠInter vention
ĠEm otion
ĠKn aben
Ġhei raten
ĠNe us
anc ouver
bet on
ĠGeorg ia
ĠHann s
Ġdo i
Ġoffen er
Ġfre ut
ĠFrie der
ĠAuÃŁen minister
Ġse he
ĠRem ix
ĠGran it
Ġag ain
Ġag gress
ĠMittelalter s
option al
ĠBeam ter
ĠGebiets reform
ĠRenov ierung
pfÃ¤l z
Maxim ilian
Vors itzen
ĠStrals und
Ġurauf gefÃ¼hrt
F IN
F ilme
P ayload
j avax
Å ¯
Ð ¿
Ġ æ
Ġd evice
ein igt
ĠG ei
ĠP reistrÃ¤ger
ĠL ingu
ĠL isa
ĠR ass
Ġh inger
ig g
Ġver folgen
sp ekt
ver w
ap plication
Ã¼ber sicht
ĠÃ¼ber legen
ĠÃ¼ber wie
aus gaben
Ġent z
ek und
ĠGr on
ĠBo urg
Ġange wiesen
Ġher stellen
Ġeigen s
ĠGer echtigkeit
ĠBundes ministerium
Ch Ã¢teau
Ġger man
Ġgef Ã¼llt
oss a
kon zern
Ġlang frist
ĠWohn en
ĠEis ernen
Ġem er
ĠObj ekten
ĠTem po
ĠVertr etung
ĠKomp anie
getC olumn
Ġwohn t
ektion en
Ġarch itekt
TR AN
ĠInterview s
ĠExempl aren
Ho tel
ĠProp st
Dur ation
gewer be
MESS AGE
9 00
B ay
b urn
f sp
m etz
m ore
t ief
en ster
ĠS ack
or r
Ġv ideo
ĠA ccount
ĠF ang
Ġau spro
ĠW ern
ĠL P
ĠV ie
ĠN ase
se ction
ent sprechend
Ġan statt
ra pped
Ġdem onstr
Ġun voll
ĠEr mord
iz z
ĠEn th
ste ad
ĠMit arbeit
Ġbest ens
schen de
lag ern
Ġbes uchten
Ar tifact
Ġange stellt
isten ten
ĠSe elen
ĠForm ular
Ġlang fristig
Ġ[ "
ĠGen uss
ĠDem o
Ġwith out
ĠErst ausstrahlung
>> ()
ĠÐ ¸
ĠDe ep
ĠBÃ¶ den
Ãľber setzer
Ġwissenschaft lich
Pol en
Fe at
ĠKontr ast
ĠOrd ner
ĠOrd nungs
ĠKolle g
Ġed ition
ĠEmpf angs
ĠNorth ern
ĠgrÃ¼n e
Ġhal f
ĠTenn essee
Ġanzu treffen
ĠdÃ¤n ischer
Ġpubl izierte
Ins eln
ĠMis sbrauch
Ġmittelalter liche
ĠBÃ¶r se
ĠJubil Ã¤ums
ĠVorstands mitglied
Ġgeeig neten
ĠGelehr ten
clus ive
ĠMarok ko
1 13
L eg
N orth
b ayer
f aser
er kt
an h
ĠA ps
ĠB indung
ĠM S
em y
ĠG B
ĠG arn
ĠH tml
Ã¶ geln
ĠL amb
ab a
ĠJ ason
Ġge klÃ¤rt
ĠO fen
he x
ĠSt ack
Ġst Ã¼rzte
ĠSp azier
Ġsch mal
ĠAr z
Ġdurch zufÃ¼hren
Ġtr ennen
Ex ternal
rau ÃŁen
18 69
(" <
Ġ17 94
sb est
ong o
stand ort
aul ts
Ġ13 5
ĠReich sbahn
Set s
Ġletzten dlich
ĊĠĠĠĠĠĠĠĠĠĠĠĠ ĊĠĠĠĠĠĠĠĠĠĠĠ
ĠWolf ram
ĠEp ik
Fl or
ĠeuropÃ¤ ischer
ĠbenÃ¶ tigten
Che f
ÑĢ Ðµ
ĠEss ays
Ġsup ported
Ġsport lichen
arkt is
ĠModer ator
ĠKonzentr ation
ĠNerv en
ĠWorksh op
ĠBundestags wahl
lokomo tiven
ĠPazif ik
L L
L ines
P ay
R ect
W all
r ice
s ohn
Ġ ~
Ġd ran
ĠS opran
at ible
Ġm ill
Ġf arben
ĠH ur
ĠL ech
ut a
ĠN elson
ĠC and
Ġg lie
ĠSt Ã¶rungen
Ġst iegen
urch t
ug ins
ĠPro ben
enn etz
ĠAuf satz
18 66
St atic
ath a
amm e
Ġdies elbe
stan te
An gle
ĠEl len
ĠMan tel
Sie ben
EN CE
verb und
ĠCar go
ĠFest land
zie ht
ĠWer ten
ĠJohn ny
bet reuung
ĠZentr ums
Ġinternational es
ĠGi ro
Ġgefunden en
ĠWh it
ĠKre feld
ĠgeprÃ¤ gten
ĠBig Integer
ĠstÃ¤d tische
ĠGau ÃŁ
Dar Ã¼ber
ĠContent Type
ĠjÃ¼ng sten
ĠTyr annen
ĠWell ness
bÃ¶ gen
kolle gen
Clau se
[...]
