#version: 0.2 - Trained by `huggingface/tokenizers`
e r
e n
i n
c h
Ġ d
a n
e s
u n
o n
i s
i e
Ġ a
i t
Ġ t
Ġ s
o r
t e
Ġ w
a r
Ġ S
a l
a t
r e
h e
Ġ b
u r
i ch
un d
e in
Ġ in
a s
g e
u s
Ġ f
Ġd er
l e
an d
Ã ¼
Ġ m
Ġ A
Ġ B
Ġ v
e l
Ã ¤
Ġ und
Ġ 1
Ġ M
i l
Ġ D
s t
Ġ o
Ġt he
in g
d e
un g
t er
r o
i g
i on
Ġ ein
Ġ p
Ġ n
Ġ P
o l
Ġ h
Ġd ie
Ġ T
Ġ F
Ġ (
Ġ G
a m
Ġ K
â Ģ
i m
Ġ E
Ġ c
t en
Ġ z
o m
s ch
u t
Ġ I
e m
Ġ H
r a
Ġ W
en t
h r
Ġ R
is ch
e t
Ġ L
Ġ and
i c
u m
Ġ g
e d
b er
Ġo f
u f
Ġ C
Ġt o
Ã ¶
Ġb e
Ġ 2
e it
i r
d er
is t
a ch
Ġ er
Ġ1 9
d en
Ġ N
Ġ l
Ġ J
Ġ V
Ġv on
i er
Ġa l
c k
Ġ k
l ich
Ġd es
Ġt h
Ġd en
Ġ an
u l
g en
Ġ im
Ã¼ r
i v
er s
Ġ2 0
o t
Ġ e
Ġ ge
ĠS t
i k
at ion
Ġ O
Ġm it
a b
o s
o w
u ch
es t
a d
Ã Ł
an n
l a
Ġd as
Ġ y
Ġ U
t s
Ġ âĢ
Ġ re
i es
e i
Ġa uf
k t
e b
Ġ Z
ĠS ch
al l
i f
Ġz u
a f
i en
Ġs t
es s
a h
Ġv er
ie l
o u
Ġw ur
c t
v er
Ġf or
ĠI n
Ġ is
isch en
Ġ ist
Ġd em
o p
Ġf Ã¼r
a u
Ġal s
te l
a y
i d
Ġ on
ich t
c e
a hr
Ġ Ċ
t h
n e
Ġa us
Ġ un
p p
Ġwur de
m en
a g
it h
ĠA n
b en
as s
er e
Ġd e
Ġein e
il l
o ur
o g
ĠV er
w e
in d
or t
Ġw ar
Ã¤ n
Ġ r
Ġs ich
s p
0 0
a v
ĠR e
a us
er n
Ġ20 1
z e
o d
a k
sch af
Ġw ith
a te
l in
el l
u g
er t
ĠE r
o ch
es ch
Ġs ein
ĠD ie
Ġ j
) ,
Ġ i
l y
Ġp ro
Ġw h
us t
r an
Ã¼ n
r u
Ġn e
ar t
Ġy ou
h n
f f
en d
i b
s te
Ġa m
r ie
ung en
Ã¼ ber
g er
ig en
Ġth at
isch e
Ġa b
s e
Ġ it
Ġbe i
ĠS p
a p
q u
an g
ut sch
Ġs p
ĠT he
s en
h t
k s
Ġ he
âĢ Ļ
ĠB e
Ġs ch
ĠU n
Ġ le
Ġa uch
Ġs e
Ġ 3
ur ch
Ġn ach
ĠJ ahr
u d
m er
an t
Ġ Ã¼ber
u b
ar d
Ġ1 8
l er
ĠA l
Ġ20 0
âĢ ľ
Ġa s
Ġw ir
l ie
ung s
âĢ ĵ
1 9
Ġa re
o k
i a
Ġb is
g r
ĠA r
o v
h en
ĠE in
Ġ or
schaf t
Ã¤ t
o st
i z
i p
ro m
ĠD e
is e
Ġs ie
f or
Ġz ur
Ġd ies
u p
i al
Ġc om
Ġm e
Ã¶ r
m ent
b e
tel l
Â ł
iv e
Ġs o
ĠâĢ ŀ
ol l
ĠâĢ ĵ
Ġw e
Ġc on
h er
as t
1 8
it y
Ġz um
Ġe x
a ge
en n
a in
or d
Ġa t
r it
ĠP ro
et z
Ġein er
Ġw er
ic k
ch en
Ġ ch
ĠE n
h l
Ġz w
Ġ um
isch er
Ġn icht
h o
p t
m e
i ge
Ã¤ r
en s
Ġun ter
Ġwer den
Ġ ent
Ġw as
l and
r Ã¤
Ġv or
Ġy our
Ġ es
Ġd urch
Ġh at
av e
ier t
. .
us s
om e
Ġwir d
Ġw ie
ar k
h al
o b
te d
g es
Ã¼ ck
u re
Ġ19 9
ter n
Ã¶ n
ĠG e
ge l
in e
el t
it e
D ie
f er
) .
or e
u e
Ġs ind
Ġo der
Ġb y
ĠT e
re ich
Ġein em
Ġf rom
er k
Ġth is
n en
i an
ge b
ĠS ie
ĠC h
Ġal l
n er
g t
i de
d u
m al
ĠS e
ĠT h
st en
ĠL e
ch e
il d
Ġ Ã
ur g
i o
lich en
am e
ĠM it
f t
ĠD er
Ã¼ hr
Ġein en
Ġh ave
z en
is ter
at ur
a uf
Ġ 4
i re
u ÃŁ
ĠO r
b eit
ĠN e
ah l
p h
Ġm an
ion s
p ar
ad t
a c
ĠA b
Ġ us
Ġc an
Ġ en
2 0
l o
te t
l at
Ġw or
ĠB er
o ut
Ġw ill
ul t
p er
Ġ 5
o c
o hn
s s
ic e
de t
ĠA uf
we ise
el n
Ġ -
j e
ĠG r
in z
Ġ19 8
on t
ĠA us
a ck
lich e
ation al
de m
ch t
t ra
f e
Ġt e
ĠL and
er v
ig ht
p r
ur n
st er
Ġ Y
r y
for m
at er
f en
ig n
ĠM ar
re i
e ar
l l
Ġn ot
Ġdas s
t z
Ġb es
te il
a il
l os
om m
i le
k eit
Ġ19 7
on e
Ġ( *
I n
Ġs h
re is
ĠI m
al t
or en
ĠN ach
all y
' s
ar e
Ġde utsch
on g
ĠH e
re t
o un
it ion
ĠW e
Ã¤ hr
l ass
is s
it z
ĠM e
ĠV or
am m
ĠD as
ich te
em ber
iv ers
l an
Ġp r
il m
ier te
b urg
Ġh as
k e
Ġi hr
r at
Ã ©
ul d
Ġa r
ber g
Ġ19 6
Ġa d
ab le
ol og
T he
Ġwur den
a z
al e
f ol
am p
ro ÃŁ
he it
ation s
im e
ing s
ak e
ein e
Ġ 9
iel er
ĠB r
ĠZ eit
ĠA m
Ġw o
ĠUn ter
at en
Ġs ow
Ġ 6
ĠH er
Ġw eit
at h
o ok
it er
Ġ1 7
u te
th er
Ġi h
an s
eb en
Ġcom p
c c
ers on
Ġn ur
Ġh er
ĠSch w
er en
Ġ "
Ã¤ l
Ġ Ġ
l es
W eb
lin ks
r ich
om p
Ġv om
ĠDe utsch
ĠF l
Ġ up
ab en
Ġ19 4
a ut
an z
ĠF or
Ġme hr
Ġg o
Web links
on d
Ġg en
z eit
Ġo ur
ĠSt adt
os e
ct ion
ig er
Ġn och
Ġ et
ol d
as e
Ġr es
on s
der n
par am
f l
Ġd o
ĠM a
t o
ut z
ze ich
Ġge w
Ġo ut
ĠP r
ier en
e c
om men
ent s
ĠF ran
us e
am il
b r
i um
m ann
m it
ch n
Ġ qu
Ġ19 5
Ġf e
ol it
ĠRe g
y s
ne h
te m
at t
Ġl ie
ah n
D er
Ġb ut
re e
Ġ 7
Ġ ro
Ġ1 5
kt ion
al s
r if
ib t
Ġt ra
le ich
g an
Ã¼ d
Ġb et
ow n
ĠG em
b ar
Ġa ber
v e
el d
f in
or s
k en
w er
ik e
ig h
f Ã¼hr
ie d
la g
u en
E inz
Ġ 8
og ra
S t
Ġsow ie
ie t
Ġ1 6
h und
s el
Ġb est
in n
h Ã¶r
ik er
Ġm ore
r en
is h
an ce
Ġm y
ar y
ol le
on n
is ten
Ġc o
c o
Ġthe ir
st and
ĠI S
y p
ĠP ar
Ġon e
el s
g lie
ach weise
Q u
b all
or n
it Ã¤t
Ġ19 3
eln achweise
oun t
Einz elnachweise
esch ichte
Ã¤ ch
w a
ic al
ĠU S
ate d
Ġp er
Ġs te
Ġf r
ann t
a de
ah re
ier ung
n is
Ã¤n d
Ġd ar
B N
in k
Ġsein er
ing en
am men
Ġb er
etz t
o ck
el le
es e
ein de
l d
Ġsein e
ĠIS BN
s k
ig t
p ro
Ġge gen
c l
Ġzw ei
Ġals o
f ahr
Ġein es
o ber
Ġ1 0
Ġge t
h aus
g l
ig keit
ie der
ĠJahr hund
lie ÃŁ
m an
m in
Ġal le
Ġf in
Ġab out
.. .
ru pp
Ġin s
ub l
y ste
re at
ĠI t
is sen
l ung
ĠUn ivers
Ã¶ ff
am en
Ġhat te
ĠS o
ik an
Ġj ed
1 7
g lich
Ġg es
Ġa pp
Ġwie der
m p
Ġh is
Ġe v
Ġthe y
a is
lat z
ĠJ ahre
im m
o h
ge ben
Ġne w
ĠS te
Ġwh ich
Ġk Ã¶n
s tell
Ġ &
Ġk ann
or f
iter atur
ĠG es
ĠD ies
an k
ÃŁ e
ĠA d
ur op
o f
Ã¶ l
et t
at z
x t
Ġdies er
ar beit
u er
00 0
ie le
Ġg r
al d
ĠP h
w o
ĠG eb
Ġp la
Ġbe en
ĠK ar
on der
ĠK ir
eit e
n ah
und en
v el
us ammen
ro w
0 5
am er
Ġs oll
re d
t on
n et
âĢ Ŀ
ĠE s
a ct
Ġzw ischen
Ġy ear
p ort
ĠK on
Ġih re
it t
or y
Ġ Qu
ay s
at s
Ġwh o
ab e
Ġof f
ter s
ĠF ra
ĠTe il
b au
Ġwar en
ge m
ĠBer lin
ach t
ĠC hr
ĠU m
u le
yste m
Ġf ol
ir t
b st
rie d
s er
ent lich
ĠW elt
D as
Ġ1 2
t t
Ġs eit
ĠG ra
ĠM us
Ġt ime
Ġk n
Ġo b
Ġwor k
a pp
w erk
Ġs ome
f all
ret urn
A n
Ġs el
an ge
ľ ber
ĠF re
Ġs u
w ick
a w
if f
ĠJahr en
1 0
in ter
1 6
lin e
e k
S ch
Ġzur Ã¼ck
ent r
in a
is te
r ing
Ġ1 4
Ã¶ s
ĠB o
u de
at ing
iel t
i x
ie w
Ġbe g
eit en
ot t
Ã¤ ter
b le
und es
Ġan y
g esch
i ent
c es
ĠK l
rie g
au pt
y n
Ã¤ hl
Ġh aben
eit s
1 5
Ġcon t
os s
ĠSt a
ĠE x
f r
Ġ1 3
Ġo ver
or k
is m
Ġg roÃŁ
hal ten
rie b
ĠB es
Ġd am
Ġin ter
Ġdeutsch er
p f
ĠNe w
ra d
sch en
ĠJ un
g te
schaf ten
18 8
Ġbe k
m a
r on
l Ã¤
Ġ em
gen d
Ġl ike
ge w
o ol
he im
ic t
ĠâĢ ľ
Ġp art
s h
ĠF ilm
ell en
o y
le d
ĠJ an
Ġd is
ĠB l
u al
sp ieler
e ich
ĠG en
ĠSp iel
Ã¤ d
ĠA ug
k te
Ġge hÃ¶r
T h
o ff
a um
Ġre c
E r
la ge
id ent
Ġst ud
ĠJahrhund ert
Ġdies e
glie d
c om
am t
Ġer sten
ar n
en z
ĠM an
Ġ19 2
or g
Ġs erv
ĠkÃ¶n nen
ot h
h and
Ġp e
Ġk l
ĠEn t
ĠJ ul
en de
Ã¤hr end
ĠÃ ľber
ver y
V er
in s
ĠS h
uÃŁ ball
ĠGem einde
Ġpro du
at es
ra ch
ĠB au
in der
Ġo ther
ĠZ w
e p
Ġp h
ov e
Ġj e
Ġp re
ir st
L iteratur
in t
G eb
Ġwh en
Ġa cc
Ġbe im
neh men
Ġn o
Ġs c
I m
Ġer st
Ġthe m
ĠT r
1 2
form ation
ou g
Ġv ers
ĠP f
st ra
ĠN ov
o us
k l
ĠAr beit
Ġj ust
ster reich
ĠSt ra
al en
ug h
ĠG er
Ġd rei
ĠA ut
Ġpro v
ĠO ber
y m
ÃŁ en
a ir
Ġhe l
ĠC ar
uch t
ĠM en
sch ie
i pp
et h
ogra ph
Ã¤l t
Ġin d
tell t
ĠF r
Ġjed och
1 4
Ġ if
en k
7 8
Ġk onn
ĠTh is
Ġ 0
me ister
ier ten
ist or
Ġge b
b ach
ĠB and
tern ational
e y
Ġre g
Ġg esch
A l
und e
en den
p iel
Ã¶n ig
ĠF amil
z w
ĠE l
h ne
aus e
Ġw el
o ten
ĠAug ust
ĠH and
ar r
D e
z er
U n
en e
Ġsp Ã¤ter
f Ã¼
ru ck
ar b
Ġth ere
es ten
Ġh ow
Ġd ann
ĠB undes
i der
ĠAr t
sp r
Ġex p
ĠN or
a x
op le
Ġer h
Ġc l
Geb oren
ĠM Ã¼n
gr Ã¼n
Ġt r
Ġne ed
u ar
d ay
Ġa g
Ġ ich
Ġwh at
un st
Ġm us
ur t
Ġf Ã¼hr
ul l
ĠZ u
Ġit s
as h
ic es
k er
a ce
f ter
ĠÃ ĸ
ĠT ra
ĠIn d
and er
Ġh o
Ġ201 8
Ġ ra
le x
ĠM in
tem ber
tra g
Ġet wa
1 3
Ġw enn
rÃ¤ s
t re
Ġi hn
it el
ĠAn d
ĠE urop
le t
ic s
io us
z ial
il it
Ġg ibt
2 00
er al
Ġbe c
Ġver b
f ess
ĠM ed
Ġh ad
Ġge m
p en
w ard
Ã¶ glich
ĠDeutsch land
ho f
r ess
au er
Ġin to
ĠP e
Ã¤r z
Ġwo uld
Ġm ost
ch er
Ã¼ t
Ġan ge
u z
pr il
je kt
n ung
ass en
Ġw ere
Ġin cl
ĠSe p
Ġf o
eb s
b o
ĠFran k
ar m
ar s
ĠP erson
if e
ier e
Ġth an
Ġb el
ĠChr ist
lich er
ein en
schaf ts
ĠG esch
Ġm ake
ein s
Ġh and
Ġsein em
Ġsein en
ĠNov ember
ĠG roÃŁ
ol f
uÃŁ er
v or
ste in
b ild
an c
s o
on st
a kt
ĠN ord
ĠP ol
k a
Ġb r
je ct
' t
ĠSep tember
kt ober
ĠM ann
Ġd a
ĠK Ã¶nig
M ann
iv er
Ġweit er
he l
Ġh ier
we g
Ġpe ople
Ġf irst
ĠM on
ĠH aupt
ir k
op h
5 0
w ohn
ĠJun i
ab ei
Ġer fol
un kt
ch ts
hal b
ck en
in ess
it al
ĠO b
ul ar
Ġg leich
u es
e ct
Ġ /
eit er
ĠEn de
Ġg er
schie den
uf t
Ġhel p
ĠN ational
ro und
Ġth ro
st adt
Ġl ook
ĠSt ud
ow er
ĠV ol
re it
Ġb u
Ċ Ċ
r es
ig ung
ion al
2 1
ĠA pril
de d
Ġlie gt
ĠM al
e h
un ter
et s
d ition
Ġun s
a gen
ib le
is en
ur z
ĠH o
el y
Ġb esch
ag es
ĠP latz
iv en
v ers
ĠAl l
ie f
Ġ3 0
rupp e
. )
ke hr
Ã¶ ÃŁ
Ġe very
R e
f ul
Ġh in
u ten
Ġkn ow
g ang
Ġz usammen
st it
ar ten
ion en
Ġus e
ien st
ĠB ei
Ġw ell
05 9
Ã¤n der
Ã¶ff entlich
ĠĊ Ċ
ĠMa i
b es
w alt
ĠO ktober
i qu
ĠI s
ĠJul i
ĠB et
ult ur
v en
at or
ĠVer b
k reis
hal t
M it
059 188
ro l
g est
Ġver w
ment s
ĠS c
w n
ĠGr und
Ã ¡
ass er
es en
oh ann
Ġse hr
ien ce
i ze
sch l
ĠP olit
Ġand eren
if ic
Ġer ste
Ġz e
G e
Ġber eits
al k
Ġb o
Ġon ly
Ã¼ h
issen schaft
us iness
Ġein z
Ġaus ge
ĠY ou
Ġdies em
Ġer w
Ġe igen
al ien
in er
isch es
Ġver y
ĠS Ã¼d
ran z
ich ts
Ġfol gen
Ġdes ign
ess en
er g
a id
Ġle tz
z ahl
Ġd ort
Ã¤n g
at ive
1 1
Ġb ack
eb ru
Ġd r
ĠOr t
ĠM Ã¤rz
Ã¼ tz
amer ikan
m s
N ach
ĠI I
p or
ĠâĢ ł
Ġe ben
ust r
b ahn
ais on
Ġ201 7
ĠH och
an y
f ach
ĠP a
es ter
s atz
ĠJan uar
Ġv iel
ran s
ze ug
ĠF ried
ĠĠ ĠĠ
Ġa ct
Ġm ay
f te
Ġihr er
Ġf ind
Ã¼r ger
= =
Ġih m
re g
Ġkonn te
am s
le g
b uch
Ġsch w
De utsch
Ġv ier
ck e
r icht
a den
at a
it ed
or ben
ar ch
ic a
Ġbes te
v ent
ein g
olog ie
ĠM et
ĠC o
Ġd ire
i or
ation en
at ch
z ember
ĠK unst
Ġ201 6
Ġman y
ĠV ers
Ã¤n ger
Ġsu pp
Ġd own
Ġ Â
if t
ĠM o
l i
Ġk eine
a i
Ġte il
Ġcom m
ut ion
ei d
Ġ201 5
op p
ost en
ing er
ĠF Ã¼r
ĠF ebru
c ed
gr und
Ġsel bst
Ġs he
Ġk am
ĠH aus
la uf
3 0
ĠO n
f ang
u k
Ġst and
059188 18
ĠPro du
f eld
ĠJ ohann
Ġa kt
he mal
Ġ201 4
s on
Ġs m
Ġs ol
r s
Ġhe ute
Ġt wo
Ġ201 2
Ã¼n st
Ġ201 0
Ġh ome
Ġs ho
Ġyear s
m at
un k
oug h
c ts
S ie
ĠB ar
la gen
b l
Ġas s
Ġcon s
Ġ201 3
Ġ X
pt ion
Ġl oc
as ch
Ġbe fin
Ġp l
i us
vel op
am es
ra g
ĠLand es
if fer
ĠB ild
ĠC on
it s
Ġf l
af f
Ã¼n d
Ġex per
u c
l ig
ĠL iste
Ġb as
Ġ19 0
ĠJ u
ge t
âĢ ¦
Ġm ach
ĠDe zember
Ġ18 9
ism us
mit tel
Ġsp ec
p s
Ġthro ugh
Ġth ese
fall s
s etz
Ġer sch
al le
ĠVer ein
Ġ201 1
ĠĊ ĠĊ
Ġh igh
u ck
los s
ber t
Ġ2 5
Ġim mer
um s
ĠW h
Ġw Ã¤hrend
sch rif
ĠKir che
Ġ1 1
p l
ĠRe ich
de te
ĠW il
Ġver schieden
Ã¶ ch
ak ing
Ġge l
ur s
um ent
rit t
ĠMus ik
ĠW erk
Ġm o
Ġal ler
Ġg u
O r
ĠF ol
o gen
Ã¶ st
omm un
Ġe le
os ition
B e
w ahl
Ġb en
ebs ite
ist r
Ġgo od
ranz Ã¶s
A us
in al
gan is
Ġw en
sch lieÃŁ
h re
Ġ [
Ġsch on
Ġ .
c ess
Ġb l
ĠW est
Ġp erson
h ol
ig te
ĠC l
Ġ200 9
ĠIn ter
ĠG eschichte
al if
ĠPh il
ĠA mer
Ġf ree
tel ler
i den
Ġ2 4
p la
z ie
Ġk e
ĠV on
a ur
Ġund er
hr en
il ity
ern se
Ġbei den
zeich net
ich er
Ġ200 8
Ġsp iel
P ro
Ġs uch
Ġand er
Ġp ar
al ter
ĠAr ch
ĠR es
Ġa ut
b t
Ġde c
Ġm in
Ġin v
ic an
A r
A m
sch e
om en
ĠDies e
Ġgr Ã¶ÃŁ
Ġne ue
ĠS er
Ġdam it
Ã¤ch st
Ġo hne
Ġf re
rie ben
Ġm on
Ġ |
Ġpla y
ch s
ĠFebru ar
ĠW ert
ĠS k
y r
ĠAl s
sch n
ell schaft
ĠM ark
te te
we il
sp iel
v iew
ĠS aison
Ġge f
19 9
w ay
. ,
z ug
Ġon line
a j
Ġa fter
Ã¼ l
Ġg reat
ĠF e
in nen
Ġw ay
ĠG o
W e
ĠO ff
h in
ĠMit glied
ĠB as
ĠVer lag
ĠN ieder
ĠUnivers itÃ¤t
Ġa c
Ġst att
mal s
ges tellt
Ġ9 78
fÃ¼hr t
Ġm ark
ĠH ol
Ġs ub
Ġn ow
ĠA s
ach sen
Ġs om
al th
ĠD r
Ġ200 7
o te
z u
it ies
Ġb usiness
ten t
p ieler
Ã¼ s
ow s
ĠG l
Ġe ff
ut t
Ġte chn
ĠUnivers ity
Ġl ang
ĠK inder
ĠF ahr
is ion
Ġp o
âĢľ .
m Ã¤
ĠD es
ĠP re
hr er
c y
ĠMen schen
b and
Ã¤ hn
kt ur
Ġd ay
he d
Ġz un
Ġbec ause
Ġm ed
Ã¼n f
y l
un ktion
Ġg ab
ĠMÃ¼n chen
Ġse c
ĠW ien
{ @
for e
w ert
Ġdes sen
T e
lo ad
ĠR om
âĢľ ,
Ġar t
lin k
tel le
Ġwh ere
Ġ %
ĠK r
st Ã¤nd
g abe
ogra f
Ġ200 6
Ã¤n de
der s
ro p
ĠM ich
ĠF uÃŁball
Ġin c
ĠB re
ain t
ĠSchw ei
ĠB uch
in es
Ġ ,
iv es
ĠE le
ĠD urch
ĠSt re
Ġd el
ra ft
p le
Ġa v
rupp en
ĠEin e
r ip
ur ing
f ra
ĠC he
ĠB ay
is piel
ĠH am
Ġp ol
ĠMit tel
Ġ( âĢ
Ġne uen
ĠU r
sch ule
o hl
ĠCh ar
ĠL eb
ien d
Ġ1 00
ot her
Ġse e
Ġre m
neh mer
ĠN amen
al ity
stra ÃŁe
Ġihr en
ĠJ ohn
Ġein ge
L e
ĠL in
ik a
Ġar beit
u ge
Ġ18 8
Ġs on
Ġwor ld
Ġbe f
il t
ĠW or
enn en
Ġerh ielt
Ġf est
ĠÃ Ħ
em ent
nah me
le it
ĠM ill
4 0
le gt
g ra
ĠUnter nehmen
Ġs ei
Ġs ystem
ĠK n
g leich
p e
i ra
Ġ ed
Ġe hemal
2 5
Ġsp e
ar i
re cht
uf en
Ġo wn
Ġev en
ig es
co de
ĠK omp
w end
an gen
ĠS al
ĠK rieg
Ġde velop
ĠA t
Ġbek annt
los sen
ro ss
Ġ200 5
Ġc re
Ġv is
Ã Ń
Ġg ra
z ent
ie g
z t
ust om
Ġh ere
Ġs Ã¼d
Ġi de
o ge
all s
le gen
Ġd iffer
ĠH Ã¶
Ã¤ ude
ur es
ĠP art
ĠE d
Ġder en
Ġco uld
ch sel
Ġf ranzÃ¶s
ĠKar l
ubl ik
Ġ end
Ġs im
ĠB est
Ġth en
Ġw ant
est orben
Ġ2 1
G eschichte
ĠD ar
k rieg
ĠAn t
k auf
it zen
Ġ20 00
ly mp
Ġre ad
6 0
in ing
Ġc ar
ot s
ĠR o
Ġ u
Ġste ht
stell ung
f ern
in o
al b
iss ion
p unkt
f ass
p art
Ġin st
Ġs aid
Ġn ah
le ase
Ġs ur
l en
Ġdies es
Ġ ur
Ġweit ere
wick lung
ro up
ĠD an
re uz
Ġf amil
ater ial
and en
m ed
ĠF in
is k
Ġs k
ĠI f
k ommen
Ã¤hl t
il le
ig ten
ĠSch ul
Ġm uch
Ġpro gr
ĠY ork
at her
u ter
ĠFor m
Ġdeutsch en
t ag
Ġb zw
Ġincl ud
a e
Ġ2 2
wohn er
Ġm ade
in ce
ĠR Ã¼ck
ĠP l
ĠK reis
aus pieler
ĠSch rif
ĠFried rich
m ar
ĠOr ts
w w
7 0
Th is
iv ing
Ġd abei
geb iet
ĠW er
um mer
L eben
ĠC omp
l ing
Ã¶ m
Ġ *
sch utz
h ard
ĠBer g
E n
ĠP er
kt or
w ig
2 2
Ġt ake
Ġf Ã¼nf
in en
Ã ³
ĠPerson en
om in
isch of
ĠT od
irt schaft
Ġ200 4
u gen
ĠS ohn
ernse h
un n
d orf
Ġin formation
ĠSch l
Ġp olit
ĠFamil ie
ar ge
ĠLeb ens
Ġ2 3
Ġch e
Ġst ar
ann te
s ol
ĠN atur
ĠA uch
Ġt yp
Ġalle m
ĠD aten
ag er
it Ã¤
k ir
ĠPolit iker
ich ten
olog y
Ġd on
w are
ĠW ohn
ĠP at
Ġre qu
ĠH ein
Ġv al
ĠAl b
G estorben
ĠMe ister
use um
sp ort
Ġus ed
ur r
pr ess
ĠL ei
lass e
Ġ201 9
out h
im es
ide o
Ġc ol
schl uss
um ber
la ck
all en
Ġbefin det
ĠW ill
an ts
ĠR ad
Ġ #
en ce
Ã¤t z
ĠW ei
Ġp lan
Ġer reich
age ment
ĠB ahn
ĠB ere
at ure
Ġp ubl
ĠF est
an st
Ġs ite
Ã¶l ker
ap an
al er
ak es
iel d
ĠL ie
fahr en
Ġb ed
az u
rs g
4 5
ch te
ed er
Ġ $
he in
as on
h a
Â Ń
ĠO st
ĠG u
ath ol
ĠS an
ĠM ot
ir d
Ġsho uld
o de
gem ein
Ġl ife
ĠZ usammen
ĠA ss
ĠM ag
ĠFra uen
Ġe as
ran k
ĠH ans
Ġ =
Ã¤ us
Ġprov ide
ĠGe w
Ġb eing
up er
E in
sp re
iqu e
ing le
u pp
ĠE m
ĠJ e
2 3
Ġp ra
ĠPa ul
ĠSt and
stit ut
Ġ5 0
ĠK ap
Ġin ternational
Ġzun Ã¤chst
rit ten
ĠDeutsch en
ut ter
Ã¼ ss
f ilm
ip s
ĠW asser
19 8
oll ow
Ġwor den
Ġr ight
ru e
Ġto p
ĠB el
es ent
Ġ2 8
re ib
sch ied
gl isch
schrif t
g or
Ġson dern
ĠB ra
Ã¶ sterreich
Ġbeg ann
u x
< /
ĠT itel
ĠP ort
ĠFran z
h Ã¤lt
Ġen g
le y
ĠD on
sch ul
ho de
ur m
hel m
Ġ200 3
Ġbes onder
tel y
en det
grÃ¼n det
Ã¶r der
as ter
u ally
Ġden en
glie der
z iel
er ts
ĠGe gen
Ġof fer
h af
d ings
Ã¤ uf
A b
Ġ :
our n
n a
Ġent stand
Ġb il
Ġl a
um e
ĠB en
ĠPro v
N e
C h
E x
Ġ200 1
c on
Ġh abe
Ġb re
ent ly
f urt
id es
Ġad d
ĠGen eral
de ck
Ġdeutsch e
Ġand ere
ond on
ĠM od
ĠC ount
re en
w ei
Ġre al
om mer
r i
Ġd u
Ġs er
e te
Ġl ove
le i
ĠD re
F or
tell en
Ġbe fore
y ch
Ġp ass
ĠIn ternational
Ġeben falls
Ġ200 2
od y
c a
ĠL a
er st
Ġa round
Ġgew ann
b ur
am ent
ĠN ame
Ġc le
ard s
Ġ2 6
ĠK ont
k m
Ġne u
Ġc ustom
omm t
nis se
and s
ess e
o ks
Ġc olle
y d
ĠEn g
an ad
ab r
ra um
ĠRe p
Ġ199 0
ĠM at
k ten
ĠB Ã¼
rip t
um en
amerikan ischer
Ġp ost
ch es
Ġag ain
ct or
Ġl o
fÃ¼hr ung
Ġver Ã¶ffentlich
ĠT er
Ġ18 6
Ġcomm un
- -
ĠL eben
Ġje weil
r ib
itt le
l ic
ann ten
ĠB Ã¼rger
as st
Ġz ahl
Ġwh ile
ik t
4 8
c ted
Ã¤n ge
ĠS eite
Ġg est
7 5
Ã¤ h
il der
rÃ¤ ger
om b
a el
iz ed
ĠKir chen
F uÃŁball
Ġre t
ĠLand kreis
Ã¼ b
h ung
Ġth ink
ĠR ich
ĠPe ter
f ort
ĠSta ats
it ter
lo ck
Ġe ach
ear ch
s w
Ġ el
Ġd id
ĠS eit
Ġw icht
Ġl ast
ĠPar is
Ġre ally
ĠH ar
Ġ ...
am a
is se
p latz
e hen
Ġk ein
Ġv iele
Ġd ating
j Ã¤hr
ĠÃĸ sterreich
Ġander em
Ġsh ow
ro om
ar te
ĠBere ich
Ġver l
Ġpla ce
Ġa uÃŁer
ĠW ahl
ist s
E R
Ġc are
Ġm od
Ġr und
Ġn un
ĠVol ks
Ġth ose
ap er
Ġwe ek
Ġp os
Ġav ail
ff en
i as
we en
Ġn or
uÃŁ en
m us
ĠB ern
ĠL ondon
Ġdar auf
Ġm uss
lich keit
M e
or ts
ges etzt
Ġt rans
Ã¼nst ler
Ġd i
ĠTe chn
af fen
g aben
al y
m et
w ays
im al
Ġl ong
amp f
ĠP la
Ġres p
enn t
a ar
ĠHer r
j ahr
Ġ Ð
Ã¼ck e
Ġg l
t he
ĠJu gend
ĠC ol
Ġserv ice
ĠD em
ĠH el
Ġst ark
Ġo pt
Ġ20 20
w as
ĠM y
Ġfo und
2 4
e ver
S p
k on
ĠO lymp
Ġr est
Ġfin den
Ġch ild
ĠHe im
gen ommen
ĠT o
Ġer halten
p rÃ¤
I t
ĠB i
Ġph ot
Ġs ign
as ed
ĠD orf
lass en
ess er
Ġc our
min ister
en ter
Ġh im
ilit Ã¤r
Ġdiffer ent
iv id
ĠM ain
Ġh istor
c ial
Ġ2 7
Ġdies en
bild ung
oll en
us ch
Ġent wick
st re
och en
ass e
Ġ199 9
den s
ĠK ultur
h or
on nen
Ġf un
Ã¤ re
I I
ĠM or
ten s
Ġst ill
v Ã¶lker
Ġ2 9
Ġein ige
ĠE v
se e
Ġdo es
Ġn umber
Ġs et
ord s
Ġwel che
ĠSta aten
n ess
ĠS en
re ad
Ġspiel te
ĠA pp
gr amm
Ġg ut
kl Ã¤r
Ġnah m
ĠM art
Ġs l
ur en
ĠD o
Ġdis c
A uf
ĠR ei
Ġc ount
an e
Ġc lass
ies en
Sie he
Ġv ar
ĠReg ion
Ġsch ool
al ten
ĠSp ort
ĠS il
d ruck
Ġletz ten
ĠT ag
Ġf ollow
ir l
ĠJ ose
Ġn eben
ire d
Ġein fach
s st
sch w
t r
d r
de ut
et te
s icht
I N
iz iel
H rsg
Ġf ast
it ions
3 3
Ġ '
ĠH il
ll en
ĠPar te
rÃ¤s ident
tra gen
Ġm Ã¶glich
Ġsoll te
ot he
Ġbet ween
el te
tell ung
tern et
2 6
ge ord
e le
ell er
Ġfr Ã¼
ĠB urg
ĠHer z
Ġst art
ĠJahr es
ĠW ar
is hed
Ġauf ge
ĠGe org
an a
ĠT or
o le
b y
tre ten
om at
ĠRe chts
ĠFra u
Ġt rat
2 8
Ã¼ hl
Ġm ov
Ġt er
st r
Ġfr iend
or ge
Ġavail able
Ġerfol g
op f
ĠH ier
uch s
den k
ourn al
Ġersch ien
ĠGem ein
ĠW ir
Ġgem eins
.) :
ĠD av
it u
fol ge
la ub
ĠgroÃŁ e
Ġsm all
Ġfamil y
ĠB ut
U S
fol g
o ver
Ġb oth
ne y
m m
Ġg ing
ĠWil helm
2 9
Ġ <
z el
ol ution
ĠP al
g eschichte
ĠgehÃ¶r t
a der
ĠFamil ien
Ġpro fess
Ġad v
3 5
et ing
Ġcomp any
ck er
7 9
Ġro om
il ome
ograph ie
ĠF ach
nah men
Ġg anz
Ã¤ che
Ġserv ices
Ġim port
Ġakt u
ap t
Ġexper ience
de utsch
ges amt
s ych
Ġst r
7 6
ĠEr n
Ġ199 8
p ert
teil ung
f el
Ġpro cess
d ienst
st ru
m ut
ĠSch auspieler
Ġb ie
D R
nah m
Ġb ook
haus en
b et
ct ions
ĠP ark
im mer
ĠgroÃŁ en
Ġin ner
Ġihre m
iet y
la u
Ġm en
alt ung
Ġch ar
z ig
igh ts
imm t
Ġzahl reich
z entr
iv al
ĠS el
Ġ198 0
ĠEin wohner
a uch
ĠBe g
Ġfe w
Ġst ra
st off
ce ption
ind ung
i am
al es
ĠK ais
ber eich
w or
ne te
Ġus ing
Ġinclud ing
Ġmon th
ei den
ĠUS A
v es
ĠT our
Ġv iew
Ġun ser
Ġse x
on es
an gel
st Ã¼tz
av ing
hn en
u h
w ork
g ar
Ġkl ein
mÃ¤ ÃŁ
y er
Ġsch lieÃŁ
ĠWelt krieg
Ġp at
w ort
ĠI hre
w issenschaft
ĠJahrhund erts
ĠB esch
4 9
Ġ â
ĠAl t
Deutsch er
Ġzw eiten
ar a
D F
8 0
Ġhat ten
f ert
Ġ4 0
oc i
ĠFol ge
ĠC or
f ts
ĠN ot
it es
Ġfor m
i at
ĠA ustr
igkeit en
Ġpr iv
uch te
us h
o x
ĠR ah
ĠA uss
ĠPro fess
oss ible
ĠgehÃ¶r te
Ġbe zeichnet
Ã¶ t
w est
Ġo pen
d ie
Ġp op
Ġ194 5
Ġab sol
I D
h am
Ġb rit
Ġw rit
ur y
ĠFor sch
ĠD u
ĠJ o
ĠS he
ĠR uss
ĠSch n
ver n
Ġ199 6
ĠD a
n ungen
Ġmehr ere
Ã¤ ft
Ġle arn
ograf ie
uf f
Ġerst mals
Ã¤ mp
ĠN o
ĠS ol
Ġv oll
Ġhe alth
Ġgo ing
l ang
ĠB ro
ost er
ĠIn s
ĠAn fang
Ġab ge
ĠL ud
Ġs ame
an ten
ar z
cc ess
lat t
is iert
Ã ¨
om as
Ġan t
utz t
et ail
ic ally
b el
ab el
Ġapp ro
P erson
Ġ(âĢ ł
um p
icht ung
ĠHein rich
Ġte am
ch ten
Ġcomp le
Ġfe el
Ġm ember
heit en
op e
ĠF ot
Ġth ree
Ġl ittle
d ing
ĠS erv
Ġbel ie
os oph
Ġpro m
Ġw ei
Ġg ar
Ġw est
sch ein
ap e
ĠCount y
Ġbu ild
te g
Ġh app
Ġ18 5
ĠZ e
in ner
ĠSp e
Ġ199 7
Ġ197 0
Ġbeste ht
ĠMich ael
z ogen
ig a
Ġc al
h Ã¤ng
f re
ĠG ott
Ġvis it
Ġc or
spr Ã¼n
Ġspec ial
ĠVer walt
zeich nung
ĠEr z
im a
ĠA lex
Ġ199 4
Ġher aus
p re
az z
Ġsein es
Ġlook ing
in c
ier ungs
os en
Ġd azu
Ġwe gen
w and
Ġke ep
7 4
ĠFl ug
ut h
Ġsch n
Ġsupp ort
3 6
es te
Ġare a
Ġch o
Ġ199 2
19 6
ĠT em
och ter
3 9
ar ly
ĠHam burg
ĠR aum
ĠH ow
. âĢľ
ĠC ity
D ies
Ã¤t ze
ĠAmer ican
ik en
ĠThe y
t ing
ĠK at
d o
l ess
Ġ199 5
en a
Mit glied
lie b
we is
ĠGr Ã¼n
ĠW ebsite
Ġge ht
ĠNe u
ĠP lan
== ==
Ġ Ã¶sterreich
ĠT yp
irt schafts
ate gor
ĠE he
onder e
c ript
wer b
Ġk ommt
Ġto o
ĠB ed
Ġk m
Ġw ater
Ġper fe
Ġet was
a at
ge d
ĠK Ã¶l
Ġd uring
sk i
ĠBet rieb
ĠH of
Ġf ull
ra cht
on y
F ilm
Ġan n
ĠA ir
ĠRah men
Ġpro ble
Ġaller dings
st ag
schn itt
Ġer ne
th ing
Ġcom e
) :
ra che
ĠGra f
ĠfÃ¼hr te
Ġal ways
Ġhe ut
y le
w elt
Ġf ac
ers Ã¶n
id s
ĠD ort
b ed
ĠE ur
ĠL auf
le tz
il la
il es
h ip
en der
Ġper form
ĠT re
ro s
Ġall en
Ġn ational
gr iff
ig ital
ĠWor ld
ilome ter
ĠG old
ĠK ur
Ġc urr
l Ã¤nd
G ibt
ĠC olle
ĠN eben
Ġverw endet
Ġb ig
Ġc los
3 8
ein t
Ã¤ m
y e
9 0
Ġk on
gem einde
ĠB ad
ĠTh ere
ĠIn formation
ol oge
Ã¶ h
ĠS eiten
v ed
Ġk urz
ĠZ entr
ĠEin satz
Ġincl ude
ĠTe xt
A d
Ġl in
Ġob ject
at ter
Ġt Ã¤t
Ġg ot
Ġd re
Ġgen annt
7 7
Ã¼s sen
Ġpart ic
ĠSchwei zer
Ġf and
ĠS Ã¼
Ġd av
for der
j oy
Ġb ro
ver t
z irk
Ġem p
Ġto day
Ġ est
ĠG ruppe
ir on
B ei
Ġ199 3
Ġex c
m ark
her r
Ġ196 0
ĠArch ite
A N
ĠK o
ĠMa x
ober t
4 6
Ġind ivid
ĠS m
Ġre p
H e
au g
Ġste hen
Ġth ings
Ð ¾
Ġm ind
w ar
ĠF eld
un kte
Ġs ay
Ġs tell
Ġ199 1
ich tet
ĠG ed
bur ger
Ã¶r d
ĠS ystem
ĠFrank furt
Ġis s
gan gen
l ungen
ĠR ed
ĠO l
um an
ĠMit te
g art
im ent
le hrer
Ġg row
Ġg roup
ĠSp ieler
Ġor der
Ġof t
ft ware
bes ondere
rÃ¤s ent
Ġh inter
ach en
ĠChrist ian
Ġor gan
ĠMe ter
ĠProv inz
Ġ198 9
ĠV ater
ief ert
Ġbe h
Ġqu ality
in ation
ĠH istor
Ġh och
ts teller
Ġ3 1
/ /
g o
ĠSch loss
ĠW olf
Ġl assen
Ġo per
un ft
Ġ x
ĠD ire
pro du
ĠW ald
ib li
Ġw omen
Ġse chs
kir che
Ġsh ort
ĠEr st
Ġs etz
ĠTe am
E s
ĠZ ahl
omm and
ier s
Ġl ot
ĠBe ispiel
Ġg ame
one y
Ġd ata
heit s
z y
Ġwith out
ĠT ochter
ĠC ont
Ġl Ã¤
Ġst ate
la v
ganis ation
Ġst or
ce pt
Ġs ure
ĠSt r
on ist
Ġbe de
Ġbe aut
ĠC om
Ġweit eren
n ame
Ġh ard
2 7
um b
Ã¶r per
Ġk omp
Ġverschieden en
Ġqu est
Ġerfolg reich
Ġ20 21
ĠZ iel
il y
Ġo pp
i os
Ġent spre
re as
fÃ¼ g
d a
Ġd an
Ġt ro
ĠSe e
ĠS ein
ĠD ienst
ain s
p lan
ĠM ay
ĠB ischof
ĠD is
en glisch
Ġd ah
Ġl and
Ã¶glich keit
am mer
Ġw Ã¼r
schlieÃŁ end
Ġ Q
Ġw ebsite
ĠD en
Ġwith in
amm lung
r ic
Ġk ommen
Ġbe w
eth ing
3 4
g ruppe
ĠEurop a
ĠF er
um m
ĠThe ater
ĠZ ug
an te
ĠW ind
Ġwe chsel
ar l
ĠGeb Ã¤ude
ĠSte in
ver b
on en
ist ischen
ĠLud wig
Ġn ieder
ach e
ĠLei p
ĠM Ã¤n
le ben
for d
de ten
Ġev ent
Ġarbeit ete
: //
Ġab le
ĠSt utt
ĠM c
ĠHe il
rÃ¤ ge
Ġd och
es h
Ġs ince
19 0
ĠWe g
und s
ĠAm t
L iefert
ĠEnt wicklung
Un ivers
j a
am b
Al s
ĠGeb iet
w irtschaft
our s
Ġgen er
Ġb ra
Ġc ost
A T
Ã¤ ss
ĠK e
sch er
ĠN r
Ġacc ess
ein ander
Ġp ower
ĠA kt
Ġt ry
ob ei
ser ie
o ung
Ġcont in
Ġe qu
Ġjeweil s
Ġp ict
ĠfÃ¼hr t
ĠW inter
ĠE p
reib ung
s weise
Ġimport ant
Ã ĸ
ig ent
ĠSch ool
ĠRe c
! !
Ġval ue
i ally
ĠF o
h end
it te
teil t
ĠFrank reich
a he
au p
Ġbet ter
ĠS eine
9 9
Ð °
uch e
Ġc a
Ġl ist
ĠHÃ¶ he
ĠM ont
Ġeigen en
ĠZw eiten
ĠKais er
we hr
ĠA g
ĠTh omas
ĠStra ÃŁe
Ġre ce
ĠtÃ¤t ig
ĠD abei
ĠS ommer
Ġstud ierte
4 4
19 5
ik ation
A S
Ġh ol
7 3
j et
f il
ĠF unktion
. âĢĿ
is ierung
Ġf act
O b
ĠS outh
ig inal
Ġ198 8
Ġle t
Ġgr Ã¼n
Ġinter est
ist ory
atur es
ĠM useum
ĠO s
ĠP reis
B er
ĠS itz
ĠOb jekt
ĠH a
lich es
us Ã¤tz
Ġmus ste
Ġw all
gr ess
i ents
Ġho use
ĠL iteratur
ĠFuÃŁball spieler
ĠF ar
ĠO p
ĠEin zel
Ġdav on
ill s
Ġprodu cts
Ġm al
la us
ĠR olle
Ġsec ond
tel s
Ġm ust
Ġm et
sel f
ĠL uft
uch en
ĠF C
lig a
ĠRom an
b ei
Ġfolgen den
ĠSt at
Ġg ilt
gen den
Ġw obei
ik el
Ã¼ gel
rÃ¤ gt
Ġd ays
op s
i ate
Ġit alien
ĠNor th
Ġstud ents
7 1
Ġt rue
ge ber
ir m
Ġg ive
Ġne xt
ĠUn ited
p os
ĠK om
ĠG ar
7 2
ĠB ru
ĠA ward
rei ben
o in
Ġse le
ĠBe vÃ¶lker
if ul
ag ue
Ġloc al
Ġinv est
ne ten
iz in
Ġex ist
Ġin t
Ġn ame
ĠGes ellschaft
O N
ĠD i
oug ht
ĠW Ã¤hrend
ĠKÃ¶l n
I f
ĠK Ã¼
ĠK reuz
a ÃŁ
3 2
ĠF all
igen schaft
Ġsom ething
3 1
Ġ18 0
ĠT ro
Ġc r
ub e
y ing
Ġt re
Ġl arge
v ille
Ġge grÃ¼ndet
erk e
Ġm ir
FuÃŁball spieler
ĠD am
ĠH ome
Ġwork ing
ĠMann schaft
ĠW ith
Ġer rich
en g
Ġhe ad
ĠSchrif tsteller
geben en
ĠS im
Ġres earch
" ,
Ġp ay
ĠE isen
ĠSt ring
Ġle g
ĠSch m
ĠMart in
Ġen joy
ĠStutt gart
ĠR hein
Ġer n
Ġerfol gte
st ieg
ĠR el
ĠF il
Ġinner halb
E S
ĠAn ton
Ã¼ck en
Ġfin det
ĠK ommun
' m
Y ou
ĠG el
Ġat t
sh ip
ĠHeim at
m b
Ġm ain
Ġ198 7
Ġden n
E N
ĠU l
ĠI hr
lich t
Ã¤t te
Ġ198 6
Ġc ert
ver ein
ĠBes itz
Ġwechsel te
Ġle ad
ĠschlieÃŁ lich
ĠS a
Ġwe il
ĠRe gel
Ġch ange
ĠEr w
Un ter
ĠW o
em s
arbeit er
Ġur sprÃ¼n
ĠPf arr
Ġn Ã¶rd
ĠP ost
Ġ6 0
ĠS oc
Ġauf grund
ge f
ic le
ĠK ant
ĠH ann
Ġa ff
af Ã¼r
ĠMar ia
ĠLe ist
Ġan other
richt ung
Ġt urn
ei le
ut s
w ie
Ġa ir
ĠHol z
ĠV ier
ett be
att ung
Ġs ingle
ĠP ap
Ġins gesamt
Ġad dition
deut ung
Ġj ob
b te
ĠIn stitut
iz ation
ie gel
Ġf ile
Ã¤ fts
ver band
ĠS w
ĠM er
ĠDeutsch e
l ungs
Ġer k
ĠEr geb
Ġpubl ic
ĠMin ister
A R
Ġme ist
Ð µ
Ġo ld
Ġse hen
ĠâĢ ¦
ĠNor den
Ġapp lic
Ġm ax
Ġmach en
ig ur
ĠKl ein
Ġp age
ĠIn ternet
3 7
Ġco ver
ktion en
Ġcon c
sch eid
zeit ig
Ġtra dition
ĠMet hode
ĠF ir
ka dem
id ge
ĠO per
ra u
Ġm aking
Ġl ight
geb aut
ĠW al
ob il
ĠIn n
M ar
Ġde fin
w h
Ġm ight
ort un
ĠD enk
ĠLeip zig
9 5
g lichen
Ã¤r en
wend ung
Ġbesonder s
it ten
ab or
ĠAlb um
ter t
as k
Ġunter schied
ĠR obert
ĠSch iff
our ce
Ġeas y
w ald
d es
ag n
Ġche ck
setz ung
Ġim pro
i ol
ĠAut or
z ess
te gr
I S
W h
ĠSt ate
ĠDes ign
s etzt
gen de
ult ure
O R
ĠR u
ze pt
ra y
row s
ĠI de
ent al
ret t
Ġm ar
it or
ran sport
Ġen gl
Ġ198 4
iv ed
ĠK ol
fl uss
ĠMill ionen
ĠOlymp ischen
Ġgeb oren
Ġact iv
Ġ }
Ã¼r k
ĠâĢ ĺ
lÃ¤ uf
Ġkonn ten
ĠPr iv
ĠMar kt
Ġcons ider
t es
Ð ¸
ĠF rei
ĠM utter
Ġme isten
Ã¤ ll
it ive
ĠK Ã¼nstler
b ank
ut es
Ġfo od
Ã¼r z
ĠO t
Ġpra ct
ĠK ilometer
ĠB rit
ĠSo zial
ĠTe x
u el
ul ts
e x
b ra
all er
ach er
Ġ195 0
ul ation
und er
Ġre view
Ġb lieb
ĠF ernseh
ĠJ apan
ĠStra ÃŁen
ĠH igh
ab l
Ġne ver
eit ung
ern er
6 5
ĠOn line
Ġerreich te
Ġm ult
Ġl aw
ten d
Ġneed s
Ġdown load
Ġf lo
ĠP ra
mann schaft
Ġh al
Ġdire kt
Ġc ap
ĠH en
Ġl ange
S o
Ġb ring
ĠI ch
Ġn ord
sp rach
ĠM os
ĠJ ournal
Ġins besondere
l am
im men
ĠL ang
. "
w Ã¤r
ing ton
ill ion
Ġ Ã¶ff
Ã¶r t
Ġ197 2
om an
Ġof fen
ru ktur
Ġwor ks
ĠP o
af en
ĠMal er
Ġfor t
ĠReg ie
ĠH in
ĠE is
ĠH or
ĠVer trag
ĠâĢ Ķ
Ġse arch
Ġv ideo
ĠP ass
Ġs af
it chen
ien s
ĠProfess or
A s
Ġein mal
ra b
ĠL ou
f est
Ġmus ic
issen schaften
Ã¤n dern
f o
Ġchild ren
Ġh Ã¤uf
ĠT est
Ġg irl
ge ther
ĠBeg inn
ĠÃ¼ber nahm
Ġmark et
ill er
Ġt em
B au
ge gen
ĠW ieder
ĠSt Ã¤d
ĠO ur
Ġk ur
9 8
e e
Ġ ident
f Ã¼r
ĠC omm
Ã¶st lich
Ġs w
ĠB eit
os p
ok rat
re if
ĠU hr
ĠArbeit s
Ġprogr am
Ġm ein
ĠEur o
ĠS am
Ġm Ã¼ssen
ĠA fr
ĠCh ina
un ch
Ġges am
je kte
ibli othe
ab ility
Ġin sp
Ġc reat
Ġgel ang
le v
t il
ĠDav id
Ġ198 3
r ist
th ers
oc us
en zen
ic o
op er
Ġperfe ct
P h
Ġpro ject
Ġse ver
Ã¼ ler
Ġpro te
Ġze hn
ok ument
ĠA uÃŁer
ĠM el
en ze
opp el
Ġverschieden e
ĠS yn
Ġperson al
ĠJ ust
red it
ĠEn erg
c le
ber ger
Ġr un
Ġprodu ct
Ġal ong
Ġre du
ĠSta at
4 2
Ġviel en
ĠSp an
f it
ĠW esten
ger ufen
in i
is on
ĠW irtschafts
f red
Ġze igt
ĠLe hr
cript ion
Ġgegen Ã¼ber
r Ã¤n
Ex ception
E igenschaft
ĠS and
ĠVor s
i ber
land s
ĠPro ble
il nehmer
Ġ Ã¤
ĠR est
p end
Ġre l
ail le
ĠBe deutung
Ġzw eite
Ġgew Ã¤hlt
ver kehr
c ing
Ġm ich
Re g
Ġz eit
ĠH inter
Ġeinz el
ĠSchwei z
4 3
Ġ {@
is ed
k o
r or
Ġn Ã¤ch
am ens
at Ã¼r
Ġo ber
ĠH alb
Ġto gether
v iron
r Ã¼
Ġ198 5
Ġ198 2
ĠParte i
zeich nungen
b re
ĠS icher
ĠBer uf
be k
Ġ197 4
Or t
Ġcommun ity
P D
Ã¼t zen
ĠZ eich
Ġde ut
ĠSt art
Ġ197 9
al z
ĠK ind
on a
F ernseh
ium s
ĠSÃ¼ den
ĠB ur
au en
ok al
schul lehrer
4 7
ĠK in
Ġkl eine
L and
h Ã¶
Ġr uss
ho ck
Ġle ben
ĠDies er
Ġsu ccess
ĠĠĠĠ ĠĠĠĠ
ran ken
ab ly
ĠC as
f an
Ġan geb
itÃ¤ ten
Ġcour se
ĠM il
fahr t
Ġer m
ĠII I
Ġ ir
Ġ197 8
A L
Ġv ol
Ġc all
mal e
Ġver st
Ġcon ne
J ahr
Ġl ess
Ġl ive
Ġbas ed
ĠEurop e
Ġent fern
Ġh tt
ym n
ĠPro zent
- ,
it ze
ĠBay ern
ĠKrieg s
te ile
he mat
Ã¼ ter
Ġp ort
ag o
ĠAn zahl
ĠI r
Ã¼r t
ĠReg ierung
fÃ¼hr er
ĠOrts teil
ĠRe v
Ġp ast
' ve
ĠGes amt
' re
Ġan s
ue ck
ge geben
itÃ¤ ts
ĠZw ischen
Univers itÃ¤t
F Ã¼r
te chn
Ġsow ohl
wo od
le ist
Ġl ine
Ġk ind
Ġhin aus
Ġd ien
Ġn ahe
ĠE mp
Ġbis her
Ã¶s ung
id ing
ord ing
W elt
Ġerne ut
Ġein gesetzt
z ir
St and
ĠB is
ak ter
it i
sch lag
if fe
Ġvor hand
ĠEn d
z Ã¼
Ġed uc
ĠL es
Ver ein
Ġt est
ĠZ ur
ord nung
ĠS l
Ġn atur
ĠT age
ĠK lasse
ab hÃ¤ng
Ġerrich tet
f s
ĠS ong
ĠB ank
ĠO sten
a un
Ġfolgen der
ch an
ist ische
k n
ĠIt alien
is ing
Ġw eb
ĠIn sel
c er
Ġver kauf
ĠMot or
con om
ich ter
ĠPro jekt
et ter
zie h
Ġbeaut iful
Ġkl einen
rach te
Ġ197 5
Ġal ten
Ġh erv
olit ik
Ġas k
Ġ197 6
mb H
Ġde v
Ġ198 1
ĠN utz
ĠlÃ¤ sst
and id
Ġa way
Ġt reat
stell en
ĠP an
O n
8 8
it en
f le
al og
Ġp ut
ĠF Ã¼hr
ab in
rit te
ĠVerwalt ungs
Ġre la
Ġn ight
it ing
il en
ian s
Ġbeg inn
ĠW eit
B r
s burg
Ġsie he
ikan ischen
me e
Ġdevelop ment
ĠverÃ¶ffentlich t
ĠM ad
Ġs ize
ĠM ore
Ġd afÃ¼r
te id
ĠT ur
ĠG Ã¶
ĠR ichtung
eth od
Ċ Ġ
Ġ196 8
Ġlie ÃŁ
ĠBo den
ĠGesch Ã¤fts
f asst
Ġf av
ĠK or
ĠR ot
Ġst amm
ges etz
ĠK re
Ġcle an
Ġf our
p iele
ĠPr ess
b Ã¼
A C
ip l
Ġd ra
ic ks
ĠT op
Ġz usÃ¤tz
ĠRich ard
Ġm ag
ĠG ast
Ġ196 7
S eit
V on
Ġs en
Ġm oney
al itÃ¤t
4 1
Å ¡
ĠSe x
Ġr Ã¶m
Ġ197 1
Ã¼nd ung
p reis
ust rie
Ġcre ate
geb Ã¤ude
Ġ( )
ĠC al
Ġ196 9
m on
Ġl ov
Ġunder stand
T yp
ob ile
Ġcont rol
A P
E D
hock ey
5 5
Ġh aving
Ã¤ch lich
ĠP ubl
u den
ĠAl ter
Deutsch land
ĠSch ule
anst alt
Ġehemal igen
Ġ )
ĠSel bst
b aut
ĠErn st
Ġs og
h aupt
b est
f ung
V or
Ġjed er
Ġoff ers
ck t
if ied
ze uge
Ġf ilm
weg ung
g n
ol den
Ġm aterial
ĠR ang
Ġihn en
Ġc as
Ġbel ow
ar en
ĠD DR
Ġbie tet
6 6
fl Ã¤che
ure d
Ġsie ben
ĠGer man
etail s
Ġgemeins am
enn ung
Ã¤us er
ĠR ock
Ġme et
Ġc ity
ĠVerein igten
Ġle d
e kt
wa gen
Ġ +
ĠT al
ĠA p
alif orn
Ġpro pert
Â ²
ispiel sweise
ĠE hren
ĠM ilitÃ¤r
b an
Ġver m
aff el
Ġeff ect
g ing
Ġb ar
E ine
ĠW ochen
Ġpr ice
ĠkÃ¶n n
Ġz we
wo hl
Ġa cht
ust ry
Ġcon f
ichte te
Ġh Ã¶ch
ĠK urz
Ġ197 3
id ay
ĠUn d
fe hl
Ġwo hl
ĠFl or
viron ment
ch ter
ĠAm ts
iziel le
Ġb ody
ĠCar l
ra el
ak en
amp le
ĠB or
Ġall ow
, âĢĿ
ĠS achsen
ak er
Ġn et
ĠT urn
n am
Ġn ie
ru ct
ĠJose ph
ĠHerz og
Ġ ess
ĠSch utz
ib r
ro ll
ur f
ĠW ie
Ġver t
k an
ĠMe hr
s uch
Ġso zial
ck s
ges ellschaft
ĠR ein
ĠColle ge
ĠDre h
ĠG mbH
entr al
ĠS uper
o is
iv ely
urop Ã¤
part ment
b ung
t ler
Ġ(âĢ ŀ
Ġide as
ĠfrÃ¼ her
ĠP osition
Ġof ten
z a
ĠS ub
ik on
rie f
fer ence
ĠVer kehr
Ġam er
re w
ĠT rans
Ġt imes
ir g
* *
par te
Ġbe vor
ĠPro gramm
Ġall es
Ġheut igen
Ġfollow ing
ot or
ĠM Ã¶glichkeit
zeich en
Ġmo der
9 6
Ġst arb
ĠAn gel
ge fÃ¼hrt
ĠT V
hr te
ĠJohann es
ĠO ne
Ġmo dern
e ter
ĠW eb
g a
h ang
Ġpr esent
Ġst ory
ã ģ
Ġb it
Ġ197 7
Ġ196 4
Å į
B C
le ge
ĠB aum
ĠJ ur
Ġc ase
Ġbec ome
Ġ ung
Ġh inz
Ġdar unter
i j
b ol
re ibt
f ried
Ġdan ach
mÃ¤ÃŁ ig
il s
ÃŁ t
ĠG ruppen
ĠP rÃ¤sident
ĠSt ar
G em
m o
Ġeigen e
Ġagain st
l ad
Ġp lease
Ġpr es
Ġso gen
gesch lossen
an ks
Ġ8 0
iz iert
ĠW hen
ĠZ um
Ã §
l or
Ġer klÃ¤r
arbeit en
stell t
or den
Ġk ey
Ġbest imm
Ġsever al
og n
Ġzw ar
Ġs ide
ĠAuÃŁer dem
Ġopp ortun
ist ik
em in
ĠTh ese
Ġabsol v
H och
ann e
Ġqu ick
Ã¤n den
Ġbeste hen
v al
re icht
Ġzu dem
Ġwh y
w eit
ĠCh amp
Ã¤d ag
ĠAuf lage
bar en
ĠReich s
8 5
Ġwen ig
Ġm aj
Ġv an
ar ian
ing t
Ġfe atures
row n
Ġzahlreich e
Ġ3 5
Ġvorhand en
ĠBevÃ¶lker ung
ge hen
Ġp ossible
ĠE ben
Ġin n
ĠEng land
G r
ĠD ruck
ĠD iv
ict ion
ĠP et
Ġz og
Ġet c
Ġhand elt
an o
Ġb ene
ĠN Ã¤
un e
ant wort
it ch
ĠB lack
Ġbe teil
ĠS ant
Ġim p
itz t
Ġle vel
Ġdah er
arr iere
ĠR ud
an ze
Ġar ch
ĠKar r
Ġl ag
sp ro
Ġf ocus
ul a
ĠInformation en
9 3
ĠS aint
ĠB u
Ġo cc
Ġso cial
tem berg
ĠJ azz
ibliothe k
ĠM iss
Aus wahl
c is
Ġw ahr
ĠEn gl
Ġbu y
ĠM ac
Ġto t
Ġac ross
Ġ193 9
ĠT ab
A mer
le gte
Ġbe ispielsweise
Ġemp lo
Ġwel ches
ut ions
Ġb lack
al ys
ĠD el
de x
ift ung
Ġun til
Ġr ange
ell ing
ar ing
um er
Ġzur ueck
werk e
Ġele ct
ĠEr folg
Ġcol or
Ġj etzt
ĠSie d
ĠW ol
ĠE t
Ġcount ry
Ġgef unden
Ġdel iver
ĠZ ust
ĠPhil ipp
ettbe werb
Ġm akes
I C
b ro
s ide
eh men
Ġpo int
Ġ Ã¤hn
Ġph ys
ĠfranzÃ¶s ischen
Ġim age
meister schaft
Ġerw Ã¤hn
Ġw he
ĠSer ie
ĠGen er
ĠhÃ¤uf ig
id d
Ġn on
ag s
rol le
co ver
ĠA kadem
ĠH all
v oll
Ã¶ ÃŁe
Ġletz te
g g
Ġd ist
Ġinst all
8 6
sch eiden
Ġschn ell
ĠF ort
Ġentspre chen
ĠChe m
n ach
ĠG eld
ĠD own
je cts
g Ã¤n
ĠC D
Ġst re
âĢľ )
H er
h an
ĠD istr
ĠR und
ĠLe ague
Ġc ou
sch iff
Ġget ting
ĠBes uch
anad a
ĠP sych
Ġwicht ig
ĠK rit
O S
Ġver sch
ur ity
d in
Ġ193 3
ĠD om
Ã¼r d
ern en
Ġe ver
th rows
ap s
Ġcom es
Ġcomp an
ĠR os
Ġ196 3
ĠHo use
ĠSp iele
ĠGra b
ĠE ing
Ġsich er
for sch
ich en
uf act
ĠGe f
id a
ĠK an
ĠC enter
Ġth ough
ĠMit glieder
Ġs uper
Ġf ar
Å Ĥ
am in
Ġw ind
Ġdam als
ob al
Ġres ult
Ġspec ific
ĠPhil osoph
Ġre lat
ĠBerlin er
un t
Ġm om
ĠProdu kt
Ġsom it
ĠH ers
Ġy oung
Ġ196 1
esten s
ol a
Ġl ow
ĠV al
u tet
ĠB ilder
ier ungen
sche ch
ĠSal z
w esen
ĠK ategor
etz ung
M us
vern ment
b ten
ĠZ we
Ġl at
ĠG i
ĠJ ack
ĠgehÃ¶r en
z us
" .
b are
Ð ½
Ġf al
ĠF el
ut ure
ĠBahn hof
ĠIn nen
v ious
ĠG od
Ġre gel
ĠC r
Ġth ing
geb ie
ĠOt to
oll te
ĠÂ »
Dies e
ĠZ Ã¼r
haf t
' ll
Ġentstand en
ĠD res
Ġ( =
app en
ĠKl oster
Ġb in
Ġp ack
ĠAn n
ĠRei he
as en
al tet
Ġbes ten
Ã¤ chen
Ġdire ct
ĠCl ub
ĠI l
ĠGr and
at ers
ĠJ ames
is c
ymn as
M et
leit ung
og le
. :
Ġ196 6
fin ale
pr Ã¼
Ġdeut lich
ord in
Ġhe i
Ġ19 20
Ġ7 0
Ġsoll en
k i
Ġ Å
st Ã¼ck
ĠSch Ã¼ler
asch inen
Ã¼s se
geb ung
ĠAustr al
ĠB ot
ĠVors itzen
Ġ196 5
ĠG al
os sen
ĠK auf
Ġse ason
ĠDe c
ĠGe ist
Ġfol gte
es tern
as il
ĠW enn
Ġl og
ĠKarr iere
ick en
Ġmaj or
g ent
ges ehen
Ġ193 8
Ã¤l ter
I T
e ten
m el
ungs k
Ġle ft
Ġme ans
Ġwen iger
unn ing
Ġ196 2
isse ur
ikan er
it ure
ĠB ach
ĠI hnen
Ġ9 0
ast ic
Ġer Ã¶ff
av en
Ġsp ace
lan zen
il er
la ger
Ġcont act
Ġs tellt
A ut
ĠW eiter
ĠC amp
fl ug
ik o
Ġp ie
ĠFe uer
ran t
ĠKomp onist
Ġm ass
z i
ĠK ons
ak te
W est
Ġn ichts
ĠGemein den
Ġex tra
ĠWh at
ĠStud ien
Ġbl og
Ġind ustry
Ġte xt
Ã¤l fte
Ġsh are
ĠS telle
Ġver fÃ¼
Ã¼l t
s eit
ĠSt ates
ĠBr on
Ġbefin den
ĠB y
Ġzu vor
ĠTh at
read y
Ġf alls
Ġ194 0
ĠÃ¶ff ent
ach ten
Ġ194 4
Ġn atÃ¼r
Ge ographie
im s
ac y
Ġprofess ional
Ã¤ ÃŁ
w ind
ĠD ate
ier ter
ĠA k
ĠM aterial
ik al
Ġ195 9
ĠA ben
ch ester
9 2
m od
un sch
ur ance
ĠG leich
deck t
Ġfriend s
b ack
w in
ĠMed ien
ĠRep ublik
la den
b esch
Ġmember s
Ġlie gen
ĠGe orge
Ġcl ick
he ira
ens ion
Ñ Ĥ
or gen
ame ister
Ñ Ģ
ad urch
ĠSe c
s eite
Ġkn own
f a
ilit ies
c ent
Ġk itchen
itu ation
Ġd eb
ing les
ĠAss oci
ĠP lat
Ġstell te
c el
el f
ĠR iver
ĠMÃ¤n ner
on ne
it a
Ġc amp
Ġh om
Ġgen utzt
ĠFre und
ĠBru der
ĠV o
ĠgrÃ¶ÃŁ ten
Ã¼rt temberg
ĠMe er
ĠPre m
an zen
Ã¶ hn
schlieÃŁ lich
Ġl ink
9 4
ide os
S h
Ġto ol
Ġein igen
br uch
ĠJun e
Ġcom b
la w
och e
as er
Ġl im
Ġser ies
Ġsog ar
g ere
Ġdam al
Ġstra teg
lie ben
Ġcomp uter
isten t
ig in
Ġteil weise
qu e
or m
or ie
rie ges
Ġgen au
fra ge
led ge
Ã¤t igkeit
Ġ193 0
ĠHo tel
Ġstar ted
ĠK le
ag t
Ġoff ice
ĠC an
ec ts
v est
Ġp urch
ĠL age
Ġ194 6
Ġges p
onst ru
ĠServ ice
Ġ ens
ze hn
urn iture
Ġrel ations
. <
ĠG est
an lage
rie ch
oten t
ĠP op
ĠVer fÃ¼g
Ġnach dem
u hr
te in
ĠP rÃ¤
Ġbest and
f ten
Ġprov ides
ĠR oy
.. ..
âĢ Ķ
ĠL o
Ġgleich en
ĠSil ber
Ġcal led
ger icht
ĠFl uss
Ġpriv ate
ro du
Ġ rad
ĠL u
ian a
it sch
el ten
0 8
ĠB aden
ĠH al
w an
ĠJ es
ĠMit arbeiter
Ġ195 6
r uf
Ã ¢
sp iele
ĠEr sten
ĠK raft
pla y
ĠR em
ed en
Ġ194 9
ĠNÃ¤ he
ĠCh or
Ġm iss
fahr er
stit ute
ĠM ass
Ġk amen
s ie
ĠE igen
Ġbes uchte
Ġsetz te
Ġ195 7
ĠEle kt
ĠNach dem
Ġpol n
Ġoff ic
Ġmach te
ĠP il
ish ing
Ġchar ac
d f
Ġw a
b s
) ;
g liche
Ġsch rieb
te xt
ĠRe gen
p ut
i od
ĠVerb indung
geb ot
itz er
ĠA G
Ġal ready
we gen
Ġtra ining
at um
m ost
Ġk lass
Ġapp ear
ĠHer mann
Ġ195 8
ĠHer ren
le ment
Ġh uman
ĠAr m
M ed
s c
ĠSp rache
ĠW irk
Ġer reicht
av a
ĠW ein
k ret
ĠV iel
Ġb ath
ĠT her
Ġre port
Ġtechn ology
Ġvoll stÃ¤nd
ww w
st ant
hl en
6 8
Ġret urn
Ġlin ks
Ġd one
Ġver lie
Ġqu alif
ĠHil fe
k unft
Ġl iving
ell s
Ġm Ã¶ch
ĠF ac
T rÃ¤ger
ĠD eb
Ġst at
ĠSchw er
aup ts
Ġauf genommen
Ġne ar
o int
ge hend
us st
ĠZw ei
hand lung
Ã¼l ler
ĠG et
ĠStre cke
p lat
le iter
ĠE du
k el
Ġw elt
H and
our ces
Ã¤t zen
Ġen c
g y
in ts
ic y
Ġk osten
Ġvar ious
r am
Ã ľber
ĠEr d
ĠSie g
Ġh istory
ĠUn ion
rit z
ĠF rie
Ġ5 00
ĠPol iz
ĠK Ã¶rper
es ted
ĠB ud
schrif ten
p aper
Ã¶r m
auf en
Ġverb unden
Ġproble m
o o
Ġw atch
Ġen ough
ĠAlex ander
ĠHann over
ĠS Ã¤nger
ay er
sch au
ir che
P r
Ġent hÃ¤lt
F l
k or
ĠW issenschaft
ra chen
Ġinc re
ĠO ct
lÃ¤ ss
Ġw issenschaft
ĠHer aus
Ã¤hl en
ĠKÃ¶nig s
Ġele kt
Ġm ethod
Ġfr ont
Ġs ug
fol ger
ĠSpiel en
wert ung
ĠSp r
Ġor ganis
Ã³ n
Ġrequ ire
arbeit et
Ġ4 5
Ġtyp e
ĠI D
ĠArt ikel
us ion
ic ro
Ġwh ite
d am
k et
w esten
jÃ¤hr igen
d ien
ĠR at
ĠPro f
ĠH essen
Ġer ster
ĠPh ys
Ġuns ere
Ġf ield
Ġc ent
k ap
ig lich
Ġc ard
ab y
Ġcompan ies
W ir
Ġo p
ig ungs
ĠW alter
Ã¤t ten
ĠWill iam
z iert
v is
u a
be zirk
Ġt alk
Ġre pr
ut zen
ĠL og
Ġz erst
ran g
ward s
i ar
Ġdesign ed
Ġpop ular
k und
Ñ ģ
a ul
f Ã¤h
Ġen erg
ĠS in
Ġp ersÃ¶n
ĠR ob
Ġbei de
rei he
h il
ĠK ampf
om ot
Ġdisc uss
Ġp ur
Ã¼ ste
Ġentfern t
U m
ĠV e
k reuz
gel Ã¶st
h men
Ġte ach
B o
ran ge
ang es
yn am
zeug t
w art
re p
ĠB d
ĠH Ã¤lfte
Ġge legen
ĠY our
ĠMus ic
on ie
ĠW all
ĠC la
Ġst ay
Ġle icht
Ġfolgen de
S port
k athol
Ġ194 8
ĠPr es
Ġpos ted
in ge
ĠE U
ĠL iga
Ġeng ine
m as
Ġacc ount
Ð¾ Ð
ĠZÃ¼r ich
ĠA st
Ġcert ain
le cht
iv il
Ġinv ol
Ġcustom ers
ĠGeb ie
ĠBÃ¼rger meister
Ġm acht
0 1
b or
Ġst yle
ze ugen
ĠWerk e
m os
Ġl ik
ĠAr mee
ĠBr and
ĠKÃ¶nig reich
Ġindivid u
6 4
F rau
tag s
n es
ĠA ct
ĠK unden
Ġl ate
Ġ194 3
n ers
Ġm atch
Ġ195 2
ĠwÃ¼r de
l ant
Te ilnehmer
k r
Ġen vironment
Ġe uropÃ¤
Ġre cht
Ġakt iv
âĢ ĺ
ress e
p ec
k ur
ĠT ier
ĠC ommun
Ġherv or
8 9
c ome
men te
ĠAuf trag
Ġger ade
Ġer ziel
G es
lan gen
Ġgew esen
Ġ195 5
ĠLou is
Ġf rei
ro t
ĠauÃŁer dem
ĠWolf gang
Ġh ours
ĠÃ ľ
ĠPolit ik
w asser
Ġfr Ã¼h
Ġbuild ing
Â °
ar tet
ĠN etz
ĠThe ma
Ã¼h le
f rei
ch end
Ġsim ple
ĠR en
ĠNach t
Ġact ually
he t
ad a
so zial
leit et
Ġbede uten
ĠFin anz
un ge
Ġo thers
ĠTe le
Ġ194 2
ĠAkadem ie
Ġr en
Ġg ames
ĠW and
air s
Ġf ur
ĠursprÃ¼n glich
E M
w es
w irk
Ġun ique
ĠZeit schrift
zir ks
Ġw onder
an ischen
b Ã¼rger
ien ten
fass ung
ĠB al
ĠR and
ĠAr n
A ll
ĠAl le
at iv
Ġde al
Ġr icht
y a
ĠK ing
Â »
ĠP DF
ĠH eid
Ġup d
. -
ĠBe k
zentr um
ĠSch Ã¶n
ide d
ĠFr Ã¼h
ĠVerfÃ¼g ung
ĠJ ac
ow jet
ĠUnter such
9 1
or ies
Ã¼ss el
b ischof
p ly
est s
zeit en
ĠG roup
Ġpartic ular
Th ere
Ġho he
ĠPol en
Ġw on
ĠDenk mal
im ate
Ġadd ress
ĠF en
Ġ195 3
C D
oll ar
Ġmehr eren
Ġcomple te
0 6
ĠD ach
p ark
Ġ194 1
imm ung
heira tet
ĠLin ie
g al
n ow
Ġunter stÃ¼tz
ieren den
ut her
ĠO ut
ĠEl tern
ĠC am
Ġj Ã¼d
ĠAus bildung
Ġmonth s
ges tell
ĠL im
ĠEx p
Ġaus gest
ĠS ym
Ġc m
Ã¶ sen
ĠverÃ¶ffentlich te
ot te
ren g
Ã¤ch s
Ġcurr ent
Ġe arly
ver walt
Ġres ults
Ġbr and
Ġunser er
Ġon ce
ĠUnter stÃ¼tz
ĠBas is
an ces
ĠBre men
ir es
Ver lag
ĠStud ium
letz t
Ġf uture
ĠRe cht
Ġfav or
Ġd ivers
Ġpropert y
M an
S e
c m
in ed
a ktion
ĠG arten
ĠL aw
b ie
ĠF le
ĠK opf
ĠI d
A M
v in
ĠB ill
ite te
un s
Ġge ben
i i
re m
ĠAl bert
Ġem ail
d t
i w
Ġne un
ĠBe zeichnung
wohn ern
b um
ĠM ess
Ġth ought
ad s
S etzt
I ch
P S
ĠN ow
er ing
av y
Ġtra vel
ĠIs land
==== ====
P ar
ir c
m und
p age
as chen
A t
ĠA th
ien ces
ĠDam it
ĠnÃ¤ch sten
ĠJe an
Ġm illion
Ġch allen
ĠW ash
Ġme an
E T
pp en
Ġabsolv ierte
Ġd ate
Ġd ritten
ĠF ree
ang s
Ġwall paper
ĠDies es
r ies
om et
olog ische
ĠN ik
k ra
ĠDres den
9 7
t ritt
Ġm ess
ou ver
Ġw alk
Ġihr es
Ġ195 4
Ġt able
Ġre por
Ġstud y
Ġquest ions
ĠS old
C hr
ĠBe griff
Ġsch wer
Ġsoll ten
ĠM ein
S er
v ing
ĠsÃ¼d lich
wie gend
ĠA v
Ġe conom
anc ial
ĠO pen
Fernseh serie
ou d
t d
Ġam ong
age d
Ġaut omat
stre cke
ĠS tern
ĠF Ã¶rder
Ġev angel
iden ten
Ĥ ¬
Ġcon tent
E L
tre ter
ĠC le
Ġ194 7
ĠgrÃ¼n dete
Ġk einen
Ġal te
Ġsch Ã¶n
18 5
Ġloc ated
Ġf it
ĠLe hrer
Ġto ok
Ã¤nd ig
S S
r al
ĠV ideo
ste hen
ĠT eile
Ġresp ons
we isen
ent wicklung
Ġman ufact
stell ungen
Ġgem acht
Ġan schlieÃŁend
ell ow
ĠSt amm
Ġpro b
C on
Ġj a
zie hung
ĠD ay
i Ä
Ġman agement
em b
ĠChar les
Ġentwick elt
Ġin form
Ġaut hor
W hen
r unde
ĠL eiter
20 18
amer a
0 2
as ten
Ġdo ing
te ten
ho ut
Ġs ays
Ġto ur
ĠAn g
ĠW ort
Ġag o
ĠSt ock
ĠS u
Ġad min
ful ly
ud io
or te
Ġcolle ction
ĠD oppel
Ã¶ ll
Ġy et
ne ter
Ġrec ommen
ĠB und
ĠMa ÃŁ
ĠArbeit en
Ġdid n
d ung
sch uss
v an
ĠM ount
st a
Ġh ope
ĠF und
rich ten
ĠA uÃŁen
ak a
ho ben
w ill
ĠerwÃ¤hn t
Ġin tegr
ot ion
Ġsp ielt
ame ter
st aat
hr t
Ġiss ues
f ield
ĠB ack
Ġc ra
Ġk athol
olog ischen
p ol
ic ation
O T
mer k
Ġpr ess
6 7
ĠM ult
rÃ¤ fte
0 9
1 00
an ken
Ġs ett
0 3
ĠA re
Ġb ad
ĠSchauspieler in
mal er
ĠGÃ¶ tt
fÃ¼ ll
anden burg
ĠSt ad
af fe
ĠGr Ã¼ndung
ĠStadt teil
Ġevery thing
M od
ĠN et
ĠPro t
8 4
ĠW ider
ĠS Ã¤
Ġb le
ĠÃ¶sterreich ischer
y th
ĠE st
ag ing
Ġhe ira
Ġwei ÃŁ
z og
Ä ±
ĠRe al
g ten
im ar
ĠN S
ab eth
o id
Ġc ame
meister schaften
Ġd oc
rÃ¤s identen
Ä ģ
at ten
ĠT ruppen
ĠW ild
Ã¼ss eld
Ġstamm t
ĠK ommand
Ġnew s
ĠZu ge
Ã¤nder t
ile d
Ġprofess ion
ĠK ra
ĠMe x
olog ical
Ġsel ten
gew iesen
Ġs ale
oun c
ct ive
ĠAn ge
Ġz ie
Ã¤n gen
ĠRe ise
Ġex tre
ĠR unde
Ġho hen
Ġcomm on
wissenschaft ler
re ise
Ġj apan
ĠErgeb nis
0 4
l ern
v a
ĠAr ten
ĠZu dem
all ow
bl ick
6 2
ĠU p
lichkeit en
Ġen ter
ĠReg ierungs
Ġbre ak
bet rieb
Ġ Ã¤lter
ie ÃŁ
ĠGes etz
ur a
Ġ3 2
ip ment
Ġ ill
l Ã¶sung
Ġsch loss
ĠVer m
et ten
ĠL os
ĠPart ner
Ġd Ã¼r
Ġre ach
Ġle ast
ann ing
Ġs il
Ġs onst
Ġsome one
vent ion
Ġmod el
l iste
neh m
g le
amerikan ische
ain ed
ĠÃ¼ber n
b us
Ġ195 1
Ġra te
Ġperform ance
Ġj oin
Ġd ue
ĠP ublik
Ġse en
arbeit ung
Ġeben so
c ol
ĠP unkte
ain ing
if fen
Ã¡ n
ĠDan ach
Ġinclud es
Ġst aff
p el
Ġw id
hÃ¤lt nis
b ark
ĠBay er
ent ial
Ġver ein
ou ble
Ġf il
ĠH an
Ġare as
âĢ¦ ]
E C
Ġn ull
Ġh old
ĠSt il
lie d
Ġum fasst
c ar
ĠF ern
ĠL Ã¼
aus ch
ĠComp any
ĠKategor ie
( )
S tra
N ational
Ġb i
ĠV is
lin ie
G B
Ġpre par
Ġa ge
ĠFir ma
r hein
Ġsel ben
Ar ch
ĠForsch ungs
Ġh ig
Ġehemal ige
Ġp osition
Ġk ont
ca dem
Ġwrit ing
ĠVer gleich
iden ce
i est
w al
ĠFre ib
Ġnatur al
K on
ĠfranzÃ¶s ischer
omm ission
Ġev ents
ĠSt Ã¼ck
ĠA ugen
ĠnÃ¶rd lich
ar th
ĠK osten
ze igt
hal ts
Ġenerg y
ĠAb geord
ĠS omm
ĠL Ã¶
ĠL icht
iz ier
ar f
ĠD or
Ġ193 6
ĠWash ington
ĠOff izielle
an ger
il det
if y
Ġso ftware
en er
ĠA ber
ch ie
Ġam az
ĠProdu ktion
ĠMat hemat
Ġrest aur
ĠB us
Ġc la
et y
ot a
ĠAn na
ĠEr fahr
ĠSchw arz
c i
Ġw ent
Ġf und
ot ball
ip le
ograph y
Ġweiter hin
press ion
Ġdoes n
u hl
ĠB on
ĠT on
Ġmed ia
ĠA fter
ĠH om
ĠA tt
v on
it ar
Ġh Ã¶
ĠT urm
as te
Ġl ar
ok e
Ġcom par
ĠS onder
el berg
ĠRec ords
ĠEnerg ie
eit her
ĠPla y
Ġern annt
Hoch schullehrer
Ġp ick
Ġwho le
Ġg iven
ot o
l im
Ġd etails
ĠPr inz
ĠKant on
Ġhal f
ĠNach folger
ĠJose f
Ġor iginal
g ien
le tt
Ġj Ã¼n
Ġbesch Ã¤ft
Ġide a
En t
be ck
Ġbes itzt
los e
Ġf urniture
ĠB ig
ĠL Ã¤nder
ir th
ĠJ ak
fra u
h istor
ra uch
6 1
Ġd iff
ĠK al
ĠWien er
is es
ĠD Ã©
ug hout
b aum
z ert
Ġab ove
Ġre ason
ĠEx per
ĠF uÃŁ
Ã¼r n
e ign
z immer
unk ten
au ern
Ġent halten
ific ation
Ġre lig
ĠfÃ¼hr en
ĠVol k
ĠAssoci ation
t schaft
ĠC ent
Ġp aper
ĠSc ience
ĠK ranken
ĠL ied
Ġ193 4
z ip
Ġge hen
eb ook
Ġw ww
Ġl iter
Ġne ues
Ġt aking
ĠO f
Ġdar Ã¼ber
fall en
ĠEisen bahn
ĠT om
In ter
Ġbil det
ĠPriv at
sch ei
Ã¤t ter
ĠVers ion
ĠHow ever
Ġf ert
ĠI st
ĠH art
ĠU s
Ġgo vernment
ĠÂ «
ĠT it
Ġre chts
Ġgeb aut
i ro
o on
ĠM as
Ġ193 7
Ġfin anz
Ġmin utes
Ġflo or
ar ed
ro ffen
ĠL Ã¤nge
ĠEurop Ã¤
ĠGo ogle
af r
ĠA cadem
ĠRe ad
amil ie
ĠEn ts
ĠMin uten
ĠSchl acht
Ġerreich en
is ierte
ĠA cc
ĠD enn
ĠfranzÃ¶s ische
gr enz
anc ed
0 7
ie ur
Ġwel cher
Ġ Ã¼b
Ġb reit
ĠVer Ã¶ffentlich
ĠFol gen
s erv
Ġv eh
l ast
Ġsystem s
ar ts
Ġlat est
Ġf ive
Ġv ia
ĠVer t
forsch ung
ĠP unkt
ĠQu alif
do or
we ig
Ġhe art
mus ik
h ab
x is
Ġver heiratet
Ã¤l le
O ur
ĠR Ã¤
ill en
Ġhtt p
ich e
-- --
Ġdes cription
ĠNew s
S V
f alen
Ġm at
Ġass ist
Ġ Ã¼
Ġh air
ĠC up
Ġbil den
ab les
Ġ193 5
ĠAmer ica
aler ie
Ġpict ures
iz es
ĠSte uer
anst altung
k unde
p ass
s m
ĠC our
Ġreg ion
ĠÃĸ ff
Ġw ollen
Ġge k
T V
Z u
p hen
ĠAus gabe
mar kt
6 9
f ar
or ial
us ive
ĠSp ring
ail y
Ġevery one
r ug
ĠW ahr
ĠJ er
r ig
unter nehmen
ĠSoc iety
Ġs ites
Ġm em
Ġst ammen
ĠEr k
ĠFin ale
ĠR itter
ad o
ĠNach bar
Ġs ong
Ġp lat
z uf
Ġe her
etz en
ing ungen
ĠL uc
spiel en
T o
f Ã¶rm
Ġw ollte
sch t
gen cy
Ġpict ure
l ow
ĠS C
at ors
Ġmit tel
ieren de
Ġfe ature
ĠGes und
Ġeinzel nen
ĠThe men
ĠGr enze
le ased
Ġne uer
rep ublik
am ing
ĠE ast
ĠAn schluss
Ġtro tz
rett y
l as
au ber
ĠVer eins
iz ing
ĠMod ell
ĠM r
ial og
per atur
ath let
r im
Ġs ym
Ġcho ose
Ġv o
Ġp aint
end es
Ġem pf
ed ding
Ġinternational en
Ġappro ach
Ġf ace
ĠG ut
g as
ĠFran cis
Ġ19 18
ĠAnd reas
Ġspe ziel
Ġhapp en
Ġan alys
Ġpolit ischen
denk mal
ĠG as
6 3
Ġp sych
au b
ĠVer l
Ġph one
ĠGl as
Ġheira tete
, "
ĠD Ã¼sseld
Ã¶ gen
sp e
Ġcre ated
O M
Ġp ain
ime ter
g u
ur al
ĠIs rael
Le gt
ĠM ond
ers eits
_ _
ĠF rom
ib ility
ĠPf lanzen
ĠZeit punkt
ĠDan iel
ĠRud olf
ĠH is
Ġge geben
Ġer z
mit t
Ã¤hl te
Ġmind estens
w en
ĠR ou
ĠStre et
Ġeduc ation
ist an
r ation
or es
ĠT rad
ĠDown load
Ġj Ã¤hr
H ol
ĠC ons
ĠAus wahl
ĠFried hof
un ion
end s
Ġcom fort
Ġeinz ige
ĠZentr um
aus t
Ġjed en
Ġke hrte
hal te
ĠMar ch
ist ic
Ġth er
Ġvers te
halt ung
Ġp otent
Ġh ot
am ed
Ġclos e
Ġer r
Ġ192 8
ĠStand ard
Ġfun ction
d y
ĠK laus
ĠBr un
Ġentwick elte
ĠEngl ish
e ded
Ã¤d chen
Ġread ing
e ks
g arten
Ġverl oren
lÃ¤uf er
h ib
or a
le as
ĠSt unden
Ġapplic ation
Ġim ages
ĠCh ic
ĠFest ival
ĠEv angel
ig ner
Ġmit tler
ĠSp rach
Ġum fass
Ġo ben
ĠP lease
Ge grÃ¼ndet
o den
Ġ Ã¤lt
ĠAn der
gel n
Ġt it
ĠR Ã¶
ag d
Ġcon stru
Ġ19 19
ĠSt affel
ĠGeb urt
ĠHand els
Ġsim ply
Ġstr ong
Ġoff iziel
Ġ[ âĢ¦]
Ġz ust
Ġnieder lÃ¤nd
W er
d itions
abr ik
ĠHerr schaft
f igur
F A
d i
r um
ĠB onn
ĠG reen
Ġbie ten
8 3
ĠK ern
k arte
re y
ĠA ust
Ġgesch lossen
Ġspiel en
ĠgrÃ¶ÃŁ te
ĠS ingle
ĠM use
ĠAb schluss
ĠfrÃ¼ hen
Ġaktu ellen
Ġb lo
ĠAut o
ĠLie be
ĠChamp ions
Ġp df
chn et
mut lich
Ġc ele
Ġw Ã¤re
k au
Ġh ab
Ġc op
ĠL ive
eh ler
M S
Ġerh Ã¤lt
ve y
ĠD okument
Ġl ater
Ġproble ms
ip e
Ġopt ions
ĠUnterstÃ¼tz ung
E is
et a
Ġne g
g ab
Ġal most
Ġpartic ip
anz er
ĠD och
Ġt w
Ġw es
ĠV en
Ġread y
h ers
ic les
af t
Ġver lÃ¤
Ne w
Ã ¸
uf e
ĠC ap
Ã¤d t
uch ten
Ġbet rÃ¤gt
ict or
n o
ĠT im
bo ard
Ġ3 00
h ing
o der
or ed
Ġkn app
ĠBrit ish
ymnas ium
ĠHoch schule
ess ion
bau ten
Ġknow ledge
al a
ĠD ipl
Ġre d
Ġsel f
Ġben Ã¶t
Me ter
Ġthro ughout
Ġvar iety
A D
Ġf ul
Ġs ens
ĠL eitung
S C
Ġbo x
richt ungen
w issenschaften
Ġc ur
ĠSomm ers
at o
ĠW ebs
th ough
ĠTra iner
Amer ikaner
gr am
gemein schaft
il ar
Ġphot os
Ġqu ite
ĠJ ung
ĠU K
Ġcurr ently
u it
it ts
com ing
tent ion
osp ital
ĠPoliz ei
g ers
Ġs we
ĠT ages
Ġc rit
Ġschw ed
Ġbelie ve
ĠH y
Ġd istr
Ġindivid ual
st att
Ġal t
fer enz
ĠF ass
Ġg riech
zw ischen
ĠMed izin
Ġ19 00
Ġge d
Ġex ample
orn ing
ĠAkt iv
ĠStÃ¤d te
ĠkÃ¶nn te
ĠL ake
Ġpre uÃŁ
ĠB usiness
b orn
Ġh on
Ġz uf
Ġper iod
Ġcom mit
idd le
ig entlich
ĠRoy al
he ad
ĠH u
Ġins urance
ĠKir ch
ell es
pro chen
iqu es
u ed
at iven
ĠH ere
ĠW in
Ġled iglich
ĠM acht
mÃ¤ ler
Ġwir k
heim er
Ġd og
ĠZ usch
Ġw ide
Ġf iel
me hr
Ġges tellt
Ġ rom
Ġze igen
Ġben annt
f unk
un a
Ġb em
ist in
Ġun ver
ĠOr gan
ĠOr ganisation
Pro du
ĠKont akt
Ġint rodu
8 7
h i
aliforn ia
pec ially
hockey spieler
ĠG Ã¼n
Ġinter ess
Ġt ax
Ġf anden
Ã¤ llen
Ġins ide
5 00
v o
Ã¤ ten
ĠL ad
Ġent ire
aut or
An d
Ġausge zeichnet
ed ia
ĠUm gebung
zeich nis
Ġgesam te
Ã¤n n
ran sp
Ġbo oks
O ber
Ġp an
ĠCar ol
Ġhei ÃŁt
f on
t ime
ĠM Ã¼ller
Ġad ded
Ġ192 9
ĠW erner
ĠR a
opp ing
c up
Ġk aum
Ġso und
ĠRest aur
a ders
Ġat tra
ĠOr d
Ġin dem
ĠIn stitute
Ã¤n gt
se hen
Ġrela ted
Ġto wn
ir it
ĠFra ge
re chts
ĠZeit ung
Ġrec ent
f its
Ġs od
lie fert
ĠMan agement
end ing
Ã¶ ne
Ġbe legte
ap ie
ĠEin wohnern
hl t
Ã¤r k
ĠBl Ã¼
ĠEnt scheid
Ġvers ion
b i
Ġt akes
Ġbef and
ĠI V
Ġge grÃ¼n
kir chen
ho use
ĠJu den
ĠNe ub
ĠMÃ¼n ster
Ġb ald
od es
Ġco ol
ĠInd ustrie
istr ation
ĠF ischer
ian o
ĠW as
Ġe p
Gem einde
b rit
Ġcomp et
ĠWh ite
Ġquest ion
ĠEp is
Ġd igital
an ted
end orf
Ġme as
ĠSh ow
n itz
ic kt
Ġg ute
Ġst ore
ĠHe alth
Ġcustom er
Ġfur ther
Ãĸ sterreich
Ġdamal igen
k y
R E
ĠZusammen arbeit
g ibt
on ym
ell ent
ĠS ur
ĠM em
ĠFl Ã¤che
Ġk rit
Ġh ost
ĠBe zirk
Ġnet work
r and
ok omot
haus es
Ġsch l
Ġgew orden
ade d
5 8
ver age
Ġehemal iger
at is
Ġ >
ie ger
ut n
ĠBr Ã¼
ĠAut om
Ġwhe ther
and a
ah nen
iel ten
Ġcl ients
Ġdien te
Ġs tellen
Ġf ra
Ġp orn
lie gen
ĠFra gen
ul es
Ġzahlreich en
ĠEnt wick
ĠFamilien name
D es
I P
ĠK er
ĠSch les
Ġtra ck
Ġrequ ired
Ob jekt
p ret
Ġt aken
rie be
ĠEin fluss
reich en
Ġange geben
g ruppen
is ted
as y
Ġp ark
um Ã¤n
ĠC lass
Ġk ids
ĠVerkehr s
ch ron
ic ult
Ġvor her
Ġitalien ischer
ĠS ar
ĠU N
st ud
ra in
ĠW ass
Ġreg ul
Ġass oci
h m
ĠT Ã¼r
ĠG ust
em ents
ĠH ir
ĠFÃ¼r st
R uft
Ġ Î
ĠBes te
Ġlearn ing
Ġinn ov
Ġconc ern
ĠL ove
ĠN icht
Ġplan s
ĠT w
ann er
Ġdec or
F C
¿ ½
ĠTeil nehmer
wÃ¤r ts
Ġerschien en
Ġs le
Ġp retty
ĠV oll
tra iner
Ġl ock
setz en
P f
W enn
ï ¿½
parte ment
Ġopportun ity
Ġpr int
ie gen
Ġf ire
ĠGr Ã¶ÃŁe
ibr ary
ĠH off
yste me
west lich
ĠForsch ung
5 9
Ä į
ĠA ch
Ġp oss
ĠIn c
amerikan ischen
Ġb rachte
ct ing
Ġmark eting
Ġsk ills
at tet
Ġver z
Ġwo od
Ġerfol gt
ĠRel ig
ĠhÃ¶ her
Ġw ays
ĠK as
teil en
Jahr hund
Ġ either
Ġa chie
ad es
Ġde ter
Ġhe ld
Ġ192 5
Ġt old
Ġs etzt
Ġer setzt
op t
ĠAn s
spr uch
pla te
W Ã¼rttemberg
Ġprovide d
Ġtreat ment
5 7
Ġ ut
ĠH D
Ġge prÃ¤
C l
ĠW ies
ĠFen ster
verwalt ung
ĠB ist
Ġz entr
Ġbath room
u age
Ġs ummer
Ġin tern
Ã¤ te
ĠChrist oph
Ġcle ar
ĠChic ago
b is
uden ten
n der
Ġo il
Ġdiff icult
h auer
in sel
Ġwir tschaft
Ġro le
ĠMus iker
Ġaktu elle
n amen
we chsel
Ġes pecially
ĠAben d
ĠN ur
Ġse par
Ġch em
ĠGer ichts
lau ben
Ġs ales
ĠspÃ¤ter en
Ġloc ation
f unktion
ĠF irst
Ġun mittel
k unden
ne w
Ġne hmen
Ġstand ard
ĠPort ug
Ġbeteil igt
an i
Ġ19 14
Ġhinz u
Ġd ro
ĠB all
sel ves
V ers
Ġf a
Ġm ent
Ġ193 1
ĠÃ¶ffent lichen
5 6
Ġcon tra
Ġsec urity
ĠS und
Ġar r
ĠUnternehmen s
Ġhapp y
il osoph
Ġun ivers
ang ing
ĠUm welt
Ġpolit ische
5 4
ĠM ur
Ġ193 2
Ġest abl
D urch
er er
Ġw anted
im um
ir chen
Ġpart y
Ã¤ cht
b ook
isch em
Ġus ers
rei ber
Ġart icle
Ġens ure
ĠB ook
ig uren
Ã¼hr en
ĠInd ian
wh ere
I L
r as
it ial
ĠH ill
ec ted
Ġrec ently
G er
Ġany thing
8 2
l ament
Ġsh ows
Ġreg ular
Ġver lieÃŁ
end ung
Ġsie ht
ain er
Ġer he
mittel t
ĠVorsitzen der
ĠB ul
sch auspieler
au te
Ġpro jects
ail and
ĠEurope an
s b
bark eit
w ir
ĠB il
Ġso on
ĠMar c
K arriere
f ur
Ġa ction
ĠH alle
pp er
om ie
ĠH Ã¶r
Ġch rist
Ġup load
onst ants
Ã¤dag og
ĠW el
Ġbeginn t
Ġan z
ov ers
je w
ĠBau ern
Ã £
Ġs or
al u
ĠSchw ar
an lagen
Ġ1 20
ple ment
U N
u elle
ĠD rei
l ingen
ĠT enn
ĠIm m
Ã¶l f
W ith
| }
as c
Ġl on
id t
rat s
schein lich
st Ã¤tte
ĠP fer
ĠJ ud
Ġus ually
Ġfin ancial
ash ion
ĠP C
Typ e
r is
u ary
ĠS S
ver lag
Ġam ount
ĠC alifornia
Ġbu ilt
Ġtry ing
Ġm m
Ġal tern
Ġamaz ing
I V
K ultur
k le
u he
Ġt rÃ¤gt
ĠO k
Ġre v
Ġch ines
jÃ¤hr ige
wind igkeit
m useum
ĠB a
ĠMen sch
spr ung
ĠBild ung
Ġbrit ischen
A G
d aten
g arn
Ġb ud
ĠAn schlieÃŁend
ĠAl fred
Ġyour self
ĠBl ick
aupts Ã¤chlich
t itel
an walt
Ġactiv ities
k lasse
ul en
Ġgen eral
techn ik
E urop
Ġs yn
au x
Ġcom ing
ĠGott es
ĠOct ober
Ã© s
g rad
lin ge
A uch
Ġst ruct
Ġ4 00
Ġpre vious
sw Ã¼rd
Ġinsp ir
ĠSp ec
ĠAl ten
wer ks
Ġne eded
Ġcharac ter
st anz
Ġmom ent
Met hode
B ahn
ĠN Ã¼rn
ĠK enn
Ã¶ ss
ĠD ann
ĠZ uf
ĠBest and
Ġbrit ischer
Ġfal se
P DF
Ġd iv
ĠT at
ĠBe im
Ġzw eit
u ert
Ġwen ige
âĢ ŀ
Ġpar ts
Verein igte
we chs
ĠAl ler
leg ung
Ġnor mal
S te
ĠS ign
5 1
at ik
ĠD isk
Ã¶ glichen
ass el
Ġequ ipment
f ace
Ġb lock
Ġm ove
ĠD azu
zie hen
ĠDÃ¼sseld orf
V D
ul s
Ġgen ommen
Ġgleich zeitig
st all
Ġn ice
ĠzusÃ¤tz lich
g Ã¤nger
ĠLe on
ĠWe ise
w urf
Ġn immt
Ġdes halb
Ġpra kt
ĠFreib urg
v ier
ar ter
ste ad
ĠHer bst
fr ast
M L
Ġp rÃ¤sent
Ã¼r gen
Ġst ock
Ġtot al
Ġble ibt
ĠW issen
ĠMon ate
ĠRuss land
k rit
r id
ĠR enn
p ossible
Ġit ems
S T
c rib
g round
h ips
Ġm obile
erv e
Ġprob ably
ĠQu ellen
ĠM erk
ick et
Ġwe eks
Ġgleich nam
j or
w ell
ĠBe zirks
aug h
Ġd adurch
ĠR h
Ġzu letzt
Ġdurch gefÃ¼hrt
ĠRes earch
ĠW ell
ĠSt reit
Ġcom ment
fl Ã¤chen
5 2
ĠLe g
Ġerm Ã¶glich
ĠC ast
od or
se qu
is er
Ġde p
y ear
ĠN ic
Ġ- -
att le
Ġcou ple
mit glied
Ġsign ific
ĠvollstÃ¤nd ig
5 3
Ċ ĠĊ
ub s
ho od
Ġbet re
ĠDar stellung
v els
ĠS Ã¶
ĠF ritz
Ġ3 6
Ġa sp
Ã¶rder t
aller y
Ġm ilitÃ¤r
for men
Ġje dem
Ġann oun
allow ed
p unkte
Ġc ook
ger ichtet
sch lÃ¤
Ã© e
aly se
Ġwest lich
er o
Ġhow ever
Ã¤ll t
T ra
ĠWind ows
l ers
w itz
Ġlead ing
Ġs ix
at al
Ã¼ m
ĠIn vest
Ġrece ive
ach im
ĠSt ruktur
ad rat
Ġper cent
ĠJul y
in den
ĠG ro
Ġk ennen
Ġme eting
hal le
h Ã¤user
z Ã¤hl
Ġ Ã¶stlich
ĠE th
zeich nete
Ġges etzt
ĠE ss
ir us
Ġaus schlieÃŁlich
ĠLe x
ĠOr iginal
Ġt ell
ĠZ immer
if iz
Ġprov iding
iti ative
m ond
ch em
kret Ã¤r
ĠVer wendung
c ast
Ġt un
ĠJ os
ne e
ĠGroÃŁ en
ĠH ard
Ġdar f
ĠSo ftware
Ġr isk
reich e
ĠPerson al
Ġcho ice
ounc il
ĠJak ob
k raft
ĠM aschinen
Ġstud ent
erke hr
at ory
ĠK op
ĠL ife
ĠAr ts
ĠInd ia
hol z
ĠHeid elberg
ĠP rom
ĠT Ã¤tigkeit
ten ded
ĠFl ugh
ĠReg ional
S piel
an ien
ct ors
ĠS upp
Ġ19 10
Ġro ad
ĠS ome
Ġsk in
D P
Ġle bt
ĠDeutsch er
Ġ192 7
V erkehr
W erke
Ã¤ um
Ġus er
Ġse em
Ġpr im
ĠWer te
Ġextre m
ĠPart y
ed s
ĠgroÃŁ er
Ġm ix
ill ing
Ġsei en
ĠHeil igen
ĠLe icht
org ung
ars teller
ist rat
ĠPres ident
W Ã¤hrend
k omp
Ġb esser
ĠSpiel zeit
pla ce
ĠRad io
ĠZusammen hang
M y
at us
Ã¼ ge
Ġverl or
ĠTex as
Ġh ielt
Ġh auptsÃ¤chlich
ĠAb s
Ġdo or
Ġh or
em ble
Ġger ne
Ġjeweil igen
N ame
ie ÃŁen
Ġbe ein
ad el
Ã¼ st
Ã¼ cht
ĠK lass
ĠI T
Ġso fort
Ġd ress
Ġw ohn
ĠS ter
Ġm er
om s
ĠMar y
gew icht
Ġiss ue
ĠBo x
Ġrece ived
ĠDiv ision
ĠS atur
ĠK u
Ġne cess
imm el
ĠWeit ere
Ġc redit
Ġth ird
ĠEn gel
ren ch
Ġdra w
Ġerziel te
B undes
G ruppe
K omp
Ð º
ge legt
Ġv e
Ġh alten
ĠT own
ct ic
ĠGegen satz
ĠS owjet
I s
am at
Ġg re
Ġ3 3
zen e
ĠOr gel
lav ier
ĠGÃ¶tt ingen
E O
b ased
Ġg anze
ĠWe hr
Ã¤hr t
Ġ192 4
Ġreg ard
ĠHaupt stadt
Ġgesam ten
Ġn omin
ĠN amens
ĠSch le
Ġst ieg
K reis
Ġm eine
Ġre f
swÃ¼rd igkeiten
8 1
e ff
y es
ĠDreh buch
Ġ1 000
Ber lin
Ġacc ording
or th
stand s
Aus zeichnungen
ĠAngel es
Ġp ers
ĠT ransport
Ġbed room
ĠV ictor
th ur
ĠS on
ĠL Ã¤ndern
ĠGo od
ĠW ander
ĠÃ ī
ĠM Ã¤dchen
ĠO x
Ġrec ogn
Ġje de
ĠNational sozial
Ã£ o
ug ht
Ġlo oks
k ammer
ĠS ammlung
Ġh und
ĠAn lage
ink el
Ġfavor ite
r enn
Ã¶ p
ĠIn str
Ã ½
Ġout side
Ġco de
ĠDem okrat
on se
ĠW agen
Ġall ein
Ã¤ss er
schaf ter
Ġnot wend
Ġfr esh
Ġbeh ind
le icht
Ġm el
el a
utn ant
K l
S c
ĠS om
ĠS amm
le b
Ġge fÃ¼hrt
ĠSt ahl
asch ine
he m
ĠK olle
ell o
ĠCh urch
Ġpr esen
ĠVier tel
ĠSicher heit
ĠFac ebook
k ampf
Ġv ari
ĠM and
ĠPhilosoph ie
B ut
Ġp rÃ¤
ĠEs sen
Sch w
ĠD ir
ĠF ak
Ġl angen
ud es
ĠAuf stieg
n d
en ces
ĠW irtschaft
Ġk anad
ĠSp Ã¤ter
t a
ĠG attung
ĠAuf gaben
Ġpract ice
ĠÃ¼bern ommen
st attung
Ġto uch
Ġeas ily
ĠSold aten
. ),
ĠD ro
um ents
ĠRo ad
Ġst op
Ġ192 6
ĠNatur schutz
Ġgirl s
os ed
Ġde ep
ĠVer treter
ĠVerwalt ung
Ġw oman
Ġle bte
20 17
alle l
icher ung
Ġincre ase
ĠAcadem y
S Ã¼d
de pend
ĠG reat
ver fahren
ind est
ind ungen
ĠR od
sp rache
Ġent w
ĠQ ue
ĠAd olf
Ġind ustr
Ġsol utions
ĠS onn
le ger
ot es
Ġver d
p a
Ġf all
ĠM ach
Ġsim ilar
laub t
d ire
ĠD iss
ĠF ehler
ĠL ind
Ġdes t
ĠDire ktor
P olit
le hn
Ġ192 1
Ġste p
Ġsl ow
ĠmÃ¶ch te
ĠunterstÃ¼tz t
s a
an ische
Ġh Ã¤tte
ĠG olden
Ġst ation
Ġmed ical
Ã¼ ll
ĠM aster
ĠL ig
Ġaus gew
Bau werk
s telle
ĠBesch reibung
hil fe
ĠK omb
ess el
Ġr unning
Ġzun ehmen
gent in
Ġver mutlich
ĠVer teid
ks am
Ġpo ints
ĠS um
ĠSch la
ĠAn gaben
ĠComp uter
Ġtra in
ur er
ĠF arb
ĠPr im
Ġ192 2
ĠAustr alien
sie he
Ġc oun
ist ry
hen s
re u
re chen
Ġm orning
ĠL ager
Ġfor ward
Ġent lang
st Ã¤nde
Ġans wer
ĠeuropÃ¤ ischen
B A
Ġb ott
ĠI P
Ġch anges
H ow
ĠS icht
ĠD igital
ĠO pt
Ġwar m
rif f
itt ing
Ġ192 3
Ġexp ect
umen te
um in
ĠPat ienten
Ġsogen annten
D S
em e
ent y
um n
ab il
Ġsp ort
bo x
Ġprom ov
urn ier
ĠBen utz
Ġregel mÃ¤ÃŁig
ens ive
tr al
ĠHome page
ĠSpan ien
Ġrepr esent
N ieder
g ner
w el
Ġs ave
ĠH ei
Ġquick ly
ket ball
b as
ho den
Ġmus sten
Ġbesch rieben
ĠServ ices
Ġrecommen d
A ug
Ġin tens
Ġer inn
P reis
Ġw ider
om a
ĠZeich en
N eben
Ġd ig
ĠA sp
Ġc aus
E l
Ġs ource
Ġh uge
Ġausge tragen
Ġstor age
m esser
Ġf ig
Ġfin al
irg in
Ġd at
Ġs qu
ot ten
ipp ing
zahl en
Ġopt im
ĠTrad ition
ĠverlÃ¤ uft
r ick
ie fer
ĠS uche
Ġin fl
ĠU rs
los en
Ġb ere
Ġl os
Ġis n
Ġprodu ction
Ġs ingles
Ġbe ge
ĠĊĠĊ ĠĊ
ĠKin dern
O C
O L
Ã ±
Ġm atter
ist isch
ff er
ĠSte fan
Sch rif
Ã¼ gen
Ġb us
ic ient
ĠâĢ ļ
kt iv
Ġfol gt
Ġst aat
Ġun abhÃ¤ng
Ġ15 0
ĠOb jekte
Ġhistor ischen
Ġverkauf t
I M
Z ur
p rÃ¤sident
is ation
Ġw ord
Ġf uer
ĠH on
Ġl au
ĠBr andenburg
Ġd ur
ĠF al
Ã¼n ft
Ġex act
lei ben
w ander
ul pt
gew and
Ġsod ass
r est
is abeth
ĠS at
ĠM ik
ĠSt rom
Ġbo ard
Ġver treten
Ġel se
G en
b latt
h och
ĠV ize
Ġgesch affen
on ial
or et
ĠerÃ¶ff net
s ystem
Ġd ed
Ġa ud
Ġm aint
ĠL ib
Ġl aut
omm ern
Ġander er
ĠWill i
Ġinclude d
ĠS atz
ĠH aut
ic ated
sel ben
U R
ĠG ru
ĠPro zess
ree k
ikan ische
Ġdr ive
ã ĥ
Ġs ah
brit ann
ĠA ff
il i
Ġc irc
ĠOp fer
Ġsignific ant
ĠI ll
Ġg reen
age gen
ĠGr enz
d as
re chte
Ġgesch rieben
ch ner
ĠD at
Ġsc reen
ĠTechn ik
it ation
ĠAt lant
ĠSm ith
m ission
ĠK os
Ġe igentlich
ĠSch lag
Ġcom mer
ĠAb teilung
Ġphot o
Ġbede utet
Ġsaf e
ĠAuf t
ma ÃŁ
Ġprogr ams
Ġc enter
Ġw in
ĠB ob
ĠSt udenten
Ġcont rib
Ġbr ingen
ĠE ff
ĠR ay
ĠL ab
ĠV an
Ġst reng
Ġwieder um
med aille
zieh ungs
Ġmaterial s
ĠT Ã¼rk
Ġc ann
Ġwicht ige
Ġde f
Ġzerst Ã¶rt
s itz
Ġs n
ar io
ĠAn th
Ġj ungen
Ġpro f
Ġdis cover
ĠPe ters
Ġtyp es
ĠErgeb nisse
Ġd om
ĠP ers
ra te
p ose
ag te
un i
Ġc ut
ĠRev olution
a ber
Å Ļ
Ġc y
if ts
av es
ĠReg isseur
Ġho tel
ĠChar akter
Ġexc ellent
E hemal
Ġsch ed
ĠBer eits
ĠBeit rÃ¤ge
ĠP ier
ue ber
ĠÃ¼ br
ultur al
ĠNieder land
ĠRich ter
ĠG ran
Ġ3 4
Ġsh op
az in
ĠAd els
p erson
as es
Ġc apt
ĠPro p
Ġexp ert
reg ierung
anstalt ungen
h inder
s am
ig ungen
ĠVer kauf
Ġpubl ished
A F
s or
re l
ei der
wer be
ĠAuss tellung
ĠDÃ© partement
h agen
ĠD ur
por ary
Ġide al
II I
Ġpie ce
ĠG lo
pl ant
Ġgl obal
ĠD amen
ly ing
ĠStud io
gemein den
ĠHen ry
20 14
Ġrem ember
Ġbe ach
ot ing
Ġun be
Ġwrit e
ĠFar be
Ġaddition al
k ont
ĠG re
ib el
Ġup on
Ġ7 5
Wh at
Ġwelt weit
m ir
lieÃŁ t
Ġf ix
Ġer forder
Ġlik ely
B and
Ġc abin
ĠL ong
ĠZust and
W eit
ak ers
les en
Ġtradition al
ĠSchrif ten
ĠBeit rag
ĠD arm
ĠT ar
Ġun bek
ĠAm az
Sch wei
ha ber
ĠAl so
Ã¼h m
ĠKap elle
ĠIn tern
Ġgra du
Ġcontin ue
reif en
ĠverfÃ¼ gt
iÄ ĩ
Ġt ransport
ĠAn teil
se x
ov a
ĠFr iday
ĠM un
ige m
Ġbet rieben
Ġhigh ly
ĠnatÃ¼r lich
d essen
Ġin ternet
ĠB rief
Ġ19 12
ow a
ĠDe partment
B l
Ġb leiben
Ġpr ices
Ġcare er
din and
z o
Ġs al
ĠW ach
ber eit
ĠSt iftung
Ġ3 8
Ð »
ĠS ing
Ġzw Ã¶lf
Ġ6 5
ĠLeist ung
ĠW oche
20 15
spr icht
Ġpl us
Ġrelat iv
I d
b ibliothek
v ol
ĠE re
ĠR ennen
ĠEin fÃ¼hrung
Ġbest Ã¤t
ĠMann schaften
ĠGust av
n ummer
u ell
Ġc oll
ĠKr im
ĠPap st
Ġimpro ve
zieh ungen
m acht
ĠR ing
Ġsug gest
E P
g ut
Ġb al
Ġaus tral
ĠAr zt
br idge
arch iv
ĠKarl s
minister ium
ĠA c
ut ive
Ġber eit
ĠAut oren
Ar t
ĠZentr al
Ġl ives
Ġgo al
ĠFahr zeug
Ġ ;
ĠK ult
ĠL at
ĠÃ¼ber wiegend
reit ung
Aut or
Z eit
k om
Ġg round
g ern
p olitik
Ġb ank
20 10
ĠKn oten
m l
au d
ĠAn gebot
Ġrec ord
Ġerw eit
ĠRep ubl
F re
ch ange
ic ip
ĠO h
ĠBes onder
ĠG Ã¼ter
Ġl Ã¤nger
20 16
Ġarbeit en
stru ktur
or ing
ĠV illa
19 45
ĠSchw ester
Qu ellen
fr ont
denk mÃ¤ler
t liche
ĠS em
ĠO ver
pr ise
Ġbestimm ten
c ul
ck len
Ġver pf
ĠOr ganis
ohl en
Ġgra ph
ĠE very
Ġme chan
Ġemplo ye
Ġw ords
el la
ĠW affen
Ã¶ der
Ġde g
ĠBÃ¼ cher
b our
ĠPr ies
200 7
Ġentspre chend
Ġd omin
ĠB Ã¶
D a
im en
ĠE g
ĠW ettbewerb
ĠL ux
ied lung
St adt
For mat
Ġd ir
il ien
ĠC y
ĠN ummer
Ġle ader
Ġanalys is
ĠK lavier
ĠC entral
Ġl es
Ġk or
reit et
and ers
Ã¤uf er
Ġplat form
Ġpr ior
Ġfol gten
Ġo l
ĠA T
ĠU kra
ug s
Ġwer de
deutsch en
Ġsaf ety
ĠSch aus
Ġle gte
ĠBes atz
Ġgu ide
Ġplay ing
utt ing
Ġgrow th
ĠBeruf s
Ġunmittel bar
i h
Ġer f
ĠMo der
k ord
in os
Ġf ant
Ġre fer
ĠIn form
Ġent scheiden
Ġfl ow
ĠP or
ver trag
ĠBe ach
n y
ĠD Ã¶r
Ġer baut
ĠDie t
ĠÃĸ l
Ġany one
ã Ĥ
Ġre in
Ġver k
ĠY ear
Ġjed es
eb e
o od
el and
Ġg alt
ĠWe chsel
Ġangeb oten
b ul
ore a
Ġall ows
ĠFÃ¼hr ung
ĠAustral ia
Ġd aily
Ġzu ge
ĠPr Ã¼
Ġpos itive
F rank
Ġent deckt
eich ert
ĠgehÃ¶r ten
Ġdarauf hin
ĠS V
ĠW ed
ĠW issenschaften
d ate
ĠP ower
ag ne
Ġwor th
res p
Ġpl ant
F in
Ġlie fert
ĠS onnen
Ġbeen dete
eich er
Ġgeb racht
anc y
ĠPubl ic
P re
ĠB ab
ol en
ann en
Ġdar in
Ã¶st lichen
wei le
ĠArchite ktur
ĠSund ay
Ġg lass
Ġ4 8
mann s
akt iv
ĠMÃ¤n n
Ġoffic ial
H L
kt ions
ĠCh in
20 11
ĠEle ment
M ail
g au
il led
Ġle bten
Ġgew onnen
Ġpurch ase
it ur
ĠT anz
ow ski
Ġr ather
ĠBl ut
ĠOff ice
Ġin j
Ġh um
Ġtool s
S ystem
Ġd ient
Ġexper ien
Ġla unch
ĠS us
il a
Ġver antwort
ĠKar ten
ar ischen
geb racht
ĠArch iv
b a
iv ity
ĠRe chte
erk unft
ĠK urt
Ġ19 11
ĠSc ott
Ġpotent ial
Ġc at
ĠL aur
Ġrelations hip
Ġwirk lich
britann ien
Ġinter ested
reit en
er es
Ġn ied
ĠE dition
Ġj unge
ĠBr Ã¼cke
Ġre leased
ger ichts
Ġsu it
Ġerst es
ĠNutz ung
ik ations
ĠEin s
200 8
Ġhand s
ĠProdu kte
Ġsol che
w Ã¼r
an ischer
ĠB ol
ost on
Ġbet rug
ĠKon fl
Ġerw arb
est ra
Ġde ath
rat es
Ġwork ed
Ġweiter er
cklen burg
Ġb and
ĠR is
uf fer
ach ts
lie der
pe kt
Ġt Ã¼rk
ber e
ul y
ĠZ ent
ĠGer hard
Ã ´
Ġw uchs
ĠT agen
ĠV iew
ren z
gem einen
l Ã¤nder
ĠI hren
ho ff
ian ce
Ġbest immt
ĠBas el
ĠProble m
ĠAuf nahme
ĠJac ob
ouver ne
p olit
ar es
at i
geb nisse
ock ey
ĠNieder s
ĠWei ÃŁ
Ġle ave
20 12
Ġmehr fach
eh m
r d
ĠS y
Ġc ross
Ġnot hing
Ġres ources
ĠBl ue
glieder t
ab et
Ġpro t
Ġro t
ph one
r Ã¤t
Ġo ption
ist a
Ġor igin
ĠMet all
Ġent ry
ĠVer lauf
ĠVer fahren
ĠBe wegung
ĠAb st
ect ive
ĠS aar
pp e
lin ien
ĠFot o
ĠWebs eite
Ã¤ ste
em a
Ġcon dition
ek te
Nach dem
w ide
ĠBo ard
Ġleg al
z if
Ġauf gerufen
Ġle itete
chn ung
Ġgel ten
ĠEng ine
Ã¼hl en
h op
v ors
w eite
Ġ19 13
ĠNe ue
ĠBern hard
N A
ir ch
ĠV om
ĠSchw eden
Ġtr ip
ĠL oc
Er baut
mittel n
ĠHein z
ĠFot os
ĠT schech
ĠG rÃ¤
ĠGe heim
Ġro und
Ġter ms
ĠTurn ier
Ġs aw
ĠMar ine
alle y
Ġlon ger
Ġre lease
lauf en
ĠHÃ¶ hen
ĠMat th
p ers
Ġse ems
ĠGra fen
depend ent
Ġw edding
ĠDe velop
Ġdec ided
ĠSatur day
g ie
Ġd ouble
ĠH it
ir ge
Ġsp Ã¤t
Ġdeutsch sprach
ĠPar lament
ĠPh ot
ĠHo hen
an er
Ġw ish
Ġch arge
Ġpl anning
Ġapplic ations
Ġv ideos
ed y
tell ungen
Ġpol icy
Ġfinanz iel
ein er
ĠJ on
Ġeng ag
ĠErz bischof
Ġan im
Ġum fang
ĠSpe zial
ĠFer dinand
le is
ate ur
lie fer
pro gramm
a ign
Ġd Ã¤n
Ġt ats
Ġver gleich
lin es
ert ation
gr Ã¶ÃŁ
ĠLe op
Ġser ious
h old
em pl
Ġstar tete
te uer
et ts
Ġsow jet
ĠGew inn
m ont
Ġde pend
ichte ten
sk y
ĠHinter grund
B esch
Ġder zeit
Ġbe hand
ĠPol y
ĠÃ¤ uÃŁer
ĠR osen
ges p
ĠBundes liga
d om
ĠB ass
ĠH ab
ĠĠ Ġ
ĠMeister schaft
ĠA R
ei ge
ĠOrt schaft
2 000
Ġ Ä
ĠM icro
ĠLand schafts
Ġgew innen
eld ung
ĠWei hn
ĠArchite kt
B is
d s
m ie
Ġb irth
Ġin zwischen
Ġamer ikanischen
ipp ed
Ġsol ution
ĠSchul en
Mus ik
u gend
pf licht
ĠÃĦ nder
ĠauÃŁer halb
ĠLauf e
gebie te
Ã ¥
Ġs end
ĠS ach
Ġuns eren
Ġb ein
ĠD ol
ei en
gr enze
ond s
Ã Ħ
ĠC anada
ĠZu kunft
ĠAut ob
au ten
ĠKrit ik
br Ã¼cke
200 9
Ġorgan ization
ĠW omen
Ġre fle
be wegung
ick ets
Ġinterest ing
ĠSied lung
I A
in y
Ġm ot
Ġl if
ĠSt immen
ad or
Ġfor mer
Ġon es
Ġpar ents
Ġarbeit et
z we
ar kt
le m
ĠD ah
Ġ( ,
ĠH istory
Ġcon ditions
ĠEl isabeth
ĠBar bar
n ational
ig an
Ġg uten
ĠAuf gabe
Ġinc reas
m ine
Ġa k
st he
Ġg ives
Ġim m
Ġmit tels
Ġeffect ive
ĠSin ne
d or
l uss
s ur
ap el
ĠFranz Ã¶s
D ate
im me
ĠE igent
Ġver lassen
rit e
Ġpla ces
ĠSant a
West falen
R es
ĠK ammer
chn ik
hand lungen
Ġwen igen
ĠF ernse
Ġab ility
Ġor d
ĠMe tern
c ement
us te
ĠT Ã¼b
Ġe uch
Ġge halten
ze ption
Ġwir kte
Ġso uth
Ġreg ister
Ġmov ie
ĠrÃ¶m isch
Ġwichtig sten
Ġwonder ful
Weit ere
Ġfor get
Ġplay ers
Ġheut ige
ĠStat us
W ie
or der
Ġc ause
Ġge gebenen
ĠEr de
ĠFr ont
Ã¤hn ung
ĠK rank
Ġl oss
Ġres olution
Ġpre m
Ġschw ar
z ern
ar zt
ĠH afen
Ġdar an
ron ic
ĠKap it
Ġmult iple
ĠPrem ier
c ation
Ġm ount
Ã© n
Ġverlie hen
Ġd ise
Ġth ous
ĠJan uary
ĠArbeit er
tert ain
Ġa verage
Ġp ool
ĠgrÃ¶ÃŁ ere
ĠerklÃ¤r t
ig ation
Ġdes crib
ĠMar ie
ĠGel Ã¤nde
Ġimp act
O ne
n ungs
ĠM ost
Ġ3 7
ĠInd ustr
Ġâ Ĥ¬
ĠDec ember
is at
Ġf air
Ġh ous
ĠThe ologe
Ġex tens
oun ts
ĠEle ct
ĠNÃ¼rn berg
G ra
ĠC O
ĠBe w
Ã¤nd ler
vers ammlung
hol t
ĠgeprÃ¤ gt
20 13
wer te
ĠInter esse
ĠSchrif t
ĠMos kau
D on
L iste
ĠC a
Ġl ok
ĠR oll
Ġverw ende
Ġdevelop ed
ĠProble me
C H
Ã¼ mer
Ġor ient
ĠHe ute
ĠP unkten
Ġwe ight
Ġvers ucht
Ġmach ine
Ġsele ction
Ġhtt ps
ĠH orn
Ġcommer cial
' d
M ark
ik i
Ã¤n en
ĠWelt k
ĠBron ze
T r
Ġw ritten
ĠW ork
eiter te
ĠDar Ã¼ber
ĠhÃ¶ch sten
Ġf irm
be w
Ã¼ck sicht
Ġem er
klÃ¤r ung
Ġcor re
Ġl ux
ĠGl Ã¼ck
Ġask ed
Ġein gestellt
Ġge ts
ĠLand wirtschaft
ĠChrist mas
ĠEhe frau
t i
Ġs ent
ĠE ich
ke y
Ġdis play
por ate
schul en
Ġreview s
Ĩ Ĵ
ĠSt ation
aug ht
ĠSim on
zip lin
Ġbe legt
Ġklein er
ain e
fass ungs
ĠFlor ida
ĠL y
ĠAus druck
fin den
oh le
f els
t or
Ã º
Ġ ult
amp les
Ġexp la
ĠBlÃ¼ ten
h orn
Ġd ritte
Ġim med
ĠBe zug
R ad
c ont
Ġd agegen
Ã¤ ger
ĠEin heit
ĠNe uen
ys elf
Ġhig her
ĠEre ign
Ġch ance
ĠVor der
gang s
ĠVerb and
if en
ĠFo und
Ġcreat ing
u ted
Ġse ek
glie dern
Ġveh icle
m ore
Å «
al m
ĠB la
Ġein st
ĠL i
Ġdec ision
ĠUl rich
Ġbene fits
Ġarch ite
Ġfert ig
ĠAller dings
un te
ĠM ission
Ġh a
200 6
Ġersch eint
fel der
ĠJes us
al ing
ver treten
rif ft
Ġbek ommen
dr Ã¼ck
m and
or al
Ġf ine
ĠEin trag
ĠWirk ung
Ġt en
ĠR am
ĠL ast
ĠC ho
ĠEr b
rich ter
isten z
ĠQu alitÃ¤t
spr Ã¼
ĠDaten bank
ĠJur ist
mos ph
j i
ĠN omin
ĠApp le
Ġview ed
Ġconstru ction
Ġ uk
Ġe arn
ei ÃŁ
Ġunter s
Ġbel g
Ġgrow ing
r ix
Ġ3 9
Ġbek annten
k re
ra k
ĠJo achim
Ġengl ischen
Â «
ĠT ok
ĠMo dern
ĠgrÃ¶ÃŁ eren
Ad resse
ĠFir men
H aupt
ĠK ron
ĠD omin
ĠT iere
Ġ5 5
ĠM Ã¤r
ol ge
ahr en
amer ika
ĠWh ile
bÃ¼ cher
Ġful ly
Ġverpf lich
ĠG irl
Ġtra gen
ĠKar te
fan ter
Ġn utzen
ĠC ouncil
sp er
Ġob wohl
Ã¤ st
ĠAb schnitt
ĠT ime
ann a
Ġle er
s et
ĠB Ã¶h
ĠW etter
ĠW appen
ĠStand ort
Ġpat ients
Ġrep air
Ġwahr scheinlich
u ber
| |
Ġs an
Ã¤ den
ĠD et
ĠJ ob
Ġexp l
Ġd ark
Ġt ar
Ġ19 17
id ents
ph an
ed eral
Ġk aufen
ĠFran ce
ĠGroÃŁ britannien
ĠErz Ã¤hl
ĠKom ment
Ġatt ack
G roÃŁ
O lymp
is ions
ĠM att
ĠT ore
Ġmax imal
gy pt
re form
Ġg ift
ien en
ont o
Ġgen annten
Ã¼t te
ĠS uch
ĠB Ã¤
Ġv iol
Ġp ath
ĠR aj
Ġl Ã¤ng
Ġsub ject
Ġrem ov
Ġbrit ische
Ġh Ã¤lt
ĠR y
ĠC ra
Ġsch le
ĠOr te
ĠSo und
bo gen
Ġinternational e
Ã¤chs ischen
ĠN av
rie chen
Ġhe il
stit ution
ĠInter view
ĠsÃ¼d lichen
ĠPfarr kirche
ĠPra xis
h le
ĠM ah
Ġz eich
ĠI N
Ġdev ice
at ic
ĠL et
ct ure
Ġbet rach
Ġbek am
Ġcons ult
ĠWeltkrieg s
ĠVo gel
v olle
Ġs ort
Ġl ower
ru he
Ġout door
Ġenc our
j o
Ġf lex
ĠM ath
ĠT hr
Ġg old
ĠEr inner
ĠGe h
Ġro ck
ĠSommers piele
ĠM Ã¶
ĠD ub
Ġex ec
Ġcomple tely
Ġcann ot
g Ã¼lt
n ot
Ġg ese
Ġab gerufen
gef Ã¤hr
Ġ Ã¶
Ġp aar
ennt nis
z ur
at oren
le utnant
ĠAn wendung
Ġent spricht
ĠLin ien
leist ung
ĠSowjet union
Ġf arm
ĠW es
tell igen
ĠMed ia
ter e
ĠR og
az ine
ĠjÃ¤hr lich
in ks
ĠF isch
ed ition
ot yp
ver stÃ¤nd
Ġat tention
omm iss
Ġgar den
kathol ischer
Ġdoc ument
c ape
d urch
Â ®
ĠB rown
Ġste ts
ĠĊĊ ĠĊ
ĠSalz burg
o z
ĠK a
ĠSchaus piel
B S
o ÃŁ
on ien
ĠK ard
Ġg iving
Ġle vels
ĠNach richten
Ġgo es
inn ing
ĠNord osten
ĠFlugh afen
Ġs us
Ġit self
ĠGes prÃ¤
ĠZw eit
ĠG ame
ĠOr dens
Ġfe ed
ĠÃ¶sterreich ischen
Ġsuccess ful
ĠBesuch er
Ġqualif iz
Ġgleichnam igen
b it
p ack
t um
el er
ĠP enn
ĠO ld
rÃ¤ ume
ĠAuf bau
Ġsupp l
ĠHistor iker
Ġm yself
Ġ4 2
Ġcl oth
IN G
f amilie
ĠA C
200 5
Ã¼tz t
Ġlang uage
ĠP od
Ġzu gleich
Ġweek end
k opf
Ġh it
Ġ19 05
Ġoffer ing
ĠD ra
ĠR et
Ġg ere
gr iffen
Ã¶r ung
ĠKon gress
Ġthem selves
Ġter m
ima tely
ĠSchm idt
wÃ¤r t
j ust
ar ia
Ġv irt
ĠSt off
vers e
zÃ¼ ge
b ilder
k lass
ĠF eder
ĠW ater
Ġab geschlossen
io de
gem eine
ĠÃĦ r
ro ck
ĠL en
Ġhin gegen
ĠArchite kten
Ġgesp ielt
Ġlar gest
R A
Ġd ry
he ute
Ġv ac
ĠC op
ĠTh Ã¼r
ĠAuf grund
Ġar g
Ġ190 7
ĠBas ketball
aly t
Ã¨ re
ĠFrancis co
K lasse
M in
m Ã¼hle
ĠS ab
as ons
Ġh ar
ĠH uman
ce p
ĠGrund lage
Ġprogr ess
ĠBra unsch
Ġunser em
c ia
or dens
ĠF lo
Ġcolle ge
D em
ie fe
ĠF ind
fr ist
ĠBl og
Ġ190 8
ĠTem peratur
Ġruss ischen
Ġkosten los
i ant
Ġw and
st uhl
ĠE hr
ĠL ink
Ġfin ish
ĠV arian
gen er
ersÃ¶n lichkeiten
ĠS ituation
Ã¤ b
ĠL ieder
ab elle
Ġpro per
Ġcomp lex
ĠD ichter
Ġp ages
ĠK ey
ĠE ll
ĠC at
uck y
Ġunterschied lichen
merk ungen
Ġt al
or ten
ĠG reg
ir n
ier n
Ġaus geb
ak s
ĠPro gram
gel assen
ĠQu er
ĠSÃ¼d westen
ei ht
ĠLe e
S P
is ieren
Ġt Ã¤
ĠB os
Ġan ges
la h
ĠBe handlung
ho fen
ĠWo od
ĠSpec ial
C ode
ĠSch iffe
Al bum
ĠSer ies
ĠFar ben
ĠFak ult
Aug ust
a dem
ĠS ig
Ġp en
ĠO pp
Ġprodu ziert
Ġfo ot
ĠwÃ¼r den
Ġs un
Ġun ten
lin ik
Ġweit gehend
Ġhelp s
d ach
v ement
ra gen
ĠV irgin
Ġdar gestellt
Ġgroup s
ĠJournal ist
eign et
m es
y ond
Ġn ature
Ġst uff
qu es
Ġex am
ĠBr asil
Ġn amens
Ġob t
fur ter
ar ische
ĠB oston
Ã¤ her
Ġl isten
In d
Ġprodu z
Ġerst re
Z um
b aden
Ġne igh
gesch rieben
Ġbil dete
B ild
w ach
Ġl ay
se ud
ĠKon stru
ĠÂ £
forder ungen
C omp
ĠH ub
ĠN eb
Ġse ction
fr iend
Ġpart ner
ĠBundes republik
ĠCon ne
r ong
Ġver fÃ¼g
ĠUn der
so ft
geord net
ĠQualif ikation
ĠK ath
gra f
ĠGeist licher
Ġrequire ments
on isten
ĠR ost
ĠUnivers itÃ¤ts
ĠHel mut
C om
Ġb ase
ĠH Ã¤user
Ġent h
ĠMain z
m y
ĠS inn
Ġv Ã¶ll
ĠL eit
ber s
ist ics
Ġgr and
fra gen
Ġmen sch
ur ts
ion e
Ġl ost
ĠChar l
T S
Ġg anzen
ĠTe ams
Ġed ition
ĠRÃ¼ck kehr
leist ungen
ĠÃĸff entlich
ĠLeop old
Ġm id
am ous
ic ed
ĠInd ien
Ġstand en
f Ã¤lt
z ust
Ġs old
ĠP orn
ĠZeit en
gew Ã¶hn
Ġbec ame
Ġ190 6
Ġsur round
k in
k rÃ¤fte
ĠBe f
ĠBe ck
ĠÃ Ĺ
lan z
itel y
Ġspe ed
ĠGeburt stag
Ġre lev
ĠOx ford
j en
Ġk Ã¼nstler
ĠIn ner
ĠAd min
ĠStra ÃŁ
en kt
ing u
rit ter
The ater
** **
Ġb all
ĠL ar
ĠC re
ĠÃľber setzung
ĠDeb Ã¼t
ĠNik ol
fÃ¼ll t
il ian
ĠF rench
ĠTeil en
Ġplay er
iw od
Ġdistr ib
d own
ĠK rieges
ay a
Ġag re
Ġmus ikal
Ġwei b
ĠRou te
ĠP ak
ail s
Ġrequ est
ĠBetrieb s
ĠW it
ĠL ord
Ġg ro
Ã¶ gliche
Ġte le
Ġinter view
Ġwest lichen
ĠSoc ial
Ġess ay
Ġgese hen
Ġb ul
Ã¼n det
iz en
Ġen dete
ven ue
Ġschw arz
Ġstart ing
ĠS eb
re a
ĠC ross
Ġso c
Ġ4 4
Ã© r
Ġpart ners
ĠFilm s
ĠÃľ berg
ĠPfarr er
im p
ĠSt an
rit er
ĠKon zert
Ġ190 9
ĠArch Ã¤
Ġsched ule
r ik
at ung
ĠW Ã¼rz
Ġno te
Ã¤mp fen
st ation
ĠF ant
ĠC orn
ĠVer halten
ĠIs lam
A fter
I ON
Ġk om
ick e
Ġgem Ã¤ÃŁ
Ġcas es
b u
i ot
p m
ĠS ud
st ern
Ġim plement
Ġver kehr
Ġat tem
ÃŃ n
Ġsogen annte
ar ies
ro at
Ġt hr
Ġl ic
qu is
ĠVerlag s
Ġsom et
eng th
ĠTÃ¼b ingen
o oth
st on
ĠP ok
ĠF ert
ru it
war en
ĠEben e
ĠCour t
Ġment ion
u ern
Ġ il
ĠS un
ĠB lock
il den
ĠW estern
ĠHoch schullehrer
Ġ189 0
Ġentsprechen den
Ġdivers e
Ġn ov
ĠJahr zehn
Ġlin ken
ĠRhein land
il de
sch loss
ĠL ight
ad d
Ġre chten
lin der
ĠThe odor
Ã¶r en
ĠUnter nehmer
zug s
Ġtit le
Ġstreng th
- )
h ow
us ed
ic on
Ġch urch
ĠHand buch
i op
Ġf em
ĠT H
ĠBei de
gra ben
Ġcount ries
N ord
r ische
Ġb orn
Ġer gÃ¤n
ĠN ick
os ted
Ġindividu als
Ã Ĺ
ĠD VD
ran ce
Ġsen se
Ġinvol ved
F ra
o und
Ġc ulture
Ġk ommun
ĠVer Ã¤nder
Ġum ben
ĠMan ager
fÃ¼ hl
Ġorgan iz
D A
Ġb aby
and t
ib ly
Ġpolit ical
Ġd ich
ĠS n
ĠR eb
co very
ĠHand el
ĠBild ungs
Ġbusiness es
er weise
leg ten
ĠDate i
Ġmess age
? ?
E G
st Ã¼cke
Ġl Ã¶
ĠâĢ ¢
ĠZ us
ĠTr ump
ĠSÃ¼d osten
oper ation
ĠAmaz on
D r
Ġz Ã¤hlt
la y
je kten
ĠFebru ary
ĠHam burger
in zen
it is
ĠA f
ĠT imes
ill on
ĠNord rhein
Ġstor ies
Ġtem per
dien ste
ĠdÃ¼r fen
ĠEuropÃ¤ ischen
Ġerweit ert
Ġexperien ced
y t
ĠIn tegr
be g
Ġpat tern
Ġphys ical
ĠLex ikon
Ġnecess ary
P er
e v
ĠW ag
Ġzu erst
Ġent stehen
Ġdesign s
ĠPre uÃŁen
Me ister
geord neter
Ġbestimm te
tertain ment
T C
er a
Ġd unk
re al
ĠH und
os a
ac es
Ġfr ame
weg s
ĠChe f
Ġnor th
ĠT isch
icht lich
ĠBild hauer
ĠFahr zeuge
ĠTod es
Ġdirect ly
ĠFrÃ¼h jahr
S A
un ehmen
ĠS tellen
ĠI hrer
ic ate
Ġ6 4
Ġher r
ĠFl Ã¼gel
tem porary
ĠfrÃ¼her en
O P
f ast
Ġ ueber
ch mal
ĠP rÃ¤sidenten
ĠN ie
ĠIn f
t l
te au
ĠS PD
ĠR icht
iz iner
lig isten
ĠStre cken
Ġexist iert
ĠS yr
Ġunter st
Ġus es
Ġeinge fÃ¼hrt
ĠTex te
as ion
ĠH ug
Ġbe gan
ĠIn gen
ĠEr Ã¶ff
ĠSie ger
Ġerh Ã¶
ĠAward s
T A
ĠK iel
ĠEin ige
ĠEurop ameister
ĠEle mente
Ġche ap
Ġroom s
Ġconsider ed
Ġkur ze
ĠVerÃ¶ffentlich ung
Schrif ten
Ġd auer
Ġs and
ĠK och
geb ote
âĢĿ .
Ġvisit or
an en
Ġhe im
ĠFor men
Ã¤hl ten
ĠOber st
ĠGroÃŁ e
S G
g ment
m ot
s es
Ä «
Ġ id
ol z
ĠT a
pf lege
ĠTra ining
Ġcost s
ĠhÃ¶ch ste
frast ruktur
B est
Ġg ingen
Ã¶ die
ly wood
ĠMittel alter
ĠGrÃ¼n den
te i
ĠK ong
Ã¶ se
Ġwe g
ĠCh ild
Ġher gestellt
bl Ã¤tter
Ġ190 3
emin ar
Ġp leas
Ġh arm
et he
Ġg Ã¼nst
Ġthink ing
ĠCont in
il lage
im in
ĠV ort
ĠWe imar
ĠNord westen
ĠTer min
Ġmoder nen
ĠEdu ard
Ġricht ig
ĠBist um
b ungen
ĠS av
ĠJ Ã¼rgen
ze p
art ige
ĠUn garn
ĠÃ¼ber geben
ĠDe v
Ġwe ist
ident ial
Ġcl ub
200 3
Ġbesonder e
ĠbeschÃ¤ft igt
Ġo w
ol i
ĠH ell
Ġge zeigt
com es
Ġkl ar
wor ks
ĠId ent
afr ika
M on
ĠG alerie
Ġver g
ĠBe ziehungen
ĠUn abhÃ¤ng
ĠVor gÃ¤nger
Ġitalien ischen
L age
p at
as che
ĠVer d
ip fel
Ġex cl
Ġch at
F e
n etz
ein d
Ġan erk
ĠVer hÃ¤ltnis
Ã¤l de
ĠFor st
hÃ¶r den
S yn
Ġm otor
ĠAl tern
ĠHer bert
ĠAd am
Ġsc ience
a ction
ĠS af
Ġe ye
ĠSp re
ĠDarm stadt
f al
is a
anc ing
Ġgef Ã¤hr
ĠÃ¤hn lich
z ub
Ġbe ob
Ġse ch
Ġ190 2
Ġben ach
i ation
Ġsle ep
ĠWilli ams
B es
Ä Ľ
ĠS et
Ġh y
200 4
ĠBayer ischen
ĠermÃ¶glich t
Ġbeein fl
I G
ro id
Ġpre fer
S ehen
l ike
r t
it iv
ĠK amer
ĠC are
ĠIn halt
Ġr Ã¼ck
Ġen h
ĠAuf ent
ĠY oung
ĠTro tz
ĠLeist ungen
at te
Ġf unktion
Ġc ards
ic ations
akt or
fang s
ĠAst ron
it o
ĠG lauben
pp ed
Ver Ã¶ffentlich
ipp e
ĠCon c
histor iker
en se
ill y
Ġso ft
Ġopportun ities
C O
ĠS up
stra hl
Ġprov ider
grÃ¼n der
Ġange legt
bild ungs
ĠK assel
aus stellung
ĠAus land
ĠTeil nahme
ĠWider stand
B Ã¼rger
Z w
ĠA ud
ung sp
ĠR oh
Ġ2 50
Ġ19 15
Ġad vert
ĠPf ar
Ġpoln ischen
ouverne ur
J an
n icht
p al
Ġm aster
ĠB an
ell y
ap y
Ġcon du
ĠjÃ¼d ischen
D en
es is
ĠB ibliothek
ĠM ak
ĠR uh
ind ustrie
Ġ190 4
Ġmod els
Ġest ate
Ġcla im
ĠBarbar a
ĠMon at
son sten
Ġs ell
ol o
ĠH ause
Ġber Ã¼hm
Ġgeb ildet
Ġeigen stÃ¤nd
Ġblo od
D igital
c ies
ĠK lassen
Ġst age
20 19
ball spieler
ĠChe ck
Ġentw eder
Ġs icht
Ġent gegen
ob by
Er folge
Ġvers ehen
Ġsm art
pl Ã¤tze
Ġsuch en
Ã¤us ern
L a
P olitik
Ġ Ã¶ffentlich
ent in
men s
ran ch
fol gt
app e
Ġtr ug
Ġphot ograph
ĠnÃ¶rd lichen
Ġpur pose
ĠLeicht athlet
Ġverantwort lich
Besch reibung
D o
Ġst ress
Ã¤n ner
sen z
Ġweiter es
ĠLeist ungs
H ier
ĠPa ar
Ġsub mit
Ġmax im
Ġs agte
olog ies
Er ster
gangen en
D isk
Ġm other
ĠK andid
Ġ19 16
Ġsp orts
ĠÃ¼ber tragen
Ġ4 9
ĠBre ite
M A
ĠV ie
ipp en
Ġsetz en
Ġerhe b
b n
te hung
vers ion
Ġbas ic
Ġaut h
Ġown ers
Ġverst Ã¤r
Ġein gesch
Ġl ern
Ġsp ent
gl as
ĠIt al
ĠzurÃ¼ck ge
ĠDeutschland s
B ar
le hr
Ã¤n em
or ganisation
Ġw ild
ĠF lag
ĠMen ge
ĠJuli us
Ġfre qu
S eine
af el
Ġhe ar
======== ========
i xt
ĠJ agd
ĠHe ft
kl us
059188 188
ĠVers uch
ĠSchles wig
b on
ĠB ett
ĠC ard
rie den
ĠNe ust
ĠParte ien
ĠK athol
her zog
ĠAus nahme
St ring
Ġben utzt
hard t
Ġcamp aign
Jahrhund ert
in det
ĠS yd
ĠL iter
ĠKon rad
ĠPf lege
Ġlet ter
ĠÃ¼br igen
ĠP rag
em p
ĠR ath
ĠGeb Ã¤
Ġbeg in
Ġcar ry
Ġnah men
ĠEntscheid ung
ĠPries ter
F unktion
ĠWohn ung
Ġausgest attet
Ġin stead
ĠT Ã¶ch
ĠJ enn
alb um
Ġstell vertreten
Ġrelig i
m aterial
w is
ĠN ight
ĠAn ne
Ġerk ennen
ĠÃĸffentlich keit
D ollar
k amp
Ġp et
Ġz Ã¤hlen
ĠH oll
ĠL ine
Ġg as
Ġl ots
if ik
ĠAfr ica
ĠS ho
Ġe igent
ĠEn s
Ġent sp
Ġcomp on
ĠMor gen
f abrik
ð Ł
er c
st Ã¤tten
Ġh our
Ġver schw
ste ht
ĠOr chester
Ġsc ient
ĠBÃ¼ ro
denk male
latt form
Ġactiv ity
Ġrepor ted
ĠMuse ums
on ia
Ġt ips
Ġs atis
ĠG ames
ff ic
ĠAl pen
ĠAr thur
Ġwe ather
ĠKon zept
ĠChr on
ĠStra teg
ĠBesitz er
ĠFakult Ã¤t
ur b
Ġm iles
Ġfor der
ĠAd d
Ġerh ielten
Ġgu ys
ĠProdukt ions
Ñ ĥ
ļ Ń
ein anders
ĠR ol
Ġsp ot
In s
ĠKon zer
200 2
Ġresp onse
ĠMond ay
ĠvÃ¶ll ig
Ġn ation
den burg
ĠReg ister
Ġlie f
Ġrela x
Ġlim ited
ĠS qu
al te
Ġc ru
Ġg olden
Ġre ve
Ġ6 00
ikan ischer
bahn hof
Ġhol iday
ĠDistr ict
Ġhom es
A A
o e
Å Ħ
Ġf ashion
ĠB lo
Ġc ash
our ney
aus gabe
ĠSp rachen
Ġbek annte
ĠfÃ¼hr ten
ĠBraunsch weig
Ġd ining
ĠF alls
mer ksam
Ã© t
ĠGes ell
ĠAd v
Ġt ritt
ĠGl obal
Ġnor weg
le te
ĠF ire
ĠC all
Ã¶ z
auf hin
ĠAb itur
Ġend gÃ¼lt
r ischen
Ġto wards
ĠV iele
Ġwe ar
yd ro
Ġd eta
ĠV aters
Ġk auf
Ġauf gelÃ¶st
Ġ4 1
Ġfin ally
Be vÃ¶lker
Welt meisterschaft
Ġemplo y
S U
w all
Ġre pla
aus schuss
ov en
Ġapp ly
Ġze igte
Ġaff ord
ĠDistr ikt
ĠAutom obil
e ur
Ġ18 48
ĠMod el
Ġtrans fer
Ġschool s
Unter nehmen
Ġcreat ive
ĠPortug al
E hr
r Ã¼ck
y les
ĠP ed
Ġl ack
ĠRe form
ost ers
ĠPre uÃŁ
ĠIns gesamt
ĠSicher heits
k ts
r ennen
ĠMe cklenburg
Ġess ential
g ory
t lich
ĠR on
reg isseur
wahl en
ĠInternational en
itte e
lÃ¤ss lich
ĠCommun ity
ĠCent re
Eis hockeyspieler
P ol
Ġh op
ĠE ber
ĠI C
ĠSch lieÃŁ
Ġro ll
Ġoffer ed
ĠCol or
k osten
ĠT hen
ĠF igur
ĠW he
ĠL aut
ĠV ari
ograph ische
Ġsym bol
Ġannoun ced
st ab
ĠP ow
amil ien
ĠUntersuch ungen
Ġt im
Ġn umer
ĠN ahr
Ġsp irit
Ġcon cept
Ġvor gesehen
Ġcons um
Ã¤h ler
Ġhealth y
ĠLauf bahn
Ġbro ught
Ã¤dag oge
ĠBund est
Ġsomet imes
K irchen
s ere
st al
ĠT sch
Ġi P
gel d
It alien
zus tellen
R O
Ġsp end
setz ungen
Ġgemeins amen
Ġv ierten
Ġand ers
ĠV iol
ues day
Ġsupp ly
ĠÂ §
ĠDan eben
Ġdah in
ĠS tellung
ro llen
ĠW a
ĠW ohl
Ġer stellt
ĠAn griff
ht t
ĠWo iwod
augh ter
ĠUkra ine
as ts
Ġz er
Ġhe at
uar ante
ĠSm art
Ġelect ric
Ġt ried
ro chen
ach tet
werk en
j an
er te
ĠK up
ĠL abor
Ġal bum
ab teilung
se kretÃ¤r
erk l
hÃ¶r de
Ġtr uly
Ġfamil ies
rÃ¤n k
id ung
Ġann ual
ĠHers teller
okomot iven
k unst
z one
Ġm iddle
ĠN ar
ann el
Ġun it
Ġall gemein
ath an
200 1
B i
ĠD ialog
we ge
Ġfe hl
Ġnomin iert
p o
r ennt
ĠP ast
Ġste el
ĠQu elle
Ġverb reitet
ĠWor ks
Ġinst ru
Ġcou p
Ġmittler weile
J ul
am i
ers ey
ĠIde e
Ġumben annt
b ad
p an
Å ¾
ĠE vent
Ġj ud
Ġexp ected
Ġact ive
Ġkomp lett
r iss
Ġd ynam
ĠP ack
ĠT el
ĠPro fil
Ġcl ient
ĠAlex and
akte ur
H istor
S k
z te
Ġ1 10
ĠV alley
Ġge ist
ia tely
Ġfe et
bes itz
Or ganisation
Ġbeginn ing
Ġwes entlich
k g
ie den
Ġw ife
ĠF iguren
ug ies
ap ter
ĠGe walt
Ġger ing
Ġeff ects
ĠRÃ¼ck en
D E
Ġde ad
Ġsp rach
Ġle it
Ġvor bei
Ġ4 6
oren z
Ġacc omp
haf te
Ġexact ly
ĠP ay
ĠC ost
Ġ8 00
Ġph ilosoph
ĠCarol ina
ĠDevelop ment
C ont
f Ã¤lle
o ire
as ing
ĠM ol
Ġl ands
ĠEr satz
Ver b
ĠCol umb
Chr ist
Ġcoll abor
D AP
L E
Ġch air
Ġvers uchte
Ġober en
ĠTÃ¼rk ei
Ġge z
ĠRe view
Ġdurch schnitt
piel en
ĠOp ern
Sehen swÃ¼rdigkeiten
B el
R Ã¶m
er ei
Ġs av
ĠB ord
ĠH ockey
ĠW unsch
ĠJ ones
Ġst Ã¤r
ag a
Ġbl ue
an ch
Ġf ung
ĠAn y
ate gory
Ġhe ard
gr enzen
Ġ5 2
ĠDurch messer
Ġdefin itely
ĠCam bridge
g on
ĠO tt
od urch
ĠBe ob
ĠOrt es
Ġâ ĨĴ
wes ome
Stra ÃŁe
b al
t rue
is piele
ing ly
ĠF inal
ĠH as
ĠL au
ist ischer
Ġsch eint
Ġcour t
nes day
Ser ie
ĠS ir
st Ã¤d
ĠDie ter
ous ly
Ġra ce
krieg s
B erg
h aps
in ischen
ĠD ien
Ġst ates
Ġstud ies
Ġeff ort
Ġart ist
ĠMag de
Ġadv ant
aliforn ien
ĠWies baden
k onstru
Ġcon ven
Ġex hib
ĠHeraus geber
ĠErfahr ungen
ĠGesund heit
Ġregard ing
or fen
he bung
Ġb rach
ĠH immel
Ġre ich
ce ed
Ġr ates
Ġ4 3
Ġber ufen
ĠTra in
ĠFÃ¼r sten
unn y
lei hung
ĠRei hen
ĠEdu cation
J uni
h te
ĠA ktion
ĠM ov
Ġein gerichtet
ĠK en
em ed
ĠW ho
ĠR ap
Ġsh opping
Ġbest ritt
Ġmein er
ĠSchwer punkt
m Ã¶glichkeit
ie b
ĠM ap
ste iger
ĠGr enzen
br ingen
Ã¤mp fer
inc ip
Ġthous ands
M ich
R ep
ĠA qu
ĠB Ã¤nde
ĠE ck
ap ers
ĠFre m
Ġass ess
Ġel f
Ġpop ul
F r
U T
is ierten
ĠM ike
ĠK y
ow l
ĠIn fanter
ĠEr ich
ĠTh anks
zeit ung
urs day
ĠSÃ¶ hne
c al
Ġw odurch
ar in
ĠK art
ĠW ett
Ġpro p
Ġ190 1
ĠM Ã¶n
ĠF red
ĠR uf
et ze
Ġsp richt
Ġ18 70
fÃ¼r st
ĠA M
ĠN ap
Ġab geb
ĠBe ge
Ġbeg onnen
arl ier
ĠFound ation
Ġer le
ĠJ ena
ĠLand tag
St ud
ĠStra f
eins am
yl van
ĠKr ist
m ag
Å Ł
Ġb ill
th a
Ġeben da
ĠTer rit
Ġunderstand ing
wirk ungen
or i
te x
at ives
Ġin f
ĠK anada
ĠC ook
ĠC ustom
ĠHe ad
ath on
ans as
ĠChr is
ĠG ymnasium
ĠSp ann
ĠOr ient
Ġbes itzen
Ġac cept
Ġland wirtschaft
Ġwa it
w ettbewerb
Î ±
Î ¿
ĠP en
ĠK urs
ĠL as
teil s
Ġ189 9
deutsch e
Ġjob s
ĠIde en
ĠZusch auer
Polit iker
l og
Ġb row
ĠA rab
ĠK amp
ĠV ar
Ġe yes
ĠSp iegel
lie genden
ĠGr amm
ĠMin eral
Ġhigh est
Ġzwe imal
ĠFrie den
H o
U r
ĠE ven
ĠH ig
ĠW M
ĠPro ject
omm od
ĠBr ig
ĠPl us
bed ingungen
Ã¤nem ark
F L
Ġw issen
sch te
bau er
E le
N ot
Ġn utz
Ġc ars
Ġk ulture
Ġan hand
ĠSp orts
ĠVor aus
ĠFlug zeug
Ġengl ischer
ĠFernse hen
ro ph
ĠF Ã¤llen
ĠL ow
ĠOff izier
ĠF inn
ĠSch on
ou p
Ġges etz
ĠAd el
asil ian
S a
p ite
ol is
ĠG olf
ann ter
ag ra
Ġ4 7
Ġunterschied liche
Ġlov ed
Ð ²
ĠS T
ĠB ang
kon om
ĠBevÃ¶lker ungs
A pp
Ġf iles
ĠL ittle
Ġit em
ĠBe wohner
ss on
ĠNieders achsen
kt ar
ĠZ ahn
Ġver ur
ahr t
ak ed
iz enz
ĠLand tags
ĠMon aten
ĠFunktion en
ĠGener ation
ĠBek annt
ĠFÃ¶rder ung
Hol stein
C he
ĠS ul
st rom
ĠG riechen
Ġwas n
Ġstra ight
Ġpower ful
b aus
Ġw ert
Ġm il
ĠP anzer
ĠAm ster
cl ient
stoff e
ĠAbgeord neten
ĠM ake
ste dt
iss ions
Ġkein er
or ph
ĠG ang
Ġdem and
Ġexp and
ĠStÃ¤d ten
ĠHalb finale
P ort
g yp
k la
or gan
ĠM id
ĠH ay
Ġpro ced
Ġreg istr
p ost
z ul
ap h
up s
iert es
ĠEd ward
hÃ¶ he
Ġtar get
c u
Ġs ituation
Ġin kl
ĠW ay
ĠEr schein
Ġex press
rÃ¤ gen
hÃ¶r igen
Ġclass ic
D an
e ch
Ġv ict
Ġp red
im ens
Ã¶ tz
fen ster
schn itts
Ġadv ice
ĠWeltk rieges
] ,
it ness
ĠA gr
Ġne arly
end ar
ĠEm il
ĠBÃ¼ hnen
t ten
w s
w Ã¤l
ĠC onst
Ġview s
lÃ¤nd ischen
produ ktion
at re
Ġm ill
sch m
ĠR ail
gen Ã¶ss
Ġpro pos
ĠBe ziehung
ĠAr r
Ã¶r ter
Ġ189 6
ĠIns eln
ĠMÃ¶glichkeit en
Ġa f
Ġm Ã¤nn
st ad
ĠIn dex
ĠÃ¼ber haupt
ĠBl ues
ilit ary
ĠComm ittee
ĠDiss ertation
C ar
Ġh Ã¤tten
ic ing
Ġum geben
zen en
ĠCo de
rÃ¤sent anten
ĠRegen sburg
ĠBrÃ¼ der
bere cht
E d
r ast
Ġs em
Ġw rong
el or
ĠD ank
ĠT able
ĠJ ed
Ġan gesehen
os is
id ae
ĠBe teil
anz ig
fÃ¼hr ten
urop a
Ġresp ect
Ġdien en
ĠSong s
ber eitung
ĠU ser
og a
Ġdam age
Er st
unn el
ĠGrÃ¼n der
Ġbeh av
Ġextrem ely
K urz
h u
k urs
us ter
Ġm is
erv ice
Ġco ff
ĠHor st
Ġinfl uen
G u
ĠA P
ĠK ommission
Ġim ag
ĠSp ielt
Ġsp ring
Ġapp re
ĠQu adrat
ĠEnt fern
Ġkur zen
) )
P art
ch ern
or ien
ĠD auer
st at
st ock
ĠL ot
Ġpro fit
ick er
olog ischer
Ġbesch reibt
ĠFeuer wehr
Ġemploye es
ĠVirgin ia
> <
Ġf ail
ĠR ab
Ġber ichtet
ĠS her
Ġf an
fÃ¼hr en
Ã¼nd ungs
Ġ189 8
Ġinvest ment
ĠFil me
Ġgelegen en
i y
u um
z in
Ġt schech
ĠL Ã¶sung
ĠBe am
uss ion
Ġkathol ischen
m ail
ĠT uesday
ĠZ y
ĠAnd rew
Ġverb ess
Ġ188 0
ĠAnton io
B et
Ġf ans
ĠK anz
ĠR umÃ¤n
ĠL ibrary
Ġtra de
min ton
por ation
ĠLin ks
Ġmov ing
Ġappro x
ĠPublik um
D I
en gl
ĠB ert
ig s
Ġl ad
ĠOr ch
Ġbring t
ĠHers tellung
ĠWÃ¼rz burg
l ar
Ã ł
Ġf uck
ic ine
Ġer fahren
ver anstaltung
ĠWe ge
stand ing
igkeit s
Ġausge fÃ¼hrt
Ġprogr amm
Ġhistor ische
Ġsett ing
ĠMex iko
Ġb ot
ĠM ir
Ġp ot
Ã¶ pf
ĠRe is
ze igen
ell i
An t
ĠSchl uss
ĠBahn strecke
ĠSystem s
Ġclean ing
c an
ch ip
ach ing
Ġhe ll
ĠFran ken
wer den
ĠgroÃŁ es
ĠVer antwort
Ġj em
Ġex cept
Ġ5 1
ĠEx empl
ĠMet hoden
ĠErw eiter
lam ents
ĠnÃ¤ch ste
ĠSl ow
Ġdeliver y
Ġestabl ished
F ried
V ol
r in
ĠA u
ĠV Ã¶lker
ann i
id o
rat en
Ġpol ice
ĠZug ang
Ġpress ure
N ov
l ings
s ichts
ĠA ster
ĠB lan
ĠEn glisch
stand en
ĠFrank furter
Ġdr ink
Ġdiffer ence
Ġmean ing
Ġded icated
m acher
ar ina
ĠH aft
ĠN a
atur ing
Ġthan ks
ĠBar on
ĠBre mer
ĠrÃ¶m ischen
Ġswe et
ĠWed nesday
ã Ģ
re in
Ġb atter
Ġin itial
ĠD ou
im ents
pt on
ĠSk y
Ġfeel ing
ĠWoiwod schaft
M ax
le hre
ĠP red
ĠL it
Ġer laubt
Ġ189 5
ĠRund funk
Ġcomfort able
ĠNationalsozial ismus
f ree
h ar
ĠK Ã¼nst
ir at
Ġge eignet
fl Ã¼gel
ĠGeb urts
setz er
fass te
Ġeconom ic
W erk
s berg
ĠM ig
art igen
Ã¤r ke
Ã¤nd igen
Ã¤ng nis
Ġpar allel
mus iker
Ġnumber s
Ġentsprechen de
prÃ¼ ft
Ġrepor ts
Ġc ell
Ġzu geordnet
Ġr ights
pro fess
ĠDire ctor
Ġbeaut y
ĠÃ¤ uÃŁ
ĠSÃ¤nger in
Ġd etail
Ġl ength
Ġe he
land es
ĠTh ursday
ĠOb wohl
bur y
ĠÃ¶sterreich ische
gestell ten
ĠEpis ode
w ise
Ä ĥ
ĠM und
ro te
ĠL abel
Ġun ge
ĠFr Ã¼
icher ungs
Ġac adem
ĠMax im
Ġb ag
se c
ĠBer icht
Ġcont ains
J e
Ġ ign
Ġm ap
ĠM io
ĠP ian
ic ul
Ġg ave
let ter
V P
em ann
ĠL ate
Ġj ung
ast ian
Ġbet rieb
Ġdi agn
ĠFo od
Ġpie ces
Ġmittel alter
zÃ¤hl ung
Ġf ight
ĠChampions hip
Ġassoci ated
v ar
ĠH erkunft
ĠN iger
ĠAn frage
hol m
ĠGerman y
it ude
Ġb oy
be zogen
Ġev alu
ĠCont rol
c en
h aben
k ow
w uchs
Ġverw enden
Ġback ground
ĠMich el
Ġcap ital
ĠBron z
Ġdeg ree
Ġ @
Ġw ants
ĠAus zeichnung
Ġpass ion
al ed
el en
ĠC ur
ia ge
ĠJohn son
ĠOs car
ĠTab elle
ĠPlat ten
Ġcent ury
Ġtats Ã¤chlich
b und
ĠE sp
ĠThe ologie
ĠMe yer
Ã¼t ze
ĠJuni oren
Ġwind ow
schei det
ĠgegrÃ¼n deten
Ġhund red
N o
d h
ĠS tell
Ġf ather
ĠM auer
Ġn amed
ĠSp itze
ĠAuf lÃ¶sung
iss ance
Ġbut ton
Ġserv e
Ġ189 7
ĠArn old
Ġow ner
ylvan ia
Ġf elt
ĠE ach
ĠH ot
âĢľ ).
Ġunter sch
ĠÃ ł
lÃ¤ ne
Ġschw ier
lad ung
ĠElekt ro
ĠR oss
ĠR Ã¶m
Ġover all
Ġinter ior
Ġplay ed
Ġturn ed
ĠFernseh serie
Europ ameister
Ġf ish
ab ase
ĠJo e
ĠMc C
ĠFrie dens
Ġzust Ã¤ndig
B ad
Ġa im
Ġt Ã¶
Ġt ief
il ing
ĠK im
ĠK ob
ĠN och
af ft
ĠPr esse
ĠSh op
umen ten
Ġcertain ly
ĠDiet rich
F ranz
z iger
or ted
ĠD J
ĠD ok
Ġer hoben
ais er
ĠMan y
ĠGer icht
Ġhand le
199 0
ĠJe ff
Ġeinzel ne
Ġprofession als
k es
er em
ĠS ak
Ġb la
Ġg ren
ĠSp ace
onn a
ĠGew icht
ĠCount ry
J ohann
ĠM om
im ension
ĠR oten
Ġzunehmen d
ĠTÃ¶ch ter
l le
r ight
Ġb ur
Ġp f
ĠP ac
ĠOr der
ĠZeit raum
Ġtre ffen
Ġocc ur
ĠjÃ¼n ger
N r
k ins
Ġgo als
wer ben
Ġadv anced
Film ografie
ĠErw achsen
ĠWieder auf
fÃ¤h igkeit
ĠNeub au
renn fahrer
m eldung
Ġs amm
Ġb lieben
Ġin fo
Ġf lat
ĠK Ã¼n
ĠK eller
iz z
L ist
ĠM ord
ĠD adurch
oc ol
ĠMar gar
ĠBo y
ĠSer ver
ĠSan kt
Ġsay ing
ĠTenn is
ĠKarls ruhe
ĠHug o
W ert
Ġf lieÃŁt
ĠD iffer
ĠR ose
ier er
Ġhelp ing
ĠLei den
National mannschaft
u v
ĠS onne
ĠB latt
ĠG uts
ĠH em
ĠH arr
Ġre li
Ġcom ments
ĠLand schaft
ĠBr es
ĠPer form
ĠÃ¤lt este
4 00
ĠS P
Ġh ers
ĠG Ã¤ste
ĠVer anstaltungen
Ġbes aÃŁ
Ã¤nd ige
let te
Ã¶rder ung
Ġfriend ly
Ġcontin u
Ġexist ing
ĠKommun ikation
ĠmÃ¶ch ten
ĠDah er
ch ung
Ġf amous
ĠB art
ĠP S
Ġr ich
ial e
ĠPar laments
gesch lagen
Ġclick ing
l it
an isch
de gang
ĠP M
ĠR oth
ĠR ena
ĠN ah
ild ing
part ner
Ġur kund
Ġoffiziel l
sb ruck
ĠBenutz er
Ġbenach bar
g Ã¤nge
n ing
ĠB om
Ã¤ fer
ro ugh
Ġvor ge
ĠTechn ology
ĠÃ¶ffent liche
f Ã¤ll
Ġf allen
ĠA achen
Ġc andid
Ġg ran
Ġl isted
ĠThe orie
Ã¤hr ung
fin ition
ĠZahl en
ĠWeit eren
F F
ar p
ĠA N
ed ikt
be am
Ġwe chs
setz te
ĠerklÃ¤r te
Ġut il
c ious
Ñ ı
Ġt ut
Ġp al
ĠH rsg
ĠC ru
ĠSt ift
ĠO ther
ug u
ĠPe ople
A B
M ilitÃ¤r
Ġw ine
ĠL am
ic ious
Ġl ines
id el
Ġob serv
Ġappro pr
Ġcomple ted
Ġnahe zu
Ġsozial en
ĠMathemat ik
I R
a illen
Ġs ets
Ġf abr
ic ien
Ġl it
ub a
ons erv
âĢĿ ,
ĠKirchen gemeinde
Ġdise ase
h ire
ĠF Ã¤h
ĠRe fer
Ġen glisch
In stitut
ĠFor um
Ġbene fit
Ġrad io
u j
us band
ĠZ un
ĠGe gner
ĠAuf nahmen
An halt
Al le
ĠGesch ichten
Ġmet al
Ġdev ices
plat te
Ġmethod s
ĠAmster dam
Ġw inter
ol ogen
Ġc old
Ġsch reiben
ĠPro te
rÃ¤ ft
Ġret ail
Ġdenn och
ĠFrei heit
h ler
us sen
ĠG h
ent hal
ber n
ĠVer dienst
ĠDe ck
ĠBr enn
grÃ¼n dung
Ġdr iving
Ġfind ing
Ġsele cted
Ġstrateg y
Ġupd ate
Ġcoff ee
ten ance
Ġge kommen
ĠReg ionen
ĠFre ien
Ġstark en
Ġir gend
V al
Ġs itu
ĠF arm
em it
gel t
ĠWe gen
Re chts
hin dern
Ġredu ce
Ġcorre ct
um a
Ġbe zeichnete
Ġbe yond
ĠJ a
ĠSch ritt
ak i
Ġzw eiter
ĠLe hre
Ġklass ischen
Hand lung
Ġerinn ert
Ġdig it
f ranzÃ¶s
ro y
um pf
Ġg uarante
Ġth ank
ot ional
ĠIn itiative
ust ain
ĠLe v
fÃ¼ gt
Ġexp lor
ĠUntersuch ung
ĠbenÃ¶t igt
ĠKomb ination
k ern
ĠA S
br and
Ġber uf
ĠSte phan
Ġviel leicht
Ġeas ier
Ġsele ct
k arten
Ġm ission
ĠT rÃ¤ger
Ã¼r en
Ġprodu ced
reg ion
Ã¤m lich
wirk ung
Ġchallen ge
Ã¼ ne
ĠMar g
ĠGegen wart
ĠAfr ican
ĠChem ie
S PD
s ylvania
Ġc lin
Ġc amera
Ġge plan
Ġbas is
ĠKont rolle
ĠSyd ney
K rit
Ġw eder
ĠE ind
ĠC reek
Ã¶ ck
hand el
ĠBau werk
ĠLie fer
Ġopen ing
ĠMaÃŁ nahmen
Ġerz Ã¤hlt
ĠPier re
Ġ Ã¶stlichen
ĠJ en
Ġ20 22
man agement
Ġprodu ce
haf ten
= "
d is
ro ad
ĠH aar
ak ei
leg entlich
ĠSchn eider
ĠEntwick lungs
Ġn Ã¤her
ĠĊ Ġ
Ġunter halb
Ġeinz igen
ĠEng agement
omb in
ĠGef angen
Ġf at
Ġo st
de cken
ir ing
ste igen
Ã¤r t
ite ktur
ĠNe um
Ġfin ished
ator ium
verband es
ĠGÃ¼n ther
ĠWeihn achts
â Ĥ¬
Ġge plant
Ġre form
ĠMa ur
fÃ¼hr te
Ġwel come
Ġdire ctor
gor ith
Ġunterst Ã¼tzen
H aus
W irtschaft
w ing
ĠB M
ĠT wo
Ġal ter
ĠU fer
ĠMatth ias
o ter
ĠK rie
aus end
bach er
so ap
K o
r Ã©
hÃ¶r ige
Ġuse ful
Ġcol ors
Jahr en
k Ã¼nd
p et
ie fen
ol es
ĠL ist
ĠL iber
Ġst Ã¤dt
tel n
her ren
Ġcan cer
arbeit ete
Ġseit dem
199 7
ennt nisse
Ġdeter min
chip karte
Ġs agt
Ġf Ã¤llt
ĠL or
ĠL ook
Ġj ourney
zen ten
ĠFl ucht
ĠFer ien
aka dem
Ġgriech ischen
Ġdeutschsprach igen
u ters
Ġs agen
ĠR io
ĠVer gangen
ĠEin heiten
ĠFor ce
ĠFamil y
Ġprote ction
ĠJust iz
ziehungs weise
K irche
Ġ ?
as ien
ĠE conom
ĠH ung
ĠH ospital
Ġfor mat
Ġtra f
ied elt
bl ing
mitt lung
ĠF air
eb all
Ã¼n fte
ĠMar i
Ġmed izin
ĠFo otball
ĠGest altung
ĠAktiv itÃ¤ten
ĠMicro soft
! )
c ient
ĠB aus
ĠRe port
ru p
qu enz
ĠBe weg
Ġange gebenen
ĠDon au
Ġsen ior
Ġbud get
b ahnen
al em
Ã¼ gt
ĠM d
ĠT onnen
ĠO d
ĠSp er
Ġbis lang
199 9
cy cl
spre cher
ĠBel gien
Vers ion
N S
ĠK ab
ĠL etz
if iziert
folg ung
ĠAus einanders
ĠQu al
Ã¶s ungen
ĠAs ien
mar sch
h art
Ġa uÃŁen
it ag
ĠT ay
Ġcon ference
ĠAuf l
lieÃŁ en
icher heit
ĠBereich en
iate ilnehmer
D ar
E lement
Ġw achsen
Ġm aÃŁ
ĠK Ã¶n
ent ur
ub il
Ġsh ared
Ġinc red
rÃ¤n kt
Ġteach ing
Ġrespons ible
Ġimmed iately
8 00
u an
ĠE P
ĠE ugen
Ġun er
burg h
Ġ15 00
Ġ/ >
ĠHaus es
dire ktor
C onstants
i Ã³n
l itz
p ommern
ĠD ist
ĠVer anstaltung
Ġab ger
Einz el
ĠInter essen
Ġ !
gr iffe
ĠGes ang
ĠFre unde
Ġeinz ig
Te chn
Te xt
cel ona
G esch
ĠP os
ed ig
est ic
ungs ver
Ġzum indest
ĠMar ien
Ġ0 1
weil er
Ġgra de
verkehr s
o ben
ĠH um
ĠC ro
Ġan schlieÃŁ
Ġauf gebaut
Ġunter en
Ġunterschied lich
ĠAustral ian
B y
g Ã¤ng
and e
ĠA L
ĠZ erst
ĠVer tra
Ġ188 5
Ġsur face
ĠLad y
Pf alz
im er
Ã¶ ÃŁen
ĠAn spruch
ord net
ĠSc iences
Ġsec ure
Ġstark e
ĠAlt ar
rÃ¼ st
ĠJack son
Ġmot iv
ĠRath aus
r amm
est yle
Ġre icht
ĠSe kunden
Ġte ams
yn ast
ĠKÃ¶nig in
ĠInn sbruck
ĠAfr ika
y mp
it at
ĠT ief
ĠGebie te
ĠAtt rib
vors itzen
H ein
Ġs Ã¤m
ich ert
ĠB rad
ĠR ollen
isch Ã¶
ver eins
ĠCh allen
Ġmay be
upp en
Ġaktu ell
Ġcas ino
Ġrelations hips
ĠMagde burg
D aten
F alls
R el
T H
k at
re ck
Ã¼r zt
ĠZ ivil
ĠEin richtung
oc al
Ġgew Ã¤hr
Ġclass es
Ġinstall ation
p osition
on i
Ġn ut
Ġver legt
end o
Ġqu al
leg ant
zie ht
deck ung
c are
l Ã¤nge
ĠD ata
ĠT ax
ĠF ro
ĠL angen
Ġl esen
ib l
ĠSchriftsteller in
Ġprote ct
ĠDipl omat
Ġol der
P eter
m or
Ġb ayer
Ġbe ziehungsweise
ies e
ĠOff en
Ã¤tz lich
T er
d on
ra ted
ĠSt one
ast rop
ĠMon te
Ġteil s
Ġverschieden er
Ġeven ing
ĠDon ald
ĠTele fon
Ġpresen ted
ĠSonn tag
Digital isat
en ken
ĠP ir
ĠV ideos
ĠAr ray
rom e
ĠNach richt
aj a
zÃ¼ glich
Ġrestaur ant
Ġerstre ckt
R L
Z eich
Ã¤ ure
Ġn ames
ĠT aschen
ĠL td
Ġg allery
ĠSt ab
ĠIm p
Ġentwick eln
Ġklein ere
ĠOrd nung
L in
Ġa ward
ĠA ction
ig ar
ĠG all
ic ial
ĠIn frastruktur
Ġ18 71
ĠMar x
Ġtechn iques
hÃ¤lt nisse
Ġstr ug
b ay
b ell
Ġc ast
ers dorf
ĠSch ach
iz eit
teil ungen
ĠPar ameter
ĠMet al
Ġmov ed
Ber eits
u ellen
ĠS oph
ein heit
Ġn Ã¤mlich
ĠG a
Ġim press
if er
esent lichen
Ġexc iting
Ġstre et
ĠÃ¤lter en
it arr
Ġw ebs
Ã¼ p
st ar
ĠK Z
ard o
Ġent schied
Ġhel fen
ĠGed anken
Ġnotwend ig
B ere
ch or
ĠD etails
de hn
ent lichen
Ġge e
ver zeichnis
ĠRe de
Ġsp Ã¤ten
Ġsch ied
ĠWir ken
Inter ior
he il
ĠK am
ĠR al
Ġfor ms
geb lich
Ġman chmal
ĠBo oks
Ġserv ed
ĠTr ib
ÃŃ a
ĠPolitiker in
M ill
as p
ĠH ess
ĠV el
Ġver fasste
Ġr ank
iz ien
br Ã¼cken
ĠWelt meisterschaft
ĠBundes staat
Ġsol id
Ġmov ies
O st
k Ã¼rz
o ul
ĠT oten
ĠH yp
iv als
Ġre chte
ĠIn t
Ã¤r m
Ġbeg innen
Ġpre vent
Ġchange d
ĠWol ff
ĠGebie ts
Ġchines ischen
P latz
W il
f ue
| -
ĠB ell
Ġmit einander
ĠAn h
An merkungen
ĠMan fred
Ġacc ommod
Ġeff icient
ĠKommun al
ĠB it
ra uf
os ph
ĠVer letz
Ġj ur
Ġsp read
ĠAl k
Ã¤t t
Th ese
Ġho her
ĠMann schafts
Ġele ment
ĠUr laub
Ġâ ļŃ
k ultur
m otor
Ġs ucht
ĠF un
ÃŁ ig
Ġunter scheiden
Ġsh ape
Ġet abl
ĠStud ies
Ġgemeins ame
kur renz
u y
ach us
Ã¤r ten
Ġ5 3
ĠMark e
ĠSchl Ã¼ssel
ĠGott fried
Ġfac ilities
Ges ellschaft
r asch
v ater
Ã ª
Ġb ess
ĠM isch
ĠH av
ĠW urz
ĠR ub
ce an
ĠVor stand
ĠMed ical
Ġbas iert
For m
Ġren ov
d auer
t op
Ġein schlieÃŁlich
ĠI wan
wer ten
ĠLebens mittel
Ġant i
ĠKranken haus
ĠB at
Ġp aid
ĠEr folge
ĠHoch zeit
ĠForm el
Ġinsp ired
Ġbedeuten d
ĠMik ro
u tely
re h
ĠD un
ol as
Ġh ospital
ĠSch e
ĠEr ste
Ġsh ip
Ġbet roffen
Ge w
ĠSer ien
Ġstate ment
ĠCas ino
Ġstruct ure
akadem ie
T ube
b ing
z ell
ĠA ur
Ġein geb
ĠT ode
Ã¤r ung
Ġreg ional
ĠMann heim
ĠZwe ck
ĠEigen schaften
sta aten
ĠIngen ieur
O D
te gra
ĠM assen
Ġk o
Ġden k
acht ung
199 6
ĠMy th
Ġcharac ters
ä ¸
Ġs uffer
ĠSt urm
sk a
ix el
ĠWei b
ĠmÃ¶glich st
Ġhoch wert
!! !
t yp
ĠT en
ĠK alifornien
ĠV iet
Ġent steht
ĠNe use
ĠWelt cup
199 8
---- ----
ĠT s
ĠE M
age l
Ġtechn ical
ĠMount ain
S ep
ĠG T
ĠSp itzen
eben e
olle y
Ġinter pret
Ġac qu
wend ungen
ĠStr and
ĠInstr ument
r uss
or row
ur ers
om er
Ġbe grenz
Ġschw eren
p aar
Ã «
on ischen
Ġs ession
ĠD rag
ĠT ats
Ġal one
olog isch
mit glieder
Ġpe ace
Ġele ments
ĠmÃ¶glich erweise
ĠPrinz ip
Ġinnov ative
Ġbott om
Olymp iateilnehmer
ĠVergangen heit
p asst
r Ã¶
lin ois
oll ten
auf tra
ĠMark eting
ĠEing ang
ĠNet work
ĠDipl om
ĠRelig ion
L C
T our
f Ã¤l
o or
Ġs ing
ĠB our
ĠM inn
Ġe at
Ġe arlier
sen de
ĠUS S
Ġges ellschaft
stell te
ĠPap ier
Ġverkauf te
Ġaltern ative
Ġfem ale
O ff
af e
iel le
ond iss
ĠMark en
kauf t
Ġsur v
Ġbro ad
Ġachie ve
ĠS ei
st amm
Ġn ar
Ġc ry
for scher
geb nis
ĠSie ben
lo y
ĠComm ission
ĠCD U
K arl
st il
qu est
ĠMit arbeit
Ġverb indet
Ġgu y
ĠEd el
. /
Ġf ill
ĠB aby
ĠH eb
ĠH amm
ĠR ett
ul f
ĠEin sch
ĠkÃ¶n ne
ĠBar celona
Ġfre ie
ĠTor onto
Ġelekt ron
Ġbetrach tet
3 00
ĠF ord
ut ing
Ġer zeugt
ĠN Y
ate ver
Ġhe avy
Ġsch affen
ac ity
Ġad vent
Ġcomp re
Ġange hÃ¶r
lev ision
ĠMad rid
ĠArm y
Ġnied r
S ein
ĠK amera
ent um
Ġg Ã¼lt
ĠV I
Ġro of
ĠGra d
Ġstand ards
Ġmon itor
ĠHar ry
ĠBed ingungen
Ġnational en
R ei
s dorf
al tete
ĠD atum
Ġh il
Ġh usband
od ox
Ġqu ant
Ġget rennt
Ġbeen det
Ġmoder ne
ĠTab ellen
ĠErfahr ung
P C
k ov
ĠS au
us en
Ġver n
fr ies
Ġincre ased
ĠSchla f
D u
P l
un nen
Ġa head
ist rÃ¤ger
Ġis land
we ist
Ġse ven
ĠLe vel
ĠAm b
fÃ¼hr ungen
Ġeigen es
Ġerm Ã¶glichen
Ġil leg
F ahr
in ted
Ġm Ã¼ndet
ĠP ots
Ġc entral
ĠH Ã¼gel
ĠN ote
Ġsch ott
Ġconne ction
zuf Ã¼hren
Ġvo ice
bour ne
k ul
z um
Ġn Ã¶t
ĠInternational e
Ġmat hemat
achus etts
m auer
iv ision
ĠAr men
ĠAb t
ĠKomp onen
ĠGemein schaft
ĠKÃ¼ sten
EM ail
__ __
k Ã¶rper
Ã ľ
is tet
ĠA le
st aben
Ġer lang
ĠJ im
Ġan genommen
ĠSt ory
Ã¼n der
Ġat tend
20 20
fol gen
gesch windigkeit
Ġ189 3
Ġav oid
ĠSchiff s
plat ten
M en
ra p
ĠAn im
we ich
Ã¼n den
me er
ĠMit gliedern
Ġbes etzt
ĠGesch le
ĠNational mannschaft
Ġpaint ing
Ġmeas ure
Ġsoc iety
A cc
g red
Ġt rifft
Ġb urn
ĠD ark
ĠK ent
ab geordneter
ow itsch
Ġsch rif
Ġsch reibt
Ġ18 60
Ġvor aus
stell ig
Pro zent
" )
u i
or ia
ĠM ailand
ĠL ein
Ġal though
Ġver geben
Ġsh own
Ġad ult
Ġletz ter
ĠursprÃ¼n glichen
Ġruss ischer
bie ter
Ġfant astic
ĠNomin ierung
Ġorganiz ations
F rom
G o
M art
l ight
n oten
Ġg ather
ĠJ ar
ess ions
Ġj ournal
ĠSe le
Ġsh ot
zeich nen
ĠViel zahl
ĠbestÃ¤t igt
ur o
ĠB ier
ĠSch aden
Ġcon stant
Ġ5 6
ĠKl im
Ã³ w
ĠWahl kreis
J ose
c onstants
le ute
om y
ĠW y
ĠR un
la ted
Ġse eing
iss es
Ġdar aus
Ġerw orben
Ġlov ely
ĠgegrÃ¼n dete
ĠChin ese
it ors
ĠB iele
ĠSt imme
lie f
Ġste ps
Ġtr ust
Ġverb rachte
Ġbu ying
F B
l Ã¶
Ġa wesome
st ift
Ġc ategory
Ġver hindern
Ġ5 4
ĠKon stant
app y
Ġaufge fÃ¼hrt
ĠInn ov
mod ell
ĠSym bol
ĠOh io
Ġrelev ant
L eb
z esse
ĠW en
ad ing
Ġ8 5
Ġapp l
Ġinter act
Ã¤nder te
Ġpl astic
prÃ¼ fung
ĠWag ner
Ġwebs ites
k Ã¶nig
in us
ber icht
ran e
ĠEin richtungen
je kts
ĠSchw ier
Ġ188 9
gra de
ĠGi ov
a ktionen
ĠB Ã¼r
art ig
sen s
Ġersch einen
ĠDort mund
Ġallow ed
Ehemal ige
ĠIn sp
Ġspiel ten
199 5
Te am
. ).
R uss
U L
ic ans
ipp er
ĠStud ie
Ġbesch Ã¤d
199 4
ĠGraf schaft
H inter
N or
Ġw under
ing ham
ĠP fe
ĠLe arn
ĠGr Ã¼ndungs
ĠEnt wurf
Ġpat ient
Ã¤mp fe
Ġkon zentr
Ġautomat isch
c z
m ack
Â ½
an ie
ĠM ail
Ġh aven
ers te
os h
ĠAug sburg
ĠOb last
C ol
H ere
d el
g s
g reif
ĠT ob
ĠK il
ĠE qu
ĠE arth
Ġre asons
trag ung
Ġ189 4
ĠTod ay
Ġhim self
ĠAmts zeit
ĠRost ock
Ġa p
Ġt ag
ĠA ar
st one
ĠK un
ĠK affe
ĠMet rop
199 2
Ġsex ual
produ zent
ĠGesund heits
Ġ ĠĊ
Ġ ðŁ
Ġd aughter
ĠB Ã¶r
ier end
ug os
ran che
Ġwel chem
ĠCl ick
Ġâ Ī
Ġcover ed
Ġverst orben
Ġparticular ly
Ġhig hl
Ġprim ary
H ome
re me
Ġro b
gesch oss
Ġlo an
RÃ¶m isch
J ahre
Ġs up
ĠI ran
ul in
ann ed
teil te
Ġres erv
Ġexper iences
ĠFahr t
Ġdre am
J apan
] .
ĠB ath
ĠL ag
Ġr at
Ġex tern
akt oren
Ġjapan ischen
ĠArr ondiss
om it
ĠJ ersey
ru pt
ĠBe at
Ġsh all
ĠBÃ¼ hne
ĠIhre m
Ġmult i
Ġverst arb
ĠDenkmal schutz
schlÃ¤ ge
c omp
er ien
Ġt ransp
re gel
ĠT i
ĠTh ank
ĠHol lywood
Con tent
vier tel
Ġbehand elt
Date i
w irtschafts
ĠM P
Ġp assen
Ġer mittelt
Ġauf gestellt
Ġ18 50
ĠSyn ag
ĠGleich zeitig
Ġstat us
ĠpreuÃŁ ischen
M aler
al i
st Ã¤nden
Ġr ent
Ġman age
ĠWe il
ĠAm ateur
Ġdo ors
ĠMa jor
Ġ189 2
ĠBesch Ã¤ft
ĠNeust adt
" :
S I
S pieler
r ia
Ġk new
eb urg
ĠSch ott
ess in
ĠOr ten
dem okrat
Ġbegann en
wor th
Ġpres ident
ĠpersÃ¶n lichen
Ġerr ichtete
Ġsus p
ro h
ĠG Ã¼
ĠC os
os low
ĠAn lagen
ste uer
ĠCh ief
ph y
fol genden
Ġdis k
ĠVerein igung
ĠPat rick
Ġinvest ig
Ġzie hen
ĠBrasil ien
Ġnumer ous
k Ã¼ste
an bul
is her
ĠS ens
ĠC lin
iv a
Ġsp anischen
ip end
ĠGra z
ĠBundes ver
ĠKomp osition
Ġbesonder en
Ġwicht igen
arte i
ĠKÃ¼ che
Ġwissenschaft lichen
ĠSeb astian
v as
Ġs hel
Ġb itte
Ġc it
ild es
alen der
ĠÅ ł
k op
Ã ¯
Ġk os
Ġdes k
ĠAn wesen
ack er
Ġnot ice
In sel
ograph ic
Ġra p
Ġsong s
ĠAutob ahn
z z
Ð ´
Ġw al
Ã¼ ch
ĠK alk
Ġper man
ĠMÃ¼n chner
ĠEpis oden
c raft
l ach
l ife
ĠW atch
ĠN un
op her
Ġam t
Ġsel ber
ĠTra um
ĠNieder lage
ĠKant ons
ĠSyn chron
Ġlim it
P e
v ens
sch uld
Ġsp rechen
Ġcon vers
gel s
Ġlook ed
ĠCon ference
Ġfre ien
legen heit
ĠWei ÃŁen
Ġconne ct
far ben
Ġpromov iert
mÃ¶glichkeit en
ĠBronz emed
P aul
m ess
n i
Ġs now
or ient
ĠD C
ĠP ur
ĠT yr
Ġwh ose
Be im
Ġcommun ication
ĠDis c
S he
b ody
ĠP ot
ut ch
Ġun gefÃ¤hr
ĠAn trag
qu er
iz er
In ternational
ĠWe ber
ĠPlan ung
Mus iker
ĠJes u
f ir
st reit
ir urg
ach te
Ġaus ger
Ġaus reich
Ġsh aring
ĠSte ve
ĠInd ivid
Ġbesch lossen
ĠKn ochen
Ġser ver
Wh ile
Ġtalk ing
ĠJos Ã©
A pril
D DR
W el
z ens
te am
ĠP el
ĠT ower
am o
Ã¶ gel
Ġpro ud
Ġ5 7
ĠFl Ã¤chen
ism ar
ron en
Ġsec ret
Ġexc ited
ĠlÃ¤ uft
Ġitalien ische
ĠInstitut s
Ġdist ance
ĠVerÃ¶ffentlich ungen
Ġep is
w ater
z unehmen
Ġt ree
as tern
ĠT u
sch le
ĠJ ava
esch oss
ib e
Ġbef Ã¶rdert
Ġwissenschaft liche
m aschine
Ġb ought
el ess
ĠF Ã¼nf
ĠZ ul
Ġver urs
Ġen det
ĠAus gang
Ġbr asilian
Ġspe zial
ĠkÃ¶nn ten
Ġexpl ore
Ġn am
ĠO der
pp ing
ant in
Ġus w
cl ub
Ġsc en
ĠspÃ¤ter e
Ġpl enty
ĠMark et
199 1
Ġdevelop ing
Ġbig gest
ĠKÃ¼n ste
t al
w ord
and o
ĠG ab
ĠW ales
ĠC apt
ass ung
ĠWe ek
Ġber Ã¼cksicht
iqu id
Ġ188 8
ĠÃĦ gyp
Ġgest altet
Ġport ugies
Ġve get
ĠKard inal
F amilie
k u
k ommand
v ard
Ġd rop
ĠW Ã¼r
ĠV inc
ab len
Ġ18 74
ĠGesch windigkeit
Ã¨ s
N atur
b ein
ch o
Ġs elling
Ġm ut
ĠD Ã¤nemark
Ġre ag
ies s
men ten
ob el
erk ennung
ĠGen e
ĠAnd roid
bes itzer
Ġact ual
Ġexper ts
herr schaft
ĠzusÃ¤tz liche
ĠerÃ¶ff nete
Ġumfass te
g roÃŁ
Î ¹
on line
ol ar
Ġc atch
sch icht
Ġr ules
ĠEin en
St affel
lex ikon
ĠRestaur ant
ĠGlo cken
ĠZent imeter
men d
ind ungs
tet t
ĠMar burg
Ġass ign
199 3
Ġart ists
Ġgre ater
: .
M Ã¤rz
Ġt ruck
Ġf ahren
Ġh alb
all iga
th aus
auf trag
Ġ189 1
Ġpol y
ĠBot schafter
ĠTw itter
h Ã¼ter
m ans
is burg
Ġm icro
ĠG att
ĠGe werk
ĠAir port
Ġvert rat
ĠGal ax
Ġzie ht
Ġneigh bor
strahl ung
K inder
w ith
Ġ Ã¶rt
und et
Ġm einen
ĠM u
ĠN ation
os ing
ĠAn gabe
ĠPro jekte
ack en
gest altung
Ġpropert ies
Ġsozial e
kap elle
ĠBestand teil
Ġverur teilt
V A
l ation
v ollen
ie ht
Ġt on
Ġs ter
Ġb illion
ĠB rie
ĠM oh
geb irge
aut hor
ipp s
ester day
ĠAnt wort
Dies er
U p
ĠK Ã¶r
ĠL ock
os ite
gr Ã¤
ĠFl Ã¼cht
zeit schrift
ace ae
ĠGesch ichts
Ġsol chen
med izin
Ġlar ger
ctic ut
Ġattem pt
ĠUnabhÃ¤ng igkeit
F il
is p
Ġc alls
ord an
ac ter
Ġdr amat
ĠMark us
Ġtop ic
prÃ¤ senz
iller ie
besch reibung
Ġcompet ition
C o
F ol
K an
R S
j amin
un es
Ġb aute
el ine
ol ph
ĠSt ill
ik as
ĠBe aut
Ġsh ower
oun ter
Ġcould n
abr Ã¼ck
Schwei z
Ġappropr iate
M B
M ag
r us
or gt
Ġl iber
schaf fen
ret ung
fahr zeug
Ġget Ã¶
ĠSte phen
uz z
Ġsm ooth
Ġvol unte
Ġcrit ical
p ool
v inz
in u
Ġp ull
Ġn ennt
ĠZ oll
ger y
inz ip
fen se
Ġgr unds
ĠBi ograph
ĠGed enk
Ġruss ische
ĠNetz werk
ĠjÃ¼n g
p ra
s ite
w ich
an ia
on us
re te
ĠB ade
ĠM Ã¼hl
ĠL isten
ĠVer st
Ġes c
Ġman ager
ĠGu ide
ĠCor poration
fa ult
Ġeconom y
Ġprof ile
Ð ¼
ĠH Ã¶ch
gesch lecht
ĠKl osters
ins on
Ġsc ene
Ġbelie bt
ĠPo int
J ohn
n abrÃ¼ck
ĠT y
est and
rÃ¤ cht
ĠPr ix
ĠUnivers itÃ¤ten
ĠWelt meisterschaften
sh ire
Ġhelp ed
Ġdort igen
Ġeff orts
Ġ186 6
sw ald
ĠHil fs
Ġpriv aten
Ġcop y
Ġmaint ain
P lease
ĠP ie
ĠW ord
ic z
ach ed
ĠN C
ste ig
ĠSec ret
Ġunbek annt
Ġverpflich tet
ĠErÃ¶ff nung
ĠS A
Ġthe me
ĠF ur
alt y
aw n
iden z
Ġgener ally
O G
ĠB in
ĠP ont
ĠK abin
Ġe arth
ĠAn f
ste ine
Ġsc ore
ĠNor wegen
legen heiten
Ġcor ner
Ġbestehen den
ĠTay lor
E B
S ee
ĠB em
ĠB enn
ĠB arn
Ġv en
ĠM inder
Ġn annte
ĠK ost
Ġl auf
ĠHe er
Ġ9 9
Ġrequ ires
jahr es
Ġfav our
ĠImm obil
ĠEns emble
Ä Ł
re ht
ist ance
ĠO ze
hen den
Ġ9 5
Ġ7 2
bau te
ma jor
ĠFahr er
Ġ188 1
Ġfollow ed
hoch schule
e g
h as
us alem
ver teid
ĠÃ¼ber sch
Ġ5 8
Ġacc ur
Ġbr ings
ĠCon gress
ĠRu hr
Ph one
Ġop in
Ġchallen ges
ĠSpring er
hers teller
Sep tember
B uch
in stitut
ĠB am
ol er
ĠEr ic
Ġpo or
Ġinc ome
ĠAlb recht
Ġheraus gegeben
Ġoper ations
usÃ¤tz lich
ĠFÃ¼hr er
Ġbein hal
B en
T L
Ġf ear
Ã¼ mm
ĠZ o
ĠIn halte
ĠAl te
bo den
Ġgleich e
ĠCo ast
ĠWerk en
Ġeinge tragen
ĠWar en
ĠĠĠĠĠĠĠĠ ĠĠĠĠĠĠĠĠ
ĠInfanter ie
Ġapprox imately
A kt
E W
h Ã¤ndler
ĠB alk
Ã¤ fte
ter m
ĠF els
Ġc ivil
Ġc overs
sch uhe
ĠL yr
ĠN ationen
Ġon to
ap est
ĠHerr n
ĠMehr heit
gebie ten
M at
c ause
Ġw ire
Ġver Ã¤ndert
Ġfor ce
Ġent schieden
ile y
Ġrem ain
mÃ¤ÃŁ igen
ĠSpre cher
Ġadvant age
an th
ĠK la
Ġc ities
ĠC anad
Ġan zu
Ġe ight
yste men
ĠBes etzung
ĠHo tels
stre cken
ĠGemein der
ĠNiederland e
O W
r ingen
ĠP ad
âĢ ¢
Ġver teid
ip es
ph ase
Ġte en
ĠKÃ¼ ste
Ġmain tenance
Ġcele bra
ĠPenn sylvania
Zw ischen
Ġafford able
a tely
ĠT rom
ow e
Ġde als
ak u
Ġab gesch
Ġfe aturing
ĠKl ima
Ġsl ight
Ġbisher igen
ĠBach elor
Ġwa iting
Ġteach ers
Ġadmin istrat
icien cy
m i
w Ã¤hnung
or um
ĠS auer
Ġein iger
ĠT ake
ĠV it
ĠLe wis
che ck
lo ok
ĠHe ktar
br Ã¼
Ã¤ch er
Sie g
Ġfact ors
Ġorganis iert
Frank reich
Ġsicht bar
B B
g un
} ,
Ġin gred
Ã¤n k
ĠLe ute
fe ct
ĠBes ter
ĠWil son
part ments
Land kreis
Par ameter
ĠProt est
ĠColumb ia
s ein
Ñ ĭ
ĠS ince
as is
ĠG il
ĠV ill
au ert
Ġr u
Ġle aders
ges ell
ĠÃ¤lt esten
Ġoffiziel len
i ben
Ġd ish
Ġin dependent
Ġm ail
ĠD og
ĠSp itz
Ġsch uf
me ter
St iftung
ingen ieur
ĠPh ase
ĠBundes wehr
ĠHam mer
ĠPl Ã¤tze
Ġshow ing
ĠOl denburg
Ġpay ment
Ġwind ows
ĠGÃ¼n ter
ĠThÃ¼r ingen
f un
l iteratur
ĠT rieb
am ts
im it
ĠH alt
ĠR ie
ĠSch uld
ĠÃ¼ber setzt
ĠGem Ã¤lde
gesch Ã¤ft
stra ÃŁen
Ġfl u
ĠBen edikt
Ġgren zt
e ck
k ar
ĠB ou
ĠB io
Ġ18 00
Ġ6 2
formation en
Ġrem ove
Ġvis ual
wor fen
ĠZe hn
ĠGed ichte
N ow
ĠG oth
sch irm
Ġst ick
ĠVer zeichnis
sp ann
ĠOr den
lass ung
Ġdr ug
ape ut
bed ingt
Ã¢ teau
Ġcompar ed
f alt
Ġg one
rit ts
Ġqu arter
ĠBo gen
ĠYou Tube
ĠCo ver
ĠLÃ¼ beck
ĠLÃ¶ wen
ĠerhÃ¤lt lich
W ill
ĠM etz
ĠP in
ĠE arl
Ġan aly
ow o
ĠVer fassung
ind ing
ĠBe fehl
Ã¶r g
Ġ6 8
Er gebnisse
ĠMod elle
jahr en
ĠInform ations
ĠerhÃ¶ ht
ĠEntfern ung
K Ã¶nig
d atum
g ot
Ġ </
al o
us k
ĠD ollar
ĠVer eine
Ġvor gestellt
Ġ5 9
lan k
Ġgr und
ĠBo ot
ĠTra g
Te il
Ġsur pr
ĠVerm Ã¶gen
Ġrom ant
Ġindustr ial
n itten
es a
Ġw rote
ar ks
Ġz Ã¤hlte
ach s
Ġge Ã¤ndert
ia c
ĠNe ur
rat ing
Ġgen ug
ock en
Th at
Ġaut om
ĠMill iar
ĠTem pel
ĠAkt ien
ĠPfar rei
m aschinen
ĠM ang
ĠJ Ã¼d
Ġge tragen
uch er
Ġde partment
ĠAl ters
Ġent lassen
ring t
Ġschwed ischen
Leb ens
im ir
ĠR app
ĠZ iele
Ġ8 8
Ġkann st
ĠMot iv
Ġmittler en
Ġcompre hens
m ord
p ot
ĠG ot
ĠI ts
ĠR ober
Ġbe coming
Ġzu k
sp ur
Ġres idents
ĠChr isten
Ġverb oten
ĠMich igan
sw ers
ĠFot ograf
ĠFel ix
ĠPhys ik
Ġsepar ate
t own
ĠT ut
ĠL och
ĠSch uhe
Ġum ge
Ġen able
irt y
ĠEurop as
Ġgeboren e
ĠH Ã¤
ĠC H
Ġk g
ow ers
id den
Ġqu e
Ġgu ests
ĠMag n
ĠNutz er
ĠjÃ¼d ische
Ġzentr alen
ĠArrondiss ement
w Ã¼rd
ar o
sp art
ĠCh am
198 9
ĠBern d
ĠBro ad
Film titel
ĠEnts tehung
ĠVen edig
k as
t y
Ġv ision
ĠK redit
ĠL ed
Ġbe ant
Ġver f
ly n
ĠMe chan
Ġbest anden
ĠFre izeit
ĠGo vernment
Ġinc or
fre ie
Ġnational e
Ġstor es
Ġcomb ination
Ġgelegen e
Ġveh icles
ĠHir sch
Ġlern te
L A
P al
or fer
al and
ĠB le
el be
Ġp or
lie gt
ĠPro pert
Ġtechn ischen
ĠSchn ell
ĠEing abe
CD U
ĠhÃ¶her en
Ġerforder lich
p her
ĠD ial
ĠU se
Ġse at
Ġ18 79
Ġcon temporary
Ġhier bei
Film schauspieler
gestell te
ĠKommand o
zust and
E FA
h ops
r ale
ch a
Ġa rab
Ġein deut
au c
ĠVer wand
we ight
Ġle gend
ĠGe fahr
old ing
opp elt
Ġval ues
ĠTer r
sprÃ¼n glich
Ġkeep ing
Ġrep rÃ¤sent
Ġkomp lex
ĠOper ation
ĠprÃ¤sent iert
al led
ĠP ic
ĠV og
ĠEin t
Ġor th
ĠBr uch
ĠGroÃŁ teil
por ts
ĠAnt i
ĠRo om
ĠSen at
Ġexist ieren
ĠSam stag
Ġzuf olge
S E
z ellen
z usch
un ting
ĠP seud
ĠG ipfel
ut re
ĠW Ã¼rttemberg
ĠL ange
Ġtra ffic
ĠPre ise
ĠHel m
Ġtro ub
ĠAre a
Ġprot est
M o
w riter
Â ³
Ġd inner
ĠR ac
Ġl ab
Ġar en
Ġverw and
Ġdr iver
ĠWh y
Ġmin ute
ĠEis hockeyspieler
best and
Ġspeziel l
or o
Ġp air
ĠF ull
isch t
ĠL ike
Ġer l
iel len
iz ont
Ġvor wiegend
ges prochen
Ġman ual
ĠAus bau
Ġpr incip
igt es
ĠKl ub
Ġcommun ities
Ġengl ische
Ġzeit weise
ĠSec ond
ĠMein ung
Ġfig ure
ĠtÃ¤ glich
ĠverfÃ¼g bar
Ġwechs eln
O ktober
Ġd ou
Ġf le
ĠH aw
ĠR ess
Ġk Ã¤mp
ĠAn at
Ġde te
Ġrec ords
Ġcol our
Ġsex y
Ġbeh aup
lehn t
P at
st um
Ġthe oret
Ġh ast
ĠH T
Ã¤r n
ĠFran Ã§
ĠGroÃŁ herzog
Ġstatt finden
Ġeduc ational
Ġneg ative
resp ond
M ai
b il
ĠB uck
ĠF an
ĠW end
ag on
gr Ã¶ÃŁe
auf t
alt ar
St re
Ġbek ommt
ĠVerb reitung
arch ie
Ġchar akter
ĠKup fer
ie ten
Ġt aste
ot ic
Ġ18 73
ĠIm age
ĠPf ad
ĠKreis es
Ġzeit genÃ¶ss
Ġleit et
Ġ1 15
Ġp latz
ĠK itchen
ed om
ill es
sp ekt
ĠÃ¼ber nehmen
mal en
ĠSe hen
amp s
Ã¡ s
Ġ188 4
ĠsÃ¼d westlich
ĠMaterial ien
ĠErk rank
ĠKrank heit
J ust
j u
at ische
st ritten
Ġh off
ĠC ob
ist ant
abr iel
ĠTem plate
ĠGef Ã¤ngnis
ĠunabhÃ¤ng ig
H alb
M Ã¼n
b Ã¼t
d arsteller
l ik
er b
Ġa fr
ĠB R
ĠV f
Ġ18 75
ok er
elt a
ĠNe ck
Ġvisit ors
Ġcor porate
ĠMil ch
Ġconne cted
ĠKan al
ĠVerÃ¤nder ungen
erc ise
ĠWeib chen
Ġt ask
Ġs in
ĠG un
ĠC ann
Ġdes igner
Ġge legentlich
ak et
ĠOr th
ĠAd ler
Ġra in
ĠAll en
Ġ188 7
Ġabsol utely
On line
ĠGesprÃ¤ ch
ĠGiov anni
b indung
c or
ĠM ut
ĠVer w
Ġ18 78
ĠAl ph
ĠAr gentin
ĠNach wuchs
Ġges te
unter richt
ĠRo hr
Ġpop ulation
Ġnord Ã¶stlich
Ġrun s
ĠGest alt
ĠVert rieb
ĠFass ung
ĠÃĦnder ungen
m ischen
Ñ Į
em an
Ã¶ tt
Ġer gibt
uss y
ĠEinwohner zahl
ĠKais ers
Ġoper ating
ĠSouth ern
b ut
o ir
ch nen
Ġf la
ĠE mer
Ġc art
ic us
ĠN az
Ġk irch
ĠIn g
Ġ6 6
ĠPf alz
ĠBen jamin
weis ung
Ġtre ten
ĠFrei herr
kn own
bro chen
ĠBrun o
ĠKonstant in
Z e
r ical
Ġt rop
Ġs inn
ach ter
Ġre ality
ĠSp Ã¤t
Ã¶r dern
ph ia
Ġeigen er
ĠgrÃ¶ÃŁ er
bÃ¼rger meister
ĠAbgeord neter
Wer degang
ĠBronzemed aille
- /
C C
l enz
â Ħ
ĠD ick
Ġp ul
ĠP ul
ĠE xt
me te
Ġ6 3
ĠMus ter
Ġange zeigt
ĠfÃ¼nf ten
Ġmov ement
ĠEngine ering
ĠgetÃ¶ tet
g Ã¤
it age
Ġs it
ĠG rupp
ĠO R
Ġr ide
ert al
ĠBr ust
Ġpla ced
ĠVerb esser
198 0
ĠniederlÃ¤nd ischer
ĠNiederland en
ĠKonfl ikt
Ġbirth day
E X
d ar
e f
k ind
Ġd oll
ĠA z
Ġbes etz
ĠBr ut
Ġper haps
ĠOn ce
Ġmem ory
ĠPfer de
Ġsatis f
Ġdeta iled
c les
i ors
Ġp ush
am ar
ĠN ag
fe uer
ĠMin i
ĠAs ia
ĠDes halb
ĠUr ban
Ġtrans form
Ġheil igen
Erster wÃ¤hnung
Ġv s
ĠSt ich
Ġse ctor
ant on
Ġsh ipping
Ġad just
ĠFor est
ĠAll gemeinen
Ġopt ional
Ġcover age
Ġpract ices
ĠBur gen
Ġhinz uge
Ġfil led
Ġlux ury
Ġs ample
ol t
ĠG U
Ġc row
Ġz ul
ĠH ong
ic ians
ĠBe hÃ¶rden
pro jekt
Ġoff izielle
ĠHand werk
ĠÂ ·
Ar beit
ÃŃ o
ĠOs nabrÃ¼ck
BevÃ¶lker ungs
E m
J Ã¤hr
n or
n ern
ĠM aus
ig ration
ĠF ield
ĠW art
um ps
ĠSch ei
Ã¼n de
Ġte acher
ĠUnter schied
ĠFor ts
fahr ts
arb on
jÃ¤hr iger
ĠKol onial
Ġcent re
Ġenvironment al
Ġlau tet
H T
g ard
h ou
r un
y ard
Ġf ederal
ĠA x
ĠF our
ĠF ox
Ġbe we
Ġver anst
od a
Ġpo et
Ġklein es
forder t
ĠGar den
ĠIl linois
Ġprepar ed
ĠGriechen land
t w
ĠF ore
em burg
ĠL ichten
ĠV ul
Ġre ference
Ġ18 72
Ã¶r ungen
ĠGer Ã¤te
Ã¼t ten
uc le
ĠReich es
Ġverl Ã¤ng
mÃ¤ÃŁ ige
ĠJapan ese
ĠPerform ance
rÃ¼st ung
Ê ¿
Ġm ort
ĠK h
Ġan lÃ¤sslich
ĠO m
ĠO ster
Ġr ub
ap elle
ĠSe g
Ġfo otball
Ġknow s
ĠSen der
ĠDrehbuch autor
S pe
Ġein s
ĠF a
ĠH als
ma ÃŁen
Ġda ÃŁ
Ġ188 2
Ġ188 6
Ġtrat en
wor ten
ĠKo ordin
y ers
ĠD ating
Ġc ultural
be hÃ¶rde
Ġbeg leitet
ĠGemeinde gebiet
Ġart icles
Ġplan ts
ĠAlt stadt
Ġopen ed
ĠEth n
ĠPac ific
n g
v i
Ï Ħ
es ota
Ġh Ã¶ren
ĠC EO
ik te
ĠAn alyse
ĠVer n
aus bildung
ĠGe gend
reis en
Ġapp ar
Ġviel fÃ¤lt
ĠBra un
Ġfac ility
Ġdist in
seit ig
w ish
x x
Ġd ank
ĠG ouverneur
ow ohl
Ġver ab
och em
Ġse a
rit tel
ĠJu an
ĠRes erv
Ġfre m
Ġerreich ten
ĠPort rÃ¤t
Ġlo ans
Ġ186 7
ĠDorf es
Ġeinfach e
ĠSchn itt
Ġengine ering
ĠIst anbul
adel phia
ĠOrganis ationen
ĠRumÃ¤n ien
Ġurkund lich
T od
s Ã¤tze
im inal
ust on
ap es
Ġle ider
iz ierte
Ġex change
ĠHe y
ĠBr ian
ĠPar ad
pf ul
ĠOber flÃ¤che
des ign
ĠAng st
i ang
Â ´
Ġm ilitary
Ġp m
ĠH at
Ġg rat
ĠC ert
ĠEr ster
ens is
ĠLe o
Ġapp e
ĠMill er
198 8
ĠSec urity
å ¤
er ie
ĠL yn
Ġg ain
ĠV iz
ĠSt unde
ĠSe ele
ĠFor mat
zeich neten
ĠKr one
Ch ar
Ġsw itch
Ġmein em
H am
g ow
m ach
ĠA sh
ĠT ot
ĠF ans
gen ossen
Ġver gangenen
ive au
lo aded
ĠTr ier
Ġdire ction
Ġaut o
fre und
Ġwatch ing
ĠJer usalem
l ein
w ird
Ġf uhr
âĢ ¯
ĠL inz
out s
oh ol
Ġserv ing
ĠFe hl
ĠHerr scher
Ġcap acity
Ġschl ug
Ġwirtschaft lichen
Ã¤dagog ik
L auf
ĠH op
Ġan gem
ĠAn gebote
our i
art ier
19 18
Ġdis app
ĠHand lung
Ġlaw s
Ġnord westlich
Ġpan el
Ġcontra ct
ĠQue en
Ġlok alen
ĠSpielt ag
G et
M otor
v et
Ġm Ã¶glichen
ĠB Ã¼nd
ĠG or
Ġis rael
ĠEr richtung
Ġ3 000
Ge ografie
Ġgef ert
Ġbef anden
Ġcre am
athol ic
ĠDo ktor
ĠDis ziplin
haupt stadt
Ð¾Ð ²
ĠVictor ia
ĠNikol aus
Ġcompon ents
ĠS z
ĠK em
ĠSch ild
Ġde ck
Ġsch lecht
pr int
ĠFor der
ĠUm bau
ĠAut hor
Ġloc ations
ĠDem oc
Ġdefin iert
B ay
k w
is or
ĠD ich
ĠN avy
ĠJ ens
ĠAn forderungen
ac ts
Ġgeb lieben
Ġbef ind
ĠsÃ¼d Ã¶stlich
Ġclos ed
fÃ¶rm ig
ĠpreuÃŁ ischer
Ġsqu are
Gen eral
Ġseek ing
ĠVarian te
b ist
i ak
k olle
ĠR he
ĠN at
Ġk id
Ġst yl
ĠRe kord
Ġwir ken
ĠCh ile
ĠFre der
Ġra ised
ĠLin den
Ġklein eren
Ġans Ã¤ss
Ġwalk ing
âĦ ¢
us se
ĠB urn
Ġc ore
ĠVer fassungs
qu elle
ĠUn fall
ĠSe arch
utz ung
ĠGem einsam
vers orgung
ĠAmer ika
Ġ: )
Ġpass ed
ĠSchwar zen
ĠItal ian
Nov ember
Ġs ustain
Ġf inn
ĠK oll
ab end
Ġy outh
ger Ã¤t
sen der
ĠBr idge
Ġakt iven
Ġval id
Ġ186 8
Ġasp ects
mir al
l ust
n ight
È Ļ
en te
en hagen
Ġd ance
Ġm arr
ĠB alt
ĠP iet
ĠG Ã¶r
ic i
ĠC er
auf nahmen
lan ge
ĠGrund lagen
Ġteil nehmen
ĠKn ow
ĠGeorg ia
ĠBro ok
ĠSa tell
ĠStraÃŁen bahn
Ġhappen ed
Ġpark ing
Fried rich
Ġbenachbar ten
Ġm ist
ĠM i
ĠW ik
Ġan fangs
The y
Ġco ach
ĠSk ulpt
Ġ188 3
Ġstar ts
Ġmass ive
Ġverste hen
ĠOrch estra
K unst
o ted
re uth
Ġin nen
ĠK ok
ĠH aupts
ĠR ats
Ġge legt
Ġr ing
imm ungen
ĠUm setzung
ĠSc ot
Ġeinfach en
ĠRechts anwalt
Ġoper ation
ĠNaturschutz gebiet
Ġanim als
ĠConne cticut
/ >
n s
Ġd okument
Ġa u
al om
ĠE ro
Ġauf treten
lie hen
ungs gebiet
19 33
... ]
ĠFre ist
Ġcont ain
Ġbr ands
Ġmed ium
Ġspe ak
verb indung
Ġcabin et
ĠBiele feld
Ġ iron
Ġin dex
sch wer
av or
ru d
Ġch amp
Ġgen annte
Ġvers etzt
Ġfl ight
Ġpost s
Ġimport ance
ĠDÃ¶r fer
tl ere
ĠZun Ã¤chst
R ock
W as
ĠA cker
ĠD iam
Ġk ombin
lich em
ab ilities
ĠSch reib
19 76
ens us
Ġ7 00
ĠWelt meister
int age
umm ern
Ġfocus ed
ĠstÃ¤r ker
ĠRena issance
D ata
k B
Ġb rief
de p
ĠG allery
Ġl ose
ul ations
ĠÃ¼ber w
âĢľ -
ĠEn ter
Ġmehr erer
Ġet hn
ĠPat ri
ĠTer ror
ĠKo operation
Ġenjoy ed
Ġvorhanden en
Ġpromov ierte
W ien
g i
v ia
ĠW itten
Ġl ernen
ĠAl ben
lie ger
Ġch anging
ĠGe werbe
ĠUm fang
ĠEl iz
ĠMeister schaften
Ġgl ob
Ã¶h ere
F est
K at
o ÃŁen
p ie
ĠS endung
ur ger
Ġf ot
ger Ã¤te
Ġle ather
Ġqu er
Ġph il
Ġerh Ã¶h
ĠSk la
ĠNieder Ã¶sterreich
ĠRuss ian
gebie ts
Ġdamal ige
BevÃ¶lkerungs entwicklung
Ġ ×
Ġin stitut
ĠP ict
Ġl ibrary
Ġle hn
ĠAr g
Ġ6 1
br unnen
En de
ĠDi Ã¶z
Ġbestehen de
Ġupd ated
Ġkor re
Ġacadem ic
Ġc ir
Ġg ay
ĠJ ag
ĠSt ark
sp latz
Ġsp ect
19 39
ss ystem
Ġhand elte
ĠKap itel
Ġjoin ed
leb nis
ĠViet nam
M ain
n ieder
Ġa udio
Ġs orgen
ĠS or
Ġst one
ver treter
og ie
Ġne ut
Ġwas te
Ġar m
Ã¡ r
Ġpol ic
Ġcolle ct
dienst kreuz
ĠEben so
itar re
ĠRog er
Fra uen
B M
R oman
e per
Ġc e
ad ow
ĠBr Ã¼cken
zw ei
unkt ions
Ġvisit ing
Ġzwe ier
ĠCharl otte
Ġmention ed
P la
P lan
an teil
an alyse
Ġb rown
ĠK ohl
ĠL eder
ĠSch au
Ġsch Ã¶ne
be zeichnung
ĠAuf ruf
Sch ule
Ġspec ies
Ġinst ant
ĠDire kt
Welt meisterschaften
Komp onist
Ġd ipl
ĠT ai
ĠW Ã¤r
ĠSt u
ĠU RL
ĠRe aktion
se y
rit ing
Ġgew Ã¼n
ĠkÃ¶n ig
Ġpre c
Ġbra in
ĠGeschÃ¤fts fÃ¼hrer
Ġdiscuss ion
Ġkont roll
Ġaud ience
ĠBres lau
ĠPots dam
O K
Ġb ird
Ġan geschlossen
ul iert
Ġj o
Ġ18 77
auf nahme
St ar
Ġstud io
ĠTr in
kl ar
licher weise
vers icherung
ĠX X
schn itte
ĠGo ethe
Ġ186 4
Ġlearn ed
ĠGraf ik
ĠStad ion
ĠMex ico
zep te
ĠMilliar den
g ung
Ġd ein
Ġd Ã¼n
ie ck
Ġa th
ĠK G
uf er
lin s
Ġi Phone
Ġme x
ĠAus zeichnungen
ĠHe x
gesch Ã¼tz
ĠFr iend
Ġexper iment
met hode
Ġtradition ellen
ĠAutor in
ĠComm on
Ġhon est
ĠWehr macht
B re
o es
re es
as i
Ġun its
Ġdo ctor
ĠGem ark
hÃ¶r igkeit
Ã¤nger in
Ġsol cher
Ġpolit isch
Ġadd ing
Ġcour ses
ĠSing ap
is tern
Ġb auen
ĠF unk
ĠR ainer
ĠC ommer
ver lÃ¤ss
Ã¤t zt
Ġtr ial
ĠVerb indungen
ĠDaten schutz
ĠWohn haus
Ġbelie b
ĠKÃ¶l ner
ĠKur fÃ¼rst
lÃ¤nd ische
ĠMult ic
Disk ografie
ĠBege g
C A
o use
r isch
ĠM obil
ĠD inge
Ġh ieÃŁ
ĠW inkel
Ġer b
Ã¼r f
ien ne
ver lauf
od ie
ĠFre itag
Ġhin ein
ĠDar aufhin
Ġest im
Ġcontin ues
ĠKauf mann
ĠMass achusetts
Jan uar
Ġconven ient
profess or
ugos law
g in
in ten
Ġd iss
it iat
Ġb at
ĠD Ã¼r
Ġdie t
ut y
Ġk Ã¼nd
th iop
ap os
geb oren
ĠAb stand
Ġapp lied
Ġtechn ische
bereich e
Ġkathol ische
ĠSchlag zeug
Ġstellvertreten der
W ird
on om
ar ma
ĠS ummer
ĠD ance
ĠF abrik
Ġl abor
ĠInter pret
ĠOl iver
Ġaccess ories
ĠFle isch
Schwei zer
Ġnov el
ĠendgÃ¼lt ig
gesell schaften
A ustr
l u
v ideo
Ġa gency
Ġs ources
al ia
ĠB ah
ĠM ix
ĠD ynam
ĠP age
ĠZ auber
imm ing
ĠGrund stÃ¼ck
Ġsuit able
C up
S ome
b in
e ister
w eiten
ĠS ed
ĠB ir
ĠT auf
af fte
ass au
ĠOr igin
ĠBr Ã¼ssel
bau en
Un d
Ġcl imate
ĠIde as
Ġober halb
ĠDenn och
Ġbus y
ĠWhe ther
Ġreli able
cycl op
> ,
L iter
an gebot
Ġf rag
ĠM ans
ro d
ig i
be cken
rÃ¤ umen
amp e
fahr ten
Ġev idence
Ġag ree
Ġgu ess
ĠPla ce
Ġkanad ischer
T R
e ber
l s
ĠS zenen
ing ung
ei ro
ĠVer g
ĠAb d
rat or
Ġ7 6
Ġhel pful
anc er
Ġworld wide
ĠAuss age
Ġgener ation
Ġkur zer
Ġwes halb
Jahrhund erts
Ġzentr ale
Ġinspir ation
ĠProm otion
ynast ie
H Ã¶r
k ore
or p
ar film
ĠL ov
ĠSp aÃŁ
ĠVor bild
ren ce
ĠZu cker
Ġcoun ter
ĠBesonder s
ĠModer ne
ar ischer
ra ucht
ĠC ry
Ġdem onst
men ted
ĠBern ard
scheid ung
zir ke
ĠMathemat iker
ĠCast le
Ġexpert ise
ĠB uk
Ã¤ s
ĠK Ã¶
ik es
ad i
ĠSch Ã¼l
âĢľ ),
ĠSe en
ĠGeneral major
minister iums
ĠGebie ten
ĠStock holm
htt p
S m
g age
er d
Ġa st
ĠP R
ent wick
ĠSch all
our cen
Ġ18 76
ĠAus stattung
Ġerfolgreich en
ĠZus atz
H P
H el
M useum
c ore
Ġt ur
or ganis
ĠS zene
ur ies
Ġf f
Ġv ieler
ĠK Ã¼r
ĠAnt rieb
Ġ186 2
ĠMem orial
Ġdur fte
Ġverwende te
e ist
ï ¼
ĠF ast
Ġc arr
ic ian
Ã¶ he
Ġbr ight
opp ed
Ġsho es
Ġdec ide
Ġlang sam
ĠPort al
ĠTechn ischen
ĠSupp ort
ĠErweiter ung
d ies
ĠM ind
ĠF ab
ĠG ur
ĠVer stÃ¤nd
Ġwe isen
Ġunter gebracht
ob jekt
ĠUnter richt
Ġgo vern
ĠGra ph
ĠBl umen
anc en
ĠMittel punkt
ĠKap ital
Ġgewann en
Ġtre es
ĠP ut
ĠK rÃ¤
sch iffe
ber uf
ĠSt ore
Ġr umÃ¤n
Ġcomp la
Ġthere fore
Ġpract ical
ĠPass ag
Ġbevor zug
Ġcommit ted
ĠKapit Ã¤n
Ġabger issen
k orea
Ã ¦
on te
Ġs a
ĠM uss
sch ten
Ġan swers
Ġe legant
ĠSch mer
Ġwir kt
Ġum gebaut
Ġar range
Ġges ucht
Ġ186 1
Ġwrit er
ĠSm all
Ġoffen en
gesetz ten
Ġpack age
ĠMeer es
Ġsor gt
Ġein gew
ĠG au
Ġso unds
oh ne
ĠUm gang
ĠWar schau
ĠSa al
Ġlight ing
isc ons
ĠAth en
Ġdunk el
B rite
O V
P R
P ersÃ¶nlichkeiten
Ñ ĩ
ig ers
Ġn av
ĠH ang
ĠN R
Ġan sonsten
ĠAl p
Ġme ant
ĠTh ailand
ĠAb ra
ĠAus schuss
ĠIm per
lan ze
amt es
Ġwicht iger
druck t
Ġwei ÃŁen
Ġstrateg ies
Ġrecommen ded
Ġbal ance
I F
K W
Q L
in ent
st ate
Ġthe ory
ĠJ ungen
ĠIn stall
19 70
ĠSe a
ĠTh or
ĠMar io
ilit ation
Ge org
ĠSÃ¼d west
ĠSer ge
Ġval u
ĠWahl en
fre ien
Ġaff ect
ĠCanad ian
H ans
c op
ĠM esse
ĠL em
Ġunter scheidet
ĠLe h
Ġbes ucht
use ums
Ġ13 0
fÃ¼ llen
iges etzt
ĠKath arina
ĠNeuse eland
A V
S im
g han
Ġ ice
ar isch
Ġdie d
Ġ( ),
Ġge langen
Ġfor eign
Ġr uh
Ġall gemeinen
man uel
Ġbeste hend
ĠSil ver
ĠTre ffen
Ġmar ried
Ġdeter mine
ĠS W
he ber
le ts
ĠB ald
ĠM iddle
Ġ( "
Ġ( ;
ĠK linik
Ġc up
ĠV ikt
Ġis ol
Ġex amples
form at
ĠschlieÃŁ en
ĠColle ction
ĠEnerg y
jen igen
VerÃ¶ffentlich ungen
Jul i
B aden
f Ã¤llen
h ere
al ters
ĠB od
ĠM ember
ot ton
iz ens
Ġnot es
Ġar ts
Ġfe ierte
Ġapp oint
Ġgem ein
ĠGu ard
Ġtem plate
Ġthough ts
figur ation
Ġcele br
una tely
wechs elt
umin ium
ĠÄ Į
Ġregister ed
ĠSchlieÃŁ lich
Ġfabr ic
H i
T itel
W ei
h arm
j ahre
us es
ĠSp ark
berg s
Ġres ource
Ġ16 0
Ã¤ch te
Ġsur vey
Ġphot ography
ĠDav is
ĠEis hockey
Ph il
ĠpersÃ¶n lich
Ġauth ent
w inkel
he w
Ġh yp
Ġh Ã¶here
ĠH agen
ĠBe cause
ob s
wer tet
Ġwork ers
ĠEx ec
Ġfre uen
Ġend lich
198 6
ĠBel g
Ġ186 3
auch en
ĠSol o
Ġsearch ing
Ġtot ally
ĠAben teuer
ĠHÃ¶ch st
or ter
ĠM atch
ĠG abriel
Ġver hinder
Ġam b
Ġ18 40
tern oon
ĠMar s
ĠNor mal
Ġmost ly
ĠProdu zent
deutsch land
Ġelect ronic
gÃ¤n glich
c ard
h es
Ġs ister
re iter
ĠL ED
Ã¶ scht
ir ts
ĠIn schrift
ĠAn erkennung
ru gen
ens es
uer ei
Ġmark ets
Ġpers p
ĠlÃ¶ ste
Ġtemper ature
Ġbatter y
a wa
l ist
Ġa partment
Ġs at
he ater
Ġk ick
Ġ18 30
19 77
ĠAr k
Ã¼ck t
tra ck
ret ch
oun ted
Ġlie ÃŁen
Ġhin ten
Ġgel b
Or ts
198 5
ĠSam uel
Ġmiss ing
reu ung
B I
P G
W or
is emit
Ġw Ã¼n
Ġb au
ĠG itarr
ĠR E
ĠEin kommen
Ġzum eist
Ġpart ies
Ġacc ident
Ġerw artet
Ġgu est
Ġander es
ategor ies
ĠBischof s
Ġwid mete
Ġassist ance
Ġfertig gestellt
ĠKomment ar
telligen ce
c os
Ġf arb
ĠR av
Ġbe auftra
Ġl i
Ġk onst
ab ama
ĠU t
Ġst Ã¤rk
Ġwh atever
ust ic
ĠEin kauf
etz ungen
per iode
ose x
ĠPr ince
ĠMin ute
ĠPa der
ĠEv a
bra un
ĠHigh way
ĠDir igent
Ġausgew Ã¤hlt
ĠEreign isse
mosph Ã¤re
ĠergÃ¤n zt
ĠIntegr ation
Kirchen gebÃ¤ude
O p
k ons
w eiter
ĠT ool
ĠK el
ĠH ed
Ġdes ire
ĠSch ne
Ġun c
ĠAn lass
19 14
Ġum s
Ġad apt
ĠCar los
ced es
Ġfre ige
ĠBuch staben
Ġerrich ten
Pr iv
ĠExp edition
ĠPremier minister
D ur
re pr
le ide
ĠF A
ĠW arn
ĠR ÃŃo
ĠC it
Ġge le
ĠAl though
Ġ6 7
ute te
bar er
Ġexp ensive
ournal ist
Ġtest ing
ĠEt appe
Ġevangel ischen
ĠBul gar
Ġgrunds Ã¤tzlich
c s
r ian
it as
el det
ĠP as
ĠR au
ĠVer dienste
ib us
In nen
ett i
zeug ung
Pro gramm
ĠAss istent
198 7
Ġprocess es
Ġcomprehens ive
S en
b oy
b lock
ĠA D
ĠH ildes
ĠC laus
ik ing
ĠO S
ag ers
ĠChar ts
ĠRep rÃ¤sentanten
iam i
ĠTour ismus
Ġerm or
Ġstamm te
ĠBesatz ungs
ĠColor ado
Ġdisk ut
) -
A ss
Ġb Ã¼rger
us ted
ĠL uther
Ġaus fÃ¼hr
Ġde fe
sp iegel
iz za
ĠAb stieg
ĠNach folge
Ġgew eiht
Ã¶ff net
zw ungen
Ne u
ĠAuss tell
ĠNeu zeit
Ġern annte
Ġdeb Ã¼t
Ġstaat lichen
Ġadvert ising
or ff
ĠB ag
ro it
ĠG anz
Ġbe grÃ¼n
ĠSch icks
ack s
ĠBl Ã¤tter
Ġtr end
Ã¤nger ung
ĠBar ock
ĠMag azin
Ġgar ant
verein igung
Ġfa ith
ĠmilitÃ¤r ischen
lieder ung
Ġt ickets
ĠB och
ĠM obile
Ġh ook
ĠW ars
um es
ĠC A
Ġbe comes
ĠZ er
Ġj ava
ĠThe ir
Ġ18 15
Ġex ercise
Ġch airs
Ġvor der
Ã© d
Ġob vious
stud ium
ĠBesatz ung
ĠTschech ien
Ġincreas ing
R ed
Ġa ware
Ġin tegra
ĠA ccess
Ġp urs
ĠK ino
ĠN on
Ġst Ã¤ndig
ip edia
Ġind ic
Ġger iet
Ġ186 9
the ater
ĠAnder e
iscons in
B ek
C I
Ġ 00
Ġl ights
ĠIn v
Ġle aving
19 28
hl on
ition en
amm ern
Al t
Ġke pt
haf tet
yd ra
ĠBot an
Ġleader ship
Ġexcl usive
ĠNahr ungs
H S
J azz
in th
ĠM ul
ĠD B
ĠC hen
Ġe ating
if orm
sp l
ĠRe isen
Ġgef angen
ĠOff iz
Ġ186 5
ĠÃĸsterreich ischen
forder ung
ĠIr land
Ġamer ikanische
ĠniederlÃ¤nd ischen
ĠDokument ation
ĠPeters burg
ĠFant asy
ĠverstÃ¤r kt
ĠB atter
Ġbe zieht
ĠAn st
19 19
ĠEin er
ĠAb out
Ġtra ding
Ġwould n
ĠChrist us
Re zeption
Ġtop ics
ilome tern
ĠschlieÃŁ t
pre uÃŁen
ĠRein hard
Ġrestaur ants
ĠBrun nen
ĠSar ah
Ġsowjet ischen
P A
b art
n ull
w affen
or ium
ĠA ge
ĠB ein
ent liche
iel en
tel finale
Ġaus gebaut
Ġcomp let
Ġgen et
ĠFr ucht
kehr t
Ġerw eiterte
Ġakt ual
Ġmajor ity
ĠSilber medaille
fÃ¤h ig
beg inn
ĠBundesver dienstkreuz
b ase
ie u
Ġin ne
Ġ( ).
im o
Ġge zogen
ĠSt Ã¼cke
Ġre ichen
Ġr ental
Ġges und
Ġ0 4
Ġgesch ieht
Ġbef re
198 4
deck te
ĠTyp s
ĠRegel n
ĠpersÃ¶n liche
ĠNS DAP
ĠRÃ¶ mer
Ġestabl ish
ĠLeichtathlet ik
endo ktor
or ney
Ġv ul
Ġc ute
ĠR ies
ĠJ ubil
ĠV ent
ĠSch reiben
ĠIn stanz
op Ã¤d
Ġj en
ĠSp eicher
Ġnach gewiesen
ĠCh ance
Ġad ults
ĠFran ces
Ġur ban
ĠMÃ¤nn chen
Ġobt ain
Ġingred ients
A uÃŁer
F ebru
f ix
w affe
ĠS end
ein heiten
ĠB row
ĠL iving
ic er
rie t
19 20
Ã¶n t
ĠVor stellung
ĠĊĊ Ġ
Ġperform ed
ĠPriv ate
Ġident ify
Ġvol ume
ĠSied lungs
Ġextens ive
u is
v y
re land
ĠA y
ĠM S
ĠT ony
ĠN y
ĠJ am
Ġe hren
ĠSt ol
ik um
ĠU rauf
Ġver tra
men ge
ĠBe ispiele
ĠInd ones
ĠHa wa
ĠNorth ern
Ġocc asion
Ġgesp eichert
ĠMÃ¤nn ern
Ġlaunch ed
E very
g reg
Ġv irus
ol id
ĠK orea
ra hlt
ĠR up
Ġge fallen
ĠThe atre
ĠAus bildungs
port al
reg on
ĠKrieg sende
ĠGu y
go ing
ĠRu he
Ġschwar zen
ie bel
ein st
Ã¼ ÃŁ
ĠE ver
kt op
ĠZ usÃ¤tzlich
ĠEr furt
Ġ18 49
ian ischen
ett ing
ĠzurÃ¼ck gegeben
ĠAll tag
ĠOn t
Ġtechn ologies
ĠFahr rad
eten z
ĠTher apie
ĠPrÃ¼ fung
Ġscient ific
A uss
D okument
Ġ Ø
on ic
Ġm ale
ĠD id
ĠP av
sch Ã¼tzen
ĠV ide
Ġe gg
let scher
Ã¼t ter
ĠVerb rauch
ĠMill ion
ĠHalb insel
Ġevangel ische
Ġtrotz dem
ĠChild ren
al is
ĠB ene
ĠD ampf
ter min
ĠG ert
ĠW itt
Ġle aves
ĠDe leg
Ġum stritten
Ġcomp l
ĠPr ior
Ġ7 4
St at
ĠSh ort
De zember
ĠJuni or
ect or
Ġpar ent
ĠMill imeter
glieder ung
ategor ie
Ġgelang te
Ġbehav ior
H ar
N ode
Y our
g asse
p ap
ra f
ul ate
ĠSch enk
Ġpro min
Ġte a
amil ton
Ġgleich er
ĠLie b
Ġbre ite
fort unately
ĠMor itz
Ġcal cul
Ñģ ÑĤ
ĠClass ic
k ol
Ġw inning
ĠH Ã¼
ĠW ellen
ĠC reat
tell ers
Ã© l
Ġfest gelegt
hor st
Ġfun ctions
He ute
Ġpoln ischer
ĠHoff mann
ĠSum me
ĠHit ler
kÃ¼rz ung
Ġdenk mal
S ervice
ĠH ope
fe ktur
ĠEs c
ĠAnd rea
ĠX ML
orge ous
Ġjem and
a al
y o
ĠS ams
ĠM ort
ĠL ob
ĠSch Ã¼tzen
me yer
Ġben annte
ĠAs ian
Ġgest artet
ĠSen ior
Ġspecific ally
ĠBud apest
ĠWissenschaft ler
ĠKommand eur
Ġbreit en
Ġunivers ity
ĠViertel finale
ĠAufent halt
Ehr ungen
ĠAnh Ã¤nger
ĠImmobil ien
te en
ĠC af
Ġan f
19 75
br onn
Ġany where
Ġerfol gen
ĠTechn ologie
ĠSpe kt
Ġcontin ued
Ġoffen bar
ĠMaler ei
ĠAth let
Ġwirtschaft liche
ĠSom it
ĠAnth ony
Ġbeinhal tet
ĠEro ber
E t
W E
ein kommen
Ġin fe
st ens
ĠW iesen
ier endes
ul ated
Ġver teilt
Ġver arbeitet
ĠSp irit
Ġum f
Ġunter wegs
geb ra
Ġcl oud
zahl ung
ĠUr sprung
Ġrem ains
Ġprocess ing
Ġprom ote
ĠursprÃ¼n gliche
bre chen
Ġfund ament
far be
Ġsurround ing
ĠHig hl
ĠÃĦgyp ten
L o
z ed
Ġs um
Ġm ac
âĢ ĭ
sch ild
ĠL uz
sp itze
ok us
ov o
ĠEin stellung
iz ona
ĠMit tler
tem peratur
ĠSo zi
ĠÃľber setzer
arb y
ĠRes erve
Ġinst alled
ĠCor ps
ĠHof mann
Ġmax imum
ĠVertrag s
ĠCla ud
Ġprevious ly
ĠMerk male
Ġdom ain
ĠKrim inal
ĠRol and
S owjet
h ai
i oren
un fts
Ã¤ use
ĠE C
ĠN ad
ad bach
ĠSch we
Ġ9 6
Ġqu iet
ble iben
ĠVerb ands
zahl t
buch autor
Ġmin or
Ġsub s
M ont
w ein
Ġf unds
le ucht
Ġy esterday
ĠUn sere
ĠMit be
ac c
Ġ6 9
Ġres ume
ĠAd vent
Ġsc ale
ĠRes te
ĠEber hard
Ã ī
Ġd ates
Ġd ritt
ĠS ingles
ĠB lau
ĠH ind
ĠC R
ĠV i
ĠZ Ã¼ge
Ġver letzt
aus geber
19 78
19 30
ĠWe is
ĠVor stands
gesch icht
ĠEx istenz
Ġem otional
ĠJul ia
ider s
ĠKomp onisten
ĠEmp ire
ĠverfÃ¼ gen
ĠTok io
ĠverlÃ¤ng ert
ĠdebÃ¼t ierte
er z
ĠM ie
sch ung
ĠâĢ Ļ
Ġj u
ste chnik
Ġsp ons
ast ik
ĠWe iler
sk ar
off izier
Ġschw ere
leit en
ĠMag azine
ĠJac ques
Ġreach ed
ĠKolle gen
Ġinkl usive
Ġmarr iage
Ġpolic ies
D ire
R enn
w irt
Ġv i
el ing
Ġan imal
ass te
ĠMar sch
Ġbes ie
rat h
Ġfamil iar
ĠParis er
ĠVolks zÃ¤hlung
Ġbem erk
ĠBil dern
eme ister
ĠHon or
ĠPers pekt
ĠMÃ¶ bel
A lex
J o
k anz
m Ã¶glich
n ischen
p es
ge h
Ġm outh
ĠP lÃ¤ne
Ġbe her
Ġer ror
ĠV il
Ġk aiser
if ying
Ġst yles
ĠEr gÃ¤n
19 29
ĠDe ad
ĠDe ath
Ġen ded
Ġ7 7
Ġcl im
ĠĊĠĊ ĠĊĠĊ
ruct ure
Ġhund ert
Ġanerk annt
ĠKÃ¼nst lern
ĠMom ent
O ver
Ġd et
or ges
as sten
Ġne ck
Ġse qu
enn zeichnet
ĠHe art
ĠSchw anz
min a
ĠArbeit sk
ĠChrist opher
ĠHoch schul
ĠFranz osen
wh at
emb ly
Ġdoc uments
Ġill ustr
ĠMarc us
ĠiP od
G C
O Exception
R o
T ER
s burger
at ischen
ĠB ase
ĠM B
il ot
Ġein heit
Ġj ump
ht ml
ĠAr z
Ġdies mal
ĠHe ck
ĠHar vard
Ġkomp on
ĠKategor ien
Ã¼ste t
Ġproduz ierte
Hinter grund
C or
L og
V I
V om
V ert
h Ã¤usern
p rÃ¤sidenten
ĠD al
ĠF reis
em y
ĠL okal
ĠC ond
Ġbe wohn
Ġre fr
Ġr ule
ĠSp ur
ant es
hal ter
ĠBer atung
Ġ8 4
Ġget roffen
ari at
Ġpos itiv
lÃ¤uf e
Ġpoln ische
Ġjapan ischer
Ġcaus ed
waren ess
ĠEliz abeth
E E
s ing
or ation
Ġin folge
ĠB ibel
ĠF alle
ĠN erv
Ġl anger
la ut
Ġab hÃ¤ng
Ġsch Ã¼tzen
Ġdurch aus
Ġman aged
fol io
pf alz
Ġrec ipe
ĠÃľber nahme
Ġgu itar
ĠPhil adelphia
Ġmen u
ĠKind heit
Ġposs ibly
ĠErinner ung
merksam keit
p oint
Ġc utting
Ġz ogen
sch ritt
ĠR olf
iz ei
ĠSie gen
ĠCh air
ĠCar ter
Ġgesch Ã¼tzt
ĠWerk statt
Ġgreat est
film ung
ĠdÃ¼r fte
Ġintens iv
ĠDou glas
O s
an es
Ġs ink
Ġf lag
Ġ1 17
il st
ĠF as
Ġc os
ĠH enn
la f
Ġsch eiterte
Ġch ron
atur en
ĠAuf tritt
ĠNach kommen
ĠPr ice
Ġ8 6
ĠSte ink
ĠAd resse
ĠSta ates
ende te
Ġverb lieben
Ġbew usst
ĠPsych ologie
ĠSpr ung
Ġsil ver
ĠMinn esota
A ccess
R eich
S onst
in ne
Ġw omit
ĠD ave
ĠL av
Ġdes selben
Ġre pe
ĠVer z
ĠAl i
ial en
ĠHe eres
amm elt
fin der
co hol
Ġapp s
ĠCon tent
Ġmin im
sport ler
ĠKo al
", "
Ġappear ance
ĠSpr int
Ġrev olution
ĠPow iat
ĠSynag oge
L isten
ge legen
Ġ1 14
ĠF iction
ĠG on
ĠG lÃ¤
Ã¶ te
od ies
Ġj ack
Ġsch affte
be c
ĠLand rat
igh ted
gew inn
Ġgesch lagen
Ġsign ed
Ġgar age
pre chen
ĠEhe mann
ĠKaiser reich
Ġflow ers
Ġunters ucht
ĠMÃ¤r chen
ĠGlauben s
Î ½
it als
Ġt at
ar ett
ĠS yl
re v
ĠM Ã¼hle
ro vers
ĠT Ã¤n
ĠG n
Ġsp ending
19 79
19 74
Ġ9 8
Ġco ast
rach ten
ĠRegion alliga
Ġautomat ically
gewand elt
ĠB arb
Ġv ent
sch Ã¶n
ĠL uk
ĠJ ury
Ġk inder
ĠSt reich
ĠZ ell
Ġver an
ond a
Ġfe e
ĠKon zentr
An fang
ring er
bild ungen
ĠWest falen
Ein wohner
198 2
stag s
Gr und
Ġak zept
ĠPreuÃŁ ischen
y c
Ġd az
al in
and in
Ã¼ re
ĠA uge
ĠB ie
ĠB ry
Ġc ells
Ġnach halt
Ġwor ry
ult y
ile t
ans ion
org ungs
ĠMo de
ĠAt om
Ġinst r
198 3
ĠDis ney
ĠVerl ust
ĠIndustr ial
Ġuk rain
Ġbelg ischer
Ġneighbor hood
T P
y ll
ch i
Ġd ick
st ufe
ĠR it
ĠC oll
Ġbe at
ir al
ach el
ĠN ich
Ġge p
Ġst unning
Ġver haftet
Ġle hrte
Ġex ter
ĠBer ge
Ġbet reibt
Ġdar stellt
ax oph
Ġange passt
ĠHaupt rolle
Ġbo ys
ĠVers icherungs
Ġmach ten
ĠÃĦ m
ĠKat alog
ĠHin weise
Ġkind s
Ġlog o
D C
ĠD ig
Ġo k
ĠH ills
ĠSt aff
Ġaus gesch
ĠRe formation
od ge
ap ed
ĠAl les
ĠAus gaben
Ġgew Ã¶hn
ital ien
Mit tel
Ġleben s
ĠEben falls
Ġzerst Ã¶r
maÃŁ nahmen
ĠEigent Ã¼mer
Ġhous es
ĠQual itÃ¤ts
Ġerlang te
H il
M C
k ommun
Ġ 05
or ded
Ġm ont
ĠD rittel
ĠDe kan
Ġcon cl
land schaft
ĠFl otte
Ġlie genden
Ġwieder holt
oth ing
Deutsch e
Ġed ge
ĠGrÃ¼n en
ĠFil men
hÃ¶ fe
Ġpresen ce
ĠsÃ¤m tliche
P an
Ġs itting
ur i
Ġp oll
Ġp utting
ĠG leis
ĠW alk
ĠR ain
ĠL izenz
ĠJ Ã¼n
eb au
ĠAn sicht
ĠEr klÃ¤rung
ĠAr min
rÃ¤ um
ĠNe uer
ock et
ĠNatur al
wei ÃŁ
ĠVe gas
Ġcla ims
Ġintrodu ced
ĠKop enhagen
Ġf ly
Ġo d
ing ers
Ġp ink
ĠP az
ĠF usion
ĠH ass
ber ater
ĠC in
Ġst arten
Ġver grÃ¶ÃŁ
Ã¤t igkeiten
ĠKl eine
ĠMon ats
ĠÃĸsterreich s
Auf grund
ĠPlan et
ĠCom ic
Ġworks he
ĠTur k
frei heit
A K
G H
U M
ĠB ody
ĠT oy
ĠI ron
et ime
Ġl unch
Ġle gt
Ġres idential
Ġdire kten
Ġmag net
ĠFel der
Ġbreak fast
Ġinj ury
Ġverwende ten
ĠRy an
Ġbeeinfl usst
U l
h Ã¼tte
un ters
ĠG Ã¶t
ĠK ul
Ġab s
ific ations
ĠDurch schnitts
ĠProv inzen
Ġshow ed
Ġallow ing
ĠSym ph
D av
Ġp ump
ĠL ok
ow itz
iel l
Ġis lam
ĠVer handlungen
ĠEr langen
Ġj ener
19 38
ok ol
Ġcon text
ens wert
ob i
Ġqu otes
Ġ8 7
off s
let ten
ĠOrt schaften
Ġhapp ens
Ġtro cken
Amer ican
Ð½ Ð¸
Ġmensch lichen
Ġaf ternoon
a er
v arian
in str
ĠK ro
Ġg estorben
ĠC hl
Ġmit tlere
Ã¤n glich
igh ter
ĠPh oto
aw ay
Ġ14 0
Ġsur f
wir ken
ĠIntern ets
ĠExec utive
ĠPader born
Ġ {
Ġs izes
ĠK av
ĠSch nee
ĠBe h
19 72
ĠDe finition
ĠCh a
ĠUm feld
Ġbesch loss
ĠMo z
ĠCl ark
ĠRes p
ias ieger
Ġangeb racht
Ġarch Ã¤
ordin ate
ĠWeiter hin
ĠLim ited
ĠÃ¤lter e
ĠKob lenz
M ore
T ro
m Ã¤nn
in yl
ĠS ache
ĠB orn
Ġv ote
ĠF ell
ĠK han
Ġer geben
Ġer fÃ¼llt
ĠJ etzt
ĠJ Ã¤ger
ĠSch uh
ĠRe zept
Ġent f
ine a
20 21
Ġlie fer
ĠMan uel
ĠAuss tellungen
Ġverbess ern
# #
U C
a ver
m lich
p unkten
z ung
Ġv ary
Ã¤ ne
ĠT ransp
ĠH ave
ĠW ick
Ġg laub
Ġto ward
ĠN am
ot ions
kt oren
all as
gr at
Ġunter lag
Ġen tertainment
Ġro ut
ĠMan chester
Ġreg istration
ĠunterstÃ¼tz te
Ġintegr iert
ĠExper ten
ĠEvangel ischen
Ġchrist lichen
ĠGreg or
Ġ1 16
ĠG ymnas
ite ten
Ġad s
mann schaften
ins eln
ey er
ĠPl ant
Ġbil deten
ĠDu isburg
ĠIns besondere
ĠKe vin
Ġfeature d
ĠIll ustr
Ġbegrenz t
repr ene
n ur
st rÃ¤ger
Ġein gebaut
Ġn ine
ĠI gn
ĠJ ay
Ġst ir
ĠJahr gang
me chan
Er zeugt
uck s
Ġgef Ã¶rdert
ĠBed arf
Ġbring ing
ĠMel bourne
ĠBot schaft
ĠAcc ount
ĠKonstru ktion
ĠSyr ien
ĠLate in
B ern
K e
M erk
\ \
n ik
Ġw ollten
Ġin iti
us a
ĠM aschine
ĠL okomotiven
Ġst imm
Ġun gewÃ¶hn
ian e
els on
ĠVers orgung
Ġbef est
198 1
Ġnor m
Ġsmall er
ĠRuss ia
ĠSpe ed
Ġbra ucht
oin ted
Ġherv orge
Ġupd ates
Ġspeziel le
Ãĸsterreich er
ĠZuf luss
Ġhous ing
frist ig
I mp
Ġt ab
ĠS ysteme
st ances
ĠH arb
ĠW esentlichen
Ġan cient
Ġge lesen
Ġver zeichnet
we ar
sp h
ran Ã§
19 00
Ġum gewandelt
Ġ9 00
ĠHand ball
Ġhol te
gef angen
ĠVerteid igungs
ĠPrÃ¼ f
Ġengag ierte
Ġdescrib ed
ĠThr on
ĠRuh estand
Ġgee ig
ĠbeschÃ¤d igt
c ase
Ġ icon
ĠA cht
ĠB ow
Ã¤ le
ig o
ĠV ene
ĠV II
Ġre aders
ah a
Ġr ise
ĠÃ¼ber gebenen
ok es
Ġ5 000
Ġar gentin
olog ien
Ġges prochen
Ã¶l be
ĠGer Ã¤t
esse e
Ġaktu elles
Ġged reht
Ġcompet itive
cep ts
Ġuntersch rieb
G l
J ugend
i Ã¨
z il
Ġund erg
ĠD oc
ĠH Ã¶l
ĠR as
ĠU d
Ġwar um
qu alitÃ¤t
Ġat mosph
ĠAus fÃ¼hrung
Ġher unter
pro zess
ĠAnd rÃ©
Ġverb esser
Ġmin imum
Ġdel icious
ĠBad minton
ĠHin weis
Ġocc up
ĠschÃ¶n en
Ġmanufact uring
Ġther apy
Ġpleas ure
Î¿ Ï
Ġzuk Ã¼nft
K om
l isten
ĠA venue
ĠP okal
ĠL ust
Ġge h
Ġzu gÃ¤nglich
Ġfor mal
id ays
Ġbes uchen
ĠfÃ¼hr enden
Ġter min
Ġencour age
B ox
r ichtete
z ing
Ã¤ g
ĠF uchs
ut ation
ĠH inz
Ġth reat
19 21
Ġch arm
hal f
Ġevery day
ĠLie bes
grenz ung
ĠLat in
u cc
v iel
Ġm Ã¤cht
ra gende
ĠC irc
19 40
Ġvor kommen
fe ier
ĠIS O
Ġdr ivers
Ġmin i
Ġeinge gliedert
ĠÃĦ hn
ĠLandkreis es
Ġadv ance
Ġredu ziert
ĠKonzer te
ĠVerantwort ung
h ir
p Ã¤dagoge
z lich
z usammen
Ã ĥ
ĠK ai
ĠH arm
Ġge laden
ĠAn k
ste tten
Ġet h
lag ert
ĠChrist i
ific ate
ĠDr amat
Ġ% .
ĠHar ald
196 8
Ġricht ige
Ġdiscover ed
ĠRett ungs
ĠKabin ett
S K
S an
en ten
ĠA er
Ã¤ mm
ĠAl an
Ġent worfen
Ġber u
fahr zeuge
Sie ger
ĠFer r
ĠAnton ius
ĠErw Ã¤hnung
ĠKons erv
Ġfil ter
Ġincred ible
F irst
K lass
b org
Ġt as
le c
and al
Ġv illage
Ã¶ ger
ain less
Ġste igen
Ġvers uchen
Ġpl Ã¶tz
ĠHier bei
ĠAustr ia
ĠZe aland
ĠPra kt
ĠTest ament
ĠPosition en
jew itsch
Ġinstr ument
ĠA kten
ĠD orn
ĠP ersÃ¶n
ĠT ang
ĠG ard
ĠG allen
ĠK orn
ĠH imm
ent le
our t
sp artei
ĠSp uren
Ġhe ft
ĠEn vironment
ĠAus wirkungen
amm lungen
ĠFre il
Ġtr ends
hel ms
ĠStud ent
Ġabsol ute
ĠLes er
Vor pommern
Ġlate in
ĠPublik ationen
ĠVerteid igung
Ġenh ance
Ġaccomp l
Mart in
Ġrap id
E p
Ġw Ã¤hlen
ĠS we
Ġk Ã¼rz
ĠAn z
19 50
Ġme al
Ġvor ne
Ġtr uth
mat ik
gra fen
Ġhistor ical
Ġstell ten
gere chnet
ĠÃ¼b lich
ĠPak istan
vorsitzen der
ĠHildes heim
D enk
T ime
Ġb ike
Ġm anner
ĠA uÃŁ
ĠB ret
ĠG ross
ĠW Ã¤l
ĠC onn
ĠC urr
ud ing
19 23
hen de
ĠBer gen
Ã© g
ual itÃ¤t
Ġsur gery
Ġcount y
ÑĢ Ð°
ĠfrÃ¼h ere
Ġdog s
ĠmilitÃ¤r ische
ĠRaj on
Ġforder te
Ġfung ierte
ĠTrain ings
H C
L ud
á ¸
as ka
ĠB B
Ã¤ ck
ĠP osten
ĠC her
Ġto ugh
Ġl agen
ĠRe f
Ġher um
Ġ7 8
ĠUm satz
ĠBereich e
ĠMer cedes
Ġfilm s
ĠGirl s
c ons
} .
Ġb an
Ġm ental
Ġc red
ra gt
Ġk onstru
if ff
Ġne ur
ĠSe gel
Ġ7 1
bar ung
eld ungen
Er n
ĠBau ten
Ġentwick elten
Ġpriv acy
Ġdan ger
Ġerk enn
ĠCamp us
nehm ung
wÃ¼r fe
Ġlands cape
N ummer
O per
an on
le ten
ĠK rÃ¤fte
ĠK ohlen
ĠW upp
ĠW under
ĠR ome
ĠC ase
ir i
Ġdes pite
ab schluss
if ikation
ĠUn ser
19 25
ĠNe ues
ĠAuf merksamkeit
An gabe
entr um
ĠSpiel film
ĠSÃ¼ ÃŁ
Ġappear s
ĠRelig ions
sprÃ¼ che
f amilien
it ate
Ġs au
ĠS amen
ĠS eminar
he ben
us ste
and y
ĠD uring
Ġein gest
ĠI reland
ĠW ende
ĠJ ordan
ĠSt or
ĠO regon
Ġzu gelassen
op en
19 71
ĠEn tertainment
ster y
Ġgood s
ĠFest ung
Ġresp ond
Ġleg is
Ġvert rieben
ĠbeschÃ¤ft igte
lehn ung
gesp ielt
Ġkauf te
ĠNap ole
Ġhundred s
S ince
T E
h yth
k k
Ġ ).
ĠS ite
ĠS ale
ĠF ellow
ĠK ader
ĠC ott
th en
ĠKl ang
Ġverb re
Ġsupp orted
Ġlo ad
ĠTre ffer
pos es
Ġsug ar
ĠHoff nung
ifiz ierung
dor fer
D is
Ġ ==
ĠS ac
ĠS Ã£o
Ġm Ã¶gliche
Ġn Ã¤chst
ĠC ass
Ġaus gewiesen
19 32
ok a
Ġ7 3
co in
ĠKon kurrenz
Ġgu ter
hol en
ĠJugend liche
Ġ185 4
Ġagre ement
B ra
ĠS ort
ĠD ouble
ĠH us
ĠH af
ĠH amilton
ĠIn fe
Ġte eth
ĠLand gemeinde
ĠPr int
ĠGeb rauch
ĠKon text
wor tet
aun a
okomot ive
ĠPfer d
abet es
ĠErzÃ¤hl ung
ĠSehen swÃ¼rdigkeiten
B Ã¼
F Ã¼hr
P okal
d ner
or ough
Ġf ruit
Ġh all
ĠH ahn
Ġan gew
19 27
ĠEn cyclop
fl Ã¼sse
Ġro ten
Ġdar um
imm y
ĠChrist ine
ĠStud ios
ĠBut ton
Ġ180 6
ĠKin os
Ġmass age
Ġfrei will
Ġmanufact urers
ĠWahr heit
fÃ¶rm ige
ĠDemokrat ischen
ĠMaxim ilian
ĠstÃ¤dt ischen
' ,
a ire
m ade
t est
ĠS ke
ĠP lattform
ĠF la
ach se
Ġst ars
ĠDie go
19 37
ĠAuf sichts
ĠMar ion
ĠJun ge
ĠOber liga
ĠNord amerika
Ġbo und
Ġcre ation
rue ft
ham mer
Ġ185 6
Ġwhe el
Mich ael
L uther
O l
ch ar
ĠB BC
ĠD M
ĠT an
ĠG rant
ĠW Ã¶rter
Ġg aben
ĠJ oh
par ks
ium ph
mit ted
Ġ8 9
ĠMon ument
ĠHo uston
Ġdec ades
wend ungs
ĠSal v
wei he
ommer ziel
196 7
ask et
Ġlov es
zus etzen
nehm ern
Ġsym pt
ĠRh yth
Ġbege ister
Ġdom estic
Fin ale
ĠFrem d
f i
g ert
k ette
n isch
in fo
Ġt om
Ġw ies
Ġn a
Ġbe it
Ġk ennt
ann y
Ġver p
Ġj oy
hn er
ĠEin z
ĠTh ree
ĠSchw Ã¤b
Ġact ions
Pro jekt
Ġstatt dessen
Ġeff ekt
ĠDes igner
Ġ185 9
Ġfort an
ĠMotor rad
ÅĤ aw
Ġschwed ischer
Ġproper ly
ĠberÃ¼cksicht igt
D atum
Ġa id
ar ily
ĠS i
ĠD etail
Ġc raft
ĠC urt
ab a
af eln
ĠSe kretÃ¤r
ĠNe ug
ĠZeit schriften
Ġmehr mals
br unn
Ġgesch Ã¼tz
ĠCl oud
ĠPart ners
ĠEm ma
Ġbuild ings
ĠHistor ic
ĠWochen ende
parte i
wechs eln
Ġcabin ets
ĠCost a
E A
b undes
k ologie
es k
ĠB ran
ĠM alt
ist o
ĠVer leger
Ġsp ann
Ġ3 50
Ġco ck
ĠUS D
ĠGes icht
ĠBau reihe
Ġdel la
ĠAnfang s
verb indungen
spro zess
aser ne
Ġintern al
ĠFÃ¤h igkeiten
ĠEind ruck
F o
w ur
le vel
st ers
ĠP ersÃ¶nlichkeiten
ĠG ord
ĠW at
ĠJ r
ĠVer arbeitung
Ġum gesetzt
ĠGe fÃ¼hl
ĠVor bereitung
Ġlie fern
pro ble
man ischen
ĠMus ical
ĠEx press
ĠÃľber sicht
res te
ĠCon f
Ġtyp ically
ĠverÃ¶ffentlich ten
ĠBi ografie
Ġcho ices
ĠHÃ¶he punkt
ĠPrem iere
ĠRay mond
Ġflex ible
Ġdenkmal geschÃ¼tz
s ub
Ã¤ p
ion ier
ĠP ool
et on
Ġl abel
Ġk Ã¼nft
Ġth us
Ġan g
ĠSt ars
ĠSch atten
ver k
Ġpro sp
Ġab gest
19 10
ip t
Ġsie gte
ĠÃ ©
Ġnoch mals
igh ten
elle d
Ġra ise
Ġletz tlich
Ġmo de
En g
fil me
Ġlead s
Ġpresent ation
Ġdeliver ed
ĠEuropÃ¤ ische
Ġzuf rieden
Ġdepend ing
national spieler
ĠÃĦr zte
Ġvac ation
ĠÃľberg ang
ĠDien ste
Febru ar
D oc
M ay
d ro
ie ge
Ġs umm
ein richtungen
Ġm ature
ro hr
Ġp ed
Ġp apers
ĠL ern
ĠSt att
ĠSch Ã¤den
Ġst rip
Ġdem on
los igkeit
utz te
Ã¤ch ter
ĠEx tra
ĠBl u
ĠTra vel
ĠSÃ¼d afrika
mittel alter
Ġown ed
Ã¤tz ung
Me hr
apt op
war ded
Ġ180 3
EN T
lad imir
ĠAust ausch
Ġdistrib ution
Rei he
ĠArgentin ien
P ass
c us
Ġd icht
Ġt ail
Ġin tended
Ġp reis
ĠF erner
ĠW isconsin
ĠJ eder
Ġr and
Ġbei der
Ġ3 60
19 34
ian er
ĠMa j
ĠPar ks
ĠPol ice
Ġmin imal
ĠRad i
ĠGeneral leutnant
ĠStat istik
ĠDi agn
Ġmanufact urer
Ġerinn ern
BÃ¼rger meister
ĠBeteil igung
es ents
Ġf ach
Ġf Ã¼hl
ĠM all
Ġbe igesetzt
ier re
Ġge he
Ġle gen
ĠÃ¼ber liefert
ys ik
iker in
ĠUS B
ĠNord west
ĠRu der
Welt meister
ĠAp ost
ĠeuropÃ¤ ische
Ġausgest rahlt
ĠLeg is
E hren
G ener
O f
k ommission
on de
or able
Ġb ist
Ġf ellow
ĠB oth
ĠM ethod
ĠW ird
ĠC av
ĠJ Ã¶rg
ĠSch los
ak on
art ikel
ĠAl abama
Ġlie be
ĠIt aly
Ġel imin
ĠBi ographie
ĠPal Ã¤st
ĠAtlant a
ĠRis iko
Acc ording
Ġopin ion
ĠS v
ĠB DS
ĠF ame
ĠF ile
ber ry
âĢĻ ,
19 44
ĠMar sh
att an
Ġother wise
ĠFr Ã¼hl
Ġakt ive
En d
ĠauÃŁer ord
ĠVolks republik
Ġmonth ly
Ġimpro vement
zÃ¼ gen
fÃ¶rm igen
F ranzÃ¶s
K ey
S chn
b ian
f ers
Ġ Ã¤ndern
Ġs la
Ġn ennen
ĠT iefe
am as
ber ge
ill o
Ġsp anischer
ĠJahr buch
age ments
br Ã¼ck
ank a
lÃ¤ uter
ĠSpiel s
ĠWer be
Ab sol
190 3
ĠSpan ish
ĠBu ilding
Ġfield s
UN G
ĠSchott land
F uÃŁ
K ilometer
L ast
Ġd eine
on ent
Ġa kadem
Ġt end
Ġw alls
Ġf oll
ĠR ic
ist ungs
az itÃ¤t
ren cy
stand es
fahr ens
pf lanzen
Ġfre und
ĠPl Ã¤nen
196 9
Ġcomb ined
ĠMult i
ĠVerl Ã¤ngerung
Ġlif estyle
ĠFranzÃ¶s isch
Ġslight ly
ĠFranÃ§ ois
ĠUrauf fÃ¼hrung
E v
f iguren
Ġg orgeous
Ġth row
ab ul
ĠZ ut
ver letz
ere cht
19 26
ĠAr izona
Ġcon v
ĠGr iff
ĠPh ant
gem Ã¤ÃŁ
hand elt
Ġdec isions
ĠGew inner
Ġpass iert
ĠSen ioren
Ġsupport ing
Ġerfolgreich e
Ġperfect ly
ĠCal c
Ġintrodu ction
K ar
x id
ĠB itte
Ġ1 12
Ġh Ã¤ngt
ĠK ann
ad y
Ġver folgt
sp rÃ¤sident
sp olitik
qu em
19 73
me ier
ĠUnivers al
gend es
Ġdire kte
ĠRad rennfahrer
ĠEv ents
Ġhard ware
ĠverfÃ¼ gte
Ġreturn ed
ĠEngel s
Ġtal ent
R ec
k ommt
m il
Ð ¹
le un
Ġv ierte
st oÃŁ
ĠF ed
ĠI ss
ent h
ĠL aus
iv ia
Ġauf w
Ġch ain
rei hen
Ġpla ys
Ġag ent
Ġpos it
ĠTem p
Ġdre imal
zy kl
ĠZug riff
ĠMont ag
ĠKre bs
omet imes
ĠWass ers
ĠTown ship
ĠÃ¤uÃŁer st
ĠÃĦnder ung
Ġeigent lichen
Ġentsp ringt
ĠGemark ung
G ed
e u
p ur
Ġa chten
Ġb onus
Ġf uel
ĠA udio
Ġ1 13
Ġh ire
ĠR eit
Ġl Ã¤nd
ck ing
Ġth ick
ĠSch acht
Ġde pos
Ġr ies
qu ert
ĠAl f
19 31
ĠDe f
tz t
15 0
Ġdis p
bo oks
ĠAll gemeine
Ġmach ines
ĠReich en
Ġehemal s
Ġspe zif
Ġbed ient
ĠDu ke
Ġnational sozial
Ġmeisten s
Ġprem ium
ĠVie h
Ġinfluen ce
B as
x y
en ters
Ġb undes
ĠM A
ĠD afÃ¼r
Ġein erseits
ĠK und
ĠW i
ĠC ock
ĠZ one
ver hÃ¤ltnis
Ġr id
19 36
ho e
rÃ¤ der
ĠGra ben
akt ions
Ġcons umer
Ġgl Ã¼ck
stre am
deutsch er
Ġinterest s
Ġrespons ibility
Ġaustral ischen
ĠMultic ast
D own
b ett
ĠB oss
ib ilities
Ġhe ight
ĠEin zugs
Ġwe aring
ĠVor name
Ġ9 2
ĠQu ell
ĠMÃ¼n dung
Ġbr ill
Ġben ch
ament o
Ġsign s
Ġpres ents
ĠRegierungs bezirk
ĠAT P
Ġproced ure
! âĢľ
B ook
d ale
in ations
Ġf ein
le id
ĠP est
ĠF act
ĠK Ã¤rn
ĠE ichen
ĠI L
ĠL iss
ĠL Ã¶sungen
Ġer stellen
Ġe ast
ĠSt ationen
ĠRe ferenz
igen en
ĠAr ena
Ġseit her
gesch ichten
ĠCar lo
Ġstand ing
Ġander erseits
yr ight
Ġredu z
mo der
Ġstre am
ĠFreund in
ĠEU R
ĠFert ig
ĠExempl are
T rans
c lass
g ott
h y
Ã °
Ġa ges
it Ã©
ĠB enz
ĠG ol
am ik
Ġer ober
gen cies
Ġ18 46
ho fer
Ġtra v
ĠzurÃ¼ck kehr
Ġbeg ins
bo ot
ĠVol ume
erg ie
ĠĠĠĠ Ġ
ĠUr teil
Ġbekannt esten
ĠTre ff
Verkehr s
ĠtÃ¼rk ischen
Ġcloth es
ĠGebÃ¤ udes
Vol ks
I st
b ow
b urn
ten ding
ĠR iv
ĠL aden
Ġl aufen
ĠSch atz
sk irche
ĠQu est
ĠSpiel klasse
ĠBau er
bach s
uck er
ĠMinister ium
kr ise
Ġjapan ische
Ġdistr ict
ĠJahrzehn ten
Ġmaxim ale
ĠPast or
fir ma
P M
S aint
T em
s Ã¼d
w elle
Ġp Content
ĠP ho
ĠF Ã¶der
ĠK Ã¤
Ġc orn
Ġge be
Ġall eine
br id
Ġ8 1
iste te
ron ik
Ġeff iciency
Ġverl ang
ĠProfess ional
Ġappro ved
Ġ185 7
ĠDire ct
ĠHu bert
ĠDrei ÃŁig
Ġrecogn ized
Ġsuppl ies
ĠCorn el
Ġbayer ischen
Ġfavour ite
ĠVerstÃ¤nd nis
D i
D ialog
K or
R C
V ier
n isses
o a
Ġf Ã¶rdern
ĠD sch
Ġg ern
op ran
og ramm
Ġj oint
for ce
Ġall gemeine
ĠSpiel ern
ĠMo on
ĠDr ive
196 5
alys is
ĠRÃ¤ ume
Ġparticip ants
Ġausgeb ildet
ĠStraÃŁ burg
Ġpattern s
L ie
T op
c iate
Ġw et
ĠB ucht
ĠM iami
il ation
ĠK ond
ĠC ow
qu ality
19 60
19 46
ied s
ser ien
inter est
ek ing
rieg s
Ġhier fÃ¼r
Ġschw ei
Ġpl ug
hed rale
ĠHil f
Ġask ing
ĠInnen stadt
Mod us
Arch Ã¤
pass te
ĠFass ade
ĠKandid aten
ĠAlk ohol
ĠKaffe e
Tod ay
Ġgefert igt
ĠOnt ario
W ell
o i
p iegel
ĠS G
ĠS itze
ĠM es
ĠD unk
ĠT unnel
ĠF I
ĠR och
Ġbe zogen
la de
ĠRe par
ĠEr be
19 22
ok u
Ġch ocol
alt itel
ĠVor les
ystem s
spr uchs
ĠOn ly
ĠBar th
Ġcle arly
Ġperfe kt
Ġbro ken
ĠKe ep
Ġeffect ively
Ġpurch ased
Mod ell
ĠHei de
Ġumfang reiche
Ġbeob achtet
g ast
Ġs ad
Ġs org
Ġb order
ĠB anken
ig sten
Ġp ure
ĠF abr
ĠR ick
art a
ud a
out ube
ĠGeb irg
schie de
Ġbel ief
ĠAll gemein
ĠOn kel
ĠSaison ende
Ġschn eller
Ġhouse hold
ĠnatÃ¼r lichen
Ġrepr esents
Ġfix ed
liefer ung
Ġclin ical
Ġm Ã¼s
ĠB ird
st ahl
ĠK ub
ĠE cke
sch reiben
Ġl ayer
Ġy ellow
th is
Ġso fern
ite kt
ĠBer ater
ong s
ogra pher
ĠOb ama
ĠWh ere
Ġstatt f
ĠMain e
ĠTyp e
ĠHeimat stadt
ĠEmp f
Ġsuper ior
Ġdat abase
bereit et
ĠTH E
ĠPian ist
ĠSchÃ¼l ern
ĠAbra ham
y an
Ġt or
Ġv ital
Ġl yr
ĠU we
ei ra
sp unkt
ok oll
Ġch osen
ĠVor stellungen
als o
Ġ12 00
ĠGesch mack
Ġger inger
Ġgest alten
geord nete
ole an
Ġ185 5
ĠGold medaille
gress ive
ĠPubl ishing
Ġbedeuten de
franzÃ¶s isch
L ink
P ress
f ot
ĠB uen
el in
Ã¤ ts
ol s
ĠH ugh
Ġg al
Ġst abil
th ese
ĠEr ik
Ġvor genommen
Ġfe els
spieler in
oth ar
ipp i
ĠGesch lecht
ĠPol icy
ĠSk i
ĠZe ug
Ġemp fehl
190 7
ube hÃ¶r
sprach ige
Ġwichtig ste
sta ates
ĠAnder son
Ġarr ived
**** ****
ĠViz emeister
Ġin vent
ĠB usch
ĠD ob
ĠF DP
Ġg olf
Ġl as
Ġk it
la ce
Ġaus drÃ¼ck
19 13
19 41
ens burg
gel Ã¤nde
lo gen
Ġ7 9
ĠBet reiber
ĠMot oren
ĠBel ager
ĠForsch ungen
Ġ185 1
Ã¤m me
Ã¤chs ische
Ġdivers en
rim in
Ġconcern s
Ġmix ed
S L
h ome
t aus
or ne
ĠS now
us ing
Ġf ir
Ã¼ pf
om on
ra iner
erv ation
ĠSo ft
eich ern
iven ess
eid ung
Ġgef Ã¤r
Ġfest ival
lic ation
Ġ185 8
196 3
ĠBed Ã¼rf
ĠInstitut ionen
ĠLehr stuhl
Ġvol ler
Ġcall ing
ĠIr ish
Gem ein
ĠFreund schaft
ĠMuse en
Ġrepla cement
Â §
ĠI OException
ran ten
Ġent stamm
ĠSchw estern
ĠBet on
ĠEv alu
ĠErz bist
ĠHow ard
verb Ã¤nde
Fernseh film
ĠKult urg
Ġemer gency
ĠTi rol
andin av
L ook
h aven
k os
t rieben
Ã¼ se
ĠW ettbe
ĠL us
ĠL orenz
Ġj un
ĠBe fest
Ġout standing
ĠTr ennung
ĠPf licht
Ġdisc ount
rÃ¤sent ation
Ġturn s
leist ungs
Ġmess ages
Ġexec utive
ĠInner en
ĠVort rag
Ġepis ode
Ġvalu able
E ben
u ers
u hren
te ger
st Ã¤dt
ĠP unk
ĠF ly
am ents
Ġl ived
ĠVer sch
ia e
ĠEn kel
Ġsol ar
Ġaufge geben
ĠAuss agen
Ġbro ther
ĠVorsitzen de
sm ith
Ġhost ing
ĠSchwier igkeiten
G ymnasium
Ġ ..
is ka
Ġa wareness
Ġt ast
Ġs ang
Ġs ud
Ġs ides
ĠS ony
re ens
Ġin tr
Ġf urn
Ġf lav
Ġder selben
and em
ĠB apt
Ġv eter
ĠD I
ĠP s
im i
Ġk onserv
Ġauf t
geb oten
Ġus ual
ĠY es
rich ts
Ġ8 3
Er stellt
ĠOber bÃ¼rgermeister
ĠVerb reit
Ġcons istent
ĠPart ien
Ġimpro ved
Ġmag azine
ĠZwe ig
Bundes liga
M ass
T it
l och
ĠM iet
ĠG ul
ĠG uten
ĠC ivil
ĠO ak
ĠAn bieter
19 24
ac o
ĠMar co
Ġbes ter
ĠMann es
eiter ten
ĠHaus halts
ĠDr ama
Ġtechn ique
ĠDurch fÃ¼hrung
Ch Ã¢teau
ĠCont act
ĠFrei will
ĠÃ¼bern immt
Ġprepar e
Ġmount ain
Ġregistr iert
Ġconstant ly
ĠVerbesser ung
' .
M P
O ut
c ers
Ġs essions
Ã¼ ten
ĠD NA
Ġp leased
ol in
ĠR ake
ĠO ste
aus o
Ġwh om
Ġwill ing
ĠAd l
Ġger ingen
ĠAll ein
Ġchar ges
Reg iment
kathol ische
wÃ¤rt igen
ĠeigenstÃ¤nd ige
konstru ktion
F amilien
R I
m utter
s inn
u bert
z ule
ĠS K
ĠK ore
ĠW Ã¼n
ĠN u
ier mark
Ġk ing
ĠSch re
Ġaus zu
ru der
ok ing
Ġte levision
ong o
ĠEl m
Ġbo ost
05918818 5
Ġdisc ip
ĠHil de
Ġinner en
Ġbeteil igte
RE E
ĠStruktur en
ĠAdmin istrat
v org
in ary
Ġf er
ĠB auch
Ã¼r tel
Ġre place
ĠVer tre
ĠAr me
ĠAb sol
ĠMar cel
ĠSchw imm
old t
Ġfe hlen
Ġbest immen
Ġber ichtete
ĠNor bert
Ġmus ical
rÃ¤s id
ĠGo vern
ĠWohn ungs
ĠDre am
Ġoffen e
ĠnatÃ¼r liche
Ġwissenschaft licher
Ġfund ing
ĠAltern ative
================ ================
H z
W ar
f Ã¶rderung
Ġw Ã¤chst
at ra
ĠA h
ĠB og
ĠM Ã¼hlen
ĠE rot
ĠE astern
ĠI F
ĠH altung
ĠV irt
Ġr an
Ġqu adrat
Ver walt
Ġwel chen
ĠInd iana
ĠGrund schule
Ġsecond s
Ġpur poses
Arch itektur
Ġmeas ures
ĠReihen folge
Franz ose
Rel ig
F Ã¼gt
â Ī
Ġa gr
Ġw Ã¤ren
ge ist
Ġm ur
ĠM Ã©
ĠP ick
Ġh ung
am an
ĠN ull
Ġk Ã¼nst
Ġre ar
Ġr are
ĠBe fore
ĠBe frei
Ġ18 47
19 12
ĠSe ch
ĠAb b
St ation
bau werk
ĠEx il
stra fe
ĠÃĦ l
Ã¤mp fung
chten stein
ĠGed icht
ĠPhys iker
ĠMas ters
Ġregular ly
ĠAsp ekte
Ġcirc um
Ġbrow se
ĠFinn land
ĠKomponen ten
ĠâĪ ŀ
Ġausreich end
Z usammen
i ÃŁ
at sch
ĠB un
st art
Ġp our
ĠP ant
ĠT ran
ĠF ett
ent z
ĠZ eile
Ġde cl
ungs ort
ĠNe xt
ĠLand s
amp en
Ġ8 2
ren ten
ĠOber Ã¶sterreich
ĠSÃ¼d ost
Ġ[ ...]
ĠHen ri
ĠSand stein
Ġjeder zeit
ĠKÃ¶nigs berg
Ġerziel en
ĠAcc ording
Ġgek ennzeichnet
Ġfeed back
Ġabgeb rochen
ĠWiederauf bau
olley ball
opÃ¤d ie
7 00
h au
n ord
r ent
r ufen
es er
Ġt ables
Ġf Ã¤hrt
ĠH Ã¤nde
Ġan grenzen
ĠSch Ã¤d
ess a
ĠIn haber
ĠVer leihung
iz ist
Ġex port
ĠMar in
ĠGesch Ã¤ft
ĠPol ize
alle tt
yl on
Ġopt imal
klÃ¤r t
196 6
ĠÃ¤hn liche
Ġfinanziel len
Ġprovider s
erkl Ã¤rung
ĠmaÃŁ geblich
ĠSkla ven
Ġatmosph ere
N icht
P rÃ¼
k al
Ä Ĺ
te ine
ar g
ur ist
Ġein ger
Ġn ative
ĠF unde
ĠE N
Ġg g
ĠV illage
ver Ã¶ffentlich
we iger
Ġsp aces
ĠÃ¼ber all
ian z
ĠAus sch
ĠHer zen
St a
the t
ros se
Ġgrow n
Ġevent ually
fried hof
ĠStad ium
Ġsor gte
ĠQue ens
Ġcaus es
ĠInf os
Ġadvent ure
ĠHT ML
ĠWÃ¤r me
V iew
m outh
Ä Ļ
on c
at isch
Ġv it
Ġv ib
Ġ1 18
ĠD aily
ig ra
ĠF ortun
ĠF ederal
ra it
ĠW ester
ĠR in
ĠL iv
ĠL ett
Ġge Ã¶ffnet
ĠO skar
Ġne arby
ĠFre ude
ĠEl f
05918818 6
itu ationen
Ġiss ued
Ob ject
ĠKÃ¼ chen
wh ile
ĠSÃ¤ ulen
ĠBon us
Ġlic ense
? )
a a
Ï ģ
Ġa w
or chester
Ġf ro
Ġf erner
ig r
ĠW icht
ap olis
ĠAl uminium
Ã¤r er
ĠAb wehr
ĠGr Ã¶ÃŁen
ivers ary
Ġgen e
Ġges agt
ĠPh Ã¤n
Ġoff ens
Ge gen
wert ungen
Ġrem ote
ĠJohn ny
Le x
ĠJugend lichen
Ġerfolg ten
stoff en
kn oten
Ġconf idence
Fl ug
Ġcommit ment
sthe orie
ĠDet roit
Ġerheb lich
Ġgez Ã¤hlt
beam ter
ydra ul
R aum
S eite
k rank
z it
Ġm ine
ĠF ashion
ĠG le
Ġg un
Ġbe zÃ¼glich
den ken
Ġge liefert
ĠSt aub
Ġr iver
qu ellen
19 48
Ġvor Ã¼ber
ac ional
ĠAuf klÃ¤rung
ĠSchw ert
rif t
Ġ12 5
ĠBand s
Al so
ĠArt illerie
ash i
ĠMed iziner
ator in
ĠCon rad
Ġcare fully
ĠFach werk
196 4
stag ram
tor hÃ¼ter
ĠErzÃ¤hl ungen
ĠContin ue
Ġbess ere
Ġbedeutend sten
leucht ung
C al
h Ã¤n
Ġt arge
te le
il iate
ĠD E
ĠD ame
ĠH els
Ġauf s
ĠIn tens
Ġ18 18
Ġ18 37
19 05
rich tet
Ġup coming
Ġro ute
als ieger
Sch on
ĠÃľber blick
ins ichtlich
Ġpre gn
Ġind ire
Ġ% )
En ts
ĠDon ner
190 1
190 4
ĠBru ce
Ġschwed ische
ĠDisk ussion
ĠFal ken
Ġofficial s
mot oren
Ġappre ciate
Merk male
K Ã¼nstler
k rÃ¤
re f
Ġm or
Ġh ind
ĠF inger
am ann
ĠK Ã¼hl
ĠL anc
Ġk rÃ¤ft
Ġab stra
auf lÃ¶sung
ohn t
Ġ9 3
ĠDies el
Ġgel ingt
ĠSer b
Ġverkauf en
Ġverm eiden
onstru ction
Ġprakt isch
Ġconsum ers
Lin ie
F ach
O h
in dex
Ġb attle
ĠM ale
ĠD y
Ġc able
Ġc ake
ent schieden
ĠR eiter
lich ten
ab schnitt
th al
Ġaus geschlossen
Ġwar rant
19 43
gl ing
Ġem ph
Ã¤d te
Ġgesch ickt
ĠAt mosphÃ¤re
ĠAnt ike
ĠGet re
ĠKu gel
bas is
ĠjÃ¼nger en
ipend ium
ucle ar
Å Ľ
Ġt ight
Ġs ac
al teten
ĠK ansas
ĠC ommand
ĠSch aff
ib et
se a
Ġle isten
Ã¤t tern
lo h
oun ge
ĠMa de
Ġfe hlt
Ġtra ined
ĠTr end
ĠTr io
Ġzusammen gef
Nach bar
ather ine
mus ter
Ġ185 3
ĠZe ilen
war f
Ã¤ss ern
Ġhold ing
ĠAuft ritte
Ġarchite cture
Ġbrow ser
Ġcit izens
R om
e z
Ä ħ
an ing
Ġm oral
ĠG az
sch les
ĠW edding
ĠW rest
ĠRe ktor
ard in
ĠVor teil
Ġob lig
Ġbek leide
hand els
ĠZw angs
ĠGesch w
Ġbesch rieb
Ġeinge laden
lÃ¤nd ischer
ĠLeip ziger
Ġappear ed
Ġricht igen
wal de
leis tet
ĠErschein ung
I K
L ou
i u
l ob
m g
m Ã¶gen
y ou
Ġf aster
Ã¼ g
ĠP ixel
ĠK elly
ĠH P
ĠL P
Ġbe herr
Ġsp r
19 35
ĠFl ach
halt ungs
ograf ische
Ġclass room
Ġter rit
ĠMinister prÃ¤sident
Ġangeb lich
Ġregion alen
ĠAust in
ĠMun icip
Ġnied rig
ĠJon athan
ĠBÃ¶h men
ommiss ar
ĠJen sen
J J
S aison
d ichte
f indung
s he
v ements
ar us
ĠM asse
st yp
ĠL enk
um me
gen s
if est
Ġr is
Ġ18 45
ĠTe uf
oc aust
Ġnot iced
ays ia
ĠEx c
ĠEx pl
hand lungs
Deutsch es
ĠRes idenz
ĠUr kunde
Le icht
ĠErn ennung
Ġsuccess fully
ĠTal ent
ĠDiv is
Ġsil ber
ĠExper iment
Ã¶p fe
Ġkanad ischen
ĠUrs ache
Ġremov ed
Ġcelebra te
Ġermor det
A re
U P
a o
w ahr
ĠS id
ĠB lat
st hal
st Ã¤rke
Ġo lymp
ĠH aup
ra hmen
ĠN AS
id met
Ġas ian
Ġso ul
18 99
Ġman chen
ĠFre unden
ĠVers and
ĠVers ionen
Ġfl ower
ĠGew Ã¤sser
Ġkrit isiert
ĠSchwar zw
ĠNationalsozial isten
wander ung
F i
N C
ĠA gency
ro v
ĠT um
ĠT ank
ĠF itness
ĠL ith
kt ive
Ġor ders
ĠSie ge
mit tag
ĠEx port
sh aber
Ġrec orded
ĠMed aille
ĠMo ore
ĠJohann a
Ġu pper
ĠAlb ums
ĠEm ail
Ġfound ation
190 9
Ġlet ters
Verein igtes
Med iziner
Tra iner
ĠAstron om
Ġcollabor ation
Ġgeplan ten
Lud wig
ĠM ob
de cke
sch el
sch lossen
sch rank
ĠR ug
ier bar
ĠU EFA
ang a
19 47
Ġch icken
ĠNe apel
Ġ9 1
own ed
min der
Ġges ichert
Ġsupp orts
ĠBerg bau
ĠÐ ¿
ĠFlor ian
ĠHerzog tum
ĠChem iker
Ġrelig ious
ĠErinner ungen
ĠAdmin istration
ĠWit we
Ġspirit ual
ĠNiger ia
Krit ik
ĠBM W
Ġaccur ate
Ġeingew eiht
Ġdemon stra
/ *
l ov
Ġt ube
ĠM D
ĠM ast
ĠM rs
ĠF itz
ĠI tem
ach es
Ġl ift
ĠV as
ĠV eter
Ġge g
Ġre covery
Ġsich ern
ĠBe hinder
iz ieren
Ã¤hr en
ĠSchw ed
Ġ0 9
anc ouver
Ã¼h ler
Ġerw arten
Ġgel ungen
Ã¼l le
ĠMag d
Sp eichert
geord neten
ĠStÃ¤d t
Ġqualif iziert
kathol ischen
Ġzie mlich
ĠWissen schafts
Ġdoll ars
ĠabhÃ¤ng ig
T her
w enn
ĠS O
ĠM az
ĠD ass
st het
Ġc aught
hr ung
ĠZ DF
ĠEr hebung
ĠSp enden
Ġle ichter
19 42
ip er
Ġfe es
amen te
act ions
ĠAnt arkt
werb ung
ĠzusÃ¤tz lichen
ĠPop ular
Ġevangel isch
ĠBeam ten
Ã¤rt ner
Ġehren amt
S ub
h aut
l inger
ĠA ra
ĠB utter
ĠR Ã¼st
Ġer fÃ¼llen
Ġge kauft
os se
Ġauf gel
ag an
ĠBe wertung
Ġ18 35
ĠEin ladung
ĠNe ut
ĠDeutsch es
ĠCar r
ograph ischen
Ġ0 8
Un garn
05918818 0
Ġele ction
ĠLin col
ĠPer u
ĠFranz isk
190 2
Ġfact or
Ġfile d
ĠdÃ¤n ischen
Ġsech sten
ĠÃ¤uÃŁ eren
idel ines
Ġrechte ck
gun sten
E igen
E vent
H A
V ideo
and el
Ġp ic
ĠF ive
ĠH unde
ann over
ĠZ en
sp reis
Ġle tt
Ġex tended
Ġtra il
yn es
Ġ185 2
196 1
Ġstehen den
Ġair port
ĠRob in
Ġparticip ate
ĠLoc al
ĠWeimar er
ĠRess ourcen
K ont
R und
W ind
d ig
m isch
en burg
Ġin telle
Ġf asc
ĠB C
ĠP y
ĠP ension
ĠK ids
Ġan gen
Ġauf merksam
ĠAn ders
qu et
ia de
Ġcon fl
ĠCl ient
ĠLin ux
Ġkon kre
Ad d
wh ich
ĠKrit iker
ĠLux emburg
Ġschwar ze
ĠLy on
Ġcloth ing
ĠVarian ten
ĠZerst Ã¶rung
inu ier
B rit
K ur
L S
R em
S uper
i ja
n el
Ġf usion
ĠM ilit
il ie
im ed
ic ts
Ġvon einander
Ġk Ã¶rper
ĠSch um
du ate
ĠBer ichte
Ġcomp lic
ĠStadt gebiet
Ġcar ried
Ġinst ance
Ġhistor ic
west lichen
He il
Ġequ ipped
ĠAp othe
ĠerklÃ¤r en
ĠFel sen
Ġdep th
r unden
de ed
Ġp un
ol stadt
ĠK ast
ĠW id
ĠL ub
ĠL enn
Ġge fe
ou x
sp rachen
for mer
Ġsow eit
imm ern
ict ions
Ġgeb unden
Ġtr ig
ĠMed icine
bes te
ĠSeit dem
Ġnun mehr
Ġaufge hoben
Ġant iken
Dies es
190 8
Ġmag ic
Ġklass ische
Ġgraph ics
Ġeigent liche
Ġerle bte
ĠBom ben
F eld
M any
b rief
l Ã¤ndern
n acht
o iden
it ative
st es
Ġp ill
ĠF ont
ĠF Ã¤lle
ĠK ings
ĠK ohle
ĠO berg
tel ier
ne uer
be griff
Ġso fa
geb Ã¤
ĠWe ich
Qu alif
pro fit
Ġserv es
ĠVerb indungs
Ġstand s
Ġspe aking
Ġaufge teilt
Ġconsider ing
atÃ¼r lich
Ġlik es
Ġfit ness
Ġengag iert
fal se
ĠHoll and
ĠAuseinanders etzung
Wil helm
I X
V ID
Ġ Ã¤nderte
is is
ur teilung
Ġin ch
us che
ĠF oss
ĠG ift
Ġer leben
ĠO bst
ver kauf
ith er
Ġr asch
ap ing
ĠGe fe
ock e
ĠFr es
grÃ¼n den
ĠBet racht
Ġbo at
ĠRes ult
Ġsk ill
ender t
ĠSchm uck
ES CO
Ġident ified
ĠMiss ouri
ĠWach stum
ĠRepubl ic
ĠCa es
ĠOpp osition
Ġmittelalter lichen
Ġguarante e
ĠSoph ie
": "
d ra
u der
er ten
te e
re chnung
ĠT ak
sch rau
ĠSt ifts
end el
19 49
Ġwo oden
Ã¤nd igkeit
cl ing
Ġacc ounts
Ġho tels
uk i
En gl
schein lichkeit
Ġkommen den
Ġmain ly
ĠZeich nungen
ĠRos a
Ġspeziel len
ĠAust rag
Ġchines ische
Ġzweit es
ĠVize prÃ¤sident
Jose ph
Dav id
h ain
k lassen
Ġw asser
ĠA BC
ĠW esen
ĠL aub
ir en
ĠJ ess
ers teller
Ġre iste
pp t
ĠVer k
Ġent reprene
iss a
old s
Ġsho ot
ĠMittel meer
ĠPaul o
195 8
ĠPrÃ¤ fektur
frast ructure
Ġbege g
Ġorigin ally
Ġdipl omat
Ġintegra ted
d lich
f uÃŁ
Ġt ub
ĠS ay
ĠS ib
us hed
ĠB ibliothe
ĠD ess
ĠK lin
ut or
Ġg od
Ġan al
ab on
Ġzu gunsten
ver g
op ter
ĠÃ¼ber le
lie gende
Ġunter stellt
ĠGe legenheit
ĠMa ÃŁe
fin det
ĠAd ress
zent ren
Ġpolit ischer
Ġche ese
ĠTest s
kan al
Ġbeteil igten
Produ ktion
ĠJed och
ĠChallen ge
Ġverab schie
ĠLincol n
% .
h Ã¤ngt
on ische
is st
il deten
st iftung
ĠT au
ir ation
ĠN est
Ġst retch
19 11
ĠMan ufact
hol ung
ĠInter ess
ĠAmer icans
Ġ| |
Auf gelÃ¶st
ĠJo in
AN D
ĠKommun ikations
Ġumfass ende
ĠJos h
1 20
M Ã¶gliche
i Ã¨re
p ear
w eb
Ġm agn
Ġn utzt
ĠG is
ĠG am
im on
ĠH allen
ĠR unden
ĠC ir
Ġk reis
Ġk ommerziel
ĠO F
id ance
og ne
ĠVer y
Ġab ges
qu ir
Ġsch m
ĠAl ice
ĠIm plement
sh ips
ĠFilm regisseur
Ġcons ists
ĠBas eball
Ġfest ge
ĠRec ord
ĠgrÃ¼n deten
Ġerr ichteten
How ever
Ġqualifiz ierte
Ġvirt ual
Ġenth us
Ġdou bt
ĠForts etzung
Ġath let
K n
W appen
m ung
à ¸
Ġs itzen
ĠS E
ĠS M
ĠS emin
Ġb owl
ĠB aker
Ġv olle
ĠF Ã¼
om ing
ĠI rak
ĠH C
Ġbe er
Ġbe ziehen
ĠN OT
Ġge leitet
be zirke
ho b
ahl en
Ġange ordnet
ĠfranzÃ¶s isch
ĠDar stellungen
ĠHel den
Ġkeep s
ĠPra ct
ĠZust immung
Ġempf angen
Ġverg essen
ĠSaf ety
Ġperman ent
Ġeindeut ig
ĠBoch um
Ġrand om
6 00
B O
D ienst
N etz
S il
ĠB reis
ĠD OC
Ġo s
Ġan alyt
Ġwar ten
Ġunter schieden
Ġunter richtete
ph ones
Ġsh ares
Ġgew orfen
Ġbut ter
ĠAd dition
sh afen
Ġra il
Ġsol o
Ġbl ow
Ġrem aining
Ġbre ast
Ġorgan ic
amb a
kn Ã¼p
ĠÅ ½
Bo ot
ĠOut door
ĠPrinz essin
ĠSaar brÃ¼cken
Ġphotograph s
ĠSqu are
Ġnutz te
ĠTai wan
ĠAusstell ungs
i ago
Ġd ental
al ben
Ġm ic
ĠP i
ĠT akt
ĠF at
ĠF aktoren
ĠH ain
ĠL az
ĠN Ã¶rd
Ġge omet
Ġdem okrat
ime tern
Ġres ol
ren e
gew Ã¤ch
Ġmed icine
Ġed itor
gemein det
Ġfound ed
omot ive
Ġcook ing
ĠNamens geber
verteid iger
C ount
us her
ĠB ush
ĠB ibli
st an
ĠT alk
ĠL ip
ber atung
ĠC omb
Ġim pl
ess ed
Ġaus gestellt
lin ed
Ġ18 16
Ġex pression
use ppe
sk op
ude d
ĠIs lands
kir ch
Ġcolle cted
ĠPal ast
zentr ums
Ġbew aff
ĠOs lo
ĠEmp fehl
Ġbene f
Ġfal sch
ĠniederlÃ¤nd ische
Des ign
un er
ar est
Ã¼ ben
ĠT ieren
ĠN oten
ĠV III
est on
ad ion
ĠSch ult
Ġver br
id ad
Ġr ene
Ġr Ã¤um
Ġ18 10
ĠEin fach
ĠDe cken
be fehl
Ġwe ap
ens atz
ack e
ry pt
ret to
pro fil
haus e
ĠSo ul
ĠGen f
ĠMed ium
Ġbesch rÃ¤nkt
ĠFin ancial
ĠYork er
ĠKreis stadt
Ġtyp ical
ĠKont akte
wissenschaft lichen
Ġwei ÃŁe
ĠMitte le
Ġcert ified
Ġadmin istration
Histor ische
ĠGemeinder at
ĠNeck ar
D am
W o
w il
Ġt aught
ĠD ritt
ĠD ritter
ĠZ irk
ib il
ĠStadt rat
Th anks
Al ben
spre chen
ĠAir es
Ã¤m mer
ĠWinter spiele
195 6
Ġerk ennt
Ġcamp us
Ñģ Ðº
Ġinform iert
ĠGrÃ¤ fin
Ġweib liche
M a
W eiter
n ommen
or ders
re ll
ĠB uff
ĠM is
ĠD um
ĠD ress
ĠP ommern
ĠK upp
ĠH ad
ic ted
iv itÃ¤t
ĠO hne
all o
ver leihung
Ġ18 41
rÃ¤ glich
ult an
erv ers
Ã¤hr ungs
ĠMet ro
Ġcol umn
Ġreal ize
ush ing
Ġoft mals
zy linder
Ġident isch
ĠAnth rop
B ack
F S
P lay
Ġs uff
at io
ĠB j
ut ung
et wa
ic als
ĠJ immy
Ġab gelÃ¶st
Ġcon ver
Ġch annel
Ġunter nahm
ĠPr ime
Ġtra fen
St art
Ġdar stellen
ĠStra hl
ĠTra de
ĠFe ucht
Ġsub t
ĠauÃŁer gewÃ¶hn
ĠGemein schafts
190 6
ĠMer c
ĠWal ker
ĠKÃ¼nstler in
ĠPan el
kur renten
Ġpick ed
uert o
ĠStreit krÃ¤fte
Ġfrequ ently
G A
b Ã¤
m Ã¶
ĠM ei
ĠH appy
ra ut
ĠN BA
Ġan bie
Ġge zwungen
ĠBe cker
ĠÃ¼ber zeugen
Ġour selves
ĠReg iment
ĠGra ham
Ġind ischen
ĠGrund riss
Or igin
stÃ¤nd ig
Ch arts
ĠPla yer
ĠSol utions
ĠCr icket
ĠMount ains
Ġgraph ic
Bi ografie
ĠDok umente
Ġappoint ment
Ġfoll ows
S ec
m ers
al p
ĠP A
ĠK ay
ĠH im
ĠR uns
ĠL ohn
Ġk illed
Ã¼r mer
Ġe ase
pt y
ĠNe g
ĠGr imm
iss ippi
Ġpr Ã¼
ĠSte ine
stell ungs
entlich er
ĠZw eite
ĠEd in
Ġser b
Ġzahl en
Ġgl ad
str Ã¶m
plan ung
Ġzwe ig
kor de
Ġill ust
Ġhold s
Ġliter ature
ĠNachbar gemeinden
ĠSamm lungen
Ġbere chnet
Ġpersp ective
Ġsympt oms
ĠApost ol
F iction
I hr
P op
Ã¤ sten
ĠT oren
Ġc ro
ĠR ange
ĠL ay
ĠC ome
ul der
ĠO il
Ġwar n
qu ar
Ġ18 36
Ġor ange
ast ung
erk raft
In halt
olog in
utz ten
chn ungs
ĠChr istent
ellen ce
ĠJan e
ĠFr ame
Ġausge dehn
pl Ã¤tzen
mÃ¤ cht
Ġadv oc
Ġnet works
Ġchallen ging
Ġhon or
Bet rieb
Ġnut rit
ĠÃ¶rt lichen
Ġtroub le
Ġbeher ber
t ages
u in
u ages
ch el
Ġt iny
le e
ĠT ed
ĠC art
ĠC hal
os es
ĠBe weis
ĠCh rom
ign et
amm ung
Ġgen ieÃŁen
ma x
ĠSpiel zeiten
ĠSh ang
ĠZw eiter
Ġspe ech
Ġpat io
ĠHistor ische
Ġbew ir
195 5
ĠKom Ã¶die
fest ival
ĠVal ent
Ġren cont
ĠKing dom
Ġsett ings
Ġexpla in
ĠDub lin
ĠErwachsen en
Val ue
K enn
R ennen
j on
Ġ Ã¶st
Ġt oll
ĠD ag
ĠC el
Ġal cohol
ik ten
ĠSch uss
Ġzu verlÃ¤ss
ĠIn stagram
op ol
Ġ18 20
ĠTe en
lo yd
rat ic
zeit lich
ett a
ron ics
ende d
Ġsur prise
Ġrest lichen
rÃ¤n ke
ĠSieg fried
ĠCons ult
Ġdest ination
cep ted
Ġemploy ment
Ġinstru ctions
Ġproced ures
Ġhil ft
B lack
f isch
f onie
en ne
ie m
ĠS iz
ĠS ob
Ã¤ hne
ĠM ust
ĠD FB
ĠP ink
ĠE ier
ed el
ĠC P
ir s
Ġge pf
Ġre venue
if th
ov iÄĩ
ork ommen
stein en
akes pear
stre ifen
ĠErn est
fel de
bet riebe
ĠIns zen
ĠAir lines
ĠKre ise
ĠLu is
Ġcy cle
uum l
Parameter ID
ĠDreiÃŁig jÃ¤hrigen
Ġchocol ate
Ġgg f
Ġf ell
im aur
ou v
ver halten
Ġfor um
Ġun bedingt
ĠAb lauf
per rt
ĠVor gang
ock el
ĠFra ktion
Ġausge prÃ¤
lei h
ĠSen ator
ex p
Ġverm utet
ĠgrÃ¶ÃŁten teils
Ġorganis ierte
Ġcompar e
sequ ent
Ġbedroom s
ĠDemokrat ie
Ġsignificant ly
ĠChron ik
ugu ay
ĠSchicks al
E U
Z wei
d rom
Ġd rag
Ġt ells
Ġb ags
Ġm otion
ĠF M
ĠH au
Ġg rew
ck te
Ġst im
ĠIn se
ĠSp ar
ĠUn it
Ġ18 14
isten ce
Ġ10 1
amer as
gew alt
Ġverb inden
Ġsupp osed
anad ier
Ġsetz ten
ĠRel ief
Ã¼rz te
Ġprote cted
hÃ¶ hung
Bo den
Ġkont inuier
Ġconcern ed
ĠMitarbeit ern
ĠkÃ¼nd igte
ĠGord on
T enn
d re
f angen
an ke
te ch
Ġm Ã¼sse
Ġp ow
ĠC ad
Ġbe wegen
os er
ĠIn dependent
ĠLe ader
teil ten
ĠIm pro
ĠVor schlag
Ġknow ing
schl Ã¼ssel
ĠKinder garten
US A
ĠRuss ischen
Reg ion
ĠVorsitzen den
Ġdeb t
Ġumfang reich
ĠdÃ¤n ischer
Ġcondu cted
Ġdetermin ed
Ġimpress ive
ĠLein wand
ĠInnov ation
ĠVinc ent
B enz
k Ã¼nstler
it iert
it able
ar is
le k
ĠG y
ĠE gg
ĠR ote
et tet
Ġauf zu
Ġch art
ĠGe orges
ĠCh at
ĠBer Ã¼cksicht
uld a
ĠVol ker
Mit te
ÃŃ k
ĠBra uerei
Ã¤uf e
ĠEt wa
usst sein
Eis hockey
abil itÃ¤t
Ġwand te
ĠAf ghan
ĠEuropameister schaften
ĠGeschle chts
ĠRober ts
ĠErober ung
2 50
C P
F ot
M al
S M
h ut
k reise
l on
z ucht
ein richtung
ĠM au
ĠD Ã¼n
Ġp asst
ĠT un
ĠG R
ĠH ip
ĠH air
ĠR ott
ĠC ell
Ġk ol
ul ing
est adt
aus s
Ġ18 43
ign y
ĠArbeit geber
Ġcomm ission
Ġsim pl
ĠWei h
omb ard
Ġland es
ES T
ĠOper a
Exception Constants
ĠKind es
ĠKriegs gefangen
bÃ¼ ro
ĠChamp ion
Ġsicher te
Ġstrateg ic
ĠPil ot
Ġfiel en
ĠTenn essee
Ġhor se
Ġviol ence
Ġarg ument
ĠVoraus setzungen
Ġprogramm ing
ĠOze an
Ġbesetz ten
K ap
L aut
R ich
R itter
ĠB ull
Ġv illa
st Ã¼cken
sch wei
ĠR af
ed u
Ġl Ã¶sen
Ġge arbeitet
la in
Ġ18 32
dem ann
ĠUnter k
fl ow
ĠBas il
ĠMittel feld
ĠWer bung
ĠDem onst
laub nis
spro gramm
ĠGrand e
ĠMov ie
Ġappre ci
Ġexcept ional
ischÃ¶ fe
ĠRac ing
S ingle
g alerie
en ix
an as
ĠS D
at ible
he orie
Ġm a
ig l
ĠE uch
ĠW ink
eit h
ĠSt ro
la p
ĠSch icht
ess ischen
Ġaus gerichtet
ĠAn bau
qu ire
ĠAr c
Ġwe alth
ob a
Ġins zen
ĠGer d
Ġ0 2
ĠBet riebe
Ġeinz eln
Ġtyp ischen
Ġpost ing
Ġnor maler
ĠErn Ã¤hrung
Ġschn elle
196 2
Ġtre ated
Ġconc rete
ĠFÃ¼hr ungs
Ġhei ÃŁen
Ġgenau e
verwalt ungs
iro ler
Ġinteress iert
Ġemploye e
Ġverstorben en
H g
P osted
S D
j un
k asten
l uft
l Ã¶sen
Ì Ī
Ã¼ tt
ĠB ond
Ġc erem
Ġc ategories
ĠI ra
ĠI ce
ĠR ied
ĠL iver
ĠL aser
ĠV es
Ġy ard
Ġhe aring
ĠAus gra
ĠMar athon
Ġgen auso
fin anz
ĠSte el
Ġeinge zogen
ĠKomp lex
ĠMat rix
Ġunser es
pre chung
ĠKat astrop
Ġkon zip
Ġlist ing
Ġfour th
ĠGeist es
Ġqualif ied
ĠAnge legenheiten
col or
hab t
Ġtw ice
ĠUN ESCO
Ġinnov ation
Ġmer ch
Ġdraw ing
ti rol
ĠkÃ¤mp fte
ĠEdin burgh
u ine
er in
in cl
Ġd ent
Ġs oph
ĠS achen
ĠD ritten
ĠP ear
ĠF ollow
ra ben
Ġg rad
Ġg ifts
ier i
ĠSch mal
ess ing
ĠEr forschung
art z
ok o
iz a
Ġpr inted
Ġber aten
ĠEnt deckung
ĠZw ar
ĠHaupt ort
Ġend s
ĠHistor ischen
Ġsen ten
Ġreturn s
artet t
ĠÃ¼b lichen
Ġattra ctive
ĠBist ums
ĠSign al
ĠIll ust
Ġlic ens
ÅĦ ski
Ġconvers ation
Ġhinzuge fÃ¼gt
ĠHawa ii
ĠÃĦm ter
W asser
t age
w ass
z es
Ġa part
Ġs tet
Ġw inner
ĠB ug
ig ern
ĠF ein
ĠK lagen
ed ing
ir aten
Ġl ust
Ġl ib
Ġst il
ver w
Ġfor ces
Ġun less
sp ar
Ġj ene
ĠDe kor
be zirks
ges prÃ¤
ĠEx ception
ĠProdu cts
ĠWerk zeug
fert igt
ĠSol id
Ġfac ing
Ġfood s
ĠCent ury
ĠRestaur ants
Ã¤nk ischen
AuÃŁer dem
ĠD ak
ĠF Ã¤r
ĠE gypt
ot ische
ĠZ wer
ph il
ĠBer ger
Ġ9 7
ĠPar allel
ĠPh arm
act ive
Ġje wel
kl en
ĠHand lungs
Ġange kÃ¼nd
05918818 9
ĠTour isten
195 3
ĠKle idung
SS R
Ġnormal en
Ġgradu ate
ĠLi bert
ĠFlag ge
ĠDist anz
ĠBrie fe
Ġzusammengef asst
! "
K ol
M as
n immt
p ed
t lichen
w id
ar at
Ġein gemeindet
ĠT O
ĠT am
ĠG ibt
ĠG ieÃŁen
ĠH Ã¤uf
ĠR um
Ġbe achten
Ġ18 13
Ġ18 44
ĠDe te
Ġex cess
ĠGr ill
olit an
Ġro ugh
ĠSo f
fr Ã¼
ps ych
esent liche
Ġaccess ible
Ġern st
Ġmom ents
ĠRen ov
ĠWand el
iÄ į
Ġverste ht
ĠNic ol
ĠElect ric
Ġsitu ations
ĠnÃ¶t ig
Wel come
e xt
k ter
Ġs alt
ĠS ide
re kord
ĠT ol
ĠE asy
Ġc um
op ath
Ġsp anische
Ġ18 31
gr id
ĠGe lehr
ĠGr as
amm ad
ieren der
Sch utz
ĠTr ip
ĠTr ink
ĠAut on
Ġcomm and
ĠPhil ip
fra uen
AT O
195 2
ĠJournal isten
fÃ¼r sten
wes ens
ĠCle mens
gram me
ĠAR D
Ġfunktion iert
ĠRon ald
Ġspezial isiert
ĠFrances co
L uft
l ler
Ġt iefer
ar ben
re lated
ĠA ktionen
ĠH eld
Ġge heim
ik ro
ts piel
Ġver standen
ick el
ite e
ĠAb tei
Ġsh ops
ĠNach kriegs
Ġlie ben
pro vinz
Ġnew sp
Sch iff
ĠEl be
rol og
asch a
ĠBre ak
Ġbre ad
lei hen
ros sen
umb oldt
Her r
Ġstaat liche
ĠStrateg ie
ĠplÃ¶tz lich
B ank
M ost
S al
c in
r iz
Ġb ab
ol ith
Ġth read
ĠSt ufe
Ġver passte
Ġpla te
ĠQu ality
ott a
ron om
Th omas
Er ste
ĠChar lie
sprach igen
Ġtest s
ĠChem nitz
pec ted
ĠJer ry
Ġmill ions
dis ziplin
Ġbewe gt
Ġtas ks
L oc
P rÃ¤sident
p op
Ġin put
ĠA B
ĠA sk
Ã¤ ule
Ġp ussy
ĠC ulture
op ing
Ġr ig
sp or
Ġtra g
ĠHaupt darsteller
ĠPart ie
dr unde
sicht lich
Ġter ror
Ġabge lehnt
Ġfac ts
ĠZahl ungs
ĠGast geber
omet rie
Ã¸ r
ĠEntscheid ungen
Ġdeg rees
Ġdynam ic
Ġschwier ig
bay ern
Ġcrow d
Ġinstitut ions
Absol vent
L ied
P osition
a ult
g ru
Ã ®
ĠD est
hr ingen
ĠR ent
ĠL uf
ĠN HL
ĠV iv
ik ers
ĠÃ¼ber rasch
ĠSe attle
Ġte ch
ober flÃ¤che
An y
Ġgesch Ã¤tzt
Un sere
ĠStud iums
Ġshe et
ĠOst fries
Ġinternational er
Ġbesonder er
jÃ¤hr ig
ĠBahnhof s
Ġelekt rische
ĠBayer ische
Ġmat ters
Ġbetre ff
ĠDro gen
Ġdat iert
Ġult imate
ĠJob s
Ġauth ors
Ġassess ment
ĠDrag on
Sonst iges
L P
L et
m Ã¤r
in as
Ġa ben
re ffen
he iz
ĠD iction
ĠK iss
ĠR auch
ĠL is
ĠC ash
ĠO range
Ġre ader
id as
aus stattung
Ġ18 42
ett es
ĠTr ust
Ġteil te
ĠProdu zenten
Ġpl anned
sche f
schutz gebiet
ĠMont real
Ġresearch ers
Ġleg s
Ġsw imming
fred akteur
anze igen
ĠSold at
Ġpan els
Ġseem ed
Ġtransport ation
ĠkÃ¼nstler ische
Ġnorweg ischer
Ele kt
Ġimag ine
Ġign or
fÃ¤ll ig
Ġcandid ates
ĠKÃ¶n ige
Listen er
S etz
b ane
f ranken
ĠB ent
Ġo h
ĠP ath
ĠF L
ĠH end
ĠL othar
Ġy es
od ing
ler in
ord nen
ick te
rÃ¤ g
ĠLand gericht
zeich ner
ĠBo ys
Ġger inge
ĠHol ocaust
other apie
Ġvis ited
ĠEd itor
ĠAnt ar
Ã¶m m
Ġerreich bar
Ġdre ams
Unter nehmer
Bau denkmal
gesetz es
ĠErk enntnis
Ġerz ielt
ĠOrgan ist
verstÃ¤nd lich
Ġmil k
tett in
Ġerkenn bar
E isen
J a
l ong
u ben
á Ģ
re de
Ġf ishing
Ġf unny
ĠM esser
Ġc odes
ir r
Ġre leas
ĠAn aly
ĠEr werb
19 15
Ġunter teilt
uss ia
Ġ9 4
Ġfest gestellt
ĠText il
Ġged acht
ĠWes er
ĠTats ache
ĠArz ne
D oppel
Î µ
in tend
Ġs hr
Ġm orgen
ĠA kte
Ġn erv
ĠN elson
ĠVer ordnung
ĠVer folgung
ungs zeit
Ġvor be
Ġvers orgt
ĠMen gen
Ġfre ier
ĠStre ifen
ĠBed ien
gehen de
Fl uss
Ġcra zy
Ġenter prise
ĠlÃ¤ng ere
ĠJahrzehn te
