#version: 0.2 - Trained by `huggingface/tokenizers`
e r
Ġ Ġ
e n
c h
i n
Ġ d
ĠĠ ĠĠ
i e
u n
s t
a n
e i
o n
e s
Ġ S
a l
s ch
t e
a r
e in
g e
a u
o r
un d
u r
Ã ¼
a t
Ġd er
i t
Ġ w
Ġ s
i ch
e l
Ã ¤
Ġ und
Ġ v
Ġ A
Ġ B
e t
Ġ b
a s
un g
Ġd ie
Ġ D
Ġ i
Ġ 1
Ġ M
Ġ in
Ġ (
e m
ĠĠĠĠ ĠĠĠĠ
Ġ ein
a m
h r
Ġ m
Ġ z
Ġ n
Ġ K
ĠĠ Ġ
Ġ F
o l
Ġ G
d e
t en
Ġ E
Ġ P
t er
Ġ f
Ġ au
l e
i s
g en
i on
d er
i sch
Ġ H
Ġ W
Ġ T
i l
Ã ¶
Ġ R
Ġ L
d en
t r
a ch
b er
â Ģ
u m
Ġ er
Ġ I
i g
u s
o m
u t
r e
Ġv on
an d
Ġ V
Ġ1 9
c k
Ġ 2
i er
Ġ h
r o
Ġ N
l ich
Ġ J
a b
en t
s e
Ġd en
Ã¼ r
Ċ ĠĠĠĠĠĠĠĠ
i r
Ġ C
ei t
Ġ k
Ġ ge
ĠĠĠĠ ĠĠĠ
Ġd es
in g
Ġm it
Ġi m
) ;
Ġ an
Ġ g
Ġd as
Ġ al
Ã Ł
r a
an n
Ġ2 0
i k
u l
r ei
f t
Ġ O
Ġau f
i st
Ġz u
Ġ t
a d
e st
k t
Ġ U
Ġ Z
ie l
ĠS ch
Ġv er
e b
s en
Ġ o
Ġ l
a hr
a g
Ġi st
ĠS t
Ġf Ã¼r
Ċ ĠĠĠĠĠĠĠ
el l
i c
Ġ p
f f
ich t
Ġw ur
e h
isch en
Ġ =
Ġd em
Ġ {
s p
h e
at ion
v er
Ġ âĢ
o t
w ei
a h
i en
ĠI n
ĠV er
Ġau s
e d
Ġal s
i m
ĉ ĉ
Ġ st
Ġ }
Ġein e
ĠD ie
Ġ Ċ
o s
Ġs ich
o w
e g
Ã¤ n
Ġ r
Ġwur de
Ġ un
er n
e u
m en
e w
r i
al l
Ġb ei
) ,
c e
ĠA n
er t
in d
b en
p t
sch a
Ġ c
Ġw ar
o ch
ĊĠĠĠĠĠĠĠĠ ĠĠĠ
ei ch
h n
es ch
s er
g er
a p
ĠE r
ĠJ ahr
o g
Ġs ein
ung en
en d
Ã¼ ber
ei l
Ã¼ n
o p
or t
ge t
0 0
u b
e ut
isch e
c t
l in
u ch
u f
e hr
Ġau ch
et z
i v
( )
Ġ20 1
a te
ur n
r ie
Ġw ir
es s
scha ft
Ġ Ã¼ber
ar t
Ġb e
st er
Ġn ach
ĠS p
r an
l er
Ġ sch
ung s
Ã¤ t
st en
Ġ j
ur ch
l a
ĠU n
an g
m er
Ġ am
ĠE in
r u
as s
eut sch
1 9
l ie
i d
âĢ ĵ
o d
Ġb is
i gen
Ċ ĠĠĠ
au s
Ġn icht
âĢ ľ
Ġ1 8
ĠA r
i z
Ġs ie
n en
Ġz ur
Ġ20 0
et urn
g t
ol l
er s
Â ł
ĠS tr
Ġ a
p e
I n
Ã¶ r
Ġw er
ĠA l
ĠâĢ ŀ
Ġz um
te l
Ġ 3
u g
e x
q u
Ġ um
Ġein er
e ch
Ġwer den
ch en
Ġ es
Ġw ie
ĊĠĠĠĠĠĠĠĠ ĠĠĠĠĠĠĠĠ
Ġv or
ĠS ie
ĠP ro
am e
isch er
ter n
Ġh at
Ã¶ n
D ie
Ċ ĉĉ
Ã¤ r
st ell
i b
Ġd urch
ge l
Ġo der
z en
Ġ "
h l
h al
Ġun ter
i ge
ĠâĢ ĵ
Ġ ab
u e
Ġwir d
or d
Ġi f
en n
ier t
Ġs ind
or m
au f
t s
ĠE n
Ġi hr
Ã¼ ck
Ġ ent
a ge
k s
pt ion
ul l
h er
ch e
te t
Ġein em
) .
l o
ĊĠĠĠĠĠĠĠĠ ĠĠĠĠĠĠĠ
a k
ar b
g r
ge b
ĠB er
el t
st e
eb en
Ġ tr
p r
ei ter
lich en
ĠM it
i f
Ġein en
Ġ /
j e
er k
Ġ Ã
Ġ19 9
Ġ re
p l
u d
ĠD er
Ã¼ hr
o k
l and
p ar
E x
us s
ub l
ah l
n er
ur g
i ck
o de
ĠG r
( );
u p
il d
Ċ ĉ
e f
il l
u st
i a
r it
sp iel
S tr
ĠA us
o b
ĠA b
at z
n e
1 8
Ġ -
an t
Ġn ew
rei ch
lich e
r au
ad t
h en
ĠO r
o hn
ar d
2 0
o f
om m
Ġdas s
i al
p f
el n
b e
ĠM a
ĠA uf
in z
ei ten
a v
at ur
wei se
Ġr eturn
Ġs p
ĠC h
ce ption
S t
. .
Ġn ull
in al
a y
ul t
Ġ19 8
g es
ĠM ar
s s
ĠR e
a st
Ġ 4
an z
i p
Ã¤ l
ĠB e
o v
ĠĠĠĠ Ġ
u ÃŁ
ein e
al t
Ġ 0
ĠN ach
at en
Ġ/ /
it z
Ã¤ hr
ab en
ĠL and
ĠD as
l ass
o ur
at h
Ġ( *
et er
Ġz wei
Ġt he
ĠV or
e y
l en
Ġd eutsch
Ex ception
r Ã¤
or en
ubl ic
on t
Ġ +
am m
ĠI m
eit s
m al
ĠH er
ver s
Ġo f
te m
b urg
t h
Ċ ĠĠĠĠĠ
Ġ e
y pe
rei s
Ġ19 7
Ġs o
ro ÃŁ
o c
ich te
p er
( "
i le
Ġ 5
Ġn eu
ier te
in e
om p
en s
f ol
C on
kt ion
Ġs ow
Ġm ehr
p h
Str ing
ier en
Ġn och
il m
Ġb est
Ġn ur
h t
k en
at t
ĠStr ing
ber g
Ġwur den
ut z
a ck
ab le
Ġan der
b ar
Ã ©
ĠF l
Ġv om
b au
ach t
in t
ĠB r
ation al
s h
f l
b je
ĠS e
Ġ19 6
it Ã¤t
it ion
l eich
ĠD eutsch
n is
etz t
p en
al ue
a f
Ġz w
N ame
b r
ei m
Ġl ie
ĠZ eit
Ã¤ ch
W eb
par am
z e
el d
k eit
i an
Ġa ber
z eit
Ġge w
el le
n et
ei ster
s k
ĊĠĠĠĠĠĠĠĠĠĠĠĠĠĠĠĠ ĠĠĠ
om men
l em
ah n
D er
Ġ &
it er
ĠA m
Ġdie s
lin ks
Ġd e
r eturn
Ġ19 4
l ei
Q u
der n
z eich
Ġ1 7
i o
Ġw eiter
Ã¼ t
Ġ 9
E n
Web links
d u
ĠSt adt
Ġb er
l os
i re
ĠK on
a z
d r
p ublic
l ag
- -
Ġ et
m ann
ik er
Ġsow ie
hr ow
Ġ19 5
ĠG em
Ġm an
as e
f orm
Ġp ro
ol it
ĠT he
a gen
ĠF ran
ĠP l
m e
Ġ 6
ig er
f ten
iv e
g esch
Ġb es
ct ion
Ġk Ã¶n
et t
Ġk ann
ei te
d em
l ung
ol og
it y
Ġd ar
on n
m it
o ck
Ã¼ d
as sen
ĠR eg
f Ã¼hr
f ahr
g lie
ier ung
R e
eh en
i te
ch t
am men
p ro
at er
h und
sch en
ol le
Ġ gen
ff en
a in
ĠI S
g lich
spiel er
Ã¤n d
ĠG esch
ei gen
or f
ĠJ o
ĠD e
ar k
Ġ le
Ġge gen
E inz
P ro
Ġ el
et h
eh men
Ġ19 3
r Ã¼
T ype
at a
i vers
o st
A n
s et
Ġwie der
l i
sch ie
Ã¶ l
Ġsein er
und en
ĠB ei
Ġ ex
ĠUn ter
Ġein es
ĠK l
a c
y m
is sen
hund ert
ach weise
em ber
t eil
Ã¼n d
er v
Einz eln
am en
Ã¶ ff
Einzeln achweise
ie s
ĠM us
ĠGem ein
Ġs oll
is s
lie ÃŁ
ib t
ru p
b all
an s
B N
Ġsein e
ann t
ie le
u le
st an
ĠG e
ie der
ĠB au
ĠSch w
i um
Ġ= =
ĠSp iel
ĠIS BN
or g
Ġ ich
1 7
ĠT h
Ġ1 5
Ġhat te
Ġh aben
im m
ik an
h eit
r es
Ġdie ser
at or
f er
m ein
in gen
Ġg es
s el
ĠG es
ge ben
ic e
ar l
Ġ 7
p ut
b st
Ċ ĊĠĠĠĠĠĠĠ
ĠJahr e
in n
al e
Ġt h
ell en
ers on
ab e
f en
us ammen
Ġf or
Ġ 8
Ġ1 6
ĠU S
u te
w a
sp r
bje ct
y st
al s
ĠU m
ĠJahr hundert
Ġge t
ÃŁ e
ĠE s
ĠG eb
S ch
Ġbe f
a is
k l
A r
A l
D as
n ah
E r
Ġzw ischen
h Ã¶r
ei st
y n
I m
Ġg r
ĠT eil
og ra
ĠK ir
en z
Ġ !
e c
Ġb eg
Ġ <
on g
tr ag
w ick
I N
U n
iter atur
ĠJahr en
ĠS o
Ġt hrow
L ist
) )
ĠÃ ľ
Ġj e
Ġwar en
f e
ĠkÃ¶n nen
1 0
k te
ie t
in ter
Ġs eit
Ġt o
Ã¶ s
() .
R es
Ġ Y
Ġs el
a il
s b
ĠSt a
f all
Ġb et
on der
yst em
1 6
at ch
am er
w er
or e
ĠEn t
h m
g l
en er
Ġk l
1 5
un t
ar r
au pt
o ber
am il
ad d
in der
ur op
ĠB o
et en
z eu
Ġ Qu
ĠBer lin
Ġj ed
st r
Ã¤ hl
Ġg roÃŁ
Ġr es
" ,
au t
Ġf ol
l es
al d
w erk
ĠL e
ĠB l
on d
ÃŁ en
ĠW elt
Ġi s
ĠS te
ap p
f or
Ġ en
ĠI hr
Ġzur Ã¼ck
an k
te x
und es
E R
ol d
gen d
t o
a x
Ġbe k
ĠAr b
Ġdie se
ol e
den t
ĠUn ivers
" );
Ġer h
hal ten
l t
Ã¤ ter
ex t
ĠĠĠĠĠĠĠĠ ĠĠĠĠĠĠĠĠ
Ġ1 0
it t
at s
Ġaus ge
st ra
I d
Ġd rei
1 2
o hl
qu est
um ent
() )
ĠL ist
o ff
ing s
Ã¤ d
r ich
ĠF ilm
V er
ĠP h
ĠE x
st and
eh t
m ent
y p
m us
o id
e ck
la ge
Ġer sten
Ġbei m
ĠP r
Ġd ann
our ce
scha ften
ir t
ĠÃľ ber
Ċĉĉ ĉ
00 0
ig t
Ġ :
b t
Ã¤ u
ation en
Ġer st
Ġin t
i ff
Ġge hÃ¶r
am t
in den
Ġh er
ei d
Ġdeutsch er
1 3
rie g
() );
Ġan ge
ig keit
n ung
Ġd am
iel t
Ġ1 2
Ġ1 4
glie d
Ġ and
fol g
l au
ĠC hr
Ã¶ glich
tex t
or den
al en
Ġ1 3
k e
z u
im e
1 4
il der
ĠO ber
Ġw enn
an gen
ĠG er
Ġal le
ent lich
ĠH and
uÃŁ ball
b o
eu te
Ġ! =
.. .
el s
m in
as ser
an der
v or
w ar
hn e
stell t
Ġun ser
Ã¤hr end
Ġ eigen
an ge
m eister
w end
Ġth is
ĠGemein de
Ġg ibt
m an
ĠM en
Ġf inal
Ġg esch
k er
e am
h aus
ĠL eben
ri ft
ĠN eu
rie b
ĠOr t
ach e
v ent
Ġh ier
âĢ Ļ
ra d
or n
O N
m a
Ġk onn
y s
ri v
b ild
Ġv iel
ĠZ u
ist or
und e
G eb
ier ten
a kt
Ġihr e
e k
un st
ster reich
Ġjed och
r at
f Ã¼
ĠR o
Ġel se
ĠP ar
Ġ19 2
ĠA ut
L iteratur
ach en
7 8
ĠA d
lich er
ein en
as se
r om
Ġ ch
ig n
iel d
iz e
C h
Ġ |
z w
ĠB es
ist er
s atz
ct or
z er
ĠP f
ru ck
Ġf Ã¼hr
sch l
V alue
Ċĉĉ ĉĉ
ess ion
( ),
r en
ĠÃ ĸ
ĠB undes
ĠB et
f ig
Ġv oid
Ġc on
ur e
Ġd a
z ial
ĠA ug
de x
ĠC o
ab ei
au er
ĠDeutsch land
Ġsp Ã¤ter
Ġw el
ind et
tern ehmen
P ar
p ert
Ċ Ġ
c o
t on
Ã¤l t
Ã¶n ig
un i
in a
st adt
en tr
ei g
Ġs ehr
ar ten
i tel
ĠF or
st ein
ĠE l
Ġi hn
ĠJ ul
2 00
i de
ge mein
re u
au m
ĠAr t
it h
hal b
ĠF amil
Ġ )
Ġet wa
ĠF rau
ch er
ĠJ an
er e
p on
ge w
Ġin s
at ic
ot t
a der
am p
h of
ĠM Ã¼n
s etz
Geb oren
ation s
ĠM on
al er
on e
te d
O r
ĠM in
ĠP art
ur z
Ġh in
ĠN ord
b l
ie d
schie den
Ġw as
Ġg leich
ra y
Ġsein en
ig ung
ĠP erson
ĠF rie
i x
o u
en de
ĠW est
ĊĠĠĠĠĠĠĠĠĠĠĠĠĠĠĠĠ ĠĠĠĠĠĠĠ
Ġ *
ist en
ĠB and
o sten
Ã¤ s
ur t
un kt
ĠFran k
Ċ Ċ
Ġsein em
t t
u ff
ĠGr und
p ort
ĠG roÃŁ
Ġlie gt
ol f
Ġdies em
issen schaft
ĠVer ein
e gen
M it
m ar
s g
s uch
Ġz usammen
Ġ ar
Ġ '
Ã¤n der
a de
g ang
hal t
Ġg er
ir k
Ã¤r z
Ã¶ ÃŁ
k ehr
er en
ĠR ech
stell ung
Ġim mer
ĠL u
Ġander en
ult ur
ien st
Ġver l
) );
ĠM ann
Ġber eits
gt h
ĠEn de
irt schaft
Ġb esch
ĠAug ust
Ġw o
ĠR ei
Ġ& &
al ien
C lass
[ ]
en k
s on
ĠH aupt
or k
Ġver b
eit ung
ĠC on
s o
2 1
ĠP olit
M ann
ĠK Ã¶nig
ĠE urop
-- --
Ġun s
Ġsch on
z ahl
h ann
Ġ eh
in k
Ġk eine
u ar
b ach
Ã¶ff entlich
w ohn
h a
ĠN ov
ĠIn tern
ĠW ei
un ter
Ã¤ m
ĠM an
ĠV ol
N ach
Ã¶ ch
un k
Ġa kt
ĠJ uni
kt ober
= =
rup pe
ier e
Ġd ort
Ġer ste
z t
isch es
re d
en den
ĠT r
r icht
Ã¤n ger
5 0
la gen
ĠM ed
olog ie
ĠVer b
ĠH och
omp on
Ġsel bst
le g
Ġge l
om mer
ĠJul i
Ġihr er
ran z
c on
ĠF rei
ĠG ew
Ġfol gen
k eiten
ie f
A T
Ã ¡
amer ikan
I D
ĠPl atz
Ã¤n g
Ġl etz
o ut
Ġh eute
ich er
ĠMa i
f inal
de ut
k reis
ĠF Ã¼r
Ã¤ uf
re g
an is
ĠS h
Ġein z
1 1
f ach
a den
ĠK unst
Ġge f
st Ã¤nd
s w
Ã¼n st
ĠK r
ĠP ol
u ten
gr und
b uch
ĠG ra
ĠPro du
Ġkonn te
ais on
tem ber
erv ice
pon se
Ġo b
/ /
ĠO ktober
le x
Ġst atic
o ten
ĠH aus
Ġi hm
c ode
mit tel
p tember
ing er
ĠJ u
o gen
ĠB ild
D eutsch
el e
h eim
ĠS Ã¼d
Ġ19 0
Ġv ier
S ie
Ġo hne
ĠĊ Ċ
Ġt eil
ĠSt ud
ion en
ĠO l
Ġein ge
ole an
m Ã¤
es sen
Ġk am
un ktion
Ã¼r ger
an den
. )
ess age
ogra ph
re ate
ĠJo hann
ĠB est
Ġ .
n ew
ĠW erk
Ġneu e
ur r
f o
in nen
lo ck
ĠW eb
E N
sch lieÃŁ
re ch
ĠN ational
Ã¤ ft
Ġb r
ĠK omm
ĠH o
Ġs on
Ġp ar
pr il
ĠUnivers itÃ¤t
z ie
or ben
el m
f eld
w alt
ĠM Ã¤rz
A us
Ġver schieden
b ahn
ĠK inder
f ang
sch n
lin e
Ġ eben
tr y
op h
ĊĠĠĠĠĠĠĠĠĠĠĠĠĠĠĠĠ ĠĠĠĠĠĠĠĠ
ĠF ol
al is
ĠChr ist
ĠF r
ĠSe ptember
as h
zeich net
Ġal ler
ĠJan uar
ĠMus ik
p p
Ġdam it
z ember
ĠF ahr
ro up
ĠKir che
ĠB uch
os ition
Ġw en
Ã¼ s
ell schaft
ie b
ĠB eg
r or
er b
al ter
Ġ >
ern se
Ġ X
f te
v al
ĠStr a
fall s
ĠUn ternehmen
e um
ag er
ĠM o
Ġer folg
es en
ĠD aten
Ġb el
ĠU r
al se
l ig
r ik
c ess
ĠGesch ichte
ĠN ew
eth od
Ġer sch
ĠI I
ĠDie se
K ey
ĠNov ember
i us
as k
z ug
sh all
Ã¶ st
ĠR eich
em ent
ĠA pril
Ġal l
ĠList e
ĠLand es
Ġw Ã¤hrend
Ġ18 9
eh mer
rÃ¤ s
Ġgr Ã¶ÃŁ
k on
Ġ %
ĠĊ ĠĊ
em al
ach sen
ĠW asser
Ġ arb
m s
ĠZ wei
ranz Ã¶s
ĠD ar
kt ur
ĠDe zember
n ame
č ĊĠĠĠĠĠĠĠ
ĠF re
is h
3 0
ĠSp r
lem ent
ĠMen schen
Ġst att
ĠT ra
Ã¤ch st
ber t
ĠIn ter
te te
r y
ĠV on
ĠZ w
Ġ3 0
Ġsp iel
h in
Ġb en
ĠEin wohn
li ent
stell er
O bject
ĠW ert
Ġneu en
M ap
Ġbei den
ri ff
ĠAl s
Ġ Â
ire kt
ĠEin e
A m
ĠD urch
19 9
t ag
Ġb o
de ck
Ġer n
a ce
st it
ĠF uÃŁball
Ã¤n de
iv en
Ġ201 8
Ġg anz
ĠF orm
h ol
ĠG l
ech n
ĠS aison
Ã¤ hn
Ġ201 0
âĢľ ,
R E
ĠAr ch
ver b
ym p
r on
E in
mal s
D ata
ĠMit glied
Ġ9 78
ĠÃ Ħ
g abe
Ġv alue
i der
sch e
Ġge b
a ar
S T
ĠIn d
eb ru
ei le
ĠMit tel
sch utz
am es
los s
ebru ar
g leich
Ġd abei
p s
stan ce
k ommen
ĠN ieder
6 0
fÃ¼hr t
âĢľ .
Ġihr en
Ġf est
T o
c ri
es se
az u
ogra f
ĠSch ul
A t
h and
sch ule
b ew
Ġ201 4
Ġ it
Re quest
Ġh abe
Ġ201 1
os s
ff iz
app end
l auf
Ġz un
ĠT ag
s icht
G esch
de te
Ġm us
zeu g
Ġdies es
Ġst eht
re cht
st ru
Â Ń
Ġg ab
ĠSch wei
Ġ201 5
Ġthrow s
Ġk omm
Ġ201 2
ĠE m
lin k
Ġ201 6
Ġ200 8
ĠS er
h ein
ĠG ener
ĠMÃ¼n chen
Ġ ur
Ġ u
Ġk on
a w
Ġn ot
eh n
ĠW ien
Ġ on
e p
ĠH am
ĠVer lag
z ent
ar i
u er
Ġ200 9
ĠâĢ ł
ĠA t
ar n
ĊĠĠĠĠĠĠĠĠ Ġ
ĠR om
ie w
ĠL ei
o ub
wick lung
ech s
Ġb ew
p unkt
ĠSch l
ĠF ebruar
Ã¼ l
Ġd u
ann te
tr Ã¤
nis se
ĠN amen
Ġ201 7
Ġf rÃ¼
il it
rei chen
ol um
it zen
M ar
nah me
u ilder
Ġ201 3
v an
au sen
ĠW il
Par am
fahr en
Ġ2 5
Ġb zw
8 0
oll en
ĠPro f
gr amm
S p
č Ċĉ
Ġ ro
Ġdes sen
d orf
uch t
rup pen
ĠH al
ĠW ir
Ã¼nd et
k ir
Ġge st
A R
Ġtr ue
er st
w ahl
y te
Ġl ang
ÃŁ er
ĠH e
ĠH Ã¶
oub le
i ent
Ġ200 7
ĠSch au
Ã¤t z
ten t
ĠPh il
los sen
4 0
F ile
Ġweiter e
ĠR Ã¼ck
len gth
Ġs ei
Ġ200 6
ĠVer s
Ã¤u de
dr ich
ar ch
le gen
uf en
ĠW ohn
Ġc atch
tr ib
Ġdeutsch en
us e
stra ÃŁe
Ġf Ã¼n
ĠPolit iker
ig te
sch ul
is k
ut ion
Ġ at
Ġb ie
ĠR ad
o te
o ge
Ġ qu
L eben
ĠM al
Ġs Ã¼d
ĠS k
ĠI s
Ã¤hl t
schl uss
e qu
in en
Ġw ei
Ġ1 1
Ġerh ielt
Ġf ranzÃ¶s
ie g
est er
A L
al ten
Ġder en
Ġbes onder
an st
Ã¶ m
Ġn ah
ubl ik
i ft
ĠPerson en
st Ã¼t
ĠB ew
f ilm
Ġer reich
urr ent
ig es
f ern
Ġal lem
Ġst ell
Ġtr y
u ck
Ã¶ t
Ġ or
ei gt
t il
h o
c es
Ġf inden
ĠA uch
geb iet
w ert
Ã Ń
Ã¼ ss
rie ben
z iel
ĠZ usammen
Ġh and
P ath
t es
h ard
ĠK arl
th is
e v
ra ft
ar y
schie d
Gesch ichte
l an
Ã¼ b
2 5
je kt
isch of
sp ort
Ġg ut
N ode
eu er
O R
p el
ow n
ech sel
O ver
ri de
ch n
riv ate
ĠK rieg
ĠH ol
ĠArb eit
S et
ĠB ahn
Ġ200 5
ge stellt
Ġm uss
ĠN atur
B o
au l
ĠE d
Ġge mein
Ġf alse
Ġson dern
ar e
Ġp ublic
Ġeh emal
7 0
i dent
C o
is mus
Ġn un
wei l
ĠBer g
s ol
ĠL ehr
ĠWeb s
Ġbek annt
c om
Ġres ult
ar m
Ġander e
ach te
Ġer w
w est
in er
2 2
ein er
al if
k rieg
stell en
Ġbef indet
ĠA k
Ġc ase
ĠM ot
eite te
re chen
ernse h
ĠS ystem
at us
c l
ĠF est
ĠI l
L A
s am
ĠS a
ĠD an
hn en
G est
ĠBer eich
ĠM od
ck en
Ġp er
Ġh o
. ,
ĠFrie drich
on s
ĠIn form
at ive
ĠK n
ĠS al
ĠEinwohn er
Str eam
T ra
ĠD es
ĠH ein
ĠW er
Ġv iele
Ġ20 00
ad em
am pf
Ġ [
ĠD u
ĠB ay
ei tet
Ã¶r der
g or
Ġ2 4
ĠS eite
ĠS ommer
Ġw icht
ĠT itel
mÃ¤ ÃŁ
ĠFrau en
sch rift
w eg
em a
w e
er g
ĠSt and
A b
ĠD r
ĠS c
ĠSp ort
pert y
ĠB Ã¼
Ã¤n ge
Over ride
Ġden en
w ig
w as
ĠG ef
Ġ200 4
f ra
ĠReg ion
uff er
ĠS tel
Ġakt u
j ahr
y l
ĠF ra
c lass
ĠDeutsch en
glie der
ĠFamil ie
h Ã¤lt
Ġ18 8
Ġdeutsch e
ĠFl ug
ig ten
en nen
in s
ĠDie s
Ġbo olean
as st
em en
ab el
Ġbeg ann
ĠAn t
a i
in o
ĠK ap
Ġver w
kl Ã¤r
A d
ĠLeben s
le gt
ĠGe gen
ich ten
ĠE is
Ġw orden
ĠL in
d ings
4 5
Gest orben
ur en
ĠM ich
ran k
Ġm Ã¶glich
E lement
ges etzt
n ehmer
Ã¤ h
Ã¤ re
um en
ĠS ohn
v e
Ġzun Ã¤chst
ĠR es
o der
Ã¶ sterreich
tr agen
ĠO n
f r
e e
Ċ ĊĠĠĠĠĠĠĠĠĠĠĠ
ut t
Ġletz ten
ur s
ĠA uÃŁ
ur m
2 3
le hr
Ã ³
zen tr
ath ol
ont ain
gl isch
Ġz ahl
ĠS an
ĠM ill
h elm
ĠM eister
rei b
L E
ĠM et
ĠL ie
Ã¼nst ler
g te
pl atz
ĠL a
Ġdie sen
ĠAl b
Ġ201 9
i ver
j Ã¤hr
ran s
Ġ ,
Ã¶l ker
ĠB el
Con fig
g aben
ĠB en
enn t
st re
Ġsoll te
ĊĠĠĠĠĠĠĠĠĠĠĠĠĠĠĠĠ ĠĠĠĠĠĠĠĠĠĠĠĠĠĠĠĠ
Ġr und
ĠfÃ¼n f
f urt
ap an
Ġb eh
o ol
ri te
Ġeben falls
ĠM ag
Ġent wick
S S
Ġau ÃŁer
w ort
ĠFran z
amerikan ischer
o se
bje kt
ei den
ĠW eiter
Ġ( âĢ
19 8
M od
Ġwel che
se e
Ġin tern
Ġje weil
bild ung
et te
reu z
ĠN ame
ĠJu gend
U til
ut ter
ĠO st
Ġ te
us er
Con text
ion s
ri d
ĠD i
ĠK ar
och en
ann ten
ĠP er
ĠP at
e kt
g ument
2 4
Ġ200 3
au lt
Ġsch n
A N
in anz
G e
Ġer halten
Ġin ter
ĠO bject
ĠIhr e
+ +
im mer
al itÃ¤t
hr en
Ġd azu
Ġver Ã¶ffentlich
č Ċ
k ten
r sg
M essage
Ġ x
ĠK ultur
ĠC l
Ã¼ hl
a ff
Ġ1 00
Ġ em
sp iele
d ruck
ĠS eit
on nen
ĠB Ã¼rger
M an
P D
er y
ĠB as
ĠF ach
ĠC ar
den k
Ġ18 6
ber eich
Ġge gr
fol ge
ut h
Ġander em
Ġein ige
rau m
In dex
A uf
am ent
ĠB ar
ĠW ahl
F ield
ov e
et s
Ġdar auf
ĠHer z
Ã¤ che
eth ode
un ft
Ġ18 7
Res ponse
Ġ end
il ter
b lem
tr eten
st off
Ġs pe
at es
om b
ĠH ier
ic a
Ġ200 2
ĠF ot
ĠT od
T ime
um s
b ei
alt ung
gen ommen
Ġf rei
ĠK reis
Ġs et
ĠSch rift
ĠKir chen
e an
k m
M E
St ate
ser v
h Ã¶
Ġh ei
3 5
up er
sch w
sch ein
y r
ĠOl ymp
ech t
able d
ĠVol ks
ĠN e
ctor y
av a
Ġet was
ĠG en
op f
Ġsch w
H and
n a
imm t
Ġkomm t
Ġ199 0
Ġein fach
< /
Ġge ht
ck e
Ġn eben
k auf
č ĊĠĠĠĠĠĠĠĠĠĠĠ
ĠgroÃŁ en
I T
ĠH ans
ĠG el
ĠH il
Ġ200 1
ĠgroÃŁ e
st ag
Ġre g
Ġgew ann
ĠH eim
D E
Ã¼ck e
rei che
ĠSch iff
y ch
ach ten
sch er
Ġk ein
B uilder
it ter
ĠPro v
F orm
arb eit
ĠPar is
ĠÃĸ sterreich
z ig
ĠO b
i den
Ġ| |
che ck
u k
w ie
ip p
z ogen
u es
ig ht
Ġ2 1
in de
ĠAl l
ĠB i
F uÃŁball
ĠB ern
et ten
Ġge m
U R
h ei
ĠLand kreis
or s
ĠB esch
Ġauf ge
is e
en der
Ġin ner
B y
Ġ2 3
zie h
ĠD orf
B ei
Ġ2 2
ĠgehÃ¶r t
D R
ĠJahr es
Ġw ill
z el
h le
ĠJ ohn
et ter
equ als
ĠD a
S ervice
l ang
ĠS eiten
Ċ ĊĠĠĠ
ĠFamil ien
d ienst
ĠHer r
ĠSch n
lo se
l ow
at iv
ĠS il
stit ut
Ġl assen
ĠSchau spieler
Ġm ir
Ã¤ ten
nah men
ra g
Ġm al
G roup
ind ung
rit er
min ister
Ġv oll
b et
U S
gesch ichte
ell er
ĠAn d
ĠP eter
Ġihr em
ĠS el
ilit Ã¤r
an ce
4 8
ic t
ĠF ir
eich t
il om
Ġg ing
In fo
ĠGr Ã¼n
9 0
ar s
h eits
la y
ic ation
2 8
ers Ã¶n
ĠT echn
Ġab ge
Ġnah m
for der
ĠW ill
ĠR ah
w w
ik a
ig keiten
icht ung
Ċ Ċĉ
d ate
ro w
n ot
ĠWil helm
O f
ĠE ur
Ġd och
ĠD re
ef in
Ġver wend
ĠM e
p or
Ġersch ien
ĠM art
ges amt
ig it
Ġver m
ĠBet rieb
Ġhat ten
Ã¤ ss
Ġb rit
fÃ¼hr ung
H rsg
Ġ5 0
ur ger
ĠT eam
ĠSta aten
ĊĠĠĠĠĠĠĠĠĠĠĠĠĠĠĠĠĠĠĠĠĠĠĠĠ ĠĠĠ
k a
lo ster
l y
Ġ ?
ot he
ing t
O Exception
č Ċĉĉ
ĠI ch
ĠI t
sch au
re ak
l ungen
om in
k r
.) :
ĠB urg
Ġbe zeichnet
Ġent sp
st a
n ungen
p rivate
ĠEin satz
ffiz iel
iss ion
olum n
Ġk ommen
ck er
R eg
Sie he
ge ord
ĠArb eits
ver ein
Ġbest eht
Ġm Ã¼s
Ġp olit
Ġ199 9
ĠT er
ĠFol ge
au se
bau t
IN G
j a
Ġ2 6
Ġm ich
2 6
Ġw egen
Ġher aus
ĠK o
Ġsch lieÃŁ
Ġ( !
setz ung
a el
Ġ2 8
schn itt
Ġm achen
ĠF all
rit ten
ĠOr g
arr iere
ĠAn fang
w and
ne te
ĠR u
En abled
is ion
ĠP reis
Ġ20 20
Ġl og
ok en
ri ften
v alue
Ã¶r per
Ġal len
sch ung
Ġw Ã¼r
Ġh och
hr e
T he
ĠK an
o ver
S E
Ġspiel te
an zen
es onder
c ord
w elt
Ġzwei ten
ĠEr n
ĠH a
je ct
f ert
Ġst ud
Deutsch er
ĠMar k
ĠRech ts
---- ----
Ġst ehen
ograph ie
Ar ray
Ġerst mals
h af
Ġ199 8
ĠH istor
pr ession
ar get
h Ã¤ng
ust r
Ġ â
3 3
ĠP rÃ¤s
kir che
ar a
Ġ2 7
le ben
Ġals o
Ã¤t ze
r em
ater ial
Ġm ax
t oc
um mer
Ġh istor
sch eid
el te
ic al
d ie
Ġmehr ere
l ist
ĠY ork
c a
u ft
ĠRah men
Ġintern ational
Ġin d
re uÃŁ
il t
au r
E s
c ted
fÃ¼ g
nah m
> >
F or
Ġh eut
rit t
Ġver st
Ġ194 5
rÃ¤ ger
Ġk urz
ĠHam burg
Ġo bject
Ġn e
I ON
Ġn ame
ate gor
ĠG u
ĠUnivers ity
w irtschaft
t hrow
ĠA p
ol oge
ĠT ext
ur ation
ĠWebs ite
ond on
it te
ĠP aul
ĠJahrhundert s
ĠSta ats
Ġ y
ier ungs
ĠH eil
I I
at ten
ĠR aum
ĠU hr
5 5
h eiten
ĠS itz
toc ol
Ġst ark
te ger
g angen
Ġs ol
Ġsein es
Res ource
Ġaller dings
ik el
ĠZ iel
om it
ĠD em
ĠAl t
ĠF unktion
C H
ĠT or
ĠGener al
F a
ĠJo se
a e
19 6
teil ung
ĠR ich
o int
Ġre ch
ĠZ ahl
ĠĠĠĠ ĠĠ
ĠIntern ational
ern e
stan den
Ġh inter
2 7
in es
Ġc reate
is se
Ġw e
19 0
ĠPart ei
P erson
ĠEr z
icht s
ograf ie
utz t
ĠgehÃ¶r te
ĠA kt
. âĢľ
g n
ic s
av on
Ġden n
i qu
En try
a ct
Ġd ah
il le
4 9
eg t
ei sten
ĠM or
f Ã¤l
Ã ¨
w ard
Ġum f
ĠR hein
ĠWelt krieg
i as
B er
lich es
la st
lie b
Ã¤m pf
ĠL auf
ompon ent
ĠGra f
ĠZ entr
ĠR ef
all en
lich t
19 7
ĠW or
m l
c cess
ĠHein rich
Ġ199 6
Ġ198 0
ĠMus eum
ro t
p ublik
ĠW irtschaft
ĠLei p
ĠK ais
ĠMann schaft
m ed
d es
Ġf and
2 9
ne ction
trib ute
s ych
{ @
ĠL eist
ĠB ru
ĠW olf
ĠN eben
ein ander
sk i
Ġ Ã¶sterreich
ĠG o
m b
ich tet
pr Ã¤s
Ġc a
ĠGes ellschaft
spr Ã¼n
Mit glied
3 9
Ġ199 7
h ausen
van gel
um ber
ilom eter
F ilm
3 6
ĠT re
ĠW ie
lehr er
ĠW ar
au en
Ġverschieden en
M et
Ġre quest
esonder e
am b
af Ã¼r
ak e
an ten
am mer
Ġverwend et
ĠBei spiel
lei st
amm lung
g ar
ĠK Ã¶l
ĠAl ter
ĠVer walt
3 8
ĠW inter
ĠL ondon
urn al
ĠUn d
ten s
ĠB ad
ĠE igen
ĠLu ft
ĠT our
w issenschaft
i at
us Ã¤tz
Ġt Ã¤t
ess or
ĠM Ã¤n
ĠfÃ¼hr te
C E
an a
ĠD ort
ge ber
om at
ĠI hnen
Ġeigen en
En t
ik en
4 4
v en
am a
ĠT em
ser ie
ĠGe org
Ġs etz
ĠEnt wicklung
Al s
at Ã¼r
v ol
ĠK ont
k o
Ġ2 9
uch s
ĠD ienst
ĠK ur
Ġ199 4
3 7
gen den
Ġw eil
ĠS Ã¼
Ġs echs
ĠG ruppe
Ġo ft
ĠG ott
s ize
ig a
Ã¼nd ung
s weise
om as
ob il
ĠZ ug
ĠEurop a
ĠUS A
arb eiter
ĠArch ite
V al
Ġ197 0
ik ation
sb esondere
h il
ĠW eg
och ter
Ã ĸ
Ã¤s st
Ġtr at
tt p
k au
ĠA lex
z irk
Ġk ey
om pl
L oc
Ġg ilt
ĠEn g
ĠL ud
ĠB ed
ĠGesch Ã¤ft
Ġweiter en
eh m
ĠSch m
ĠP ap
l og
ĠA mer
g art
Ġ199 2
Ġarb eitete
it or
Ġbe de
zeich nung
E m
ĠVer tr
Ġsch wer
pt y
ĠB ischof
ge f
Ġgen annt
== ==
âĢ ¦
ock ey
ĠA ss
C lient
ĠKomm un
Ġst and
Ġ198 9
ĠFrank furt
Ġver s
ĠC omp
ĠB eh
ĠD o
Ġ _
st elle
ĠV ater
ĠA u
c y
4 6
Ġw eit
Ġin stance
Ã¼r z
iz in
ĠK at
ĠSta at
ĠN r
wei s
ĠEr st
ĠHÃ¶ he
un kte
Ã¤t te
ĠFuÃŁball spieler
ĠM eter
g s
G ibt
um e
ĠSt utt
ĠGeb Ã¤ude
k ey
ĠF rÃ¼
C ode
schlieÃŁ end
Ġbie tet
Ġein mal
am s
S er
Ã¶r d
ĠEur o
wei ter
l ing
Ġ199 5
C O
w Ã¼r
ei er
ĠG eh
ut put
Ġl ange
v Ã¶lker
ĠP ort
Ġ #
un n
Ġd irekt
Ġ Ã¤l
ĠK Ã¼
Ġ18 5
W ir
f rie
ĠD abei
ro s
N ot
Ġf ast
ĠFrank reich
al b
olle ction
ad a
Ġt ype
ob ei
S h
b ack
ik t
) :
st eil
ĠK loster
age ment
Ġn ie
all s
ĠO bjekt
ĠD at
D es
ist ischen
ef ault
Ġ add
Ġw est
O G
s eite
ĠfÃ¼hr t
ĠSpiel er
an e
ĠH of
Ġ20 21
u ter
W ith
f ass
Ġd avon
4 7
ul d
trÃ¤ ge
a ÃŁ
ĠMit te
anis ation
ĠD on
Ġf indet
reib ung
au ch
ĠS ol
f el
ĠS icher
ĠProv inz
J ahr
stan ts
ĠSchwei zer
ar te
Ġ4 0
ief ert
ĠP al
18 9
Ã¼r k
ĠN utz
du z
ĠEis en
Ġjeweil s
Ġw ith
* *
en glisch
ĠMich ael
ĠM Ã¶glich
Ã¼ gel
ĠM ath
Ġ199 3
g lichen
a he
ĠKl ein
Ġfolgen den
Ã¼ck en
ĠHol z
ĠmÃ¼s sen
im ent
Ġbesonder s
Ġje der
Ġ( (
ĠPl an
al k
ib li
uch en
gemein de
ie gel
Ġs ehen
Un ivers
l Ã¤nd
ĠStr eck
ĠMa x
] ;
t lich
ĠF eld
ĠGeb iet
ĠRe gel
ĠSte in
ĠLeip zig
ĠW ald
ra un
l ungs
ĠH om
or ge
8 9
ĠSch loss
a ktion
shall er
ar z
ĠE le
Ġgegr Ã¼ndet
Ġstud ierte
ch es
ĠC omm
ĠR ot
ĠF er
fahr t
Ġal les
it ten
ĠPro zent
a ir
ĠCh ar
Ġab sol
m Ã¶glich
Ġunter schied
b el
Ġ199 1
Ġmus ste
ĠPro jekt
ĠK ompon
n ull
ges etz
3 4
E vent
es ser
Ġn ieder
d s
im men
m od
Ġ @
al y
ĠEin zel
ĠtÃ¤t ig
rei se
ett bew
E D
leg al
ĠG ast
Ġw h
ĠT ochter
Ġkl ein
sch t
ĠD en
Ġl ist
cri pt
Ġv al
ĠK Ã¼nstler
pr Ã¤
Ġ Ð
to String
Ġj etzt
Ġb lei
av e
3 2
ĠS en
t ler
sch iff
Ġinner halb
Ġw obei
zeit ig
le y
sp ro
ĠI OException
ze pt
ĠStra ÃŁen
Ġl a
ĠEr geb
Ġw echsel
Ġit alien
r Ã¤n
Ġan geb
ĠK ant
ĠR est
p art
ĠBer uf
Ġkl eine
ĠZwei ten
Mar shaller
l et
a ffen
att ung
ĠV ide
eh l
ig h
ge geben
L iefert
ĠPro gramm
S ize
Ġ196 0
ĠkÃ¶n n
Res ult
ĠAut or
ig inal
ek tr
Ġunter stÃ¼t
f ter
A s
Ġn Ã¤ch
Ġunser e
en e
o und
Ġr el
ĠStutt gart
ĠMar kt
Ã¤r en
Ġ18 0
F A
ĠM at
ag es
it u
Ġviel en
r im
lig a
u ster
ĠT age
ĠF C
ĠInform ationen
os oph
Ar gument
I S
Ġ198 8
Ġm Ã¶ch
m et
ail le
s itzen
R ef
3 1
Pro perty
wend ung
' s
tocol Marshaller
Ã¼ ler
ĠB ef
ĠSchrift steller
S e
et ers
Ġauf grund
L og
Ġm ein
ĠN ot
ĠS eine
ĠThe ater
richt ung
S c
Ġsich er
ik e
Ġd afÃ¼r
im al
lich keit
ĠU l
Ġb reak
ĠT yp
b y
ĠBes itz
ĠS ein
< ?
ĠPro blem
ĠEn erg
Ġf l
ĠG old
Ġer rich
verb and
Ġges am
ĠLud wig
Ã¼n dete
ok ument
č ĊĠĠĠ
Ġschn ell
an c
ĠL iteratur
ust rie
en gth
sten s
M ethod
ĠE p
E igen
R O
Ġ Ã¶ff
ĠR olle
a j
A P
ĠStra ÃŁe
Ã ľ
I tem
Ġz eigt
Form at
le ch
gen t
la v
pro du
Ġkonn ten
19 5
ĠTh omas
Ġm eisten
ib le
ober t
in ner
T ext
Ġf rom
ĠschlieÃŁ lich
Al l
adem ie
t her
ĠW e
s burg
em at
n ehmen
ĠH ann
Ġins gesamt
ĠN o
ĠBe vÃ¶lker
ĠC or
ĠB is
z Ã¼
ĠL o
her r
st ieg
ĠIn s
Ġd an
j et
ĠHeim at
ĠIn sel
Ġk m
ĠMill ionen
uch e
ĠDeutsch e
ĠM aler
g ruppe
Ġent fern
V ers
gen de
auf en
Ġgegen Ã¼ber
ĠPf arr
k unft
ge h
B au
sch lag
ĠH inter
her e
rau ch
b urger
ĠW Ã¤hrend
ran ken
den s
Ã¤uf ig
ĠKais er
kt or
ĠReg ierung
Ġunser er
a sch
Ġerfolg te
ĠP ark
Ã¤n dern
en te
rei ben
ĠN orden
ak ter
Ġbis her
Ã¶s ung
az z
Er ror
Ġ ...
Ġd ouble
Ġvor h
ate d
ĠKÃ¶l n
f re
Ġd i
ĠR uss
Ġkl einen
F Ã¼r
war e
# #
al z
Ġgeb oren
O ption
Ġ( )
Ġd eut
Ġs og
Ġm eist
ĠMart in
op pel
Ġ3 1
Ġ198 7
l d
Ġo ffen
Ġd o
ĠE t
Ġf ile
Ġver such
U N
ĠCo unt
arb eiten
ver kehr
ĠAr ray
ĠZ eich
ĠSo zial
ĠProdu ktion
ge st
w Ã¤r
Ã¼ ter
Ġw ohl
H e
ĠG est
8 5
ĠD om
pert ies
4 3
ĠT ri
re ad
ack age
Ġl Ã¤sst
ĠF ile
spr ach
s etzt
ĠW ochen
Ġk ur
Ġn Ã¶rd
fl uss
Ġle ben
en ce
Ġin sbesondere
mb H
ĠD am
ĠIn stitut
Ġgemein sam
N ull
FuÃŁball spieler
ap pen
" )
Ġ198 4
ĠI de
Ġur sprÃ¼n
ĠK ilometer
ĠM utter
Ġn atÃ¼r
lo ad
ĠOr ts
ĠF arb
ĠF Ã¼hr
ĠAm t
ĠD av
ĠAuÃŁ er
8 6
il den
ĠR ed
ĠH ar
ord nung
gr ess
ot s
Or t
b ed
ber ger
pl an
b est
f est
ĠA s
stell ungen
y d
Ġp l
ri x
b te
und er
Ġwechsel te
Util s
ĠH el
an ien
ĠF ernseh
Ġp ol
ĠM ethode
Ġ198 6
fÃ¼hr er
ĠC he
w agen
Ġ' \
- ,
ge gen
ĠL es
deut ung
z z
ĠW ieder
Ġl in
4 2
ĠChrist ian
ĠT el
ĠRom an
Ġz usÃ¤tz
Ġeinz el
ĠBeg inn
ro p
ir st
s l
eg r
ĠP ra
ĠH en
schul lehrer
ĠK unden
ĠG eld
it s
ĠT ab
v oll
Ġex ist
ĠR ichtung
f an
Ġm oder
Ġn ord
ĠF ort
ĠVer trag
ĠOlymp ischen
en a
an de
Ġb lieb
ĠD ruck
S ystem
V or
Ġer klÃ¤r
ĠB ilder
Ġmit tel
I ch
Ġst ar
M us
ĠA c
ĠM ont
c reate
ĠSt art
ĠSel bst
7 5
v el
Ġo ber
ĠD enk
ĠE he
ĠSch utz
Ġge geben
st ant
urn ier
it Ã¤ten
++ )
ĠB ur
ĠAn geb
ĠÃ¼ber nahm
Param eter
Ã¶st lich
ĠMar ia
schaft s
f s
Ġl ong
Ġd ien
Ġerreich te
Ġb y
Ġern eut
z ung
Man ager
ĠW ein
E ine
G r
ĠM ap
ĠK ind
Ġw ahr
is p
9 9
ĠV ier
ern er
ĠSchwei z
Ġ Ã¼b
O n
ĠW enn
Ġsch Ã¶n
ĠO t
ĠSt Ã¤d
Ã¶r t
h as
iz ed
In stance
Ġvorh anden
ĠM il
Ġgel ang
Ġverschieden e
m o
ĠSch ule
Ġb ed
Ã¶ ÃŁe
hre ad
b es
St and
in ation
Ġd ata
ĠJ ur
Ġ195 0
w ehr
Ã¤uf er
Ġz eit
ĠG mbH
Ġsow ohl
Univers itÃ¤t
Ġk n
be k
7 6
ĠL ang
Ġ> =
k an
u h
T yp
Ã¤ chen
ĠIt alien
ĠDie ser
Ġr uss
Ã¤ user
ĠReg ie
ĠR el
anst alt
k tr
ĠC lass
Ġj a
mann schaft
ist r
iz ei
ĠG ed
ĠH in
it ial
Ġs e
In ter
EN T
A S
l as
u ild
Ġwen ig
F rom
W elt
Ġf orm
Ġ as
am ens
eil nehmer
ĠM ehr
C omponent
ĉĉ ĉĉ
lo b
Ġk osten
sch ech
ĠBo den
ĠN Ã¤
s ystem
ie sen
Ġal ten
pr int
yn ch
w ay
Ġh erv
se hen
issen schaften
z y
al le
tr itt
zeu ge
L o
S eit
ab hÃ¤ng
4 1
e der
Ġ ad
ibli othe
ĠGr en
Ġ198 5
Ġm ar
Ġen gl
on en
Ġz ehn
ant wort
w eit
ĠVer kehr
Ġr icht
ĠZw ischen
ist ik
fÃ¼ l
Ġ198 2
Ġb in
i am
ĠMa in
atur e
ĠBay ern
8 8
ent lichen
ĠIl legal
od y
Å į
eu ch
ĠAnd re
Ġhin aus
m Ã¶
ag t
Ġinstance of
ĠK urz
m m
ĠHal b
Ġwicht ig
geb aut
Ã¼t z
ÃŁ t
ĠL og
val id
ĠW issenschaft
P E
ĠP ass
is iert
ĠOn line
ĠIntern et
s ub
Ġn ahe
V on
p reis
Ġf ort
o x
de b
Ã¼r t
ĠAn ton
Ver ein
Ġr Ã¶m
Ġgew Ã¤hlt
art s
o den
in i
bar en
Ġ{ @
Ġent standen
Ċĉĉĉĉ ĉ
te gr
om e
os sen
ĠAn g
Ġ up
Ġc o
stÃ¤nd ig
F ernseh
ĠZ ur
ĠH ei
ĠW al
gesch lossen
if iz
U T
ge m
ĠSÃ¼ den
Ġzwei te
B uffer
ĠA ben
ĠK reuz
ri gen
ver t
Ġihn en
Ġ Ã¤
lin gen
Ġ6 0
ĠIn nen
Ġerfolg reich
zeich en
Ġbest en
es e
ge hen
ist ische
Co unt
um m
den burg
en ter
C T
Ġ org
Ġ198 1
Ġbes ser
eg ung
ger ufen
ĠGes amt
Ġs ub
Ġh Ã¶ch
sp l
h aupt
at te
ing le
ĠK omp
ĠW ind
ontain er
L and
w ohl
ĠO sten
ĠAuf lage
ĠBe deutung
k omm
Ġ198 3
g Ã¤n
_ _
Eigen schaft
inz u
Ġeigen e
7 9
zeich nungen
op er
ĠK in
Ġsie he
ĠArt ikel
Ġge legen
get S
ĠKl asse
k n
Ġbe vor
Ġpro tocolMarshaller
ue ck
an ken
Ġ197 2
Ġbest ehen
ettbew erb
Ġerrich tet
b ank
ĠVer l
Deutsch land
ĠAlb um
T ag
Ġein gesetzt
Ġsoll en
or gen
Ġnicht s
Ã¤ ischen
In put
la den
Ġzw ar
all y
in dex
ĠTh ema
Ġdah er
w asser
ĠS am
dr ess
ĠH au
ĠAn zahl
Fa ctory
ikan ischen
Ġp ath
Ġst r
olit ik
b ol
Ġf r
ĠR und
ĠOrt steil
ichte te
ĠCount y
( (
le ge
tr e
Ġent stand
Ġre cht
fol gt
K l
b Ã¼
ern en
ut zen
efin ition
ĠP ost
Ġehemal igen
w ald
ei ger
Ġw oll
Ġgen au
ĠBes uch
ĠK or
re f
ĠMot or
Ġ197 5
N A
ĠM ilitÃ¤r
Ġm ethod
ĠSch Ã¼ler
fl Ã¤che
re e
un ge
ĠS achsen
ĠEr folg
uch te
Å ¡
Ġs pr
ich ter
ff set
z ess
ĠC ol
Ã¤ch lich
Ġ Ã¤hn
IN D
om en
id u
ĠWest en
Ġm acht
ĠN or
Ã¤n den
get Name
er r
geb Ã¤ude
lau b
Ġsog ar
b and
ort h
A G
op p
ĠR obert
al og
ĠJo urnal
Ġzahl reiche
u he
ĠAuÃŁer dem
ĠM os
tr ol
Ġin put
ic an
ĠProf essor
t ype
ĠMit glieder
ĠPrÃ¤s ident
Ġ197 8
h ang
ĠT a
Ġges p
a ction
al tet
ĠSp e
ĠW el
ĠHerz og
ĠO per
Ġc m
B e
K on
ĠP osition
ein t
I C
ĠS and
ium s
ad urch
riv at
ĠG i
ĠverÃ¶ffentlich t
Ġbest imm
Ġ acht
ĠVer fÃ¼g
o ot
Ġ< =
Ġst amm
ĠMin ister
Ġfolgen der
ĠG ut
ĠT al
ĠS im
ĠT est
Ġheut igen
bar e
0 5
Ġre gel
0 6
te cted
Ġ197 4
ĠC om
ĠMit arbeiter
Ġm od
st ehen
. :
z immer
rei bt
g ra
ĠMed ien
> ();
ul ar
Ġem pf
eh ler
Ġ197 6
geb ung
g o
Ġn ational
im a
Ġhand elt
ĠC arl
c c
D at
ĠT rans
L e
Ġdan ach
Ġp ersÃ¶n
T h
Ġ us
ĠO s
b eh
Ġm in
Ġ check
ow er
te chn
ĠJ apan
Ġi d
ger icht
ok al
ĠA ir
spiel sweise
meister schaft
Em pty
ĠZ um
ĠE ing
ym n
iv al
ges ellschaft
Ġdeut lich
sch eiden
Ð ¾
y le
ĠB ot
Ġge ben
Ġc urrent
Ġstell t
throw s
Ġer Ã¶ff
Ġ197 9
Ġdam als
Ġo ffiziel
Die se
och e
ĠB us
ift ung
Ġlie ÃŁ
Ġwel ches
Ġentsp rechen
D ate
Ġgef unden
irekt or
ie ten
Ġsie ben
ynch ron
Ġdar unter
f red
ĠDre h
ĠFre und
st Ã¼ck
mÃ¤ÃŁ ig
ĠfrÃ¼ her
or y
ĠG ruppen
A p
v iew
f rei
ĠD DR
our ces
ĠwÃ¼r de
ĠT on
ĠEn d
T Y
ĠHo tel
pl ate
6 5
z ir
P er
m ark
T rans
ĠfranzÃ¶s ischen
Ã¤hl en
d a
Ġb ild
Ã¼ hle
E S
werk e
tem berg
s eit
n ext
Ġw elt
ĠBru der
ĠVerwalt ungs
vol ution
Ġ197 3
in c
n ach
ĠD res
ĠSil ber
ĠVerein igten
ha ft
br uch
Ð °
Con stants
ĠKrieg s
ĠV iel
Ġ196 8
ĠRei se
k el
ĠHer ren
ĠErn st
Ġso gen
Ġs omit
get C
f Ã¼r
ish ockey
ĠK Ã¶rper
Con tent
x is
ĠB ank
ĠM er
Ġ197 7
Ã¤ te
Hand ler
Ġ Q
U p
r ist
ĠN etz
ak te
ĠF inal
Ġlie gen
net en
Ġzu dem
ĠRei he
Ġf ield
ĠR ud
Ġ(âĢ ł
Ġso zial
ĠStud ien
u x
cri ption
an ischen
Ġbie ten
k or
ĠK ategor
iv idu
F l
P ackage
w o
ĠB ro
ĠK osten
ĠRech t
7 7
ĠM y
ĠG re
ok rat
" .
ge fÃ¼hrt
r acht
ĠF inanz
ier ter
Ġletz te
s um
Ġh Ã¤ufig
ĠJohann es
St atus
p ol
st all
0 1
Ġ193 3
ĠM aterial
un ction
op e
H och
d ung
ĠGes etz
č ĊĠĠĠĠĠĠĠĠĠĠĠĠĠĠĠ
ol a
me e
h am
U r
ĠK auf
ĠF el
ĠÂ »
ĠA g
il ler
sch inen
ĠE hren
Ġh Ã¶
Ġwen iger
ĠBahn hof
ĠSa int
ĠT o
v est
w or
Ġst arb
form at
ont in
Ġ197 1
ain er
ĠM el
ĠE ben
Ġg ar
ĠHer mann
ĠA ber
ĠZ Ã¼r
co unt
et ail
itz t
Ã¤d ag
d ig
ei der
s ie
Ġ ung
ĠgehÃ¶r en
Ġc lass
m ut
te st
ĠMÃ¤n ner
u hr
Ġerw Ã¤hn
ur f
ĠH or
ĠK raft
Ġver sch
6 1
ĠA G
T oken
Ġer k
Ġbei spielsweise
ag ue
ĠEr w
Ġ(âĢ ŀ
Ġte chn
ĠSt ad
Ġp os
ĠS ervice
ĠL age
yn c
P l
ĠZ ust
F rau
arl ament
ĠS ong
ĠSch Ã¶n
ĠNÃ¤ he
Ġst art
ĠGeschÃ¤ft s
Ã¤ch t
ĠD rei
ĠSp iele
Ġz og
wei sen
ĠB ran
Ġ196 9
Ġger ade
T able
ĠII I
ĠStel le
Vers ion
ĠAm ts
ĠT ro
Ãľ ber
w rite
U L
n o
it en
eld orf
ĠEnerg ie
c urrent
Ġd el
Ġsch war
ĠHil fe
A B
l eitung
ĠP rÃ¤
âĢľ )
6 4
ie te
om ot
as ste
fra ge
Ġn ode
ĠP fl
teil t
ĠV al
ver l
ĠSt u
ĠFor sch
f ord
und s
ar ben
Ã¤u ft
bl ick
Ġin dex
ĠK ol
Ġl ag
arb eitung
pr ess
A ut
ĠP sych
Ġ196 4
At tribute
Ġbet eil
denk mal
: //
an o
de d
En d
Ġ Âł
her ap
schlieÃŁ lich
B r
G em
ĠA f
ĠOt to
M L
f ile
ĠG arten
ĠW o
Ġ193 9
Ġk lass
Ġverb unden
ĠAn ge
Ã¶ hn
pr Ã¼
Ġs h
Aus wahl
A D
sp e
Ġe urop
" ;
d o
ĠS ex
Ġs of
ach er
ĠSchw er
5 9
ab il
ĠVerfÃ¼g ung
ar en
ĠgrÃ¶ÃŁ ten
ik on
Ġabsol v
C all
ĠCh em
v is
and id
ĠSer ie
p os
ier s
Ġzu vor
it i
ĠBevÃ¶lker ung
ĠI r
An d
Ġgem acht
U m
Ġ( =
tr a
d ien
ing ton
C omm
u al
ĠR os
Ġs c
il la
M ail
Ġd r
rei te
ĠRich ard
Ġw es
ig ungs
0 9
Ġb yte
an lage
Ġteil weise
ĠK om
ĠP o
ut es
ĠB Ã¶
P age
ik al
D e
k rÃ¤
Ġzur ueck
8 7
Ġein igen
ĠC D
stru ktur
deb ug
Ã¤l fte
fl ug
R I
Ġw ollen
Ġbef inden
Ġo pt
s itz
Ġres ponse
arb eitet
Ġpar am
ĠC as
ĠEr fahr
ibliothe k
k eits
W est
Ġh inzu
ges ehen
ĠG eist
p la
Ġw issenschaft
not ation
ra kt
Ġam er
c m
Ġver fÃ¼
ĠSie d
ĠK arriere
ĠR ein
ier ungen
ĠIn n
St art
ĠSpr ache
E T
M ed
Ġakt iv
Ġ196 7
ĠGemein den
ĠEl tern
ĠAus bildung
ĠArray List
ot z
ĠEle ktr
Ġl o
A ccess
tr ue
ĠT ier
rei fen
Tra ce
Ã¼ lt
ic o
iqu e
ĠS oc
lo at
ĠAuf trag
it al
Ġange geben
r c
Ã¤t zen
Ex pression
Ġi r
ĠEr d
Ġgen utzt
us st
w ind
Ġ194 4
ĠVerb indung
z ehn
enn ung
Ġmit tler
ĠT ran
ann el
. <
ĠW irk
' )
ien s
oc ument
ĠUnter such
imm ung
6 2
u tet
Ġel ektr
sch riften
Ġz ul
la ck
ĠG ar
rit te
frie d
i os
Ġver lie
rich ten
ĠBeg riff
Ġge hen
Ġk amen
isse ur
f Ã¤h
u el
ĠF ig
ĠG leich
ĠJ e
ĊĠĠĠĠĠĠĠĠ ĠĠĠĠ
Ġ193 8
deck t
ro ss
ym bol
Ġerreich t
ĠVor sitzen
list e
O L
r uf
ĠâĢ ¦
ĊĠĠĠĠĠĠĠĠĠĠĠĠĠĠĠĠĠĠĠĠĠĠĠĠ ĠĠĠĠĠĠĠ
Ġr et
Ġwh ile
ann e
ĠJose ph
spiel en
Ġ reich
ow s
Ĥ ¬
H er
w ir
Ġ196 5
Argument Exception
Ġherv or
ĠDes ign
Ġsoll ten
6 9
ĠV o
Ġentfern t
8 4
ĠS on
ei en
Ã¤t ten
stre cke
Ġf re
Â ²
ĠP or
Ġ193 0
Ã¼ss eldorf
f ield
ĠL au
ad ata
ĠRe publik
O T
Ġbei de
ut ton
Ġal t
Ġ194 0
Ã §
in put
ĠStreck e
id th
ĠNach t
ĠHer aus
ĠSe e
Ġ196 2
Un ter
E L
Ġ196 6
Ġentwick elt
W erk
d et
Ġk einen
ĠL icht
Ġl eicht
Ã¶ pf
mar shall
st at
N ames
ende te
geh end
ĠBerlin er
Ġgleich en
0 3
jÃ¤hr igen
at hl
Ġje den
ĠFrÃ¼ h
in ge
ymn as
ĠF il
ĠNach dem
Mod el
| |
le b
Ġnach dem
en ten
as en
ĠD ach
ĠSal z
Ġz ie
Ġau t
ĠSie g
Ã¤t igkeit
ĠPolit ik
Ġl oc
ial og
low ak
ĠMin uten
Ġstell te
H ol
Ġn orm
zeu gt
Ġfol gte
ĠP e
il ian
ĠMa ÃŁ
c le
i ber
Ġwir k
Ġbest and
z i
ĠAl le
T r
zentr um
List ener
an ger
ĠB ach
ĠW ider
Ġer ster
Ġ196 3
ĠUnter stÃ¼t
ikan er
itz e
ĠB aden
ĠP et
l l
ĠS ant
hal te
Ġk ompl
end et
ang s
Ġth at
a un
ĠM ein
ĠGr ab
Ġ196 1
0 7
] .
am eister
re cher
g liche
Ġ Å
ĠCh arl
ĠS in
L ine
P art
so zial
an y
Ġver tr
Ġdam al
ĠA ward
ĠF Ã¶rder
B IND
Ġ ra
ĠA ch
Ġent hÃ¤lt
ĠB or
ĠQu alitÃ¤t
ĠPhil osoph
Ã¼ss el
m el
eil en
sch uss
ĠF euer
ĠRe gen
D ec
ar ian
us h
ĠC ity
Con nection
Â »
ot h
lie ben
ĠFl uss
w esen
Ge ographie
k ap
ontain s
gr en
Ġgew esen
Ġge z
20 18
zeu gen
Ġres ource
ĠAk ademie
ĠDav id
ĠT op
rei ten
BIND ING
F I
f ung
M P
ĠJ azz
ele te
ĠD iv
ĠMÃ¶glich keit
Å Ĥ
Ã¼rt temberg
Ġ19 20
Ġh e
olog ische
str ing
0 2
ĠFra ge
rie ch
ĠPart ner
Ġge tr
rie ges
Ġen g
ĠT e
fol ger
Ġinter ess
. -
ĠPol izei
ar f
ĠnÃ¤ch sten
Ġ195 2
Ġ195 8
ĠK ampf
ag n
ĠSpiel en
ik o
Ġauf genommen
Ġst ate
Ġ195 9
final e
ĠMe er
9 5
k athol
ĠM Ã¼l
ĠI D
par k
ĠDam it
i j
Ġ3 5
inn t
ru g
Ã¤ch s
Ã¶ tt
ay er
Ġch ar
> (
ĠH Ã¤lfte
c ase
ĠK opf
ft ware
der s
ĠT ex
ien ten
ĠS Ã¤nger
hÃ¤lt nis
Q L
ĠD och
Ġan t
ite d
ĠM c
ĠZÃ¼r ich
on a
Ġer ziel
1 00
ud em
ĠFrie d
S o
ĠW h
ub e
U ser
ĠWerk e
S I
od es
ord in
ĠPr ess
ĠAlex ander
b esch
f Ã¶r
ĠSt unden
Ġo ut
hei ra
L O
Ġd Ã¼r
Ġm achte
Ġsch l
J o
h ung
ĠVide o
g ten
ell a
ĠC al
f unk
an ad
ĠWolf gang
Ġ scha
ĠD ist
ĠBr on
Ġ195 6
and s
6 7
O per
olog ischen
kau ft
ĠD enn
ĠW alter
il ien
C omp
Ġd ir
Ġeh er
Ġspe ziel
it ch
w art
ieren den
A C
Ġm eine
op y
Ġson st
ĠFir ma
r hein
Ġfolgen de
ĠStud ium
" ))
ĠB d
ĠF en
af en
Ġmehr eren
ck t
S port
ent wicklung
ey er
ĠKompon ist
f rau
ĠBÃ¼rger meister
N umber
Ġsch rieb
Sp iel
ĠP il
ĠArb eiten
k und
ag o
6 8
t eid
ĠD el
it a
Ġ195 7
aler ie
Ġ194 3
k ra
z eiten
ĠHann over
ĠR ock
G ener
In ner
Ġgemein s
Ġho hen
eu e
ĠJ er
Ġtr ans
sh ip
ĠProdu kt
kr et
Ã¤ um
N ext
eh len
ĠauÃŁer dem
Ã¤ us
er ror
ĠSchw arz
ĠWor ld
an te
rit z
Ġsetz te
Ġihr es
Ã¼s se
ĠS yn
ĠS ub
ĠSt il
In teger
ĠLe ague
ĠkÃ¶nn te
ĠH all
Ġpro duz
P r
ĠÃĸ ff
S ub
z uf
tern ehmer
n am
S pe
ĠD Ã¼sseldorf
âĢ Ŀ
ĠReich s
l n
Ġ8 0
Ġd ire
or te
Qu ery
ĠL Ã¶
it sch
ĠB und
ĠM ad
Ġc omp
Ġz erst
ab rik
Ã¼t zen
rech end
Ġg erne
Im pl
ĠSte uer
Ġwei ÃŁ
re v
Ċ ĊĠĠĠĠĠ
S ON
pro tected
or ie
eh ens
gel n
u sch
Ġr em
zieh ung
ĠAuÃŁ en
Ġ );
qu ire
f in
Gem ein
ff e
ĠEr sten
ĠMod ell
ĠBas is
M in
l ern
Ġm ed
west en
ĠIllegal ArgumentException
W enn
ĠP arlament
g y
t c
ill en
Ġ194 6
T rÃ¤ger
h an
Ġer f
Ġk ehr
ĠÃ¼ber n
Ġw Ã¤re
Ġver z
setz en
ĠVers ion
E X
ĠO p
Ġst ellen
rie f
b ischof
Ġdar Ã¼ber
ĠDies es
Ā Ā
ĠD is
ĠFra gen
ing ungen
C l
O utput
o is
Ġk athol
r et
ĠL iga
ach tet
Ġt yp
Ġon line
0 4
d ata
m ot
Ġg l
lin ie
gel Ã¶st
T eilnehmer
c lient
Ð ¸
F ilter
R el
ot al
ĠP rivat
wÃ¼r d
ĠGes und
P ol
ĠS et
ĠSt Ã¼ck
kl us
ĠInd ustrie
g ien
z a
ĠK ranken
ĠP an
Ġre ad
ĠCh ina
per atur
v ider
at iven
ĠDres den
ĠS u
le cht
ĠCh or
Ġbeg r
ĠErgeb nis
ĠL eiter
ition s
fahr er
Ġf alls
ag s
w irk
ĠB rit
Ver lag
Ð µ
st art
Ch ar
at tern
ĠF uÃŁ
Ġaktu ellen
K ir
Ġ195 3
Ġbede uten
Ġd ritten
ĠCl ub
8 3
o ben
at ter
mar kt
6 6
L ength
ĠP op
Ġer reichen
pl ication
ĠStand ard
sta at
ĠSt amm
Ġbes uchte
b eg
k raft
eig ht
U E
He ader
A ss
Ġb as
ĠW as
iden ten
ĠÃ¤l ter
.. ..
Ġben Ã¶t
ĠEng land
un ternehmen
ĠG et
olog y
Ã¤nder t
d i
Ġan schlieÃŁend
ĠS tern
ĠH u
Ġwoll te
ĠC ms
Ċ ĊĠĠĠĠĠĠĠĠĠĠĠĠĠĠĠ
Ġe vangel
ĠDenk mal
sp h
Ġ195 5
ĠÃ¤ uÃŁ
en g
rei sen
Ġj apan
ile d
V iew
d k
ĠH essen
ĠV oll
ul a
ĠIn teger
ĠTag es
Ġeben so
ĠP unkt
ĠOr d
m on
tem ent
ĠFol gen
ĠT eile
In t
ĠKÃ¶nig reich
ĠLehr er
ĠverÃ¶ffentlich te
r ic
ick en
yn am
Ġerh Ã¤lt
Ġs er
Ġver ein
ĠSta ff
ĠW and
Ã¤n gen
ĠKont akt
Ġs uper
Ã¤ gt
ĠN ik
Ġunser en
tr aum
U M
ĠH Ã¶r
la w
au sch
ĠR ang
Ġgen er
Ċ ĠĠĠĠ
ĠR unde
mit t
0 8
Ġ ap
ĠB raun
ĠR em
ĠZu ge
amerikan ische
an ische
ĠfÃ¼hr en
Ġsel ten
st ud
Ġz eigen
Ġge d
etz ung
in fo
ei sen
Ã¼r n
gr Ã¼n
G es
ĠA ust
Ġcon text
C D
z ip
Ġf inanz
par tement
wie gend
L ev
w ill
is ierung
Ġer z
R A
ol den
ĠR at
itz er
el ten
ĠP res
lich keiten
l assen
be zirk
ĠBe k
re quest
em b
ĠW all
ĠTh emen
C hr
ĠS onder
ĠW ort
Ġg ute
F F
Ġ194 9
ĠL ou
Ġtr otz
rik a
l am
Ġ194 8
ĠGer man
bet rieb
8 2
Ġbet rÃ¤
Ġ ass
ol or
Ġal te
A mer
ch ester
v on
D F
n eter
ĠSch lag
Ġ17 9
ĠH an
mus eum
Ġcon fig
ĠKon z
7 1
ĠC olle
ĠAr mee
ĠD eb
stra hl
mer k
Config uration
ir m
Ex ec
Ġ195 4
ĠZ udem
Ġ194 2
ĠKategor ie
ĠM iss
ĠF ern
meister schaften
Ġd efault
Ġl and
tern al
l Ã¶sung
Ġbesch Ã¤ft
ĠK amer
Ġver f
wei g
ert ig
M ax
O S
Ġpro f
A X
ĠS uper
ĠA pp
p le
ĠPr inz
ĠR a
ĠSchauspieler in
z og
ĠSch les
Ġent halten
ĠBau m
S etzt
ĠD oppel
l ad
em in
Ġn ehmen
ne y
ĠPh ys
w egen
ĠS m
ĠK rit
ĠAr ten
be ck
prÃ¤s ent
fÃ¶r m
b ie
ĠT im
or a
Ġeinzel nen
ĠerwÃ¤hn t
ĠM ass
ra p
ĠLand tag
Ġ9 0
Ġsp ielt
O b
d aten
Â °
Ġj ava
7 4
ĠP ublik
te ten
im it
ĠDan ach
t um
l eiter
ĠR en
Ġt c
ahr en
ĠÂł ĠÂł
ra el
Ġe vent
ĠAu gen
em ann
Ã¤d chen
Ġt arget
zir ks
Ġ194 1
ĠÃ¶sterreich ischer
Ġn o
i Ä
ktion en
Ġj Ã¤hr
if ic
7 2
ĠK ern
ĠEnt scheid
ĠPr em
ĠmÃ¶ch te
ĠEx ception
7 3
ei s
ate in
lie gen
Pro du
ĠBl ick
ay s
ĠKon tr
ĠAmer ican
ĠnatÃ¼r lich
ut her
ĠGr Ã¶ÃŁe
ĠB al
fall en
Ġne un
i ol
ĠS ow
zie hen
il es
Ġge k
unk ten
Ġsie ht
v a
ĠVer gleich
hal ts
ĠLin ie
A ction
on es
Ġpol n
Ġp rakt
Ġweiter hin
ĠUm welt
âĢ ŀ
land s
ĠBe zeichnung
Ġgr Ã¼ndete
Ġspiel en
-------- --------
k arte
fass ung
pf er
Ġ194 7
Fernseh serie
ĠNach bar
is Empty
Ġwirk lich
ĠL Ã¤nder
heira tet
ĠAn gel
ĠR ob
if ication
anst altung
f alen
ĠursprÃ¼n glich
dr esse
res ult
W er
end es
ĠGr Ã¼ndung
ĠG al
ĠP reuÃŁ
leich t
ĠD okument
S up
ĠAus wahl
c ontains
m und
==== ====
ay out
Ar ch
Ġho he
Ġm essage
Ġz entr
ĠR itter
ĠBr and
ĠForsch ungs
C om
L ong
ĠL OG
ĠW ahr
<? >
t schaft
Ġk omp
ĠM ult
b ef
amil ie
C ms
ĠO ffiziel
ĠSt ar
Ġ+ =
Ã¡ n
b ten
atch er
eig net
inde stens
in ts
ĠS old
Ġ193 4
s a
Ġer weiter
ie ben
Ã¶ sen
m eld
on ie
spr uch
g ie
ĠA ustr
ĠLie be
ĠÂ «
s dorf
ĠNach folger
richt ungen
m ap
ĠRud olf
ĠB ud
N ew
c ing
d at
Ġo ben
ĠVol k
Ġumf asst
Ġorg anis
ĠD ann
Ġabsolv ierte
Ġer folgt
ĠZeit schrift
ut ure
Ġmar shall
ĠAb schluss
eren ce
S ource
Ġstamm t
i i
Ġgew orden
k unde
rÃ¤s ent
ĠJ ean
deut sch
ĊĠĠĠĠĠĠĠĠ ĠĠĠĠĠĠ
ver walt
Ã¼ st
C he
C ON
ĠSt at
Ġun ver
ie ur
Ġm indestens
Ġhei ÃŁt
ĠB all
ic es
iz er
ĠAl bert
. ");
5 3
j o
ĠSc ien
\ "
on om
Ġehemal ige
Ġb l
Ġ195 1
ah nen
ĠUnterstÃ¼t zung
Ġd at
ĠâĢ ľ
Ã³ n
s berg
Ġj Ã¼n
ĠWill iam
S V
S te
ĠA uss
Ġunser em
6 3
v o
ĠW ol
ĠAr n
ĠsÃ¼d lich
ĠS w
Ġl Ã¤nger
ĠVerein s
h istor
d am
ĊĠĠĠĠĠĠĠĠĠĠĠĠĠĠĠĠĠĠĠĠĠĠĠĠĠĠĠĠĠĠĠĠ ĠĠĠĠĠĠĠĠĠĠĠĠĠĠĠĠ
5 1
b us
ot te
Ġ7 0
Ã¤t ter
Ġneu er
st o
ĠL Ã¼
ĠEisen bahn
Lev el
ĠL eitung
ff er
Ġsel ben
ieren de
st eh
ĠZeit punkt
ĠIhr er
Ġ193 7
8 1
u ell
Ġbek annte
ĠgrÃ¶ÃŁ te
C olumn
st att
Ġwel cher
akt iv
Ġarb eiten
ĠB on
and elt
ist in
Ã¤hl te
ĠGl as
Ġp ass
oc i
Ġp rom
ĠUm gebung
ĠMar c
ĠZentr um
ran g
Ġar e
ĠWien er
n ungs
Ġo ption
Ġbes itzt
ĠGeb urt
ĠIhr en
ĠZu kunft
ĠC a
Ċĉĉĉĉ ĉĉ
egr Ã¼ndet
TY PE
ĠEr k
P f
au b
ap e
k reuz
Ġsch loss
Ġ193 6
Ċ ĠĠ
aut or
T em
ĠT ruppen
Ġind ividu
ĠKant on
ĠDi pl
NA ME
Ġbe ein
ĠAb geord
ĠL Ã¤nge
Ġen try
sp ekt
Ġtr ad
ĠRe cord
ĠHer bst
ĠFor schung
E d
ug h
ie ger
ĠH um
Ġge baut
lag er
ĠKir ch
Ġblei bt
T ask
Ent ity
ĠAngeb ot
Ch ild
Ġk ennen
q l
au ber
ĠT ur
Ġp assen
unt ime
ĠfrÃ¼ h
entr y
B lock
i w
alif iz
ĠVer Ã¶ffentlich
Ġern annt
ĠH art
ab l
par ator
ĠAkt iv
Ġgesch lossen
Ġinternational en
M S
N ational
v ille
Ã¼nd eten
Ġeinz ige
ĠM ess
Ġc all
str ument
ĠRo y
ĠAn schluss
ĠReg ierungs
pro chen
ĠStadt teil
ĠTeil nehmer
Ġpolit ischen
st anz
st Ã¤tte
ĠTra in
wissenschaft ler
Ad dress
ann ot
ce pt
ĠbetrÃ¤ gt
ĠBr un
Ġausge zeichnet
s c
u c
al es
les en
Hoch schullehrer
Ġsof ort
w ork
ĠN orm
Ġp rÃ¤sent
ĠPol en
og le
Typ es
g arten
ran t
Ġentwick elte
ĠK enn
ch ar
ĠD Ã©
Ġa k
Ar t
red it
ens ion
ĠAut o
Ġ tem
ref ix
an lagen
ĠO pen
Ã¤n n
end ar
ĠJose f
D ire
oss ible
ĠPfl anzen
ter s
o o
ĠAben d
5 4
mus ik
gemein schaft
ĠPhil ipp
qu e
Ġan z
ra w
ĠBay er
Ġb ilden
eu cht
č Ċĉĉĉ
ĠE vangel
Ġel ement
ĠZusammen arbeit
5 2
ie ÃŁen
Ġein ger
Ġc om
ĠnÃ¶rd lich
ĠK olle
tr ainer
Ġk aum
end orf
D efinition
ir n
Ġj Ã¼d
bau ten
ĠAl ler
Ġneu es
w ord
ĠMed izin
re c
ĠOr iginal
Ġje de
br acht
ĠD amen
ĠfranzÃ¶s ischer
I L
Ġerh Ã¶
ĠE lement
Ġvor her
Ġhei ra
T H
ĠBr emen
Ġc l
eich er
Ġganz e
ep age
ĠfranzÃ¶s ische
Ġc omm
Ġbeg innt
Ġgesam te
D urch
ĠP unkte
la f
et a
ĠGe orge
P h
ĠZeit ung
B yte
Ġm ap
b ase
Ġ3 2
20 19
m ehr
Ġn ext
om et
get Message
ĠL ied
Ġge stellt
ĠfrÃ¼ hen
ĠGren ze
Ã¤ ger
ĠD azu
bar keit
ĠH igh
ĠOffiziel le
ĠEinwohn ern
Ġbild et
Ġh el
form ation
k i
n der
ter ator
ĠJ ames
H el
u a
ĠzusÃ¤tz lich
Ã¼ cht
je kte
Ġgleich zeitig
Ġerschien en
Ġd adurch
ĠD isk
t he
Ġst ammen
ĠBes onder
âĢ ĺ
t liche
ie ÃŁ
au ern
ers eits
Ġdes halb
G egrÃ¼ndet
Ġein f
Ġle dig
ĠFen ster
b Ã¼rger
s es
ĠEnt wick
ĠN S
ab r
Ġ euch
ĠÃ¤l te
ĠVer such
halt ung
ict ion
Ġm on
Z u
l v
Ġs ex
ow ed
Ġeigen tlich
ĠAndre as
5 6
ĠL ab
sp art
all el
' t
ĠHoch schule
isch em
ĠV is
ver tr
Ġverl oren
i or
ĠT urm
rei ber
C ache
Ã¼hr en
er ei
f unktion
ma ÃŁ
icher ung
Ġent spr
Ġjed em
Ġbrit ischer
ĠOrg anisation
z te
Ġp r
Ġin dem
ĠK re
Ġbr ingen
trib utes
athl et
ĠSchl acht
schein lich
Ġrech ts
ĠNutz ung
Ġledig lich
ei ge
ass ung
rem ove
k ampf
Ġh ol
ĠJ ack
iff er
ĠWirtschaft s
I V
ĠK u
ĠCh amp
Ġ193 5
ari able
Ġer war
lin ge
zeich nis
M eter
O ber
ĠJ ac
get Value
Ġbef and
ĠR and
if e
if ier
at ers
jÃ¤hr ige
Ġver heiratet
p ath
iz ation
Ġdar f
ĠÃ¶ff entlichen
R o
an walt
Ġzahl reichen
etz en
rau cht
Ġaktu elle
ĠLeist ung
ĠR h
ommer ce
aly se
5 7
Ġb ald
ĠProdu kte
ww w
Ġb em
ĠF und
ĠUnternehmen s
L egt
ĠJ ung
A uch
Ġs etzt
t d
hal le
ĠGr enz
D a
ĠW ild
ĠMÃ¼n ster
ĠSpr ach
S C
g ibt
rei he
Ġh ab
mittel t
rech ts
ĠTra iner
Ġzul etzt
ge g
ĠT V
am in
ĠH elm
Ġh alten
k unden
ĠAus gabe
ab ase
T ree
b ro
h eb
l Ã¤ufer
ungs ver
As ync
zw ischen
F e
J ob
y a
lau ben
L ink
st ate
ĠWei se
Ur l
ent liche
ĠAb s
at ik
ĠAn n
Ã¤d t
P ort
Ġh Ã¤tte
ĠOr gel
Ġex ec
ĠMo der
l eit
et ern
ĠBe zirk
ĠHerr schaft
ĠStr om
Ġs b
Ã¼n ft
ĠL ink
5 8
Ġk rit
() ))
ĠEs sen
Ã ¢
ĠUn ion
ĠFinal e
I f
eid el
a at
PD F
Ð¾ Ð
W riter
g a
ĠB onn
ĠJ ust
ĠEm pf
x y
Ñ Ģ
Ġh as
for schung
()) );
Ġf iel
op s
Ġch ines
c omp
ĠT rad
lo sen
č ĊĠĠĠĠĠ
stell te
ĠKl aus
print ln
Ġ* /
in sel
par se
ĠhÃ¶ her
u gen
Ġgesam ten
B l
w urf
Ġh aupt
Ġex ten
ĠT urnier
Ġer r
Ġd efin
Ġ19 18
ĠSt ock
Ġn immt
ĠRad io
Ġv an
D ir
S ession
ĠStr u
UL T
Ġkehr te
m ax
ĠK ab
Ġer mÃ¶glich
V AL
ĠW oche
ĠC an
med aille
g ut
ĠMus iker
Ġs ervice
ĠEin fluss
ĠMath emat
ymnas ium
ĠS uche
ĠB eim
ĠC ollection
ĠT Ã¼r
ĠB ack
ĠBei trag
Ġlog ger
B ahn
c ed
ĠN Ã¼rn
Ġp h
eg ment
ĠAn na
ĠAl ten
Ġall gemein
umen te
and lung
Ġper fe
Ġdien te
it ts
auf trag
Ġbet r
ag te
ri ck
st attung
Ġblei ben
st u
il en
ra ph
gew icht
Ġnot wend
Service Response
ĠB a
Ġpos it
ĠW Ã¼rz
at ung
alis ierung
ĠK lass
ĠR enn
V erk
ĠEx per
Ġbrit ischen
B C
ser e
Ġ5 00
ink el
9 3
M ill
re publik
Ġm m
ĠJ ak
9 2
imm el
Ġbel eg
Ġ text
or gt
ĠAuf gaben
y th
Ġver k
ĠMon ate
ĠS icht
ler s
ĠM Ã¤dchen
Ġg riech
9 4
T ER
h Ã¤user
an ischer
ĠL ong
pf el
W eiter
ĠAr m
n itz
ge legt
lo c
spr ache
ohl en
ĠWei hn
at o
ĠV en
Ġp aar
ĠP la
ĠH y
ĠAn gaben
Ġ- >
G er
ĠL eicht
oll ar
ĠBr Ã¼
den ten
Ġwir tschaft
D I
Ċ Ċĉĉ
Ġwer de
Ġwelt weit
O bjekt
ĠFahr zeug
Ġkn app
Ã¤dag og
Ġben annt
ã ģ
Ġer forder
and o
ĠB ell
ĠStr eit
Ġdamal igen
Ġ4 5
Pro perties
ĠF ehler
ach ts
ĠStÃ¤d te
Ġaus schlieÃŁlich
Ġr ule
pl y
ĠFl Ã¤che
ĠR Ã¶
Ġwen ige
P oint
ĠBest and
serv ice
tr ieb
ĠQu alif
herap ie
Ġheira tete
ag d
ĠMen sch
Ċ ĠĊ
ff ekt
An y
bl att
## ##
ĠJ es
ĠAn lage
lie fert
ĠHeil igen
um p
Val id
Ã ¸
Ġd est
ĠG Ã¶tt
ĠH ash
ĠVer wendung
ĠHal le
ul ation
ĠAb st
zahl en
Ġm Ã¶
Ã¤n gt
ĠFot o
C ollection
ab eth
id a
Ġschw ed
on y
Ġer setzt
ĠunterstÃ¼t zt
Ġi de
ĠF ischer
ĠN ur
m p
ĠWeiter e
hil fe
K ultur
ĠG Ã¼ter
ĠSicher heit
Ġm en
ĠE U
ĠVertr eter
wÃ¤r ts
! !
e ctor
krÃ¤ fte
s Ã¤tze
in ce
ĠW erner
Ġver kauf
ĠZw eck
d in
ig keits
Ġge pl
ick t
ar kt
le hn
pro gramm
Ġgel ten
ishockey spieler
Ġun mittel
haf en
ĠGott es
g arn
ĠSt ahl
ĠMa schinen
ĠBÃ¼ cher
Im age
lau bt
mÃ¤ ler
Ġbeteil igt
Ġw ohn
ĠF ernse
org ung
kl asse
ech net
ĠZusammen hang
omb in
ĠerÃ¶ff net
ie gen
ie fer
Ġf in
ian a
w en
sch ine
Ġf anden
sch uhe
ĠZ ei
Ġge prÃ¤
ĠSommer spiele
Ġpolit ische
ĠStaff el
ĠS Ã¤
ro ffen
Ġst Ã¤r
Ġbek ommen
Ġall ein
ĠS zen
ĠP rÃ¼
Ġt Ã¼rk
west lich
prÃ¤s ident
Ġf a
Ġo ther
Ġgen ommen
ĠR ennen
ir g
AT E
P olit
b is
i ar
ĠP fer
ĊĠĠĠĠĠĠĠĠ ĠĠĠĠĠ
n ehm
ĠI V
Ã¼ ge
ir ol
wer ks
Ġausge w
Ġ19 00
ĠN icht
Ġtrad ition
Ġw rite
ĠHand el
Ġ192 9
iel ten
ks am
spr ung
itu ation
ĠFarb e
anstalt ungen
ĠT at
ĠBen utz
Ġver d
D eb
r ats
ou ver
ĠArchite ktur
ĠP lay
Ġent scheiden
ĠIm m
An notation
ĠC amp
Ġ192 8
g ruppen
un c
ĠW ander
Ġp rÃ¤
K E
T V
ĠK er
ehens wÃ¼rd
N eu
ĠBl Ã¼
ĠNeu e
setz ungen
lav ier
n amen
| }
Ġi dent
ter t
Ġt un
In s
app ing
c is
Ã¼ ste
Ã¤hr t
Ġbest Ã¤t
alif orn
verwalt ung
ĠVer kauf
un ion
ĠK op
ĠF Ã¤l
get D
ĠRuss land
techn ik
g Ã¤nger
Ã¼ gen
kir chen
ĠCharl es
ĠD igit
UR L
ri ffen
ĠAn der
Ġjed es
Ġs od
Ġf unktion
ib r
ĠZeich en
Ã¼r gen
ra te
leg ung
ĠFÃ¼r st
P osition
es h
Ġt ime
Ġbede utet
Ñ Ĥ
ĠS S
ĠNational sozial
Ġ ed
at rix
ig i
rot z
ĠVorsitzen der
Amer ikaner
f ur
Ñ ģ
ĠS onnen
ist ent
W Ã¤hrend
ĠM acht
Ser ver
ĠDÃ© partement
F C
Ġf ind
le ger
ĠSch ool
|| (
ĠS atz
ind ungen
R ad
ĠMÃ¼l ler
Ġh ttp
stell ten
fl Ã¤chen
Pro vider
s Ã¤chlich
u elle
ĠS at
ĠW ehr
ock en
ĠFried hof
E urop
AT ION
Ġb ein
haus es
Jahr hundert
Ġerziel te
N O
W Ã¼rttemberg
f ort
P reis
ĠVerkehr s
f a
ass el
Ġ193 2
By tes
B ean
l ar
ĠS onn
ĠG Ã¤
um er
ĠZ uf
ĠSp anien
stÃ¤nd ige
C ase
W ie
gen er
ĠVer teid
9 6
; ;
L ayout
k ur
Ġs ource
ond s
Ġ rei
Ġd igit
ĠL eg
bje kte
ĠWer te
Ġjeweil igen
etail s
z Ã¤hl
ĠT schech
Ġin itial
Ġges etzt
Ġup date
Ġaut omat
] ,
Ġ user
ĠK al
ĠAn schlieÃŁend
ĠÃ¼ber geben
ĠB ig
ĠS ing
L S
R uft
Ġgesch rieben
ĠAut om
ĠBild ung
Tra cing
Ġro w
Ġqu alifiz
Ġ} );
uf e
Ä į
um Ã¤n
sh of
ĠFamilien name
ĠLou is
Ġle bt
eth oden
Ġex tr
Val ues
ĠC up
ĠStr af
ĠS ammlung
ell es
Ġp art
ĠLand wirtschaft
ĠTechn ik
ĠChar akter
ĠKin dern
st Ã¤nde
Ġreg ion
ĠA ud
Ġtr Ã¤gt
Ġricht ig
p o
Ġd ich
ĠF e
ic y
Ġun abhÃ¤ng
orf en
ĠGroÃŁ en
Ġwest lich
un e
Ġver br
Ġgr Ã¼n
b s
v ier
O l
R em
Ġin tegr
Ġl eich
Ġl ine
ĠspÃ¤ter en
forder ungen
ĠF ield
ĠH ard
wei le
scha fter
ehenswÃ¼rd igkeiten
Ġdurch gefÃ¼hrt
T E
Ġehemal iger
Ãĸ sterreich
ĠF in
Ġzw eit
Loc al
Ġk anad
stand s
Ġnieder lÃ¤nd
ĠH und
ĠFrei burg
amerikan ischen
Ġumf assen
G B
ĠD irektor
ĠL os
Ġl angen
Ġmus sten
h auer
r unde
und le
om ent
b as
ĠSo ftware
ĠZ immer
Ġp reuÃŁ
ib el
p unkte
ĠH off
Ġregel mÃ¤ÃŁig
ĠColle ge
I t
Ġf irst
Ġs ize
ĠL ager
res ource
Ġexten ds
ĠE vent
ĠP aar
b rit
ĠKr im
Ä ±
Ġstatt f
ĠEp is
P S
hol z
ĠT Ã¤tigkeit
on ym
ĠN amens
ri ge
ĠRe volution
ĠDan iel
Ġ1 000
ĠL ok
Ġj unge
u de
et ing
Ġb au
ĠM erk
ĠgroÃŁ er
Ġzun ehmen
t itel
Ð ½
Ġitalien ischer
ĠT urn
Ġge fÃ¼hrt
Ġer ror
Ġbr achte
ĠFot os
l Ã¤ss
z ub
Ġl aut
od or
M ethode
ĠK arten
Ġt Ã¤
ĠMus ic
ĠOrg anis
S ec
m esser
un sch
if y
Ġangeb oten
m acht
ĠB ill
ĠB lack
ĠG Ã¼n
klÃ¤r ung
Ã¼ ch
Un it
inde st
ĠPra xis
. "
ï ¿
ber n
au st
w echsel
Ġc olumn
Met adata
Gemein de
Ġber eit
ĠHom epage
M ode
n ern
eich ert
Ã¤l lt
Ġzw Ã¶l
Ref erence
ĠÃ¼bern ommen
A M
c lose
ĠB il
ĠN orth
ĠMa inz
R ule
Ġl ast
ĠIs land
ĠErgeb nisse
t a
ĠA uff
Ġb uffer
Ġ19 19
ra f
ĠU p
ĠUn ited
Ġfol gt
ĠB ra
Ġl au
Ġvoll stÃ¤ndig
T I
ĠT om
im eter
ĠS end
ien en
iv il
Ġre st
leist ung
B undes
k osten
schl Ã¤
Ã¶rder t
Ġâ Ĥ¬
Ġ Ã¶stlich
ĠR is
ikan ische
ĠL Ã¤ndern
Ġver pf
Ġander er
d ouble
h te
ĠA v
ĠFl or
ĠB ab
vers ion
Ġkl einer
N ieder
Ġkl ar
ask et
r am
Ġj ungen
kret Ã¤r
s m
ĠS ib
Ġsol che
ĠRel ig
p ossible
all owed
ĠMa il
Ġ192 7
mittel n
Spe c
l ong
ĠFir men
ĠW ettbewerb
Â «
Ã¤ den
y pen
Ġw or
Ġn utzen
ĠO ption
p ace
z ur
z us
ĠD ank
ur ity
ĠK ammer
h och
p ed
al a
Ġg uten
bau m
fer enz
H ttp
schau spieler
P os
Ġm ark
Ġ192 5
ĠInter esse
9 8
ĠD or
ĠG it
sp rÃ¼
Ã¼t zt
ĠSe c
ĠÃĸ l
Ġbel ieb
Verein igte
b ung
ar tet
Ã¼ m
Ġin form
ĠL im
Ã¼t te
d el
y er
ĠD ir
Ġh al
rei g
eil t
20 17
ï¿ ½
Ġs w
lin der
Ġent st
dr Ã¼ck
ĠPat ienten
er be
ĠW es
ĠIn vest
O ffset
ĠT Ã¼rk
Ġ ag
ĠG ran
ĠMittel alter
Tracing Enabled
Ġw ww
is Any
ĠC ast
wei te
ĠQu ellen
Ġsei en
g ing
ĠGl Ã¼ck
ĠTrad ition
ĠVer br
fol gen
Con trol
ĠRo sen
ĠNatur schutz
Option s
ĠFÃ¼hr ung
G et
ĠVerwalt ung
st rÃ¤ger
ĠS amm
Ġan s
wert ung
ĠerklÃ¤r t
ĠDreh buch
ĠK a
mit glied
enz t
an i
Ġ3 00
Ġbest e
E l
ge d
Ġs ah
ĠB arb
ĠO ffiz
erk unft
Ġsod ass
, ,
Ġ ;
ĠE ich
gew iesen
isAny TracingEnabled
an en
tel l
ĠSchm id
ĠSpe zial
g ern
ie ts
ĠT agen
Ã© r
ĠBr em
ĠDeutsch er
Ġverl or
Werk e
h el
ĠN av
ĠBe zirks
ĠGegen satz
H ier
Ġerh eb
Ã¤s ser
ĠS V
ĠS l
N o
or ten
ĠW issen
ĠJ SON
p oint
ash ington
Ĩ Ĵ
ĠP rie
Ġ19 14
Ġbe an
Ġein st
Ġver lieÃŁ
Ġval id
ĠHinter grund
ĠverfÃ¼ gt
T arget
ĠSold aten
St ore
Ġdar in
Or g
g au
ĠS ar
ubl iz
ĠSo uth
ĠHand els
ĠN ic
Ġc an
zeich nete
Ġdar an
ĠBei trÃ¤ge
ĠGer icht
Ã¼ hm
Ã¼hl en
M on
S Ã¼d
gel assen
age gen
ĠThe ologe
ĠF ritz
Ġh ave
ĠBo x
ĠJu den
= "
Ġ1 20
ĠT enn
ĠÃ ī
reu en
Ã¶ nen
sp ann
Ġpar ent
A uth
w issenschaften
sw ahl
quire d
ĠÃĦ nder
Ġentsp rechend
A pp
b a
le d
v olle
ĠW etter
ach im
Ġge bracht
ist ry
ĠSt ate
Ġtr agen
Ã ĥ
ĠW eil
ĠSp Ã¤ter
sel ben
Ġverl assen
stru ktion
Loc ation
gef Ã¤hr
ĠL ieb
ĠSt immen
Ã¤n e
ĠAr zt
Ġent lang
hol t
ick s
ĠRecord s
z if
Ġi tem
ĠPar am
la zz
lei tet
ĠReg isseur
own load
get Class
ĠSchw ar
Ġm ag
omm ern
bo gen
K arriere
or der
ĠT hr
Ġh ielt
N eben
S erv
d as
an geb
ĠK up
ĠStru ktur
ĠIn ner
l uss
ĠVer fahren
un s
ĠG attung
Ã¼n der
ĠAus stellung
ĠFest ival
cript or
ĠTel ef
Ġbeleg te
ĠGr and
rid ge
Ġhistor ischen
ĠVerb and
e den
Ġm et
for men
ha ber
Ġhaupt sÃ¤chlich
S k
ĠF ak
ĠK lavier
ver trag
Ġst re
Ġweiter er
ĠGer hard
Ġwicht ige
O P
ul en
minister ium
b yte
Ġver gleich
ed ia
mal e
er o
Ġm einer
Ġer inn
Ġ{ }
ed t
Ġ193 1
Z ur
Aus zeichnungen
r is
ĠK ey
ĠWebs eite
ĠWÃ¼rz burg
I s
I dent
n ess
ur a
ĠE lem
ter e
Ġpar se
sub string
wind igkeit
h emal
v m
ĠR iver
** **
c el
Ġz eig
re en
ver lag
ĠPf lege
ĠUr s
Ġf ertig
Ġbest immt
T R
n ummer
ĠW ies
Ġkosten los
Ġs ynchron
as on
ĠJ ob
Ġder zeit
lin ik
vent ion
ĠDar stellung
9 7
Ber lin
ĠRef orm
ĠB lock
Ġd unk
ur y
el ement
ad rat
Ġver treten
ken nen
F ol
ĠBau ern
ĠSte fan
pla ce
T hread
iel le
Ġ4 00
Up date
S P
ĠG rie
Ã© e
Ġgew innen
ĠGel Ã¤nde
er m
Ġeurop Ã¤ischen
asket ball
c ar
c as
ĠP a
Ġar gument
ĠHau p
Deb ug
ĠT her
ĠString Builder
eim ar
ĠChrist oph
ĠArch iv
ĠPap st
Ã© s
Input Stream
A c
bo x
ĠS ign
C ontainer
G ER
k opf
Ġs ession
ĠM ik
Ġver kauft
ĠâĢ ļ
Ġ192 6
rik t
Ġverb rei
ĠS up
ĠI st
Ġge halten
Bau werk
M ark
gel d
Ġf uer
um pf
Ġp ort
ĠKomm ent
Ġarb eitet
P RO
i h
ĠS ingle
Ġausge tragen
ĠStel len
ĠBetrieb s
Ġsogen annten
arr y
ĠHaupt stadt
ĠRich ter
d ar
ĠÃĦ r
zieh ungs
sie he
l Ã¤nder
Ã ½
ess ages
Ġ192 4
Ġlin ks
ĠH aut
Re cord
Al b
ĠStand ort
Ġrel ativ
g ab
ch em
19 45
ĠI f
ĠC entr
f il
st Ã¤r
ĠS PD
tr Ã¤t
Ġum fang
Ã¤ ume
ul gar
glie dern
an isch
ĠK as
ĠH eidel
ĠL A
Ġ3 6
ĠAd olf
ial e
c up
ĠH eute
Ġt ats
ver fahren
ri a
ap ter
vers ammlung
er er
ĠPro zess
Ġverm ut
ip s
ĠHe er
G ruppe
b uild
st il
ĠH ir
ĠBesch reibung
ĠProblem e
at is
il dete
ĠL ive
ist isch
az in
co ver
Ġbestimm ten
ĠBran denburg
Ã¤ ische
d t
FA ULT
Lo ader
o us
ĠA ktion
ĠM ex
par e
ohn er
Ġle bte
ĠPhilosoph ie
K reis
ĠO ff
ĠAn teil
00 1
ĠEin fÃ¼hrung
Ġtr e
ĠDiv ision
9 1
Ġd ient
Ġ19 10
Ġwieder um
k ord
Ġan zu
ĠSt atus
ct ive
ĠAl fred
geb iete
ĠKap elle
ĠauÃŁer halb
ĠSicher heits
Ġm ilitÃ¤r
ĠUn ternehmer
ĠNach richten
ĠSoc iet
Ġw ider
ĠB rief
ĠD ro
ik ations
sp ir
Ã¶r en
brit ann
ah er
Ġbet rieben
č ĊĠĠĠĠĠĠĠĠĠĠĠĠĠĠĠĠĠĠĠ
ig ungen
ĠMet all
Ġverpf lich
ĠMar ien
gent in
Ġer baut
ct iv
ĠGew icht
alis iert
Ġv Ã¶l
ĠVor der
ĠY ou
ĠTran sport
ehr t
ĠSch ne
ĠBer eits
ĠIde en
Verk ehr
ĠE hr
Ġver antwort
Ġch ild
ĠPres se
t p
Ġst ieg
ĠDar m
ĠLand schaft
Re ader
ide o
Ġvermut lich
d essen
ot o
Ġverl Ã¤uft
ĠU N
im me
Ġbesch rieben
on ik
ĠH aar
be zogen
ĠmÃ¶ch ten
ĠH oll
Ġet c
or et
ĠT ype
Ġo ffset
Ã¼hr ung
f ace
y t
ĠO pfer
B ase
T P
p ack
ĠV ort
Trace Component
D O
ĠW ashington
Ġer fahren
gemein den
ĠRoy al
Ġhel fen
n ode
ĠG alerie
ĠSchw ester
ĠComp uter
Che ck
c er
ĠG lock
geb nisse
Ã¼ck sicht
ĠdÃ¼r fen
if ied
er te
ĠL ig
ĠIn stit
20 16
Ġbet rug
y e
ard s
ĠAuf bau
Ġlie fert
ei ben
ĠAuf gabe
Ġviel leicht
Client Exception
ĠW ach
Ġg Ã¼nst
ichte ten
ĠWider stand
wer te
ennt nis
hei mer
ĠSt iftung
ĠÃ¼ber wiegend
pr et
ĠSow jet
j or
Ġl ok
Sch wei
Ġgleich nam
ĠGrund lage
ĠTem peratur
h or
ĠS ach
ĠE st
ĠAc adem
j ava
ĠP ier
Pro cess
ĠTh Ã¼r
ied lung
Aut or
k ultur
iÄ ĩ
Ġer fÃ¼l
ot a
geb racht
ust om
ĠS C
Ġb uilder
Ġent deckt
ĠK ult
ĠBe zug
ĠErz bischof
d b
Ġd iver
Ġs uchen
ĠNieder s
ĠF arben
ut il
In d
ĠKarl s
we der
gangen en
Ã¶ hne
Ġk aufen
ad el
len burg
Ġversuch t
Ġprom ov
ok e
ĠFran cis
ĠWei ÃŁ
ĠBeruf s
ĠJak ob
T echn
d urch
Ġ Ã¶
au d
ĠH ause
ĠW affen
Ġl ength
Ġkann st
fr ist
an er
ĠGeh eim
Ġunmittel bar
z lich
ĠArb eiter
f alse
Ġs agte
iter ator
B and
Ã¼ mer
ten d
Ġk or
gr Ã¶ÃŁ
Ġgesch affen
Ġun bek
ĠHen ry
ĠVier tel
o ks
Ġg anzen
ĠAuf stieg
u id
Ġo utput
m t
Ġar ch
ĠNÃ¼rn berg
ĠG ust
ent al
ĠOr te
ĠHo hen
D B
ĠP re
ĠM Ã¶
sp ar
ĠBes atz
Ġzerst Ã¶rt
I P
S a
is on
ĠR icht
tr o
Ġges ehen
Ġ192 3
ĠIntern al
rech te
ĠBew egung
reg ierung
u gend
ĠV om
ul ts
Ġst ets
ige m
M ot
Ġw eg
ĠD ate
eich en
omin iert
i od
v ir
ĠV an
ĠEin trag
lie fer
Ġir gend
ĠNik ol
Ä ģ
or ia
ĠD E
ĠE reig
Ġausge stat
Nach dem
ĠHÃ¶ hen
D igit
om an
ĠU ser
Ġamer ikanischen
w in
ar ischen
ĠPro te
ĠAb t
ĠSchul en
mÃ¶ gen
ĠzwÃ¶l f
( '
ĠD Ã¤n
ĠMa c
ĠMor gen
e vent
Par ent
ĠAller dings
n etz
Ã Ħ
20 15
fass ungs
f Ã¤lt
ä ¸
ĠS dk
ĠB ist
ist e
ĠEl is
Ġd ur
ĠL y
ĠN ummer
D P
st ern
Ġun ten
Ġtr an
ouver ne
av en
m atch
de f
ĠSpiel zeit
ĠHoch schullehrer
Ã¤nd ig
Ġfol gten
L abel
20 11
gesch oss
ĠZentr al
ĠScien ce
T O
Ġaus ger
200 9
ĠKrit ik
em e
Ġsow jet
Ġpro perty
leist ungen
ĠStu denten
West falen
A dresse
and t
Ġ19 12
Ġ3 3
Ã¶st lichen
Ġeng ag
ir d
Ġr ein
20 10
Ġle bten
ĠDeutschland s
ĠLu x
ĠÃĸff entlich
Hel per
ĠIl l
Ġwichtig sten
ĠE g
ĠN a
ĠMeister schaft
Oper ation
ĠK lei
ĠVer m
ĠÃľ berg
zieh ungen
Ġwahr scheinlich
ĠT anz
ĠĊĠĊ ĠĊ
l ant
ĠD iss
ĠM Ã¤r
ĠG ro
rie be
arch iv
ĠSdk ClientException
Ã ´
Ġer l
ĠC ap
Ġst aat
Ã¤hn ung
Ġmittel s
d f
ĠB row
ĠM un
ĠM and
ĠW echsel
ĠC re
ad o
ĠIhr em
Ġdarauf hin
s ein
et ts
ĠGes pr
pf licht
ĠMen ge
Ġsetz en
r and
ĠM ission
Ġbet re
Ġeinge stellt
ĠRhein land
E hemal
de st
lin ien
ĠMat th
fur ter
F r
Z um
n ant
ĠK rank
ver stÃ¤nd
ex ikon
ĠgehÃ¶r ten
c ol
Ġge bild
ĠHistor iker
Ġver fÃ¼g
ess el
ĠZust and
n ational
w al
ĠJ os
Ġan ges
ĠO k
Ġle gte
Ġat tr
Ġschwar z
c r
Ġent stehen
rau t
20 13
br Ã¼cke
Ġ192 1
fig ur
denk mÃ¤ler
Ġbrit ische
z ul
sch m
ĊĠĠĠĠĠĠĠĠĠĠĠĠĠĠĠĠĠĠĠĠĠĠĠĠĠĠĠĠĠĠĠĠ ĠĠĠĠĠĠĠĠ
gem eine
ĠSin ne
B A
ĠGr Ã¤
B is
r ing
Ã¶ ss
Ġo per
ze ption
Ġ192 2
200 8
ĠRech te
zip lin
s st
Ġan erk
Ġkompl ett
B esch
ĠSp ann
ĠLe on
kon om
echs eln
I G
ã ĥ
ĠG as
ĠH on
ĠI N
ĠO bjekte
Ġo p
Or der
Bo x
isp lay
ĠrÃ¶m isch
I M
Ġerst es
britann ien
f ilter
ie m
iel len
20 12
th eit
olum b
rie d
ĠGew inn
ĠAng riff
D S
Ġg roup
ĠSch riften
arb urg
Ġwen igen
ĠGÃ¶tt ingen
it ur
ĠG all
ĠArch Ã¤
ĠBern hard
Ċ ĊĠĠĠĠĠĠĠĠĠĠĠĠĠĠĠĠĠĠĠ
Ġz eich
ĠT ar
Ġ3 4
Ġgew onnen
sb ach
ĠLeist ungen
Ġm o
ĠE du
g rad
w an
z ern
ĠG rad
Ġh Ã¤lt
zu stellen
deut schen
st echn
Ġw uchs
Ġaus geb
anz e
io us
200 1
ĠMÃ¶glich keiten
ĠW issenschaften
ĠT isch
ĠZ eiten
ĠH it
Ġ6 5
ĠjÃ¤hr lich
Ġd ritte
un a
ĠAut oren
200 7
L OG
ol ler
Ġges etz
Ã¶s ungen
wie sen
o h
tr at
Ġp riv
stell ungs
Ġpro cess
] );
Ġd agegen
Ġb lock
Ġb itte
ĠM as
ĠT ore
Ġt able
P an
Ġc lient
ĠLie fer
ĠAn wendung
Bo olean
ĠBas el
ĠOb serv
R L
ĠEn gel
ĠBl ut
ĠEurop Ã¤ischen
Ġunterschied lichen
H ost
N on
Z eit
Ã¶r de
ĠermÃ¶glich t
W arn
b i
sch te
ĠR ing
eck lenburg
Ġher r
ĠAll gemein
Ġd re
ĠDat ei
el se
ĠK och
Ġ3 8
ĠSer ver
ĠLeist ungs
Ġbe endete
weg s
Ã¤ her
ĠO x
In valid
Qu ellen
Ġbek annten
fÃ¤l le
ĠBesuch er
') ||(
m ethod
Ġf ra
ĊĠĠĠĠĠĠĠĠĠĠĠĠĠĠĠĠ ĠĠĠĠ
Ġval ues
g roup
Ġs k
Ã¶r den
ĠKn oten
ĠSociet y
ge fÃ¼
Ġw issen
ĠSt ift
Str a
20 14
ĠRe al
ĠKon s
ĠSchw eden
rÃ¤n k
art h
ac ter
ĠVer lauf
omb ination
ĠwÃ¼r den
lob al
ontin ue
ĠSchles wig
. ),
ar zt
ĠH ab
St adt
fer ence
leg te
H istor
ĠL eit
Ġk ultur
Ġvor bei
tens ion
Mus ik
Ġgegeben en
c i
is ierte
ĠW agen
se x
Ġunter such
Ġar gs
H ash
au th
ist s
ĠK iel
ue ber
gew Ã¶hn
ĠInform ation
anz er
ĠÃ¤hn lich
wo od
F rank
F unction
p hen
ĠK rÃ¤
ĠT ime
Ġp erson
IN E
ut or
ĠEr inner
ĠPerson al
ĠInter view
t lichen
u en
ot her
Ġqu ery
Ġd Ã¤n
Ġp sych
ech ts
Ġdeutsch sprach
ĠVo gel
Ġt op
ĠKl assen
eit ag
ra k
ist an
ĠMann schaften
ĠgrÃ¶ÃŁ ere
ĠDar Ã¼ber
ĠFlug hafen
gn ore
ĠF a
Ġle er
ett ings
c od
tr ans
ĠSt off
t or
ĠK urt
Re ad
Ġheut ige
Ġverlie hen
At om
ĠArchite kten
l s
ĠS uch
ĠC r
En um
Ġfin ally
V D
u z
ã Ĥ
Ġg alt
Ġauf gerufen
ak er
amer ika
tag s
ĠDem okrat
ĠChe f
B est
em pl
ĠC at
ĠZ ahn
sh eim
Z E
k rieges
is Debug
Ġinternational e
oper ation
L ock
R ow
V is
f abrik
Ġin zwischen
Exec ution
I OException
S U
Ġander s
Ġbek omm
ĠHo use
V ER
b aden
ĠS erv
ĠD Ã¶r
ĠW ohl
200 6
g Ã¼lt
r el
w ander
au x
Ġw id
ĠM em
(" \
Ġ15 0
List e
Ġf ilter
Ġopt im
< >();
Ġgen annten
ĠKommun ikation
p olitik
eck en
ĠPr im
ĠunterstÃ¼t zen
fan ter
D oc
k lass
ĠD ichter
ĠAb teilung
Ġbel egt
Ġmax imal
er in
ĠE ss
Ġob wohl
al ys
as p
ir ge
ĠIn gen
II I
Ġ Ä
Ġin tens
ĠBund est
Ã¶ der
teil en
ĠSchiff e
Ġab geschlossen
ĠGeburt stag
ĠgeprÃ¤ gt
o ption
Ġ Ã¶ffentlich
al te
Ã¤ st
ĠAus druck
th ur
bo ten
Ġbesonder e
Ġstar tete
Ġentspr icht
em ark
ĠK andid
ĠCar ol
h i
Ġmehr fach
Ã¤nd ler
Param s
ĠJur ist
ab les
gren ze
h orn
o sen
ĠI dent
deck en
Param eters
ar re
el a
ĠG eg
reg ion
glieder t
w ach
Ġher gestellt
dien ste
ĠKonz ert
Ã¶ se
Ġm atch
ic ro
ĠHer steller
ĠLauf e
k omp
ĠP ersÃ¶n
ĠOrt schaft
Ġmoder nen
p osition
ĠA str
Ġf lieÃŁ
ĠWohn ung
Ġausgestat tet
orden s
Ġbr eit
Ġruss ischen
m ord
ĠM ur
ĠW a
iert es
gesch rieben
ĠEntscheid ung
oci ation
j en
ĠH afen
ĠMa ster
Ġverw enden
stu hl
ĠW erb
ĠVer Ã¤nder
zÃ¼ ge
K omm
Ġw ert
Ġzu gleich
Ã¶r ung
Ã¤chs ischen
Ġz Ã¤hlt
sp er
im ension
ech te
Er baut
ch mal
Ġer kennen
sen d
ĠÃ¼ber haupt
gang s
Ġbr ingt
ĠErfahr ungen
h agen
ĠS um
rei ter
Ġp rivate
ĠFor men
ĠAuf nahme
fra gen
W ei
b orn
ĠVer halten
end s
ĠgrÃ¶ÃŁ eren
f amilie
ĠT own
ĠQu er
ĠNeu en
ĠMet ern
UR I
ĠRef er
ĠIde e
N S
Ã¼ h
ĠT rotz
int on
ĠPrie ster
ĠG roup
ĠV ict
Ġl eitete
200 5
con fig
Ġmus ikal
ĠHa ft
Ġer gÃ¤n
Ġ19 11
ĠO ut
ĠAuf grund
ĠKon gress
Ġch rist
Ġersch eint
ĠKap it
m at
sch loss
ĠV arian
ri or
Ġex ception
Ġcon tent
P ER
ĠSie ger
ĠHeidel berg
et work
ĠHein z
kathol ischer
ank e
ĠÂ §
K an
ĠT ok
ĠVer hÃ¤ltnis
z ust
ĠR eb
ig r
ĠFer ien
ĠFig uren
r t
ĠÃ Ĺ
eist ert
stoff e
Ġhoch wert
k g
ian o
ĠJournal ist
B ild
Ġt ief
ĠVer d
ĠAl pen
ĠS ter
ĠC lau
arr en
val u
ĠH Ã¤user
ĠT iere
art ige
ĠS eb
Ġs agt
ĠW unsch
au p
it hm
Ã¤hl ten
ĠKar te
bie ter
meld ung
O ut
Ġ eb
at oren
Ġs agen
Ġ( ,
ĠP u
Ġco unt
o e
ĠStud io
ĠsÃ¼d lichen
ĠvÃ¶l lig
Ġh eil
Ġh eim
ĠSchau spiel
Ġspe c
ĠOr dens
Ġdar gestellt
ĠLe op
ĠKÃ¶nig s
ĠGra fen
por ted
merk ungen
W idth
Ġ ter
Ġ ehr
ĠMon at
ĠGo ogle
ĠF isch
ĠG ru
ĠP unkten
Ġp re
fra struktur
Ġge h
ĠDaten schutz
ĠBÃ¼ ro
ĠBeh andlung
bild ungs
Ġmen sch
Ġm sg
Ġl Ã¶
iti ative
Ġgez eigt
ĠF al
ĠF ac
ck s
Ġge eignet
ĠEr l
Ġkur ze
Ol ymp
D en
ĠI T
Ġ19 13
ul es
Ġwir kte
akt or
Ã¤mpf en
K urz
z one
pl ic
ĠNord rhein
ĠErz Ã¤hl
us ion
ĠPort ug
p olit
t eile
ĠVer antwort
ĠJahr zehn
Å «
ĠL Ã¶sung
ne ct
Ġ4 8
ĠBr Ã¼cke
Ch annel
ĠFunktion en
ĠS ym
it es
ĠH immel
ĠVor aus
ĠB ol
Ġ/ *
ĠWirk ung
Ġloc al
B utton
st ation
ĠV iele
ĊĠĠĠĠĠĠĠĠĠĠĠĠĠĠĠĠ Ġ
Ġ190 5
lan de
ĠUl rich
bÃ¼ cher
C al
w es
ĠEr b
ĠFr ont
ĠHe ft
Ġgesp ielt
lowak ei
ĠS ituation
ĠMar ine
Ġwei b
ĠW appen
Ġzu erst
ĠEr de
get eilt
Ġsch lech
org anisation
Al le
Ġerst re
r aten
Ġ( "
is Entry
re a
ro at
sp iegel
ert ung
ĠEin heit
amil ien
ĠGeist licher
untime Exception
L in
Ġ190 7
isEntry Enabled
it le
ĠL aut
ist enz
kt iv
čĊ čĊĠĠĠĠĠĠĠ
ĠFrÃ¼h jahr
ĠAustr alien
F ound
N ord
un ehmen
ĠR ost
ĠAb schnitt
ĠNord osten
Ġob j
ĠGrÃ¼n den
Ã º
ĠV illa
Ġl os
ĠGroÃŁ britannien
2 000
i Ã¨
Ġerw arb
D ouble
r Ã¼ck
el and
aus schuss
ud es
ĠCh ic
hand lungen
State ment
P o
y k
Ġs icht
++ ;
j ew
Ġm ust
Ġverb ess
o ok
St ack
ro und
T eam
Ġn utz
ĠT Ã¼b
ĠJo achim
alis mus
ĠHam burger
ĠFer din
M atch
b ad
en zen
ul pt
wei ht
ĠStr e
ze p
ĠMo unt
Ġur l
I terator
Å Ļ
ar ische
ĠE ck
icher ungs
ĠDaten bank
Ġ Î
ĠC O
Ġo ff
get Key
wÃ¤r t
ĠbeschÃ¤ft igt
Ġf e
ĠÃ¶sterreich ischen
N ON
st euer
Ġh il
ĠMos kau
Ã¤us ern
ĠG ot
ĠEr Ã¶ff
ĠArchite kt
Ġsynchron ized
Ġbe ob
iz enz
stre am
ĠFranz Ã¶s
Polit iker
a ster
ur l
Ġs ec
ĠÃ¼ber tragen
Ġsch eint
gr aben
ĠKon rad
ĠKon zept
ĠMax im
ĠA R
rÃ¤s ident
s ur
ĠI P
Ġr en
ick e
con text
Ġproduz iert
re form
ges p
rÃ¤ ume
U ID
b ul
ĠZ eu
get R
Ġkomm un
ĠLin ien
mÃ¶glich keiten
ĠfrÃ¼her en
ĠP S
ĠEr satz
ĠEn gl
ĠMan agement
Ã¤h ler
Ġprof ession
) {
F uture
in ess
ĠP orn
ĠO ri
ver treten
ĠIn halt
att form
ĠĊĊ ĠĊ
ĠSchn itt
Call back
ĠSied lung
P re
P attern
V P
k om
z wei
Ġd auer
Ġl etzt
qu enz
enn fahrer
sk a
ĠjÃ¼n ger
5 00
az on
mÃ¶ glichen
ei ert
ĠL ad
rei f
Ġbek am
son sten
Ġgef Ã¤hr
ĠPfarr kirche
h men
ĠD ata
mer ksam
ĠTeil en
Ch ange
Ġsogen annte
d is
P AR
W irtschaft
ie fen
lie der
Ġweit gehend
ĠEhe frau
k unst
Ġ old
sch weig
ol s
ĠR ath
ĠFak ult
tr oll
ind ustrie
m ir
on ischen
Ġw under
ĠG ir
pl Ã¤tze
Ġber Ã¼hm
g g
ĠVor gÃ¤nger
Ġbeg onnen
M o
Ã ±
ei tern
Ġb lau
ĠEr weiter
Ġj em
ĠRei sen
ĠP ok
ĠJ Ã¼rgen
trÃ¤ ger
Ġro t
Ġitalien ischen
Weiter e
Ã¼nd ungs
ĠMon aten
ĠSo und
ĠMin er
stÃ¤nd igen
schul en
Ġin n
Ġge mÃ¤ÃŁ
ard inal
ĠRest au
ĠhÃ¶ch sten
ĠWeihn achts
D ef
D isk
G roÃŁ
n icht
Ã £
in ander
or age
ĠH erkunft
Ġg ingen
Ġre duz
Ġverst Ã¤r
ĠP eters
ill on
ĠJuli us
ĠInter essen
ĠEben e
R ei
or weg
ĠD rit
Ã¤hr ung
Par ser
Ġmittler weile
al em
Ġber ufen
ĠBundes liga
Ġbeein fl
ĠT sch
Ġp lan
ow ski
af el
ĀĀ ĀĀ
Ġf Ã¤llt
ach ter
ĠFl Ã¼gel
man agement
ĠBild hauer
Tem plate
Ġs ech
Ġlie f
ĠUnter richt
ĠElis abeth
p aar
ro chen
ran ge
up pen
M B
Ġm einen
ell o
ak et
ĠAut ob
ĠPfarr er
ĠS ur
il er
Ġ19 15
ĠVer anstaltungen
ĊĠĠĠĠĠĠĠĠĠĠĠĠĠĠĠĠĠĠĠĠĠĠĠĠĠĠĠĠĠĠĠĠ ĠĠĠ
ĠErfahr ung
Hol stein
st eiger
ĠS em
or b
ĠR ap
ĠN ode
ĠÃľber setzung
l Ã¤uf
u it
ĠD ouble
ĠH ill
Ġver p
Ġl ock
ru he
ĠGust av
G ew
p ft
ĠR oll
ĠSch ritt
Ã© n
m aterial
ĠL oc
ĠL ieder
Ġk einer
AT A
ĠStreck en
ouverne ur
P ool
o ugh
ĠM ir
Ġz Ã¤hlen
ack en
unn el
ĠÃ¼b rigen
Ġwes entlich
ĠFernse hen
M A
Ġn amens
Ġr Ã¼ck
Ġerweiter t
Ġd isk
ĠAuf ent
av or
ĠSh ow
ur es
Ġs ystem
ĠA st
ĠZ ul
Ġc ode
Ġa c
pe cted
Ġent weder
af rika
ĠPart y
gra f
F unktion
b ilder
ĠS inn
den ken
ap pe
ĠAl lt
ip ps
ph an
Ġger ing
ĠRei hen
g Ã¤nge
Ġs rc
ĠBild ungs
Ġor ient
Ġdah in
pos itor
ĠAcadem y
st eigen
Ġb i
Ġf al
ir che
ĠBei de
ĠVerÃ¶ffentlich ung
F irst
z ell
Ġd ein
ein d
uch ten
av ax
Ġweiter es
ĊĠĠĠĠĠĠĠĠĠĠĠĠ ĉ
ĠB yte
ĠUn garn
200 4
j i
ĠH ttp
tr ack
ex ec
Ġ190 6
ĠElem ente
Ġb ildete
Ġn eg
Ġcon nection
Group Name
Ġentsprechen den
ĠW ett
ĠT rau
pl ement
sk y
ĠMaÃŁ nahmen
er weise
eg al
ĠKon fl
ĠThe ologie
ĠFahr zeuge
hÃ¶ he
isDebug Enabled
d ition
Ġm ass
Welt meisterschaft
ĠLeicht athlet
st Ã¤tten
ot ten
Re c
Ġâ ĨĴ
f rom
k urr
Ġk Ã¼nstler
ks h
ĠHaup tr
P O
Ġ q
Ġein gesch
ĠL i
and a
Ã¼r en
ĠAd el
ĠZw eit
Ġengl ischen
Kl asse
Ġbestimm te
Ġrem ove
ĠSm art
Ġverantwort lich
S ele
ĠB re
Ġhin gegen
alis at
ĠInternational en
F ahr
P T
p a
om a
ĠHand buch
t arget
Ġ4 2
ĠSÃ¼d westen
Ġeinge fÃ¼hrt
n s
Ġau str
ĠGesund heits
ĠFerdin and
ĠSch laf
ĠAd els
ĠFlug zeug
ĠFÃ¶rder ung
k arten
ĠB ibliothek
ann er
Ã¤n ner
ĠMar ie
h aben
et on
ĠL iter
Ġent gegen
Ċĉ ĠĠĠ
Ġ7 5
Ġfor der
zug s
ĠGrie chen
D AP
c omm
il a
ĠSch ach
mit h
produ ktion
Ġer laubt
im ple
A ug
k op
st he
ĠB ob
ĠF eder
ab geord
ĠEin ige
Ġro ot
ĠZei traum
K W
z in
Ġf ehlen
ĠH ub
Ġab gerufen
ĠGer ichts
Ġeinz ig
ĠIs rael
value Of
ĠBlÃ¼ ten
m inton
in os
Ġge kommen
oren z
Ġar ray
e en
t x
au ff
ur i
ĠU kra
ĠL am
ĠBl att
haf te
ĠSchwer punkt
Ġeinger ichtet
ĠChic ago
> ,
ĠK ing
Ã¶ ÃŁen
Ġl ern
equ ence
ĠMod el
ĠSant a
ĠQualif ikation
D ollar
Ġer stellt
In tern
St yle
mal er
ĠFr em
It alien
ĠBer icht
ĠHeraus geber
ĠGesund heit
Pf alz
ĠTÃ¼rk ei
M en
S um
ĠW eimar
Ã¤n en
ert ation
ser ver
ite inander
off iz
ĠAngel es
T im
Ġst anden
arb e
if ft
pf lege
ock et
Ver Ã¶ffentlich
ĠFor st
ĠRegion al
ĠIns gesamt
AB LE
ĠP au
ĠW M
her zog
ĠEurop ameister
ĠUr laub
ĠEd ition
ifiz iert
Ġ one
as er
ber eitung
Ġ19 17
ĠIn halte
vor sitzen
ie fe
sch auer
ĠV iz
ĠÃ¼ber ra
Ġent ity
ĠDarm stadt
H L
ĠSch on
ss ystem
ast ian
ĠSÃ¼d osten
âĢ¦ ]
" ).
e ar
ĠS ab
Ġs org
ĠSch lieÃŁ
ak a
Ġzeig te
C A
st Ã¼cke
ĠK redit
hand el
ĠSonn tag
D A
ĠNord westen
Ã¤ng nis
ĠFig ur
ĠNationalsozial ismus
ur ts
Ġb uf
ĠE ber
ag ne
qu es
Ġdurch schnitt
Ġd is
on ische
ĠF ass
Ġf loat
Ġre c
ma schinen
deut sche
w ith
č ĊĠĠĠĠĠĠĠĠĠĠĠĠĠĠĠĠĠĠĠĠĠĠĠ
ĠG olden
end a
ĠÃĸffentlich keit
n es
Ġp osition
Ġp rim
Pro ject
ĠSchl uss
ĠTod es
Ser ie
Ġdien en
D efault
ĠD auer
tr ich
ig ner
hÃ¶ rigen
ĠKol on
f uck
ĠJ ud
ab s
se ud
ĠThe odor
ĠStra ÃŁ
ĠGrÃ¼n der
ĠEng agement
gest altung
ĠLeop old
D em
Ġm Ã¤nn
ĠK assel
ĠSt ation
og n
ER R
ĠKomm ission
ĠTeam s
k rit
Ġw eist
ab teilung
lie genden
ĠAus land
k at
p erson
Ġv is
ĠD aher
Ġbet roffen
Ġen dete
Ã¼s sen
ĠDeb Ã¼t
g u
r amm
ĠK anz
ohn t
Ġ190 8
ho ben
ĠnÃ¤ch ste
Ġentsprechen de
heb ung
p ass
Å ¾
st edt
Ġh Ã¤tten
ĠAl tern
L age
ĠD ialog
ell i
ĠIn tegr
aff el
ĠSchmid t
ges sen
ĠFl Ã¼cht
bau er
- )
ĠD ampf
ĠF ar
ĠJ agd
sicht lich
ed ig
iz iner
Ġ3 7
ant as
Ã¤l de
af e
ĠFre unde
B ev
ar io
gen Ã¶ss
ĠH ell
ann en
Ġhistor ische
fel der
ĠPreuÃŁ en
i tem
k u
Ġ rad
Ġn um
B ar
v ision
ĠW ag
ĠUn abhÃ¤ng
ip pe
Ġ190 9
ĠUntersuch ung
B et
b lock
ĠD adurch
ol o
om ain
and te
Ġt ask
wei ler
Er ster
ĠhÃ¶ch ste
J uni
T op
Ġf ound
ab et
he ute
Ġ190 4
Ġrech ten
Ġlin ken
Ġober en
Ð º
ĠK os
Ġver h
Ġl eider
ow a
hl en
f os
n ers
Ġ use
Ġver kehr
ĠAn trag
Ã¤m lich
ĠDurch messer
Ġhe ader
" ));
ĠM ethoden
ĠZ us
ĠAn z
ĠPrÃ¤s identen
Ġstr ing
ĠTex te
Alb um
ol ogen
ĠBew eg
o ffen
as ilian
ĠK urs
ĠT w
ont o
Dire ctory
C olor
m ack
z em
ĠB asketball
ĠAn frage
Ġend gÃ¼lt
klus ive
L I
W ork
em it
Ġver sehen
ĠFilm s
ĠHelm ut
c ia
Ġs an
ĠD omin
Ġl esen
ĠFran ken
ĠRÃ¼ck kehr
ĠWill i
ĠNetz werk
t Ã¼mer
is en
Ġsch reiben
Ġ3 9
ubl ish
200 2
ĠFrank furter
ĠFÃ¼r sten
Ġwest lichen
Warn ings
f alt
ĠK athol
auf hin
alen der
Ġgepl ant
Ġtre ffen
sum er
ĠGÃ¤ ste
m Ã¼hle
ĠBundes republik
ĠComm un
d ach
ĠB ett
ĠBe ziehungen
DE FAULT
Ġgleichnam igen
ĠG lauben
Ġver schw
Ġp ost
Ġunterschied liche
ĠPrem ier
lÃ¤ss lich
L ast
k ammer
in zen
bew egung
ĠTÃ¼b ingen
fuck fuck
y g
Ä Ľ
ĠS n
ĠE ind
Ġp op
Sch riften
ĠRÃ¼ck en
ĠBew ohner
ĠOrg an
Ġspr ach
ei sch
ein s
ĠEr schein
ĠBet eil
ĠZahl en
ĠWies baden
Bev Ã¶lker
Ġ ueber
Ġt otal
Ġsp ort
nis sen
Ġform at
positor y
D ocument
p pen
z iger
geord net
ĠRund funk
unds Ã¤tz
rap per
cod ing
D el
st ad
ĠK ath
ĠK rieges
ĠL aw
ĠIn dex
ĠStr and
ĠWeltkrieg s
ĠSalz burg
Ã£ o
g i
il s
Ġre f
ĠFrei zeit
k Ã¼nd
ĠG ang
ĠR ub
ĠU RL
Ġ189 0
ĠGre en
ĠS ig
ĠB reite
ber echt
ahr ung
ĠOr den
Ġber ichtet
ĠDon au
Ġexec ute
ĠNieders achsen
P RE
S G
i ode
ĠS ender
ate ur
res ponse
ĠBahn strecke
ĠF Ã¼n
ab elle
St ud
uÃŁ er
Ġf eier
ĠBest e
ĠUntersuch ungen
ĠSib Tr
h em
ei fen
ĠS us
etz ten
Ġur kund
ĠBereich en
ann ter
ĠSch uhe
ĠVer dienst
ov a
war n
ĠM isch
ss on
mar y
Ġmein em
Output Stream
VAL UE
N r
v ar
ult i
amp le
Ġben utzt
Ġvers ion
ĠSim on
ĠBayer ischen
Besch reibung
Ġan hand
pen den
ikan ischer
part ner
eu ert
Ġaktu ell
ĠIns eln
ĠObserv able
Ġvor gesehen
Ġbef ore
Ġgemeins amen
k y
hrow able
Ġerh oben
ĠnÃ¶rd lichen
fÃ¤h igkeit
Ġverbrei tet
V ar
Ġf ahren
ht tp
bl Ã¤tter
ennt nisse
histor iker
ĠParam eter
ĠB an
Ġf reuen
Sup press
st eine
ĠZ ivil
ord net
ĠLin ks
J ul
ĠM ecklenburg
ĠR ab
Ġum ben
ĠRes erv
Ġs ho
ĠM auer
le ut
ĠPro p
Ġspr icht
S yn
o pt
Ġt schech
if ik
ite ktur
ĠZug ang
Trans action
KE Y
B i
J son
ĠG lei
Ġmod el
E Class
m ission
ĠV iew
Ġgew Ã¤hr
l Ã¤nge
gel t
Ġ4 4
En g
Ġet abl
ail able
ren nen
ĠBrit ish
eu ten
Ġtr ug
ob ile
Ġsp rechen
ĠSan kt
m essage
() ).
Ġber uf
Ġbet rieb
ĠGew alt
ĠEm il
The ater
T A
en gl
ĠO pt
scha ffen
get Type
Ġ18 80
ĠHer bert
ĠbenÃ¶t igt
ĠD ien
le bt
Ġtr itt
rich ter
ĠFakult Ã¤t
l ot
ĠV ize
fÃ¼hr en
ĠgroÃŁ es
ĠFor um
f ft
at in
ĠW in
ist ischer
ĠPro z
ĠMa y
ĠKl ima
ĠMag de
zÃ¼ glich
Ġtats Ã¤chlich
Ġn Ã¤mlich
wend ungen
At tributes
Ġentwick eln
ber eit
Ġa v
ĠPap ier
Ġkur zen
B erg
p ir
Ġs up
ĠK ombination
Ġl en
Ġt Ã¶
aus stellung
zen s
Des criptor
Ġmed izin
Ġgebild et
Pan el
Ġaustr al
S cript
u age
Ġm el
ĠAlex and
Ġunterschied lich
B ody
elt a
ĠBo olean
ĠBraun schweig
M essages
at om
ĠK e
ĠJ a
trÃ¤ gen
ar in
ĠAn spruch
bo olean
f ind
k urs
al ia
or es
Ġh alb
ĠO ffen
sp recher
ri an
In ternal
up pert
ĠFilm e
ĠAutom obil
Suppress Warnings
Ġ ×
Ã¼ pf
Ġau th
ĠPro jekte
Ġab geb
Ġel f
Ġdenn och
V I
w ischen
ĠM Ã¶n
ĠBe ziehung
ĠGemein schaft
ĠGroÃŁ e
ĠtÃ¤ glich
ar ray
ĠD et
ell schaften
ĠAuf lÃ¶sung
lig isten
ĠmÃ¶glich st
ĠEdu ard
P ass
Ġer mÃ¶glichen
ger s
Ġersch einen
Ġnah men
prÃ¼ ft
wirk ungen
ĠPublik um
č Ċĉĉĉĉ
ĠP C
end ing
ac es
Un ternehmen
hand lung
ĠBesitz er
Org anisation
ĠW Ã¤r
ent in
Ġzu ge
ĠRe aktion
Ġ6 4
Ġsel ber
ĠWe ge
ĠBron ze
ĠMathemat ik
B ad
R oot
st Ã¤d
Ġg eist
ĠMon ument
AG E
ĠErw achsen
P olitik
w ettbewerb
Ã¤ umen
Ġn ominiert
ĠSp itze
fÃ¼hr ten
ĠNeu bau
obil ien
ĠGest altung
B as
R ange
ĠGeg ner
S ehenswÃ¼rdigkeiten
ie den
Ġreich t
L iter
S QL
V ariable
Ġb ar
ĠV iol
Ġver gangenen
Ġstar ken
ĠW Ã¶r
Ã¶ die
ra ys
ĠBr enn
ĠKan ada
Ġsw itch
W ind
ĠB ord
ĠC enter
ĠDie ter
ĠTeil nahme
ĠFrie den
Ġor iginal
Ġsho uld
or ient
Ã¤ ÃŁ
ĠZ y
Ġver ur
Con stra
Ġ189 8
ĠForm el
ĠpersÃ¶n lichen
akte ur
ĠTenn is
H aupt
b indung
ĠM obil
ĠF unk
zeit ung
Ġkathol ischen
ĠBrÃ¼ der
ĠOx ford
d auer
Ġw achsen
ĠF ro
ĠV aters
sen z
Er folge
ĠGegen wart
ĠB ir
ĠD ok
sp rechen
Field s
ĠGed anken
ĠOp ern
ĠJac ob
Ġautomat isch
> <
h ost
ĠS QL
it ive
Ġc ontinue
Ġzwei mal
str ich
ĠOber st
Ġschw ier
Ġreg istr
steh ung
k ul
Ã ł
ĠF le
ap el
mann s
ĠÃĦ g
ĠerklÃ¤r te
h u
ed y
hal ter
ĠOrt es
Ġ190 2
Ġbesonder en
ĠH ockey
Er st
Un able
ĠProf il
ĠWir ken
ĠCD U
C reate
D u
Ġk o
Ġp f
sp rech
ĠSp iegel
ĠAss ociation
Ġexist iert
et he
ĠL exikon
tr an
sen der
ind ing
ib il
Reg ion
ĠD ef
Ġn Ã¶t
ĠR am
ĠL it
ir urg
ĠÃ¼ber w
rup p
ĠBl og
f els
st ift
Ġin fo
ĠR uf
ĠLauf bahn
ĠFeuer wehr
mitt lung
======== ========
Ġauf gelÃ¶st
Ġab ger
ĠHand ball
prÃ¤sent anten
M O
Ġv ierten
ĠP rag
ell s
Ġun er
wer den
Ġ190 3
Des cription
ĠKamer a
s ource
Ġ2 50
Ġl Ã¤uft
ate ll
ĠUn fall
ĠAb itur
ĠMar ken
ĠGesch ichten
ĠfÃ¼hr ten
setz te
Ã¶m isch
Ġmoder ne
c ast
ĠP DF
Ġh ast
Ġk auf
Ġbes itzen
unter richt
ĠTelef on
19 18
mus iker
Ġmax im
W as
i ro
ĠD B
ul s
iel l
Ġstell vertreten
Ġne ed
Ġnahe zu
Ap plication
er ben
ĠK Ã¼n
wei st
ĠVer anstaltung
Ġun gefÃ¤hr
Ġerz Ã¤hlt
n t
ĠJ on
Ġp hil
ord s
200 3
ĠSowjet union
v ollen
ĠR ett
ĠHer stellung
ĠB ass
ĠD ol
ĠH orn
ief el
ĠA qu
ĠT raum
ĠR au
ĠL ake
ĠC am
ĠBen ed
has Next
schlÃ¤ ge
H o
J an
Ġw a
ĠW Ã¼r
ĠIn fanter
ĠAn lagen
ĠMar i
gesch Ã¤ft
199 9
ĠStel lung
lie d
vers orgung
Ġpar ams
Serv let
L a
z n
ĠH as
ĠSer ien
Ġscha ffen
ĠM arburg
Ġn umber
ĠL ind
Ġunter sch
ĠWelt krieges
ĠEx empl
Ġ190 1
ĠSpr achen
ÃŃ n
Kir che
ĠMatth ias
N LS
w itz
st atus
ĠBer atung
krieg s
ĠBevÃ¶lker ungs
Ġmittel alter
ĠMil ch
ĠBenutz er
H ein
P I
e ct
h eil
Ð »
Ġver geben
teil ungen
... )
Ġoffiziel l
t op
ch ten
Ġs ign
Ġv ari
Ġb uild
il ber
est amp
ĠBe ck
ĠTer min
k ern
m auer
p ers
ĠS au
Ġst at
ĠAn f
acht ung
z eigt
on ment
se y
Ġab gesch
up date
leg ten
Ġon ly
ĠKÃ¼ che
oot ball
sph Ã¤re
k as
ĠS of
ĠS Ã¶hne
ĠK ob
ĠG ymnasium
spl atz
ĠSam stag
Ġbekomm t
all er
Ġ18 48
ma schine
P air
Ġin stall
ĠR od
ĠC ode
ĠAr ts
ĠMar y
Ġ0 2
Ġ5 5
ĠFr eitag
ĠgrÃ¶ÃŁ er
Ġ[ âĢ¦]
lehr e
ĠOrd nung
Fe ature
aliforn ien
vir onment
a illen
b chen
ach ed
ĠC y
so ap
Ġho her
Ġnational en
ĠS aar
Ġf v
Ġver legt
sh aus
ĠDisk uss
ĠM eyer
Ġm iteinander
le f
se d
ĠIn strument
ĠAn s
& #
E hr
F inal
Ġbeg innen
Ġnotwend ig
v ed
it o
Ġum geben
gel eitet
fÃ¼hr te
gren zen
id s
od urch
pro f
Ã¤dag oge
B Ã¼rger
E C
t ok
Ġs Ã¤m
Ġs ucht
ĠV ar
ct ure
ĠEn glisch
199 0
verein s
ĠÃ¶ff entliche
vier tel
Ġs amm
ĠM ethod
ĠH Ã¶ch
pl atte
E ishockeyspieler
a wa
w uchs
ch ip
Ġn Ã¤her
ach bar
ĠGren zen
ĠSÃ¤nger in
F O
al tete
tr ee
lei hung
ograph ische
Ġ189 9
scheid et
tre ffen
Ġstre am
B ack
ĠV el
ĠVer gangen
land es
ĠBl au
ĠOb wohl
Ġus w
ĠL iber
hard t
H eight
v in
ĠP red
ĠSch u
Ġc lose
ign ment
cri be
fr ont
fre und
b ahnen
ĠL ot
lass ung
ĠBr as
Ġgen ug
icher heit
ĠBeg r
ĠInd ien
Ġor der
Met a
k lei
Ġd eine
ĠEr folge
Ã¶rder ung
Ġgelegen en
ĠChamp ion
ĠMex iko
Ġw odurch
ĠR ollen
cl ude
ru e
ug ies
Ã¤mpf er
ĠStÃ¤d ten
Ġerinn ert
k ore
ak en
ĠMit gliedern
ĠX ML
val ues
ĠWeiter en
g reifen
w riter
te uer
Ã¤ fer
ĠE arl
Ã¶ z
Ġan schlieÃŁ
ĠAn dr
lie s
urop a
bahn hof
ĠPor trÃ¤t
S eine
b und
os law
ĠrÃ¶m ischen
D C
c en
ĠT Ã¶ch
Ġ19 16
ĠSch r
ic ate
Ġ4 3
ĠDe ck
oten t
zie ht
ĠÃ¶sterreich ische
ĠComp any
t l
ĠM ord
ĠEnt fern
ĠGener ation
ĠDan eben
ĠPlan ung
Jo hann
ĠIngen ieur
E G
F ran
iz iert
ĠGes icht
hof en
ix el
med izin
Ġversuch te
read y
ĠAktiv itÃ¤ten
Ġentst eht
D aten
W h
er ten
ĠA achen
Ġl Ã¤ng
ĠEr ich
rÃ¼ st
Ġser ver
kurr enz
D is
ĠBe ob
ĠNach richt
Id s
Ġengl ischer
mot or
ĠInstit ute
g ot
w Ã¤l
ĠP reise
ĠFahr er
Ġeinzel ne
l Ã¤r
ĠF la
ver anstaltung
ator ium
d irektor
ĠM ak
ĠO der
Ġt ag
ak ademie
Ġbest ritt
ĠGeb urts
ĠDist rikt
zÃ¤hl ung
ĠK le
eh e
auf nahme
t ur
z um
iel en
Ġkon zentr
lÃ¤nd ischen
wor ten
ĠOffiz ier
b aus
c ul
m ag
u ste
un Ã¤chst
am at
ay a
umen ten
Ã¤ss ig
Ġklass ischen
on ia
Ã¼ gt
ier end
Ġsch rift
ĠEin richtungen
Ġ18 70
ex it
F rei
M eister
M apping
Ġan gesehen
Ã¶n e
ĠMar ke
Ġwel chem
ĠTr ier
G en
o y
ĠS emin
Ã¤ ure
ĠZ erst
ĠSp itzen
Kir chen
D ER
p re
t ime
Ġt oken
ĠEin richtung
rit or
ĠLand schafts
ĠzurÃ¼ck ge
echs elt
hÃ¶ rige
ĠschÃ¶n e
ĠÃ¤lter en
P refix
Ġb ase
ĠU fer
Ġ4 9
ip pen
ator s
bo ard
ĠLebens mittel
ĠChem ie
Stra ÃŁe
H T
H aus
J vm
k in
ĠE ast
ĠFranz isk
alb um
Ġzunehmen d
d own
p ubl
ĠM und
ĠM ech
ĠC amb
ub il
eite ten
for scher
Ġange legt
reu de
ĠNutz er
Ġumben annt
er ung
em pf
ĠSp aÃŁ
her ren
ĠMÃ¼n ch
B B
S PD
ar ed
ĠL abel
eb e
In stitut
fÃ¼r st
ĠCas ino
ĠÃ¤lte ste
. _
G E
sch irm
Ã¶ te
ĠL ine
ĠN och
zeich nen
pro cess
ĠBed ingungen
ĠTrain ing
ĠFÃ¤l len
O K
S egment
k Ã¶rper
ĠM att
ahr t
Ġent schieden
for mer
reg isseur
ĠIs lam
leut nant
n y
r iss
in ischen
ĠB io
Ġent schied
br ingen
ĠBo ok
deck ung
Ġreg ul
ĠTab elle
F re
P ersÃ¶n
S ign
st aben
ĠM d
aus gabe
ĠQu adrat
ĠPolitiker in
log ger
Ġgemeins ame
Ġerforder lich
â Ĥ¬
olog ischer
Ġgr undsÃ¤tz
ĠHaus es
ĠBÃ¼ hnen
rÃ¤n kt
ĠAngeb ote
Ġparam eter
ĠKranken haus
ĠKontr olle
ĠHash Map
ĠbestÃ¤t igt
Ġverpflich tet
C urrent
P lan
R ed
um b
ĠN un
Ġj ob
ĠEin sch
Ġzum indest
ak i
gesch lagen
schn itts
Ġgegr Ã¼ndeten
ĠSchn ell
ĠDÃ¤n emark
in it
Ġd ef
ĠL ast
Ġ6 00
ĠBau werk
Ġpar allel
cl ub
iw od
at ing
ĠK Ã¶
ĠK ra
ab t
ab end
ĠSt Ã¤r
Ġvor aus
Ġ4 6
Ġ// $
vers icherung
Ġman chmal
folg ung
stru ctor
Ġ art
Ġs ort
ĠM ol
ĠDe v
Ġletz ter
ĠAnt wort
ĠKap itel
ĠWar en
ĠRegen sburg
n itten
gr ab
u ellen
ĠP ast
ĠT ief
ĠO ster
ĠAn alyse
ges prochen
Ġverschieden er
ÃŃ a
Ġwe der
ĠFernseh serie
Ġjapan ischen
n um
Ġf ung
ĠT ode
ĠAn h
etz te
id ae
Ġ4 1
ĠVor stand
ĠAd am
ĠMed ia
ĠOper ation
def ault
ein heit
ĠT rÃ¤ger
ĠL en
Ġc annot
Ġbesch reibt
Ġw riter
ĠSt imme
ĠEin heiten
fen ster
Ġspeziel l
s in
Ġd ank
it ies
EX T
ĠstÃ¤r ker
ĠVergangen heit
Ã ¥
Ġs orgen
ĠF ell
ĠL eute
sh ausen
ĠAt hl
ĠGel egen
ĠDiss ertation
ei de
ĠF Ã¤h
ĠH ug
ĠEn s
pl atten
ild et
ĠSchl Ã¼ssel
ĠSong s
F ranz
Ġein geb
ĠP ian
ĠN ap
ĊĠĠĠĠĠĠĠĠ ĊĠĠĠĠĠĠĠ
ĠIn g
Ġc al
m ond
ĠK aff
Ġer zeugt
ĠC our
ĠSt urm
ĠAn forderungen
reg ister
cle ar
ĠSend ung
Ġpriv aten
ĠSeb astian
D ar
M M
us sen
Ġzu geordnet
ĠZ ent
iv ision
St at
gor ithm
sen de
Die ser
Ġsp Ã¤t
ĠViel zahl
b ody
st arts
il de
ĠC orn
ĠThe orie
M e
et ch
Ġm aÃŁ
Ġc le
Ġtr ain
ĠMuseum s
S pr
er ber
ĠP as
ĠO ne
ĠAus einander
IN T
ĠKomp osition
ĠMein ung
Mill is
: :
h au
ĠOr chester
Ġausge fÃ¼hrt
ĠSchn eider
Ġrel igi
ĠT hread
Ġun ge
Ġnach halt
St iftung
ĠGeb rauch
Sch ema
stre cken
sta aten
Jahr en
Inter face
leb nis
M atrix
l or
v oke
au ert
ĠN omin
ĠUn sere
ug in
zen e
Ġeigen es
ctiv ity
U ri
b uffer
ĠD ire
ver ter
ĠFl Ã¤chen
fl Ã¼gel
Ã¼t ten
Ġerh ielten
ĠLu c
Ġbeh andelt
Chr ist
ĠF o
Ġver n
ĠÃ¼ber nehmen
lie ger
id o
Data Type
ĠEing ang
gy pt
ĠjÃ¼d ischen
Aug ust
l eiten
ch est
ĠB u
ĠP ed
ĠN at
Ġver t
ri b
iz ont
Ġges ellschaft
ĠB ert
ĠK ub
le te
arb eitete
Ġtr ifft
utz ung
ĠLei den
ĠFir st
ĠFall s
ĠPrinz ip
ped ition
ĠStre et
Ġend lich
Ġb ut
ĠK art
Ġk om
Ġ5 2
reu ung
Ġkomp lex
ĠprÃ¤sent iert
m es
Ġs orgt
Ġn atur
teil s
N e
ĠJ ed
ĠVer n
ay ern
Ġ189 6
Ġfrei en
ĠB rau
Ġz er
Ġbis lang
ĠQu elle
ied elt
ĠSchriftsteller in
chip karte
M ain
ĠTh is
Ġen glisch
stra ÃŁen
ĠerhÃ¤lt lich
ĠLok omot
D ialog
f ranzÃ¶s
st Ã¤nden
ar rei
ĠZ oll
Ġp rev
ok ie
haf ten
ĠWo iwod
ĠSon ne
ĠRath aus
v as
} ,
ĠM ach
ol i
Ġzu stÃ¤ndig
ip end
ĠBe am
ĠBo ot
ĠGer Ã¤te
ĠGew erk
tell igen
L en
U I
l Ã¶
ĠB Ã¤nde
ĠW egen
Ã¤t t
ĠBr uch
ĠDipl om
( _
ĠR aj
Ã¼r zt
Ġl auf
op en
Ġwir ken
ick er
Ã¼t t
ĠWelt meisterschaft
ĠJust iz
P res
Ġschwer en
D ist
k Ã¼rz
u ccess
ĠB ade
Ġsch reibt
Ġ18 60
ĠAlb recht
Ac count
an ia
sp f
spieler in
ĠFrei heit
Fa iled
usÃ¤tz lich
Ġzie hen
Ġbetr achtet
T est
Â ³
Å Ħ
ĠM id
ĠG reg
re st
ĠN ah
gel s
ĠFl ucht
Sch w
Ġland wirtschaft
ĠGespr Ã¤ch
R W
X ml
k ow
un try
on ne
em burg
ĠSt unde
ĠAus nahme
ĠTa schen
Ġoffiziel len
emb le
National mannschaft
ĠL ove
ra in
Ġtr af
pf l
ĠKon zer
mit glieder
199 8
Ad d
K ompon
j an
re al
ĠN eum
Ã¶r ungen
Ġ" ,
ĠGr Ã¼ndungs
ĠAug sburg
hÃ¤lt nisse
ĠPartei en
Film ografie
ĠDo ug
Ġitalien ische
Mus eum
Ġangegeben en
R echts
r uss
ĠM ond
ĠT ats
ĠL iv
Ã¼n den
Ġunter halb
ĠGemein der
ĠSte phan
ĠJuni oren
Ġbel g
ĠDes halb
Ġstark e
ĠAs ien
Ġby tes
ĠThÃ¼r ingen
h es
at i
ir us
zuf Ã¼hren
r Ã¼cken
Ġd elete
ĠB art
ĠD inge
us alem
Ġim age
Ġp o
get Id
Ġ/ >
Ġeinz igen
B undle
ar g
ar ina
Ġb ayer
lo h
sw ing
Ġgest altet
Ġzie ht
ĠWh ite
ĠverfÃ¼g bar
M ath
m and
ĠP enn
ĠN ow
Ġk ombin
Ġunter en
Ġdar aus
ĠUm setzung
trag ung
ĠKÃ¼ sten
ĠRelig ion
F alls
n chen
de gang
ĠE h
ĠW uppert
ĠN eb
Ġ5 1
ĠHe kt
SE T
denkmal e
Comm and
ĠMagde burg
A v
M ont
t al
Å Ł
ĠI d
Ġj ung
Ġent w
ĠRost ock
c opy
ĠS ak
Ġs inn
is ation
Ġr un
tt ps
ĠMeer es
N um
ĠM r
ĠIn frastruktur
ĠIn itiative
ĠBr es
ĠLe der
verband es
ĠB itte
Ã¼r f
ess in
ĠAt lant
ĠHistor y
S el
s rc
ĠV it
ath on
Ġ187 1
ĠOb last
; &#
D i
on st
und ert
ĠT it
hol m
iat eilnehmer
Ġklein es
ERR OR
ĠK am
qu ery
ais er
Ġ< <
Un d
199 7
/ *
i ffen
Â ®
sch wer
ĠD ownload
lo k
ĠStud ie
hin dern
Ġlo ad
ĠDipl omat
Ġeb enda
F B
c ause
Ġ Ã¶stlichen
Ġn orweg
ro ot
Ġauf gebaut
ver zeichnis
ĠIn put
ĠSp ec
me er
AN CE
Not Found
ĠkÃ¶nn ten
B el
b an
ĠĠĠĠĠĠĠĠ ĠĠĠ
Ġp age
up p
akt oren
ĠKarls ruhe
c s
c al
eh lt
Ġc ache
get P
ĠSchw ier
ĠKr ist
ĠNational mannschaft
V ol
ĠT u
est en
eil er
Ber eits
ĠSilber medaille
wirk ung
b reak
z unehmen
Ã¶ gel
ĠL ife
ĠAn im
zen ten
Ġch em
ĠStaat sb
Ġwissenschaft lichen
B eg
c olumn
p ap
ĠJ etzt
Ġauf gestellt
os a
ert ific
ech ten
ĠInn ov
Ġgetr ennt
ĠEntwick lungs
ĠEpis oden
d ner
is a
Ġr om
li as
W R
ĠM assen
Ġg rau
eb ook
âĢľ ).
Ġtechn ischen
zem ed
I l
p ost
r ig
at her
ĠT eu
ĠSt att
ger Ã¤t
ĠRe de
ĠSe kunden
ĠGes ang
ĠGra z
Ab sol
Ġklein ere
ĠjÃ¼n g
ĠF abrik
ĠO tt
Ġver hindern
In itial
ĠGeb iete
str om
ĠEx tr
ĠRo ten
Ġar g
ĠEm p
ĠTab ellen
Ġerstre ckt
B eim
g ung
Ã «
ĠS ymbol
re h
ĠJ ungen
ĠAr thur
ak u
An merkungen
Ġ8 00
LA SS
ĠInstitut s
ĠChe ck
Ges ellschaft
B ew
te am
ĠSt ates
ĠAus gang
Ġsp ann
Qu eue
ĠEd el
ĠKommun al
ĠÅ ł
Ġchines ischen
M ember
P A
p ommern
ot ograf
Ġnie dr
ĠBus iness
ĠBarb ara
U s
c or
k Ã¼ste
l ings
ei se
ĠAn gabe
ob j
ĠFl ag
inder t
ĠLehr e
ĠBi ograph
Jahr e
ordin ate
M ich
r oll
Ġein iger
Ġn am
ĠF F
ĠR untimeException
Ġl ernen
Ġa ction
our s
ĠkÃ¶n ig
ĠZu schauer
ix ed
Ġ189 5
ĠBestand teil
ch te
ĠB Ã¼r
Ġein schlieÃŁlich
Ġl atein
sp lan
be am
199 6
anz ig
Ã¼t ze
ĠDat um
ĠTÃ¶ch ter
ĠS oph
ĠH Ã¼gel
Ġl iter
pl it
ĠFrei en
anc en
K rit
O B
s inn
ĠS mith
ĠM ode
Ġpro perties
Ġseit dem
Element s
ĠFot ograf
ĠRu h
maÃŁ nahmen
ĠWoiwod schaft
' :
ĠS av
Ġw ork
ĠB rie
ĠD eut
Ġsch ott
rat es
Ġw Ã¼n
et ung
ĠM etz
ĠH ey
ĠW en
Ġver Ã¤ndert
Ġsp Ã¤ten
imm ungen
ĠMin ute
ĠWahl kreis
mod ell
ĠHor st
. /
H E
st ab
ĠB ier
ĠD VD
ĠM icro
ĠG anz
art igen
Ġ189 4
Ġwicht igen
au ten
Ġv ar
ĠB y
ĠF inn
ĠPh ot
ĠBÃ¼ hne
Ġd ate
sch ef
ur o
ĠK Ã¶n
ĠC all
ausen d
ĠmÃ¶glich erweise
ĠWe ber
ĠPier re
ĠR ie
eich e
ĠSp eicher
Ġgew Ã¼n
Ġat tribute
ĠLÃ¼ beck
D DR
T itel
m sg
ĠBar on
Hand lung
bes itz
L ang
s f
s up
el ine
isch Ã¶
he dr
ĠSp ur
olog isch
ĠEurop ean
ĠRes ult
ĠursprÃ¼n glichen
ĠBot schafter
Ġwissenschaft liche
LO W
ĠKup fer
t ums
ĠD etails
ĠAr r
ial izer
Ġber Ã¼cksicht
Ġbes aÃŁ
ĠzusÃ¤tz liche
g as
ger ichts
gr Ã¶ÃŁe
ĠRu hr
verkehr s
starts With
W il
ĠS ir
Ġm ont
ĠR on
Ġ0 1
Ġe v
bo den
ĠAkt ien
ada pt
Ap i
ĠJos Ã©
u ay
Ġ iter
in ten
de hn
ĠH ow
ĠL ust
Ã¤r ten
inz ip
ĠHalb finale
ĠMaterial ien
O st
Ġd ist
ĠL or
Ġer mittelt
Ġzwei ter
Ġ189 7
Ġspe zial
ĠBron zemed
p c
Ġau ÃŁen
Ġh Ã¶ren
stit ution
ĠForm at
ĠAlt stadt
Log ger
Ġoffiziel le
Ġhervor ra
Pol icy
Europ ameister
K o
t able
Ġf rem
ĠAllt ag
I F
p at
Ġst atus
art ig
Ġsch ied
alt h
ett o
Ġsol chen
Ã¤ b
hr op
ĠR ay
ed ule
os se
ost on
rup ted
ec ted
Res ources
aly t
bed ingungen
Ġpoln ischen
w el
st ock
Ġb ack
ĠM io
Ġg Ã¼lt
ĠEigen schaften
Ġsozial en
ĠMik ro
ĠSch aden
Ġbr asilian
ĠGef angen
ĠMill iar
Ġbisher igen
SI ZE
ĠÂłĠÂł ĠÂłĠÂł
er a
ĠD irekt
rei strÃ¤ger
Ġre quired
ĠGr amm
ĠVerein igung
stud ium
> )
S ettings
c z
x ml
he d
ĠâĢ Ķ
Ġst ru
ĠPl atten
Key s
ĠKo operation
ĠBeh Ã¶rden
ĠImm obilien
u an
ĠK Ã¶r
Ġf allen
Ã¶ ck
ut sch
ĠVer mÃ¶gen
Ġaus zu
ĠEr ste
Ġ18 50
check ed
ĠDort mund
< >(
t ml
al m
Ġ1 10
ut s
ĠStr ate
werk en
ĠRo h
con stants
Ġ189 3
Ġhand le
ĠArn old
Ġperfe kt
#### ####
ĠKÃ¼n ste
ei ern
ĠK rie
ĠL ib
ĠSch ott
Ã¤r t
Ġ4 7
asse d
ĠBel gien
seit ig
s ign
ĠS oll
Ġn ennt
ol z
Ġsch eiter
ĠkÃ¶n ne
ĠVerb esser
Reg istry
ĠQ ue
ĠÃĦg yp
N E
m ont
s ession
Ã¤ ub
ĠP od
ĠW urz
ÃŁ ig
Ġp ubliz
ĠVer w
Ġst Ã¤dt
ger Ã¤te
get Instance
fahr ts
ĠMot iv
Dat ei
dat um
B O
Ġb lieben
ĠM esse
ĠL ern
us en
ul er
sp ace
ĠEin s
Ġbes etzt
fahr zeug
Ġviel fÃ¤lt
Ġeinf ache
ziehungs weise
M em
S A
n g
o ir
u v
ĠD ub
ĠP ie
ĠR y
ĠAr men
Ġbeg leitet
mar sch
Ã¤nder te
Ġwicht iger
stant in
ĠAnton io
l im
ĠE v
ber icht
ĠZ er
ĠZ iele
form ationen
ĠPf arrei
ĠKÃ¶nig in
Ġgef ert
Ġheraus gegeben
ĠWind ows
M sg
W ert
b or
n eu
Ġb auen
tr ieben
Ġst ill
ĠSp recher
ĠBundes staat
Ġgegr Ã¼ndete
Ġruss ische
ĠGi pfel
Ġbas iert
ĠA ction
um in
Ġer lang
ast rop
ĠÃľber sicht
Ġgleich e
ĠUkra ine
u i
ĠS ud
Ġ( ;
Ġl es
ort s
ĠMon te
ĠHil fs
Ġengl ische
Ġph ys
t im
In nen
In sel
fang s
Ġrech te
K n
Ġ Ã¼
or men
Ġb ot
ĠVer arbeitung
ob by
ĠOr ten
ĠEd ward
ĠVide os
J ava
n ap
in ken
ĠE ugen
ĠR et
ĠL ein
ĠĊ Ġ
[] )
ĠMod elle
ĠMich el
Ġparam eters
Ġdeutschsprach igen
Olymp iateilnehmer
f inder
h et
on i
Ġw echseln
Ġb raucht
ĠW Ã¼rttemberg
ent um
ktion s
we ge
ontin u
ĠGeschÃ¤fts fÃ¼hrer
F amilie
\ \
b raun
ch or
ion e
Ġwir kt
her steller
Ġben achbar
Ġdisk ut
ĠP anzer
ĠN ation
br Ã¼
Ġbestehen den
ĠGriechen land
h s
ig ade
sp unkt
ri z
get Property
Ġbe endet
itÃ¤t s
IT Y
ĠAf rika
T erm
m or
p reuÃŁ
č ĊĠĠĠĠĠĠĠĠ
end o
ste te
ard o
atur es
Einz el
Ġda ÃŁ
ĠKr on
Ġerw orben
ĠKÃ¼ ste
ĠPass ag
iffer enz
Ġerwar tet
A bst
ĠK eller
il i
ic ip
sp ur
Ġvor gestellt
An halt
iss ement
P ost
Ġm y
sk on
ain ing
Ġgar ant
Ġtechn ische
ĠBesonder s
M I
O F
sch ten
ĠP ath
ĠH enn
Ġc lazz
ĠMark eting
ĠerhÃ¶ ht
Ġbein hal
ĠunabhÃ¤ng ig
O p
S equence
t yp
ar ia
ĠG ab
ĠInform ations
umm ern
Ã Ĺ
Ġd eb
ĠS eg
ĠV Ã¶lker
Ġbe ziehungsweise
Ġj avax
Ġre ag
Pro gramm
Ġruss ischer
zy linder
F rie
ĠM au
St ar
Ġbesch lossen
ĠNieder lage
Ġass ert
ĠErÃ¶ff nung
h Ã¼ter
r al
Ċ Ċĉĉĉ
ĠV ie
ĠAn bieter
ĠRe kord
ĠGesch lech
ĠPf ad
ĠFahr t
Ġverf asste
k ung
ĠW it
Ġver anst
eist ungs
Ġbesch Ã¤d
schlieÃŁ en
produ zent
ĠGest alt
bed ingt
Dec lar
ĠOrganis ationen
p ool
Ġm e
Ġr uh
stell ig
Ġ5 6
ĠSc ott
Pl atz
ĠJer usalem
a ber
br onn
ĠGer Ã¤t
ĠAd ler
Ġaufge fÃ¼hrt
ĠÃ¤lte sten
ĠIll ustr
1 20
B en
D an
d y
st um
ĠS ynchron
Ġi l
ĠM ei
Qu alif
Ġle hr
Ar b
ĠBl ue
wohn er
ĠStel l
ĠKÃ¶l ner
NotFound Exception
m lich
v ater
w all
ĠK alifornien
ol and
ol ve
eh Ã¶r
erk ennung
Ġ0 5
Pro zent
Ġges und
yn ast
fig uration
ĠpersÃ¶n lich
abil ity
ĠOri ent
A kt
ĠG olf
ĠR umÃ¤n
ĠMan fred
jahr es
Time out
ĠerÃ¶ff nete
char At
Cal endar
n i
s cription
ar o
ĠL ag
Ġan y
Ġan genommen
sb ruck
min ist
Ġ188 5
State Exception
ĠAng st
S uch
Ġd oc
ur ren
ich ert
Ã¤ fte
ĠM uster
ĠM oment
tr ies
ĠSch reib
ite kt
An t
ĠGe gend
Ġ189 2
Ġmo dern
F iles
h ler
n ieder
ĠS ul
Ġf uhr
ĠV I
ik i
Ġver urs
get X
ĠÃ¼ber setzt
ĠReg ister
setz er
Ġurkund lich
W rapper
in ia
in ne
on ien
Ġzu g
Ġvor ge
ob el
Ġpro blem
Ġgesch Ã¼tzt
ĠBur gen
M ilitÃ¤r
h old
s Ã¤nger
ĠB em
Ġt mp
Ġ" /
omm el
igt es
---------------- ----------------
ĠpreuÃŁ ischen
K unst
f angen
ĠS T
ĠE C
Ġf lie
Ġsch Ã¶nen
Ġtr eten
licher weise
sw ald
Ġ189 1
RE S
ĠKloster s
igh ts
ĠCamb ridge
Ġverst arb
ĠGed ichte
ĠHekt ar
ĠH em
Ġden k
pro jekt
ieb el
ĠGef Ã¤ngnis
Ġbeh aup
vert eid
ĠKrim inal
ĠflieÃŁ t
G o
ĠS ens
tr im
re gel
ist a
sen s
Ġp assed
sp rechend
Ġwar um
- /
k amp
o ire
Ġ Ã¶rt
Ã¤ udes
ĠK alk
ĠH T
19 15
ĠEnt wurf
ĠCon tent
ĠAbgeord neten
U B
ĠP ir
ĠN ull
Ġverb indet
199 4
gn or
K inder
m as
m ine
al o
ĠR E
re place
Ġg ern
ont akt
Er gebnisse
ĠHand lung
ĠGemeinde gebiet
Ġhier bei
ĠM eg
Ġk ir
est e
od ox
199 1
Ġverur teilt
ro id
ĠVer eine
ĠVer zeichnis
ĠAus bau
Ġ5 4
ĠÃľ b
ail ure
ĠInternational e
cy cl
prÃ¼ fung
Ġerr ichtete
ĠN am
Ġk Ã¼
Ġget Ã¶
Ġhin ein
ĠHoch zeit
ĠTra g
Ġgest alten
Not Null
ĠExper ten
Ġb rau
ĠH arr
sp olitik
Ġspiel ten
Ġsicht bar
N OT
b ein
und et
ĠG au
ĠT au
ĠUn ser
ive au
)) );
Ġoffen en
ĠMehr heit
ĠNor wegen
ĠAbgeord neter
' );
E Mail
h off
st em
an ie
au te
ĠK ardinal
ra xis
ĠAn wesen
Ġc or
ug oslaw
ĠMittel punkt
Ġdo es
;; ;;
Ġstattf inden
M Ã¤rz
ar film
ĠP ots
ver se
ĠAn th
Ġbedeuten d
ĠBil dern
ĠChampion ship
g riffen
w Ã¤hnung
ĠD ynam
Ġein zu
ain s
Al t
ĠAt om
ko hol
ĠFÃ¼hr er
ĠFÃ¼hr ungs
Ġorganis iert
ĠPfer de
A F
m ie
r olle
in us
ĠK amp
re y
Ġk g
ic us
Ġsch uf
ru st
Ġsp anischen
Ġander es
Ġange zeigt
ĠPer spekt
ĠOlymp ische
iqu es
Ġricht ige
Ġtrotz dem
I gnore
c at
ĠĠ Ċ
or ff
ion al
ĠAn ne
lo ud
ment s
199 5
ĠBern d
ĠpersÃ¶n liche
Ġnorm al
X ML
e arch
et enz
ĠZ it
Ġo st
ah m
aus bildung
Ġunter wegs
ĠRe quest
Ġpro p
ĠKolle gen
Ġport ugies
ĠPortug al
o z
ar isch
ĠH ess
ann i
iv es
ĠÃ¼ber sch
if act
ĠAp ost
Ġtran sport
zep te
ĠBronzemed aille
sch icht
rau cher
Ã¤nd ige
str umente
ĠspÃ¤ter e
Ġeinge tragen
Ġverst ehen
fÃ¶rm ig
ertific ate
J Ã¤hr
te sten
âĢ ¢
Ġ20 22
zeit schrift
Com parator
ĠJes u
R Ã¶misch
ch ern
or ph
ĠK ost
Ġaus fÃ¼hr
ĠBe geg
org an
eck e
zahl ung
ĠInd ian
frie den
F OR
M AX
ĠS auer
ro y
ĠSch le
Ġbe zeichnete
Ġange hÃ¶r
ĠGrund lagen
Ã¼l l
ĠHerr n
( ...)
ĠB och
ĠB Ã¶r
ĠP en
he ber
ĠVer fassung
Ġj ahr
ĠAuf sicht
Ġ188 9
Ã¤mpf e
ĠMail and
Ġjem and
z ellen
Ġd ro
el emen
Ġein s
ĠT rieb
ĠR Ã¶m
re ht
og t
geb lich
20 20
ĠFrancis co
ĠBist um
Ġperson en
ĠWag ner
ĠK un
ĠJ ava
im um
Ġab zu
ĠBest ell
199 3
With ServiceResponse
Ġbau te
ĠVerbr eitung
WithServiceResponse Async
å ĳ
Ġin it
Ġin nen
Ġh ell
ir ma
Ġal tern
auf bau
ĠGem Ã¤lde
ĠGew erbe
ĠNe ur
ĠgrundsÃ¤tz lich
I A
e ber
Ġd b
ĠF ans
is ieren
qu art
gr Ã¤
ond ition
ĠErk rank
Ġpop ul
lÃ¤r ung
M art
M aler
b ibliothek
m acher
Ġein deut
ĠT onnen
Ġr ele
ster dam
Ġunter scheiden
ĠAus stattung
Ġange p
verb indung
Reg iment
Spiel er
ĠNikol aus
st on
ĠL ew
ĠEin en
ĠÃ ł
199 2
ĠGef ahr
CT ION
Ident ifier
Ehemal ige
Ġp asst
ass au
ĠNieder l
Ġlang sam
Ġ187 5
urnal ist
Ġgelegen e
ĠErweiter ung
el or
ĠE ishockeyspieler
se c
Ġbe auftrag
ĠWelt meisterschaften
ĠBes etzung
jÃ¤hr iger
Ġ187 4
ategor y
ĠGraf schaft
ĠDenkmal schutz
ĠLOG GER
> ()
G raph
T L
ĠT oten
ĠSp itz
ĠPol y
Ġ188 4
Ġbegann en
Ad apter
ĠAutor in
ĠBrem er
i pe
ĠB om
Ġg ro
Ġzu k
he ad
ĠEin kauf
form ance
Ġ186 7
Ġend et
Ġverst orben
M ag
s d
z ert
ĠS ache
Ã¤ use
isch t
ft ig
ok us
ĠPl Ã¤tze
ĠY o
ĠVers and
ilom etern
herr schaft
ena iss
ande ur
ĠLÃ¶ wen
H inter
f arben
f loat
u ver
Ġd Ã¼n
ing u
Ġre cord
bereich e
sprÃ¼n glich
__ __
B ran
V ector
f u
Ġ app
Ġm ot
le ute
ĠT irol
Ġh a
Ġent h
ĠGe denk
ma ÃŁen
ĠOl denburg
198 9
ĠBru st
Schwei z
Digit alisat
K arl
ĠH rsg
Ġc opy
ĠMar s
ĠHand werk
Ġteil s
ĠMark us
Ġvertr at
Ġverkauf te
Non Null
ĠBundest ag
ĠBened ikt
Ġn ennen
ĠV il
se qu
pro perty
ĠUnivers itÃ¤ten
ĠMan ager
ĠKauf mann
c u
Ä ĥ
ĠW ell
Ġal ready
Ġt au
geb nis
bar er
Ġle gen
ĠNieder Ã¶sterreich
ĠVertr ieb
ĠGleich zeitig
C ommerce
S ingle
g roÃŁ
t z
in ett
ĠA C
ĠA ct
ĠW end
ph ase
ĠRo ad
Ġeh e
ĠGott fried
weis ung
ĠStraÃŁen bahn
ĠInn sbruck
ĠPhys ik
S ein
Ã¤ ck
ĠA tt
eh end
ĠAuf nahmen
Pro xy
ĠUm gang
ond issement
ĠJu an
Ġte st
M Ã¼n
ĠB ase
ĠK linik
ĠW is
ĠW art
par ent
af r
index Of
Intern ational
ĠInfanter ie
ĠM ut
Ġin klusive
ĠL ande
ĠN ationen
ent wick
Ġo ver
Ġ5 3
af ft
. ).
j ob
ĠK oll
lich em
Ġge tragen
eich ern
igen t
ĠIm age
Ã© t
riff e
ffiz ien
ĠProf ess
ĠMÃ¼nch ner
W ien
m eter
v es
at tr
ab or
est and
bau te
ingen ieur
ĠBl umen
eig h
ĠWei ÃŁen
out h
ĠHal te
gÃ¤n glich
spe kte
If c
b egr
n d
n ames
Ì Ī
es p
ĠM aus
ĠM inder
ĠH ay
Ġh ost
ing ung
ĠVer z
qu alitÃ¤t
Ã¶l z
ĠKirchen gemeinde
B ef
h Ã¤ndler
k ov
ĠB ull
ĠM B
ĠF ilter
ĠP ow
Ġh ttps
ĠN ote
Ġan gen
Ġan geschlossen
Ã¶r dern
ĠAl li
ant eil
ack er
ĠFrie dens
ĠTem pel
Ġkanad ischer
ĠÃĦnder ungen
' ,
N ov
S ow
w h
ĠB am
Ġh ieÃŁ
Ġpro ject
gesch windigkeit
Ġeigen er
ĠSa al
ĠMet rop
TI ME
rÃ¼st ung
L auf
ie ht
ĠG Ã¶t
Ġg olden
tel s
reich er
sb urger
ĠMann heim
Sie g
ĠHam mer
Bo ot
druck t
ĠBesch Ã¤ft
Ġjeder zeit
auth or
ĠVerÃ¤nder ungen
C re
P eter
ð Ł
ĠH eb
ĠL as
ĠL Ã¶sungen
ĠNach folge
Land kreis
exec ute
ĠBres lau
ĠArr ondissement
g reg
ĠD ay
ier er
Ġt hread
ĠZ ub
sp reis
ĠVer wand
Ġst ation
arb eitern
ob ject
ĠChrist us
ĠKapit Ã¤n
Z one
c ard
ĠN ick
ĠO ze
Ġver boten
sen dung
jahr en
mo sphÃ¤re
ĠMilliar den
C ar
T eil
r as
ĠA ff
ĠA gr
us se
geb irge
ild es
St affel
ĠReg ionen
teil te
ĠGeb iets
ĠmÃ¶ glichen
abgeord neter
m ess
ĠS ort
ĠF ab
ĠDie trich
org anis
ĠÂ ·
wahl en
D est
l u
s z
ch ild
ig ger
Ġst rate
ĠAus zeichnung
bau en
ĠKl ub
ĠIntern ets
spl it
Ġmittler en
contains Key
stechn ik
an on
Ġm iss
Ġj son
Ã¤ch er
ĠKon zentr
mÃ¤ÃŁ ige
On ly
C or
Ġz Ã¤hlte
ĠK y
ĠStr eam
je kten
Ġgr enzt
ĠGef Ã¼hl
Ġ188 8
Ġumf asste
Erster wÃ¤hnung
Jan uar
åĳ ¨
ĠAl te
Ġdurch aus
ĠMit t
ĠEnt stehung
Ġklein eren
Ġgriech ischen
Ġ 00
Ġt hr
Ġver teid
be cken
ĠWerk en
Dat abase
ĠHug o
B S
J ose
ĠK Ã¼nst
ĠP ower
Ġan lÃ¤sslich
men ge
qu elle
hÃ¶r igkeit
Ġf arb
ĠL eb
li ver
Ġor dent
ĊĠĠĠĠĠĠĠĠĠĠĠĠĠĠĠĠĠĠĠĠĠĠĠĠĠĠĠĠĠĠĠĠĠĠĠĠĠĠĠĠĠĠĠĠĠĠĠĠ ĠĠĠĠĠĠĠĠĠĠĠĠĠĠĠĠ
4 00
M ehr
b n
Ġin spir
ĠK G
Ġge legt
Ġge fallen
ĠIn stall
ĠPro perty
par atur
Ġex p
Ġunser es
low en
Ġversuch en
strahl t
strahl ung
Ġinn ov
D on
Ġd okument
el en
ĠR al
ĠL etz
ĠZ ell
op Ã¤d
19 33
ech er
ĠAb stand
ĠRe c
ĠUS S
mÃ¤ÃŁ igen
Ġunbek annt
v ens
{ }
is burg
Ġlie be
ĠBundes ver
ĠGroÃŁ teil
ĠAt hen
forder t
Ġvers etzt
ĠHom e
Ġzeit genÃ¶ss
lehn t
M W
U P
Ä Ł
Ġw Ã¤hlen
ĠK ino
ĠT herapie
Ġh Ã¤uf
im en
Ġst eigen
ĠGroÃŁ herzog
ĠTechn ologie
ĠRestau rant
E t
V O
d elete
ĠJ ena
ra ct
olog ien
ĠZu cker
ĠRot h
Ġextr em
F OL
w och
ie bt
on te
ol er
ĠG il
Ġr ight
kl ar
ĠEurop as
ĠBed arf
ĠWissenschaft ler
CD U
ĠNic ol
Frank reich
Ġverbess ern
R eturn
ĠA ster
Ġb ist
ĠP riv
ĠH av
ĠH yp
Ġj ur
att le
Ġ6 2
ĠKl im
ĠY ok
Ã³ w
ĠTour ismus
Tag s
Ġamer ikanische
ĠVerÃ¶ffentlich ungen
Ġpromov iert
Ġpersonen bezogen
0 10
P hil
Z wischen
r ingen
em p
em ie
ĠV ari
Ġk Ã¼nd
ern ame
ap est
ĠSie ben
me te
Ġ8 5
irt ual
ĠWei bchen
Ġfre und
Ġtem plate
ĠFÃ¼n f
ĠgetÃ¶ tet
B it
T hrowable
s ort
ĠB utton
ĠB oston
Ġm ech
Ġn ames
ĠE th
Ġer gibt
Sc ope
Dec imal
ĠAllgemein en
ĠWuppert al
K at
st ritten
as ien
ab els
Ġge zogen
ĠO pp
ĠAm ateur
ĠRob in
angeb ot
ĠB iele
ĠG a
ĠG ouverneur
ĠL eu
Ġver ab
Ã¶l l
str eit
ĠGi ov
Ġkathol ische
ĠVerantwort ung
Ã ª
un checked
ĠS y
Ġn annte
le kt
ĠW ass
ĠR iesen
ĠI terator
Ġk Ã¼nft
ĠSt ich
wei ten
im ir
ick et
ĠGrund stÃ¼ck
bach er
Ġat om
ĠHotel s
ĠSzen e
ĠA x
ĠB ulgar
ĠF ein
ĠP age
Ġf inde
is i
ĠR io
ĠR ail
Ġc ol
ĠMit tler
Ã© g
ĠPort al
Ġeinf achen
Ġlau tet
Ġzuk Ã¼nft
K Ã¶nig
È Ļ
ĠS E
al om
ĠB it
ĠR oss
Ġher unter
schn itte
ĠSk ulpt
inc ip
ĠFel ix
P rim
sch ritt
ik um
Ġzu folge
Ġsch Ã¼tzen
Ġre ader
ĠFl eisch
Ġher um
oph on
urs or
ĠBab y
ĠEntfern ung
J apan
W asser
g round
un ker
ĠA fr
Ġun tern
uf er
aus s
Ġre prÃ¤sent
Res ol
Ġteil nehmen
Ġwei ÃŁen
ĠBar cel
ĠIllegal StateException
Ġscha ff
ĠGÃ¼n ter
I ter
d ing
g le
ĠF ert
ĠEr ster
geb oren
ĠGra ph
OR T
Ġfunktion iert
w ell
ĠT ob
ĠR ess
re uth
Ġle ft
Array List
Ġpl atz
Ã§ ois
ĠDenn och
Ġdefin iert
ĠAutob ahn
ĠDoug las
X X
ĠF an
se g
ad or
ĠâĢ ¢
Ġhin ten
Ġ188 2
mod el
Ġnational e
] [
b ett
ĠS P
ĠC lient
ĠO ver
etz ungen
tel n
ĠInd ividu
Ġ187 9
ĠDon ner
ĠLab or
Ġdunk el
ĠAstr onom
ĠClau d
ĠZus atz
on str
Ġaus drÃ¼ck
ĠPro ject
ph a
198 5
Ġâ Ī
D ATA
R S
y o
in stitut
at tet
ĠF alle
ĠW Ã¼n
id es
ĠAus bildungs
ht ml
ĠAm sterdam
ĠOber flÃ¤che
Ġviel er
198 8
ĠLieb es
R un
w s
an alyse
ĠB ein
ĠM aur
Ġdort igen
ĠSÃ¼d west
ĠBed Ã¼rf
Ġlern te
Ġn on
ĠN eck
ĠEin stellung
gesch lecht
ĠGesch mack
ĠJugend liche
ĠSchiff s
ĠAlt ar
zust and
Ġehr en
ĠHÃ¶ch st
F est
R uss
k B
ge legen
Ġw eb
ĠA dresse
ĠNach wuchs
Un sere
Ġgetr offen
bÃ¼rger meister
t oken
v inz
sp itze
Ġ0 4
fahr ten
ĠGes am
Ġ7 2
ma jor
Ġakt iven
ÃŃ o
Ġkur zer
way s
ĠVen edig
Ã¤dagog ik
ie ck
it alien
ĠL ar
Ġg ot
Ġg ros
ow itsch
Ã¶r g
verein igung
ĠRu he
Ġ( ).
is st
ĠC ro
est ern
ĠEr furt
ĠSpr inger
Ġempf ehlen
H eute
ĠM ah
ĠM Ã¼hle
ĠK Ã¼hl
is ierten
ĠJ son
ĠSch atten
Ġl eitet
ĠOr der
Ã¤nd igen
ĠRo ute
ĠFahr rad
ĠTre ffen
Ġvorhanden en
vertr eter
D r
M ai
a pt
am o
ĠT ay
Ġk Ã¶rper
Ġaus reich
ĠOr chest
Ġbes uchen
Ã¨ s
ĠGraf ik
ĠBad minton
ĠAben teuer
ĠOs car
ĠDrehbuch autor
j ust
t irol
ĠM essage
ĠH ig
Ã¶ scht
ent s
Ġal ter
Ġst arten
qu em
ak es
Ġbest ell
ĠUnter schied
ĠLe e
Film titel
Ġbestehen de
mot oren
C ol
on isch
ĠF ast
ĠF reude
ĠSt ab
ĠSt iefel
ap i
geb ieten
ĠCh ance
Ġu kra
Ġverbr achte
ĠRett ungs
K ap
ļ Ń
ĠV irg
Ġge Ã¤ndert
ĠZ e
ĠSch all
ag a
IN ST
ĠCo ok
ĠRegion all
yl van
Ġgeboren e
ĠTrain ings
ĠBras ilien
C lose
S ymbol
W E
ĠB alt
ĠK en
art ikel
ĠVor bild
fl ow
min istr
ĠKunst stoff
Ġlist ener
Ġricht igen
ĠAmts zeit
D ep
g ier
Ñ ĥ
en se
as i
Ġauf treten
ĠVer stÃ¤nd
ĠFran ce
Ġ15 00
ĠGeb ieten
add All
ha i
Ġsozial e
ĠGÃ¼n ther
ĠSchwar zen
ur er
Ġm er
ĠN az
ĠZ usÃ¤tzlich
Ġst Ã¤ndig
ĠSe en
Ã¼t ter
ĠNew s
Ġ188 3
ĊĠĠĠĠĠĠĠĠĠĠĠĠĠĠĠĠĠĠĠĠĠĠĠĠĠĠĠĠĠĠĠĠ ĠĠĠĠĠĠĠ
riter ien
Ġsh ort
ĠÃĦr zte
t i
Ġ est
ĠSp Ã¤t
sh ot
ĠAm b
ĠĊĠĊ ĠĊĠĊ
ĠKan al
Ġhil ft
ĠH Ã¼
ĠSch Ã¤den
Ġst ren
Ġent lassen
Ġverl Ã¤ng
ĠBereich e
Ġ187 6
Ġfrei will
unn ing
ĠGlock en
A k
| -
Î ¿
ĠD afÃ¼r
Ġm ult
ig an
Ġl ei
ĠVer fassungs
get String
eben e
ill ing
ĠAus fÃ¼hrung
ob jekt
ay load
Ġdies mal
Bo und
ĠSystem s
ĠDorf es
ĠGrÃ¼n en
L ie
p al
ar gs
ĠK ohl
Ġf inn
le bte
ĠL angen
omm un
ĠGesch windigkeit
gesetz ten
ĠBef ehl
Ġfre ie
Ġlok alen
ĠendgÃ¼lt ig
al ity
ĠF A
eb urg
ech nung
our cen
Ġis rael
ĠWest ern
ĠVerb indungen
ĠĠĠĠĠĠ ĉĉĉĉ
aktion en
ĠEt hn
ĠhÃ¶ here
Ġoption s
S H
v iel
an ik
ĠAn lass
Ġ" );
alt ar
Ġ< /
ĠPol iz
ĠNieder lande
ĠSer ies
agn ost
ĠFac ebook
BevÃ¶lker ungs
l iteratur
Â ´
ĠP el
Ġver gessen
Ġvor wiegend
sb ed
Ġerfolg reichen
198 4
ĠSoc ial
besch reibung
ĠDis ziplin
ĠNS DAP
Ġallgemein en
Ġkor re
ĠKrank heit
Ġanerk annt
k olle
m ain
× Ļ
ber atung
Ġer geben
Ġp reis
Ġst abil
ĠAl les
ĠAuf tr
Ġbef Ã¶rdert
ĠPh ase
kap elle
ĠWilli ams
C up
w idth
ar ischer
ĠD ur
ĠL izenz
Ġt here
auf nahmen
len z
Ġges ucht
ĠUm fang
Ġch ange
code d
ĠsÃ¼d westlich
Ġ188 6
fÃ¤l len
Ġgesp eichert
ĠAust ausch
gefÃ¼ gt
Ġbeinhal tet
H alb
Ã¤ g
ĠZ wer
Ġum ge
wa ffen
uff ix
ĠKomm ando
ĠRes earch
Ġ187 3
ĠhÃ¶her en
ĠMathemat iker
hoch schule
ĠKomment ar
ĠVort eil
ĠA gent
ĠD ich
ĠM Ã¼hl
ĠN ie
ĠMa schine
Ġres ources
ĠKant ons
Ġexist ieren
Ġevangel ischen
lad ung
ĠVarian te
/ >
F ra
W ar
Ġs ymbol
ĠK ul
ĠP ic
ĠT Ã¤t
ĠL atein
ĠC le
Ġbe cause
ĠSp uren
Ġvor ber
Die ses
ĠMar gar
ĠGemein sam
ĠUm bau
ĠRo hr
sw ert
lex ikon
ĠDar aufhin
ĠsÃ¼d Ã¶stlich
198 6
Ġ186 9
ĠLes er
ĠMont ag
ĠEpis ode
N atur
k w
or um
em als
ĠG ames
Ġf ert
ĠL at
Ġan fangs
ĠBo gen
bo ok
ĠFor der
zeug ung
fre ie
ĠPra kt
ĠBot schaft
ĠBrow n
kÃ¼rz ung
Ġd omin
ĠS atell
Ġp attern
ind ungs
ĠEr richtung
gesch icht
ĠKomm and
ĠRechts anwalt
CO L
schiff e
D o
s ver
ei r
sch reibung
ĠD ra
ĠM es
ĠP in
ist et
ri p
19 39
ĠPro tocolMarshaller
Ġ5 7
Ġbew usst
Null able
Ġnord Ã¶stlich
Mus iker
ĠModer ne
ibr ary
(...) ");
c ore
y ball
or i
ĠP oint
ĠW ellen
ĠO m
Ġauf zu
ĠSch ild
wei ÃŁ
ition en
ĠKl eine
Ã¼nd nis
ĠSpiel tag
ĠBuch staben
Ġsol cher
Ġdiver se
eistert itel
G ET
ĠF ehl
um an
ĠC ir
ĠSch mer
ctor s
Class Name
ĠReich stag
Ġ186 5
Ġreg ister
ĠKais ers
Ġnord westlich
ĠMinister prÃ¤sident
ĠW under
se kretÃ¤r
ĉĉ ĉ
opp elt
Ġzentr ale
Ġzentr alen
Kompon ist
C P
N odes
au g
gen ossen
Ġo s
ĠKon struktion
Ã¤u den
ĠVerb ands
ĠProdu zent
ĠfÃ¼n ften
ĠEinwohner zahl
Ġ188 1
por ter
ĠEigen tÃ¼mer
ĠTem plate
ĠHen ri
Ġse arch
Ġzie mlich
Ġw hen
ĠB os
Ã¼ck t
ĠIm p
Ġbes ucht
Ġle hn
ĠMet al
Mot or
E le
J SON
k re
in ary
ĠR eh
iz en
ob ald
ges ellschaften
ĠSe gel
lei ben
ĠWelt meister
eck t
ĠNe use
ĠZug riff
ĠErinner ung
l isten
st ar
ĠS A
ĠS I
Ġf ein
ann a
eu ern
Ġc omponent
Str u
ĠBau er
sw issenschaft
ĠVerlag s
atÃ¼r lich
Se arch
T er
o ul
Ġ Ã¤ndern
Ġs end
ĠP seud
ahr ungs
Ġp orn
Ġbe zieht
ph one
ction s
Film schauspieler
Ġpl Ã¶t
Ġchar akter
Ġspeziel le
Ġposit iv
V om
b it
h ause
Ñ ı
st es
ĠG ame
ĠAn trieb
Ġsch lecht
stell ers
Ġmehr erer
ĠAm azon
pro ject
ĠSh op
Ġ188 7
ĠRes ource
Ġoffen bar
yd ro
UL L
Ġpass iert
ĠBrun o
ĠÃĦnder ung
f arbe
Ġb it
ĠI ran
ĠC H
ĠCh allen
Ġbest anden
Ġdar um
ĠBei spiele
wa ffe
ĠWerk statt
Ġkon troll
ĠMag azin
Ġ186 8
prÃ¤ senz
Welt meisterschaften
Fernseh film
ĠDokument ation
ĠSzen en
ĠPrÃ¼ fung
l ein
ĠS qu
Ġk ennt
ĠZ unÃ¤chst
br and
Ġcon vert
yl l
ĠTer r
fÃ¤l lig
ĠMÃ¤n nchen
ĠMaler ei
ĠEreig nisse
S ol
h art
Î ±
ch ange
it ness
ĠK abel
ĠH als
ĠAr gentin
ĠVor stands
Ġsow eit
wer ten
ĠQu art
war en
wend et
ommer ziel
Ge ografie
ĠschlieÃŁ t
Option al
Ġwes halb
Ġprof it
ĠPrÃ¼ f
ĠBesatz ungs
D elete
P al
un es
Ã¼ re
ĠE ishockey
Ġ} ;
all o
Ġnach fol
aus o
oll ow
Ġbef ind
ĠPf alz
Ġverl etzt
ĠBest er
Ġgeb lieben
wor tet
Wer degang
ĠVerteid igungs
ĠergÃ¤n zt
Ġgefert igt
M iss
sch rau
ion ier
ĠZ Ã¼ge
ĠRe port
Ġlie fern
Ġgleich er
ĠHir sch
r ein
ĠM uss
ĠR Ã¤ume
ĠN et
Ġan sonsten
Ġp oint
im p
Ġwar ten
Ġ6 6
ĠPr omot
AL L
minister iums
ĠschlieÃŁ en
ĠInnen stadt
ĠCol or
Fl ug
wir d
Ob j
ylvan ia
BevÃ¶lkerungs entwicklung
B U
C C
O UR
R est
ĠG att
ĠG riff
ĠW ik
os h
Ġnach gewiesen
Ġges prochen
ĠChr isten
ĠVerb raucher
ĠTex as
ĠHit ler
ĠÃĦgyp ten
E M
p um
ĠE uch
Ġ5 8
man ager
Not ification
ifiz ierung
Ġschwed ischen
Ġ{} ",
jen igen
Sum mary
Q U
g ast
Ġw eite
ĠR olf
ĠZ ehn
19 70
ĠAl so
ĠMag n
Ġse par
Ġschwar zen
Ġgl Ã¼ck
sprÃ¼ che
spann ung
ĠEind ruck
F lag
P ers
b uilder
l itz
n ischen
s em
ĠS omit
ent ation
ĠSt ol
ĠVer dienste
Ġ18 78
ĠAl p
amm ern
Ġgr und
ĠUniversitÃ¤t s
ĠVers icherungs
Ġkommen den
Ġzeit weise
Ġerwar ten
er z
un sten
ĠA cht
am ik
Ġm ay
ĠSt an
ett i
ĠKl ang
man ischen
Ġtradition ellen
ĠverstÃ¤r kt
ĠSchlieÃŁ lich
O pen
ch a
un ken
Ġ( ),
ĠK ohlen
ĠF as
ĠF els
Ġf ach
Ġg u
Ã¤t zt
ill y
Ġsp anischer
ĠIhr es
Ġerreich ten
bro chen
Ignore Case
T our
i y
Ġ hr
ĠF res
ĠH arry
tr op
wei ch
ĠEr wer
if est
ĠUr teil
Ġverw endete
ĠKat alog
ĠHeer es
ĠÄ Į
Jul i
Ġabger issen
D okument
Ġm Ã¼ndet
ĠW ork
ĠR ak
ĠC ross
Ġl imit
ĠArbeit geber
LA N
Ġwid mete
b ran
in strument
sch rank
ĠL ange
ent hal
ĠSt Ã¼cke
ien ne
be zeichnung
Pro f
ĠBl Ã¤tter
ĠHoch schul
ĠBach elor
ĠWehr macht
H Ã¶r
T ran
j amin
v ard
Ġw idth
ĠB ang
Ġg o
ad s
ĠEr klÃ¤rung
ĠAus zeichnungen
sport ler
ĠRegel n
ĠTest ament
ĠKategor ien
Ġdamal ige
spart ei
f irst
h Ã¼tte
n oten
Ġ1 15
Ġn ow
ĠH op
ĠV ul
Ġl aufen
ver lauf
Ġj o
ohn e
ĠPf licht
ĠWochen ende
Ġober halb
ĠFil men
ĠScien ces
ynast ie
FOL LOW
O M
ĠK il
Ġzu gÃ¤nglich
Ġt im
ĠAr ab
Ġ0 7
En de
ac y
Or iginal
ST R
iller ie
ĠMad rid
n orm
t ot
w ein
in ing
an dern
ĠK Z
ĠH ex
ĠHer zen
ĠAmer ika
ĠHin weis
ĠIr land
A gent
W or
d ist
s ylvania
v ide
Ġb reite
ĠJ eder
ab len
Ġge weiht
Ġt hen
âĢľ -
Ġtr aten
Ġ186 6
ĠBar ock
ĠMat rix
ĠHum an
Ġheil igen
ĠsÃ¤m tliche
) ).
k Ã¼n
l aus
st eig
ĠG ieÃŁen
ĠT unnel
ĠR enaiss
tr ei
ĠO d
Ġl eisten
os ite
ĠAn erkennung
Str ate
20 21
ĠNeu stadt
port al
Ã¤m m
out put
sto ÃŁ
ĠRÃ¶ mer
ĠGelegen heit
ĠBarcel ona
r ennfahrer
ĠB lo
Ġb raun
ĠH eck
us k
Ġge lesen
Ġam t
19 80
stan bul
ĠUm satz
lau be
Deutsch e
hol en
198 7
Item s
ĠFreund in
abr iel
Jahrhundert s
**** ****
Ã ¦
ĠM ans
ĠSt ory
Ġaus einander
ĠKon serv
Ã¶ff net
stra ct
ĠWest falen
Header s
deutsch land
Ġoption al
frist ig
Eng ine
c ape
z ut
er ing
ĠR uns
ĠC ent
Loc ale
ĠWel tr
Constra ints
s ite
ĠP ers
ĠR ainer
ĠL ord
ĠC ru
Ġzu frieden
ĠÃ¼ber all
zahl t
Ġ186 4
Wir d
haupt stadt
ĠverfÃ¼ gen
ĠBek annt
ĠKu gel
ĠOption al
ĠNaturschutz gebiet
Ġpromov ierte
Â ¤
Ð ²
Ġv oller
ol en
ĠJ ens
ent ity
19 38
age d
gesch ichten
Pro jekt
ĠDi Ã¶z
fÃ¼l lt
omet ry
ĠCollection s
zus etzen
ĠMiner al
B uch
E P
c an
is er
ĠT en
Ġver arbeitet
im o
eld et
Ġ8 8
bild ungen
Ġwei sen
Mod ule
Ġ187 7
Ã¢ te
3 00
ĠR ÃŃo
ĠN RW
ĠJ ubil
ĠC op
ang es
ak on
az itÃ¤t
Ġ6 8
ĠLe vel
ĠBew ertung
ĠLie bl
ĠverÃ¶ffentlich ten
Ġem pty
ĠerklÃ¤r en
Ġjapan ischer
ĠjÃ¼d ische
Control ler
ĠAufent halt
ĠWÃ¤r me
Ġ ol
ar ett
Ġv ia
ĠA gn
ĠB R
ĠI ron
ĠV ent
Ġgel b
ĠTschech ien
Ġfertig gestellt
g asse
w eb
ĠB ast
ĠE N
ĠW alt
ic ast
od ie
ers dorf
gr Ã¼ndung
Re port
ĠUm feld
Ġbef est
ĠfÃ¼hr enden
con tent
EN D
lauf en
Ġschwer e
Ġwoll ten
ĠBud apest
ĠMÃ¶ bel
ĠAnh Ã¤nger
E qu
Ġ ).
ĠS un
Ġein heit
ĠK lin
rei ft
ial en
bar ung
ĠLe o
ĠSte u
Sp ace
ĠTer ror
ĠWal es
ĠPrÃ¤ fe
iffer ent
ĠTown ship
ĠVict or
w irt
Ġ reichen
en kt
ĠB enn
Ġb reiten
Ġer stellen
Ġer leben
ĠSch aff
sp or
sh ut
kehr t
ĠHalb insel
ĠÃ¤lter e
Ġak zept
B E
o ter
ĠB uffer
ĠK im
Ġer folgen
ro h
Ġdes cription
ĠSt au
sp rÃ¤sident
Ã¤n zer
ap s
Ġgen ieÃŁen
ĠChr on
ĠAll gemeine
ĠGo ethe
Ġgelegen tlich
mir al
Wil helm
um l
Ġg uter
ĠO f
urn e
red icate
ĠTechn ischen
lÃ¤nd ische
ĠRein hard
B ag
F S
S onst
ĠS z
al it
ĠV f
ĠN u
od a
Ġent deck
ĠMa jor
ph il
off set
isten ce
kon struktion
Ġ186 1
trol ler
ĠMult i
Ġuntersuch t
ĠPots dam
G u
P L
s ing
ĠZ o
ser ien
ĠSp l
Ġlie fer
Ġ6 3
Ġdar stellt
Ġges agt
ĠÃĦ hn
Ġabge st
Ġerrich ten
Ġfeier te
ĠBiele feld
C I
V ari
V AR
v i
Ġ achten
st ufe
ĠC oll
ĠVer f
Ġum gebaut
Ġlie genden
amt es
Ġwel chen
ĠFr ucht
Ġhand elte
198 2
ĠVolks zÃ¤hlung
spro gramm
Ġerk enn
Med ia
ĠSum me
d ire
Ġt ot
ĠJahr hund
ok er
pro p
zw ungen
iden z
Ġausgew Ã¤hlt
cover y
R et
sch wei
ein st
ĠA S
ĠM ang
pr es
Ġthe oret
Ġ6 1
Ġgen annte
ĠKr one
ĠReich es
ĠWor ksh
ĠKompon isten
Ġprakt isch
c tr
al i
ĠF red
ĠH arm
ĠL em
ber uf
Ġver ste
ic i
Ġsch m
rit ter
Ġpro du
bo ot
jahr e
Ġschn eller
Ġ187 2
wÃ¼r fe
sto ffen
Ġd ella
Ġd ynam
Ġm ut
ĠC olumb
ech ter
lo ÃŁ
Ġ7 00
Ġbef anden
ĠWelt cup
Gr und
ĠHin weise
ĠMaxim ilian
Ġkir ch
b eu
or dent
ĠO liver
Ġaus gebaut
âĢľ ),
Ġtr ocken
ĠAuf merksam
ĠBet on
ĠBel ast
ĠProduktion s
ĠStat istik
Ġdur fte
T S
g lei
ĠF antas
Ex tension
Ġ- -
fahr ens
Ġausge strahlt
ĠChr is
Bo unds
ĠWahl en
ĠMotor rad
ĠSied lungs
Ġged acht
vorsitzen der
hedr ale
sch reiben
Ġm ake
ĠL aden
ct s
rie s
Ġum s
ĠSen at
ilen ame
Ġinform ieren
J ugend
M ENT
e get
sch ild
Ġv ol
ol ph
ach us
ĠC ob
Ġl anger
iv als
19 14
ĠAus wirkungen
Ġex pl
ĠÃľber nahme
spro zess
Ġmeisten s
komm t
Kurz film
VerÃ¶ffentlich ungen
d ir
f rÃ¼
s aison
ĠD unk
ĠSch lei
ĠIn fos
get T
Ġ18 15
ib l
ib Package
ĠBer ater
pl ibPackage
ack t
PersÃ¶n lichkeiten
D ay
r ufen
w ner
an ts
ul f
ĠPr ince
wend ungs
eig ung
alis ieren
Ġpolit isch
ĠRest aur
Stack Trace
rupted Exception
endo ktor
( @
m ach
ĠB ibel
ĠE va
ĠP ublic
ĠSt o
ri ver
Ã¼n de
Ġzum eist
ĠAuf ruf
Sch n
ĠFre unden
ĠMeister schaften
ĠEben so
ĠStad ion
Ġbem erk
ĠniederlÃ¤nd ischer
liefer ung
ĠS amen
ĠS ehenswÃ¼rdigkeiten
at al
tr ace
ĠCh urch
Ġ5 9
ĠÃľber blick
ĠEurop Ã¤ische
197 6
Ġwh ich
Ġposit ive
Schwei zer
ĠerfÃ¼l lt
Ġstellvertreten der
N orm
t urm
Ġn ied
ĠG od
ert o
ĠEin er
amer a
ĠFre der
c re
er tet
Ġf u
re ck
19 20
gel Ã¤nde
ahl en
Ġ+ +
ĠDe part
Mit tel
ĠFre e
Ġro ten
ĠUp date
ĠKath arina
r un
t ask
w inkel
ĠS lowakei
Ġin ne
ĠP ader
is m
ĠT auf
Ġc as
geb iets
Ã© d
ĠEt appe
Ass ign
Ã¼ se
ĠB la
ĠN eg
ĠSp ir
ĠBer gen
br eitung
dem okrat
so ft
Ã¤nger ung
Ge org
ĠDo ktor
ĠnatÃ¼r lichen
Gener ator
ĠGal ax
Ġwirtschaft lichen
Ġarch Ã¤
D ev
b al
on line
or o
ĠK ann
ĠK ader
ig ation
ier endes
Ġver an
ap h
Ġlie ÃŁen
Sch ule
ĠBundes wehr
ĠFrei herr
ĠTre ffer
leist ungs
Ã¼st et
ĠEber hard
ĠKÃ¼nst lern
b rauch
d on
d om
ĠL och
Ġl ink
ok ens
Ġlie ben
ĠKon f
Ġbew egen
ĠParis er
Ã¤te stens
ĠLux emburg
ĠKandid aten
B rite
k ar
v ey
Ġv iew
ĠF assung
ĠL inz
Ġp rÃ¼
tel finale
ĠKon kurrenz
Ġ6 7
ĠMon ats
Ġgel angen
Ġbeh and
ĠTer ritor
ikt or
ĠGold medaille
ĠSam uel
ĠWo od
m iss
p age
ĠD J
ĠK Ã¼r
Ġf Ã¶rdern
ĠH ong
ĠW ende
ĠDie sel
Ġvor ne
Ġab hÃ¤ng
pl es
land schaft
org ungs
legen heiten
lay er
prÃ¤s identen
ĠLeichtathlet ik
A pril
b il
b uf
ĠE ch
ĠP osten
ĠV ekt
ent ication
Ġj en
sh ire
ett ing
system e
ĠdÃ¼r fte
ĠGit arr
ĠlÃ¶ ste
C LASS
J ohn
f euer
Ġd on
ĠB orn
Ġh undert
Ġzu verl
ĠSch icks
ic z
Ġun gewÃ¶hn
Ã¤r m
ĠAus schuss
Ġber u
deut scher
not ations
stehen den
frei en
Ġintens iv
1 10
g Ã¤ng
Ġm orgen
ĠF ound
le un
ĠBr Ã¼ssel
Ġgew Ã¶hn
iker in
ele ge
Ġ186 2
ĠMÃ¤n nern
ĠTok io
ĠDiskuss ion
8 00
g in
s an
z o
Ä «
Ġi gnor
ĠW inkel
ĠR ats
lich ten
ĠAl kohol
tet t
onn a
Ġbet reibt
ĠFor ce
Ã¡ r
Ġall eine
ep pe
ias ieger
spart ner
ĠIntegr ation
Abst ract
b Ã¶
m ethode
Ġb undes
ĠP ul
ĠT an
im on
ow o
19 28
Ġe ffekt
ĠKrieg sende
Se ptember
ĠEing abe
Ġschl ug
A uÃŁer
D ur
S ocket
ein heiten
it as
Ġf Ã¼hl
der e
if iers
ĠBe ach
ĠKon stantin
ĠDurch fÃ¼hrung
ĠAlter s
Le ft
ĠStad tr
ĠerfÃ¼l len
ĠNomin ierung
v oc
st eile
al ition
Ġs ur
Ġs erv
Ġn Ã¤chst
ig in
Ġ18 40
Ġum stritten
ov ed
spr uchs
Ġus ed
ĠMy th
Ġconfig uration
ĠSchu bert
ĠVerbesser ung
E p
i ologie
Ġd ocument
sch ungs
ĠAn sicht
Ġ18 00
Ġunter scheidet
Ġ0 3
ph ys
ĠSchw anz
ĠEx istenz
Ã¼l ler
Ã¤tz ung
Ġhand ler
ĠDrit tel
ĠNiederl anden
st atic
ĠS achen
as sten
ĠK ent
ĠR ow
ĠR ick
ĠL an
19 19
gend es
Ġgesch lagen
Ġgesch ieht
Ġur i
Ġverwend eten
Process or
iÃ¨ re
ĠUnabhÃ¤ng igkeit
g f
k rank
k ette
en ken
ĠS yr
at iver
Ġw asser
el be
ĠR och
ab schluss
ir chen
ĠSt imm
Ã¤r n
param eter
)) )
Ġern annte
arch ie
ĠHei z
Ġbild eten
Ġindividu ell
ĠEvangel ischen
P ack
S am
ĠA ar
ĠP rix
ĠV ill
Ġre al
ĠAus gaben
ial s
Ġgel ungen
ĠJugend lichen
ĠSchm uck
ĠBur k
Disk ografie
Frie drich
V A
a ft
r ics
z it
Ã¤ se
ĠM ig
Ġ( _
ĠE M
ier bar
Ġk re
ul iert
ĠSt aub
ĠAl ben
ĠSo zi
deck e
ĠAss istent
eier mark
ektr um
Dat um
beg inn
ĠTim es
Ġverkauf en
fa iled
ĠBesatz ung
ĠVerstÃ¤nd nis
achus etts
K lass
Ġm achten
Ġz ogen
ab schnitt
Ġzu gelassen
Ġun bedingt
ĠRe prÃ¤sentanten
ĠKon text
Ġle gt
ĠOrt schaften
ĠPar ad
forder ung
Ġcomm and
Ġbeeinfl usst
un ts
Ġver haf
Ġver teilt
ĠVer k
Ġsch wei
Ġsch mal
ĠAl len
ĠNeu es
ĠAt mosphÃ¤re
chn ik
ĠSystem e
Auf grund
ĠAu ge
Z wei
d h
r us
r ischen
Â ¼
Ġs par
Ġdes selben
og ramm
ĠMit arbeitern
ath an
rÃ¤ umen
ĠInter pret
glieder ung
Ã¨ re
ĠAward s
ĠAuss age
dar steller
Ġstrate g
H ans
O ktober
i oren
ĠS ei
ein richtungen
ĠL aur
us ste
eil ung
19 60
pe kt
ĠCh in
Ġzwei er
ĠVor stellung
ĠVor bereitung
res p
fe ature
Ġger inger
ps ych
Ġgest artet
197 5
ĠursprÃ¼n gliche
usst sein
ĠSyn ag
fÃ¶rm ige
Ġbenachbar ten
S ing
ĠS he
it ro
ĠD etail
ĠP ont
Ġum gesetzt
ant es
ĠFl otte
ator in
gew inn
Ġar ab
Ġgelang te
ĠmÃ¶ gliche
r eit
Â §
ĠD orn
am i
ĠH allen
ĠSch los
Ġunter gebracht
atz e
ĠKon stanz
ĠWeiter hin
herap eut
P C
U UID
x x
Ã¼ ÃŁe
ĠF u
ro hr
ĠN ich
ĠZ DF
ĠCh a
ĠSpiel film
ĠKÃ¼ chen
Ġangeb racht
Ġerweiter te
Sec urity
ĠAufmerksam keit
l uft
ĠW omen
hl t
ĠAuf l
Ġ7 6
Ġausge wiesen
hol ung
ĠBen jamin
ĠPat rick
ÅĤ aw
umin ium
ĠDonner stag
Ġausreich end
F ranzÃ¶s
S an
k ind
v arian
ver k
rÃ¤ der
ĠReg iment
ĠJo e
Ġben annte
197 9
ĠZent imeter
. ",
ĠS iz
ĠF ertig
ĠW Ã¤l
ĠT ipps
ĠL orenz
Ġver grÃ¶ÃŁ
Ġst imm
ĠÃ¼ber zeugt
ĠGr au
Id x
Sh ort
kan al
igr ation
C ap
ol t
ĠG abriel
ĠP ubliz
ĠZ iegel
Ġj ust
enn zeichnet
gr enz
burg h
Ġ9 5
Ġber aten
itt le
Ġverb esser
ĠÃĸsterreich s
ĠKompon enten
ĠÃ¤uÃŁ erst
P la
Ã ī
it is
ĠP last
Ġst ore
Ġe p
198 3
ativ es
ĠFrÃ¼ hl
B aden
Ġf lex
ĠH ot
ĠT ax
ĠN an
Ġp at
Ġ18 30
ĠBer ge
if ikation
ĠBischof s
FI X
entry Set
Ġscheiter te
Ġerlang te
INST ANCE
I hr
h Ã¤usern
ĠD efinition
ĠZ auber
ic on
ĠRe zept
ĠzurÃ¼ck gegeben
halt ungs
Ġâ ļŃ
ĠEng ine
Frau en
Ġintegr iert
ĠCentr al
ĠDÃ¶r fer
M er
Ġin folge
ĠG Ã¶r
Ã¶ ger
ĠV inc
eit ungs
Ġp refix
eh er
enn e
Ġ0 9
ĠGesch enk
Er n
ĠMan uel
schul d
198 1
ĠKont in
J a
P R
W ill
b old
Ġm ex
ver hÃ¤ltnis
lie gt
ĠOr th
ph abet
ĠFran ces
Ġex pression
ĠBau ch
Un ser
ĠSta ates
ĠFrei will
AR T
kn Ã¼pf
Z entr
h lich
m Ã¤nn
ĠS or
ĠK ompl
ĠH ung
Ġt olle
kt oren
hen den
geben en
ĠBet racht
ĠMot oren
ĠFreund schaft
ĠErw Ã¤hnung
AC K
PRO PER
national spieler
ĀĀĀĀ ĀĀĀĀ
ĠGiov anni
C lau
K omp
ei be
ĠB ow
Ġin to
ber ge
ĠJahr gang
ens ure
ĠDe kor
buch autor
Ġdiver sen
B atch
O UT
] )
m essen
Ð ´
st ahl
ĠP av
ĠT ask
ĠV alue
aler weise
equals IgnoreCase
197 3
ĠAf plibPackage
Ġmittler e
ĠbenÃ¶t igen
ĠMitt woch
A ud
R ender
z usammen
ĠD ollar
ol is
ĠP ot
ach s
Ġk ompon
Ġk ommerziel
ĠGr Ã¶ÃŁen
ĠRe paratur
amm elt
ĠEx ec
Ġger ingen
verb Ã¤nde
scheid ung
ĠunterstÃ¼t zte
ĠnatÃ¼r liche
Ġdire kte
ĠLandtag s
ĠZy linder
ĠSchwier igkeiten
ĠRumÃ¤n ien
W rite
ĠB atter
ĠF okus
ĠP ublish
Ġf ehlt
ĠEr gÃ¤n
get F
Ġbe zÃ¼glich
19 30
19 40
19 43
ĠSpiel s
res pon
Ġakt ive
ĠHier bei
ĠPsych ologie
Comm on
Cl uster
ĠAuss icht
Ġtem p
ĠReform ation
Ġforder te
B us
k Ã¶nig
Ġ append
Ġd t
ĠA ur
ĠA le
ĠSch Ã¤d
ĠSch reiben
ĠIn sbesondere
19 00
ĠAb d
ĠVor trag
ĠPl Ã¤ne
Ġwieder holt
ĠHaus halts
ĠRes ponse
des ign
gef angen
Ġstamm te
De zember
ĠBrun nen
ĠZub ehÃ¶r
! âĢľ
b art
r ische
v ice
ĠS id
ĠG n
ĠG ross
he ader
Ġst il
par ks
ult an
ĠBr Ã¼cken
sk o
Sch war
ĠAd d
ĠBet reiber
Welt meister
fÃ¤h ig
Ġdire kten
Ġbegr enzt
Ġschaff te
ĠD rag
ro ck
Ġk inder
Ġp ers
Ġbe en
19 34
Ġent f
Ġgen auso
Ġ' "
Ġbel iebt
ĠVal id
ĠtÃ¼rk ischer
Ġinform iert
Ġsowjet ischen
l och
l igen
sch end
te in
Ġw omit
Ġk rÃ¤
ĠSt ill
Ġ3 000
ĠAb satz
ant on
Ġerfolg reiche
ĠÃĦ m
ĠHe ad
ĠCom ic
Per iod
ĠLink ed
nap shot
Ġbrau chen
ĠRegionall iga
B eh
Q UE
S ER
s ql
Ã °
ĠB at
ĠL aus
he ater
ĠSp ren
19 27
Ġunter lag
ov en
ost a
Ġgel ingt
Ein wohner
End point
athl on
ĠKonfl ikt
ĠGreg or
ĠYo ung
C R
R ock
ĠD al
ĠG ymnas
ĠP os
ing ham
scha ff
Ġbe achten
Ġj ener
ang o
up pe
ac o
Ar gs
omb ard
196 9
Ġwirtschaft liche
ĠverlÃ¤ng ert
N icht
c ap
n ur
ĠM is
ĠT ank
Ġge eig
Ġ" '
ĠAus stellungs
ip edia
ĠBo oks
fig uren
Ġverm eiden
Ã¤mpf ung
ĠKont akte
spe zif
ĠAltern ative
ĠBeteil igung
Ġ ei
at isch
ĠA ccess
as ks
ĠE UR
Ġk aiser
ĠO h
ĠIn schrift
Ġab w
ant h
Ġres ults
ĠEx pression
ĠEx pedition
ĠNeu er
ĠMin i
Ġverb lieben
ĠÃĸsterreich ischen
ehm igung
ĠÃ¼b lich
ĠJahrzehn ten
W e
m y
ĠD og
ĠF eier
ĠR unden
ber ater
ĠVer sch
ĠVer handlungen
Ġst op
Ġr umÃ¤n
stra fe
trÃ¤ glich
Ġgut es
ĠVerl ust
Rem ote
verstÃ¤nd lich
Ġmensch lichen
Ã¢te au
k anz
r ight
st einen
ein kommen
au ung
ĠB rot
ĠR Ã¼
ĠI R
ĠJ Ã¼d
ĠJ Ã¤ger
Ġge pf
Ġt ags
ell y
Ġsich ern
ĠAus stellungen
ett a
ĠStud ies
Ġben utz
RE D
verb indungen
UN D
ĠKonfl ik
offiz ier
ĠFÃ¤h igkeiten
O pt
l asse
or izont
ĠF ootball
ĠR eiter
ĠR ober
and om
ra gt
Ġc ontainer
19 31
ĠEx pl
ĠBet reuung
ĠErn Ã¤hrung
ĠkÃ¶nn t
Ġspeziel len
ĠPhys iker
ĠHoff mann
Ġmaxim ale
ĠRaj on
ĠColumb ia
Ġf f
ĠT am
ĠR un
Ġk ost
ation Exception
19 25
Ġnoch mals
Sch iff
ĠSo ft
ĠY or
Ġkon serv
ĠFranz osen
ĠHerr scher
ĠVertrag s
ĠHei de
mut able
Ã¶pf e
Ġged reht
ĠStock holm
Fr ame
ĠPersÃ¶n lichkeiten
H om
ur st
ĠD ob
ĠH agen
ĠR oland
ĠV i
ĠJ ar
iel ler
Ġl agen
Ġbest immen
Ġbest ehend
arr ier
akt ive
ĠKind heit
Ġresource GroupName
Ã¤chs ische
ĠHoff nung
ĠSign al
ĠmilitÃ¤r ischen
ĠDien ste
ĠPromot ion
V ideo
e z
h y
in ische
ĠE ier
ĠE cke
ĠP okal
19 29
of en
Ġex per
Ġfest gelegt
ĠFest ung
ĠPat ri
UN G
ĠZuf luss
ĠWeil er
alys is
Ġangep asst
C K
I st
T ri
l ach
sch Ã¼tzen
Ã¤ der
Ġin vest
ĠL ight
ĠN erv
Ġk Ã¤mpf
Ġbei der
ĠAn k
Ġ18 49
ĠAr me
ĠBr ut
ail and
ĠQu ery
Sie ger
ĠLehr stuhl
ins eln
Ġbesser e
ĠEben falls
Ġklass ische
Ġeurop Ã¤ische
Ġsof ern
Ġpassen de
ĠtÃ¼rk ischen
ĠAnz eige
ĠWÃ¶r ter
opÃ¤d ie
ĠRenaiss ance
ĠPader born
f eier
r ollen
ķ ×
an ch
ei ro
Ġf unction
tr olle
Ġauf gel
ok up
pf alz
ĠPl attform
fahr zeuge
Re zeption
Ġ8 4
ĠJul ian
ĠÃ¼bern immt
ĠRis iko
b ist
ĠM inn
ĠC ra
ĠUn der
ark e
rim in
ĠJe ff
Hol der
ĠAnder e
Ġbeob achtet
Ġkauf te
B ek
ĠD ass
ĠH unde
ĠR ac
af eln
ĠDe kan
con nection
ĠVers orgung
Ġ185 6
ĠPublik ationen
ĠNav y
ĠRuh estand
B es
C S
M Ã¶
R om
a ver
c p
Ġh om
ĠN i
ĠSch e
Die s
ĠBer at
Ġex tra
ĠSchw estern
ĠTh or
ry pt
Ġkon stru
Ġschwar ze
Rel ation
Ġindividu elle
VAL ID
Ġverhaf tet
S uper
h eben
ĠS ession
Ġm ore
ĠP oten
ĠI stanbul
icht lich
ĠSp ace
19 10
Ġa fter
tern e
Ċĉĉ Ċĉ
Ġpro tected
ata illon
ĠEx il
kon stru
ĠKo ordin
ĊĠĠĠĠ ĊĠĠĠ
ein satz
ĠK el
ĠF ont
Ġge laden
Ġan notation
Ġgew id
Ch ain
Ġverb inden
Ġgef Ã¶rdert
ĠProdu kten
com pare
Ġevangel ische
A rea
T hr
an iker
ĠB od
ĠK roat
ow itz
br unn
ian ischen
ĠInd ust
ĠBef est
Ġwunder sch
ĠFrem d
Ġlehr te
L uft
b in
or al
ĠA spekte
Ġh off
ver g
Ġbei gesetzt
get Resource
ick ets
ĠMar in
An fang
Ġ7 7
ĠSpr ing
ĠSchul d
kir ch
ĠCor por
Ġstar tet
wir ken
ĠVort eile
W el
it iv
ĠD un
ĠD ial
ĠM alt
ĠM ike
ĠH ahn
ĠN ag
ĠO berg
ĠAn wendungen
19 24
pro blem
ĠMo dern
Ġstatt dessen
ĠSk i
ĠAp othe
ĠLeip ziger
ĠKat zen
ĠElektr o
Ġproduz ierte
ĠCa pt
Ġak adem
Ġumfang reiche
ĠSchott land
ĠbeschÃ¤d igt
em s
ĠT iefe
um a
Ġer mord
Ġbe quem
ĠAr rays
Ġsie gte
Ġum gew
ĠGesch ichts
Ġgest orben
197 4
leist et
zir ke
lowak ischen
ĠniederlÃ¤nd ischen
A ber
un nen
al teten
ich e
ĠA uft
ĠF Ã¤hr
de p
ĠO bst
Ġ" +
ĠBe at
Con sumer
190 1
On line
frei heit
ĠFlor ida
Fol der
ĠVarian ten
x id
ä º
Ċ ĠĠĠĠĠĠ
et tet
ĠG h
rei de
ri pt
Ġc tx
ĠZeit schriften
En coding
ĠNord amerika
ĠSpr ung
ron om
ĠAt trib
ĠBern ard
dienst kreuz
ĠKommun ikations
komm ission
Ġjapan ische
fÃ¶rm igen
Ġbekannte sten
Ġindividu ellen
ĠDok umente
c ement
m Ã¼n
sch el
ĠF I
ĠW itten
ĠR eu
ĠSch uh
wei chen
up le
ĠAb stieg
Ġbest ellen
ĠMed iziner
Ġbew eg
Ġ186 3
ĠRed aktion
Ġengag ierte
pfl anz
? ?
P at
tr act
ro ad
ĠJ unge
ĠJ ones
wei he
19 26
ĠMar g
schie de
ategor ie
ĠRest e
ĠTyp s
ĠAndre a
ĠPreuÃŁ ischen
Ċĉĉĉĉĉĉ ĉ
ĠPremier minister
D am
c us
ĠM eine
ĠG ei
Ġer for
ĠO R
Ġver sen
ĠAr g
ĠAuf tritt
ĠRe publ
mann schaften
ĠThe at
ĠPar allel
Ġwei ÃŁe
ĠKn ochen
Ġinter pret
ĠJur y
ĠDel eg
Ġerinn ern
ĠÃľberg ang
ĠWerb ung
irurg ie
ĠGemeinder at
Ġehren amt
ĠTay lor
C olle
F rÃ¼
at tribute
ĠK reu
ĠP ack
ĠT O
ĠR up
Ġge liefert
Ġl ive
Ã¤n glich
ĠSp enden
ĠBe weis
Ġmehr mals
berg s
Ġ6 9
ĠAut os
Ġverl ang
ĠCon s
wohn ung
ĠWir d
Ġaktu elles
ĠauÃŁer gewÃ¶hn
Ã¤ss igen
ĠMerk male
M IN
z ucht
ĠH Ã¤
ĠH Ã¶l
ĠN ight
ĠStr eich
Ġ8 6
ĠMittel meer
ĠfrÃ¼ here
klÃ¤r t
ĠBi ografie
ĠRu der
ĠZust immung
ĠIdent itÃ¤t
N ummer
S AR
g ert
l abel
p unkten
Ġw Ã¤ren
Ġb ulgar
ĠL okal
Ġan grenzen
ul in
Ã¤n k
ĠBe arbeitung
Ġ8 2
Ġher e
ĠÃĸ k
gew alt
Ã¤uf e
ĠKomm andeur
Ġspe zif
ĠDienst leistungen
ĠFel der
ĠWes entlichen
Ġfe ature
ĠEns emble
ĠPenn sylvania
ur ist
Ġs um
Ġver lei
ĠSt or
ĠSie gen
ĠIm mer
Con verter
iss ar
Ġfort an
.... ....
cept or
eucht ung
abr Ã¼ck
iction ary
Mart in
L uther
h ar
m ech
ge tr
Ġs yn
em an
im s
Ġr ies
ĠJahr buch
ĠStr eifen
ĠAl f
ige st
ip her
olog ical
Ġerfolg ten
ĠUr sprung
ĠZw angs
Ã³ r
ĠNorm al
Ġrei ste
stÃ¤r ke
elemen te
h ou
h arm
h ammer
o use
ĠV orm
ĠJ enn
Ġan b
ver halten
Ġaus gesch
19 78
Ġvor genommen
Ã¼hr t
Ã© l
Ġ8 3
ĠPr om
ĠÃĦ l
ĠComm on
Kirchen gebÃ¤ude
ĠLein wand
J e
M erk
c ontainer
Ġin kl
ĠE valu
se Exception
Ġge kauft
ft igen
Ã¶n t
stan ces
ĠAnt i
sta ates
196 8
197 7
ĠCor ps
Ġvertr ieben
Ġhol te
ĠVoraus setzungen
Ġfal sch
ĠKonzer te
Hinter grund
Nov ember
( !
E CT
N etwork
e o
n abrÃ¼ck
z elt
Î ¹
ĠM eld
ĠM ix
Ġein gemein
is hed
ier re
ĠEr mitt
Ex pr
Ã¤l ter
Ġ0 8
los igkeit
ym met
Ġ13 0
Ġcon s
ĠPart ie
we en
ĠHÃ¶he punkt
ĠBef rei
ĠJac ques
ĠKab inett
ĠPeters burg
Wind ow
ĠberÃ¼cksicht igt
ontinu ier
H z
M ult
w achsen
ĠA cker
ĠO utput
id akt
Ã¤hr ungs
ph y
ĠPr int
Ġeigen stÃ¤ndige
Ġfest ge
ari at
AN D
ĠGeneral major
ĠHan se
ĠÃ¼bergeben en
ĠWach stum
ĠInternal X
ĠOk res
Ġfung ierte
f g
} .
at io
ĠT yr
ad bach
ĠVer leger
ĠÃ¼ber zeugen
ran ts
19 21
19 36
19 42
if er
rau en
St ation
sh ow
Ġel eg
ĠHÃ¶r spiel
ĠdÃ¤n ischen
ĠCarol ina
Ġchrist lichen
ĠKolon ial
ĠPian ist
P rÃ¤sident
au ft
ĠF inger
ĠL ow
re ste
ad ing
ler in
Ġ9 9
Ver b
Ġhier fÃ¼r
ĠAd vent
such t
ĠOl d
Ġeinge laden
Ã¼l ern
Ġzerst Ã¶r
ĠHash Set
Ġoff ens
Ġletzt lich
fuckfuck fuckfuck
ĠMisch ung
Ehr ungen
ĠausdrÃ¼ck lich
P okal
Ġ egal
ĠB ald
ĠB anken
ĠP az
ĠL eucht
Ġst yle
eg er
ĠCh ines
los er
res ources
alis ierte
hÃ¶ fe
ĠPosition en
Ġleich ter
ĠDir igent
ĠErl angen
ĠBoch um
A ME
B ern
f uÃŁ
j ar
is l
ĠH Ã¤nde
ĠJ Ã¼n
ĠJ Ã¶rg
19 37
ĠAb lauf
ath emat
olle yball
Ġle g
Ġ7 4
ĠSÃ¼d afrika
ĠMill ion
SS ION
ĠWar schau
abil itÃ¤t
grÃ¼n den
Ġbem Ã¼
loc al
Ġrest aur
ĠSchne e
ĠHoll y
penden cy
Sow jet
×Ļ ×
H il
S eite
k k
sch les
Ã¤ le
Ġh l
Ġh Ã¤ngt
ĠN ahrung
Ġk Ã¼nst
Ġa ct
ack e
Pro gress
bo urg
ĠPaul us
190 5
ĠKaiser reich
ĠMc C
w Ã¶r
z esse
Ġein gebaut
ĠF unde
ĠP ool
re b
ĠC la
ra gen
Ġt iefer
Ġver g
() ),
Ġlie ber
Ġentwick elten
196 3
Ġ185 9
Vor pommern
ĠEntwick lungen
aliforn ia
ĠBeweg ungs
adapt or
ĠNeuse eland
d ichte
f us
m all
m Ã¤r
at ische
Ġs ame
Ġs itzen
Ġn a
ĠE ffekt
re de
Ġst ra
ak ten
Ã¼t tel
197 1
orth odox
ĠForsch ungen
Ġwissenschaft licher
D enk
M al
c all
d ay
v org
ĠH amm
Ġauf merksam
ĠU E
ĠU s
Ġeigen tlichen
kathol ischen
ĠJer sey
ĠParlament s
ĠCentr e
Rei he
ĠnÃ¶t ig
preuÃŁ en
ĠabhÃ¤ng ig
T ube
Ä Ĺ
ie ber
ĠB ug
ĠK ore
ĠF ire
ĠE ro
Ġl abel
sp ital
ĠMar io
ĠVor lage
Con dition
Ġger iet
Ġgef angen
por ary
ĠMor itz
ĠArm y
ĠplÃ¶t zlich
! =
f amilien
l iger
st het
ĠB reis
ĠD ein
Ġh ash
Ġge ograph
Ġge Ã¶ffnet
ĠEr be
Ġbe zogen
ĠEin kommen
19 46
erk lÃ¤rung
ĠRe ktor
tem pt
ute te
spr icht
Er zeugt
stra te
ĠSh ort
Ġbr ach
ĠBew erb
ĠWer be
Ġhinzu gefÃ¼gt
Ġpoln ischer
ĠAuss agen
Ġcl uster
ĠJack son
ĠKlass ische
ĠJes us
ĠKult urg
ĠMun icip
I hre
S l
p il
à ¤
Ġs plit
Ġm Ã¤cht
ĠAuf stand
ens is
Sch utz
kl assen
uck et
ĠDu isburg
by tes
ĠGed icht
valid ate
ĠKrÃ¤ fte
ĠKaff ee
Ġdeb Ã¼t
H am
O ne
i op
ĠS G
Ġw Ã¤chst
Ġs im
ĠA L
ik ationen
ĠSt ipend
Ã¤ch te
ele ase
Ġeinge weiht
Ġstell ten
ĠKreis es
Met ric
ĠFer r
itu ationen
ĠFel sen
ĠBon us
ĠAud io
ĠViertel finale
oh ama
wach ung
B Ã¼
E ishockey
S ION
m ung
er d
ĠC af
Ġl eistungs
19 22
gr am
Ġber ichtete
ĠTr end
Ġbew egt
rid Bag
Group Layout
anc el
ĠZeich nungen
ĠStÃ¤d t
From String
Verein igtes
ĠHerzog tum
ĠStreit krÃ¤fte
Ġsorg te
Ġmittelalter lichen
Ġstru ktur
cycl op
âĢ¢ âĢ¢
K ind
v ia
z ten
ĠK ro
ĠG T
ĠW icht
ĠV ic
ĠAn meldung
Ġc re
ĠSe ktion
sk irche
ĠFran Ã§ois
ingen d
Ġgef Ã¤r
Ã¼l le
190 4
ĠBrow ser
ĠZeu g
ĠNap ole
v ideo
ĠM atch
ĠH altung
Ġg ra
ra hmen
ik ro
ĠSch enk
Ġo pen
ĠSte phen
ĠNeu zeit
ĠCo unc
Ġbesch loss
new Line
ager ung
Ġern st
Hand le
over n
ĠAmer ica
zÃ¼ gen
Date Time
ĠprÃ¤sent ieren
ĠKer amik
ĠVerteid igung
Auth or
Ġniedr iger
ĠstÃ¤dt ischen
B ig
D ivision
J J
M a
m d
ur al
ĠM i
Ġm ain
ĠT oken
se h
ĠC reate
Ġp la
ien ce
ĠIn c
ĠIm per
ĠBr Ã¼ck
Ġle vel
An gabe
schl Ã¼sse
Ċĉĉĉĉ ĉĉĉĉ
ĠSÃ¼d tirol
Ġfield s
Ġtrans action
ĠBaum w
Ãĸsterreich er
ĠKomment are
Ġreduz iert
Z eich
n ow
st ore
ar es
ĠG ol
le ft
Ġr aus
tem peratur
Ġbest er
ĠBau reihe
schau en
ĠViel falt
Names pace
Ġbedeuten de
Ġperfe kte
ĠmilitÃ¤r ische
1 17
B und
z ant
Ã¤ hne
ĠP ay
Ġh eight
ĠSch Ã¼tzen
ind el
id sch
zeu ger
film ung
Co unter
ĠauÃŁer ordent
sta ats
196 6
ĠSol o
ĠKind es
ĠMult icast
ĠAustr al
b ayern
n isch
sch lagen
Ġb ad
Ġb Ã¼rger
em eister
ĠK enntnis
ĠF air
ĠIn stanz
ĠVer ordnung
Ġab s
ĠMar sch
ĠRe v
ĠBe cken
Ġex pr
Ġ8 7
ĠHand lungs
Ġ185 4
ĠTel ek
agn ose
ĠHu bert
ĠHig hl
ĠPrÃ¤fe ktur
P AT
P aul
d oc
ĠS ed
Ã¤ p
ĠB uk
ĠK av
ĠT able
um ul
Ġan f
Ġp ut
Ġaus geschlossen
19 13
19 44
aus geber
ok u
Ġ7 3
Ġkon zip
arch itektur
US A
ĠKo hle
Ġy ou
gesetz es
kn own
Ġopt imal
ĠFlor ian
L aut
ĠA TP
ĠF K
ĠL ock
ot os
ru der
Ġvor kommen
ĠGem ark
gl as
aff e
Ġ185 2
Ġ185 8
ĠDat abase
plan ung
Stand ard
anstalt ungs
Ġherv orge
Ġnational sozial
ĠKenn edy
ĠArchÃ¤ ologie
PT ION
A tt
F amilien
P rÃ¼
b lau
Ï Ħ
ĠK ai
ĠW itt
ĠL uther
ĠV ir
Ġt our
ĠZ ut
19 17
olog in
ĠGeb Ã¤udes
IN TER
ĠPh o
Ġall gemeine
ĠMot to
ĠKap ital
CO DE
ĠÃ¤hn liche
Ġclass Name
ĠbeschÃ¤ft igte
lehn ung
ĠReihen folge
track ing
Ġuntersch rieb
ĠAndr Ã©
E hren
G C
l Ã¼ck
o unt
or ien
Ã¼ ÃŁ
Ã¤ cker
tr Ã¤cht
ĠV ector
Ġk ontinuier
Ġt oll
ĠZ eile
In formation
Ġ9 6
Er stellt
Ġdrei mal
Ã¡ s
ĠDigit al
Ġausgeb ildet
ĠSter nen
R ennen
l at
s ieg
Ġ att
en ke
ĠD efault
ĠF DP
ĠE P
ach se
ĠN assau
ĠJ im
ĠJ ord
ĠEr hebung
(" /
Ġth an
Sch on
Ġis lam
ĠBerg bau
ĠStaats anwalt
ĠSen ioren
ĠGesetz es
ĠUrs ache
I ts
L ehr
O ff
b le
n immt
Ġ []
Ġer leich
ĠAb stract
ĠCh am
als ieger
Ġzusammen gef
OR D
čĊ čĊĉ
Ġoffen e
best and
Ġbed ient
UT F
Ġregion alen
Ġsech sten
ĠHauptr olle
ĠSemin ar
G L
I O
u alitÃ¤t
Ġ ord
an ier
sch lossen
ein richtung
ge wer
Ġder selben
em pty
Ġf rag
ĠH ildes
ĠR iv
ĠR av
lin es
ĠStadt gebiet
sb et
off er
Ġgesch ickt
Ġabsol ut
ĠMass achusetts
angeb ote
Ġbayer ischen
I R
n ik
Ñ Į
et sch
et ik
Ġin iti
Ġein erseits
Ġn utzt
ĠE i
Ġg aben
Ġver folgt
men s
Ġ" .
ĠFl ach
ĠSpiel klasse
ĠPer formance
ĠGel ehr
ĠGrÃ¼n de
Ġinteress iert
Exec utor
Produ ktion
ĠWahr heit
ĠErzÃ¤hl ung
Final e
? )
B Y
H H
M ein
k ter
ĠM u
Ġf eiern
Ġh aus
ĠC alifornia
ĠSch alt
St orage
Ġ7 1
ĠMen gen
Ġhand eln
ĠZahl ungs
ffe kte
leit ungen
Ġschwed ischer
Ġdurchschnitt liche
BÃ¼rger meister
ĠInput Stream
urren cy
Ġdenk mal
* (
k al
or chester
ĠA kte
ĠD ritten
ĠL av
ĠC lem
ĠSch ult
Ġp rivat
ĠIn halts
eg ate
ĠAn satz
19 11
ĠAl uminium
ĠPro perties
St a
ĠPl at
ĠSchw imm
Ġseit her
rich tet
ĠBesch luss
ĠWie sen
ĠSim ple
fried hof
Ġgener ate
g ard
m atcher
Ġ ðŁ
Ġs egment
ĠO hne
Ġl it
ĠSie ge
St ad
ĠGesch lecht
Ġ8 1
ĠBet roffen
ĠJul ia
othe k
verl ust
Gener al
Ġfinanz iellen
funktion Ã¤r
Ġvalid ate
F eld
K or
K Ã¼nstler
Ġw and
ĠK alender
den kt
ig sten
ĠN ad
Ġge g
urn ee
ĠSe kretÃ¤r
br Ã¼ck
Ġ9 1
dr es
ĠBau ten
Ġch ron
schl Ã¼ssel
esse d
197 2
Ġnie mand
ĠLad y
sup ported
1 18
F uÃŁ
W M
m utter
s Ã¼d
Ġ $
ĠC ontainer
rei hen
ed s
Ġr ange
etz e
ieren der
dr om
Ġgen auer
ĠBl ues
ĠRo se
ĠSal v
196 4
Ro ute
Ġmet adata
L INE
j Ã¤ger
k Ã¼
å ı
Ġd auert
ĠF erner
ĠN utzen
ĠU d
get Text
id get
Ġ18 20
Ġvor Ã¼ber
ill es
ĠGesch w
Ver tex
ek ing
ĠBundes regierung
Ġverst eht
Ġbevor zu
ĠPil ot
ĠPrinz essin
Ġpassen den
Ġgepl anten
Po inter
dis ziplin
ĠErschein ung
ĠErwachsen en
Ġgewid met
R und
W S
ĠD ick
ĠG allen
Ġst eigt
Ġr etten
ac ity
ĠGew Ã¤sser
Ġ% .
ĠWohn zimmer
Ġerreich bar
Des c
Ġwichtig ste
ĠVerl Ã¤ngerung
ĠSieg fried
ĠChamp ions
Ġinitial Value
ĠTemperatur en
Ġregistr iert
ĠYok ohama
ĠBuffer ed
F ER
L ower
S Ã¤nger
V ier
Ð ¼
ĠC ab
19 35
ip eline
ian s
Ġdar stellen
Ġ7 8
lau ch
Ġeinge gliedert
Bo ok
Mod ell
ĠGen f
beh Ã¶rde
ĠEntscheid ungen
R oman
b undes
r ath
en ces
ĠD ocument
ĠM iet
Ġm obil
ĠH D
Ġk Ã¼r
Ġg lob
Ġver standen
ien e
Ġre form
Ġch annel
hof er
rÃ¤s identen
ĠBeh inder
Method s
zÃ¼ g
ĠHar ald
fest ival
kathol ische
ĠDeut z
r s
z eigen
ge mÃ¤ÃŁ
ĠM Ã©
ĠM ilit
ĠL eh
ĠL az
ab on
Ġg gf
ex ception
auf lÃ¶sung
ĠKon ferenz
Re pository
ĠSte ve
ĠGew inner
Ġzahl en
190 8
let on
ĠDokument arfilm
ĠEmpf eh
Ġdigit alen
ĠExempl are
rue ft
ĠSpec ial
B ER
r ichtete
em er
ĠG or
Ġk lin
Ġr u
ĠEr ic
ex pected
ĠCar los
Ġhei ÃŁen
190 6
Ġerziel en
omet rie
ĠTschech os
Ġerheb lich
ĠGlauben s
tran sport
Ġphil osoph
franzÃ¶s isch
c lazz
Ġs ql
ĠM asse
ĠV ogt
Ġdem okrat
19 23
pro zess
Ġ7 9
Ã¤m me
ĠTr ennung
Ġschn elle
ĠDo zent
ĠKat hedrale
Th is
Ġstaat lichen
Ġprev ious
ĠArgentin ien
A lex
g io
l ige
s orge
w ahr
ich en
ten ts
ĠH ang
om os
Ġl Ã¤nd
Ġc ur
get Parent
ip per
amen te
Ġteil en
rech nung
Ġx ml
Ġinner en
190 9
ĠSÃ¼ ÃŁ
ompl et
Ġcall back
Sa int
gesp ielt
A ustr
sch Ã¤d
ir a
ĠĊ ĊĠ
19 50
ex ists
agen tur
Sch l
Ġen ger
ĠHand eln
ĠOl iv
ĠReich en
ĠKur fÃ¼rst
ĠApp le
eta ill
Ġschwed ische
ĠKob lenz
E ben
V E
o zi
ĉ ĠĠĠ
ĠF len
ist ics
Ġver zeichnet
Ġp e
ĠVor name
Pro p
Ġausge stellt
ĠOber liga
By Comparator
Ġangeb lich
ĠVorsitzen de
ĠCharl otte
ĠSQL Exception
" -
L ud
M D
N onn
b rechen
c ache
h ab
s eiten
ĠZ war
ag ing
ĠEin fach
Ġ18 55
lo gen
ĠAb sol
amil ton
Ġange kÃ¼nd
eren zen
aw t
ĠBas il
Ġaufge geben
Page Link
Column s
ĠÃ¶ k
prof essor
1 16
F L
G egen
k ol
z eits
in stance
st urm
ĠK rÃ¼
Ġf lag
ĠAn ders
ub a
id ad
ĠCh ancen
ĠDeutsch es
ĠKl ar
ĠSpiel ern
ais e
Ã¼l len
ÃŃ k
ĠLandkreis es
ĠText il
ĠGo od
beh alten
Ġid x
Ġland es
AX B
Ġdest ination
ĠAbt ei
Ġengag iert
ĠBundesver dienstkreuz
1 15
= '
C opy
p hal
un ks
ĠK ilometern
Ġf ahr
ĠH Ã¤usern
ĠL iss
Ġp Content
fl Ã¼sse
lei sten
ĠOber Ã¶sterreich
Ġfest gestellt
Ġ185 7
itu de
Ġrem ote
Ġdigit ale
ĠDemokrat ischen
ĠEro ber
A ctivity
M ulti
w elle
ĠB lei
Ġm ember
ĠH unt
ĠW ettbew
ul den
rie t
ĠAl ber
ant ast
ĠMar x
Ġ8 9
Ver walt
ĠMÃ¼n z
ose x
196 5
bes itzer
vis it
Men u
ĠSoph ie
Ġeindeut ig
U uid
ĠĠĠĠĠĠĠĠ Ġ
Ġm ode
ĠK ast
ĠN umber
Ġge plan
Ġge arbeitet
Ġbeg eistert
ĠGrund schule
ĠHaus halt
deck er
Ġgewann en
Ġoft mals
ĠBed ien
back tracking
Ġfr isch
Arch itektur
bas is
R aum
S ort
T C
Ñ ĭ
ï ¼
in ternal
ĠB MW
Ġm erk
ĠP ixel
ĠL ob
pt on
ĠEr lebnis
ĠEn kel
Ġander erseits
ĠLe v
ĠBand s
ĠBuch t
ograf ische
ĠHil f
ake te
ĠJournal isten
ĠRos a
Ġpoln ische
onom ie
Hein rich
ĠAuseinander setzung
Ġgarant iert
ĠVirg inia
ĠUE FA
W issenschaft
f indung
i ot
ĠN HL
Ġauf w
ad i
Ġent decken
lo v
ok ol
ĠMa ÃŁe
ĠVor les
ĠVor stellungen
amm lungen
per iode
ĠKon stru
mit tag
Ġ12 5
ĠAd ministr
ĠMin dest
ĠTr ink
ĠWerk zeug
Ġnun mehr
Ġbeh err
190 7
ĠDon ald
ĠComm and
Ġevangel isch
Ġgek ennzeichnet
Ġentst amm
ĠÃ¶rt lichen
Ġumgew andelt
ĠdebÃ¼t ierte
ĠCounc il
C L
W ahl
c ent
m ol
ã Ģ
Ġv ierte
Ġ1 14
ĠP ant
ĠL inden
ig ion
Ġbe ziehen
Ġbe geg
ĠEin blick
qu is
ĠAb hÃ¤ng
ikan ten
Class Loader
ĠEurop e
ĠChrist i
At tr
ĠGen e
ĠAnd roid
ĠWor ten
ĠTre e
sprach ige
ĠOs nabrÃ¼ck
ĠlÃ¤nger e
Ġchines ische
ĠCast le
D etails
F low
I E
k reise
p us
p Ã¤dagoge
w enn
at sch
Ġs eiten
Ġs ilber
ĠP ur
ĠH ut
ĠW asch
ĠC os
ĠVer st
qu ellen
Ġ" ";
ĠAnt ike
ĠFot ografie
Group s
ĠInstitut ionen
bÃ¼ ro
ĠMinister ium
parse Int
ĠZweck e
nehm ern
ĠFÃ¤l le
ĊĠĠĠĠĠĠĠĠĠĠĠĠĉ ĠĠĠ
ĠStÃ¤r ke
K ilometer
z ien
ĠA ktionen
ĠB ibliothe
Ġf ilm
ĠV iet
Ġim plement
ĠIn haber
Ġtr afen
of ilm
Ġber echnet
ren ten
Ġat tributes
ĠWinter spiele
IV E
Ð¾Ð ²
db c
ĠFlÃ¼cht linge
U RE
W ord
h Ã¶ch
t ax
ĠS her
ĠP ac
Ġf Ã¤hrt
ĠW arn
ĠL ED
ĠN est
ĠVer folgung
Ġst et
ĠSp ar
rau ff
ĠPh Ã¤n
vor stand
zw eck
ĠKÃ¶nig sberg
ĠWei s
ĠFach werk
Ġstehen den
ĠFinanz ierung
ĠMÃ¤r chen
Pass word
: "
F ach
S w
T EXT
l Ã¶sen
en hagen
au e
ĠA N
ĠB auf
et scher
ĠE mer
ĠT ol
ĠV eg
ĠU we
ĠZ ert
ĠSch Ã¼lern
ĠSt ationen
op le
ĠBer ichte
if orm
los ure
ans as
Ġges ichert
ĠzurÃ¼ck kehr
ĠÃľber leben
Ġeh emals
ĠVers icher
Ġbesonder er
hÃ¶ hung
ĠGu ide
ĠSamm el
Hash Map
ĠRefer enz
Ġhochwert ige
ĠDrit ter
Ġabgeb rochen
pap ier
a al
b org
k Ã¼nstler
m uster
is emit
Ġer b
ver kauf
ĠAn bau
Ã¤t tern
ĠVor schlag
ĠPl Ã¤nen
ober flÃ¤che
zentr ale
iÄ į
ĠRh yth
Ġfa iled
ibil ity
chten stein
ĠMicro soft
j on
l is
Ġf ull
ĠW ater
ĠI tem
ĠV as
Ġver mitteln
Ġj ene
19 41
qu ert
Ġunter schieden
ĠNach kommen
ĠHand y
ele ted
ĠSaison ende
ĠWor te
Ġ180 6
Ġverlie f
Ġkompl ette
Ġerz ielt
ĠVict oria
tok oll
ĠRak eten
ridBag Constraints
Ã¤ ste
ĠB our
ĠB arr
ĠN oten
Ġden ken
ik eln
Ġauf s
Ġl eiten
ed el
get Field
ĠMus ical
ĠEl iz
196 7
ĠÃ¼b lichen
Ã¼tz te
Ã¼tz ten
Ġerf Ã¤hrt
Cl ub
ĠOpt im
ĠProz esse
Franz ose
R hein
d imension
n utzung
r ise
ĠS v
ĠW lad
Ġvon einander
ĠN ahrungs
rie den
19 12
nen nung
je ction
ĠMar co
ĠPl us
ĠWohn ungen
arbeit ungs
ender t
ĠDienst ag
Ġ185 1
frie s
part ei
ĠNor bert
Ph one
adel ph
ĠEreig nis
Ġverbess ert
Ġverh indert
ĠEh emann
ĠInternets eite
N etz
h ten
m i
ar is
ĠB rad
Ġ1 16
Ġf ehl
ĠT ypen
Ġa ccess
Ġ3 50
enn er
ĠAus bruch
Ġ0 6
Ã¶l be
Ġhin sichtlich
ou v
Ġar gentin
ĠFr Ã¶
ĠDurch schnitts
Ġro b
Ġversch oben
ĠChem iker
Ph ys
Ġfa ctory
ĠAud i
ĠSec urity
Ġzeich net
Ġren omm
Ġren ov
J azz
l ess
n ord
ie be
st unden
ĠS om
Ġs auber
ĠE ver
ĠH at
Ġab ges
Con stant
ite e
ĠDe c
Ġ16 0
spr achen
Un ternehmer
Res ults
war f
ĠSÃ¼d ost
Ġte lef
Aut o
resource GroupName
lieder ung
ĠBrie fe
ĠBam berg
C ategory
G H
S en
d lich
k Ã¼hl
ur ed
Ġ1 18
ĠG lobal
ĠW y
ĠV II
Ġl iber
sp ark
Ġ18 18
Ġunter teilt
pen dent
mit tler
Ġgen utz
Ġgr atis
Ġ| =
ĠEl s
ĠDurch schnitt
ĠWohn haus
gehen de
Ã¤cht nis
tor hÃ¼ter
Ġspezial isiert
ĠAufsicht s
) -
C ell
K ur
S L
S ee
un er
ĠN etwork
Ġk Ã¼rz
ĠU til
ver Ã¶ffentlich
im ation
ran ten
ĠAr zn
ĠLand gemeinde
ĠMÃ¼n zen
ade d
ĠCon fig
lan zen
Ã¤ss ige
produ kte
ĠKomp etenz
Ġqualifiz ierte
ĠGeheim nis
ĠmaÃŁ geblich
Ġeingemein det
V iele
m inal
Ø §
Ġs in
ĠM Ã¼hlen
ĠH alt
ck te
ĠC ann
ĠC ott
ĠZ eilen
ĠVer leihung
sb es
wer fen
off s
ĠVers ionen
ĠAll ein
riter ia
ĠGast geber
ĠFernseh film
ĠWein bau
ĠverfÃ¼ gte
ĠInner en
ĠWeimar er
P riv
U l
U hr
ĠS yd
ĠB eb
ĠD own
de fin
Ã¶ ster
Ġge leitet
Ġbe ant
Ã¤t igung
ĠEn zy
pf en
pf lanzen
pro perties
man uel
ĠFor scher
ĠNord west
gef unden
sph ase
h Ã¤n
ch i
ch annel
Ġb ody
ĠSch um
ĠIn se
ĠEr stellung
arb on
ĠÃ ©
ĠAb wehr
form ed
... ]
Mann schaft
Ġeinge st
ĠSeit dem
189 8
Ġsicher te
ĠUl m
ĠHeimat stadt
ĠSyn th
Ġfinanz ielle
Ed ge
Lin ie
Î ½
Ġd einen
Ġd oppel
on omen
ĠP rior
ĠH Ã¼tte
Ġh art
ĠVer anstaltungs
Ã¤r er
ĠPart ien
sw irtschaft
ĠChrist op
ĠAt tribute
Ġqu er
Ã¶m m
ĠInform atik
Ġpolit ischer
196 2
ĠKop enhagen
ĠVerbr eitungs
ĠFal ken
ĠMount ain
Ġbeauftrag t
F ont
T schech
ei mer
Ġs ingle
ĠM ie
le der
ĠT akt
Ã¼r mer
Ġauf geteilt
lin s
Ġ9 8
ĠDe cken
Ġgr Ã¼ndeten
ĠJuni or
ĠMed ik
ĠAk adem
190 3
Ġ185 3
Ġkosten lose
Ã¤um t
Arch Ã¤
vertr etung
ĠWett kampf
Ġerkenn bar
R ot
ei ra
ĠS ech
el ia
ĠD Ã¼r
ol es
ĠQu ell
Ġausge prÃ¤
ĠOber bÃ¼rgermeister
Mit te
Ġ> >
stit u
ĠBi ographie
Ġind ustr
Bau denkmal
ĠzusÃ¤tz lichen
ĠKin os
Ġempf angen
Ġerr ichteten
wÃ¤rt igen
kore a
p pe
ĠF Ã¤r
ĠF lieger
ĠL ichten
ĠJ ugoslaw
ĠC er
ĠSch uss
end el
Ġ18 35
arb rÃ¼cken
ĠMa j
ĠEx port
ott es
ĠOn kel
ĠMag az
ĠTor onto
gra fen
Ġtyp ischen
Ġevangel ischer
ĠPrem iere
ĠWeihn achten
ĠNationalsozial isten
ĠFranzÃ¶s isch
yg on
ĠOpp osition
PROPER TY
a it
w ender
Ġ eignet
ge stellten
ĠD Ã¼n
ĠH arz
ĠW esen
ĠL ade
ig ste
ĠC ell
Ġge heim
Ġauf einander
Ġl Ã¶sen
ĠIn t
ern t
ehr en
id x
her stellung
lo yd
Ġgef eiert
ĠWohn ungs
ĠRad rennfahrer
ĠMill imeter
195 1
ĠBÃ¶ hmen
Ġdat iert
hor st
ĠErzÃ¤hl ungen
ĠAthl et
incip al
r in
st reifen
at ischen
hr ingen
ĠG ibt
ĠW ay
ĠSt eiermark
ĠBe an
str asse
Ġange ordnet
sg ruppe
ĠRÃ¼ck tritt
190 2
fÃ¤l lt
print StackTrace
ĠDres dner
nehm ung
Ġbetre ut
Il legal
Ã¤rt ner
wh ile
Nonn ull
D omain
T ax
Ã ¯
Å Ľ
au ben
Ġw andte
et o
ĠK orn
Ã¼r tel
ĠC arr
Ġver dien
Ġ18 47
enn zeichen
be an
ĠNach lass
ĠString Buffer
ĠAnt arkt
Ġus ing
Ġra sch
ĠFass ade
Ġermord et
P P
h aut
k le
an us
ĠP ut
Ġer ot
ier tem
ĠVer t
Ġre port
ĠLand s
Qu elle
Ġ9 2
Re quired
ĠIS O
List en
ĠPh arm
eid et
ĠMo z
ST AT
euer ung
ĠWeiter lesen
ĠAp i
196 1
ĠschÃ¶n sten
ĠTro cken
Ġrest lichen
ĠStruktur en
ĠKlei dung
ĠDemokrat ie
ĠVize prÃ¤sident
verteid iger
voc ation
SAR L
A lias
P op
R eich
al in
ĠB ag
ĠM ov
ĠF ett
ĠR ic
ig o
ĠBer Ã¼cksicht
ĠRe eder
Pro file
ĠGeb Ã¤uden
ank a
ĠList en
ĠRech nung
ĠMann es
dorf er
CH E
ĠrÃ¶m ischer
Ġloc ale
ĠDist anz
ischÃ¶ fe
ĠAlli anz
F Ã¼gt
c ommerce
f Ã¶rderung
k ular
Ġv irt
et ische
ĠD IN
ĠD istr
ĠK ie
Ġf otograf
ĠH af
tr itts
Ġt x
ĠEn cyclop
ĠMus een
ĠWeiter entwicklung
Ġtime out
zub auen
ĠanschlieÃŁ enden
ĠJed och
ĠFinn land
ĠTÃ¤t igkeiten
ĠSynag oge
L ei
h ing
Ä ħ
es er
ge gangen
ĠA sp
ĠO hr
ĠSch acht
Ġp res
ĠIn telligen
Ġsch ema
id den
Ġeigen tliche
ĠDi am
ĠEle ctr
ĠTon y
Ġgez Ã¤hlt
ĠAust rag
Ġmon at
ĠRelig ions
ĠkÃ¼nd igte
ĠHolly wood
adelph ia
L imit
ge ht
el y
Ġin halt
ĠF uchs
ĠF eucht
Ġh y
ah me
ĠAn walt
Ġc ollection
esch ichte
zeich ner
Ġbef Ã¼r
add ing
eid ung
Ġverw and
Reg ie
Ġheraus ra
189 7
Ġentfern en
ĠDrei ÃŁig
ĠPfer d
Ġkanad ischen
ĠViz emeister
ĠBegeg nung
T urnier
Z ug
p rev
Ġ echt
ie u
es k
ĠS erb
ĠB eth
em m
ĠT ieren
ĠSch atz
ap ply
Ġres p
Ġhin weg
Ġbesch rÃ¤nkt
ĠRei fen
ĠVerb indungs
Ġeinge zogen
Ġaufge hoben
195 8
Char acter
beg riff
Bundes liga
ĠGrÃ¤ fin
ĠFound ation
F ernse
H A
H g
P e
R M
m Ã¤cht
Ġ Ã¶st
st Ã¼cken
ur teilung
om er
Ġge p
Ġge gangen
Ġl ust
lie gende
ĠAuf klÃ¤rung
An notations
ĠHand werks
Tra iner
189 9
ĠRed akteur
ĠTats ache
ĠRess ourcen
0 30
A ch
h Ã¤ngen
t Ã¤u
it us
el er
ĠE sp
ĠE rot
Ġl aden
ang le
19 32
ĠBer ger
ĠGr imm
ges pr
ĠNach kriegs
ĠBr igade
Ġgen Ã¼
Ã¶s ser
new Instance
kon zept
ĠSk y
ĠGef Ã¤hr
ĠNe apel
195 6
Ġmoder ner
vel op
ĠÃ¤uÃŁ er
ĠErk enntnis
ĠSing les
ĠErinner ungen
ĠSchlaf zimmer
================ ================
Mich ael
h Ã¤
o ÃŁen
s v
y cle
Ġw ann
Ã¶ he
ĠR eit
Ġan ger
ft ige
ĠIn valid
ert ungen
ehr ung
la fen
ib m
ĠFilm regisseur
ĠBet riebe
Ġgem Ã¼t
ĠSitz e
ĠPast or
Ġentw orfen
ĠVie h
Ã¤p st
Ġdenkmal gesch
1 12
1 14
I B
K ar
W olf
Ð ¹
is her
ĠW orm
ĠT Ã¤ter
Ġh Ã¶lz
Ġaus gel
19 55
Ex p
ĠBe cker
ian ischer
Ġpro te
fÃ¼hr ungen
schen den
Al gorithm
ond itions
ĠMed aille
kon ferenz
Ġbew ir
ĠDes igner
ĠKriegs gefangen
kor de
Child ren
Ġkeiner lei
ĠBestell ung
OUR CE
H err
I con
T re
T ab
ĠS ultan
ĠF itness
ĠG Ã¶
ĠG reif
ach ing
lin ois
auf lage
geb ra
br Ã¼cken
Ġhier zu
Ġger ufen
zentr ums
ĠVolks republik
ĠAnfang s
ĠHeil bronn
195 7
ĠNachbar gemeinden
ĠQuadrat k
Ġkombin iert
beam ter
Ġzusammengef asst
) ),
G el
a a
g alerie
m os
v enz
ĠS ax
ĠA hm
ĠB urn
Ã¶ hnen
Ġt ut
Ġl eiden
op ran
Ġwie s
Ã¤ch ter
Ġex pected
ĠJohann a
ĠZwei te
Ġgeb unden
Ġfest en
ĠAk k
ĠÃ¶ff nen
ĠgrÃ¶ÃŁten teils
rec ated
Ġkrit isiert
ĠSat tel
Ġumfassen de
Techn ik
Lang uage
Ġgeplan te
Z usammen
b rief
å ħ
ĠD ritte
am ing
Ġz it
ĠG rupp
ĠP est
ĠT ak
he et
ate way
Ġj eg
Ġ18 13
ĠZu vor
ĠCo ver
ĠWest er
ĠWei ss
ĠWil son
Ġeinfach er
ĠWieder aufbau
krÃ¤ ften
Ġerf asst
Ġleich te
wander ung
W N
sch reiber
or ges
ĠB akter
ĠF eu
ĠF ord
ĠH ed
and in
eh le
Ġc ir
ĠEin zugs
aus stattung
per rt
ĠAm ph
lieÃŁ t
ĠEnt ity
Nach bar
sw itch
ron en
Sp eichert
Ġqu adrat
ĠTechn ology
Ġverm utet
Ġhistor ique
195 3
ĠVal entin
Med aille
Ġlo op
Ġprakt ischen
ĠEvent s
ĠThr on
ĠYou Tube
ĠLy on
ĠHon or
Sele ct
ĠZerst Ã¶rung
Ġdiskut iert
Ġbestell t
h Ã¤nge
in itial
ĠA T
ĠB ul
ĠM ul
ĠT y
Ġge zwungen
ĠU t
ĠAr mut
pl Ã¤tzen
bau werk
Pro tocol
Ġbesch rieb
Class es
ĠMan chester
ĠBild schirm
ĠHistor ic
ĠKat astrop
195 2
ĠHel den
Ġgenau e
Ġelement s
Ġnutz te
organis ationen
ĠSchicks al
C ertificate
N a
S ite
T or
m achen
et ischen
ĠG on
ĠH ert
ĠH aw
ĠR as
19 47
Ġ18 44
Ġbek lei
Ġ14 0
schn itten
ĊĠĠĠĠĠĠĠĠĠĠĠĠĠĠĠĠĠĠĠĠĠĠĠĠ ĠĠĠĠ
Map per
ĠfranzÃ¶s isch
Sc ale
ĠLog istik
ĠerhÃ¶ hen
Ġumfang reichen
quart ier
D ienst
F loat
Ġs amt
ĠP RO
ĠSp ark
ian ce
ĠSpr int
verb rauch
Ġit s
west lichen
CO MP
Argument s
ĠEt wa
ĠAnge legenheiten
Ġinteress ante
Ġant iken
Ġstattf and
ĠDro gen
Ġstaat liche
ĠInstall ation
ĠRobin son
Strate gy
" ),
G ymnasium
J ECT
S D
a schen
y an
Ġ Ã¤nderte
un fall
ĠP ak
ent schieden
Ġmit ten
eb r
ĠSt ars
ĠEr ziehung
ĠAus sehen
Ġgew isse
dr ama
ĠUm zug
str Ã¶m
ĠBl u
ĠRo ger
ren ce
ĠChrist ine
ĠFre ie
recht lichen
ĠSitz ung
kur renten
ĠjÃ¼nger en
ĠOrchest ra
ĠAgn es
F in
K A
k am
ĠE b
ok o
ĠVor gehen
Con structor
az ier
Er ste
ĠBo ard
hand elt
uck s
Time Millis
Ġkein em
ĠKo alition
ĠKont o
lÃ¤nd ischer
ĠProblem en
ĠFort setzung
ĠGre at
ĠErw in
ĠBran chen
ĠVorsitzen den
Ġnorm alen
Ġregion ale
ĠVerÃ¤nder ung
Ġbetroffen en
Meta Data
Ġzug unsten
Ġspar en
F E
K om
k es
w enden
ĠS ele
ĠF unction
ĠH amilton
ĠJ AXB
Ġk ontakt
og a
qu ir
ib us
Ġ" \
auf gaben
ĠSe ele
zeit lich
sb ahn
ĠGer d
Ã¤s se
ĠStud iums
ĠSan ierung
189 5
go ogle
Sup port
sper re
ĠMonument s
D oppel
D isp
R ows
w id
ie de
or er
ĠA tem
ĠD ig
ĠP ause
ĠW Ã¤hler
ĠL ittle
tr echt
re z
ĠN Ã¶rd
ĠU rauff
ĠVer mut
Ġ18 45
Ġvor der
geb ot
Ã¤hr en
amil y
ond a
eig n
mittel alter
ĠÂ °
tag on
CH T
ĠKurz film
Ñģ ÑĤ
Ġgesetz lichen
ĠJahrzehn te
Krit ik
Merk male
Lud wig
B R
F K
N UM
c ur
c enter
l Ã¤ndern
Ġ ener
Ġ1 13
ĠG ard
ĠN ev
Ġdes ign
Ġr ichtet
be auftrag
ĠSchw ein
res se
Ġth emat
ĠĠĠĠĠĠĠĠĠĠĠĠĠĠĠĠ ĠĠĠĠĠĠĠĠĠĠĠĠĠĠĠĠ
ĠRo te
ask a
ĠBahnhof s
ĠWand el
Ġpr int
LOG GER
ĠAqu ar
ĠCook ies
E V
F iction
M atcher
N un
O C
m eier
r v
ĠK und
ĠG ros
Ġo ur
ĠEr sch
op fer
atur en
lei tete
Ġbeg leiten
ĠZwei ter
gebiet es
ĠErd geschoss
Ġscha fft
Ġser ial
stud ien
the ater
ĠKre bs
ĠGit arre
ĠHoll and
Ġmusikal ische
sthe ater
ĠKanz el
Ġinstall iert
ĠGeschlech ts
Ġveranst altet
Ã¤rn ten
M AT
S al
ĠH Ã¼tten
om on
Ġauf nehmen
Ġc olor
Ġ18 46
amm ung
ĠBr eit
sk ar
ĠInter ess
Ġben utzen
Mod us
ĠHistor ischen
itte e
ĠMarc el
Tim estamp
otent ial
Vol ks
Ġgrund legen
MÃ¶ gliche
U se
it tel
ĠB uild
ad es
ad ier
ver leihung
Ġ18 42
Ġgew orfen
ĠSchw Ã¤b
ĠArt illerie
Ã¤nder ung
ĠOlymp ia
Ġabge lehnt
ka sten
ĠmÃ¼s se
ĠFrÃ¼ chte
gesetz te
fre unde
fÃ¼l lung
Ġrule X
ĠpreuÃŁ ischer
ĠVorder grund
komp lex
Liter al
Mem ory
ĠBulgar ien
kÃ¼n fte
ĠÃĦm ter
1 13
N ur
S aison
at alog
ĠB ut
ĠD ark
ĠF arm
ĠF unc
Ġf ix
Ġf indest
ĠL et
ĠC ur
ĠLand rat
lei dung
olit h
mit te
ac ional
imm ern
ĠUr kunde
ĠZwei g
hol ungs
Ġgest ern
Ã¼b ung
Ġfrei er
Land es
ĠStad trat
Ġzweit es
Ġlok ale
Ġbetre ffen
Kan al
spf licht
E isen
H O
P RI
T otal
e ge
f ranken
j son
in voke
al ben
ĠW DR
ĠT ool
ag on
im er
bar es
bje kten
Un garn
Ver band
Ġbesch reiben
zie her
ĠKn ow
gar ter
ĠVertr auen
ĠPlan eten
ĠRegierung schef
gericht shof
ĠVal ley
Oper ator
ĠKlei d
ĠLeiden schaft
A fter
F ailure
T el
f irma
p an
u eller
Ġd icht
ĠD eine
Ġm athemat
Ġf ran
Ġf iles
ĠH us
Ġk Ã¤mpfen
ver gleich
ap elle
Ġbis schen
qu ote
ĠMit begr
att an
sk op
ĠUnter kunft
ule gen
fe ktion
sb ild
Ġbel egen
anst alter
ĠErz bist
uld a
Inter val
ĠPsych iat
ĠSied lungen
ĠRem ote
ĠSchles ien
Ġother lv
ĠSar ah
ĠBom ben
ffizien z
ĠhÃ¤uf iger
glei s
W ohn
b reite
p end
ar ing
Ã¼ pft
ĠB ah
ĠH imm
ĠI wan
ĠN atÃ¼rlich
Ġre alisiert
pl ier
ĠCh ile
Con f
con om
ĠSchul z
DE F
ĠBeh and
ĠPal Ã¤st
Ġdire ctory
Ġerl Ã¤u
gefÃ¼ hl
stÃ¤d ter
AuÃŁer dem
ĠKroat ien
E B
c os
k ins
Ä Ļ
st yp
ĠA z
ĠH ass
ĠL Ã¼n
Ġer ober
ĠO ran
ic um
eh me
ĠVer g
eu x
pt h
ang riff
ĠEin tritt
ĠStr Ã¶m
ĠAus grab
Ġsp Ã¤testens
fahr ung
Type Reference
ĠOber flÃ¤chen
ĠEl f
ĠLie ben
ĠProv inzen
ĠJohn son
ĠWar um
195 9
Ġpl us
Ġerk ennt
ĠServ ices
ausschuss es
Assign able
F ebruar
G ef
H ome
a ire
k ont
z ungs
ĠA tel
ĠM Ã¼ndung
ĠK h
ĠK rei
ro d
Ġim port
Ġver Ã¤ndern
och em
ens us
mar ken
ĠCon nection
ĠSport s
reib ungen
Auf gelÃ¶st
Ġ180 3
Ġloc ation
ll ustr
ĠThÃ¼r inger
ĠPorn o
imple Name
Absol ute
A U
D b
H eim
H allo
S M
S lot
T enn
V G
b ell
c ms
o ice
ĠD ritt
am ts
ĠE R
Ġh arm
ĠSt ore
Ġvor ange
ĠVor gang
ens ive
ĠZeit ungen
ett y
Ġbeg rÃ¼
bo und
bet eil
Ã¼rz te
system s
ĠWel traum
ĠStern e
ĠMarc us
Ġmusikal ischen
ĠSmart phone
ĠFrÃ¼hl ing
S etz
T x
k ompon
r Ã¶
u uml
v r
Ġd auern
au chen
ol stadt
ĠP ia
le hen
ĠL il
and el
In halt
ĠChr onik
Ġkomm ent
Ġbeh erber
Parameter ID
ĠSchwer in
ĠRen ov
Ġdat abase
Byte Buffer
swahl en
ĠInner e
strich en
b ieren
sch war
ĠP ommern
ĠH els
ĠT ai
ĠL eich
ber ichte
re cord
Ã¼r zen
ĠU RI
ver arbeitung
ĠVer hÃ¤ltnisse
stell ern
Ġdurch setzen
ĠGr ill
ĠNach halt
ĠGesch Ã¤fte
Sch we
wer ben
ĠPar ks
Ġger inge
ĠArbeit nehmer
IT E
Sc reen
ĠUntersuch ungs
Vis itor
Ġgeh abt
Ġweib liche
ĠberÃ¼hm ten
ĠBerÃ¼cksicht igung
ĠDistr ict
g riff
ĠF usion
ord nen
als o
ĠBo hr
ĠzurÃ¼ck zu
Ġausge st
kreis es
ĠMag net
laub nis
ĠHigh way
ĠSpann ung
Ġkultur ellen
ĠTrotz dem
ĠLokomot iven
Sonst iges
ĠBerat ungs
ĠkÃ¼r zer
G raf
S end
f ul
n acht
s icherheit
ĠA ven
et isch
ĠK riterien
ĠW eit
re quire
Ġk ar
Ġver mittelt
get Time
ĠRe zens
Ġ9 4
ĠKinder garten
Sh ow
189 6
Ġ180 8
euch ten
ĠKomp lex
Ġide al
Techn ische
Ġausger ichtet
ĠStraÃŁ burg
Ġkorre kt
ĠDiÃ¶z ese
d l
j u
st one
ĠB usch
ĠV Ã¶l
Ġk ap
Ġge test
Ġan alys
ĠO ste
Ġ18 43
Ġdurch ge
18 89
aut om
akt iven
co der
== '
Ġeinz eln
Ġteil te
ĠX X
ĠDr ama
ME SS
ĠHa wa
list ener
Des ign
Event s
bed arf
sa al
drÃ¼ck t
rior ity
ĠWurz eln
ĠOze an
ĠSiz ilien
ĠBreis gau
S oll
c atch
g al
n umber
ĠK ein
ĠK ombin
ĠP aket
gen s
Ġer lebte
ĠSch icht
im age
ĠAn kunft
id i
Ġ3 60
Ġent s
ĠCh annel
schie ÃŁen
Ġausge dehn
Ġviel es
ĠAt tr
Ġvers orgt
Ser ial
sprach igen
ĠSand stein
Ġbeteil igten
ĠKom fort
ĠEvangel ische
ĠVersuch e
Histor ische
Ġbeob achten
Ġwa it
cul ate
S B
V B
h ier
k lag
u y
w ur
Å ĳ
ge x
ĠH eld
ĠT afel
ĠVer pflicht
uch er
Ġ18 16
Ã¶r n
Ġman chen
ĠTh ailand
gl Ã¼ck
Ã¤d te
ĠBundes straÃŁe
Ġins zen
ĠCon c
ĠTour isten
ĠTem p
Ġfl ach
ĠJournal istin
ĠBro ad
pol izei
ĠSchÃ¶n heit
ĠVerdienst ordens
Ele ktr
K rieg
f inanz
ge halt
ĠP le
ĠP ionier
Ġf as
Ġh alt
ĠN ep
Ġl uther
ot ion
id d
Ġ18 41
Ġab gelÃ¶st
ĠÃ ģ
18 90
Ġsp anische
ĠFl ora
Ġger aten
Ã¤m mer
Ġ% )
stru ction
ĠTre ppen
Ġbesser en
ĠPartner schaft
Ob wohl
ĠErschein ungs
ĠSort iment
ĠSatell iten
L EN
P ublik
S ong
ĠA er
ĠB j
ĠP ension
ĠN on
ĠZ one
Ġl ib
ĠEr nennung
Ġunter richtete
ens wert
En tries
Ġber ichten
ĠY e
wer fer
ĠCo untry
Ġverl ieren
Ġgel Ã¶scht
Ġpar ser
ĠLei b
SS R
Ġvoll stÃ¤ndige
ĠHistor ische
Ġnie mals
Ġtechn isch
So ftware
Pres ent
Ġverstorben en
b ury
ĠS einen
ol as
Ġer rang
ĠI gn
ĠV ik
ĠN iveau
Ġk r
ver ordnung
im i
im es
iv a
Ġbe arbeitet
pl omat
ia e
ĠAb bau
our t
Ġet hn
pro fil
res h
ĠÃľber setzer
Deutsch es
ĠMittel feld
ĠErn est
ĠGraf iker
ĠPsych ot
Ġret val
Ġprakt ische
annot ation
ĠKolle g
ĠLiefer ung
ĠFranzÃ¶s ischen
ĠErwachsen e
ĠkÃ¼ mm
ĠGemark ung
ĠLiss abon
. ;
H in
h ash
o iden
p op
w issen
or ted
Ã¤ uren
et r
ĠG ord
ĠC ard
ĠSch mal
ĠSch iffen
Ġst euer
ĠEr halt
ĠEr forschung
get E
ĠSp alte
19 48
Ġ18 34
Ġab geleitet
ĠGr aben
18 85
Ġe ach
lei b
Ã¤m pft
ĠHoch stift
ĠUr sprÃ¼nglich
ĠAnt worten
zentr en
schein lichkeit
ĠDre y
mark e
ĠExper iment
ĠTat ort
ĠSamm lungen
ĠBeam ten
ĠErkrank ung
Dest ination
ĠFertig stellung
ĠTschechos lowakei
6 00
f ers
t temberg
in f
it ation
ĠC ass
ĠSch ub
get Path
Ġab gel
auf ent
Ġtr ee
Ã¼hr ungen
sk Ã½
Ġpro vider
Ġbeg in
ĠWei den
ĠĊĊ ĠĊĠĊ
ĠFr on
Ġbo x
Ġgeb raucht
ĠSchiff es
produ kt
emat ik
ĠRegierungs bezirk
ĠAR D
Ġverp asste
ĠOberg esch
Ġanb ieten
ĠHildes heim
T ABLE
e DataType
× ķ×
un z
ar Access
Ã¤ ser
ĠB eine
Ġb ran
Ã¶ ten
Ã¶ hm
ab wehr
ir gs
ĠBer echnung
hen de
br unnen
Ġlie gende
ĠSchw ert
hÃ¶r en
amer ik
ĠGew erb
Ġern euert
ĠAk ten
ĠPat ent
Ġinternational er
ĠComm ittee
alle d
Med ien
ced es
ibil itÃ¤t
ĠPseud onym
C ustom
V ert
h ut
at ra
ĠA hr
ĠB enz
Ġi gnore
ĠK etten
ĠJ ochen
rei tet
ĠVer teilung
ĠEin sÃ¤tze
Ġ18 14
ĠEn tert
ĠLand gericht
Ar g
ĠUnivers al
ĠUr kunden
verb ot
ymp ath
CE SS
ĠWissenschaft s
Ġerk annt
EL D
lern te
ĠNamens geber
ĠMem or
Wei ÃŁ
ĠVoraus setzung
ĠRestau rants
ĠmÃ¤nn lichen
ĠApost ol
MÃ¼n chen
, -
E K
E U
G it
V oid
f ache
Ċ ĊĠĠĠĠĠĠĠĠĠĠĠĠĠĠĠĠĠĠĠĠĠĠĠ
al ts
ĠB uck
ĠB alk
Ġb reiter
Ġ1 17
ĠG overn
her it
ĠFl Ã¼ss
fl Ã¼ge
Ġgew issen
-- ;
Al ben
Ġcon f
ĠHaupt ort
hand els
ĠOst see
ĠCar lo
wissenschaft lichen
ĠrÃ¶m ische
ĠVerl etzungen
ĠLau b
ĠÃ¤uÃŁ eren
klass igen
stad ion
Resol ver
ĠNeck ar
Setz liste
B ud
or ed
el in
Ġ1 12
ĠF aktoren
ĠT hal
ach el
Ġvor stellen
18 88
Ġ- =
mal erei
oc us
Ġ5 000
Ġgen ehm
Ã¤nd ischen
ĠPhil adelphia
ĠOn lin
schw anz
uk le
fÃ¤l ischen
Ġstand ard
ĠBeruf ung
ĠDav is
Ste p
Ġtradition elle
Ġident isch
ĠLux us
Ġkom fort
f ehler
ein g
ĠD sch
ĠP eking
ĠL esen
Ġg raph
Ġp ack
ri o
bach s
sol venz
ĠWer ks
Ġunterschied licher
Ġbeteil igte
Ġtradition ell
ĠEuropameister schaften
ĠSkulpt uren
Ġlehn te
ĠOh io
D ruck
L eicht
P ap
Ġs olle
Ġz us
ĠW ars
ĠT Ã¤nzer
ĠV ene
ĠC loud
sp olit
im etern
19 49
Ġvor n
ĠPro jekten
ant ie
ĠNach frage
ine a
ĠReg isse
ator y
kl ang
Ġres olve
ĠSte ine
ĠÃĸ konom
eig ert
such ung
Ġverl auf
ĠWer ft
ipp ing
By Id
Met al
Ġbed ro
ĠStu dent
Ġsh ow
Ġap plication
Ġdauer haft
ĠGlei s
Ġlauf enden
ĠStrate gie
ĠWÃ¼n sche
H y
c io
st immen
te or
ĠD ame
ĠĠĠĠĠĠĠĠ ĠĠĠĠĠĠĠ
Ġm oment
ĠF uss
le vel
ed a
la ve
ĠAb ra
rÃ¤ um
ĠBl as
ausen de
ĠDr amat
Ġsetz ten
189 4
Ġinteress ant
bef ehl
ĠTur in
ĠstÃ¤r k
Ġhal ben
ĠSn ow
Hein z
russ isch
Ġbedeutend sten
Ġuntern ahm
D rei
E lem
c ies
o on
st etten
ĠS echs
Ġs a
ĠB utter
ĠB ibli
Ġb ill
ĠM usch
ĠT oren
ĠL td
get Request
Ġins ert
ĠTr in
AR D
ament o
Ġvoll kommen
ĠTre ff
189 1
seit ige
Ġstate ment
ĠDenkmal pflege
ĠFlag ge
ĠS ehr
te ste
au ens
Ġw ind
ĠB og
ĠK unde
Ġf erner
ĠJ g
ir men
Ġan n
Ġal ias
Ġst ack
Ġbe ur
mer s
ĠAr ena
ok raten
ĠVor feld
Ġbes etzten
set s
ĠOrt steile
Ã¤ft s
ĠZusammen schluss
ĠMod ul
ĠWeiter bildung
Ġgem essen
ĠGeneral leutnant
Ġdefault Value
Art ikel
ĠkÃ¼nstler ische
ĠSyr ien
ĠTO DO
Ham burg
ĠSyd ney
" :
F u
R ichtung
b rid
f onds
h essen
un ch
ar mee
Ã¼ sten
ĠB in
ĠL eut
ĠL oth
ra ÃŁe
ĠVer schw
Ġr ichtete
ĠÃ¼ber liefert
Ġre q
Ġneu esten
String Utils
ian er
io den
Ã¤nd igkeit
sel ect
Ġerst mal
ĠBest immung
Aus gabe
ĠMo or
ĠUr ban
Ġbeh alten
ĠTyp es
ĠLeg isl
verstÃ¤nd nis
Ġsec ond
Ġschwier ig
Ġbrasilian ischer
ĠEins Ã¤tzen
ĠAnth ony
ĠUrauff Ã¼hrung
B uild
D D
S ach
l inger
n ische
v all
â ĨĴ
in formationen
Ġs itzt
ĠF ur
ĠC ock
Ġp ool
Ġaus gesprochen
ger echt
ru le
ĠPro test
18 80
Ã¤l lig
Ġ9 7
Ġdar auff
ock e
ĠReg istr
min a
Ġviel fach
con nect
ĠDar stellungen
ĠKn ie
ee ded
ĠGeh irn
ĠRuss ischen
Ġorganis ierte
Ġqualifiz iert
Ġqualifiz ierten
Ġdauer te
Ġrechte ck
Ġberu ht
b rech
d ater
i ate
k rie
l ation
w ider
ge tragen
ĠA sh
ĠB ock
as ure
ĠG Ã¼
ten nis
re ct
ĠV in
Ġh inz
ab ilit
ĠSt immung
ĠIn tr
ĠPro tot
ĠAb schied
En vironment
Ġis ol
ott om
ĠHoch zeits
ĠNational park
Ġgest altete
ĠProgramm e
ĠErw art
current TimeMillis
ĠPok alsieger
Juni oren
ĠOrgan ist
JÃ¤hr ige
ĠAx el
Ġdarauff ol
A g
K rim
S onder
W ein
b ur
v Ã¶gel
w Ã¤nde
Ġein gew
ĠH Ã¤r
ĠT all
Ġer zeugen
ĠSt ufe
ic le
Ġun it
19 16
ĠAus sch
Ġ6 55
Ġen orm
Ġbek annter
ied el
kon s
Ent wicklung
ĠDat eien
195 4
ĠÃ¤hn lichen
Ġangegeben e
FI LE
Ġnotwend igen
ĠBedÃ¼rf nisse
ĠVekt or
ĠDreiÃŁig jÃ¤hrigen
B M
D reh
F k
v olum
} );
ĠR in
ent ums
Ġk reis
ĠZ ellen
ver teilung
ang aben
reich t
ard in
ĠEx press
ander s
ĠVerb rechen
ĠCl aus
rÃ¤n ke
gÃ¤n gen
omot iven
ĠPe er
ĠDÃ¼sseldorf er
Gemeinde auflÃ¶sung
Ġtats Ã¤ch
Ġoper ation
ĠZeu gen
krit iker
ĠFranzisk us
ĠWit we
ĠEliz abeth
G ra
N C
R ight
S uccess
T AG
g Ã¤u
i ja
Ġ \"
st op
ĠS ind
ar us
ein trag
Ã¤ sche
ĠD est
ĠD ess
ĠM ale
Ġge prÃ¼ft
Ġauf weisen
ĠZ irk
Ġaus gesetzt
auf tritt
ĠAus richtung
Ã¤l le
sk ammer
Ġbet reiben
Ġen ge
ĠÃľber ra
Ġ12 00
meister s
Ġar men
ement s
ĠFach bereich
ĠPlan et
Ġdan eben
Ġzurueck gegeben
ĠAbst ammung
Ġletzt es
Rec ei
ĠInnov ation
minist rat
ĠprÃ¼ fen
Ġangrenzen den
ĠangekÃ¼nd igt
P ierre
i able
j s
Ġd st
an es
Ġw Ã¤hlte
ĠB rian
ĠK ev
ĠG az
ĠE y
ĠH Ã¤nden
wei lig
ĠIn strumente
end em
Ġa fr
Ġa ctive
ug by
reich es
Ġman che
Ġle gend
Ġwieder her
such e
ĠVol ker
con s
AT O
ĠMo h
ius eppe
Ġbew aff
Mod ified
SE CON
fert igt
Ġentstanden en
ĠhÃ¶ch st
ĠAnge hÃ¶rigen
Ġamer ikanischer
ĠSold at
wal ts
Ġkultur elle
ĠReserv e
ĠLew is
ĠgefÃ¤r bt
andin av
F INE
R h
k Ã¶pf
à ¸
in stall
st amm
ĠJ ag
ĠC hl
ing hausen
ĠAn leitung
op ath
ĠEin z
Ġsie d
ov iÄĩ
ens ystem
Ġde kor
for um
ĠCon text
rik e
cl us
ĠSa arbrÃ¼cken
ĠBÃ¼ chern
189 2
189 3
ĠNo Such
Ġdien ten
ĠQualitÃ¤t s
Cl ick
Ġbegr Ã¼ndet
ĠVerteid iger
ĠTher es
person en
Bet rieb
ĠFrances co
ĠMitbegr Ã¼nder
B ot
g ow
u is
Ġs ens
ĠB Ã¼ndnis
ĠK ok
ol in
ĠG umm
ĠT s
ĠT iefen
Ġh ess
ra ck
ver schluss
ĠIn tel
ĠStr ei
ĠFl orenz
Re prÃ¤sentanten
ĠHaupt mann
sche e
stru ct
ĠFra ktion
yr am
ĠWill en
ĠKÃ¼nstler in
stehen de
Ġverbunden en
Ġentspr ingt
Ġfiel en
!! !
option s
plic it
H eil
M ass
on ic
ĠS ac
ar gument
ĠL Ã¶s
ach tete
se arch
Ġk roat
Ġge fahren
Ġge folgt
ver anstaltungen
Ġaus sehen
ĠMit ch
ĠAus lands
18 82
Ġgew innt
ĠGem Ã¼se
Ġex klus
ĠgroÃŁ em
ĠPf und
Ġ) ?
ĠMed aillen
Ġhistor iques
ĠGesamt wertung
seit igen
Fl uss
ĠHeraus forderungen
aun a
100 1
Ġtyp ische
ĠKrit iker
ĠNÃ¼rn berger
ĠInternal SARL
match es
Ġsk ip
Ġoptim ale
Ġspec ified
Ġweib lichen
Ġforder t
C ast
R itter
c omponent
n Ã¼tz
s uper
w Ã¼n
am ann
ĠT eich
ĠL ehn
ĠC li
sp an
art a
Ġ18 21
ĠAl ice
ĠMit tag
ĠRe alitÃ¤t
ĠIm plement
ĠEl be
amp a
Ġbesonder es
ĠBel agerung
ĠJur a
mel den
A ctive
W appen
v oid
st yle
st iftung
ĠS ha
Ã¼ g
el f
ĠA gen
et wa
ĠD FB
ĠK eine
ĠP s
ĠH inzu
ĠL ip
ĠL Ã¤ng
Ġan spruchs
Ġt itle
ĠZ in
ĠEr ziehungs
ĠEin stellungen
Ġ18 37
ĠStr ess
enn ungs
18 87
ip le
br ig
ain ment
ac cept
Ġange wand
anis mus
alse kretÃ¤r
ĠLei der
Ã¼l lt
ĠProf i
ĠTour en
unn able
ĠLog o
Ġelektr ische
ĠSteuer ung
Ġleich ten
steuer ung
ĠSauer stoff
ĠWalt her
Ġgetest et
H P
L P
u der
č ĊĠĠĠĠĠĠĠĠĠĠĠĠĠĠĠĠĠĠĠĠĠĠĠĠĠĠĠ
Ã¼ ten
ĠH obby
ut ing
ro th
ĠJ ew
ap ur
og ne
id ar
aus wahl
ull y
ĠVor jahr
Ġ9 00
Ġpro ps
IN VALID
Ġbet Ã¤t
ĠBet rag
co unter
leg ungen
Ġgef ragt
ĠTra ck
AR N
ĠVers orgungs
ĠFra g
ĠGegen stand
ĠAlb ums
act ive
Ent fern
Client Execution
Ġsc ope
Ġbedeuten den
ĠGerman y
Ġdur ften
sprech ung
Ġsamm eln
L ayer
f isch
g han
s ammlung
y ter
æ ľ
ei ÃŁ
ĠS ich
ĠS af
Ġs aÃŁ
ĠF uture
Ġf ehler
ĠR Ã¤um
Ġc onn
ster s
ĠBer eit
our i
ĠDar steller
ĠOst preuÃŁen
ĠHeil ige
ĠRegel ung
ĠTri o
Ġmethod Name
ĠRen Ã©
Valid ation
Ġunmittelbar er
ĠBist ums
Ġbefore ClientExecution
ĠDrey fus
I ST
N ein
a dern
k inder
m isch
Ġ å
sch ema
Ġs erb
Ġs ince
Ġb rauch
ĠM eistertitel
ĠH Ã¤ndler
ĠL ehen
Ġer setzen
ĠI C
ĠV olleyball
ĠO ch
ver antwort
ien te
Ġr Ã¤um
ĠAn nahme
ata ill
heit lich
ĠLe er
ĠGener ationen
ĠFlug platz
Ġangeb aut
ĠGran de
Ident ity
ĠGot ha
ĠProp ag
ĠMd L
ĠPublish ing
velop ment
B ur
P ark
S imple
b Ã¶r
d an
Ã¼ ÃŁen
ĠD irk
Ġf ail
ĠC av
pr im
Ġher zlich
bo urne
Ġbr achten
ĠFre y
Ġschwer er
ĠAnton ius
ĠHei rat
getS impleName
bÃ¼ hne
ĠJazz musiker
ĠInstit ution
Ã¼h ler
Bi ografie
ĠCour t
ĠClaud ia
ĠChristop her
E W
T RI
d re
f unction
Ġd ritt
es ota
sch lei
Ã¤ ge
ĠA y
ĠD isp
ĠK f
ĠR ange
ĠL enn
ent z
ĠEin stieg
iz it
ĠRe view
Ġgew alt
olle ct
Al tern
ĠY am
ĠEnt deckung
ĠNord ost
lock en
uck er
ho use
Co uld
ĠSport ler
Ġschn ellen
Ġhistor isch
ĠMont age
ĠMil ler
ĠGesetz e
Ġhab ilit
Ġwor auf
ĠNa gel
ĠBrau erei
ĠkÃ¶nig lichen
ĠLetz ter
Î¿ Ï
Lower Case
G S
G etter
H ex
h aven
Ġw here
Ġs ang
ĠH irn
ĠL is
re port
ĠN ar
ir r
Ġk unst
Ġge lo
Ġo cc
ĠAn notation
ind lich
ap o
ob i
be zirks
inder te
ĠFlug zeuge
čĊ ĠĠĠĠ
ĠGen ehmigung
ĠHil de
anc er
Ġad dress
ĠFrÃ¼h stÃ¼ck
Mill ionen
ĠSÃ¤ ulen
getD efault
cas Type
Ġangen ehm
A f
B al
ĠP oll
ĠH C
Ġer gab
ĠI hm
ĠO v
ver hÃ¤ltnisse
ĠEr ik
Ġsch auen
Ġ18 28
Ġre ference
ef el
anz eigen
Ġdeutsch es
sh aber
Ġzw anzig
res erv
Ã¤nder ungen
ĠVerb rauch
stÃ¤nd iger
ĠKr ise
bew eg
ĠDan ce
jÃ¤hr ig
Man agement
check EMail
Ġind ischen
vol ler
ĠStutt garter
Ġleben den
ĠSpe ed
ontin ental
Â» ,
Ã¼st ung
jo urnalist
ĠâĪ Ĵ
ĠKoordin aten
checkEMail Adresse
> .
Ġd etaill
Ã¤ ule
Ã¶ konom
ĠR Ã©
ĠSch al
ĠSch iller
ĠIn spir
pl ant
ov o
Ġneu tr
enz el
ĠInd ustr
schutz gebiet
ĠRÃ¼ck seite
ĠRes idenz
ĠMitte le
Ġbisher ige
Kl ein
ĠSin f
ĠBrit en
Ġap ply
Arch iv
ĠErk enntnisse
ĠtÃ¼rk ische
ogn ition
ĠAuseinander setzungen
Us age
Ġvorber eitet
J B
K S
R ing
d ro
k Ã¤mpfe
z eiger
ĠD ion
ĠM all
ĠP rivate
ĠH old
ĠR eut
ĠR auch
ĠJ am
ir bt
ĠC ache
ul ierung
Ġzu gewiesen
ĠSt Ã¼tz
Ġp df
men te
ick te
ĠAus flug
param s
Ġ9 3
iet z
Ġgesch m
ĠRech er
ĠLu is
ĠProdu zenten
fel den
fÃ¼r sten
ĠgÃ¼nst ig
Ġmedizin ischen
Ġdokument iert
schrau ber
ĠFantas y
Fk EMail
k ong
z oll
ĠB reiten
ĠK reise
ĠP um
ĠW id
and ie
ĠV Ã¶gel
ĠC E
sp eicher
ĠIn f
Ġvor an
ĠPro tagon
Ġunter stellt
Ġunter brochen
her z
ne ctor
St il
Exception Constants
lau bte
ĠZu schau
ĠStud ios
ĠNational en
ĠDu ke
Ġverw altet
aly sen
komm and
ĠPfl anze
ĠFluss es
Ġanz eigen
ĠEich en
ĠKrank heiten
Servlet Request
mag azin
ĠPed ro
ÅĦ ski
ĠwÃ¼n schen
ĠPerspekt ive
Jose ph
A ir
R ole
n ing
Ġs cript
ĠK eil
ĠC hal
Ġg riff
ist isches
ĠSch ienen
im b
Ġun ivers
ap pt
ĠEr finder
ĠEin ladung
Ġ18 36
ok a
18 86
Ġde p
ĠUnter schiede
ek ten
ĠUr heber
oder ator
ĠTechn ische
ĠFrankreich s
Ġbegr aben
ĠHum bold
Kultur denkmal
ĠprÃ¤ z
wes ens
ĠBiograph isches
######## ########
ReprÃ¤sentanten haus
i Å¡
p et
un te
or ger
Ġs enden
ĠD il
ĠM esser
le ted
Ġer lebt
ĠV es
ĠC ant
Ġg ere
ĠO ft
Ġo k
rie ve
ĠSp err
ĠEin zug
ĠSe eh
En glisch
ĠBo y
druck s
Reg istr
Ġstehen de
Ser ializer
ĠMaler in
Lo ad
frau en
Ed it
TR AN
ĠÃ¶ konom
Ġaustral ischen
Absol vent
ĠKrie ger
Ġverbesser te
+ "
G EN
l ia
w il
ĠF our
ĠF aust
ĠH inder
ĠL ett
ik at
ĠIn solvenz
Ġ" )
pl ung
ĠGer ade
Object s
ace ae
Ġjeweil ige
ĠOlymp iasieger
ĠEigen tum
ĠSchloss es
ĠTri b
ĠHar vard
ĠPil oten
Ġcomp ute
Produ ct
Ġbeein druck
Art ifact
ĠUrs ula
Ġverurs acht
Ġmot iv
ĠkÃ¼nft ig
Ġentdeck te
ĠEnzy kl
H erkunft
M as
Ġd ot
ĠB ac
ĠD NA
ĠL ub
ab st
ĠSt ufen
ĠfÃ¼r s
eg g
ĠAn liegen
ĠAr k
ak ul
ob e
Ġbes iedelt
Ver breitung
ĠSh ar
ĠInter ruptedException
hand le
tens ions
ĠPrÃ¤sident schaft
ĠVerkauf s
Miss ing
F ootball
t otal
Ġd iff
an gel
ĠF eind
ĠW ith
um or
Ġsch lossen
ĠEin bau
18 84
Re al
Ġseiner zeit
ĠY our
ĠBet r
ied s
ĠCon rad
ĠGra phen
mÃ¤ ss
ĠfrÃ¼ he
ĠFest ivals
wort h
Ġlin ker
Ġcm d
ĠAir port
ĠTex ten
Ġschl Ã¤gt
Ġbegr Ã¼ndete
Ġhol en
ÑĢ Ð°
ĠQualif ikations
ĠDE FAULT
ĠKandid at
lÃ¤uf e
BevÃ¶lker ung
Ġmedizin ische
Ġgesellschaft lichen
Ġrom ant
ĠInse kten
ĠF ulda
ĠG uten
ĠP ri
ĠT un
Ġg lauben
Ġ18 10
ĠStr ahl
ĠAl i
ech nen
enn ame
che f
18 79
oc aust
Ġnoch mal
ĠKl einen
ĠGer tr
Ch Ã¢teau
Ġger echt
ĠKunst geschichte
ĠEm ail
ĠProf ession
iden ce
gehen den
ĠChem nitz
pla in
ĠKonz ern
ĠCa es
Ins eln
ĠAthl eten
Ġreligi Ã¶sen
ĠGitarr ist
J ean
L ou
M G
m auern
ĠĠĠĠĠĠĠĠ ĠĠĠĠ
ĠH unter
ĠW ern
ĠR ast
ĠC osta
ist oire
Ġt her
wei tern
iz z
pr om
ĠIm mutable
ĠPl att
ĠBau werke
Ar ten
ĠSte ink
Ġverl Ã¤sst
ĠSÃ¼d amerika
ĠHe art
ĠPhil ip
not Null
ĠMos k
Med iziner
ĠBegriff e
Ġap i
Ã´ ne
VER SION
ĠEuropameister schaft
Ġbelg ischen
ĠQue en
Ġbehand eln
R ate
S ql
V R
i ago
r unden
Ã¼ bt
Ġw ord
ĠB arn
ĠD ak
ĠM eilen
em atic
ĠF rom
ĠG ent
ĠT H
ig s
ot ter
ĠAn reg
Ġsch ein
ĠAl an
ĠAus gleich
18 74
ĠMa yer
ĠBe y
(" ,
Ġbes ieg
Ã¶ff nung
ĠUS B
eck er
Ġviel mehr
ĠWei h
Ġbew ertet
ĠLebens raum
ĠPat ient
ĠBi ologie
Ġwest liche
UT E
ĠÃ¤ gypt
ĠHeraus forderung
Ġgener ell
Ġverf asst
Ġevent uell
ĠBlÃ¼ te
ĠMÃ¶n chen
Ġcle an
ĠAuftr itte
Ġnachfol genden
Ġol ymp
U t
u cc
z weig
al ing
Ġs Ã¤chsischen
el ektr
ten ded
ĠL isa
ik es
ĠSch Ã¶pf
ĠSt eiger
Ġsch lagen
ru pt
Ġ18 38
ĠGesch icht
wa it
ON E
AT ED
ĠBuch es
hand ler
Bo den
Ab geord
AP I
Ġlin ke
ENT ER
ĠVerwaltungs sitz
ĠBro ok
ĠAf ghan
Max im
ĠCamp us
ĠgewÃ¤hr leisten
Ġjung er
> </
T rotz
m ode
Ġd avor
ge stell
Ã¤ ischer
ĠK iss
Ġf ree
ĠL Ã©
Ġan stelle
ĠSch ein
Ġnach weis
la de
ang a
aus stellungen
ĠAb b
18 73
ĠVor haben
ĠFl u
Ġex port
ĠQu ad
ĠGer a
stein er
key Set
ĠZeich ner
ĠTrans former
fred akteur
emin ar
ĠniederlÃ¤nd ische
Verkehr s
ĠAufent halts
a o
f ix
st age
ĠS K
ĠB Ã¤r
ĠK ies
ĠW ho
ĠL ibrary
and al
ahr er
Ġun be
of ern
ĠCh arts
String Builder
sk lasse
Al p
bild ner
ĠSchul ter
Ġqu eue
++ ]
ĠRechts wissenschaften
Ber eich
ĠHau st
Ġverbr ingen
Ġdurchschnitt lich
ĠFF DC
ĠgewÃ¼n schten
Ġschwei zer
Dam it
r und
r isch
z iele
in th
sch atz
ĠB BC
ĠK Ã¼nd
ĠG lo
ĠP unk
ĠV iktor
Ġdes wegen
ver eine
im enter
ess a
Ġ18 33
arb eits
ss itz
ov Ã¡
ĠVers ammlung
ĠsÃ¼d liche
Ġwill kommen
ĠPlan ungs
Welt cup
ES CO
flug zeug
Ġreich te
Part ition
Ġerschienen en
ĠKons ul
ĠGru yter
Ġmensch liche
ĠGir l
Ġprofit ieren
ĠDunk el
B ank
H op
c ole
Å ¯
un en
Ġein fluss
ĠF lex
ol ine
ĠP Ã©
Ã¶ ser
Ġauf geb
ad ow
ert al
iz ieren
ord nungen
enn amen
arb eiteten
ĠRe ad
Ġber echt
Ġbet ont
str umenten
ide os
ĠVol t
AL OG
Ġzahl reicher
Ġinner e
Ber uf
Format ter
ĠIns zen
AB C
Ġextr act
sthe orie
Bad minton
Ġil leg
;;;; ;;;;
ĠCru z
Dev ice
a sten
p ause
Ġ eig
st ationen
ĠA ri
ĠB ent
Ġein iges
ĠK ay
ĠC ustom
ĠVer pack
ct x
ĠAr te
ech en
lo ym
uss ia
Ġsp eichern
eim ate
ĠDe te
ĠKl etter
stan de
spr ingen
ong ol
ĠBundes land
ĠVol ume
ĠDurch bruch
ĠPhil harm
LE D
ĠPat tern
Ã¨ ne
Ġsicher lich
ĠSchÃ¼ler innen
ĠAnge hÃ¶rige
Ġelektr ischen
Ġgez ielt
kraft werk
Serv ices
ĠCre ek
ĠKaff e
ĠAgent ur
H C
i ation
ĠB ak
Ġf liegen
ĠH ip
il lo
ann over
ĠO skar
ĠSch Ã¤fer
Ġc ommerce
og ie
enn te
18 70
Ġde c
to Array
ink i
ĠKunst historiker
Ġro te
fel de
rÃ¤n ken
fre quenz
ĠKom Ã¶die
ĠHart mann
ĠLoc al
ĠSab ine
Av ailable
ĠStaatsb Ã¼rger
names pace
bran che
Ġseiten s
M aster
W A
h Ã¼gel
i Ã³n
k ab
s iedlung
t mp
w ellen
en ge
sch in
ĠB lech
et tel
ĠG iuseppe
Ġf rauen
ĠH ost
Ã¶ d
Ġer led
Ġer baute
ĠN AS
Ġge be
Ġge teilt
ate l
ord neten
ste ck
par at
rÃ¤ uch
ĠGrund riss
Ġkein es
ĠLuft waffe
ĠKommun e
Ġabsol ute
ĠhÃ¤ufig sten
ĠGeist es
stud io
grÃ¼n der
ĠMiss brauch
ĠSow ohl
ĠTÃ¼r en
ĠField Item
Ġkanad ische
Histor y
ĠPok er
ĠStatt dessen
ĠHow ard
ĠAgr ar
Ġoffens ichtlich
C ur
L iga
O t
P G
V ID
V arian
m eyer
Ï ģ
Ġw Ã¶ch
Ġv ariable
ĠM E
ĠM om
ĠM inden
ĠP ad
ĠSch ema
Ġdem nach
get Local
ass o
Ġ18 29
qu er
tern ehm
Ġunter richtet
gr ammen
rÃ¤ g
set Text
ĠGe denkt
ĠÃľber tragung
con f
ĠZwei fel
aw s
Ġmein t
Ġung laub
kap ital
So zial
meld ungen
ĠBesonder heit
ĠKlass iker
ĠFell ow
Ġbevorzu gt
ĠViet nam
ĠgenÃ¼ gend
B itte
C an
D isplay
O wner
b anken
d ies
d ates
v ari
ĠB ilden
ĠB Ã¤ume
ĠF oss
Ġau ft
ĠL ith
Ġh orizont
Ġmit hilfe
Ġt ollen
eb t
ĠSt urz
Ġr s
ĠSp ons
hal s
uÃŁ en
ĠFl ur
ock er
ĠSpiel zeug
Ġges ammelt
els on
ĠAut omat
wohn ungen
ĠGl etscher
Ein ige
ĠFest schrift
Ã¤ss ern
ĠRechts an
amb a
ĠHel fer
Ġtyp es
Ġgl Ã¤n
ĠNachbar n
ĠKre ativ
Bahn hof
ĠImm un
Ġitem s
Ġzeich nen
ĠAusgang spunkt
( -
N och
V M
it Ã©
Ġw eich
Ġb atch
ĠF asch
Ġf all
tr es
ist urnier
ĠU eber
eb all
Ġp ush
ĠIn itial
ĠÃ¼ber tr
Ġbe deckt
iz a
ire d
ite es
Ġbef asst
Ġres ol
ĠfÃ¼hr ende
ĠVerein ten
row ser
fert igung
Resource Field
ĠÃ¼b licherweise
ĠAndre w
Byte Array
ĠGottes dienst
Ġzeig ten
ĠDatenschutz erklÃ¤rung
ĠSym pt
Constra int
ĠTaschen buch
Ġprote stant
Ġbeherber gt
B all
C le
M Ã¤nner
W al
b ilden
g ei
h ans
h eight
o i
p reise
Ġd own
Ġd einer
st ufen
st Ã¤dt
sch eibe
ar ct
ar ius
as et
ĠD M
Ġm uÃŁ
ĠK essel
ĠF lie
is pr
il ch
Ġer werben
ad Ã©
ri fft
get Data
iz za
Ex ternal
lei d
ĠSte iner
Ġausge geben
ĠRei s
ĠDar in
ĠIl linois
Ġvorhanden e
Ġwes entliche
ĠEntwick ler
ĠField Location
ĠZul assung
Ġneg ativ
ĠLi bert
Ġrec ei
aller ie
ĠNeum ann
Ko ordinate
Ġbefind lichen
ĠAtel ier
H ar
f tet
Ċ ĊĠĠĠĠĠĠĠĠ
sch Ã¼ler
ge zogen
Ġf ern
ĠT ele
ĠL ohn
us sten
ĠC in
Ġt at
Ġver r
men gen
iz itÃ¤t
ĠMar ch
ĠVor arl
Ġbes eit
ĠAd miral
ĠEurop ap
RE AD
ĠWebs eiten
com e
bereich en
ĠVolks schule
Ġschw ach
Ġstar ben
ĠEing angs
Up per
prÃ¼ fen
struktur en
ĠÅ ½
BC I
Rem ove
ĠRis ik
ĠCommun ity
ĠCaf Ã©
ĠErober ung
D och
T itle
t ario
u j
Ġ ew
in ischer
sch reiten
sch eiben
Ġi Phone
ĠF avor
ĠE id
ĠP y
le p
il ang
ut a
ĠJ en
ĠZ en
Ġver stÃ¤nd
ic ense
ĠIn tens
ĠVer stÃ¤r
ĠSp ektrum
ĠAb fahrt
Ġ17 0
ĠSpiel ers
gew orfen
ĠVerein igte
ĠWeb prÃ¤senz
ins ert
leben s
Ġhistor ischer
wissenschaft liche
asch inen
Pr ess
Pr int
Ġumfassen den
led ge
ĠPersÃ¶n lichkeit
ĠTw itter
ĠlÃ¤ng st
Ġregul Ã¤ren
ĠPassag ier
ĠTob ias
Russ land
sem ester
ĠVerf asser
Ġfas zin
Ġdarauffol genden
A ktiv
B urg
C N
C ost
F ollow
b eben
ĠA re
Ġm atcher
ĠF Ã¶der
ĠG Ã¤rten
ĠE if
ut ive
Ġp Ã¤dagog
im ente
hn er
ĠÃ¼ber prÃ¼ft
18 81
anz eige
ĠSe kund
ian e
Ġpro gress
Ã¶l ler
fer red
fe at
ĠAut h
AT OR
out ube
ĠNational versammlung
pp ed
ĠFahr zeugen
film e
Ġkey s
Se parator
All gemein
sl etter
Per mission
ĠViel leicht
ĠMer cedes
ĠDist rik
ĠbestÃ¤t igte
aust ausch
ĠRis iken
grÃ¶ÃŁ te
ĠBeob acht
ĠEdel stahl
Bef ore
ĠHumbold t
B ilder
D abei
P lay
b on
k Ã¶r
an ter
ĠM ole
ĠM ake
Ġn odes
ĠK Ã¤rnten
is Assignable
âĢ Ķ
ĠC urt
Ġge gliedert
rei en
ĠSch rau
wei len
Ġst ein
Ġ18 17
Ġ18 32
ĠAr ist
Ġtr ugen
18 78
18 71
ile y
fer ences
ĠGes and
ĠgehÃ¶r enden
entr ick
ĠVol umen
Ġgef Ã¤llt
ĠGl Ã¤ub
ĠLebens jahr
Ġerhalten en
ĠKultur en
ĠGel b
Ġmethod s
ĠWirk ungs
ĠUrs achen
ĠkÃ¼nstler ischen
kat alog
ĠjÃ¼ng ste
Sing les
Ġ655 35
C annot
T ex
h ain
w ann
er es
ĠS tem
au scht
Ġs m
ĠM ore
ĠF iction
ĠH ain
ĠT arn
ĠL ahn
ĠI ter
ĠN O
Ġden ke
Ġ18 12
Ġvor gegeben
be vÃ¶lker
ĠVor sitz
lieÃŁ en
ĠBo ys
ĠCo us
File Name
Ġho hem
Ġbeh eimate
Pl ugin
ĠLau ra
Ste in
ĠKa stell
ĠKult us
ĠGrÃ¤ ber
PRE FIX
ĠSus anne
ĠBegr Ã¼ndung
Ġcle ar
Arb eits
ĠVul kan
ĠLiebl ings
! )
I Z
w ende
ĠD j
ĠK enntnisse
ĠF eiert
ĠH ack
ĠT ib
ĠAn st
ger echnet
00 00
ĠÃ¼ber s
Ġ18 25
St unden
Ã¤l en
Ġe qu
mit gliedern
teil ungs
Ġgesch Ã¤tzt
ĠHaupt darsteller
stÃ¤nd igkeit
Ġ> >>
ĠMag d
CH AN
He ad
Ġdr amat
Ġverlie h
Jo urnalist
ĠStandard s
ĠEvangel isch
ĠDigit alisat
ĠgrÃ¼n en
Mon itor
ĠLy rik
ĠHab ilit
ĠPu erto
ĠMari anne
ĠHawa ii
. âĢĵ
0 20
= \"
D av
T M
f arb
ur b
ĠG un
ĠG is
ĠE sch
Ġer zeug
Ġer weitern
ab sicht
im ens
ĠAn sonsten
op ol
if ter
ĠDe ad
ĠPr inc
ĠGrund stein
ĠRu ine
ĠPark platz
fÃ¼l l
kn oten
ĠTal ent
ĠZÃ¼r cher
ikal ische
Ġnorm alerweise
Ġprofession elle
ĠBir ken
R oll
S dk
S napshot
T F
f le
h Ã¤ngt
k arriere
m ail
ĠS ix
Ġv s
ĠB ruck
Ġi p
ĠK it
ĠF alk
ĠE k
ĠH ef
ber s
ĠAn sprÃ¼che
lie hen
ĠAr min
ĠUm frage
ilder t
gew Ã¤ch
gew achsen
ĠLu zern
[] {
ĠGef ahren
ĠLauf zeit
ĠKur se
met adata
âĢĿ ,
ĠKontr oll
ĠZimmer mann
Bundes staat
artet t
ĠMittelalter s
rÃ¤nk ungen
Ġsorg fÃ¤lt
ĠmÃ¤nn liche
ĠPow iat
ĠFert igung
zut age
Ġverblieben en
I r
S im
f ell
g eist
u ge
x FF
sch mer
ĠB raut
ĠD isplay
ĠF un
ĠG lob
gen z
ĠW affe
il ation
ĠJ h
ĠC art
he orie
ĠAn merkungen
id t
ĠCh ild
ĠPl ant
ock el
ĠBo ots
ĠLe gende
Ch arl
ĠSk la
ĠMot ive
ĠBÃ¼rger schaft
Ġrech ter
gra ph
Trans form
ĠWirk lichkeit
ĠJe de
lÃ¤ufer in
ced ure
Ins gesamt
ĠWettbewerb s
ĠKlei der
Ã¼h ungen
ĠBeweg ungen
Ġkonzip iert
D ynastie
E st
W idget
b ig
g ru
k loster
m ass
Ġ echten
on er
ĠS ven
sch ach
sch ungen
Ġs uccess
Ġz ert
Ġf Ã¼hlen
ĠL etter
ĠI F
id ium
ile ps
ĠSchw anger
sb uch
to LowerCase
zw ald
ina e
ĠSh ang
recht liche
ĠAnt hrop
ĠPat rim
ĠTechn ologien
Rel igion
vo gel
Block s
ends With
ĠGir ls
ĠByte Array
Ġneg ative
imen tel
ĠGil bert
ĠLaus anne
L ive
e de
o a
z ei
st au
sch iffen
Ġs ure
et in
ĠK ot
ĠW arm
ig ter
ĠJ Ã¤nner
Ġl ux
Ġp ackage
ah men
get Bytes
la in
ĠAb bildung
ov on
vers uch
Ġzw ang
du ktion
mit ten
ign y
ĠVerb Ã¤nde
Ġintern al
Ġabge geben
CH AR
ĠVerl etzung
bÃ¼ chern
mon at
Ġservice Callback
Vis ible
Ġschlech ten
ĠRon ald
ĠFlen sburg
ĠJugoslaw ien
L it
P ane
r one
Ġ echte
ĠD in
ber gen
Ġh Ã¶rt
get Attribute
get Max
ob ahn
18 0
Ġlie b
ire ct
ĠSpiel zeiten
Ġ16 00
ĠBeg leiter
mod elle
ĠnÃ¶rd liche
ĠTa sche
gra de
Ġung arischen
grÃ¼n de
Ġerz Ã¤hlen
ĠBa pt
ĠUN ESCO
olumb ien
Ġmel den
ĠRac ing
Ġfran Ã§
ĠZuschau ern
H S
Ġd ay
ĠD amm
ĠM ahl
de uten
ĠE conom
Ġf uture
ĠH P
ĠL ug
ĠN iger
Ġk op
ĠZ ier
sp Ã¤ter
im ate
ĠAn halt
Ġbe zeichnen
Ġ18 39
Ġ18 31
dr essen
Ã¶ff entlichen
ĠFrei heits
ĠBest immungen
recht lich
Ġwei ss
Path s
ĠAp pl
osoph ie
ĠEhe paar
ĠHin blick
ĠMel od
Sa ale
Sele ctor
Ġgesund heit
resp ond
Ġrestaur iert
ĠZut aten
ĠAbhÃ¤ng igkeit
č Ċĉĉĉĉĉ
Ã¤ k
ĠA D
Ġb itten
ĠM ust
ĠK ran
ĠW alk
Ġh erk
Ġtr op
uss ion
be arbeitung
ĠVor schriften
Ġverl iert
Ġteil t
ograph ischen
ĠKap azitÃ¤t
čĊ čĊĠĠĠĠĠĠĠĠĠĠĠ
schw itz
ĠMark graf
ifiz ierte
Ġmod ule
ĠTro ck
De te
ĠerhÃ¶ hte
ĠKab arett
esh old
ĠAuff Ã¼hrung
Ġerheb t
ĠgÃ¼nst igen
ĠRap per
Ġsamm elte
Ġschott ischen
ĠRal ph
loym ent
bevÃ¶lker ung
/ {
A K
F rag
G ar
L B
L im
å Ľ
Ã¤ be
ĠB aus
ĠB EL
ĠF utter
ĠE cht
ĠP rec
ĠH Ã¼r
ĠV at
ĠSch ritte
Ġp ending
Ġwar m
Ġ18 19
Ġvor geschlagen
lo y
St ats
sk e
lei h
Ġ10 5
ĠBuch en
ĠDem onstr
Ġcreate d
ĠPal ais
ĠUl rike
herr n
Comp uter
UM N
ĠCan ada
Ġanges iedelt
ĠdÃ¤n ische
ĠErÃ¶ff nungs
ĠBasketball spieler
Ġav ailable
Ġsinn voll
Europameister schaft
Ġbeklei dete
= (
> -
H or
R ich
T al
l eister
v ing
un ivers
sch ew
Ã¤ ums
ĠA B
Ġin telligen
ĠP i
ĠH Ã¤nd
ĠW oll
ĠL KW
re volution
ul ationen
ĠDie t
eil le
get B
get Width
ĠEin trÃ¤ge
lie f
ĠAr gument
ĠAb kommen
ĠAuf wand
ov ice
ĠVor trÃ¤ge
ĠZu hause
ĠHaupt bahnhof
ĠHoch wasser
arn ing
ĠGen au
ĠLo ok
Ġform atter
ĠAmts gericht
ĠAch telfinale
FI ELD
Gener ic
ĠPrem ium
Ġgriech isch
Valid ator
ĠAbst immung
Ñģ Ðº
Ġbein ahe
sprÃ¼ fung
Bild ung
Ġbeeinfl ussen
DA Y
Ġrele van
ĠPriv ile
ĠTerr asse
ĠMagn us
ĠInterpret ation
isAssignable From
F ort
W o
Z iel
p zig
s ame
Ñ ĩ
Ġ iterator
ĠS yl
ĠM ob
ĠP reisen
ĠH ad
ent urm
ĠC arn
Ġk e
ĠZ oo
Ġver mein
ĠSt ick
Ġr oll
ĠEr m
iz ierte
av ior
ĠCh i
Ġ4 50
ĠLand shut
ian i
ĠGemein det
Ġges perrt
ĠUm stÃ¤nden
Ġange messen
ĠBet ten
ĠCon trol
Ġselbst verstÃ¤ndlich
ĠRom ane
23 4
yr er
Hand ball
Ãĸ ff
fass ade
ĠSen ats
beh Ã¶rden
getC olumn
Block ing
schlÃ¤ gen
ĠWiderstand sk
ĠTeu fel
ĠCorpor ation
ĠObergesch oss
ĠKev in
c ell
c olor
Ġ ĊĠĠĠĠĠĠĠĠĠĠĠ
an trieb
at form
ĠM organ
ĠK i
Ġg reift
os k
ĠÃ¼ber region
Ġbe enden
Ġ18 27
ech e
Ġtr ock
ĠGr as
be c
St atic
Sch ul
Sch rift
ĠTeil nehmern
ogra fen
AR Y
ĠNeben fluss
ĠRel ief
Ġstamm ten
getC urrent
Ġdr auf
ĠWahr nehmung
Ġhab t
gener ate
ĠSec ond
ĠTrau er
ĠEmp ire
Ġportugies ischen
Ġenth ielt
Ġeingest uft
Publik ationen
A UT
G old
J ar
R U
S Ã¶hne
v ant
ĠS eiden
ĠB ande
as y
ĠT SV
ach ment
Ġk andid
ul se
ĠO ct
he ft
ĠDie sen
ĠEr ror
ĠSe arch
Pro ps
Ġbef asste
aut omat
ĠPr inzen
ĠIs ol
Ġ[ ...]
ĠMich igan
Ġ(âĢ ¦
ĠHa ag
zz i
Gr Ã¼n
ĠBek ann
ĠSw iss
ĠAbgeord nete
Ġsowjet ische
jew itsch
Ġprofession ellen
comm and
Ġaustral ischer
ĠPubliz ist
ĠEngine ering
ĠInternalX base
Denk mal
A V
M el
Z ahl
d itions
ĠS und
ĠS tett
Ġw on
ĠA real
em acher
am azon
ĠG ute
ĠG itter
ĠT ap
den z
ĠV eget
ro it
sp anisch
Ã¶r er
Ġsp iegel
ĠAm tes
ĠStadt bezirk
dr unde
ĠSchw ed
kl ein
ĠTr ump
use el
Leben s
ĠAnt arct
ĠGegen stÃ¤nde
Ã¤h ern
ĠPer u
Ġdazu ge
ĠDen ken
ĠTo uch
Sport veranstaltung
sto ÃŁen
penden cies
ĠglÃ¼ck lich
ĠJÃ¼n ger
ĠStaatsanwalt schaft
Listen ers
G leich
f al
f aces
g Ã¼nst
ge stellte
ĠP ict
ĠP Ã¤dagoge
ĠR ent
ĠL ernen
Ġge he
get Node
ĠSp er
Ġtr ace
rit able
spiel s
ĠAus rÃ¼stung
18 76
ĠNach weis
ĠSe es
pro vinz
Ġel e
Sch edule
ĠPh asen
Geb iet
eig ern
ĠFr acht
ĠHol ocaust
ĠDr achen
ĠAkt uell
Ber echnet
ĠDruck er
ĠZur Ã¼ck
tre ff
ĠErd beben
ĠAch ter
ĠGlock e
ĠÃ¶ fter
Stra ÃŁen
Lin ks
ĠGewerk schaft
ĠHT ML
ĠPerspekt iven
pum pe
ĠkÃ¤mpf te
Ġcir ca
b inding
d ingen
e urop
k W
m aur
} .<
Ã ®
ei ste
ĠS ey
ĠS Ã£o
em y
Ġm apping
ĠK lagen
ĠT ed
ĠI X
Ġh uman
ĠSt uck
ĠAn wendungs
ĠEn try
18 67
ant ik
teil ten
ĠBau t
Ġget an
eist ern
ĠBeg leit
ĠFre quenz
ĠNieder lagen
ĠAt las
ĠHier zu
stag s
čĊĉĉ čĊĉ
ĠFolge zeit
ĠSol ar
ĠSen ator
Ġerfolgreich sten
ĠKol onie
ĠAust ria
ĠSchlag zeuger
ĠermÃ¶glich te
Ġrule Jvm
ĠLim burg
ĠOff ice
Ġdein em
ĠÃ¼berra schend
Ġschott ischer
ĠStiefel etten
miss ions
Verwalt ungs
< <
B rit
B esonder
S ynchron
ĠS cript
ĠS lowen
el ius
ĠB ann
ĠF reis
ĠT U
ĠT Ã¤
ist ers
Ġzu geschrieben
Ġun voll
op hen
ud a
be zirke
eter min
ĠFl Ã¼sse
sh afen
Ġde cl
Ġ17 89
Ã¤rz te
ĠUr spr
ĠBew usstsein
ĠMannschaft s
ĠIde al
Ġra w
ĠjÃ¤hr liche
ĠunabhÃ¤ng ige
Ġchild ren
ĠClau de
Ġhil f
Stud ien
Beg riff
Ġlei stete
ĠChallen ger
ĠReeder ei
ĠLoth ar
D own
G eh
H K
H as
I X
L es
M at
P reuÃŁ
R enn
w n
y pt
sch es
Ã¤ sten
ĠB ien
ĠK ad
ĠE volution
ig ar
ĠC rem
sp ol
op ing
Ġab schloss
pf Ã¤l
ĠBe aut
sel f
Ġausge legt
Ã¶rder te
FuÃŁball trainer
ĠErst ligisten
Ġ180 7
ĠErfolg s
ĠWel che
Ġwes entlichen
Ġchines ischer
Ġbetr achten
ĠTar if
Ġfra gen
Po ints
ĠAdels geschlecht
Ġpersonenbezogen en
Ġhr sg
ĠfÃ¼hl t
ĠvorÃ¼ber gehend
==' \
S K
m ethoden
o om
p refix
v ik
Ġb undle
ĠW are
ĠR TL
ĠL ac
us el
ĠV all
Ġh Ã¶r
Ġh ielten
ro g
ĠSt all
eg a
ĠJahr est
Ġab gebaut
ill i
ĠAuf lagen
ĠMar ion
ast ral
ĠVor sprung
Ġges endet
Ar n
ĠBo urg
stra int
40 6
Ġqu alit
Fa ctor
ĠEigen schaft
ĠVertr etern
ĠPop ular
ĠSchlag zeug
Ġide ale
Ġzeich nete
Kan ada
berecht igt
ĠgewÃ¤hr leistet
ĠOpern sÃ¤nger
ĠPassag iere
ĠNam ib
Ġverab schied
ĠClem ens
ĠEncyclop edia
ĠHels inki
F T
O W
ĠS ende
sch Ã¤den
Ġm ulti
Ġm oral
ĠE X
ĠP ip
le ep
ĠR um
ĠR uth
ĠJ ason
ĠU K
ag ramm
Ġst erben
get Absolute
ĠSp alten
ĠAb sch
18 83
utz er
ĠBr ig
fl ut
ĠSe ef
fÃ¼hr ende
Sch ach
Ch em
ott i
Mit glieder
Ġverb leiben
ĠCon stants
ograph ien
ĠMitglied schaft
Ġgem eldet
Met rics
Ġnorm ale
ĠHu ber
Ġ179 3
ĠVolk es
ĠAktiv itÃ¤t
ĠlÃ¶ schen
Ã± a
Ġplan en
Ġberuf lichen
Ġthr ough
ĠPlast ik
Ġkost et
Leicht athlet
B uf
G lobal
R T
R obert
a int
h um
ur laub
Ã¼ ben
Ġs ee
ĠD imension
om s
ĠC ON
ik alen
Ġp al
ed uler
Ġ18 11
Ġent scheidet
ĠGe orges
con vert
ĠKunst denkmÃ¤ler
sw issenschaften
Ġerfolg los
echs lungs
ĠBÃ¶ hm
Ġselten er
ĠWol ff
Ġirgend wie
Ġsowjet ischer
ĠEinkauf s
ĠKonzentr ations
Vari ables
ĠAbra ham
E LE
R Ã¼ck
R AN
m ember
w ich
â Ī
ĠS eil
ĠS Ã¤chsischen
ar isches
Ġw enden
ĠD avon
Ġein heim
Ġz Ã¤hlten
Ġh tml
ĠVer mittlung
Ġum liegenden
Ġ" :
ne cted
Ġsp ont
ĠAm ate
ĠJo han
ĠDe p
ĠGemein schafts
Er z
Ã¤u schen
Ġher an
fÃ¼ hl
Ġgel istet
ĠMittel n
ĠWinter spielen
ĠLondon er
Ġmein es
ĠTab l
System atik
ĠKor re
ĠLandtag swahl
Ġvorher igen
ĠInner halb
ĠSem ester
ĠProp st
ĠWik ipedia
B asketball
O s
S zene
c am
ar est
ĠM Ã¶rder
Ġein gel
ĠF ri
Ġf und
um ph
Ġ2 20
ĠN ATO
lich keits
Ã¼r me
ĠC her
ĠSt Ã¶rungen
ver d
Ġc ondition
Ġ18 22
18 75
ohn ern
Or ts
ĠGroÃŁ vater
Ġeinz iges
Ġversuch ten
Ġober e
Ġgegeben e
ĠBran che
Ġklass ischer
vis or
Dec l
Pr ice
Ġverz ichtet
Ġkathol ischer
steh er
ĠModer ator
ĠEmpf angs
rÃ¤nk ung
Declar ed
kre te
7 00
E ach
H tml
T okens
j avax
l Ã©
l Ã¼sse
p assen
sch Ã¶n
ĠF ame
de pendent
ĠR ande
ĠV ision
Ġg laubt
Ġg laube
Ġl ohnt
ag ert
ĠAn ordnung
ĠEin st
Ġunter ird
gr Ã¶ÃŁen
ĠBe au
Ġe ure
imm y
Ġbeg leitete
tag es
Man aged
mÃ¶glich keit
ĠKompon ente
ĠInnen raum
sie ht
ĠStu hl
ĠMaschinen bau
ĠHaar e
ĠtÃ¶ ten
riz ona
ĠOrient ierung
Bran denburg
ĠErwer b
ĠJahrhund erte
Ġhabilit ierte
F ac
P rÃ¤
a sche
c ial
k andid
m Ã¼ller
Å ¼
Ġw ovon
ĠB arth
Ġdie jenigen
ist ern
Ġc ause
get Tag
rau l
ĠAuf hebung
ĠMar athon
ograph y
Ġersch ossen
Ein en
ĠRÃ¼ck zug
ĠGu y
ĠBru ce
Ġexist ing
ĠDreh arbeiten
do or
Ass ignment
ynam ik
ĠZuge hÃ¶rigkeit
ĠEntscheid ungs
aktiv iert
ĠSec ret
Ġsort iert
ĠLaur ent
PAT H
G RO
S tel
g Ã¼ter
p assung
Ġd oppelt
st eht
sch i
ge gr
ĠB ody
ĠB Ã¤cker
ĠH ind
ĠC u
Ġzu stÃ¤ndigen
Ġst ieÃŁ
Ġc ustom
get Y
Ġbe deut
ob a
18 59
ĠNach mittag
ĠFl y
ĠBr ett
fl eisch
Ġle ere
stan zen
res sen
ĠEx p
ĠOber pfalz
co uver
Ã¤nder ten
ĠVerb ot
Ġeinz iger
schn ell
ĠHol stein
ĠLie chtenstein
bet reiber
ĠZahl ung
ĠPal ast
sl eiter
Ġgelang t
ifiz ierten
spl Ã¤tze
Le ague
ĠOs lo
ĠPil ger
Ġkrit isch
ĠHy per
ĠtÃ¤ glichen
ĠSchwar ze
ĊĠĠĠĠĠĠĠĠĠĠĠĠĠĠĠĠĠĠĠĠĠĠĠĠĠĠĠĠĠĠĠĠĠĠĠĠĠĠĠĠ ĠĠĠ
ĠSym ph
ĠVermÃ¶gen s
Ġpopul Ã¤r
ĠProfess ur
ĠMetrop olit
sbed ingungen
I p
st Ã¶rungen
Ġz iel
Ġz iv
ĠW ed
Ã¶ cke
ĠL ex
In stances
omm e
be cker
Type Enum
werk statt
50 9
ĠMed ium
ĠSh akes
ĠArbeit splatz
yl on
ĠTechn iken
ĠSicher ung
ĠÃ¼b te
ifiz ieren
tre al
ĠBro ck
ĠService Future
Sub scription
Ġverz ichten
ĠBal kon
ungsver fahren
Ger man
ĠMerk mal
Nieder lage
Ġanges ichts
kÃ¼nd igung
ĠBefrei ung
FuÃŁ noten
B lack
f eind
k ompl
l imit
Ċ Ċĉĉĉĉ
un ternehmer
on anz
sch Ã¼tze
Ġv olle
ĠB ond
Ġb Ã¶hm
ĠD L
Ġm em
ĠK ru
Ġf ikt
ĠW elle
ĠR ade
ier n
ĠN y
ĠEin tr
ĠStr als
stell bar
geb r
eigen en
ĠDe ath
ĠMus kel
add Child
Ġeigen em
Aus bildung
Ġaktu alisiert
dienst es
ĠRef lex
Ġ180 2
Ġdi plomat
ĠAs yl
sie ger
omot ive
ĠCal endar
dat ei
raw able
ĠAuff assung
Ġsah en
option al
ĠStell vertreter
ĠEth ik
ĠMaur ice
STR ING
ĠHex en
ronom ie
Ġstet ig
ĠPhÃ¤n omen
R ud
f aktor
k os
m ak
p Ã¤dagogik
et tern
ĠT hrowable
ik ern
ĠO S
Ġver folg
ah ne
os er
Ġsch icken
lie be
ĠSie b
ont act
tem porary
ĠgroÃŁ zÃ¼g
ĠKr Ã¶n
Mar ie
Ġverw irk
Ġerhalten e
ĠGen re
Ġy our
ĠSen ior
ĠFort schritt
ĠMy ster
ĠElektr onik
Ġgeschlossen en
ĠGall ery
ĠTok yo
Theater schauspieler
stÃ¤d te
ĠSoll te
Ġreag iert
Ġcas ino
? âĢľ
B its
B ayern
N av
T ile
V irtual
z on
Â ¶
ĠK uchen
ĠH Ã¤ft
um fang
ik ale
ĠSch ichten
ĠAn fÃ¼hrer
og o
Ġent sprach
18 60
ĠHer man
Ã¤ch ern
agen t
Ã¤nd iger
eten zen
ĠBes iedlung
ĠBeg leitung
FuÃŁball nationalspieler
haf ter
Ġsol ange
Ġ180 4
ĠTe en
Ġ179 8
ĠAustr alia
Ġwohn te
ĠMainz er
Ġwor aufhin
ĠWes er
ĠVerband es
Ehemal iges
national mannschaft
ĠjÃ¼nger e
grÃ¤ ber
ĠSpren g
T urn
m ans
s ow
in haber
Ġs l
Ġs enk
Ġs obald
Ġm eta
ter nen
ĠH eu
Ġge zeichnet
Ġt ier
Ġt iefen
ĠAn wender
18 77
int Value
Ġpro c
pro jekte
ĠUnter lagen
ĠUnter grund
ĠNeu tr
rad io
ĠMo on
ote chnik
uck en
Ġte uer
ĠCl ark
ĠTrans fer
Ġelektr onische
Her ausgeber
CON T
ĠTurnier s
Ġgriech ischer
Ã¸ r
arkt ischen
other lv
Ġauth ent
Tran sport
ĠJubil Ã¤um
Ġnationalsozial istischen
ĠBundesverdienstkreuz es
C RE
ĠS ier
Ġs uch
re q
ab a
kt ive
Ġsch arf
Ġ18 24
ĠVor runde
inder ten
ĠSte wart
app y
icher heits
pp ich
Mar kt
ĠGeh Ã¤use
ĠSen ec
ĉĉĉĉ ĉ
ĠOper a
ĠAuÃŁen minister
Ġerf uhr
ĠWol ken
Ġnotwend ige
ĠGÃ¤ sten
ĠHund ert
ĠTelef onn
ĠergÃ¤n zen
ĠAster oiden
1 000
M C
R C
W ald
h eid
k rat
r ut
s ingle
u hl
st itel
st Ã¤tt
ĠS we
Ġs em
Ġs onn
Ġs ome
as a
Ġin clude
Ġm ach
ĠW eich
il o
ĠL yn
ro tt
ĠU top
Ġver Ã¶ffentlichen
Ġwir st
Ġsch ul
od s
Ġunter zeichnet
ĠAb kÃ¼rzung
ian ische
Ġ17 00
ĠPl atte
ĠSchw ieger
Sch lag
// //
ĠDu o
welt meisterschaften
Ġkurz zeitig
<? >>
emb ran
Ġanz us
Bl ank
ĠBox er
Ġverbrei tete
ĠLeon hard
ĠgefÃ¤hr det
ĠMatt he
____ ____
ĠForder ungen
ĠPsychiat rie
L y
M oll
P N
T ier
o or
Ġd ei
st Ã¤tigkeit
ĠA ra
Ġi v
ĠK au
ĠK lage
ĠE qu
ĠL enk
ĠL yr
ĠJ Ã¼
ĠC hen
ver n
ien d
get Status
ĠUn i
Ġsie bten
ex p
ĠGr Ã¶n
18 48
18 69
vers icherungs
ĠUS D
iet ung
sb l
dent ials
ĠSc ot
Land tags
komm ando
verl etzung
fÃ¤h ige
ĠPet rus
ĠGet reide
ĠOrd ner
Tem p
Ġstammen de
loc ation
ĠFÃ¤h igkeit
ĠMid d
ĠSteu ern
Entfern t
A xis
C enter
N eue
R echt
m aus
å Ĳ
an schluss
al itÃ¤ten
Ġv ideo
ĠD eh
em ar
am ar
ĠF lieÃŁ
de z
ĠH ohl
ĠT ir
ĠT ast
Ġer setzte
Ġl v
Ġr eine
esch en
Ġa cc
zen en
Ex port
ohn en
vers ation
th ers
Ġgesch w
ĠBet reu
schn eiden
Ġben annten
ĠSc reen
ĠSchm etter
has Access
kn Ã¼pft
ĠMÃ¼l l
ĠCa stell
Dire ct
ĠFin anzen
ĠInvest itionen
BA SE
ĠMÃ¶n ch
Ġstation iert
Ġliefer te
ĠErmitt lungen
ĠUd SSR
ĠJAXB Element
amazon aws
E E
J Ã¼rgen
N amen
N AL
h ow
p ush
x ff
y en
Ð ±
ĠM arb
Ġm obile
ĠK iew
ĠT ru
ĠI van
Ġver ring
os ion
Ġ18 26
ĠPro cess
Ġent tÃ¤u
erk rank
ĠVor lÃ¤ufer
gesch nitten
ĠUnter art
ĠGes ell
Ã¤u ber
[] []
ĠHo spital
ĠMitglied s
ĠSchul den
ĠGener alsekretÃ¤r
ĠBay reuth
ĠLuft fahrt
ĠProjekt s
Pl us
Ġverlie bt
Ġtrans fer
Ġverz wei
ĠClub s
ĠKÃ¶nigreich s
Ġpass word
Ins ert
ĠPaar e
ĠElem enten
Ġausger Ã¼stet
ĠInterview s
kom Ã¶die
ĠBÃ¶r sen
ĠAster oid
ĠIron man
Ġnied rigen
grenz ung
c uit
l uther
o hle
s achsen
t urnier
w Ã¤hlen
sch lies
ge laden
ĠB uen
ĠF ox
ĠH eid
ut down
ĠV alen
ĠC row
Ġl as
ot op
op el
Ġj etz
In tegr
Ex per
Ex tra
St op
dem ann
Ġbet rifft
Ver fahren
Ġange meld
ĠInd iana
ĠEd gar
ĠBetrieb ssystem
Ġbezeichnet en
ĠBeh Ã¶rde
ĠOrts name
Ġwahr genommen
ĠLang haus
Ġsub sp
opp ing
Ġempf ohlen
ĠAnge la
pla cement
Part ei
Ġsonst ige
Ġzentr al
ĠBud get
Ġentscheiden d
ĠDor othe
ĠBegr Ã¼nder
ĠVern unft
ĠYor ker
autom aten
E A
G ruppen
O der
b ole
g h
i ak
t ail
w urz
z end
en gt
Ġd ra
ar ter
ĠE pp
le v
ig ers
Ġauf bew
sp unkte
ed es
ĠAn atom
op ter
Ġvor zu
ok ko
ĠStadt mauer
Ġpro xy
pro vis
fÃ¼ gt
stein s
Ġverl aufen
ĠRei fe
ief ern
ĠHaus halte
Ġ% ,
ĠZusammen setzung
ĠBÃ¼ ch
ĠAnt eile
ĠKar os
ĠNutz ungs
ĠNot wend
yd raul
Ġwahr en
Ġruss isch
ĠKreuz ung
ĠAg u
Ġaktiv iert
Ġausgew Ã¤hlten
ĠBig Decimal
ĠunabhÃ¤ng igen
Ġmark iert
Change d
ĠZweit ligisten
ĠKÃ¶r pers
ĠWurz el
ĠWell ness
ĠVinc ent
ĠIndust ri
ĠEntert ainment
M ess
l yn
Ð ³
Ġ 000
Ġd ruck
ie se
Ġs orb
ĠB att
ĠB uff
ĠD ifferenz
ĠF L
ĠW Ã¤nde
ĠL ack
re ader
ĠV III
ĊĠĠĠĠĠĠĠĠ ĠĠ
ĠC A
ĠU hren
Ġsich ere
Ġc ontain
iv o
Ġ18 23
ĠAus lÃ¤nder
ĠJo urn
Ġwieder hol
ac cess
res et
Al so
Ġbeg angen
Ġarb eits
hei de
ĠRegel ungen
spro jekt
ĠTest s
ĠPor sche
ĠFil ial
ĠNorm andie
Ġverschw unden
ĠFle cken
wÃ¤l te
Ġchem ische
ĠZwer g
ĠKommand ant
Ġkontinuier lich
ĠEinzugs gebiet
Maxim ilian
s lehre
ĠB eu
ĠR eturn
tr uppen
ĠN acional
ĠC P
ul ieren
ĠâĢ Ļ
ĠSp in
Ã¤t sel
âĢľ :
qu alif
Ġex tension
sb ew
Ġkl are
ĠBo sch
Ġher ange
Ġange kommen
Ġeinz us
ĠStud ierenden
Ġkon kr
ĠLa ien
Ġgem isch
Ġabge legt
ĠPrÃ¤s entation
Format Exception
Ġfr ame
ichter stattung
IC ATION
Ġregel mÃ¤ÃŁigen
DI ALOG
array copy
Ġtransport iert
ĠErkrank ungen
ĠReprÃ¤sentanten hauses
ĠMinn esota
N or
T Ã¼rk
V oll
l ernen
Ð ·
č ĊĠ
sch ers
ĠD y
ĠD ag
ĠK Ã¤l
ĠK PD
ĠT wo
Ġge druckt
Ġan treten
ĠO swald
ĠVer einen
ĠEr haltung
lin den
iz ismus
ĠAl arm
if a
ĠRe vision
En gl
gl adbach
Par allel
ĠMon treal
ĠFest ungs
Form al
ĠBef Ã¶rderung
Ġleben s
Ġco uld
beh andlung
Ġposit iven
Nieder lande
ĠRal f
schaff ung
ĠWlad imir
a ine
o hr
ch rist
Ġd iv
ar fs
et al
ĠM Ã¤
ra de
auf sicht
Ġsp itz
ĠVor bereit
ĠKon vent
ĠGeb irge
ĠY ear
Ġres et
ĠÃľber reste
rom an
ĠEl l
Ġ) *
ĠBest en
ĠMo os
ĠReich weite
ĠArch ive
ĠSchl ange
uck y
ary Key
class Name
ĠGen ossen
ĠDre am
wand lung
ĠRaum fahrt
ĠKlein stadt
ĠEhren bÃ¼rger
ĠTages zeitung
ĠGerman ia
nehm lich
umer ic
Ġvergleich sweise
ĠMand at
brÃ¼ che
ĠHess ischen
ĠKonf ession
feature ID
Ġinterpret iert
ĠWorm s
E ner
F el
c raft
t Ã¤t
an as
ĠS ituationen
ĠG ill
ĠP R
ĠH end
ĠH eiden
ĠR eim
Ġan wes
ist iken
ĠSch af
sp uren
uf Ã¼gen
Ġbe zahlen
ungs an
ungs weise
Ã© es
ian us
Ġgew erb
Ġgew Ã¤hlten
aut o
ĠNord seite
ĠKÃ¶nig lichen
lauf bahn
ĠWohn en
ĠWohn sitz
Ġinter nen
ĠBas ic
AS K
Ġentstanden e
ĠBesuch ern
ĊĠĠĠĠĠĠĠĠĠĠĠĠ ĊĠĠĠĠĠĠĠĠĠĠĠ
Ges etz
Ġkrit isierte
Europ a
ĠTher m
ĠÃľberg angs
wal de
dehn ung
Ġpubliz iert
Bek annte
ĠTheat re
ouv elle
ognition Exception
! ");
G ateway
H en
L exikon
M aterial
Ġ á
in strumente
Ġd ick
ĠB innen
ĠB ischÃ¶fe
ĠM ent
ĠR itu
ĠL ech
ĠI rak
Ġan im
Ġg Ã¤ng
Ġauf zunehmen
ĠSch am
Ġver glichen
Ġr ief
get Its
if c
Ġpro b
ĠGes ellschaften
Ġen gen
gew Ã¶lbe
ĠKÃ¶nig lich
gleich en
ĠNieder schlag
Ġca pt
ĠKommun en
lav a
ĠHin sicht
ĠTrans action
ĠAir es
ĠMel bourne
Min ister
Ġtyp isch
ĠbeschÃ¤ft igen
ĠJSON Object
Ġdeutschsprach ige
Ġchrist liche
ĠGolden en
Ehr endoktor
ĠWorksh ops
ĠVerbreitungs gebiet
ĠGord on
Ġ(âĢ¦ )
O D
g Ã¤rten
Ċ ĠĊĠĊ
on c
ĠD aw
ĠP all
ĠP ank
Ġau to
ĠW ink
ĠR i
Ġge boten
Ġan trat
ad dress
Ġun bew
ĠAn sprech
Ġes sen
ĠSie mens
av ier
ult ure
ens eits
ĠSe el
ĠDe velopment
ĠSo u
ĠzurÃ¼ck zufÃ¼hren
stand ard
ON G
Ġbo und
Ġmus st
ĠDi agnose
schw ung
bet on
Ġ180 1
ĠUl l
Ġeinzel ner
Ġbed ingt
ĠCms Resource
ĠWahr scheinlichkeit
ĠBayer ische
Ġhol z
Ġrow s
ĠNikol ai
Bew egung
ĠKamp agne
Ġgros se
Ġukra inischen
ĠWorksh op
Sdk Internal
ĠUrspr ungs
G A
G ast
M ir
P sych
R en
d ocument
h ielt
k asse
m esse
z ahn
Ġd one
un o
al p
Ġw ander
ĠK ette
ĠF itz
ĠH l
ĠH ob
ĠC V
ĠC el
Ġg iven
Ġzu stande
18 72
ition al
Ã¤nd ischer
ĠGesch wind
Sch Ã¶n
ĠHaus halten
ash i
Ġfest e
ĠRom a
ĠLei h
ĠSk el
Ġstud ieren
UN T
sl alom
Sport liche
Ġprom inen
zub ringen
Ġnorweg ischen
ĠMinder heit
Ern st
ĠHanse stadt
gewÃ¤ch se
ĠShakes pe
D iff
F R
F ull
S eiten
b ag
j ugend
v ie
Ä ĩ
ç ļ
in herit
ĠS i
ĠS ED
ĠM Ã¼
Ġein setzen
ĠF loat
ĠE ms
is ser
il ia
ĠL iver
and ro
and ra
Ġk ub
ĠZ a
Ġp ur
Ġc p
Ġc ontains
Ġbe zog
Ġunter einander
par ed
ard i
zeit lichen
Un ion
Ġ10 1
Or dens
Ġall mÃ¤
link plain
van ced
Ġte sten
iat iven
ĠMehr ere
pol icy
Ġfinanz iert
ĠRitter gut
rick et
Ġinitial ize
Ġlau tete
ĠdÃ¤n ischer
Ġhochwert igen
Ġac count
Top ic
marsch all
ĠRÃ¶m ischen
Austr alien
ĠQuadratk ilometer
B order
P redicate
a endert
f utter
g ieb
p aket
v s
w ise
w etter
z ession
Ċ ĊĠ
ĠS ara
at ro
ĠB ehr
Ġb aut
ĠD au
ĠK all
ĠR app
ĠR Ã¤umen
ĠL ungen
ĠJ ungs
ĠZ elle
ĠSch ei
Ġp Node
Ġaus reichen
ĠAn ruf
ben ennung
Ġc ell
In stall
gr au
ĠAb weich
ĠVor gaben
dr Ã¤ngt
spr inger
Sch au
Ġgesch afft
Ġcon trol
ott a
aler mo
son st
Ġdort hin
ĠMed al
ĠFrei stil
ĠKr amer
ĠJohann is
ĠGener ald
Index Of
ĠJohn ny
ĠGrÃ¼n e
ĠGott lieb
umm el
ĠAuftrag s
EX CE
ĠÄ °
polit iker
ĠÃ¼brigen s
Ġnachhalt ig
Ġgolden en
ĠNapole on
K reuz
R untimeException
W eimar
p ern
p Ã¤ck
z ulegen
ei he
as mus
ĠM oll
ĠG ib
ĠG UI
Ġer mitteln
ĠSt apel
Ġc ms
ĠÃ¼ber arbeitete
ĠEin nahmen
ĠAuf stellung
set Attribute
Ġ7 50
eist ung
wick elt
ĠSo ul
ĠÃľber wachung
ĠLu cas
ĠCon nect
ĠMan h
Ġgeb rÃ¤uch
Ġbew erten
Sp iele
Ġper man
Ġwahr e
Ġverein bar
ĠPla ce
Ġdest o
Ġerheb liche
Ġfra gt
Komm un
Ġschlech ter
Syn drom
ĠKÃ¶n ige
bil dern
ĠOR F
ĠKav allerie
ĠAfghan istan
SdkInternal List
K EN
P UT
u gel
w t
w ochen
in is
in formation
Ġd ritter
un ten
sch uh
ge hr
au cht
Ġw eiten
ĠD C
ĠM P
om o
ĠC rist
Ġauf wend
ĠSt Ã¼rmer
os kop
Ġun mÃ¶glich
ri um
ĠUn it
ĠAr range
18 66
tem p
Ġpro gramm
Ar ab
ĠFilm produzent
irt scha
ĠJan e
mar ine
Ġverb lieb
ĠOl den
ĠReich sk
ST ART
ho tel
Ġhei ÃŁ
Ġmein te
ĠSied ler
Ġgriech ische
ĠpreuÃŁ ische
ĠVerhalten s
Ġeingesch rÃ¤nkt
Ġmittelalter liche
Sel bst
ĠBegeg nungen
ĠangehÃ¶r te
ĠHandwerk er
ĠâĪ ŀ
ĠHimm els
ĠBehand lungs
dater es
Ġherk Ã¶mm
A ff
L ied
M ON
P OS
R ules
d iv
k reisen
ĠS ain
ĠB reak
ĠD opp
ĠE w
ĠW at
Ġan halten
Ġo hn
ver mÃ¶gen
ger Ã¤ten
iz es
Ġ" \"
Ġunter e
if tet
ĠCh ief
anz a
ĠNach ruf
ĠLand schaften
ĠString Utils
Ġber uh
ĠUnter haltung
Ġth em
Ar rays
fe kt
Ġange stellt
ĠHand lungen
setz ungs
ĠCon ference
ĠMan usk
Ġarb eiteten
Mar ia
ĠEd in
ĠBel grad
Ġbeh ielt
ĠDi abet
ĠÃĸsterreich ische
row s
ĠZug leich
weis ungen
ĠGut schein
Comm ent
Dire ction
funktion en
Ġcolumn s
ĠDate Time
rel ation
asp iele
ĠrÃ¼ck te
Sign ature
Ġinspir iert
italien isch
B elege
H a
M ore
j ap
u den
u hren
v Ã¡
æ Ĺ
Ġ ..
ie ge
ĠD iff
Ġein setz
ĠG eiger
ĠT ower
ĠR ies
Ġg ross
Ġl Ã¤dt
Ġst ep
lo hn
Ġtr ag
be ziehung
ĠEs c
Ġbef re
Ġsel ect
15 0
str and
ĠSte ck
Ch ina
ĠMon tr
Ã¤m men
feld t
ĠOn tario
ĠHerr schafts
Reg ister
ĠKan te
iat ischen
ĠClass ic
Her steller
ĠWall fahrts
ĠRand om
NS DAP
Ġschrift lich
Christ ian
ĠKrist all
Ġarab ischen
R ein
g Ã¤ste
j ak
m ake
s au
Ġ eis
ĠS egment
sch alten
ĠB eil
as aki
ĠD os
ĠM ind
om orph
ĠN ak
Ġauf weist
Ġver schl
Ġr uft
Ġun klar
ĠJahr t
get L
get Parameter
rie le
ster ben
ĠMa z
ges ucht
Ġdeutsch land
Ã© bec
Ġ17 90
Re gel
ĠEx pon
iff ern
ister zien
ĠBundes ministerium
Ġersch lossen
Ġgemein nÃ¼tz
ĠmÃ¼s ste
Sh op
ĠÃ¶ff net
ĠDis ney
ĠÃ¼bergeben e
ĠBil anz
ĠJon as
ĠSchr Ã¶der
rib ution
ĠBem erk
Ġverlang t
ĠGeschw ister
ĠBeb auung
ĠErot ik
ĠMoh amm
ĠMitch ell
isterzien ser
) }
2 50
A qu
C as
D L
H Ã¶
H of
M s
S Y
W ettbewerb
l on
n itro
p red
p lay
Ġd ran
Ġs uchte
ich i
ĠD ikt
ĠG ur
Ġf air
Ġf ried
ĠR umpf
tr ast
ĠI b
ir i
sp ec
ĠIn vas
ĠDie go
ĠAn ten
ĠSp eyer
la ster
ĠUn ternehm
ass istent
id as
âĢľ ;
ex pression
18 62
acht al
form ular
Ġange trieben
ĠPf and
Ġzusammen gestellt
ĠCon figuration
ĠPolit ische
ĠNew sletter
ĠRad i
ĠsÃ¼d afr
Person en
ĠChar acter
vel ope
komm un
Ġnational er
Access Exception
ĠSalz burger
kap it
Ġproduz ieren
ĠGlas gow
ĠTur b
ĠEhr endoktor
ĠEst land
edig lich
Ġjahr el
ĠBenedikt iner
B I
N et
T en
W ieder
k urz
s eller
sch ar
Ġs u
Ġs ave
ĠG ift
ĠH ase
ĠL aser
ĠL Ã¼tt
ĠI ren
Ġge fÃ¼llt
ff ic
ĠÃ¼ber legen
br ach
ĠPl Ã¤tzen
ond o
ĠTr ommel
ĠLandes regierung
verb und
hand werk
ĠPort o
spro zesse
Ġkompl etten
kap itel
ĠLehrer in
Ġorganis ator
config uration
Ġtschech ischer
klei dung
ĠKomposition en
Optional Parameter
Ġaufgel istet
Ġakadem ischen
ĠKore a
ĠTrink wasser
H R
K anad
p Ã¤dagog
v ok
Ġd efinition
an kt
ĠB elle
ĠH MS
ĠR enten
ĠL ibr
re fer
ad os
ell ow
Ġst irbt
iv itÃ¤t
Ġent warf
gr at
ĠGr Ã¶ÃŁ
pf arr
Ġbes icht
Ġth ail
yn th
ystem e
irt y
riv e
mar ck
ĠNational rat
ĠDar unter
To String
Ġor igin
Ġper iod
Ġverw andt
ĠBel g
ĠGen uss
ĠStaats sekretÃ¤r
Ġstark er
ĠPlan ungen
ĠProduktion en
Content Type
Ġunbek annten
ĠHill s
ĠSof ia
greg ation
ĠKonzentr ation
Ġverteid igen
Ġnames pace
ĠGreif swald
ĠShang hai
çļ Ħ
/ -
B ischof
L ex
O FF
R ob
S ync
s i
t age
er it
ĠD um
ĠM A
ĠF ische
ĠF ren
de utet
ĠW att
ĠR af
ĠL ey
tr aining
Ġk ind
ger te
ĠÃ¼ber prÃ¼fen
ĠAb sicht
our en
br achte
ĠTeil ung
Ġen den
ĠGer Ã¤ten
ĠAd ams
ĠAug uste
schlieÃŁ t
45 3
SE SSION
wÃ¼r de
Ġexist s
Ġexist ierte
Ġabsolv iert
ĠFil iale
Hol z
Jo achim
ony me
Ġerl itt
ĠStoff e
ĠDÃ¶r fern
ĠJon athan
oir es
ĠSkulpt ur
ĠvergrÃ¶ÃŁ ert
EXCE PTION
D uration
G V
K T
Z ent
k raut
m atrix
p df
r um
u sten
al and
Ġw usste
Ġi ran
ĠW LAN
Ġer lernte
ing h
ing o
ĠO pf
Ġauf steigen
ĠZ iegen
ĠZ Ã¤hne
Ġver folgen
Ġnach zu
ru ption
Ġ" ]
Ġtr aum
ĠÃ ĩ
ust on
ia de
Sch wer
Er mittelt
>> >
Ġkurz fristig
Ġrech nen
Ġentfern ten
Th omas
spe zial
Ġverz ichtete
ĠPhilipp inen
ĠEmpf ang
Ġwohn en
ĠVerd acht
ĠKart off
ĠNeb el
Ġinnov ative
ĠDisziplin en
ĠBelast ung
Common Tree
D om
n ischer
r w
s amen
Ġd elta
Ġ( Â§
ĠP anz
Ġf il
ĠT il
ĠR ally
ĠL ippen
ĠL loyd
Ġver gangen
Ġr einen
schaft liche
Ġbe zahlt
ĠAl ois
Ġunter b
auf gefÃ¼hrt
ĠSe a
gesch Ã¤fte
Re q
set Value
schie bung
ĠBundes rat
ide en
ĠRech en
ĠHoch schulen
Ġgel Ã¶st
sw eg
EN CE
ĠGl anz
ĠSer ge
ĠPhil ippe
ĠEd itions
ĠGef Ã¼hle
ĠBel euchtung
ĠKar in
čĊ čĊĠĠĠ
Ġhinter en
ĠVertr etung
Ġ180 9
ĠTrans formation
ĠRein hold
Ġhe ad
Sport ler
ĠÃĸff nungs
Ġfinanz iell
Ġ179 1
merk ung
ĠlÃ¤nger en
Ġverd ient
Ġans Ã¤ssig
ĠSup port
sex tr
ĠSound track
ĠAns ichten
ĠQue ens
Pointer Exception
Alex ander
ĠMemor ial
W inter
f ast
h on
å ¤
Ġ ]
st el
st imm
Ġw olle
ĠB ridge
am as
Ġn eb
ĠF lo
ĠP Ã¤dagog
ĠT omm
ĠV amp
ent wurf
ĠC onn
Ġl at
Ġl okal
ĠIn fo
par ser
br em
Ã¤nd ische
ĠDe cke
ĠTh om
sb ibliothek
Ġgesch ah
ĠPf eil
rech ten
Ġlang jÃ¤hrige
ĠBÃ¼rger krieg
verband s
Ġerfolgreich er
ĠKor ps
ĠPsych o
Ġwissenschaft lich
ĠModer nis
NO DE
ĠBig Integer
Ġqualifiz ieren
ifferent ial
a ÃŁen
y al
el o
ĠM essen
Ġf ot
Ġau ton
ĠW ord
ĠR id
ĠR aff
ĠR ugby
ro u
ĠN OT
ĠC anad
ul ierte
ĠO hren
ĠIn it
ew ork
Ã¼n n
ĠSie gel
Ġab gew
Ġab weichen
lo he
ick el
18 61
ĠKon zepte
set Name
geben den
gemein schaften
such en
ĠCon serv
ĠBest ehen
ĠStand orten
fr em
bet rag
Ġabge halten
ĠTem po
Ġrel ation
Ġ180 5
ĠTage buch
lowak ische
rug uay
Ġ179 2
Ins n
Ġarch itekt
ĠHub raum
ĠAnim ation
ĠgÃ¼lt igen
ĠForder ung
COL UMN
Ġfu hren
Ġgere gelt
B uff
D M
F ast
G TH
b og
h ers
k Ã¤mpfen
m ungs
v gl
en ger
te ams
ĠB amb
ik ers
kt op
Ġst orage
ĠEr leb
Ġzur zeit
Ġvor erst
Ġvor geschrieben
anz ahl
ĠBe vor
fl Ã¼ss
fl ush
lag ert
Pro vinz
Ġange griffen
ĠLu kas
Ġho hes
Ġwill st
rÃ¤n kte
ĠRuss ell
ĠVerl uste
Ġung arischer
ĠAf rik
ĠBor ussia
Ġ179 4
Ġetabl iert
ĠGefangen schaft
ĠEC B
Ġbehaup tet
Ġbefest igt
QUE ST
wÃ¶r ter
) ",
B inding
B inary
M y
v et
ie in
es is
ĠS inger
Ã¤ uÃŁ
ĠB Ã¤ren
em on
Ġn ad
Ġn Ã¼tz
ĠG Ã¤n
ĠL utz
ĠI ce
ĠN as
ir l
Ġg lobal
ĠO den
Ġr hein
Ġr ender
ĠAn l
Ġsch Ã¤tz
iz able
pe z
br ett
br ingung
net te
10 1
Ġseit lich
ĠFilm fest
Ã¤u er
ĠJan eiro
Ġverschieden sten
ĠVers icherung
ategor ien
Ġbede utete
ĠProjekt es
Ġmin im
ĠCas par
bef est
ĠGÃ¼ter s
Ġident ifiziert
Ġanzu zeigen
ĠMÃ¤r t
Ġetabl ieren
Stat istik
Declar ation
ĠPoliz isten
swissenschaft ler
ĠVorles ungen
ĠCott bus
ĠMagaz ine
inherit Doc
D Ã¤n
G i
T asks
f la
k alender
p osten
È Ľ
å Ī
Ġd rit
ĠS ag
Ã¤ he
ĠB Ã©
ĠB ienen
ĠB attle
ĠK ings
ĠG aler
ĠR ates
tr am
and emie
eit h
Ġk rie
Ġan al
Ġg ast
ist ic
ĠSch mitt
Ġver legte
ĠVer anstalter
ed o
get Next
ass ert
aus strahlung
ĠAr sen
Ġum gest
Ġvor l
ĠGr em
av el
ĠCh at
Al low
ĠBl itz
ĠTr ik
ĠInd ones
ps is
ĠfÃ¼n fte
ĠEd mund
ĠSommer spielen
Ġschn eiden
ĠMarkt platz
fest e
CT OR
Ġerk annte
Ġsc ale
fÃ¤h igen
Min uten
ĠPan el
ĠprÃ¤sent ierte
ĠjÃ¼d ischer
ĠMensch heit
Fol gende
Italien er
Ġheader s
ĠBeob achtung
ĠBem Ã¼hungen
Ġrenov iert
ArchÃ¤ ologischer
ĠAusgrab ungen
ĠLegisl atur
bÃ¶r se
> ");
G alerie
K B
P reistrÃ¤ger
c d
f achen
g it
j urist
k amer
or p
Ġs i
ĠA PI
ĠD all
Ġein her
Ġn eeded
ĠK ell
ĠK ick
ĠK alten
ĠK atze
ĠT uch
ĠL Ã¼b
tr uf
um i
ĠC ord
rei z
ĠSch la
Ġp ossible
sp rÃ¤sidenten
ĠIn zwischen
Ġst immt
Ġst eckt
Ġun zÃ¤hl
ap plication
Ã¼ber tragung
ĠÃ¼ber nahmen
ĠAus wertung
amm e
Type Name
ĠUnter seite
ĠBau meister
Ġges ungen
Ġbeg inn
Ġange wiesen
Ġbesch leun
ĠFr isch
Ġbew ohnt
ĠIs a
ĠStand orte
ĠPer iode
igit te
>> ()
Ġdah inter
ĠKat astral
ĠMath ematic
ĠHom o
ĠTri umph
ĠKreuz es
(( (
Ġtrans form
verwalt ungs
Ġargument s
fil men
durch schnitt
ĠGespr Ã¤che
Ġgesetz liche
ĠLokomot ive
ĠJesu iten
Jose f
ĠNicol as
Ġgros sen
ĠMeld ung
MESS AGE
ĠMittele uropa
B ro
W alter
Z eitung
d icht
g ymnasium
y y
st isch
st hal
ĠA pfel
ĠK Ã¤ufer
ĠK Ã¤mpfe
ĠP aw
ĠP reistrÃ¤ger
Ġf Ã¤l
ĠR asse
Ġt s
Ġver schie
Ġp otent
ĠEr ben
ĠEr reichen
ĠEr hÃ¶hung
get User
Ġj ugend
urg ie
ne z
18 64
ĠMar ino
ĠRe zeption
ĠKon figuration
ym ph
Ã¼nd lich
iss ionen
app ed
Ġ12 8
ĠMon ster
ĠRei ÃŁ
con sin
ĠPol ar
gramm arAccess
utt a
ĠKan ten
ĠGu ard
ĠTor ped
alle e
Ġad ded
Up load
ĠSant iago
Ges amt
Ġmass iv
ĠGeschlech ter
Pers istence
ĠRestaur ierung
Ġkompon ierte
ĠAlber to
Lou is
Ġbesieg te
ĠBEL Script
D ann
L Ã¤ufer
M ask
V iel
h ib
j agd
v om
Ġd isplay
ar ien
Ġw endet
el mann
ĠG uer
ĠE uler
Ġf amil
ĠH amp
ĠH ugh
ĠT enden
ĠL us
ĠL ars
ĠV ariable
ier i
ĠN au
ab y
ad resse
ĠSch aum
ĠPro gress
18 57
ĠMar shall
ĠRe ck
ĠFl ut
iss a
ĠÃľber lieferung
gew inner
ĠHÃ¶ hlen
ĠIt al
lÃ¤nd isch
Ġfl achen
ĠWieder auf
Ġkosten losen
ox id
Ġempf ing
Ġjeden falls
ĠjÃ¤hr lichen
the orie
ĠPlay er
ĠDigit alisierung
ĠOri ental
ĠHauptr ollen
Ġsport lichen
Mont h
ĠExtr em
ĠGab riele
beteil igung
getAbsolute Path
A uÃŁen
B ass
C oll
g riech
h ub
i u
m asse
Ġ Ã¤ndert
ĠĠĠĠĠĠĠĠ ĠĠ
Ġein ver
ĠG eister
ĠG host
ĠT ee
ĠR aub
ach richt
re den
ĠV W
Ġzu zu
Ġp arts
Ġst raf
Ġr ational
ben e
op ro
Ġdurch fÃ¼hren
Ġ" "
Ġre volution
rau ÃŁen
av ed
fl Ã¶te
sk Ã¡
ĠDe port
eth yl
Ġbeg ab
Un known
sb esch
schieden e
ĠLu ise
ĠEurop Ã¤
ĠKr ampf
To ol
Ġmus lim
ĠKar ib
ipp i
Ġaufge f
ĠSil v
ĠGesellschaft s
Ġfl Ã¼ch
ranken haus
ĠDam als
Ġelektr onischen
ĠHeraus gegeben
ĠPe ople
ĠWall er
Ġpassen d
Ð½ Ð¸
ĠSend ungen
ĠSpann ungs
jen ige
Ġschlech te
ĠByte Buffer
Ġliter arischen
ĠChallen ge
ĠDepart ment
ĠMyth ologie
ĀĀĀĀĀĀĀĀ ĀĀĀĀĀĀĀĀ
Ã¤nk ischen
Ġbedro ht
Leichtathlet ik
S achsen
b Ã¼r
l ate
p ul
ie hlt
Ġs ite
Ġein genommen
ĠF ind
ĠP fe
ĠT auch
om i
Ġge fordert
Ġver eint
ver folgung
Ġun weit
Ġj enseits
Ex press
ĠAb fall
18 15
ĠAuf trÃ¤ge
ĠMar mor
rÃ¤ ge
Ġet liche
ĠPl ate
fÃ¼hr ungs
amen ten
ĠSchw aben
ĠGer echt
man gel
ĠGra ham
Ġbel ast
ĠDar auf
tent wicklung
ĠCl ara
Bei spiel
ĠMe teor
Ġkurz em
Ġne useel
ĠPal Ã¤
ĠÐ ¿
ĠHerzog s
ĠOs man
ĠWh it
loc ale
Ġhal f
ĠgÃ¼nst iger
Ġgebild eten
Ġdre hte
ĠStift ungs
wander er
PO ST
Tim er
ĠAnz eigen
ĠJed es
Krit iken
ĠHalte punkt
ĠGÃ¶t ter
ĠRail way
Ġverabschied et
ĠEdin burgh
A A
F il
J S
T ro
V C
b om
l Ã¶sungen
t Ã¼rk
} -
ĠS B
ĠS ucht
Ġs en
as List
Ġm a
ĠF aktor
ĠG R
Ġf usion
ĠH arn
ĠT ell
âĢ ¯
Ġt ab
ĠZ ag
ĠZ isterzienser
Ġc ached
Ġsch me
lo ader
av y
oc o
ĠSe eb
ĠGeb irgs
Ġen tries
ĠGer ichte
Sie ben
oph ys
LA Y
ĠKirchen schiff
ĠWar te
Not Empty
produ ktionen
Ġleben d
ĠTa sten
ĠWel ten
Her mann
ĠNachbar schaft
ĠFÃ¼rst entum
ĠCre w
Ġinn eh
Ġbelg ischer
ĠzeitgenÃ¶ss ischen
gelegen en
rein igung
Ġschmal en
Sta ats
ĠMÃ¶nchen gladbach
ĠBuen os
ĠLiver pool
H it
J ac
M or
M eine
O ther
O bjekte
f ungen
g rid
h mer
p okal
un it
st al
ĠS co
it Ã¤r
Ġm ache
Ġf Ã¶rdert
Ġal b
eb el
ot in
end eten
end igung
ub s
ĠÃ¼ber lassen
ĠEin wei
ru h
od ore
Ġunter zeichnete
enn etz
Ġent z
ia c
18 65
of ft
Ġweiter entwick
Ġgegen einander
ac a
Im port
Ġange wendet
ĠEl ite
ĠSh o
ĠEm ma
erg ie
Ġsol ches
ĠRef le
wÃ¼r fen
met all
aj or
Ġfr ucht
ĠEhren mitglied
Start seite
Ġservice Name
Ġbean trag
klei d
hau ser
Ġreligi Ã¶se
ĠBade zimmer
Ġchem ischen
Ġpubliz ierte
ĠPie tro
ĠRet ro
ĠBeschÃ¤ft igung
ĠGebiets reform
Ġstren g
ĠKonserv atorium
Pack et
ĠMig uel
ĠRober ts
Ġvorder en
B L
W icht
W egen
f ro
g able
p attern
w ik
å Ń
Ġ orthodox
ie ÃŁer
ĠS ten
ge mÃ¤
Ġs yr
ĠM S
ĠM ost
Ġm ill
ĠF az
ĠP om
ĠP for
is Log
ĠT et
ĠR end
ĠL P
Ġ2 30
ĠC it
Ġl ob
ic er
Ġ} ,
ap per
Ġsch einen
ĠAl m
ue z
pr ise
ĠMar ÃŃa
ĠRe pert
ĠBe zeichnungen
ĠSe ver
Pro blem
fe der
Ġsel f
Ġsel ekt
Ġkl icken
inder ung
ĠPar ag
ĠFor est
ied ler
ĠHaupt sitz
ID s
ĠPol yn
pp chen
ĠSil ver
ĠWill y
aur us
Ġinteress ieren
ĠbenÃ¶t igten
ĠÃ¤uÃŁ erte
museum s
Ġerforder t
Ġpart ition
ĠVan couver
Gew Ã¤sser
ĠZul etzt
typ es
Stru cture
ĠSchaff ung
Hil fs
ĠLÃ¶s ungs
ĠEnzykl opÃ¤die
ĠMagd alen
A cc
D N
E DEFAULT
N am
P ublic
P seud
} ;
Ġ æ
in tern
Ġd ownload
on de
sch ritte
or iginal
Ġund er
Ġm atrix
ol et
ter ung
ĠW etz
ĠL ediglich
ĠV eter
ĠJ r
ĠC z
Ġal lt
ĠSch affen
sen den
eh ouse
ot ische
os o
schaft lichen
ĠÃ¼ber leben
ĠSp rech
Die ter
tem plate
lei den
ĠKon g
ĠBau arbeiten
ener gie
ek und
ĠLandes hauptstadt
Ġern euten
ĠAt tent
ĠBew ertungen
LE T
Ġem pir
FuÃŁball torhÃ¼ter
ĠAp oll
ĠKÃ¼nstler s
ĠBesitz ungen
ĠCom ics
ĠBruder s
ĠMel odie
ĠSon y
ĠEmpf Ã¤nger
Ġeinzig artige
ĠLit auen
ĠMittler weile
Lei pzig
ĠMosk auer
R ichter
W ol
Ġd ialog
ge kommen
ĠA rizona
Ġin formation
ĠK Ã¤fer
ĠG ulden
Ġf ur
is es
ĠT otal
ber eiten
ĠI ss
om y
ent scheid
Ġge form
Ġg eile
Ġt ile
Ġl isten
Ġp our
ĠIn stand
Ġsich eren
end t
uf akt
Ġvor zeitig
Ġvor nehmlich
gr unde
up s
ef eld
ĠAb zug
ĠAb teilungen
av i
ĠRe vol
ĠVor fahren
ĠBau denkmÃ¤ler
ĠCo ast
Or gel
ĠMusik pÃ¤dagoge
ffiz ient
geord nete
ĠProgramm s
ĠAir lines
Ġkehr t
ĠHÃ¶r funk
ĠKenn zeichen
Ġstattf indet
ĠVerm ess
ĠTisch tennis
Ġtschech ischen
ĠHT TP
ĠSozi ologie
ĠFreiwill igen
Clau se
PrÃ¼ ft
Ot to
ĠStrals und
S ender
b ayer
d n
j in
t itle
un us
sch ichten
Ġder art
Ġw ay
ĠD A
ĠT rÃ¼
ĠL ap
ĠN elson
ĠC ec
Ġge ehrt
Ġge handelt
Ġan g
ĠO range
Ġp or
Ġp fl
Ġaus gelÃ¶st
ĠSp eise
ru ine
18 68
Con s
olog isches
ober haupt
Ġwo hin
ID E
Ġlang jÃ¤hrigen
IT H
Ġhinter lassen
ĠEnerg y
aj ew
Ãľber setzer
Ã¶pf en
ĠGerman istik
ĠHard ware
ĠTurn er
Ġmag net
ĠEngl ischen
ĠKub a
ĠÃľb ungen
ĠAuft akt
. '
A CT
P K
S plit
X A
h all
i ang
j av
p n
s Ã¤tz
Ð ¿
st ums
an alyt
it ischen
ĠA ach
ĠK olumbien
ĠE ffekte
Ġf ilename
ĠW eine
ĠW irt
ĠT rust
ĠL ov
ĠV ia
ĠSch eiben
Ġver sp
ĠSt anis
ĠSt irn
ah ler
ĠVer fahrens
ap fen
end ung
ers atz
ĠGr ube
ĠAb riss
18 40
ĠFrei berg
ĠGew Ã¤hr
olum e
ĠAk ku
Ab kÃ¼rzung
ĠGel ieb
ĠDre ieck
iqu id
med ien
Se q
Ġrecht zeitig
Part ner
mel de
RA Y
ĠKolon ien
Ġkonzentr ierte
ĠSchmer zen
ĠSpl it
ĠJahrhund erten
ĠMunicip io
ĠPac ific
ĠErwart ungen
clus ive
maur er
, "
1 19
C ard
F er
J eder
h end
w oche
z ew
st unde
Ã¼ ster
ĠA uer
ĠM AX
gen der
ĠR asch
ĠN em
ĠN ULL
Ġver teilen
ĠEr laubnis
Ġwir ft
Ġbe z
ĠEn ter
pl ates
ĠVor gÃ¤nge
fl ikt
Ġgew achsen
los es
An n
ĠTh em
Ġgesch ehen
Ġgesch nitten
ĠEl b
Ġ' ,
ĠCon troller
ĠWerk zeuge
ĠLandes amt
Ġkon vention
PD efinition
uk a
ĠZahl reiche
ĠRot ter
ĠTo ul
ĠRein igung
ĠSon st
Ġsonst igen
ĠStaff eln
ĠFund ament
ĠbestÃ¤t igen
Rad io
Ġbelieb ten
ĠWissen s
Ġdre ht
ĠTime Unit
ĠFrem den
ĠdÃ¼n n
oler anz
ĠStan ley
Einwohner entwicklung
ĠRup recht
kle ber
adÃ© mie
. ]
= >
F inanz
I FC
L L
d omain
u alisierung
Ġ ),
Ġ ensure
st rÃ¤
an dete
Ġw ild
ĠD eich
ĠD atein
Ġin voke
ĠP on
ĠSch ieds
Ġver tritt
ĠSt abilitÃ¤t
eh in
im iter
Ġsch mer
ĠEin flÃ¼sse
iz ing
ĠAus kunft
St aat
(" -
Ã¼t zer
ĠKl arin
Ġsel ected
16 0
yp ern
ke a
ĠCo up
mittel te
ĠSÃ¼d seite
fra gt
bet riebe
ĠTer mine
ĠwÃ¼r d
Ġhistor y
Ġmoder nis
bes uch
Ġregel mÃ¤ÃŁige
ĠEnd spiel
anger s
Comp osite
ĠHan au
ĠBal ken
jo in
Ġdunk le
IG N
Ġreduz ieren
ĠKra kau
Qualif ikation
******** ********
Ġabw echslungs
ĠRav ens
ĠBakter ien
G rid
K loster
M os
W ait
b eb
on ischer
al ar
ĠM auern
ĠK lem
ĠF M
de kor
ĠP aten
ĠP alermo
le uten
ĠH is
ĠH ydro
ĠT ang
ĠC ato
Ġmit t
ĠO bjekten
get Height
Ġsch ar
ĠEin es
iz id
pe ct
Ċĉĉ ĠĠĠ
St amp
Ġgegen seitig
ong o
Ġres erv
dent um
Ch arts
ĠHaupt straÃŁe
Ġgel assen
Ġfest stellen
ograf ien
Ġkomm e
Ġlang uage
ĠSal on
ĠMich ail
ĠGeorg ia
ĠDienst leistungs
ĠGeh alt
next PageLink
Um welt
ĠDenn is
Ġbegr enz
Ġbekannte ste
Ġstammen den
programm e
zur Ã¼ck
polit ischen
ĠKanz ler
Ġkomplex e
Ġnorweg ischer
ischÃ¶ f
agnost ik
mach ung
Zentr um
ĠlÃ¤nd lichen
ĠIntelligen z
Schwe den
volum en
Ġschein bar
Maximilian s
D etail
L icht
U ST
l Ã¶s
t licher
w Ã¤sche
ein igt
ĠA fter
ĠB arry
Ġ1 19
ĠĠĠĠĠĠĠĠ ĠĠĠĠĠ
ĠE leg
ĠP utz
ĠW iel
Ġer teilt
ĠN ort
ĠN ash
ĠJ immy
ĠZ ucht
ic ator
ĠIn halten
esch t
ungs zeit
lie ss
Ġre par
Ex ists
Ġthe y
ens or
ĠUnter brech
ĠTh ese
ĠUm benennung
Sch m
Ġen vironment
lau tern
ĠMen Ã¼
ĠMon itor
ĠPlatz ierung
ĠSh ir
ogen e
ĠFol genden
ĠDar aus
ep pen
fra g
fra ktion
ĠBel ieb
Ġfrei gegeben
Ġreg istry
ĠArbeits gemeinschaft
ĠAlter tum
ĠChe fredakteur
ĠTab ak
ĠFort una
Ġzeit gleich
Ġclass es
Ġwirtschaft lich
umer ation
ĠState ment
ska ja
ĠDet roit
Halb finale
ĠSto ÃŁ
ĠWitten berg
Ġentstamm te
ĠSerb ien
zoll ern
A gg
G l
P ad
b eln
h us
n ommen
z ischen
Î º
Ġ arr
st ich
ĠK em
ĠK ut
ĠG riech
ĠP Ã¤dagogik
Ġf icken
ĠR ico
Ġk alt
Ġt wo
ĠSt orm
ah a
Ġun regel
ĠAn c
her ine
pr inzip
Ġ4 000
ĠLand graf
Ġzwei geschoss
ĠIm port
Ġbest attet
ĠZeit ungs
Ġde vice
stan ten
wer der
to ine
stand es
vor schriften
war te
unde te
ĠFrie der
---- --
buch t
ĠHo he
alis ierten
achte ten
Ġerw achsen
ĠBas eball
ĠBi ber
ĠEnerg ien
ĠschÃ¶n er
ĠSchÃ¶n e
Ġbedeuten der
ĠSm all
aktiv itÃ¤t
Ġpass ieren
po ints
ĠIngen ie
ĠAlexand ria
ĠReaktion en
Fran ce
Meister schaft
Ġhervorra gend
minist ers
ĠTrieb wagen
seg ment
Ġverste ckt
ĠHong kong
ĠDial ekt
Ã¤pst lichen
ĠSinf onie
ĠSenec io
o tel
p rakt
Â ½
st iegen
ĠS eh
Ġein stellen
Ġz z
Ġf etch
tr eiben
ent ial
Ġan sehen
Ġr ichten
ĠEr fÃ¼llung
ĠAb bruch
ay r
ĠVor kommen
sk rise
lag ern
ac ters
ĠKir cht
IN IT
gew Ã¤sser
ĠFrank lin
ĠFest land
Ġem erit
Ġfl Ã¼ss
ĠEt appen
Ġfile Name
Ġbas ierend
ĠbenÃ¶t igte
ĠFund platz
Ġide en
ĠGot th
PAR AM
krit ik
ĠKathol ische
Ġdist ance
ĠÃ¼ brig
ĠIllustr ationen
ĠSchreib weise
ĠKohlen stoff
Ġhoff e
ĠOutput Stream
ĠBaumw olle
LEN GTH
D ot
I AL
J etzt
K r
M T
M AN
V ors
d og
o ine
r d
r ong
Ġ Ø
Ġ ul
es ie
ĠS R
ĠS ap
ĠS orten
au gen
Ġw Ã¤r
Ġv iert
ĠM ort
Ġm g
Ġz eu
ĠK rau
ĠF onds
ĠG ig
ĠT ot
ĠR ied
ir s
ag ten
Ġc ap
Ġc enter
Ã¼n ster
ĠSp azier
geb rauch
18 49
rÃ¤ te
Ġander n
ĠFran co
gesch ritten
eigen schaften
ĠQu Ã©bec
ĠSte ven
dent ial
ĠVerein barung
ST RA
ĠRad sport
ĠsÃ¼d kore
ĠSk ispr
cl uster
Film e
spro blem
ĠRuss lands
ĠPass wort
preis es
beg in
Ġperfe kten
ĠSat urn
ĠGlÃ¼ck s
,, ,,
ĠGericht shof
Auth entication
pack t
tro ffen
Ġmatch es
VerÃ¶ffentlich t
Ġetabl ierte
ĠViol ine
wÃ¤l der
Ġkonzentr iert
Ġlandwirtschaft liche
Ġtau cht
ĠMargar et
frÃ¼ her
varian ten
ĠBetroffen en
ĠÃ¶st liche
H alle
R untime
z d
z onen
å ®
st ack
ei bt
ĠS ams
te ch
at um
ĠA M
ĠA ser
ĠD raft
is c
ĠH ud
Ġer inner
ig raph
ĠN DR
Ġk rank
ra h
kt akul
Ġr unden
Ġwar tet
get In
ĠBe endigung
fl ossen
sk omm
Ġ17 80
Ã¼nd ungen
kl am
ĠBo eing
ĠChr omos
ha elt
ĠKunst verein
ĠKr onen
kon trolle
Co okie
ĠBel eg
ĠPat ron
ĠKreis stadt
ĠHeil ig
ĠWolf sburg
Sc ore
ĠEp ileps
Ġbevor zug
ĠBot aniker
ĠGar den
MP TY
ĠÃ¤lter er
betrieb s
ĠMiss ions
ĠPublik ation
spekt ive
Ed itor
Ġed ge
ĠGran it
ĠRosen berg
ĠKrÃ¤ uter
ĠHaft ung
ĠMount ains
Ġvis it
Ġko oper
ĠLot hringen
Ġnam entlich
International e
ĠTerritor ium
ĠBatter ie
ĠPoten z
strate gie
ĠArzn eim
sbes itzer
ĠWeih bischof
S u
W eil
b Ã¼ttel
g attung
en code
ĠB ark
ĠB GB
Ġi llustr
ĠE hre
is ions
ing st
Ġan statt
ĠO P
Ġzu fÃ¤llig
Ġt ausend
ad et
iv ien
Ġsch lich
ĠPro be
stell ter
18 63
ĠVor wort
th iop
ĠUnter gang
ac c
wa der
Ġkl ingt
ĠRo ut
ĠBundes kanz
ĠEl len
ĠArt ikeln
Ġimmer hin
ĠgrÃ¶ÃŁ ter
Ġern eute
ĠÃĦ uÃŁer
ffiz ienten
ĠGener als
Ġur aufgefÃ¼hrt
Mar athon
ĠIs lands
ĠBew ohnern
Ã¶t z
ĠMod ellen
LE TE
For schung
ĠGu ido
ĠAss istenz
Ġrel ative
Se ction
sl eitung
ĠPet ra
Pol en
Sec ond
Ġwert volle
Team s
Ġorient iert
ĠLaw rence
Ġsup ported
ĠAtlant ik
Ġdist anz
Ġproblem los
replace All
ĠVerwand ten
Ġporn o
ĠKonstantin opel
ĠVerk Ã¤ufer
varian te
ĠVerpflicht ung
ĠImplement ierung
B enz
B AD
D ATE
Y ear
a art
f ire
m un
n ÃŃ
z eile
z eilen
ĠS ource
ar ies
Ġb ud
ĠD ave
ĠK ass
ĠG und
ĠG iebel
Ġf lei
is or
ĠV u
ĠN ike
ĠN iem
ĠC och
eit ig
Ġauf ger
eg ation
Ġc oll
qu enzen
Ġunter s
ĠAuf zeichnungen
(" %
ĠKon figur
rÃ¼ der
An gle
ĠUnter haus
ĠKl Ã¶ster
ĠGe o
Al bert
Ġcon structor
ĠMan gel
ĠMod us
ekt ar
mod us
best immung
Ġad apter
ĠStu art
ĠStern bild
ays ia
word s
ĠBesonder heiten
Ġherr scht
Ġaustral ische
Ġlatein ischen
ĠRiesen slalom
Ġfreiwill ig
Ġisrael ischen
Fra ktion
ĠReichstag s
ĠColor ado
HÃ¶r spiel
ĠRober to
ĠAlf ons
ĠJord an
STAT US
ĠErzbist um
ĠPrec onditions
ĠNotwend igkeit
G rad
Z eichen
f it
l ime
m oder
y les
Â ·
sch Ã¤tzung
und eten
ĠA mal
ĠD ing
ĠM aul
ĠM eier
âĢ º
ro v
se hr
ĠC lin
rei fe
Ġzu grunde
ĠAn stieg
ĠUn supported
od ont
aus gaben
pe te
gel b
Ġunter halten
geb unden
Ġre d
ĠOr n
ĠCh irurgie
oc a
Ġbest ens
ĠSe kunde
Ġ17 50
Ã¶l n
gend orf
Ġ10 4
ĠAut hor
ĠRech ner
stÃ¤nd iges
stit ute
Sp an
ĠHÃ¶ hle
Ġqu ant
OR DER
ĠLin ke
ĠSohn es
ĠErz Ã¤hler
last IndexOf
ĠZentr ale
CO MM
gegen stÃ¤nde
ĠAc c
ĠAc count
Ġby zant
Table Name
Her ren
Ġcom pare
ĠKop ie
ĠgrÃ¼n e
ĠgrÃ¼n den
ĠOrganis ations
ĠMarien kirche
Mot oren
ĠEss ay
Ġlocal Var
Ġnutz ten
Ġfal sche
ĠDomin ik
inten do
Dan ach
ĠAnwesen heit
Dep recated
ĠSid ney
ĠGon z
âĪ Ĵ
I K
s cri
t ps
Ġw eichen
ĠB rÃ¤
ĠD anzig
ĠD ictionary
Ġin valid
am an
Ġm ater
Ġm essen
ĠF Ã¼ÃŁe
ĠG y
ĠH ak
ĠL ingu
tr itte
ĠJ ay
ĠC omponent
Ġst eigern
etz ter
ungs ort
Ġdurch zufÃ¼hren
ĠGr unde
ĠAb w
18 36
ard t
of er
ĠCh ore
vers uche
fl Ã¤ch
ĠSe attle
dem ar
geben e
wer tet
werk es
ĠÃľber setzungen
Par is
Ã¤lt igen
ĠNov a
ĠX ml
Ġkon krete
ĠNatur park
ĠBerg mann
ĠBern er
Ã¨ res
ĠAmer ikaner
ĠDom ain
euch te
ĠMer c
ĠFel dern
Br Ã¼cke
ĠDesign s
Comp lete
emb les
Produ kte
Arch itekt
ĠNav igation
Frank furt
ĠHandball spieler
ĠgÃ¼lt ig
Term inal
Ġruh ig
ĠSynchron sprecher
Ã©g iment
gÃ¤ng ig
ĠBekann theit
Ġneb st
C ity
K as
K ult
L ib
Z w
c onn
c amp
f acht
o ÃŁ
p raxis
q Path
Ġ reisen
ĠS kir
ĠM ine
Ġm essages
ĠK han
ĠR ache
ĠL E
ut able
re cken
ĠN Ã¤hr
ĠN adel
lich ung
Ġk enn
ĠSp anier
ĠUn entschieden
Ġum welt
ĠEn th
ste ckt
Ġre place
pf leger
ĠCh art
ĠVor ort
Ġlie bt
zeit liche
Ġbes aÃŁen
Un ique
ĠZw Ã¶l
ilit ies
ĠMod ule
Ġho ffen
Ġ[ "
Ġwicht iges
iver se
stre ck
bereich s
US ER
kr ise
Ġhinter lieÃŁ
ĠDruck erei
Ġwenig stens
Ġfre ut
Ã¶pf er
Ġverein igt
Rad sport
Ġhal be
ĠFak ten
ĠAngriff e
ites pace
Ġac cept
Ġsup port
ĠnÃ¶t igen
ĠKost Ã¼m
Hom epage
schmer zen
ĠManh attan
F Ã¼hr
F ixed
N ik
m uth
s sen
Ġd achte
au cher
or r
ĠB ie
ĠH K
ĠT iger
ber ufen
se parator
ĠC old
Ġge strichen
ul us
ĠZ wick
ĠSt ack
if ec
ill s
18 50
len den
az y
Er folg
ĠPh ill
bo y
ĠPf le
bl as
arch y
Tra ck
ĠSc ient
bei trag
hÃ¶ fen
schein end
ĠEigen tums
spro du
ĠNo tre
ĠFernseh sender
Ġbed ienen
ĠOrtsteil en
Ġabsolv ieren
Ġorganis ieren
aktiv itÃ¤ten
Definition s
Ġcomm ent
leit ungs
Polit ische
Ġumfassen d
Http Request
Ġdre hen
Ġter m
ĠGru ben
ĠAllt ags
ĠSaar land
ĠBeam ter
OB JECT
ĠHey ne
ĠHenn ing
mess ung
isi Ã³n
ĠMoz art
Frag ment
ĠallmÃ¤ hlich
D river
E vangel
F ig
R a
g ro
Ã µ
Ã¤ ften
ĠF j
ol on
ĠW Ã¶l
ĠT ipp
ĠL amb
ĠL Ã¤ufer
ĠI an
Ġ2 40
Ġt okens
Ġver weist
Ġl ike
ĠSt Ã¶r
Ġent schloss
18 56
ĠMar okko
ĠZeit alter
olog na
ym ne
fer enzen
Ver lauf
Ġ13 00
reu zt
bl ut
reg iment
lig ht
ĠTitel n
Config ur
Ġinter val
ĠCl ar
ĠBesch werden
ĠTer minal
ĠAp plication
Em pf
ĠErst mals
Ġdo i
Ġgefunden en
Ġerk ran
ĠStad ium
Ġgemeins ames
ĠRob oter
Ġkomp eten
Ġbeein trÃ¤cht
ĠMess ages
ĠBrÃ¼ dern
Ġentscheiden de
ĠOffiz iere
ba idsch
Ġvergleich en
ĠJob s
ĠEg al
tor wart
ĠEngl ish
ĠLeopold ina
ĠKanz lei
ĠBeteil igten
MO DE
ĠBevÃ¶lkerungs dichte
Johann es
Ġlandwirtschaft lichen
ĠDub lin
Ġstill gelegt
ĠNull PointerException
ĠGÃ¶t z
Ġmer ge
genossen schaft
ĠVf L
Ġkirch lichen
ĠHung er
Ġexper imentel
fuckfuckfuckfuck fuckfuckfuckfuck
ĠPrinc eton
ĠSkla ven
0 80
? ,
C odes
G ed
n ote
w uch
Ġ ten
ĠS aur
ĠS urf
sch alter
at ible
Ġder er
ĠB le
Ġb ibl
ĠK ei
ĠK Ã¤se
ol y
ĠG amb
ĠW i
ĠR og
tr akt
ig rant
ro se
ed back
eu tet
get Context
urch t
ĠAl th
Ġum gehend
gel der
Ġre den
ĠDer zeit
ĠVor schlÃ¤ge
los ing
schen de
stan te
zahl ungen
ĠFÃ¼r th
ĠMenschen rechte
ĠÃĦ sthet
ĠSchul jahr
legen heit
Ġgemein t
Co ver
jÃ¤hr iges
ĠRu inen
SE D
As String
Comm it
ĠHum or
Ġkor rig
cr ement
ĠKos met
LI ST
Rechts anwalt
Qualif ied
ĠContent Type
GEN ER
ifec ycle
E Object
f ession
Ġd omain
on so
ĠS no
or is
Ġs lowakischen
ĠD ichtung
ĠM ater
ĠM ehl
Ġein geteilt
Ġein gesetzten
Ġn et
ĠK alt
ĠK emp
ĠG rant
ĠE cken
Ġf rÃ¤nk
ĠC ow
Ġk B
ul u
ĠU do
ĠâĢ ĺ
ĠIn vent
ĠAl ab
ak el
Ġtr eu
[...]
