#version: 0.2 - Trained by `huggingface/tokenizers`
e r
e n
Ġ Ġ
i n
c h
Ġ d
Ġ a
e s
o n
u n
i s
ĠĠ ĠĠ
Ġ t
i t
a n
i e
Ġ s
o r
a t
Ġ w
r e
a r
a l
t e
Ġ S
h e
Ġ b
u r
l e
g e
a s
Ġ f
i ch
Ġ in
Ġ e
un d
Ġ m
u s
Ã ¼
Ġ A
Ġd er
Ġ v
in g
Ġ B
e l
Ġa n
Ġ o
i l
Ġ und
s t
Ã ¤
i on
r o
Ġt he
Ġ n
Ġ M
Ġ D
d e
Ġ p
t er
Ġ c
Ġ 1
un g
i g
Ġ h
Ġ (
en t
a m
o l
u t
Ġ P
Ġ T
Ġe in
i m
Ġ F
o m
Ġd ie
Ġ G
Ġ E
i c
ĠĠĠĠ ĠĠĠĠ
â Ģ
Ġ K
Ġ I
Ġ z
e t
r a
s ch
e d
Ġ H
Ġ W
e m
Ġan d
t en
ĠĠ Ġ
h r
Ġ L
Ġ R
Ġ g
Ġt o
u m
Ġo f
d er
Ġb e
u f
Ġ C
is t
is ch
b er
i r
Ġ l
Ã ¶
an d
e it
a ch
Ġ 2
u l
Ġt h
d en
Ġ N
Ġ er
Ġ V
c k
i er
Ġ k
e in
Ġ J
Ġa l
Ġv on
Ġ1 9
l ich
o t
i v
a b
Ġ re
at ion
i f
Ġd en
c t
Ġ ge
g en
er s
Ã¼ r
ĠS t
es t
Ġ im
a d
Ġd es
o w
c e
o s
u ch
Ċ ĠĠĠĠĠĠĠĠ
Ġ O
Ġm it
i k
Ġ2 0
ĠĠĠĠ ĠĠĠ
es s
Ġ y
an n
l a
Ġs t
as s
Ã Ł
i es
i d
Ġ U
) ;
al l
Ġf or
Ġ âĢ
v er
Ġ is
k t
Ġa uf
o u
t s
Ġz u
Ġ Z
ie l
p p
t h
Ġv er
ĠI n
b en
ĠS ch
w e
Ġ ist
i en
Ġ on
a f
a h
Ġf Ã¼r
a y
Ġd as
ich t
Ġn e
l l
n e
Ġ r
Ġd em
o p
it h
Ċ ĠĠĠĠĠĠĠ
Ġ un
o ur
Ġal s
a g
er e
isch en
Ġw ur
a u
at e
Ġ =
Ġ {
in d
a hr
o d
o g
s te
Ġa us
or t
il l
m en
p t
s e
ĠA n
t r
a v
Ġd e
z e
u b
Ġein e
er t
q u
Ġs ich
Ġw ith
a k
Ġp ro
ĠR e
s p
Ġ j
0 0
i b
l y
Ġ Ċ
Ġ }
Ã¤ n
a us
Ġw h
e b
en d
Ġ i
Ġwur de
el l
ĠV er
u g
ar t
er n
ĉ ĉ
Ġw ar
o ch
) ,
p e
Ġy ou
Ġs e
Ġth at
Ġ20 1
in e
Ġ it
f f
r an
es ch
ĠD ie
sch af
ung en
ĠE r
ĊĠĠĠĠĠĠĠĠ ĠĠĠ
g er
h t
a p
ĠB e
Ġa b
r u
Ã¼ ber
Ġs ein
a ge
h n
ig en
Ġs ch
Ġ he
o k
am e
Ġa m
Ã¼ n
Ġ le
ge t
Ġbe i
u p
âĢ Ļ
m er
an g
ĠT he
m ent
Ġw ir
Ġc on
i z
Ġa uch
Ġa s
f or
ĠU n
ur n
isch e
Ġe x
Ġa re
an t
Ġw e
u e
u d
ro m
s en
ur ch
Ġ or
om p
Ġ 3
Ġ Ã¼ber
b e
o st
it y
ar d
ĠS p
us t
i al
Ġn ach
ol l
iv e
r ie
o v
l in
) .
ung s
Ġs o
Ġ ch
h en
g r
. .
ĠA r
ut sch
Ġm e
i p
âĢ ľ
ĠJ ahr
Ġa t
a in
Ġd ies
Ã¤ t
k s
I n
n en
h l
l ie
Ġ "
Ġb is
Ġ20 0
i a
i le
as t
ĠL e
ĠâĢ ĵ
ĠP ro
or d
is e
Ġth is
Ġ1 8
Ġw er
Ġ if
Ġn icht
Ġs ie
Ã¶ r
h er
l ic
Ċ ĠĠĠ
i de
ĠD e
Ġw as
Ġz ur
Ġs p
Ġ es
f er
l o
1 9
om e
schaf t
te d
t urn
u re
Ġal l
âĢ ĵ
r it
ĠS ie
Ġwer den
ĠâĢ ŀ
Ġz um
Ġ um
av e
et z
Ġ ent
ĠE in
o c
i ge
ĠE n
p r
m e
Ġy our
pt ion
h o
Ġein er
ch en
or e
Â ł
ter n
Ġ -
ab le
Ġv or
j e
Ġne w
ul t
Ġb y
Ġh at
Ġw ie
( )
Ġs ind
ĠA l
l ass
h al
Ġo der
ar k
ul l
en n
Ġwir d
il d
om m
d u
Ġf rom
ier t
Ã¶ n
Ġun ter
Ġd urch
ct ion
ĠT e
Ã¤ r
a ck
it e
i re
ic e
er v
Ã¼ ck
r ing
ic k
o ut
us s
f t
l and
ĊĠĠĠĠĠĠĠĠ ĠĠĠĠĠĠĠĠ
te l
n er
on t
Ġm an
Ġh ave
el t
Ġ us
D ie
en s
a re
ĠT h
ĠG e
Ġein em
o b
ch e
Ċ ĉĉ
b eit
i an
isch er
ge l
it ion
ge b
w er
g t
ĠC h
ĠN e
i o
p er
te ll
Ġein en
Ġ 4
ĠA us
re ich
Ġc an
Ġw ill
a c
z en
Ġ /
m al
lich en
k e
ĠS e
S t
ĊĠĠĠĠĠĠĠĠ ĠĠĠĠĠĠĠ
g es
Ġ en
l at
ĠM it
a uf
for m
st en
s s
Ġw or
Ġ19 9
ig n
Ġ Ã
Ã¼ hr
p h
ro w
Ġn ot
is ter
l er
ig ht
ĠD er
ur g
ĠW e
as e
ah l
at h
o un
r y
at ur
Ġr es
E x
ĠA b
u te
on g
f e
a il
ĠO r
Ġ 5
ĠG r
x t
u ÃŁ
im e
m p
in al
Ġt e
ĠB er
2 0
o ok
Ġp r
on e
Ċ ĉ
ad t
p ar
e ar
( );
Ġa d
ich te
lich e
ch t
l os
all y
o hn
ĠA uf
Ġs h
Ġd ass
Ġge t
de m
\ \
at er
Ġa r
ĠH e
de t
l an
Ġre turn
Ġc omp
o de
k eit
' s
el n
Ġ Y
Ġh as
Ġb es
ce ption
f en
ub lic
we ise
c c
ation al
R e
t z
ul d
1 8
t o
in z
re i
Ġw o
st er
Ġ 0
ĠP r
Ġz w
al t
is s
te il
t w
ation s
an ce
Ġn ull
ĠL and
T he
je ct
ak e
in t
ĠD as
re is
Ġ &
th er
ing s
ab e
Ġ19 8
ĠM ar
Ã¤ hr
ĠN ach
ĠV or
at en
am m
a ut
h re
am p
ab en
ĠM e
Ġi hr
ĠĠĠĠ Ġ
Ġo ut
Ġ up
Ġd o
a z
Ġn ur
he it
Ġ +
ol og
Ġh er
em ber
iv ers
ent s
s er
it z
Ġ/ /
y pe
b urg
k en
Ġg en
or en
ĠUn ter
ier en
on d
s h
Ġ 6
at ed
Ex ception
S tr
al s
ĠI m
Ġw eit
f ol
Ġg o
te t
Ġn och
Ġme hr
ro ÃŁ
re e
l es
ier te
Ġo ur
a pp
Ġs ow
ut z
Ġ qu
m s
ber g
kt ion
it er
der n
ers on
Ġ19 7
Ã¤ l
Ġ 9
an s
os e
ĠH er
t ra
ch n
d r
ĠB r
Ġb ut
y s
Ġf e
Ċ ĠĠĠĠĠ
om men
ĠZ eit
ol le
ol d
ow n
.. .
p ro
Ġde utsch
an z
Ġ ro
ĠF or
r i
on s
( "
Ġwur den
ar y
v e
Ġ( *
ein e
z eit
c l
Ġv om
ĠSt ring
or s
us e
Ġt ra
ig er
al e
y ste
Str ing
or y
ĠF l
ste ll
ig h
Ġp er
Ġon e
r en
Ġa ber
ne h
Ã ©
a ct
al ue
ĠA m
Ġm y
ĠDe utsch
g an
we i
Ġm ore
in k
ib t
il m
at t
f l
Ġ19 6
it t
Q u
ik e
Ġ 7
r Ã¤
o ck
Ġl ie
i ent
er en
Ġ1 7
Ġthe ir
Ġb et
at ch
is h
a de
t t
b le
Ġk Ã¶n
am il
v el
Ġs te
b ar
N ame
u en
Ġal le
Ġa pp
D er
ic al
iel er
le ich
is ten
ĠSt adt
Ġc o
i ze
E n
W eb
Ġk ann
b r
in n
l d
Ġb est
Ġge w
i um
ĠM a
ion s
Ġf r
ĠRe g
es e
Ġsow ie
Ġ 8
f in
at a
ie d
ze ich
Ġals o
el d
oun t
Ġ19 4
Ã¤ ch
par am
e y
on n
A n
Ġf in
ah n
lin ks
it Ã¤t
f ahr
Ġab out
or n
p ublic
u le
Ġe v
f Ã¼hr
en g
re at
ĠF ran
te m
st and
re turn
D e
Ġ1 5
Web links
Ġb er
g lich
ie t
h Ã¶r
la g
Ġd ar
m ann
ĊĠĠĠĠĠĠĠĠĠĠĠĠĠĠĠĠ ĠĠĠ
r at
ĠG em
ol it
is sen
s el
et h
r if
Ġwh ich
ĠI t
etz t
Ġ ich
P ro
Ġthe y
an ge
og ra
ig t
ter s
Ġp re
o f
am men
im m
n et
Ġcon t
der s
Ġ1 0
- -
Ġh is
Ġ19 5
ig keit
Ġo b
u pp
Ġg es
Ã¼ d
Ġj ed
C on
âĢ Ŀ
ĠG esch
Ġin s
Ġs pe
Ã¤n d
m it
s k
ier ung
y n
c es
Ġh aben
m an
ĠP ar
Ġ1 6
l ung
p ort
el le
an k
ar beit
ah re
und en
a w
n is
Ġs oll
o le
Ġof f
Ġy ear
m in
Ġbe en
ann t
ay s
g lie
Ġt ime
Ġge gen
w o
re d
S B
h und
Ġwie der
ie le
E inz
ik er
Ġp la
Ġein es
s et
l ine
ĠS o
ÃŁ e
i x
ie w
a ce
el s
y p
b st
g esch
00 0
b all
at z
Ġ19 3
Ġk n
Ġwor k
Ġg r
a x
ĠS te
Ġdies er
ĠUn ivers
Ġsein er
et t
lie ÃŁ
Ã¶ ff
Ġz wei
ĠD ies
h aus
ach weise
ĠkÃ¶n nen
u er
o h
am en
lat z
eit e
eln achweise
p ut
ĠE s
ĠG es
at or
Einz elnachweise
Ġsein e
in ter
ur op
ir st
ge ben
ov e
Ġs ome
yste m
Ġre c
Ġan y
Ġ= =
Ġhat te
ĠF ra
ĠGem ein
o ber
u de
T ype
Ġin ter
ĠP h
ĠU S
or k
us ammen
r es
Ġs el
ach t
ru pp
er k
ĠE x
ĠG eb
erv ice
o ol
ĠJ ahre
I N
Ġi hre
o ff
ess ion
SB N
Ġo ver
m ein
at s
Ġ Qu
d ition
ĠK ar
ĠI SBN
U n
Ġc om
Ġd is
\\ \\
or f
Ã¶ l
D as
Ġp art
Ġe l
sch e
n ah
1 0
ĠF re
f all
at ing
1 7
Ã¤ hl
Ġe tw
Ġs c
Ġzw ischen
ĠâĢ ľ
Ġwh o
ĠJahr hund
ĠK on
Ġin t
a is
Ġ1 2
Ċ ĊĠĠĠĠĠĠĠ
L e
ar n
u al
Ġth row
id ent
T h
Ġ :
ent lich
ĠTe il
E r
S ch
al d
Ġb o
el y
t on
Ġo ther
ie der
ĠM us
i der
Ġs eit
ir t
A r
ĠÃ ľ
le d
c om
ĠJahr en
ĠU m
ing en
form ation
ent r
ĠO b
am er
le g
ik an
Ġf ol
if f
t es
ĠC hr
B e
Ġ !
iel d
k te
hal ten
Ġl ike
b au
gen d
Ġn o
Ġ <
E R
h m
ĠBer lin
le ment
iter atur
Ġbe g
Ġwar en
Ġg roÃŁ
Ġun s
at es
ĠA d
Ġa cc
ĠB o
eit en
ĠW elt
) )
a ir
r on
ĠG ra
" ,
Ġ |
ĠSch w
Ġp e
Ġd am
en e
ver y
our ce
en de
en den
omm un
in s
Ġ1 4
Ġdies e
p ert
und es
eit s
ĠK ir
ou g
in der
g s
ĠAr beit
os s
um ent
Ġwh en
aus e
u es
ic t
Ã¶ s
in a
l Ã¤
as h
Ġv ers
Ġp h
o und
m a
ĠB es
V er
ĠSp iel
Ġpro du
Ġp ar
Ġre g
h and
Ġpro v
le in
Ġin d
neh men
Ġbe k
Ġst ud
ell en
Ġhe l
he im
( ).
a gen
sch en
I d
la ge
ĠT ra
f r
Ġj ust
= =
y m
c ial
a um
ĠTh is
o us
o id
is te
R es
Ġth ere
l i
Ã¤ d
1 6
ĠNe w
v ent
Ġzur Ã¼ck
Ġd ann
f Ã¼
Ġ .
Ġ ra
ug h
qu est
ot h
Ġ *
st ra
en z
1 5
I m
uch t
ĠM an
ĠG er
au pt
tr y
on der
or g
ran s
f ter
Ġ1 3
c re
b o
ÃŁ en
Ã¤ ter
Ġj e
p iel
Ġa g
" );
ĠĠĠĠĠĠĠĠ ĠĠĠĠĠĠĠĠ
is m
at ic
ic es
e k
ĠS h
en er
Ġne ed
p l
Ã¤ s
p s
de d
Ġbe im
if e
Ã¶ glich
Ġf inal
Ġthe m
ĠÃľ ber
Ġh ow
h ne
c o
i den
Ġit s
ĠA ut
Ġw enn
Ġb u
Ġf irst
sch ie
ge w
p f
io us
schaf ten
ĠM en
Ġg ibt
Ġh ier
Ġwh at
le t
ĠJ un
ĠB l
tell t
Ġl ook
Ġt r
Ġer sten
Ġge hÃ¶r
() )
Ġw el
Ġin to
if ic
ur r
Ġbe c
op le
A l
il der
ag es
ĠA ll
ĠP f
ĠT r
Ġer st
ic s
Ġh and
ĠJ an
ru ck
al en
c ess
fol g
d ay
1 2
c ed
' t
k l
g l
und e
c ted
Ġin cl
Ġth an
ĠB au
ĠH and
ro up
r ich
O N
ĠLe ben
ĠA ug
re am
Ġv iel
Ġh ad
ro und
ot t
Ġm us
v ers
Ġw ere
ĠF r
Ġg esch
ra y
ier ten
ĠZ u
o y
Ġ '
ĠO ber
Ġin st
ut ion
ra ch
Ġ! =
Ã¤hr end
ĠSt a
p en
Ġwo uld
Ġse hr
a der
ar b
Ġel se
tern ational
am t
ub l
Ġm ost
Ġm ake
ĠAr t
Ġd rei
ĠM in
Ġk onn
ĠJ ul
p la
iv er
Ġg er
Ġh o
glie d
le x
un st
ist or
an der
Ġd r
e p
en k
ra g
ib le
Ġd a
ar ten
ĠGemein de
i pp
Ġge b
ĠSt ud
rie b
ogra ph
Ġus e
ster reich
Ġjed och
wer k
Ġb el
Ġs ho
ĠN ov
Ġ201 8
z ial
Ġan ge
de x
ĠJahrhund ert
ĠB undes
C h
Ġon ly
am es
Ġth ro
en ce
Ġb re
ow er
me ister
it ies
abe i
ĠN or
ul ar
() );
f ig
in ess
w ard
Ġpe ople
je kt
Ã¼ t
ĠSt ra
G eb
Ġz e
Ġf ind
ĠE urop
ass en
ass er
p on
Ċĉĉ ĉ
Ġkn ow
z w
ĠM ed
Ġver b
f ul
f ach
iel t
ĠÃ ĸ
Ã¤l t
Ġer h
Ġf Ã¼hr
Ġweit er
ad d
Ġl oc
eb s
Ġ19 2
L iteratur
ĠE l
sp r
L ist
et s
ĠIn d
il s
al k
at ive
1 4
ar m
ĠP e
v or
a kt
s o
ĠF amil
au er
b ild
eng th
sp ieler
c y
ar s
ich er
Ġe very
gr Ã¼n
it al
ĠC on
c on
uÃŁ ball
2 00
ĠF ilm
Ġd ire
os ition
7 8
Ġs he
Ġa ct
te xt
ĠDeutsch land
lo ck
ĠM on
ch er
Ġw ell
/ /
n ung
5 0
urr ent
ĠM Ã¼n
em ent
ĠH o
ur t
Ċ Ġ
w n
m at
Ġsp Ã¤ter
Ã¶n ig
ur z
Ġetw a
ĠB et
ĠAn d
Ġb ack
ĠChr ist
Ġdeutsch er
hal b
1 3
schie den
ar r
Ġi hn
lich er
ke hr
ĠP ol
us iness
b ach
O b
re m
O r
Ġm ay
it s
ig ung
ĠAug ust
Ġg u
Ġ X
Ġh in
Ġ Â
Ġver y
ĠP erson
Ġv oid
k er
am s
Ġg leich
Ġim mer
uÃŁ er
Ġp l
u z
Ġdies em
er g
ost en
ĠZ w
ĠF rie
iv en
f o
P ar
a id
Ġcon s
Ġst r
u ck
Ġs upp
ate g
ĠGr und
e c
F or
tem ber
ch ts
Ġsch on
eit er
ess en
Ġ3 0
un ter
ho f
ĠF e
ĠB and
re g
Ġdes ign
eth od
g est
Ġhel p
( ),
Geb oren
ing er
Ġver w
Ġsein en
hal t
Ġs et
pr il
Ġc re
ĠPro du
Ġz usammen
ich ts
if fer
ge mein
ien ce
Ġun ser
N e
âĢ ¦
an y
ier e
ol f
ir k
sch l
ĠVer b
Ġt ry
ut h
Ġlie gt
Ġm in
Ġs ol
schaf ts
Ġas s
Ġm ach
a den
Ġ [
W e
st adt
i or
Ġand eren
Ġt wo
A T
Ġman y
uf t
ĠN ord
is en
ĠG roÃŁ
um ber
Ġsein em
ĠY ou
Ġ )
b es
la gen
lo ad
Ġber eits
ĠM al
Ġs on
r icht
c ri
ien st
ĠVer ein
as ed
un k
ĠM ann
w ohn
Ġk eine
ie f
un kt
Ġc l
Ġs m
i qu
V alue
Ċĉĉ ĉĉ
ĠV ers
Ġyear s
Ġe igen
Ġein z
ĠR es
o te
ĠO n
Ã¤r z
ĠSe p
s on
Ã¤n der
ro l
Ġd own
il ity
ĠC ar
o int
it ed
Ġin v
ĠW er
M it
ĠEn de
oug h
ĠH aupt
ĠFran k
g ang
ult ur
s atz
ck en
ct or
ar ch
Ġb esch
o od
Ã¼ tz
ĠIn st
ff e
2 1
T e
ess age
Ġle tz
ĠK l
ag er
ten s
Ã¶ ÃŁ
ĠNov ember
Ġh ome
z ahl
Ġer w
Ċ Ċ
Ġe ben
Ġth ese
Ġre m
for e
Ġsel bst
w ick
Ġthro ugh
if t
ur s
a i
Ġh igh
I D
lic k
ĠSep tember
we g
vel op
Ġa kt
ĠN ational
G e
ĠA pril
Ġex per
ĠJan u
re ad
ze ug
ste in
ra d
Ġp ublic
Ġs uch
C lass
ar i
Ġbes te
ment s
ist r
a ul
is ion
1 1
p or
Ã¤n g
issen schaft
Ġn ow
Ġs ub
ĠI s
al le
Ã¶ ch
Ġf l
ĠP latz
ĠK Ã¶nig
Ġ end
us tr
ow s
. )
Ã¶ff entlich
it el
Ġ& &
u k
rupp e
ation en
e ich
Ġa fter
m Ã¤
es en
Ġp erson
ĠH aus
M ann
ak ing
Ġd ort
k reis
r or
Ġs erv
ĠK unst
op h
Ġer ste
ĠB ild
Ġ201 7
pon se
Ġ201 6
as ch
Ġch e
ĊĠĠĠĠĠĠĠĠĠĠĠĠĠĠĠĠ ĠĠĠĠĠĠĠ
ĠV ol
Ġihr er
Ġf ree
Ġb l
) );
kt ober
w alt
f te
N ach
Ġund er
ct s
v en
Ã¼n st
Ġgo od
as k
ie b
c a
oh ann
Ġst and
Ġre ad
ess e
ru e
gr und
he l
Ġfol gen
Ġm on
in nen
ĠS c
Ġse e
Ġhe ute
Ġde c
Ġv alue
Ġw en
an ts
3 0
ĠD es
mit tel
v iew
ĠF Ã¼r
E N
ĠI I
in er
ĠH och
isch es
ĠĊ Ċ
Ġg reat
Ġbec ause
Ġkonn te
ĠJun i
hr en
es ter
m ar
Ġ201 5
Ġon line
[ ]
Ġb r
s g
ĠM et
iz ed
f ang
Ã¼ s
Ġm ed
Ġc ol
ĠW h
ĠIn ter
Ġo hne
ĠMa i
stell ung
iv ate
f ra
Ġver schieden
Ġpro f
o ver
Ã¤n ger
Ġk e
S ie
Ġne ue
d s
Ġdam it
f inal
ne w
l ang
la uf
b uch
Ġm ark
Ġw rit
ĠK inder
ĠJul i
Ġ >
i ÃŁ
Ġf re
up er
Ġw ay
ĠO ktober
le ct
S e
ĠU r
l ing
ĠJ u
v al
olog ie
at ure
ĠBe i
un ktion
Ġpla y
Ã ¡
ais on
ur ing
Ġwh ere
w ay
ic a
b ahn
ran z
ĠOr t
Ġk ein
Ġv ier
Ġte chn
Ġst atic
in es
ck e
Ġs om
ebs ite
Ġ2 5
er y
f eld
re it
Ġb en
Ġl ong
Ġ1 1
al ien
Ã¼r ger
Ġ201 4
a ur
ut en
o gen
Ġbe fin
Ġd ay
Ġl ang
Ġk lein
iv es
-- --
al th
Ġar t
ĠD r
af f
Ġi hm
De utsch
re t
iss ion
Ġall er
tr ib
Ġ201 0
Ġ19 0
Ġa v
ĠS Ã¼d
ction s
Ġaus ge
Ġh ere
eb ru
S T
o ten
fall s
\\\\ \\\\
um s
e x
Ġ ,
Ġb usiness
Ġth en
st ru
ot her
č ĊĠĠĠĠĠĠĠ
o in
ĠA t
ĠA mer
ĠP olit
Ġ %
Ġ201 2
il it
ĠDies e
z ie
l en
z u
Ġge f
al if
and s
kt ur
omp on
ĠJ ohann
ĠMus ik
ĠM Ã¤rz
Ã¼ h
a j
R E
w ahl
Ġ201 3
A us
Â Ń
gan is
al ity
ĠI f
Ġk am
ĠJanu ar
w w
Ġer folg
Ġwh ile
ĠS pe
om en
ĠF ahr
mal s
Ã¼n d
sch lieÃŁ
ĠF ol
Ġv is
ĠLand es
Ġ1 00
c ode
pert y
T o
k a
Ġev en
im p
zeich net
ust om
or ben
rie g
ĠB ar
l ig
Ġd iffer
ra ft
ĠK r
ĠMen schen
Ġw ant
Ġ201 1
A t
Ġco uld
p art
ĠUnter nehmen
Ġwor ld
a ar
ĠS er
Ġsch w
Ġch ar
Ġe m
Ġc ase
z ember
ĠAr ch
H e
Ġd el
Ġ2 4
Ġ ur
ĠG ener
z ug
Ġand er
Ġm o
ĠGesch ichte
ed er
ĠM ark
ou ble
omm t
ĠH ol
we iz
ĠPro f
ĠS k
il t
le it
ole an
Ġp ass
Ġst att
st Ã¤nd
Ġw Ã¤hrend
ach sen
ĠC he
ĠF ebru
od y
le ase
Ġi de
Ã¶ st
w are
Ġo wn
tra g
Ġ200 9
ism us
z ent
al ter
w ert
in o
un n
ut t
Ġst art
ater ial
hr er
ĠA s
ĠC omp
sp iel
ro p
al se
w end
amer ikan
Th is
Ġer sch
Ġd u
Ġs k
Ġbei den
ot s
t ag
Ġgr Ã¶ÃŁ
Ġ18 9
ĠE ine
Ġne uen
Ġ200 8
. ,
s etz
ing le
b t
ro ss
A m
ĠL iste
Ġt rue
rif t
f a
od el
he d
ĠO ff
Ġsho uld
Ġse c
ĠV on
ĠH Ã¶
ĠD urch
Ġa c
Ġh abe
ĠAl s
t re
o hl
Ġpro gr
in ce
ĠD aten
ig te
ch s
ion en
is piel
ĠPh il
ĠB uch
Ã¤n de
Ġg ra
ur es
Ġte il
u ter
ic an
ern se
Ġm uch
A R
ĠP art
Ġd on
ĠCh ar
at her
ĠDe zember
ĠKir che
de te
los s
Ã¤ch st
h ol
i us
Ġus ed
Ġs aid
Ġd abei
g leich
Ġres ult
ĠUnivers itÃ¤t
Ġin formation
Ġe ing
Ġm ade
ell schaft
Ġl ast
ver b
ĠUnivers ity
Ġs ur
âĢľ ,
is k
Ġde velop
2 2
Ġf amil
ĠW est
he mal
Ġihr en
k auf
Ġsp iel
az u
Ġn ame
ĠM o
ĠW ir
Ġdies es
Ã¤t z
ĠM ich
fÃ¼hr t
Ġt ake
le te
Ġch ild
cc ess
nah me
h in
Ġc ar
Ġincl ud
Ã¤ hn
Ġ #
olog y
Ġbe fore
ĠC l
sch utz
ain t
ach e
qu ire
Ġb ook
ig es
re cht
Ġst ar
Ġste ht
ĠW or
ĠH am
ĠĊ ĠĊ
Ġt rans
ĠB ere
ranz Ã¶s
Ġar beit
as on
ichte t
Ġfin den
Ġf ile
ĊĠĠĠĠĠĠĠĠĠĠĠĠĠĠĠĠ ĠĠĠĠĠĠĠĠ
ĠW ert
y r
sch n
Ġf est
Ġp lan
le gen
iv ing
Ġs er
A L
b y
il le
ĠS aison
ĠÃ Ħ
o pp
ĠâĢ ł
Ġc atch
A N
Ġe mp
Ġ x
ĠMit tel
Ġc lass
ĠEn tw
ĠRe ich
ĠS al
ber t
Ġr ight
m ed
n ame
Ġ200 7
l ength
ist s
le gt
age ment
F ile
Ġb ie
sch ule
Ġg ut
âĢľ .
neh mer
Ġein fach
Ġl ife
ĠG l
Ġe t
Ã¼n f
Ġgen er
u ge
Ob ject
ĠI hre
es ten
Ġs ervice
ar z
fahr en
Ġz un
ail able
ĠMit glied
be i
g abe
Ġ u
sh all
an st
stra ÃŁe
oll ow
ĠP l
ide o
an e
Ġprov ide
Ġp ol
Ġc omm
k ommen
Ġthrow s
it zen
Ġs u
los sen
Ġf ound
ak es
ĠFor m
Ġ9 78
Ġg ab
Ġto p
8 0
f ern
ĠW ien
ĠW asser
lin k
all s
s ol
Ġein ge
E in
in ing
Ġ2 1
sp e
ĠB re
im es
ĠP er
Ġ200 6
Ġb zw
Ġbe ing
G esch
ĠN amen
ogra f
Ġd ata
Ġc urrent
M ap
ĠC o
ik a
19 9
st r
ĠSt and
Ġ ...
ĠL in
as ter
ĠSch ul
sp ort
ĠMÃ¼n chen
ĠEn t
ĠD ar
ĠJ ohn
Ġweit ere
ges tellt
p unkt
uf en
at us
f ass
um mer
ĠFebru ar
al b
Ġe as
T ra
le kt
rupp en
um e
tell en
y l
an gen
Ġalle m
ĠVer lag
ran k
Ġs ite
K ey
ĠM ill
om mer
Ġson dern
ĠSt re
Ġdes sen
hn en
rie d
p ieler
la ck
Ġ5 0
4 0
ĠR om
Ġg est
ĠW ohn
Ġbek annt
schl uss
th is
O R
uf fer
Ġb ed
dr ich
ĠB est
Ã¤ ude
Ġc olle
ĠN atur
Ġv iele
u ally
ĠP at
Ġdo es
Ġm uss
u gen
Ġ $
A b
ĠA ss
B y
ĠM ag
sp re
Ġs ign
ch sel
and en
oll en
2 5
Ġpro cess
kt or
ĠR Ã¼ck
L E
al er
Ġp ost
ĠK n
ĠA uch
id es
f ort
es ent
in en
out h
ap an
y le
Ġad d
Ġen g
Ġe ach
Ġ200 5
ich ten
Ġc oun
cri ption
Ġc le
ip s
de ut
6 0
ĠReg ion
Ġd id
rie ben
Ã¤hl t
p os
Ġsh ow
Ġm ein
it Ã¤
ĠB ra
ĠV ert
ra gen
geb iet
ĠKar l
D ata
Ġa round
e h
ĠBere ich
ear ch
ĠIn tern
ĠM ot
los e
re ib
v an
er m
Ġof fer
use um
ch te
ĠB ay
Ġre al
Ġn un
S S
Ġp ra
M ar
Ġs Ã¼d
Ġn umber
ig ten
lass e
en der
c ing
Re quest
O ver
Ġbe f
ge d
im al
A s
Ġag ain
ĠLeben s
Ã¼ ss
Ġg anz
ĠY ork
im mer
ab el
Le ben
ĠW il
Ġn or
iv id
Ġerh ielt
== ==
Ġc ustom
us ch
Ġl ist
P ath
sch ied
Ġand ere
a e
ĠB as
ĠZ usammen
en ter
Ġder en
ain s
ĠE d
re uz
Ġf un
ess er
Ġdeutsch en
Ġb ring
ly mp
ubl ik
Ġw icht
Ġc ommun
ĠF uÃŁball
Ġcre ate
Ġdiffer ent
ĠF est
u x
t he
ie g
Ã¤ uf
ann te
ord s
Ġk ommt
z iel
ĠR ad
w ays
reich en
app end
de ck
d orf
m m
Ġl og
ĠS an
h ard
ĠG u
Ġth ose
Ġ2 2
iqu e
Ġl ove
Ġth ink
Ġ20 00
ut ter
b l
Ġl ar
ĠN ieder
Ġin ternational
st off
ĠT od
p re
mÃ¤ ÃŁ
ĠR o
S et
d ings
Ġc are
č Ċĉ
Ġob ject
lass en
s w
Ġche ck
t il
all en
we en
wohn er
in ation
Ġr est
ĠSch weiz
Ġr und
ĠPerson en
ĠS eite
Ġf ranzÃ¶s
ĠJ e
Ġre ally
Ġm ar
Ġp os
et ail
Ġge mein
Ġf Ã¼nf
Ã Ń
it ter
Ġc a
C ont
7 0
it te
Ġwe ek
ĠTe chn
Ġpla ce
Ġh im
Ġc al
Ġe hemal
op e
A d
nis se
ĠGe w
itt le
Ġn ah
ĠF il
irt schaft
ĠK ont
ĠW ill
r ide
ĠB Ã¼
Gesch ichte
Ġf alse
Ġp olit
a el
ĠSch l
I T
Ġk ey
ĠP re
Ġ2 3
Ġv ar
ĠOr ts
al y
r ic
Ġm ir
w ork
uf f
ap er
D F
ro ll
k on
am ent
tell er
ĠFra uen
Ġbefin det
k ten
d ate
Ġden en
Ġs ystem
ĠT o
us h
c i
ĠFrie drich
Ġm al
h af
Ġa ut
ard s
ĠBer g
B u
Ġ200 4
Ġv al
Ġm Ã¶glich
Ã¤n ge
ĠMe ister
b ur
Ġl o
Ġdies en
c lass
Ã¼ hl
h Ã¤lt
ĠSt r
gr amm
g ra
ir che
m et
al ten
le i
om b
Ġp at
w ig
Ġf ollow
he in
ĠT ag
ĊĠĠĠĠĠĠĠĠ Ġ
ĠEntw ick
ĠPro v
Ã¶r der
I t
Ġph ot
a un
4 5
Ġ18 8
ath ol
ĠP aul
aus pieler
b ack
och en
Re g
Ġav ailable
an ad
ra um
Ã¤ us
ĠP ort
Ġ201 9
et ing
Ġbre ak
Ġf ast
ĠGe gen
j Ã¤hr
as st
ĠEn g
p latz
Ġsoll te
ĠB ahn
Ġk on
ĠD an
ass e
our n
Ġer halten
Ġetw as
ĠA pp
Ã¤ re
Ġg ar
s am
Ġpro ject
lo y
Ġs l
able d
Ġus ing
il es
2 3
en nen
ĠB el
ĠD u
ĠJu gend
Ã¤ ll
ur en
om in
ĠH ier
la ub
G est
Ġst ill
er st
ĠE m
Ġz ahl
it or
Ġ( âĢ
glie der
ff en
o ge
ĠK reis
ĠM at
Ġ2 6
n ess
ond on
Ġfr ien
ĠFamil ie
Ġbu ild
ernse h
Ġbet ween
Ġwel che
is hed
Over ride
it es
um en
Ġt ype
ĠK ap
Ġeben falls
Ġ â
ĠSp ort
ĠDeutsch en
ct ive
lich keit
Ġm ov
dr ess
ent en
ĠAl b
ĠM od
Ġwor den
M e
ur m
ĠW erk
ĠH ein
en det
ĠL ie
ĠS ystem
ĠN ame
or ts
ĠC ol
grÃ¼n det
Ã¶l ker
Ã¶ sterreich
Ġv iew
Ġne xt
ut es
it u
re en
ĠB ut
Ġzun Ã¤chst
g aben
ig inal
onder e
ĠH ans
h a
ĠW ar
h ung
Ġb oth
sh ip
C l
Ġg roup
Ġc our
bild ung
M E
ĠIn ternational
enn t
Ġan n
ĠG o
Gest orben
Ġdis c
N ode
ch es
Ġge ht
Ġent stand
Ġcomp any
U R
ĠD on
Ġje we
Ġsch ool
Ġd ating
uÃŁ en
ĠL ist
kl Ã¤r
Ġne u
ess or
Ã¼ck e
is se
Ġc or
Ġent wick
Ã ³
Ġ2 8
St ream
ann ten
o ot
Ġfor m
M an
ĠOb ject
ĠM y
ame ter
alt ung
te te
Ġfamil y
s icht
uch en
2 4
ĠB en
ĠF ot
Ċ ĊĠĠĠĠĠĠĠĠĠĠĠ
Ġre quire
Ġev ent
ber eich
Ġsm all
Ġdar auf
A ll
Ġd azu
ĠO st
ĠFran z
er ts
Ġb as
Ġsch n
Ġa uÃŁer
Ã¤ che
ĠW ahl
Ġbo olean
Ã¼ l
i at
ĊĠĠĠĠĠĠĠĠĠĠĠĠĠĠĠĠ ĠĠĠĠĠĠĠĠĠĠĠĠĠĠĠĠ
Ġein ige
ĠInst it
Ġim port
Ġper fe
Ġ2 7
ĠPe ter
ĠS ohn
ĠN ot
igh ts
Ġmon th
y ch
j ahr
ĠS eit
rit t
b ed
ho de
Ġ200 3
Ġletz ten
Ġbeg ann
Ã¼ b
Ã¶ m
ĠP ark
ĠIn formation
an a
ĠF ach
sch ul
Ġs ame
ir l
A C
iv al
sch rift
Ġm ich
Ġv oll
um n
A uf
Ġexper ience
m us
b et
av a
Ġo pen
r sg
fÃ¼hr ung
f ts
Ġ200 1
Ġf ull
k m
Ġander em
on nen
av ing
Ġakt u
se e
Ġsh ort
Ġb il
Ġserv ices
I f
Ġse x
ĠM or
Ã¼nst ler
am a
Ġh istor
ies en
Ġm ember
Ġm ax
D E
oc i
Ġfe w
et te
ount y
Ġat t
Ġst ark
Ġle arn
imm t
le y
f ilm
Ġo per
ir d
ck er
Ġdeutsch e
O n
Ġ199 0
lo b
ĠHe im
Ġge m
Ã¶ t
ĠH il
Ġapp ro
M essage
Ġ200 2
z er
c le
g te
Ġloc al
ĠgroÃŁ e
hel m
ĠH el
l ess
ĠT itel
ĠB i
em p
U S
Ġl assen
ne y
isch of
du c
ĠL a
Ġ18 6
ĠT er
ĠC olle
Ġ4 0
Ġinclud ing
ell er
Ã¤ h
fer ence
e ver
v ed
op f
Ġm et
n a
ĠLand kreis
Ġcont in
on ders
den s
Ġse i
ĠF in
Ġh app
ot he
Ġspe c
ĠL ondon
ĠI ch
ĠP la
+ +
sch w
ĠB ed
ĠI hr
af fen
v es
ro om
ĠD em
ĠC ont
um p
Ġge l
amp f
Ġf ield
Ġd uring
e qu
Ġp op
ĠB Ã¼rger
un t
reich e
Ġne ben
uch s
ĠZ e
< /
* *
Ġte am
d ruck
Ġgo ing
Ġd i
Ġhe alth
Ġver Ã¶ffentlich
ĠS he
Ġm Ã¼s
z entr
Ġm en
ol ution
min ister
ĠgroÃŁ en
Ġst ate
Ã¶glich keit
ĠN o
i as
ĠThe y
Con fig
IN G
ik t
Ġsupp ort
ur o
Ġincl ude
Ġind ivid
ĠK ultur
Ġ| |
rie gs
Ġre t
ĠRe chts
ĠÃĸ sterreich
Ġor der
Ġre quest
Ġim p
W ith
ĠS el
ĠWelt k
ĠPolit iker
Ġto o
id s
: //
Ġper form
st Ã¼tz
ir on
al es
Ġl ittle
z ogen
sch ein
Ġprof ession
Ġro om
ĠB ern
d o
f urt
Ġth ree
7 5
Ġspe cial
Ġc all
oss ible
Ġm ethod
Ġeing es
I C
Ġex p
ble m
wer b
Ã¤s ident
for der
z el
Ġch o
Bu ilder
Ġm ust
la u
Ġin ner
Ġall en
ĠM art
Ġgew ann
Ġb ig
M et
ar ly
č ĊĠĠĠĠĠĠĠĠĠĠĠ
Ġd och
Ġf act
Ġw ater
o x
Ġst or
S p
teil ung
H and
D R
tt p
f re
ĠO lymp
ft ware
ĠD re
Ġk urz
ĠS il
Ġo ption
Ã¤ ft
th ing
nah men
I I
ĠgehÃ¶r t
Ġal ways
iet y
Ġmach en
Ġh och
gen ommen
ce pt
Ġfr Ã¼
ere i
Ġ2 9
č Ċ
ourn al
ach en
ĠU hr
il en
Ġn ie
Ġk ommen
Ġb ro
at ter
um m
19 8
ĠPar is
il ter
A S
ĠB ro
ĠT or
Ġs imp
E s
Ġer r
ĠFra u
. "
iz ation
F ield
In dex
D ies
ĠD o
Ġlook ing
iz iel
ĠFamil ien
ĠP reis
Ġt yp
Ġpro m
oc ol
Con text
z t
Ġ20 20
in ner
or ge
ĠB esch
Ġo ld
d ing
ĠD a
ĠFor sch
ent ial
ah men
ĠBe g
Ġauf ge
an c
Ġg ot
E D
O f
te gr
b ook
In fo
E lement
ĠH ar
Ġw Ã¼r
igkeit en
Ã¤ mp
En abled
ĠP al
Ġ199 9
Ġpart ic
Ġihre m
ĠR ich
Ġre lat
Ġver l
Ġe ffe
Ã¶r per
st re
Ġb ra
ur y
ĠSch m
st ag
Ġc ome
Ġm od
9 0
ĠJahr es
Ġfe el
w or
Ċ ĊĠĠĠ
ub e
ges amt
we is
Ġ ?
Ġor gan
te i
Ġth ings
ĠR u
Ġg ing
gan gen
fÃ¼ g
ab r
Ġs w
am b
Ġex c
Ã¤ m
S ervice
Res ponse
g n
ĠTe xt
ind ung
Ġre ce
ĠAn t
are d
v Ã¶lker
ver t
Ġher aus
ĠS eiten
Ġste hen
ĠJ ose
gesch ichte
e te
m ut
ĠC or
3 5
ĠG en
ĠBet rieb
T ime
il ome
j oy
Ġab sol
our s
ĠMich ael
um b
at Ã¼r
4 8
fa ult
ĠTh ere
ge ord
our ces
Ġbeste ht
pr ivate
ĠVol ks
Ġsch lieÃŁ
! !
Ġk omp
ĠHer r
equ als
F uÃŁball
In st
Ġto day
f ert
ĠS ol
ĠEin satz
3 2
heit en
Ġt ro
ĠB urg
Ġqu ality
ent ly
d ienst
z ig
pr ession
ĠGr Ã¼n
v alue
Ġg row
ĠP lan
P r
c ont
y er
Ġwith out
Ġs ince
au g
ĠUS A
Ġis s
Ġare a
w elt
c r
Ġt re
ĠI hnen
on es
ĠD orf
ur ation
ĠAmer ican
ig ital
w h
ers Ã¶n
rÃ¤ ger
in c
pr ess
ch ten
ver ein
icht ung
le ben
Ġbe zeichnet
ir m
Ġ Q
ĠH ow
Ġbe h
Ġden n
ĠKir chen
lat t
w ort
ĠS m
Ġle vel
ĠR ed
9 9
ra cht
D es
ĠR ahmen
Ċ Ċĉ
Ġc r
ĠHer z
Ġg ame
Ġs ure
le tz
or ie
g ument
Ġhat ten
Ġnah m
os en
Sie he
ĠUn d
ĠD i
Ġj ob
ĠSta ats
En try
Ġsec ond
ĠD av
h Ã¤ng
ier s
Ġ199 8
Ġapp lic
a it
Ġf lo
ĠNe ben
m ark
ile d
Ġp ay
ĠTe am
Ġs ay
Ġke ep
el te
A P
th row
ĠM ain
eth ing
7 6
le ine
ĠC ounty
I S
ĠSch rif
trib ute
Ġw ebsite
Ġm ind
Ġl in
Ġab ge
Ġd ah
Ġcon ne
fol ge
ĠR uss
g o
Ġ @
ĠM ay
Ġzw eiten
ograph ie
em s
Ġmehr ere
m l
um er
if ied
ĠIn s
ne te
ĠC ity
2 8
rit ten
Ġe qu
2 6
Ġle t
Ġ est
il y
Ġwe gen
Ġaller dings
. âĢĿ
ĠW ind
s ych
utz t
amerikan ischer
w est
tr Ã¤
is iert
ik en
L A
ĠR aum
H rsg
den k
. âĢľ
Ġl ot
O Exception
et en
Ġbe aut
Ġd ouble
ĠK at
I ON
ro s
sel f
ĠB ad
ĠT our
k un
Ã¤t ze
Ġs ize
ier ungs
Ġwith in
ĠEin wohner
ar en
ĠSe e
ĠL u
ĠGener al
om as
Ġch ange
ilit Ã¤r
ra che
ĠAn fang
Ġo pp
Ġin c
ĠF ar
Ġersch ien
Ġh ard
w issenschaft
ul ts
ĠF unktion
de utsch
Ġd av
Ġ( !
atur es
Ġp ower
ĠFol ge
ĠK Ã¶l
ĠD is
d ie
ĠSta aten
Ġs uper
Ġg ive
Ġ194 5
Ġc ost
Ã¤s ent
az z
Ġspiel te
ost er
ĠHam burg
ĠZ entr
Ġw omen
ar get
omm and
Ġt er
tel le
v is
ke y
ĠW ebsite
ĠAus tr
bur ger
3 3
Be i
Ġab le
rit er
l ungen
uch e
S h
ĠSch auspieler
Ġhe ad
Deutsch er
e hen
o ung
\\\\\\\\ \\\\\\\\
ĠArch ite
m b
i ol
eng l
Ã¼ ll
ig a
op s
ĠBe ispiel
one y
ist ory
Ġex ist
Ġl ine
Ġbet ter
Ġerst mals
pert ies
ur f
tre ten
ĠWe g
w and
.) :
s weise
Ġb rit
ĠGe org
Ġqu est
ĠWor ld
Ġimport ant
Ġverschieden en
it ive
Ar ray
ĠIntern et
uch te
Ġent spre
Ġm ain
Ġp age
p lan
es h
Ġ198 0
ĠZ iel
Ġc ert
Ġde fin
gr iff
b el
ĠNe u
heit s
ĠWil helm
schn itt
y d
ĠD ire
Ġbe w
ĠF er
ĠEr n
ĠS en
Ġf ac
P erson
ĠL auf
ĠAl t
Ġh inter
ĠI l
Ġ199 6
Ġein mal
f el
om at
ĠT re
ĠMe ter
3 6
Ġr un
on y
Ġinter est
ut ure
l og
ein ander
Ġverw endet
ĠA ir
ill s
ĠF all
af Ã¼r
ĠG ar
Ġle ad
ĠJahrhund erts
> >
Ġwe il
d es
lie b
amm lung
ĠZ ug
ĠA kt
Ġw est
iv ed
ĠG old
ĠgehÃ¶r te
Ġsom ething
ic ally
Ġn ational
Ġhe ut
it ch
Ġd an
Ġinv est
Ġvis it
Ġd ays
haus en
ĠA lex
rit e
2 9
ĠD ienst
Ġs ingle
ĠZ ahl
n ungen
W h
ent al
Ġp ut
ĠâĢ ¦
h am
3 8
ĠI de
4 9
ĠFl ug
Ġlar ge
bes ondere
en a
ar a
Ġprodu cts
ĠO l
Ġof t
ab ility
ĠOn line
ograf ie
7 9
ĠSch ool
us Ã¤tz
ĠEr st
Ġho use
Ã ĸ
ĠK o
Ġj etzt
ĠW ald
b ol
ĠMa x
ĠW olf
Ã¼ck en
Ġweit eren
Ġse hen
ober t
Ġ18 5
te ger
od es
Ġdire kt
um an
ĠG ed
Ġer ne
ĠW inter
lich es
ion al
Ġ199 7
a ÃŁ
ĠEntwick lung
Ġpro te
ĠĠĠĠ ĠĠ
st a
ĠL ud
Ġacc ess
Ġall es
spr Ã¼n
yste ms
ar te
) :
Ġ197 0
Ġf and
as es
Ġ199 4
ik el
rei ben
if ul
ĠmÃ¼s sen
t ocol
Ġer reich
Ġa uth
ĠE uro
19 0
ĠEr z
ĠD abei
Ġre f
Ġad dition
ĠLe ist
Ġchild ren
7 4
ra w
ais er
for d
ge ber
Ġh ol
ĠT yp
Ġ6 0
il igen
Ġeigen en
Ġact iv
Ġg ilt
Ġt urn
Ġg l
" .
Ġen joy
Al s
und er
Ġin cre
b aut
d f
Ġuns ere
oug ht
an ten
Y ou
ĊĠĠĠĠĠĠĠĠĠĠĠĠĠĠĠĠĠĠĠĠĠĠĠĠ ĠĠĠ
ĠG el
z y
Ġe d
Ġstud ents
Ġw all
an te
Ġs etz
ib li
Ġres earch
ĠSch n
Ġsein es
il er
In ter
C ol
Ġbie tet
stell en
Ġco ver
ilome ter
Ġcomp lete
p ublik
ie gel
Ã¤ fts
a uch
Ġe ff
Ã ¨
Ġwork ing
ĠW ith
zeich nung
ĠS Ã¼
Ġgen annt
Ġl ange
Ġunter schied
l le
Ġtra dition
ĠC lass
ĠGeb Ã¤ude
Ġm ult
---- ----
ĠS itz
ĠHo tel
ra u
t ing
un kte
ic le
C O
ĠVer walt
E S
Ġ _
e le
reib ung
nah m
Ġk m
ĠG ruppe
ĠH istor
ĠSte in
Ġ3 1
ĠMar kt
Ġt est
it ten
ĠHol z
ĠF eld
ĠD ort
Ġo pt
pla y
v iron
N ot
Ġ ident
lich t
R O
Ġdav on
Ġl ight
E T
a pe
ĠS ervice
oc us
4 4
Ã¶r d
Ġfin det
ĠD en
Ġt Ã¤t
Ġan other
iz in
pt y
ĠStra ÃŁe
utt g
{ @
Ġse arch
Ġbes onders
Ġprogr am
P D
ĠS outh
Ġv ideo
d a
och ter
Ġwor ks
Ġs tell
Ġm ight
hl en
Ġen gl
ĠS ommer
Ġan t
ĠChrist ian
arbeit er
P h
Ġ199 5
la v
ver n
n ot
Ġpra ct
op er
Ġcon f
Ã¤t te
Ġviel en
ĠDes ign
ul ation
Ġne ver
irt schafts
Ã¼ gel
Ġinst ance
Ġeas y
ĠK e
if en
ĠEurop a
G roup
ĠHein rich
ĠM Ã¤n
Ġl a
St ate
f s
Ġm aking
ĠT ro
ĠEn erg
ĠArbeit s
ge ther
ut s
Ġse chs
b re
ĠfÃ¼hr t
Mit glied
z irk
Ġa ir
ĠE p
Ġf ood
g lichen
ĠK ommun
Ġp ort
Ġim pro
ĠMit te
ganis ation
L O
ik ation
al itÃ¤t
ĠLe ip
Ġm ag
ĠR el
ĠProv inz
Ġl at
ĠEin zel
ĠM useum
Un ivers
ic y
ĠfÃ¼hr te
ag ue
Ã¤ ss
v ious
is ierung
l ow
i ate
ĠS ein
ĠM ont
if y
3 9
č Ċĉĉ
19 6
ĠGra f
Ġmus ic
h end
ĠP ap
schlieÃŁ end
Ġc reat
ĠRe gel
ĠPro jekt
ain er
ĠHÃ¶ he
ĠThe ater
s ize
il la
Ġre view
i am
Ġp ict
Ġb in
ĠN r
Ġ199 2
g al
leg al
C ode
ĠK Ã¼
ĠN utz
Ġjed er
ĠS oc
ĠH ann
de ten
f est
ĠJ o
Ġde p
st ants
Ġs af
ar ing
Ġre l
amp le
ĠO p
au p
7 7
ok ument
sk i
3 4
lig a
k irche
Ġp ath
ort un
ĠNor th
Ġb ased
ig ent
ĠK lein
ĠH of
th ers
red it
ĠA g
Ġl aw
Ġim age
al og
v ice
sche id
ĠP ra
L oc
S o
le ist
we hr
ĠâĢ ĺ
Ġin it
ĠSp ieler
ĠGeb iet
ĠH ome
ist ischen
Ġperfe ct
read y
teil t
kun ft
b and
ok en
ĠEr w
Ġt rat
Ġse ver
G ibt
Ġto t
te chn
j a
gr ess
Ġperson al
to String
ze pt
au en
Ġ( (
ĠK omp
ĠM c
Ġc ap
Ġl and
C omp
ĠkÃ¶n n
Ġn atÃ¼r
ac ter
etail s
os p
Ġneed s
her r
richt ung
ĠW ie
Ġlie gen
ĠSt uttg
geb aut
Ġ Ã¤l
ut ions
Ġunser er
os oph
Ġjewe ils
pro du
] ;
ĠInformation en
Ġmark et
r ist
and id
Un ter
Ġ20 21
ĠK om
Ġm Ã¶ch
ĠâĢ Ķ
Ġm atch
Ġh al
la us
ĠUn ited
im ent
' m
f ield
Ġ Ã¶sterreich
Ġal ong
ag s
Ġn a
2 7
ĠS icher
ĠC omm
dem ie
ĠU l
S er
V al
ser ie
Ġcons ider
W ir
ĠF ir
ure d
Ġp ack
wend ung
Ġsu ccess
E m
Ġof fen
P re
w irtschaft
ĠT rans
ĠEr geb
Ġbu y
C H
ge f
Ġcon c
ific ation
Ġmus ste
ire d
Ġklein en
ab or
Ġsich er
Ġze igt
ab l
le hrer
ĠW eb
Ġpr es
k n
ĠFrank reich
Ġn Ã¤ch
w ie
Ġstud ierte
ĠE he
zeit ig
att ung
ĠK rieg
pr Ã¤
ĠS am
ĠR est
ief ert
Ġn on
ĠRe c
ĠM Ã¶glichkeit
ĠTh omas
Ġinner halb
Ġl ess
Ġ196 0
ĠOb jekt
l Ã¤nd
ar l
ĠRe i
Ġ18 0
ĠAnd re
ĠP ost
Ġschn ell
l ungs
v ille
Ġges am
Ġk leine
ward s
ĠV ater
ĠÂ »
Ġ199 3
m on
Ġ ess
ur ity
Ġwo bei
v oll
Res ource
Ġas k
V ers
ro du
te ile
ĠMart in
und s
pe ct
' ve
am mer
viron ment
F Ã¼r
Ġge grÃ¼ndet
oc ument
' re
im men
Ã¼t zen
ĠLud wig
ĠGes ellschaft
Ġdown load
ĠEn gl
ent ion
ĠKÃ¶l n
a ction
i ber
ĠT ochter
Ġ ir
Ġk ind
u h
N A
ĠW enn
Ġres p
Cl ient
Ġer m
Ġw eb
ĠO ur
ing ton
ou p
ult ure
Ã¼ ler
ill ion
ĠD am
Ã¤s st
g ing
Ġme isten
ĠPro zent
ĠtÃ¤t ig
Ġ Ã¶ff
Ġn et
ord ing
Ã ľ
ĠV e
Ġcont ent
U T
Ġf our
Ġ198 9
An d
F ilm
Ġarbeit ete
Ġcommun ity
A G
h Ã¶
ab ly
Ġauf grund
ĠBer uf
c er
mb H
ĠJ apan
4 6
Ġfolgen den
ĠL uft
ob il
Ġd afÃ¼r
itz er
ĠProdu ktion
u el
ĠW ochen
Ġwe chsel
an ze
ĠE is
Ġte xt
Ġprodu ct
og le
lie gen
ĠS eine
Ġz we
M ethod
ĠB y
Ġre p
Ġbel ow
ĠB eit
Ġre du
Ã¤r en
Ġgr Ã¼n
Pro perty
Ġs og
Ġj a
W er
engl isch
Ġr icht
Ġres ponse
ĠC om
ĠSo zial
7 1
ran ken
ib e
Ġb ody
Ġ199 1
ĠFrank furt
3 1
ran sport
ĠH igh
b est
ĠO per
B er
Ġer n
em pl
rÃ¤ gt
h men
Ġto gether
L og
ĠK Ã¼nstler
w Ã¤r
S c
Ġl ive
is on
Ġme ist
i os
ĠTe x
Ġdire ct
Ġex tra
Ġwo hl
ĠSt ate
tern al
ĠschlieÃŁ lich
Ġle ft
19 5
ra b
ob ile
L iefert
Ġunder stand
I ch
ĠK le
ĠI OException
id ge
ĠL og
Ġkonn ten
O T
ter t
Ġr ange
ĠP ass
Ġpro perty
Ġent fern
ĠS w
iv ision
tell ung
Ġst at
Ġg irl
E C
Ġerfolg te
M od
ĠR obert
ĠZ we
Ġe duc
ĠT urn
put Stream
ĠIn n
Ġwen ig
, âĢĿ
Ġh Ã¤uf
ĠK ind
- ,
ĠDeutsch e
Ġa way
ch an
ie ve
ĠBe vÃ¶lker
Ġal ready
le ge
ĠM utter
ĠK ompon
ĠT est
Ġle ben
ĠK unden
ĠStra ÃŁen
ĠK ol
et ter
ĠPf arr
ĠStuttg art
ĠF C
Ġall ow
r Ã¤n
č ĊĠĠĠ
is ing
w eit
Ġbeaut iful
l am
ĠH inter
ĠW al
Ġl Ã¤sst
sch er
Ġl im
ĠE isen
Ġl ov
Ġre pr
ĠSch utz
ag n
geben en
k o
us try
ian s
cri pt
V or
auf en
Ġins gesamt
Ġbis her
ĠGesch Ã¤fts
ten d
lob al
ĠD own
ĠK in
m itt
ett be
ĠO s
ĠReg ie
gemein de
ĠWe i
ich ter
ĠK reuz
ĠR olle
Ġemp loy
ym bol
Ġmo der
Ġm ot
ĠCh ina
ĠSel bst
7 2
Ġt able
Ġins besondere
av or
ĠL iteratur
isten er
Ġn Ã¶rd
ĠM os
ĠT age
Ġverschieden e
ĠW Ã¤hrend
fahr t
ĠH in
ĠL ang
ĠSe x
9 5
Ġde ut
op y
qu e
part ment
om an
yn ch
ent wick
ĠC as
ĠLeip zig
Ġc ity
Ġp oint
h as
Ġcle an
Ġfollow ing
ĠK aiser
Ġt reat
it chen
ĠG mbH
ach er
ĠE mp
ĠPr Ã¤sident
ĠZw eiten
Ġn atur
ĠF rei
ĠM er
Ġf ar
Ġo cc
ĠRom an
ĠB ank
Ġz eit
pp er
ak en
ĠK ant
unn ing
ut or
ĠS uper
ĠEurop e
ĠMill ionen
Ã¤n dern
ĠB ilder
ĠM ap
fl uss
Ġet c
O ption
n am
ĠG et
sch lag
ĠSchweiz er
le v
ibli othe
< ?
Ġcour se
st ant
F rom
8 8
j et
i od
ar f
Ġn ieder
em in
itÃ¤ ts
or m
ĠB rit
ĠR hein
Ġme et
D ate
n ull
Ġb it
ĠSch loss
ge gen
ĠB ru
S ize
Ġ198 5
Ġ198 8
Ġcont rol
Ġgegen Ã¼ber
" )
Ġd ist
rif ten
Ã¼r z
Ġsow ohl
etz ung
Ġ id
ts teller
end ing
Ġof ten
ĠInd ustr
ĠHeim at
c ent
Ġh aving
Ġk osten
E M
ĠT op
wo od
E igen
3 7
A D
Ġp ast
it en
og n
Ġbes ten
ic o
Ġwh y
g ar
ber ger
fÃ¼ ll
ct ure
id ing
ĠMann schaft
ĠB ur
eit ung
ene f
Ġp ubl
ib r
O ut
b ank
z immer
Ġdel iver
Ã¼ f
ĠSt art
Ġur sprÃ¼n
ĠBeg inn
ĠF ile
Ġz usÃ¤tz
je kte
Ġm acht
Ġle d
pr int
be k
ĠA fr
ĠJ ust
Ġe ver
Ġeinz el
St and
Ġe lement
ĠW eit
stell ungen
act ory
ich en
anst alt
m el
ĠI mp
ĠL ou
E ine
Ġwicht ig
b u
T r
un sch
Ġp ossible
Ġt imes
Ġp ot
af en
ag t
Ã¶r t
Ġf ocus
Ġbeg inn
Ã¶ ÃŁe
ĠAn geb
deut ung
z Ã¼
Ġdevelop ment
Ġagain st
ak ter
b Ã¼
ĠZ eich
ĠLe hr
a ktion
Ġvor hand
uÃŁer dem
en zen
Ġfor t
ern en
im a
Ġv ol
ĠV ier
ist ische
ĠP DF
Ġ( )
G r
U N
Res ult
shall er
ord nung
ĠPro gramm
ac y
itÃ¤ ten
Ġm aterial
ĠDies er
ĠB ischof
ein en
Ġh erv
Ġp osition
ĠIn sel
4 2
w agen
uch er
N ull
es ted
Ġo ber
ĠT Ã¼r
.. ..
ĠW hen
Ġhin aus
ĠMet hode
a pt
or gen
Ġn ight
Ġan geb
ĠK ilometer
z ess
Ġs ide
ĠMin ister
For mat
F A
U t
Ġst ory
ĠG eld
Ã¶s ung
fra ge
Ġ ens
Ġent ry
an de
Ġzw ar
ĠProf essor
le b
ord in
form at
ĠO ne
ĠPr iv
Ġ(âĢ ł
h or
ir at
Ġgemein sam
ĠC D
ant wort
Er ror
Ġm oney
ĠK ur
Ġmit tel
ĠWeltk rieg
Ġ195 0
==== ====
E vent
Ġy oung
Ġsch wer
Ġoff ers
ĠNor den
ĠSch iff
ĠMar ia
it ze
iv ely
c ol
Ġin tegr
ĠH all
alif orn
ĠZ ur
ĠOlymp ischen
O S
Ġan s
o o
Ġd one
ĠAm t
ĠBo den
. :
6 5
id ay
Ġinst all
ompon ent
ĠT V
A pp
con om
ĠEn d
Ġdah er
Ġun til
Ġpr ice
ver kehr
ĠTh ese
is ed
fÃ¼hr er
ern er
Ġb lieb
Ġbec ome
ĠMe hr
Ġindivid u
Ġe lect
ĠB aum
sp ir
as tr
ĠDav id
Ġwechsel te
_ _
ĠL es
Ġd re
arbeit en
ĠC al
Ġgen au
ĠGer man
Ġopp ortun
Ġna he
ĠK lasse
FuÃŁball spieler
fl Ã¤che
Man ager
Ġn ord
ol oge
ĠW issen
ĠR ichtung
Ġal ten
Ġn ichts
ĠD enk
Ġpr esent
Ġsever al
ww w
B r
zie h
Mar shaller
Ġp lease
Ġin n
Ġer klÃ¤r
ĠVer kehr
a iled
Ġg re
Ġw ind
ĠThe ma
land s
ck s
age d
ab hÃ¤ng
Ġcol or
Ġcal led
Ġen c
Ġin dex
M L
ĠVor s
ach ten
ĠO t
ĠSp an
Ġcont act
Ġmo dern
S eit
ĠA ben
++ )
Ġnor mal
Ġqu ick
ĠMot or
rich ten
Ġl ow
ĠAut or
Ġfe atures
ĠSch ule
ĠH a
ag o
f ace
ĠM el
Ġso cial
s ide
Ġl ink
7 3
s ub
Ġm aj
ill er
Ġcoun try
Ġar ch
Univers itÃ¤t
Ġsh are
Ġcon dition
Ġ198 6
Ġm essage
Ġw he
Ġbl og
ip l
ĠSta at
w ald
ge hen
Ġgeb oren
l as
8 9
ĠH alb
b s
Ġre port
ĠM ore
ĠM aterial
ar ian
Ġget ting
ĠS im
ab les
le f
te mp
ĠJ ournal
I mp
V on
Ġm odel
b are
ang es
Ġpr ivate
ĠR ock
ĠB ot
hl er
in i
em per
bar en
8 5
ĠD ruck
ĠB is
En t
B au
in ge
Ġgew Ã¤hlt
ĠK or
6 4
ium s
on a
ĠS and
ĠAr ray
Ġ9 0
tocol Marshaller
Ġsog ar
ĠH ers
cre ate
ĠIn nen
Par ameter
f an
E L
h an
Ġm ap
Ġres ource
Ġw oll
Ġge lang
ges etz
Ã¼r t
EN T
Ġit alien
pla ce
Te xt
Ġd est
Ġs im
Ġm akes
h ip
Ġ Ã¤
ĠM il
d i
in dex
ĠD ate
om ent
Ġ8 0
p iele
verb and
ĠW ieder
Ġver st
Ġbe vor
Ġbest imm
Ġbie ten
' ll
al ys
el f
f asst
ĠR ein
l ar
Ġze hn
om et
Ġge ben
ĠSt Ã¤d
ichte te
an ks
Ch ar
Ġihn en
Ġw ahr
T yp
il nehmer
Ã¶st lich
s uch
ĠK Ã¶rper
id d
p reis
if fe
ĠH en
ck t
ok al
ic ro
Ġth ough
ĠF Ã¼hr
g ruppe
Ġw atch
lan zen
ym n
ab in
st Ã¼ck
ĠVer fÃ¼g
t ype
m od
s erv
ze uge
Ġac ross
ĠI r
Ġ198 7
Ã¤ch lich
Ġstar ted
Ġfrien d
ĠN Ã¤
row n
l ast
z us
Ġind ustry
Ġ198 4
Ġ3 5
Ġsoll en
ĠReg ierung
Ġmember s
U r
ĠS ub
ĠK urz
ra el
Ġzw eite
J ahr
Ġeinges etzt
W elt
s burg
er ing
ut zen
ide os
Ġkn own
la den
Ġn am
ĠP an
Ġj oin
Ġerreich te
le men
re icht
Ġhand elt
g Ã¤n
ĠH or
ĠBe deutung
get ragen
Ġspec ific
ĠIl legal
at ely
ĠZ um
a ders
Ġ7 0
ste lle
ĠÃ¼ber nahm
Ġsp ace
Ã¤hl en
app en
Or t
st ieg
Ġver kauf
Ġerfolg reich
Ġdes cription
Ġph ys
Ġc amp
ĠSch Ã¼ler
g a
ĠB lack
ann el
ĠA p
ung sp
fol gt
Ġeigen e
Ġzahl reiche
Ġentspre chen
Ġbe ispiel
ĠAlb um
ĠV iel
ge geben
Ġr uss
iz iert
ĠSÃ¼ den
B C
L and
Ġp o
sp rach
le ction
zeich en
ynch ron
ĠW eiter
lÃ¤ uf
ĠSchrif tsteller
F ernseh
ĠP osition
ist ik
asch inen
Ġst yle
Ġbeste hen
Con stants
Ã¤us er
Ġfrien ds
an zen
ir chen
Ġd ate
Ġb enef
Ġme ans
Ġcom es
k or
ĠR ot
ĠIt alien
ĠZw ischen
m ie
Ġs tellt
ĠPr ess
Ġ197 2
weg ung
ĠfrÃ¼ her
Ġ ung
ĠE v
id el
Ġso zial
ict ion
ĠE ing
Ġth ing
zeich nungen
Ġreg ion
ĠG Ã¶
ĠG arten
ak er
Ar gument
en ze
ĠSt ad
ail le
Ġgo vern
ann ot
Ġerne ut
n ach
geb ung
wo hl
Ã¤ chen
Ġse ason
ĠAn zahl
in ed
yn am
b ie
Ġc m
ĉĉ ĉĉ
f red
Ġc la
es te
Ġcom b
Ġmaj or
Ġger ade
sche iden
ch ter
ĠS on
ĠK riegs
av en
och e
wer ke
ĠT al
ĠS ong
Ã¤n den
sche ch
ell ing
ens ion
ĠFuÃŁball spieler
A M
b or
ĠC r
c omp
Ġide as
stell t
ca dem
ĠII I
Ã¤ ischen
ĠFl or
entr al
Ġstud y
ne ction
ring en
Ġpro blem
olit ik
y e
ungs k
ĠE igen
ĠAl ter
s etzt
ĠStud ien
ĠA ber
ad urch
l im
Ġb ar
Ġh Ã¶ch
um ents
ag ing
ĠB or
Ġm ass
Ġoff ic
8 6
C he
ann e
we gen
Ġwel ches
Ġc los
gesch lossen
Ġgef unden
mÃ¤ÃŁ ig
Ġb lack
Ġso gen
ĠW irtschafts
ĠF ernseh
Ġ198 3
h ang
al tet
Ġ{ @
uf act
ĠSt ar
Ġ197 4
e ign
ĠSt at
ĠGr Ã¼nd
Inst ance
ho ck
Eigen schaft
Ġt alk
ĠC oun
ĠD istr
al z
ute t
ĠL Ã¼
ĠTh at
rie f
Ġen ough
Ġs ource
h aupt
leit ung
b ung
m as
ien en
S pe
T rans
Ġex ec
Ġzu dem
is c
ĠD at
ĠLe ague
ic ks
Ġwrit e
B uffer
led ge
Ġto ol
Ġre gel
ein t
Ġerr ichtet
ĠwÃ¼r de
Ġme an
z ir
Ġvorhand en
an o
ĠC enter
ĠHil fe
4 1
ĠO sten
ol den
Ġser ies
c ome
w asser
ĠPar tei
Ġh Ã¶
ĠW esten
tr itt
Ġdan ach
Ut ils
ĠMit arbeiter
Ġmit t
ay er
Ġun ique
ak te
ĠBay ern
v est
ab y
z z
ben e
id a
Ġ> =
Ġheut igen
Ġprofession al
Ġad dress
Ġsom it
k r
or den
il ities
ain ing
ĠA uÃŁerdem
Ġs ug
ĠD om
ĠhÃ¤uf ig
ĠB u
ĠM ass
I P
w ind
Ġh ttp
Ġehemal igen
throw s
Ġm iss
Ġc ent
anad a
ĠA v
r ess
Ġp urch
Ġwen iger
Dies e
Ġst amm
Ġp ur
ĠCl ub
Ġus er
ĠW el
eh men
Ġdeut lich
ĠAn ton
Ġo thers
oin ts
Ġ Ã¤hn
Ĥ ¬
Ġor iginal
Ġh inz
Ġdam als
Ġfolgen der
Ġo p
ĠEr fahr
co ver
Â ²
Ġsie he
es tens
ro t
schul lehrer
Ġstr ateg
Ġs n
ges ellschaft
Ġgem acht
Ġbeispiel sweise
Ġs en
de b
Ġprov ides
4 3
ĠHo use
ĠCar l
ĠA k
ien s
ĠMit glieder
setz ung
0 5
g ent
Ġc lick
ĠG ott
ue ck
an lage
Ġver sch
opp el
g in
ĠG ast
get Name
itu ation
ĠT her
ĠK osten
an ces
ger ufen
ĠRe v
ide d
g re
b esch
ĠB und
Ġbefin den
Ġcon fig
Deutsch land
geb Ã¤ude
Ġsie ben
mann schaft
ĠVerfÃ¼g ung
ell s
ĠverÃ¶ffentlich t
ĠAuf lage
Ġlie ÃŁ
Ġa ff
Ġacc ount
ĠN etz
Ġsimp le
un e
amer a
m ost
i ra
Ġer k
Ġe urop
ĠK auf
Ġam er
Ġp df
ul a
Ġvers ion
U L
ĠD el
ĠZ ust
ok e
Ġa cht
mal e
Ġres ults
u age
hand lung
ĠF el
ĠL o
I L
f ried
ĠgehÃ¶r en
Ver ein
Ġp ie
itz t
ĠColle ge
Å ¡
st it
ial og
Ġw elt
Ġh ours
Ġle b
18 9
iziel le
g g
end s
ik o
ĠW ein
Ġ198 2
ge fÃ¼hrt
ĠG od
Ġw id
de p
ikan ischen
ĠJohann es
la ger
( (
p age
ol a
rach te
ĠPhil ipp
l ad
ĠL age
ĠSp iele
x is
es tern
e ded
ĠS ant
ĠS erv
Ġre cht
Ġwe iÃŁ
Ġcomp uter
Ġrel ations
Ġver fÃ¼
Ġle icht
Ġdesign ed
Ġinv ol
C ount
Ġcomp an
re ibt
as er
ĠJ azz
Ġ197 5
ient en
ĠR und
ĠV al
Ġ197 8
Ġeng ine
F actory
et ten
Ġp ersÃ¶n
ĠPol ize
Ġh om
Ġrequire d
Ġ197 6
Ġl iving
Ġ198 1
Ġf ilm
arbeit et
ran t
ĠW as
Ã¼r d
Ġd at
Ġ197 9
f Ã¤h
Ġw on
f il
Ġf ur
Ġwh ite
20 18
Ġinstance of
5 5
k an
Ġtechn ology
Ġlin ks
Ġst ay
pe cted
Ã¤d ag
F l
f ile
op t
T able
an ken
ĠDe c
ish ing
ĠMed ien
ĠSal z
te id
leg te
Ċ ĠĠĠĠ
Ġwir k
Ġpr iv
ĠWh at
ĠJose ph
ettbe werb
ok rat
p ol
ĠG ruppen
Ġc lose
Ġst ra
Ġw ollen
ĠD DR
ĠAm ts
ĠS achsen
c el
or ed
ĠE lekt
ĠC ommun
Ġv e
Ã¶ ll
Ġoption s
Ġne ar
Å į
ĠG est
ĠK re
ier ungen
ĠAn gel
yn c
meister schaft
Ġ196 9
tem berg
air s
hock ey
4 7
or ies
ĠEng land
Ġk ur
ist ry
Ġ196 8
ĠT ab
ic ation
Ġy et
Ġen vironment
ĠKar r
ĠFre und
Ġer Ã¶ff
Ã¤l fte
ĠVerein igten
ĠErn st
ĠF inal
ĠR em
for sch
Ġtra vel
ĠFrie d
ĠM ad
Ġf uture
Ġg ute
empl ate
ĠK an
s eite
pp en
Ġsoll ten
F F
Ġm at
Ġ(âĢ ŀ
S C
ĠA ka
U p
ci ally
Ġk lass
ĠSt ates
Ãľ ber
c is
ast ic
I G
u hr
Ã¼ ter
ĠAl le
Ġv an
Ġl ag
Ġs ing
St atus
ĠNÃ¤ he
ĠP o
rol le
aff el
Ġa w
ir es
ach ing
ĠN ie
gr am
ĠFe uer
un ge
Ġtra ining
ĠEl tern
ĠC an
ĠOrts teil
Vers ion
Ġdar unter
ĠV o
ri x
ĠArt ikel
val id
ĠDre h
ĠE hren
Ġr Ã¶m
Th ere
ĠF ort
H er
IN D
ĠP et
Ġmed ia
âĢ Ķ
it a
C all
M S
Â »
ĠR ud
it ing
ĠRei he
Ġjed en
S ystem
C omponent
O L
ges etzt
entwick lung
Ġein igen
Ġ197 1
Ġman agement
H och
ne xt
Ġapplic ation
O ff
Ġgen utzt
M us
ran ge
ĠBevÃ¶lker ung
ĠM iss
ĠD ach
ĠS telle
ĠB ach
Ġc ode
Ġh istory
pp ing
s b
ĠA G
Ġverb unden
Ġin put
ĠM ac
c m
as chen
lÃ¤ ss
Ġact ually
ĠG ot
ĠGe f
ĠVerwalt ungs
Ġpartic ular
Ġin form
sp iele
ĠÃ¶ff ent
ch ar
Ġe arly
ste hen
ibliothe k
ĠJun e
Ġl ik
Ã¶ hn
ĠZ Ã¼r
fe hl
Ġsch Ã¶n
Ġpop ular
n ers
ur ance
ger icht
h il
p ark
ges ehen
Ġs ett
Ġc oup
hr te
ĠAss oci
Ġmonth s
ĠRe ise
che ck
as ing
Ã¤t igkeit
fin ition
haf t
ĠK ateg
ĠJ ames
ith er
ĠB ook
Ġcolle ction
Cont ent
g liche
Ġbuild ing
ĠAustr al
ift ung
Ġdisc uss
C E
Ġst ru
at ers
Ġ( =
em a
Ġoff ice
ĠW issenschaft
ĠC amp
Ġor ganis
net en
ĠgrÃ¶ÃŁ ten
ik on
ĠMÃ¤n ner
ĠJ ack
Ġf il
ĠR ang
ik al
Aus wahl
ier ter
Ġcre ated
me e
Ġen erg
Ġb le
U m
k el
Ġm eine
Ġge hen
Ġne ues
Ġqu alif
ĠProdu kt
Ġcustom ers
Ġtot al
im s
Ã¤t zen
âĢľ )
e e
ĠSp rache
O G
ĠR os
ĠO ut
ip le
i j
Ġpro tocolMarshaller
geb ie
ĠR iver
la w
Ġcomm on
ul es
G em
iv il
Ġherv or
or ted
âĢ ĺ
Ġk itchen
ang s
Ġentfern t
Ġf rei
M ed
ĠS a
ge m
Em pty
Ġw onder
Ġ197 7
t c
ĠfranzÃ¶s ischen
Ġerw Ã¤hn
ĠB ack
Ġc ame
Ġre por
arbeit ung
Ġteil weise
i ro
Ġer reicht
ĠAn n
Ã¤t ten
ar tet
Ġc ard
ĠSch ne
Ġdid n
> ();
] .
ĠVors itzen
ĠP rem
ad s
Ġevery thing
Ne w
Ġletz te
T oken
ĠM ein
s eit
on en
he mat
Ġbe de
ĠMal er
as en
Ġth ought
Qu ery
Ġfr ont
ch ester
ĠU p
letz t
Ġcert ain
Ġa ud
Ġf avor
schlieÃŁ lich
p aper
ĠW irk
Ġre ason
ĠAr ten
W enn
le iter
Ġam ong
deck t
it ure
ge hÃ¶r
Ġentstand en
A mer
d t
gen de
ĠEr folg
Ġauth or
Ġbe teil
Ġh uman
Ġem ail
ze hn
ĠRich ard
im ate
Ġw alk
Ġ193 3
P ack
w rite
Ġz ie
ian a
Ġho he
At tribute
Ġle ast
" ;
am in
f Ã¼r
os sen
Ġdoes n
ren g
Ġag o
P S
br uch
ie ÃŁ
Ġdo ing
Tra ce
Ġvar ious
ĠDown load
W est
b ra
Ġzu vor
rit te
ap s
Ġ193 8
Ġs ays
enn ung
ĠCh amp
En d
le icht
ib ility
ame ister
ĠFin anz
ĠG re
ĠEr d
Ġhe iÃŁ
ĠI D
ĠGes amt
Ã¼h le
ĠAus bildung
ĠUnter stÃ¼tz
0 1
Ġt w
us ter
zeit en
ĠSie d
Ġh ig
Ġad min
Ġfe ature
Ġ196 7
r am
c urrent
o der
Ġon ce
h y
ĠFr Ã¼h
Ġ' \
Ġfun ction
Ġinter ess
5 9
ĠK raft
ĠHann over
Ġd ir
us st
Ġh ost
ĠW all
oll ar
ig lich
Ġcontin ue
Ġresp ons
L o
Ġz og
Ġkein en
t ime
¿ ½
ĠB ud
ĠD enn
w esen
Ġto ok
ir c
St art
Ġpro b
it le
Ġin tern
ĠM ilitÃ¤r
Ġw issenschaft
im um
Ġg ames
ĠJ ur
imm ung
Ġabsol v
F e
tr ieb
Ġcon text
Ġad v
ĠY our
Ġ197 3
ĠHer ren
ĠBerlin er
un ction
Ġst arb
Ġgleich en
ĠKarr iere
0 9
t est
v o
ï ¿½
at ors
Ġb lock
ĠRe gen
Ġst ore
Ġ193 9
Ġakt iv
I V
Ġ196 4
ĠEnerg ie
ĠBr and
ĠMa ÃŁ
jÃ¤hr igen
f ix
Ġbei de
ĠS et
f rei
z a
Ġent hÃ¤lt
ĠPh ys
Ã¼ss el
âĢ¦ ]
ĠSch wer
0 6
g ment
Ġzur ueck
i ar
ain ed
I M
g round
ig ungs
ĠN ow
ien te
Ã¼l t
i ents
te in
ach ed
ĠPart ner
Ġe her
ĠB on
ĠF ig
Ġex t
Ġm em
Ġger ne
ur ren
as il
af fe
Ġ194 0
iden ce
Ġexper ien
ĠD res
K on
Ġt arget
Ġentwick elt
ig entlich
Ġam az
b ro
Ġcompan ies
g ere
ĠI d
ze ugen
ĠHer mann
Ġpos ted
Â °
ĠS aint
st ud
Ġn ode
end es
ĠW ol
ip ment
ĠFl uss
Ġunser en
ĠF uÃŁ
Ġperform ance
ĠnÃ¤ch sten
Ã¼rt temberg
ĠG leich
ĠE lement
ct ors
Ġ196 5
w ill
, "
f ten
v ing
Ġnach dem
S ub
us ion
Ġaus gest
ful ly
ich ert
Ġ5 00
B ut
L ine
u ed
z iert
ar th
ĠM ult
ĠR oy
Ġf it
ĠHer aus
ĠPolit ik
ĠH Ã¤lfte
Ġ4 5
ĠD och
Ġapp ear
P ol
Ġf alls
ĠBahn hof
ĠnatÃ¼r lich
ĠN et
Ġde al
ĠMin uten
č ĊĠĠĠĠĠĠĠĠĠĠĠĠĠĠĠ
ĠN am
ĠVerb indung
r uf
Ġd ue
us ive
ĠB al
urn iture
ĠM ond
Ġfolgen de
c ement
ann ing
Ġby te
vent ion
ĠB Ã¶
ĠF ree
Ġ196 6
Ġpre vious
ĠVert rag
bed ing
zentr um
ĠT ier
ĠM ess
ĠT ur
sch iff
fahr er
ĠF Ã¶rder
d in
ĠK opf
Ġne g
Ġev ents
Ne xt
ĠOt to
ĠA uss
ĠP lat
Ġf ert
ĠA uÃŁen
Ġg iven
aus ch
ĠDam it
Ġe lekt
ĠUnter such
Ġrec ommen
n o
ĠB ig
b lick
ĠGo ogle
arr iere
ĠL icht
Ġl ater
P art
ĠKl oster
p oint
ĠT on
ĠF le
ĠWolf gang
Ġvoll stÃ¤nd
. <
ĠBas is
U til
b an
ĠUn ion
Ġwrit ing
Ġloc ated
6 6
z we
ĠKont akt
Ġfr Ã¼h
ymn as
1 00
k i
Ġph one
Ġs tellen
ĠD ay
Ġk amen
Ã¶r m
Ġeben so
w art
ho ut
li ents
Hand ler
Ġ Å
Ġre le
Pro v
ĠAut o
B o
te cted
Ġh old
hal te
ĠThe men
ĠG roup
Ġinclud es
M odel
u a
we isen
rÃ¤ ge
em ents
iz er
olog ische
ieren den
ĠVers ion
or te
el ten
ĠK ing
ĠRe cht
au ber
Ã¤t ter
A ccess
ĠO pen
Ġfol gte
= "
an cial
Ġauf genommen
fl ug
Ġho hen
at iv
ĠB aden
ĠSie g
ĠauÃŁer dem
f ar
Ġl ock
Ġr en
Ġpr im
Ġd Ã¼r
Ġunter stÃ¼tz
deb ug
Ġsel ten
c ase
ĠFra ge
Ġsel f
Ġa ch
os ph
h ing
Ġw Ã¤re
le tt
Ġnew s
ĠF en
ame ters
Ã¤ch s
Ġmach te
ĠHerz og
ĠNach dem
Ġb ad
ĠS u
isse ur
p ass
ran g
Ġd iff
Ġd istr
Ġre d
Ġver lie
Ġso ftware
ĠGes und
ĠFra gen
E X
S ource
ĠK ons
ist ic
ad a
l ant
Ġ ill
it ts
ble ms
U ser
Ġ19 20
Ġd ivers
ĠG al
ĠR ob
Ġare as
ĠDies es
o on
ĠPr es
Ġ< =
ele br
ĠE t
G ener
Ġw ait
Ã¶ ne
Ġne hmen
Argument Exception
G B
Ġs il
or es
Ge ographie
k le
Ġh ope
Ġup date
Ġk ont
Ġex ception
fol ger
Ġdar Ã¼ber
fall en
I tem
ĠK ampf
ĠSpiel en
W hen
Ġ196 3
ĠGra b
Ġf ace
Ġto ur
i h
Ġm illion
ĠK ranken
Ġcon stru
or ten
ĠB ill
Ġh ab
ĠP op
Ġ193 0
Ġw ent
In t
Ġgew esen
leit et
Ã¼ss eld
S P
Ã¼ st
ĠA ward
Ġwall paper
Ġv ia
Ġspe ziel
Ġiss ues
Ġstell te
aup ts
ĠW o
Ġle g
Ġ196 2
Ġhapp en
Ġnatur al
Ġw ww
ĠD eb
Ġj apan
ĠMus ic
Ġra d
ĠL at
Ã¤n gen
ich e
ĠA fter
ĠV ideo
C D
ges tell
s c
Ġd etails
Ġa ge
Ġpr ess
d am
he ad
ed ule
Ġse en
Ġfin ally
Ġbo x
s ie
ĠBru der
Ġp aper
ĠH al
Ġper iod
Ġbest and
cre t
c il
at is
sch riften
ĠO ct
ĠA re
ĠL ong
or ing
ĠC ons
Ġal t
ell ow
ĠSil ber
Ġpr int
com ing
Ã¼s se
8 4
Ã¼ ste
av y
Ġman ufact
ĠGe orge
tt y
s m
ĠM r
Ġer ster
Ġ Ð
ĠS yn
Ġann oun
as ure
Ġf oot
ĠL Ã¶
ĠT emp
iz es
hal ts
ĠHe il
bo x
Ġen ter
ĠSte uer
an ger
Ċĉĉĉĉ ĉ
ĠkÃ¶nn te
ĠRe publik
Ġmin utes
ĠArbeit en
ĠGe ist
S V
ick en
ĠReich s
ĠS in
as ten
Ġerh Ã¤lt
ĠSt Ã¼ck
C hr
ter m
Ġide a
i pe
Ġsch rieb
Ġben Ã¶t
Ġa ction
ikan er
Ġh ot
ĠNach t
A B
Å Ĥ
an gel
Ġb esser
ĠI ll
as te
rit z
ĠGr and
ktion en
ĠBr on
Ġdam al
Ã §
Ġcomp et
Ġex ten
Ġquest ions
i w
ĠZÃ¼r ich
S E
af t
ug hout
ĠFol gen
Ġex pl
he t
ĠR at
ze igt
Ġson st
ĠPhil osoph
ĠLou is
t d
ĠVer gleich
Ċ ĊĠĠĠĠĠĠĠĠĠĠĠĠĠĠĠ
\\\\\\\\\\\\\\\\ \\\\\\\\\\\\\\\\
P er
y a
Ġ196 1
Ġ194 4
Ġbr and
Ġtro tz
O ur
ĠT w
Ġre chts
Ġsome one
ĠJ es
om s
em b
Re c
ĠA ugen
ĠGemein den
Ġlat est
en ces
ĠC ent
Ġab ove
icher ung
Ġstr ong
Ã¤nder t
w ord
x y
ĠF und
tr ue
Ġmehr eren
8 3
ge hend
Ġal te
Ġver d
ĠAlex ander
Ġwh ole
Ġze igen
zeug t
ĠW alter
Ġ3 2
An y
ĠM ath
ĠD okument
ĠL aw
ĠR Ã¤
ĠÃ¼ber n
st ate
Ġge legen
ĠfÃ¼hr en
Ġhal f
Ġr ate
ĠMe er
Ġloc ation
Ġc ook
if fen
Ã¤nd ig
me hr
ĠStre cke
z ip
Ġhe art
Ġvers te
anst altung
L istener
ĠB d
ĠWer ke
Ġwirk lich
it i
ĠS Ã¤nger
H ol
Ġf und
Ġe conom
ra in
ĠW ort
ĠW ild
ter e
ut il
ĠC la
fol gen
ĠStand ard
k und
w irk
ĠG i
ĠL iga
Ġaus gew
Q L
Ġt aking
ĠSer ie
> (
h ib
sch t
olog ischen
ĠBÃ¼rger meister
ad o
ou d
be ck
ĠStud ium
an ted
ĠS at
ĠW ebs
rie ch
neh m
T H
ig ner
Ġcle ar
Ġer reichen
Ġsp ielt
g y
Ġs ong
Ġbel ieb
lo c
l ot
ab ase
Ġass ist
Ġ[ âĢ¦]
Ġaktu ellen
I s
or a
so zial
lie ben
ĠÂ «
ĠAka demie
Ġf ive
ĠArray List
8 2
Ġm er
ĠF ace
ed en
id t
ĠAr m
Ã¤l le
ou ver
ra chen
ak a
ash ington
Ġrec ord
et y
est s
Ġp ick
b ark
ĠI T
ĠBes itz
ĠRe ad
ur al
ĠPriv at
' )
Ġb i
ĠSp ring
ĠTe ile
St at
Ġl ength
alys is
bet rieb
Ġenerg y
P age
al a
st ring
Ġgeb aut
Ġsetz te
ch end
Ġinn ov
Ġwoll te
ĠSch Ã¶n
S ON
b Ã¼rger
Ġde fault
ĠEx per
P E
ĠB usiness
ĠGl as
ĠForsch ungs
ĠH an
ition s
istr ation
ĠK omm
Ġad ded
ĠPr Ã¤
Pro du
ĠW and
gen cy
ĠPf lanzen
in fo
T Y
lie d
aler ie
il ar
ĠD ann
Ġ195 6
Ġb ath
Ġp an
ĠB lick
âĢ ŀ
Ġcho ose
. -
R el
Ġt ax
ĠF rom
Ġcl ient
fass ung
Ġgovern ment
F ilter
Ä į
dr esse
Ġihr es
Ġfin anz
final e
Ġf ire
ĠH essen
ĠNew s
f Ã¤ll
Ġat tra
bo ard
ĠZentr um
m Ã¶
Ã¤ te
Ġc annot
ĠCh or
w issen
le cht
Ġp lat
ist ent
yste me
Ġevery one
L ength
Ġim ages
ĠBe griff
ĠAuf trag
Ġar r
Ġ195 8
l iste
an ischen
ro ffen
Ġphot os
ĠWill iam
u c
v in
ĠSe c
ask et
Ġcurrent ly
Ġnet work
Ġse par
In ner
in den
ĠP sych
ĠSt unden
Ġex ample
Ġchar acter
em e
O per
ĠI hren
ann er
anden burg
le cted
ĠEn ts
zie hung
k reuz
ut her
Ġ194 2
ĠS old
Ġde b
etz en
mar kt
l ern
ĠGeb urt
Ġcom fort
tag s
ĠmÃ¶ch te
A ss
Ġent halten
Ġ194 6
ĠGeb ie
Ã¼ll er
Ġqu ite
Te ilnehmer
ĠPro ble
ĠÃĸ ff
T rÃ¤ger
Ġs ystems
Ġgemein s
ĠZu dem
Ġpartic ip
M ail
Ġho tel
k athol
Ġc ra
ĠV is
iv ity
Ġunser em
idd le
6 9
ĠP ublik
lan gen
ĠL eiter
ĠEr sten
par te
Gem ein
N umber
l ist
Ġv o
Ġst aff
iz ing
S D
S port
Ġ- -
Ġ194 1
wohn ern
Ġbesch Ã¤ft
Ġens ure
orn ing
Ġ195 2
ĠAus wahl
ĠP il
ĠSt ru
Ġne eded
ĠK ey
0 8
ĠIs land
ĠPla y
olog ical
ĠHow ever
techn ik
ĠA st
Ġknow ledge
Ġc lients
Ġeduc ation
z Ã¤hl
Ġe ither
ĠA th
ĠA ct
Ġer ziel
Ġs ites
ĠH y
ĠG as
Ex pression
ĠIllegal ArgumentException
Ġt c
pro tected
v on
z uf
pe cially
gel Ã¶st
b um
ot o
mar shall
Ġ195 9
Ġread ing
Ġcom mer
sta at
Ġt un
Ġp orn
Ġz erst
ĠH is
Ġm ix
Ġk ennen
ver walt
Ġun ver
Ġprovide d
aur ant
aun ch
n es
ĠW ider
ac es
u ell
se hen
Ġspiel en
Ġs ale
ĠP unkt
ĠJ ac
Ġfur ther
Ġ Ã¼
tr ie
Ar ch
Ġaut om
ĠH ere
fer enz
ĠJe an
Ġe p
Ġc ount
Ã¤d chen
wie gend
Ġt akes
ĠM ount
ĠU N
is es
Ġh air
be zirk
ond s
Ġval ues
zir ks
M A
ĠS ing
ĠSchw arz
ograph y
Ġass oci
wh ere
Col umn
ĠUm welt
G es
r hein
Ġp le
ieren de
l ong
Ġd igital
th ough
rie ges
k ret
re ten
0 3
6 8
Ġm m
ĠMe x
k ap
B IND
or der
ĠSt ock
ĠT om
Ġmitt ler
ĠheiÃŁ t
Ġal most
ail y
Ġint rodu
Ġmark eting
lichkeit en
stre cke
ar ter
Ġo ben
ade d
Ġ ;
ĠI st
Ġver he
ĠS Ã¤
ĠLe hrer
Ã³ n
Ġto wn
ĠP C
Ġpro blems
In teger
Ġres ources
ĠE U
ĠKÃ¶nig reich
ĠMod ell
ĠWind ows
ĠInstit ut
Ġsimp ly
S te
ĠW ahr
Ġst re
ist an
wert ung
F r
Ġl iter
ĠSt il
ow ed
Ġthro ughout
i i
k unde
ĠD Ã¼sseld
Ġp sych
ĠC am
gel n
ĠAmer ica
ĠS onder
ĠT ages
BIND ING
l it
Ġan schlieÃŁend
ĠV ir
er ror
Ġv ari
ĠK al
Ġd ritten
ĠRe al
ar ts
h ab
au ern
Ġsie ht
ĠEnt scheid
Ġwhe ther
b aum
w esten
Ġm ove
Ġany thing
Ġh on
Ġpart y
Ġbe deut
Ġco ol
y ear
ĠGr Ã¶ÃŁe
Ġ194 3
Ġins ide
Z u
l ingen
Ġs ens
Ġbes uchte
Con nection
ĠMan agement
irat et
ĠOr iginal
osp ital
Ġeinzel nen
0 4
te x
Ġp ain
ĠU s
ĠStre et
** **
F rau
unk ten
Ġch allen
Ġ194 9
Ġc elebr
au b
Ġble ibt
Ġ Ã¼b
is ted
Ġb ud
ĠA cc
ĠP lease
rÃ¤ fte
ĠUnterstÃ¼tz ung
r unde
Ġb ir
Ġde v
ĠUm gebung
ĠB il
ap ter
Ġso fort
hl t
ho ben
ĠAut om
g as
Ġd ig
ĠD ivision
erv e
rit ik
unter nehmen
Ġread y
ĠI hrer
Ġver ein
lic ation
rei ber
Ġit ems
Ġreg ister
ĠFir ma
sch uss
Ġ194 8
ĠIn teger
u it
st art
ĠL os
re quest
ra uch
all ery
ĠAb geord
p lat
ur a
Ġj Ã¤hr
Ġd et
ite te
Ġsh ows
T R
m und
it sch
ĠN ik
ĠOr d
teil en
Ġvar iety
N ames
p ack
ĠB us
ĠAr mee
ĠSo ftware
Ġk ids
ĠO f
ay out
mer k
Ġd og
Ġw ide
ĠC up
a at
ĠF ern
ĠBl Ã¼
ĠDres den
ĠMÃ¼n ster
ca pe
Ġbook s
n d
Ġe igentlich
ran sp
0 2
Ċ ĠĠ
un ch
ĠK ern
Ġit em
Ġro le
e ks
Ġes pecially
Ġf ul
Ġge geben
af r
Ġent ire
ĠLin ie
Ġconc ern
z i
ĠU K
Ġindivid ual
c up
m ission
Ġb ase
ĠKon z
c ar
ĠBe zeichnung
Ġne un
Ġum fasst
Ġ195 7
Ġpra kt
ĠverÃ¶ffentlich te
Ġkosten los
Fernseh serie
ĠR and
C olle
p ath
ĠNach folger
ic les
ĠW ashington
ct ing
spiel en
ver age
Ġbes onder
Ã¶ sen
aus t
Ġfor mat
Ã¤r k
er r
ell ent
Ġ195 5
abr ik
Ġstand ard
ĠFest ival
D ire
on ie
ĠursprÃ¼n glich
ĠAssoci ation
un s
ĠD isk
ick et
Ã¤ ten
Ġp ark
ĠN icht
T ER
an lagen
Ġv eh
ste ad
er o
ĠD oppel
Ġhe ld
ĠErgeb nis
ĠH D
Ġcustom er
Ġquest ion
ĠAkt iv
ĠS ingle
ĠSicher heit
aliforn ia
at ten
ĠH Ã¶r
ĠKant on
Ġt aken
ie ÃŁen
ĠM use
ĠG ut
ĠL ink
Ġbel ieve
ĠSp r
ĠDenk mal
i ally
on om
ĠS ow
Ġz uf
ĠL oc
M ax
Ġge d
Ġtyp es
" ))
M y
w ner
Ġp aar
ĠL Ã¤nge
ĠV oll
Ġpr Ã¤sent
Ġtra ck
Ġ195 4
Ġinternational en
Ġactiv ities
0 7
er al
Ġbe ein
ab eth
Ġart icle
ĠDan ach
Ġrelat ed
Ġstamm t
ĊĠĠĠĠĠĠĠĠ ĠĠĠĠ
ien ste
ĠAben d
Ġt erm
Ġer folgt
Ġm Ã¶
im inal
ind ing
Ġcon tra
meister schaften
Ġgesam te
O P
Ġp aint
ĠK olle
5 6
ot a
setz en
ĠBre men
ĠerwÃ¤hn t
i est
Ġan z
ĠR a
ĠR unde
Ġpre tty
Ġappro ach
g or
Ġr ule
ĠNach bar
S etzt
Ġm obile
ir ate
Ġgener al
Ġbil den
ĠC our
ĠSch e
ide t
get C
Ġent w
az on
Pack age
9 3
ĠSp rach
Ġverl oren
ent ry
d ata
il det
ic ate
8 7
ĠC ms
Ġr unning
Ġlead ing
H el
l Ã¶sung
ĠIm m
os h
Ġne uer
Ġhapp y
g ten
Ġst op
u hl
Ġje dem
ĠR en
do or
or ien
Ġn ice
ĠPr inz
van gel
Ġw anted
ĠU R
Ġrece ive
b us
ĠB all
if ier
Ġoff iziel
ĠSoc iety
d ung
ĠBe k
ĠComp any
Ġsign ific
5 3
richt ungen
er in
ĠEngl ish
Ġper cent
halt ung
ĠKompon ist
Ġc as
Ġpar ent
Ġf all
Ġk athol
Ġopt im
g ien
Ġf ra
pro chen
ĠEp is
ĠD or
se qu
spr uch
Ġwel cher
h le
l ers
T ag
k y
ve y
ĠC re
ĠN ur
Ġreg ul
Ġopportun ity
Ġal tern
ĠEr k
ibr ary
Ġs we
at iven
Ġw ays
ĠH art
Ġde f
Ġamaz ing
u he
it ar
ĠAn schluss
gr enz
Ġcom ment
Ġmind estens
ĠGrÃ¼nd ung
ĠChar les
ig in
cl ient
Ġbet rÃ¤gt
Ġsub ject
ĠG reen
ph one
f alen
ot ion
c ul
Ġam ount
Ġgew orden
ĠPol en
Ġehemal ige
ĠSt rom
ĠAl bert
Ġrec ently
ne ter
Ġ3 00
ĠsÃ¼d lich
Ġ row
Ġw es
ĠF irst
lin ie
ict or
ash ion
Ġweiter hin
Ġj Ã¼d
Ġso on
ĠAb schluss
ĠH aut
Ġje de
ĠnÃ¶rd lich
Ġrec ent
ĠL A
Ġpat tern
Ġpict ures
m o
at tet
end ar
ĠVer d
Ã¼hr en
ĠMar ch
S upp
ĠC ap
ĠGes etz
Ġbu ilt
D urch
Ġe uch
ĠE ast
Ġl on
Ġt ell
sch au
Ġge k
Ġpar ts
ĠJ er
Ġkn app
Ġlearn ing
Ġled iglich
ĠH om
ĠEx ception
te ten
ĠHe alth
ĠLie be
Ġp ers
hr t
ot es
ĊĠĠĠĠĠĠĠĠĠĠĠĠĠĠĠĠĠĠĠĠĠĠĠĠ ĠĠĠĠĠĠĠ
N o
ĠSt amm
Ġst ream
forsch ung
ĠFace book
ed ding
ĠL im
ĠZeit schrift
ĠReg ierungs
on ym
Ġf urniture
Ġz ust
Ġev angel
Ver lag
Ġb us
la f
Ġcom ing
h ers
ĠJ ung
Ġum fass
Ġest abl
ĠT urm
ĠC le
Ġne cess
Ġun ivers
Ġ194 7
Ġ195 3
i ÃŁen
Ġin spir
Ġplan s
ĠL OG
tr ies
ĠVer Ã¶ffentlich
Ġsch loss
mus ik
pr Ã¤sident
F I
Ġdar f
trib utes
ĠJose f
Ġdis play
Tra cing
Reg ion
st att
A uch
P ort
U E
b ischof
Ġb lo
<? >
M on
g arten
z og
Ad dress
9 6
ĠR itter
Ġus ually
Ex ec
ĠFre ib
Ġerm Ã¶glich
ie ur
Ġf ig
G et
ĠA cadem
ic ult
ĠIn vest
Ġtry ing
f amil
ĠOr gan
l n
Ġ1 000
ĠW ies
ĠKateg orie
ĠP unkte
ien d
Ġj Ã¼n
Ġch rist
Ġyour self
Ġber eit
piel t
ĠG Ã¤
Ġerh Ã¶
Ġabsolv ierte
5 8
or gt
ĠD azu
Ġrem ove
ĠAndre as
ĠEisen bahn
um in
Ġk aum
Ġste p
ĠEs sen
G ra
Ġch em
ĠVerein s
lei ben
B lock
ir it
Ã¤d t
ĠKÃ¶nig s
ĠAn aly
Ġh or
ad y
Ġwo od
cont ains
T V
Ġs ales
Ġdes halb
uch ten
Ġs le
Ġs ix
Ġf ix
Ġp oss
ter ator
Ġpre p
Ġpict ure
ĠIndustr ie
m ap
ĠS ur
Ã¼ ge
Ġc ur
ĠComp uter
ĠVert re
lef on
ĠAn g
K E
Ġ3 6
č ĊĠĠĠĠĠ
Ġb em
Ã¤n gt
ĠMed izin
ĠHoch schule
M in
Ġs ent
Ġges tellt
Ġgleich zeitig
Ġbring en
V iew
d aten
ot or
Ġbes itzt
zw ischen
Imp l
ig r
Ċ ĊĠĠĠĠĠ
Ġup load
Ġeinz ige
ĠUnternehmen s
ĠBrit ish
O D
ĠS ign
Ġre lig
ĠChe m
ĠGot tes
w ir
sch lÃ¤
if iz
Ġsel ben
Ġsc reen
| |
Ġn immt
b orn
Ġ );
Ġg anze
uf e
ĠVer l
Ġval id
Ġw ords
ĠProdu kte
ĠL ife
Ġstor age
Ġrece ived
r ug
ĊĠĠĠĠĠĠĠĠ ĠĠĠĠĠ
jÃ¤hr ige
9 8
Ã¶ p
Config uration
t itel
Ġw ohn
ĠA ch
ers eits
Ġb ott
Ġer z
chn et
ĠZusammen arbeit
und le
Ã¤ cht
Ġh alten
zahl en
le ted
ĠP fe
Ġdiff icult
ĠL ive
Ġbe ge
Ġext rem
Ġd ocument
Ġs end
ĠC O
ĠInstit ute
c ast
o den
Ġg lobal
ĠO ption
Ġ- >
a ill
t schaft
Ġc enter
ĠL eitung
Ġout side
ĠhÃ¶ her
Ġo il
Ġbek ommen
Ġtreat ment
sp ro
Ġsol utions
Ġcor re
ĠT im
ĠW ass
Ġse em
ho use
Ġeffe ct
Ġd raw
In d
Ġacc ording
Ġdec or
ĠW ell
Ġcoup le
ĠI V
ĠAl ten
Le vel
ĠOff izielle
bark eit
ĠZeit punkt
9 2
Ġs etzt
ĠA ud
Ġsk ills
ĊĠĠĠĠĠĠĠĠĠĠĠĠĠĠĠĠĠĠĠĠĠĠĠĠĠĠĠĠĠĠĠĠ ĠĠĠĠĠĠĠĠĠĠĠĠĠĠĠĠ
5 7
Ġs b
Ġs ave
ĠS onn
ber e
ĠAn na
Ent ity
ĠS omm
Ġus ers
Ġup d
fra u
Ġiss ue
ĠAngeb ot
P f
Ġb ald
st Ã¤tte
ĠI N
ĠPro blem
Ġapp ly
Ġ193 7
NA ME
is Empty
Ġ4 00
ĠZu ge
ĠgrÃ¼n dete
Ġs ession
Ġre v
Ġch anges
ĠI P
ĠAl so
ĠWien er
ab il
P e
Ġern annt
Â ®
Ġst ammen
ĠSchauspieler in
f Ã¶rm
ĠS ome
ĠT ruppen
aug h
Ġequ ipment
A cc
ĠS onnen
ad ata
Ã¼n ft
lin ge
Ġout put
Me ter
ĠS tern
get S
les en
Ġpract ice
Ġd ro
ĠD ipl
tr at
Ġrec ogn
Ġgesch lossen
De finition
alle l
Ġm oment
qu are
Ã¼f ung
Ur l
D a
E d
Ġ rom
ĠL ake
ill ing
ht t
Ġso und
ĠHer bst
ĠfranzÃ¶s ischer
L ink
re chen
ĠWh ite
S U
k raft
Ġw ord
Ġ+ =
Ġausge zeichnet
kt iv
ĠStadt teil
ĠgrÃ¶ÃŁ te
Ġaddition al
ur er
ĠL Ã¤nder
Ġb leiben
ĠK er
Ġj ava
Ġbil det
p ted
ĠB onn
ĠJ ob
hen s
ĠSc ience
Ġt old
. ");
G er
Ġ193 6
Ġproject s
Ã¤dag og
ch ange
Ġst ock
ang ing
heim er
Ġmed ical
C ms
l ings
Ä ģ
ĠE ss
Ġ195 1
hil fe
P at
f unk
ed s
Ġins urance
we chsel
rem ove
Ġcomm it
b i
ĠC alifornia
isch em
asket ball
id th
ĠAr n
ĠBo x
-------- --------
Ġinit ial
w al
ĠS und
ĠU ms
ind est
ĠCh urch
Ġfin ancial
bu ild
re ise
5 4
H T
ĠS n
ĠK ra
Ġex tens
Ġaktu elle
ĠFried hof
Ġd adurch
ĠT at
ĠQu alitÃ¤t
Ġprob ably
Ġin dem
Ġm orning
iqu es
ĠHÃ¶ hen
9 4
č Ċĉĉĉ
Ġnot wend
astr u
Ġm el
rei he
ĠInd ia
lemen te
ĠS upp
ĠCar ol
Ã¡ n
ĠInst r
Ġcho ice
Ġl aut
Ġide al
As ync
M P
W ie
g u
Ġm atter
ĠT ime
Ġprodu ction
ĠVerkehr s
ĠTra dition
Ġflo or
ĠH ard
Ġfor ward
we ig
Ġpro perties
ĠFen ster
d own
pp ed
amerikan ische
Ġans wer
ĠDÃ¼sseld orf
Ġzu letzt
ĠVer kauf
Ġ193 5
k arte
ell o
zie hen
ĠM as
vers ion
schein lich
at ory
Ã¼ cht
ro id
Ġre qu
t a
app ing
Ġjed es
is ierte
ĠL ied
Ġto uch
ĠAb s
Ã¤hl te
ĠzusÃ¤tz lich
Ġd ich
wissenschaft ler
ĠEurope an
ĠR Ã¶
Ġth ird
ĠJ ak
Ġprov iding
fr astru
Hoch schullehrer
ĠS ar
Ġver m
Ġex am
Ġemp f
Ġwer de
ĠBes uch
ĠSchl acht
h inder
Ġt im
Ġp oints
pp e
Ġvor her
Ġhow ever
ĠBen utz
N ational
Ġlook s
Ġentwick elte
Ġbeginn t
k au
Ġstud ent
Ġpolit ischen
c as
Ġb al
ud es
ĠWe ise
Ġsec urity
Ġfavor ite
k unden
ed ia
He ader
trÃ¤ ge
5 2
y es
ap ie
ĠGr enze
ic ago
ĠL ager
ah nen
Ã¤n n
ĠBes te
ĠIs rael
denk mal
g ers
Ġwe eks
att le
fl Ã¤chen
ĠFot os
ĠS aar
Ã¤ um
itt ing
rÃ¤ s
Ġcol umn
im in
Ġer he
ĠfrÃ¼ hen
irate te
ĠFran cis
Ġ193 4
Ġk aufen
Ġse ems
Ġex pect
Ġcomp on
ĠEng ine
ĠÃ¤l tes
wÃ¤r ts
ie fer
Ġs ummer
ĠAuf gaben
ĠNutz ung
ĠA c
Ġpl ant
ĠBay er
lau ben
Ġbeh ind
d k
d ire
ĠM em
ĠTeil nehmer
Ġt ransport
ĠK lass
Ġer forder
ĠV en
6 3
L ong
O C
Ġâ Ĥ¬
O ne
Ġs od
Ġe mer
ĠF ass
Ġz entr
Pro perties
Ċ Ċĉĉ
imm el
6 7
v a
ie ger
Ġw oman
ĠH off
Ġst ation
mut lich
Ġc ut
lie fert
ĠFl Ã¤che
ĠBest and
ĠZu kunft
Ġarbeit en
C ache
S A
b ased
Ġf anden
ĠEx p
ĠWeit ere
ĠT ill
om a
ĠH ir
Ġange geben
Ġc redit
ĠF arb
Ġzahl reichen
C o
ist in
Ġfr esh
ĠTra iner
ĠGÃ¶ tt
ĠR ennen
Ġsch l
ĠLe g
Ġlang uage
c ies
k lasse
q l
ĠW oche
ĠVer wendung
Ġinclude d
ð Ł
ic ip
ho den
St ore
gemein schaft
wissen schaften
ĠA tt
6 2
ĠP rom
ĠT enn
ĠK laus
ĠRoy al
ĠBe im
Ġreg ard
ĠDan iel
R A
Ã¼ gen
au te
ĠNe ub
Sch w
8 1
Ġl os
get Message
ks am
ĠMat hemat
5 00
Ġb ere
Ġf iel
Ġc y
ren ch
ĠVol k
Ġeff ic
n der
ĠS l
Ġf unktion
Ġpr ior
Ġdr ive
Ġsignific ant
Ġw in
ic on
ach ts
Ġer ror
ĠM Ã¤dchen
ag te
pos it
ĠFot o
ad es
Ġreg ular
w s
Ã¼ m
ĠH alle
Ġg round
Ġsug gest
F C
Ã ¸
Ġre lease
B A
p ret
u ert
ĠMar y
Ġwen ige
ĠfranzÃ¶s ische
Ġrepr esent
anstalt ungen
h istor
p ers
ĠJ ud
Ġst reng
ian o
D at
p hen
ick ets
hÃ¤lt nis
ĠL ove
Ġro ad
ĠSh ow
ĠD Ã©
ĠH ash
Ġwelt weit
ir ch
Ġsp ort
Ġgra ph
u elle
Ġle ave
Ġpot ential
p ose
Ġd om
Ġre fer
P os
Ġbe ach
Ã¶ ss
ĠMon ate
ber eit
Ġis n
ĠBr un
ĠEin fluss
ĠOct ober
d om
ĠF eder
H E
ic ated
Ġver k
ĠIn c
Ġricht ig
ĠServ ices
\ "
is Any
ĠW ander
ĠZ immer
Ġver z
zeich nis
D is
Ġben annt
umen te
ĠD ir
ĠAus gabe
ĠJul y
w ell
gen er
ĠAn s
Ġex act
g ibt
j ust
Â «
ĠA ust
Ġc aus
ĠT Ã¤tigkeit
ĠG ro
ĠSchm idt
5 1
we chs
Ġind ustr
ĠS amm
ber n
Le gt
Im age
ĠRes earch
unt ime
Tracing Enabled
w en
ess ages
P DF
f unktion
l ament
Ð ¾
Ġwe ight
tra gen
vers e
Ġ192 9
Ġerschien en
for men
Ġalle in
S I
Ġfl ow
at alog
Ġin tens
ĠBe zirk
Ġmar shall
ĠS C
Ġwar m
ma ÃŁ
ĠFar be
ĠÃ¶ffent lichen
20 17
isAny TracingEnabled
ĠFahr zeug
o e
ĠM icro
verwalt ung
Ġl aunch
ĠunterstÃ¼tz t
ĠK u
Ġall ows
ĠW in
Ġgu ide
Ġser ver
Ġj unge
ĠOr ganisation
org ung
Ġrem ov
Ġwrit ten
Ġeas ily
M atch
ĠP orn
w an
ul en
Ġun mittel
ĠEin wohnern
ĠQu alif
st attung
ĠTex as
Ġd ra
Typ es
ĠT own
ab s
Ã¼r n
ĠZ usch
Ġconne ction
Ġl ives
ĠâĢ ļ
end ung
Ġle ader
Ġbrit ischen
Ġall gemein
Ar t
ĠChe ck
Ġge grÃ¼n
Ġdes cr
ĠKir ch
Ġsk in
ist ics
tt ps
ĠQ ue
Ġs al
aut or
ĠZeit ung
ĠPerson al
Ġincre ase
ymnas ium
6 1
Ã¶ nen
ĠZ wei
ĠInd ian
Ġbo ard
Ġpol n
Ġverhe iratet
ĠE th
ĠO k
op en
Ch ild
Ġre in
la y
Ð °
re publik
Ġtra in
res ult
Ġ19 18
Ġoffic ial
Ġd iente
ie gen
ver fahren
we ile
ĠRel ig
ĠStÃ¤d te
E urop
k omp
ĠM aster
ho od
Jahr hund
er weise
Ġ1 20
J ob
ĠS uche
ĠE ben
ĠAll er
Ġsol ution
ĠPat r
at ung
ĠAn gaben
s a
Ã¼ ft
ĠD amen
Ġh und
ken nen
Ġqu ery
ĠFr iday
Ġschw arz
sw Ã¼rd
ĠG ran
em ble
ial e
Ġbede utet
p a
end ent
ĠDe partment
ime ter
laub t
Ġsw itch
ĠKin dern
D I
ĠS V
Ġin fl
ig ungen
stand s
mittel t
v olle
he m
Ġc oll
haus es
Ġmein er
Ġgesam ten
r c
Ġde vice
ĠPar te
ĠGer ichts
()) );
S G
p unkte
w a
Ġse lect
Ġdec ided
ĠSch le
Ġklein er
ĠmÃ¶ch ten
Ġsim ilar
b is
ĠK omb
M ark
Ġd ein
Ġaus schlieÃŁlich
ĠCh in
forder ungen
Ġgirl s
P oint
w ith
ĠS atz
ahr en
Ġnot hing
wind igkeit
9 7
in sel
Ġme eting
St ra
ateg ory
Ġsuch en
ĠD igital
Ġc rit
Ġh Ã¤tte
and a
Ob jekt
Ġlo ad
Ġsaf e
Ġf ail
Ġk rit
Option s
UL T
ĠT emper
hol z
hal le
ĠBeit rag
Ġg lass
oun ts
pro f
Ge grÃ¼ndet
ĠM ik
Ġ19 00
un ion
ĠM aschinen
ug ht
rif f
fÃ¼ hl
Ġt Ã¤
Ġphot o
Ġexc ellent
ĠSomm ers
ĠE vangel
ĠStru ktur
h Ã¤user
Ġc irc
Ġth er
au x
ĠPro gram
Ġdo or
a ign
ĠS ammlung
ĠP ublic
chn ung
Ġdis cover
ĠR oll
E O
ĠAn lage
Ġent scheiden
ĠW ork
Ġhigh ly
Ġc ause
ic kt
ĠW erner
ĠZ uf
get Value
Ġpl us
mittel n
w in
Ġc ross
ĠP ers
ĠR enn
Ġl ate
af e
Ġdurch gefÃ¼hrt
Ġpurch ase
ĠPres ident
D P
b rit
Ġup on
Ġlik ely
r um
ig ation
im ar
id ung
ultur al
Service Response
ĠRec ords
Ġb ank
if ts
end orf
ĠS zen
ĠA f
Ġgen ommen
ĠGl Ã¼ck
ĠWei hn
m ont
ĠK as
Ġun abhÃ¤ng
ens ive
Ġte ach
Ġjewe iligen
ĠArchite ktur
Ġs ort
ĠS icht
as c
ĠFinal e
Ġh ttps
if er
iel ten
ak ers
atur day
Ġke hrte
ĠTechn ik
in ts
an walt
ar io
ĠS um
ist rat
Ġde ep
Ġhe ll
Ġany one
By tes
Ġcare er
Ġb and
Ġver lÃ¤
Ġr isk
ĠGegen satz
ĠM Ã¶
Ġp ool
hen swÃ¼rd
Ġpre uÃŁ
ĠMen sch
asch ine
Val ues
b ase
ĠS ter
Ġex pla
gew icht
Ġrem ember
aug ht
ĠÃ¶sterreich ischer
D eb
ĠgroÃŁ er
ĠMus iker
ĠLeist ung
ĠverfÃ¼ gt
Ġca pt
Ġan im
Ġer inn
ĠSt affel
Ġr ather
g le
ĠR et
U M
ch ner
ĠM erk
m useum
s ystem
Ġn utzen
ĠPart y
ĠM Ã¼ller
ĠHe idel
ren nen
ĠspÃ¤ter en
ĠRad io
ĠT agen
gew iesen
Ġpubl ished
Ġquick ly
eign et
F ol
ath let
Ġro und
Ã¶l f
ĠJu den
inc ip
ĠerÃ¶ff net
Ã ¢
Ġhand le
imp le
Ġbef and
ĠPolize i
d is
re chts
ĠB a
ov ers
Ã¤uf er
ter min
ĠRud olf
] ,
w el
Ġf iles
Ġro ll
H ow
Ġd ed
ĠH on
Ġex pected
west lich
Ser ver
ĠAn schlieÃŁend
be w
Ġro t
b as
el a
Ġn ames
ĠM and
ass el
Ġsl ow
oper ation
ĠNam ens
g Ã¤nger
m ax
an i
Ġh uge
Ġex pert
ĠGroÃŁ en
ĠFamilien name
hockey spieler
ĠVorsitzen der
en te
Ġd oc
Ġwir tschaft
Ġph il
ĠBl og
Ġwrit er
Ãĸ sterreich
ĠProble me
Ã¼ hm
av es
An not
Ġt ag
Ġf air
Ġv ideos
ĠZusammen hang
Ġt rÃ¤gt
ul pt
Ã¤hr t
ĠSpe zial
re u
ĠK enn
Ã¼r gen
ĠAus stellung
Ġter ms
Ġtradition al
Ġexten ds
V D
W Ã¼rttemberg
r est
st Ã¤nde
Ġg reen
od ing
ĠAn ge
ug s
B ahn
p osition
Ġ ign
ut ive
Ġent lang
Ġpr ices
Ġdr ess
mÃ¤ ler
print ln
R ad
ĠP ower
d or
ĠR ath
ian ce
ĠSch les
ff ic
schaf ter
Ġdamal igen
Ġt ask
ĠM ur
h auer
i ation
ĠS S
() ))
ĠCh icago
Ġimpro ve
Ġd iv
ur l
le ger
Ġge prÃ¤
Ġrecommen d
Ġk or
Ġpar ents
ĠBau ern
Ċ ĠĊ
ĠC y
Ġge fÃ¼hrt
ĠAr ts
Ä ĩ
Ġe inger
ĠH ill
Ã¼r k
ĠSm ith
n amen
ĠN ic
itte e
at al
Ġc opy
20 16
ink el
ĠFar ben
ĠÃ¼bern ommen
ĠB ir
ĠM un
eld ung
Ġwork ed
ane ben
Ġimp act
Ġintern et
ĠE st
Ġ3 3
Ġtr ip
Ġpol icy
Ġb uffer
ĠâĢ ¢
w itz
ĠE dition
ĠV ictor
Ġk lar
Ã¼hl en
ĠForsch ung
Ġd ream
at o
ar es
Ġf a
ĠInter esse
Ġb rachte
Ġaut omat
parte ment
Ġcommer cial
A fter
b ody
ĊĠĠĠĠĠĠĠĠ ĠĠĠĠĠĠ
lan k
Ġmus sten
Ġ19 19
ĠHand els
Ċĉĉĉĉ ĉĉ
| }
Ġgrow th
Ġlon ger
s ere
ĠT ype
Ġm aint
Ġ193 2
Ġsol che
Ġsing les
A uth
ige m
ĠHe ute
leg ung
Ġder zeit
Ġ3 8
S k
ĠG Ã¼n
ien ces
Ġask ed
ĠZeich en
Ġhinz u
d ar
ĠT it
Ġg Ã¼nst
Ġwor th
Ġre pla
Ġhe iratete
Ne ben
Ġprogr ams
ĠvollstÃ¤nd ig
H ier
Ġh it
ĠG reat
age gen
Ġpos itive
Ã¤ll t
il led
Ġg ives
iz ier
ab et
Ġst atus
Re ad
Ġpl anning
Ġgar den
Ġt ats
al u
ge legt
sp rache
pr ise
fr ont
Ġ192 5
Ġcl ub
ĠJanu ary
Ġl angen
ĠSt off
Ġ3 4
ks h
ĠS ib
Ġplat form
ent y
Ġer baut
Ġme chan
AT E
ĠVertre ter
m atch
an cy
Ġon es
Ġbath room
henswÃ¼rd igkeiten
j or
re l
st at
Ġst ring
Ġspe ed
Amer ikaner
U s
Ġaktu ell
ĠErgeb nisse
ch em
Ġs ynchron
ot ing
Ġt itle
or th
M ill
Wh at
Ġunter st
Ġ15 0
spr icht
Ġeffe ctive
ĠRuss land
P reis
Ġj ungen
Ġmaterial s
======== ========
D ir
Ġ} );
ĠÃĸ l
Ġs ah
ĠSt ahl
amp les
k ampf
Ġg riech
Ġver antwort
Ġzw eit
Ã¤ss er
E is
R uft
p erson
Ġa k
ĠV iew
Ġle bt
ĠLe icht
ĠY ear
ĠAngel es
ĠSold aten
ĠT able
ĠChrist mas
ĠWebs eite
ĠBe zirks
Ġfe ed
Ġsaf ety
m acht
ĠBes ucher
ĠFÃ¼r st
ĠNatur schutz
Ġrele ased
ĠR is
Ġg uten
Ġge ts
UR L
Ġregel mÃ¤ÃŁig
k ra
z if
Ġd aily
ĠD rei
Ġg old
ess el
ĠPat ienten
ĠRo ad
Ġmov ie
ĠBund est
Ĩ Ĵ
Ġw ider
ĠS om
Ġf ilter
in os
ĠF ound
ff er
Ġweiter er
Ġehemal iger
p at
w es
it able
Ġw issen
all er
amerikan ischen
ĠÃ¤l ter
E l
ĠL ieb
Ġverb reit
Ġhig her
C T
Ġin j
ĠDe velop
Ġbet re
F irst
Ġs yn
ĠS P
ul s
Ġver treten
ag d
ĠHe iligen
Ã© r
Ġinterest ing
Ġwonder ful
R em
Z ur
ĠE ll
Ġse ction
ant as
In s
p i
in put
g arn
ĠG ood
ĠO ver
Ġpie ce
if est
ĠWe chsel
Re ader
ĠPap st
Ġangeb oten
l or
v ier
ĠO x
wer ks
Ġorgan ization
ĠFreib urg
F re
Ġl ower
ock et
ĠChrist oph
ĠSer ver
9 1
r ight
Ġt hr
Ġfol gt
ĠHaupt stadt
Ġpolit ische
ĠS PD
le hn
ob by
ĠHand el
over n
Ġs un
Ġs an
ĠS ho
ĠSt atus
akt iv
Ġerw eit
ĠF ernse
ĠR ing
ĠWe hr
Ġ* /
ĠHome page
ĠZust and
ĠNie ders
d y
Ġb row
Ġin fo
Ã¼ che
Ġgra du
By te
u id
Ġim m
Ġgesch rieben
Met hode
ĠerklÃ¤r t
ont o
Ġ4 8
ĠFl ugh
Ġbest Ã¤t
ĠS aturday
Ġh um
ĠG attung
Ġl Ã¤nger
Ġges etzt
pf licht
Ġimp lement
ĠÃ¼ br
Ġd etail
Ġw ish
ĠV an
ib el
ĠGr enz
ĠPr im
De c
Ġzun ehmen
Ġbed room
Ġwicht ige
lav ier
F amil
ĠM odel
Ġ192 8
u ted
as ons
Ã¤ u
ĠF ritz
tr al
Ġinter ested
ĠDar stellung
Ġabsol ute
Ġmult iple
n ummer
ad el
pl ant
te uer
Ġv irt
Ġbeteil igt
C ase
Ġfor mer
Ġde ath
ĠFr ont
ĠIde en
Ġa verage
Ġ7 5
inn ing
ĠBeruf s
V ari
20 15
A ction
ĠKar ten
AT ION
reit ung
Ġb aby
ĠB ul
ist isch
aw a
ĠWer te
Ġsogen annten
K ultur
T E
n itz
Ġp f
ĠPro zess
Ġreview s
od or
Ġander er
gangen en
Ġn ov
ĠF ak
ĠL eit
Ġplay ing
ĠÃĦ r
D o
r is
ar ge
ĠL et
ĠSch lag
se c
Ġtool s
Ġa ffe
Ġe dition
ĠW ach
Ġl oss
Ġch ance
ĠPro p
ĠBr andenburg
ĠBÃ¼ cher
ĠPra xis
M at
Ġl ost
Ġse lection
iz en
ĠKom ment
ĠD ata
ĠLe on
Ġpre m
ĠChar akter
u gend
Ġun ten
ĠOr gel
mit glied
Wer ke
S O
ind ungen
Ġle gal
Ġrelat iv
Ġbestimm ten
ĠAcadem y
g ot
it ation
ĠM ail
ĠW ettbewerb
ten ded
B ase
ĠA T
ĠC ast
on str
is tet
Ġe arn
ad rat
all owed
Ġver g
Ġweek end
Ġunterschied lichen
D A
an geb
Ġan alysis
Ġcondition s
ĠF isch
Ġ19 14
ot te
Re ference
Ġbest immt
Ġdar in
Be an
Ġgeb racht
ĠHerr schaft
lÃ¤nd ischen
A dresse
Ġv ac
ist ance
Ġgo al
ĠVert ra
W Ã¤hrend
Ġm ys
ĠE very
lan z
ĠCoun cil
ĠDreh buch
aupts Ã¤chlich
W riter
Ġbe legte
Ġdefin it
b it
y ing
an ien
ĠM ost
ĠP od
ĠT iere
Ġl isten
ĠAn tw
Ġgleich nam
g ree
m esser
Ġre ach
qu ence
ipp ing
O ber
Ġt en
f ur
ĠM ach
Ġsh op
ĠW irtschaft
Ġim med
ver stÃ¤nd
leist ung
ĠL ast
utt ing
Ġhistor ischen
Ġgel ten
i ben
Ġs aw
sch auspieler
ĠV iol
Ġfin ish
ĠPol y
por ate
is er
ĠP ubl
Ġg ere
Ġse ien
Ġse ek
Ġstor ies
Ġfinanz iel
y mp
Ġ Ã¶
ĠH u
ct ory
Ġor igin
ĠString Builder
ĠS uch
Ġver gleich
Ġar g
Ġbesch rieben
Ġbenef its
R et
is ieren
ĠBer eits
Ġtra gen
Ġplay ers
leist ungen
Ġfert ig
w ise
Ġb itte
ru it
ry pt
ĠDeutsch er
Ġbeg in
Che ck
ĠBlÃ¼ ten
Ġf irm
Ġc andid
Ġdar an
ĠH ause
ir ge
ĠR osen
ĠC ode
rie be
T hre
ĠT ransport
Ġbe hand
Ġun it
lin ik
ĠBr Ã¼
Ġmach ine
Ġatt ention
o oth
Ġer setzt
ĠSte fan
ĠSchw ar
ĠNational sozial
Ġapplic ations
Ġarch ite
ĠSund ay
ĠT ar
ĠMar c
Ġ( "
ĠZ us
lie fer
van ced
ĠB lock
Ġsp an
ĠGe h
Ġpart ners
ĠFir men
L ast
ĠE duc
ul y
Ġver fÃ¼g
Ġso uth
ĠWe iÃŁ
dr Ã¼ck
ĠStand ort
ĠDire ktor
M ode
Ġc abin
ĠL ux
ĠVer fahren
aut en
Ġinst ru
Ġcreat ing
Ġrelations hip
ĠTemper atur
D r
S Ã¼d
Ð µ
Ġh ous
ĠSpan ien
b latt
e es
Ġch ines
ĊĠĠĠĠĠĠĠĠĠĠĠĠĠĠĠĠĠĠĠĠĠĠĠĠĠĠĠĠĠĠĠĠ ĠĠĠĠĠĠĠĠ
ĠErz Ã¤hl
. ),
i ders
in ks
ĠV ize
Ġob t
Ġarbeit et
ĠMag az
ĠMat th
Ġess ay
ĠW affen
ĠL aur
Ġg ift
se x
ĠMed ia
ĠHinter grund
S piel
w ide
Ġ Ã¶stlich
or et
ut n
ree k
ĠPh ot
p ossible
in st
ĠD arm
ib ly
par se
ĠQu ellen
ĠSant a
Trace Component
Ã¶r en
Ġsp Ã¤t
Ġ6 5
Ġeurop Ã¤ischen
Prov ider
is ation
ĠL Ã¤ndern
Ġpro p
ĠAm azon
Ã Ħ
Ġf uer
ies ter
ese hen
ĠMen ge
Ġstart ing
' d
h agen
Ġw edding
wer be
ĠVerwalt ung
Gemein de
ĠJak ob
P C
Ġs old
st ream
pe kt
ktion s
br Ã¼cke
ĠBild ung
ĠAustral ia
ĠW etter
Ġar ray
Ġwieder um
Ġwest lich
Ġmys elf
Ġer fÃ¼ll
Ġk anad
ĠAn teil
Ġgew innen
K arriere
g rad
n issen
r ong
un te
Ġf lex
Ġlog ger
Ġgroup s
Loc al
d ouble
w eite
an ders
Ġh ielt
la h
ĠUr s
ĠVier tel
Ġsod ass
g ruppen
ĠC anada
Ġth ous
Ġum fang
Ver kehr
Ġviel leicht
ĠM acht
ĠP or
ĠW ood
ĠSt reit
Ġpro per
S erv
f Ã¤lt
n ungs
Ġm id
ĠNe ue
Ġcomp lex
ĠF ischer
ĠG olden
ĠE re
ĠE vent
ĠBe w
Ġhel fen
Ġbir th
B ar
B undes
ĠOr ganis
Ġsupp l
ĠSm art
ĠOp fer
ĠChamp ion
G ruppe
r id
Ġkann st
rat s
stru ktur
Ġschw ed
Ġpass ed
m osph
ĠT schech
ĠL i
T ree
k om
Ġd ise
ĠB ist
Ġh y
ger ichts
Ġex cl
cle ar
Off set
ĠAuf bau
so ft
Ã¶rder t
d urch
Ġl ic
chn ik
ĠReg isseur
De fault
alle y
Ġsom et
ĠIhre m
ĠAb teilung
Ġcolle ge
Ġful ly
as che
ĠD ank
Ġsch edule
Ġro ck
sk y
ustr ie
ĠPort ug
ĠP fer
Ġit self
geb racht
ĠAuf gabe
res ource
ha ber
Ġactiv ity
v ement
ĠSoc ial
ĠH und
Ġer f
Ġver mutlich
fin den
Pro cess
200 6
ĠS ym
il ien
sub string
pro gramm
Ġoffer ing
zieh ungs
ĠS ach
ĠB ran
Ġo wner
Ġfor get
ific ate
Ġeing esch
tert ain
ĠermÃ¶glich t
ĠGÃ¤ ste
V AL
ĠS av
ra ct
Ġlevel s
K e
ĠS em
Ġm ount
Ġo l
Ġp ages
we gs
Ġfr ame
Ġpla ces
by te
A ug
S ession
W ork
k ord
ĠH it
tra iner
ound s
ĠGer hard
Ġenc our
ar ies
Ġan aly
ĠP ak
Ġkomp lett
Ġinvol ved
p ace
Ġpat ients
Ber lin
ĠT ri
form ations
m d
Ġd ient
Ġe th
Ġh Ã¤lt
ver lag
cre en
d as
f ung
Ġw under
us te
ĠN ummer
lin es
ĠKarl s
Ġcomplete ly
Ġwichtig sten
ĠDec ember
s ervice
Ä ±
at i
Ġc ell
ĠL ab
Ġan ges
Ġbe gan
ms el
Ġno te
Ġinst it
ipp ed
B esch
d h
g ner
iss ert
Ġprogr ess
ĠBra unsch
ĠR ou
Ġpart ner
ĠWh ile
Ġne igh
ĠBe wegung
ĠAl fred
ĠÃĦ nder
roll er
Ġgrow ing
Ġb all
ĠT isch
Ã© e
Ġoff set
trie ben
Ġg anzen
ĠBe handlung
19 45
Des cription
ĠG lock
ah er
ĠEin fÃ¼hrung
ĠAb st
Ġhand s
Ġlet ter
T ask
b our
ĠS Ã¶
lie der
20 14
pf lich
Ġlar gest
Ġleb te
rÃ¤s ident
Ġd omin
Ġh auptsÃ¤chlich
Ġun bek
Ġab ility
ikan ische
fr ist
spr ung
ĠPe ters
temp or
( '
P osition
ur b
ĠP ok
ĠK ult
ĠIde e
g ut
re chte
os ed
Ã¶st lichen
ĠRich ter
ĠErfahr ungen
k irchen
Ġh our
Ġser ious
Ġdirect ly
Ġstreng th
Z eit
ĠS us
im me
20 13
Ġrequire ments
ĠBed ing
O W
ĠR am
ĠSt immen
ĠAr zt
Ġdevelop ed
ĠBesch reibung
Ġverkauf t
C ON
D S
f rom
al ing
Ã¤ ische
ĠC all
Ġbet rieben
Ġsupp ly
ĠW unsch
ĠNach richten
Ġrep air
ĠR um
ik i
th ur
ack s
ĠJ SON
be zogen
Ġcoun tries
Cont ainer
ĠFer ien
Ġnecess ary
Ġunmittel bar
ar g
ĠLe x
anz er
ĠOff ice
fel der
Ã ½
ĠE hr
ĠK rank
ed y
sel ben
Ġsm art
ĠwÃ¼r den
Ġb orn
Ã¼tz t
ĠWill i
Ġerziel te
C C
o ÃŁ
ĠD ro
ĠP a
Ġst ieg
Ġent stehen
Par am
ĠRath aus
in y
ier re
ĠO h
ĠMar g
us ed
Ġit er
Ġ193 1
zip lin
r t
ĠG ust
Ġzu ge
ate ur
ĠBl ut
fra gen
stoff e
ĠBeit rÃ¤ge
Verein igte
ĠdÃ¼r fen
ĠGesund heit
Ã¤ den
Ġpre d
ands ia
Ġbrit ischer
yd ro
Deb ug
c lose
ĠB rief
Ġ19 10
ĠBe zug
T I
d at
ie fe
ach im
Ġj em
Ġent deckt
ĠMo der
ĠBetrieb s
ik ations
ied lung
ĠGel Ã¤nde
ĠB ol
Ġc ases
B ild
ĠG alerie
Ġmehr fach
ĠColle ction
Ġsuccess ful
A A
Ġste ts
zeich nete
ĠD E
ĠL ok
ĠSt ation
Ġres olution
hand lungen
Bau werk
htt p
ĠAller dings
b a
m and
ĠF ert
om ot
ĠW agen
ĠK ommand
Ġaus getragen
ĠLand schafts
ond ition
Ġn ature
ĠV arian
ĠBe ach
Ġwe g
wei ÃŁ
ĠMet all
Ġverl or
Ġlim it
m t
r al
Ġges etz
Id ent
Ġsetz en
Ph one
Ġstat ement
O M
s or
re al
el ine
ĠStud io
reg ierung
ĠGeburt stag
ĠPf lege
bild ungs
ĠCol or
ĠZentr al
sie he
m ore
Ġin zwischen
20 12
A ut
P l
Ġs agte
ier n
In put
bl Ã¤tter
al te
il a
Ġhe ar
ard inal
Ġch at
ĠEn gel
à ¤
Ġs agen
Ġm ilitÃ¤r
lauf en
i xt
en se
Ġf ine
Ġk om
lo at
esen ted
Ġbl ue
Ġnie dr
ĠTill andsia
h old
w ander
ĠPro ject
K reis
ro ck
Ġzw Ã¶lf
ĠSchul en
j i
get Class
Ġcon trib
Ġgesch affen
II I
Z um
ĠAn der
ak s
Ġapp e
Ġdistr ib
B l
geb nisse
los en
Ġerst es
Ġcons um
- )
2 000
f ilter
h och
h orn
ĠP aar
Ġg iving
ĠU ser
ĠIn tegr
Ġac cept
ĠRegion al
oot ball
h ere
Ġ q
Ġl ux
ĠMe tern
Ġdesign s
dep endent
l Ã¤nder
Ġs agt
Ġm il
ĠD ouble
rif ft
B and
ĠL ib
ĠZ ahn
ĠAn wendung
ĠVer halten
sh aus
ĠBo ard
Ġentspre chend
Ġwahr scheinlich
G ER
P olit
r d
Ã £
Ġd ark
ĠM ission
Ġh il
St ud
20 10
Ġv Ã¶ll
Ã¤ her
ĠGe heim
w ach
ĠE lect
gef Ã¤hr
ĠHers teller
g ern
ĠB ass
ĠSp Ã¤ter
pr Ã¤sent
ĠSow jet
ĠS un
Ġ192 4
Ġmoder nen
h ips
r ies
er es
Ġd unk
am ing
id ents
20 11
Ġlie fert
ĠSo und
oh ol
Or der
ĠauÃŁer halb
A X
msel ves
Ġf ab
Ġand ers
ĠN Ã¼rn
ĠJ on
Ġ5 5
ĠUr laub
Aus zeichnungen
y les
Ġw ild
âĢ ¢
ĠW ed
Ġch urch
Ġcont ains
IN E
ĠFe hler
gebie te
m Ã¶glichkeit
ra p
th a
ĠEin s
ĠGes pr
Ġ192 7
Ġroom s
Ġthe mselves
ĠH istory
In putStream
ĠSpiel zeit
con fig
Ġannoun ced
S ec
un i
it ial
Ġl Ã¤
ĠHo hen
Ġverw ende
ĠApp le
West falen
ĠSin ne
it ur
ĠS tellen
Ġm aster
ĠK lavier
ĠL inz
Ġver lieÃŁ
St adt
ĠBr Ã¼cke
Ġb ul
Ġgo es
ĠInter view
p olit
Ġin stead
ĠC entral
Ġver lassen
ze ption
ĠÃ¼ber wiegend
Ġent spricht
gew and
ĠBas el
Ġexist ing
ĠUl rich
Ġconstru ction
R ule
] );
Ġd agegen
Ġst age
Ġact ive
gang s
Nach dem
Ġexperien ced
n ational
o is
at ik
ar kt
B ack
gr iffen
W eit
b ilder
il i
ĠK ohl
wer te
ĠAt lant
Ġnor th
Ġinternational e
w ar
ĠA P
ĠF ind
ĠBl ue
Ġprom ov
ĠUR L
Ġe ye
ĠE igent
Ġg esehen
ĠMar ine
Ġbusiness es
ĠDar Ã¼ber
ĠjÃ¤hr lich
m aterial
Ġin kl
ĠF rench
Ġst aat
ĠSch aus
Ġbec ame
ĠAut ob
For m
Ġbring t
Ġelement s
H ttp
t liche
Ð ¸
Ġd ur
Ġge eignet
Ġ192 1
ĠArch iv
ĠGew inn
Ġt al
ĠTra ining
med aille
Ġt emp
ĠB rown
la x
ph an
ĠverlÃ¤ uft
; ;
h ow
r Ã¤t
y ond
Ġf lieÃŁ
Ġp en
Ġvers ucht
ĠSc ott
or al
Ġ( ,
ĠIn t
Ġor d
ĠKr ist
ĠMÃ¶glichkeit en
A utor
n s
p olitik
ĠE xt
Ġunter s
Un it
ĠSchw ester
Ġwen igen
zieh ungen
bie ter
ĠA N
Ġl Ã¤ng
app er
Ġbre it
Ġhoch wert
ĠId ent
iti ative
? ?
icht lich
Ġle gte
Ġgew onnen
ĠVir gin
k osten
ĠV ort
ĠSt iftung
ron ic
gent in
ĠGÃ¶tt ingen
F ound
z ub
Ġl au
Ġor ient
ors itzen
klÃ¤r ung
Ġcamp aign
f ast
Ġs us
am ous
ĠF ield
ĠK urt
Ġver t
Ġ4 2
br idge
bo gen
ĠFÃ¼hr ung
j o
ol es
m ond
Ã ´
is Entry
Ġe he
ĠD ra
Ġgr and
200 8
minister ium
ĠLeist ungs
ĠTurn ier
Colle ction
k ont
v ol
ch mal
ĠK och
ĠW he
ĠIn f
isEntry Enabled
ĠD Ã¶r
vers ammlung
Ġmethod s
ĠFlor ida
ur i
ĠF al
sp er
ĠAl tern
Ġout door
Ġcar ry
Ġh ar
ĠĊĠĊ ĠĊ
Ġunterst Ã¼tzen
c an
j ava
s es
al led
Ġun be
ĠEr inner
ac ity
s itz
Ġein st
ĠK ammer
sp ar
art ige
Ġcon du
Ġpos it
Ġm ention
ic ed
Ġbe ob
ĠO ld
glie dern
Ġs em
at ives
Ġbes ondere
arch iv
Ġmein en
Ġsomet imes
d essen
Ġm other
Ġl ok
Ġpr Ã¤
Ġar gument
ĠUnivers itÃ¤ts
deutsch en
Val id
Ġindividu als
ommer ce
ouver ne
b ungen
n ern
Ġg ro
R ow
g roup
Ġp et
ĠW appen
ze p
Ġ3 9
ĠDÃ© partement
P RO
ĠH aw
uck y
Ġdec ision
Ġmittel s
gor ith
f alse
ĠP ack
ĠRe chte
Ġher r
De f
ĠAut oren
C ons
on ial
ĠB Ã¤
ĠE ck
ĠV om
Ġpre fer
ĠPar lament
ĠKar te
ĠMan ager
Ġur l
ow l
rie den
ĠPhilosoph ie
ĠSch rift
ĠÃ ī
rÃ¤ ume
ĠArbeit er
Ġhel ps
Ġbu ilder
Ġ192 6
ar ischen
ĠA R
ck len
ĠBe f
hol t
ĠMor gen
P an
ver trag
ichte ten
ĠDeutschland s
Call back
ĠS ab
our ney
Ġaus tral
ĠHen ry
ĠCommun ity
C om
F rank
c ia
p al
Å Ļ
is ions
Ġs and
or ial
Ġl ots
lan de
Ġfre qu
Ġsur round
Ã¤mp fen
mÃ¶ gen
ĠHeidel berg
l uss
n y
x x
Ġt emper
Ġw ife
ĠF un
k lass
s l
is abeth
ĠH ab
res p
gew Ã¶hn
Ġlim ited
Ġcorre ct
Ġn omin
Ġsch le
be g
io de
ĠAll gemein
Ã¼t te
g on
h i
v i
as ion
Ġv iol
ĠK iel
Ġer fahren
og a
ĠÃ¤ uÃŁer
C odes
Ġgef Ã¤hr
er er
ste ht
ĠSp iegel
ĠGrund lage
o z
Ġw uchs
Ġzu gleich
Ġgen annten
ĠVerb and
aur ants
Ġsen se
ĠÃĸff entlich
ĠSonn tag
P A
Ġst uff
ĠVer teid
200 5
ĠRev olution
Ġveh icle
Ġs ymbol
gel d
olog ies
ĠOb serv
Ġheut ige
ĠD ub
Ġ{ }
Ġbek annten
kret Ã¤r
l ike
Ġ2 50
ow a
iz eit
Ġinter view
Ġeng ag
b ul
Ġd ynam
Ġar gs
âĢĿ .
Ġag re
fig ur
ĠG irl
Ġbet rach
200 9
Ġbas ic
cript or
ĠEre ign
p m
ot al
ĠRe p
ĠAuf nahme
ĠVor aus
ĠMeister schaft
ĠVo gel
T O
il ing
ĠM att
ĠVer lauf
Ġ3 7
Ã¼ck sicht
Ġbet rug
Ġ192 2
lÃ¤uf er
ĠF ire
ĠO pt
iss ions
amer ika
ĠDistr ict
Ġf ashion
au d
Ġsub s
ilit ary
Ġopportun ities
Mus ik
C re
I terator
V ER
ĠB la
Ġn umer
Ġge halten
ĠOr te
ĠSpe cial
ĠHam burger
Up date
issert ation
E hemal
on st
an er
lin ien
ĠGra fen
Ã¶s ungen
Ġze ich
wÃ¤r t
ĠÃ¤hn lich
Ġc ulture
ĠT hen
Ġge zeigt
up s
Qu ellen
isten z
Ġtrans fer
denk mÃ¤ler
v ar
im ension
ĠK ritik
Ġto wards
Ġver pflich
Ġcl oth
reit en
ĠLeist ungen
ĠWissen schaften
Ġwind ow
N ieder
h aps
Ã ±
ĠA ff
ĠW ohl
Par ams
ĠMann schaften
unn y
Ġthink ing
ĠDem okrat
r as
ĠS emin
Ġe le
Ġab geschlossen
ĠTe le
arz t
Ã£ o
Ġmot or
ĠBraunsch weig
tempor ary
e lement
is a
ĠWohn ung
ĠKommun ikation
ue ber
ident ial
utn ant
T op
r and
Ġ ðŁ
Ġb ill
us er
de cken
Ġ19 12
Ġt ree
Ġauf gerufen
k arten
et ts
ĠH afen
Ġer gÃ¤n
ĠMar ie
Ġhealth y
ĠP en
Ġz Ã¤hlt
ze igen
Ġent h
ĠTh Ã¼r
ac ters
Ã© s
Ġpur pose
N on
h ost
ĠK el
sp ann
Ã¤n en
Ġres ol
Ġcons ult
unn el
ag ne
brit ann
ĠG overn
ind ustrie
ĠGes am
D isk
Ġd ritte
ĠW estern
ore a
Ġverw enden
b lock
n etz
im ately
Ġl en
os a
qu is
be wegung
Ġemploy ees
B S
Ġd ry
it ude
ĠW omen
Ġsp ot
ick e
ĠFran ce
Ġcost s
Ġsogen annte
Ġill ustr
ĠT el
Ġg alt
ĠC are
ad or
ĠCont in
Ġcreat ive
ay a
p an
Ġm iddle
Ġfol gten
ĠErfahr ung
B is
e hm
ĠS ituation
ĠVer Ã¤nder
Ġsp ent
Ġzerst Ã¶rt
n ode
Ġhe ard
stra hl
ĠFebru ary
iat ely
ĠAustr alien
kn own
b aden
Ġc ru
ess ions
ost on
uss ion
ĠgrÃ¶ÃŁ ere
ĠPl us
ĠBern hard
ĠPrem ier
ĠFrÃ¼h jahr
ĠMond ay
D ouble
ĠL iter
ow ski
ĠIn halt
ĠPro te
bo ten
Ġ192 3
ĠHein z
Ġir gend
ĠWirk ung
Ġst ates
ĠEr de
Ġex hib
ĠBes atz
arm on
stru ktion
Ġview ed
Ġeinges tellt
ĠArchite kten
ĠJes us
ar ante
ĠK Ã¶
Ġ4 4
ĠMos kau
zus tellen
Ġleb ten
Ġausgest attet
ĠEntscheid ung
ath on
k opf
u um
z te
gr Ã¶ÃŁ
ĠVor der
ĠStud enten
Ġersch eint
Ã¤hn ung
Ġdivers e
TY PE
ĠB ob
Ġwe ather
Ġro ot
gemein den
ĠLauf e
Ġge tr
ĠCh ild
ock ey
ĠBra u
Ġann ual
S yn
st ation
In valid
Ġess ential
Ġrepor ted
W ind
im ed
stell er
č ĊĠĠĠĠĠĠĠĠĠĠĠĠĠĠĠĠĠĠĠ
ber s
ann a
glieder t
act ive
Ã¤nd ler
ĠAd min
Ġdefinit ely
ĠvÃ¶ll ig
L iste
ri pt
fr iend
fass ungs
Ġâ ĨĴ
Ġmod els
Ġdeliver y
L ock
ĠS inn
Ġer kennen
Ġso ft
ĠAus druck
Ġher gestellt
tem pt
ĠTeil en
ĠJac ob
|| (
cklen burg
Ã¼r en
Ġmax imal
D B
F unction
W arn
I E
b ad
at te
ĠP enn
Ġus es
ign ed
ĠÃ Ĺ
com es
ĠSim on
Ġruss ischen
ĠDevelop ment
i ant
k g
Re f
De p
ĠChe f
K lasse
ag ra
Ġback ground
t i
re in
ĠnÃ¤ch ste
ĠElekt ro
Ġc ards
ĠG Ã¼ter
ĠK ath
ĠIn dex
ĠEn s
200 7
Ġfre uen
P ass
Ġl ines
ĠV iele
mer ksam
Ġev alu
ĠIt al
ĠEurop Ã¤ischen
fÃ¤h igkeit
Ġs atis
ĠSt an
ĠSp re
Ġob wohl
ĠOrt schaft
Ġstar tete
Ġentsprechen den
Ġf al
ĠgehÃ¶r ten
Ġelect ric
Ġverlie hen
r Ã¼ck
ĠB ett
ail s
Sch weiz
ĠG ru
omm ern
Ġmus ikal
ĠMon at
Ġplay ed
ĠArchite kt
Ġmittler weile
ĠBild ungs
Ġphys ical
tertain ment
B es
c ap
al ed
ĠR icht
ap y
Ġbo y
din and
ĠCour t
D on
V P
Ġt ried
Ġg as
Ġbeh av
ĠEduc ation
h te
ĠZeit en
ĠKon fl
ĠBundes liga
Ġdarauf hin
FA ULT
Ġhom es
Rec ord
I R
W as
Ġw ert
ig an
ent in
ĠIn ner
tr ans
Ġeinz ig
UR I
Ġach ie
Ġexact ly
st he
ĠV illa
Ġst Ã¤r
Er baut
latt form
Ġnam ed
ĠÃĸffentlich keit
es is
ĠH ig
ĠW es
ĠTe lefon
mit ted
Ġmen sch
O p
Ġ Ã¶ffentlich
ĠZ ent
se ud
Ġsp orts
ĠTe ams
ke i
Ġob j
Ġ ult
Ġex press
tell igen
oh le
Ġsynchron ized
il lage
st ern
Ġz Ã¤hlen
iz ations
ĠÃľ berg
ĠÂ ·
Ã¤chs ischen
ĠS eb
ĠE ffe
Ġre ve
Ġim ag
Ġdar gestellt
Ã¤ll en
gy pt
l ation
Ġ il
al m
ĠD omin
ĠW ater
ste dt
ĠUn der
Ġerw arb
Ġown ers
ĠCol umb
ĠT ok
je kten
Ġ6 4
hÃ¶r den
ĠFranz Ã¶s
ĠrÃ¶m isch
Ġverantwort lich
Ġm is
Weit ere
B ox
m ess
ĠS T
ĠG ene
ĠC at
Ġvis itor
Ġunterschied liche
ver treten
Ġad vert
ĠAd olf
ĠMain z
AG E
I A
e vent
l Ã¶
un ehmen
ber eitung
ĠN av
ĠFre it
pf lege
ĠEurop ameister
ĠÂ §
urs day
ĠPfarr er
f Ã¤lle
Ġf lat
Ġl ands
stell ungs
Ġerst re
Ġplay er
Lo ader
ĠFlugh afen
is at
ĠC ook
ĠAl pen
ite ktur
oun ter
Ġbeen dete
Ġhigh est
Ġche ap
el la
omb in
D en
Ã ¥
in ary
ĠP ersÃ¶n
ist a
ul f
Ġ19 13
ran ch
ĠKon k
Ġdig it
re ci
Ġaus geb
ĠVer antwort
elt a
ĠOr dens
Ġverb ess
eiter te
ĠgrÃ¶ÃŁ eren
Client Exception
Oper ation
im er
ĠSch ritt
ĠbeschÃ¤ft igt
ĠInstr ument
L S
Ġm om
ĠD et
ĠD rit
ĠT anz
ĠH T
Ġg ingen
Ġge mÃ¤ÃŁ
Ġpro pos
Ã¼s sen
Ġav oid
Ġcomfort able
Ġentw eder
c ause
Ġw rong
ĠM ethod
ĠJ Ã¼rgen
Ġge gebenen
Ġaus ger
Ġpre c
ĠsÃ¼d lichen
Ġconsider ed
C P
Ġt Ã¼rk
it is
el and
LO G
Ġunderstand ing
c s
re f
Ã¼ mer
ĠA ktion
Ġh a
Ġwe ib
Ġch air
ĠAuf grund
ĠBr ig
ĠBereich en
ĠBÃ¼ ro
ĠLie fer
ĠSchrif ten
Ġbestimm te
O lymp
z ell
ĠJ ava
Ġsp end
tel s
Ġdis k
ĠKap elle
ĠCent re
Ġtats Ã¤chlich
B et
st Ã¤tten
ĠFl Ã¼gel
Ġfamil ies
Loc ation
z ul
ĠB ibliothek
ro te
âĢĿ ,
ĠOb jekte
aj a
part ner
m y
ĠH ub
ĠL en
ĠL ook
ran ce
Ġschw ar
kon om
Ċ ĊĠĠĠĠĠĠĠĠĠĠĠĠĠĠĠĠĠĠĠ
Ġs icht
ĠDe v
Ġbut ton
Ġmein em
geord net
frastru ktur
j en
m ethod
p ost
er c
ĠD ol
Ġh op
ĠT ore
ĠBe ge
ĠMo dern
baut en
ĠL aut
ver ter
ne ct
Ã¼n sch
Ã¤r t
Ġsett ing
b aus
is Debug
Ġl es
ill y
Ġchange d
sprach igen
ck ing
ĠAn th
ick er
ĠReg ister
P lan
d el
lin der
Ġprodu ziert
L abel
ĠP ot
ĠE lemente
ĠL y
ĠC H
ĠC ross
ĠEin trag
Ġpre vent
ĠRÃ¼ck en
Ġpack age
Ġmean ing
P ER
st uhl
ir al
ly wood
ĠVer anstaltung
Ġwe ar
Ã¶r ter
akt or
Ġlin ken
Ġs ell
ĠM ov
Ġstr ess
Ġlov ed
ĠFrancis co
in det
Ġf arm
ro at
et ch
Ġle itete
Ġges pielt
ron en
ĠÂ £
b ibliothek
ĠL Ã¶sung
Ġwir kte
Ġsp ring
ix el
ĠWider stand
< >();
k in
ich ern
ce ed
Ġview s
Ġmax im
ĠSied lung
britann ien
Ġa spe
ĠC a
Ġ19 11
ĠLe op
ues day
ĠSer ies
Ã¤us ern
Ġbrit ische
Hel per
Ġerweit ert
Ġt ips
En g
Ġverst Ã¤r
b il
mann s
ĠNord rhein
Ġschool s
gem eine
at oren
ing u
ste iger
Ġle er
ho fen
Ġ6 00
ĠSchw eden
ĠVers icher
Ġbeginn ing
Ġerhe b
Ġd auer
ĠL ind
ĠSie ger
fass te
ĠAfr ica
Ġassoci ated
H o
P L
ro y
ĠSch iffe
Ver b
son sten
Ġmed ic
Ġtre ffen
Ġkur ze
\\\\\\\\\\\\\\\\\\\\\\\\\\\\\\\\ \\\\\\\\\\\\\\\\\\\\\\\\\\\\\\\\
u ern
Ã¤ st
ein s
Ġzu erst
ĠFor um
ĠTra in
ĠTod es
ĠStr ateg
Ġjob s
Ġaff ord
k ul
r ig
ĠS ymbol
Ġbe legt
Ġk ommun
ĠNe uen
F ra
Ġe yes
us en
ĠAn frage
gr enze
Ġacc omp
ĠZw eit
Ġeff ort
ĠgeprÃ¤ gt
c en
it ness
ĠP oint
ĠR og
ĠIns gesamt
B ody
T ION
ĠK urs
Ġth read
Ġsp irit
Ġad vice
ĠAuf stieg
Ġitalien ischer
Ã¼lt ig
Besch reibung
H ash
Å «
ĠG ame
ĠR ab
ĠAn y
Ġhe im
Ã¶r ung
auf trag
Ġmov ing
D oc
Ñ Ģ
ly ing
ĠÃ¼ber tragen
ĠDaten bank
ĠBron ze
b al
Ġt ief
je w
Ġste el
Ġoffer ed
Ġqualif iz
ĠL ig
Ã¶ der
Ġange legt
Ġphot ograph
ĠTro tz
Ġadv ant
B i
V e
t or
z one
ĠV ar
Ġal bum
Ġent gegen
ĠHe ft
ĠFor men
Ã¤hl ten
Ġpass ion
ĠWeihn achts
g ie
te hung
Ã¤ b
ser ver
leg ten
ĠEl isabeth
ĠHistor iker
ĠhÃ¶ch ste
st on
ĠM ah
ĠN a
ĠN ahr
os ite
ĠEin heit
20 19
Ġpar se
čĊ čĊĠĠĠĠĠĠĠ
Inst it
afr ika
ĠMuse ums
ar ische
ĠS tell
ur ts
st Ã¼cke
ĠAb schnitt
200 3
Ġkein er
ĠErz bischof
V ar
as ks
Ġin f
Ã¤ ger
beding ungen
g ab
t op
z in
ĠS dk
Ġh ast
ĠL ine
Ġr Ã¼ck
ĠVer anstaltungen
ĠNe ust
ÃŃ n
ĠFunktion en
k rÃ¤fte
Ġf uck
ĠH orn
Ġbe an
ĠÃ¼ber haupt
iert es
ĠWe ge
Ġsc ience
ĠhÃ¶ch sten
Annot ation
t ten
Ġd Ã¤n
ĠP unkten
im it
ĠL ieder
ĠBe ide
ĠJahr zehn
ĠSam stag
KE Y
" :
G roÃŁ
ic ing
ĠEr schein
Ġber Ã¼hm
200 4
ĠFe hl
ven ue
ĠMark eting
ĠÃ¶sterreich ischen
f ind
Ġs ucht
Ġprodu z
schul en
ĠDire ctor
ĠH uman
ak ed
ĠSp ann
ĠAd els
ĠBy te
J an
r ik
w arn
Ġd eine
Ġf ant
ol z
ĠH Ã¤user
Ġ4 9
ĠFre unde
Ġmay be
Ġclass es
augh ter
Ġde gree
Ġsh ape
ĠLand wirtschaft
Ġhelp ing
ĠSchaus piel
n ow
ĠB aus
ten ance
os is
Ġwe ist
Ã¤l de
Ġsel ber
ĠQu al
Ġger ing
term ine
m ack
u an
ag ram
ĠAn griff
ru he
Ġ8 00
Ġra ce
fang s
Met adata
ĠFer dinand
Ġwest lichen
I B
P AR
ĠA rab
ĠT Ã¼b
Ġk Ã¼nstler
qu es
ĠBr asil
let ter
ĠIntern al
haf te
ut ing
ĠSch laf
Ġle ider
ĠEin ige
ĠChr is
ous ly
roll en
V ol
Ġf elt
ĠD auer
ĠR od
Ġwas n
Ġbek am
pl Ã¤tze
posit ory
el er
Ġg ave
Ġhin gegen
ĠĊĊ ĠĊ
Ġart ist
Ġthous ands
Ġs ym
ĠM ake
Ġc ast
Ġc amera
ĠL ight
we ge
Ġ4 3
Ġ5 2
ĠGr Ã¤
gesch rieben
Ġdire ctor
Ġbro ught
ĠSicher heits
ĠSdk ClientException
cl ude
Ġprogr amm
ĠBre ite
Ġgleichnam igen
isDebug Enabled
Ġc at
bar a
ĠFahr zeuge
ĠFil ms
Ã¤m lich
W idth
w riter
Ġa f
Ġs av
ab elle
Ġre ich
ĠAn dr
Ġsow jet
ĠAd d
zug s
ĠLin ks
Ġnumber s
Ġwes entlich
Pat tern
Ġdescr ib
M ich
e ch
g reg
liegen den
ĠEpis ode
Ġblo od
Ð ½
il ian
rie chen
Ġfe hl
S he
or ganisation
Ġm ission
ĠP ast
Ġbe yond
ĠC ho
af el
Ġres pect
ĠTeil nahme
ĠChr on
Ã¼st ung
ĠMicro soft
T A
c ount
ĠA u
ug in
Ġsch eint
ĠPr iester
Ġtr uly
por ts
setz ungen
Ġinvest ment
Ġhol iday
Aug ust
â Ĥ¬
Ġn ation
Ġc ash
ra ys
ĠRe is
stand ing
Par ser
ĠGrÃ¼n den
ĠFak ult
D C
Ġc op
ĠG ames
if ik
Ġ190 8
Ġeffe cts
Ġsle ep
m essage
Ġ uk
sch m
ĠEr b
Ġze igte
Ġbro ad
famil ie
F uture
c or
Ġan erk
ĠF alls
Ġfor der
ĠMit arbeit
app e
ĠTer min
Ġstra ight
b ell
Ġd ienen
ĠS up
Ġfe et
ipp s
ĠKl ost
Ġdiffer ence
Ġelekt r
a ctions
p o
ĠM und
ĠR ay
ĠAb out
Ġpar ameters
ĠPf ar
ĠKap it
zÃ¼ ge
Ġdev ices
Exec ution
ĠFound ation
fur ter
č Ċĉĉĉĉ
ĠB ab
ol o
ĠL ot
ĠTh ursday
ĠKon zept
Ġappro pr
lev ant
Ġamer ikanischen
untime Exception
Ġcoll abor
f ree
s ur
ĠP ay
ĠTh anks
stand en
ĠIs lam
f abrik
or age
ho ff
Ġweiter es
Ġin sp
Ġm ill
ĠB io
Ġent ity
Ġapp reci
Ġass ess
Ġstand en
at re
sch loss
ed ition
ĠR y
ĠC oll
lo ok
Ġ4 7
bau er
Ġ190 7
Ġpolit ical
Ġfield s
cr ibe
ĠGust av
B erg
k omm
Ġs ituation
Ġf Ã¤llt
ol er
ĠH oll
ĠR ost
ĠThe ologe
Ġvor gesehen
enn fahrer
icher heit
Ġprof it
Ġbeein fl
M ult
ĠH immel
ĠfrÃ¼her en
ĠSon ne
D em
H aupt
ĠB ell
ĠG reg
Ġre ference
Ġver gangenen
Ġme as
hand el
Ġsho pping
Ġben ach
Ġconne ct
Ġentsprechen de
Ġstru cture
I OException
N ord
m Ã¼hle
w ischen
Ġp air
ĠT hr
ĠE ind
ĠR uf
ill on
fl Ã¼gel
Ġturn ed
Chr ist
Ġt schech
ol en
Ġver schw
ĠIn halte
Ġmet al
fan ter
Ġrepor ts
U ID
i Äĩ
Ġs um
ĠS low
el or
The ater
Ġtra de
Ver Ã¶ffentlich
Thre ad
Ġer stellt
Ġber uf
ĠMon aten
Ġserv e
Ġitalien ischen
H L
M B
V is
Ġf ill
ĠK amer
Ġl esen
ĠIn gen
Ġr ich
ub s
land es
Ġsc ient
Ġuse ful
Ġgu ys
H ome
le hr
ĠL ord
ĠR aj
ĠSp aÃŁ
ĠTex te
n icht
ĠD adurch
Ġr ights
ĠDe ck
Ġcomp leted
Ġeigen stÃ¤nd
por ation
Ġchar acters
ĠTechn ology
Ġcap ital
Ġdist ance
Ã¼ mm
ĠB it
ĠK os
ab teilung
ĠEr satz
Ã¤hr ung
ĠAnd roid
Ġregard ing
G u
c la
ent ur
Ġg ren
Ã¶ ÃŁen
ies e
Ġde ad
Ġ4 1
Ġbud get
ĠNik ol
an en
Ġe igent
ion e
ĠP S
Ġhe at
Ġbeg onnen
ĠFil me
ĠbenÃ¶t igt
wirk ungen
Ġverbreit et
U B
af ft
Ġ190 5
Ġest ate
Ġengl ischen
arl ier
Ġinfl uen
ĠVirgin ia
M en
k re
an aly
Ġge kommen
Ġj ourney
Ġse lected
kl us
Ġt ransp
Ġb atter
ĠD VD
Ġl ack
Ã¼r f
Ġne arly
Ġ4 6
reg ion
ĠSib Tr
Ġpro ced
ign ment
Ġqu ant
co very
Ġgu arante
Ġben utzt
Spe c
Ġstrateg y
ĠL ar
ĠFre izeit
wor ks
ĠDate i
stit ution
j ob
ĠR E
ĠV ari
ĠKÃ¼ che
F unktion
Ä Ľ
Ġw and
Ġh us
ĠF ein
ĠSch lieÃŁ
ahr t
fÃ¼hr en
ĠKon gress
ĠFr Ã¼
Ġact ual
Ã¤mp fer
ĠFlug zeug
C omm
Ġf em
Ġg olden
Ġbe in
wer den
tra gs
Al le
ĠNord osten
Ġprim ary
ĠDarm stadt
is her
Ġvers ehen
rÃ¤n k
ĠSommers piele
D ollar
ĠN un
ĠSalz burg
c u
ĠD ialog
ĠH ttp
ĠL abor
Ġre lax
rom e
ĠÃ¼ber geben
ĠErw achsen
H ost
r iss
ã ģ
ap ers
Ġcon cept
Ġro b
ĠLin ien
Ġinnov ative
Ġh off
ĠT uesday
ĠE bene
ĠH aft
sh ire
Ġprodu ce
value Of
Ġbeaut y
ĠnÃ¶rd lichen
ĠFig ur
Ġestabl ished
Ġ Ä
he ute
Ġh ers
ĠL au
den burg
Ġer laubt
ĠY oung
leg ant
ĠSh op
Ġwel come
Ġclass ic
Ġfeel ing
Ġmot iv
ĠVerÃ¶ffentlich ung
f le
h u
Ġf allen
ro ugh
ĠTr ump
Ġthan ks
Ġgra de
Ġcontin u
But ton
Ġbott om
Jahrhund ert
k ammer
s berg
Ã¤ ure
ĠD Ã¤n
ĠE ach
ĠK anada
Ã© n
ĠÃ¼br igen
m ail
t y
z ur
Ġ189 0
Ġbas is
Ġbil dete
Ġocc ur
C ommand
g Ã¤nge
ĠB ade
ĠK op
Ġer b
ĠSÃ¼d westen
ĠSchl uss
ĠDon au
Ġappro x
lÃ¤ss lich
ent um
ĠK assel
Ġco ffe
arb on
ĠBen ed
Ġpower ful
Ġincre asing
Ġswe et
z ust
Ġs ets
or dens
ĠS ystems
Ġf ein
ĠB asketball
Ġn Ã¤mlich
Ã¼n det
Ġso c
ĠLe e
Ġ0 5
ĠZeit raum
Ġob serv
ĠFeuer wehr
ĠKonz ert
ĠNieders achsen
es ome
Ġf ight
ap el
ĠUnter nehmer
Ġges pe
Ġdah in
ĠJo achim
ĠComm ittee
Out putStream
ĠB oston
ach tet
ĠO ther
ĠAn ders
ĠRe fer
ĠRe view
val u
ouverne ur
F in
ĠD aher
ĠW ag
ĠBe teil
ĠGe walt
Ch ange
ĠStra ÃŁ
l v
l Ã¤r
Ã¶ pf
Ġ19 17
ĠLe vel
Ġber ichtet
en kt
is piele
Ġw inter
ĠRe port
Ġfriend ly
Ġcent ury
ĠMaÃŁ nahmen
Ġded icated
Ã º
Ġb la
Ġweit gehend
wei ht
br and
ennt nis
Ġautom atic
im ens
ĠV alley
Ġge z
w all
Ġ util
ĠC ustom
ĠBe ck
lat ed
ĠAb itur
utz ung
ĠGener ation
Ġflo at
ĠPfarr kirche
bÃ¼ cher
p ite
ro chen
ĠK affe
ĠH as
ĠC ra
Ġsp rechen
ĠForm el
nes day
merk ungen
Ġ Î
ar ily
Ã¼ ÃŁ
Ã¼ ne
em ann
Ġl ernen
ĠJ os
Ġde lete
aus stellung
rat es
ĠKomb ination
N S
n um
ĠK ong
Ġbek annte
Ġpie ces
kathol ischer
ĠOx ford
N O
N r
t ok
Ġb uf
ip es
ĠGroÃŁ britannien
Ġmoder ne
Ġimmed iately
i ot
ĠAn spruch
ph y
ĠX ML
!! !
ĠRhein land
i ÃŁe
ic ul
em ark
Ġsp rach
St ack
Ġpre par
Ġk ulture
oren z
ĠInternational en
ĠEhe frau
ĠGest altung
ļ Ń
re y
Ġn Ã¶t
ĠP in
ĠP age
Ġj ud
ĠVor gÃ¤nger
Ġeas ier
Ġchallen ge
ĠChin ese
ĠtÃ¤ glich
D igital
Ì Ī
Ġre chten
ug u
ĠAus land
ĠOr ient
ĠBild hauer
Ġtechn ical
ĠRest aurant
Ġnam ens
Stat ement
ap h
Sch riften
Ġserv ed
ĠArch Ã¤
ĠDaten schutz
ĠJohn son
J son
or ient
Ġn utz
ĠG lobal
ĠV ideos
Ġsch reiben
Ġallow ed
g au
Ġn um
ĠK athol
ĠW M
ow e
ov a
tel n
Ġste ps
Ġinc red
Ġeinger ichtet
ĠWilli ams
B Ã¼rger
Ġw achsen
re form
ĠT a
Ġsch affen
Ġbek ommt
Ġdr ink
200 1
ĠMet hoden
K urz
Ġf ahren
Ġk auf
Ċĉ ĠĠĠ
teil s
int on
Ġfin ished
Ã¶ff nung
Ġstud ies
Ġcol ors
Out put
ĠAst ron
Ġcoffe e
ĠS oph
Ġm Ã¤nn
ĠF lo
ĠK Ã¼n
Ġde termin
isten ce
hÃ¶r de
ĠAd am
ĠfÃ¼hr ten
ex ec
ĠKn oten
Trans action
B ad
Ġp aid
sch ne
ĠR oten
Ġge plant
Par ent
ĠmÃ¶glich st
ĠDeb Ã¼t
mÃ¶glichkeit en
I F
k unst
Ġpol ice
Ġf amous
ĠV iet
ĠSch on
wer ken
ĠPe ople
ĠMittel alter
Ġprote cted
Ġhund red
R S
Ġw ants
Ġc ache
ĠW ett
Ġvor bei
form ance
Par ameters
Ġmed izin
Ġoper ation
ĠUntersuch ungen
ĠG olf
ad ies
ennt nisse
P latz
R ange
Z E
i y
Ġf ather
Ġh ospital
ĠK en
Ġg ran
ste uer
get Key
lic e
ĠFrie den
Ġsol id
Ġdi agn
ĠOper ation
C al
G en
w ater
Ġa cadem
ar ator
ĠS of
Ġv ict
st Ã¤d
ĠP rag
ĠW alk
ag az
Ċĉĉĉĉ ĉĉĉĉ
ĠPre ise
++ ;
Ġerm Ã¶
Ġkur zen
Ġcertain ly
ĠJur ist
ĠSchwer punkt
ĠKomm ission
ĠWies baden
ĠTenn is
Ġd ank
ĠT imes
ĠR on
Ġle it
get Type
ast ian
pro cess
ĠGes ell
Met a
Ġredu ce
A re
B el
ĠM ir
ĠH aar
ĠL ipp
ul i
Ġre asons
ĠgroÃŁ es
con text
ĠGroÃŁ e
ĠStr and
Ġhistor ische
Ġsay ing
mitt lung
Ġclick ing
l ife
Ġc old
ol i
ĠL am
Ġcan cer
reg ister
Ġentwick eln
Ġexist iert
iw od
ĠNÃ¼rn berg
v ollen
Ġan hand
ĠR h
ĊĠĠĠĠĠĠĠĠĠĠĠĠĠĠĠĠ Ġ
Ġover all
Ġbeg innen
wh ile
ĠFrei heit
Ġbenef it
U I
d b
ĠB ang
Ġn ut
ĠO pp
onn a
ĠTra um
bur y
D ocument
it ors
ie fen
he bung
ic ious
ĠW ay
ĠN ote
Ġman ager
ĠFor st
ĠCas ino
F L
c are
c raft
p ool
v ents
Å ¾
ĠR ena
Ġaus reich
Ġcomm and
ĠErw eiter
urren cy
T S
at om
ĠK amp
ĠSp orts
Ġacc ur
wahl en
ĠSer ien
Ġp ush
Ġre ader
Ã¤r ke
200 2
Ġdat abase
> ,
Ġd rop
ĠB ord
ĠK andid
Ġg allery
Ġl ern
ach te
Ġge plan
est ra
ĠLe iden
gel t
ĠPr esse
Ġgo als
lÃ¤ ne
ĠMan y
It alien
h aben
Ġt em
ra k
Ġl Ã¶
ein anders
ere ien
ĠBe ziehungen
Ġum ben
Ġent steht
du ard
fÃ¼hr ten
Er st
Ġsur face
Ġpop ul
Ġa head
ĠD etails
Ġc lin
Ġfor ce
kt ar
ĠRe aktion
ĠPro jekte
rÃ¤ ft
ĠBundes staat
ĠBundes republik
Ġprote ction
Welt meisterschaft
hy th
Ġeffic ient
ĠLeop old
k ins
re tt
ĠM ike
ov en
ĠBer icht
ĠStud ie
ĠDurch messer
Ġatt ack
ĠZug ang
us es
Ġl isted
ĠN ode
ĠJ ed
ĠThe odor
ĠSp rachen
ip fel
Ġgeb ildet
Ġtop ic
ĠermÃ¶ glichen
Ġs org
ĠF ood
ist ischer
ĠIn formations
ĠAn ne
ĠPro z
Ġgew Ã¤hr
rich ter
ĠPre uÃŁen
Ġopen ing
hÃ¶ he
kra ine
w Ã¼r
ĠM isch
ĠE ven
Ġth ank
ĠVer dienst
Ġsp read
wer ten
cy cl
val ues
hin dern
re hens
Ġm icro
ĠP ow
ĠF lag
ĠG le
ĠW Ã¼rz
ĠZ y
art igen
omm od
Ġcom ments
ĠTw itter
J e
P la
ĠC orn
Ġcon ven
Ġprodu ced
Ġstell vertreten
ĠBenutz er
O K
ĠM ut
ĠM atch
ĠG lauben
ĠE as
ĠH ell
ĠAn lagen
Ġcon stant
gr enzen
Ch annel
Te chn
ĠChe mie
haf ten
Ġnotwend ig
Q ue
ĠA wards
ĠG ang
ĠE ur
ĠK anz
ĠN S
Ġte ams
ĠGra d
Ġlo an
m aschinen
ch ern
am at
ĠP y
ĠH ot
Ġr ates
Ã¤nd igen
Ġpar allel
Ġhim self
Ġextrem ely
C A
T emplate
W el
k u
w uchs
an ische
re c
ĠS QL
Ġf rag
Ġc ars
ann ed
ĠLand schaft
Ġlie f
ĠPar ameter
ĠAngeb ote
Ġbesonder en
P ool
Ġt ritt
Ġf le
ĠD B
Ġre li
aus schuss
ograph ische
ĠVers uch
Field s
ĠGerman y
ungsp ro
T arget
ĠF Ã¤llen
ĠK a
ĠC ard
Ġre icht
qu ery
ĠEm il
Ġsong s
ĠTÃ¼b ingen
z ern
is ierten
Ġmit einander
bahn hof
Ġcover ed
ĠPublik um
ar ray
ill en
ĠOr der
Ġbes itzen
Be vÃ¶lker
Ġart ists
Ġhig hl
Ġ ueber
ch or
on ia
Ġm iles
ol ar
ĠL uf
if iziert
ild es
iter ator
sche idet
legen heit
ĠBek annt
D ar
Ġs uffer
ĠS tellung
ĠF ord
ĠK redit
ĠSch ach
Ġj ournal
ĠUn garn
Ġsh own
let te
gestell ten
E Class
l s
st ad
st rom
ĠP ed
Ġr ules
Ġsch Ã¶ne
Ġres erv
Ġdr iving
Col or
ĠEngine ering
z iger
Ġb ag
ĠB ier
ra pper
pr Ã¼ft
vers icherung
aliforn ien
ĠFernse hen
il de
ir ing
ĠN omin
Ġ19 15
ot ten
iz enz
Ġme asure
lic ken
ĠEx ec
ĠMed ical
Ġmon itor
Ġrad io
u ellen
on ien
st ock
ust ain
wer ben
Ġ190 6
gra ben
bere cht
ĠWed nesday
er te
Ġf ailed
st anz
ann en
In nen
St yle
denk male
akte ur
ĠFÃ¶rder ung
Ġpress ure
ĠLeicht athlet
ĠFreit ag
B est
Ġt emplate
ĠA ction
ĠP ath
ĠL as
Ġdem and
Ġse ch
Ġgen ug
Th ese
ĠHand buch
ĠZahl en
> <
F ailed
Ġs ample
ĠS ig
ĠM id
ĠL ED
gen Ã¶ss
ĠO R
od urch
ack en
teil ungen
Ġqu al
Ġ190 2
Ã¤tz lich
ĠPre uÃŁ
L a
Â ´
Ġt ruck
Ġb ess
Ġv ierten
ĠD aneben
ĠC ert
Ġcon vert
ĠGemein der
lig isten
Ġchar ge
spe kt
Ġdenn och
Ġober en
Ġparticular ly
P O
Ġd ining
on i
Ġdem onstr
set s
ĠUntersuch ung
Ġgemeins amen
ĠFakult Ã¤t
us al
Ġn Ã¤her
Ġsh aring
ĠBes itzer
hard t
ĠComm ission
Ġv s
am ed
em ed
Ġim press
ĠSp itze
ĠMe yer
Ġtr ug
ĠProdu zent
Ġtrans form
gangen heit
Ġdise ase
ĠW Ã¤r
ĠR ub
ir n
Ã¶ z
Ġwh ose
fl ow
Er ster
Al bum
ĠGew icht
Ġunterschied lich
Ġmittel alter
" ).
M W
Ġs amm
Ġw odurch
Ġh Ã¤tten
ĠC ost
Ġun er
Ġj ung
ĠSp itzen
ĠLe ute
ĠAl ters
Ġad vent
ĠMag de
Ġexec ute
ĠTemp el
ĠSchles wig
k riegs
ĠF inn
Ã¶ tz
auf hin
Ġeinge fÃ¼hrt
Unter nehmen
F ahr
f it
k ern
ĠL it
Ġl abel
ĠAuf ent
Ġinter ior
cre te
tens ion
Ġstand ards
ĠWeltk riegs
M o
P olitik
Ġzu geordnet
Ġpro ud
ĠAr thur
Ġshe l
Ġgu y
Ġstark en
Ġprofession als
Ã¨ re
D ialog
G o
S H
ĠB latt
st ar
and om
Ġman chmal
Ġen dete
ss on
Un d
ĠHoch schullehrer
lÃ¤nd ische
ĠJournal ist
Ġthe me
ĠN ick
ers ey
sp ace
Ġ18 70
bo olean
Ġschw ier
ĠEd el
Ġret ail
Group Name
Ġach ieve
L age
L ayout
Ġs itu
ĠR io
Ġat tempt
Ġsp richt
ĠAd el
schn itts
gra f
wor th
Ġnahe zu
ĠB Ã¶r
ol is
ĠE ich
ĠE ber
ĠUn abhÃ¤ng
ans as
Ġcor ner
Ġrelations hips
Stra ÃŁe
F B
F inal
c opy
Ġrem ote
Ġend g
m es
Ġf ung
Ġer hoben
Ġj ur
Ġch annel
ĠEin richtung
Ġber ufen
plat te
Ġcompon ent
Vari able
d d
Ġsh ared
upp en
ĠHeraus geber
ar ina
ĠA ccess
ĠD ichter
ĠF ur
ĠF air
ĠF ootball
Ġr ent
Ġab geb
ĊĠĠĠĠĠĠĠĠĠĠĠĠĠĠĠĠ ĠĠĠĠ
ĠWe imar
ath an
alen der
ĠPlan ung
ĠOrd nung
er em
Ġa ward
ĠL etz
ĠRe public
Er folge
ĠMark en
wend ungen
yl van
ĠAktiv itÃ¤ten
t able
Ä «
Ġw ine
ĠK im
ĠR ett
ĠN ap
Ġent sp
Ġdr iver
Ġpat ient
ĠInn ov
H istor
n ing
Å Ħ
Ġw ebs
Ġb ur
ĠB och
ĠB lo
ĠP ac
Ġal one
if el
ĠZ erst
ĠAus nahme
Ġad vanced
Ġtr ust
ĠOber st
Ġ190 4
ĠGesund heits
E G
L in
u i
ĠR oh
Ġl ab
id den
Ġse ven
Ġte en
Ġsh all
ĠFl Ã¼cht
ĠHoch zeit
ĠGrÃ¼n der
ĠPap ier
Ġzwe imal
Ġaltern ative
Ġupd ated
Ġs orgen
Ġh aven
Ġr u
ĠJuli us
ex it
ĠCont ent
F O
b ay
Ġs inn
Ġm ut
Ġp al
ĠL ibrary
Ġg rat
ĠN Y
Ġcon vers
ĠÃľber setzung
Ġexper ts
Ġnah men
ĠGed anken
ĠlÃ¤ uft
E hr
M I
ot yp
ab geord
ĠAn h
pe ctive
ht ml
Ġtra ffic
Ġinst r
log ger
Ġstru ct
ĠFig uren
ĠMount ain
schlÃ¤ ge
u ar
it o
Ġe at
ĠM ie
Ġbis lang
ob j
ĠHe ad
Ã¤nd ige
Ġel f
ĠNord westen
Ġsozial en
Ġrequ ires
' ,
le bt
ol ogen
ĠR ollen
ĠBe ziehung
ĠGr enzen
man agement
Ġdam age
Ġreg istr
Ġgener ate
Ġaut o
Ġauth ent
ĠÃ¶ffent liche
! )
ĠS ince
ĠP ut
ĠC ru
Ġal though
Ġus w
Ġpr incip
olog ischer
Ġbet roffen
ĠStre cken
ĠViel zahl
Ġmem ory
ĠMatth ias
S eine
v orsitzen
ch o
Ġcon ference
ĠChar lot
Me ister
k Ã¼nd
p et
s ource
Ġf ans
ĠM B
ĠN och
Ġ19 16
ver anstaltung
aus gabe
Ġad ult
grÃ¼n der
Ġverw and
Ġpay ment
Ġvo ice
ĠNeub au
C ar
H ere
or gan
ĠC lick
ĠBre mer
ĠBu ild
beding t
Ġeconom ic
Ġhus band
N ow
k rieg
w urf
ĠB itte
Ġl it
Ġge ist
tr an
Ġwe chs
fÃ¼ gt
__ __
ĠEigen schaften
ĠjÃ¼d ischen
F il
N ov
s st
Ġb ot
Ġv ision
Ġ1 10
Ġal ter
ĠPro perty
ĠQu elle
Ġletz ter
Ġ190 9
ĠTÃ¼r kei
asil ian
Bo olean
Ġstre et
ĠImm obil
Ġs up
ĠS au
sch irm
ĠL ock
ĠEr ich
mal er
row able
ĠHer bert
zeich nen
zie ht
Ġinvest ig
Ġsen ior
ĠBrÃ¼ der
N or
R ed
Ġf at
Ġn ar
ĠW ho
ru pt
Pro ject
Ġsc en
Ġsc ene
Id s
Ġfind ing
ĠAfr ican
omet ry
ĠDistr ikt
c ore
Ġin ternal
ĠM P
ĠT erm
ĠT rÃ¤ger
ab end
Ġst opp
Ġde termine
urn ier
ĠVor stand
sh ips
Des criptor
ĠCarol ina
l Ã¤nge
ã ĥ
Ġf an
est ination
fÃ¼hr te
ER R
Ġincre ased
ĠOp ern
ĠZwe ck
Ġlov ely
ĠWo iwod
ĠSowjet union
b on
ist ant
Ġauf gebaut
ak i
ĠMot iv
Ġmult i
ĠNutz er
has Next
ĠSong s
Ġtalk ing
Ġautomat isch
M O
R oot
Ġ ut
Ġi Phone
br Ã¼cken
ĠMed ic
Ġprof ile
AL L
ĠMax im
B ook
in zen
Ġin nen
ĠB row
ĠM oh
ĠF ull
ĠGesch ichten
ĠLauf bahn
zÃ¼ glich
ĠF Ã¤h
ach es
Ã¤n ner
Ġum geben
Ġdest ination
L C
m auer
ĠStra f
mar sch
quire d
mus iker
n t
in ken
es k
re place
ĠE duard
ĠK amera
Ġz er
ĠSch aden
Ġho her
Ġsur v
ĠHers tellung
ĠpersÃ¶n lichen
ĠNet work
a ber
ĠS ir
Ġc ategory
ĠT Ã¶ch
ĠN ight
id o
th en
ĠVer gangenheit
Ġdurch schnitt
Ġte aching
Ġpr esented
Ġbel ie
Ġgu ests
gra de
ĠEntwick lungs
ĠBro ok
Ġeinzel ne
aka demie
Ġoffiziel l
ĠAntw ort
ĠR ose
Ġg ather
ĠEr folge
ob ject
Ġerh ielten
Ġ190 3
Ġfac ilities
ĠProduktion s
ĠBayer ischen
m eldung
ĠV aters
ĠJ agd
est amp
ate ver
ru pted
Ġhe avy
ĠNe um
Se henswÃ¼rdigkeiten
ĠLebens mittel
ĠRei hen
o ben
ĠA achen
ic ations
ĠR oss
ĠZ ivil
ĠEin sch
upp er
bach er
ĠDes halb
ĠBar on
ĠProf ession
ĠJe ff
Ġerforder lich
ĠMarg are
D u
Ã¶ die
ob el
ĠQu er
gest altung
rÃ¤n kt
Ġrespons ible
Ð¾ Ð
f alt
t yp
ot ional
th aus
kauf t
ĊĠĠĠĠĠĠĠĠĠĠĠĠĠĠĠĠĠĠĠĠĠĠĠĠĠĠĠĠĠĠĠĠ ĠĠĠ
cont ent
Warn ings
Ġappropr iate
8 00
Ġf ish
st al
Ġc ock
ce p
Ġrec ords
Ġsc r
ĠOb wohl
Te am
ĠSc iences
ĠMark e
Ġexc ited
far ben
M ain
el se
sen z
ĠÃ¼ber w
ĠBer atung
Ġacc ommod
folg ung
Ġ190 1
Ġwicht igen
gre if
w as
un a
Ġs Ã¤m
or fen
ar in
ĠG ymnasium
ĠG riechen
ub a
atur ing
ĠMe cklenburg
ĠJo e
Ġricht ige
J ohann
W erk
c ons
Ġt Ã¶
Ġe arlier
ĠA dr
ĠB aby
ĠM Ã¶n
ag ers
() ).
The y
ĠBar bara
b und
k ur
Ñ ģ
ĠB an
ĠB os
st il
Ã¶ se
ĠVer st
ĠMag n
Inter ior
Ġerz Ã¤hlt
ĠgegrÃ¼n deten
Polit iker
Ġs at
or row
al tete
Ġm ode
ĠA C
Ġc ore
ll en
Ġr ank
ĠAn forderungen
ĠOr tes
Ġdo pp
res h
At tributes
alb um
spre cher
ĠMod elle
ĠGar den
Dire ctory
Supp ress
ĠverfÃ¼g bar
ĠObserv able
G E
ĠC over
Ġauf gelÃ¶st
gesch lagen
bo den
ĠFÃ¼r sten
ĠEnt fern
umm ary
Ġelekt ron
ĠD iv
Ġver f
ĠGr amm
ĠIm age
Ġprov ider
Ġdire ction
Ġsec ure
Ad d
lei hung
ĠZusch auer
b uffer
or ph
Ġw rote
ĠS ens
Ġf la
ĠD inge
ĠK art
ĠC A
Ġver kehr
ĠUn fall
fe ct
fÃ¼hr ungen
ĠGeb urts
ĠSec urity
Ġd ish
as ts
Ã¼ gt
ro h
Ġk os
ĠO tt
Ġun ge
ĠInd ivid
Ġpol y
ĠEng agement
Ġinstall ation
Ġwait ing
ĠBeding ungen
K n
k Ã¶rper
er a
ck et
ĠDie ter
In ternal
ens is
ake i
Ġaw esome
P ost
Ġb rach
ĠA L
ĠT ax
ĠL abel
ĠInstit ution
Ġoper ations
') ||(
ĠHash Map
Eis hockeyspieler
B as
c al
r un
r ical
ĠD ich
Ġp ull
her zog
Ġpr in
ster dam
Ġet abl
ĠNetz werk
m ot
Ġb urn
ĠT ats
ĠSt ift
reich er
ĠMich el
DE FAULT
ĠEngl isch
Ġklass ischen
J uni
r ate
s ing
or ation
ar ia
ĠU kraine
ĠBe ob
Ġvor aus
Ġpe ace
Ġcommun ication
fre und
Ġprote ct
ĠAnaly se
ĠNationalsozial ismus
' :
r asch
w ich
Ã ĥ
Ġf av
ne e
ĠBe weg
Un able
199 9
ĠkÃ¶nn ten
ĠPrÃ¤sident en
M C
w is
Ġa uÃŁen
ĠS E
ĠW it
urop a
ĠBo olean
Ġmov ed
Ġengine ering
4 00
A v
w Ã¤l
Ġb auen
ĠM ode
ĠK y
ĠK Ã¼nst
ĠH ockey
ĠU se
we il
iz ont
Ġplan ts
Dies er
**** ****
Ġw eder
as p
Ġan gesehen
ĠSch we
ĠAn gehÃ¶r
qu enz
ĠThe ologie
ĠInd ien
Ġ189 8
Ã¶rder ung
ĠKomp osition
App lication
urren z
ĠKranken haus
A ct
in u
ĠM oment
ĠH ospital
ĠN ah
ungs ver
ĠNach richt
burg h
Wh ile
Ġclean ing
W E
ar p
Ġzum indest
iss ance
Ġcont ain
ĠSte phan
Ġda ÃŁ
Ġcour t
ĠMaterial ien
Ġop in
P res
k ultur
r aten
le m
ĠT sch
ĠJ a
os low
Ġfor ms
Ġver urs
ĠLe arn
Ġ5 1
ĠLand tag
ĠBo ot
ĠCon ference
Ġexperien ces
ĠQualif ikation
ĠS ak
ĠB lan
st yle
ĠW ord
iv als
ĠVer letz
Ġviel fÃ¤lt
ĠSÃ¼d osten
Ġcoun ter
urf Ã¼r
ĠGeist licher
igr ation
ĠLex ikon
) {
I ST
k urs
n itten
ĠZ un
Ġse a
At om
deck ung
umm ern
deutsch e
ĠSchn ell
ĠSchn itt
Ġgre ater
Ġab gerufen
ĠMin eral
ĠRes ult
ĠMein ung
Hol stein
Ġumben annt
g yp
â Ħ
Ġm aÃŁ
ĠG T
ic ial
et ze
Ġis rael
Ġver ur
lie ger
Ġvor ge
ĠMar ien
Ġrest aurant
lad ung
ĠerhÃ¤lt lich
Ġnumer ous
l u
an th
ĠB Ã¤nde
ĠN ar
Ġk ombin
ĠIn itiative
ring t
ikan ischer
ĠHotel s
n g
z um
Ġt on
Ġm ilitary
ĠM auer
os ing
art ig
for mer
Ġ18 48
Ġsc ore
ĠzurÃ¼ck ge
ĠGer Ã¤te
Ġcol our
Ġtechn iques
D el
S ett
ĠT ief
ĠJ enn
au ert
ger Ã¤te
ac ing
ĠFl Ã¤chen
Ġmov ement
Ġengl isch
Pre fix
Europ ameister
Ġt rifft
Ġv en
ĠP ots
Ġman age
Ġsc ale
ĠJan e
Or ganisation
ĠSan kt
verkehr s
ĠÃ¤ uÃŁ
ĠLÃ¼ beck
Ġzie hen
ĠprÃ¤sent iert
ĠGespr Ã¤ch
R Ã¶m
S QL
d oc
Ġt ickets
ĠS af
Ġan schlieÃŁ
ĠZ ul
Ġver legt
Ġby tes
yste men
Be im
Ġausge fÃ¼hrt
ĠRÃ¼ck kehr
ĠKont rolle
Ġbig gest
Ġphil osoph
] [
b ing
Ã Ĺ
ch ild
ĠT en
ĠK ab
ĠL eder
ĠBe wohner
Ġsp ann
geb irge
Ġmain tenance
Ġregister ed
B ere
r amm
ĠL ittle
Ġbe ant
ĠC anad
ann ter
eb e
ĠThe orie
Ġent schieden
wer tet
K l
b ett
b ahnen
Ġ ..
Ġf eder
ĠA qu
ing t
Ã¤ ÃŁ
Ġp m
ad ing
iz z
acht ung
Ġmax imum
ĠTer r
Ġident ify
Ġve get
Ġfoot ball
S cript
ĠB art
Ġk l
ein heit
ĊĠĠĠĠĠĠĠĠ ĊĠĠĠĠĠĠĠ
Ġr um
ĠFrie dens
D aten
st ab
ĠJ etzt
Ġver n
ĠWe il
ĠKon zer
Ġgar ant
Ġmov ies
B undle
L iter
r uss
v as
Ġf lag
ĠA ster
Ġein geb
ĠE qu
ĠSch reib
men d
ĠMan fred
Ġcompet ition
Ġgelegen en
ĠAbgeord neten
) ");
w ettbewerb
Ġm ail
Ġc entral
ĠT ob
ĠK rieges
Ġre levant
schaf fen
zen e
olog isch
ĠQu adrat
Ġstor es
lev ision
Ġerinn ert
ĠD issertation
ĠK ardinal
ĠH um
Ġl i
we ight
ste igen
Ġsch reibt
St ar
Ġbet rieb
Ġfre ie
Ġeven ing
Ġem pty
Ġâ ļŃ
ĠerklÃ¤r te
H aus
M ore
p asst
Ñ Ĥ
ĠH ug
ĠV it
Ġauf gestellt
ip end
ĠSe cret
Ġdar aus
gesch oss
ĠMann schafts
Ġverschieden er
Ġvisit ors
Pf alz
p c
Ġw ire
ĠE arth
ĠK lassen
erk ennung
ĠEing ang
W il
c ard
Ġan c
arbeit ete
ĠFahr er
Ġpop ulation
d on
Ġt oll
Ġ5 6
ri age
Ã¼t ze
ĠJuni oren
ĠBahn strecke
an on
ĠS y
ĠP M
sch rank
ĠH amm
Ġver hindern
ĠGer icht
ĠFamil y
Ġeigen es
Ġ189 6
Ab sol
. /
ĠG it
ĠK up
Ġl ay
ĠRe f
gr iffe
Ġat tribute
ĠGe gner
ĠAs ien
Ġnov el
V E
Ã¼ p
sch uhe
Ġg ern
Ġto ken
ĠAn f
Ġ/ *
Ġgr unds
Ġcommun ities
ylvan ia
e xt
Ġh alb
ĠT aschen
Ġk new
ce an
ĠU fer
od a
ĠBr enn
Ġsm ooth
ĠInst all
fra gt
Ġcould n
sta aten
Ġwebs ites
3 00
j an
s ichts
ĠK ron
ĠH ay
ĠL td
tr ast
ger y
gr Ã¶ÃŁe
Ġsh ot
Ġpar ams
ĠSchl Ã¼ssel
ĠzusÃ¤tz liche
m inton
en ken
Ġa p
ro st
ĠV el
la pp
ĠHer kunft
cl ub
Ġinst ant
med izin
. ).
u ters
Ġt it
Ġb illion
ĠK ul
ĠIn frastruktur
Ã¤r ten
Ġcomp ared
Ġcal cul
usÃ¤tz lich
ĠCam bridge
W ert
m or
r in
ĠG Ã¼
ĠI ts
ĠU t
ĠSe kunden
fen ster
Ġro of
ĠFor ce
Ġlook ed
Ġstr ug
ĠCD U
ĠWoiwod schaft
c os
ent lichen
ĠI ran
ier end
ub il
ĠBe aut
her ren
ĠEin richtungen
Ġad vis
ĠInter essen
Ġsur pr
Ġstark e
Ã¤mp fe
ĠRu h
Ġexc iting
ĠflieÃŁ t
L ook
as i
ĠT ay
ĠK ost
sch le
ĠR Ã¶m
Ġse cret
up date
Ġunter halb
Ġag ree
ĠAug sburg
Ġsol chen
ĠWeltk rieges
plat ten
Ġst Ã¤dt
Ġex change
Ġpar ameter
Ġ189 9
Ġorgan izations
ĠParte ien
Suppress Warnings
t arget
ĠP os
end o
Ġunter en
ĠOr chester
Ġra p
Ġsex y
n or
le ute
Ġbe grenz
ĠV og
ien cy
ĠTh ank
ĠWelt cup
ĠWir ken
Ġprocess ing
ĠHel mut
anc er
ĠMc C
K r
S ign
T P
w ing
Ġs orgt
us ted
ĠA S
ĠA gr
ĠZ oll
ĠBe am
Ġle aders
Ġat tend
Ġte le
ĠAuf lÃ¶sung
formation en
Ġra re
Ġdevelop ing
loy ment
ĠIll ustr
resp ond
' );
le vel
ed om
Ġman ual
Ġnot ice
Ġ5 3
Ġdo ors
Ġra in
ĠJust iz
ĠAustral ian
ĠMex iko
ĠÃ¤ltes te
ĠMathemat ik
M ember
h op
an ie
Ġaus ges
aus end
Ġqu e
Ġend lich
lam ents
Ġverste hen
Ġol der
Ġb lieben
ĠF ac
Ġk id
ĠSt ory
ĠSt unde
Ġunter r
Ġkomp lex
Ġvol unte
o ul
Ġd aughter
ĠD ynam
ent hal
Ġk o
Ġunter sch
ĠGesch ichts
Ġtechn ischen
He ute
Ġkon zentr
Ġexp and
Ġsepar ate
zÃ¤hl ung
Ġbehand elt
Ġneigh bor
s ein
w ish
el ess
ĠL iber
Ġme x
ord net
Ġ18 80
ĠGe fahr
ĠBes onder
Ġeben da
ape ut
Ġzunehmen d
Ġfant astic
I gn
W irtschaft
Ġw om
ĠM ord
ĠK am
Ġsch Ã¶nen
ĠÃ¼ber nehmen
Ser ie
Ġcrit ical
âĦ ¢
h ar
t own
ĠP red
ĠK Ã¶r
ach us
Ġr ub
ĠCh allen
grÃ¼n dung
esent lichen
produ ktion
Ġdet ailed
d ach
ĠF ore
ist o
ĠN on
iz iner
Ġwas te
zeit ung
res ponse
Ġfre ien
Ġaufge fÃ¼hrt
P o
ĠD ist
Ġl auf
ĠO der
Ġex ter
par ent
Ġcomp rehens
ĠAll tag
unter richt
Ge w
Ġpost s
Ġant i
ĠSÃ¶ hne
ĠTÃ¶ch ter
A F
C ommerce
U P
h es
t um
ĠM ol
ĠL or
Ġer zeugt
ab ilities
we iler
anz ig
Ġtra f
ĠHol lywood
Ġ189 5
ĠOff en
ĠBevÃ¶lker ungs
Ġzust Ã¤ndig
b ut
x ml
ig ger
im ents
ĠIn fanter
Ġwar um
ĠUn ser
Ġman aged
ĠFran ken
Ġverb indet
ĠStÃ¤d ten
Ġfig ure
Ġs ister
Ġs quare
Ġch ain
ĠEin heiten
ĠAm sterdam
Ġsupp orted
Ġgest altet
ĠIns eln
EM ail
Ġneg ative
Ġchallen ges
K ompon
Ġcla im
Ġren ov
Ġgemeins ame
histor iker
ziehungs weise
Ġfab ric
F alls
ĉ ĠĠĠ
ĠM Ã¤r
ĠW en
ĠJ ones
Ġ5 4
Ġersch einen
ĠBestand teil
ĠSeb astian
ĠColumb ia
ĠKÃ¼n ste
s ite
us sen
ĠWe ib
ĠAm b
Ġur kund
ĠTor onto
ordin ate
ĠWÃ¼rz burg
I X
P lease
te am
Ġm sg
ĠB ase
ĠP anzer
ĠMit gliedern
so ap
uck s
ĠProf il
Ġadd ing
anc en
lÃ¤nd ischer
Ġconfig uration
ĠunabhÃ¤ng ig
zep te
" ));
K irchen
M M
S ingle
ĠP ul
ĠEr ste
ĠMit t
Ã¤ch er
ĠWelt meisterschaft
Ġengl ischer
bre ak
ĠBot schafter
N E
z lich
ĠT wo
ess ed
ĠCh ance
leg entlich
piel en
Ġgener ally
ĠGegen wart
ĠLu c
N um
a ult
u ber
ĠM io
ĠM assen
ĠG all
ĠW a
Ġwel chem
Ġerw artet
Ġtrotz dem
Ġadvant age
: .
Ġa part
it at
st Ã¤nden
ĠD iffer
ĠP ie
ĠP ierre
im en
ĠK Ã¤
Ã¶ gel
yn ast
Ġtr end
ĠRes ource
ester day
Ġstar ts
Ġmar ried
ĠHar ry
SD AP
ĠAutom obil
ĠÃ¤lter en
/ *
Ġ Ã¶stlichen
an ded
Ġs ources
ol ge
âĢľ ).
ĠTh read
Ġvers uchte
AC E
Ġpriv aten
P ersÃ¶n
Ġ icon
ĠT i
Ġst ick
sp art
Ġhe ight
Ġwir kt
Ġ18 71
ĠEd ward
ĠKo operation
Ġland wirtschaft
ĠSÃ¤nger in
N et
S uch
re ck
Ġ( ;
âĢ ĭ
Ġbe coming
Ġver Ã¤ndert
Ġde te
Ar beit
Ġinit i
ĠWeit eren
lÃ¤r ung
Ġn ennen
me ter
Ġlie be
irt y
ĠChr isten
Ġjem and
Ġbenach bar
P air
k es
k rit
t te
ĠS oll
ĠD un
Ġg ay
ĠSt imme
Ġab ger
In ternational
Ġad just
ĠkÃ¶n ne
ateg ories
Ġvis ual
ĠBÃ¼ hnen
IT Y
Acc ount
( _
: :
J Ã¤hr
M apping
ie den
Ġh ook
ĠK ent
ĠK alk
ph a
ĠOr ten
ĠAm ateur
Ġinter pret
stra ÃŁen
ĠBau werk
Ã¤ng nis
ĠEntw urf
Ġinc or
Ġclos ed
Ġexpl ore
ĠAng st
ĠMik ro
Ġges ellschaft
Ġbo und
pf ul
Ġsee ing
Ġlar ger
ĠWar en
atÃ¼r lich
ĠAlex and
ĠDipl om
. _
Z e
s ylvania
al om
ĠE uch
est ic
Ġver geben
ger Ã¤t
Ġcon temporary
Ġex pos
ĠAus einanders
Ġ8 5
Th at
ĠHand ball
Se quence
Ġshow ing
ĠAnton io
Ġprep ared
B re
D own
S PD
y ball
Ġs ter
ĠM ak
Ġh Ã¶ren
ra f
ĠC ur
ĠC reek
Ġre ag
Ġad apt
ĠKl ima
Ġbra ucht
Ġmag az
ĠÃ¶sterreich ische
ĠPlat ten
Ġverpflich tet
F ranz
O st
l ik
ĠW urz
Ġg one
ĠC ro
Ġre ality
Ã¼r zt
akt oren
ĠHaus es
ĠBÃ¼ hne
Ġann ot
Ġfact ory
Mat rix
C urrent
ĠC lin
Ġ18 60
iss es
ĠGes ang
Ġange gebenen
Ġerr ichtete
Ġnational en
ĠDat um
g Ã¤ng
n i
z unehmen
ĠH yp
ĠV I
ĠWe gen
Ġ9 9
sk a
ĠGra z
Ġbring s
Ġed ge
Ġpo or
ĠTab elle
Ġindustr ial
T ube
f irst
ĠM ix
ĠD J
ap i
ĠDe p
Ġ/ >
Ġper man
ĠMann heim
Ġklein ere
v y
et he
Ġver anst
tr ich
Ġle aving
get reten
for scher
Ġqu arter
Ġges und
Ġtrans action
Ġcap acity
ĠItal ian
S u
T ags
Ġf ot
Ġc up
Ġr at
Ã¼n fte
Ġvor gestellt
ĠHe iz
ĠFl ucht
ĠJack son
ĠAutob ahn
ĠBened ikt
ol and
ĠH arr
Ġver me
sp latz
age l
Ġperform ed
ĠHor st
ĠÅ ł
Ġkathol ischen
umin ium
Ġdoc uments
is lat
he dr
Ġc it
ĠH alt
em it
Ġbe ziehungsweise
ĠV Ã¶lker
ĠVer hÃ¤ltnis
Ġex pression
ĠPh ase
ĠWor ksh
Ġbuy ing
Ġzie ht
Pol icy
Ġspeziel l
Ġprep are
ĠS yr
de hn
Ġp latz
ol s
ĠK alifornien
ĠC op
Ã¶ ck
Ġk g
ĠSt ore
Ġfor eign
Ġzw eiter
Ġ9 5
ied elt
Ġrem ain
Ġart icles
ĠVerlag s
Ġsl ight
Ġbetrach tet
C or
K W
Ġan gen
Ġver tra
we ist
Ġwir ken
ail and
Re chts
Se gment
He ight
Ġdirect ory
verband es
Ġf ear
ro ad
id ae
ere cht
iz ien
Ġget ragen
Ġapp oint
bau en
ĠMin i
ĠFil mp
cel ona
Ġerstre ckt
Digital isat
ĠViet nam
T L
k Ã¼rz
Ġe arth
ĠVer arbeitung
ial s
En c
En um
Ġspe ct
bes itz
Ġperfe kt
Ġsex ual
ĠBesch Ã¤ft
d auer
n chen
p ra
Ġb ought
le ucht
ĠK eller
ĠH ong
pt on
ĠMa jor
Ġbesch reibt
besch reibung
ĠbestÃ¤t igt
l itz
it em
Ġe ight
Ġein s
ĠH ildes
Ġon to
Ġunter scheiden
Ġen h
Ġres idents
Ġsh ip
Ġbest ritt
Ġpla ced
enden cy
ĠKl im
ĠrÃ¶m ischen
sb ruck
Ġwissenschaft lichen
ĠPrinz ip
ĠJer usal
VAL UE
ĠOh io
Ġnomin iert
im o
per atur
aut hor
ĠMÃ¼n chner
Ġbr ight
Ġjapan ischen
L ang
S L
ur ers
ig s
ĠK Ã¼hl
ĠW atch
Ġle gend
ĠUn sere
sen s
Ġbes etzt
ĠFre ien
Ġhelp ed
ĠSc ot
mod ell
Ġrelig i
ĠKarls ruhe
achus etts
E P
z ens
Ġw a
ĠS her
ic ians
ir urg
mit glieder
ĠGeb rauch
ĠKunst stoff
ĠDes cription
index Of
Ġsn ow
wirk ung
ĠArm y
Ġcas ino
ĠF ab
ĠF unk
ĠN eb
Ġun gefÃ¤hr
auf nahme
ĠGra ph
Land kreis
ĠErk rank
ĠPak istan
R uss
t ml
{ }
Ġein getragen
sw ers
ĠTer rit
ĠBed arf
Ġwid th
ĠpersÃ¶n lich
e ps
f ir
o om
ĠSch uhe
eb all
ens es
int age
jahr es
Pe ter
ĠZus atz
Cre ate
n abr
Ġb on
ok er
ĠOr ch
Ġte acher
ĠTr ib
uz z
ĠGrund lagen
ĠOn ce
athol ic
iate ilnehmer
Ã¤dag oge
ĠTab ellen
Ġcontra ct
ch nen
Ġc ivil
ber icht
Ġst one
iel le
Ġle gen
hen den
alt y
Ġ15 00
Ġ: )
Ġind ic
ĠTr ier
Ġtest ing
leb nis
ĠUms etzung
ĠS ender
le hre
il ige
Ġdie t
ĠKon rad
ĠRegion all
ĠGu ide
ĠAir port
Ġricht igen
nabr Ã¼ck
o ter
ã Ĥ
Ġb ist
am i
ĠK ais
ver zeichnis
Ġbeen det
iden z
add All
Ġklein es
State Exception
ĠCoun try
Ġrom ant
ĠRost ock
c ert
o or
w eiter
ĠD ollar
ĠH em
ĠL ady
kt op
ag a
Ġdurch aus
ieb el
hÃ¤lt nisse
Ġcour ses
fre ie
Ġinc ome
ĠDort mund
Ġmaint ain
Ġseek ing
Ret urn
a al
t lich
in de
Ġf uhr
ĠSt ill
est and
Ġde als
ug ies
pr Ã¼fung
Ġcomb ination
ĠFernseh serie
f ranzÃ¶s
ch ip
Ġs rc
us se
ert al
ell i
ok us
ĠLand tags
An halt
ĠVerb reitung
Ġmed ium
Ġtechn ische
Ġgef ert
ĠOff izier
ĠKn ow
Ġcor porate
ĠHil fs
Ġest im
Serv let
c omm
or ia
or ney
ing ham
Ġc ities
ĠU SB
all o
ĠVer trieb
ĠAr r
ĠEin kauf
ĠFrank furter
setz te
fort un
ĠAfr ika
Ġpan el
ĠjÃ¼n g
Ġsicht bar
K irche
Ġm essages
ĠB em
ĠH av
ĠL ein
qu er
Ġ" /
Ġum ge
ĠCh i
verein s
Ġbisher igen
Ġfil led
Ġaud ience
zuf Ã¼hren
Ġoffiziel len
ĠRou te
O pen
P al
b ein
Ġs qu
Ġc alls
ic ies
ĠSt urm
ph ase
Einz el
ator ium
hol m
Ġdist in
Ġwissenschaft liche
dire ktor
C ert
Ġc e
ĠT ake
ĠK ein
ĠW art
Ã¶r ungen
ino is
AN D
ĠNieder Ã¶sterreich
Ġmiss ing
ifest yle
ĠPortug al
prÃ¤sent anten
P R
k ow
u j
y t
ar o
Ġb ayer
Ġn ennt
ĠAn trag
ive au
ĠAr z
In sel
ĠGesch le
ĠMet rop
ĠFil ter
ĠjÃ¼n ger
strahl ung
ĠMagde burg
D DR
g red
l ight
s upp
ar ded
ol as
Ġdie d
ĠW Ã¼n
ĠN iger
we ich
ĠAuf nahmen
Ġspe zial
gesch windigkeit
ins on
ĠBes onders
ĠRu he
Ġkeep ing
Ġrun s
Inter face
ĠKommun al
ĠBot an
ĠNeust adt
X ML
p ap
ĠS ud
ĠB Ã¼r
ul ate
ĠRe quest
Ġhier bei
ĠOber flÃ¤che
ĠMin er
ĠStud ies
ĠVerb esser
Ġbas iert
Ġwind ows
ĠEpis oden
Ġcompon ents
D an
O B
Ã «
al o
Ġo st
ter y
ĠG anz
ĠK ob
ĠR ess
Ġr uh
oc ation
ĠCh am
Ġcomp are
Ġhel pful
Ġeinz igen
B it
m aschine
in stit
Ġf rem
st atus
de gang
Ġc overs
om er
ĠK rit
ĠL yr
ĠEurop as
Ġcons umer
ĠWh y
ĠBed Ã¼rf
ĠOs car
ĠRund funk
ĠPatr ick
Ġafford able
Ġinsp ired
Ġbein hal
V A
t x
or ter
ĠL ag
Ġg ain
ĠN ation
ik es
gel s
Ġte ils
Ġar en
ĠMar i
ograph ic
oin ted
Reg istry
On line
yd ney
seit ig
Ġaud io
ĠKolle gen
P aul
k ov
Ġ Ã¶rt
um a
ly n
Ġhe ader
ĠSte ve
ĠFre ude
ĠTod ay
ĠBel gien
Hand lung
ĠRegen sburg
Ã¼ fen
ĠH ung
ĠR un
etz ten
Ġper haps
leit en
Ġ188 9
ĠursprÃ¼n glichen
S M
Ġ iron
de fault
sch icht
qu em
Ġ7 2
igkeit s
)) );
fig uration
Ġpl enty
AT A
Ã³ w
bereich e
On ly
char At
- /
A kt
S ep
ie ht
Ã¼ se
ĠD C
ĠR untimeException
ĠJ im
ers te
Ġdes igner
ĠLe hre
ĠBr ust
Cont rol
Ġfac ility
Film ografie
ĠBron z
Ġhon est
M essages
e f
v m
z usch
Ġd inner
Ã¼ ch
ĠL ow
com mer
Ġdr ug
Ġlang sam
ĠMil ch
Ġbestehen den
ĠSchne ider
S earch
us her
ĠA le
ĠB le
Ġein iger
Ġre chte
ver tre
Ġev idence
J ahre
r ics
Å Ł
al and
Ġo k
ĠSt ream
iel len
ak u
Ġnach halt
gr Ã¤
Ġ5 9
Ġcomp ar
inz ip
Ġ189 7
Ġbus y
H z
N OT
c z
f Ã¤l
in str
ĠD ur
ĠH Ã¶ch
Ġ20 22
imm ing
tes ten
AB LE
H H
ot ic
fe hlen
fahr zeug
ĠPar laments
Ġmin ute
Ġke pt
ĠMark us
Ġfollow ed
Ġtre ten
Not Found
check ed
Ġep is
Ġd okument
Ã¤ fte
Ġc ream
ĠK ay
sch wer
ĠN at
ver l
ĠRe form
ĠRe isen
Ġsch rift
Ġgener ation
Ġworks he
Ġabsolute ly
F OR
K o
X ml
h art
k w
m lich
p aar
ro ot
Ġc ultural
Ġh ieÃŁ
ĠJ ord
Ġle ather
Ã¶r g
rit ing
Ġlo ans
Ġspec ies
ĠCor poration
ĠInn sbruck
Ġwatch ing
ĠBil dern
ĠL ike
la ut
od ies
Ġent schied
ĠAl k
ĠMin ute
ĠKr iminal
ĠRo hr
Ġcent re
Instit ut
M Ã¤rz
he il
Ġp assen
Ġc red
ĠK Ã¶n
ver lÃ¤ss
ĠSch mer
ĠPr int
ool s
Ġseit dem
stra ct
Ġbel g
Ġbr asilian
Ġstatt finden
Ġ188 5
Ġlearn ed
Ġtro ub
ĠGeschÃ¤fts fÃ¼hrer
Ġgetr ennt
Ġt mp
ĠS ynchron
ĠK un
ĠVer eine
ug os
ĠOr den
20 20
Ġthere fore
Ã¼nd ung
Ġ189 4
Ġcolle ct
ĠWei ÃŁen
ĠRelig ion
Ke ys
W or
ĠA M
ĠB om
st aben
ĠP ian
ir ts
Ġdeutsch sprachigen
An t
Ġob vious
urs or
ĠInternational e
Ġobt ain
Ġsoc iety
m otor
Ã ł
st arts
Ġc ells
ĠF ast
ĠL ust
ĠMa ur
bau te
Ġbeg leitet
Ġknow s
Ġbesch lossen
ex p
jÃ¤hr iger
ĠBach elor
onom ie
Ġchines ischen
ĠGovern ment
B en
F iles
J ust
c ious
e v
e ing
ĠM ans
ĠM obil
ĠN umber
Ġr ing
Ġex erc
ast rop
Ġpar am
Ġange zeigt
Ġpract ical
ĠMex ico
ĠerhÃ¶ ht
Ġdunk el
Ġn av
our cen
Ġsch lecht
ĠSe arch
Ġbr ands
ĠNieder lande
ĠRu hr
Ġfocus ed
Ã¤dagog ik
I O
Ġt aste
ĠF arm
ra ucher
Ġdes k
ann i
ell es
ohn t
Ġar range
En gl
Ġconne cted
ĠAlt ar
bÃ¼rger meister
Ġanim als
ĠDÃ¤n emark
z ellen
un es
Ġein schlieÃŁlich
Ġer lang
Ġre form
ĠAn gabe
ĠAn bieter
Ã© t
ĠFot ograf
Ġoper ating
Ġfact ors
Ber eits
Ġdisk ut
ĠIngen ieur
Ġfem ale
N atur
Ġan genommen
isch Ã¶
... ]
irt ual
ĠMet al
Ġsu it
Ġopen ed
ĠChampion ship
Ġapprox imately
X X
n ight
ĠH eb
ĠW Ã¼r
Ġl ose
ĠBr es
ĠMus ter
ĠSchw ier
Ġinst alled
reg isseur
Ġeinfach e
ĠmÃ¶glich erweise
ĠGrÃ¼nd ungs
Ġremov ed
ĠBrasil ien
it age
Ġan zu
ĠL uther
ĠC os
ran e
ap os
me er
ĠBo y
Ã¼t ten
forder ung
aill en
ĠVictor ia
ĠstÃ¤r ker
J apan
g ow
ĠS auer
Ġin dependent
Ġthe oret
ĠR ies
ĠJ ungen
ĠAb t
ĠReg ionen
imm ungen
ĠMon te
Ġpl astic
Ġass ert
bes itzer
ling t
ĠAkt ien
ĠÃ¤ltes ten
H ein
c les
an es
as ien
ĠB alt
ro g
ĠG allery
uf er
ĠAn im
ĠAus bau
Ġreg ional
Ġander es
ÃŃ a
Ġtre es
Ġeff orts
Ġpres ident
ĠJapan ese
Gra ph
Ġteach ers
Ġfa ith
Ġfav our
Ġd ance
ĠT H
ĠC apt
ĠV inc
Ġzu k
Ġch amp
Ġunter wegs
ĠAus stattung
ĠMe chan
Ġges ucht
ĠGesch windigkeit
ĠFahr t
ĠRuss ian
Ġbedeut end
Ġcommit ted
Ġbal ance
Ġsatis f
l ere
Ġd ou
ĠB our
ĠL ed
ĠV ent
ag on
lo aded
Ex p
fen se
Ã¤ch te
port al
Ġother wise
Ġloc ations
ĠBar celona
ĠFel ix
ĠhÃ¶her en
ĠMÃ¶ bel
l iance
Ã ª
ĠS ort
le ts
st one
ĠE ugen
ĠL ern
Ġl ights
ess in
Ġ18 50
igh ted
Ġapp lied
Ã¤nder te
ĠKÃ¶l ner
Ġstrateg ies
ĠAre a
ĠBist um
H inter
c at
o es
lie f
ĠWe ek
ĠHe ktar
ĠEnts tehung
Ġp reis
um es
ast ik
uss y
ms g
Ġber Ã¼cksicht
Con stra
ĠGemein schaft
Ġfre und
199 0
Ġwicht iger
Ġlaw s
Ident ifier
e i
in it
Ġs ustain
ĠM esse
ĠF F
ĠE conom
Ġst arten
ĠEr m
ĠGe fÃ¼hl
Ġ0 4
pro p
ĠUm gang
ĠInter ess
weis ung
Ġbeh aup
go ing
Ġschwer en
Jahr en
mosph Ã¤re
Ehemal ige
Olymp iateilnehmer
ĠgewÃ¤hr le
S ein
c enter
k ind
n ischen
Ġt ab
re gel
ĠN ull
get Id
ĠLe ib
ĠGe werbe
ĠMar burg
rÃ¤ umen
ĠRes erv
ĠPl Ã¤tze
Ph il
ĠWochen ende
Ġcomb ined
ĠÃĦnder ungen
ĠHig hl
ĠImmobil ien
< >(
C L
M ilitÃ¤r
h s
ĠM essage
ĠF ans
iv a
Ġde partment
Ġch anging
je ction
199 4
ĠOs nabrÃ¼ck
ĠEing abe
Ġwalk ing
Ġassist ance
reu ung
K arl
T od
p le
ĠS A
Ã¤ use
Ġein deut
ĠE N
esch oss
ĠVerein igung
Ġerw orben
Ġspiel ten
ĠPort al
ĠPra kt
ĠAndre w
far be
ĠGebie te
D om
S m
v ater
Ġs elling
Ġl ibrary
Ġ0 1
ock en
ĠWer ken
199 8
ĠBook s
folgen den
A bst
H S
Ġw Ã¤hlen
ĠR al
Ġun its
ĠĊ Ġ
ĠGe gend
Ġ6 1
ĠEl iz
ĠRes erve
Ġeduc ational
Ġvol ume
ĠGebie ts
Ġbehav ior
ĠTrain ings
Ġcomprehens ive
B O
p ommern
Ġa ware
Ġt rop
al i
ers dorf
ad r
Ġ18 00
ĠÃ ł
Ġdo ctor
reat ive
ĠSk y
aun a
Ġmen u
Ġexist ieren
Ġadmin istrat
P RE
ĠW ales
ĠZ iele
Ġrec ipe
iqu id
Ġnor weg
ĠEnerg y
gÃ¤n glich
Ġtem por
S pieler
h ou
m i
ch i
ĠM ade
ĠIn v
ak et
Ġ5 7
Ġ189 2
Ġoffen en
ĠpreuÃŁ ischen
r Ã¼stung
ic ian
ĠK Z
ĠH aupts
ĠW Ã¼rttemberg
Ġer gibt
if iers
Ġse ctor
ĠLe o
ss ystem
pro jekt
rag on
ĠDem oc
ĠCont rol
ĠSec ond
ĠVerÃ¶ffentlich ungen
ĠKomment ar
Ġhil ft
k Ã¶nig
y ll
re ffen
ĠS ams
stell te
ma ÃŁen
ĠInstit uts
ĠPhys ik
ĠQue en
Ġrepla cement
ĠLok omot
e per
m odel
Ġa gency
ĠA sh
ĠB at
ig sten
ĠL Ã¶sungen
Ġl ayout
ik ing
Ġver ab
ĠSch au
Ġsp Ã¤ten
Ġ5 8
Ġsc re
ĠNor mal
Ġcontin ues
Ġpaint ing
ĠEns emble
g ung
Ġa partment
Ġw Ã¼n
ĠD ein
ĠH als
Ġpro test
Ġnot es
ĠBes etzung
ĠZu cker
Ġsho es
Ġange hÃ¶r
ĠKÃ¶nig in
trag ung
Ġverst orben
antas y
B E
b ringen
l isten
ĠK ino
ĠJ ersey
Ġget Ã¶
sh ot
ĠBl ues
ĠspÃ¤ter e
Ġgu ess
ĠgrÃ¶ÃŁ er
Que ue
b te
g han
w Ã¼rd
Ġt olle
ie ten
re ht
ĠB alk
ĠF reis
ĠK rie
ĠN az
ĠSch ott
Ã¼n den
lan ze
Ġ188 8
Ġsett ings
A pril
M em
f aces
Ġ ice
Ġe ar
Ã¤ udes
Ġc row
ig it
ol ia
ĠSt ol
qu alitÃ¤t
ĠVer n
ĠBe hÃ¶rden
Ġso unds
Ġent deck
ĠGe werk
ĠWe ber
lan ge
stru ction
mÃ¤ÃŁ ige
iar den
Ġgriech ischen
vier tel
k at
s ession
ĠM ang
Ġc ute
et enz
ĠC EO
Ġre place
ungs s
ĠAl te
Ġher um
Ġgr und
let ion
ils on
Ġgest alten
Date i
Ġjoin ed
ĠSpre cher
ĠCanad ian
B uch
ï ¼
Ġc ry
Ġz ul
ra uf
ĠO bst
Ġis land
Ġwe iÃŁen
etz te
ons erv
Ġ7 00
Ġra w
Ġgleich e
ĠAt om
199 6
Ġfun ctions
ĠVerÃ¤nder ungen
M art
Ġ upper
ie ber
Ġm ort
um ps
ĠN avy
ĠV f
ack er
ĠArbeit geber
ĠBl umen
Ġenjoy ed
Ġocc asion
J ava
S ow
b indung
j u
Ġd Ã¼n
is p
ol ph
ĠR he
ĠR ail
ĠIn g
riter ien
ĠGraf schaft
ĠMad rid
Ġeconom y
Ġwechs eln
Ġe legant
ĠR oth
Ġr ental
och em
ov ed
Ġgen ieÃŁen
ĠBo gen
ĠPer formance
ĠTechn ologie
Ġheraus gegeben
ĠExper ten
Ġpark ing
Ġa st
re h
ĠT ank
ĠK rÃ¤
ĠN R
ver teid
Ġsh ap
ĠUnter schied
app y
ĠGem Ã¤lde
Ġra ised
ĠAs ia
AR T
AC K
ĠAlt stadt
ĠThÃ¼r ingen
T er
ch ung
Ġw al
ĠP ir
ĠK il
sch uld
ĠO ster
teil te
Not Null
Ġlat ein
best and
ĠDipl omat
ĠArn old
Frank reich
K inder
re uth
ĠA x
ut ch
ĠF Ã¼nf
ĠN E
ĠZ ell
00 00
ĠAr men
Ġsp lit
ho fer
Ġsh ipping
ĠFre der
Ġfunktion iert
Ġcaus ed
J ose
e g
Ġa im
Ġin gred
Ġan sch
st um
if orm
Ġab ges
lat es
ĠNach wuchs
Ġges te
Un sere
Ġgu ter
Ġgu est
ĠKlost ers
k amp
ĠP yr
ĠH ess
ist rÃ¤ger
Ã¤n k
ungs gebiet
Ġen det
ĠSh ort
ĠDi Ã¶z
LA SS
ĠAv ailable
Ġumfass te
ĠPots dam
F rie
K Ã¶nig
Y our
isch t
sp an
ĠThe ir
geb lich
auf bau
ĠAut hor
Al t
ĠJugend liche
trÃ¤ ger
ĠVertra gs
ĠBrau erei
ĠHug o
ĠJerusal em
K unst
Ġan geschlossen
Ġp ow
ĠN ationen
Ġge e
ad i
ik as
Ġauf treten
Ġver fasste
ĠRe de
ĠVer zeichnis
Ġ" ,
ĠNe ur
Ġapp s
ĠAd ler
ĠPol ice
ask a
Ġtop ics
Ġgel b
stre cken
Ġtot ally
ĠSupp ort
ĠVarian te
Ġfeder al
NotFound Exception
ĠM Ã¼hl
ĠK urfÃ¼r
ĠSch la
Ġvers uchen
ĠGrund stÃ¼ck
Ġworld wide
Ġsu itable
ĠWahl kreis
ocol ate
Ġvisit ing
Ġrepr Ã¤sent
ĠGal ax
H i
h au
k ar
Ġd oll
ĠB ull
ĠAn erkennung
ĠAus zeichnung
tw och
stell ig
licher weise
Ġunser es
Ġcontin ued
des ign
ĠMont ag
ĠGleich zeitig
Ġveh icles
Ġunbek annt
D ur
S uper
T emp
g un
r s
w eiten
in yl
Ġl aufen
ĠV ie
Ġfe aturing
pro v
Ġoff izielle
Ġpart ies
ĠSk ulpt
ĠÃĦ gyp
laub e
Ġoption al
ĠGed enk
Ġed itor
Ġprevious ly
Ġmittler en
ĠmÃ¶ glichen
Ġunivers ity
b Ã¶
p her
id i
Ġsch ied
ĠEin en
ĠSe en
ph ys
IN T
Ġmin imum
Ġprocess es
ĠRo om
ĠKap ital
iller ie
Ġcla zz
T our
f angen
k olle
Ã¤ ck
ĠT ransp
Ġg lob
Ġbe zeichnete
if act
Ġge zogen
ĠSt ab
ĠEr ic
ia c
old ing
Ġtra ce
Ġste igen
Ġakt iven
ĠTer ror
Ġpo et
ĠKan al
Ges ellschaft
Ġextens ion
Ġleader ship
chip karte
J ohn
R est
Z wischen
k la
k Ã¼ste
u is
is tern
it ro
Ġs it
ĠD ok
ĠE M
sen de
Le x
ĠProf ess
ĠLes er
fÃ¤ll en
ĠLoc al
Ġbege ister
ĠOption al
Ġkor re
agaz in
Ġt at
st ers
ĠD og
ĠT onnen
ĠF A
ĠE UR
ĠÃ¼ber sch
ĠHe y
Ġbes aÃŁ
Ġ6 3
ĠFor mat
Ġco ast
Ġdar um
ĠMittel punkt
Ġvoll er
B ig
T est
ĠD oug
Ġre pe
Ã¼ck t
Pro f
ĠGer Ã¤t
ret ch
ĠFahr rad
ĠAnt i
Comp arator
Ġappear s
ĠS ed
ĠS ydney
ĠP u
em pla
Ġsch uf
bar er
ĠGesch mack
ĠBl u
Ġrem ains
Ġserv ing
ret ung
Ġ189 3
Ġnor m
Ġzuf olge
Ġverbess ern
s ort
it as
Ġb rief
Ġf ach
ĠP R
ĠT emplate
ze ige
ner stag
igt es
Er gebnisse
ĠWelt meister
pre chen
Ġhapp ens
ĠHalb finale
Ġgespe ichert
F est
T C
z ert
or i
Ġw inning
ĠM i
ĠT ode
ic ans
Ġz Ã¤hlte
Ġl iber
ĠV alue
Ġge fallen
aus o
tern oon
Ġ8 8
Ġwork ers
Ġ189 1
ĠPla ce
Ġcover age
ĠQual itÃ¤ts
D ay
w irtschafts
ä ¸
re v
Ġb rown
Ġund erg
ĠP el
ĠT oten
ĠL ange
ul ations
ĠSp ur
ĠAus gang
ĠTra g
ĠAll es
ĠMark et
ĠCor ps
ĠEinwohner zahl
Loc ale
Ġzie mlich
Famil ie
F S
ĠH rsg
Ġge he
Ġis ol
get String
get Instance
Ġwe isen
Ġopt imal
ĠSzen e
p ie
w Ã¤hnung
Ġp ray
ĠE le
ste ine
qu elle
ĠSie ben
ph il
Ġspe ak
bo ot
Ne u
schn itte
ĠTechn ischen
Ġschn eller
ĠRechts anwalt
With ServiceResponse
Ġbra in
riter ia
fÃ¼ll t
Ġadv ance
WithServiceResponse Async
p atch
re ifen
Ġe hren
Ġan swers
ĠF abrik
ĠSch Ã¤d
iz ens
ĠSp ace
ĠPr ivate
ĠUnter richt
fin der
199 1
Ġkurz er
Ġprom ote
ĠFer r
dat um
ĠJos Ã©
Ign ore
v ens
ent ially
ĠVer g
Ġle aves
ens us
fe uer
cht es
Ġcomp r
inter est
Ġerfolg reichen
werb ung
Ġpract ices
iam i
Ġjeder zeit
Ġkont roll
l uft
he ber
Ġc ir
ĠT ai
ĠF red
ĠR av
Ġk ennt
ĠSt ich
ik ip
Ġent lassen
Ġfin de
ĠWelt meisterschaften
Ġtechn ologies
ĠBur gen
ĠIllegal StateException
ĠSchriftsteller in
RÃ¶m isch
C R
o ir
as ant
Ġf arb
Ġm ine
Ġbe comes
Ġi P
St affel
ph ia
Pro xy
ĠVers and
ĠGed ichte
ĠInf os
Ġgrunds Ã¤tzlich
v iel
ĠR ow
Ġden k
ass ung
Ġ18 74
oun ted
Ġher unter
Ġke ys
199 5
forder t
ĠDi am
Ġlaunch ed
ĠgegrÃ¼n dete
angeb ot
gorith m
Eng ine
ĠUnabhÃ¤ng igkeit
> )
M otor
Q U
S a
S ome
W ill
n ames
ĠG ab
lich em
sp rÃ¤sident
lie gt
ac c
ĠHe er
Ġag ent
ĠBl Ã¤tter
ific ations
Ġhin ein
ĠGroÃŁ teil
Ġchar akter
jahr en
ĠKo ordin
Ġsearch ing
Ġbirth day
ĠWag ner
L en
U C
ĠG ouverneur
Ġl istener
ĠN ag
ĠO m
Ġver hinder
Ġakt ual
the ater
ĠHel m
ĠHerr n
leb te
ĠpersÃ¶n liche
gebie ten
ĠGÃ¼n ter
leucht ung
ĠĠ Ċ
ĠM obile
Ġp asst
Ġer leben
od ox
pr ene
lass ung
land en
ĠBr Ã¼ssel
Ġgew Ã¼nsch
Ġgesch Ã¼tzt
ĠNor wegen
Ġperson en
Ġsign ed
ĠBra un
Ġobject s
Dies es
ĠKÃ¼ ste
ĠLOG GER
ĠGÃ¼n ther
Ġinkl usive
W S
Ġ Ã¤ndern
Ġh arm
ĠSch uld
ail ability
ĠÃĸ k
ĠCon gress
Ġmin or
ĠYou Tube
Ġser ial
Ġeinfach en
Null able
gestell te
Ġmention ed
ĠverstÃ¤r kt
ĠCharlot te
te ms
Ġp ul
ĠT R
Ġer mittelt
Ġge Ã¤ndert
Ġy outh
Ġj son
rom os
En tw
An merkungen
ĠHand werk
Ġur ban
ĠAlb recht
ĠDire kt
Ġhinz uge
ĠUp date
ĠSpring er
Ġhous es
ĠKrank heit
Ġbatter y
Ġverur teilt
ĠHildes heim
g age
u v
Ġt ail
ĠA z
ĠSt one
Ã¶r dern
Ġar m
Ġ6 8
Ġimport ance
Element s
Sc ope
Ġenvironment al
ĠWissenschaft ler
ĊĠĠĠĠĠĠĠĠĠĠĠĠĠĠĠĠĠĠĠĠĠĠĠĠĠĠĠĠĠĠĠĠĠĠĠĠĠĠĠĠĠĠĠĠĠĠĠĠ ĠĠĠĠĠĠĠĠĠĠĠĠĠĠĠĠ
ĠRum Ã¤n
ĠB Ã¼nd
st atic
de lete
ĠK G
ĠW y
ĠV i
ier er
ot ions
Ġst yl
ern ame
ĠAus bildungs
ges ell
Ġreturn ed
Ġbes uchen
Sch ema
ĠVerb ands
ĠJu an
ube hÃ¶r
Ġdeliver ed
Ġcandid ates
S ymbol
n ieder
ur ies
ĠT rieb
ĠI M
ĠW end
ach s
Ġer l
ow itz
Ġaus fÃ¼hr
men ge
ĠEr Ã¶ffnung
out s
Ġgeb ra
ĠBro ad
ĠKÃ¼ sten
Log ger
sprach ige
ĠAllgemein en
Ġacadem ic
B I
H O
P erm
Ġto ward
Ġwh atever
get Property
ard o
hen de
Ġbreak fast
ĠGest alt
Ġorganis iert
bour ne
ĠPenn sylvania
ĠPac ific
empla re
c our
} ,
ĠA dresse
ĠB uck
ĠT y
ĠT ipps
ist ing
ste ig
ĠCh air
ĠNieder lage
ĠTher apie
ĠColor ado
Sett ings
ĠTay lor
k B
Ġb aute
el en
Ġp ump
Ġst Ã¤ndig
Ġvor wiegend
ĠTe e
Ġ0 9
fol io
pro perty
Ġdort igen
Ġdec ide
legen heiten
Ġexp ensive
ĠFÃ¼hr er
Ġmass ive
ĠerÃ¶ff nete
ĠGef angen
Ġintrodu ced
Ġcabin et
ch a
Ġv ir
ĠH Ã¼gel
ĠJ son
Ġver letzt
Ġab gesch
ĠPr ince
oh ne
Ġtr uth
ĠNational mannschaft
wor fen
LO W
ĠRegel n
Ġzeit genÃ¶ss
Ġhappen ed
ĠCre ate
abet es
commer ce
ikip edia
H alb
at ische
ĠS ysteme
ĠM Ã¼hle
ĠD afÃ¼r
Ġge legt
id get
Ġr ide
ĠAn st
ĠAn wesen
Ġam b
Ġvor be
ĠCh ief
tem peratur
ingen ieur
vers orgung
ĠOber Ã¶sterreich
wert ungen
mÃ¤ÃŁ igen
K omp
L auf
m ach
on line
an teil
il den
im ir
ĠE rot
ic er
Ġge h
ĠZ usÃ¤tzlich
op her
Ġde fe
ĠVer mÃ¶gen
ip her
haus e
ĠÃľber blick
ĠDis ziplin
Ġruss ische
Ġsozial e
ĠKateg orien
lehn t
ĠHit ler
starts With
g asse
h Ã¤ndler
Ġm ac
Ġr andom
iz ierte
ĠTe uf
erv ation
Ġsecond s
ĠTour ismus
Ġdefin ed
Ġinspir ation
National mannschaft
ĠM etz
ĠC P
ste chnik
Ġsch Ã¼tzen
Ġar ts
ĠPf ad
Ġshe et
ĠPol icy
Se e
ĠIntern ets
Ġans Ã¤ss
Ġzentr ale
Ġflow ers
verstÃ¤nd lich
ĠGriechen land
Ġzuk Ã¼nft
Ġt a
ar ks
ĠM inn
ĠG ross
ĠK itchen
ĠW Ã¤l
ul ated
sp lit
âĢľ -
Ġ6 6
ron ik
arb y
Fe ature
ĠGi ov
Ġextens ive
ĠCast le
ĠWhe ther
ĠPfar rei
Sep tember
W rapper
m acher
ĠS ul
Ġm ess
Ġm Ã¼ndet
ĠB ag
Ġp urs
ĠP seud
ĠG n
ik um
sp iegel
ĠÃ¼ber setzt
Al so
kl ar
Ġmost ly
199 7
OR T
Ġ186 7
ĠDo ktor
iction ary
Ġkathol ische
---------------- ----------------
M ai
al ition
Ġb owl
ĠB R
Ġan lÃ¤sslich
em an
ÃŁ ig
Ġfor mal
tr im
ĠBe ispiele
Ġ6 9
olle yball
ĠUm fang
ĠHam mer
Ġgar age
Ġengl ische
Ġocc up
Ġdiscuss ion
Ġspeziel le
Ġdom ain
ĠVerantwort ung
Ġaspe cts
R ock
p ed
r ische
Ð º
Ġf Ã¼hl
ĠB ein
ĠG un
Ġbe we
Ġl ayer
Ġge legentlich
ĠAn lass
19 18
ĠAus zeichnungen
Ġup coming
arch itektur
zahl ung
ĠschlieÃŁ en
Ġallgemein en
h ai
y ard
ĠS W
he ater
Ġm ist
Ġm outh
ĠM ind
im on
ot ton
Ġr an
ph ones
ĠGemein sam
Ġkommen den
Ġdan ger
ĠDenn och
ĠLat ein
maÃŁ nahmen
Ġtemper ature
' .
> ()
B ay
ĠR ats
ĠTh ailand
amp s
ĠFor der
Ġbesch Ã¤d
Ġallow ing
ĠverfÃ¼ gen
EX T
ĠDenkmal schutz
Ġestabl ish
re me
Ġn ative
Ġn annte
Ġ( _
ĠT ree
ĠW under
Ġdes ire
Ġst ars
Ġver arbeitet
Ġpro min
sen der
be cken
Ġat om
Ġsp ending
fer ences
ĠOl denburg
sprÃ¼n glich
mitt ag
Ġvorhanden en
ĠDrehbuch autor
E very
Ċ Ċĉĉĉ
or fer
Ġe ating
ĠB rad
ĠSp irit
ĠPro test
Ġsp anischen
off set
ĠBereich e
Ġbegann en
Mod ule
ĠMinister prÃ¤sident
Ġak zept
Ġwunder sch
T erm
f els
in us
Ġs izes
te en
ĠH at
ĠDe ad
Ã¤r m
ĠBr uch
Ġdis app
Ġacc essor
ĠKr one
Ġbew usst
ĠComm on
ĠRÃ¤ ume
ĠPers pekt
Ġexpert ise
Mill is
Ġpromov iert
ĠgetÃ¶ tet
B B
M Ã¼n
Ġm ale
ĠD ark
ĠO S
op ath
Ġj u
Ġum gebaut
ĠAl though
St iftung
Ġen ded
dem okrat
ĠPr Ã¼f
ĠUnivers itÃ¤ten
spr uchs
ĠSpe icher
ĠHir sch
Ġbeinhal tet
ĠBronz emed
F ran
Ã ¦
Ġb undes
Ġch airs
Ġsp ons
Qu alif
Res ources
ĠMon ats
ĠSk i
Ġsign s
Ġrev olution
Ġinj ury
Ġautomatic ally
ĠKaffe e
O F
l ate
p unkten
Ġc os
am ar
ĠT ony
ĠL angen
Ġde ck
Ġab s
In v
Ġ18 75
ĠEin stellung
ph as
ond iss
Ġcont ainer
Ġ< <
ĠJun ior
199 3
Ġgel ungen
Sp ace
ĠMehr heit
Ġthough ts
ĠMass achusetts
beg inn
E ach
K an
Ġm ont
Ġbe er
Ġre aders
Ġam t
Ġch ron
Ã¤t t
geb nis
ĠKon zentr
Ġ186 9
198 9
ĠGraf ik
Ġwoll ten
Ġrecommen ded
ĠGebie ten
ĠSar ah
adel phia
Ġer stellen
Ġst unning
ang o
Ġad ults
Ġpre fix
amer as
Ġverb rachte
Ġpl Ã¶tz
uck er
spe kte
Ġ188 7
kun fts
aren ess
ĠDis ney
Ġverkauf en
Med ia
hers teller
C an
T im
Z eich
Ã¼ ÃŁe
ĠD id
ĠD ream
ĠF els
ist ungs
Ġver trat
Ġver boten
ĠBe cause
ĠSp Ã¤t
aw n
Ġrem aining
Ġfl ight
wend ungs
ĠCl ark
Ġpres ence
Ġgelegen e
================ ================
ĠBundest ag
st amm
ĠF our
ĠH agen
Ġre ached
Ġst yles
ang le
Ġunter gebracht
ĠPr ior
ĠVor stands
Ġqu iet
Ġlie ben
Ġsc ript
ĠÃĦ hn
Me hr
ĠColle ctions
ĠSchne e
ĠJes u
ĠDokument ation
H ans
J SON
M useum
P ers
] )
o ÃŁen
à ¸
Ġm ent
ĠM iddle
ĠK linik
ap est
Ġgen annte
Ġ6 7
app ed
Ġ7 9
Ġval u
ĠSen ior
hor st
Ġverst arb
abin ett
Ġbestehen de
Mus iker
ĠAbgeord neter
Ġlux ury
T itel
Â ³
Ġan imal
Ġh os
ĠBr Ã¼cken
Or iginal
ĠOl iver
bro chen
Ġappear ance
Ġexerc ise
w idth
ĠM ember
ĠN OT
Ġer geben
ĠJ ena
Ġge langen
la red
ĠEr richtung
me te
mp el
Pro jekt
Pro gramm
Ġacc ident
ĠOn ly
ĠCo ast
ĠZe hn
ĠSouth ern
Ġspecific ally
Ġinform ieren
Ã§ ois
M er
R un
V O
i oren
Ġa ka
und et
ĠK h
ĠL em
Ġwor ry
bild ungen
Ġshow ed
EC T
kap elle
ĠNaturschutz gebiet
Ġcandid ate
ĠOrganis ationen
Ġpersonen bezogen
H am
l ies
r ufen
ol t
ĠG itar
Ġme ant
Ġvor ne
ĠGe legenheit
ĠNe ues
Ġ6 2
ĠSchw anz
Ġgl Ã¼ck
Ġport ugies
col umn
stud ium
ĠCla ud
telligen ce
Ġreli able
ĠKup fer
fortun ately
l t
p op
s dorf
u ben
an ia
ie ck
Ã¤ hne
Ġp oll
Ġc aught
ap elle
hal ter
off s
ĠGeorg ia
Ġkind s
bu ilder
ĠProgram me
dor fer
ĠModer ne
ĠErinner ung
ĠInfanter ie
N ON
Ġs au
Ġh yp
and al
ĠJ eder
Ġzu gÃ¤nglich
ĠDie go
ĠNe uer
ĠSe a
alt ar
setz er
ĠCl ient
ĠLie bes
Ġ186 6
format ik
ĠAuss age
Ġdog s
Ġinstit ution
Jan uar
vertre ter
M aler
w ords
Ġd ick
ĠH ope
Ġl abor
ann els
Ġun bedingt
Ġaus drÃ¼ck
pt op
ĠThe atre
iz za
Ġbre iten
ĠIhr es
ĠAben teuer
ĠAmts zeit
Ġzentr alen
Ġign ore
ĠChild ren
ĠWeib chen
or able
Ġf unds
Ġv illage
st ahl
ĠM alt
ĠH us
kt ive
Ġex amples
ĠSchiff s
Ġleit et
d ir
ĠL okal
Ġk inder
ĠO d
Ġne ck
Ġ18 79
olog ien
zeit schrift
ĠUm feld
Ġgu itar
verb indung
Ġsmall er
orge ous
Sh ort
ande ur
ĠergÃ¤n zt
jen igen
ĠWÃ¤r me
ĠEntfern ung
M ath
e ister
Ġa rab
or ough
ar on
Ġhe iligen
ore an
auf nahmen
ĠPr Ã¼fung
Ġany where
ĠSchw imm
ĠAmer ika
Ã¤tz t
ush ing
Time out
ĠAud io
ĠProm otion
g ard
Ġin spe
ĠH Ã¼
sp l
Ġcon crete
Ġfe e
Ġhin ten
ST R
Ġbro ther
ĠschlieÃŁ t
ĠStraÃŁen bahn
Ġrecogn ized
ĠRis iko
analy se
ĠRegionall iga
ugos law
A tt
t ree
Ġa th
Ġm ental
Ġ( ).
ĠI gn
ĠZ ut
ah m
aus bildung
19 33
Ġget roffen
ole c
ĠBundes ver
con stants
Ġlo op
Ġverl Ã¤ng
ĠTre ffen
Ġbe zieht
Ġk ick
Ġk Ã¼nft
lic it
ĠÃľber sicht
ĠStud ent
zeug ung
Ġzeit weise
Ġpoln ischen
Ġproper ly
b ten
l iteratur
el be
ig ers
ĠE mer
Ġk Ã¼rz
ad ow
Ġne ut
Ã¼n der
Ġch osen
Th rowable
Ġwel chen
ĠBern d
ĠhÃ¶ here
Ġcompet itive
ĠAnh Ã¤nger
Nov ember
Ġa ctions
al in
ĠV ill
ak on
ĠVer wand
Sch ule
ĠOb last
Ġsur gery
AN CE
Ġcal endar
Ġmod ule
ĠKat alog
ĠSom it
ĠSchlag zeug
H A
U ri
es ents
ĠF alle
ĠG att
ĠAus fÃ¼hrung
Ġinter face
Ġeigen er
ĠMill iarden
Ġ188 6
Ġitalien ische
Ġdescrib ed
ĠNikol aus
zust and
cep ts
Ġs uff
Ġm orgen
ĠE P
ĠE tw
ĠÃ¼ber all
ile y
ult y
ĠAb stand
Pro zent
Ġstud io
Ġpass iert
ĠSemin ar
ĠAstron om
ĠArr ondiss
or ganis
re iter
ĠL aden
Ġy esterday
be an
be hÃ¶rde
ĠEin er
Ġsh ower
Ġsl ot
ilome tern
ĠEv ents
ĠFle isch
loc al
Ġintens iv
merksam keit
Erster wÃ¤hnung
h av
o a
Ġt asks
or ry
ĠA D
ĠB ody
ĠG ent
ĠW arn
Ġaus gebaut
iz ieren
ĠSp itz
eld ungen
cy cle
Ġklein eren
ĠPort rÃ¤t
Ġdefin iert
ĠClass ic
Ġbevor zug
Ġverkauf te
ĠStad ion
nehm ern
Ġexcl usive
endo ktor
Ġd ates
st reit
ĠD al
ĠH ave
Ġk Ã¤mp
men te
Ġab gest
19 80
Ġtra ding
fahr ts
entr um
ĠEis hockeyspieler
ĠHin weise
Ġnord Ã¶stlich
Ã¤u den
Ġagre ement
ĠErweiter ung
j ar
ĠS imple
us hed
Ġan fangs
ĠG Ã¶r
ĠE g
em burg
ĠL ad
Ġge pf
oc al
ob jekt
Ġbest anden
Un ser
ĠMill er
ĠDon ald
ĠHin weis
Ġober halb
UL L
ĠMult i
ĠSing ap
bereit et
Ġfail ure
ĠMagaz ine
Ġlau tet
B M
H Ã¶r
re land
ĠS ac
ĠE sp
ĠN u
Ã¤t igkeiten
ĠVor teil
Ã¶ff net
15 0
arr ier
Ġcl im
Ġteil nehmen
Ġrest aurants
Ġcho ices
ĠGlock en
Ġenh ance
k anz
ĠB am
ĠB oth
ĠM d
am ik
ĠR au
ĠGr iff
Ġqu er
gew inn
ĠMich igan
Ġ188 3
stant in
ĠVal id
ĠBon us
CD U
Non Null
ĠEliz abeth
C up
Ġp ed
ĠT an
Ġbe wegen
Ã¶ scht
iel en
ĠBe fehl
ĠBe wertung
are tt
Ġlie fern
upp e
Ġrec o
ĠEx press
ma jor
Ġsur vey
Ġpur pos
Auth or
hoch schule
Ġaf ternoon
g i
k k
Ġc art
ĠG uts
ĠO ze
Ġsch ott
be am
Ġen able
Ġber u
ĠFr ucht
Ġmin im
zahl t
Ġdel icious
ĠAs ian
Ġmatch es
ĠKompon enten
Ġmajor ity
Ġzuf rieden
Ġpattern s
Ġposs ibly
ĠMun icip
ĠWehr macht
Ġsus p
Pan el
Ġschwar zen
ERR OR
R M
m os
r ennfahrer
t ax
t ario
ar isch
ĠS we
Ġ( ),
Ġbe quem
Ġver teid
ind ungs
for ce
ust on
Ġges agt
Ar g
por ter
Ġ188 2
Ġnational e
Ġlight ing
Ġruss ischer
ĠAltern ative
Ġadvert ising
S ince
k as
Ġf ellow
ut y
ĠP ict
im i
Ġk Ã¶rper
ĠBe at
fahr ens
Con verter
Ġrec over
lex ikon
Ã¼t tel
Ġcre ation
Ġmin i
ĠWer be
RE E
opt ion
IV E
OD O
v ia
Ġv ent
ĠB enn
ĠP ool
ĠĠĠĠĠĠĠĠ ĠĠĠ
ĠL uk
Ġth us
Ġge de
pp ers
Ġex port
Ġad j
Ġad s
Ġgen et
Ġco ach
fin ed
ĠInter pret
Ġverwende te
B oot
i ors
v et
y ers
Ġd ipl
Ġw asser
us ing
Ġv ieler
ĠB iele
ĠD ating
ĠD uring
ĠR ap
ach ment
Ġre ichen
ct ic
af Ã©
sel ves
Ġspe zif
lieÃŁ en
Ġ> >
Ġtro cken
ĠGrÃ¼n en
Ġelect ronic
Ġfeature d
ĠsÃ¤m tliche
Frie drich
D i
M any
ar gs
ĠS endung
ĠB rie
ĠF an
Ġcomp la
reis en
ĠEx emplare
Ġbef ind
ĠSchm uck
Ġtradition ellen
Ġerinn ern
ĠKommand o
ĠIntegr ation
A pi
R o
V om
b ist
f loat
ie gs
Ġm anner
ĠB ou
ĠM inder
ĠD ick
iv itÃ¤t
ĠVer k
old t
ĠSte phen
ĠSpe kt
Ġfamil iar
ĠNatur al
met hode
Ġ188 1
Ġimpro vement
Ser ial
Ġrepr esents
Ġcla ims
ĠLÃ¶ wen
Ġbeein druck
ĠÃ¶ k
e ist
Ġc ounty
ĠI S
um st
Ġbe achten
ver lauf
ĠEr furt
ĠHe ide
ĠHer zen
Te il
ragen de
ĠsÃ¼d westlich
Ġgeboren e
IL L
ĠFreund in
Acc ording
Ġvac ation
Ġlok alen
ĠEind ruck
ĠRena issance
Ġausreich end
B U
i able
s end
un checked
st ore
ein heiten
our i
Ġse at
ant on
Ġsow eit
gesch Ã¤ft
Ġsol cher
ĠRes ponse
Ġgreat est
Ġerfolg reiche
Ġhistor ical
book s
ĠSchlieÃŁ lich
ĠProfession al
r us
he ben
Ġm ob
ĠV ide
ĠAn trieb
ud ing
ain less
lo be
Ġent f
ett ing
ĠBes ter
Ġbre ite
code d
Ġ188 4
Ġ186 8
Film titel
ĠIll inois
ĠVerd ienste
h ome
r Ã¼
t Ã¤
Ġt ables
ĠS ache
Ġin tr
ĠW at
ĠZ auber
Ġwar ten
Ġdies mal
atur en
ĠHe x
ĠEs c
Ã¤nger ung
ĠRu der
IG HT
Dec imal
Process or
ĠDrit tel
BevÃ¶lker ungs
Ġreco very
E qu
d ale
x id
er z
ĠK abel
ĠI terator
ĠDe leg
out put
ĠPr ix
Ġfe ierte
br id
man ager
Ġbo ys
Ġbring ing
ĠDav is
Array List
prÃ¤ senz
Film schauspieler
Ġsil ber
Ġgren zt
Ġhundred s
abgeord neter
/ >
C la
ĠM ig
ĠD etail
ĠP as
ĠF a
ip eline
use ums
Ġerw arten
Ġerw eiterte
ĠAt mosphÃ¤re
emb ly
rupted Exception
Kompon ist
F T
c ohol
i op
m ade
Ġn u
ĠW itten
ber uf
ĠSch Ã¼l
art ikel
lic ations
par ameter
ĠFor ts
ĠMan chester
ced es
Ġwould n
Ġevery day
Ġbef est
ĠChamp ions
Ġhost ing
Ġmanufact uring
frist ig
Mich ael
T ro
r Ã¶
v ard
ĠP ur
ĠT rom
ĠG ord
ĠK PD
Ġl ived
Ġst Ã¤rk
ĠIn tel
sp h
ĠVer w
ĠVer z
ĠPro cess
ĠAl p
ond a
ĠBr idge
Ġrec y
gend es
pf lanzen
Ã¼t ter
ĠBet reiber
deutsch land
ĠVe gas
Ġdur fte
ĠKath arina
Ġgefert igt
E E
un nen
il ation
ĠM iami
Ġl unch
Ã¶ tt
ĠEn vironment
Ġunter scheidet
Str u
Ã¤hl er
ĠMus lim
Ġgleich er
Ġbeste hend
Ġresp ond
MA X
ĠÃĦr zte
Ġopin ion
Ġurkund lich
M iss
b ound
c ers
f ue
Ġs itting
ing ly
ĠM all
ĠP ader
ĠP lÃ¤ne
ĠF la
hr ung
ul in
ĠSt Ã¼cke
Ġver teilt
Ġex tre
Ġzum eist
Ġro ute
De cl
Ġsc ope
ĠSpiel tag
ĠHand lung
Ġpolit isch
Amer ican
ĠPrÃ¤ fe
Ã¼ re
Ġan sonsten
st all
Ġc raft
ĠK ub
ĠL uz
ĠN ad
ĠV ul
ĠSp uren
ĠEn ter
Ã¶n t
tell ers
Ġbes ucht
ĠVor stellung
Ġ9 00
ĠkÃ¶n ig
tag on
Ġmar riage
AS E
scheid ung
Ġpriv acy
Ġconcern s
ĠVerl ust
ĠEben so
Ġdiscover ed
Ġincred ible
A gent
G C
S an
b org
st ufe
ic us
ĠR oland
Ġer folgen
gen cies
Ġum gesetzt
ĠAus sch
Ġbo at
ĠUm bau
Ġ14 0
ĠAll en
Ġphot ography
Ġconf lic
ĠdÃ¼r fte
ĠKu gel
ĠerfÃ¼ll t
Ġposit iv
ĠÄ Į
Ġinstr ument
ĠHÃ¶ch st
a ver
k ommand
Ġa u
is burg
or ded
ĠM aus
ĠM uss
ĠI SO
ĠL orenz
ĠR ainer
ber ry
ach el
ĠAr k
Ġ18 76
geb oren
Ġqu otes
old s
Ġro ut
erk lÃ¤rung
ĠQu art
ĠMal erei
ĠKl ang
Ġpass word
Ġemp fehlen
Ġoffen bar
Char acter
contains Key
ĠZent imeter
Ġconven ient
Ġprin ted
( ...
H C
Ġin vent
ĠK ann
ĠZ it
ĠVer stÃ¤nd
Ġ3 000
los ed
ĠGes icht
spr Ã¼che
Ge org
sg ruppe
Ġbef anden
ĠkÃ¶nn t
Ġcook ing
Ġintrodu ction
ĠMitt ler
b in
k ette
l enz
y o
in v
Ġt end
ĠS ummer
he w
ge h
ĠB ibliothe
ol ver
ĠP az
ĠH unde
ĠW ellen
ĠR ober
ber ge
are l
Ġte levision
ans ion
Ġdar stellt
Ġins ert
EN D
Ġmark ets
ĠsÃ¼d Ã¶stlich
ĠMat rix
ĠnatÃ¼r lichen
herr schaft
Ġemer gency
ĠTschech ien
ĠGirl s
b ring
m iral
Ġt ri
Ġt icket
Ġf f
Ġin tended
Ġm s
Ã¼ chte
ent liche
ĠP A
ĠH ind
Ġl ust
ho e
ĠAl uminium
ens burg
ac o
ĠSe henswÃ¼rdigkeiten
ĠMit twoch
Ġapp ar
fahr ten
co der
Ġsug ar
ĠAth let
Ġaccomp l
ĠZun Ã¤chst
Ġh Ã¤ngt
ĠG ipfel
ĠW i
ĠSch icks
ĠSch Ã¤den
Ġj ack
Ġ18 72
ĠAuf l
ĠUnivers al
ĠzurÃ¼ck gegeben
Ġcert ified
ĠAutor in
isc ons
Ġdamal ige
ĠBronzemed aille
m Ã¶glich
us ste
Ġp ure
ĠK orea
ul er
ĠEr ster
ĠEr klÃ¤rung
Ġle ichter
Ġor g
Ġres idential
ĠBer gen
lag ert
Ġvers etzt
Ġspec ified
Ġref lect
leist ungs
Ġcelebr ate
BevÃ¶lkerungs entwicklung
H ers
Ġ 00
is i
at ible
he iz
Ã¼ ÃŁen
ĠB ert
ĠB urn
Ġan bie
ĠE valu
ĠR ie
gen ossen
ĠMar io
Ġalle ine
Ġfest ival
Ġindividu elle
bra un
ĠHoff nung
Ġlands cape
! "
d ig
d ies
en ters
Ġa chten
Ġs ink
te ine
le ft
ĠR auch
Ġl an
Ġk Ã¼nd
ĠJ ens
Ġle isten
los ure
ĠAuf merksamkeit
Ġqu ote
ĠEx istenz
atic s
Ġger inge
ĠGemeinde gebiet
kehr t
Ge ografie
ĠGl ad
Ġbef re
stoff en
ĠWerk statt
ĠWeiter hin
Ġinform iert
Ġfix ed
ĠWass ers
ĠBrun o
Ġhund ert
Ġprem ium
Ġresol ve
ĠKonk urrenz
ĠnÃ¶t ig
f ill
Ġa id
un ks
Ġf uel
us che
ĠP av
ĠG rupp
ĠW itt
Ġst ack
Ġaus gesch
ib et
Ġgood s
Ġdec isions
Ġpol icies
199 2
sw ald
ĠBi ograph
ĠPolitiker in
Ġlov es
ĠHalb insel
Ġcommit ment
Ġverg essen
ĠExec utive
? )
B ra
k ommun
w ird
or b
ĠD ass
Ġbe her
Ġth ick
ow itsch
Ġab hÃ¤ng
)) )
ĠJun ge
fa dern
ĠHier bei
ĠDon nerstag
wor tet
ĠRed aktion
Ġlead s
Ġerreich ten
ĠUms atz
ĠMagaz in
lieder ung
Tod ay
gesell schaften
a o
Ġs ad
ĠE R
ber atung
ĠN erv
Ġst il
Ġ} ;
up le
amp fadern
Ġlie ÃŁen
ĠAd dition
Ġverb esser
Ġlog o
ĠKap itel
Ġperfect ly
ĠerklÃ¤r en
Ġdistr ict
Ġwes halb
Ġimplement ation
Ġslight ly
ĠSams ung
Ġaccessor ies
G A
G S
S ER
V ert
o use
is st
or um
ĠB ald
Ġer richten
id x
ien ne
per iode
ism ar
Ġbel ief
ĠOrt schaften
ĠDi agn
ĠDienst leistungen
ĠHistor ic
ĠInnen stadt
ĠerfÃ¼ll en
Ġpromov ierte
Ġunters ucht
ĠKonfl ik
ĠArrondiss ement
W rite
Ġf oll
il st
Ġthe ory
Ġn ine
de cke
Ġc urr
im age
ĠG lÃ¤
ed ing
ier endes
ce pted
ĠSie gen
Ġgen auso
tra ck
ĠBau er
Ġown ed
mus ter
Ġsupport ing
verein igung
Ġdep ending
Gener al
st op
ĠM indest
ĠG au
we b
af fte
icht ig
ĠVer fassung
rich ts
ĠSil ver
Gr und
ĠHÃ¶hen lagen
Sec urity
cycl op
K lass
h Ã¤usern
o ted
un ft
il ot
ĠP ic
sch Ã¼tzen
la re
iz ona
ĠNe ck
ĠBr ian
Ã¡ s
ĠPhil adelphia
Ġnord westlich
ĠDisk ussion
Ġencour age
shaus en
ĠNahr ungs
Ġendg Ã¼ltig
inu ier
W ien
n oten
Ġb attle
Ġf aster
ĠB atter
ig i
ĠC her
ĠC lemen
ab len
Ġy ellow
we ar
ah a
tr itte
ĠDie trich
ĠAr gentin
etz ungen
Ġsh ift
ĠHe art
Ġfe hlen
ilit ation
ĠNieder landen
Ġemploy ee
Ġprakt isch
fÃ¶rm ig
Ġther apy
Ġverme iden
v ideo
Ġd b
Ġf ruit
ĠB C
ĠB ry
ĠR as
Ġdes c
ĠSch aff
ĠRe kord
ens wert
ian ischen
St ation
ute te
ĠVor bild
sh ut
Ġ7 7
ĠFre unden
ĠfÃ¼hr enden
Ã¼l le
Ġ186 2
ournal ist
Ġdep th
ĠSyn ag
ĠPeters burg
ĠEigent Ã¼mer
Ġpurpos es
D ivision
s he
w inkel
Ġb ike
ĠA sp
ĠA cker
Ã¤ mm
Ġc utting
ĠF aust
ĠK und
ĠK oll
Ġbe it
Ġver lang
Ġun tern
Ġle hn
lie hen
Ġ18 49
Ġges p
Ġpla ys
li as
ĠBundes wehr
Ġcl uster
ĠUr ban
ĠBuch staben
Ġredu ziert
Ġintegr iert
ĠbenÃ¶t igen
ĠjÃ¼d ische
Ġfeed back
ĠTi rol
Ġappoint ment
S chn
V ID
Z one
Ġ ).
st rÃ¤ger
ĠK Ã¼r
ĠL iving
ĠZ one
be zeichnung
In itial
ĠAl ben
land schaft
igh ter
ĠQu ell
ual itÃ¤t
Ġtr aten
Ġschw ere
the t
ĠSm all
Ġzwe ier
ĠFrei herr
ĠGott fried
Ġausgew Ã¤hlt
ĠMem orial
Ġmagaz ine
A ustr
H P
h Ã¼ter
Ġf ly
ĠG il
Ġr ies
Ġj ump
ĠNe use
Ġen tertainment
amp en
Ġmehr erer
Ġfe hlt
Ġlie ber
Ġber aten
man uel
let ten
grÃ¼n den
Ã¤tz ung
ommer ziel
minister iums
ĠSam uel
ĠPass ag
Ġarr ived
Ġple asure
ĠWahr heit
Ġupd ates
ĠAust ausch
Jahrhund erts
exec ute
Ġf ir
Ġm ur
ol ve
ed ig
Ġ18 73
hal f
Re p
amm ern
Ġ7 3
ĠFre il
Ġreg istration
ĠZw angs
Ġmin imal
ĠAss istent
Ġbra uchen
wh at
ĠBrun nen
Ġsurround ing
Ġsym pt
Ġbenachbar ten
c ache
f ers
ĠB lau
Ġp or
ĠSt aff
Ġst imm
ĠZ Ã¼ge
ĠSch reiben
De lete
Ġdr ivers
Ġakt ive
ĠFest ung
Ġcare fully
Ġbuild ings
Ġamer ikanische
Ġfrei will
Ġjapan ischer
ĠSaar brÃ¼cken
ĠSchwar zen
Ġb order
ĠA uge
Ġg olf
Ã¶ ger
od ge
ĠEr mitt
In formation
ack e
act or
ble iben
Ġbeg ins
Ġhand elte
ĠGroÃŁ herzog
ĠHoch schul
Ġpass ende
Ġkon k
ĠKompon isten
Welt meisterschaften
ĠKauf mann
ĠSa al
Ġfertig gestellt
ĠAnder e
Ġconsum ers
ĠDÃ¶r fer
ĠKapit Ã¤n
Ġconvers ation
Ġingred ients
! âĢľ
M al
j amin
r ischen
it als
ar film
ĠS achen
ĠA ge
Ġv ul
ĠB uffer
il iate
ĠH ills
ĠL P
ach ter
Ġth reat
ĠJ ury
qu art
par ks
ĠAuf ruf
ĠFor est
ĠGeb ir
ĠKon stru
Sie g
Deutsch e
cept or
ĠZug riff
ĠursprÃ¼n gliche
omet imes
ĠMathemat iker
wechs elt
ĠPast or
Ġappreci ate
Ġlern te
Ġehren amt
W ell
W ird
h ent
Ð »
ĠS ite
Ġc and
ĠW Ã¶rter
ĠC in
and t
Ġdes pite
Ġwe aring
ĠDe finition
Ã¤r n
Ġro ten
A c
re chnung
te ch
Ġp utting
ĠT iefe
ĠC ell
ĠC ommand
Ġst abil
ĠIn spir
Ġr ise
ĠEr gÃ¤n
ĠGr Ã¶ÃŁen
pre c
Ġask ing
ĠGef Ã¤ngnis
Ass ign
C ap
I l
K K
j son
s Ã¤tze
on de
Ġt ube
ĠB auch
ĠM A
Ġp ink
Ġc odes
ĠK leine
ĠW inkel
aus chen
Ġour selves
ĠGem ark
ari at
ĠfÃ¼nf ten
ĠFranz isk
ĠMÃ¤n nchen
Ġrespons ibility
TI ME
W ar
t al
Ġ iv
an bul
re ll
ĠD ocument
Ġh alt
ĠP RO
ĠG y
Ġauf s
ĠZ DF
th al
Ã¤n glich
gel Ã¤nde
ĠAus wirkungen
Ġte a
Ġ< /
li ess
ĠDes igner
ĠDar aufhin
Ġgest artet
Ġsign ature
Ġappro ved
ĠÃ¤l tere
ĠKant ons
D am
ĠB in
st ens
ra it
ĠH ad
ĠL ov
ĠR out
Ġto ugh
Ġk ing
la p
kt oren
sp ur
ĠLe wis
mal en
Ġ0 8
ĠRes te
Ġben ch
Auf grund
fre ien
plan ung
Ġschl ug
ĠSzen en
es ota
on te
at ischen
ĠB arb
ĠM es
Ġh all
ĠF ed
ĠN SDAP
ĠSt att
ĠRe zept
elle d
ĠFre ist
Ġ13 0
ĠTr end
Or ts
Ġcl imate
ĠWir d
ĠEm ail
ĠKÃ¼ chen
bÃ¼ hne
Ġwid mete
Ġmanufact urer
Ġple ased
ĠSn ow
Ġwirtschaft lichen
ĠBul gar
Ġarchite cture
liefer ung
c p
j ahre
ĠK ai
Ġl ifestyle
ĠSch ild
Ġent decken
ĠBer at
amm elt
cl ing
Ġpre gn
Ġel imin
Ġsub mit
Ġbef Ã¶rdert
Ġorgan ic
abr iel
ĠRein hard
Ġhold ing
ĠAth en
ĠAcc ount
Ġflex ible
Ġappe ared
Ġdistrib ution
ĠKonfl ikt
ĠVersicher ungs
iscons in
# #
c olle
i he
or o
ĠS ide
Ġf u
ĠD unk
Ġl anger
ein st
ess ing
Ġhe ft
Ġsp aces
Ġ9 6
Ġ8 2
ĠPh arm
ict ions
Ġhier fÃ¼r
ĠVerb indungen
Ġfre ige
Ġcall ing
ilen ame
ĠBaum w
Ġfil ms
Ġged acht
Ġ{} ",
ĠRog er
kÃ¼rz ung
or er
et a
ĠL och
ĠR ent
Ġg ros
Ġat mosph
20 21
ĠVor bereitung
ĠGesch Ã¤ft
ank a
Ġgesch ieht
Ġgeb lieben
spieler in
ĠPart ners
Ġdisc ount
ĠWahl en
Ġtyp ically
haupt stadt
Ġspeziel len
Ġlic ense
ĠBoch um
Ġrap id
ynast ie
M T
is is
Ġf inn
Ã¼ chen
ing ers
ĠB uff
st ift
ĠJ Ã¶rg
all eng
ver kauf
ien ds
Ġun w
ĠPr ice
ĠPr Ã¤sent
En de
put ation
ĠFre md
ĠGra y
ĠLin ux
Ġ186 5
198 7
ĠSen ioren
Wer degang
ĠEth n
Ġhous ing
Ġverwende ten
Ve ctor
Ignore Case
b Ã¤
k op
č ĊĠĠĠĠĠĠĠĠ
Ġt utor
Ġs itzen
ĠF okus
ĠW ars
Ġl if
Ġge lesen
Ġis lam
ste chn
Ġex ternal
ond itions
ĠÃľber nahme
Ġmus ical
ipp er
ĠX V
Ġgut es
Ġdisc ip
Ġ186 1
Ġhard ware
Ġinfluen ce
E p
e ber
u der
ĠA lo
Ġv ital
Ġp apers
ĠT unnel
ĠW ilson
ĠL isten
Ġk it
Ġver an
ĠBe hinder
hn er
get R
Ġwe iÃŁe
Ġ3 60
Ġum s
ĠAb d
ĠHe eres
Ġmy ster
fahr ung
Ġph arm
Ġra us
oth ing
ffe kt
Ġem otional
Pr im
bre chen
gre es
Gener ator
Ġeffic iency
Pos ted
Ġvirt ual
F i
c ue
Ä Ł
Ġs ac
Ġe ast
ĠP osten
ra hlt
ĠH inz
ĠC ock
Ġk Ã¼nst
Ġge weiht
Ġst ir
all as
Ġun gewÃ¶hn
od ie
ib ilities
itt y
ĠAut os
ĊĠĠĠĠĠĠĠĠĠĠĠĠĠĠĠĠĠĠĠĠĠĠĠĠĠĠĠĠĠĠĠĠ ĠĠĠĠĠĠĠ
Ġgrow n
Ġident ity
ĠAndre a
fried hof
Ġadmin istration
ĠSing les
;; ;;
Ġmedic ine
ĠMitarbeit ern
A ber
W A
Ġs in
ĠS end
Ġan alys
ĠE arl
sp unkt
Ġ7 8
haf tet
Ġequ al
ĠnatÃ¼r liche
ĠmÃ¶ gliche
Ġinstru ctions
ĠExt ra
Entw ick
z ut
ĠP lattform
den ken
if ikation
Ġ+ +
Ġ7 1
lÃ¤ uter
ĠIns besondere
ĠNorth ern
fÃ¤h ig
frei heit
Ġparticip ate
ĠLink ed
ĠRelig ions
Ġtal ent
ĠEreign isse
ĠRett ungs
ĠBres lau
K om
L INE
M ENT
Ġh ire
ĠF ox
ĠI reland
ĠC ase
âĢľ ),
Be fore
Ġger inger
ital ien
ĠCon f
hol der
ĠJugend lichen
Cl uster
gebie ts
Ã¼ste t
Ġexpla in
Ġdynam ic
owe en
ĠGemeinder at
" -
s um
in ent
Ġt ags
ĠB utter
am ts
sch ritt
ĠL eb
Ġth re
Ċĉĉ Ċĉ
Ã¼hr t
Ġ0 7
ĠIm per
berg s
Ġur i
wh ich
ĠBot schaft
Ġmitt lere
Ġexten ded
ifiz ierung
Dat um
ĠMerk male
PersÃ¶n lichkeiten
G H
a a
h Ã¤l
Ġk ost
Ġ3 50
Ġme al
ĠLe h
ĠPr ime
Ġ7 6
Ġ' "
ĠInst agram
Ġreal ize
itu ationen
Ġabsol ut
Ġdefin ition
kor de
Ġmix ed
Ġbrow ser
ĠPfer de
ĠFert ig
Ġscient ific
J o
K or
k ommt
ent h
ent ity
ĠK ok
ĠL izenz
ĠR unden
Ġge kauft
ĠSch all
Ġde cre
ak ten
ĠVer fassungs
ĠBe fest
Ġor th
igh ten
gesch lecht
Ġcle arly
ĠKont akte
198 6
Ġconf idence
Ġredu z
Stand ard
ĠAuss agen
ĠKons erv
ĠHon or
ĠÃĦgyp ten
D b
G ET
M ay
t age
ĠS z
st age
Ġex cept
ip er
ĠTh ree
Ġacc ounts
schie de
Ġ186 4
198 8
Ġtest s
Ġconf irm
Ġwhe el
Abst ract
ĠBiele feld
g roÃŁ
k ter
p es
Ġw alls
ĠF I
ĠE ver
et ime
ĠH op
ĠR olf
ul iert
Ġer ot
ĠJ ubil
iel l
Ġex ists
ĠPro perties
Ġent re
ĠTh or
Ġ0 2
amil ton
ĠPar ks
aw ay
Ġmach ten
Ġsur prise
ĠMeister schaften
ĠBern ard
Ġerm or
Ġleben s
ĠEv a
Ġkont inuier
SI ZE
Ġschwed ischen
Cons umer
Ġneighbor hood
Ġwom it
b uf
f assen
k rank
t im
Ī Ĵ
er ial
as a
Ġe gal
ion ier
sch iffe
um pf
ĠV ikt
Ġzu verlÃ¤ss
Ġne arby
ru ption
ĠEin kommen
ĠBr ut
Ġfe els
ĠVers orgung
Ġsk ill
ĠDo zent
ĠRuss ia
Ġindividu ell
Ġmount ain
ĠÃĦnder ung
ĠVarian ten
ĠPremier minister
\\\\\\\\\\\\\\\\\\\\\\\\\\\\\\\\\\\\\\\\\\\\\\\\\\\\\\\\\\\\\\\\ \\\\\\\\\\\\\\\\\\\\\\\\\\\\\\\\\\\\\\\\\\\\\\\\\\\\\\\\\\\\\\\\
ĠKais ers
N onn
N odes
g ert
ĠA gn
ĠB MW
st ritten
sch ung
Ġg rad
ĠÃ¼ber zeugt
Ã¤t tern
Ġ18 15
Ġout standing
Ã© d
Ġlie fer
Ġgew Ã¶hn
ĠEurop Ã¤ische
yr ight
ential s
ĠDorf es
Ġconc entr
ĠFrei will
ĠAp othe
ĠTemperatur en
in ations
Ġin tel
Ġein heit
ĠL yn
ĠR eit
ver k
row s
als o
ĠIt aly
ace ae
Res ults
ĠHaus halts
deutsch er
Sh ow
ham mer
ĠLeichtathlet ik
Ġgrat is
) -
B ound
v arian
er ung
ĠS amen
am o
ĠT u
ic i
ĠL ub
ĠSt ationen
id ays
ĠAn zeige
Ġpro ps
ial en
Ġ" );
19 39
enn zeichnet
Ġliegen den
Ġhotel s
ĠContin ue
F lag
r im
Ġa ges
Ġt or
ra ben
ab schluss
op Ã¤d
ĠAn k
ok es
Ġnach gewiesen
ĠNe xt
Ġres ume
fahr zeuge
ĠBet on
iges etzt
Reg ie
stag s
Ġturn s
CO DE
Ġindividu ellen
ĠGesam tw
ĠRumÃ¤n ien
ĠD IN
ic als
Ġ18 78
19 30
pr esent
geb ra
ĠOr th
ĠBer ge
ĠVerb raucher
IC E
Ġlet ters
UN D
Ġqualif ied
Ġinteress iert
ĠFass ung
ĠPorn o
open hagen
Ġabger issen
Nonn ull
. ",
P AT
S onst
w aren
in ne
ĠB od
Ġl ib
ĠO berg
ĠRe formation
Ã¼n de
rit ter
ĠEn tertainment
ĠMar x
ĠArbeit sk
ĠTr ink
ĠOber liga
Ch ain
Ġdire kten
ĠSal es
gef angen
Ġintegr ated
Ġcabin ets
Ġproced ure
ĠSoph ie
ĠFÃ¤h igkeiten
Ġanc ient
G R
ĠS qu
Ġn erv
ĠE C
ĠC it
ĠJ ar
Ġj oint
Ġse gment
lin ed
imm y
ĠJul ia
iven ess
ĠSpe ed
ĠMill ion
ĠverÃ¶ffentlich ten
Ġcr ime
ĠDis c
vis it
Ġern st
Ġdescr ibe
wÃ¤rt igen
Ġanerk annt
ĠVerbesser ung
( @
C lick
L AN
R oman
Ġb atch
Ġf o
ĠD ampf
ĠT auf
ĠH Ã¤nde
ĠN i
ass au
ĠDe ath
19 44
Ġvor der
ĠTe en
ph abet
Ġsh ut
ogra pher
Ġtr ends
ĠFr Ã¼hl
Ġmon at
ĠFil men
kon stru
ĠWissen schafts
Ġexec utive
frastru cture
g ments
en ne
ĠR och
ĠR up
Ġg ross
Ã¶ he
Ġse quence
ru p
ĠAl i
Ġbes tellen
ĠVor teile
Ġbest immen
ole k
ĠAd vent
Ġeinge laden
ĠKe ep
ĠEis hockey
Ġve ter
Ġfund ing
Ġenth us
Ġbeeinfl usst
alleng ing
I ter
J uli
en ke
en cy
an ke
Ġin ne
Ġm ath
st unden
Ġh ung
ĠH ud
ill o
Ġj oy
Ġch ocolate
Ġ18 40
du ate
ian e
Ġwill ing
Ġ7 4
Pro p
ende d
fa iled
ival ent
ĠSied lungs
S ocket
Ä Ļ
Ġt ut
st itu
de ed
ol ine
Ã¶ mm
ĠSt ars
hl on
Ġbut ter
Ġ8 3
ett i
Ġeing est
ĠPl ant
Ġcomm ission
pre uÃŁen
ĠGo ethe
ĠZe aland
ĠKat zen
ĠSen at
rist all
ĠIr land
gram me
Ã¶p fe
abil itÃ¤t
ĠRÃ¶ mer
ĠAnders on
M ost
Ä ĥ
È Ļ
Ġt ub
re lated
as sten
Ġv ary
ĠB orn
ĠF as
ĠH arz
ĠH unt
ĠJ Ã¼d
Ġj ener
ĠAus stellungen
ĠNach folge
gl as
ĠÂ °
Ġbr ill
ĠErn Ã¤hrung
Fernseh film
zir ke
Ã¤chs ische
Dis play
ĠStruktur en
ĠpreuÃŁ ischer
ĠArz ne
ĠGiov anni
I st
un ters
an ch
Ġc lock
Ġh l
ĠP le
ĠN est
ĠJ Ã¤ger
Ġfor ec
ĠPro t
enn er
ĠKon text
Ġange passt
ĠBel g
Ġatt ached
Ġstell ten
Ġinteress ant
Ġmeas ures
B ern
H allo
V ideo
Ġo s
Ġp in
Ġk irch
ĠSt aub
Ġhe aring
19 70
ĠEin ladung
Ġoff ens
He aders
OR D
ĠKreis es
stre ifen
Ġimpro ved
Ġfour th
ĠEmp fehl
ĠPosition en
ĠCons ult
Ġcy cle
Ġsuppl ies
Ġperman ent
A ME
J ugend
W K
n isses
Ġt ast
sch te
Ġ0 6
ren ce
Ġhand ler
Mit tel
spre chen
ĠMot to
ĠIde as
wir ken
Fol der
Schweiz er
(... )");
A lex
D etails
b undes
u ers
ĠS D
Ã¤ ts
Ġg orgeous
ĠC laus
ĠC ivil
ĠV ene
ab schnitt
Ġun less
Ġhe iÃŁen
gr at
Ġat ten
ĠPro tocolMarshaller
ĠDe fault
ĠKon struktion
Ġgesch lagen
Ġbel ong
wohn ung
ĠPhil ip
Ġmonth ly
Pr ess
Ġiss ued
ĠMÃ¤n nern
ĠDir igent
dor ff
ĠÃ¤uÃŁer st
ĠKÃ¼nst lern
ĠRuh estand
ĠClemen s
m iss
s cription
Ġa fr
Ġt arge
Ġein gebaut
ach se
ou is
Ġr iver
19 20
ler in
Ġ8 6
zw ungen
ĠInd ones
Ġexper iment
ĠBas il
ĠBel ast
Ġevent ually
Ġcall back
Ġerr ors
bÃ¼ ro
ĠMult ic
Ġparticip ants
Fr ame
Ġgraph ics
L et
k irch
y ou
Ġw ies
Ġf ishing
ĠB enz
el ing
ĠT HE
ĠK orn
ĠJ r
ĠAn sicht
ĠSp ark
Ġ" '
lic a
Ġte eth
Ġ8 7
ĠFran ces
Ġ12 00
Ġmin ing
ĠOn tario
Ġstar tet
ĠGu ard
198 5
Ġtyp ical
emin ar
ĠImp f
Ġaw areness
ĠKÃ¶nigs berg
ĠVen edig
ĠVinc ent
p red
p iegel
is or
ar ischer
le ctor
ge mÃ¤ÃŁ
Ġan g
ĠM u
ĠM eine
ĠM aschine
ra ut
ul der
Ġzu gehÃ¶r
ĠIn putStream
Ġr id
Ġaus zu
Ġunter lag
ens ed
Ġ16 0
hand lungs
ucht isch
Ġset up
ĠProdu kten
Ġ[ ...]
Ġke eps
Ein wohner
ĠKe vin
LO C
fil me
Ġguarante e
D okument
R ennen
Ġs alt
le ton
ro d
ĠD ance
ĠF Ã¤lle
ĠE cke
ĠH ost
em y
ĠC irc
and in
ĠRe b
ĠRe par
Ġor ders
Ġso fern
Ġreturn s
Ġgen e
sh ow
bar ung
Ġges prochen
Ġph ase
Ġben annte
ĠÃĸsterreich ischen
ĠParis er
ĠVolks zÃ¤hlung
ĠSol o
ĠKrieg sende
Ġangeb racht
Ġpresent ation
ĠÃ¼bern immt
Disk ografie
Ġerlang te
P rÃ¤sident
e ff
t oken
Ġs essions
ĠS G
ro se
ra ph
la de
Ġr ender
me chan
ĠBer ater
Str ateg
Ġnoch mals
Ġ8 1
els on
schl Ã¼sse
Ġfl u
Ġdec ades
ĠSÃ¼d west
Ġem phas
Ġstatt dessen
198 3
Pr iv
entry Set
Ġkanad ischer
Ġfal sch
P lay
d ro
m issions
s Ã¤nger
Ġt ile
ic z
Ġz ogen
ĠH ang
Ġg Ã¼lt
Ġbe gr
ĠU C
ver letz
sp itze
ĠSp ar
Ġvor genommen
Ġra il
Ġra ise
ĠCon nect
ĠDurch fÃ¼hrung
Ġfile d
Ġair port
Ġmag net
Ġconsider ing
Ġsuccess fully
ĠEt appe
ĠEvangel ischen
ĠSchlaf zimmer
b art
v org
Ġm a
Ġc ake
ĠG umm
Ġbe at
Ġl yr
Ġauf merksam
Ġch allenging
ĠDe f
ivers ary
br onn
ĠKon f
ĠVerb reit
ĠMag net
ĠBut ton
ĠMor itz
Ġbro ken
ĠKirchen gemeinde
Ġmeisten s
UN G
ĠJac ques
Ġbrow se
ĠChallen ge
F ollow
a os
l on
n ik
Ġd ialog
al ters
le ep
ge legen
Ġf lav
ĠA tel
ĠA spekte
ĠM E
ĠH altung
Ġge arbeitet
ĠO hne
ĠSch atten
Ġsich ern
ok ing
Ġwe ap
Ġch arm
19 73
Ġpl ate
ST AT
Ġgest orben
Ġ186 3
Ã¤mp fung
ĠRest aurants
ĠKol onial
Ġjapan ische
ĠMeer es
ĠTok io
Ġgeplan ten
ĠPreuÃŁ ischen
N icht
g Ã¤
Ġf asc
Ġan al
Ġc able
ĠI ron
and o
ĠIn fe
Ġr ichtet
Ġle gt
Ġ5 000
ĠEx pl
ĠQu ery
arch ie
fra uen
Ġsil ver
Ġhon or
Ġseem ed
Ġzuge lassen
hyth m
ĠCost a
ĠPader born
B R
L P
t in
z ing
Ê ¿
al ia
ĠE ier
gen den
ĠAn meldung
ĠRe ferenz
ap olis
Ġtra ined
gesch icht
Ã¡ r
verb Ã¤nde
Ġfound ation
Ġoper ate
198 2
ĠFeder al
ĠverlÃ¤ng ert
B us
P op
Â §
Ġa ben
Ġw Ã¤chst
Ġm ask
Ġo h
ro vers
ĠC er
Ġge liefert
gen s
au c
ap shot
Ã¶r te
Ġum stritten
ĠAl f
ĠCh annel
ĠAus stellungs
ahl en
ĠHe ck
Ver tex
Ġverb inden
ĠMon ument
Ġmach ines
ĠMo z
ĊĠĠĠĠĠĠĠĠĠĠĠĠĠĠĠĠĠĠĠĠĠĠĠĠ ĠĠĠĠ
ĠÃĸsterreich s
ĠÃ¶ff nen
Ġnieder lÃ¤ndischen
Ġeurop Ã¤ische
Dat abase
ĠSum me
Ġmil k
ĠBeteil igung
ugu ay
ĠLuf tw
ĠMaxim ilian
Ġvalu able
F ail
W eiter
Ġs ides
Ġin fe
ĠD A
de f
am tes
ĠT ry
ĠJ ag
Ġver grÃ¶ÃŁ
Ġr ust
ĉĉ ĉ
ran che
Ġ" +
je cted
Ġpre v
Ġprov iders
Ġcl oud
ĠKl ub
Ġrest aur
equals IgnoreCase
ĠKin os
Ġarch Ã¤
Ġerk enn
Ġdom estic
ĠEben falls
Ġbeob achtet
f Ã¶rderung
p us
p fe
an ing
ig o
ĠT s
ĠF uture
ĠN in
ier bar
Ġsch affte
ĠFl ach
Ġper mission
rÃ¤ der
Ġ8 9
zw ald
ĠBar ock
Ġkon stru
Ġpubl ish
comp are
ĠHoff mann
Ġofficial s
Ġwirtschaft liche
ĠBesatz ung
ĠRy an
Ġbess ere
M ass
S ET
T ab
ar is
Ġv i
ĠB B
ĠB BC
ĠP ixel
ĠE D
ĠV iz
Ġsch ne
Ġle ichte
19 76
pro zess
ĠPh oto
ins ichtlich
bo y
Ġsupp orts
Ad apter
198 4
dienst kreuz
ĠLeip ziger
Ġpres ents
ĠStat istik
ĠPrem ium
ixt ure
ĠJord an
J a
P M
ĠM ob
Ġh art
ĠK av
19 38
ĠWe iden
Ġbo ost
ek ing
Ġgef Ã¤r
ĠPat ient
ĠSpan ish
idel ines
ĠCamp us
Ġfit ness
nehm ung
Ġpers pective
ĠInner en
ĠJahrzehn ten
Ġworkshe ets
A g
H ar
c all
Ċ ĠĠĠĠĠĠ
al is
Ã¼ ten
ĠA cht
Ġp un
ic ient
Ġg ifts
ag entur
au ben
end or
ĠVer handlungen
Ġsch m
me ier
ign et
fol gs
De zember
Ġrec orded
Th anks
hel ms
ĠMo on
Ġcar ried
ĠMy th
Ġkanad ischen
ĠKohl en
Ġpropos ed
M apper
g f
v ements
Ġb at
Ġv ote
st het
ĠF lex
ĠG h
Ġk r
19 14
ĠEx empl
Sch on
ĠJe wish
Ġzahl en
film ung
Ġequ ipped
ĠAnfang s
ĠDienst ag
Ġident ified
ĠPublik ationen
Ġaktuell es
Ġmensch lichen
Ġspirit ual
VerÃ¶ffentlich ungen
Ġbegrenz t
Ġannot ation
Ġbewe gt
ĠErgÃ¤n z
M ont
O ktober
ĠB ow
ĠK ader
if ff
Ġfor med
Ġver haftet
ib l
ĠDe kor
Ġent worfen
fe ature
own ed
Ġtra il
ĠKon ferenz
Ã¤ll ig
Ġrelat ive
ĊĠĠĠĠ ĊĠĠĠ
Ġklass ische
ĠSat ell
ĠLim ited
ĠeigenstÃ¤nd ige
Stack Trace
f ot
n isch
p ur
s rc
re b
ĠB arn
ĠW id
ĠC ob
ver g
ou red
Ġj en
19 79
ac ious
Ġtr ial
ĠWer bung
alle utnant
Ġvis ited
ĠKr ampfadern
Ġchar ges
Ġpriv at
Ġhold s
Ġdeb Ã¼t
ĠVize prÃ¤sident
Ġaccur ate
U l
k lassen
ĠG a
ĠG ymnas
ĠH ass
ĠL aus
ĠN atÃ¼rlich
ers e
Ġne ur
qu ir
19 42
ĠMit be
inn ers
Ar gs
ĠOb ama
reg on
uk i
ex pected
ĠWor te
Ġtrans ition
Ġfest gelegt
Ġentwick elten
ĠRest aur
Ġpurch ased
ĠPhys iker
Ġrelig ious
Ġcloth ing
vorsitzen der
ĠRess ourcen
D enk
M sg
i ht
m ain
re ct
ĠS ax
ĠB usch
Ġc um
ĠG abriel
ĠW iesen
ĠU A
Ġus ual
Ex tension
Ġapp end
Ġel ig
ĠSÃ¼d afrika
Ġsk ip
Ġsign al
Ã¨ s
ĠMotor rad
zus etzen
ĠPrem iere
Ġged reht
Ġevangel ische
ymp ath
Ġbeob achten
ĠNomin ierung
F ree
Ġw Ã¤ren
Ġb ab
le ans
Ã¼ ben
ĠP okal
sch ild
ĠL ob
Ġst im
Ġst retch
ĠZ wer
Ġaus geschlossen
ĠAr me
19 75
ĠIm mer
amen te
ĠEl s
rol og
oph on
ĠStand ards
ĠHil f
Ġtw ice
ĠÃ¼b lich
ĠgÃ¼nst ig
ĠViertel finale
ĠPersÃ¶n lichkeit
ĠlÃ¶ ste
S il
l ier
p df
Ġ 000
Ġt ells
Ġw ann
Ġw inner
ĠS i
ĠD y
Ġc ategories
ĠG on
Ġk ompon
aus geber
ĠWe is
Ã¤ch se
Ġgr id
ĠPh one
Le ft
Ġra di
ĠHand y
Ġger iet
ament al
Ġter rit
Ġid x
End point
ĠBud dh
ĠVerl Ã¤ngerung
Kirchen gebÃ¤ude
Hinter grund
S al
Ġt om
ie u
Ġs auber
Ġan grenzen
Ã¤ fer
Ġh aus
ĠP i
ĠF ont
Ġz ero
ĠH C
ul ator
Ġer leich
ĠJ am
ĠZ o
ĠIn schrift
ĠSch um
Ġde cl
ru gen
ĠAr ena
ĠJahr buch
ĠSe g
Ġmehr mals
tes te
ĠChrist opher
ĠInst anz
Ge gen
ĠAt trib
Ġ% .
hol en
bed arf
ĠZe ilen
Ġter ror
Ġregular ly
Ġcaus es
prof essor
dar steller
ĠmilitÃ¤r ischen
O pt
Ġs tet
Ã¤ p
ĠD ienste
ĠG oth
ver schluss
Ġver folgt
ĠÃ¼ber zeugen
omm ission
ĠAus gaben
ĠStadt gebiet
Ġwieder holt
Be k
ĠMed ik
Ġend s
Ġpass enden
ĠGew inner
loy d
Ġschn elle
ĠSchm id
Ġ185 9
ĠKommun ikations
Ġgelang te
ĠAp ost
ĠKre bs
Ġlik es
Ġmanufact urers
ĠAcc ording
Ġevangel ischen
ĠHash Set
6 00
K ind
L ab
U hr
c am
Ġe lection
Ã¼ tt
om on
sch reiben
ĠU d
ver halten
19 28
Ġall gemeine
ĠTe lef
out ube
ĊĠĠĠĠĠĠĠĠĠĠĠĠĠĠĠĠ ĠĠĠĠĠĠ
form ed
tra ce
ĠEx c
Class Name
str ateg
ĠBen jamin
Ġinterest s
Ġaccess ible
ĠEmp f
ĠMer cedes
Ġrequ ested
Ġfinanziel len
Ġumfang reiche
Ġconstant ly
Ġadvent ure
ĠEber hard
Ġgarant iert
Ġfavour ite
c in
Ġa gr
ĠS O
Ġb Ã¼rger
ur st
Ġn ack
ĠD NA
Ġein erseits
ĠI ss
ĠJ ay
Ġge laden
ĠBe fore
Ġme at
ĠMar s
br Ã¼ck
Ġbre ath
ex ception
wor ld
Ġoffen e
ĠKind es
ĠKind heit
ĠFlor ian
Ġdeb ut
fÃ¶rm ige
âĢ¢ âĢ¢
ĠAufent halt
izien z
Ġaka dem
Ġw ra
ĠW upp
em pty
ĠR ain
ĠV ision
Ġk illed
Ġden ken
Ġpro spe
19 27
Ġ8 4
ellen ce
fo ot
ĠCar los
Ġbekannt esten
ament o
ĠFin ancial
anc ouver
Ġbra un
Des ign
ĠGel b
Ġmat hemat
Ġliter ature
ĠLeg islat
ĠBesatz ungs
Cal endar
S ol
V ier
n ische
Ġf Ã¶rdern
Ġh ind
ĠK ids
ĠC av
ĠN C
ĠSt ipend
sp ring
iz ist
19 29
Ġen han
Ġ9 8
rat ic
imm ern
oh an
ende te
ĠMen gen
ĠBre ak
ĠFranz osen
AC T
Ġhistor ic
ĠCom ic
Ġelect rical
ĠIr ish
ĠViel falt
Ġstamm te
ĠfrÃ¼h ere
Mon th
lehn ung
ĠðŁ ĺ
Ġschwar ze
Ġassess ment
ĠKonzer te
supp orted
Sow jet
T urn
h Ã¤ngen
z elt
Ġd ental
st es
Ġn Ã¤chst
ĠH ut
ĠL iv
ĠC hl
Ġk ommerziel
Ġauf w
ĠEr stellung
Ġat tributes
rÃ¤ um
rÃ¤ gen
Ġste igt
sk ar
ĠMus ical
mat ik
Ġselbst stÃ¤nd
Ġstatt f
Ġx ml
Cont roller
Sp an
trÃ¤ gen
rÃ¤n ke
ĠBischof s
ĠSchÃ¶n heit
Ġbem erk
ĠGreg or
ĠMisch ung
Ġepis ode
ĠGord on
L isten
z esse
Ġd t
on ne
ĠS ob
ĠD OC
ĠF itness
ĠK ate
ĠC ass
ĠC ount
Ġwh om
Ġ" .
Ġ0 3
ĠLand s
Con ne
ĠPf licht
Ġche ese
buch autor
ĠReich es
ĠMill imeter
ĠTre ffer
Ġerreich bar
Ġconf ir
Ġchrist lichen
Ġmom ents
BÃ¼rger meister
ĠInnov ation
ĠGit arr
ĠabhÃ¤ng ig
" ),
K at
K ar
S ION
n el
ĠP ho
ul ous
ein richtung
Ġy es
ou te
ate way
ĠAn bau
Ġ18 77
me yer
olit an
ĠGesch enk
hand elt
Ob j
fa ction
ĠEntwick lungen
198 1
Ġcert ificate
ĠIndustr ial
Ġkosten lose
aktion en
ĠMel bourne
ĠprÃ¤sent ieren
spar tei
Ġcollabor ation
Ġnut rit
ĠNap ole
D estination
I hr
M ein
U uid
W o
ro hr
Ġh armon
ĠG ur
sch Ã¤d
ĠW esentlichen
ĠW isconsin
ĠR ick
Ġver e
Ġver lei
se kretÃ¤r
eb au
ĠAr izona
pro ject
gesch ichten
ĠEx pression
vers icher
ĠChrist us
Ã¼tz te
Ġcolle cted
By Comparator
ĠHÃ¶he punkt
Ġwichtig ste
Ġcra zy
ĠbeschÃ¤ft igte
Ġerziel en
ĠAntw orten
Ġorigin ally
Ġproduz ierte
Ġentre prene
F ot
m aking
ĠI C
Ġbe wohn
ĠC ON
ĠIn halts
Ġr Ã¤um
Ġj un
Ġso ul
lic ke
Ġent ries
ĠY es
ser ien
Ġbet reibt
ĠGem Ã¼se
ĠSo ft
ĠSpiel film
Ġsol ar
kon struktion
Des c
Ġfood s
196 9
anstalt ungs
Ġnormal en
ĠDat abase
Ġexhib ition
Fra uen
Ġeigent lichen
Ġdetermin ed
Ġmittelalter lichen
Ehr ungen
Ġchamp ion
Mart in
) ).
H il
L aut
z ule
Ġa gencies
Ġm ature
Ġc atalog
ĠF uchs
Ġg od
Ġth erm
Ġth orough
Ġde part
Ġch ief
lic ated
fer red
19 25
Ġvor kommen
Re zeption
18 0
ize i
ĠTra vel
ĠFe ier
[] )
ĠWh ere
Ġgem Ã¼t
Ġworks hop
ĠPra ct
Ġausgest rahlt
ĠAust in
Ġcondu cted
cla zz
ĠplÃ¶tz lich
P ay
d ichte
h aven
h Ã¼tte
Ġ ~
Ġm oral
ĠT uch
et tet
ĠH arb
Ġbe auf
Ġbe zogen
ĠN utzen
ab ama
Ġge Ã¶ffnet
ĠAn wendungen
19 71
ĠAus schuss
ĠGr ill
Ġsh ops
Ġbl ow
sicht lich
Ġbil deten
Ġinner en
ĠKol umb
ĠStad ium
ĠFel der
Ġattra ctive
How ever
wach ung
B rite
V C
f ound
Ġv ib
ĠD Ã¼n
Ġp ic
ĠT oy
ĠF ly
ĠC ann
ĠC art
Ġre ar
ĠZ ellen
los igkeit
ĠAuf tritt
(" /
vel and
ĠNord amerika
Ġstand ing
ĠAmer icans
ĠWest falen
ĠCl oud
Ġkomp lette
ĠGrÃ¼n de
Ġgl ad
Ġprogram me
Ġdivers en
Ġbedeut ende
Ġhor se
ĠWach stum
ĠOpt im
F ranzÃ¶s
S R
U se
d ner
d ienste
Ġp ussy
Ġc erem
ĠT ask
ĠC hen
ab a
ĠIn se
ac on
auf lÃ¶sung
ĠMar sch
amm lungen
ix ed
Ġsub mitted
Se lect
Ġfound ed
Ġfact s
ĠForsch ungen
Ġconne ctions
ĠRec ord
ĠBud apest
Ġwissenschaft licher
Ġcloth es
Ġstellvertreten der
E hren
W ord
in th
Ġd einen
Ġb io
Ġe c
Ġn utzt
ent ums
am atic
ĠP ear
ĠG ieÃŁen
ra iner
Ġge g
id met
Ġfor ces
Ġle iden
ĠEin zugs
ick el
Ġcons ists
Ġac cepted
ĠLin den
ĠWohn zimmer
ĠZe ile
Ġtre ated
Ġauth ors
ĠVe ter
Ġmot ion
Option al
ĠschÃ¶n sten
Ġvari able
ĠMail and
fir ma
M Ã¶
N C
o be
ĠD I
Ġfor est
ĠRe ed
ib il
ĠAl an
Ġhas h
Ġwo oden
Ġfe es
ĠString Buffer
att an
IN ST
Ġfl ash
Ġtechn ique
ĠLin col
fre unde
trÃ¤ glich
Ġmain ly
ĠGold medaille
Ġ185 6
ĠErw Ã¤hnung
Ġextra ct
col or
Ste p
Ġcit izens
F R
m ass
m outh
or ium
al teten
ĠD opp
Ġ1 15
ĠH Ã¤
ĠH ydro
ĠH amilton
ĠL az
ĠZ er
ill es
ĠBe cker
Ġnew sp
tel finale
oun ge
fe ier
uld a
ĠLand gemeinde
Ġseit her
ĠKinder garten
ĠSal v
Ġcho osing
Ġbig ger
Ġorgan ized
cr ib
yd ra
hÃ¶ fe
Ġrespons es
ĠFass ade
ĠDist anz
instr ument
ĠausdrÃ¼ck lich
F ull
N etz
N ummer
p ann
t ail
le ten
Ġin folge
ĠB auten
il deten
ĠG erecht
ra gs
ĠH ook
ĠH aup
ĠL ip
ĠR iv
ĠV II
Ġk rÃ¤ft
Ġge le
ĠSt ick
ĠAb stract
pro b
ĠDeutsch es
ĠWohn haus
bed ded
Ġfact or
ĠÃ¼b lichen
ĠSpr int
Ġforder te
Ġeigent liche
ĠOrch estra
R ole
S ing
d est
l abel
w irt
Ġt ight
ge fÃ¼hl
Ġm ic
Ġv ierte
ĠB ibel
ĠG R
ĠG ul
ber eiten
Ġal cohol
ĠUn it
Ġes c
ĠEn kel
ĠAb lauf
Ã¶l be
let scher
ĠUr teil
ĠBerg bau
Ġperfe kte
ĠPla yer
Ġorder ed
Ġrece iving
rodu zent
Ġposition s
ĠExp edition
ĠAP I
Ġbegeister t
ĠSchÃ¼l ern
ĠPrÃ¤fe ktur
Ġb ond
Ġc orn
ber ater
Ġver zeichnet
men s
se a
qu ar
ĠBe weis
geb ir
als ieger
gl ing
Ġgesch ickt
ipp i
ĠStra hl
Ġinv ited
klÃ¤r t
ĠLandkreis es
ĠCont ainer
Ġmethod Name
ĠMay be
Ġhol te
ĠMuse en
Ġdraw ing
Ġsignificant ly
ĠÃľberg ang
Ġerheb lich
Ġstopp ed
spart ner
ĠScot land
ĠDok umente
B aden
I tems
U UID
s ign
w ed
Ġs ud
Ġf ell
ĠB aut
ĠT hal
ĠE X
sch rau
ĠâĢ Ļ
Ġso fa
St a
ĠAb sol
ĠVor stellungen
ock el
min der
ĠSchw ert
ĠStud ents
ĠPer u
ĠStre ifen
ĠWohn ungen
amb a
umb oldt
Ġausgew iesen
national spieler
Ġatmosph ere
I hre
L ower
W asser
on ic
he ader
Ġf urn
Ã¼ he
ĠF ro
ĠH obby
ĠW ester
ĠC ore
ab ol
Ġge druck
Ġas sets
19 74
enn is
Ġro ugh
Sch utz
co in
Ġmus lim
Ġger ingen
ĠBet racht
ateg orie
ĠSÃ¼d ost
Ġgef angen
Ġrest r
schein lichkeit
Ġhouse hold
ify ing
produ kte
ĠSpr ung
ĠVerkauf s
ĠTown ship
Ġpartners hip
ĠKult urg
Ġfrequ ently
Ġfoll ows
ĠdebÃ¼t ierte
D av
D istr
on ischen
Ġder selben
ĠF ett
Ġl aden
ver ted
get Path
Ġex cess
wer ber
Ġ9 1
ose x
Ġber ichtete
org ungs
ĠTyp s
Ġinnov ation
ĠIst anbul
Ġeffect ively
Ġgraph ic
Ġaffe ct
komm ission
Ġimpress ive
ĠVerstÃ¤nd nis
m ay
Ġf unny
Ã¼ pf
ĠA ur
ĠB E
ĠB lat
ĠM ul
ĠM ort
ĠH ahn
ĠN Ã¶rd
ck te
Ã¼r tel
ne uer
ĠOr leans
Ã¤hr en
dr es
ĠFre m
ĠBar th
ĠSer ge
Ġgra b
ĠDu ke
room s
Ġnie mand
Ġemploy ment
Region Codes
Ãĸsterreich er
Ġinstit utions
clude d
Ġdoll ars
1 20
h um
k rÃ¤
n b
n ur
n Ã¼tz
r ia
Ã ī
Ġb ran
ĠB anken
ĠD ave
ol ved
ĠG ard
ĠL aser
Ġbe igesetzt
ĠC ott
Ġk aiser
op es
19 00
Ã© l
aw s
ĠAll gemeine
ĠTr ust
Ġpl anned
schl Ã¼ssel
ĠSer b
Ġander erseits
ather ine
Tra iner
LE T
ĠGeneral major
ĠVe ctor
Ġern annte
ĠBu y
ĠÃ¤hn liche
Ġbede uten
usst sein
gere chnet
Ġprint ing
Ġreve aled
ĠstÃ¤dt ischen
ĠKurfÃ¼r st
D uring
T ok
es tet
an cing
Ġb an
ĠF lan
ĠF ellow
ĠG Ã¶t
Ġer fasst
ĠJ Ã¼n
Ġge p
Ġr ene
ug ger
Ġso le
Ġ9 3
Ġdar stellen
ĠSpiel klasse
Ġdr ugs
Ġletz tlich
Ġgef Ã¶rdert
spre ch
Bu ild
Ġcr iminal
Ġter min
196 8
ĠKle idung
lÃ¤uf e
Ġbesonder er
ĠAdmin istration
ĠPersÃ¶n lichkeiten
Ġdigit alen
Wel come
ĠLein wand
K A
m Ã¤nn
o fen
č ĊĠĠĠĠĠĠĠĠĠĠĠĠĠĠĠĠĠĠĠĠĠĠĠ
or chester
ar ma
Ġb lau
le un
st oÃŁ
ĠP ier
ĠF inger
ĠF ashion
ĠK ne
ĠSt Ã¤rke
sp olitik
ĠĊ ĊĠ
Ġwar n
Ġab wechs
19 12
19 78
Ġman chen
ĠGe or
ĠCh at
reich es
Ã¤l z
Ġtra cks
ograph ischen
ĠInd iana
ĠCont act
ĠHar ald
Ġinvest igation
190 5
ĠSÃ¼ ÃŁ
ĠZeich nungen
Ġyoung er
Ġmat ters
Ġenter ed
Ġcook ies
Ġpick ed
dis ziplin
ĠTeuf el
ĠLincol n
B und
H ello
v ik
Ġw et
Ġb lank
ĠB ath
Ġbe ar
ĠV il
Ġde grees
Ġwh oles
Ġi OS
Ġ9 7
ĠMa j
Ġspe aking
Ġspe ech
ĠSte el
ĠChrist ine
Ġbesch loss
ĠDr ive
ĠEd in
deck er
!! !!
Ġregion Codes
Ġverste ht
Region Code
ĠVoraus setzungen
imens ions
ĠWÃ¼n sche
" |
F eld
b ald
en ix
Ġd iss
Ġm Ã¤cht
ĠB apt
Ã¤ ne
ĠM az
ĠK ro
Ġy ard
ver folgung
op ran
esch ichte
ook ie
ĠSpiel s
ĠHo uston
ateg or
Ġplan et
Sh op
anze igen
Ġlink ed
hab t
ĠKer amik
inst ance
Ġmaxim ale
ĠJed och
Ġverhinder t
C ustom
S en
f ein
s inn
t ages
t ask
ĠS ain
Ã¼ g
Ġ1 14
ĠG or
ĠG allen
Ġl agen
Ġdes ired
Ġfor um
ud a
ĠSe hr
chn ungs
ator in
Ġdire kte
mÃ¤ cht
stru ctor
hol ung
ĠPl Ã¤nen
Ġeinge gliedert
ÃŃ o
Hand le
ĠSol ar
ĠHall oween
ĠVal ent
ĠVorsitzen de
ĠunterstÃ¼tz te
ĠSilber medaille
Ġphotograph s
Wil helm
ĠKob lenz
ĠAlk ohol
Ġdou bt
ĠDoug las
F uÃŁ
F ebru
N ote
S n
r ors
he ll
Ġf if
Ġv ollen
ĠM ine
ĠD O
ĠW rest
ĠL aub
ĠN ich
ĠSt ark
ĠO F
ne ys
Ġor ange
ov o
ov iÄĩ
ges ted
ĠBer ichte
Re ich
ĠMar co
ĠZeit schriften
ĠVers ionen
Ġfl ower
Ġnun mehr
Ġkon zip
cont ainer
ĠTest ament
Ġfort an
Ġmass age
Ġcommer ce
ĠVerteid igungs
tok oll
Ġkauf te
ĠInstitution en
ĠSchwier igkeiten
B Ã¼
k orea
w enn
er ten
it ate
el ia
ol ith
ĠP rad
ĠT Ã¤
im ental
ĠF ell
ĠK riterien
ĠO ak
Ã¤n zer
ine a
lo hn
ĠNe ug
ĠUnter richts
Ġro les
Ġges tern
Ġag ents
Ġserv es
verb indungen
ĠWohn ungs
ĠauÃŁer gewÃ¶hn
bet riebe
Ġnet works
ĠHigh way
Ġinstall iert
Child ren
ĠErzÃ¤hl ung
Ġanaly t
ĠErwachsen en
Pres ent
N a
k asten
t l
t akt
Ġin ten
ĠP ension
ĠF ame
ĠL ith
ann y
Ġaus einander
ant a
Ġwe alth
ĠÃ¼ber gebenen
ĠSp enden
19 19
ĠSe gel
tz t
ĠQu est
pl us
pf alz
ĠCon c
Ġsupp osed
Ġav ailability
Ġmet all
Ġsuper ior
Ġregion alen
Arch itektur
grenz ung
ĠMedic ine
ĠBundesver dienstkreuz
G P
O h
k ol
Ġt aught
or ders
le utnant
ĠA gency
ĠT Ã¤tigkeiten
ein richtungen
Ġge fe
ĠZ ubehÃ¶r
Ġver p
Ġver trieben
ĠSch u
Ġ18 30
Ġbes ter
ri or
yp en
ĠMan ufact
ĠPf alz
Ġwrit ers
LE D
ĠMor gan
ĠTre ppen
gress ive
Ġmap s
lad imir
ÅĤ aw
Ġhor izont
ĠSign al
ĠKrist all
ĠFranzÃ¶s isch
ĠAndr Ã©
Ġclin ical
Ġfung ierte
Ġeindeut ig
J vm
O UT
f ire
j s
} .
es a
ĠA er
ĠF REE
ĠN iveau
lich ten
af ter
get Resource
ant in
ho b
ĠTe ich
ĠAb or
Re al
Re port
Ġqu adrat
ĠSte wart
Ġange kÃ¼nd
fig uren
ĠAt tribute
Ġperform ing
Ġcreat es
ĠFel sen
ĠInstr umente
prof it
ĠErzÃ¤hl ungen
Ġehe mals
Ġimag ine
ĠAnth ony
Down load
Ġhos ted
L ud
S w
n acht
r ick
z ed
ĠS uz
Ġf er
Ġf Ã¤hrt
ĠL ohn
ul ing
ĠU rauf
Ġfor ced
Ġ" ";
Ġes cape
19 22
19 36
fe hler
az itÃ¤t
res te
Ġ12 5
ĠSpiel ern
Ġknow ing
ĠHaupt rolle
Ġsub stant
by tes
Ġrest lichen
ĠWar um
ias ieger
Met ric
ĠHow ard
Ġless ons
Verein igtes
aser ne
Ġkont akt
ĠCle veland
Ġprior ity
Ġkombin iert
ĠSaf ety
ĠMinn esota
F ind
J oin
M erk
P red
a ire
p ons
ĠM S
ĠT un
ĠF erner
ier mark
Ġk Ã¤mpfen
ĠVer leger
Ġman aging
ian z
Ġpr icing
iss ar
ĠMar athon
cl uding
ĠGesch w
lement s
ĠMan uel
ĠOber bÃ¼rgermeister
ĠĊĠĊ ĠĊĠĊ
On ce
ĠHil de
Ġfac ilit
ĠEmp ire
kr ise
gehÃ¶r igkeit
ĠKomm andeur
ĠDemokrat ie
Ġausgeb ildet
ĠKandid aten
ĠTats ache
ĠBeweg ungs
ĠÃ¶rt lichen
S pr
it ative
ie m
ge gangen
ĠA V
ĠB eth
am an
ĠK it
ĠK lin
Ġl ift
ĠSt ufe
Ġpro of
âĢĻ ,
Ġcon sequ
ov Ã¡
19 72
De vice
man ischen
ps ych
Ġfind est
uck et
Ġsk y
sport ler
reib ungen
čĊ čĊĉ
ĠHar vard
Ġcr usher
ĠImp ro
fÃ¤ll ig
kathol ische
Ġschedule d
Absol ute
ĠAuseinanders etzung
ĠbeschÃ¤d igt
F OL
M IN
M AT
P ark
d rom
g nung
r isch
Ġb are
ĠA kte
Ġv intage
el in
Ġh unt
ĠW ink
ĠL ande
um ph
ĠC arr
Ġge heim
ĠVer y
ob i
tell te
Con f
ĠX X
ĠWh it
Ġfre edom
ohl en
ĠHel den
ĠAnt ike
Ã¼ll en
ĠErz bist
liegen de
Ġenc ounter
Produ ktion
fÃ¤ll t
Column s
ĠUR I
Ċĉĉĉĉĉĉ ĉ
ĠEffe kt
instit ut
ĠNeuse eland
G O
K ilometer
g aden
k ompon
m utter
n ic
Ġt iny
at isch
Ġw ander
ĠB ah
ĠD sch
Ġc ro
ĠG ol
ĠE ilen
Ġge ar
os er
ĠSch enk
Ġne ug
Ġle hrte
ĠDe kan
ĠPar allel
Ġfol der
ins atz
ragen den
If c
ES CO
Ġwid ely
Hol der
Ġaffe cted
ĠSmart phone
ĠDemokrat ischen
Final e
Cert ificate
l inger
u in
w ender
Ġd auert
Ġt v
ĠS Ã£o
Ġan f
Ã¤ le
ro ff
ĠD ritte
Ġh ydro
Ġdes selben
ow o
ĠO N
Ġon going
ok a
19 10
stra fe
Ġstand s
esse e
ĠPart ie
leben s
trÃ¤ cht
iol oge
ĠStÃ¤d t
ĠMiss ouri
Ġneg ot
Ġvalid ate
ĠJob s
Ġspan ischer
Ġhy per
Ġsowjet ischen
ĠHoll and
ĠPow iat
Ġabgeb rochen
S el
b rief
h aut
ĠS ony
ĠB ug
Ã¤ sche
ĠK roat
ĠK openhagen
ĠC atholic
Ġk Ã¼mm
ĠSt if
ce ived
Ġzu ges
ĠIn valid
ĠBe arbeitung
19 77
ĠEn cyclop
ĠCh ile
tell ten
ĠY oga
ett a
Ġ) :
west lichen
gesetz es
famil ien
ĠQue ens
ĠberÃ¼cksicht igt
M aster
V iele
v ie
on ed
ie ge
Ġs ql
ar ation
al id
Ġb ags
ur ger
ĠM au
Ġc am
ĠT ran
Ġbe zÃ¼glich
ĠN BA
Ġer e
ĠSch r
Ġle gs
be auftrag
Ã¤r er
Ġnot iced
oun try
ĠMe g
Ġ9 2
ĠFran Ã§ois
Ã¤d te
Ġfest ge
ĠWerk zeug
ĠBad minton
esh old
ĠNeu zeit
produ zent
Ġreport ing
gre ifen
ĠRegierungs bezirk
Ġdream s
Ġstaat lichen
ĠVorder grund
Ġsympt oms
ĠGemark ung
A ud
d lich
ĠS K
ĠB eine
ĠD eine
im ore
ĠW asch
ct ural
Ġver standen
Ġunter teilt
Ġar gentin
cc a
utz te
Er zeugt
iste te
ĠSta ates
Ġem otion
glieder ung
ĠBi ographie
ĠAustr ia
Ġfac ing
ĠTre ff
Not ification
Ph ys
Ġimpro ving
Mod ell
Vor pommern
ĠPan el
lemen ted
ĠPubl ishing
ĠLi bert
ĠMov ie
ĠRaj on
Ġsitu ations
hedr ale
B al
B ounds
C y
T or
as ted
ĠA y
Ġv olle
ĠM ust
Ġ1 13
ĠH enn
Ġg aben
Ġbe herr
ĠC onn
ĠSt yle
ĠU V
ĠU we
ern t
pe te
19 24
Ġbes tellt
rei hen
fl Ã¼sse
An fang
ĠUS D
gew Ã¤chse
rag ung
Ã¼tz ten
Reg iment
ĠBi ografie
ĠLehr stuhl
ĠgrÃ¶ÃŁten teils
ĠTschech oslow
ĠAtlant a
zub auen
Ġproced ures
Enc oding
D O
k linik
w ass
Â ·
es er
un ken
Ġs ang
ĠS ource
Ġan gew
ĠF avor
ĠG ay
ĠL av
ĠSt ro
we be
ert ung
ĠEr hebung
ĠEr lebnis
ĠBe cken
ang a
Ġcon v
Ġvor Ã¼ber
ĠAuf sichts
Ġcomp ens
sh afen
Ġfr isch
Ġob lig
ays ia
iker in
fr ies
ĠBand s
opt ions
Pol y
eme ister
ĠRen ov
Ġcirc umst
ĠAdmin istrat
ĠdÃ¤n ischen
ĠBuild ing
Ġentdeck te
l och
l Ã¼ck
Ġb uff
Ġm g
os c
ĠO range
ĠSch uh
ĠBe an
Ġwas h
19 21
ĠVor les
ipp e
ĠChrist i
ha pe
Ġprote in
Ġenjoy ing
hÃ¶ hung
ĠzusÃ¤tz lichen
ĠHen ri
Welt meister
kan al
Ġbud dh
bas is
ĠArgentin ien
Assign able
. ;
1 10
f isch
f uÃŁ
m ir
m achen
z ucht
ch annel
Ġt ank
at tribute
Ġb ranch
Ã¼ sten
ĠF uss
ĠG am
ĠK ansas
ĠH Ã¤uf
Ġbe ziehen
ann over
ver arbeitung
ĠSp alte
ord neten
19 35
19 37
iss er
Ġ9 4
ĠFra ktion
res ources
enden cies
ĠSh ang
Ġhand eln
ĠBet reuung
ĠZw ar
Ġsm ile
ĠDr ama
ĠMo ore
ĠMittel meer
ĠCo ach
Ġherv orge
Ġgenau e
ĠRem ote
ĠSieg fried
komp lex
Ġhers elf
Ġsorg te
ĠEas tern
ĠNR W
Ġnorm ally
? "
F E
L ife
U ST
W olf
c ell
u ing
w enden
z o
Ġt we
re if
ĠM O
ĠM ale
ĠF usion
hr ase
ĠL oth
ĠL isa
ĠR ug
Ġk ar
Ġbis schen
19 34
ĠPr in
ĠGeb Ã¤udes
ĠVol ume
ĠDurch schnitts
ĠDar stellungen
ĠKn ochen
Ġnational sozial
sta ates
ĠTyp en
ĠAf ghan
ĠtÃ¼rk ischen
Ġles b
Ġbayer ischen
ĠSynag oge
m ers
z usammen
Ġf emin
ro b
ro it
ĠF DP
ĠR ange
Ġbe grÃ¼n
ber gen
ĠV illage
af eln
Ġr asch
ĠEr be
ĠSie ge
Ġvor stellen
ĠBer eit
Ġsh ares
fin det
An gabe
Ġfol ks
Ġvers ions
Ver walt
ĠGer d
Ġhand ling
ĠGrund schule
zent ren
spe zif
Ġpost ing
zentr ums
190 1
ĠLat in
ĠBrow ser
R om
g ate
o i
Ġv it
ĠD orn
ĠH imm
Ġg gf
Ã¶ te
ĠN O
ĠN ations
ĠO regon
Ġst ab
se arch
Ġman che
Ġte lefon
Ġgew idmet
ĠBundes regierung
rue ft
recht lichen
ĠBra z
Ġsw imming
So zial
Ġmatch ing
Ġ180 3
ĠStock holm
fÃ¶rm igen
Ġbetre ff
Ġviol ence
Ġveranst altet
H R
S aison
c ur
o ire
u ine
Ġa men
ĠM D
ig nete
ĠF res
ĠG ute
ĠG rant
ĠW oll
ĠN an
Ġst ainless
ag an
qu ality
ok ol
ia e
ĠNe v
ĠNach lass
ĠKon stanz
Er n
ĠCon nection
ex ists
Ġbed ient
190 2
Ġresearch ers
So ftware
Method s
Ġresource GroupName
ĠZust immung
pass te
gewand elt
ĠIdent itÃ¤t
Ġil legal
Ġprogramm ing
ĠMÃ¤r chen
F ach
H D
T hr
in formationen
Ġt ap
Ġf ried
ĠB og
Ġ1 16
Ġh idden
ĠP ick
ĠG ift
ĠK la
sch lossen
Ġg un
Ġbe le
se y
Ġse qu
Ġsch lÃ¤
Ġat tended
iss a
ĠMa ine
Ġges ichert
ĠEx port
Ġpl ug
ĠAss istant
Ġmember ship
Ġmet adata
Ġgewann en
Ġ185 2
Ġ185 4
ĠWinter spiele
stud ien
ĠSÃ¤ ulen
Ġbott le
Ġexpla ined
Famil ien
ĠHaw ai
ĠErwachsen e
Ġnutz te
ĠInstall ation
Ġspezial isiert
andin av
A uÃŁerdem
B lack
K S
w elle
Ġs amt
Ġin ch
ĠA B
sch el
ver anstaltungen
th ese
ĠIn formatik
sp ec
Ġj ene
Ġle tt
to o
Ġtra fen
Ġhier zu
ĠZw eite
weiz er
ĠApp lication
Arch Ã¤
ĠRet urn
ĠUrs ache
Ġregistr iert
P I
P N
R ich
us k
ĠD aily
ĠP oll
ĠF ollow
ĠW are
ĠW ettbe
ĠC C
ĠSt imm
id ad
Ġver mittelt
qu ote
ĠRe prÃ¤sentanten
aus ende
ĠVer teilung
be teil
ĠAr rays
ata illon
ĠDies el
Sch l
12 5
ĠStud ios
ĠMon uments
Ġzusammen gef
Ġgra u
anst alter
ĠZe ug
ĠDo es
ĠPlan et
Ġ185 5
Mod us
iro ler
Ġlisten ing
ĠHT ML
Ġdiskut iert
H igh
o iden
u tel
Ñ ĥ
in ch
ĠS ind
am ic
ĠP ad
ĠG lass
ĠH i
ĠC ab
ĠN ort
ĠSt ifts
og ramm
ĠRe ife
sp reis
Ġle istungs
ant ie
Ġwe iss
19 32
Ġunter schieden
ĠCh ancen
iss ippi
Ġrec ipes
Ġbo ot
eiter ten
Ġprof iles
Ġstehen den
ĠGen f
ĠEhe mann
Ġredu ced
ĠPsych ologie
ĠBundest ags
Ġtroub le
% .
J azz
R ight
R ender
S imple
m il
ĠS R
ĠS ession
ĠD ritt
Ġh ack
ut ors
ĠE ichen
Ġz ip
ĠW esen
ĠR ight
Ġl Ã¤nd
Ġl ists
Ġer rang
iv ia
Ġst ated
ĠAn leitung
ĠRe z
age ments
for um
19 23
ime tern
az ier
utz ten
sk op
pla ys
hel ess
ĠÃĦ m
mut able
Ġ185 7
ĠDesign s
Ġentfern en
ĠGef Ã¤hr
stehen den
kle idung
ĠEntscheid ungen
Ġconcern ing
ĠLoc ation
Ġbege g
ĠGesell schafts
bay ern
ĠFerr ari
ĠBuffer ed
C ost
U RE
p ay
s burger
in tend
re ff
ĠT Ã¤ter
ĠK rat
ĠK abinett
ra ham
ra hmen
sch a
ĠVer f
Ġwar rant
ran ten
iz able
ac a
rÃ¤ g
ober flÃ¤che
ĠSk la
Ġoft mals
Group s
Ġjoin ing
hy dr
Ġgek ennzeichnet
ĠLieb lings
Ġgradu ate
ĠFal ken
Ġwire less
Ġextre me
S l
W M
Ġin frastructure
Ġe g
ol in
ĠO K
id al
ĠU E
ĠSch atz
Ġr ural
tr itts
Ġ18 46
ure au
ac ted
ges pr
Ġres istance
ĠVor lage
tra cking
ike a
ĠPart ien
IT H
196 7
Ġmeet ings
ĠVerteid igung
ĠOpp osition
Lin ie
Ġgrund legen
Ġkorre kt
chtes gaden
ĠEvalu ation
C opy
C LASS
L iga
M ot
a ine
f indung
h ier
s ql
| -
Ġb undle
ĠD ak
ĠF unde
ĠK etten
ĠC urt
Ġl uck
ien e
ĠEin fach
ĠWe iler
ake te
Ġfe iern
ange hÃ¶r
ĠGesch lecht
Ġvers orgt
Ġange ordnet
Ġpublic ation
Ġausge prÃ¤
schlieÃŁ en
US A
ĠText il
Ġ185 8
Ġrel ation
ĠWeiter entwicklung
Ġamer ican
ĠHan au
Names pace
ĠLaur a
lah oma
Ġengag iert
ĠSecret ary
Franz ose
Ġbon us
ĠGerecht igkeit
Y ear
b urn
c ut
d ays
l Ã¤ndern
w ein
Ġs itzt
ĠA venue
ic um
ten nis
ĠR acing
um pen
ĠC ape
Ġer zeugen
ĠO ran
Ġauf zu
Ġab zu
Ġsch eiterte
ome ter
Ġus age
ĠMe et
br unnen
ĠPar ad
min a
stein en
Ġlist ing
umb ing
fest ival
kn Ã¼p
ĠverfÃ¼ gte
Rel ig
Ġengag ierte
Ġmusikal ische
ĠGle is
ĠGlauben s
ĠGeschle chts
Ġverab schie
Hers teller
l ernen
t isch
ĠS ich
ĠS ke
ĠA ktionen
ĠM Ã¼ll
Ġp od
ĠH Ã¤usern
Ġth in
Ġge lingt
ĠSch los
se Exception
Ġher zlich
ĠQu ality
Er stellt
ĠTra de
ĠHand lungs
Ġbre ad
Ġbesch rÃ¤nkt
ĠUr sprung
ĠLu is
UT F
ogn ition
ĠFrÃ¼h stÃ¼ck
Ġfinanziel le
ĠBedÃ¼rf nisse
Ġdenk mal
Ġhinzuge fÃ¼gt
ĠErot ik
m Ã¤r
s Ã¼d
Ä ħ
in ity
ĠS quare
ĠA sk
ĠB uen
Ġan spruchs
Ġn one
ĠT um
om aten
Ġr ice
Ġwe ak
ide en
tw ork
iger ung
kehr en
Ġsol ve
Ġreal isiert
SS R
ĠHerr scher
zy linder
zÃ¼ gen
Fl ug
zwe ck
Ġren omm
ĠLouis iana
Ġtransport ation
ĠSamm lungen
wander ung
ĠAN D
ĠErinner ungen
Wind ow
B atch
O wner
d ien
f ranken
m ans
p ot
Ġd ual
ge ts
ĠA hm
ĠA uÃŁer
ĠB un
Ġo vers
Ġh insichtlich
ĠG ibt
ĠI b
ed u
ĠH au
ĠR af
Ġbe arbeitet
Ġk ill
ĠJ oin
ĠIn tens
ĠSch Ã¶ne
ib us
Ġbei der
lo gen
19 50
pr es
ite kt
ĠTh ose
ĠSe ch
par ator
ĠNach kriegs
ĠGra ben
ĠTr ennung
Ġgu ard
Ġben utzen
ĠÃĦ l
ĠPat tern
ĠLebens raum
ĠSen ator
Date Time
ĠLou ise
ĠTÃ¼r en
ĠHa ag
Welt cup
loc ation
ĠZuf luss
Ġsem i
ĠProz esse
Ġsustain able
T M
T ax
d raw
s ingle
Ġs amples
ĠD Ã¼r
ĠT em
ĠI ce
ĠW ende
em pf
ĠR ic
ĠR ome
ĠSt immung
os se
ĠIn fo
Ġaus gestellt
tr as
qu et
ĠEr werb
Ġch apter
Ġat temp
ĠEn joy
Ã¤hr ungs
ĠVor feld
ieren der
wei he
Ġind ire
go ogle
Ġbew ir
Ġturn ing
zÃ¼ g
Ġmiss ed
ĠUN ESCO
Ã¤rk ung
CON T
ĠVoraus setzung
Ġhighl ight
ĠEdin burgh
f onds
l Ã¶sen
Ġt ested
at ius
Ġf as
ing o
ĠT ol
ĠN y
Ġer fre
ĠV ancouver
Ġre venue
est on
ĠAn satz
qu alif
Ġsp l
St ad
Ġen orm
Ġte ch
ĠLand rat
Ġgew isse
ĠTra uer
ĠMÃ¼n dung
Ġsol o
Ġ% )
roll ing
ĠTro cken
kathol ischen
Ġempf angen
ĠDrit ter
? âĢĿ
m Ã¼n
Ġd icht
Ġe cht
ut age
ĠP est
ĠK itz
ĠR ak
ĠC R
âĢĻ .
ĠÃ¼ber liefert
par tei
ĠGemein schafts
ash i
Ġsho ot
ĠNord west
Ġsub t
Ġpay ing
wissenschaft lichen
zy kl
Ġtradition elle
CO L
Ġport ion
ĠMitte le
Ġnieder lÃ¤ndischer
EL D
Ġcamp us
sc ale
Ġconcern ed
ĠMach ine
ĠBran chen
Ġcru cial
ĠLeiden schaft
ĠmaÃŁ geblich
ĠWorksh op
E B
L at
O l
T B
h ain
i pt
Ġt iefer
Ġs inger
ĠT ODO
ĠH ip
ĠC ome
Ġl ake
Ġl ucky
ĠV as
ĠJ immy
ver gleich
ĠSch Ã¼tzen
Ġch art
Ġch annels
ER S
Ġviel fach
Sie ger
ĠPat ent
Ġpolit ischer
++ ]
190 8
190 9
ĠBrit ain
ĠImp lement
Ġfig ures
Ġerz ielt
Ġverm utet
Ġcapt ure
ĠPor sche
ĠJon athan
L B
L ie
P okal
W atch
Ġf t
Ġf esten
st Ã¤rke
Ġp atch
ĠE k
ĠK ond
Ġg ent
ik eln
ĠZ ert
av ax
ĠVer ordnung
ok omot
ĠUn i
ite e
ĠTh rough
Ġkein em
ĠProv inzen
ĠOst preuÃŁen
ĠPal Ã¤st
ĠDis play
ĠVorsitzen den
Ġumfass ende
htt ps
Ġaspe ct
Are a
tran sport
Ġdistin ct
Constra ints
M ac
e u
Ġs la
Ġf Ã¼hlen
Ġp our
ig or
ĠF ortun
ra gend
ĠC ry
ir r
nen nung
ord nen
ĠTe leg
St orage
amp a
Qu elle
ied s
ĠKon stantin
Ġtr ib
rach ten
ĠBundes straÃŁe
bach s
âĢ¦ .
oten zial
akes pe
ĠGu y
kon zept
Ġnie mals
ĠRed akteur
Ġsetz ten
Ġunterschied licher
onym ous
Ġobt ained
ĠmilitÃ¤r ische
ĠSab ine
quis ition
ĠFrÃ¼ chte
Ġprepar ation
ĠReihen folge
Ġuntersch rieb
ĠAtel ier
: "
Ġb ild
ĠA lice
ĠB ret
Ġp Content
ĠK unde
Ġto urn
ĠC ars
Ġl Ã¶sen
ein satz
if l
ĠO il
ĠGr as
Ġgen Ã¼
Ġgen auer
bar es
Ġ10 1
ĠAnd y
Ġeng agement
Ġpat io
Ġrelat ively
voll stÃ¤nd
ĠBru ce
Ġclos ely
Ġstrateg ic
ĠvollstÃ¤nd ige
Ġqualifiz ierte
Ġkeiner lei
ĠZerst Ã¶rung
M ag
O k
u ages
Ġd ent
at ra
Ġan alog
Ġz one
ĠH ugh
ĠC redit
ĠO cean
ess a
Ġver ring
qu ellen
ĠRe ktor
ĠLe ider
Ġnew ly
ĠNe uk
iss ue
ĠTr ip
Ġviel es
Ġgeb unden
Ġbre ast
ĠNor bert
ĠCon rad
Ġeinfach er
ĠBesch luss
196 5
Ġcap able
ĠAka dem
ĠHeraus forderungen
ĠLux emburg
ĠBist ums
Ġverbess ert
Ġweib liche
ĠHarr is
ĠSchott land
Ġermor det
opÃ¤d ie
INST ANCE
L ive
k ers
or p
ĠS lot
ĠA uÃŁ
Ġv ast
ĠK ie
ĠN AS
ĠO hr
qu ert
lo h
19 43
ac ional
ĠVor schlag
(" \
off izier
ĠAd ams
ĠBl um
Ġcomm ittee
ĠSol id
ĠZwe cke
ĠJournal isten
ĠGast geber
Ġqualif iziert
ĠVertra uen
Ġweib lichen
Ġtransp ar
Ġfir ms
G ed
J J
c atch
k al
l ach
in ternal
ch el
Ġd uration
Ġa ck
ie hen
ĠB GB
st iegs
ĠT ool
ĠE mm
ĠK rÃ¤fte
ĠW inn
ĠR eiter
eit her
ĠN ature
Ġre ct
ver Ã¶ffentlich
19 40
Ġum gewandelt
ĠGr en
zeit lich
ĠFl otte
ĠMa ÃŁe
fin anz
ĠPf lanze
ĠFr ame
Ġvis ible
leit ungen
Ġgener ated
ĠMag d
Ġerr ichteten
Ġoffic er
Ġexec ution
Ġbeteil igte
Ġfunction al
ĠLaw rence
FI LE
Bundes liga
ĠElect ric
ĠFun c
ĠEuropameister schaft
Ġprincip les
ĠSkulpt uren
D isc
G old
R und
d ated
Ġt ollen
he ast
ĠB ible
ĠB rem
ĠM Ã©
am ine
ĠP s
ĠT ieren
ĠH ack
ĠH allen
Ġl ady
ĠJ osh
av ed
ĠRe ifen
end el
ĠVer anstaltungs
igen en
19 46
Ġcons ist
ĠVers te
Ġrem ark
ĠBild schirm
Ġkein es
ĠChar ts
ĠJohn ny
ĠKomp lex
Ġangeb lich
ĠFlor a
Ġcommon ly
emb ran
ĠVis it
ĊĠĠĠĠĠĠĠĠĠĠĠĠ ĉĠĠĠ
ĠSamm el
ĠKomment are
ĠPfer d
ĠSym ph
Ġhochwert ige
Pass word
cu ador
ĠInse kten
S aint
W R
f unction
Ġt all
it iert
ĠS ix
ĠD R
ĠR uth
ĠSt orage
Ġdes wegen
ĠÃ¼ber rasch
ĠAr g
ĠJahr gang
ĠSe ason
ĠVor gang
cl udes
ble me
Ġoff ices
ĠSte ine
Ġrec ording
ĠAd vis
ĠSchw ein
enden ce
Id x
Ġteil en
ĠSaison ende
ĠReich en
yl on
ĠPaul o
190 3
fÃ¼ll ung
ĠJust ice
Ġdre imal
Ġgre y
ĠRos a
Ġfra uen
ĠAT P
ĠNationalsozial isten
ĠberÃ¼hm ten
Ġmonitor ing
ĠBeaut iful
Net work
B ank
W he
d re
r ent
ch ain
Ġd ivision
Ġan gest
ĠF L
ĠH ob
ver leihung
ĠSe ver
auf tritt
Ex per
ĠAb wehr
pro perties
ock e
En ts
Ġins zen
ĠGes ichts
Ġinter active
Ġbu cket
ĠUr kunde
Ġfest gestellt
Ġeinge weiht
ĠGew ichts
Ġmag n
ĠFreund schaft
Ġdein er
ĠVort rag
Ã¤rt ner
Mult i
Ġgeplan te
pap ier
Ġstyl ish
ĠApost ol
Ġconfir med
G ymnasium
k ologie
v ari
in as
ge ist
ĠB utt
ol id
ĠT O
ĠT ower
ĠF eb
ĠG az
ĠE ff
ĠH els
Ġl iquid
ĠSch uss
ĠSp a
ĠBer chtesgaden
Ġar ms
ĠFl ow
ĠSchw Ã¤b
Ġtr igger
ĠStud y
ĠKl ar
Ġ185 3
190 7
Ã¨ res
And re
ĠAnn ual
ĠFinanz ierung
ĠÃ¤uÃŁ eren
prec ated
n umber
is ierungs
ĠB attle
Ġc riteria
ĠT akt
âĢ ³
sch reiber
Ġvon einander
ĠSch alt
se ction
ĠAn pass
ĠRe chnung
Ġsch olar
19 11
Ġen ger
Ġpr ison
Ġro te
sk irche
ĠOber flÃ¤chen
Ġsho oting
ĠGener alleutnant
Ġpass ing
esent liche
Ġcheck ed
ĠOlymp ia
ĠHistor ische
Ġant iken
Ġconc ert
ĠSw iss
ĠZwe ig
Ġarr ive
ĠVis ual
ĠPil ot
Ġporn o
sequ ent
ĠlÃ¤ng ere
verl ust
7 00
D ruck
G ood
ĠP ont
ĠF unction
ĠK eine
ĠH P
Ġun able
19 47
los er
ĠMar cel
rich en
Ġcre w
Ġchar ged
Ġinternational er
Ġoper ated
Ġmet a
Ġaufge geben
Ġmag ic
Ġ180 6
ĠKÃ¼nstler in
zwe if
ĠUs ing
Meta Data
ĠCru z
Po inter
JÃ¤hr ige
Ġangen ehm
franzÃ¶s isch
ĠHud son
C lose
E st
H or
M el
P ubl
T otal
W T
h lich
i ak
i ologie
ĠS ten
Ġb anks
le tes
Ġm and
us ions
st iftung
ĠP iet
ĠE arly
ĠK ings
ĠK reat
la in
la uch
Ġauf einander
ah me
sp lan
St re
Ġte x
ĠUnter k
ink i
vent ional
Ġass ign
mittel alter
Ġerfolg ten
ĠWor ten
DE F
Ġhealth care
Ġprom pt
Ġaufge teilt
sta ats
Ġland es
ĠLog o
Ġcolor ing
ĠKriegs gefangen
Ġrepla ced
Ġearn ed
Ġsuppl iers
Ġuk rain
Ġunterr ichtete
ĠjÃ¼nger en
ĠCapt ain
A U
F k
F ar
L EN
P T
u den
un z
ĠS EO
Ġb ars
Ġb ird
us ten
Ġan x
im b
ĠK ilometern
ĠR ÃŃo
Ġk ap
Ġge leitet
ĠIn haber
ĠEr langen
ĠDe cken
19 16
ult an
St il
St ats
sh ore
ĠFl ash
Ġmy th
Ġgew issen
Ã¶l z
Ġno ted
Ġperson als
Ġsu c
ĠBed ien
190 4
Ġmult ip
ĠAuss icht
ĠKing dom
Ġhappen ing
Ġprakt ische
Ġcas ual
ĠInvest ition
Ed ge
Verkehr s
ĠSym pt
Ġil leg
Ġgez Ã¤hlt
ĠSchicks al
Lud wig
N ur
k inder
p oints
ĠS I
ĠS creen
Ġe ignet
ĠA mp
ĠB ent
il o
ĠM is
ig ert
ĠL an
ber gt
ir us
ĠJ Ã¼
for dern
Ġsp aren
amm ad
olog in
ĠGeb Ã¤uden
ĠQu ick
lÃ¤ s
pl Ã¤tzen
Ġger aten
ĠEl f
con nection
Ġeinz eln
ograf ische
ĠEnt ity
ĠMot oren
bl og
lei h
zentr ale
ĠBro t
Ġcr isis
Ġflo oring
Ġant icip
ĠKom fort
ĠVe ktor
195 6
ĠKle id
Ġenter prise
TER N
Exec utor
Ġchrist ian
Ġbere chnet
ĠspÃ¤t estens
Ġcondu ct
Ġzeich net
ĠThr on
ĠVerbreit ungsgebiet
! âĢĿ
h ten
o ft
er ed
Ġs enden
ĠS ri
ĠS yl
ĠR ote
ĠC oup
ĠN ike
id ium
Ġj ahr
Ã¤n gs
ĠBe frei
ok o
19 60
Ġen abled
ĠBer Ã¼cksicht
ĠUnter schiede
ĠFl Ã¼ss
stell erin
ipp en
Ġstr ict
back tracking
Ġatt orney
ĠIde al
ĠHeimat stadt
Ġbox es
Ġdisplay ed
ĠInvest ment
person en
Ġbedroom s
Ġgere cht
Ġsuppl ier
Ġtal ks
Ġsatis faction
Ġult imate
Ġforder t
Ġmill ions
ĠFertig stellung
F low
H K
d ates
k arriere
te or
Ġb odies
ĠM asse
ĠK amm
Ġbe weg
ul ich
iz on
be griff
gr id
Ġsp iegel
ĠAus richtung
auf gaben
olog ist
ri um
Ġfin est
ork ommen
Ġbek le
ym met
add ing
ĠMann es
Ġdel ay
ĠChar acter
ĠMag ic
Ġcoun sel
Ġvoll kommen
ĠmÃ¼s se
Ġret ire
Hand ball
amb ling
Ġgre w
Ġdest roy
Ġmix ing
jew itsch
Ġdiagn ost
ĠDiÃ¶z ese
ĠInternets eite
Ġgede iht
Ġanbie ten
ĠViz emeister
ĠWupp ertal
P ublic
S pl
Ġd ot
Ġt ur
Ġv illa
ĠB owl
Ġh ang
ĠT oren
Ġein gemein
ĠR in
est adt
id ance
Ġfor th
Ġr ug
Ġse ed
Ġme ets
Ġfind s
Ġinv alid
alle tt
ĠSc ient
ĠAir es
Ġclos er
Fl uss
ĠSat tel
ĠerhÃ¶ hen
Ġexpect ations
ĠSter nen
Ġign or
Ġgesetz lichen
Ġoccur red
Ġcompar ison
ĠAgn es
C le
D oppel
W idget
Ġt elling
at iver
le itete
Ġp hen
Ġh ole
ut a
ĠSt Ã¼r
Ġpro tocol
sp rachen
Ġor din
Ġsie gte
ĠDe te
Ġsp ark
ĠCh ange
rif fe
ĠSte ink
Th ank
ĠSh are
ĠRes idenz
Ġteil te
verb ot
Ġbed ro
SS ION
met hoden
Ġflo ors
Ġlaw yer
ĠMr s
Ġevangel isch
Ġstaat liche
Ġsav ings
Techn ische
A V
A ir
F ont
H in
m ult
m agazin
w Ã¶rter
Ð ²
er ie
Ġt ill
Ġc enters
ĠT oken
ra ums
Ġg aming
ĠJ en
Ġal ias
est het
la ce
Ġver mitteln
ind s
tr ang
Ġde leg
ĠEr ik
ĠLe ader
Ġup grade
Ã¤ch ter
Ġsc an
ins eln
Ġmus cle
ĠMed ium
ĠCon fig
Ã¶st liche
met ter
ĠAg ent
Ġpack ages
ĠTrans fer
mon th
gehen de
Her r
Lo ad
Ġchem ical
Ġdigit ale
ĠNiger ia
C ategory
D ienst
W appen
h igh
m esse
v it
Ġs hr
ĠB ush
ĠD allas
ig ern
ĠT ap
ĠT ickets
ĠC oc
ik ern
ĠAn walt
be fehl
ungs zeit
ĠDe ep
19 48
omm y
Ġad op
ĠNach frage
rÃ¤ uch
Con stant
ĠEx il
Ġag greg
pf el
ĠBet riebe
Ġcons istent
ĠFe ed
Te ch
ĠHaus t
ĠBas eball
Cl ub
ĠhÃ¤uf iger
print StackTrace
Ġaff iliate
ĠProble men
Ġassoci ation
ĠWeihn achten
Ġserious ly
Ġmedizin ischen
Ġauthent ic
Tim estamp
B ag
B inding
R ot
T itle
k ons
r Ã¼cken
Ġa wards
re port
ĠS itze
ĠB ucht
ro ber
am as
ĠT ak
ĠT otal
ĠF u
ĠF antasy
ĠL ese
Ġge habt
ĠU ran
pp ich
ah ne
Ġab sor
Ã¤t igung
oc aust
eng ers
Ġint ent
ĠTra ck
Ġdr amatic
Ġloc ale
vor stand
stein er
ari us
Aus gabe
ĠOff iz
AN S
Ġbef Ã¼r
anad ier
ĠAnt arkt
Ġcr ash
mark e
Ġfac es
ĠRel ief
ĠTex ten
ĠAp i
Ġerk annt
check EMail
ĠGlas gow
drÃ¼ck t
Ġdise ases
Ġsinn voll
ĠBerat ungs
hÃ¤l ter
checkEMail Adresse
S Ã¤nger
S creen
n ord
ĠS ay
Ġe lev
Ġm as
ĠP ink
ic ted
sch i
Ġre putation
Ġge ile
Ġauf gel
Ġde bt
Ġsch afft
19 13
Ġcomp act
Re v
utz er
of ern
ĠPh Ã¤n
bau werk
ina e
ĠFe ucht
asch a
ĠInter ruptedException
Ġausge dehn
Ġdel la
ĠRÃ¼ck tritt
ĠBas ic
othe k
Ġess ays
Ġversch oben
Ġerk ennt
Ġprim arily
ĠCap ital
Ġrecogn ize
Aut o
Ġlok ale
friend ly
ĠEtw a
Ġerkenn bar
K ritik
c ms
k W
w atch
Ġd aneben
Ġb its
Ġin du
ĠD ame
ĠF aktoren
ic ulture
ĠL iver
Ġto k
Ġauf nehmen
Ġ18 20
Ġ18 16
ĠEin tritt
ĠTe ch
ĠAus gra
schie ÃŁen
ĠFr ies
ĠArt illerie
rag ment
con f
Ġhin weg
ĠGrund riss
uk le
ĠRad rennfahrer
jÃ¤hr ig
ĠSol utions
ĠHeraus forderung
ĠHerzog tum
Ġdet aill
ĠBlÃ¼ te
ĠPrinz essin
Ġsamm eln
ĠSak r
Ġcrow d
ĠiP ad
Fk EMail
H ave
K reuz
N un
p ower
Ġs y
re ide
ĠS ale
Ã¤ ule
ro ph
ĠM ast
ĠM Ã¼hlen
Ġp ics
Ġc ult
Ġc otton
ĠT ed
ĠT alk
im ation
ĠR ied
Ġg al
and el
ĠO skar
ĠDie t
ok u
io den
Ġgen ehm
tra gt
Ġreg ions
ĠChar lie
Ġcolle ctions
Ġevent uell
wor ten
ĠIns urance
wissenschaft liche
Ġhol idays
ĠErd be
ĠMount ains
angeb ote
ĠBÃ¤ ume
Merk male
9 00
T her
W ohn
v oid
Ġw itness
ĠS H
ĠS M
ĠL is
ĠL ac
Ġer setzen
ot ive
iz a
Ġch ose
Ã¶r er
19 26
enn zeichen
ĠGe fÃ¼
per rt
Ġen ge
ĠAb stieg
18 95
Pro file
== '
ĠMan h
Ġmin ister
velop e
spre chend
ĠGew Ã¤sser
Pr int
Ġabge lehnt
Ġmoder ner
Ġdat iert
ĠOut door
ĠPop ular
emb les
Ġentire ly
Ġrefer red
Ġzweit es
Ġachie ved
ĠWes er
Ġven ue
Ġmex ikanischen
ĠCham ber
Ġgebra ucht
C ondition
L uft
S oll
p in
re z
Ġm uÃŁ
st s
Ġn om
ĠH im
ĠC ir
Ġmit ten
Ġse ctions
Ġch icken
ĠSe kretÃ¤r
Ġad van
Re pository
String Builder
Ġco ordin
ĠSte ck
Un garn
ron ics
Ġact s
Ġdesign ers
AR N
Object s
sw itch
Ġmar ks
ĠWar schau
Ã¤m me
gesetz ten
Ġung laub
ĠWel che
ĠBahnhof s
ĠRob in
Ġmer ch
Ġstre ets
Pl us
Kurz film
Wor ld
Ġbedeutend sten
ï¼ Į
Ġdanger ous
Ġverbesser te
Ġsud den
C ard
E lekt
S eite
b inding
Ġm apping
om i
ĠG P
ĠK alender
ir aten
ĠV ic
Ġge gangen
Ġr ating
ob s
Ġgen der
Ġgo ogle
Ġcont est
ĠMin istry
ĠHÃ¶ hle
ĠEd itor
Ġobject ive
gra fen
ĠPort land
Ġrequest s
Ġnormal erweise
Ġstay ing
Ġblock s
Ġcolumn s
ĠDrei ÃŁig
resource GroupName
ĠBrig ade
Ġgesund heit
Febru ar
ĠUE FA
2 50
Z ug
f i
h ot
Ġ Ã¤nderte
un ivers
Ġt ape
Ġt oler
Ġb inding
Ġo d
st Ã¼cken
ĠM esser
ĠD ob
ĠD FB
Ġp ill
Ġ1 12
ĠP aper
ĠH af
ĠO ft
la fen
Ġun known
tr ess
Ġso il
lo ÃŁ
19 41
() ),
ens atz
mann schaften
Ġze igten
Ġdire cted
ĠHaus halt
Nach bar
inc inn
ĠRuss ischen
Inter val
ĠLog istik
ĠLang uage
ĠDate ien
Spe ichert
ĠDec or
Ġdiscuss ed
Ġleg it
ĠRead ing
Ã¶p fer
match er
ruit ment
Ġhil f
Ġrum Ã¤n
ĠBÃ¼nd nis
H Ã¶
O FF
m g
m ol
w affen
Î ±
Ġ ikea
Ã¼ hen
ĠA kten
ĠM ong
Ġc ou
ĠF ulda
ĠR ound
ein kommen
ĠJ oy
Ġal ign
ĠZ ag
ĠSch icht
aus stattung
be y
ĠSp er
ĠAl lein
ĠAl abama
ĠWe iss
res ted
Ġgu idelines
We iÃŁ
ĠDu isburg
bereich en
ĠNo Such
umm y
Ġtyp ischen
Ġbew aff
Ġ185 1
Mod ified
ĠWissen s
Ġauthor ity
ĠLux us
Ġappe al
ĠEdel stahl
ĠTerr asse
ĠPian ist
F Ã¼gt
h aar
i ierten
m aster
w ait
z ien
er d
ĠS or
Ġund ert
Ġc ommen
sch ool
ĠH umboldt
ĠC ache
ĠC reative
ĠN oten
ĠV at
ĠV Ã¶gel
ier ra
if ies
ess ischen
Ġver Ã¤ndern
ĠVer leihung
Ġcon cepts
ĠSp ons
Ex tra
ĠAuf trags
Re ihe
Ġher o
ĠMo or
schutz gebiet
ĠZusammen setzung
Ġpolit ics
Ġgem el
fert igt
ĠSee le
ĠKomp etenz
ĠWieder aufbau
ĠNachbar gemeinden
Ġnotwend igen
ĠHard ware
ĠFlag ge
Ġstruct ures
irurg ie
Ġconflic t
Ġmur der
Sonst iges
Ġzusammengef asst
( !
A ch
A BC
P oints
t lichen
Ġc tx
ĠP ohl
ĠF ix
ĠE i
ic ultural
ra kt
sch ema
ĠH amp
Ġk onserv
Ġre ception
Ġre produ
ĠIn spe
ĠSch ein
ĠVer pflicht
ang aben
iz ierten
ant es
ĠCh romos
ac cess
ac cept
ĠgroÃŁ em
Ġverb ringen
bes te
ĠAt tra
ĠHÃ¶ hlen
umn i
ĠRed u
ĠErw in
gef unden
Ġorganis ierte
ĠDokument arfilm
zi ologie
ĠMary land
AX B
ĠVerÃ¤nder ung
Ġhop ing
Ġkulture llen
Ġbeauf tragt
Ġdenkmal gesch
1 000
R ows
j ur
l ab
v als
es c
Ġs ick
re quire
Ġm olec
el ly
Ã¤ hre
ut ung
ĠK enntnis
sch les
Ġge fragt
ate au
ĠEr ror
Ġsch eme
ĠPro jekten
geb ot
ĠPr ize
Ġra ck
ious ly
Ġselbst verstÃ¤ndlich
ĠMet ro
Ġerhalten en
ĠSitz ung
ĠAg entur
ĠVe get
ĠTal ent
Ġsug gested
ĠSalz burger
Ġneues ten
Ġexception al
ĠDisk uss
Ġpoln ischer
sper re
Ġsubs cription
ĠNahr ung
ĠKrit iker
gun sten
Perm ission
L Y
T wo
h Ã¤ngt
l ov
s u
Ġt um
le e
Ġf inger
ĠF lieger
ĠC ommer
Ġer lebte
kt iven
up lic
19 49
ĠAl ber
ĠLand gericht
ĠVor name
sk on
oy al
âĢ¦ )
Ġass um
ĠOn kel
Ġbesch rieb
por ted
ĠVol ker
zie her
ĠCo oper
Ã¤us chen
ĠauÃŁer ord
ĠfrÃ¼ he
Ġprom ise
ĠForsch er
bre ite
196 6
Ġinteress ante
Ġmem ories
ĠSter ne
Ġimmed iate
ĠEreign is
ĠFinn land
ĠanschlieÃŁ enden
FOL LOW
ĠBerÃ¼cksicht igung
) (
C ell
R hein
b ig
k reise
m ung
Ã ®
an schluss
ar us
Ġin halt
Ġe hr
ĠB uk
Ġc rypt
Ġc arbon
ĠF at
ĠE gypt
Ġer ober
Ġer lern
Ġer werben
ĠJ ason
Ġst amp
Ġdurch ge
Ġper mit
Ġgew inn
Ġfr ustr
Ġgr ass
ĠUm zug
Ġph ones
Ġprov en
let ing
richt ungs
ĠWor ks
ĠTo uch
Ġschn ellen
valid ate
Ġsuggest ions
Ġpoln ische
Ġhum or
ĠDub lin
ĠðŁ Ļ
ĠKel ly
sthe orie
Bi ografie
Ġschwier ig
ĠNeum ann
Ġaccommod ation
nor mal
F P
X base
b ow
l Ã¶s
Å Ľ
ĠA BC
Ġan gewand
st an
st Ã¤dt
Ġ1 17
ĠT am
ĠK ohle
Ġbe grÃ¼ndet
ĠSt reich
ste tten
ĠAn other
Ġex pr
ard in
Ġwor se
ĠGesch Ã¤fte
Ġtr ick
Ġviel mehr
AT O
Class es
iner y
ĠArch ive
AR D
pre chung
ĠStr ess
Ġhistor iques
Ġpay ments
ĠKo alition
Ġed it
ĠOper a
Ġlik ed
Ġprakt ischen
ĠChem iker
uert o
Ġplatform s
gerichts hof
Ġsav ed
Ġguarante ed
ĠEas y
Ġpow der
, ...
K lein
P ap
Z usammen
s ucht
is Assignable
ĠS U
Ġe ure
Ġm ile
Ã¼ ht
ĠG ary
ĠG astr
ĠR ams
ĠC urrent
Ġre iste
au e
og h
art a
Ġab use
Ġhe av
Ġ18 41
Ġber ichten
ĠGra ce
ĠNord ost
Ġprof essor
ĠSal on
ĠEnt deckung
ĠKont o
ĠVolks republik
fert igung
Ġzwe if
ĠDom ain
ĠJazz musiker
Ġbelieb t
hers tellung
Ã¸ r
ĠMarc us
OW N
Ġaustral ischen
ĠStrateg ie
ĠKent ucky
ĠSort iment
Jose ph
ĠForts etzung
ĠMultic ast
Ġcerem ony
ĠUrauf fÃ¼hrung
Q UE
u tern
y k
at ile
re kord
st ark
ĠD ritten
ĠP eking
ĠG utsch
ĠG Ã¤rten
ber ichte
ĠV es
ĠJ ess
Ã¼r zen
ĠO ste
get Field
Ġsp ont
ĠAb satz
Ġcomp osition
ĠReg istr
rat ive
ER E
ĠSh akespe
ĠMed aille
AT OR
Ġbr idge
ĠRechts an
ĠMay er
urf ten
190 6
Ġconf ident
Ġalong side
Ġfiel en
Ġkrit isiert
ĠAnge la
ymp os
ĠHu bert
Ġiter ator
Vol ks
Comm on
Ġuner w
ÅĦ ski
Ġscr atch
Ġverurs acht
Lang uage
MÃ¼n chen
Ġgefe iert
c amp
i hen
u eller
in f
is men
Ġs onn
ĠS ad
ĠB att
ig ade
ĠP ist
ĠK ill
ĠL ichten
ĠR it
Ġbe zahlen
ĠJ ugoslaw
la yer
ĠU g
Ġfor ever
ĠVer schw
ĠEr ziehung
ru le
rom an
gr ammen
her it
ĠÃ ©
ĠY am
teil ten
-- ;
Er ste
ĠGra ham
Ġshe ll
Ġ[ ]
Ġcol ours
new Instance
Ġfre ier
Ġbook ing
Ġweek ly
ĠFot ografie
ĠSel f
ĠMont real
195 2
Ġens uring
Imp ort
ĠGre if
Ġannoun ce
ĠWand el
ĠAnaly t
ĠWass erk
ĠWin ters
Ġexpla ins
Ġdiv or
Ġinstru ction
ĠAR D
ĠBrook lyn
ĠLearn ing
Ġincor por
Ġrechte ck
ĠFF DC
T ool
j ing
ur teilung
Ġin ches
ĠB ibli
Ġan gle
ĠM oney
ĠT U
ĠT rue
ĠE state
ĠL iss
um pe
ĠC abin
Ġer gab
Ġk lin
ÃŁ t
ver w
Ġzu gunsten
Ġr is
ĠAn alysis
aus cht
ru der
get Parent
erv ed
ĠSe attle
ĠAuf klÃ¤rung
arbeit ungs
ĠGer ade
ON E
Ġresult ing
ĠBest immung
ĠKlein en
ĠViel leicht
gien e
Ġremov al
spann ung
Ġausger ichtet
ĠErschein ung
Ġlab els
ĠWit we
Ġestim ated
verteid iger
Dam it
Ġelig ible
B ud
E mp
H op
I Z
L ayer
P OS
d ra
e he
Ġt ip
ĠS tet
ĠM om
am ents
Ġz entral
ĠH Ã¤ndler
em er
ĠC ool
ĠSt ufen
Ġle ts
Ġ18 44
ĠAb hÃ¤ng
lieÃŁ t
ĠBo ys
ĠBes tellung
ĠStud iums
Ob wohl
ĠWer ks
ieb t
ĠOff icer
IT E
Ġerhalten e
ĠPal Ã¤
195 7
ĠInn ere
ĠStad trat
Ġadv oc
Ġdeal ing
Ġbedeut enden
wal de
Ġintens ive
ĠMur ray
ĠlÃ¤ng st
Ġbetroffen en
Ġintel lect
B ot
H tml
N N
a er
Ġ ul
ĠD est
ĠP O
ĠP ent
ĠF lat
ĠH Ã¤ft
ĠV ik
ĠSt u
Ġex klus
be at
ĠDe part
pr Ã¼f
Ġwor st
Ġcomp liance
18 99
Ġeinz us
ĠCar lo
Te chnik
RE D
ĠGed icht
Ġair craft
ĠMont age
196 4
ĠErd geschoss
ĠTar if
Ġconsum ption
ĠBeam ten
Ġlauf enden
Ġromant ic
Ġberu ht
Ġtom orrow
ĠKolumb ien
S ite
j ord
k rat
k Ã¼hl
m ord
Ġd ust
Ġw Ã¤hlte
Ġb ay
Ġf usion
ĠB rom
ĠG ib
ic ts
ra c
ĠW ikipedia
em en
ĠL ack
ĠR ace
ĠC afÃ©
ĠN as
ĠJ av
Ġge be
ĠSt op
Ġy oga
ĠSch al
we ilen
ak ischen
ĠEr nennung
get Attribute
Ġat tr
ĠGe fe
ĠSe lect
Ġen tert
ierte m
fl Ã¼ge
Ġprodu cer
Ġind oor
ĠTra il
ĠAut omat
ĠHand eln
ĠFe atures
Ġperson s
Ġdec ade
ĠBel ager
Ġstor ed
ĠErn est
ĠPo et
Ġtw enty
Ġdefault Value
Supp ort
Ġbetre ut
Ġkom ment
Ġrob ust
icul um
ĠFlÃ¼cht linge
fÃ¤l ischen
Dom ain
ĠKoordin aten
ĠOze an
ydra ul
ĠLoth ar
F Ã¼hr
I K
K ur
U pper
z ure
Ġf ran
Ġf icken
ĠB akter
ĠD ess
Ġh am
Ġh orn
ĠL ion
ĠL ic
ĠL ett
ĠR ast
Ġr ib
ib m
Ġwh ilst
rie t
ĠPro tagon
Ġ18 18
ĠNe g
Ġlie b
Ġalle ged
bo ards
Al tern
Ġdr amat
Ġmark iert
ĠSeit dem
Ġfeel ings
Ġhead s
ĠHa are
gehen den
ĠAmts gericht
ĠWebs eiten
ĠWettbewerb s
Ġerf Ã¤hrt
ĠBege gnung
ĠSQL Exception
ĠBalt imore
ĠLuz ern
Ġbrill iant
ĠBuen os
G L
g alerie
h d
m isch
n immt
u ous
Ġd os
al ign
el i
ĠP aint
ĠG reek
ĠI ra
et o
ĠW elle
ĠC ond
ĠN elson
Ġk unst
Ġge fahren
Ġge folgt
ver ordnung
ĠZ en
Ġver stÃ¤nd
Ġdem okrat
Ġde kor
ib Package
ĠEr forschung
Ġvor bereitet
erv ers
Ġ4 50
ĠSe ktion
Ġgew orfen
pl ibPackage
ĠInd ustry
halt ungs
wohn ungen
ĠJohann a
Ġdevelop ers
Leben s
gra ph
Bau denkmal
189 2
Ġinform ed
ĠSied lungen
ĠPlat te
Part ition
spro zess
Gemeinde auflÃ¶sung
steuer ung
Ġsech sten
Mem ory
k ong
k Ã¼nstler
m ag
w id
z it
Ã ¯
Ġd ump
Ġt ier
Ġc urrency
ĠT SV
ĠG uten
ĠH unter
Ġto ys
ir i
Ġer fahr
ver hÃ¤ltnis
Ġj ahre
Ġab gelÃ¶st
Ġum fassen
ĠTh ai
ĠAus flug
ĠAus sehen
Ex ternal
ĠNach kommen
Ġfin ance
sche f
lock en
Ġclass Name
ÃŃ k
ĠStr Ã¶m
ĠSport ler
ĠLie ben
Ġter r
ĠErw art
ĠSchÃ¼ler innen
ĠStar ts
Ġbeteil igten
Ġbehand eln
Ġschwed ischer
ĠDet roit
ĠTrotz dem
ĠWeimar er
ĠErkrank ungen
ischÃ¶ fe
ĠwÃ¼n schen
MÃ¶ gliche
Ġcircumst ances
N LS
O ther
f are
h all
n on
p it
r ise
z k
Ġ ^
ch at
an trieb
Ġs ke
Ġs ending
ĠF utter
ĠĠĠĠĠĠĠĠ Ġ
ĠK upp
ĠI tem
et wa
ĠH R
Ġde fense
iz isten
Ġch er
fer enzen
19 15
Ġ7 50
ĠEx pert
Ch ina
ĠProdu ct
ĠHier zu
laub nis
ĠAlb ums
AS H
ĠAnt ar
Ġdav or
196 3
ĠMinister ium
ĠBon if
ĠEins Ã¤tzen
bil den
ĠSlow akei
Ġjud ge
Ġincred ibly
Ġbess eren
ĠBlo od
Ġfla vor
ĠAx el
ĠangekÃ¼nd igt
. ]
B uf
Z wei
g io
p Ã¤dagoge
Ġd urften
ĠS cript
ge x
Ġf ahr
ro ke
ĠĠĠĠĠĠĠĠ ĠĠĠĠĠĠĠ
et on
sch mer
ĠH ur
ĠH ed
ĠL er
ĠC omb
ĠC ommerce
Ġl adies
ĠV olleyball
ik at
ĠIn stead
ĠEr folgs
be cker
In halt
An aly
ĠSo ul
ĠArbeit nehmer
Ġdown town
Ġide en
Ġeinge zogen
vis ed
Ġbuy ers
Ġcelebr ation
ĠAbgeord nete
inst all
ĠWett kampf
ĠBeaut y
ĠSpekt rum
Ġack now
G lobal
k Ã¶mm
s uper
Ġs ummary
ĠS ara
Ġb ow
Ġb id
Ġf ragen
om y
ĠG ros
ĠN ancy
Ġmit ge
Ġse ats
ĠAr te
ord ination
lic kt
19 31
ĠSe pt
amm ed
dr ama
use hen
", "
Ġerst mal
Ġsub st
Auf gelÃ¶st
Ġcover ing
ĠHistor ischen
Ġpack ed
Ġinvol ves
ĠMiss issippi
Ġrele van
Auth ent
ĠKrank heiten
Hash Map
ĠWay ne
Ġsup erv
ĠRober ts
ĠShang hai
incinn ati
. '
B ilder
R ichtung
R obert
n ote
w achsen
Ġa rom
on c
ĠS alt
Ġb ol
Ã¤ ischer
ĠG B
ĠE rober
Ġer baute
Ġdes ktop
ag ues
Ġsch ed
Ġres et
ĠMar in
ĠCon text
fo hlen
ĠIs ol
Ġaufge hoben
Ġverl ieren
Ġabge leitet
.: .:
189 6
incip al
Ġfair ly
Ġinj uries
ĠUrs ula
Ġord entlich
ĠErschein ungs
Av ailable
ĠJane iro
ĠWurz eln
Ġdokument iert
Ġnav ig
Ġfasc in
= \"
E isen
G el
p rach
Ġf erner
Ġm useum
ĠB ott
il fe
ic ut
ĠK han
ĠV ice
ĠSt orm
id as
ĠU k
Ġfor e
Ġver mie
ĠAr mut
Ġme als
Ã¶r n
Ġdurch setzen
ac ular
auf lage
ĠBer ger
Ġpr ide
ĠY outh
sk o
Ġsome where
iff s
gend a
ĠSchw anger
iver y
Ġverb lieben
Ġclass room
Ã¤uf e
Ġappro val
Ã¤m mer
mark en
Ġsicher te
195 8
lÃ¤uf ig
ĠDres dner
Produ ct
ĠKonz ern
Ġrow s
ĠChem nitz
Rem ote
ĠStreit krÃ¤fte
ĠkÃ¼nstler ische
Ġdrink ing
Ġbrach ten
Bere ich
ĠVog t
ibil itÃ¤t
? !
K Ã¼nstler
M as
e ck
al p
Ġm un
ĠT icket
om ing
ĠK ot
ĠI owa
ĠR S
ĠC hal
Ġer lebt
Ġden ke
Ġge zwungen
op ing
ub b
ran ts
Ġsch ul
Ġsch ein
get Default
.. ...
ĠTh ink
Ġsh arp
ĠVor gehen
Ġro se
br unn
min ute
Ġtime out
off er
Ġover w
Ġger ufen
Ġperson ally
Ġ> >>
Ġgener ic
Ġbed s
Ġimp ossible
Ġerne uert
Ġincre ases
Ġtreat ments
Ġsim pl
Ġill ness
Ġbir ds
Ġanz ut
Ġframe work
Ġmusikal ischen
ĠGene hm
ĠLiefer ung
ĠDunk el
Ġfas zin
isAssignable From
! =
> .
B L
F iction
J ECT
M G
R ate
h ut
l iter
r r
is pr
ĠS ug
Ġin tell
ent urm
ĠP ause
ĠT au
ĠE ag
Ã¶ hne
ĠN FL
Ã¼r ft
Ġauf re
au ÃŁ
ĠRe alitÃ¤t
ĠVer folgung
Ġ18 42
ide te
Ġent stamm
ĠMit ch
Ġpr Ã¼fen
Ġ17 00
Ġste uer
gl Ã¼ck
Ġgesch Ã¤tzt
Ġac id
Ġcar pet
ĠMittel feld
ĠHel p
Ġpower ed
ĠKaiser reich
ĠBÃ¶ hmen
Co uld
Ġindustr ies
Ġarg uments
ĠSchwar zwald
Ġsuffer ing
Ġsitu ated
Ġausges prochen
Su ccess
Entwick lung
Ġoffens ichtlich
C S
C ounter
G reat
a ired
j Ã¤ger
z oll
Ġd ienten
Ã¼ ger
Ġv oc
ent he
ĠE b
ĠE cht
et ition
ĠL E
um me
ĠC ole
ĠN ob
ĠN HL
Ġk reis
oll o
âĢľ :
ord nungen
19 17
ĠMit tag
Ex pr
Ġtra g
mit te
leg ungen
Ġprodu cing
Al though
Ġreal ized
ĠPre c
Ġgel Ã¶scht
ĠSand stein
gÃ¤n gen
Ġtravel ing
ĠCent ury
ĠWahr scheinlichkeit
ĠTat ort
ĠOk lahoma
klass igen
agra ph
ĠFranzÃ¶s ischen
Verb reitung
ĠChron ik
ĠLetz ter
******** ********
Ġsurpr ising
Engl isch
Ġcir ca
Ham burg
Tro tz
p il
at ively
am ann
ĠT iger
ĠT rop
ĠE T
ĠH appy
Ġl ies
ĠJ g
ow ner
we iger
for cement
Ġen ables
az y
Ġbut t
ĠMed iziner
Ã¤nder ung
other apie
Ġmo ist
Ġjewe ilige
Ġret ten
ĠPal ast
ĠCor porate
ĠGen re
Ġident isch
Ġredu ction
Ġrelig ion
ĠNamens geber
Eis hockey
Ġhum ans
Ġkom fort
ĠKandid at
Ġkos tet
ĠAngehÃ¶r ige
Ġvi agra
ĠgefÃ¤r bt
ĠEinzugs gebiet
B Y
H as
b Ã¼ttel
r ian
s v
Ġd ritt
it Ã©
an as
ĠB j
ĠD ien
Ġ1 18
ĠF ive
ĠK ick
uf Ã¼gen
ĠC ow
eit h
ĠV R
ab on
Ġst ren
ĠZ iegel
ĠAr gument
Ġsie d
ick te
ens l
Ġrec ip
Th omas
ĠAd v
Ġjust ice
kl en
pla in
Ġfl our
ĠFach werk
Ġinvest ors
ĠBur k
Ġaccount ing
Ġverbunden en
ĠTur k
Ġcharacter istics
ĠPfe ffer
ĠSem ester
Ġniedr ig
uum l
rÃ¤nk ungen
ĠTob ias
Ġsurpr ised
ĠkÃ¼nd igte
. [
J ul
f ly
r ath
an ced
al ben
ĠS hel
Ġb ands
st urm
Ġein iges
ĠG ian
ĠE V
ĠR ights
Ġg rant
ĠC ad
Ġl ob
ĠJ i
tr es
end ant
Ġab stra
Ġwill kommen
Ġdo ctors
ren e
Le ague
Ġno ise
ommun ity
alen ted
ott a
Ġsho ck
Ġange mel
Ġgu idance
At tr
ĠPat ri
Ġmein t
Ġcommun ications
ĠOrts teile
ĠDem onstr
produ kt
ĠgrÃ¼n deten
Ġstat ements
Parameter ID
189 8
Ġverlie f
Ġbesonder es
ĠHÃ¶r spiel
ĠGesetz es
Ġrecogn ition
Ġangegeben e
Ġdra wn
ĠGran de
ĠBran che
ĠgefÃ¤hr det
ĠDub ai
ĠStraÃŁ burg
ĠArchÃ¤ ologie
ĠWalk er
Ġbelie ved
ĠGitar re
ĠGesamtw ertung
ĠPho enix
ĠAfghan istan
B rit
S im
s ieg
y en
ge halt
Ġin deed
ĠB reit
ĠM ack
Ġc ater
ig ter
Ġh anging
ĠH Ã¤nden
ĠC ant
ot ter
ers atz
ĠRe chen
Ġsch e
Ġsch auen
Ġ18 35
Ġres ort
amm ung
utz utage
Ġ17 0
Ġco uchtisch
ĠZu hause
urrent en
str asse
Ġrest ore
Ad min
Ġmir ror
Ġhistor ique
ĠGen au
Ġla ptop
Ġstat istics
ĠTurn er
Ġcontrol s
Ġfocus es
ĠCal c
FI X
Ġverz ichten
ĠNic ol
Ġdur able
Ġhop es
Men u
Ġincreasing ly
stÃ¤d ter
ĠGalax y
Sa ale
ĠZut aten
ĠWitten berg
Il legal
C ho
F loat
is emit
Ġs aving
Ġb omb
Ġb asketball
ĠB elle
il og
ĠG os
ĠL il
ĠL esen
ir s
Ġk ol
iv ation
ab ad
Ġge prÃ¼ft
ver d
Ġle ichten
get Text
ĠSp ain
ip ts
In tern
Ġ18 21
Ġ18 39
Ġman agers
Ġ16 00
Ġdr inks
Mit te
ĠGener ationen
Ġgest altete
Ġann iversary
ĠRechts wissenschaften
Ġspecial ist
Ġed ges
Ġport folio
Ġocc as
Ġop ens
Ġregul ations
wal ts
ĠCarol ine
Ġcirc uit
ĠAnge legenheiten
ĠEins Ã¤tze
Ġcontinu ing
ĠgewÃ¤hrle isten
ĠBam berg
Ġeingest uft
C enter
c us
p g
z es
re ader
al on
le der
Ġn ights
Ġr ichtete
ag ger
aus s
be zirks
ĠLe hen
ĠAb raham
ĠZeit ungen
use ppe
param s
Le icht
li ament
ĠÃľber leben
ĠÃľber rasch
ĠPe ace
grÃ¼n de
ĠRes ources
ĠWer ft
Deutsch es
Ġdiffer ences
ĠHol y
ĠJe de
ĠBÃ¼ chern
Ġmod ified
ĠThere fore
ĠTour isten
196 2
Ġzwe ig
Ġcontrol led
mel den
omet rie
ĠFÃ¼hr ungs
ĠAud i
wel ry
ti rol
tor hÃ¼ter
Ġkulture lle
russ isch
Ã¤nk ischen
ĠVie h
Ã¤rn ten
ĠHinz u
> </
B ro
H istory
N ein
R Ã¼ck
R itter
m ak
p are
w ann
ing ang
ĠB ene
Ġn odes
Ġc er
ĠC ou
ĠN ash
ĠfÃ¼r s
ĠAn reg
ĠAn liegen
Ġde posit
Ã¼ber greif
get X
Ġcon n
be ing
Ġso bald
ip h
Ġ18 32
Ġ18 37
ĠEin tra
ĠEn try
ho le
att ing
Sch edule
ĠStud ierenden
ĠVerb indungs
Ġem b
Ġide ale
Ġtrans lation
Ġtrans actions
ĠFest ivals
aun e
ĠEm ma
Ġtradition s
Ã¤ss ern
ĠKle ider
Ġbisher ige
ĠMos k
Ġdeliver ing
Ġhab t
ĠOk res
Ġirgend wie
ĠVerdienst ordens
Ġinvent ory
Ġbeher bergt
Ġeingemein det
A ctive
B usiness
D och
h ash
ĠA K
Ġv inyl
ĠD oc
ten burg
ĠL LC
ĠC ut
Ġl Ã¤dt
Ġim per
ĠVer hÃ¤ltnisse
Ġcon trast
iz itÃ¤t
ĠSp alten
ĠLe hn
Ġsp r
Ġnew est
enn ungs
Ġunter stellt
ac le
sh op
pro of
Ã¶ff entlichen
Un der
Ar ten
Ġind ischen
Ġbl end
ĠHol ocaust
Ġkon kre
ĠPark platz
Pr ice
ĠRel ations
Ġsicher lich
ĠWeiter lesen
Med aille
Ġintrodu ce
Ġoptim ale
Ġerschienen en
ĠGeh Ã¤use
Ġumfang reichen
VAL ID
ĠPok er
Ġfab ulous
Ġprofit ieren
ĠRon ald
Ġentsp ringt
____ ____
F ootball
Ġe chten
Ġm ood
ĠB reis
Ġan gebaut
Ġan sehen
ĠF o
ĠF em
ĠI ter
ĠI wan
ĠH end
em ester
Ġg lauben
ĠC ash
ĠN obel
Ġer led
ik ro
op fer
ahr ung
ĠAr c
ian er
ke ys
ĠVor jahr
Ġcont ents
ĠUm frage
ĠVerein igte
Ġperson ality
Ġbr ut
Ġbr ush
Ġdel ight
Ġplan e
Man agement
ĠFin ance
key Set
lim it
ĠHy per
ĠImm un
ĠScott ish
roff ene
B ur
L inks
b ir
h ops
ĠW edding
ĠL utz
Ġ2 20
ĠN assau
ĠSt Ã¼tz
ĠZ Ã¤hne
ĠSch ritte
ru d
ia de
Ġsp ots
Ġent rance
ĠAus gleich
ĠGr imm
Ġad ds
ĠIm ages
pro ps
Ġrec re
lÃ¤ chen
ĠPe er
hol ders
Ġgener ell
ĠSein en
Ġmass iv
ĠStat ement
Ġcoup les
ĠFluss es
Match er
Ġstrength en
Ġdurchschnitt liche
ĠEqu ipment
Ġfot ograf
Ġverstorben en
uis ine
Ġsau ce
C are
a ÃŁen
e ah
t mp
w iesen
ĠS id
ur laub
Ġm or
ĠB reiten
ĠD amm
Ġp itch
Ġh ate
ĠF ish
Ġauf weisen
ĠIn dependent
ĠAn ordnung
ĠAn sonsten
ĠAn wendungs
art z
Ġwe ich
ĠEin zug
iet ies
arbeit s
ĠGes etze
ĠAd vanced
gew alt
Ġtr im
ĠAll ianz
ĠTr io
ĠVerb rechen
ĠVers uche
Ã¤nder ungen
ĠNational park
ĠHoch wasser
Ġ% ,
Ġgef Ã¤llt
ĠDurch bruch
ender t
Ġsw ing
Wh y
ĠKle ink
Ġcomb ine
Ġaw arded
Ã§ a
iale kt
Ġevalu ate
ĠSpann ung
N och
Y es
g iving
Ġ á
it led
Ġs oph
ĠS urf
ĠP unk
ĠK Ã¤mpfe
ĠR ass
Ġg laub
Ġl ohnt
est ag
est one
ann ers
Ġst uck
ĠÃ¼ber s
ĠEin z
ĠAb bau
cl usion
Ġcl ar
zu ela
ĠSan ierung
ĠgrÃ¼n en
195 9
rÃ¤n ken
Ġaddress es
Ġstru ktur
ĠWirk lichkeit
ĠWol ken
ĠRen Ã©
Ã¤cht nis
ĠEth ik
PRO PER
Ġdurchschnitt lich
ĠfÃ¼hl t
Ġrout ine
Ġstet ig
ĠgenÃ¼ gend
ĠJÃ¼ lich
B ER
K ont
R aum
S ong
b rÃ¤
w alk
Ġd ring
Ġd uty
Ġb elt
ĠB innen
Ġp oker
Ġc ul
im iter
ĠE y
ĠI F
ĠH ins
og ne
ĠLe gende
ring s
ĠGe lehr
ĠReg isse
arbeit eten
Ġinter act
Sch ul
ĠZu vor
ĠUr kunden
Ġausge geben
Ġem bra
ĠPhil h
ĠMod ul
amb od
irm ingham
ĠKommun e
Ġcreat ivity
Ġleben den
ĠOs lo
ĠZur Ã¼ck
Ġlow est
Ġregion ale
dep endence
Ġpain ted
Ġlos ing
Ġtag ged
Ġsouth ern
Ġzeich nen
+ "
B urg
G leich
M aterial
R R
r und
u als
Ġd auern
ĠS MS
Ġo cean
ĠD M
ĠT ell
ĠL Ã¶s
ĠL anc
Ġg iant
Ġer a
Ġge teilt
ste p
Ġpro ve
esch e
Ġor al
omp son
Ġ18 13
Ġ18 47
ĠAb fahrt
chn ungen
sche ibe
ĠBes ten
ĠfÃ¼hr ende
reit et
Ġausge legt
RE AD
ĠBuch es
ĠWill y
Ġbas ically
ĠFach bereich
Ġoper ator
ĠKultur en
Ġgl Ã¤n
Ġhohe m
Ġcra ck
FI ELD
Ġfight ing
Ġjung er
Ġprincip al
Ġvolunte ers
ĠgewÃ¼nsch ten
Ġangrenzen den
ĠManh attan
B enz
D M
H ey
S tein
V erk
m ing
p ern
ĠM ahl
ĠG PS
ĠR SS
Ġbe legen
Ġer zeug
ĠV alen
ĠO P
Ġaus sehen
Ġpro xy
sp f
ĠVer mittlung
be c
ĠAr sen
Ġ18 36
ob ahn
ke ley
Ġget estet
ĠUnter kunft
pro fil
Pro ps
Ġ: :
vent ions
ĠIs lands
ĠĊĊ ĠĊĠĊ
mar ine
Ġoffic ially
Che m
Ġpurch asing
ĠWein bau
ĠrÃ¶m ische
ĠBÃ¶ h
schlÃ¤ gen
Ġmel den
Ġexpos ure
Dav id
C amp
E U
b b
b ungs
k ing
r ession
v enz
Â ½
in formation
Ġs aÃŁ
ge ht
Ġin telligence
ĠB auf
ro le
ĠM am
ĠP aw
ĠF Ã¶der
ĠK orean
ĠH eld
ĠL etter
Ġk reat
Ġre q
Ġre ichte
ĠO v
ik ers
th of
Ġver ify
ĠBe griffe
get Data
rie ge
Ġunter brochen
wer fen
ĠAus rÃ¼stung
ĠAb schied
ock er
rif tsteller
Ġges ammelt
fr iger
ĠEl be
Ġfl ights
pre ise
ĠEntwick ler
Time Millis
ĠKat hedrale
ĠZahl ungs
196 1
Client Execution
Ġlov ing
ĠMass age
ĠDel hi
Ġmat rix
Ġneg ativ
ĠSteuer ung
Gra f
ĠEss ay
Ġlic ensed
Ġnorth ern
Bet rieb
Ġdauer te
Ġdauer haft
ĠSlow en
Juni oren
Ġrub ber
ĠGlÃ¤ ub
Ġjun ior
Tok ens
ĠLiver pool
H essen
V o
W issenschaft
b ane
e ffe
m essen
is lation
at on
ĠS ometimes
ĠB ast
st lichen
ĠD irk
ol stadt
ĠK ran
Ġbe deckt
ul ierung
ĠN ut
ver hÃ¤ltnisse
ste ins
Ã¼n dete
Ġcon tribute
ĠSp reng
ob a
ath ers
Ġro y
Ġev olution
ĠTeil nehmern
Ġact or
ĠHaupt ort
Te x
aul ts
Ġmark ed
ĠUr sprÃ¼nglich
ĠDr amat
Ġbefore ClientExecution
Mar ia
Ġlist ings
ĠSchrif ts
ĠAg ain
Unter nehmer
ĠKurz film
ĠEing angs
189 3
ĠSpring s
ĠtÃ¤ glichen
Ġrecommend ations
ĠEuropameister schaften
ĠJahrzehn te
Ġelektr ische
ĠCustom er
ĠmÃ¤nn liche
ĠPerspekt ive
inv oke
ĠNeck ar
ĠGebir gs
D abei
k ilometer
n atur
Ġ essen
Ġ ï¿½
Ġt alented
ĠS v
ĠB ien
Ġan th
st yp
ĠD ays
Ġh urt
ĠT all
ĠE L
ĠH ert
hr ingen
ĠSt uhl
uch tet
Ġdem nach
ĠAn nahme
Ġwir st
Ġsp ir
fe kt
ĠNach weis
Ġbet reiben
Ġgew alt
ĠUm stÃ¤nden
li est
gew achsen
ĠBet rag
ĠMal aysia
unn able
ĠBuch en
Ġeng aging
Ġcap abilities
osp el
ĠBeruf ung
195 5
ĠKre ise
ĠDach au
ikal ische
Ġarr ival
ĠGottes dienst
ĠFeder ation
ĠYear s
Ġniedr iger
ĠRep ubl
Ġevalu ation
ĠWorksh ops
ĠArzne imit
ĠHawai i
K ap
k ok
m ill
Ġt x
Ġb ron
ĠM iet
Ġp iano
Ġc ultur
ra h
ĠR i
ĠR s
ĠSch re
ĠSch ult
ak h
ok raten
ĠGe is
Ex press
Ġar rested
Ġtra um
Ã¤nd igkeit
ĠMon th
Ġbesch reiben
Ġfl ach
ĠUr heber
aur us
Ġschw ach
verb rauch
Ġtrans mission
Ġprofession elle
ĠFrankreich s
195 3
ĠGre y
ĠLaur ent
parse Int
Com ment
Ġagre ed
Act ivity
Ġstrug gle
ĠAbor ig
ĠschlÃ¤ gt
S outh
h ub
i hn
k os
x i
Ġd raft
Ġa ims
Ġt ack
an dern
ra ce
ra ÃŁe
ĠR Ã©
Ġer g
ĠV ac
Ġk omm
ĠJ AXB
iv ier
Ġpro port
Ġpro ceed
Ġhe ating
Ġhe aling
Ġex istence
be hÃ¶rden
ĠPro b
Ġsp acious
che f
cc i
teil ungs
Ġ// $
Ã¤l en
Ã¤ch ern
Ġany way
gew orfen
ĠMon ster
Ġmach e
mÃ¤ ss
ĠProf i
Ġdevelop er
ĠSchul ter
Ġlog in
ĠTechn ische
ĠmÃ¼s ste
Ġsecond ary
Ã¼rz te
ordin ary
Ġinvol ving
Ġexpl oring
ĠRÃ¤ um
Ġspan ische
ĠGeheim nis
ĠSup reme
Ġwand te
ĠFur ther
ĠAster oiden
ĠBesonder heit
. âĢĵ
E ben
h Ã¤nge
v Ã¶gel
y an
or ama
ar ium
Ġf en
Ġf its
Ġe chte
ĠB ureau
Ġn aked
ĠD oll
Ġp it
ĠP og
ĠF Ã¤r
ĠF urniture
ĠH Ã¼r
Ġbe halten
Ġl as
ck el
Ġk licken
ab wehr
Ġre lief
Ġim pl
ĠZ ig
ĠSch lÃ¤
Ġab gebaut
gr ession
In f
app ly
An other
Pro tocol
Ġspe akers
Ġspe ichern
Ġbo ards
ĠSchw estern
hand els
ĠFrank lin
recht liche
Ġcheck ing
Met al
ĠRuss ell
ĠKat astrop
Ġhol en
not Null
Ġless on
lÃ¤nd isch
Ġlink er
Ġoffic ers
189 4
Ġreason able
Ã¶p fen
ĠAf plibPackage
ĠVort rÃ¤ge
ĠThÃ¼r inger
ĠWurz el
ĠTai wan
Ġaccompl ish
ĠðŁĻ Ĥ
P lat
T al
W inter
e ter
p ul
Ġb ass
Ġc in
ĠF ron
ĠK ell
sch lagen
ĠL arge
Ġmit hilfe
ĠVer pack
Ġle af
Ġnach weis
lin a
ip el
Ġ18 38
18 88
Pro gress
ĠSte iermark
ĠGra de
ĠSchw ed
Al ben
ĠMon itor
Ġletz tes
Ġplan en
Ein ige
ĠMot ive
ĠFlug platz
ĠWith out
viron ments
Ent fern
189 1
ĠBud get
ĠHan se
ĠTenn essee
Ġsah en
ĠKomposition en
ĠZul assung
Absol vent
ĠSoll te
Ġbevorzug t
sph ase
ĠTschechoslow akei
ĠHels inki
ĠDreiÃŁig jÃ¤hrigen
A lias
I r
I AL
P G
R oute
ã Ģ
on omen
ĠS IM
Ã¼ bt
ĠB ird
ĠF resh
ĠC ler
Ġal b
Ġver fasst
op ol
Ġsch we
Ġ" \
ĠAuf wand
Ġacc ord
heim at
Res olver
Ġra cing
Ġthem es
Ġevery where
ĠIs a
Ġtechn isch
ĠStaats anwalt
Ġengl ish
vo ice
ĠUntersuch ungs
ĠEnts te
umin um
Ġexam ination
Schw arz
Ġdra uf
Ġsyn thet
Christ ian
ĠPut in
ĠRepar atur
/ {
S CH
s an
in itial
Ġa pi
ĠS ituationen
Ġb un
ĠB Ã¤r
ĠB ond
ĠP L
ĠT afel
ĠK iss
sch atz
ĠH Ã¶l
ĠH ous
Ġbe wertet
ĠV amp
ĠSt au
ne um
op ter
Ġhe x
Ġas set
Ġum liegenden
Ã¶n er
ĠÃ ģ
ĠAb b
ĠHe irat
Ġcomp letion
ĠUnter lagen
cl usive
Ġcont aining
Ġ10 5
Ã¤nd iger
ĠDies en
ĠEx change
ins ert
ĠX II
ĠRad i
druck s
Ġwest liche
ĠFlug zeuge
ĠOl den
ĠĠĠĠĠĠ ĉĉĉĉ
Ġliegen de
Ġzurueck gegeben
ĠÅ ½
Ġdef ine
Ġdro pped
ĠQualif ikations
Ġtats Ã¤ch
Ġclub s
Mill ionen
Byte Array
ĠTok yo
ĠBade zimmer
Ġprepar ing
stÃ¤d te
BevÃ¶lker ung
Ġnar row
ĠAngehÃ¶r igen
ĠVerletz ungen
Ġce iling
ĠRal ph
ĠFrÃ¼hl ing
Ġstattf and
A K
C r
K ommun
S am
b els
f arb
g it
t urm
w Ã¤hlen
ł Ģ
Ġw estern
ĠB aker
st ufen
ĠM C
and ra
ĠJ ochen
Ġge omet
os te
ou x
ĠZ inn
ĠSch af
se lect
tr ud
ĠEr ziehungs
ĠTh om
ĠNe apel
Ġen v
ĠGr id
18 90
Ġsc ulpt
ĠHand werks
Ġdr ama
con ne
Ġact ing
Ġstar ben
ĠStand orten
ĠfranzÃ¶s isch
less ly
Ġtyp ische
Ã¨ ne
Ġgelang t
ĠbeschÃ¤ft igen
kap it
Ġapproach es
Art ikel
Serv ices
ĠPak et
ĠPok alsieger
ĠEigent um
Ġhochwert igen
Ġprefer red
ĠProduzent en
ĠFÃ¤h igkeit
Look ing
ĠSchÃ¤d el
quart ier
ifff ahrt
Denk mal
ĠÃ¼berrasch end
H g
m ode
r one
Â ¼
un er
Ġt ons
re p
ĠS iz
Ġb acter
Ġf liegen
Ġe gg
ĠA tem
ĠA dress
Ġan zeigen
Ġc arr
Ġh ill
Ã¶ konom
Ġal arm
Ġauf bew
Ġsch lagen
ial is
Ġch unk
ĠLe v
Ġsp in
ire ktor
auf ent
ail ing
Ġnur sing
heit lich
sh aber
ors es
ĠFl aschen
Ġseit ens
ĠPer fect
Ġequ ivalent
Ġpack aging
ibr aries
Ġtalk ed
ĠermÃ¶glich te
spro gramm
struktur en
Pl ugin
ĠBege gn
Ġvict ory
Ġscen es
grÃ¤ ber
ĠgewÃ¤hrle istet
beam ter
ĠLuftw affe
T en
s eiten
t to
Ġw is
Ġf iber
ro c
ĠP opp
ĠT ang
ĠW etz
Ġg ig
ul us
ĠN ou
iv o
Ġauf gest
ĠVer sch
iz it
Ġex it
ant ik
Ġ18 43
Ã¶r ten
Ġvor an
Ġsh ots
Re quired
to Array
Ġnoch mal
Ġ12 8
hand le
ific ial
Ġstr ip
Ġass ume
ĠMittel n
med ia
Ġeng age
Mar ie
Ġgemein nÃ¼tz
Ġatt acks
ĠHel en
Ġtro ck
Ġopp osite
ĠMc K
195 1
ĠWeiter bildung
ĠRob inson
Ġapply ing
ĠSho uld
Ġerweit ern
ĠFert igung
Ġqualifiz ierten
Ġscient ists
ĠmÃ¤nn lichen
ĠSchmer zen
ĠBalk on
Ġmort gage
ĠProt otyp
Ġnewsp aper
E ss
S ynchron
j oin
Ġw enden
Ġb unch
Ġm ad
Ġm erk
ĠT as
sch Ã¼ler
ĠW ille
ĠR iesen
we hren
Ġj ugend
ĠUn s
[...]
