#version: 0.2 - Trained by `huggingface/tokenizers`
e r
e n
Ġ Ġ
c h
i n
Ġ d
ĠĠ ĠĠ
i e
u n
s t
a n
e i
o n
e s
Ġ S
a l
s ch
t e
a r
e in
a u
g e
o r
un d
u r
Ã ¼
a t
Ġd er
i t
Ġ w
Ġ s
i ch
e l
Ã ¤
Ġ und
Ġ v
Ġ A
Ġ B
e t
Ġ b
a s
Ġd ie
un g
Ġ D
Ġ 1
Ġ i
Ġ M
Ġ in
e m
Ġ ein
Ġ (
a m
h r
ĠĠĠĠ ĠĠĠĠ
Ġ m
Ġ z
Ġ n
Ġ K
o l
Ġ F
d e
Ġ G
ĠĠ Ġ
t en
Ġ P
Ġ E
t er
Ġ au
Ġ f
l e
g en
i s
d er
i on
i sch
Ġ H
Ġ W
Ġ T
d en
i l
Ã ¶
Ġ L
Ġ R
t r
a ch
b er
â Ģ
u m
Ġ er
i g
Ġ I
o m
u s
u t
r e
Ġv on
an d
Ġ 2
Ġ V
Ġ1 9
c k
i er
Ġ h
r o
Ġ N
l ich
Ġ J
a b
s e
Ġd en
en t
Ã¼ r
i r
Ġ C
Ġ k
ei t
Ġ ge
Ċ ĠĠĠĠĠĠĠĠ
ĠĠĠĠ ĠĠĠ
Ġm it
Ġd es
in g
Ġi m
) ;
Ġ an
Ġ g
Ã Ł
Ġ al
Ġd as
r a
an n
Ġ2 0
u l
r ei
Ġ O
f t
i k
Ġau f
i st
Ġz u
a d
Ġ t
e st
ie l
Ġv er
s en
k t
Ġ Z
e b
Ġ U
ĠS ch
Ġ o
Ġ l
a hr
Ġi st
ĠS t
a g
Ġf Ã¼r
el l
Ċ ĠĠĠĠĠĠĠ
Ġ p
i c
ich t
f f
Ġw ur
e h
Ġd em
s p
isch en
Ġ =
h e
Ġ âĢ
Ġ {
v er
at ion
a h
w ei
o t
i en
ĠI n
Ġau s
ĠV er
e d
Ġal s
ĉ ĉ
Ġ st
i m
ĠD ie
Ġein e
Ġ Ċ
Ġs ich
e g
Ġ }
o s
o w
Ġ r
Ġ un
Ã¤ n
Ġwur de
er n
e u
m en
Ġb ei
r i
al l
e w
in d
ĠA n
b en
c e
er t
sch a
o ch
Ġw ar
p t
ei ch
Ġ c
) ,
s er
ĊĠĠĠĠĠĠĠĠ ĠĠĠ
g er
es ch
h n
a p
ĠJ ahr
o g
ĠE r
o p
Ġs ein
en d
ung en
ei l
Ã¼ n
Ã¼ ber
or t
u b
e hr
0 0
l in
e ut
u ch
u f
ge t
isch e
c t
Ġ20 1
Ġau ch
Ġw ir
et z
i v
r ie
a te
ar t
ur n
ĠS p
( )
Ġb e
es s
scha ft
Ġ Ã¼ber
Ġn ach
Ġ sch
st er
an g
Ã¤ t
l er
st en
l a
ur ch
m er
ung s
Ġ j
r an
i d
Ġ am
r u
ĠU n
l ie
eut sch
as s
ĠE in
o d
i gen
Ġb is
Ċ ĠĠĠ
Ġn icht
au s
n en
âĢ ľ
Ġ1 8
Ġs ie
ĠA r
Ġ20 0
i z
Ġz ur
l en
et urn
g t
er s
Ġ a
ĠS tr
Ġw er
âĢ ĵ
Ã¶ r
ĠA l
Ġz um
Â ł
ĠâĢ ŀ
1 9
Ġ 3
I n
u g
te l
p e
e x
Ġ um
ch en
Ġein er
q u
Ġwer den
e ch
ĠS ie
Ċ ĉĉ
Ġ es
Ġv or
Ġw ie
Ġh at
ĠP ro
i b
Ã¤ r
Ġun ter
D ie
z en
st ell
am e
Ġd urch
isch er
Ã¶ n
Ġs ind
i ge
ĠâĢ ĵ
Ġwir d
h al
Ġ "
Ġ ab
or d
Ã¼ ck
ge l
Ġo der
ier t
au f
ter n
ĠE n
Ġi f
en n
Ġi hr
or m
ĊĠĠĠĠĠĠĠĠ ĠĠĠĠĠĠĠĠ
u e
ol l
k s
Ġ ent
a ge
t s
Ġein em
h er
ul l
pt ion
te t
) .
ch e
l o
p r
ar b
Ġ tr
g r
st e
ge b
i f
lich en
a k
el t
eb en
ĠB er
Ġein en
ĠM it
ĊĠĠĠĠĠĠĠĠ ĠĠĠĠĠĠĠ
Ġ19 9
ei ter
Ġ /
Ġ Ã
p l
er k
Ġ re
h l
Ã¼ hr
j e
ĠD er
o k
u d
p ar
ur g
ub l
l and
n er
ĠA us
o de
u st
( );
E x
e f
i ck
il d
o b
ĠG r
at z
sp iel
i a
u p
Ċ ĉ
r it
S tr
us s
r au
ĠA b
ad t
n e
il l
an t
ah l
rei ch
h en
i al
ĠM a
lich e
Ġn ew
ĠO r
ar d
b e
o f
1 8
Ġdas s
Ġ -
om m
el n
in z
ul t
o hn
at ur
wei se
Ġs p
p f
ĠA uf
o v
2 0
ei ten
ĠC h
Ġn ull
a v
Ġr eturn
ce ption
a y
in al
S t
Ġ 4
ĠM ar
g es
u ÃŁ
ĠB e
ĠR e
it z
s s
al t
Ġ19 8
an z
a st
Ã¤ l
. .
ein e
ĠL and
i p
ab en
ĠN ach
Ã¤ hr
Ġt he
Ġz wei
Ġs o
at en
ĠD as
ĠV or
e y
Ġ/ /
et er
Ċ ĠĠĠĠ
Ġd eutsch
at h
r Ã¤
Ġ +
ubl ic
m al
l ass
Ex ception
on t
or en
b urg
ĠI m
te m
Ġ19 7
ĠH er
p er
am m
Ġ( *
in e
ver s
eit s
Ġo f
( "
rei s
t h
ro ÃŁ
o ur
ier te
Ġm ehr
o c
Ġ 5
i le
p h
ier en
Ġn och
Ġn ur
Ġs ow
Ġ e
Ġn eu
f ol
h t
en s
Ġb est
ĊĠĠĠĠ Ġ
ich te
a ck
kt ion
ĠF l
y pe
Str ing
ut z
Ġ 0
Ġwur den
ber g
ĠStr ing
om p
Ġan der
b au
Ġv om
b ar
at t
k en
ĠS e
l eich
C on
ach t
ab le
it Ã¤t
Ġ19 6
s h
ĠB r
in t
Ã ©
p en
b r
it ion
il m
ation al
b je
f l
etz t
a f
Ã¤ ch
n is
ĠD eutsch
Ġz w
ĠZ eit
ei m
Ġge w
ei ster
i an
z e
k eit
Ġl ie
N ame
W eb
ah n
ĠA m
ĠP l
n et
Ġa ber
z eit
Q u
om men
al ue
Ġd e
it er
par am
l em
r eturn
el le
el d
D er
s k
lin ks
z eich
Ġ1 7
ĠSt adt
l ei
Ġ et
der n
Ġdie s
d r
a z
Web links
a gen
d u
Ġb er
Ġm an
Ġw eiter
as e
et t
Ġsow ie
l ag
p ublic
Ã¼ t
l os
ig er
Ġ 9
ĠK on
ĠG em
m ann
E n
ĠR eg
f ten
i o
Ġp ro
Ġ19 4
iv e
d em
hr ow
m e
Ġk Ã¶n
Ġb es
i re
ĠT he
o ck
Ġk ann
a in
Ġ 6
Ġ19 5
ol it
ch t
sch en
as sen
ol og
on n
f Ã¼hr
f orm
Ġd ar
ĠD e
g esch
ĊĠĠĠĠĠĠĠĠĠĠĠĠĠĠĠĠ ĠĠĠ
1 7
ier ung
Ġ &
ol le
Ã¼ d
Ã¶ l
Ġ gen
g lie
ĠF ran
i te
ei te
am men
eh en
l ung
ct ion
m it
em ber
Ġ le
ik er
at er
R e
ff en
g lich
f ahr
spiel er
sch ie
Ġge gen
it y
ei gen
ar k
i vers
ĠSp iel
p ro
Ã¤n d
ĠJ o
E inz
h und
P ro
Ġ1 5
o st
or f
a c
t eil
ĠK l
s et
ĠG esch
et h
y m
ĠI S
r Ã¼
Ġ el
Ġein es
i um
ĠB ei
Ġwie der
l i
ach weise
Ġsein er
und en
A n
am en
Ġ19 3
eln achweise
Ġ ex
ĠGem ein
er v
ĠSch w
s b
Einz elnachweise
Ġ ich
eh men
Ġ= =
s el
1 0
Ġ1 6
ib t
b all
ĠG e
r es
ĠUn ter
or g
ÃŁ e
Ġh aben
hund ert
is sen
ÃŁ en
ru p
ann t
Ã¶ ff
an s
Ġsein e
T ype
Ġhat te
st an
ie der
ie le
im m
ĠB au
ik an
Ã¼n d
B N
a is
ge ben
ic e
ĠT h
Ġdie ser
1 5
in gen
at a
Ġg es
ĠIS BN
1 6
ĠJahr e
in n
f er
ĠM us
us ammen
b st
Ċ ĊĠĠĠĠĠĠĠ
f en
ĠE s
al e
ar l
Ġt h
u le
ab e
m ein
h eit
Ġf or
ell en
Ġ 7
sp r
ĠU m
ers on
bje ct
at or
n ah
ĠG es
Ġ 8
Ġbe f
ĠG eb
u te
ei st
ie s
is s
S ch
y st
1 2
I m
L ist
r en
w a
ĠJahr hundert
al s
ĠK ir
D as
Ġge h
et en
ĠkÃ¶n nen
- -
A l
Ġge t
1 3
og ra
o ol
k l
ur op
a il
Ġzw ischen
ĠU S
in der
ĠT eil
Ċĉĉ ĉ
A r
E r
ap p
iter atur
ĠÃ ľ
Ġj e
ie t
ĠJahr en
o ber
U n
y n
Ġs el
tr ag
f e
k te
ĠB l
Ġb eg
on g
Ġt o
ad d
ĠS o
p ut
Ġwar en
on der
ĠSt a
Ġt hrow
ĠH au
or e
1 4
ĠEn t
w ick
r at
Ġs oll
Ġ !
Ġr es
Ġs eit
h m
in ter
am er
) )
f all
Ġ Qu
ĠL e
yst em
" );
Ġk l
Ġj ed
Ġg roÃŁ
ge w
Ġb et
g l
e c
() .
I N
Ã¶ s
am il
Ġ Y
ĠBer lin
ĠW elt
en er
r ich
on d
Ġf ol
un t
Ġi s
Ġg r
lie ÃŁ
und es
ol d
R es
gen d
Ġ <
Ġzur Ã¼ck
k e
den t
z eu
al d
ĠI hr
l es
e an
at ch
ĠUn ivers
Ġ en
it t
l t
Ġdie se
w erk
ĠS te
Ġbe k
t o
m us
Ġd rei
Ġ1 0
ĠB o
w er
Ġer h
ar r
ĠAr b
o ff
ex t
" ,
Ã¤ ter
hal ten
Ã¤ d
f or
te x
ing s
V er
st ra
st r
qu est
y p
il der
a x
Ġdeutsch er
scha ften
ĠL ist
Ġbei m
eh t
o id
ĠÃľ ber
() )
ĠP h
in den
00 0
Ġer sten
m ent
I d
Ġd am
ĠĠĠĠĠĠĠĠ ĠĠĠĠĠĠĠĠ
am t
Ġh er
ĠW ir
st and
ei d
n ung
au t
iel t
al en
k er
Ġ1 2
ĠF ilm
b t
Ġd ann
um ent
ig t
Ġgeh Ã¶r
Ã¤ u
ig keit
Ġer st
t schaft
Ġin t
at s
rie g
an gen
ĠP r
ĠE x
e ck
la ge
E R
ĠO ber
Ġal le
Ġw enn
ation en
Ġ and
Ġw o
e k
ĠM en
Ã¶ glich
glie d
ĠC hr
fol g
z u
Ġg esch
Ġ! =
an der
Ġ1 3
Ġ1 4
l au
Ġ :
i ff
m in
eu te
stell t
.. .
ĠG er
Ã¤hr end
el s
or den
uÃŁ ball
ĠGemein de
w ar
ĠR o
Ġth is
an k
an ge
Ã¤ hl
ster reich
tex t
h aus
Ġun ser
ĠN eu
hn e
m eister
() );
v or
Ġ eigen
Ġg ibt
ent lich
ier ten
or n
im e
ri ft
as ser
ach e
w end
7 8
Ġk onn
Ġan ge
f Ã¼
und e
Ġihr e
Ġv iel
Ġf inal
Ġh ier
ĠJ an
iz e
G eb
z ial
ach en
Ġjed och
ĠZ u
un st
e am
ĠÃ ĸ
ri v
y s
ist or
b ild
m an
ĠL eben
f ig
ĠA ug
Ġ19 2
ĠA ut
âĢ Ļ
ĠB undes
C h
Ġ |
ra d
ĠH and
ĠE l
z w
Ġaus ge
rie b
m a
ist er
L iteratur
ein en
Ġel se
lich er
ĠP art
un i
our ce
as se
Ġ ch
z er
ig n
b o
st adt
Ċ Ċ
ist en
Ġd a
ĠA d
a kt
ĠP ar
Ġs ehr
O N
sch l
r om
z t
de x
Ġf Ã¼hr
Ġc on
ar ten
ĠF rau
ru ck
ĠP f
en tr
i tel
ab ei
ĠDeutsch land
Ġv oid
ind et
ĠOr t
Ġ *
ct or
au er
ĠJ ul
re u
ei g
Ġsp Ã¤ter
Ã¤l t
iel d
on e
o unt
Ġi hn
Ġw el
in a
ĠB es
er en
Ġet wa
s atz
er e
o u
( ),
ot t
au m
p ert
Ġin s
v ent
ĠB et
ĠM Ã¼n
ge mein
a der
ie d
at ic
Ċĉĉ ĉĉ
Geb oren
schie den
ĠF or
Ġ %
i de
ch er
s etz
ess ion
Ċ Ġ
hal b
p on
it h
ĠF amil
t on
i x
u ar
st ein
ĠF rie
Ġg leich
Ã¤ s
te d
V alue
ĠP erson
ur e
Ã¶n ig
t t
O r
Ġw as
al er
h a
o sten
ĠM in
Ġh in
ĠPl atz
ĠM Ã¤r
ĠAr t
h of
ra y
ation s
Ġsein en
ĠM on
ĠAug ust
stell ung
Ġsein em
g ang
Ġz usammen
ig ung
a de
e gen
ĠN ov
Ġg er
u ff
ĠM ann
k ehr
ĠN ord
P ar
ĠE urop
1 1
ĠW est
ur t
ĠG roÃŁ
ĠVer ein
p ort
w ir
m ar
ĠL u
gt h
s g
ol f
hal t
Ġ .
ĠB and
b l
am p
tern ehmen
Ġim mer
Ġdies em
ur z
ĠJ uni
ĠGr und
ĠEn de
Ġander en
Ġver l
ier e
M it
s on
ult ur
ol len
Ã¤n der
Ã¤n ger
kt ober
Ġber eits
Ġlie gt
eit ung
Ġb esch
issen schaft
/ /
c on
ĠP ol
) );
uch t
or k
in k
ĠM an
un kt
Ġ ar
ĠMa i
Ġ eh
ien st
tem ber
Ġsch on
Ġk eine
Ġun s
Ã¶ ÃŁ
Ġver b
C lass
p tember
al ien
ĠC on
2 00
M ann
olog ie
en de
ĠHau pt
ĠR ech
k reis
= =
ĠJul i
s o
Ġer ste
Ġd ort
ĠFran k
un ter
2 1
Ġge l
a den
5 0
b ach
ĊĠĠĠĠĠĠĠĠĠĠĠĠĠĠĠĠ ĠĠĠĠĠĠĠ
ĠO ktober
Ġa kt
ĠR ei
ĠS h
la gen
en k
Ã¤ uf
Ã¶ ch
N ach
Ġfol gen
le g
Ġsel bst
ĠT r
rup pe
Ã¤ m
amer ikan
ĠG ew
ĠP olit
ĠV ol
[ ]
Ã¶ff entlich
ĠJan uar
Ã¤n g
pr il
Ġihr er
ais on
ool ean
Ġge f
ĠK Ã¶nig
re g
Ġein z
ĠW ei
ĠMÃ¤r z
tern ational
ĠK unst
isch es
un k
Ġh eute
h ann
ĠSe ptember
de ut
ĠH och
ĠB ild
ion en
gr und
n ew
in nen
es sen
Ã¼n st
r icht
ĠĊ Ċ
ĠH o
Ġkonn te
Ġ19 0
ĠF rei
Ġt eil
k eiten
omp on
ie f
ĠG ra
ran z
ĠM ed
ĠVer b
Ã ¡
c ode
f inal
an den
f ach
u ten
ĠF Ã¼r
Ã¼r ger
ĠK inder
st Ã¤nd
Ã¤ h
Ġo b
Ġw en
ich er
I D
Ġl etz
b ahn
z ember
Ġein ge
re d
an is
pon se
Ġi hm
om mer
erv ice
el e
c c
ĠPro du
S ie
Ġv ier
en z
Ġst atic
Ġver schieden
ĠS Ã¼d
ĠI I
o ut
os ition
Ġb r
ĠA pril
Ġ eben
ĠNov ember
w alt
tr y
o hl
f o
ĠUnivers itÃ¤t
ĠSt ud
ĠH aus
Ġo hne
f ang
Ġk am
ĠN ational
Ã¼ s
Ġs on
ag er
o ten
ĠK r
Ġ )
mit tel
Ġdam it
le x
b uch
l ig
ĠB est
ĠW erk
ĠLand es
ck en
. )
f eld
lin e
h eim
re ch
ĠStr a
Ġ& &
A us
Ã¤ ft
z ie
h au
D eutsch
Ġneu e
el m
ing er
ĠChr ist
ogra ph
ĠF ahr
m Ã¤
app end
o gen
un ktion
ĠF ol
ess age
sch n
or ben
ĠDe zember
re ate
en den
em ent
ĠJ u
kt ur
Ġb el
fall s
r ik
ĠKir che
p p
zeich net
k on
Ġal ler
op h
ĠK omm
s w
r or
ach sen
ĠMus ik
r y
f te
Ġ3 0
us e
ĠB eg
eb ru
er b
ebru ar
ĠO l
al is
ĠW eb
v al
ĠJo hann
ĠSp r
Ã¶ st
Ġsp iel
z ahl
ĠMen schen
ĠDie se
Ġer folg
al ter
es en
ĠU r
A T
stell er
as h
Ġer sch
ell schaft
ie b
Ġst att
Ġb en
Ġw Ã¤hrend
ĊĠĠĠĠĠĠĠĠĠĠĠĠĠĠĠĠ ĠĠĠĠĠĠĠĠ
c o
3 0
Ġ18 9
rÃ¤ s
ĠVer s
Ġal l
al se
em al
ĠList e
g leich
h in
te te
č ĊĠĠĠĠĠĠĠ
ĠF r
m s
Ġgr Ã¶ÃŁ
O bject
a ar
E N
Ġbei den
ĠD urch
Ġp ar
ĠW asser
w ohn
K ey
z ug
ĠN ew
ern se
a ce
ĠD ar
ĠT ra
ĠS aison
ĠF ebruar
ĠB uch
Ġ201 5
ĠV on
Ġ201 0
ĠĊ ĠĊ
Ã¤ch st
Ġ Â
ro up
ĠGesch ichte
ĠZ wei
ei le
os s
st it
is h
s icht
ĠâĢ ł
M ap
Ġg anz
ĠW ert
ranz Ã¶s
ĠW il
sh all
Ġ201 8
ar i
t ag
Ã¤ hn
A m
Ġneu en
eth od
u ilder
E in
fÃ¼hr t
ber t
Ġv alue
ĠR eich
mal s
ĠEin e
eh mer
ĠF re
k ommen
ĠAl s
Ġ X
ĠD aten
ech n
Ġ201 1
ĠZ w
Ġer n
âĢľ ,
g abe
a w
Ġ( âĢ
ĠMit glied
ri ff
ĠIn ter
lo ck
Ġge b
âĢľ .
stan ce
los s
h ol
at iv
ym p
ire kt
Ġd abei
ĠMit tel
Ã¼ l
T o
Ġf est
Ġihr en
n ame
sch e
ĠUn ternehmen
de te
A t
ĠH am
l auf
Ġ200 8
ĠF uÃŁball
Ġ200 9
ĠIn d
ĠSch wei
Ġd u
lem ent
ogra f
ĠW ien
ĠG l
Ġ201 6
o der
it zen
Ġz un
b ew
Ġ201 7
ĠSch l
ĠE m
Ġk on
sch utz
as k
ĠA t
-- --
Ġ it
ĠÃ Ħ
Ġm us
Ġk omm
Ġge st
ĠAr ch
ĠF orm
e um
i der
eh n
li ent
am es
Ġ9 78
Ġst eht
ĠT ag
es se
Ġ201 2
ann te
ĠMÃ¼n chen
Ġres ult
e p
Ġdies es
Ġ ro
Ġ on
Ġ ur
Ġg ab
ĠN ieder
Ġ arb
ĠC o
Ã¤n de
Ġver s
nah me
ĠSch ul
az u
G esch
Re quest
Ġthrow s
ur r
r on
Ġn ot
Ġf rÃ¼
ar ch
ĠN amen
Ġ201 3
Ġ2 5
Ġ u
S p
Ġ201 4
sch ule
Ġh abe
ver b
d orf
Ġ200 7
D ata
ĠVer lag
zeu g
ĠR om
wick lung
st ru
lin k
Ġl ang
i us
Ġdes sen
ĠS k
ĠH al
ff iz
Ġ '
8 0
ol um
rei chen
sch lieÃŁ
F ile
z ent
ĠPro f
Ġb ew
c ri
S et
ĠG ener
tr Ã¤
ech sel
s ol
ĠL ei
est er
Ġ >
stra ÃŁe
re cht
Ġw ei
4 0
nis se
o ub
len gth
z ir
dr ich
h and
il it
ĠR Ã¼ck
ĠSch au
ar n
ĠH Ã¶
ie w
Ġ qu
Ã¼nd et
p s
ie g
gr amm
ĠS er
Ġb zw
p el
R E
Ġ1 1
ech s
de ck
Ġweiter e
u er
Ã¤hl t
le gen
ge h
e v
rup pen
fahr en
M ar
al if
ĠM al
l an
uf en
Ġtr ue
2 5
Ã¤t z
Ġ200 6
č Ċĉ
Ġs ei
Ġf Ã¼n
ig te
ri de
19 9
6 0
ĠE d
7 0
Ġbes onder
an st
sp ort
ÃŁ er
Ġal lem
o te
O ver
Ã Ń
p unkt
ubl ik
Ġer reich
Ġerh ielt
Ġs Ã¼d
th is
ĠW ohn
Ġf inden
los sen
v an
Ġ or
L eben
oub le
y te
ĠPerson en
ten t
Ġst ell
h ein
i ent
schl uss
is k
Ġn ah
l s
N ode
ach te
Ġder en
ĠPh il
rie ben
ĠA uch
riv ate
er st
in en
Ã¤u de
Ã¶ t
ut ion
t es
schie d
S T
i dent
ĠD u
Ġf ranzÃ¶s
Ġc atch
i ft
ĠK n
Ġh and
f ra
is mus
ra ft
e qu
2 2
Ġp ublic
ig es
ar e
geb iet
Ã¼ b
ei gt
ĠB ahn
Ġg ut
Ġdeutsch en
tr ib
sch ul
ge stellt
je kt
st Ã¼t
k ir
Ã¼ ss
Ġb ie
Ġ200 5
e kt
Ġh o
ein er
w ert
isch of
4 5
al ten
w ahl
ĠZ usammen
ĠN atur
f ern
h ard
ĠP er
Ġson dern
ĠL ehr
ĠT itel
ĠH ol
Ġeh emal
ĠS al
ĠP au
y l
Par am
P ath
Gesch ichte
ow n
ĠArb eit
ĠB ew
ĠD es
Ġm uss
ĠK rieg
ĠK arl
ĠFrau en
im mer
z iel
ĊĠĠĠĠĠĠĠĠ Ġ
Over ride
at us
ĠD r
Ġander e
Ġbef indet
k ten
Ġdeutsch e
Ġ20 00
ei tet
Ã¶ m
eu er
en nen
w est
ĠH ein
Ġ200 4
Ġn un
w as
o ge
stell en
glie der
Ġbek annt
A L
ĠDie s
ĠSp ort
am pf
Ġv iele
ĠL in
Ġf alse
k rieg
ch n
re chen
G est
ĠD an
ĠAn t
ĠW er
ĠReg ion
ĠB ay
at ive
ĠR es
ĠFrie drich
Ã¤n ge
ab el
A b
c om
Ġge mein
Ġtr y
Ġden en
j ahr
em en
in er
ĠS ystem
um en
Ġ at
ar y
ĠBer eich
c l
Ġ2 4
Ã¶l ker
a i
ĠM ich
ĠSt and
ĠI l
Ġw icht
w eg
ĠI s
ĠEin wohn
ĠPolit iker
mÃ¤ ÃŁ
8 9
ĠM eister
ar m
ĠFl ug
ĠF ra
as st
le gt
ĠS eite
ad em
w e
ĠS ohn
Ġp er
s am
ĠM ot
ur m
Ġr und
tr agen
ĠFamil ie
h elm
uff er
Ġ201 9
A R
Ã¶ sterreich
h Ã¤lt
ĠGe gen
ĠG ef
ĠM od
t il
ig ten
ernse h
ĠBer g
i ver
Gest orben
a ff
ĠM ill
fig ur
Ġer w
T ra
ĠS tel
Ġ em
2 3
w ig
ĠB Ã¼
ei den
sch rift
Ġb oolean
Ġakt u
c es
ĠWeb s
on s
Ġdie sen
eite te
ur s
in s
au lt
ĠS a
g or
Ã¤ re
. ,
f r
ĠR ad
g te
er y
ĠK reis
Ġw orden
zen tr
ĠB ar
Ġzun Ã¤chst
em a
pert y
ĠS c
d ings
et te
n ehmer
Ġ ,
ran k
j Ã¤hr
ĠDeutsch en
ah len
ich ten
pl atz
ĠK ap
Ġm Ã¶glich
ĠIn form
reu z
Ġeben falls
ges etzt
hn en
kl Ã¤r
ĠE is
Â Ń
o se
ĠA uÃŁ
M an
Ã¶r der
ain er
Ã¼nst ler
ut t
den k
b lem
ĠF est
ic a
ĠS ommer
amerikan ischer
ĠJu gend
ĠP at
Ã¼ h
O R
f ilm
Ġbeg ann
Ġje wei
2 4
ĠLeben s
urr ent
ĠAl b
ĠL ie
Ġ [
Ġsoll te
is e
ess or
ĠO n
ĠH e
Ġsch n
tr eten
ĠM o
Ã¼ck e
ĊĠĠĠĠĠĠĠĠĠĠĠĠĠĠĠĠ ĠĠĠĠĠĠĠĠĠĠĠĠĠĠĠĠ
ĠfÃ¼n f
ĠB en
Str eam
ĠK ar
Ġ| |
ov e
er g
hr e
och en
ĠB as
rei b
ri d
ĠN ame
Ġletz ten
ĠFran z
ut ter
ĠW ahl
on nen
B uilder
ath ol
w ort
Ġ end
M od
ion s
g aben
c lass
8 5
Ġc ase
ser v
Ġ200 3
ĠW eiter
Ġb eh
ĠC ar
ĠSch rift
Ġh ei
enn t
Ġver w
D R
Ċ ĊĠĠĠĠĠĠĠĠĠĠĠ
ann ten
in o
Ã ³
gl isch
G e
fol ge
um s
8 6
Ġ te
A d
am ent
us er
a e
k m
Ġ x
bje kt
g ument
ĠG en
Ġein ige
Ġ1 00
ĠA k
ĠAn d
ran s
ĠIhr e
al itÃ¤t
Ġwel che
ĠM et
Ġau ÃŁer
< /
Ġer halten
ach ten
ech t
d ruck
Ġet was
ĠB Ã¼rger
ĠD i
7 5
E lement
k a
ĠK o
Ġge gr
Ġsch w
bild ung
ri te
Ġs et
ck e
ĠG el
Ġd azu
A uf
ĠÃĸ sterreich
gen ommen
Ġdar auf
ĠM ag
Ġander em
alt ung
rau m
ctor y
Ġent wick
hr en
ĠS an
ig ht
v e
r sg
Ġ2 3
ĠT od
F orm
st re
Ġf rei
ĠHer z
up er
ĠLand kreis
7 6
Ġein fach
Ã¤ che
ĠK ultur
+ +
Ġin ter
ĠHer r
sch w
M essage
op f
ĠF ach
k auf
H and
st off
b ei
f urt
ĠO st
ĠPro v
ĠB el
Ġ2 1
ell er
o und
A N
ĠKir chen
st ag
Ġgew ann
n a
Ġ199 0
Ġge ht
ĠH ier
in de
il ter
F ield
ap an
Res ponse
ĠL a
iv en
Ġge m
P D
Ġk ein
ĠB ern
ĠO bject
Ġ200 2
u es
Ġs pe
ĠH il
3 3
Ġver Ã¶ffentlich
Ġ2 6
ĠgroÃŁ en
ut h
Ġ2 2
ĠN e
om b
Ġkomm t
eth ode
z el
ĠT er
ĠAl l
In dex
at es
se e
ĠO b
Ġ18 6
sp iele
č Ċ
F uÃŁball
ĠS eit
Ġz ahl
Con text
9 0
W ir
Ġm ir
able d
ĠS itz
Ġ200 1
stit ut
ĠR u
ĠgroÃŁ e
y r
B ei
ĠSchau spieler
S S
ĠF ot
ĠE ur
rei che
Ġn eben
Ġ â
Ġre g
St ate
che ck
2 6
ra g
Ġin ner
ur en
et s
ĠC l
ĠD em
ĠH ans
zie h
ot he
imm t
Ġl assen
la y
w w
Ġab ge
U til
ĠH eim
ĠIn tern
un ft
l ang
sch er
eich t
sch ein
ĠD orf
ĠVol ks
7 9
ĠW ie
ĠGr Ã¼n
h o
it ter
arb eit
ĠgehÃ¶r t
uch en
ber eich
Ã¤ ten
ĠT eam
ĠJahr es
et ter
Ġver wend
Ã¼s sen
8 4
S ervice
d ate
ĠPart ei
Ċ ĊĠĠĠ
7 4
d ienst
Ġw ill
ĠSch n
b et
z ig
ck er
I T
č ĊĠĠĠĠĠĠĠĠĠĠĠ
ur ger
nah men
h eits
Ã¶r per
st a
ĠB esch
ĠWil helm
B y
In fo
Ġg ing
T ime
min ister
av a
L E
Ġihr em
Ġver m
o ver
ind ung
Ġ199 9
ĠFol ge
ĠB i
ing t
in anz
ge ord
lo se
ip p
3 5
w elt
ĠSta aten
p rivate
o int
g n
z ogen
ĠI ch
Ġh och
Ġnah m
U R
Sie he
Ġm ich
it te
2 9
ĠM e
ik a
equ als
I I
ĠJ ohn
olum n
ĠOl ymp
Ã¤ ss
bau t
fÃ¼hr ung
D E
rit er
Ġ(âĢ ł
Ġspiel te
ges amt
p or
Ġhat ten
Ġn e
Ġw Ã¼r
i den
ĠA u
Ġd och
Ġal len
Ġst ud
Ġbe zeichnet
Ġk ommen
o x
Ġp olit
8 8
sch au
y ch
Ġd ef
ĠFamil ien
arr iere
for der
ro w
nah m
um mer
ĠAn fang
gesch ichte
l ist
ĠK Ã¶l
icht ung
ĠS eiten
ver ein
ĠT echn
ĠS el
Ġent sp
Ġzwei ten
le hr
a el
ar a
ĠR ah
ĠB urg
Ċ Ċĉ
ien en
M E
f ert
ilit Ã¤r
k r
et ten
ĠP rÃ¤s
wir tschaft
ĠP eter
ĠW ar
Ġv oll
Ġ2 8
ĠSta ats
3 9
an ten
is ion
ĠD a
ig keiten
ĊĠĠĠĠĠĠĠĠĠĠĠĠĠĠĠĠĠĠĠĠĠĠĠĠ ĠĠĠ
c ord
ri ften
3 4
H rsg
ĠJo se
an ce
Ġmehr ere
d ie
ne te
Ġher aus
R eg
h af
l y
rit ten
u k
Ġ5 0
om in
j a
Ġbest eht
En abled
Ġm achen
setz ung
O f
teil ung
ers Ã¶n
il le
ffiz iel
ic t
Ġ2 7
Ġals o
ĠMar k
ĠHam burg
es onder
Ġw egen
re ak
om it
il om
Ġm al
en der
ĠArb eits
l ow
E s
č Ċĉĉ
O Exception
ĠM or
. âĢľ
Ar ray
h ei
Ġo bject
uch e
Ġ199 8
ĠT or
ĠI t
ĠT ext
Ġin d
utz t
all s
ater ial
re uÃŁ
ĠOr g
ust r
sch eid
Ġc a
Ġ20 20
En try
ĠH istor
ĠM art
Ġauf ge
fÃ¼ g
ĠHein rich
Ã¤t ze
all en
Ġre ch
schn itt
ic s
ograph ie
U S
ĠPar is
ĠZ entr
ĠEr n
ro t
Ġst ehen
r em
l ungen
or s
T he
ĠEin satz
el te
t hrow
ar get
Ġver st
ĠG u
.) :
ĠSch iff
ĊĠĠĠĠĠĠĠĠ ĠĠĠĠ
Ġin ternational
ic al
n ungen
ĠK Ã¼
ier ungs
3 6
e e
ĠUnivers ity
ĠG o
ĠEinwohn er
an zen
Ġ ?
at ten
ĠY ork
2 8
ĠRech ts
is se
ĠL auf
ĠBet rieb
ĠG ott
iss ion
ic ation
ĠMann schaft
sch ung
Ġk urz
Ġerst mals
F a
ie sen
k ey
4 9
ĠR aum
ĠF ir
ok en
h Ã¤ng
ern e
Ġd ah
ĠW ill
ĠR ef
ĠEr z
v alue
g angen
Ġ y
c ted
uch s
ograf ie
p ublik
Ġs ol
ĠRah men
am b
le ben
il t
Ġh eut
icht s
ĠU hr
ei sten
4 8
ĠD re
Deutsch er
pr Ã¤s
ĠS il
och ter
G roup
i as
IN G
Ġ18 5
Ġb rit
ar s
Ġn ame
Ġm ax
ĠK ais
Ġverwend et
Ġst ark
h eiten
ate gor
Ġsein es
lie b
rÃ¤ ger
Ġh istor
Ġh inter
Ġ( !
av on
ĠWelt krieg
ĠVer walt
ik el
ĠW eg
Ġ2 9
ĠMa x
rit t
ĠB ru
ĠWir tschaft
i qu
ĠIn ternational
ĠAl ter
ĠA p
ĠP reis
la st
ig it
Ġl og
g ar
ĠH eil
Ġaller dings
ĠJahrhundert s
ĠGra f
Ġverschieden en
lich t
ĠgehÃ¶r te
ĠW olf
7 7
ĠZ iel
3 2
w and
ĠSpiel er
c a
eg t
ĠEurop a
Ġden n
au r
m l
Ġ198 0
Ġ199 7
ĠGener al
oc ol
Ġ Ã¶sterreich
Ġum f
sk i
D ef
Ã ĸ
un kte
ĠB ad
* *
ĠGe org
ĠPau l
n ot
Ġs etz
um ber
ĠF unktion
ĠN eben
ein ander
ock ey
w ard
{ @
ĠW or
ĠL eist
Ġ197 0
ich ter
k o
== ==
Ġo ft
Ġw e
ĠM eter
Ġw eil
A C
ak e
ĠA mer
ĠH a
an ad
esonder e
ĠK at
v en
spr Ã¼n
B er
u ck
lich es
Ġ199 6
zeich nung
ĠWebs ite
am mer
s weise
stan den
au en
ich tet
Ġtr at
ge f
Ġ194 5
ĠK ont
ol e
kir che
P erson
arb eiter
ĠEnt wicklung
ser ie
om as
19 6
m b
ĠW inter
Ġre quest
t ocol
ra un
Mit glied
Ġf and
Ġ199 2
um e
ĠBei spiel
Ġ199 4
ĠE igen
Ã¤m pf
ĠB eh
b ack
an e
ĠT re
ĠG ruppe
4 6
ten s
ge ber
Ã¶r d
> >
ĠA s
ĠLu ft
d es
ob il
ik ation
ond on
Ġeigen en
ĠC omp
ĠAl t
zir k
ĠS Ã¼
om pl
at Ã¼r
Ġw est
ik t
D es
7 3
ĠK ur
ĠA kt
Res ource
tr a
p art
ol oge
f Ã¤l
uch te
âĢ ¦
Ã¤t ig
tt p
u ft
ĠSch m
ĠT em
lo ster
F ilm
an a
s ize
v Ã¶lker
pr ession
lehr er
Al s
ĠW ald
Ġc reate
b el
z ung
or y
Ġbe de
trib ute
Ġ199 5
af Ã¼r
ĠEur o
sb esondere
7 1
ĠKl ein
ilom eter
l og
ĠLei p
Ġn ie
ĠArch ite
us Ã¤tz
Ġs echs
te ger
Ġgen annt
amm lung
f rie
ĠUn d
ĠL ud
Ġf indet
F or
et r
ĠMit te
Ã¼ck en
ik en
Ġsch lieÃŁ
van gel
ĠD ort
ĠB ed
h il
s ych
k au
ĠZ ug
Ġm Ã¼ssen
I ON
lei st
S E
Ġst and
Ġw eit
ĠT ochter
Ġweiter en
c y
u ter
o ok
st elle
7 2
ĠE le
ĠHÃ¶ he
ĠGes ellschaft
Ġ @
Ġin stance
Ġein mal
ĠD at
rei se
ie gel
Ã ¨
Un ivers
Ġk ey
9 9
a ÃŁ
s eite
ĠB ischof
ĠP ort
ĠM Ã¤n
am s
ĠA ss
am a
urn al
ompon ent
hau sen
ĠP ap
ig a
ut put
je ct
l ing
ĠEr st
ĠD ienst
w ie
schlieÃŁ end
f el
G ibt
w issenschaft
ĠV ater
v ol
ĠEn g
Ã¼nd ung
Ġsch wer
olle ction
ob ei
eh m
S h
ĠI hnen
ĠfÃ¼hr te
Ġ4 0
E m
ne ction
om e
pt y
ĠG eh
19 0
sp ro
Ġ199 3
du z
ist ischen
Ã¤s st
ei er
ib li
ĠfÃ¼hr t
Ġ Ã¤l
ĠD abei
En t
ĠGeb Ã¤ude
es ser
ĠUS A
Ġj etzt
ĠH of
5 5
gen den
o ot
Ġg ilt
ĠStra ÃŁe
iz in
Ġf ast
Ã¤t te
ĠRe gel
N ot
ĠProv inz
om at
Ġ198 9
ĠT our
Ġd avon
ĠP al
ĠSta at
ul d
g art
Ġjewei ls
ĠS icher
ĠS ol
S er
8 3
w Ã¼r
anis ation
Ġbesonder s
ĠMich ael
i at
Ġd irekt
ĠF eld
wei ter
Ġt ype
Ã¼ gel
ĠR hein
ass ung
ĠMus eum
Ġstud ierte
4 4
ĠL ondon
age ment
ĠPl an
wei s
ĠVer tr
it ten
un n
ĠF rÃ¼
Ġl ange
to String
ĠKÃ¶l n
ĠPro zent
ar te
ĠHol z
g s
al k
in es
ĠF er
Ġf rom
] ;
L oc
C lient
ief ert
cc ess
ap pen
Ġfolgen den
Ġ199 1
au ch
d s
Ġb lei
ĠSchwei zer
Ġw ith
Ġunter schied
ĠSchrift steller
Form at
pr Ã¤
lig a
leg al
trÃ¤ ge
J ahr
auf en
h Ã¶
m Ã¶glich
ge st
ĠM ath
ĠSte in
ĠCh ar
figur ation
al b
it u
Ġbie tet
ĠO bjekt
Ġmus ste
Ġal les
8 2
ĠA lex
I C
reib ung
stan ts
Ġ add
st eil
im ent
Ġ196 0
ĠPro jekt
ĠGesch Ã¤ft
ĠPro blem
W ith
m ed
s itzen
ĠN utz
t lich
ĠK Ã¼nstler
Ġgegr Ã¼ndet
Ġkl ein
g lichen
ĠBer uf
n ehmen
Ġ( (
Ġl ist
Ġab sol
Ġw obei
ĠM Ã¶glich
ĠEr geb
zeit ig
Ġs ehen
ĠD en
Ġw echsel
la v
ĠEin zel
ok rat
av e
ĠN r
l Ã¤nd
C ode
ĠSt utt
Ġje der
ĠG ast
gemein de
el ig
Ġn Ã¤ch
ĠD o
S ize
ĠFrank reich
ge geben
ig h
im men
Ġan geb
A s
Ġarb eitete
Ġ Ã¶ff
Ġviel en
Ġinner halb
ĠK ompon
wend ung
E D
att ung
8 7
Ġunser e
ĠEis en
l ungs
sch t
ĠM at
ch es
Ġn ieder
ro s
Ã¤r en
ĠReg ierung
Ġl a
ĠGeb iet
ĠSo zial
Ar gument
S e
ĠKomm un
omm and
5 9
ĠSch loss
ĠMar kt
V ers
ĠR est
Al l
Ġd an
ĠStra ÃŁen
Ġauf grund
ĠH ar
V al
et ers
t ler
3 1
Ġk m
om en
b urger
Ġ198 8
L iefert
a ffen
ĠFrank furt
Ġ20 21
en glisch
ĠR ot
ĠH ann
Ġt Ã¤tig
O G
ig inal
ĠZwei ten
her r
' s
Ã¼ ler
Ġm ein
Ġm eisten
ĠF C
st ieg
ĠS eine
ĠKais er
ĠThe ater
le ch
ĠD on
shall er
a j
ĠL iteratur
Ġle ben
Man ager
v el
Ġf ile
ett bew
Ġl in
Ġkl eine
ran ken
sch lag
ĠkÃ¶n n
ĠMill ionen
a he
ĠW Ã¤hrend
Ġw h
ĠF arb
ĠPf arr
Ġ18 0
ĠA f
ĠT age
richt ung
ĠE t
ĠI OException
eh l
ĠF all
ĠB ef
Ġ _
en gth
Ġ ...
Ġf l
) :
z Ã¼
or ge
Ġunter stÃ¼t
Ġ3 1
ĠLud wig
ĠBe vÃ¶lker
ĠSchw ar
b y
ĠP ark
fahr t
an c
ĠPro gramm
l et
pert ies
E igen
ek tr
lich keit
Ġm Ã¶ch
m od
ĠLeip zig
Ġv al
Ġsich er
Ã¤uf ig
č ĊĠĠĠ
Ġz eigt
op pel
gen de
il den
ze pt
Ġm eist
ĠFuÃŁball spieler
Ġschn ell
Ġd eut
ober t
Ġins gesamt
ĠB is
ir st
sten s
u ster
Ġer rich
in ner
ĠN ot
Ġgr Ã¼n
---- ----
ĠS ein
ĠW e
4 3
S c
ĠT yp
ib le
Pro perty
ĠfrÃ¼ her
R O
S C
ĠTh omas
ĠAut or
H e
os it
Ġkonn ten
Mar shaller
den s
adem ie
ĠReg ie
Ġn Ã¶rd
ĠG old
Ġit alien
z immer
g ruppe
ĠO per
l d
5 6
FuÃŁball spieler
F Ã¼r
u h
L og
ĠS en
ĠStr eck
Ġerfolg te
a ir
j et
Ġs og
Con fig
ĠAm t
2 7
cri pt
ĠH en
s burg
gen t
sch iff
iz ei
Ã ľ
ĠZ ahl
ĠZ eich
rei ben
Ġp ol
b ed
ĠD am
Ġent fern
te st
ĠK ant
ĠProdu ktion
R ef
ust rie
Res ult
ĠInform ationen
ĠSch utz
Ġges am
rau ch
ak ter
ĠIn stitut
ar ben
Ã¤n dern
ĠschlieÃŁ lich
8 1
o den
im al
Ã¶r t
ĠN orden
ate d
ĠW ieder
Ġ ad
Ġunser er
n ull
w Ã¤r
pro du
Ġ #
ĠI de
Ġgegen Ã¼ber
Å ¡
le y
h anden
Ġd afÃ¼r
Ġk osten
c ess
tocol Marshaller
ber ger
ĠT el
ĠR olle
ver kehr
ĠC he
ĠO s
op er
ÃŁ t
arb eiten
ĠHeim at
ĠW al
ack age
N ull
r im
ver t
Ã¼ hl
ĠW ochen
urn ier
T ext
ĠM utter
ĠO t
Ġex ist
ĠIn s
itz er
Ã¶s ung
ĠK ind
ĠW ein
Ġverschieden e
Ġd o
" )
ĠC ount
ges etz
Ġkl einen
ĠStutt gart
al y
ĠE p
b est
Ġk ur
mb H
a ktion
gr ess
verb and
ĠW enn
ĠVer trag
ĠDeutsch e
Ġur sprÃ¼n
es e
ĠM ehr
Ġo ffen
M ethod
Ġb reak
ĠOr ts
ĠAnd re
ĠEn erg
ĠU l
mann schaft
ag es
Ġbis her
Ġin sbesondere
lie ÃŁen
ĠE he
Ġn ord
Univers itÃ¤t
ĠR en
Ġn atÃ¼r
- ,
A P
Ġwechsel te
k ung
Ġso zial
ĠOlymp ischen
I tem
ĠDie ser
ibli othe
ge gen
lin gen
ĠV ier
ĠAr ray
ist r
w ay
ĠD DR
Ġl Ã¤sst
ide o
b te
ĠAn g
ĠMar ia
Ġgeb oren
L ine
ĠC or
it Ã¤ten
Ã¼r k
< ?
f ter
Ġk n
ĠC ol
4 2
re ad
Ġgel ang
ik e
ĠChrist ian
k unft
em at
Ġeinz el
deut ung
ĠVer kehr
ĠAuÃŁ er
w agen
Ã¶st lich
ĠSt art
Or t
v oll
ĠD av
Ġo ber
Ġst r
ĠBeg inn
f re
ĠM il
Ġwen ig
ord nung
os oph
ĠM ont
Ġwo hl
I ch
Ġs e
ok ument
spr ach
ri x
B au
Ġhin aus
ĠIn nen
pl an
ĠG est
Ġerreich te
Ġb lieb
os sen
h as
St and
i am
ĠR uss
sch ech
ĠK loster
E ine
Ġd ouble
Ġ198 7
ĠK in
Ã¼ ter
ĠD enk
ĠSchwei z
war e
ym b
Ã¶ ÃŁe
Ġal ten
ĠB ilder
Ġb y
ĠM aler
und er
fl uss
k tr
m m
tr itt
s l
ĠBo den
ĠRom an
Ġgew Ã¤hlt
3 8
ĠJ e
Ġp l
ĠH inter
eu ch
stell ungen
In ter
O ption
p ol
Ġsow ohl
a ct
Ġb in
lo b
Ġ Ã¼b
ĠM ap
ĠM ethode
ĠK ilometer
y d
ĠH in
ĠF Ã¼hr
ĠMart in
ĠA ben
eil nehmer
Ã¤uf er
anst alt
ĠR ed
Ġb ed
s ystem
Ġge geben
Ġz usÃ¤tz
Ġ198 4
o z
au pt
ĠT est
ĠK reuz
ĠSel bst
Ġh erv
Ġwicht ig
Ġs pr
ĠT ab
ĠSt Ã¤d
Ġ197 2
am ens
ĠGr en
h len
an de
ot s
Ġ up
ĠG ut
Ġz eit
iz ed
In stance
Ġvor handen
f an
ent lichen
3 7
V or
s uch
s etzt
ern en
Ġm oder
ĠC lass
Ġ( )
Ġsch Ã¶n
4 7
Ġd i
ge hen
ĠPrÃ¤s ident
lo ad
b es
at te
Ġbest en
az z
Ġ{ @
ag t
Ġr icht
hre ad
ĠIn sel
Ġern eut
en ce
L and
Ã¤ ischen
ing le
ĠIl legal
yn ch
f s
Ġw ahr
ĠT ro
Ã¤ chen
ĠP ass
ĠW ind
h am
en e
ĠR ichtung
Ġ195 0
Ġ198 5
ern er
Ġer klÃ¤r
kt or
Ġ Ã¤
Ġihn en
A G
ĠG mbH
c reate
ĠF ile
ĠF ernseh
ff set
Ġz ehn
V on
Ġ198 6
schul lehrer
Ġgemein sam
9 5
ĠC omm
ĠG ed
ain s
Ġmit tel
an ien
Ġf re
Ġf ort
atur e
Util s
f est
on en
Ġ as
ant wort
t her
ĠN Ã¤
ĠVer l
hau pt
ĠIt alien
o ben
E vent
o y
val id
Ġm od
ĠP ra
O n
is iert
ĠH el
ĠOn line
w ehr
ĠZw ischen
s ub
pr int
in ation
Er ror
ĠSÃ¼ den
olit ik
ic an
4 1
Ġf r
ĠÃ¼ber nahm
fÃ¼ l
ĠP osition
ĠZ ur
issen schaften
ist ische
Ġf orm
ĠM os
Ġzwei te
ĠS im
it s
m et
ium s
Ġdah er
fÃ¼hr er
Ġzw ar
dr ess
Ġent stand
ĠF ort
um m
Ver ein
ĠMa in
Ġem pf
ĠT ri
ĠHal b
ĠProf essor
ger icht
ĠS am
Ġges p
te gr
is p
ĠJ ur
Ġw oll
S eit
ab hÃ¤ng
ĠL es
in dex
Ġen gl
a sch
Ġm ar
ont ainer
fol gt
Ġh Ã¶ch
net en
A S
Ã¤ch lich
ĠS ex
sen d
w eit
eg ung
Ã¼t z
Ġsog ar
u ild
ĠIntern et
ger ufen
Ġbes ser
ri gen
art s
zeich nungen
ĠBay ern
k n
geb aut
ha ft
n ach
ĠSch ule
Ġ6 0
ĠS achsen
M et
Fa ctory
zeich en
S ystem
ĠA ir
de b
6 6
ĠMit glieder
bar en
++ )
od y
ue ck
l igen
er r
Ġs ollen
ĠK unden
ĠG eld
fl Ã¤che
ĠD ruck
or gen
Ġm acht
stÃ¤nd ig
Eigen schaft
Ġ Ã¤hn
Ġn ational
ĠAn geb
se hen
Ġge legen
ĠÂ »
Ġ198 3
ĠMin ister
f Ã¼r
ĠEr folg
ĠP ost
ĠK omp
if iz
Ġ197 9
ĠwÃ¼r de
z ess
ail le
ĠBe deutung
z z
Ã¤ user
ym n
ar en
w ohl
ĠW Ã¼r
ĠGes amt
ĠZ um
al tet
ĠAlb um
Ġj a
Ġinstance of
and id
ĠTh ema
Ġwen iger
ĠL ang
Ġbei spiel
inz u
g Ã¤n
ĠCount y
N A
g ra
be k
Param eter
ĠMit arbeiter
r ist
al le
ĠEn d
Ã¤h len
Ã¤n den
sch eiden
an ken
Ġ197 8
bar e
her e
ut zen
Ġerrich tet
K l
ĠSch Ã¼ler
Ġerfolg reich
in i
Ġbest ehen
ĠN o
Ġnicht s
Ġ197 4
lau b
F ernseh
y le
ĠR obert
G r
w or
k an
m ark
Ġdeut lich
al z
ĠH ei
b Ã¼
Ġ Q
W elt
Ġn ahe
Ġehemal igen
Ġd ata
Ġ196 8
ĠO sten
ĠK urz
m Ã¶
Ġst amm
ĠK or
gesch lossen
b eh
Ġgen au
F A
ĠVerwalt ungs
6 5
all y
la den
Ġ198 2
Ġbest imm
un ge
ish ockey
ĠR ich
Ġl ong
meister schaft
Ġersch ien
ort h
p reis
ĠHerz og
Ġbe vor
Å į
Ġsie he
im a
Ġentsp rechen
ĠD om
Ġdam als
ein t
Ġent standen
mÃ¤ÃŁ ig
k el
den burg
eh ler
ĠAuÃŁer dem
( (
Ġin dex
U r
in ition
ĠW issenschaft
ien s
op p
Ġ197 5
zeu ge
ĠKl asse
ge m
ĠF e
Ġr Ã¶m
il la
Ġsie ben
Ġ org
Ġeigen e
werk e
Ġfolgen der
re f
ĠAn zahl
C omponent
Ġd r
Ġf ield
Hand ler
st ehen
D at
Ġein gesetzt
ge fÃ¼hrt
Ġb ild
rei bt
ĠVer fÃ¼g
te cted
denk mal
ĠSal z
f red
och e
itz t
ist ik
Ġst ar
ĠFre und
ĠG re
Ġso gen
ĠK Ã¶rper
sp l
id u
Ġhand elt
b eg
get Name
Ġ197 1
throw s
P l
ĠK an
ĠF inal
le ge
it ial
o od
ĠR und
get S
ĠSp e
ĠL og
ĠDre h
ar ian
ĠM er
ichte te
c m
Ġr uss
Ġre cht
ĠArt ikel
ĠSt ad
ĠB ur
geb ung
Ġ197 6
ĠC om
ĠOrt steil
d ig
et ail
ĠR ud
Ġpro tocolMarshaller
ĠH om
F rau
ĠG i
Ġs ub
Ġzu dem
Ġzahl reiche
I S
r acht
z y
B uffer
u x
ĠK om
s eit
Ġst art
Deutsch land
Ġdan ach
ĠJo urnal
ĠBahn hof
Ġh Ã¤ufig
Ġlie ÃŁ
9 3
ĠT on
it i
Ġheut igen
H och
ĠB ro
Ġm in
U p
ĠB ran
Ġbeispiel sweise
9 6
A p
B e
a ction
Ġ acht
st Ã¼ck
Ġwel ches
ĠM aterial
pl ate
U T
An d
ettbew erb
ĠT al
ont in
schaft s
T yp
b ank
ĠD res
h ang
ĠS oc
ĠSp iele
Ġlie gen
P ackage
ĠBes uch
ĠWest en
ĠG ruppen
P er
Ġ198 1
U N
i ber
ĠII I
ynch ron
St atus
ĠS ong
it en
ok al
ikan ischen
ĠE ing
ad urch
L e
as en
ĠT rans
Ġp ersÃ¶n
riv at
ĠW el
al og
ĠAm ts
ei ger
ĠL age
Ġ check
Ġsch war
ĠverÃ¶ffentlich t
ĠN or
ĠHo tel
Ġs omit
rei te
C ount
yn c
fra ge
ĠP o
Ġe urop
_ _
ĠC arl
ĠRe gen
Die se
w asser
Ġgef unden
ĠZ ust
Em pty
Ġver sch
irekt or
ir t
ach er
Ġc m
f rei
as ste
ĠM ilitÃ¤r
Ġh Ã¶
ĠVerein igten
Ġm ethod
l eitung
ĠV iel
Ġre gel
arl ament
ĠP rÃ¤
ĠG leich
br uch
C E
L o
arb eitet
tr e
Ġ us
t ype
ĠM y
ĠL o
geb Ã¤ude
ĠKrieg s
m ut
T able
en ter
Ġs h
Ġi r
ier ungen
Ġge ben
u sch
ak te
en te
ab r
ow er
ges ellschaft
Ġ197 7
Ġdar unter
ĠMot or
ier ter
ĠEr w
Ġ196 9
Ġstell t
Ġ197 3
ĠgehÃ¶r en
Con stants
Vers ion
C all
st all
Ġw elt
iv idu
Ã¼h le
Ġgem acht
D ate
L A
ien ten
In put
Ġo ffiziel
af en
Ġbef inden
ul ar
K on
ĠB Ã¶
ie ten
Ġi d
Ġein igen
" .
6 4
v iew
IN D
ĠErn st
: //
ei der
d a
m o
Ġz og
um er
Ġ(âĢ ŀ
Ġgen utzt
ut ton
Ġzu vor
end et
Ã¤t zen
Ã¶ hn
P E
l am
g o
il ler
ĠHer ren
frie d
U m
> ();
ĠZ Ã¼r
ĠAn ton
bl ick
w ald
Ã¤ch t
form at
Ã¤d ag
en a
ift ung
vol ution
ĠRei se
ĠStud ien
h an
ĠSch Ã¶n
Ċĉĉĉĉ ĉ
EN T
ĠA ber
ĠG ar
ĠS and
W est
it or
f ile
Ġg ar
Ġr el
ĠO p
ibliothe k
ik al
c ase
ĠAuf lage
ymb ol
Ġbie ten
n ext
ĠK raft
List ener
i ol
Ġs of
ĠB us
Ġp ath
pr ess
ĠE ben
ĠK ol
ĠRech t
M L
pr Ã¼
ĠK ategor
G em
Ġger ade
. :
ĠE hren
âĢľ )
Ġletz te
ĠP fl
wei sen
stru ktur
Ġl ag
ĠBru der
ĠF el
st ant
Ġer Ã¶ff
ĠK osten
op e
te chn
ĠJohann es
Ġherv or
w ind
Ġ ung
ĠB rie
ĠEr d
Ġteil weise
am eister
ĠBevÃ¶lker ung
p la
Ġ Å
ĠMed ien
itz e
Aus wahl
k ungen
ĠPol izei
ĠI r
č ĊĠĠĠĠĠĠĠĠĠĠĠĠĠĠĠ
Ġer k
ĠCh em
ro p
ĠFor sch
f ord
ĠEnerg ie
ĠVerfÃ¼g ung
deck t
Ġk lass
Ġver fÃ¼
T rans
ĠG arten
k eits
ĠN etz
ĠH or
teil t
tr ol
ĠA c
ĠEle ktr
arb eitung
ĠVor sitzen
an ischen
k or
Ã¤ te
f Ã¤h
z te
schlieÃŁ lich
ag ue
get C
Ã¤u ft
la ck
ĠK auf
lei d
sp e
ĠâĢ ¦
Ġn ode
ĠNÃ¤ he
ĠGemein den
s ie
an lage
ag s
ĠP e
Ġw es
ĠT op
Ġverb unden
ymn as
ĠS on
ĠEl tern
hl et
cri ption
ot z
as il
u al
Ġ( =
Ġzur ueck
Ġ196 7
od es
ĠCh arl
r Ã¤n
Ġo ut
Ã¤l fte
ĠMÃ¤n ner
Ã¤t ten
C O
Ġte chn
rei fen
Ġange geben
Ã §
Ãľ ber
Ġerw Ã¤hn
ĠStel le
ĠfranzÃ¶s ischen
ial og
Ã¼s se
9 2
ĠSe e
ĠC D
D e
ĠT ier
ĠgrÃ¶ÃŁ ten
ĠS ervice
rie ch
zentr um
Ġm achte
ut or
ĠD rei
re e
ĠRei he
in c
her ap
Ġabsol v
ĠB or
ĠGeschÃ¤ft s
M ail
isse ur
M ed
u tet
Ġst arb
ĠHil fe
ĠHer mann
Ġ193 3
P art
Con tent
ĊĠĠĠĠĠĠĠĠĠĠĠĠĠĠĠĠĠĠĠĠĠĠĠĠ ĠĠĠĠĠĠĠ
Ġ193 9
fl ug
au b
ĠK arriere
Ã¼ cht
ĠB ot
ĠEr fahr
ĠSpiel en
l ad
deb ug
Ġ196 2
Argument Exception
ĠT a
ĠT o
ges ehen
Ġ reich
ur f
Ġ196 4
5 2
un ction
Ġs c
ĠK opf
spiel en
5 3
ik on
gr en
z ehn
ĠPolit ik
Ġge hen
iqu e
A D
M us
Ġres ponse
Ġentfern t
ĠG Ã¶
ĠR ein
Ã¼ lt
F rom
de d
ĠJose ph
ĠAl le
u el
ra p
enn ung
it al
Ġmit tler
ĠSie g
ĠV al
Ġh inzu
rich ten
list e
F l
ĠS u
rei ten
oc ument
ĠSpr ache
Ġ196 6
sch riften
ĠGes etz
ĠM Ã¼l
ĠS tern
ĠDes ign
ĠSa int
H er
b and
ĠF euer
Ġw ollen
ĠD el
Ġch ar
w rite
ĠK ampf
Tra ce
St art
ĠBerlin er
Ġd ir
l as
Ġstell te
ĠOt to
Ġc urrent
5 8
At tribute
Ġakt iv
ang s
geh end
. <
Ġ196 5
Ã¼ss el
r uf
Ġwei ÃŁ
ĠP sych
Ġk amen
ĠNach dem
ĠT ran
ĠC as
ĠSt u
me e
5 4
Ġerreich t
ic o
res ult
ĠAk ademie
wei g
Ġsoll ten
ĠAuf trag
ĠVerb indung
au se
k omm
Ã¶ pf
ei en
Ġwir k
5 1
ĠS Ã¤nger
an o
B r
Ġd el
ĠSie d
ĠHer aus
Ġ196 3
iv al
Ġgleich en
ĠV o
ĠSchw er
Å Ĥ
v is
ĠB ach
ab il
lie ben
" ;
ĠMa sch
ĠG eist
rit te
ĠF uÃŁ
ĠW h
ik o
ag n
ow s
Ġbei de
ĠAus bildung
w esen
Ġnach dem
9 8
Ġb yte
on a
h ung
Ġw issenschaft
Ä į
ĠT ex
o in
ikan er
v est
ra kt
Ġl oc
Ġbet eil
u he
Ġz ul
ĠJ apan
ĠA G
ĠMin uten
ĠJ ac
Ġfol gte
Ġsch rieb
9 4
M P
Ġz ie
an ger
ĠQu alitÃ¤t
f ield
T h
ien te
Ġho hen
Ġo pt
Ġk ompl
ĠRich ard
Ġl eicht
U L
t he
ĠFl uss
T oken
ĠA ward
ĠS ub
fol ger
ann e
Ġfolgen de
ĠSer ie
ĠHann over
Ġr em
h le
ell a
Ġent hÃ¤lt
Ġje den
Ġwh ile
ĠArray List
ĠnÃ¤ch sten
in ge
Ġ194 0
f Ã¶r
ĠR ang
C o
ĠM el
Ġh e
lo at
ĠRe publik
ie te
ĠUnter stÃ¼t
x is
ĠL ou
ud em
č Ċĉĉĉ
ann el
jÃ¤hr igen
C ase
ativ en
ar f
k ur
us st
f ung
re cher
ord in
aler ie
W erk
l Ã¤ss
tr ue
ĠAr ten
Ġaus gew
Ã¤t igkeit
ĠDav id
En d
c le
o is
eil en
Ã¤ us
ĠH all
Ġ Ð
der s
Ġauf genommen
Ġc lass
Ġ193 8
ĠPr ess
t um
Ġdam al
ck t
ab rik
S port
Ġver tr
Ġm eine
Ġbest and
ĠBeg riff
an y
k athol
ol den
5 7
Â ²
Ġd Ã¼r
ĠS in
ĠSil ber
ĠP or
ĠDam it
Â »
ĠD ach
" ))
ru g
g liche
ĠB raun
F I
tem berg
A mer
ier s
Ġver z
Ġres ource
Ch ar
ende te
z eiten
Ġk einen
Ġst ate
final e
N ext
l l
ĠM ein
c urrent
ĠB und
Mod el
k rÃ¤
imm ung
ch ester
Ġge tr
Ġ195 6
ist isch
Ġver lie
ĠF inanz
Ġsch l
0 6
Ġg erne
Ġ196 1
eh len
ay er
Ġm ed
Ġgew esen
zeu gen
ĠBes itz
ĠFrÃ¼ h
U ser
Ġpro duz
ĠIn n
id th
Ge ographie
E L
t temberg
om ot
ĠL icht
Ġt yp
ĠC ity
ieren den
ĠL Ã¶
ĠUm welt
lag er
Ġau t
fahr er
a un
olog ischen
Ġel ektr
Ä ģ
ĠI D
ut es
ot h
Ġ193 0
ĠBas is
ĠMe er
ĠMÃ¶glich keit
Ġth at
ol or
Ã¤ um
Ġ8 0
ĠA ch
ĠH Ã¤lfte
hÃ¤lt nis
op y
v on
Sp iel
ĠF il
eg r
Ġentwick elt
zeu gt
Ġ scha
ĠB ank
Ġen g
S pe
f rau
k und
str ing
ĠDres den
9 7
i j
er ror
In ner
Ġtr ans
ĠP arlament
Ġver f
mar shall
ĠErgeb nis
P r
olog ische
ĠDies es
Ġer ster
inn t
eu e
Ġan t
ktion en
z uf
ĠWerk e
Ġsetz te
> (
ĠS uper
ĠMa ÃŁ
w art
par k
kau ft
Qu ery
ĠWolf gang
rit ik
ol a
ĠC ms
hal te
T Y
N ames
ĠBÃ¼rger meister
Ġdef ault
le cht
ĠF Ã¶rder
em b
kr et
ĠauÃŁer dem
ĠAuÃŁ en
st at
ĠVer gleich
Ċĉĉĉĉ ĉĉ
B IND
0 1
T eilnehmer
O utput
n am
u hr
ĠStud ium
Ġz entr
ĠP il
Ġer f
ĠÃĸ ff
T r
ĠIllegal ArgumentException
ĠD och
eld orf
pro tected
Ġeh er
Ġson st
C H
rei sen
ite d
b ischof
re v
ĠStreck e
O per
P ol
ĠNach t
sh ip
BIND ING
so zial
d o
ĠF en
Ã¤n gen
ĠZÃ¼r ich
Ġw Ã¤re
ĠD ist
ĠD is
Ġmehr eren
Ġ195 9
ĠS ant
rie ges
ft ware
b ten
Ġz eigen
Ġst ellen
Ġsel ten
Ġd ire
He ader
Ġre ad
Un ter
ing ton
or a
ĠB aden
ĠfÃ¼hr en
Gem ein
Â °
ĠPart ner
Ġinter ess
ĠSchauspieler in
ĠC al
Ġal t
zir ks
ĠProdu kt
Ġer reichen
Ġihr es
l eiter
Ġ9 0
rik a
ĠFra ge
W enn
âĢ Ŀ
ĠEr sten
9 1
ĠMar c
Ġon line
Ã¼t zen
g y
ĠB all
Ġn orm
ent wicklung
ĠArb eiten
D ec
ĠH an
rech end
Ġeben so
ing ungen
ele te
B C
stre cke
ĠSchwar z
ĠF ig
zieh ung
land s
be zirk
ĠBr on
ĠW and
Ġ19 20
ĠPr inz
ĠPhil osoph
Ġn o
ĠH essen
it sch
T E
Ġ194 6
N umber
ĠÃ¼ber n
Ġbes uchte
Ġ195 2
Ġer ziel
ĠD oppel
ĠC olle
ont ains
ĠPh ys
ĠWor ld
S V
Ġs er
ĠSt unden
ition s
Ġ195 8
Ġbet rÃ¤
ĠKompon ist
eh ens
Ã¤nder t
ĠS et
el ten
sta at
G ener
H ol
or ie
ĠM ad
Ġben Ã¶t
Ġbede uten
ĠÃ¤ uÃŁ
b esch
Ġ194 4
Ġb as
Ġk ehr
C hr
N O
T rÃ¤ger
Ver lag
k raft
Ġt c
ĠOr d
Ġ194 9
b us
and elt
m el
g ten
Ã¤ gt
ĠT e
Ġge z
Ġg ute
Ġspe ziel
ĠW ort
sp h
F ilter
Ġver d
lin ie
ĠK ranken
Ġwoll te
st art
ĠM c
kl us
ĠStand ard
Ġge d
Ġr et
setz en
0 4
ub e
Con nection
P age
ĠS onder
gel n
gel Ã¶st
C T
l assen
ĠD ir
ĠL eiter
mar kt
ĠAu gen
l ern
ĠFrie d
f in
ĠA g
ĠAlex ander
Ġam er
mus eum
i os
0 2
ĠKont akt
ĠÃ¤l ter
ap e
ick en
0 8
ĠP an
ĠkÃ¶nn te
G es
Ġdar Ã¼ber
ig ungs
m ot
Ġd ritten
L S
l n
Ġl and
per atur
Ġpol n
Ġer r
S te
k ap
ff er
ĠTag es
S ub
d ata
ĠBe k
ĠLand tag
Ġgemein s
d i
ro ss
ag o
or te
st o
Ġ195 5
Ġpar am
sch uss
ĠW ider
Ġan schlieÃŁend
ĠLe ague
hei ra
Ã¤ch s
alif iz
ĠR os
fÃ¶r m
v ider
st ud
m on
ĠD enn
Ġspiel en
t eid
ĠSt il
gr Ã¼n
Ġsp ielt
wie gend
ĠA ustr
Im pl
Ĥ ¬
Ã¼ss eldorf
ĠZ udem
t c
ĠR ock
s itz
Ċ ĊĠĠĠĠĠĠĠĠĠĠĠĠĠĠĠ
rit z
d aten
ĠR unde
ĠLehr er
an te
Ġal te
ĠSt Ã¼ck
it ch
ĠL iga
ĠP op
ile d
etz ung
Ġ195 4
Ġbesch Ã¤ft
if ic
ĠUnter such
A ccess
ĠF ern
Ġf alls
1 00
eig ht
ĠR at
Ġen try
west en
iv ision
amerikan ische
prÃ¤s ent
tern al
ĠReich s
Ġ ra
ĠB al
C olumn
re quest
] .
m und
ĠP rivat
ach tet
ĠW alter
r hein
lin ge
ĠT eile
Ġ195 7
ĠMod ell
ĠDenk mal
Ġs uper
us h
z og
ĠPr em
E T
ut her
ab eth
C D
ĠFra gen
r c
on es
is ierung
tr ainer
Ġb l
ĠJ azz
ĠInd ustrie
ĠAb geord
ĠBau m
c lient
ul a
ĠA pp
ĠD eb
Fernseh serie
en ten
In t
zie hen
z ip
il es
ĠCh or
ĠGes und
ch ar
M ax
ĠB d
L O
ĠCh ina
ĠBe zeichnung
Ã¤d chen
ĠSt amm
ĠEs sen
ĠJose f
an ische
==== ====
ĠS yn
ĠB rit
Ġaktu ellen
ĠFir ma
ĠEisen bahn
Ġer z
not ation
h Ã¶r
ĠVers ion
Ġw ohn
Ġho he
0 9
Ġerh Ã¤lt
Ġgen er
l Ã¶sung
ĠAmer ican
in fo
unk ten
w ord
au sen
ĠJ ean
wÃ¼r d
ĠGr ab
R I
our ces
Ġcon text
o o
ahr en
Ġin put
and s
Ġver ein
ĠGl as
. -
Ġn ehmen
D F
Ã¼ st
ĠP reuÃŁ
Ġj apan
ĠKon z
w echsel
g ie
ieren de
0 5
ĠR a
dr esse
g ien
Ġne un
ĠZentr um
S o
ĠS ow
au sch
ate in
0 3
Ã¤t ter
6 7
meister schaften
. ");
w egen
âĢ ŀ
Ġunser en
L ev
s berg
pl ication
b ef
In teger
S etzt
Ġ );
Ġ194 8
ĠKir ch
ĠP unkt
ĠP unkte
ver walt
ĠReg ierungs
tem ent
ĠStadt teil
ĠAben d
Ġstamm t
s dorf
ff e
S up
n eter
Ġj Ã¼n
b ie
au l
Ġf ert
Ã¶ sen
ĠfranzÃ¶s ischer
ĠLin ie
M S
k reuz
Ġweiter hin
T em
eid el
anst altung
Ġtr otz
ĠTh emen
ĠursprÃ¼n glich
ĠL Ã¤nge
ĠK ern
Ġg l
par tement
ĠAr n
Ġhei ÃŁt
ĠBl ick
L ength
S ON
ĠE U
ĠverÃ¶ffentlich te
un ternehmen
Ġent halten
k ra
ĠS m
ĠLie be
C ms
W er
em in
it a
st eh
Ġwirk lich
M eter
Ġc omp
Ġp ass
Ġa k
J o
at ter
ĠDan ach
F F
Ġf inanz
Ġt arget
ĠsÃ¼d lich
Ġwel cher
ĠÃ¶sterreich ischer
ĠKant on
= "
K ir
ĠnatÃ¼r lich
ĠRe cord
Con figuration
yn am
ĠGer man
Ġz erst
ey er
ĠPol en
ĠKÃ¶nig reich
ei s
Ġl Ã¤nger
20 18
ĠD ef
ĠL ied
ĠV oll
Ġun ver
ĠNach folger
ĠForsch ungs
ĠA ust
eu cht
ĠAn gel
ĠAl bert
ĠWill iam
Ġsof ort
6 2
U E
ĠSta ff
S ource
ĠT im
N ew
Ġl o
Ġb ilden
Ã³ n
Ġeinzel nen
Ġ ap
lich keiten
at tern
Ġs ex
tr aum
ug h
Ġ7 0
ĠK u
ĠV ideo
ĠSt ar
ĠBr and
au ber
Ġsie ht
6 8
f alen
ĠP ublik
ot al
ĠFol gen
Ġehemal ige
ĠGeb urt
ĠKategor ie
ĠUnterstÃ¼t zung
d ien
Ġk ennen
Ġk athol
Pro du
Ar ch
qu ire
be ck
rÃ¤s ent
ĠGr Ã¼ndung
ĠW o
C omp
ĠUn ion
Ġe vangel
Ġ195 3
ĠbetrÃ¤ gt
bet rieb
A X
Ex ec
mit t
ĠÂ «
p le
ĠL au
inde stens
ĠmÃ¶ch te
Ġh as
Ġle dig
ot te
hal le
ĠEx ception
m eld
al es
Ġ ass
ĠGr Ã¶ÃŁe
gemein schaft
k unde
Ġo p
ĠAus wahl
ĠO ffiziel
Ġ194 2
Ġinternational en
Q L
ĠS old
ĠâĢ ľ
Ġtr ad
6 3
ĠSt at
ĠBr emen
Ġh ol
ic es
Ġent spr
w ill
z i
Ġsel ben
Ġhei ra
m ap
ĠT ur
ut ure
ay s
fall en
la f
Ġneu er
Ġneu es
Ġledig lich
d at
q l
ĠBay er
entr y
k arte
l eit
s c
Ġm indestens
Ġpro f
ĠR itter
Ġver heira
Ġo ben
Hoch schullehrer
d am
Ġge k
f assung
la w
ĠZeit schrift
leich t
ĠNach bar
ĠK amer
og le
iden ten
st anz
ĠGott es
br acht
ĠD Ã¼sseldorf
Ġeinz ige
ĠWien er
ie ur
Ġge baut
Ġ194 1
Ġp rakt
im it
u gen
eig net
ĠJ ust
Ġk aum
ĠEnt scheid
Ġd at
\ "
lie gen
amil ie
par se
Ġer weiter
Ġer folgt
Ã¤d t
on ie
Ġ3 5
te ten
Ex pression
Ġ tem
aut or
ah nen
Ã¤hl te
at hlet
end es
oc i
k ampf
č ĊĠĠĠĠĠ
Ġp rom
ĠKon tr
ĠerwÃ¤hn t
ie ben
ĠN ik
ĠIn teger
Ġblei bt
a at
ĠM ult
O L
ĠP res
Ġabsolv ierte
u c
et a
deut sch
ĠEng land
k i
tern ehmer
Ġar e
C l
ĠSte uer
ĠB arb
Ġumf asst
O b
ra ph
Ġ194 7
ĠgrÃ¶ÃŁ te
Ġc om
S I
ĠIhr en
ĠAkt iv
oss ible
ĠB on
ĠS w
Ġbel eg
Ġorg anis
h istor
ĠCl ub
Ġrech ts
ie ÃŁen
st att
c ing
an lagen
Ġm essage
Ġbes itzt
Ġbek annte
C om
g arten
Ġp art
0 7
ĠL OG
ers eits
ĠĠĠĠ ĠĠ
ei sen
ĠN orm
Ġc all
bar keit
halt ung
Ġ+ =
ĠgrÃ¼n dete
ĠJ ames
iz er
L ink
g arn
Ã¼r n
Ġel ement
ĠRo y
richt ungen
J ob
P oint
ĠD ann
is Empty
Ġge stellt
V iew
d et
n ungs
y a
re c
low ak
! !
6 1
Ġs b
ĠBl Ã¼
v ille
on om
Ġv an
v a
ĠW as
Ġ3 2
¿ ½
ĠH igh
Ġp rÃ¤sent
Ġsch loss
ĠIhr er
d k
ĠBr un
6 9
ĠW ahr
Ġp assen
Ġpolit ischen
z a
sp art
qu e
Ġbild et
Lev el
Ċ ĊĠĠĠĠĠ
hal ts
Ad dress
A ss
re publik
ĠAl ten
r et
Ġi de
a pt
Ġwir tschaft
Ġunser em
ww w
A ction
v o
ĠUm gebung
C ache
Ġgesch lossen
ĠZu kunft
ĠAb schluss
I V
ï ¿½
ĠHer bst
Ġ195 1
ĠVerein s
Ġersch ienen
ĠH um
ĠAn na
ĠVol k
ĠAndre as
ĠOr iginal
u ell
ĠQu alif
mus ik
ie fer
der ung
Ġausge zeichnet
ĠB ack
ĠPhil ipp
b Ã¼rger
Ġein ger
ab l
Ġj Ã¤hr
ĠW ol
pro chen
u a
ĠD okument
ver tr
ĠS Ã¤
ĠL eitung
ĠFen ster
um Ã¤n
ĠZeit punkt
Ġ194 3
ĠE vangel
Ġk omp
Ġind ividu
ib r
Ã¼hr en
ĠRud olf
M in
N ational
g ut
ens ion
Ġ193 4
bau ten
Ġgew orden
ref ix
Ġerh Ã¶
rem ove
ĠnÃ¶rd lich
ab ase
ĠSt ock
Ð °
Ċ Ċĉĉ
ĠAr mee
Ġern annt
Ġgesam te
ĠR em
ĠR elig
Ġ* /
ĠÃ¶ff entlichen
ĠR and
Ã¤n n
ĠZeit ung
ĠHoch schule
ĠZusammen arbeit
T H
s es
ĠH ir
pf er
Ġe vent
zeich nis
S D
ĠM ess
les en
D urch
ĠL Ã¤nder
Ġmar shall
Ġp r
sp ekt
Ġ193 7
Ġkn app
c ontains
le b
i or
en g
ter ator
Ġer g
ĠD isk
Ġgleich zeitig
ow ed
ĠAus gabe
lau ben
ou ver
âĢ ĺ
ĠAut o
ĠF ischer
ter s
ĠW all
ian a
Ġ5 00
ĠBes onder
spr uch
ĠM ass
ĠVer Ã¶ffentlich
w ork
sb ach
akt iv
ĠPfl anzen
Ä ±
ent liche
ad ata
ĠFor schung
s a
ir m
ĠC amp
ĠStr u
ĠL Ã¼
ĠAn n
jÃ¤hr ige
Ġbe ein
<? >
ĠhÃ¶ her
em ann
ĠK al
eich er
ĠK re
Ã¼nd eten
Ġ193 5
Ġ193 6
Ġverl oren
Ã¡ n
ĠfranzÃ¶s ische
i i
ĠG al
hol z
Ġh Ã¤tte
Ġo ption
ĠTra in
ari able
ĠfrÃ¼ hen
Z u
stell te
ĠSpr ach
lo c
(" \
ma sch
ĠMed izin
ĠMÃ¼l ler
ĠOffiziel le
C he
ĠD amen
eg ment
ri ck
ĠFinal e
ir g
ĠBrie f
z us
T ask
Ġst ammen
i w
Ġj ava
ĠT urm
Pro perties
Ġg riech
ĠH elm
ĠR ob
As ync
L ong
f unk
ĠH Ã¶r
ĠT ruppen
C ON
Ġf iel
ĠJ er
ff ekt
ĠAl ler
Ġ- >
spr ung
Ġqu alifiz
ĠN ur
id a
Im age
Ġd est
Ġentwick elte
ĠGren ze
ĠD Ã©
if ication
Ġ euch
Ġs etzt
ĠAn schluss
Ġdar f
r unde
Ġdes halb
m ehr
Ġganz e
Ġin dem
Ġp h
Ġvor her
D a
ĠT rad
il en
ĠTra iner
wissenschaft ler
ist in
zw ischen
Ġh aupt
ĠS onnen
Ġn immt
Ġ text
ĠJ ung
Ġp aar
olog y
Ġheira tete
ie ÃŁ
at ers
Ġjed em
ĠfrÃ¼ h
P osition
ĠEnt wick
O S
ĠSch les
ĠZu ge
ĠGe orge
Ġn ext
NA ME
ĠT urnier
prÃ¤s ident
ymnas ium
Ð ¾
ĠL ager
ĠHau t
P h
am in
Ġm ap
im eter
if ier
m at
or gt
Ġ> =
ĠÃ¤l te
Ġblei ben
st Ã¤tte
ma ÃŁ
ĠC ollection
Ã¤n gt
get Message
haus es
ĠT Ã¼r
ĠZeich en
lav ier
st u
ĠS uche
Ġs ervice
ĠOrg anisation
ĠL eg
Ä ĩ
Ġb ald
D ire
N ON
ep age
l Ã¤ufer
ĠH u
ĠD or
Ġf anden
rech ts
un ion
Ġp osit
ĠBild ung
M ill
ĠO pen
ne y
Ġje de
Ġd adurch
Ġer war
form ation
Ġarb eiten
W ie
| }
ĠP lay
end ar
rau cht
egr Ã¼ndet
B lock
T ag
z ub
ĠE lement
()) );
Ġeigen tlich
west lich
all el
Ġverheira tet
ĠDi pl
Ġbeg innt
A uch
t liche
Ġh alten
oll ar
gew icht
Ġben annt
ĠS l
h eb
V erk
ĠTeil nehmer
E urop
ro chen
ĠM Ã¤dchen
Ċ ĠĠ
ĠS zen
ĠF und
ĠL eicht
Ġer mÃ¶glich
ĠCh amp
L egt
Ġh ab
Ġk rit
Ġbr ingen
schein lich
Ġzul etzt
ĠK olle
get Value
ĠWei se
alif orn
ĠB lack
Ġst Ã¤r
' t
A B
Ġex ten
ink el
ĠEr k
imm el
ĠMon ate
ĠzusÃ¤tz lich
ra el
ĠHal le
d in
t d
ĠAngeb ot
Ur l
mÃ¤ ler
ĠSchl acht
Ġkehr te
ie ger
n amen
Ġver kauf
ser e
er be
Â «
icher ung
inde st
Ġlin ks
ĠVer wendung
ran t
iz ation
ĠWirtschaft s
b is
Ġm Ã¶
ĠB ud
ĠBe zirk
ond s
Ġ19 18
ver fahren
ri ffen
ib el
for schung
z ahlen
un c
rei ber
kir chen
Ġtrad ition
ĠStr om
n o
ĠKin dern
ĠE ich
ĠLeist ung
ĠB onn
ag te
gew iesen
Ġro w
S ession
b s
se x
je kte
Def inition
P f
W Ã¼r
ĠR Ã¶
ishockey spieler
F e
atch er
ĠProdu kte
ĠL ong
ĠG Ã¼n
ĠW oche
ann ot
Ġd iente
der t
Ġbef and
etz en
Ġex ec
B yte
ĠF ehler
ick t
E d
an walt
ge legt
ĠOr gel
Ġgen ommen
ĊĠĠĠĠĠĠĠĠĠĠĠĠĠĠĠĠĠĠĠĠĠĠĠĠĠĠĠĠĠĠĠĠ ĠĠĠĠĠĠĠĠĠĠĠĠĠĠĠĠ
** **
c omp
Ġge pl
lie fert
ĠGl Ã¼ck
ĠM erk
ĠEm pf
Ġf irst
rid ge
G egrÃ¼ndet
ĠG et
ks am
Ent ity
p unkte
Ġein f
k unden
() ))
ech net
ĠGÃ¶ tt
Ã¼ m
Ġb em
Ġer ror
ĠN icht
ĠBei trag
ĠgroÃŁ er
stra hl
Ref eren
g Ã¤nger
Ġj Ã¼d
ĠS onn
Ġs ize
iel ten
ĠFarb e
f ass
ĠR el
Ã¼r gen
ĠAut om
H el
Ġzahl reichen
ter t
ĠRad io
ĠBen utz
ĠHerr schaft
ĠVerkehr s
ĠS icht
ĠH ash
ĠB eim
K ultur
ĠEinwohn ern
and lung
PD F
T ER
ĠK op
isch em
ĠMÃ¼n ster
ĠL ab
ĠKl aus
ommer ce
Ġaktu elle
st ate
Ġ19 00
par ator
itu ation
Ġ rei
et ern
Ã¤dag og
Ġso ur
lo sen
ĠSicher heit
Ġm m
p ath
Ġh el
ĠBe zirks
verwalt ung
Ġd ich
fl Ã¤chen
ĠSch lag
b ase
ĠD azu
ĠM oder
haf en
b ung
Ã¼ ch
den ten
Ġwelt weit
ĠLou is
gn ore
ĠR ennen
Ġt ime
s Ã¤chlich
Ġwer de
org ung
I L
e ctor
Ch ild
ĠRef orm
Ãĸ sterreich
Ġm on
Ġbrit ischen
etail s
s Ã¤tze
un e
und le
An y
herap ie
O bjekt
Ã ¢
Ġaus schlieÃŁlich
Ġges etzt
ĠStÃ¤d te
ĠW ander
c ed
ĠJ ak
ĠSch ool
unt ime
ĠunterstÃ¼t zt
Amer ikaner
O ffset
auf trag
ĠColle ge
on y
ĠM iss
ĠK ab
ĠR h
Ġtr Ã¤gt
ĠBest and
ĠWeiter e
O ber
Ã¼n ft
mittel t
ĠNutz ung
er ei
spr ache
Ġbek ommen
ĠSchm id
c is
f unktion
Ġdef in
C ollection
Ġent scheiden
Ã¶l f
Ġgesch rieben
D eb
ei ge
id ae
ĠAuf gaben
Ġf ind
Ã ¸
bau m
kl asse
Ġdamal igen
Ġd unk
ĠG Ã¤
ro ffen
umen te
ĠP fer
Ġf in
um p
Ġver k
ĠZ immer
ĠAn der
Ġjewei ligen
ĠH art
ĠT om
anstalt ungen
ie gen
st attung
Ã¤ ger
Ġkosten los
end orf
Ġbr achte
P S
Ġs od
Ġge prÃ¤
bo gen
A pp
Ġf unktion
ĠI V
ren z
ĠVorsitzen der
ul en
op s
Ġbeleg te
ĠH eidel
ir ol
D ir
W eiter
Ã¤hr t
T ree
Ġ192 8
Ġall gemein
m esser
ĠA uff
Ġb au
Ġall ein
E S
y th
ĠIm m
ĠH y
Ġup date
ĠP rÃ¼
ĠCharl es
ĠBr Ã¼
Ġ19 19
ĊĠĠĠĠĠĠĠĠĠĠĠĠ Ġ
is abeth
Ġun mittel
l ar
setz ungen
ĠP la
ĠJ es
ĠW ehr
ĠTel ef
B l
j o
ge d
Ġwen ige
By tes
Ã¼ ge
if e
Ġgesam ten
ĠVer br
ĠT V
ĠFl Ã¼cht
A M
ĉĉ ĉĉ
ĠFl Ã¤che
leg ung
ĠFÃ¼r st
ĠHeil igen
le hn
ĠW erner
Ġbet r
ĠAn gaben
B ahn
pl y
Ġ4 5
Ġwest lich
Ġer forder
Service Response
Ġl au
ĠEx per
wÃ¤r ts
w urf
sh of
Ã¼h len
ĠSt ahl
Ġdurch gefÃ¼hrt
Ġver br
ĠSt ate
wei le
I t
u elle
ĠP rie
Ġer setzt
ĠVertr eter
ĠS ing
ĠMa c
ĠFahr zeug
hil fe
tr ieb
Ġl aut
Ġehemal iger
Ġpolit ische
ĠW ild
ĠAr m
pro gramm
ĠspÃ¤ter en
igit alis
Ġ eb
ĠF arben
ĠJ ack
ĠEin fluss
Ġbede utet
ĠJac ob
uf e
f a
Ġgel ten
s um
ĠN orth
R uft
ce pt
ĠBÃ¼ cher
ĠStr eit
Ġjed es
h Ã¤user
ĠK ammer
ĠP et
ĠN Ã¼rn
ĠVer kauf
Ġ193 2
R el
en sch
tr em
Ġzw eit
ett ings
print ln
ĠDreh buch
le ger
Ġnot wend
trib utes
ĠStru ktur
ĠK lavier
ul ation
ĠFot o
ĠZ ei
eich ert
orf en
Spe c
z Ã¤hl
ĠFot os
ĠChar akter
ĠerÃ¶ff net
n ern
Ġ ed
ĠR iver
Ġp rÃ¤
Ġbest Ã¤t
ĠBl ut
ĠHand el
Ġp reuÃŁ
ĠUnternehmen s
ĠSc ien
Ġexten ds
Ġsour ce
anad a
g a
ĠP aar
ct ive
au ern
it ts
ass el
Ã© r
Ġaktu ell
Ġ Ã¶stlich
ĠBr em
ĠĠĠĠ Ġ
Ã¼t zt
ĠWei hn
E X
uch ten
ĠMus iker
N eben
ĠF Ã¤l
C ontainer
Ġw rite
ĠH off
ehens wÃ¼rd
z lich
ĠG Ã¼ter
ag d
ĠIn str
Ġerh eb
Ser ver
ĠÃ¼ber geben
ĠDan iel
Ġumf assen
Ġver gleich
an ischer
ĠAn ge
Ġh ttp
Ġk aufen
Ġander er
bje kte
ĠFamilien name
ĠArchite ktur
ĠRuss land
ĠB ab
Ġsei en
g ruppen
ĠG ust
ĠL ink
s m
ĠGr and
ĠMar ie
in sel
Ã¼ gen
Loc al
B ase
N eu
h auer
ie ts
ĠAn lage
Pro vider
Tra cing
ĠStaff el
ĠAn schlieÃŁend
ĠAb s
S Ã¼d
G B
es h
ĠM acht
rot z
Ġnieder lÃ¤nd
Verein igte
ĠRecord s
D I
ĠO ption
cc ount
Ġricht ig
ĠA v
Ġkl einer
Ġper fe
Ġ1 000
ĠF ernse
serv ice
Ċ ĠĊ
sch lieÃŁen
ĠK omb
ĠN amens
rei tet
ock en
Ġge fÃ¼hrt
Ġzun ehmen
ĠVerwalt ung
R ad
rei g
erk unft
ĠWer te
Ġb ein
Ġtr agen
Ġ192 5
ĠZusammen hang
ig keits
Ġl ast
Typ es
Gemein de
Ġ ag
ĠT urn
ĠU p
C omm
I f
om ent
ra te
Jahr hundert
O P
n ehm
ĠH aar
ver l
Ġo ther
ĠÃĸ l
amerikan ischen
Ġregel mÃ¤ÃŁig
N LS
ĠReg isseur
Ġb uffer
ĠD irektor
Ġbest e
Ġgew innen
Ġeurop Ã¤ischen
in put
ver lag
Ġber eit
ĠBau ern
z ur
ĠK ey
Ã¤s ser
W Ã¤hrend
ĠB il
ler s
ĠTechn ik
K E
i ar
ĠF ritz
ĠS ach
Ã¤ ume
Ġin tegr
Ġ192 9
Ġangeb oten
E l
G er
o sen
Ġk anad
res ource
lau bt
ĠMen sch
al a
p ossible
ar tet
Ġi dent
Ġre st
Ġreg ion
Ġsod ass
p oint
ĠG attung
sp rÃ¼
Ġstatt f
Ġ ;
st il
Ġl angen
ĠMasch inen
ĠS ingle
Ġs ah
ĠT agen
Ġj unge
ĠNeu e
ĠHaupt stadt
-------- --------
ĠString Builder
o us
ĠR enn
Ġschw ed
Ġbrit ischer
ĠProblem e
P ort
Ġ user
Ġm ark
Ġer inn
Ġan s
Ġc olumn
sub string
V AL
Ġz eig
ct iv
ehenswÃ¼rd igkeiten
ĠIn ner
ĠAus stellung
ĠMa inz
ĠK up
ber n
m ax
ĠV en
Werk e
on ym
ĠU N
Ġ// $
ĠFried hof
ess el
Ã¼hr ung
eim ar
ĠHau p
m p
ĠPat ienten
n itz
an i
Ġc an
ed t
Ġmus sten
ĠDÃ© partement
Ġt un
Ġver treten
ĠSoc iet
Ã¼ ste
Ġder zeit
ĠW etter
sp ann
ask et
d essen
f ur
Ġf a
pf el
wer ks
reg ierung
At om
ĠTrad ition
b rit
ĠB ra
geh Ã¶
M ode
ĠT Ã¤tigkeit
Ġ192 7
F ol
h el
un sch
ĠW ach
Ġbel ieb
ĠS atz
Ġge bracht
ind ungen
age gen
reu en
ĠK lass
Ġl ength
Ã¤l lt
ol t
Ã¶ nen
Ġcon fig
ĠF ak
k ultur
s achsen
ĠM un
lin ik
ĠVor stand
. "
B ean
K arriere
r am
techn ik
ĠRoy al
Ġ19 14
pla ce
M ethode
Ġf e
wei te
gel assen
ĠAb st
Ġle bt
O l
ĠT at
all owed
ĠZw eck
S P
I P
R A
ĠL os
bl att
klÃ¤r ung
Å Ļ
ĠÃ¼bern ommen
Ã £
ĠT schech
ĠSpe zial
Ġbeteil igt
M ark
ĠKomm ent
mal e
Ġin form
u de
ar kt
ĠM ex
ĠFl or
ĠS ib
Ġw or
Ġi tem
ĠSch ne
ĠStr af
Ġ3 00
ĠB ill
ĠG it
ra w
Ġver antwort
stÃ¤nd ige
forder ungen
c lose
ra f
Ã¤n e
v ier
w en
ļ Ń
schau spieler
ĠBetrieb s
UL T
ĠK er
ĠRe volution
Ġ192 6
krÃ¤ fte
ur a
G et
is Any
Up date
y t
Re ader
ĠGegen satz
Ġitalien ischer
aly se
Z ur
ĠL Ã¤ndern
Ġverl or
TY PE
b as
w ell
ĠW agen
scha fter
Ġn utzen
Ġg uten
stell ten
ĠDar stellung
H ttp
j or
ĠZ uf
AT E
ĠÃĦ n
Ġsol che
l Ã¤nder
Ã¤ den
Ġc o
schl Ã¤
ĠGroÃŁ en
ĠIde en
kret Ã¤r
ĠAn teil
P reis
ot a
ĠMath emat
WÃ¼r ttemberg
r is
ĠP ier
ĠHom epage
Tracing Enabled
W riter
d el
ĠK enn
ĠFÃ¼hr ung
Ð µ
Ġl eich
Al b
Ġkl ar
Ġhaupt sÃ¤chlich
ĠverfÃ¼ gt
is c
ok e
ĠNational sozial
isAny TracingEnabled
Ġc l
geb racht
ĠMus ic
Ġâ Ĥ¬
n ummer
ĠSp anien
Ġ193 1
ĠErgeb nisse
ĠDem okrat
ĠComp uter
y pen
ist ent
Ã¼n dete
if ik
gen er
ĠDeutsch er
Ġweiter er
ĠW appen
ri ge
Ġd ur
at ung
Call back
Ã ½
ay out
F C
S a
ĠC up
Ġt ats
Ġun abhÃ¤ng
Ġj ungen
Ġverm ut
ĠSicher heits
B oolean
ĠUr s
Val ues
Ġerziel te
Un it
ĠFir men
ĠSo uth
wind igkeit
ĠS amm
sch m
ĠW es
c up
d f
b uild
h och
au st
ĠN av
f il
Ġ Ã¶
eil t
P olit
tr Ã¤t
Ġp ort
ĠBran denburg
k osten
w issenschaften
er te
Ġver pf
mittel n
ĠChrist oph
f ace
t itel
Ġl ine
ĠGr enz
mit glied
er er
ĠV arian
ic y
R ow
ĠErz bischof
Ġlog ger
c ol
h agen
w o
Ġ19 10
Ġqu ery
Ã¶rder t
Ġrel ativ
Ġaut omat
m t
ĠW ettbewerb
Ar t
ĠNatur schutz
ĠR ichter
Ġh al
ĠEl isabeth
ĠInter esse
ĠBeruf s
h emal
ei ben
ist an
sp er
Ġst ieg
Ġvoll stÃ¤ndig
Ġs uchen
ck s
omm ern
ĠGew inn
ĠStand ort
H ier
Ġm einer
ĠâĢ ļ
Ġ} );
od or
Ġdar an
Aus zeichnungen
Ġsogen annten
ĠG alerie
Ġt able
M on
c od
ĠL ive
.. ..
ĠPra xis
Str a
ĠerklÃ¤r t
m acht
r ing
ĠAb teilung
Ġgleich nam
ĠE lem
Ġent st
ĠSchw e
ge g
Ġein st
um pf
ĠVer teid
ĠZust and
Ġw ww
for men
Ġch ines
Ġch rist
D O
ach ts
l ong
w ander
ĠE vent
zeich nete
eth oden
rat s
ĠAut ob
x y
ig r
and t
Ġh ielt
Ġentsp rechend
ige m
Re cord
ĠFrei burg
wert ung
gent in
Ġvermut lich
on ik
rei he
ubl iz
ĠM ik
le d
re st
ĊĠĠĠĠĠĠĠĠĠĠĠĠ ĠĠ
fol gen
app ing
ĠH afen
len burg
ĠLand wirtschaft
ĠRo sen
alis iert
UR L
ĠDat ei
Ġwichtig sten
T arget
Ð ¸
ĠN ummer
ĠO ff
Ġent lang
Ġbesch rieben
Ã¶st lichen
Ã¤ ische
ĠSchw ester
ĠBo x
asket ball
ĠTran sport
k ord
ĠM Ã¶
ĠL ad
ĠL ok
Ġgr und
Ġdarauf hin
ĠS ter
ĠSe c
ĠÃĦ r
ĠVier tel
Ġb uilder
Or g
f ort
ĠH eute
Ġver kauft
Ġst re
ĠLand schaft
ha ber
T V
il dete
Ġet c
Sch wei
ĠH und
ut il
Ġent deckt
ĠSte fan
gef Ã¤hr
ĠVer fahren
iter ator
ikan ische
st Ã¤r
ĠS ammlung
re h
eil er
Ġ4 00
Ġzw Ã¶lf
Ġbet rieben
Verk ehr
p ed
ĠJ SON
kon om
v olle
vers ion
Def ault
st rÃ¤ger
or ia
Ġs ynchron
ĠAuf bau
Deb ug
u id
Ġf uer
ĠGel Ã¤nde
i h
ĊĠĠĠĠĠĠĠĠĠĠĠĠĠĠĠĠĠĠĠĠĠĠĠĠĠĠĠĠĠĠĠĠ ĠĠĠĠĠĠĠĠ
ĠB ig
de f
ot o
Ġir gend
ĠSold aten
Ġw ider
ĠAr zt
ĠZentr al
ĠM and
ĠV ort
ist ry
Ġgesch affen
Ġhistor ischen
H istor
Ġd ient
ĠG rie
Ġk or
ĠVor der
b yte
ver trag
sh eim
sel ben
Ber lin
Ġprom ov
stell ungs
ust om
S ec
Ã¼ hm
ĠGer icht
zieh ungs
ĠBraun sch
d as
Ġs w
ĠK arten
ent al
if ied
ĠPro zess
anz e
ip s
Ġwieder um
ĠHinter grund
I M
ach im
ehr t
Option s
Ġd igit
an el
at ik
ĠAuf gabe
lei tet
Ġfol gt
ĠMeister schaft
n ode
Ġer baut
Lo ader
ĠF in
ĠUn ited
Ġ3 3
dr Ã¼ck
ĠHeidel berg
Ã Ħ
ĠB ett
Ġg anzen
ĠEin fÃ¼hrung
20 17
Ġfert ig
ĠB ist
ĠI st
Ġt Ã¤
par e
ĠBe zug
ĠSo ftware
ĠAd olf
B ox
Ġm ilitÃ¤r
ĠH on
ĠJ ob
ĠBer eits
B undes
p ace
av en
ĠPap st
Val id
S U
d ouble
Ġm ag
ad o
ĠSp Ã¤ter
sw ahl
ĠT enn
iel le
Ġ< =
ĠTem peratur
cript or
ĠSociet y
ĠmÃ¶ch ten
L abel
T hread
Ġs agte
ĠH oll
Ġausge tragen
Ġschwar z
ad rat
Ġtr an
w in
ĠAuf stieg
ĠG as
ĠBr Ã¼cke
Ġverl Ã¤uft
O ut
b orn
i Äĩ
ĠIn vest
ĠB ir
om an
Ġg Ã¼nst
ah er
ĠK ritik
st echn
ĠS up
Ġv Ã¶l
Ġz eich
ad a
Ġum fang
Trace Component
T echn
p os
iv il
us ion
denk mÃ¤ler
Ġer l
Ġver fÃ¼g
ĠArb eiter
II I
ĠNach richten
Or der
ĠMittel alter
rie be
Ġ192 4
H L
or ten
az in
ĠPar am
Ġo ffset
In d
ĠSow jet
Ã£ o
el a
br Ã¼cke
Ġdar in
Ġ192 2
Ġvers ucht
Ġbestimm ten
S G
ĠS ar
Ġst ets
ĠdÃ¼r fen
g g
ĠD ro
Ġer fÃ¼l
vers ammlung
ĠLe op
S k
fer enz
Bau werk
d urch
ĠC entr
pr et
ken nen
ur y
ĠT Ã¼rk
Ġan zu
gang s
il ian
ĠSt immen
own load
Ġ% )
ĠS V
ĠG ro
Ġ{ }
ĠY ou
ĠHand els
ict ion
Ġ19 11
Ġlie fert
Ġst aat
ash ington
Ġeng ag
ĠBew egung
st Ã¤nde
ĠGer hard
ĠBild ungs
ĠĊĠĊ ĠĊ
ĠWider stand
c el
Ġ3 6
ĠFran cis
p ack
ĠSt iftung
ĠEp is
Con trol
ren zt
olum b
ĠT iere
ul gar
ĠAl fred
u z
ĠE reig
Ġan ges
ĠSp ann
ac ter
Ġpar ent
ĠGeburt stag
ĠS PD
re en
Ġo utput
au d
ver stÃ¤nd
minister ium
K reis
ĠK as
Ġ19 12
Ġge bild
arr y
eren z
N ieder
w al
fan ter
B and
eich en
if y
č Ċĉĉĉĉ
om et
ĠSt off
Ġbet rug
ĠF ell
Ġpar se
( '
geb nisse
ohn er
Ġtr e
St adt
amer ika
ĠIhr em
Ġarb eitet
Ġentspr icht
Ġunmittel bar
ĠKomm and
leist ungen
ĠP a
ed ia
Ġr ein
Ġar gument
ĠwÃ¼r den
sp ir
Ġun ten
stru ktion
Ġh ave
ĠQu ellen
AT ION
or der
Ġd iver
ĠIn stit
Ã¤nd ler
Ġwicht ige
T R
g ing
Ġle bte
T P
ĠSt atus
Ã¶r en
ĠAc adem
B is
ĠA ktion
ĠC an
ĠSpiel zeit
Ġsetz en
ĠSalz burg
T O
er o
ĠL ieb
Ġh Ã¤lt
Ġgew onnen
glie dern
Ġverl assen
B esch
Ġ use
ow ski
ĠLeist ungs
lob al
brit ann
d ar
ri a
Ġle bten
D P
ar ischen
Ġ1 20
ĠPart y
ĠEin trag
med aille
ĠPhilosoph ie
k lass
Ã ±
an geb
ĠV om
ick s
ĠHÃ¶ hen
ĠLauf e
Ġbe endete
N o
z ul
ĠM ount
ĠN ic
ard s
Ġwen igen
ĠLeist ungen
rap per
ĠB u
ĠC ast
end a
ĠMann schaften
fr ist
il ien
ir n
] ,
ur ity
ĠW affen
ĠLe on
ĠAng riff
West falen
ĠC ap
get Class
ĠÃľ berg
rech te
ar zt
el ement
ĠK ult
we der
ĠBesch reibung
ĠAller dings
f Ã¤lt
Ã¶r den
pf licht
e ar
ĠEn gel
ĠFest ival
leist ung
Ġval id
A utor
P os
k Ã¼r
rik t
Ġkompl ett
s age
ĠMa il
A dresse
ch mal
fra gen
h or
n ational
ch em
Ġg roup
ĠSt ift
ĠÃ¼ber wiegend
ĠHau se
Ġbe an
ne ur
ĠF ac
erv let
c er
d t
Ġm o
ĠG ot
ĠE ss
tr at
Ġ6 5
ge fÃ¼
lin ien
Ã¼ck sicht
f abrik
or et
ĠD ate
il len
ĠO pfer
ĠSch riften
19 45
ĠEurop Ã¤ischen
ĠrÃ¶m isch
R em
c i
f alse
it ur
ĠUn garn
vent ion
List e
Ġ192 1
zip lin
r aten
Ġl ok
ĠHer steller
gemein den
ĠSonn tag
Ġverpf lich
u gend
ĠS at
sk y
gesch oss
ĠMet ern
ĠÃĸff entlich
Ġ Ä
im me
Ġgef Ã¤hr
weg s
st ern
ĠT ore
St ack
ĠFr ont
Client Exception
E hemal
ĠG ran
ĠPf lege
ontin ue
ĠGÃ¶tt ingen
R ule
g ern
ĠV illa
Nach dem
ĠPerson al
ĠC re
iel len
ial e
ĠR is
ĠGr Ã¤
gangen en
ĠK urt
ĠH it
ide os
Ġersch eint
ĠBas el
por ted
h i
s ied
ĠG ru
20 15
Ġausge stat
Ġw issen
eck lenburg
Ġgesp ielt
p osition
sch te
ol ler
ĠW echsel
ĠV is
Ġl ock
20 16
20 11
ichte ten
co ver
ig ungen
ir ge
B A
ĠD ivision
ĠT isch
ĠL ig
ĠDeutschland s
ĠStel len
ĠOrg anis
ĠHen ry
B utton
p a
ĠA ud
Ġin zwischen
art ige
Ġloc al
ĠermÃ¶glich t
de st
zieh ungen
ĠMat th
R L
u age
at rix
ist e
ĠBei trÃ¤ge
ĠS n
ĠBern hard
oper ation
ĠB oolean
de cken
ĠgehÃ¶r ten
Ġviel leicht
Ġ192 3
Ġar ch
ĠGes pr
Ġd agegen
Ġin itial
Ġpro perty
Ġun bek
ĠÃ ī
deut schen
Ġbr eit
G ruppe
z if
ĠA str
ĠL im
rei ter
20 10
Ġâ ļŃ
ĠChe f
B ar
it le
Ã© s
Ġbeg r
ĠjÃ¼n ger
ĠJak ob
ĠD E
ad el
ĠZ ahn
ĠauÃŁer halb
zÃ¼ ge
b a
Ġt Ã¼rk
lie fer
Ġbet re
Ġfol gten
ĠKr im
I s
ĠN a
ĠPort ug
quire d
s ein
ĠW issenschaften
Ġaus ger
geb iete
ht t
Ġbest immt
ĠBes atz
iti ative
w ood
an en
Ã¶r de
ĠDar m
D ouble
F uture
U M
Z eit
and a
ĠIn gen
bild ungs
ĠR eb
ĠVer lauf
Ġher gestellt
Ġch ild
Mus ik
is ierte
ĠT ar
Ġmoder nen
ĠM as
ĠT ype
Ġer fahren
Qu ellen
ĠWebs eite
Ġwahr scheinlich
ĠÃ¤hn lich
sie he
n ant
An notation
Ġbesonder e
E Class
g au
n ess
Ġw uchs
Å «
ĠB row
ĠM ur
il er
ĠO x
la zz
Ã¼t te
ĠMen ge
ĠSchul en
ĠIs land
Ġaus geb
Ġges ehen
Ġs agen
ĠW issen
ĠEr b
ĠGrund lage
is on
ĠL ex
ĠO ffiz
ue ber
Ġhel fen
ĠPrie ster
Ġw eg
ĠD iss
ĠFlug hafen
Referen ce
ĠSchwe den
I dent
L ock
o ffen
Ġkann st
T er
l ant
Ã ´
ĠM ol
wer te
Ġeinge stellt
Ġb itte
Ġo per
Ġ3 4
Ã¤hn ung
ĠInform ation
G roÃŁ
z un
Ã¤ her
ĠJ os
ite ktur
an er
at o
ĠK rÃ¤
ĠAut oren
ĠKarl s
ĠSin ne
st ad
ĠM ir
ĠE hr
stoff e
z ern
Ã¼ mer
St ore
Ġher r
Ġmittel s
rau t
Ġunterschied lichen
Input Stream
m ont
ĠE du
Ġbek annten
ĠMet all
ĠStu denten
ĠHo use
D B
ĠC r
ĠSie ger
ĠAus druck
ĠVerb and
z ust
20 14
Ġsow jet
ze ption
zu stellen
ĠÃ Ĺ
Ġle gte
Ġar gs
ennt nis
ĠZ eiten
end s
ĠThe ologie
ĠVo gel
Ġd ritte
Ġs k
teil en
glieder t
P RO
t or
gew Ã¶hn
ĠDar Ã¼ber
ĠS ign
ĠTh Ã¼r
Ġw id
ĠAll gemein
b i
Ã© e
ĠLu x
g Ã¼lt
Ġwir kte
L in
Ġspe c
Ġmax imal
ĠBlÃ¼ ten
G ER
T op
at al
20 12
ĠLu c
Ġge halten
gel d
ĠP orn
eit ag
Ġauf gerufen
leg te
ĠGust av
fur ter
ĠBraunsch weig
ĠS dk
Ã¶ hne
ĠVer halten
ĠAuf grund
< >();
B est
ĠH ab
ĠO bjekte
sch loss
Ġp rivate
ĠKl assen
ĠNeu en
ĠNÃ¼rn berg
j ava
ĠD ichter
em pl
ĠG all
Ġt op
io us
Ġerst es
Ġob wohl
fra struktur
v ir
Ġm atch
In s
Ġhoch wert
abr Ã¼ck
z wei
al te
ĠH ill
ĠHe ft
ĠgeprÃ¤ gt
ĠLeop old
w an
y er
Ġf ilter
I gnore
b ul
p olitik
eist ert
oci ation
A ut
ĠT hr
Ġp riv
dem okrat
ĠRech te
ĠOb serv
A ug
Z um
ĠJ Ã¼rgen
ĠOr tschaft
stu hl
A uth
n abrÃ¼ck
ĠHo hen
ĠArchite kten
Oper ation
ĠR icht
ĠAn wendung
Ġle er
amil ien
alis ierung
H E
M atch
p o
p osit
Ð ½
ĠG eg
Ġf ra
Ġl eitete
Ġbel egt
c ar
ĠB a
ĠKon fl
Ġpro cess
bo x
britann ien
ĠSdk ClientException
Ġk ultur
Ġsogen annte
F unction
l uss
r t
r and
Ġ15 0
Er baut
ĠGeh eim
ĠP unkten
Ġent stehen
gr Ã¶ÃŁ
echs eln
UR I
Ġrem ove
Ġz Ã¤hlt
Ġn eg
lieÃŁ t
tens ion
ĠArchite kt
din and
Ġb lock
mer ksam
200 9
ĠW ashington
Ġzu gleich
ĠEr inner
ĠAuf nahme
Ġinternational e
ĠPro te
Ċĉ ĠĠĠ
Ġmus ikal
isp lay
ĠH ard
Ġander s
bo ten
alis mus
f ilter
re a
ĠU ser
Ġvor bei
g roup
Ġ ter
ĠS ituation
sch uhe
ĠVer Ã¤nder
ĠArch iv
ĠD ank
Ġ190 7
Ã¤nd ig
org anisation
ĠGew icht
Ġval ues
k opf
ĠS uch
ĠK rank
ĠI f
ech te
ill on
stÃ¤nd igen
omin iert
b ilder
ĠK iel
ĠW unsch
Ġbek omm
arb e
Ġbek am
Ġbr ingt
ĠHein z
ĠKonz ert
ĠLeicht athlet
ĠS S
20 13
gest altung
n etz
w ach
ĠK andid
ĠP ok
is Debug
Ã¶ der
ĠF isch
ĠVor aus
ĠGra fen
ĠIde e
B ound
l Ã¶
un a
Ġr ule
Ġbe ob
ĠMÃ¶glich keiten
Ġgegeben en
er in
ĠL y
ik ations
rie d
Ã¤hl ten
Ch ange
arch iv
ĠQualif ikation
R oot
k y
ĠE g
Ġan erk
Ġ Î
an isch
ĠI dent
omm un
ges p
Ġgen annten
ĠH immel
Ġ3 8
con text
ĠgrÃ¶ÃŁ ere
Ġweit gehend
Che ck
Ol ymp
C ommand
Ġs ession
ĠT own
sk a
ĠKn oten
gem eine
ĠB art
ir che
ĠC a
ĠKar te
Ġstar tete
m ethod
Par ent
] );
ĠK och
ĠSer ver
ĠMor gen
p hen
ĠS C
Ġg alt
ĠJahr zehn
Ġj em
ĠFor men
State ment
ĠBeh andlung
Ġproduz iert
I G
Ġw under
Ġdeutsch sprach
Ġheut ige
ĠunterstÃ¼t zen
V P
ĠD Ã¶r
ĠgrÃ¶ÃŁ eren
ĠPres se
Ġunter s
ĠWei ÃŁ
ĠSitz e
D el
F ound
au x
ĠB lock
Ã¤n en
g as
k omp
in ce
Ġs agt
Ġin tens
Ġm ass
ĠW eimar
ĠR ath
ul es
ĠMa ster
hol t
ĠHam burger
F r
R o
enn fahrer
ĠErfahr ungen
it hm
Ġh eim
ĠIn halt
Ġsch lech
ĠBr asil
Ġges etz
ĠhÃ¶ch sten
Ġb i
im ale
Ã¶r ung
ĠBundes republik
w es
ĠNik ol
at oren
ĠD ub
ĠM em
Ġh eil
Ġr Ã¼ck
Ġwei b
ĠGo ogle
leid ung
c r
g rad
Ġz Ã¤hlen
oot ball
ĠfrÃ¼her en
ĠBesuch er
m ord
Ġcon tent
ĠCar ol
cod ing
isDebug Enabled
W arn
Ġ old
tr ich
ĠThe ologe
mÃ¶glich keiten
T im
au th
Ġn um
anz er
ĠDaten bank
ĠIl l
omb in
ĠvÃ¶l lig
2 000
Ġs ec
ist s
In valid
ĠsÃ¼d lichen
Ä «
Ġs icht
Ġein gesch
ĠF ert
re form
ĠBÃ¼ ro
h men
kt iv
Ġo ff
Ġ/ *
red it
Ġverlie hen
F irst
ĠP rag
Ġp ost
fel der
D em
ĠS end
der ungen
ĠW erb
tr ans
ĠSp iegel
rÃ¤ ume
Ġverantwort lich
Ġob j
trÃ¤ ger
ĠSchmid t
on ien
arb urg
Ġur l
Ġentsprechen den
N on
s Ã¤tz
Ġ ehr
ĠF al
Ġent gegen
ud es
200 8
ĠInter view
ĠRÃ¼ck en
ĠBund est
Ġzerst Ã¶rt
t eile
st ation
Ġs ystem
ĠO ri
ĠZ us
ĠRes erv
Ġmittler weile
Exec ution
Ġausgestat tet
mit h
Ã¶s ungen
ĠEhe frau
ĠHaup tr
Ġverw enden
ĠAustr alien
ack en
ĠSied lung
l Ã¤uf
ĠV iele
ĠEr de
Ġre duz
Ġdar gestellt
C olor
ra k
C al
D ocument
Ġ19 13
ab les
new Line
Ġ190 5
ĠbeschÃ¤ft igt
b lock
c u
n ers
z in
ĠB ibliothek
ĠT her
Ġge eignet
Ġc lient
Ġc ount
Ã¤us ern
Ġ19 17
ri or
ap pe
iert es
pl ib
ĠNord rhein
ĠH ttp
ĠÃ¼ber tragen
be zogen
st Ã¤tten
ĠW a
Ġerst re
Ġro t
plib Package
ar ische
ĠK ing
ĠG ir
ĠFe der
ĠJournal ist
ĠEin ige
ĠOr te
ĠTeil en
Ver Ã¶ffentlich
hand el
w ith
st Ã¼cke
et work
as p
ĠT rotz
ro und
ite in
Ġfin ally
I OException
Ġk einer
FA ULT
ĠK ath
ĠH Ã¤user
ĠO ut
ĠEr satz
Ġmehr fach
ĠHistor iker
D en
or age
Ġf ound
ĠVer d
ĠFrie den
wÃ¤r t
J son
o ption
p olit
ĠB ord
Ġm ust
im ension
ĠUn ternehmer
ult Ã¤t
ĠLe der
č ĊĠĠĠĠĠĠĠĠĠĠĠĠĠĠĠĠĠĠĠ
ĠE ck
ĠL i
Ġp lan
ĠWir kung
Ġkomm un
Ġab geschlossen
Ã© n
200 7
ĠKap elle
er weise
ĠS inn
em ark
ĠP re
ro at
ard inal
F rank
o ugh
in os
ar re
Ġver h
ick er
att form
ĠGrÃ¼n den
Ġbrit ische
ĠjÃ¤hr lich
. ),
ĠK a
ĠEn gl
ĠFl Ã¼gel
ĠTelef on
f amilie
ĠL oc
ĠVer hÃ¤ltnis
ĠAus land
af el
ĠKÃ¶nig s
ĠFer dinand
I terator
d b
sch auer
ion al
eck en
schul en
ĠSommer spiele
ĠLie fer
F inal
ĠL eit
Ġl etzt
ĠOs nabrÃ¼ck
Param eters
Ġamer ikanischen
H ash
d ach
Ġw ert
Ã¶ ss
ĠJu den
ĠÃ¶sterreich ischen
Ġkur ze
bÃ¼ cher
gren ze
Ã¤chs ischen
sp ar
ess ages
ĠĊĊ ĠĊ
B ild
p aar
ĠT ime
ĠC enter
Output Stream
i tem
ie fe
ĠG olden
Ġzu erst
ell i
Ġp erson
ĠPol y
val u
ĠLin ien
N ord
Ġr en
zen s
ĠMan agement
ĠPfarr er
ĠComm un
ĠFrÃ¼h jahr
k u
k rieges
z eigen
ĠD ol
ĠH erkunft
ber eitung
ĠV ict
ab teilung
ĠVer antwort
ĠAb t
akt or
ĠnÃ¶rd lichen
Ġd auer
ver treten
Ã¶ff nung
++ ;
Ġwest lichen
ĠV iol
ak et
Met adata
ĠErfahr ung
dien ste
c essor
ĠB reite
Ġver lieÃŁ
af rika
ie den
Ġm ensch
get eilt
ind ustrie
pl Ã¤tze
ult i
ze p
sb aden
ĠSchles wig
b ad
at om
it es
Ġ( ,
ĠL Ã¶sung
Ġl os
ĠKommun ikation
er es
ĠH ub
Tem plate
meld ung
z one
ei fen
Ġb uf
ĠH ell
Loc ation
ĠMos kau
Ġge mÃ¤ÃŁ
Ġent weder
st ab
Ġer gÃ¤n
ĠGew alt
ĠPfarr kirche
k arten
ĠF Ã¼n
Ġk Ã¼nstler
ĠÃ¼ber ra
Re ad
Ġerw arb
ĠWÃ¼r z
Ġeb enda
Ã º
Ä Ľ
om a
Ġp sych
k op
ul ts
ĠAl pen
ak er
Ġh il
ĠMon at
hei mer
ĠE ber
Ġl en
ss ystem
ĠVor gÃ¤nger
ĠKon zept
fer ence
i ode
ei sch
ĠS aar
Ġ190 8
It alien
h aben
is Entry
ĠT anz
ĠRe al
ĠDurch messer
ĠArch Ã¤
mÃ¶ gen
isEntry Enabled
p ft
ĠK athol
ĠSch laf
orden s
Ġs ign
Ġer kennen
he ute
og n
ĠStr e
if ft
isten z
Ġsynchron ized
ĠMar y
ĠAf plibPackage
Group Name
ĠSim on
kathol ischer
in ess
Ġb lau
ĠD rit
Ġn amens
ĠVer m
" ).
se ud
ĠC lau
Ġg ingen
ot ten
ĠBei de
ĠP eters
ĠWir k
Ġruss ischen
Ġd ein
Ġd Ã¤n
and te
ĠN ode
Ġver p
ĠZ ent
ac es
IN E
ĠInter essen
Weiter e
P ool
i od
ert ung
son sten
lan de
ant as
ĊĠĠĠĠĠĠĠĠĠĠĠĠĠĠĠĠĠĠĠĠĠĠĠĠĠĠĠĠĠĠĠĠ ĠĠĠ
bie ter
ĠS ab
ach ter
Ġverb reitet
m aterial
ĠI N
ĠIn tegr
Ġbet roffen
Ignore Case
ĠS ur
ĠElem ente
t a
ĠD ialog
Ġf ehlen
sp iegel
ech ts
ĠHer bert
Ġex ception
Ã¤h ler
stre am
H ost
or weg
et ing
Ġau str
ĠW M
Param s
unn el
hÃ¶ he
Ġ q
ĠS em
ag ne
ip pe
ĠGer ichts
ĠFer ien
Ġbestimm te
s ource
w ischen
ĠG roup
ĠC ode
az on
Wir tschaft
m atch
Ġc ode
Ġ7 5
Ġhin gegen
Ã¤mpf en
ĠUl rich
W idth
Ġp re
ĠFlug zeug
ĠGre en
ĠEntscheid ung
Ã¨ re
T eam
v ed
ĠG lauben
ĠnÃ¤ch ste
ĠJur ist
ĠHeraus geber
el se
Ġer stellt
Ġl esen
Ġor ient
Ġdah in
Ġunterschied liche
V D
ĠR ost
aus stellung
mÃ¶ glichen
H T
g Ã¤nge
et he
ian o
Ġbeg onnen
Hel per
r Ã¼ck
ĠF a
ul pt
ĠSt ation
Ġitalien ischen
ĠGrie chen
D oc
g u
ĠS eb
Ġ4 8
Ġsel ber
ĠNord osten
Ġ190 4
> ,
ĠL ieder
ĠSch ritt
ĠGroÃŁ britannien
Ġverb ess
haf te
Ġzeig te
Ġn utz
Ġ3 9
ĠJo achim
Ch annel
ĠRest au
Ġwes entlich
Ñ Ģ
ei tern
Par ser
ĠDeb Ã¼t
Ġs ech
ĠF ein
ĠR au
ĠQu er
vor sitzen
200 6
ĠEd ition
ĠKap it
Des criptor
part ner
elig i
Ġstr ing
oin ts
ĠErz Ã¤hl
ĠP u
il a
ic ago
Ġst anden
av or
Ġro ot
k om
m ack
Ġt schech
Ġver schw
ĠVer anstaltungen
iz enz
ĠTeil nahme
Ġeinge fÃ¼hrt
ĠMax im
lÃ¤ss lich
Hol stein
ie fen
Ã¤ st
ĠK os
ĠP ersÃ¶n
Ġ190 9
ĠÃ¼b rigen
Ġ rad
ĠKon gress
Ġverst Ã¤r
ĠAutom obil
L OG
U ID
p pen
is en
Ã¶ ÃŁen
ĠJ ena
ĠWohn ung
D isk
Ġb ildete
ĠM und
ĠRe aktion
Ġlie f
zug s
F unktion
Ġh Ã¤tten
ĠUnter richt
k unst
ig ner
Ġl Ã¶
ges sen
ĠEurop ameister
con fig
D S
b uffer
ĠRegion al
P ass
W ei
b oolean
t arget
lie s
200 5
ĠHoch schullehrer
t lichen
Ġs org
ĠB ol
Ġl eider
ic ate
ĠTod es
fÃ¤l le
ĠZei traum
) {
V ar
ip ps
rup p
M ot
ĠD Ã¤n
ĠC O
ĠZ ahlen
equ ence
ĠPap ier
ĠPreuÃŁ en
W ork
g ab
Ġ Ã¶ffentlich
ĠB ob
Ġf al
ĠUn abhÃ¤ng
gra f
Ã¤ umen
rit or
lei hung
ĠNeu bau
man agement
sta aten
j en
s ur
Ġan hand
Ġeinz ig
Ġrech ten
Ġ( "
Ġge kommen
Ġver kehr
lo cken
ĠGÃ¤ ste
ĠAn h
mer kungen
ĠAuf ent
Re c
Ġur kund
ĠNieder sachsen
ĠBar on
Ġlin ken
ĠAcadem y
mann s
ock et
e vent
Ġn umber
ĠN ahr
G ew
h em
er ben
at alog
as er
ed ig
up pen
Ġweiter es
ĠBundes liga
Ġeinger ichtet
fass ungs
sch ef
ĠF le
t x
Ã¶ die
ĠL ind
ĠMon aten
Ġben utzt
ĠZw eit
P T
Ġw eist
Ġm einen
ĠF ass
re ht
ĠAl tern
ohn t
ĠRei sen
il de
Ġk o
ĠMÃ¼n ch
ĠSchau spiel
Ã ł
st edt
ĠW ohl
Ġber Ã¼hm
ĠBl att
Ġend gÃ¼lt
ĠTex te
ĠRelig ion
ouver neur
r el
Er ster
ĠInternational en
Ġf loat
Ã¼r en
pen den
čĊ čĊĠĠĠĠĠĠĠ
Ġgez eigt
au ff
ĠL am
iff er
st eine
ten d
lei s
fÃ¼hr en
Stra ÃŁe
zun ehmen
ĠB yte
ak a
ne ct
B ev
J uni
n icht
ĠE st
o e
ĠÂ §
sicht lich
ĠRÃ¼ck kehr
D ar
k g
Ĩ Ĵ
or es
ĠI P
ĠÃ¼ber haupt
ĠWie sbaden
ĠSchn itt
ifiz iert
b ro
f ind
l Ã¤nge
Å ¾
Ġ3 7
zeit ung
ĠLauf bahn
ĠIns gesamt
Ġengl ischen
ter e
Ġf reuen
wei ht
rÃ¤s ident
Ġor iginal
ĠD ouble
ĠI T
ĠTeam s
Ġgebild et
et ts
am at
ĠR od
Ġgleichnam igen
5 00
ĠP el
ĠEin heit
Ġum ben
deut sche
ĠBild hauer
fÃ¤h igkeit
s umer
Ġ one
Ġw riter
ĠT rau
ĠAb schnitt
th ur
ĠhÃ¶ch ste
Besch reibung
z eigt
on ischen
ĠB an
Ġre c
pf lege
T I
st eiger
ĠS um
ur es
Ġm Ã¤nn
ĠL aut
ĠAn frage
ĠAl lt
Ġtr itt
ĠSÃ¼d osten
Ġerweiter t
ĠM ak
ĠL en
Ã¤hr ung
ktion s
Ġda ÃŁ
Ġv ierten
her zog
nis sen
Sch riften
ĠEm il
ĠLin ks
j i
st euer
ĠE ind
den ken
ab geord
th eit
res ponse
ĠFahr zeuge
prÃ¼ ft
p erson
ur ts
Ġber uf
gesch rieben
rich ter
equals IgnoreCase
f rom
ei ert
rei f
pl ement
Ġ4 2
Ġprof ession
ĠD ien
Ġ" ,
af e
ĠSh ow
P olitik
Ġs ucht
ĠSp itzen
ĠRhein land
Ġform at
ber echt
ĠZ ul
ell o
ot her
ate ur
N r
k ern
Ġs up
ĠR ing
eu ten
Ġsch eint
Ã¼nd ungs
ER R
bl Ã¤tter
Ġ190 6
hand lungen
Ġschw ier
ĠWeltkrieg s
Ġd ienen
uÃŁ er
int on
geord net
ĠT Ã¼b
ph an
ĠFranz Ã¶s
Ġmed izin
Ã ¥
Ġh alb
ĠOr dens
ĠKon s
ĠFre unde
aff el
ĠGeist licher
Ġhe ader
Ġbeein fl
m ir
ĠB ert
ĠD auer
ĠAn dr
ert ation
ain ing
ĠFunktion en
igitalis at
E ishockeyspieler
n s
Ġ ueber
ĠSchl uss
Ġne ed
ĠFÃ¶rder ung
B ack
im ple
untime Exception
ĠFak ultÃ¤t
ĠL iber
gel t
ĠbenÃ¶t igt
Ġtats Ã¤chlich
st eigen
tr oll
ĠÃľber setzung
Ġ[ âĢ¦
ĠGesund heits
Ġsch reiben
bau er
ĠGesund heit
Ġtre ffen
ĠA st
ĠM io
ĠK assel
Ġf Ã¤llt
ann en
mal er
Un ternehmen
lig isten
Trans action
Bev Ã¶lker
p ass
ĠV an
iel l
ru he
ex ec
Ġober en
- )
st Ã¤d
Ġm el
Ġg eist
Ġp os
ĠNord westen
ĠErw achsen
ĠSon ne
in zen
Ġm sg
ĠS us
sen z
ĠNetz werk
ĠMaÃŁ nahmen
ĠPrem ier
D ollar
ol ogen
ĠC y
ap ter
auf hin
ĠIs lam
ĠHa ft
Alb um
fanter ie
P re
Ã¶r ter
f alt
at in
Ġh ast
ĠUr laub
itein ander
ach bar
om ain
ĠC amb
ĠFor st
' )
ie m
Ġbes itzen
The ater
Europ ameister
ĠN eum
ĠO k
ell es
ĠAn lagen
ĠHand buch
KE Y
ĠÃĸffentlich keit
# #
C ol
Ċ ĊĠĠĠĠĠĠĠĠĠĠĠĠĠĠĠĠĠĠĠ
ĠK rieges
Ġp op
Ġ4 4
Ġat tr
Ġspr ach
Welt meisterschaft
ĠM ission
ĊĠĠĠĠĠĠĠĠ ĊĠĠĠĠĠĠĠ
ul s
ĠBe ziehungen
ĠFig ur
ĠBayer ischen
P AR
Ġm et
Ã¶ z
ĠZ eu
ĠOp ern
Ġaustr al
B Ã¼rger
B erg
H aupt
m sg
Ã «
ĠBl og
ĠAd els
ĠSÃ¼d westen
ĠVerÃ¶ffentlich ung
ĠB ass
Ġ19 15
ĠAd el
aff e
steh ung
V ariable
b aus
g ibt
s or
ĠK art
ĠBer icht
ĠSo und
hard t
denkmal e
Dire ctory
ĠSowjet union
j ew
ĠG rad
ĠH orn
Ġver sehen
hal ter
ĠKl ima
Ġcon nection
Ġ189 0
ur i
Ġl ern
ĠHer stellung
Al le
ĠStud io
Ġvers ion
ĠStel lung
ĠÃ¶ff entliche
t ime
Ġd isk
Ġw achsen
Ã¤ ÃŁ
ĠR am
oren z
read y
m Ã¼hle
ei se
Ġs rc
ĠR oll
aus schuss
ĠWar en
Ġmein em
Ġw ork
Ġf ahren
ĠW ett
lie genden
Ġ18 48
Ġre f
ĠThe odor
bahn hof
m es
ĠV iew
pl atte
En um
ikan ischer
ĠMod el
zÃ¼ glich
S ele
ĠCh icago
ĠPier re
a ster
v ar
Ġs an
ĠM is
ĠM ecklenburg
ĠN och
ul i
Ġt Ã¶
scha ffen
Ġab gerufen
ĠKomm ission
Ġentsprechen de
ĠSÃ¤nger in
al ia
ĠIn f
ind ing
ail able
heb ung
Ġgepl ant
ĠFernse hen
O C
ĠIn dex
ow a
get Key
ĠFahr er
ĠWe ge
Ġkur zen
Polit iker
ĠV aters
off iz
B ad
pe cted
ick e
L ayout
b n
Ġt ief
ĠComp any
emb le
ĠB och
ĠD ok
ĠK Ã¼n
ĠK anz
ĠstÃ¤r ker
htt p
G en
il s
Ġt otal
ĠFilm s
ĠMag de
ĠZug ang
ĠStreck en
lowak ei
ĠWeihn achts
ĠR ollen
ĠJ ed
ĠU RL
ĠSch on
Ġa v
ĠWelt meisterschaft
Ġ190 3
bew egung
Ġnah men
Warn ings
M eister
ĠK eller
ĠK anada
Ġk auf
ĠBe ck
Ġel f
ĠRei hen
ograph ische
value Of
g ung
er ber
ro h
Ã¤n ner
lin der
ĠKÃ¼ che
ĠEng agement
w itz
ĠB asketball
ĠerklÃ¤r te
Aug ust
P attern
S egment
k ammer
ĠH ockey
Ã¼n der
ov a
Ã¤m lich
reg ion
ĠKomb ination
ĠU kra
ĠEr weiter
setz te
icher ungs
Ser ie
gren zen
Ñ ģ
st aben
ĠPro p
Ġen dete
Ġor der
ĠGren zen
======== ========
ĠAngel es
ĠImm obil
ĠSib Tr
P I
m essage
Ġer le
se qu
ell schaften
Ġvor gesehen
ĠMar ien
Ġman chmal
ĠMex iko
() ).
Ġdurch schnitt
war n
ĠOrt es
reg ister
ĠBron ze
aliforn ien
Ġexec ute
ĠJ on
up date
P ER
V ER
ĠA R
ĠL ove
ĠN un
atur es
Ð¾ Ð
P lan
ĠN omin
land es
Ġange legt
ĠEben e
R ange
ĠD adurch
ĠF reu
hrow able
Er folge
ĠgroÃŁ es
Ġger ing
m ond
Ġber ufen
Ġbesonder en
ĠOper ation
k Ã¶rper
z um
Ġd ate
Ġs amm
ĠO ffen
wor ten
Ġw a
ĠM ut
ĠR ail
ra ys
ri an
ĠEr schein
ran ge
ĠFr em
Ġspr icht
D ialog
k urs
ar io
Ġin n
ĠV Ã¶lker
eg al
Ġc ontinue
ĊĠĠĠĠĠĠĠĠĠĠĠĠĠĠĠĠ ĠĠĠĠ
Ã¤l de
ont o
Ġentwick eln
B et
S ettings
V is
ĠS ym
ĠV f
get Type
gr aben
Ġf eier
ĠC am
Ġp f
wer den
Ã¤ng nis
mitt lung
VAL UE
A F
Ġb ar
Ġin nen
ĠP reise
Ġsp ort
fÃ¼hr ten
Ġstell vertreten
ĠV iz
ĠSch r
log ger
Z E
ĠL aw
Ġer laubt
Ġtr ug
ĠEdu ard
ĠP ie
Ġun er
all er
ĠOr chester
ail len
wir kungen
E P
E hr
w Ã¤l
ĠK urs
ĠMin er
i ro
ĠD aher
ab elle
ri b
aus gabe
ĠBest e
Ġon ly
Pl atz
Ġreich t
ĠFeuer wehr
d own
Ã Ĺ
on ial
ĠD ampf
Ġt au
ĠSp itze
ĠSchl Ã¼ssel
ĠBevÃ¶lker ungs
ĠOrd nung
c as
z n
ĠBe ob
ĠRes ult
ĠSchiff e
L age
ĠK e
Ġer mÃ¶glichen
ahr t
eh e
Ġc ol
ĠpersÃ¶n lichen
sph Ã¤re
B i
L iter
el and
ĠL iter
ĠFÃ¼r sten
Ġengl ischer
t ml
st atus
al ys
ĠJ agd
ĠVer gangen
Ã¤r z
ĠAb itur
Ġzwei mal
Org anisation
od urch
ĠBew ohner
k ore
Ġv ari
Ġzum indest
ÃŃ n
Ġreg istr
st ift
il ber
Ġ18 70
Ġar ray
ĠBrÃ¼ der
C reate
E M
em e
ĠP en
Ġ19 16
Ġk Ã¼r
sp ace
sh ausen
Ġber ichtet
Sup press
ĠObserv able
ĠT au
ĠO pt
ĠSp aÃŁ
In nen
gel eitet
ob ile
En g
ĠGroÃŁ e
Ġeinzel ne
ĠFig uren
ĠOx ford
L ast
z iger
as on
Ã¶ se
Ġauf gelÃ¶st
ser ver
Kl asse
histor iker
ĠHelm ut
ĠBenutz er
D A
J an
W il
Ġin stall
ir us
eu ert
Die ser
itÃ¤t s
ĠKon rad
ĠBet eil
ĠStud ie
Ġho her
ĠT ief
ann ter
Ġab geb
ĠBe ziehung
ĠRo ten
Ġ190 1
ĠStra ÃŁ
ĠBrit ish
M en
ĠS au
Ġn Ã¤mlich
In stitut
ĠPro z
ĠMar ke
ĠBereich en
ĠmÃ¶glich st
ĠÃ¶sterreich ische
Ġgemeins amen
m inton
Å Ħ
auf nahme
ĠVers uch
b indung
ĠR ett
Ġt oken
gesch Ã¤ft
Er st
ĠMon ument
Ġersch einen
Ġoffiziel l
D ur
ĠForm el
L ang
Ã¼ pf
Ġw odurch
ĠPr im
Ã¶m isch
ĠSam stag
prÃ¤sent anten
n um
ch ten
ĠS ig
Ġn Ã¶t
ĠT ok
ist ischer
ian er
ekt ar
ĠOrg an
ĠAss ociation
ĠChem ie
k as
l v
anz ig
ho uld
ĠIn halte
ĠAn spruch
Ġc ache
ĠEr ich
ition en
eig h
ĠWeiter en
fre und
ĠParam eter
o hlen
at is
ber eit
ix el
tag s
Chr ist
ein s
ĠM Ã¶n
ier end
ĠVer dienst
trÃ¤ gen
Ġunterschied lich
ĠK ul
ĠG au
ir d
ren nen
ĠBes itzer
tre ffen
ĠHash Map
T S
he ater
iz iner
ĠStr and
qu es
fl Ã¼gel
mot or
S pr
h orn
Ġn Ã¤her
ĠW egen
ĠR ap
wend ungen
ĠG ymnasium
Ġver gangenen
iz iert
Ġab ger
Ġbef ore
ĠHistor y
has Next
ĠRath aus
Ġp rim
ĠVer anstaltung
ĠPublik um
on ische
ann er
ĠGest altung
Ġscha ffen
ĠIngen ieur
ĠM ethoden
ĠP red
ĠEn s
Ġumben annt
m ission
Ġd eine
ĠS oph
our t
umen ten
ĠDisk uss
P O
ar ed
it o
ol and
ĠE ast
gesch lagen
Ġexist iert
klus ive
Suppress Warnings
y e
Ġl Ã¤ng
ĠDie ter
geh Ã¶r
ĠSm art
ĠDarm stadt
Ġl iter
ĠJuli us
ĠGed anken
ĠPor trÃ¤t
ĠM isch
ĠÃ¼ber w
ĠNach w
Ġ5 5
ĠOber st
Ġ190 2
ĠProf il
> <
g on
on st
et on
Ġmod el
ut nant
ug ies
Ġgen ug
Sch w
ĠX ML
Ap plication
ĠB ade
et ch
ĠL eute
Ġhistor ische
Ġerinn ert
1 20
tr an
200 3
ĠAktiv itÃ¤ten
ĠInstit ute
er a
au p
Ġp osition
Ġbel g
D ist
e en
v in
ĠM r
sp rechen
lo h
ĠAbgeord neten
ĠTÃ¼b ingen
h u
sp recher
ĠEin richtung
Ġbest ritt
fÃ¼hr te
cle ar
posit ory
m or
Ġg rau
ĠEr folge
ĠSpr achen
cri be
ĠNationalsozial ismus
R ed
d is
p ubl
v m
ar ray
ĠN S
sen der
Ġgew Ã¤hr
Des cription
lad ung
S yn
z ell
in ts
ĠNach richt
ĠGeb rauch
akte ur
ĠGeg ner
c ia
l ige
Ġv is
Ġb ase
ĠK ost
ĠW Ã¤r
Ġc al
ĠPlan ung
ĠJust iz
g yp
ĠK ob
eb ook
art igen
str om
ĠEx empl
Ġdenn och
ĠKat zen
ĠW ag
iel en
sp rech
ĠBau werk
ĠLei den
ate ll
ib il
ĠPrÃ¤s identen
ĠTÃ¼rk ei
M O
S ehenswÃ¼rdigkeiten
e der
ab et
ver anstaltung
lie d
ĠFran ken
ĠFernseh serie
ĠKranken haus
K urz
P res
S eine
v ollen
wei st
ĠAuf lÃ¶sung
ĠfÃ¼hr ten
ĠPartei en
ĠStÃ¤d ten
ĠSchwer punkt
ĠbestÃ¤t igt
ĠScien ce
" ));
B undle
Ġs Ã¤m
Ġf ein
ert ific
ast ian
fÃ¼r st
F rie
H aus
al tete
te uer
ĠP ast
Ġst Ã¤dt
ĠEr l
alb um
u ellen
ĠA qu
Ġum geben
Un able
ennt nisse
zuf Ã¼hren
N S
ĠD B
ĠP DF
ĠOr ch
St yle
verein s
c ount
o ks
ĠMar ken
ĠGesch ichten
Ġbeg innen
ĠGener ation
ĠUntersuch ung
K ompon
r Ã¼cken
ĠS erv
ĠS emin
ĠG ang
ĠJ a
ĠSt urm
Ġunter sch
Ġbekomm t
ĠVergangen heit
M atrix
b raun
ĠZ un
ic ro
ĠAn trag
ĠDan eben
haf ten
E G
ĠDie trich
art ig
200 4
Ġ189 8
ĠBahn strecke
ur l
Ġs orgen
Ġs hould
id o
Ġges ellschaft
ĠFor um
cl ub
ĠIs rael
A ccount
ĠM auer
Ġm aÃŁ
gen Ã¶ss
ett o
Ġdar aus
eh lt
ord net
ĠEnt fern
Ġbesch reibt
ĠFrei zeit
D an
M B
etz te
ĠGrÃ¼n der
ĠNutz er
Ġ[âĢ¦ ]
T itel
in ia
ĠW in
Ġzu stÃ¤ndig
Ġun gefÃ¤hr
ĠMatth ias
D u
ĠD ata
ĠF ield
ĠR ay
ĠQu elle
ĠKap itel
ĠAs ien
ĠKomp osition
ĠWÃ¼rz burg
S ign
g ot
it tel
ĠA achen
ĠM ond
ĠG olf
Ġf ung
tr ack
us en
etz ten
ks h
inder t
cl ude
scheid et
ĠEigen schaften
Ap i
Ġpoln ischen
Jo hann
ĠtÃ¤ glich
H eight
W h
f ft
n es
ĠT Ã¶ch
qu ery
Ġent ity
ĠChamp ion
h s
p ost
Ġ Ã¶stlichen
ĠM au
Ġ189 5
Ġus w
masch inen
r iss
Ġn ominiert
ol o
ĠT sch
ĠV ize
Ġvers uchte
ĠV ar
ent um
Ã¼n den
St at
ÃŃ a
B o
H o
atz e
b or
l eiten
al em
ĠM assen
Ġr eligi
Ġsch reibt
ator s
ĠGes icht
ĠLehr e
ĠIntern al
ĠKÃ¶l ner
Ġstar ken
n i
en zen
Ġm iteinander
ĠL abel
ĠLex ikon
ar ren
Ġan gesehen
Ġzu g
ĠUn fall
ĠzurÃ¼ck ge
Ġverschieden er
Ġnahe zu
ĠMeer es
E C
ei de
pl atten
vers orgung
ĠGemein schaft
Ġmoder ne
Ġerz Ã¤hlt
v oke
ĠN eb
alen der
F re
M M
b und
at ing
Ġver legt
alt h
hand lung
gor ithm
ĠTrain ing
ĠSch lieÃŁ
Ġl ernen
Ġbis lang
Ġsp rechen
An halt
ĠGemein der
At tributes
ĠOb wohl
Ġd is
ĠR umÃ¤n
ĠSchriftsteller in
ĠBron z
ĠKamer a
) ");
F ahr
ĠT raum
ct ure
icher heit
ĠGel egen
Ġlo ad
Ġkathol ischen
B ody
M em
ar ina
ess in
Ġvor aus
ĠFr eitag
ĠgrÃ¶ÃŁ er
ĠSer ien
ĠBarb ara
ĠÃ¤lte ste
ĠInstr ument
Ġautomat isch
Ġstre am
d auer
d irektor
k in
ĠB re
ach ed
amp le
n t
Ġz er
le f
is ation
Ġ2 50
id d
ug in
ex it
Ġsp Ã¤t
olog isch
ĠFilm e
M ont
Ġ18 80
bo ard
ĠFrank furter
Fa iled
K o
c ause
Ġd ank
ĠS ak
ĠO ne
Ġerh oben
ĠTab ellen
Ġim age
og t
ĠSp recher
In ternal
ĠPro t
ĠMa y
ĠThe orie
Ġgelegen en
schlÃ¤ ge
ĠS ymbol
und ert
ĠDe ck
ĠGeb urts
urop a
Ab sol
1 15
v ision
Ã¶ h
ĠFrei en
ĠIns eln
ĠSant a
ĠUntersuch ungen
T A
Ã¤ fer
ĠF la
ĠIn put
Ã¤n k
Ġtr ifft
acht ung
ĠTer min
ĠBed ingungen
ĠDon au
ĠCol or
c tr
Id s
ĠBew eg
ĠHalb finale
Ġser ver
at i
ĠM ord
ĠP S
ab end
Con stra
ĠDe v
akt oren
ĠGegen wart
ĠRu h
Ġzunehmen d
sÃ¤tz lich
k Ã¼nd
il i
ĠR ab
ĠMit gliedern
St ud
br Ã¼
ĠMon te
ĠÂ ·
deck ung
Ġheraus gegeben
Ġland wirtschaft
ĠTenn is
b reak
ger s
Ġj ung
pf l
our s
ĠKr on
Inter face
Kir chen
Mill is
F rei
F ran
L I
e ct
in ett
ĠT hread
Ġc annot
produ ktion
ĠverfÃ¼g bar
ĠDiss ertation
c en
h eil
Ġd eb
Ġf lie
ĠJ ud
Ġver geben
Ġp hil
zie ht
ĠInd ien
ĠAnt wort
ĠBen ed
ĠWill i
ĠProduktion s
c ast
t Ã¼mer
le hre
Ġl Ã¤uft
Ġet abl
olle y
An t
Ġ189 9
krieg s
Ġfrei en
Met a
Ã¤dag oge
W rapper
m ag
sen de
Ġen glisch
Ġgemeins ame
ĠDipl om
ra in
ĠZ oll
her ren
ĠMein ung
ĠAutob ahn
ĠS Ã¶hne
ĠP C
ist a
Ġj ob
ĠBl au
Ġbet rieb
ĠFrie dens
in ne
Ġc le
Pro ject
Ġerh ielten
ĠDaten schutz
ĠAf rika
ĠCD U
vier tel
1 17
Ġb auen
ĠO tt
elt a
Ġwe der
ĠAngeb ote
Pf alz
B el
Ġb lieben
ĠW urz
Ġp rev
op en
Ġunter en
ĠZu schauer
Ġb uild
ĠD ire
ĠF lie
ĠT w
ĠZ ivil
id s
ild et
ĠTh is
Ġletz ter
M use
Ġb ayer
Ġver ur
ĠEd el
ĠDist rikt
Ġgriech ischen
1 16
Ġau th
ver ter
ĠIn g
Ã¶r ungen
Ġtr af
ss on
ĠSe kunden
eite ten
ĠMed ia
Ġgest altet
ĠS of
ĠZ y
leg ten
Ġnational en
Ġsw itch
1 18
c opy
ĠP ir
ĠUn sere
ĠAug sburg
ĠÃ¤lter en
Ġph ys
zÃ¤hl ung
teil ungen
Ġex p
ĠRo h
Ġgegr Ã¼ndeten
ĠTab elle
W ind
k ow
ĠL ib
ĠL ake
oten t
ĠMich el
ĠkÃ¶nn ten
ĠFÃ¤l len
ĠStre et
B as
Ã¼ gt
Ġs inn
ver zeichnis
ĠWir ken
Ġend lich
ĠMil ch
en gl
ĠL angen
ap el
Ġ/ >
sb ruck
ĠAd am
Ġben achbar
Ġ189 6
Field s
ĠCas ino
Ġentst eht
W as
p ers
Ġn orweg
ĠJ ava
ĠC at
sp f
eich e
ug os
ech ten
Film ografie
l im
r ig
in it
ĠT ats
Ã¶ gel
ra gen
ĠSt imme
lo k
Ġex tra
bo den
Ġs orgt
ĠH enn
Ġan gew
Ã¤t t
ment s
lÃ¤nd ischen
ĠRegen sburg
us se
Ġg olden
Ġver urs
ĠAn f
get P
ru e
rit iker
ip pen
jahr es
al om
ol z
ĠF Ã¤h
ĠR uf
ab t
Ġent w
ĠOr ten
pro f
Ġby tes
ĠRund funk
D DR
M ich
ĠM ethod
de gang
ĠN ah
ĠKl im
stud ium
iv es
vir on
o ir
ch ip
sch wer
Ġzu geordnet
br ingen
ĠBru st
ĠschÃ¶n e
iw od
n y
Ġn atur
ĠL it
ber icht
Ġbe endet
Ġsch ied
ĠOr den
ĠHand ball
ĠEurop as
ĠNational mannschaft
Ġparam eters
Å Ł
ar ia
ĠV il
ĠV irg
ĠEn glisch
ĠFl ucht
ĠQu adrat
Ġgef ert
Ġnotwend ig
Ġmo dern
l ot
ĠC all
ĠEin sch
Ġpro perties
ĠWelt krieges
ĠJuni oren
Ġeinz igen
ĠHerr n
F L
od ox
arb eitete
ĠLand schafts
for scher
Ġsol chen
Ġmittel alter
char At
ctiv ity
k w
l or
t ur
u ste
er ten
ĠK Ã¶r
ĠL ot
ĠAus einander
Ġ5 2
Ġ189 7
Ġerforder lich
ĠF abrik
ĠL ast
ger ichts
Ġ6 00
Ġausge fÃ¼hrt
hin dern
ĠTa schen
Ġerstre ckt
D aten
c al
f arben
ĠJ etzt
Ġst at
Ġ4 6
ĠMar ine
ĠBr enn
ĠGes ang
ĠVerb esser
ĠAlb recht
S ervlet
ĠSt Ã¤r
sp ur
A v
Ġun ge
ĠAr ts
ĠRu hr
ĠSchn ell
ĠjÃ¼d ischen
L a
b Ã¶
b chen
ĠP as
ug o
Ġcon vert
con s
DE FAULT
kur renz
D C
S el
in ken
ĠPro jekte
ob j
iff erenz
mar sch
so ap
ĠBÃ¼ hnen
ĠHil fs
ĠVarian te
B eim
m ine
n itten
p pe
p ool
le te
Ġh ell
reg isseur
ĠGra z
Ġreg ul
National mannschaft
F iles
c ul
Ġver hindern
ĠEin richtungen
âĢľ ).
usÃ¤tz lich
ĠrÃ¶m ischen
w ettbewerb
on ne
ĠD igit
Ġm ot
ĠL ine
ĠR aj
us sen
ĠSt att
get Id
Ġsch rift
200 1
verkehr s
ĠSong s
P ersÃ¶n
ĠB ell
Ġein iger
is a
Ġkon zentr
J Ã¤hr
Ġs ort
ĠB ier
ĠD et
ĠSch uhe
pl ic
zeich nen
ĠBo ot
Ġpar allel
4 00
m auer
ĠM obil
ĠT rÃ¤ger
Ġer zeugt
ubl ish
ĠBe am
Ġwel chem
B S
M o
Ġl auf
ĠAn forderungen
vers icherung
li as
Ġseit dem
ĠmÃ¶glich erweise
G raph
b ahnen
n ap
Ġ Ã¼
ĠD iv
ĠG reg
ĠE ugen
le ft
se d
ĠZ erst
ĠIn frastruktur
20 19
ais s
Ġ8 00
ec ted
Ġnie dr
vert eid
Ġzie hen
. _
P air
t yp
eb e
os a
ub il
ĠAus nahme
index Of
ĠMinister prÃ¤sident
SD AP
ĠN ow
me er
ĠFrei heit
Ġteil s
ĠBeh Ã¶rden
ĠKontr olle
l ings
y an
ĠIn itiative
ĠStr ate
Ġ4 3
ĠBr ig
ĠGesch lech
B eg
Ã¼r f
ad or
Ġch em
ĠEd ward
ĠMaterial ien
te am
ĠKÃ¼ sten
ĠPortug al
c s
ĠK le
ĠSch aden
ges prochen
Ġwissenschaft lichen
V A
Ġw Ã¼n
ĠM eyer
ĠE v
ĠI d
Ġunter halb
ĠReg ionen
teil s
rÃ¼ st
Ġeigen es
ĠDes halb
Ġwicht igen
ĠBesch Ã¤ft
mod ell
Ġsozial en
rÃ¤n kt
ĠM ech
ĠW eil
zen ten
ĠBer atung
ay a
wir kung
iat eilnehmer
ĠBesonder s
ĠEntwick lungs
Ġpriv aten
M e
d ner
ĠD omin
de hn
ĠT irol
we ge
ĠDat um
bed ingt
e arch
ĠF alls
Ġan genommen
ĠTr ier
Element s
etr ic
bed ingungen
ĠEing ang
ertific ate
st Ã¤nden
al m
ĠVer z
ĠReg ister
ais er
ĠHaus es
jÃ¤hr iger
med izin
seit ig
ĠerhÃ¤lt lich
Ġverpflich tet
' );
l itz
ĠAr r
zen e
Ġ" /
Ġsp Ã¤ten
utz ung
Qu eue
Ġbeh andelt
Ad d
Ġklein es
verband es
Ġurkund lich
g i
s ession
um b
ĠSch ach
Ġr om
ĠFl Ã¤chen
ĠRo hr
200 2
fr ont
Ã¶rder ung
ziehungs weise
ĠMagde burg
O p
Ġn ennt
ĠK linik
tr o
ĠC orn
ĠO der
Ã¶n e
ĠKl ub
wohn er
asil ian
Ġ( ;
ĠP ath
gr Ã¶ÃŁe
Ġtechn ischen
ĠBestand teil
F alls
st arts
ei he
ĠT ode
ĠAn z
Ġc lose
ial izer
ĠStel l
Ġschwer en
M ember
U P
hr op
ĠV ari
Ġl atein
par ent
ĠSchn eider
ĠPhys ik
on i
ar rei
Ġein s
ĠP od
ĠL ust
up p
ĠCamb ridge
S PD
d ung
f ir
z ert
ein heit
Ġein geb
Ġwir kt
ĠEin heiten
echs elt
Reg istry
H ein
ĠK ie
igen t
olog ischer
Ġle hr
eist ungs
ĠThÃ¼r ingen
r uss
Ġd elete
Ġb ot
ag a
get R
Ġent schied
Ġ4 9
Einz el
Ġ189 2
Dat ei
masch ine
ĠBrem er
c olumn
o pt
st um
or ient
ĠM u
Ġk ir
est amp
ĠSt an
ĠBo ok
ĠAt lant
anc en
ĠAng st
ĠP oint
ĠC ir
Ġt ask
ĠSch ild
ĠRe de
ph a
ĠKup fer
X ml
Ġ1 10
Ġver Ã¤ndert
Ġst ru
ĠÃ¼ber nehmen
ĠKon zer
ator ium
ĠWei ÃŁen
Ġstark e
chip karte
ĠK ub
ĠO ster
Ġab gesch
ĠMar i
ĠSte phan
ĠBo gen
ĠWahl kreis
ĠDort mund
ĠDÃ¤n emark
t z
Ġ art
Ġf lieÃŁt
Ġauf gestellt
ĠVer w
Ã¤r ten
gr ab
imm ungen
199 9
ĠTer r
iqu es
Ġklein ere
ĠMehr heit
Ġgar ant
ĠWo iwod
ĠBrasil ien
v ens
Â ®
ĠK ardinal
ĠL ar
Ġg Ã¼lt
Ġbe ziehungsweise
ip end
setz er
Ġverst ehen
ko hol
Ġgetr ennt
ĠS QL
ĠK alk
Ġpar ams
Key s
Ġhand le
Not Found
AG E
ĠViel zahl
maÃŁ nahmen
ĠMik ro
X ML
Ġ app
ĠS ir
au ten
ĠA ction
ĠP ian
Ġau ÃŁen
le utnant
Ġ18 60
ard o
ĠMan fred
Ġspe zial
Ber eits
way s
Ġspeziel l
ĠJes u
ĠTÃ¶ch ter
it ive
it ies
ĠK alifornien
her steller
ĠPl atten
ĠFrancis co
ĠOri ent
N E
ĠK rie
isch Ã¶
Ġvor gestellt
Ġklass ischen
N um
N ov
b an
r amm
ĠB itte
Ġden k
Ġge tragen
im um
ob by
ĠMar gar
val ues
Ã¤mpf e
ĠKommun al
ĠChe ck
Ġangegeben en
ĠPrinz ip
ĠKÃ¼n ste
ĠD ich
ĠT onnen
ĠR ie
Ġent schieden
ont akt
Ġbes etzt
ĠUm setzung
ĠAt hen
M apping
Ġ iter
as ien
Ġf allen
ĠJ ungen
Ġauf gebaut
Ġ6 4
ĠGer Ã¤te
hÃ¤lt nisse
Ġaufge fÃ¼hrt
Land kreis
ĠBus iness
Ġbetr achtet
c or
ĠG h
ĠInn sbruck
Spiel er
ĠGÃ¼n ther
L en
Ã¤ ub
Ġaus zu
Ġ18 89
schn itts
Jahr en
Ġbas iert
f ranzÃ¶s
se g
Ġan schlieÃŁen
ied elt
ĠEm p
ĠArn old
iar den
F ranz
M essages
ĠD un
ĠW en
Ġver t
Ġzwei ter
ĠTem pel
est en
ĠSch atten
Ġlie be
out h
fang s
ĠSan kt
check ed
ĠImmobil ien
. /
r ic
r ang
ĠM oment
Ġein heim
ĠV I
lass ung
Ġ% /
gy pt
ĠprÃ¤sent iert
gehÃ¶ rigen
viron ment
P o
P refix
h art
m ung
m and
est e
ph ase
folg ung
ĠKÃ¶nig in
State Exception
K W
O st
w el
ur o
ĠF inn
ĠL ife
gel s
mit glieder
Ġbesch Ã¤d
unter richt
Ġoffiziel len
Ġopt im
v es
ĠB em
ir urg
ĠVer wand
Ġa c
Ġab zu
Pro gramm
eck e
Olymp iateilnehmer
ĠS ender
ĠE h
ĠH eb
ĠH ow
spieler in
ĠBet reu
ĠGew erk
spl atz
C A
S equence
s Ã¤nger
Ġp orn
ĠUn ser
Ġ18 50
ĠAl te
ak i
ant h
Ġfre und
ĠGespr Ã¤ch
k ul
ĠT u
ĠL ein
ĠVerein igung
M Ã¤rz
b ody
} ,
Ã¤ ure
ĠB Ã¤nde
Ġr un
ord s
iss ement
stit ution
O T
ĠĠ Ċ
ver k
Ġj ahr
ak ademie
Qu alif
ite kt
< >(
D r
S cript
p re
ĠK Ã¼r
Ġber Ã¼cksicht
ĠKo operation
ĠSoc ial
sto ÃŁ
Ehemal ige
ĠZent imeter
k re
č Ċĉĉĉĉĉĉ
wei ÃŁ
Ġ18 71
ĠkÃ¶n ne
Ã¤mpf er
ĠStaat sb
def ault
ĠFÃ¼n f
C re
m lich
Ġk Ã¶rper
ĠSt unde
Ã¤r t
ast rop
rat es
ĠMot iv
ĠMod elle
ĠWe ber
ĠWh ite
ĠBist um
b ett
ĠS oll
ĠD etails
ĠM ach
Ġein schlieÃŁlich
Ġk om
ĠVer zeichnis
ĠSp ec
ak u
omm ent
Ġ4 1
off set
ĠEurop ean
Ġâ ĨĴ
Null able
ĠMathemat ik
ĠB om
ĠM att
Ġr uh
geb nis
tt ps
Ġspiel ten
ieb el
Ġjapan ischen
s up
Ã¤ udes
ĠL inz
ĠSp itz
af r
ive au
Ges ellschaft
n chen
Ġer lang
sk l
Ġbes aÃŁ
ĠMuseum s
( _
U I
ĠSch le
ĠSch aff
Ã¶r g
ak es
Ġpro blem
Ġgleich e
ĠGrÃ¼n en
ĠKÃ¼ ste
ĠursprÃ¼n glichen
f els
ĠK amp
Ġunter scheiden
inz ip
fen ster
ĠBundes staat
Ã³ w
ontin u
S ein
Z wischen
ĠS av
ĠH Ã¼gel
ĠT it
Ã¼t ze
ĠkÃ¶n ig
Un d
Ġviel fÃ¤lt
Ã¤nder te
riff e
ĠGef ahr
> )
W ert
h et
ich ert
ĠD inge
Ġin tern
ĠK am
sw issenschaft
M ath
h old
k Ã¼ste
an on
Ġan y
sp rechend
ix ed
C ar
b ein
at tet
ĠD ownload
ĠH Ã¶ch
Ġt ag
Ġsp ann
Ġend et
Ġsicht bar
gyp ten
U ri
lich em
sp olitik
)) );
Ġgesch Ã¼tzt
Ġange zeigt
Ġport ugies
Ġjem and
T est
u ccess
ge tr
ĠM d
ĠW ell
ing u
ing ung
ĠAn th
stra ÃŁen
ĠFot ograf
Jahr e
ĠWind ows
Ġdunk el
Ñ Ĥ
ĠS P
Ġb ut
Ġh um
ĠVer arbeitung
Ã© g
Ġrech te
Ġerwar tet
w riter
z ellen
Ġk ombin
Ġo ver
Ġp ubliz
ĠEr f
ĠGef angen
Ġdo es
em ed
Ġst atus
Ġre quired
ategor y
ordin ate
ĠunabhÃ¤ng ig
ĠRost ock
R echts
h Ã¤ndler
ĠB y
ĠD ra
all o
ger Ã¤t
ĠEr Ã¶ffnung
Ġwir ken
ĠAd ler
ĠNew s
ĠInstitut s
n oten
Ġn am
Ġal ready
ap s
ĠAl li
ack er
Ġex trem
Ġbedeuten d
ĠjÃ¼n g
r oll
ĠS mith
Ġn ennen
ol ve
ĠR iesen
Ġh Ã¶ren
ĠO m
sp lan
sk on
ĠFahr t
Ġchines ischen
ĠGriechen land
j an
ab s
ĠU fer
Ġsch eiter
Ġtr eten
ĠBr es
Ġverb indet
Ġeinge tragen
send ung
mo sphÃ¤re
Ġzentr alen
or ff
Ġv ar
Ġin fo
ĠP ed
ĠAn ne
ĠAm ster
Ġte st
ĠHor st
T ri
i y
u an
ĠL eb
ĠAr thur
ĠY o
weis ung
ĠQ ue
S ow
b ibliothek
s inn
ĠW it
ĠGr Ã¼ndungs
Ġ189 3
ĠAmts zeit
__ __
ĠZus atz
re al
ĠAr men
ĠÃ ł
Ã© t
trag ung
Ġzie ht
vertr eter
B uch
F amilie
b ungen
ĠB rau
Ã¤r ung
Ġ4 7
ĠSe en
Ġgew Ã¼n
ĠMann heim
ĠWerk en
fÃ¶rm ig
Ġdeutschsprach igen
P anel
re place
ro id
ay ern
form ationen
gesch windigkeit
Ġerw orben
reuÃŁ en
Schwei z
ĠWoiwod schaft
s ort
er ung
in ischen
st ock
ĠL ag
fahr zeug
Ar b
Ġverl etzt
ĠAp ost
Ġerr ichtete
A bst
B ew
el ine
em it
Ġst ill
get D
ak en
ĠAus bau
St affel
Ġ15 00
stre cken
Hand lung
ĠzusÃ¤tz liche
umm ern
A kt
ĠA ster
em pf
ĠF F
ob ject
ĠPl Ã¤tze
ĠFranz isk
Not Null
Ġbestehen den
Ġtechn ische
ĠFac ebook
S H
h es
ĠS eg
te sten
ĠĊ Ġ
ĠEr ste
gr Ã¤
Ġ189 1
Ġerg ibt
ĠOffiz ier
m eter
ĠB ase
aus s
mus iker
Ġange p
ĠAkt ien
d y
Ġb ack
ol i
Ġk Ã¼
ĊĠĠĠĠĠĠĠĠĠĠĠĠĠĠĠĠ Ġ
je kten
ĠMark us
ĠVerbr eitung
1 13
N e
ĠS ul
ver hÃ¤ltnis
ger Ã¤te
ĠEin kauf
geb irge
ĠFl eisch
ĠBr uch
bes itz
igr ation
ĠSeb astian
m acher
Ġbe zeichnete
Ġnach halt
An merkungen
Ġoffiziel le
ar o
em ie
ĠH op
Ġre ag
Ġbesch lossen
ĠInform ations
Ġricht ige
ĠBot schafter
ĠMasch ine
stechn ik
O K
r ight
ĠM arburg
ĠR untimeException
get Property
ĠFl ag
ĠPf arrei
Sc ope
M ain
ĠB Ã¼r
ver lÃ¤ss
ĠAn alyse
Pro cess
stru ctor
**** ****
1 10
C or
a ber
on ia
Ġein deut
ĠH av
ut s
ĠV ideos
ÃŁ ig
Ġver n
ĠRe kord
hof en
ĠPolitiker in
Ġparam eter
ĠerhÃ¶ ht
Ġbein hal
ĠKarls ruhe
1 14
M A
ie be
ar in
Ġn on
ĠG anz
ik i
ĠSt ich
ĠAn im
geb lich
sh ot
Ã¤ch er
con stants
ĠJos Ã©
Wil helm
ur ren
Ġm ont
Ġc or
ste te
org anis
Ġlang sam
ĠAlex and
Ġpl atz
Ġverf asste
P ost
ĠS ens
ĠS ynchron
ĠM inder
ĠE arl
Ġf rau
iz ont
lo ud
Ġander es
Ġfor der
Ġeigen er
Ġeh e
S uch
c z
m ess
v ater
Ġd ist
ĠG Ã¶t
ĠN ap
Ġver anst
Ġwar um
Ġc opy
teil te
Ã¼nd nis
ĠHoch zeit
ĠFahr rad
J ava
n eu
ei be
ĠB it
Ġi l
ĠZ iele
ĠStr eam
ĠAl ben
stell ig
be am
IT Y
Ġstattf inden
Ġpromov iert
b uilder
l ein
ĠS auer
ĠRe quest
ma ÃŁen
produ zent
prÃ¼ fung
Ġtran sport
ĠIll ustr
I l
k olle
ei r
au ert
ĠD ur
ĠK Ã¶n
ĠI ran
ĠV ie
ĠAn bieter
Ġunter wegs
Ã¤nger ung
ĠCon tent
ĠGeschÃ¤fts fÃ¼hrer
Ġscha ff
E Mail
k ov
sch rau
Ã¤ b
Ġb rau
Ġf uhr
ĠH ey
Ġver ab
he d
ed ule
aus bildung
Ġpro p
sb ed
uff ix
ĠNieder lage
Ġbisher igen
Ġperfe kt
Ġl iber
tel s
Ġvor wiegend
min ist
Ġ189 4
ĠBÃ¼ hne
In sel
tel ligen
Ġget Ã¶
arch itektur
Ġwicht iger
ĠSc ott
Ġwissenschaft liche
V ol
p ommern
x ml
in stitut
ort s
ob el
ĠAuf nahmen
Com parator
ĠUkra ine
P C
sch i
rei strÃ¤ger
Ã¼t t
ost on
asse d
Ġch ange
199 6
ĠLebens mittel
Cal endar
NotFound Exception
Ġh Ã¤uf
ĠGeb iete
werk en
Ġat tribute
oz i
Kir che
D i
V ector
v as
w s
ĠV it
ĠGraf schaft
ĠBundest ag
ĠAllt ag
ugos law
em burg
ĠT rieb
sp or
Ġsch m
ĠSchw imm
ĠPass ag
f arbe
n d
o ire
Ã ª
Ġb raucht
tr ies
ĠV el
sp unkt
ĠSpr inger
gÃ¤n glich
Dat abase
Ġtrotz dem
bÃ¼rger meister
ERR OR
R Ã¶misch
r olle
Ċ Ċĉĉĉ
ch te
ĠK im
ĠH as
ent in
ĠO pp
Ġtr ain
ĠMin ute
ĠFlÃ¼cht linge
O F
ĠS ache
Ġb ist
Sch ema
Ã¼l l
Ġitalien ische
ĠpersÃ¶n lich
P hil
ĠAn gabe
St ar
ĠIm age
ĠSchw ier
IN T
ĠGrund lagen
schn itte
ĠBur gen
' :
K inder
ch ange
ĠD irekt
Ġo st
he dr
Ġum ge
ĠEnt stehung
ĠBuch staben
199 8
Se arch
leb nis
ĠF u
Ġf rem
ĠW is
ĠSie ben
ath on
Ã¼t ter
ĠPer spekt
ĠAstr onom
sch icht
ĠM uster
ul er
Ġp age
Pro zent
ĠSh op
frie den
H inter
K arl
p ap
ĠM ah
Ġan lÃ¤sslich
Ġl es
end o
Ġ18 74
qu alitÃ¤t
Ġoffen en
ĠÅ ł
ĠÃ¤lte sten
starts With
L auf
un try
au g
or i
ĠF ro
ĠG ab
ĠP ots
ĠW ahlen
ĠSch ott
ĠSp eicher
Ġ18 85
ĠGe gend
iss ions
ĠEnt wurf
ĠWelt cup
ĠAt om
ĠTechn ologie
Ġnational e
C ommerce
m Ã¼n
{ }
ei ern
ĠM ode
Ġh ttps
Ġg ern
sh aus
rup ted
ren g
Ġengl ische
ĠGleich zeitig
ĠVerÃ¤nder ungen
ĠB io
ĠW art
ĠT O
ĠT eu
ĠL at
up pert
Un sere
igh ts
ĠKolle gen
ĠFreu de
J ose
T eil
V I
s ign
us k
ut sch
ĠSt ates
ĠâĢ Ķ
Ġre cord
Str u
pro cess
Fe ature
ĠpreuÃŁ ischen
E t
h off
i Ã³n
um in
Ġver teid
af ft
ĠPol iz
Ġverkauf te
Ġbau te
- /
D igitalisat
E Object
w Ã¤hnung
Ì Ī
isch t
ĠN ation
est and
ot ograf
ĠVer eine
ĠSchw anz
sb urger
Ġges ucht
ĠKr ist
ĠSzen e
ĠSend ung
k le
t able
Ð º
Ġver boten
ĠSch mer
ĠQu art
ond issement
ĠBes etzung
ĠRu he
Reg ion
ĠLÃ¶ wen
Ġpop ul
M ilitÃ¤r
Ġd oc
ĠS ud
ĠA dresse
ĠH agen
ĠH ugo
ver se
ien z
ind ungs
In ternational
ok ens
ner stag
ĠGemeinde gebiet
war en
Ġvertr at
s Ã¤tzen
on str
ĠL ibr
ic ip
ĠRob in
zep te
or b
und et
se y
Ġan gen
eich ern
ĠCh ance
bach er
ĠBi ograph
ĠBed arf
LO W
ĠBoch um
B en
k Ã¼nft
Ġw Ã¤hlen
Ġk g
Ġst eigen
St iftung
ĠAm ateur
ĠGeb iets
ĠOb last
ĠStraÃŁen bahn
ĠNic ol
ĠÄ Į
B B
E le
ĠH yp
ĠH rsg
ĠT ax
ĠL iv
ĠV ikt
Ġh ieÃŁ
ent ation
ik um
he orie
ĠAus gang
stant in
Header s
ĠAmster dam
o ul
u i
el emen
Ġ( ),
ĠL uther
Ġauf treten
ĠSch reib
Ġr ele
Ġ18 88
ĠAus bildungs
ay load
ĠUnter schied
ĠWelt meisterschaften
Ġdort igen
Sie g
Ġkon serv
ĠSa al
Ġverst arb
Ġverst orben
aly t
/ *
ĠB ibel
Ġm ult
is ieren
ĠT herapie
Ġge Ã¤ndert
Ġg uter
ĠAus zeichnung
ĠAben teuer
ĠIllegal StateException
Dec lar
1 12
S QL
m y
Ġw echseln
ĠB ulgar
ĠH em
Ġsch ott
Ġj son
qu elle
Ġbeg leitet
for mer
ĠBundes ver
jahr en
ĠGott fried
ĠAnh Ã¤nger
g round
t al
ge legen
ĠN R
Ġg ro
sp itze
ĠHal te
abil ity
ĠDrehbuch autor
S ol
Ī Ĵ
ei ÃŁ
Ġb it
Ġn annte
pro jekt
ĠUm gang
Ġkomp lex
u en
er tet
ar isch
Ã¤ fte
ĠA fr
ct s
etz ungen
Ġbr asilian
ĠTer ror
With ServiceResponse
Ġexist ieren
opp elt
WithServiceResponse Async
h te
ann a
Ġaus fÃ¼hr
all iga
Ġ5 1
ĠBau er
ĠHam mer
Ġwei ÃŁen
ĠGef Ã¤ngnis
AN CE
unn ing
D ep
ĠB utton
ĠT ob
Ġer geben
eh end
Ġbe cause
Ġa ction
auf bau
ied lung
ĠInd ividu
Ġtem plate
Kompon ist
h y
| |
sch ten
ĠF ootball
est ra
ot os
Ġc lazz
Ġakt iven
Ġhervor ra
Ġverbr achte
k amp
ä ¸
ar g
ĠD VD
ĠP enn
Ġh ost
ĠIn fanterie
erk ennung
ĠUm bau
igt es
ĠRes earch
Ġgegr Ã¼ndete
Ä ĥ
ie bt
Ġz Ã¤hlte
ĠL Ã¶sungen
ĠEr richtung
Ġsch uf
deck e
ĠRegierung schef
Ġass ert
ĠR al
ĠR et
re gel
ĠN az
ĠC op
Ġzu folge
ĠOber flÃ¤che
ĠNieder l
ĠJugend liche
druck t
Ġ186 7
ĠGed ichte
Mus iker
Frie drich
ĠF ar
im er
os se
ĠÃ¼ber setzt
fl ow
ĠDi Ã¶z
low en
ĠLÃ¼ beck
8 00
S ingle
l u
au te
ĠP ower
Ġer mittelt
ant eil
Ġteil nehmen
forder t
Ġnord westlich
Final e
Ġv iew
Ġm y
ĠF ilter
ĠP anzer
Ã¶ ck
tr op
Ġl ink
Ġp oint
ess ischen
zeit schrift
ĠÃľber sicht
verb indung
ĠInternational e
Ġlist ener
ĠDipl omat
ĠExper ten
ĠNachw uchs
C P
ĠAd d
AT A
G E
M aler
ĠH ome
Ġp assed
get Instance
Ġ18 87
form ance
kl ar
199 0
herr schaft
ch ern
ĠP az
Ġan f
he ad
Ġdurch aus
Str ate
Ġpro du
ĠChr isten
Ġhier bei
sprÃ¼n glich
Ġoption s
S um
ĠS T
ĠA ff
ĠEin en
In itial
ilen ame
Ġunbek annt
ĠArr ondissement
K unst
f u
p at
un s
is ierten
ĠL ew
iz en
Ġunter b
Ġ" );
ph ys
Ã¤ch ter
ĠGem Ã¤lde
ĠVerlag s
ĠNe ur
irt ual
ĠBab y
ĠChampion ship
J apan
L P
ĠS I
ĠB at
ĠW Ã¼n
ĠW Ã¤l
Ġsch Ã¶nen
ĠAr ab
ĠGer Ã¤t
Ġhin ein
Ġgest alten
199 5
ĠMont ag
ĠpersÃ¶n liche
ĠOption al
s d
sch irm
ĠR ub
Ġge fallen
Ġg renzt
ĠAn wesen
Ġj ur
ĠOr der
Ġbest ell
ĠmÃ¶ glichen
F O
em p
ĠR oland
ĠAus fÃ¼hrung
SC O
ĠAnton io
Ġeinf ache
Ġlau tet
aiss ance
b eu
or ph
ĠH ektar
ĠN ull
ri z
Ġvor ge
reich er
ĠGes am
ĠTer ritor
strahl ung
ĠK Ã¤r
Ġf arb
ĠL ande
ed y
Ġgel b
ĠGo ethe
F S
M ehr
M sg
R uss
ĠH ig
ĠÃ¼ber sch
ĠAus stattung
ma jor
licher weise
ĠGew erbe
Ġgesp eichert
Ġwoll ten
Gr und
hoch schule
abgeord neter
h Ã¼ter
Â ³
â Ĥ¬
ĠM icro
Ġher um
ĠBest ell
Ġricht igen
dat um
ĠEpis oden
olumb ia
( ...
B ef
R S
g ard
s cription
et ung
ĠD ynam
ĠI terator
ĠEr wer
âĢľ -
ech er
bau te
ĠKirchen gemeinde
Ġdisk ut
Ġs ymbol
Ġein zu
he ber
fahr ts
Er gebnisse
bo ok
ĠTra g
ĠAs yl
Ġgelegen e
k B
st ahl
Ġb raun
ĠL ern
ĠL inden
ig in
Ġ5 6
d elete
ĠB alt
em als
le ute
ĠW ork
Ġ20 22
end el
arb eitern
Ã¤nd ige
Ġcon figuration
Ġgelegen tlich
ĠerÃ¶ff nete
ĠAbgeord neter
spart ei
ĠGÃ¼n ter
F B
l iteratur
ch or
ei ra
ĠR ess
ro y
ĠN ote
Ġaus reich
be cken
ĠBeg r
Ġbestehen de
ĠGi pfel
ĠNor wegen
Ġzie mlich
Ident ifier
ĠBened ikt
u ay
er ing
ie ht
ĠH T
Pro cessor
wir t
ĠBel gien
cy cl
mod el
ĠVerÃ¶ffentlich ungen
ĠAllgemein en
st ar
or men
ĠF I
ĠE th
ĠL as
ĠR oss
ann i
Ġzu kÃ¼nft
wei ler
Ġsp anischer
yd ro
On ly
ĠMÃ¶ bel
S ymbol
U B
e ber
an dern
Ġm e
ĠF ehl
ĠSch los
ĠGr amm
bar er
Ã¼t ten
ĠLe e
ĠGrund stÃ¼ck
bereich e
Ġumf asste
ĠTour ismus
I ter
ĠS ort
ĠS yr
ft ig
Ġver gessen
rie f
Ġle ft
Pro xy
Ġhin ten
ĠGroÃŁ teil
Ġbeh aup
gn or
ĠLOG GER
ĠIntegr ation
Jan uar
K Ã¶nig
r ennfahrer
Ġd omin
Ġt mp
ĠZ e
Ġre prÃ¤sent
stan bul
add All
geh oben
> ()
Z one
k at
Ã¤ use
Ġm er
ĠN ationen
Ġent h
ĠspÃ¤ter e
ĠMittel punkt
Ġhand elte
ĠEt hn
cel ona
ĠE ishockeyspieler
Ã¶r dern
dent ial
Ġverl Ã¤ng
ĠRef er
ĠFÃ¼hr er
Ġwes halb
ĠhÃ¶her en
ĠBrow n
c ape
m ain
t ums
Ġ Ã¶rt
st ufe
ĠA tt
ĠP age
ĠH amm
ĠEin kommen
od a
ĠBl ue
ĠBl Ã¤tter
Ġher unter
sw ert
Ġor dent
Ġsozial e
Ġorganis iert
Ġposit iv
ĠSzen en
Ġehr en
g reg
v inz
w ahlen
z ten
ĠF as
ĠG Ã¶r
ĠBl umen
ĠFre e
arm on
ĠDis ziplin
Ġans Ã¤ss
N atur
h ar
t w
an ia
on line
ĠW ood
ĠR Ã¶m
ĠZ it
ĠAn st
ĠSp ir
ran denburg
bau en
ett ing
wer ten
ĊĠĠĠĠĠĠĠĠĠĠĠĠĠĠĠĠĠĠĠĠĠĠĠĠĠĠĠĠĠĠĠĠ ĠĠĠĠĠĠĠ
ande ur
Ass ign
ĠBrief wechsel
; ;
w all
st ritten
ĠM aur
Ġt hread
ien ne
Ġges und
Reg iment
Ġklein eren
ĠStad ion
zust and
ĠgetÃ¶ tet
T our
un checked
ĠM Ã¼hl
est ern
ĠZ o
ĠVer stÃ¤nd
ap i
Ġbe qu
ĠCh allen
Ġ8 5
Ġerfolg reichen
ĠÃĦ hn
ĠMill iarden
minister iums
ĠPrÃ¼ fung
ĠLok omot
ĠMÃ¼nch ner
Erster wÃ¤hnung
' ,
P RE
us alem
ĠJ son
Ġsch lieÃŁen
ov en
Ġbest anden
Ġbes uchen
Ġdar um
ĠRo ute
uck et
omet ry
eistert itel
ĠK ino
ĠG a
Ġh a
ĠIn stall
Ġzum eist
ĠMar s
Ġmehr erer
Ġfre ie
ĠTex as
Ġgetr offen
ĠVen edig
ĠKomment ar
ĠLeichtathlet ik
g riffen
p al
in str
Ġw and
le vel
Ġl eitet
ru st
zeug ung
Ġse par
Ã¤dagog ik
ĠÃĦn derungen
al i
el or
Ġin it
par atur
gew inn
ĠfÃ¼n ften
Loc ale
ĠHen ri
D est
ier er
ang es
Ã¤t zt
ĠAb stand
auth or
ĠEntfern ung
T ran
el en
Die ses
Ġe v
br Ã¼ck
ĠGesch mack
Mod ule
ĠTechn ischen
ĠAlter s
Ġruss ische
Fol der
ĠKrim inal
B O
H eute
ch ild
ie ck
ĠS ei
Ġsch lecht
ĠAl les
qu enz
Ġent lassen
ĠSk ulpt
ĠTest ament
spe kte
Pol icy
Ġkanad ischer
iffer ent
ĠBronz emed
n ieder
Â ´
un ken
sch rank
ĠM ig
ĠN am
ĠC ro
Ġk Ã¼nd
ĠZ ehn
ĠZ usÃ¤tzlich
hl on
br and
Ã¶ff net
Ġvers uchen
199 7
Ġse arch
Ġeinf achen
\ \
n ames
t au
ĠM ans
Ġk ennt
Ġt here
sen s
Ġst ation
ĠGemein sam
ingen ieur
// //
besch reibung
ĠVort eil
r al
ĠG ouverneur
Ġbe auftrag
ungs gebiet
ĠMit tler
Ġsp anischen
ĠAuf tr
ĠCh urch
ĠFran Ã§
ĠGe denk
ekt or
ĠGraf ik
C C
f irst
s agen
ĠĠĠĠĠĠĠĠ ĠĠĠ
Ġge legt
ĠâĢ ¢
art ikel
ĠWei bchen
ĠWerk statt
ĠÃĦ gypten
Ġerreich ten
ĠKompon isten
ĠMaler ei
fÃ¼l lt
Frank reich
M I
j ob
ar gs
ĠF unk
ĠP ion
ĠE ier
ber uf
ĠV ill
ĠN ie
Ġal tern
ran ten
Ġunter gebracht
yl van
ĠAutor in
gefÃ¼ gt
Ġ reichen
is m
Ġsch Ã¼tzen
Ġ18 79
ĠBe ach
Ã¤nd igen
ail ure
Ġis lam
hol m
ĠsÃ¼d Ã¶stlich
ST R
ĠBed Ã¼rf
prÃ¤ senz
ĠGest alt
the EObject
sto ffen
Wer degang
s ing
in ary
ĠT oten
ĠR io
ĠZ er
ĠVer mÃ¶gen
geb ieten
ĠKon zentr
Al t
ĠGroÃŁ herzog
ĠForm at
Array List
ĠEinwohner zahl
Ġnorm al
ĠErk rank
lehn t
Ġdiver se
ĠendgÃ¼lt ig
B U
M Ã¼n
w ur
ent wick
Ġsch wei
199 4
ĠGef Ã¼hl
SE T
Se ptember
ĠDenkmal schutz
ĠWag ner
R eturn
S L
] )
v iel
v oc
an ie
ĠM eg
ĠG locken
ĠL or
wei ten
Ġst arten
ob jekt
ĠUnivers itÃ¤ten
ĠPh ase
Ġgel angen
199 2
ĠIntern ets
ĠBil dern
ĠNomin ierung
r ingen
Ġd okument
ĠF ans
ĠP riv
Ġ18 75
ĠKloster s
ĠRestau rant
exec ute
P eter
b al
ĠB iele
Ġf inde
ra ct
our cen
Ġ5 3
Ġ< /
ĠsÃ¼d westlich
part ei
D ev
M ai
f ession
t l
Ġd Ã¼n
or um
ĠD il
ĠD ollar
Ġg ros
get String
ĠMa jor
Ġ5 4
ha i
ĠBern d
ĠAmer ika
ĠAlt ar
ĠOs car
ĠFÃ¼hr ungs
Le ft
ĠRett ungs
ĠRumÃ¤n ien
d ir
p ul
ĠE UR
Ġg u
ĠZ ell
ĠAuf merksam
Sch ule
ĠBl ues
ĠPf ad
port al
ĠFir st
fÃ¤l len
ĠHin weise
CD U
ĠPfer de
ĠHÃ¶ch st
č ĊĠĠĠĠĠĠĠĠĠ
st on
ĠS Ã£o
ĠN erv
Ġt hen
Ġl ei
Ġst Ã¼r
id met
pr es
ĠAus sicht
Ã¶l z
amer a
Ġem pty
OR T
riter ien
ĠFreund in
Ġallgemein en
ĠVerantwort ung
: :
v arian
ĠP seud
ĠR on
ĠHer zen
ĠVerb indungen
mÃ¤ÃŁ ige
Ġkor re
Non Null
ĠDrit tel
Ġkir ch
K an
T hrowable
g reifen
Ġan fangs
res p
Ge ografie
Ġruss ischer
Ġtem p
. ).
Ä Ł
Ġd b
ĠS omit
ĠK il
Ġf ach
Ġan geschlossen
ĠSch all
lei ben
fe ature
ĠÃľber blick
ĠPf licht
ĠVertrag s
Ġgeboren e
ĠKrank heit
i pe
j ust
as mus
Ġm Ã¼ndet
ĠG od
ĠG ame
ĠO h
Ġ18 78
lo ÃŁ
Ġre ader
me te
Ġle hn
ĠBundes wehr
ĠVers and
Ġschn eller
ĠschlieÃŁ t
ifiz ierung
agn ost
C lose
Ġ est
Ġw idth
ĠB ull
ĠK ohl
ĠW inkel
Ġver arbeitet
sp reis
Ġvor ber
Ġkon troll
Ġpolit isch
Ġempf ehlen
ĠWel tr
BevÃ¶lker ungs
Ġverur teilt
W E
á ¸
eb urg
ĠSt Ã¼cke
ĠAn sicht
Ġnach fol
Ġum s
Ġvor ne
ob ald
ĠKon struktion
ĠPr omot
eck t
ĠGra ph
ĠDar aufhin
Ġchar akter
spann ung
k rank
m ie
t oken
Ġk Ã¼nft
Ġan sonsten
ĠO ze
Ġauf zu
ĠVer fassungs
Ġ18 76
geb oren
20 20
Ġbef ind
eten z
Ch ain
zahl ung
spro zess
ĠRegel n
Ġjeder zeit
ĠhÃ¶ here
LA SS
ĠAward s
in us
Ġs end
ĠB os
ol stadt
ĠE ishockey
ĠL atein
ĠR ac
tr im
Ġk re
ĠAuf sicht
Ġviel er
ĠBet on
Ġmittler en
angeb ot
rÃ¼st ung
ĠD afÃ¼r
ĠK un
19 39
ĠFran ce
Ġges agt
yn ast
Ġ186 6
ĠKÃ¼ hl
m as
ĠM essage
ĠK Z
ĠL och
Ġzu gÃ¤nglich
Ġ} ;
gesch lecht
Res ources
EN D
ĠBar celona
ĠMor itz
gehÃ¶ rige
N odes
k ette
Ġ ol
am burg
ĠSp uren
ĠNach folge
ph one
AR T
ĠZug riff
Ġkathol ische
Ġlok alen
Ġheil igen
Ġgefert igt
b old
s em
z o
ĠH ex
Ã¶ scht
ĠC lient
Ġ+ +
Ġgen ieÃŁen
ĠUm fang
ĠSo zi
ĠFrei herr
ĠDenn och
ĠErweiter ung
T ags
g han
p ot
Î ¿
ra xis
ĠVer fassung
aus o
Ġbes ucht
ĠHand werk
ĠKunst stoff
verein igung
ĠPrÃ¼ f
W ar
] [
d ire
an ke
ĠK ra
ĠSp Ã¤t
Ġ18 15
ĠAm azon
ĠGeb ieten
ĠFr ucht
komm t
ĠEpis ode
) -
Ġ( ).
ĠR eh
Ġc ommand
Ġwei sen
Ġzeit weise
ĠReform ation
A gent
O pen
ĠS un
Ã¼ re
ĠW itten
ri ver
ĠVor bild
Ġdies mal
ĠBau ch
kehr t
Ġgel ungen
ĠSk i
lay er
ĠDorf es
fÃ¤l lig
NO T
C up
K ap
M W
y c
ĠK G
ĠK Ã¼nst
ĠR eiter
Ġt hr
auf nahmen
pl it
ĠKl ang
scheid ung
Ġzeit genÃ¶ss
haupt stadt
Ġgrund sÃ¤tzlich
J uli
P A
ĠV ul
ro ot
Ġge zogen
ĠSch Ã¤d
Ġr umÃ¤n
men ge
ĠMar g
pro perty
hau se
ĠNieder lande
Film schauspieler
Ġpl Ã¶t
ped ition
ĠBres lau
K n
at ische
ĠK el
gen ossen
is l
se c
icht lich
ib l
Ġges prochen
out put
Wir d
ĠFel ix
ĠBrun nen
ĠNikol aus
k ar
Ġ Ã¤ndern
ĠB am
ĠB oston
ĠH als
im ir
Ġre al
Ġ' "
Ġbegann en
forder ung
ĠAust ausch
Ġfunktion iert
Q U
le un
Ġer leben
ig an
ild es
Ġgeb lieben
glieder ung
Ġangeb racht
Ġsh ort
zus etzen
ĠMaxim ilian
g roÃŁ
ch a
ĠF rom
ĠG att
Ġver teilt
ĠSt ol
âĢľ ),
Ġ18 84
be zeichnung
ĠNeu stadt
ĠRechts anwalt
Ġdamal ige
| -
È Ļ
Ġw hen
Ġl aufen
ĠSp ur
if est
olog ien
ction s
Ġunser es
ĠRes ource
Time out
Ġvorhanden en
ĠLab or
M AX
y k
Ã ĥ
el f
ĠH arr
ĠH eck
Ġh undert
ic ast
Ġc omponent
ĠPro perty
ĠQu ery
gend es
amt es
stand s
ĠÃĸ k
frei en
Ġspeziel le
Ġhil ft
Ġverbess ern
1 19
C I
D o
e o
w inkel
st atic
ĠD al
ĠH arry
Ġdem okrat
ot ische
ĠVer n
ĠWissenschaft ler
F est
m ach
Ġm Ã¼s
ab len
im en
ĠAr gentin
ition al
ĠAm b
ĠMan ager
lÃ¤nd ische
Ġschl ug
ĠSchne e
on te
ĠB ein
ĠM esse
ĠF alle
Ã¶ te
ĠEin er
ech ter
ĠSie gen
Ã¼ck t
ĠHand lung
g Ã¤ng
m ol
ĠW under
ĠL izenz
ĠSt ief
Ġp o
Ġnach gewiesen
ĠRe c
Ġar g
ĠEben so
Ġpass iert
contains Key
b art
un sten
ĠS atell
se kretÃ¤r
ent s
Ġtr aten
erk l
ĠOber Ã¶sterreich
ĠBereich e
ĠMeister schaften
ĠHotel s
ĠKu gel
Ġlern te
ĠsÃ¤m tliche
Ã¤ p
Ġin spir
Ġaus einander
ĠAn s
ak on
ĠReg iment
Ġdar stellt
wir d
ĠReich stag
aff ee
Ġkommen den
AC E
ĠEng ine
wor tet
nap shot
F lag
st eig
Ã¼ ÃŁe
ĠG n
ot ter
ok us
ĠAus zeichnungen
li ver
ĠPat rick
UL L
l uft
p c
sch ritt
Ġb reiten
ĠM Ã¼hle
ĠK ader
Ġf ehlt
Ġp reis
Ġp refix
ow itsch
id r
id get
stell ers
Ġreg ister
ĠHum an
ĠCarol ina
S an
W or
ĠS achen
ĠK en
ĠH ay
ĠN at
Ġzu gelassen
Ġp asst
Ġ18 83
Ġent deck
ill ing
bild ungen
AC T
ĠTre ffen
rim in
Ġkur zer
Ġverkauf en
p end
ĠS A
ĠF ast
ĠZ Ã¼ge
pro p
Res ol
Ã¡ r
ry pt
lauf en
ĠAt mosphÃ¤re
Ġbew usst
Ġsol cher
ĠScien ces
Ġbeinhal tet
k Ã¶nig
m inal
r ein
Ġw eite
Ġn a
ĠG ames
ĠN ick
ab or
Ġ18 73
len z
ĠAuf l
ĠInn ov
Ġjapan ischer
ĠAufmerksam keit
W R
Ã¼ se
ĠC ru
Ġaus drÃ¼ck
ĠDie sel
ĠAn lass
Ġunter scheidet
ĠGesch enk
ĠBei spiele
fre ie
UN D
ĠKauf mann
Ġtradition ellen
sprÃ¼ che
ĠEreig nisse
M art
O B
ĠB la
ĠB lo
ĠL aden
Ġp attern
ĠVer sch
Ġ18 82
hl t
ĠSpiel tag
ĠWochen ende
ĠJe der
ĠDel eg
ĠDir igent
ĠKonfl ik
B it
Ġn ames
ĠJ ones
ver lauf
op Ã¤d
Ã¤t igkeiten
ĠAl p
Ġ5 7
Ġ5 8
Ã¶l l
Ã¤u den
Ġwel chen
buch autor
ĠNieder Ã¶sterreich
Ġat om
Film titel
ĠVertr ieb
Ġnord Ã¶stlich
ĠHin weis
BevÃ¶lkerungs entwicklung
H Ã¶r
Ð »
Ã¤ ck
ĠA ct
ĠL etz
ĠSt o
eh Ã¶r
ĠVer k
ĠAb stra
Ġgen annte
atÃ¼r lich
ĠVirg inia
B ond
H tml
c ap
w h
Ġaus gesch
Ġst abil
ĠEr ster
Ġvor der
Ã¶n t
ges ellschaften
ĠLie bl
ĠMag azin
ĠKais ers
spro gramm
ĠVerl Ã¤ngerung
Z entr
d ist
k Ã¼n
ĠF antas
ĠP ow
pl es
red icate
jahr e
Ġerrich ten
spart ner
Ġintegr iert
ĠInf os
ĠZun Ã¤chst
W e
Ġm ex
ab els
Ġ18 86
ĠAuf ruf
ĠGesch windigkeit
fe ktur
ĠEurop Ã¤ische
hol en
ĠSer ies
ĠMy th
ĠKategor ien
ĠverfÃ¼ gen
ĠdÃ¼r fte
ĠErinner ung
Ġbenachbar ten
D ay
M ag
ar film
ĠF it
ĠG ieÃŁen
Ġe ffekt
Ġbef Ã¶rdert
ĠDo ug
ĠDo ktor
ĠAustr al
Ġdur fte
Ġschaff te
C ell
t op
v i
ĠA cker
ĠD ay
ĠM etz
Ġin folge
ol s
rie t
Ġlie ÃŁen
En de
En coding
Ġle gen
199 3
leit ungs
ĠMult i
ĠTschech ien
ĠVerbesser ung
/ >
V om
ĠA gr
Ġb reite
ĠH allen
ĠL okal
wei ch
enn er
geb iets
ĠThe at
wir ken
Ġar ab
ĠSpr ing
ĠTem plate
ĠLes er
ĠBrun o
ĠCollection s
Ġpromov ierte
ĠMail and
endo ktor
B eh
M ulti
P al
al ition
ĠA x
Ġn ied
ĠT unnel
Ġg lob
Ġo s
ĠJahr hund
ang o
Ġ18 81
ech nung
Ġ" '
ĠLe vel
ĠWest falen
wir k
199 1
mÃ¤ÃŁ igen
Schwei zer
st em
ĠB ang
ĠM Ã©
ad ing
ĠSch lei
ĠSch reiben
Ġ18 40
ĠRo ad
Ġgleich er
ĠStad tr
Nov ember
? ?
A cc
J ugend
Ġ hr
ĠW ellen
ĠT ick
ĠC reate
ĠO d
ĠSch Ã¤den
Pro jekt
min istr
Ġange hÃ¶r
Ġben annte
Data Type
ĠJugend lichen
ĠSchwar zen
ĠModer ne
ĠKandid aten
Z wei
it alien
ĠP ack
Ġer folgen
Ġzu frieden
ĠBer ge
ĠfÃ¼hr enden
Ġverw endete
Ġschwer e
C ap
e get
er z
ĠG lock
ĠE ver
Ġst Ã¤ndig
tel le
ste ck
ĠVers orgung
Ġschwar zen
ĠWehr macht
ĠHit ler
ĠKath arina
S O
i ologie
l isten
r eit
Ġm ay
ĠF ab
ĠW ay
ĠR up
ĠR olf
sp rÃ¤sident
rie s
ĠPro tocolMarshaller
urnal ist
Ġausgew Ã¤hlt
ĠJer usalem
frist ig
(... )");
W ien
z ut
ĠP ers
ĠC olumbia
Ġbe achten
Ġ" .
ĠWest ern
ĠAmer ica
G o
S ocket
d h
f euer
v ard
ĠK redit
Ġge eig
ic us
Ġst rate
Ġbe en
Ġstatt dessen
ilom etern
AB LE
Ġ{} ",
ĠBesatz ungs
ĠKonfl ikt
F OR
H C
y b
Ġd re
ein st
eld et
ett i
con tent
gef angen
ĠKont in
ĠGi ov
Ġausgew iesen
Ġzentr ale
ĠNaturschutz gebiet
J e
b ist
s an
ĠD ick
ĠK oll
Ã¶ tt
ĠC oll
Ġun bedingt
Ġgew Ã¶hn
Ġger inger
ĠEt appe
fÃ¶rm igen
ĠMerk male
ĠYo ung
ylvan ia
s aison
w ner
ĠD J
ĠN an
Ġst yle
gr enz
rau ff
ill es
ĠPl Ã¤ne
ĠIhr es
ĠBef ehl
Log ger
inc ip
Ġevangel ischen
ĠLieb es
h ost
i oren
Ġb Ã¼rger
ĠK abel
ĠR Ã¤ume
Ġk rÃ¤
Ġg rat
ap h
ĠAus sage
rau cher
ĠBr ut
ĠRo se
ĊĠĠĠĠĠĠĠĠĠĠĠĠĠĠĠĠĠĠĠĠĠĠĠĠĠĠĠĠĠĠĠĠĠĠĠĠĠĠĠĠĠĠĠĠĠĠĠĠ ĠĠĠĠĠĠĠĠĠĠĠĠĠĠĠĠ
ĠEind ruck
ĠBiele feld
( @
Ġ achten
ein heiten
ĠE ch
Ġf inn
re uth
ĠJ Ã¶rg
Ġdes cription
ĠSt ab
ri pt
mer k
rit ter
amm ern
Ġern annte
ĠHe er
Auf grund
ĠHier bei
ĠAlt stadt
ĠInnen stadt
Ġdefin iert
ĠB Ã¶r
ĠB uffer
ĠM es
Ġein heit
Ġer stellen
Ġh Ã¤ngt
ess ur
ĠÃ¼ber all
tet t
ial en
ĠKo hlen
Ġerwar ten
Ġinn ov
A pril
C urrent
h Ã¤usern
at her
ĠD ial
ĠF res
ĠP ublic
Ã¼r t
19 80
enn zeichnet
land schaft
Ã¤ch te
pro blem
geben en
Jahrhundert s
ĠOrganis ationen
Ġsowjet ischen
vorsitzen der
ĠS E
ur al
Ġw asser
ĠL eh
Ġl anger
Ġst imm
ĠRe prÃ¤sentanten
ĠVor bereitung
ĠHoch schul
Sp ace
ĠÃ¤lter e
ĠBek annt
ĠVorstand s
ĠÃ¶ k
ĠKapit Ã¤n
ĠverstÃ¤r kt
ĠAufent halt
G u
S onst
k al
ĠB rot
ĠM ov
ĠJ ubil
Ġa fter
ohn e
amm elt
ĠMet al
A k
W ahl
ĠS ehenswÃ¼rdigkeiten
is burg
ier endes
ĠEin stellung
ĠAl kohol
up le
ĠVor stellung
iss ing
ĠVerb ands
Ġvers etzt
ĠVf B
R est
d om
Ġin klusive
ĠG abr
Ġver an
Ġlie genden
ĠBischof s
ĠPra kt
Ġprof it
Ġanerk annt
B E
L ex
t irol
st eile
al it
sch reiben
scha ff
ĠKon serv
org ungs
lex ikon
ĠMat rix
ĠSen at
gesetz ten
spl it
ĠBach elor
ĠGelegen heit
ĠA gent
as i
ĠD ein
am i
ĠG ymnas
Ġf Ã¼hl
tr ace
ĠIn sbesondere
Ġwar ten
Ġent f
ĠRe port
Ġzwei er
fa iled
ĠerfÃ¼l lt
national spieler
Lang uage
ĠF assung
Ġl eisten
lau ch
Ġbew egen
Ġfrei will
ĠMÃ¤n nern
ĠDon nerstag
Ġwh ich
Dat um
ĠMotor rad
ĠbenÃ¶t igen
ĠUnabhÃ¤ng igkeit
Eng ine
sch end
ach s
Ã¤n glich
la in
Ġ18 72
eben e
schie de
ĠKl eine
ĠSystem e
ĠBar ock
schiff e
Ã¶pf e
Ġprakt isch
Ġabger issen
ĠBronzemed aille
ĠF o
Ġj ener
Ċĉĉ Ċĉ
Ġ6 3
Sch n
Ein wohner
ÃŃ o
ĠTre ffer
ĠPort al
ĠHerzog tum
Ġwirtschaft lichen
Ġangep asst
ĠPots dam
R un
Ġ ).
ein richtungen
ĠI stanbul
ĠO hne
Ġt olle
ern ame
ĠBr Ã¼cken
ĠSÃ¼d west
stehen den
Ġschwar ze
ĠÃĦr zte
Ġreduz iert
rupted Exception
b it
on omen
tr ieben
Ġge lesen
ĠO hr
ĠZ ub
sp ital
fahr ten
Un ser
Ġ186 4
Welt meisterschaften
ĠFreund schaft
Ġwunder sch
ĠergÃ¤n zt
jen igen
el be
Ġbe zieht
lie gt
sh ow
ĠSchw ein
ĠPar allel
zahl t
ĠPau lo
ĠKat alog
ĠKant ons
Ġbesser e
ĠRein hard
Ġperson en
ĠPremier minister
olley ball
Muse um
c ent
m essen
u hen
Ġm ore
Ġm orgen
ĠSch icks
Ġc as
ĠEin z
res pon
ĠUm satz
Ġbef anden
ĠLe o
deut scher
sw ald
ĠEigen tÃ¼mer
ĠMÃ¤n nchen
loc al
Ġerinn ern
l abel
Î ±
Ġs yn
ĠH aw
ĠN ight
ungs ver
ĠProdu zent
ĠAu ge
ĠHoff nung
F ra
N onn
f loat
ĠB ug
ĠE uch
Ġk ost
Ġal ter
Ġ3 000
Ġtr ocken
Ġ6 2
Ġex pl
Ġ186 2
Ġinform ieren
Mot or
B ek
L ehr
P L
f eier
ĠM ei
ĠK lin
ĠF red
ĠP rix
ion e
ĠN ev
men s
uf er
ĠAus schuss
ĠAus stellungs
rÃ¤ umen
Ġbest ellen
Ġabge st
ĠPreuÃŁ ischen
ĠClau d
B oot
D on
O M
R T
d ing
as sten
Ġl imit
Con d
ĠPl attform
Ġbef est
ĠZu cker
ĠMathemat iker
c us
n g
ĠC ent
ic z
id es
Ġlie ben
Ġlie fer
ĠGesch lecht
Ġbeg renzt
ĠCo ok
ĠArbeit geber
ĠBew ertung
ĠMark eting
Ġoffen bar
system e
" :
W ill
c ert
g al
Ġ append
ar ischer
ĠG riff
tel l
ele ge
arch ie
Ge org
bÃ¼ ro
Ġamer ikanische
Ġhol te
ĠUp date
kÃ¼r zung
Ġwid mete
Ġerlang te
B us
E p
k ind
s rc
al ity
ĠM uss
ĠF an
ig sten
and om
Ġst ra
Ġun gewÃ¶hn
Ġ18 00
19 18
Ġum stritten
burg h
zw ungen
code d
ĠFrÃ¼ hl
ĠPosition en
ĠHan se
Ġged reht
ĠWilli ams
X X
un nen
ei ro
ĠB ast
Ġm ake
ĠG on
Ġunter lag
ath an
ĠDe part
str eit
ĠÃľber nahme
[] )
zir ke
por ter
Ehr ungen
G ET
S K
c an
in ten
ĠE rot
ĠL ange
ĠV alue
Ġt ot
ĠZ auber
im p
lin es
aus geber
ĠAl so
Ġgesch ieht
ĠFor ce
ĠKr one
Ġ186 8
Ġerk enn
ĠVarian ten
ĠNiederl anden
W asser
f amilien
au e
ĠK y
art h
St a
Ġ5 9
ĠJo e
ĠMÃ¤r chen
AC K
De zember
Ġerweiter te
ĠniederlÃ¤nd ischer
ĠDÃ¶r fer
H ans
g ier
p unkten
ĠH ong
ad s
hÃ¤ng ig
ektr um
ĠEben falls
Ġposit ive
k ter
r ise
st es
ĠT iefe
Ġr ight
ĠOl denburg
ĠRes ponse
ĠNe use
kap elle
verstÃ¤nd lich
ĠAnz eige
Ã¤ g
Ġal ign
ĠSt au
oll ow
if iers
ack e
ost a
spr uchs
ĠMon ats
Ã¡ s
ĠSystem s
ĠBern ard
Ġ186 1
ĠursprÃ¼n gliche
orth odox
ĠKan al
ĠPrinz essin
Ġstellvertreten der
B rite
O ktober
V O
ur er
ĠB ow
ĠB ald
ĠEr klÃ¤rung
Ġgew idmet
IN ST
arr ier
wend ungs
aler weise
Ġakt ive
ommer ziel
ĠĊĠĊ ĠĊĠĊ
Ġverwend eten
ĠRot h
ĠIr land
Ġm ech
ĠP in
um l
Ġ18 49
ĠPro ject
Ġ8 8
Ġverm eiden
Ġober halb
Frau en
Ġgl Ã¼ck
ĠmÃ¶ gliche
Ġdeb Ã¼t
D is
g in
n ur
n ten
v ice
Ġm achten
Ġm Ã¤cht
ĠT an
ass au
alt ar
ip per
per iode
Ġsow eit
itt le
othe k
etr ics
Ġdire kten
ĠLandtag s
---------------- ----------------
Ġschwed ischen
ĠTown ship
. ",
m Ã¤r
ĠS ed
Ġz ahlen
ĠF els
ĠP av
ĠW uppert
Ġh off
ĠSt ory
ĠVer f
Ġr ies
Ġber aten
Ġle gt
ĠQu ell
Ġhier fÃ¼r
deutsch land
ĠTrain ings
Ġfertig gestellt
ĠerfÃ¼l len
E ishockey
J ohn
s ylvania
ĠL em
ĠR ainer
Ġp ut
Ġis rael
ĠBet reiber
Deutsch e
ĠChrist us
ement s
ron om
ĠEle ctr
ĠDienst leistungen
ĠFer r
ĠnatÃ¼r lichen
Ġwirtschaft liche
ĠbeschÃ¤d igt
K lass
M er
O ff
19 89
gel Ã¤nde
if ikation
bar ung
az itÃ¤t
ĠRest e
Ã¤te stens
ĠVal id
sied lung
ĠFert ig
A uÃŁer
b il
o h
ĠD rag
re ck
Ġh aus
ĠO f
ĠVer dienste
ht ml
Ġbest immen
br eitung
ĠGem ark
lau be
Ġgest artet
ĠAnt i
beh Ã¶rde
ĠCom ic
Ġklass ische
Ġindividu ell
Ġintens iv
Sow jet
w idth
ĠF ont
ĠP osten
qu art
Ã¤hr en
Ġmehr mals
Ġlie fern
ool s
ĠZw angs
legen heiten
ĠMill imeter
Ġbeh and
Ġ186 9
leist ungs
fÃ¤h ig
Ġak zept
ĠGal ax
Ġfeier te
ĠverlÃ¤ng ert
t urm
an ik
sch el
Ġw omit
is er
ro ht
Ġl ive
ĠAn trieb
Ġ18 30
ak ten
Ġ6 6
eig ung
ĠCon trol
prÃ¤s identen
best and
On line
ĠEing abe
ĠCentr al
g asse
w ein
Ġ Ã¤r
sch ungs
ĠC H
Ġk ompon
iv als
Ã¼t tel
Pro f
ĠKn ochen
ĠPsych ologie
Ġbem erk
Ġscheiter te
Ġfrau en
ĠKÃ¼nst lern
A c
P ers
c ard
m utter
r as
r ufen
Ã¤ hne
ĠL aur
ĠR ats
ĠV ogt
Ġauf s
ĠSt aub
Ġaus gebaut
Ġum gebaut
age d
Ġ< <
leist et
Co unter
ĠEvangel ischen
aliforn ia
ĠLein wand
or chester
ĠL an
Ġum gesetzt
ĠAuf tritt
sh ire
fahr ens
)) )
ĠPf alz
ĠNord amerika
pp ich
ĠKo ordin
ĠBad minton
usst sein
ĠDokument ation
ĠRÃ¶ mer
Ġunters ucht
Disk ografie
tw och
G C
H alb
S A
W el
in ing
Ġf lex
ĠR E
ent ity
Ġan b
eh le
wei he
Ġj en
br onn
ĠChr on
ĠOrt schaften
ĠSÃ¼d afrika
ĠverÃ¶ffentlich ten
Ġ186 5
wÃ¼r fe
ĠKommand o
ĠAltern ative
H M
K omm
c all
Ġd ynam
ĠT am
ĠJ ens
Ġk Ã¤mpf
ĠAn erkennung
Ġvor genommen
ĠFran ces
ĠBest er
ĠInd ust
ĠStat istik
SI ZE
Strate gy
S am
ĠS z
ĠA cht
ĠB atter
Ġn Ã¤chst
ol er
Ġf unction
ĠR un
Ġsich ern
gr Ã¼ndung
sb es
man ischen
ĠInter pret
Ad apter
ĠnatÃ¼r liche
ĠHei z
Fl ug
ĠÃ¼bern immt
Ġoption al
Ġerheb lich
ĠEns emble
ĠVerstÃ¤nd nis
f rÃ¼
u it
un ts
ĠG lei
ĠE va
tr ee
ĠC ross
os ite
ĠGr Ã¶ÃŁen
ĠCh in
lei der
An fang
Ã¼l le
Ġhand ler
AN D
ategor ie
Sh ort
ĠWÃ¼r ttemberg
ĠFel der
Ġged acht
eucht ung
S ing
c ore
m ethode
Ġw eb
Ġin ne
ĠH ert
ĠAus wirkungen
Ġle vel
Ġger iet
alis ieren
Ġall eine
Ã¤tz ung
ĠCor por
Ġbild eten
ĠSchlieÃŁ lich
! âĢľ
) ).
V ari
k ommand
Ġs par
ĠR av
ig ger
ĠV inc
ĠEr furt
ov ed
ĠKon kurrenz
Ġ7 2
esse d
ĠRegion alliga
ĠJahrzehn ten
ĠWÃ¤r me
PersÃ¶n lichkeiten
rauff Ã¼hrung
a ver
ð Ł
ĠS yd
ĠM eine
Ġm ut
ĠT auf
re y
enn e
ant es
Er n
Ã¼l ler
Ġgest orben
Stand ard
ĠRuh estand
Ġausreich end
o ter
Ã¼ cher
ĠK ai
is st
ser ien
Ġ18 77
ĠAr me
pe kt
Ex p
Ġ9 9
Ġ6 1
mit tag
ĠAss istent
ĠMad rid
D am
te in
Ġs itzen
Ġv ierte
ĠM ang
ĠK rei
ĠF ound
ĠP etr
Ġf u
Ġk inder
Ġge weiht
ĠVer leihung
Ġbe zÃ¼glich
Ġj ust
Ã¶r te
19 33
Ġtr op
berg s
ĠKrieg sende
ĠGo od
ĠKol onial
ĠCharl otte
Control ler
umin ium
A U
i op
Ġd ella
or dent
ĠA C
ĠB enz
ĠP ader
ĠC ommand
Ġge liefert
rei ft
ĠAn k
ĠEr gÃ¤n
Ã¤t tern
Ġam t
ĠSe ktion
Ġ6 8
ĠJu an
Ġu kra
entry Set
Ġbekannte sten
ĠHu bert
Ġforder te
Ġbrau chen
ĠK orn
ĠH Ã¼
ĠO bst
Ġp rÃ¼
sk irche
Ġ9 5
ĠWeiter hin
by tes
ĠerklÃ¤r en
ĠSam uel
kathol ischen
ĠÃĦn derung
cover y
g f
u v
it as
Ġv oller
ĠP ut
Ġer for
Ġauf w
ler in
Ex tension
ĠPl us
ĠPar ad
ĠNorm al
ĠGrÃ¤ fin
VerÃ¶ffentlich ungen
Ġlehr te
3 00
g ast
v ideo
Ä Ļ
at sch
ĠP oll
Ã¶ ger
ers dorf
Ġthe oret
Ġ0 4
br ig
Ġwieder holt
ĠGe or
ĠUm feld
ade d
Ġgef angen
Ġbel iebt
ĠSpr ung
dienst kreuz
ehm igung
ĠÃ¤uÃŁ erst
Ġpoln ische
fÃ¶rm ige
ĠHir sch
B und
n acht
s ql
t i
v ey
er d
et tet
ol ph
ĠW ik
ĠT ay
ab ilit
ver gleich
ed el
of en
ĊĠĠĠĠ ĠĠ
Pro p
ĠReich en
Ġfest gelegt
ĠÃĸsterreich ischen
ĠTre e
ĠKind heit
Inter val
ĠÃľberg ang
Ġdenk mal
T L
b uf
sch Ã¼tzen
ĠK ell
ĠF inger
tern e
ĠVers icherungs
ompl et
f uÃŁ
u ht
en kt
Ġab w
ip her
ĠUniversitÃ¤t s
Ġerfolg reiche
ĠWohn zimmer
chn ik
ĠVolks zÃ¤hlung
ĠVerl ust
Ġeurop Ã¤ische
frei heit
Gener ator
Ġchrist lichen
Ġpersonen bezogen
ar ett
Ã¼ hen
Ġs um
Ġv ia
ĠB ul
ĠB ibliothe
ol en
ĠT en
re ste
19 86
ĠBer ater
Ġgen auso
ĠWelt meister
Ġstell ten
Ġresource GroupName
Ġengag ierte
z usammen
ĠS ession
Ġn ow
ĠW ende
ĠSch um
Ġex per
Ġger ingen
ĠUr teil
ĠInd ian
ĠWach stum
ĠKomment are
D etails
ĠP last
ber atung
ĠV orm
ĠN SDAP
ĠBe at
olog ical
Ġfest ge
ĠÃĸsterreich s
ĠkÃ¶nn t
ĠAnder e
ĠHoll y
Ġumfang reiche
penden cy
ĠGemeinder at
Nonn ull
n ik
sch ild
ĠA le
ĠH Ã¤
ĠT ipps
ĠV ide
ĠO liver
Ġst il
ov iÄĩ
Sch iff
omb ard
ĠKur fÃ¼rst
hÃ¶ fe
ĠHar ald
ĠunterstÃ¼t zte
kn own
Ġjapan ische
dar steller
ĠlÃ¶ ste
Ġbequ em
s st
ĠF usion
Ġf Ã¶rdern
ĠN u
ok raten
Ã¤s se
ĠMan uel
Ġverb esser
ĠReich es
ĠAt trib
Ġgelang te
Ġstamm te
komm ission
strahl t
ĠDemokrat ischen
n orm
Ġin to
ĠW alt
ĠL orenz
19 70
Mit tel
Ġbesch loss
ĠFre unden
ĠGen f
ĠLeip ziger
ĠSen ioren
ĠHalb insel
beg inn
ĠApp le
ĠBud ap
ĠInner en
I O
J SON
č Ċĉĉĉĉĉ
ĠK ann
ĠH Ã¶l
Ġver grÃ¶ÃŁ
ph abet
ĠEx istenz
Map per
Ã¼st et
If c
Ê ¿
ar is
ĠB od
ĠL aus
ad bach
ation Exception
eu ern
ark e
Ġgesch lagen
bo ot
Ġ% .
eier mark
ĠbeschÃ¤ft igte
ĠKrÃ¤ fte
ĠdebÃ¼t ierte
G H
a al
l at
s ite
ĠS he
ĠR och
Ġge arbeitet
ĠO ver
iel ler
Ġver lei
eg er
qu ir
ĠAb stieg
ip edia
Ġnoch mals
ĠZeit schriften
ĠPh ot
mar y
Class Name
AL L
anc el
test ant
Med ia
ĠDiskuss ion
( !
B aden
E CT
i ot
l Ã¼ck
ĠK etten
ĠK roat
ĠF eucht
ach us
ĠC alifornia
Ġl agen
ub a
Ġvor kommen
ĠzurÃ¼ck gegeben
ĠWir d
ĠRo ger
ĠMin i
kon stru
ĠKreis es
let on
Ġspeziel len
Ġqualifiz ierte
ĠJes us
Stack Trace
H H
r un
on isch
it ro
ro ck
Ġge kauft
lie der
lie derung
if er
ĠAus gaben
Ġbest ehend
wa ffe
ĠSk la
Ġerreich bar
ĠLandkreis es
Gener al
ĠDien ste
BÃ¼rger meister
A ME
F ranzÃ¶s
P rim
ĠA spekte
ĠD ass
ier bar
Ã¼r tel
Ġver g
ill y
ĠRe paratur
ĠSe gel
Ġpro v
org an
Ġch annel
ctor s
ĠFrei will
Ġbr ach
Ġschn elle
iden z
UN G
ĠSied lungs
Ġdire kte
Ġindividu elle
ĠBesatz ung
Abst ract
Ġehren amt
ĠPromot ion
B es
u ge
ĠD unk
ĠG ard
ĠP ublish
le bt
ĠL ock
ĠBer gen
ĠMit arbeitern
Ġpro ject
Ġher e
ĠNeu es
Ġro ten
ĠMot to
urs or
Ġ185 4
Ã¨ s
ĠErw Ã¤hnung
Ġoff ens
ĠErwachsen en
Ġstru ktur
D okument
H O
ĠS erb
or er
Ġein erseits
ĠP okal
ĠL ED
ĠJ enn
Ġauf merksam
ĠMit twoch
av ax
ĠKon stanz
man uel
ĠHaupt mann
ĠDurch fÃ¼hrung
ĠGeneral major
Ġmittler e
ĠFil men
ĠNeum ann
Å Ľ
ĠS G
ĠP ubliz
ĠSt ill
og ramm
In formation
ĠAb d
20 21
ĠSal v
Ġ185 2
offiz ier
ĠSoph ie
ĠA cc
Ġi gnor
ĠR auch
Ġge Ã¶ffnet
ĠAus sch
rÃ¤ der
ĠGesch ichts
List en
ĠWil son
ĠHe eres
pfl anz
fir ma
N orm
w eb
at iver
ĠF ire
tr olle
Ġden ken
op le
auf lÃ¶sung
ĠOber liga
Ġwei ÃŁe
Hand le
ĠverfÃ¼ gte
Ġide en
Ã¢ te
kore a
ĉ ĠĠĠ
Ġ att
as ks
ĠV ir
ĠN ag
ab schnitt
se Exception
Ġge pf
he ader
wei chen
19 87
dr om
Ġ6 7
ĠCo unc
ĠMo dern
ĠBahnhof s
Ob j
ĠmilitÃ¤r ischen
hor st
ĠGlauben s
gehÃ¶r igkeit
J a
N icht
R oman
x id
ĠA kten
ĠH Ã¤nde
ĠL ob
Ġver haf
ĠU d
ĠMar sch
Ġgef Ã¶rdert
ĠChrist i
ĠMittel meer
plan ung
valid ate
ĠSilber medaille
Ġpassen de
Ġgepl anten
ĠniederlÃ¤nd ischen
ĠDok umente
sup ported
ĠG ross
ĠE N
ĠE b
ĠT un
ĠAr k
ĠAb b
iker in
Ġ7 00
Ã¤uf e
ĠSieg fried
Ġaktuell es
ĠViertel finale
Ġren ov
ĠVict or
ĠnÃ¶t ig
ĠstÃ¤dt ischen
ĠA N
Ġb undes
om etr
ro hr
ĠN est
ĠC ra
Ġver folgt
ĠIn stanz
ĠPf ei
Ã¼l ern
ĠFra ktion
film ung
ĠHerr scher
ĠErn Ã¤hrung
ĠSchiff s
ĠHÃ¶he punkt
ĠBaum w
Bound s
E qu
F OL
I st
Ġs ilber
ĠT ieren
Ã¤n zer
00 00
19 38
Ġlie ber
onn a
gesch icht
ĠOber bÃ¼rgermeister
Ġverl ang
Ġben utz
ĠWil len
ari at
Ġinter pret
Ġwichtig ste
Ġsof ern
ĠVorsitzen de
ĠSyn ag
L ower
R ock
in f
ĠM eld
ĠK affee
ĠP ommern
ig ation
ĠI tem
Ġk Ã¼nst
Ġg aben
rit iken
Ã© d
fÃ¼hr ungen
wa ffen
Or iginal
so ft
ĠMag n
Ġ186 3
ĠRis iko
ĠEber hard
ĠNahr ungs
Kirchen gebÃ¤ude
ĠOpp osition
ĠGabr iel
Ġ ei
Ġd ocument
ĠS amen
us ste
tel finale
ĠBr Ã¼ssel
ĠSpiel film
ĠAu ft
Not ification
ĠKind es
kathol ische
ĠParlament s
Ġbeob achtet
A ud
H il
b in
b lau
n ischen
s ucht
in stance
al o
ĠW eiler
om er
Ġauf gel
ist et
ĠIn se
get T
ĠLand rat
Ġet hn
Re zeption
ĠEx pression
figur en
Ġoffen e
ĠStÃ¤d t
ĠDef ault
ĠWerb ung
ynast ie
B ern
F ont
a ft
b ell
ge mÃ¤ÃŁ
Ġ1 15
and in
ĠC apt
Ġk aiser
ĠĊ ĊĠ
Ã¤t igen
ĠBer at
Pro gress
kon struktion
ĠBi ografie
itu ationen
ĠTim es
ĠjÃ¼d ische
Ġletzt lich
Ġkauf te
ĠEh emann
Hinter grund
A tt
S ION
T schech
l iger
at isch
ĠW itt
ĠR unden
ĠN et
ex ception
lo gen
ĠMar x
ĠRe zept
ĠKab inett
geg nung
ĠVerteid igung
ĠSchlaf zimmer
ĠMiner al
s Ã¼d
st ore
ĠB enn
ĠC ob
ul f
ul iert
ist ics
19 78
ĠAus stellungen
att le
ĠDeutsch es
ĠKon stantin
Ġseit her
ask a
ĠAt hlet
zentr ums
schau en
ĠfrÃ¼her e
ÅĤ aw
Ġpr int
ĠTok io
" +
C R
I hr
W rite
al teten
Ġw Ã¤ren
ow o
Ġbei der
ib us
ok u
ph y
ĠFl Ã¼ss
ator in
ĠEx il
Ġ14 0
hol ung
Ġinner en
Char acter
ĠPfer d
Ġmensch lichen
S Ã¤nger
p il
p reuÃŁen
Ã ī
ĠL iss
Ġh eight
ĠJ ar
ĠJ Ã¤ger
Ġst op
Die s
if act
pf en
ĊĠĠĠĠ ĊĠĠĠ
ingen d
Ġgel ingt
ĠTr ennung
Ġeinge laden
ĠMax well
Ġfort an
ĠMount ain
Ġfung ierte
hedr ale
c p
d lich
r in
} .
un ker
st het
Ġg ra
Ġst ore
19 84
ĠOr th
Ġhei ÃŁen
Ġ185 9
ĠKont akte
beg r
ĠEmpf eh
Ġstaat lichen
TI ME
ĠSum me
voc ation
ĠDoug las
P aul
a schen
d oc
k anz
p age
ĠW icht
ĠC ur
Ġan notation
Ġan grenzen
Ġzu verlÃ¤ss
ĠZ DF
ĠSp enden
19 85
19 75
Ġander erseits
param eter
Ġzusammen gef
ĠUr sprung
ĠPat ri
ĠWie sen
ĠOlymp ia
Ġmax imale
herap eut
Ste p
ĠRegierungs bezirk
Ġcl uster
Ġdiver sen
T urnier
st Ã¼r
ein kommen
au ben
Ġv ol
ĠM aus
ĠP ak
and o
Ġge plan
ic i
ĠVer leger
zeu ger
ĠSpr int
Mod ell
ĠParis er
ĠKompon enten
Ġinteress iert
D elete
L INE
g ert
h eben
l ach
v org
Â §
Ġs ens
ĠL az
ĠR eit
lich ten
ĠSch ienen
Ġc ir
Ġum gew
ian ischen
Ġeigen tlichen
Ã¤cht nis
Ġinform iert
K omp
L uft
c ontainer
t im
ĠS y
Ġf Ã¤hrt
ĠV ent
Ġsch mal
ĠDe kan
Ġth an
ĠNeu er
Ġgef Ã¤r
rech nung
ĠÃĦ m
ias ieger
ĠRen aissance
Item s
Ġwohn zimmer
ĠVerbr eit
liefer ung
" ),
O ne
S ER
h Ã¼tte
r Ã¶
ĠS K
ĠB ut
ĠP ay
ĠH imm
ra gt
ul in
ĠZ wer
19 88
ult an
Ã¤l ter
ont ain
ĠIm mer
gesch ichten
Ġgen utz
ĠLehr stuhl
Tra iner
Ġx ml
ĠRed aktion
Ġproduz ierte
ĠWahr heit
ĠRaj on
achus etts
ã ģ
Ġin vest
ĠSp ar
la c
19 40
up pe
St ad
tem peratur
ens ure
ĠGeb Ã¤udes
ĠEx pl
ĠWar schau
Ġ185 7
ĠBef est
istr ict
ĠBrie fe
wander ung
ĠReserv e
Ġeinheim isch
ĠGiov anni
H Ã¶
P P
h aven
m i
m all
Ġin kl
Ġein gemein
ĠP ool
ĠE M
ber s
ab schluss
ent hal
ĠU s
ĠSch u
ĠEin tr
ĠVor trag
pro perties
inn es
Ġbef asst
Er zeugt
Ġur i
ĠAll gemeine
itu de
ĠRest aur
ĠTyp s
mir al
c omm
k reise
it ation
ol es
Ġf ehl
ĠW asch
ach se
ent ication
Ġt ut
ĠU rauffÃ¼hrung
ĠSt ationen
eg ate
Ġr aus
Ġ9 6
Ġex pression
ĠBel ast
Ġnie mand
zÃ¼ gen
iller ie
Ġtrans action
ĠpreuÃŁ ischer
ĠVort eile
INST ANCE
C ategory
s Ã¤
w enn
es p
sch Ã¤d
ĠD etail
Ġ( _
ĠK ompl
om on
ĠC ell
ĠSch ult
od ie
ack t
ĠTh or
oph on
schul d
ĠMill ion
ĠStruktur en
Ġverh indert
M Ã¶
j amin
Ġd on
sch lagen
Ġs im
ĠK ro
ĠF A
ĠN HL
ir chen
Ġdes selben
Ġt oll
Ã¤n omen
Con sumer
ĠSpiel klasse
inder ung
Id x
yl l
ĠRu der
ĠÃ¼b lich
ĠJac ques
Ġvertr ieben
ĠKult urg
ĠIdent itÃ¤t
ĠNahr ung
W olf
or ien
at tribute
ĠD orn
ĠV iet
Ã¤n ke
ĠAn wendungen
19 28
Ġeigen tliche
ĠGew Ã¤sser
ĠSchm uck
zy linder
ĠMult icast
ĠÃ¼bergeben en
Ġregion alen
ĠFÃ¤h igkeiten
ĠAbstra ct
N ummer
ĠM asse
ĠF air
ĠG etr
ĠL ac
ĠN ep
ĠC ann
Ġp e
ot ischen
ĉĉ ĉ
lin ois
St orage
ĠKinder garten
ĠSchul d
Ġy ou
tra ct
ĠNR W
ĠHig hl
G ymnasium
k us
s ver
y o
Ġs ame
am ik
Ġn utzt
ĠZ eile
ot yp
ran ts
Ġ18 46
19 30
Ġab hÃ¤ngig
Ġ9 00
ĠSte ink
Ġverb lieben
ĠText il
ĠBÃ¶ hmen
Ãĸsterreich er
stÃ¤r ke
elemen te
ĠPader born
M ENT
R hein
h ou
j u
Ġ ord
sch eibe
ĠW Ã¶rter
ĠL ade
ĠR ÃŃo
Ġer mord
Ġt our
eh er
ĠEin ladung
19 82
Ġtr afen
ĠVor stellungen
af eln
ĠDe kor
Ã¶l be
Ġel eg
eck ar
man ager
ĠEl l
ĠEl iz
schl Ã¼ssel
ĠBet racht
sw ahlen
ĠKÃ¼ chen
Ġevangel ische
ĠHoff mann
Ġrest lichen
ĠHauptr olle
Ġbeeinfl usst
ĠberÃ¼cksicht igt
D enk
S uper
ĠA ccess
Ġm obil
ĠK Ã¤
ĠÃ¼ber zeugt
ĠStr eifen
hl eten
br Ã¼cken
Ġ6 9
ĠIS O
ĠSta ates
Ġar gentin
Ġland es
ĠLad y
Sec urity
Ġfal sch
ontinu ier
ĠplÃ¶t zlich
F rÃ¼
c ache
un ks
Ġw Ã¤chst
Ġs ur
ich en
ĠA z
em an
Ġge g
Ġc re
qu is
ste ckt
ĠAb lauf
ata illon
fe ktion
ĠSte u
ĠSte phen
Ġern st
ĠWohn ungen
Ġgut es
ĠÃ¤hn liche
mot oren
ĠPast or
ĠBundesver dienstkreuz
P at
S im
it is
ĠB lei
ĠC our
ĠSt ipend
ĠAl uminium
ĠSe kretÃ¤r
stra te
sta ates
Ġ185 6
Ġoft mals
ĠWinter spiele
sph ase
ĠReihen folge
ĠBeteil igung
ĠBudap est
g le
i Ã¨
en se
Ġd einen
at ischen
ĠM id
ĠH unde
ĠL aub
um a
Ġer b
ĠJ unge
Ġo pen
Ġp ers
Ġc tx
Ġ18 45
19 25
ok oll
agen tur
spr icht
Sch war
ĠPr om
ĠEx ec
Ġfest gestellt
sol e
Des c
kn Ã¼pf
ĠprÃ¤sent ieren
Ġpassen den
ĠWes entlichen
ĠEreig nis
č ĊĠĠĠĠĠĠĠĠĠĠĠĠĠĠĠĠĠĠĠĠĠĠĠ
es k
ĠL ord
ber ge
ĠU A
op ran
Ġbe zogen
19 19
ĠKon text
mann schaften
Ġdrei mal
By Comparator
ĠKin os
Ġpoln ischer
Ġgek ennzeichnet
Ġfe ature
Ġleich ter
Po inter
K ind
P AT
m eier
m Ã¤nn
z ucht
Ġ $
ein satz
Ġz ogen
ĠE cke
ĠH altung
ĠL ight
ĠI b
ro ad
Ġaus geschlossen
eil ung
Ġbe arbeitet
Ġ16 0
ĠY or
ĠGew inner
ĠPer g
ĠSa arb
Ġspe zif
ĠMonument s
b ieren
g ott
l aus
Ġ echt
Ġd t
ĠB eu
ĠAn ders
pl ant
Ã¼hr t
ett a
ac ity
isten ce
ĠAd vent
Ġeh emals
196 9
abil itÃ¤t
Dec imal
ĠDef inition
ced es
ĠAndr Ã©
B atch
F uÃŁ
Ġs ql
ĠD ocument
ĠK reu
ĠP ek
ber gen
Ġge ograph
Ġl Ã¤nd
ver kauf
19 74
19 73
19 72
ute te
Ar gs
Ġbet reibt
gl as
Ver walt
ĠTre ff
des ign
Ġmeisten s
ĠPrÃ¤ fektur
ĠtÃ¼rk ischen
ĠKonzer te
P okal
T or
d ay
n immt
ĠS om
ĠM ul
em pty
Ġm ath
Ġsie gte
ĠFl ach
ĠKon stru
ĠSpiel s
res h
ĠProdu kten
trÃ¤ glich
190 2
uld a
Ġabsol ut
Ġkosten lose
Verein igtes
ĠCentr e
Lin ie
ĠSemin ar
ĠInput Stream
sch wei
Ġs eiten
ĠP ul
ĠW ater
ĠSch atz
ag ing
Ġbe geg
sh ut
An gabe
Sie ger
kir ch
ĠGast geber
ĠzusÃ¤tz lichen
Ġrest aur
ĠNav y
ĠVoraus setzungen
ĠGreg or
ĠSchwier igkeiten
Ġdenkmal gesch
p red
en hagen
st unden
an alyse
Ġh ash
ĠC af
ra hmen
ĠRe publ
tem pt
ĠPl Ã¤nen
Ġpro tected
ĠWor ksh
andid ate
ĠVerteid igungs
ĠHon or
ĠjÃ¼nger en
Ġsorg te
ĠFrem d
F eld
H err
M C
Ã ¦
an es
it iert
ĠE ro
Ġf indest
Ġge laden
Ġg raph
Ġl eistungs
ran che
ĠGr aben
ĠCh art
Ġbew eg
ĠRÃ¼ck tritt
com pare
Ġfre e
ĠBran chen
ĠViel falt
ĠBot schaft
Cl uster
Ġausgeb ildet
K or
s f
Ġd icht
ĠS ah
ĠD Ã¼r
ĠD own
Ġim port
ĠZ ert
Ġst ack
id x
ĠAr mut
19 81
par ks
fl Ã¼sse
Ġeigen stÃ¤ndige
Ġeinge gliedert
ĠTro cken
ĠGit arr
Ġzeich net
M al
r ollen
Ð ²
ch i
Ġs auber
ĠP rior
Ġk ommerziel
ĠSch e
Ġl ook
Ġbei gesetzt
ĠBer ger
ant on
Con stant
Ġman chen
Ġ7 7
str asse
ĠBundes regierung
ĠFor scher
Ġstar tet
ĠUrs ache
Ġeindeut ig
urren cy
I A
b le
k es
r d
Ġ []
ar es
ein richtung
at io
am o
ĠK ent
ĠF erner
ĠH at
Ġa ct
ĠSie ge
Ġre form
ĠSpiel ern
Ġbeg eistert
bo urg
ĠWal es
rue ft
R et
V ideo
d imension
h ut
t Ã¤u
ĠG leis
is hed
ft igen
ĠIn valid
19 14
19 60
ĠÃĦ l
zentr en
Ġbeh err
ĠGed icht
CO L
Ġbedeuten de
ĠTschech os
ĠVict oria
M ein
S eite
W ord
Î ½
ĠS qu
or ted
at hlon
Ġein gebaut
ĠH alt
Ġer leich
cht es
ĠPart ie
ĠRei fen
Ġeinge st
ĠKomm andeur
ĠKap ital
Ġgewann en
Ġsicher te
anstalt ungs
Ġhinzu gefÃ¼gt
Ã¤p st
G RO
L aut
S aison
T ab
j son
ĠM i
ĠF uchs
ĠT um
ĠR ow
ĠC av
Ġge gangen
Ġp res
ĠIn schrift
eu ter
ĠVor name
ou v
Ġall gemeine
ĠGel ehr
Ġverst eht
spe zif
TER N
ĠKop enhagen
ĠArm y
Mem ory
Constra ints
A lias
a wa
au ung
it Ã©
ĠB Ã¤
ĠEr hebung
ĠSp er
Ġen ger
ĠChr is
Ġcon f
ha w
ĠauÃŁer gewÃ¶hn
over n
ĠSol o
ĠGre at
Ġerz ielt
ĠJed och
franzÃ¶s isch
ĠFranÃ§ ois
M a
R und
l Ã©
s orge
19 26
ĠMa ÃŁe
off s
ĠVerb indungs
To String
verb indungen
ĠAnd roid
bet eil
aktion en
Vor pommern
ĠPhys iker
ĠEntscheid ungen
ĠSÃ¤ ulen
lehn ung
C olle
au ft
ĠK av
ĠSt Ã¼r
im age
Ġr ange
ĠAn bau
ĠSp ace
ok ol
ĠRe v
ph il
Con verter
ĠKon ferenz
ans as
Un garn
ĠHand lungs
ĠWest er
ĠBerg bau
ose x
Ġgem Ã¼t
Fernseh film
Ġumfassen de
Auth or
ĠPenn sylvania
Ġverhaf tet
E SCO
J vm
P rÃ¼
Z usammen
m achen
Ġb ound
ĠG umm
ĠW eit
ĠN eg
ĠJ Ã¼n
ien ce
19 34
arb on
ĠStadt gebiet
ite e
Re port
ac y
inder ten
ĠRo te
ele ase
Ġkon stru
ĠFest ung
Ġ185 1
ĠAp othe
Ġbevor zu
ĠPersÃ¶n lichkeiten
Ġbayer ischen
verteid iger
ĠAlli anz
A ber
E hren
F in
L AN
U UID
en ken
ĠM alt
ĠT able
Ġvor Ã¼ber
-- ;
Ġbeg rÃ¼
ĠHaus halts
ĠEt wa
ĠStock holm
wach ung
ĠErschein ung
Ġuntersch rieb
" -
I F
J azz
K ritik
z esse
ĠM ike
ol in
ĠW ass
ĠN iger
Ġl Ã¶sen
Ġc ontainer
amm lungen
Ġ0 9
Ġber ichtete
fer en
Ġ7 6
Sch on
vor stand
ĠAut os
ĠVerb raucher
sw itch
Ã¼l len
klÃ¤r t
Ġaufge geben
ĠBef rei
ĠJournal isten
leit ungen
eta ill
Ġmusikal ische
Ġprev ious
Vol ks
Ġgrat is
H allo
L ud
g aden
g alerie
o a
Î ¹
ĠM ilit
ĠK au
ĠG rupp
Ġf f
ĠN etwork
19 29
Ġ0 1
res ources
ĠBo oks
Ġeinge weiht
ĠGrÃ¼n de
Ġopt imal
Ġcall back
Ġkrit isiert
ĠPeters burg
tran sport
F amilien
K ar
s ieg
u alitÃ¤t
z ant
an iker
Ġb ad
ĠF unde
Ġk ontinuier
ĠVer handlungen
Ġr Ã¤um
19 20
Ġ" +
je ction
ĠPart ien
ĠCon rad
Ġben utzen
Ġbew aff
sport ler
196 7
hÃ¶ hung
ĠLux emburg
Pass word
ĠD eine
ĠF Ã¤r
ĠH ot
ĠW ettbew
ĠN umber
os h
Ġc olor
ĠAl len
Ġent decken
Ġ7 3
ĠMen gen
ĠStud ies
co der
ativ es
ograf ische
196 8
ĠZeich nungen
ĠKomp lex
grÃ¼n den
in itial
ie ber
at on
em s
ĠL eucht
ĠN ich
ĠJ ord
Ġver zeichnet
ĠU E
Ġl it
ver arbeitung
ial ize
Ġ- -
ĠCh ines
fahr zeuge
kl assen
Ġgesch ickt
lan zen
ĠProv inzen
Ġid x
Arch itektur
Ġengag iert
ĠNap ole
ĠausdrÃ¼ck lich
ĠWuppert al
E ben
K ur
P op
R ot
ĠS v
Ġs egment
ĠB og
et ischen
em eister
ĠT ank
ĠSt ufe
pt on
ĠBau ten
Ġ13 0
ĠPer formance
Mod us
ĠAll ein
Ã¤mpf ung
zÃ¼ g
ĠElektr o
Ġwissenschaft licher
Exec utor
Ph one
ĠSing les
Ġschwed ischer
ĠmilitÃ¤r ische
Ġvalid ate
## ##
ĠKob lenz
M erk
S l
f ranken
Ġm ain
ĠE valu
ĠR ak
ow itz
ĠAr rays
ĠEn kel
her it
ull y
St ation
ian s
olog in
bo und
Ġverb inden
ĠSh ort
ĠChrist op
Ġbew egt
ĠDr amat
ĠBi ographie
Ġus ed
mut able
Ġerziel en
Sup port
Ġak adem
prof essor
c at
w ahr
ĠT ib
il o
Ġauf einander
Ġt iefer
Ġp df
ver halten
19 76
her stellung
sk o
ais e
Ġ8 3
ĠBundes land
ĠJuni or
ĠKaiser reich
Ã¼tz ten
Ġfinanz iellen
ĠEvangel ische
adel ph
demokrat isch
ĠSchott land
ĠCounc il
D ER
P e
k ins
l och
n isch
Ġd reh
al in
Ġh om
Ã¼r zt
ir a
ad es
ĠZ ir
tel n
ud a
omm el
ĠSe ele
Ġde kor
amen te
ĠTh ail
Ġpolit ischer
ĠAf ghan
ĠCor ps
ĠFÃ¤l le
Ġbeob achten
opÃ¤d ie
Ġ egal
ĠS her
el er
ĠD sch
ĠN ad
ot ion
ĠBe an
Ġbest er
los igkeit
ĠRef erenz
ĠAndre a
ĠMc C
ĠHash Set
nehm ern
Sa int
ĠBuffer ed
. ;
C ertificate
z ungen
en ke
ur ist
ĠD istrict
Ġ1 16
Ġm ode
ĠT Ã¤ter
ĠSch uh
Ġp ool
Ġst eigt
Ġc ell
ĠSp l
ĠAr g
ine a
ens is
con nection
ĠMot oren
Ġentwick elten
sta ats
ĠErz bist
Option al
ĠStern e
Ġerf asst
ĠLeg isl
Ġhochwert ige
ĠBetreu ung
G egen
c re
h ain
k am
ĠP ant
ĠN utzen
Ġ18 16
ĠIm per
Ġdar stellen
Sch utz
rich tet
ond ition
ĠÃ¼b lichen
FI X
ĠTats ache
Ġniedr iger
ĠkÃ¼ mm
R ight
an ch
ĠM B
ĠO berg
Ġp Content
ri p
ĠEr be
ĠEin zugs
pf lanzen
ĠFl ora
ĠGesch w
anis mus
Hol der
resource GroupName
ĠFlor ida
F low
R G
g Ã¤
k ol
ĠL ow
Ġim plement
Ã¼n de
urn e
ĠÃ¼ber zeugen
ĠVor schlag
ĠPr int
ĠEurop e
ĠDu isburg
vel op
ĠVorsitzen den
ĠFinanz ierung
ĠDist anz
Ġfiel en
Ġnutz te
dis ziplin
A f
K ilometer
M IN
Ä ħ
Ġd oppel
ĠA kte
ĠA ktionen
Ġ1 17
ig i
ĠJahr buch
get Parent
19 77
Ġ5 000
schie ÃŁen
Er stellt
ĠNeu zeit
ĠBet riebe
ĠGrund schule
con om
alis ierte
ĠFranz osen
ĠKo hle
ĠlÃ¤nger e
D ivision
F ach
L ou
R ender
T x
ĠA ar
ĠF DP
ĠF okus
ĠL is
ĠVer ordnung
im es
ĠAn walt
ĠAn meldung
etz e
19 44
ges pr
Ġth emat
verb Ã¤nde
rag ment
ĠPrem iere
ĠDemokrat ie
ĠThr on
Ġverbess ert
! =
T hr
m uster
č ĊĠĠĠĠĠĠĠĠ
it ing
Ġs ingle
ĠB ent
ĠB Ã¼ndnis
et ische
ĠK ore
ĠH Ã¤usern
ĠT ypen
Ġan alys
ĠSch enk
Ġp at
eh me
ok er
Ex pr
ĠCh ancen
ĠLand gericht
sk ar
ĠKl ar
Ġhin sichtlich
ĠWohn ungs
ins eln
ĠGesetz es
Ġkompl ette
the ater
ĠChamp ions
EX T
stad ion
ĠRail way
ĠOh io
ĠSyd ney
A lex
U l
an ier
ĠA TP
ĠG lobal
ĠW Ã¤hler
ĠO S
ĠO utput
ĠSch Ã¼tzen
im o
Ġsch ema
ru der
enn zeichen
ĠAuf klÃ¤rung
ĠBe gegnung
bar es
Ġvers orgt
ĠWer be
we en
Ġ185 5
ĠBeh and
Names pace
ĠFlor ian
Mich ael
Ġgarant iert
Ġstrate g
ĠHolly wood
st einen
st reifen
ĠD Ã¼n
ĠM ie
ĠK alender
ĠE P
ĠH ildes
se h
ver d
Ġbe ant
ĠÃ¼ber tr
ĠAus sagen
ĠCh arts
sb et
stra fe
ĠÃľber setzer
Ġerfolg ten
Ġro te
ĠPat ent
ĠauÃŁer ordent
ĠKo alition
laub nis
kor de
Ġrei ste
db c
ĠVikt or
Ġeingemein det
G G
K at
K Ã¼nstler
sch lossen
Ġder selben
em er
Ġf ix
il lo
ĠL ittle
Ġh art
ĠSt imm
wei ger
ĠIn haber
19 00
ens ive
ĠPh o
halt ungs
Ġteil en
ĠDurch schnitt
dorf er
Ã¶m m
ĠDat abase
euch ten
ĠForsch ungen
ĠgrÃ¶ÃŁten teils
IV E
ĠExempl are
M ult
k inder
ĠS ind
Ã¼ ben
Ã¤ sche
Ġv irt
ĠB uk
ern t
19 10
19 37
Ã¤r er
ĠCh am
String Builder
ĠMann es
ace ae
ĠSaison ende
ĠAnt arkt
196 3
ĠHei de
End point
ĠDokument arfilm
ĠVorder grund
FOL LOW
Ġgeplan te
I hre
k andid
sch war
Ġge prÃ¼ft
ĠZ one
ĠZ iegel
Ġe ffiz
Ġ8 4
gl Ã¼ck
ĠJohann a
ĠSport s
ĠJohn son
ĠÃ¶ff nen
ĠJur y
Welt meister
ĠKriegs gefangen
ĠMarc us
ĠWeihn achten
ĠLink ed
ĠBrow ser
ĠPok er
ĠErzÃ¤hl ungen
ĠhÃ¤uf iger
U uid
k ont
m ech
st urm
Ã¼ ÃŁ
ĠB ond
ĠK ast
ĠE k
Ġvon einander
ran ch
ĠStr eich
ĠRe ktor
ĠString Buffer
lei sten
Ġpro ps
ĠBand s
ĠCo ver
ĠFach werk
ĠAnfang s
Ġ185 8
196 4
Ġ180 6
ĠAndre w
Ġbed ient
Ã¤chs ische
Column s
gesp ielt
B ook
W issenschaft
o iden
Ġ arr
st Ã¼cken
ĠA sp
re cord
ĠV ector
ro st
ĠN ar
ĠC ontainer
ĠIn halts
() ),
Ġ18 43
Ġa cc
ex ists
ĠGr as
ant ast
ĠTr end
ĠSÃ¼d ost
mittel alter
Ġte lef
ĠTor onto
ake te
Ġperfe kte
iction ary
Ġregistr iert
Ã¤rt ner
ĠInse kten
chtes gaden
R elig
V arian
ge gn
le der
ĠT oken
Ġh alt
ĠZ eilen
men te
Ġbis schen
ĠGr au
ĠAb wehr
ĠBe arbeitung
anz eigen
Qu elle
ĠJul ia
Ġbesonder er
ĠDienst ag
ĠSchwer in
ĠPublik ationen
Ġindividu ellen
Ġtradition elle
ĠVerkauf s
ĠMun icip
ĠTemperatur en
Ġsec ond
ĠFass ade
Sele ct
L uther
S w
S ee
Ġ1 14
ĠK ok
ĠF arm
ĠJahr gang
get Resource
gr am
ĠVor les
Un ternehmer
ĠWor te
ĠZust immung
Cl ub
A rea
B al
o use
ĠS lowakei
at tr
Ġs erb
am ts
ĠK Ã¶
ĠE sp
ĠE ffekt
ĠH D
ĠT y
ro d
Ġauf gehoben
ĠZ war
ĠVer st
ĠPro perties
ĠNach kommen
als ieger
Ġch ron
Nach bar
ĠMet rop
ĠBed ien
Ġempf angen
agn ose
Ġentw orfen
ĠGeschlech ts
F ebruar
Ġ Ã¤nderte
ge zogen
ĠB alk
ĠB usch
Ġn odes
ĠW omen
ab on
ĠO v
Ġp rivat
Ã¤t igung
ĠGem Ã¼se
ober haupt
ĠÃĸ konom
Mit te
Ġgef eiert
ĠFra g
Argument s
ĠGold medaille
ĠMer cedes
Ġra sch
ffe kte
ĠEliz abeth
D igit
ĠB ucht
ĠD M
Ġ1 18
Ġin iti
ĠF ord
ĠP ic
ing ham
ĠO R
ft ige
ĠAn satz
19 83
ĠCh a
Ġber echnet
fahr ung
Ġbef Ã¼r
iss ar
add ing
Ġausge prÃ¤
schl Ã¼sse
Class Loader
ĠBen jamin
ĠInstitut ionen
ĠTri b
Ġfa ctory
W a
m issions
s eiten
t ax
ĠA ur
Ġf lag
ab a
Ġge leitet
ehr en
ĠÃ¼ber liefert
19 11
19 79
ens wert
Pro file
Ġ7 4
ober flÃ¤che
eid et
ied s
ĠMed ik
ĠAnt ike
SS R
Ġhistor iques
ĠGeh irn
ĠSim ple
Ġnational sozial
UT F
ĠGit arre
Ġarch Ã¤
Aut o
Ġsech sten
ĠFertig stellung
Ã¢te au
D omain
p Ã¤dagoge
Ï Ħ
ĠA T
ĠD ame
ach el
ĠC ard
Ġg gf
ĠSch uss
Ġl ust
ĠDie t
iv a
19 32
hen den
ĠRe zens
kehr en
ĠDurch schnitts
Ġnun mehr
ĠHe ad
ĠWeiter lesen
Reg ie
pol izei
bes itzer
Ġtyp ischen
ĠStÃ¤r ke
Ġspezial isiert
ĠFinn land
wh ile
b reite
c io
l Ã¶sen
r ichtete
Ġ \
ĠB orn
ĠB rad
Ġb ody
ĠD T
ber ater
ĠJ Ã¼d
ĠC ott
ic on
sp ark
og a
end ing
19 27
qu ert
pen dent
Ġgen auer
Ã¶s ser
stein er
ĠStud iums
ĠSk y
ĠGen e
not ations
sprach ige
ĠUN ESCO
PRO PER
================ ================
ĠCorn el
cycl op
Ġzusammengef asst
F ootball
G el
L eicht
l Ã¤ndern
Ã¤ le
ĠE mer
Ġf ahr
ĠH ang
ĠW id
tr Ã¤cht
ĠSch Ã¼lern
Ġl abel
ap elle
id akt
Ġa f
19 12
ĠMar io
zeit lich
ren ten
Ġqu er
ĠDr ama
ĠHistor ische
Ġangeb lich
ĠStad trat
ĠChem iker
Ġerr ichteten
ĠNationalsozial isten
ĠSamm el
ĠDro gen
Ġschwier ig
ĠmaÃŁ geblich
ĠÃ¶rt lichen
c ies
ar ing
Ġf eiern
ĠV ene
ĠJ ugoslaw
Ġc omm
la fen
Ġunter teilt
of ilm
Ġsp anische
Ġres p
Ġres ults
Ã¤m me
figur ations
ĠHistor ic
ĠEigen tum
produ kte
ĠTon y
ĠSand stein
ĠÃ¤uÃŁ er
Ġerg ab
ĠAuseinander setzung
ĠPian ist
ĠRess ourcen
ĠArgentin ien
N etwork
R eihe
e ge
x x
ĠB ock
Ġm en
Ġm or
ĠP ac
Ġauf geteilt
Ġbe ziehen
19 41
per rt
ac ional
ĠSchw estern
zw eck
Ġsetz ten
Sh ow
ĠQualitÃ¤t s
ĠSQL Exception
ĠSpec ial
Mart in
Ġumgew andelt
S en
m os
in ternal
ie de
an ts
ĠD ritten
ĠM atch
ĠK ein
ĠF ett
ĠF aust
ĠT s
ĠC lem
Ġauf nehmen
ed s
Ġ" ";
pl Ã¤tzen
ĠNach frage
ĠÃľ b
ĠWohn haus
Group s
190 1
bas is
organis ationen
ĠGemark ung
adelph ia
: "
H om
J ECT
P rÃ¤sident
k W
ĠH ung
tr echt
om aten
and el
Ġ18 47
ĠAl an
ĠSie gel
ĠBe cker
ieren der
res se
Sch l
Ver b
Ġkon zip
Ġlang uage
ĠAp i
Part ition
EL D
gefÃ¼ hl
ĠSign al
ĠZeu g
ĠMisch ung
st iftung
ge ht
ĠH Ã¤ndler
Ġk reis
ik eln
end ung
get Field
id i
ĠAuf stand
ĠVor gang
bau werk
Ġges ichert
spr achen
ĠPh arm
AT O
wohn ung
ĠZwei ter
Med aille
Ã¼st ung
ĠKre bs
Ġdest ination
Ġkanad ischen
ĠPorn o
ĠAbt ei
Ġmittelalter lichen
ĠVie h
ĠBam berg
ĠUE FA
P ap
R ennen
Å ¼
ĠM ort
ĠT ele
wei l
aus stattung
Ġ18 38
19 22
qu ellen
pl ier
ĠMar co
Ġe p
Ġbeg leiten
hof er
ĠLu is
Ġeinge zogen
ĠBel ager
Ġentst amm
Men u
ĠanschlieÃŁen den
V ier
W ohn
h ammer
den kt
Ã¶ ten
Ġst ep
ĠAl i
Ġre alisiert
pro zess
ĠKl einen
ĠSte ine
... ]
ĠZu vor
ĠVers ionen
Ġbew ir
Ġfinanz ielle
Ġide al
Top ic
option s
Ġabgeb rochen
ĠErl angen
ĠBeweg ungs
Ġbestell t
B uf
C opy
O pt
R om
W al
f ein
p us
Ã¼ ten
Ġw ann
Ġm Ã¼sse
ĠW lad
Ġl ib
im ens
ĠAr zn
19 31
if orm
be auftrag
ĠLand gemeinde
Ã¤hr ungs
ide en
new Instance
stit u
ĠFre der
ĠLei b
Bau denkmal
Ġerf Ã¤hrt
ĠgÃ¼nst ig
ĠSpann ung
Ġbetroffen en
Absol ute
Ġveranst altet
ĠZub ehÃ¶r
A ch
L EN
n ÃŃ
ĠB R
ol ine
ĠP yr
ĠE i
ĠR Ã¤
ĠR ic
Ġer wer
ent schieden
ĠC le
ĠU we
eg g
ehr ung
urn ee
ĠSp alte
Ġj eg
id t
ia e
gew alt
Res ults
ĠÃľber ra
ĠÃľber leben
Ġger ufen
Ġeinz eln
Ã¶st liche
ĠAt tribute
ĠDem oc
ender t
Ġstehen den
frie s
beh alten
Ġqualifiz iert
Gemeinde auflÃ¶sung
ĠAud io
ĠLoc al
C LASS
P ack
R ole
S F
Z eich
b ur
in ische
ĠB reiten
ĠB Ã¤ume
ĠC la
ik ro
19 21
ov o
pro fil
ren ce
ĠOl d
deck er
UR CE
ook ie
ĠÃ¤ gypt
Ġverlie f
Produ ktion
ĠBon us
Ġzweit es
Techn ische
Rem ote
Ġerle bte
ĠStrate gie
ĠKÃ¤r nten
ĠFit ness
ĠNeuse eland
Ġanb ieten
V iele
n ord
at um
Ã¤ ser
ĠP aket
der e
ĠH ass
ĠR Ã¤um
and ten
ir r
ĠSch alt
ĠVer anstaltungs
19 50
ĠVor gehen
dr es
sb ild
ĠBundes straÃŁe
ĠDes igner
ĠSeit dem
Ġleben den
Ã¼tz te
Ġevangel isch
ĠEich en
verl ust
ĠErzÃ¤hl ung
Ġsamm eln
ĠSyr ien
dential s
T ube
ĠS af
ĠA tel
ĠM iet
ĠG ibt
ĠV eg
ĠJ ahn
ĠC ab
Ġc ollection
ech e
ĠZeit ungen
ĠDe cken
Ġgeh eim
ĠMin dest
ĠChrist ine
Hand ball
Ġ180 3
ĠRitter gut
Rel ation
Histor y
angeb ote
Ġweib liche
wÃ¤rt igen
Ġphil osoph
ĠStief el
al ts
Ġf iles
ier re
Ġg o
Ġr ichtet
get Path
19 56
Ġ3 50
ige st
Con ne
sb rauch
stan ces
ĠEl be
Ġausge stellt
Ġausge strahlt
ĠBet roffen
ĠHil de
Ġabge geben
ĠHel den
ĠFel sen
ĠSec urity
Ġhum an
f ul
p rev
v ik
ge stellten
or o
Ġm uÃŁ
ĠK um
ĠK lagen
ĠF eier
ĠP ension
ĠT oren
il ch
ĠC arr
Ġl aden
19 24
min a
war f
ĠEl f
Ġger aten
ĠSÃ¼d tirol
ĠHil f
DE F
ĠWar um
ĠStaats anwalt
196 5
gehen de
ĠBro ad
Ġelement s
Histor ische
imple Name
Lud wig
N etz
j ar
ĠB anken
Ġm erk
ten ts
ĠP ixel
Ġan ger
Ġt x
iv alen
nen nung
io den
Ã¤nd ischen
Ġ7 9
Ġins zen
ĠMan chester
Sp eichert
Ġunterschied licher
stehen de
LO C
Ġgener ate
ĠZuf luss
ĠPel z
ĠStraÃŁ burg
Il legal
F Ã¼gt
G leich
L ied
M D
Ġs erv
ich e
ĠA L
ĠM Ã¼hlen
Ġm ol
ĠL Ã¼n
Ġg ere
ĠO ste
Ġt itle
Ġver standen
ĠZ ens
ĠSch mal
ĠEr stellung
ĠAr min
pr ise
Ġ7 1
ond itions
Ġange ordnet
west lichen
ĠMo z
Ġheraus ra
ĠErn est
Ġfr isch
go ogle
So ftware
zub auen
Ġstaat liche
ĠErinner ungen
Europameister schaft
akes pe
Ġkorre kt
Ġd auert
Ġs amt
Ġs aÃŁ
ik ationen
ien e
ĠEin tritt
19 43
stell ern
ord nen
ĠUnter schiede
amer ik
ĠAd ministr
Ġgeb raucht
film e
ĠCar ter
ĠMet ro
Ġverm utet
itte e
196 2
Ġgenau e
ĠLou ise
CT ION
Ġzug unsten
ĠDigit al
ĠWit we
ĠInstall ation
ĠEro ber
J J
d ichte
Ġ ener
ar z
ge gangen
Ã¤ ischer
ĠB urn
ĠB Ã¤r
Ġb reiter
am ann
ĠF ri
ĠP est
Ġge folgt
ist ers
Ġst et
19 42
ĠBer chtesgaden
Ġgew isse
Ġ8 7
wer fer
ĠCon fig
ĠRech nung
Ã¤m m
ĠDi am
196 1
196 6
iat rie
Ġdat abase
Fr ame
i ago
ĠA gn
ĠB ag
ĠD og
ĠP ont
ĠT hal
ad ow
Ġunter schieden
ĠVol ker
mark e
ĠFell ow
Ġmedizin ischen
ĠHimm els
D oppel
G L
R ichtung
j Ã¤ger
Ġf ilm
Ġf Ã¼hlen
kt oren
ĠIn c
ĠIn iti
ed lin
ĠEr ziehung
uch er
lie gende
Ġ18 13
Ġ18 14
19 46
off er
Ġerst mal
ĠWei s
ĠHaus halt
Ġhand eln
ontin ental
Ġdire ctory
ĠBal kon
Ob wohl
ĠJack son
ĠZweck e
Wind ow
russ isch
C S
h essen
ĠS ech
ĠK leid
ĠP os
ĠC hal
Ġl eiten
br unnen
Ġgew innt
ĠEnt deckung
ĠGer d
Ġger inge
Ġfield s
ĠKom Ã¶die
Ġhol z
Ġerl Ã¤u
ĠCre ek
ĠkÃ¼r zer
ĠOrch estra
ĠWurz eln
otent ial
R h
l inger
or r
Ã¼ g
Ġs a
Ġf erner
Ġk ontakt
ĠIn t
Ġj ene
Ġa ccess
19 36
ss itz
Ġgew issen
dr ama
ĠEnt ity
ĠPar ks
ĠNord west
ĠCo untry
riter ia
wirtschaft s
ĠVertr auen
ĠErw art
ĠWeimar er
Rec ei
Ġrechte ck
N a
b undes
b ayern
e ffiz
g it
z weig
ch annel
st ufen
ĠS ymp
ĠD ritte
ĠM ong
ĠF unc
Ã¶ konom
ĠL av
Ġh l
im etern
esch ichte
rie den
ĠAl f
verb rauch
ĠSan ierung
Ġind ustr
fÃ¤l ischen
gra fen
Date Time
ĠRelig ions
ĠVize prÃ¤sident
ĠSaarb rÃ¼cken
H amburg
R eich
c os
c lazz
g Ã¤u
un er
Ġs cript
ĠM usch
ĠK ay
ĠH ost
ĠW arn
ĠT Ã¤tigkeiten
ach ing
Ġer ober
Ġo cc
ver ordnung
im iter
pt h
ĠFl otte
Ġres ources
Ġis ol
ep pen
ĠMitte le
ĠRos a
stud ien
Ġservice Callback
ĠJahrzehn te
ĠDrit ter
Ġverurs acht
ĠkÃ¼nd igte
ĠTay lor
F loat
R aum
v ia
ĠD I
Ġz us
re ct
ah me
Ġab geleitet
ĠEn zy
ard in
St ats
ĠChr onik
eig n
ĠTr ink
Ġteil te
ĠZwei te
ĠMag d
ĠRen ov
ĠComm on
ĠNo Such
kur renten
Ġgez Ã¤hlt
Ġdat iert
funktion Ã¤r
Ġspec ified
Ġweib lichen
ĠTO DO
S ach
T RI
i ja
k Ã¼nstler
in voke
ĠP y
ĠSt eiermark
Ġaus gel
id den
ĠAus sehen
rich en
Ã¤d te
mar ck
ĠMed iziner
ĠCar lo
Ġ185 3
ĠNor bert
ĠSyn th
Bet rieb
ĠSym pt
ĠProz esse
Ġerkenn bar
innes ota
U RE
d re
s uper
Ġd iff
et ik
ten nis
ĠZ ellen
ver anstaltungen
19 47
auf lage
pr om
Ġpro vider
Ġex tr
ĠMed aille
ĠAnt worten
ĠCar los
Ġâ ĪĴ
Ġloc ation
Ġtyp es
ĠSchles ien
Ġmon at
Bundes liga
Ġbetre ffen
ĠMem or
stÃ¤d ter
ĠDiv is
ĠWÃ¼n sche
ĠPion ier
ĠInternets eite
ĠGeor ges
Merk male
E E
L imit
z elt
Ġ eignet
ĠB our
ĠB uck
ĠG allen
ver leihung
ert ungen
Ġ18 32
19 59
19 52
Ġab s
ĠBer ichte
pl ung
ĠBe cken
ĠNach lass
(" /
our i
oc us
Ġ9 8
At tr
ĠAk adem
Ġstattf and
ĠSter nen
Ġmot iv
ĠBom ben
D ienst
G ef
Ġ 00
Ã¼ sten
ĠP le
ĠW esen
ĠI gn
ĠO ran
Ġver mitteln
ĠSch iller
he et
wei len
Ġwie s
ĠCh ile
Ġ0 8
Ã¤nd igkeit
ĠMus ical
app ed
iet z
kon zept
ĠProf i
ĠMag az
gesetz te
Ġempf ohlen
Ġus ing
ĠMarc el
ĠEuropameister schaften
ĠAR D
Franz ose
6 00
Ġs itzt
ĠA re
ĠK iefer
ĠK leidung
ĠG is
Ġl eiden
Ġab ges
Ġab gew
mal erei
Re pository
ym m
ĠJul ian
sg ruppe
ĠMittel feld
ĠSÃ¼ ÃŁ
190 8
fre unde
Per mission
ĠViz emeister
Ġbedeutend sten
Ġermord et
e z
h ten
u uml
st yp
te ste
ĠM esser
em m
ĠF aktoren
ĠT afel
op ing
Ġa fr
ac o
teil ungs
Ġfor dert
ign ment
ĠHaupt bahnhof
190 7
190 9
system s
fest ival
ĠErw in
AX B
Ro ute
Ġaustral ischen
ĠZerst Ã¶rung
ĠOze an
H z
S ite
Ã¼ te
ĠB B
ĠG il
ĠW ur
ĠN Ã¶rd
ĠC os
Ġver mittelt
ĠSch al
im s
ĠAr ena
19 48
Ġab gelÃ¶st
String Utils
Ġgew orfen
Al gorithm
ĠSte ve
Ver tex
ĠHand eln
ĠDar stellungen
ĠKn ow
ĠMo h
ĠWeiter entwicklung
bed arf
krÃ¤ ften
ĠLandtag swahl
ĠLeiden schaft
MÃ¶ gliche
B ER
W idget
un en
ein trag
or izont
ĠF oss
ĠR ug
ĠC ustom
ĠSt ars
ag on
ĠEr lebnis
op ol
Ġ18 41
ock el
Ġ8 2
ĠEx trem
Ġausge st
Ġausge geben
kon serv
tag on
ĠIl linois
Ã¼h ler
fert igt
Reg istr
ĠWieder aufbau
ĠPil ot
ĠEntwick lungen
nehm ung
Ġfa iled
K rieg
L ie
f Ã¶rderung
sch ema
ĠR ange
re de
ier tem
ĠVer teilung
ind el
ĠEr mitt
ĠEin sÃ¤tze
ok a
ĠMus een
ĠLe v
Ġausge dehn
Ã¤nder ung
ĠDar steller
ĠJe ff
Ġmusikal ischen
ĠMicro soft
P ark
t ask
w ender
ei mer
ge halt
ĠK rÃ¼
ĠF eu
ĠT eich
ĠVer pflicht
19 23
auf tritt
ob i
tem p
ire d
ite es
Ġ7 8
Ã¤m pft
Ã¼l lt
Ġit s
ĠStaats oberhaupt
gar ter
ĠDo zent
ĠMil ler
Kl ein
ĠPe er
ĠWand el
Ġregion ale
Ġdigit ale
ĠEuropameister schaft
ischÃ¶ fe
schrau ber
h Ã¤
ar mee
ĠA S
ĠB MW
ĠH af
ĠT SV
ĠZ ut
ed es
19 13
19 35
In halt
Con f
Ġman che
mit tler
Ġange kÃ¼nd
Ã¤m mer
Ġfrei er
arbeit ungs
190 5
Ġentfern en
parse Int
ĠBulgar ien
ĠHildes heim
i ffen
ĠF avor
Ġf as
ĠL ook
ĠN iveau
ang le
Ã¤l le
ean dert
Ġcon trol
ĠDurch bruch
Ġqu adrat
ĠBas il
ĠKommun ikations
ĠHeimat stadt
ĠSchÃ¶n heit
ĠĠĠĠĠĠ ĉĉĉĉ
ĠQualif ikations
ĠTÃ¼r en
Ġattr akt
pap ier
Sonst iges
ĠKroat ien
B all
f ache
w issen
Ċ ĊĠĠĠĠĠĠĠĠĠĠĠĠĠĠĠĠĠĠĠĠĠĠĠ
Ġv ollen
Ġb ulgar
ĠD igitalis
ra ck
Ġzu gewiesen
Ġaus gesetzt
ĠVer folgung
Ġst arben
Ġr etten
Ġ18 20
19 71
Ã¤l lig
Ã¤ch se
ock er
als o
ĠLebens raum
ho use
Land es
ĠAuff assung
Ġdigit alen
Ġbetre ut
Ġdauer haft
ĠErwachsen e
Ġinstall iert
ĠSmart phone
Meta Data
ĠApost ol
ĠDiÃ¶z ese
Dam it
W ein
b Ã¶r
g ow
o on
r ath
Ġ ðŁ
Ġb ill
ĠD est
ĠV II
Ġk r
Ġauf weisen
ver g
Ġ18 39
ĠStr ahl
Ġvor n
ĠBer Ã¼cksicht
ĠBe weis
lei dete
Ġ8 1
ĠSchul ter
Ġ> >
recht lichen
ĠGef Ã¤hr
čĊ čĊĉ
ĠVolks republik
ĠZahl ungs
ĠDres dner
Arch Ã¤
Ġdurchschnitt liche
Dev ice
b ury
c enter
un ct
ĠS ehr
ge tragen
el y
el ung
ĠB eine
Ġm em
ĠK und
ĠK enntnis
ĠH ut
ĠH obby
Ã¶ hnen
ĠL eu
Ġsch auen
ĠAus gleich
ob ahn
Ġgew alt
Ġgeh abt
Ġ12 5
Ġhier zu
Ġgeb unden
sol v
ĠProblem en
Ġfl ach
ĠDav is
ĠMont age
ĠComm ittee
Ġelektr ische
ĠTerr asse
+ "
M G
O UT
U C
c ell
d ro
s v
ĠS ED
Ã¼ pft
Ġs ang
ĠD ark
ĠK h
ĠK riterien
um ul
rei en
eb r
ĠU RI
ver teilung
Ġun be
Ġber ichten
ĠGeb Ã¤uden
Mann schaft
ĠMed aillen
ka sten
ĠBesch luss
ĠTem p
gesetz es
kan al
Ġerk ennt
Ġtradition ell
Ġleich te
ĠLux us
ĠServ ices
Ġdiskut iert
F ailure
X T
c ommerce
f ehler
k rat
k ompon
ĠS ich
Ġf otograf
ĠIn spir
ĠEin sÃ¤tzen
geb ot
pf alz
ip le
ĠVor lage
lei b
Ġ9 2
form ed
amil ton
ina e
anst alter
Ġversch oben
ĠSied lungen
Ġant iken
Ġqualifiz ierten
Ġirgend wie
ĠmÃ¤nn lichen
Ġmet adata
Ġerle bt
Dest ination
kÃ¼n fte
H in
S al
c ms
f angen
m atcher
v Ã¶gel
an ter
ur teilung
ĠG ur
ĠJ ag
ver Ã¶ffentlich
auf gaben
ĠEn tert
ĠCh at
ĠVor feld
br unn
eren ce
schein lichkeit
Parameter ID
fried hof
ĠÅ ½
ĠGot ha
JÃ¤hr ige
irurg ie
ĠAnth ony
ĠSkulpt uren
M etric
T C
b org
v r
es er
ĠS ele
ĠD IN
ĠG or
ĠH eld
ĠJ im
rei tete
ĠO ft
Ġ18 35
ick te
Ġex pected
ele ted
Ġfest en
bew eg
ĠGu ide
ĠTre ppen
ĠTel ek
ĠPrÃ¤sident schaft
fÃ¼r sten
FI LE
ĠMass achusetts
artet t
komp lex
ĠdÃ¤n ischen
beam ter
D b
E isen
H erkunft
P oints
i ate
n umber
r unden
z ule
ĠS ac
ĠD ritt
ĠM eistertitel
ĠR ober
end em
Ġe qu
schen den
Ġgel Ã¶scht
Ġro b
fÃ¤l lt
fel de
Ġangegeben e
ĠService Future
Ġverp asste
skl asse
ĠBedÃ¼rf nisse
incip al
Ġmath emat
L ei
k rie
o i
ã ĥ
Ġd einer
Ġin halt
Ġm oment
ĠW y
ĠR og
ach tete
ĠU til
id ar
enn te
be an
anz a
sh afen
bje kten
ĠList en
Ġ12 00
eig ert
ĠInter ruptedException
Ġgest ern
Mod ified
ĠWor ten
Ġexist ing
ĠFernseh film
ĠMinister ium
ĠSin f
ĠAbgeord nete
Produ ct
Mill ionen
ĠÃ¶ konom
Hein rich
7 00
P R
P ane
p lo
s Ã¤chsischen
as et
ĠG reif
ĠT ak
ĠL A
ĠL eich
Ġan spruchs
ĠVer mut
ĠOber flÃ¤chen
ĠCon s
Deutsch es
ĠZwei g
ĠGener ationen
ps ych
ĠPhil adelphia
Auf gelÃ¶st
Ġind ischen
key Set
ĠFort setzung
kn oten
vis or
ĠEdel stahl
erkl Ã¤rung
Ġentdeck te
Listen ers
ĠSynag oge
S ql
ĠM ix
Ġm eta
ĠK ritiker
ĠH Ã¤nden
ĠN oten
Ġge zwungen
ap ply
Ġ0 2
ĠPl ate
los er
Ġhin weg
kreis es
ĠGew erb
ĠfrÃ¼ he
ĠSport ler
Ġat tributes
Ġabge lehnt
ĠPal Ã¤
akter ien
Ġmoder ner
gÃ¤n gen
Ġschwed ische
ĠRestau rants
V E
o ÃŁen
et isch
Ġi ll
ĠF ulda
ĠN on
19 55
Ġsp Ã¤testens
ĠFl ur
ock e
Ġ8 6
ĠBo ard
Ġar men
Ġgest altete
ĠZusammen schluss
ĠRad rennfahrer
echt igkeit
Ã¤ss ern
Ġpl us
Part ei
Ġloc ale
ĠInstr umente
drÃ¼ck t
z k
Ġw Ã¤hlte
hr ingen
ĠF ren
ĠP unk
ĠJ i
Ġg eile
ĠEr sch
ĠEr ic
Ġnach weis
ĠUn der
ĠEin blick
Ġ18 42
Ã¤r m
ĠMa z
atur en
rÃ¤ g
Ġex pr
Sch we
ĠzurÃ¼ck zu
schn itten
rÃ¤s identen
190 3
Ġinteress ante
Ġorganis ierte
ĠVoraus setzung
ĠTrotz dem
F ernse
d an
h Ã¤ngen
n ow
p op
z ien
sch les
ĠA mal
ĠB auf
ĠB ridge
ĠK reise
ĠG uten
ĠT ai
se arch
ann over
Ġauf gew
ĠSt or
sp olit
Ġst ren
ĠAn reg
get E
ĠEin zug
ĠVor jahr
ĠBl u
hand els
Ġdan eben
Ġherv orge
ikal ische
ĠNachbar gemeinden
rec ated
aktiv iert
ĠSat tel
Ã´ ne
ĠVerÃ¤nder ung
Ġren omm
Bi ografie
Lower Case
D rei
k ong
Ġd auern
st etten
st Ã¤dt
it us
et o
ĠM igration
ĠK eine
ĠF ox
re b
Ġp ur
im ate
ĠAn gehÃ¶rigen
qu ote
ĠEn dr
18 99
ĠReg istr
ank a
ĠMag net
Ġeinfach er
ĠKat hedrale
ĠProgramm e
print StackTrace
ĠÃ¤hn lichen
Art ikel
Ġumfang reich
Ã¶h ler
ĠSatell iten
ĠkÃ¤mpf te
a int
Ä Ĺ
al ben
Ġw Ã¶ch
et sch
ĠT ask
ĠV olleyball
Ġmit ten
Ġan n
Ġvor stellen
ĠFl u
Ġ0 5
lei tete
ett y
ĠSchw ert
ĠHand y
Ġbesch rÃ¤nkt
ĠSh akespe
ĠVol umen
Ã¤ft s
schn eiden
ĠTra ck
reib ungen
Ġkein em
fert igung
gef unden
Ġbesser en
ĠDrei ÃŁig
Oper ator
Ste in
ĠerhÃ¶ hen
lÃ¤ufer in
omet rie
Ġausger ichtet
Ġkultur ellen
ĠPek ing
A ctive
m ode
Ġm ach
ĠH ad
Ġk ap
Ġk roat
ĠZ ag
ĠIn tens
ĠIn itial
lo v
ĠAus bruch
ĠPl Ã¤tzen
iss ionen
inder te
Ġbeg in
ĠQu ad
vÃ¶lker ung
vol ler
ĠVerl etzungen
ĠHeraus forderung
Ġnorm alen
ĠAust rag
ĠBlÃ¼ te
Ġbeauftrag t
ĠBerat ungs
ĠVerbreit ungsgebiet
M atcher
f ix
n ommen
r s
z ession
ĠK ad
ĠG ros
ĠH els
ĠR as
ĠV Ã¶l
ĠN ATO
Ġge be
ĠSch Ã¶pf
ĠSch Ã¤fer
get X
Ã¶r ten
ĠPro jekten
Ġunter nahm
ĠAb kommen
str Ã¶m
eid ung
ĠInter ess
ĠPer u
cl us
ĠGen ossen
ĠTour isten
Ser ial
ĠEnd spiel
ĠÃ¤uÃŁ eren
Ġtats Ã¤ch
ĠYou Tube
Ġlok ale
Tim estamp
ĠErschein ungs
Constra int
Ġverstorben en
ĠBestell ung
AuÃŁer dem
ĠLiss abon
B inding
F k
H A
T ile
d on
g io
i Ã¨re
Ġd etaill
it iv
ĠL Ã¤ng
Ġer lern
ĠC er
ver schluss
Ġ18 18
Ġ3 60
Ġunter richtete
ĠNach halt
amm ung
Ġen ge
ĠEx pedition
ĠUr ban
ĠVers uche
ĠInd ianer
stru ction
aly sen
ĠKomp etenz
Th omas
Ã¤um t
ĠRh yth
Verkehr s
Change d
Ġkeiner lei
ĠberÃ¼hm ten
ĠOpt im
ĠInternal X
ĠSchicks al
H S
in formationen
an as
Ġs u
as y
ĠF uss
ĠN atÃ¼rlich
ul ationen
Ġc ur
ĠEr ik
Ġ18 44
ĠGrund riss
con f
Ġgef Ã¤llt
ĠĊĊ ĠĊĠĊ
ĠHÃ¶ hlen
Ġhistor ique
aur us
gericht shof
FI ELD
Child ren
Ġzeig ten
ĠAufsicht s
ĠgefÃ¤r bt
A ustr
B oden
H eim
N un
P G
W appen
s i
in kt
un fall
Ã¼ ÃŁen
ĠB utter
ĠB ibli
ĠD ess
ĠF Ã¤hr
is emit
ĠH ed
Ġver Ã¤ndern
eb el
Ġo ur
ĠIn de
ĠVer hÃ¤ltnisse
ed uler
ri o
ĠEin stieg
Ġdurch setzen
pl et
ĠVor haben
ĠSo ft
ĠLe er
ĠY our
ĠOrt steile
Aus gabe
ĠAt hleten
list ener
Med iziner
ĠFrÃ¼h stÃ¼ck
Ġletzt es
person en
Absol vent
sbes itzer
B ig
L ive
d ates
h ers
p hal
ĠC ourt
Ġl ohnt
ru pt
Ġ18 10
Ġ18 37
ĠMa j
ĠNach mittag
Ġgr Ã¼ndeten
ĠEx port
ott om
ĠDon ald
fÃ¼l l
sa al
ĠUrs ula
Ġav ailable
ĠSort iment
Ġschwei zer
) ),
, -
c ommand
f lie
h ier
h Ã¶ch
m d
m Ã¤cht
ĠS eil
ĠD FB
Ġz z
ĠF utter
ĠP ur
ĠP ip
ĠH ess
sp eicher
ile y
pro ject
Ar g
ystem e
ĠNational rat
hei de
Med ien
ĠSold at
ĠWett kampf
kre te
ĠEinkauf s
ĠÃĦm ter
B ot
R C
W A
h ing
n Ã¼tz
s ame
w etter
} );
te or
ĠB reis
ĠG ol
ul us
ĠZ en
Ġaus b
Ġst erben
ĠAl ice
19 49
Ġre port
ĠAb schied
ay r
uÃŁ en
ĠVor sprung
Er ste
ĠBeg leiter
ĠVers orgungs
Time Millis
Ġhistor isch
SE CON
Client Execution
ĠOper a
produ kt
Ġzurueck gegeben
!! !
ĠEntwick ler
ĠGir ls
VerÃ¶ffentlich t
spf licht
riet te
ĠFound ation
ĠThail and
B ro
G raf
Q UE
in th
sch atz
Ġw andte
ĠK ilometern
ĠI wan
ir gs
ul ierung
ah ler
ĠEr nennung
Ġbe ur
19 57
ĠGesch Ã¤fte
ĠProdu zenten
Ġbr achten
Ġschn ellen
emat ik
ĠHy per
VAL ID
ĠKer amik
Ġbefore ClientExecution
Ele ktr
ĠAuftr itte
velop ment
S erv
U hr
c olor
f ell
g leis
h um
o ice
Ġd ritt
or ger
Ġs plit
ĠD isp
ĠM Ã¼ndung
Ġf ran
ĠW affe
ĠV Ã¶gel
ĠEin fach
19 17
Ġab gebaut
Ġe ach
En tries
Ġres olve
old ing
eck er
Ġbesch rieb
ĠX X
ron en
ĠMich ail
bereich en
por ary
Ġad dress
ĠTur b
Ġprakt ische
ĊĠĠĠĠĠĠĠĠĠĠĠĠĠĠĠĠĠĠĠĠĠĠĠĠĠĠĠĠĠĠĠĠĠĠĠĠĠĠĠĠ ĠĠĠ
tor hÃ¼ter
ĠLy on
ĠCommun ity
Ġjung er
Ġlauf enden
ĠRac ing
ĠViet nam
D isp
S B
h ash
Ï ģ
in herit
ei ste
ĠA tem
Ġb rauch
ĠF ur
Ġf amil
ĠT U
ĠL ehn
ĠI ter
Ġk lin
im ation
iz itÃ¤t
ex p
ikan ten
aw s
ĠRed akteur
asch inen
leid et
ĠAnge legenheiten
Techn ik
Hash Map
rib ution
ibil itÃ¤t
ĠBeam ten
ĠFrÃ¼hl ing
Leicht athlet
C lau
F u
G ra
s ammlung
st Ã¶rungen
ĠS einen
Ġb ilder
ĠF ind
ĠR uth
Ġge p
Ġst euer
ind lich
ib m
Ġunter stellt
av ior
sh Ã¶
ĠDe te
Pro tocol
Ġins ert
ĠHoch stift
ĠNational versammlung
ĠUr kunde
ĠBew erb
ĠFot ografie
ĠRuss ischen
meld ungen
ĠgefÃ¤hr det
H eil
M T
P ublik
T enn
T ool
p oints
y ing
ĠD au
Ġ1 13
am ing
ĠI hm
Ġk ar
ĠO skar
Ġo k
lin s
ĠAr gument
enn ame
sel ect
imm ern
ĠBo y
ilder t
ĠFre ie
ĠMod ul
ĠHistor ischen
ĠGeist es
Ġclass Name
Ġentspr ingt
ĠJer sey
ĠErk enntnis
ĠStreit krÃ¤fte
Ġgesetz lichen
PT ION
Ġdurchschnitt lich
ĠWitten berg
L iga
l ia
n ische
ie se
au scht
Ġ1 12
ĠK unde
ĠF ame
ĠI sol
ier n
Ġh Ã¶lz
ĠC osta
Ġk unst
Ġdes wegen
im b
etz liste
ĠAus richtung
ian ce
olle ct
Ġgen ehm
ĠUnter grund
Al ben
gew Ã¤chse
ĠPlan et
gehen den
ĠArchÃ¤ ologie
ĠFle cken
Kurz film
minist rat
ĠErot ik
ĠAfghan istan
ĠBerÃ¼cksicht igung
D abei
R ows
S oll
V ert
Ġs l
ĠB in
ĠL ack
ĠR y
om s
ir bt
ate way
ang aben
Ġj o
19 58
Ġre ference
heit lich
ĠLe gende
ĠGer ade
mÃ¤ ss
Ġwei ss
ĠOn kel
Ġkein es
ĠDem onstr
beg riff
ĠPil oten
Ġcomp ute
Ġmark iert
Liter al
A A
H g
M ass
U sage
r one
Ġd ot
an os
ĠB BC
Ġf liegen
ĠH ip
ĠL oth
ĠV ision
ĠAn nahme
ct ic
Ġ18 33
ĠMar in
ĠRe alitÃ¤t
ĠSÃ¼d amerika
ev in
AR D
Ġnie mals
Method s
ĠSteuer ung
ĠstÃ¤r k
BevÃ¶lker ung
mag azin
ĠAuseinander setzungen
Ġrom ant
Russ land
Ġverbesser te
B ag
S ong
T ick
T rotz
h Ã¤n
h ler
st immen
ĠS ax
or p
ĠH inzu
ĠL ohn
ĠJ AXB
Ġt her
ĠIn telligen
ord nungen
be vÃ¶lkerung
ĠFl orenz
ĠPl at
kl ang
ĠSte iner
ĠBo hr
ĠEl s
ĠUr sprÃ¼nglich
jÃ¤hr ig
Ent wicklung
Ġbeteil igten
loc ation
ĠBist ums
Ġneg ativ
Ġlehn te
/ {
> .
V M
s icherheit
Ġ iterator
ei men
ge x
Ġw ind
ĠD anzig
ĠK affe
Ġer zeugen
iz z
ĠEn cyclop
ĠGr imm
ĠAb ra
ĠAb bau
inz uf
ĠCh ild
ĠY ear
to Array
ĠOber leitungs
Class es
ari us
tag es
ĠPau se
ĠDat eien
ĠStu dent
Ġhol en
ĠTur in
Byte Array
Ġgrund legen
verstÃ¤nd nis
auff ol
stÃ¤d te
? )
D isplay
L L
k ilometer
z ungs
sch reibung
sch reiber
ĠA er
ĠĠĠĠĠĠĠĠ ĠĠĠĠĠĠĠ
um pen
ĠC ord
Ġge fahren
Ġ18 34
Ġlie gende
az ier
Ver band
Ġgesch Ã¤tzt
Ġausge legt
50 9
euer ung
ĠNeben fluss
ĠKat astrop
ĠStutt garter
Gr Ã¼n
getS impleName
seit igen
Ġverbunden en
Ġbedeuten den
Ġnotwend igen
Ġident isch
ĠGall ery
C L
O s
a sten
h aut
r und
č ĊĠ
es a
ĠG T
ĠH us
ĠC hen
och em
ex pected
Ġ/ **
St il
lei h
Al p
Ch em
ĠWerk zeug
ĠKÃ¼nstler in
lÃ¤nd ischer
ĠSchwar zw
pla c
Ġtrans form
ĠGottes dienst
Comm on
ausschuss es
ÅĦ ski
Ã¤nk ischen
Resol ver
D etail
z it
el ektr
ĠK ru
ĠT oy
Ġer baute
re gen
lie be
Ġsp iegel
fl Ã¼ge
mit te
Ġex klus
Ġges perrt
ĠgroÃŁ em
ha ar
Ġkomm ent
ĠNieder lagen
Man agement
ĠGen ehmigung
IT E
ĠHar z
flug zeug
Ġevangel ischer
Ġbeein druck
Ġoper ation
ĠVerdienst ordens
kriegs zeit
ĠFlie sen
ĠEngine ering
grenz ung
B asketball
P riv
T ax
T itle
b on
ĠK atze
ĠE y
ĠT R
ĠN eandert
ĠC E
ad i
wei lig
Ġaus gesprochen
iz it
if c
be zirks
Ġdar auffol
Ġgen Ã¼
ĠSchw Ã¤b
Ġges ammelt
ĠKunst denkmÃ¤ler
ĠInd ustr
ĠOst preuÃŁen
Ġvoll stÃ¤ndige
ĠRechts wissenschaften
Ent fern
ĠrÃ¶m ische
pla in
ĠWirk lichkeit
ĠFranzÃ¶s isch
Pres ent
ĠPerspekt ive
MÃ¼n chen
solv enz
O t
k Ã¤mpfe
y cle
an trieb
Ġw ord
rei hen
sp aren
ger echnet
get Default
Ġdurch ge
Ġ" \
enn ungs
pl omat
ĠAb satz
18 92
ĠSpiel ers
fe kt
ander s
ĠCon nection
ĠFrei stil
zie her
ĠOl iv
ĠÂ °
ĠOn lin
SS ION
190 6
ĠRegel ung
gra de
ĠTal ent
Ġopt imale
Ġerr ang
ĠkÃ¼nstler ischen
ĠProp ag
Ġsinn voll
kle ber
Ġspar en
H it
n utzung
p reise
s in
w enden
È Ľ
ur b
ĠK ran
ĠW ink
den berg
ĠR ent
Ġge lo
19 53
19 54
18 97
ĠKon d
ĠVerein ten
ĠHaupt ort
Ġur auf
verb ot
zentr ale
ĠLie ben
Ġbeh erber
Ġzahl reicher
Ġinternational er
ĠRen Ã©
fÃ¼l lung
ĠRem ote
ĠOff ice
national mannschaft
Ġdauer te
ĠdÃ¤n ischer
Ġol ymp
andin av
> ");
A ctivity
D L
D N
G lobal
k Ã¶pf
k ritiker
w Ã¶rter
z ei
Ã ®
on c
ar est
et scher
ĠH Ã¼r
ĠW end
ĠL ip
ber ichte
ĠV ik
Ġan stelle
Ġal ias
ĠSt ufen
ĠVer schw
ĠPro gress
ĠZeit alter
Ġgew Ã¤hlten
sk ammer
ĠBl as
ĠMÃ¼n zen
ĠCon text
ĠVerb rechen
Ġâ ĸ
check EMail
ĠTechn ische
ĠIns zen
ĠSalz burger
Per iod
Th is
Co uld
Ġverd ient
ĠHÃ¶r spiel
ĠWes er
Ġsk ip
ogn ition
ĠFranzÃ¶s ischen
ĠMÃ¶n ch
Ġcir ca
ĠTschechos lowakei
checkEMail Adresse
D och
D ruck
R ich
k lag
k Ã¼hl
Ï Ĥ
Ġ ^
Ġan zeigen
eb auung
ri fft
Ġ18 21
gr au
ĠMit begr
of ern
ĠLand s
ĠSe ef
ain ment
ĠGesch icht
lau bte
Ġviel es
Ġger echt
mar ken
bach s
ĠMittel n
ĠEm ail
Ã¼b ung
ĠZusammen setzung
Ġinner e
gra ph
Ġdr auf
aun a
Ġgl Ã¤n
ĠKanz el
ĠLibr ary
ĠFrances co
ĠBelager ung
I con
P ierre
u eller
w elle
Ġd ienten
ĠS ultan
Ġs olle
ĠB ilden
et tel
Ġb o
ĠF unction
re quire
ĠN i
ĠJ g
Ġan treten
ĠAn kunft
Ġbe deckt
ang riff
id ad
ĠEin bau
ĠCh idr
ĠRe view
Ġex port
oten zial
row ser
ĠBur k
Ġerk annt
Her ausgeber
Ġbeteil igte
Max im
Arch iv
Ġitem s
Juni oren
Ġrec ei
ĠgewÃ¤hr leistet
ĠStan ley
ĠSauer stoff
Ġverab schied
Ġunterb rochen
Ġangrenzen den
ĠAtel ier
Fk EMail
inherit Doc
A g
c raft
k os
un ivers
ĠS ix
al ing
ĠB Ã¤ren
ĠD iff
em atic
ĠG ord
ĠH ind
ĠH Ã¼tte
ĠJ un
ĠC el
ah ne
ap pt
ĠSp ark
ĠÃ¼ber prÃ¼
Ġle gend
ogra fen
Ġschw ach
ĠPark platz
Sc reen
alle d
ĠHei rat
Ġdr amat
fred akteur
Ġsh ow
ĠTex ten
onom ie
Ed ge
ĠHart mann
ĠNamens geber
ĠHaar e
klass igen
Ġneg ative
ĠAufent halts
ĠBrig ade
E lem
M AT
N ur
R itter
V ID
ge gr
ĠE conom
Ġau ft
ig ste
Ġden ke
ĠVer pack
ĠAn ordnung
Ġwar m
Ġsch ein
ster s
iz ieren
Ġab gel
ant ik
sk e
ĠJan eiro
ĠAd ams
ĠSchul z
ĠfranzÃ¶s isch
ĠHeil ige
ĠKont o
Ġreich te
Ġqualifiz ieren
Ph ys
ĠniederlÃ¤nd ische
ĠÃ¼berra schend
ĠSab ine
ĠFein d
ĠChallen ger
Ġbefind lichen
G eh
H op
S imple
b rech
k ritik
v oid
Ġein iges
Ġm g
Ġm ember
ĠH inder
ĠL il
Ġt ollen
sen den
ĠSt immung
Ġ18 36
ord neten
ĠSchw aben
Ġgesch m
ign y
Ġbesch reiben
leg ungen
Ġselbst verstÃ¤ndlich
AT OR
ĠBÃ¼ chern
ĠPat rim
Ġschwer er
sl alom
ĠAir lines
Ġnorm alerweise
ausen de
Ġverbr ingen
sprÃ¼ fung
Ġzeich nete
ĠStatt dessen
ĠTheat re
ĠKoordin aten
V oid
Ġ \"
ĠB uild
ĠP ad
Ġau st
Ġf ern
Ã¶r n
19 51
Ġtr ock
rÃ¤ um
Ġ9 3
ĠUm stÃ¤nden
ĠUnivers al
ĠFilm regisseur
ĠKÃ¶nig sberg
herr n
Ġbisher ige
ĠRen ten
Up per
Ġtechn isch
Ġscha fft
kraft werk
Ġap plication
parse Boolean
ĠkÃ¼nstler ische
ĠOk res
ĠKrie ger
Ġliber al
ĠChristop her
A BC
W S
Z ug
c atch
m ass
m ail
st op
ĠD eut
ĠM all
ĠF lex
ahr er
os k
ĠSp ektrum
geb r
ĠUm frage
Ġsel ect
ĠPh Ã¤nomen
war te
Ein ige
schutz gebiet
stru ct
Ġbesonder es
ĠDan ce
Ġverw altet
Ġerhalten en
ĠBetrieb ssystem
Se q
ĠUl m
ĠJur a
Lo ad
ĠVal ley
Ġzentr al
bef ehl
ĠGerman y
Ġevent uell
ĠInner halb
Ġsorg fÃ¤lt
ibil ity
sbed ingungen
N ein
W M
e ded
f aces
in ed
st amm
Ġein gew
ĠN acional
Ġk Ã¤mpfen
ahr ung
Ġvor an
ĠEn ter
ant ie
18 93
zeich ner
Ġher zlich
ek ten
ĠPf eil
Ġverl ieren
ink i
Ġeinz iger
ĠRechts an
ĠSicher ung
Met al
spl Ã¤tze
ĠBro ok
ĠStu hl
ĠHeraus forderungen
ĠEvent s
Ġmedizin ische
ĠZeu gen
Ġvorber eitet
ĠFantas y
Ġfas zin
F ort
L ayer
N och
V B
e j
j oin
u is
Ñ ĥ
ĠK ot
ol as
de uten
ro g
ent z
ĠC ant
ĠVer stÃ¤r
Ġst ein
ĠAl ber
th ers
ĠAm ph
Ġ9 4
spr ingen
ĠChr om
ĠKn ie
190 4
ĠPlan eten
ĠSchloss es
ĠHin sicht
Ġtyp ische
Ġap i
Ġprakt ischen
lÃ¤uf e
chten stein
track ing
Ġeingest uft
D reh
I B
O wner
a ire
g Ã¼nst
k arriere
l ess
u y
un ch
al p
ĠA ri
ĠB ak
ĠW ho
ĠL td
ĠV ektor
ĠC urt
ah a
ed a
ce ae
Ġc onn
Ġab schloss
ĠÃ ©
tem pel
Ġneu esten
ĠSchw anger
Im port
to LowerCase
Ġviel fach
ĠBest immung
ĠUr heber
ĠGl Ã¤ub
Ġho hem
ĠWer ft
AR N
ĠFest ivals
Ġgem essen
welt meisterschaften
ĠPrÃ¤s entation
Ġkey s
ĠschÃ¶n sten
seit ige
Ġmethod Name
Pol y
Ġgeschlossen en
ĠSamm lungen
ĠHow ard
Ġangen ehm
ĠLiebl ings
ymm etr
B itte
G it
K om
W o
Ð ´
Ċ ĊĠĠĠĠĠĠĠĠ
on ic
ĠB ande
ĠK it
ĠP aw
âĢ ¯
ĠI C
ĠN assau
ĠC hl
Ġge test
eb all
ĠVer t
get Attribute
iz ierte
Ġtr ugen
ov Ã¡
Ġber uht
Ġ9 1
ĠSpiel zeiten
ĠBet r
Ġern euert
Ġjewei lige
ĠRu ine
wissenschaft lichen
Fl uss
ĠDenkmal pflege
ĠGet rei
rior ity
ĠBade zimmer
FuÃŁ noten
Ġbevorzu gt
B enz
D av
H ome
S onder
Y ear
f ers
i ation
u in
z eits
au ens
Ġh y
ĠfÃ¼r s
Ġbe enden
Ġsie d
19 15
Ġvor ange
Ġab stra
ĠAus grab
ian ischer
sk Ã½
ĠDe ath
Ġ8 9
Mar ia
Ab geord
ĠMich igan
ĠPat tern
ĠSchiff es
ĠKreuz ung
ĠGut s
Ġentstanden en
ĠPfl anze
Ġchar acter
Amer ican
Ġverz ichten
vertr etung
Ġchines ische
Jose ph
ĠAgr ar
f inanz
m isch
m auern
ĠM oll
ĠH amilton
ĠJ ew
ĠC ache
ist isches
Ġes sen
18 89
amm ad
ĠDe c
schie bung
Ver breitung
File Name
ĠRes idenz
ĠGegen stand
ament o
DE X
Ġstand ard
ĠZÃ¼r cher
CO MP
Ġstate ment
ĠNachbar n
Ġdur ften
Ġcle ar
Ġseiten s
ĠEinzugs gebiet
edlin burg
R ate
T urn
ie in
et wa
ĠP s
ĠW are
Ġge teilt
Ġg lauben
Ġp ack
ver n
Ã¼hr ungen
ym ph
ĠBild schirm
kon ferenz
ĠRom a
ĠHier zu
LE D
not Null
spro blem
ĠSol ar
ĠhÃ¶ch st
ĠKom fort
ĠPe ople
Ġverf asst
BC I
Wei ÃŁ
ĠErf inder
ĠAster oiden
ĠFlag ge
ĠLetz ter
Ġbehand eln
ĠCorpor ation
Ġerwer ben
U se
g Ã¼ter
Ã °
st eht
Ġs ince
et al
ĠM ent
ĠK iss
ĠG Ã¤rten
ĠT ol
ĠV as
Ġh erk
Ġl ux
get M
ungs weise
ĠPro tagon
ĠAb sol
En glisch
Er z
aut omaten
ĠZu schau
Ber uf
Ġabsol ute
sprach igen
Ġlo op
Bad minton
Av ailable
ĠwÃ¼n schen
ĠRal f
Ġcas ino
B order
e urop
f tet
ĠĠĠĠĠĠĠĠ Ġ
ĠF K
ĠG lo
ut ive
Ġr s
Ġsch lossen
(" <
Re prÃ¤sentanten
teil ten
ĠMÃ¼n z
ĠVerein igte
ĠNational park
ĠFr isch
ĠsÃ¼d liche
23 4
ĠDor othe
Ġhab ilit
Ġtime out
Ġbegr Ã¼ndete
Ġkombin iert
Ġdokument iert
C ustom
P rÃ¤
S etzliste
w appen
sch Ã¼ler
ĠR eturn
Ġer zeug
Ġc ool
be zirke
ov ice
ĠIm plement
Ġviel mehr
ĠEl fen
ĠWei h
ĠBest immungen
ĠFahr zeugen
utt le
FuÃŁball trainer
US A
tens ions
ĠPal ast
Ġlin ke
ĠVerl etzung
laf zimmer
ĠHum bold
Assign able
G etter
a a
l eister
ĠA sh
Ġf ull
is her
ĠW oll
Ġr ief
ĠAn liegen
get Request
Ġvor geschlagen
18 80
ĠAuf wand
Ch arl
Ġ% ,
Ġbesch rÃ¤n
out ube
ĠFlug zeuge
erg ie
ĠWeiter bildung
ĠTechn ology
Ġvoll kommen
spro jekt
ĠLau ra
Ġinitial ize
Ġbelg ischer
cul ate
ĠStaatsb Ã¼rger
! ");
F E
w Ã¤hlen
st heorie
on er
sch reiten
ĠB arn
Ġf ehler
ĠJ Ã¤nner
ĠSch ritte
ĠSt ick
gr ammen
ĠAb hÃ¤ng
ĠSe arch
Ġbes ieg
ĠGemein det
ĠAut h
ĠVolks schule
ĠHeil bronn
ĠTe en
ĠNÃ¼rn berger
Ġkanad ische
ĠTrau er
g eist
i ak
k ranken
l ernen
w Ã¤nde
ie u
Ġw eich
Ġs Ã¤chsischen
ĠB apt
ĠL et
ĠR in
ĠV in
ĠO hren
os ion
get Data
Ġ18 12
ok o
rÃ¤ uch
Ġpro testant
ac cept
ĠLu zern
Ġgef ragt
ĠKultur en
ĠHa ag
Ġmod ule
ĠBran che
ĠBor is
ĠAbst ammung
aust ausch
Ġanges iedelt
wal ts
ĠKult us
ĠAud i
Ġchild ren
ĠlÃ¤ng st
Ġregul Ã¤ren
ĠSkla ven
Relig ion
A ir
H P
S uccess
T re
k rit
k atalog
Ñ ı
un te
Ġm iss
ĠK em
Ġf icken
Ã¶ ster
ĠL Ã©
ĠL ichten
ra pp
ĠO ch
ver eine
im i
Ġr ichtete
Ġc ustom
ungs ort
aus wahl
ĠÃ ģ
br em
Sch rift
ĠKr ise
lauf bahn
ĠNieder schlag
Ġ> >>
ÃŃ k
anad ier
spro du
Ġ180 8
ĠZur Ã¼ck
ĠHigh way
ĠermÃ¶glich te
Sa ale
sper re
wes ens
Ġmel den
ĠBeob acht
Ġgesellschaft lichen
( -
h ab
m Ã¤h
y y
al ischen
Ġs uche
Ã¤ ule
Ġb atch
de c
ĠL esen
re z
ĠC her
Ġdem nach
Ġst irbt
âĢľ ;
ĠAus lands
18 90
ĠSe es
sh aber
ĠPl atte
Ġ17 90
Ar ten
Ġcon s
ĠVol ume
ĠWeb prÃ¤senz
ĠWer ks
čĊĉĉ čĊĉ
ĠnÃ¶rd liche
ĠHen riette
ĠTro ck
ĠViel leicht
ĠErd geschoss
ĠMÃ¼l l
mon at
Ġpass word
ĠKu hn
Ġerschienen en
Ġgriech ische
ĠVerteid iger
Lin ks
ĠGeheim nis
ĠTob ias
ĠDil lingen
ĠMagd alen
B Y
B ur
e te
p assen
Ġ ew
on ten
ur laub
Ġm at
ĠH ugh
ĠT akt
Ã¶ hm
ĠR ib
ir i
ĠC ass
Ġver r
ĠSch aum
ĠSch ieds
Ġl Ã¤dt
ĠAus flug
uss ia
18 98
res erv
Ġbek annter
wer fen
ĠGra phen
ĠDar in
com e
ĠAlb ums
ĠBas ic
++ ]
Ġrech ter
ĠKreuz es
AS K
ĠSchÃ¼ler innen
rÃ¤n kungen
current TimeMillis
Ġnorm ale
ĠDir k
ĠInner e
schlÃ¤ gen
Mon itor
ĠHoll and
ĠPfei ffer
beteil igung
B esonder
H as
J ul
R ud
T AG
st ationen
ĠD eh
ĠM eilen
ĠK lem
ĠP fe
den z
ĠL eut
tr ei
Ġt ags
ĠSch icht
Ġun ivers
Ġc ommerce
get Node
ru le
ĠEin trÃ¤ge
Ġ18 28
uss ion
ĠAb fahrt
Ġsp eichern
ĠPl ant
olit h
Ã¶ff entlichen
con figuration
oder ator
druck s
rem e
Ber eich
ĠWinter spielen
Ġsicher lich
Welt cup
ĠSpe z
Ġproduz ieren
Ġinteress ant
Page Link
ĠSow ohl
steh er
ĠBesonder heit
ĠCamp ing
ĠSar ah
ĠMol ek
match es
ĠByte Array
Arb eits
ĠHumbold t
f le
al ier
ge laden
ĠK Ã¶hler
Ġf all
ĠT H
ĠL ungen
Ġun it
ger ichte
get F
lie f
ĠPro cess
par at
ĠVor arl
ĠVor schriften
ĠVor runde
ator y
Ġbet reiben
ĠfÃ¼hr ende
ĠBuch es
ĠMor ris
Des ign
ĠEhe paar
ĠJournal istin
ĠHan au
mel den
oo ks
ĠerhÃ¶ hte
ĠLiefer ung
ĠGewerk schaft
resp ond
feature ID
Ġoffens ichtlich
ĠOberg esch
M or
P lay
W N
h ielt
m ak
p assung
y ter
Ġ echten
sch lei
Ġs m
Ġi gnore
ĠM ahn
ĠG ul
ĠL ernen
ig ter
ent urm
Ġk e
ĠEr forschung
op hen
Ġ18 26
ĠAr te
ĠAl ois
ĠGr ill
ĠBe gegn
Exception Constants
Ġzw ang
ian i
ĠUnter kunft
ĠLe verk
ĠSte ck
Ġher an
ĠRom ane
Mar ie
ST ART
ĠDu ft
ĠBew usstsein
ĠSitz ung
ĠCl aus
unn able
UT E
grÃ¼n de
Ã¸ r
Comm ent
ĠjÃ¼nger e
Ġkultur elle
ĠSem ester
Ko ordinate
Hein z
ĠkÃ¶nig lichen
Ġthr ough
ĠVul kan
V G
p refix
Ġd ick
Ġd avor
st yle
ĠA ven
ĠB raut
ĠP RO
Ġg riff
ĠAn leitung
Ġ18 24
auf ent
18 88
18 94
amm e
IN IT
yp ern
Ġverl auf
ĠHoch schulen
ĠLandes regierung
ĠHe art
ĠTage buch
ĠEing angs
struktur en
emin ar
Ġumfang reichen
penden cies
ĠSym ph
ĠAgent ur
ĠDunk el
Ġdarauffol genden
9 00
B ud
J ean
i om
Ġd ruck
st abe
st itel
sch Ã¤den
ein g
Ġs enden
ĠA real
ĠB j
Ġm ulti
ĠR Ã¼
Ġh eb
ĠN O
ab st
Ġt im
Ġt wo
wei tern
ot herapie
ĠIn solvenz
ri um
ĠEr haltung
Ġsch lagen
id sch
Ġ18 17
Ã¶r er
Ġtr aum
dr essen
wa it
ĠFor derungen
ĠTr in
ĠMot ive
ĠGeneral leutnant
ĠEigen schaft
ĠSen ats
AP I
CO DE
ĠPan or
Kultur denkmal
Ġzeich nen
Rem ove
ĠHab ilit
ĠZul assung
ĠMÃ¶n chen
ĠTaschen buch
Ġkom fort
Ġurauf gefÃ¼hrt
> -
N amen
S napshot
a ks
h Ã¼gel
ã Ĥ
Ġ å
sch lies
Ġv ariable
ĠD isplay
ĠK ick
ck te
Ġk andid
Ġc ontains
op fer
ĠBer eit
Ġde c
eist ern
ĠAut omat
ĠFor derung
čĊ čĊĠĠĠĠĠĠĠĠĠĠĠ
ĠÃ¼b te
ĠLang haus
ĠAmts gericht
Ġschl Ã¤gt
Pr int
ĠKonz ern
So zial
ĠSl alom
Ġerheb t
ĠSec ond
ĠDub lin
Ġgolden en
Servlet Request
ĠGÃ¶t ter
Ġil leg
ĠClem ens
G rid
b ab
e ars
i ad
ĠB arr
ĠB lech
am an
am azon
ĠG az
ent ums
ist ern
ĠSch ein
he ft
og ne
ate l
mer s
iz ismus
Ġvor gegeben
ob e
reich t
ohn ern
En gl
ĠJo han
alse kretÃ¤r
Ġqu eue
echs lungs
ĠPat ient
Ġ180 9
ĠTest s
ĠBur schen
ĠWel che
CE SS
Ġrel ation
ĠAustr alia
lowak ischen
ĠKlass iker
Tran sport
SO URCE
PROPER TY
ReprÃ¤sentanten haus
B uild
H ar
S dk
V R
st one
on de
ĠS und
ĠT Ã¤nzer
ĠL enk
Ġer setzen
ĠN eckar
ĠJ av
Ġg rid
Ġzu stÃ¤ndigen
ĠSt eiger
Ġ18 25
ĠEn try
Ġtr ee
sel f
imm y
Ġen orm
amp a
stÃ¤nd iger
ĠVers icher
ĠPlan ungs
Ġmein t
Ġober e
Pr ice
ĠImm un
ĠPaar e
esh old
ĠTat ort
Ġleich ten
ĠJon as
Sel bst
ĠTeu fel
ĠSerb ien
L es
L it
M ac
S lot
b rief
f onds
Ġd oppelt
Ġ1 19
ĠĠĠĠĠĠĠĠ ĠĠĠĠ
ĠG ent
ĠH ers
ĠW ies
ĠL ett
ĠL yn
re ader
ĠZ in
all a
Ġbe zog
ster ben
ĠPro test
geb ra
ov on
ĠEurop ap
Ã¤h ern
Ġbel egen
ĠPhil ip
Ġwest liche
All gemein
ĠWein bau
ĠhÃ¤ufig sten
Ġsc ope
omot ive
ĠMerk mal
ĠGÃ¤ sten
Ġvergleich sweise
LOG GER
Vis ible
ĠInterpret ation
! )
D ATA
an gel
ĠB aus
ĠD C
Ġ1 11
ĠP M
ĠP i
Ã¶ d
ĠC ock
ik ale
Ġun klar
Ġc ap
Ġbe deut
Ġsch icken
la ve
for um
ĠZu hause
Mit glieder
ĠEd in
Ġte uer
Ġwill kommen
ĠBis marck
ĠZeich ner
ymb ole
ĠKirch spiel
Ed it
Ġhochwert igen
Ġtschech ischer
ĠSus anne
Ġsamm elte
ĠprÃ¼ fen
ĠDreiÃŁig jÃ¤hrigen
B urg
m aus
t otal
w ich
st heater
ĠS yl
ĠK evin
ĠW eich
Ã¶ cke
ĠV aler
ĠSch rau
arb eits
Ġzw anzig
Ġber echt
ĠDr achen
Format ter
Ġzul Ã¤ss
Pol en
ĠSant iago
ĠWol ff
ĠExper iment
ĠTar if
ĠPok alsieger
Ġmensch liche
Europameister schaften
ĠHanse stadt
ĠPublish ing
T el
b rechen
t mp
u ver
st age
ĠS lowen
Ã¤ len
is pr
ĠI rak
ĠN ort
Ġt ile
Ġp fl
ed onien
19 16
ex pression
ĠBer echnung
Ġneu tr
Con structor
Ã© m
Ġex tension
ĠPh asen
els on
Ġange meld
ĠBet rag
ĠCo us
ev en
ĠWebs eiten
iden ce
Ã¨ ne
such ung
Ġdefault Value
ĠPrem ium
Ġwor auf
ĠUrs achen
ĠThÃ¼r inger
ĠOrgan ist
Ġbelg ischen
ĠErwer b
Zentr um
ĠJahrhund erte
B ilder
E U
R Ã¼ck
b els
f al
f isch
p ause
z end
Ġd iv
Ġs uchte
ĠM ale
ĠL ith
ĠAn sonsten
ĠSp err
Ġsch ul
ĠEin es
ia de
ov ision
ĠMar ch
ĠIm p
ĠKon sequ
Ã¶l n
stra int
ĊĊ Ġ
ĠRei fe
icher heits
ĠNational en
Object s
ĠAir es
beh Ã¶rden
Ġunmittelbar er
ĠPed ro
ĠQue en
ĠQue ens
Jose f
ĠSozi ologie
ĠMitbegr Ã¼nder
C ur
} ");
en os
Ġw here
ĠM aul
ĠM innesota
ĠP rivate
Ġh Ã¶rt
ĠC N
Ġver stÃ¤nd
sp uren
Ġst ieÃŁ
Ġ18 19
ĠAr ist
ob a
St op
vers uch
sb ew
Al low
eig nen
ĠLei der
hand le
ĠPass au
ĠMos k
ĠFluss es
Ġdefault Case
Ġselten er
ĠRel ief
Ġumfassen den
Stra ÃŁen
ĠMand at
Ġbegr Ã¼ndet
Ġreligi Ã¶sen
Ġcle an
ĠBrau erei
ĠAx el
schaff ung
L ook
O D
S ort
l uther
st isch
ĠA hr
ĠM ind
ĠM ust
Ġf ilename
ĠL yr
Ġge gliedert
Ġl at
ver hÃ¤ltnisse
ĠAn ruf
get Absolute
Ġbe zahlen
Ġunter richtet
Ġent s
Ġent tÃ¤u
arb eiteten
br ingung
eim ittel
Ġgesch ah
ĠRech er
ĠVerb ot
ĠSÃ¼d seite
ĠUr kunden
ĠBuch en
ĠPhil h
ĠArbeit nehmer
ĠAnt ar
Sh op
lav a
Ġgelang t
ĠJe de
Ġung laub
Ġgener ell
ĠMittelalter s
Meister schaft
____ ____
Ġrestaur iert
ĠBehand lungs
C as
C RE
H ex
I X
k Ã¤
es ie
ĠS ituationen
ĠD um
ĠT iger
ĠC ow
Ġr eine
ĠAn halt
get Text
ĠSp ons
Ġunter e
ĠRe ad
ĠNach ruf
stan de
ĠBau werke
Ġres ol
Ġeinz iges
ĠStud ierenden
ĠAt las
Ġgem isch
Ġhinter en
back tracking
Ġlin ker
ĠWissenschaft s
ĠTrans fer
