#version: 0.2 - Trained by `huggingface/tokenizers`
e r
e n
i n
c h
Ġ d
Ġ a
e s
n d
i s
o n
i e
i t
Ġ t
Ġ s
o r
t e
a n
Ġ w
a r
Ġ S
a t
a l
r e
h e
u n
Ġ b
u r
u nd
i ch
e in
Ġ in
a s
g e
u s
Ġ f
l e
Ġd er
Ġ m
Ã ¼
Ġ A
Ġ B
Ġ v
e l
Ġ und
Ã ¤
Ġ M
Ġ 1
i l
Ġ D
Ġ o
s t
Ġt he
in g
un g
r o
t er
i g
d e
Ġ p
i on
Ġ P
Ġ ein
Ġ n
o l
Ġ h
Ġ (
Ġ T
Ġ F
Ġd ie
â Ģ
Ġ G
a m
Ġ c
i m
Ġ K
Ġ E
t en
o m
Ġ z
s ch
r a
u t
Ġ I
e m
Ġ H
en t
Ġ W
h r
e t
Ġ R
Ġa nd
Ġ L
is ch
i c
Ġo f
e d
Ġ g
u m
Ġt o
Ġ C
b er
u f
a nd
Ã ¶
Ġb e
Ġ 2
e it
i r
is t
a ch
Ġ1 9
Ġ er
Ġ N
Ġ l
d en
Ġ V
Ġ J
Ġv on
i er
d er
Ġa l
c k
Ġ k
Ġt h
l ich
Ġd en
Ġa n
Ġd es
er s
u l
g en
i v
Ġ im
Ã¼ r
Ġ2 0
Ġ e
o t
Ġ ge
i k
at ion
ĠS t
Ġ O
Ġm it
a b
o w
u ch
o s
es t
a d
an n
Ã Ł
l a
Ġ y
Ġd as
Ġ U
Ġ âĢ
t s
Ġ re
i es
e i
Ġa uf
k t
e b
i f
Ġ Z
es s
Ġs t
ĠS ch
a f
Ġz u
al l
a h
i en
c t
Ġv er
Ġy o
ie l
Ġf or
v er
Ġ is
Ġw ur
Ġ ist
isch en
Ġd em
Ġf Ã¼r
l l
a u
Ġal s
o p
i d
Ġ on
a y
ich t
ĠI n
c e
a hr
Ġ Ċ
t h
s te
er e
it h
Ġ un
n e
Ġa us
p p
m en
Ġwur de
u g
a g
b en
il l
as s
Ġd e
o g
Ġein e
in d
w e
or t
ĠV er
Ġ r
er n
a te
Ġs ich
Ġw ar
0 0
s p
a v
Ġw ith
Ġ20 1
ĠR e
l y
a us
a k
z e
sch af
o d
ĠA n
el l
er t
l in
) ,
Ġp ro
ĠE r
o ch
ĠD ie
es ch
Ġ j
Ġw h
Ġs ein
r an
Ġ i
ar t
Ġn e
en d
Ġyo u
i b
f f
us t
ung en
r u
h n
Ġth at
Ġa m
Ã¼ ber
g er
r ie
Ġa b
ig en
isch e
Ġ it
q u
s e
Ġbe i
Ġs p
ĠS p
âĢ Ļ
an g
a p
h t
ĠT he
Ġ he
ut sch
Ġ le
Ġs e
u d
s en
u b
o k
Ġs ch
ur ch
Ġa uch
Ġ 3
ĠB e
m er
an t
ĠJ ahr
Ġn ach
Ġ Ã¼ber
Ġ20 0
Ġs o
ĠU n
ar d
âĢ ľ
Ġa re
Ġa s
ung s
Ġw ir
r Ã¼
âĢ ĵ
Ġ1 8
l ie
k s
Ġb is
1 9
ĠA r
Ġ or
u p
h en
i a
i z
ĠâĢ ĵ
o v
schaf t
ro m
o st
ĠE in
i p
iv e
f or
ol l
Ã¤ t
Ġc om
is e
Â ł
Ġs ie
m ent
Ġd ies
i al
Ġm e
Ã¶ r
Ġz ur
h l
it y
b e
ĠD e
as t
Ġw e
ĠâĢ ŀ
n en
h er
Ġe x
r Ã¤
a in
Ġa t
a ge
or d
Ġc on
Ġz um
Ġw er
ĠP ro
et z
Ġein er
Ġ ch
h o
Ġ um
ĠA l
r it
ch en
. .
Ġz w
Ġal l
Ġn icht
ic k
m e
p t
Ġwer den
Ġ ent
isch er
i ge
Ġv or
o ur
Ġw as
Ġun ter
o nd
l and
av e
Ġyo ur
Ġ es
Ã¤ r
Ġd urch
n er
Ġh at
g r
en s
te d
ar k
ier t
om e
Ġw ie
Ã¤ n
Ġwir d
u re
h al
o b
Ġ19 9
g es
in e
) .
f er
en n
ge l
el t
or e
u e
Ġs ind
us s
ĠS ie
te l
D ie
it e
ĠT e
Ġo der
ter n
Ġb y
ĠG e
Ġf rom
Ã¶ n
re ich
Ġein em
i an
er k
i de
Ġth is
ge b
Ã¤ nd
m al
g t
am e
f t
ur g
ch e
il d
Ġ Ã
i o
ĠL e
te ll
d u
st en
ĠC h
lich en
Ã¼ n
ĠM it
ĠT h
Ġh ave
is ter
i re
ĠO r
Ġ 4
ĠS e
ĠD er
Ã¼ hr
at ur
z en
a uf
ah l
b eit
a c
Ġein en
Ġ us
u ÃŁ
Ġm an
ion s
p ar
p h
o c
ĠN e
2 0
Ġw ill
ĠA b
Ġ en
Ġc an
ad t
Ġw or
p er
te t
ic e
o ut
l o
l at
s s
Ã¼ ck
a ck
ĠA us
l er
ĠB er
ul t
1 8
Ġ 5
j e
ĠE n
Ġ -
Ġ19 8
ĠA uf
in z
o hn
f e
we ise
t ra
er v
ig ht
ation al
Ġt e
lich e
ig n
el n
r y
e ar
on t
ch t
for m
Ġc o
de m
Ġ Y
ĠL and
st er
ur n
a il
Ġn ot
om m
t z
re i
at er
f en
ĠM ar
Ġb es
i le
te il
l os
on e
Ġdas s
Ġ Ġ
Ġ19 7
k eit
ar e
Ġ( *
p r
' s
ĠW e
al t
Ġs h
all y
re is
ĠI m
ĠN ach
Ġh as
on g
r at
Ġde utsch
am m
Ã¤ hr
o ok
ĠM e
T he
it ion
ĠH e
re t
is s
or en
l ass
it z
ĠV or
iv ers
b urg
ab le
l an
r en
ĠD as
ol og
I n
ich te
c o
Ġi hr
ber g
ier te
a z
Ã ©
Ġp r
il m
k e
Ġa d
de t
u te
ul d
Ġ19 6
im e
ation s
Ġa r
em ber
f ol
ro ÃŁ
he it
Ġs ow
am p
at en
er en
ing s
ak e
al e
ĠH er
Ġwur den
ein e
Ġcom p
Ġ 9
ĠUn ter
ĠA m
Ġw eit
ĠZ eit
ers on
th er
Ġd o
h re
eb en
Ġw o
iel er
Ġn ur
Ġ 6
at h
it er
ĠF l
t o
om p
Ġ "
Ġv om
W eb
ct ion
ĠSch w
Ġ19 4
r ich
Ġh er
a ut
an s
ch n
ab en
l es
lin ks
as e
un t
Ã¤ l
Ġme hr
ol d
Ġ up
o u
Ġo ur
Ġ1 7
Ġg en
e c
ent s
an z
ĠDe utsch
Ġg o
Ġr es
Ġn och
Web links
ĠF or
ier en
os e
us e
Ġf e
ut z
Ġ19 5
ste ll
Ġ et
ĠSt adt
at t
Ġge w
Ġo ut
par am
ig er
am il
on s
z eit
m it
ĠF ran
Ġ ro
ze ich
c c
om men
f l
ĠM a
Ġb ut
ĠRe g
Ġl ie
m ann
i um
Ġ qu
s el
ol it
Ġ1 5
ne h
k en
f in
g an
D er
ĠP r
ig h
ib t
or s
Ġm y
v e
w er
al s
ug h
ĠG em
Ġt ra
Ġb et
re e
r if
ah n
Ġsow ie
te m
kt ion
el d
ik e
S t
Ġm ore
ie d
Ġ 7
f Ã¼hr
u en
h Ã¶r
nd e
Ã¼ d
an ce
ow n
ĠP ar
le ich
is h
y p
y s
Ġthe ir
ate d
b ar
Ġ 8
ol le
og ra
Ġa ber
ie t
Ġ19 3
E inz
ik er
ĠI S
Ġon e
Ġp er
n is
g lie
st and
.. .
in n
ar y
la g
ic al
Ġb est
b all
r ing
is ten
it Ã¤t
el s
h und
a de
on n
ach weise
Ġs te
am men
eln achweise
Ġ Q
Einz elnachweise
c l
Ġ1 6
ĠU S
g esch
w a
ah re
l d
es e
Ġd ar
ier ung
Ã¤ ch
B N
f ahr
Ġals o
or n
o ck
ann t
etz t
y ste
Ġb er
ĠIS BN
Ġge gen
Ġzw ei
ie der
ĠG r
Ġsein er
ĠI t
h aus
Ġab out
in k
ein de
p ro
ig t
Ġa pp
Ġein es
ub l
re at
Ġal le
Ġge t
o ber
Ġin s
Ġ1 0
Ġf in
ĠG esch
el le
Ġsein e
ĠS o
is sen
u er
m p
ĠUn ivers
Ġe v
ig keit
Ġg es
Ġne w
g lich
am en
im m
lie ÃŁ
ik an
Ã¶ ff
l ung
ĠC o
m an
Ġk ann
u al
s k
Ġwie der
Ġwh ich
Ġthe y
g l
m in
et t
00 0
Ġk Ã¶n
ĠJahr hund
Ġj ed
ĠS te
Ġ &
a is
ĠM us
at z
1 7
Ġhat te
ĠG ra
o h
ĠJ ahre
lat z
ru pp
Ġh is
Ġp la
us ammen
a ct
or f
r on
ĠG es
ĠD ies
âĢ Ŀ
x t
ur op
Ġy ear
ge ben
ar beit
s er
an k
ĠA d
ie le
Ġbe en
Ġdies er
v el
ĠK ir
Ġs oll
ĠK ar
t on
ĠG eb
ĠH o
eit e
ro w
b au
und en
Ġof f
iter atur
w o
ĠP h
n ah
Ã¶ l
it t
ay s
Ġzw ischen
yste m
ĠK on
b st
Ġwor k
Ġwh o
ĠF re
in ter
Ġi hre
ÃŁ e
b r
Ã¤ hl
ĠE s
p ort
or y
ĠF ra
am er
ĠU m
n et
h m
al d
Ġk n
a pp
Ġs eit
f all
at s
1 0
Ġt ime
ach t
u le
ĠC hr
ĠTe il
Ġbe g
D as
Ġs u
in der
Ġf ol
ent lich
ab e
an ge
u de
ĠJahr en
ĠW elt
ĠBer lin
ľ ber
rie d
t t
und es
ter s
Ġ1 2
Ġo b
is te
Ġwar en
Ġs el
Ġs ome
a w
e k
Ġcon t
ret urn
w ick
ir t
w erk
Ġan y
c es
i ent
ĠK l
ge m
ent r
or k
eit en
Ã¶ s
if f
ck e
re d
Ġ1 4
le d
i x
ĠA nd
r es
Ġo ver
Ġzur Ã¼ck
S ch
1 5
Ġh aben
in a
ot t
rie b
Ġp art
iel t
1 2
os s
id ent
au pt
Ã¤ ter
p f
ing en
ie w
rÃ¼ nd
ĠB o
Ġd is
eit s
ĠE x
Ġd am
Ġin ter
lin e
l Ã¤
gen d
1 6
ĠâĢ ľ
la ge
m a
ĠSt a
ĠNe w
Ġ em
hal ten
Ġg roÃŁ
en e
Ġ1 3
rie g
ge w
g te
schaf ten
ra d
Ġl ike
Ġre c
Ġpro du
T h
o ol
ĠB au
ĠB es
Ġge hÃ¶r
y n
Ġ19 2
ar n
Ġdeutsch er
glie d
ir st
ic t
s h
E r
ĠB l
Ġbe k
k te
Ġdies e
sp ieler
Ġs erv
at es
Ġer sten
am t
e ich
is m
ĠkÃ¶n nen
ell en
Ġp re
ver y
ck en
ĠÃ ľber
Ġs c
he im
ĠJ un
sch en
at ing
Ġpro v
ra nd
form ation
Ã¤ d
uÃŁ ball
a um
ĠM an
e p
ĠS h
V er
ĠEn t
o y
Ġp h
ĠJ an
ĠGem einde
Ġo ther
Ġst ud
h and
ĠA ug
y m
ĠF ilm
Ġk l
ĠSp iel
Ġh o
Ġj e
ĠAr beit
in t
Ġbe im
A n
or g
c om
ĠB r
ar b
Ã¤hr end
ot h
in s
ĠG er
Ġp e
en de
ĠZ w
G eb
Ġer st
Ġv ers
al en
ĠJahrhund ert
Ġthe m
ÃŁ en
et h
Ġhe l
Ġd rei
f r
1 4
I m
ĠP f
me ister
ra ch
o f
rÃ¤ s
Ġwh en
ov e
Ġj ust
neh men
L iteratur
uch t
ĠT r
u ar
ĠO ber
k l
a x
ĠB undes
Ġ 0
Ġn o
sch ie
b le
Ġ ich
un st
ĠJ ul
tell t
ar r
en er
Ġin d
Ġex p
7 8
ier ten
ist or
ĠE l
tern ational
ogra ph
f Ã¼
st ra
ĠN or
ĠTh is
ster reich
Ġ if
a ir
i pp
ĠA ll
Ġit s
Ġk onn
b o
Ġw el
ĠA ut
Ġg r
Ġre g
Ã¶n ig
Ġjed och
i der
h ne
und e
Ġg esch
ĠM en
p en
Ã¤l t
Ġa g
ĠN ov
Ġd ann
z w
ĠF amil
z er
ass en
p iel
Ġth ere
ul l
Ġl ook
A l
o ff
ĠSt ra
le x
Ġne ed
ic es
1 3
le t
Ġf Ã¼hr
Ġge b
Ġsp Ã¤ter
f ter
Geb oren
Ġh ow
D e
en k
Ġin cl
Ġin to
Ġer h
Ġwh at
ĠM o
es ten
ĠH and
op le
b ach
Ġm us
Ġw enn
ĠT ra
ĠZ u
Ġt r
Ġg ibt
ĠE urop
as h
Ġf o
t re
a ce
Ġf r
en z
Ġge m
ĠÃ ĸ
Ġth an
ic s
ĠĠ ĠĠ
if e
it el
ĠAug ust
o us
and er
U n
ĠAr t
r ess
ch er
f ess
d ay
io us
ar m
ĠB and
ĠI nd
ĠP e
z ial
Ġm ost
ĠM in
ĠM on
Ã¶ glich
un ter
Ġun s
il it
2 00
ur t
au er
c ed
k er
tem ber
Ġ201 8
tra g
Ġf irst
w ard
Ġ ra
n ung
o ten
ro und
ru ck
Ġi hn
r icht
v or
Ġw ere
Ġa cc
iv er
Ġh ad
aus e
je kt
ein en
s o
je ct
Ġan ge
Ġet wa
ĠC ar
Ġh and
lich er
ein s
5 0
ĠM ed
ĠP erson
Ġwo uld
Ġc l
Ã¼ t
ĠDeutsch land
ĠG roÃŁ
Ġver b
eb s
Ġm ake
b ild
ass er
Ġk e
Ġhel p
Ġd a
Ġb el
Ġb u
R e
ĠChr ist
ab ei
Ġa c
Ġweit er
uÃŁ er
Ċ Ċ
en den
schaf ts
ib le
ier e
Ġth ro
st it
ĠK Ã¶nig
Ġh ier
ol f
ĠSe p
ĠN ational
in ess
ho f
ĠN ord
it al
ĠM Ã¼n
ur z
k a
ig ung
Ġg er
uf t
Ġsein en
ĠP ol
e ct
ul ar
ĠH aupt
ĠĊ Ċ
M ann
ĠSt ud
Ġ .
ch ts
g ang
Ġsein em
Ġer fol
ĠB et
ion al
ste in
ie f
ĠM al
i qu
re it
Ã¤r z
ĠFran k
he l
w ohn
Ġe very
Ġpe ople
eit er
Ġz usammen
un kt
ĠGr und
Ġlie gt
ĠSep tember
Ġkn ow
v ers
a gen
pr il
Ġm o
u es
Ġg leich
Ġbe c
v en
hal b
ĠM ann
ĠO b
ĠV ol
2 1
schie den
de d
der n
Ġus e
M it
we g
st adt
ir k
ag es
ĠMus ik
Ġdes ign
at or
kt ober
ĠJun i
iv en
ĠQ u
al k
ow er
Ã ¡
ĠE nde
Ġw ell
f ul
ĠNov ember
at a
el y
et s
Ġ /
Ġ19 0
ien st
. )
' t
ar ten
oh ann
ĠP latz
g est
u z
ĠVer b
ĠB ei
ĠF e
Ġver w
ien ce
Ġ3 0
Ã¶ff entlich
is en
hal t
ment s
ran z
Ġb ack
in er
ran s
ze ug
ĠI I
Ã¶ ÃŁ
Ġ201 7
a kt
us iness
ĠOr t
op h
Ġon ly
u ten
Ġer ste
b es
rupp e
ĠC on
ĠS c
Ġv iel
at ive
sch l
Ġse hr
w n
if ic
Ġh in
ĠP olit
ess en
Ġdies em
le g
Ġand eren
ut ion
issen schaft
k reis
st Ã¤nd
ĠP a
Ġd ire
Ġa ct
ĠK unst
w alt
N ach
Ġer w
Ġb esch
ke hr
c y
v ent
p or
ĠA pril
Ġle tz
Ġe igen
a id
ult ur
ĠH och
olog ie
ĠO ktober
an y
Ġz e
G e
ich ts
Ġber eits
ais on
ĠS Ã¼d
f ach
Ġaus ge
Ġver y
isch es
Ġein z
m s
Ġcom m
Ã¼ tz
Ġe ben
al ien
ro l
i ze
Ġ201 6
es en
Ġd ort
Ġ201 5
at ch
Ã¤n g
ĠY ou
f te
Ġm ay
= =
Ġbes te
Ġad d
ĠV ers
Ġfol gen
Ġkonn te
am s
a den
s atz
Ġsu pp
z ahl
Ġihr er
ĠJul i
Ġb o
Ġd r
ĠMa i
un k
es ter
1 1
Ġf ind
ein g
b uch
ĠI s
op p
Ġa kt
Ġv ier
a i
ic a
Ġyear s
âĢ ¦
ĠB ar
ost en
it s
it ed
Ġcon s
la gen
if fer
amer ikan
ĠH aus
Ġs ol
ĠJan uar
Ġi hm
Ġ201 2
Ġ201 0
Ġman y
Ġl oc
Ġh igh
vel op
ĠK inder
Ġs he
ĠJ ohann
or ben
ei d
Ġs ho
if t
Ġf l
ation en
Ã¤n ger
c ts
Ġs m
as ed
Ġ201 1
f ang
Ġk eine
De utsch
Ġt wo
Ġex per
pt ion
he mal
eb ru
Ġas s
ĠM Ã¤rz
re g
Ġhe ute
ust r
ar s
Ġsel bst
ĠF ried
al le
Ġte il
on st
w ahl
u k
b l
Ġst and
ra g
Ã¼r ger
ĠPro du
S ie
am es
as ch
Ã¼n st
b ahn
u c
Ġth ese
Ġund er
ĠO n
Ġsp ec
p s
Ġbe fin
ar ch
la uf
gr und
Ġk am
Ġp l
ĠF Ã¼r
ĠM et
ern se
f eld
Ġh ome
Ġthro ugh
ĠB ild
ich er
Ġsch w
p l
Ġ201 4
Ġ201 3
ĠVer ein
z ember
ist r
Ġm ach
l ig
i den
ĠL iste
ĠF ol
af f
A us
Ġ Â
3 0
um ent
in al
i or
Ã¶ ch
os ition
ĠW erk
ing er
Ġ18 9
Ġg u
O r
Ġ X
stell ung
il ity
ion en
gan is
s etz
Ġge l
Ġe le
p la
ĠKir che
ĠA mer
mit tel
Ġpla y
er d
ĠF r
ĠĊ ĠĊ
sch e
Ġim mer
s g
u ck
Ġ [
sch lieÃŁ
ut h
ĠLand es
a ur
rie ben
B e
rit t
W e
ge t
P ro
fall s
Ġd own
ĠF ebru
ranz Ã¶s
Ġs uch
l i
ĠJ u
Ġb en
Ġ2 5
ur s
ĠW il
Ġsch on
m at
ĠW h
los s
c ess
ĠR es
ĠR o
w ay
Ġ200 8
Ã¶ st
y l
Ġw Ã¤hrend
ĠAr ch
ber t
ĠIn ter
ebs ite
hr en
ĠU r
Ġ200 9
ĠG o
ak ing
Ġb l
Ġp ar
omm un
Ġin v
ĠâĢ ł
Ġver schieden
ism us
Ġdam it
Ġgo od
it ies
o gen
ĠDe zember
Ġer sch
um s
Ġ1 1
Ġand er
ic an
ĠC l
Ġp erson
in nen
Ġn ow
Ġde c
Ġst att
s on
ĠE d
g rÃ¼nd
mal s
Ġm ed
o ugh
Ġsp iel
Ã¼ nd
sch n
ig te
un ktion
Ġa fter
Ġf re
ĠD es
ĠDies e
Ġm ark
Ġw en
z ie
Ġte chn
19 9
Ġm on
ĠW est
is ion
ĠS aison
Ġge f
Ġg reat
Ġbei den
ow s
Ġ |
Ġw ay
Ġ200 7
zeich net
ĠGesch ichte
ĠO ff
we il
sch rif
Ġne ue
ĠG ener
al th
Ġm in
Ġo hne
ra ft
Ġar t
Ġ2 4
ell schaft
ĠB uch
ĠAl s
h ol
ĠRe ich
iv es
u ge
ĠS er
ĠMit glied
Ġb usiness
Ġ9 78
ges tellt
ĠV on
ĠF ahr
Ġse c
Ã¤ch st
Ġe ff
Ġgr Ã¶ÃŁ
kt ur
ĠUnivers itÃ¤t
for e
ĠN ieder
hr er
te te
a j
ĠR om
Ġs om
in o
sp iel
m Ã¤
Ġd ay
ĠW ien
ut t
le it
ĠE le
p ieler
A r
ro p
ur ing
ĠW ert
ach sen
Ġl ang
ĠUnivers ity
Ġ200 6
Ã¼n f
ĠP re
o te
Ġd el
ĠM ark
T e
ĠS k
ĠPh il
ik a
z ug
Ġa v
ĠD urch
Ġs ub
fÃ¼hr t
ĠH ol
ĠM ich
A m
al ter
b t
em ent
Ġin c
Ġwh ere
f ra
. ,
âĢľ .
ten t
ĠA s
v iew
Ġp o
Ġz un
Ġ1 00
om en
ĠC he
G esch
neh mer
il t
Ġev en
ien d
ĠF uÃŁball
ogra f
Ġ %
in es
Ã¼ s
he d
ĠA t
Ã¤ hn
b and
âĢľ ,
ĠCh ar
Ġf ree
ĠEin e
ĠSchw ei
ĠFebru ar
Ġg ra
o hl
ĠVer lag
ĠB as
Ġ ,
ĠG l
ĠH am
i us
ĠMÃ¼n chen
ch s
{ @
ĠMit tel
w ert
ch sel
p art
ĠÃ Ħ
Ġ end
Ġwor ld
Ġse e
Ġqu al
Ġde velop
ust om
Ġsp e
ot her
Ġd iffer
Ġon line
re cht
ain t
Ġc re
Ġs ystem
Ġdes sen
ĠS al
lin k
Ġre m
Ġein ge
Ã¤nd er
an c
ĠD ar
le ase
Ġihr en
8 0
rÃ¼ n
ed er
ĠN amen
w end
Th is
ly mp
Ġne uen
Ã Ń
ĠJ ohn
y r
Ġf est
iss ion
ro ss
ĠK n
ĠMen schen
sch ule
i ra
ĠL eb
Ġe hemal
uf en
ĠKar l
Ġste ht
Ġar beit
Ġg ab
ĠSt re
is piel
ig es
g abe
ĠD r
z u
Ġv is
Ġo wn
w are
ĠW or
Ġs Ã¼d
Ġf amil
Ġincl ud
Ġf ranzÃ¶s
Ġerh ielt
Ã¤ ude
Ġs im
a der
g ra
z ent
ĠF in
co de
Ġs aid
o ge
Ġ ed
Ġw ant
Ġ200 5
nah me
Ġs ur
Ġm ade
Ġbe f
ĠP art
z t
Ġ u
Ã¤hl t
l en
4 0
ro up
Ġs k
ĠK r
Ġco uld
L e
g leich
Ġc ar
ĠG u
le gt
Ġdies es
is k
ot s
Ġbek annt
ur es
p e
ernse h
ĠY ork
ubl ik
ie g
Ġth en
los sen
le gen
Ġd abei
ĠUnter nehmen
Ġh ere
at her
Ġf rÃ¼
t ag
ar i
it zen
kt or
ĠH Ã¶
rupp en
2 5
Ġpro gr
h in
Ġb zw
f ern
est orben
un n
a e
Ġn ah
Ġp ol
Ġdeutsch en
Ġ( âĢ
Ġus ed
ĠW ei
l ing
ĠK omp
ĠAn t
k rieg
p unkt
Ġ20 00
Ġ200 4
all s
k auf
in en
ig ten
Ġin st
iv ing
ĠB ay
c r
wick lung
Gesch ichte
stra ÃŁe
ĠL ei
6 0
Ġst ar
Ġin formation
ĠP er
Ġre ad
Ġder en
ĠD aten
Ġweit ere
in ing
sch utz
ater ial
pr ess
Ġ ur
ĠD an
Ġp lan
ĠB ra
ĠR Ã¼ck
ĠPa ul
Ġm uch
ĠK rieg
ĠFor m
u ter
ar ge
ĠM ill
Ġ201 9
ĠI f
ĠB ere
Ġbec ause
aus pieler
iel d
ĠW ill
geb iet
olog y
il le
Ġre al
al b
ĠC omp
Ġf Ã¼nf
ur r
all en
Ġt ake
Ġre qu
ĠFried rich
ag er
in ce
ak es
2 2
tell er
L eben
an gen
up er
Ġi de
7 0
Ġt yp
ĠT od
ĠOr ts
ĠP at
ĠW asser
lass e
Ġent sp
use um
ĠMe ister
ĠB est
Ġv al
ĠL in
fahr en
age ment
um mer
en ce
Ġd on
ĠW er
ath ol
ĠSch ul
g y
Ġb ook
Ã¶ m
Ġe as
it Ã¤
Ġb ed
w w
ĠPerson en
o de
m ed
im es
Ġs ei
as on
Ġer reich
ĠJ e
Ġprov ide
ir che
wohn er
re ch
ĠH ein
ĠA uch
h ard
um ber
iqu e
ĠPolit iker
Ġp ubl
irt schaft
E in
ap an
ond er
isch of
ĠP l
az u
ann te
v an
Ġl ife
ĠS an
k ommen
m ar
u x
Ġalle m
Ġbefin det
ĠSt and
s ol
he in
an ts
w ig
Ġ $
ĠR ad
Ġb eing
ĠN atur
ĠFamil ie
u gen
f ort
schl uss
G estorben
al er
ĠLeb ens
ĠL ie
ĠSch rif
Ġch e
Ã¶r der
Ġc ol
om in
e h
sp ort
Ã¤t z
Ġb r
la ck
ĠB re
ir d
omm t
ĠZ usammen
ĠB Ã¼
Ġp ra
Ġsho uld
om mer
ĠAl b
ĠK reis
Ġr ight
ĠW ahl
Ġp olit
en der
ent ly
A b
ur m
gem ein
an st
ĠA ss
ĠK re
Ġc ustom
ĠM ag
Ã ³
Ã¤ us
Ġto p
f as
Ġ18 8
rit ten
ĠB ahn
f ilm
Ġ =
Ġd u
ĠS ohn
ĠDeutsch en
re ib
out h
oll ow
Ġ2 2
glie der
ip s
d orf
ĠF est
h a
Ġ5 0
at ure
as ter
Ġof fer
um e
ĠD o
an ad
Ġbe fore
id es
4 5
Ġ200 1
sch ied
e te
ĠPro v
Ġen g
Ġbeg ann
e y
c a
r sg
es ent
Ġ2 3
ck t
sch ul
Ġ2 1
ĠH ans
Ġ200 3
Ġ199 0
Ġre t
u ally
ich ten
ĠBer g
Ġzun Ã¤chst
ĠCo unt
iz ed
it ter
ĠSch l
k ten
Ġm od
um en
Ġso nd
Ġin ternational
ĠIn ternational
ĠN ame
ĠFra uen
z iel
y ch
Ġent stand
Ġa round
ĠO st
Ã¶l ker
Ġf and
re en
ĠT itel
Ġ :
ĠK ap
ĠGe w
Ġden en
ĠL a
nis se
Ġt rans
Â Ń
ide o
en det
rÃ¤s ident
ĠB en
il der
te i
ĠM ot
re chen
ru e
gl isch
Ġs tell
ĠW ohn
< /
Ġ ...
ĠL eben
Ġcomm un
hel m
ran k
er ts
Ġp ost
om b
Ġe ach
Ġav ail
h af
F uÃŁball
c on
Ġand ere
Ġdeutsch e
Ġag ain
l ic
ĠTe chn
ho de
Ġsond ern
Ġg est
Ġwh ile
ĠM od
Ġg l
ond on
am ent
Ã¤ uf
h Ã¤lt
stit ut
E R
our n
a el
Ġ200 2
ĠS eite
ĠEn g
Ġl ast
ĠFran z
ct or
ra um
Ã¶ sterreich
p le
Ġl ong
ut ter
Ġgew ann
Ã¼ ss
lo ck
j Ã¤hr
E x
grÃ¼nd et
ĠP ark
lo ad
ĠBere ich
Ġeben falls
k m
N e
s w
ĠGe gen
ĠT er
ess e
Ġh abe
b ur
Ġb as
ĠE m
Ġb il
Ġ2 8
ĠB i
re ad
F or
le i
ĠPar is
Ġgen er
ĠP ort
Ġk ein
uÃŁ en
Ġje weil
M e
fÃ¼hr ung
Ġc olle
ĠD em
Ã¤nd e
Ġs er
Ġw icht
w ays
Ã¤n ge
itt le
ĠRe p
gr amm
le y
Ġc le
ĠO lymp
Ġne u
2 3
t he
Ġ #
Ġn un
Ġd id
ch es
Ġsh ow
ist s
ĠC ol
Ġc are
Ġres p
ĠM ain
Ġth ose
Ġth ink
rÃ¼ nde
schrif t
Ġ2 6
ĠP la
st off
Ġs l
Ġserv ice
h ung
I t
g aben
Ġs ite
ing le
ear ch
ip t
Ġs ign
u pp
Ġst r
Ġander em
ĠS eit
Ġo pt
sch w
ĠM or
Ġch ild
Ġp os
Ġz ahl
Ġver Ã¶ffentlich
we en
ĠM art
al y
lich keit
Ġv iele
ess er
Ġdo es
Ġwor den
od y
Ġdiffer ent
im al
ĠW ir
an a
ĠJu gend
uÃŁer dem
n a
er st
i am
Ġl ove
erd ings
Ġm uss
Ġfo und
iv id
r ic
Ġco unt
ĠB el
ĠS il
Ġpla ce
Ġr est
Ġdar auf
ond ere
is se
ĠLand kreis
Ġ18 6
Ġp ass
rÃ¤ ger
Ġh istor
Ġ18 7
ĠM y
ĠD re
Ġver l
Ġr und
amp f
ĠHer z
g or
Ġs et
ann ten
ĠPe ter
ĠR ich
ĠL ondon
Ġ el
Ġ2 7
am a
Ġl a
ro om
w as
or ts
Ġdies en
de utsch
ord s
ar en
Ġt er
f urt
c ted
it ions
Ġwe ek
ges etzt
m us
E n
p latz
i as
19 8
ĠM at
Ġavail able
bild ung
al ten
ĠH ar
st ru
om at
Ġv oll
Ġc our
n ess
enn t
Ġst ill
ĠT o
r i
Ã¼nst ler
Ġf un
ard s
ik t
ĠR ei
Ġh im
ĠB ut
ĠB Ã¼rger
e hen
ĠKir chen
Ã¤ re
ff en
amerikan ischer
al es
on nen
gen ommen
ĠSta ats
Ġwel che
et ing
ur en
Ġl and
Ġf ollow
en ter
st re
rÃ¤ n
i ate
Ġn or
Ġfin den
Ġsoll te
9 0
Ġun ser
c ial
min ister
Ġbet ween
Ġent wick
Ġletz ten
Ġein fach
ĠK ont
ĠÃĸ sterreich
Ġm ov
iz iel
Ġer halten
im mer
ck er
y d
ĠUS A
C h
Ġa ut
Ġn umber
Ġ199 9
Ġpro fess
Ã¼ l
Ġnah m
2 4
P D
Ġexper ience
j ahr
ĠD orf
ĠSta aten
Ġfr iend
Ġ '
tre ten
Ġm Ã¶glich
g ie
et te
Sie he
il ome
ĠVol ks
Ġv ar
ĠG rÃ¼nd
Ġg ut
Ġ20 20
o ver
b y
Ġb re
Ã¤ ll
Ġus ing
Ġspiel te
A uf
Ġf ast
fol ge
Ġre ally
Ġt rat
Ġfamil y
f ass
ug ht
I I
ograph ie
Ġ199 8
ĠI hre
ĠA pp
ĠH el
Ġein ige
Ġph ot
af fen
Ġro om
la u
y le
p rÃ¤
ĠReg ion
ĠRe chts
ĠgehÃ¶r t
v Ã¶lker
ass e
ĠC or
Ġcomp any
us ch
ĠS el
Ġst art
t r
ap t
Ġgem eins
Ġc lass
ĠBe g
ire d
p ert
Ġb oth
Ġinclud ing
tra gen
ĠT or
Ġpro cess
oll en
ĠSp ort
is hed
Ġn eben
ĠD av
ĠHe im
Ġch ar
ĠJ ose
nah men
ten s
den k
e le
igh ts
Ġerfol g
hn en
Ġsch ool
I N
w ei
st r
s icht
Ġpr iv
S p
Ġg anz
Ġst ark
en nen
3 5
Ġb ie
Ġte am
kl Ã¤r
ge ord
m et
ĠT ag
Ġauf ge
Ġst ra
ilit Ã¤r
Ġakt u
a uch
Ġserv ices
Ġ <
ĠF ach
ell er
z el
ĠB urg
ĠJahr es
Ã¼ b
az z
Ġbu ild
Ġfor m
k on
or ge
b et
imm t
w ork
ĠgroÃŁ en
la ub
ĠK ultur
Ġsm all
ct ions
ourn al
U S
ge d
H rsg
den s
Ġ4 0
lass en
Ġg ing
se e
ro ll
.) :
ĠH il
haus en
Ġersch ien
v es
ĠGem ein
Ġp at
w ort
iet y
gesch ichte
ĠB ro
ber eich
Ġb ring
ges amt
Ġ194 5
Ġk ommt
de ut
ĠP al
Ġzahl reich
ĠT our
fol g
uch s
. :
ĠS erv
w or
g ar
av ing
ĠW inter
de te
et ail
um p
ĠFamil ien
Ġihre m
s ych
ies en
Ġmon th
alt ung
z ig
ne y
z entr
Ġ â
Ġ2 9
m m
Ġim port
4 8
sel f
Ġper fe
ĠGener al
tern et
l ess
tel le
Ġfe w
el te
f ts
e ver
Ġo pen
2 8
ĠSch auspieler
ĠWil helm
Ġk on
ĠD on
2 6
Ã¶ t
y er
Ġ199 6
om as
och en
teil ung
ir l
ĠFol ge
sp r
ĠD u
op f
ĠH ier
ĠFor sch
Ã¼ hl
cc ess
d ienst
v ol
an e
Ġerst mals
Ġapp ro
ĠO l
le tz
ind ung
- -
Ã ¨
ĠCount y
ĠHer r
st Ã¼tz
Ġbe zeichnet
Ġsupp ort
ĠGe org
iv al
D R
Ġlook ing
ĠBet rieb
Ã¤ che
ĠSch n
ar te
ur y
Ġv iew
Ġpro m
ĠWelt krieg
Ġs ame
ce ption
3 3
Ġhe alth
it u
Ġin ner
Deutsch er
ei den
ĠB esch
Ġsch lieÃŁ
Ġc al
ĠgroÃŁ e
uf f
ĠS ol
Ġcomp le
ĠAl t
Ġd ata
nah m
7 5
ver n
s st
oss ible
ic ally
ĠFra u
Ġth ree
a ar
ond ers
ĠMich ael
us h
Ġle arn
ot he
Ġ198 0
ĠIn s
um b
ĠR ah
ĠC al
lat t
ĠG ott
Ġkl ein
Ġp op
ĠN ot
ĠAmer ican
ĠK ais
ĠB ed
ĠR uss
d ie
ĠgehÃ¶r te
ier ungs
ab el
ĠFl ug
Ġh app
ograf ie
w issenschaft
ĠF o
Ġg ar
ĠA ir
ĠA lex
an ten
igkeit en
l ang
it es
Ġc or
ĠJ o
Ġb rit
ra che
Ġspec ial
D ies
mÃ¤ ÃŁ
f ert
ĠT em
Ġl ittle
Ġd i
ĠIn formation
Ġor der
in ner
ĠAn fang
Ġare a
4 9
Ġan n
Ġsch n
ĠC ity
Ã¤ ft
ar a
uch te
Ġ197 0
) :
w est
Ġzw eiten
Ġbeste ht
on es
Ġ199 7
o le
Ġd azu
for der
ĠGra f
Ġhat ten
ft ware
n ungen
ch te
Ġm ember
Ġper form
Ġab sol
Ġincl ude
ĠEin wohner
f el
ĠG en
w elt
z ogen
Ġm en
f re
Ġf ull
Ġmehr ere
Ġab ge
b ed
op e
ĠPro fess
wer b
if iz
Ġtra d
h am
2 9
Ġbel ie
Ġw ei
lie b
Mit glied
l Ã¤nd
icht ung
ser ie
sch ein
ĠD a
ĠHein rich
ar ly
Ġl o
Ġd uring
ĠJahrhund erts
v ed
Ġet was
ig a
th ing
utz t
ne te
Ã¤ mp
ĠThe y
Ġan t
it or
zeich nung
ĠSp e
Ġgo ing
ĠHam burg
ĠS eiten
Ġw ater
Ġw rit
ĠC olle
Ġc ond
Ġ18 5
Ġfe el
ur f
sp rÃ¼n
h Ã¤ng
ĠF ot
Ġer ne
Ġqual ity
Ġver m
Ġbe de
== ==
Ġw est
Ġc urr
ĠArch ite
Ġke ep
b el
ĠM Ã¤n
Ġ199 4
Ã¤ h
ĠN o
Ġsein es
ĠK at
Ġge ht
ĠS he
P erson
ilome ter
es te
ap e
ap er
B er
Ġc los
Ġf ac
ĠR u
ĠVer walt
Ġse x
ver t
Ġher aus
Ġg roup
ĠW ebsite
2 7
ra cht
ĠEin satz
Ġwe gen
I D
z irk
re as
Ġpart ic
Ġ199 5
g o
ĠG old
ĠZ e
at ter
Ġall en
a at
Ġal ways
ĠRah men
it te
ganis ation
Ġb ig
ĠEr n
Ġch o
Ġto o
ut lich
ĠB ern
ĠH ow
ĠEr z
A d
ĠL ud
heit en
ig ital
ĠWor ld
is iert
Ġ199 2
ĠD ire
Ġo per
ĠfÃ¼hr te
Ã¤t ze
ĠS ystem
ĠR aum
rÃ¤s ent
ĠE p
ĠProv inz
ach en
i at
ro s
Ġg row
och ter
ers Ã¶n
ĠP lan
on y
ĠTe xt
atur es
Ġacc ess
Ġn ational
Ġg ame
ĠN eben
3 6
ar l
ost er
H e
d ruck
Ġb ro
Ġem p
ĠTe am
ĠK Ã¶l
Ġth ings
ĠG ed
Ġpro ble
gan gen
Ġob ject
Ġwe chsel
Ġd re
ĠR ed
19 0
Ġind ivid
ĠB ad
19 6
le hrer
ir on
ĠZ entr
Ġ x
B ei
ĠG ren
. âĢľ
ĠS m
ab r
G ibt
Ġex c
st ag
F ilm
ĠTh ere
lig a
j oy
ein t
Ġhe ut
Ã ĸ
Ġ20 21
Ġb ra
our s
we is
h ip
y e
ober t
Ġor gan
schn itt
il es
w and
ol oge
4 4
id s
ĠB rÃ¼
ĠF unktion
in ation
Ġw Ã¼r
gr iff
ĠL auf
Ġbe aut
ig inal
os en
Ġ Ã¶sterreich
Ġall erdings
Ġverw endet
Ġk omp
la v
ten d
Ġse chs
Ġall er
3 8
ver b
ĠSch ool
k irche
ik en
ĠT yp
ĠS Ã¼
il la
3 9
ĠLei p
Ġ199 3
ĠNe u
Ġh ard
fÃ¼ g
Ġ est
Ġk urz
Ġwith out
Ġh inter
Ġcom e
il y
ĠE ur
bes ondere
Ġst ate
omm and
ĠMa x
Ġl in
Ã¶r per
ar z
Ġt ro
le ben
ĠE nd
Ġste hen
ĠChrist ian
A N
ĠB rand
ĠO per
in c
l ungen
oc i
Ġm ir
A T
i ents
er in
bur ger
Ġl assen
Ã¼s sen
um an
ĠS outh
Ġd an
Ġto day
ĠW ar
Ġk ommen
ĠEr st
ent al
Ã¶r d
Ã¶glich keit
ĠK om
Ġbe h
. âĢĿ
im men
ĠH istor
ĠMe ter
Ġp ower
Ġd av
ĠA ustr
ĠI hr
Ġad v
ĠZ ahl
ĠQ ual
ĠC om
ĠZ ug
ĠG ruppe
Ġdis c
Ġ(âĢ ł
Ġo pp
Ġd och
Ġ199 1
amm lung
ĠS en
ief ert
Ġis s
Ġm ind
ĠU nd
/ /
ich tet
ĠF eld
ĠTh omas
co unt
um m
ĠSt utt
Ġt ry
ain s
g art
eth ing
7 6
ĠD ienst
ir m
i ally
ĠB ischof
Ġg ot
Al s
Ġre ce
au g
ĠGeb Ã¤ude
ill s
Ġl ight
Ġcont in
Ġprodu cts
Ġs ay
ĠK o
one y
Ġ196 0
Ġd ah
ing ton
ĠE he
Ġre p
ĠT re
Ġarbeit ete
Ġgen annt
Ġw ebsite
Ġ198 9
Ġt Ã¤t
ate gor
Ã¤ m
ĠW olf
ĠP reis
ĠA kt
ĠD is
Ġab le
st Ã¼ck
ĠfÃ¼hr t
o x
ĠBe ispiel
ĠC ont
ĠHe il
Ġ3 1
Ġs ince
Ġerfolg reich
tell en
ĠHo f
Ġs etz
ĠD ort
7 9
Un ivers
schlieÃŁ end
sk i
! !
ĠS ommer
Ġst or
ĠSch loss
Ġwith in
Ġ198 8
ĠZ iel
n ame
E s
an te
ĠK e
Ġe qu
ts teller
ein ander
Ġl ot
est s
ch ten
Ġs ure
ĠMart in
Ġin t
Ġverschieden en
p lan
ĠSchwei zer
en glisch
Ġne xt
her r
ĠM ont
Ġh och
Ġbet ter
irt schafts
Ġd ating
Ġval ue
w irtschaft
Ġn ame
p os
and s
heit s
ĠSte in
ĠGeb iet
ge ber
3 4
sh ip
ĠN r
h le
en a
ĠW ind
ĠNor th
ĠM ay
ob ei
m ark
Ġjeweil s
Ġl Ã¤
Ġc r
19 5
a ÃŁ
pro du
ĠMit te
ĠU l
z y
for d
Ġ18 0
L iefert
Ã¼ ll
ĠT ochter
ĠF C
ĠD en
ier s
Ġm et
ĠV ater
A S
ĠAm t
Ġc ost
Ġbe w
os oph
ĠS itz
gen den
Ġqu est
Ġweit eren
gem einde
ach e
h end
und s
ist ischen
Ġk m
ĠWe g
reib ung
rÃ¤ ge
Ġm al
Ġimport ant
I f
Ġg ive
der s
uch e
un ft
ĠEnt wicklung
ĠSe e
ik el
Ċ Ġ
ĠThe ater
ce pt
Ġge grÃ¼ndet
Ġof t
Ġle ad
O b
Ġev ent
au p
ĠW ith
ĠEurop a
Ã¤ ss
h ere
k re
a he
Ġn ieder
Ġinv est
ĠFrank reich
ĠH ann
Ġh ol
ĠâĢ ¦
ĠLud wig
la us
if ul
ĠZw eiten
Ġl arge
ĠD abei
ĠH a
Ġsec ond
we hr
ĠFrank furt
ĠM c
ĠE is
Ġm ust
18 9
ĠF all
un kte
on ist
it ing
Ġle g
ĠK Ã¼
8 9
d o
l le
Ġloc al
Ġsom ething
4 6
Ġhe ad
if ik
ĠRe gel
ĠG ar
iz in
ĠEin zel
3 7
ĠA g
ĠS oc
ĠM useum
Ġc a
Ġeigen en
Ġperson al
: //
I S
ĠSt at
FuÃŁball spieler
ĠOb jekt
rÃ¤ gt
us Ã¤tz
on en
j a
y ing
ĠL uft
Ġw obei
ĠRe c
Ġwork ing
richt ung
i ber
s c
ĠĠĠĠ ĠĠĠĠ
Ġp ay
ag ue
Ġf act
F ernseh
ig ent
Ġd ays
ĠT ro
teil t
E S
ut es
ĠKl ein
ĠHÃ¶ he
Ġo ld
Ġse le
Ġstud ierte
tel s
Ġle t
en g
ĠW ald
cr ipt
ĠS ein
ist ory
Ġg ilt
ĠSp ieler
ĠA ward
Ġex ist
o in
and id
Ġl ist
ĠF il
ver ein
Ġho use
ĠS im
ĠG el
ĠW Ã¤hrend
Ġeas y
ĠI ch
Ġden n
ut s
Ġt re
ĠW o
gr ess
Ġpubl ic
z ess
s weise
fas st
lich es
ĠSch m
ĠUn ited
Ġa ff
w ie
ĠF ar
Ġm ain
ĠSt ring
ort un
Ġer rich
op s
ub e
Ġ195 0
Ġdav on
Ġen joy
att ung
Ġperfe ct
Ġwe il
ĠtÃ¤t ig
ĠF rÃ¼
ĠFuÃŁball spieler
ĠLe ist
ĠGes ellschaft
ĠStutt gart
Ã¼ gel
ĠReg ie
Ġa ir
Ġact iv
Ã¼r z
ĠâĢ ĺ
ĠO p
if ied
Ġt rue
ber ger
Ġpro te
geben en
r or
Ġch ange
Ġmach en
ĠEr w
Ġapp lic
f il
af Ã¼r
Ġ6 0
sch eid
ĠSch iff
iz ation
m b
ĠGesch Ã¤
Ġt urn
Un ter
Ġit alien
lich t
uch en
. "
Ġstud ents
ĠS eine
i os
it ive
Ġfolgen den
ĠMann schaft
ok rat
ĠRom an
h Ã¶
am b
ĠR hein
em s
ib li
Ġmus ste
sch er
Ġres earch
igen schaft
Ġcon c
rei ben
ĠH ome
ic le
am mer
O N
Ġpro ject
ĠW al
af en
ges etz
t ing
as k
b ei
Ġm ax
Ġ198 7
ĠBe vÃ¶lker
ag n
u el
Ġw omen
ĠLeip zig
ig ur
ĠK ommun
j et
Ġwechsel te
Ġp age
Ġer n
8 5
l am
ĠR el
Ġpra ct
Ġn Ã¶rd
ĠR obert
Ġur sprÃ¼n
ĠPr iv
Ġat t
wend ung
Ġco ver
Ġl ange
Ã¤t te
Ġins gesamt
ett be
i ol
ĠSchrif tsteller
Ġ198 6
ĠPar tei
ĠP ra
is ierung
op er
Ġprodu ct
ka dem
ĠR olle
stell en
Ġan geb
ĠB ru
Ġj ob
ĠL ang
Ġan other
ei le
ĠschlieÃŁ lich
fl uss
ie gel
Ġ198 4
in i
ĠP ap
ĠE isen
b te
st ieg
Ġal ong
ĠKais er
Ġein mal
ĠJ apan
Ġde fin
v ille
Ġunter schied
g ruppe
ĠOlymp ischen
ĠS a
ret t
Ġp ict
ĠU hr
zeit ig
ĠPf arr
ĠC omm
ure d
Ġfin det
ĠStra ÃŁe
ĠV ier
E N
ĠSo zial
Ġcomple te
re if
ĠO ur
Ġp ort
Ġerfol gte
gen de
ĠK ilometer
Ġprogr am
Ġfo od
ĠHol z
ĠD am
ĠArbeit s
Ġmus ic
Ġm ein
ĠD i
3 1
Ġm ich
ĠL iteratur
ĠIn ternet
g lichen
ĠTe x
id ge
ĠO t
Ġadd ition
Ġinner halb
ĠMar ia
ne ten
ĠB rit
Ġche ck
Ġm ult
ab ility
Ġb lieb
setz ung
ĠSchwei z
ĠEr geb
Ġc ap
ĠDeutsch e
b ra
Ġse hen
Ġme isten
Ġmark et
ab l
S o
Ġdire kt
te chn
ĠMar kt
ra y
Ġerreich te
' m
ĠMin ister
ĠNor den
A R
ab or
ĠJ ust
ĠB ank
ĠD enk
B au
3 2
8 6
ok ument
Ġc ert
ra u
ul ation
ĠBes itz
l ungs
Ġ Ã¶ff
te gr
ill ion
ĠKÃ¶l n
ĠIn n
Ġl aw
Ġf lo
iv ed
ob il
Ġchild ren
ĠBer uf
v iron
Ġ ident
ult ure
Ġgew Ã¤hlt
im ent
os p
mann schaft
ĠDes ign
M ar
ĠP ass
ĠF ir
ĠMet hode
Ġre f
opp el
Ġr un
d a
ĠI de
ill er
row s
ru ktur
u h
ĠS l
il nehmer
ĠAlb um
ul ts
is ing
erk e
Ġ Ã¤
ĠP rÃ¤sident
Ġs w
ĠF rei
Ġauf grund
ĠK ant
Ġges am
eit ung
Ġcons ider
Ġ197 2
p reis
ran sport
Ġgeb oren
ĠB eit
ĠH igh
f est
it ten
g ing
Ġim pro
Ġm aking
Ã¤r en
Ġ ir
Ġwor ks
wa gen
ĠAm ts
ok al
f o
4 7
ĠK ur
W h
ran ken
Ġ *
Ġb ased
und er
Ġh al
te ile
le ist
ĠSt ate
ze pt
ĠP ost
ic o
ĠAl ter
Ġbes onders
ĠS w
Ġins besondere
ge ther
Ġof fen
Ġm ight
Ġsh ort
ĠHeim at
deut ung
E D
ĠM er
ĠAut or
Ġm ar
e ter
it chen
th ers
Ġre l
w Ã¤r
Ġneed s
ĠDav id
ich ter
Ġcon f
hl er
o un
p end
Ġsu ccess
Ġc reat
t il
Ġ198 5
8 8
Ġs af
ĠC as
Ã¶r t
Ġgel ang
un ch
ĠH en
ĠâĢ Ķ
ern er
oc us
tell ung
Ġne ver
Ã¶st lich
schul lehrer
f it
is ed
ĠF ernseh
im ate
ĠSta at
Ġent fern
ĠBeg inn
ĠK Ã¼nstler
Ġse ver
ĠReg ierung
ĠE mp
ĠM utter
ĠW ieder
Ġme ist
Ġfe atures
arbeit er
J ahr
Ġ }
ach er
5 5
v al
ĠK lasse
Ġoff ers
e e
we ig
ĠE ner
ĠPr ess
ĠT age
A s
r ib
Ġtrad ition
ĠPro jekt
if fe
p re
o int
ĠM os
l as
je kte
Ġse arch
w ald
ĠS icher
Ġ197 9
p iele
ĠPro ble
Ġo ber
part ment
Ġn ord
am ens
Ġc all
Ġfor t
Ġl ess
' re
Ġt em
Ġf our
rÃ¼nde te
Ġcommun ity
ord ing
ĠJ ournal
Ġa uÃŁer
ĠLe hr
Or t
Ġas k
ĠOn line
au en
ĠIn sel
Ġde v
Ġ198 3
al og
ĠEurop e
ĠSel bst
Ġ197 4
ĠB ur
7 7
Ġerne ut
Y ou
ge f
Ġm Ã¼ssen
Ġer m
Ġbeaut iful
ktion en
ĠKre uz
ĠA fr
Ġre du
Ġp ast
Ġto gether
- ,
at Ã¼r
Ġh Ã¤uf
an ien
Ġb ar
ĠS and
' ve
W elt
ĠS am
Ã¼ ler
ĠDies er
ĠHerz og
f ung
is on
fahr t
Ġviel en
itÃ¤ ten
c le
Ġv ideo
ĠSt Ã¤d
ver band
ue ck
Ġmo der
Ġ196 8
Ġle ben
Ġcon ne
s etzt
ym n
Ġf ile
O R
9 9
be k
e x
ge gen
ĠÃ¼ber nahm
red it
ĠK ind
Ġze igt
ĠN utz
Ġbis her
Ġcre ate
St and
t es
ĠIt alien
z Ã¼
Ġl ine
E igenschaft
Ġkonn ten
sch lag
ĠMÃ¤n ner
r ist
F Ã¼r
g a
ĠVor s
Ġz eit
A C
an o
ĠSÃ¼ den
ĠEur o
ĠPro gramm
ĠProfess or
b ank
ĠS ong
it i
Ġkl einen
Ġ197 8
A P
Ġa uth
ĠW issen
Ġn atur
ch an
ust ry
ĠIn stitut
ĠR est
Ġkl eine
L and
Ġdevelop ment
ĠM il
Ġgegen Ã¼ber
Ġze hn
P h
ĠM ad
land s
Ex ception
ak ter
4 2
ĠMe hr
ĠStra ÃŁen
Univers itÃ¤t
Ġen gl
ian s
Ġ198 1
ĠGeschÃ¤ fts
on a
ger ufen
sp e
Ġ198 2
lÃ¤ uf
ĠMill ionen
k n
v oll
w eit
c ing
id ing
ĠGes amt
Ġzw eite
Ġs ingle
om an
Ġver st
Ġd ien
ho cke
ru ct
Ġverschieden e
mal e
z a
ĠW esten
Ġvor hand
itÃ¤ ts
Å į
ĠII I
ver kehr
ir chen
u den
Ġn Ã¤ch
if orn
ĠAn ton
mb H
ĠGer man
ĠB is
geb aut
Ġgemeins am
ĠS uper
viron ment
ĠK al
vol ution
ĠM el
ip l
ĠCh ina
Ġ {@
Ġst amm
Ã¼r t
etail s
Ġerrich tet
s burg
ar ing
Ġl ive
Ġle d
ĠSt art
ĠAuf lage
" ,
ĠZ ur
ob ile
ĠH alb
ĠO sten
k o
fer ence
Ġn ahe
eth od
ĠPro zent
ĠVerein igten
ĠSt r
ze uge
Ġ197 6
Ġbel ow
Ġa way
ab hÃ¤ng
Ã¼t zen
Ġk ind
Ġed uc
S eit
Ġ196 9
zeich nungen
Ã¶s ung
b aut
im a
ĠK urz
V on
Ġen ter
, âĢĿ
4 3
b est
T yp
ĠBay ern
Ġp ut
O n
ĠBe deutung
Ġeinz el
Ġk ur
zie h
ĠB or
ail le
Ġsow ohl
d ing
Ġd afÃ¼r
Ġvis it
un e
ĠJ azz
Ġd ra
V or
6 5
Ġcont rol
Ġh aving
Ġfolgen der
h or
ĠT urn
ĠColle ge
Ġbest and
Ġcour se
ĠW ie
ikan ischen
ord nung
ĠH or
ust rie
Ġn et
ĠK ol
geb Ã¤ude
un sch
ĠVer trag
Ġr uss
Ġre la
Ġopp ortun
Ġre le
c er
ar f
Ġagain st
Ã¤us er
ĠP ubl
stell ungen
ĠZw ischen
Ġb rand
ĠT op
Ġehemal igen
ĠInformation en
ck s
ĠHo use
ĠMal er
Ġre view
ĠF Ã¼hr
Ġbie tet
g Ã¤n
ĠW eb
olit ik
Ġ )
ĠH in
Ġg irl
Ġ( )
h men
Ġ197 7
Ġhin aus
fÃ¼hr er
Ġh erv
ichte te
Ver ein
Ġm oney
ot or
ĠverÃ¶ffentlich t
Ġ197 5
ium s
Ġf av
ĠL ou
E ine
f red
h aupt
Ġein gesetzt
ĠH inter
Ġpro pert
sche ch
Ġ197 1
ĠW eit
Ġl ov
Re g
ĠKrieg s
Ġt reat
Ġm ag
ĠA uÃŁerdem
Ġm aterial
ĠT rans
Ġh tt
ab ly
Ġsie he
ĠCar l
anst alt
ĠD iv
ak en
ĠH all
Ġlie ÃŁ
Ġh inz
k an
Ġs en
ĠL es
ĠG ast
wo hl
b Ã¼
ch ter
entr al
ur ity
al z
Ġp lease
Q u
Ġw eb
ĠT ur
iziel le
ĠM ore
ĠR ichtung
Ġal ten
ĠkÃ¶n n
f ried
z ir
ra b
s ide
ĠM Ã¶glichkeit
de ck
Ġsie ben
Ġdire ct
Ġeff ect
Ã¼ ter
f an
h an
ĠSch utz
rit te
Ġph ys
Ġto t
l or
ĠZ eich
Ġar ch
ĠG mbH
hocke y
ar ian
il en
ĠSch ule
Ġunder stand
Ġf ilm
ĠD istr
zeich en
ĠlÃ¤ sst
ĠC D
ĠJohann es
il s
d es
meister schaft
con om
b ol
ĠVerwalt ungs
Ġo cc
ĠAn zahl
stell t
re w
Ġp ack
row n
fÃ¼ ll
ge geben
Å ¡
Ġr Ã¶m
ĠErn st
Ġs og
Ġbeg inn
Ġdel iver
z i
ĠD om
ĠJ ur
Ġall ow
Ġver kauf
Ġemp lo
ĠT V
ist ische
Ġn ight
Ġst arb
te id
ĠB lack
ĠI r
fe hl
at iv
it ze
ĠSt Ã¼ck
en burg
Ġn ie
B C
Ġt est
ges ellschaft
werk e
id ay
Ġc as
weg ung
Ġt imes
ĠL o
Ġke y
Ġfollow ing
ic ks
k r
Ġim p
ĠO ne
ĠOrts teil
Ġbeste hen
k i
Ġ +
or den
Ġj etzt
Ġinter est
ĠSe c
Ġr ange
Ġcount ry
Ġver t
anad a
ĠMot or
A ll
ant wort
ĠHer ren
ĠKar r
A L
t ain
et ter
ib r
ĠTh ese
Ġz usÃ¤tz
ĠR ock
ĠP osition
ĠAr m
Ġb in
ĠS ub
ik o
ag o
Ġet c
Ġs ide
Ġin n
leit ung
Ã¤ ischen
arbeit en
Ġw he
ĠF er
ĠJose ph
ĠSt ar
ĠIn nen
ĠM iss
Deutsch land
s eite
rach te
ĠW irtschafts
Ġa cht
Ġcom es
Ġac ross
ĠCl ub
Ġm aj
c is
ĠRich ard
fl Ã¤che
Ġhand elt
Ġp ossible
O S
f a
Ġ197 3
Ġpr es
Ġele ct
Ġc ity
ĠB ron
Ġ( =
sp rach
ĠM ilitÃ¤r
ibli othe
ÃŁ t
Ġihn en
Ġd ist
re icht
ĠD el
Ġh Ã¶ch
Ġzahlreich e
Ġwo hl
Ã¤ch lich
Ġof ten
Ġb ody
le ge
ĠFl or
I C
ĠEr folg
Ġb ene
Ġse ason
ettbe werb
all er
gesch lossen
4 1
Ġin sp
Ġjed er
6 6
uf act
Ġer klÃ¤r
9 5
b rÃ¼
wo od
Ġdan ach
I T
hr te
b ack
ĠHo tel
Ġ8 0
Ġf ocus
Ġ193 3
ak er
c ent
Ġn on
ĠW hen
ob al
Ġqu ick
ste lle
h ang
Ġeigen e
ien s
Ġ196 4
b ung
ĠB aum
Ġ196 7
ol den
Ġwicht ig
Ġsever al
le gte
ĠM ac
Ġl og
Ġall es
ĠMit glieder
ĠChe m
Ġbec ome
Ġ ens
Ġ9 0
M us
it en
Ġc ase
Ġ193 0
em in
ĠBo den
ist ik
mÃ¤ÃŁ ig
Ġs uper
Ġex tra
b an
ĠI hnen
Ġe ver
n am
Ġv ol
ĠH ers
je cts
Ġschn ell
amp le
A mer
ĠW ochen
tem berg
Ġz og
Ġan s
7 4
rie f
m o
aff el
ĠfrÃ¼ her
ĠRei he
ĠJ ames
Ġme et
ĠP an
Ã¼r k
Ġwh y
bar en
ĠgehÃ¶r en
ol a
ĠE t
og le
ĠS aint
ĠVer kehr
ĠR os
Ġto ol
ĠAn gel
Ġdam als
ĠE hren
Ġpo int
read y
um er
Ġyo ung
' ll
m on
Ġ(âĢ ŀ
ĠW enn
Ġind ustry
Ġwel ches
ing t
ro du
ĠLe ague
co ver
Ã¶ ÃŁe
Ġ196 6
ift ung
" .
ĠB ud
ĠK raft
ut or
Ġ ung
al tet
Ġentsp rechen
Ġam er
ĠT al
ĠR ein
ame ister
H och
ir g
ĠEng land
ĠKarr iere
7 2
Ġzu dem
ĠD res
Ġvorhand en
it ch
ut ure
me e
Ġpr esent
Ġdah er
ĠB u
ĠD DR
ab in
Ġbest imm
Ġcle an
ann e
Ġprov ides
Ã¤ chen
Aus wahl
ĠS ant
Ġ. :
Ġf ar
Ġheut igen
Ġ7 0
ĠN Ã¤
app en
ĠServ ice
z us
Ġbe vor
ispiel sweise
ĠOt to
Ġm akes
unn ing
Ġl ag
Ġun til
ĠProdu kt
Ġst re
id d
Ġ196 5
asch inen
Ġzur ueck
ĠS u
ĠG i
ĠSp iele
i od
ĠEr d
âĢľ )
n ach
ĠK auf
ĠIn stit
Ġdar unter
t ler
Ġsoll en
ilit ies
ge fÃ¼hrt
Ġabsol v
g n
Ġsich er
Ġso gen
Ġso zial
k el
Ġ ess
ĠAn n
w esen
ord in
ĠStud ien
s uch
ĠR ot
ĠA kadem
Ġpriv ate
Dies e
ĠG Ã¶
br uch
Ġ3 5
Ġso cial
ĠR und
ĠEn gl
Ġoff ic
ĠB y
ĠfranzÃ¶s ischen
Ġl ow
ĠA p
Ġle ft
ĠB Ã¶
ier ter
ymn as
Ġst ory
Ġcont act
ak te
w asser
ĠL u
ger icht
Ġget ting
ĠV o
Ġth ough
Ġwen ig
eh men
H er
ung sp
Ġre gel
b are
ĠT ab
Ġre lat
ĠTe le
Ġbes ten
Ġcom b
ĠG eld
ut ions
il ian
ĠP et
te g
he mat
ĠD ruck
ĠR ud
ĠZ Ã¼r
ĠK an
i j
Ġst yle
id a
rol le
7 1
Ġzw ar
an ies
ĠK or
Ġpr ice
Ġmo dern
ĠS yn
Ġo p
lan zen
Ġspec ific
ĠB ilder
oll te
an zen
ĠB ach
ell ing
Ġfriend s
ĠZ um
Ġhe i
arr iere
u tet
st ant
Fernseh serie
ag s
Ã¼r d
Ġdown load
ĠE ing
Ġerw Ã¤hn
th rows
ĠÂ »
Ġentstand en
ĠG od
Ġprofess ional
Ġb it
ĠC enter
ĠSt ates
Ġle vel
ĠDre h
ĠGe f
Ġ194 0
ĠSie d
Ġdesign ed
ad urch
ick en
Ġw elt
ikan er
b ten
ern en
ĠÃ¶ff ent
og n
we gen
v ious
Ã¤l fte
M et
ĠS achsen
Ġ196 3
Ġres ult
w ind
Ġ Ã¤hn
ik al
itz t
Ġ193 9
sch eiden
geb ie
ap s
ĠW ein
Ġth ing
fin ale
s eit
Ġ194 6
Ġfol gte
ĠP rÃ¤
Ġw ahr
ĠSch Ã¼ler
at ers
G em
es tern
Ġh om
Ġl im
ul a
ĠSil ber
ĠhÃ¤uf ig
* *
ĠJ ack
Ġun ique
geb ung
Ġmaj or
Ġ Ð
v est
Ġbefin den
C on
ĠK rit
ĠW ash
ĠM ond
Ġf al
Ġinst all
Ġm om
Ġs ize
Ġsh are
Ġgo vern
Ã §
ĠM ass
haf t
D F
am in
Ġme ans
Ġuns ere
Ġletz te
0 5
m el
Ġp ie
ĠVer fÃ¼g
Ġc amp
an gel
Ġlie gen
ĠTh at
ĠP sych
ĠSp rache
ik on
Ge ographie
ĠW eiter
re ibt
âĢ Ķ
Ġkn own
i ar
Ġh Ã¶
Ġde utlich
Ġapp ear
Ġser ies
a un
ĠVors itzen
r as
Ġn atÃ¼r
Ġgen utzt
Ġv an
ĠBahn hof
o unt
ĠCh amp
b esch
an lage
Ġd one
ic ro
e g
Ġf ield
or m
Ġsom it
Ġal ready
Ġwen iger
W est
Ġs tellt
Ġer k
ran t
led ge
Ġco up
Ġein igen
ĠR iver
ring en
ĠFre und
Ġbuild ing
ub le
Ġ194 4
ĠBevÃ¶lker ung
ĠAr ten
Ġso ur
Ġ19 20
Ġzu vor
ĠT est
ĠD ate
iden ten
Ġcal led
Ã¤nd ern
ĠFl uss
Ġbe ispielsweise
Ġges p
la w
la ger
Ġchar ac
7 3
Ġl at
âĢ ĺ
sch iff
ĠSie g
an ks
ĠB ot
fl ug
Ġw atch
an ze
ze hn
etz ung
Ġteil weise
ĠPhil ipp
es ted
or gen
ĠR ang
Â ²
ast ic
Ġgef unden
te in
ag t
Ġindivid u
ĠF ort
ĠR oy
ĠRe al
v a
ĠL age
Ġver sch
esten s
ĠGemein den
Ġ196 1
fra ge
ac y
Ġp urch
gr en
f s
ĠE du
ier ungen
Ġ195 6
Ġ193 8
Ġw ind
8 4
Ġm Ã¶ch
Ġstar ted
Ġsp ace
schlieÃŁ lich
er ing
Ġmember s
ch ester
la den
isten t
iv ely
Ġe urop
ict ion
im s
av en
ĠKl oster
Ã¤d ag
kt r
ĠPre m
b s
Ġb lack
pla y
ungs k
ge hen
ĠV al
Ġbl og
ĠC r
Ġtechn ology
isse ur
ĠS telle
e ten
p rÃ¼
ĠP lat
ĠG ruppen
Ã¤l ter
ĠA ben
ĠK unden
ĠK ategor
r ies
ĠD own
Ġk osten
Ġl ink
ish ing
Ġw a
Ġh ours
al ia
os sen
cript ion
Ã¤t igkeit
och e
ach ten
ĠGe orge
W ir
ĠE ben
p ec
Ġup d
Ã¼rt temberg
Ġte xt
Ġl iving
Ġgen au
Ġsog ar
Ġf alls
Ġk itchen
Ġer Ã¶ff
Ġn ichts
ĠThe ma
S h
Ġt able
rÃ¤s identen
enn ung
in ts
ĠP o
ĠZ ust
itz er
ĠHil fe
itu ation
Ġz we
oten t
or ie
ĠUn ion
Ġen vironment
rÃ¼ ck
Ġ196 2
Ġ195 2
ĠM aterial
ĠWill iam
A nd
al ys
ĠW issenschaft
Ä į
in ed
l ant
r unde
z iert
ct ive
m ost
Ġer reicht
ges ehen
ĠBerlin er
ĠwÃ¼r de
Ġbe teil
ĠF el
ich en
lie ben
be zirk
Ġcol or
ĠHann over
ĠK Ã¶rper
Ġst at
ran ge
Ã¤ ÃŁ
Ġent hÃ¤lt
ĠO s
for sch
ĠSpiel en
ĠAlex ander
P ar
k athol
Ġt alk
ĠBru der
v is
ĠRep ublik
et ten
Ã¤t zen
Ġ195 7
it sch
Ġauf genommen
Ġcustom ers
Ã¶ ll
ell s
Ġret urn
p ark
ĠF ac
ide os
ĠE igen
ĠFe uer
U m
Ġm ass
ĠL og
il er
par te
ge hend
Ġen er
E M
ĠH essen
Ġr icht
rie ch
ĠG est
b ro
Ġm ethod
Ġc ent
Å Ĥ
Ġ rad
ĠK le
Ġge g
p ut
ĠgrÃ¶ÃŁ ten
Ġw issenschaft
Ġver fÃ¼
m od
he ira
Ã¼l t
Ġstell te
n ers
Ġw all
ĠArt ikel
s ie
Ġf it
ĠGe ist
Ġsch rieb
ic y
ĠAl le
Ġentfern t
5 9
Ġ195 9
Ġdam al
Ã ľber
ĠAn geb
jÃ¤hr igen
ĠC an
ĠF Ã¶rder
ĠVerb indung
ĠPh ys
ĠB aden
Ġ195 5
Ġgleich en
ĠMed ien
Ġman agement
letz t
ĠA G
Ġ194 9
ĠMus ic
ĠSer ie
o den
ĠC ommun
ĠJ es
Ġim age
arbeit et
zeug t
ĠC amp
ian a
iz ei
Ġbu y
g ent
re m
ĠReich s
Ġl ate
ĠNach dem
an ischen
it a
un ge
ĠDe c
ec ts
ĠR en
c ome
ab eth
ĠAus bildung
ĠSal z
o ught
r am
Ġverb unden
Te ilnehmer
Ġsim ple
Ġm acht
ĠBes uch
om ot
Ġk amen
Ġo thers
ww w
Ġs ug
ĠI d
ĠR em
ĠD eb
auf en
Ġem ail
r uf
ra el
ĠAuf trag
. <
te xt
ĠEr sten
P S
Ġw on
Ġp ur
Ġver lie
ĠS ym
Ġunser er
o o
Ġer ster
ran g
ĠB ook
tag s
f Ã¤h
ĠP il
ĠH Ã¤lfte
Ġ194 8
Ã¼s se
i i
le ment
re p
Ġe arly
ab y
ĠCh or
fol ger
ress e
Ġeng ine
ĠA k
ĠG leich
Ġtyp e
Ġnach dem
hl en
ĠZw ei
ur ren
ĠK ons
A M
Ġcomp anies
Ġ195 4
Ġrel ations
w ar
at ten
is c
Ġinc re
Ġrequ ire
Ġh uman
l ow
ĠPolit ik
us st
Ġge ben
ĠHer mann
Ġac count
ward s
Â °
Ġor ganis
ur ance
ĠB al
Ġfr ont
Ġmach te
Ġre pr
Ġen ough
Ġadd ress
z immer
Ġd eb
at um
Ġbef and
d am
Ġne ar
oci ation
ĠW and
av a
m as
ibliothe k
l ad
Ġ195 8
Ġide as
ï ¿
ut zen
ĠFin anz
un c
Ġk lass
qu e
Ġch allen
ĠPr es
Ġ Å
ĠVerfÃ¼g ung
air s
n es
Ġf rei
lÃ¤ ss
Ġge legen
res h
Ġvoll stÃ¤nd
aup ts
u hr
ĠWh at
leit et
ĠWash ington
ĠHer aus
Ġcurr ent
Ġd oc
g ere
ĠNÃ¤ he
g liche
ra chen
ĠI ll
k und
ĠGra nd
ĠMe er
k ret
le cht
ĠG al
yn am
ĠPhil osoph
Ġproble m
n ow
Ġm atch
ay er
rie ges
Ġbes uchte
k ap
ig lich
Ġlin ks
ĠV iel
Ġ4 5
Ġakt iv
Ġw alk
ï¿ ½
av y
Ġvar ious
hand lung
Ġst ay
.. ..
ide d
0 9
c el
Ã¼ hle
ĠGes etz
f ten
ĠF en
ze ugen
w esten
ĠL iga
Ġmehr eren
Ġloc ated
ĠB ack
Ġh istory
ĠF rie
ang es
ĠBÃ¼rger meister
6 4
as en
ĠL Ã¶
ens ion
Ġfolgen de
ĠA uÃŁen
ig in
M ed
f Ã¼r
ĠE U
h inder
w in
ĠP op
Ġa uÃŁerdem
ang s
Ġinv ol
z Ã¤hl
ĠH eid
b or
us ion
le iter
Ġth ought
Ġre port
ĠI D
ig ungs
ĠN et
a ul
el ten
ĠA th
Ġ195 3
ĠZÃ¼r ich
C D
ĠD ach
oll ar
Ġsetz te
gel Ã¶st
ĠKÃ¶nig reich
sp iele
Ġpop ular
Ġwh ite
I ch
Ġbei de
Ġ5 00
ĠEp is
E T
u a
Ġger ade
ĠH al
ĠJun e
ĠAkadem ie
Ġon ce
ĠWolf gang
Ġre por
ĠÃ ľ
Ġoff ice
ag ing
ĠMit arbeiter
8 3
ad o
il ien
Ġpartic ular
H and
Ġp ersÃ¶n
Ġme an
Ġman ufact
C hr
Ġf uture
k unft
ĠD ay
schrif ten
Ġc ame
b ie
Ã¼ ste
Ġdisc uss
m und
Ġg ames
ĠEl tern
20 18
an ger
Ġm iss
wohn ern
Ġact ually
Ġm illion
ĠMe x
S port
y a
ĠN etz
ren g
wert ung
Ã¶r m
Ġmonth s
p lat
ĠN S
Ġcom fort
r ig
ĠG et
Ã¶ hn
6 9
ir c
ĠO pen
so zial
in ge
Ġre cht
F rau
amer a
Ġperform ance
P r
Ġz erst
ĠL Ã¼
ĠK ing
om et
) ;
olog ischen
ĠSt amm
Ġgem acht
ĠStud ium
A t
ĠA v
hal ts
Ã¼ss eld
ĠK ampf
Ġevery thing
Ġaut omat
t ritt
ĠM r
z og
ĠR ob
ĠKomp onist
fass ung
1 00
ĠM ess
ĠW irk
Ġle ader
Ã¤t ten
Th ere
Ã³ n
Ġherv or
8 7
w art
Ġ194 3
ĠB d
ĠG roup
ad s
ĠJe an
p age
if y
Ġunter stÃ¼tz
ĠFrÃ¼ h
f ar
Ġl ik
Ġaus gest
tre ter
nd er
ĠB und
ste hen
Ġcon tent
Ġresp ons
E L
em b
imm ung
Ġag o
i w
ĠT her
ĠC la
ĠDres den
Ġm ess
Ġte ach
f rei
on ie
ot ball
ho ben
Ġmin utes
on ne
ĠE ast
ad a
Ġstud y
g g
Ġy et
ĠBe zeichnung
bl ick
Ġh ig
Ġbede uten
re cher
ĠR and
Ġk athol
men te
ent ial
ĠRe gen
==== ====
ĠDam it
as st
zeit en
Ġpropert y
ĠC ent
ĠIs land
b Ã¼rger
ĠVer m
Ġw onder
8 2
ĠK as
ĠPro f
ho ut
ĠF ree
ame ter
ĠUnter stÃ¼tz
ĠJ ac
ĠSe x
ĠursprÃ¼n glich
ot te
rich ten
Ġb le
ut her
Ġs ett
ĠU p
ges tell
fahr er
Ġle ast
Ġgew esen
c m
O ur
un s
ĠA c
ent wicklung
olog ische
ile d
Ġf ur
ien ces
N ational
w ill
ro t
age d
Ġ194 1
anc ial
Ġfav or
ak a
rit z
Â »
ieren den
Ġprofess ion
ĠG arten
iv il
ĠWerk e
c ol
sch au
Ġsch wer
Ġ195 1
ĠA st
ĠF le
ĠR at
ir es
Ġc ard
Ġk einen
Ġmod el
ar th
Ġle icht
Ġin tegr
Ġne un
Ġ194 2
Ġho he
Ġentwick elt
te ten
ab les
kre uz
zentr um
g ten
w es
Ġde al
Ã¤ch s
5 6
S etzt
Ġtra ining
G es
Ġres ults
ĠBas is
lin ie
ĠEr fahr
Ġj a
ĠW ol
stre cke
p ly
Ġd ivers
ĠStre cke
ĠRe cht
Ġinclud es
h il
ĠS Ã¤nger
ĠD oppel
ic ation
ĠY our
Ġin form
ĠA uss
ite te
Ġh old
ĠN ow
0 6
Ġd ate
Ġto ok
b ook
Ġb ath
if fen
Ã¼ll er
S e
ĠO ct
W hen
Ġb i
Ġin de
we isen
Ġso ftware
ĠDenk mal
k or
zir ks
ĠT it
ĠChar les
ĠB ill
van gel
Ġs il
ĠS in
bet rieb
. -
ĠL aw
Ġver d
ĠW alter
ĠL im
ĠEle kt
T rÃ¤ger
ĠKir ch
Ġho hen
Ġs ays
omm ission
Ġcomp uter
g al
Ġge d
ĠF und
Ġihr es
âĢ¦ ]
Ġmed ia
heira tet
f ield
M an
b ark
Ġdid n
Ġ194 7
Ġd ritten
ĠMo unt
rech end
ĠArbeit en
ĠverÃ¶ffentlich te
ĠSte uer
o der
ĠE st
Ġpre par
Ġstamm t
it ure
ch ie
Ġcert ain
wie gend
r hein
mal er
ĠForsch ungs
ed en
Ġan schlieÃŁend
ĠZu ge
ĠL icht
ann ing
ne ter
Ġam ong
Ġdo ing
Ġcl ick
iden ce
af fe
Ġhe ira
ĠC le
ca dem
is es
Ġsystem s
ug hout
an ken
Ġsp ielt
Ġum fasst
Ġsoll ten
ĠfranzÃ¶s ischer
Ġr en
ĠAl bert
ĠMa ÃŁ
Ġabsolv ierte
Ġev angel
v ing
ĠAr mee
Ġdoes n
Ġiss ues
g round
ot ion
Ġrec ommen
st a
ĠT on
ĠK ern
Ġpr ess
0 1
or te
ĠT eile
ra in
ĠSt ock
Ġare as
gen cy
ĠLou is
Ġf il
w issen
ĠA tt
Ġer ziel
ĠGeb ie
hr t
S er
ĠF ern
ĠEx p
Ġcomm on
Ġauth or
ĠnÃ¤ch sten
or ies
Ġj oin
Ġpos ted
ell ow
t d
Ġf ive
Ġf ert
Ġnew s
ver walt
ĠReg ierungs
aus ch
Ver lag
ĠA re
Ġz Ã¤hl
ĠDan ach
b aum
arbeit ung
Ġbre ak
ien ten
Ġd ue
us ive
ĠSt ad
amil ie
v in
il det
ĠPriv at
b ischof
l ern
ĠZ we
n o
Ġaus gew
Ġor iginal
ur al
Ġ ill
ĠPar te
ĠDies es
S V
bo ard
ĠT ier
ĠG as
Ġquest ions
ĠL os
ĠC am
fall en
abr ik
ĠM ult
af r
Ġc ra
d t
Ġtra vel
g ien
Ð °
ĠN ik
Ġam az
Ġse en
ĠA ct
Ġ17 9
Ġv ia
vent ion
an ces
ĠA ber
ip le
x is
ra uch
Ġcolle ction
ud io
Ġev ents
ĠV is
rei he
meister schaften
Ġappro ach
Ġ193 6
ĠO ut
h ib
ĠS old
lichkeit en
r al
Ġlat est
ĠVers ion
Ġto ur
ĠRe ise
ĠD Ã¼sseld
ĠT om
Ã¤nd ig
ĠKÃ¶nig s
Ġp aper
mer k
Ġreg ion
at ors
Ġp lat
ĠFol gen
Ġe conom
Ã¤t ter
ĠK ranken
Ġsome one
ĠerwÃ¤hn t
ĠBe griff
e ded
Ġd etails
ĠK ra
Ġcom par
Ġeben so
Ġcre ated
0 8
u hl
de ten
ĠK opf
ot a
press ion
F l
ĠW all
Ġj apan
Ã¤nd ert
lan gen
Ġres our
ĠS ing
ĠA fter
ĠT urm
ib ility
ĠNach folger
ĠGo ogle
ing ungen
omm ers
ĠS ow
Ġl ar
Ġehemal ige
Ġrest aur
ĠPro t
Ġwei ÃŁ
ĠUnter such
Ġsel ten
Ĥ ¬
ĠA cadem
ĠK ommand
Ġre ach
Ġhe art
onst ru
ze igt
Ġ193 7
eb ook
ĠM ein
zie hung
aler ie
O T
e kt
Ġex tre
rÃ¤ fte
ĠNach t
ĠFir ma
K on
Ġw id
ĠLe hrer
S S
ĠsÃ¼d lich
Ġv o
Ġb reit
ĠG ut
ip ment
T o
Ġg rÃ¼ndete
Ġper iod
ĠRe ad
ĠF uÃŁ
ĠJ ak
Ġst aff
urn iture
ĠSchw er
k unde
enn is
ĠEn ts
Ġ193 4
Ġsel ben
im ar
ĠL eiter
ĠÃĸ ff
eit her
ĠPr inz
he t
Ġgeb aut
l Ã¶sung
sch uss
ĠR itter
ĠÃ¼ber n
ĠFran cis
amerikan ische
ĠWien er
r ug
Ġ Ã¤lter
Ġp otent
Ġal te
Ġstr ong
Ġhal f
ĠW ider
ĠU s
ath let
sch t
Ġe her
los e
Ġnatur al
de ckt
Ġ192 8
richt ungen
ĠSoc iety
ail y
ĠZeit schrift
cr ib
ĠnÃ¶rd lich
Ġs onst
olog ical
ĠK osten
Ġph one
Ġp osition
ful ly
ĠC up
ifik ation
Ð ¾
os ph
ĠGra b
um ents
Ġh ope
ĠT rad
Ġann oun
ĠStand ard
Ġb ad
ĠOff izielle
ĠPart ner
Ġclos e
rett y
f Ã¤l
it ar
e ign
Ã¤ um
Ġerreich en
6 8
le tt
Ġre chts
ĠOr d
6 7
ĠP ublik
ĠZu dem
Ġcle ar
Ġal t
lie d
be ck
af t
0 4
Ġs ym
ĠErgeb nis
unk ten
g ers
ĠM as
En t
st aat
neh m
u ed
Ġd istr
Ġj Ã¼n
ĠAmer ica
E C
w irk
Ġpol n
wissenschaft ler
Ġs ens
ĠVer Ã¶ffentlich
ran sp
ĠGrÃ¼nd ung
Ġg re
Ġge hen
ĠPla y
ig ner
ĠAnd reas
ĠfÃ¼hr en
f alen
erv e
f Ã¤ll
ĠVer d
Ġre d
ĠAss ociation
f Ã¶rm
k y
Ġw ollte
ĠVer l
5 8
Ġw ide
Ġt aking
or a
end es
per atur
ĠU K
rep ublik
b um
Ġt ax
Ġ3 2
p ol
Ġne g
M od
ĠMod ell
M S
o on
ĠS ign
c i
k et
Ġc m
ĠW as
ĠV oll
ĠBe k
Ġbu ilt
Ġhapp en
or es
im in
ĠW ild
ĠStadt teil
Ġpartic ip
ĠÃ¶sterreich ischer
Ġc la
Ġver ein
Ġne ues
Ġcon stru
Ġbil det
et y
Ġinn ov
Ġz ie
ain er
ĠfranzÃ¶s ische
Ġn ull
ĠT ruppen
Ġab ove
all ow
mus ik
ĠJose f
ĠG re
ĠSt il
ĠSp r
ĠMin uten
el berg
ĠC our
ĠAn ge
l iste
ĠD okument
ĠVer eins
iz es
ĠL ied
ĠBl Ã¼
ĠEisen bahn
ĠEner gie
end ung
gr am
Ġl ater
Ġj Ã¤hr
Hoch schullehrer
6 3
ers eits
ĠLin ie
0 7
Ġp ick
Ġdar Ã¼ber
0 3
S tra
Ġt w
Ġass ist
Ġcustom er
ĠSchauspieler in
Ġa ge
ĠP lease
u he
z ip
ĠNach bar
Ġfe ature
Ġben Ã¶t
Ġwrit ing
ĠL Ã¤nge
Ġpro b
Ġwel cher
Ð ¸
ĠD Ã©
ĠPf lanzen
w al
Ġg iven
Ġern annt
Ä ģ
Ġf ra
ĠGes und
Ar ch
Ġener gy
ĠProdu ktion
A D
ĠK er
Ã¼r n
Ġflo or
ĠVol k
Ġeinz ige
Ġd Ã¼r
Ġf und
ĠSt unden
Ġcom mit
Ġoff iziel
halt ung
5 4
ĠR a
pro chen
ĠLie be
Ġbil den
re chts
z uf
Ġt it
an ted
ul es
w h
Ġ Ã¼b
Ġfin anz
ĠEnt scheid
Ġthro ughout
Ġstell en
Ġs ales
ĠB ig
ĠM use
ĠD och
Ġth er
iqu es
Ġevery one
Ġge geben
Ġ[ âĢ¦]
Ã¶ ss
i est
Ġme as
ieren de
mit t
om a
ĠAb geord
idd le
W er
Ġd iff
Ġgovern ment
im um
ell ent
Ġent halten
Ġheira tete
| }
Ã¶ sen
ist ic
Ġ193 5
ict or
ie ur
au b
gr enz
0 2
ĠC ons
pp er
Ġcomp et
ĠPol en
Me ter
ĠRec ords
P f
Z u
Ġ192 9
Ġspe ziel
ur a
Ġsel f
Ne w
f igur
ĠT im
Ġaktu ellen
qu al
ĠSp ring
ĠComp any
iforn ia
r is
ĠW ort
Ġw ollen
Ġp sych
6 2
H ol
st att
a ill
o is
Ġh air
ĠW ies
Ġcon tra
Ġem pf
techn ik
Ġeinzel nen
Ġat tra
ĠAl ten
ific ation
ĠFin ale
ymnas ium
m ut
ĠI T
ĠH y
Ġen c
Ġbie ten
Ġf ul
Ġbet rÃ¤gt
fra u
Ġw ent
ĠSt immen
au ber
rif f
ĠNew s
h istor
ĠT ages
Ġbes itzt
ĠHoch schule
ĠKant on
i ro
r ation
8 1
Ġk ont
ĠThe men
( )
ĠV ideo
ĠOr gel
ĠZeit punkt
ĠAn g
ĠFl ugh
Le gt
ĠFre ib
Ġvar iety
p el
t schaft
ĠHer bst
Ġre ason
ĠZentr um
ĠgrÃ¶ÃŁ te
p hen
Ġp ain
ĠH an
hal te
Ġknow ledge
Ġcurr ently
6 1
ime ter
unter nehmen
5 3
v on
au d
com ing
it ts
Ġent ire
Ġh ab
Ġsch loss
Ġeduc ation
Ġd igital
ĠI st
ĠFra ge
mÃ¤ ler
Ġtot al
ar tet
il ar
Ġp le
Ġge k
anst altung
Ġw Ã¤re
at o
Ġv eh
Ġco ok
ĠPh ot
ĠMan agement
ĠB us
Ġto wn
pp en
ĠEx per
Ġc ele
Ġz ust
we chsel
Ġweiter hin
end s
Ġkn app
Ġinternational en
Ġapplic ation
w urf
ĠUm welt
ĠEngl ish
F A
M y
an i
ĠSp rach
ah nen
ĠSchw arz
Ġbo x
pla te
ĠP unkt
Ġcl ients
ĠSc ience
, "
sch ei
Ã¤r k
Ġvers ion
ĠF rom
ĠC ap
ig entlich
ĠCar ol
Ġs ong
Ġ3 00
Ġread ing
hÃ¤lt nis
h y
ass ung
ĠÂ «
spiel en
ĠH ere
Ġe p
ien ste
Ġke hrte
w ir
ir ch
u it
ĠG reen
ĠU A
ip e
Ġwho le
denk mal
Ġa chie
ie ger
ĠOr ganisation
k arte
ĠFra gen
ĠHand els
ĠKategor ie
Ġs ale
Ġsec urity
ĠL eitung
lie gen
Ġ19 18
ĠMar ch
h ab
ĠW ahr
ĠJ ud
Ġsh ows
Ġtro tz
Ã¡ n
Ġbesch Ã¤ft
h ers
ĠBrit ish
Ġal most
ro ffen
od es
ĠBay er
ĠV an
Ġver heiratet
h ing
Ġspiel en
Ġprovide d
t ime
ĠS y
ĠD ipl
Ġim ages
ĠIn c
st anz
Ġh ost
Ġint rodu
Ġopportun ity
am ed
Ġj Ã¼d
ĠS ommers
ĠD or
ĠV en
fer enz
ĠGl as
Ġens ure
th ough
Ġinter ess
ec ted
a ktion
um Ã¤n
hl t
Ġar r
pec ially
c up
v o
ĠSch les
Ġnet work
f its
Ġt aken
Ġst ammen
end ing
ĠRud olf
ĠAkt iv
S C
Ġqu ite
Ġopt ions
Ġbelie ve
ĠRoy al
ĠW ebs
Ġrec ent
Ġled iglich
Jahr hund
ĠB on
Ġl iter
Ġse par
iz ing
Ġjed en
Ġverl oren
ĠEin wohnern
Ã¤d chen
ĠHow ever
em ents
Ġk aum
chn et
ĠPol izei
Ġstand ard
b i
f unk
ct ing
Ġb lock
Ġloc ation
os h
Ġ4 00
Ġide a
ĠS C
Ġm obile
iz ier
ok e
me hr
ĠZusammen arbeit
l ast
Ġactiv ities
ĠS Ã¤
Ġm em
ĠB usiness
etz en
ĠO k
ĠSchl acht
PD F
b rit
ĠI V
Ġw ww
ĠE vangel
ĠLe icht
Ġerfol gt
Ġentwick elte
Ġpolit ischen
Ãĸ sterreich
ĠVer gleich
fr ast
Ġhtt p
ĠInstit ute
parte ment
or ed
ĠT own
ir it
Ġre lig
Ġ193 2
ĠKon z
ĠWei ÃŁ
ĠS ingle
Ġst ore
Ġproble ms
yste me
ist in
Ġtra ck
Ġgesch lossen
ĠFest ival
Ã¤ ten
Ġne uer
aut or
S te
Ġte le
Ġfun ction
end orf
Ġerh Ã¶
ĠInd ustrie
Ġread y
u age
ĠD ann
rÃ¤n k
ial og
ĠSh ow
Ge grÃ¼ndet
istr ation
l ament
is ted
Ã ¢
ĠA ugen
ĠOr gan
ĠZeit ung
d y
Ġf iel
orn ing
Ġrec ently
Ġcho ose
A G
g ibt
he ad
ĠAus wahl
Pro du
Ġwhe ther
Ġp an
ĠL ive
al a
ĠStre et
Amer ikaner
Ġs at
Ġp ark
Ġhe ld
ĠFen ster
ĠU N
Ġro le
ĠB il
ĠW erner
Ġs od
ĠM em
Ġmit tel
ĠAn na
ograph y
ĠChamp ions
Ġh ot
Ġc op
Ġg ute
ĠLe g
Ġsim ply
Ġun ver
Ġvers te
opp ing
ĠAn schluss
ĠC lass
ĠJ er
ĠDan iel
ĠCal ifornia
in os
Ġus ers
ĠUnterstÃ¼tz ung
V ers
Ġver lÃ¤
Ġne eded
ĠUm gebung
mar kt
Ġmind estens
f unktion
w here
Ġd og
ĠAb schluss
Ġmark eting
Ġf ace
ĠH Ã¶r
zeich nis
ĠStÃ¤d te
m useum
Ð µ
ĠGÃ¶ tt
W ith
b orn
as chen
ĠB onn
ne w
Ġ Ã¼
Ġm at
Ġcharac ter
Ġp retty
osp ital
ĠMat hemat
ĠkÃ¶nn te
Ġ19 00
rei ber
Ġfand en
Ġs ing
at iven
ĠL ove
Ġze igen
Ġf a
lau ben
ĠIn vest
ĠMo der
ĠMed izin
le icht
Ġerh Ã¤lt
5 2
ĠI l
ĠR unde
Ġmit tler
Ġwir k
Ġex ample
O M
Ã ¸
Ġt akes
Ġus er
Ġlead ing
do or
Ġhei ÃŁt
as es
ĠH u
Ġsk ills
E urop
f ace
k au
ĠK laus
ĠâĢ ļ
au te
ĠWe ise
att le
teil en
ĠTra iner
Ġer r
Ġs we
ĠT w
ĠE ss
ic les
Ã¤d t
s b
haus es
K l
am ing
ed ia
Ġany thing
O ber
Ġde ter
ain ed
Ġgew orden
Ġrequ ired
Ã¤n gen
ĠBo x
ĠS ter
Ã¤ te
ĠHe alth
bark eit
Ġad ded
ĠSo ftware
ĠAut o
ĠW el
Ġgener al
e ks
ĠS ur
Ġger ne
ĠEurope an
Ġfur ther
o id
ĠA ust
ĠDiv ision
y ear
sch lÃ¤
reich en
ĠDem okrat
Ġphot os
Ġpict ures
verwalt ung
Ġb ald
Ġz uf
Ã¤nd en
Ġges tellt
ĠH om
ĠWh ite
ĠK lass
ĠRest aur
an lagen
ich e
as te
Ġo ben
wÃ¤r ts
ch ron
ĠE v
Ġst ruct
ĠAuf gaben
9 3
ĠS tern
ĠP unkte
ad es
id t
ĠAr n
Ġamaz ing
Ġ Ã¤lt
ĠInd ian
ĠF irst
ĠH art
in den
ĠBe zirk
ĠGeb urt
Ġble ibt
g arn
ĠL uc
Ġes pecially
Ġpart y
spr uch
W enn
is ierte
ĠA ch
Ġest abl
5 7
B o
ĠH is
Ã¶ gen
ian o
.: .:
ĠS zen
ir th
Ġer he
ĠOr iginal
Ġs ites
Ġdr ive
Ġehemal iger
T V
ĠB ul
ĠGott es
ie ÃŁ
Ġ19 19
wissen schaften
Ġ rom
Ġausge zeichnet
ĠD isk
Ġsch l
Ġent w
Ġsh ar
In ter
R E
bau ten
Ġin dem
Ġc rit
ĠO f
ve y
Ġbook s
Ġtry ing
ĠD rei
ĠK olle
ver age
ĠGer ichts
ok omot
Ġben annt
ĠRad io
b us
on ym
ĠVer t
sel ves
tent ion
Ġw es
Ġzu letzt
Ġ192 7
ĠÃ¶ffent lichen
F C
ist an
aus t
ho use
Ġerschien en
Ġzahlreich en
forsch ung
ĠSch Ã¶n
Ġ193 1
Ġper cent
5 1
k omp
s erv
Ġ either
Ã¶ ne
rÃ¼nde ten
ĠhÃ¶ her
Ã¤ cht
ĠL ife
ed ding
ĠP C
Ġm m
ess ion
Ġgesam te
s ystem
st ud
Ġsie ht
j or
ĠEr k
Ã¤n n
ĠNe ub
Ġgesam ten
wind igkeit
u ert
Ġad min
ĠfrÃ¼ hen
s m
west lich
ĠS onder
Ġp aint
Ġ19 14
ĠEin fluss
v ier
Ġh on
Ġvor her
ĠFl Ã¤che
zw ischen
Ġange geben
gemein schaft
Å Ļ
ie ÃŁen
ĠS S
Ġdien te
isch em
Ġhapp y
Ġs le
un ion
Ġp oss
setz en
ĠVorsitzen der
ĠDÃ¼sseld orf
p rÃ¤sident
Ġk ennen
ĠIm m
Ġpro jects
Ġart icle
jÃ¤hr ige
Ġl on
tra iner
ĠGr Ã¶ÃŁe
Ob jekt
Ġprov iding
Ġquest ion
k raft
Ġs or
ĠMon ate
Ġdec or
is abeth
uden ten
Ġg riech
D urch
b is
ĠH ard
ic ago
ir n
eich er
Ġdamal igen
w itz
Ġt ell
Ġb em
Ġf ire
ĠSch la
ĠBe im
ren ch
ĠFamilien name
-- --
ĠErz Ã¤hl
f on
g arten
Ġ1 20
Ġgleich zeitig
Ġsign ific
ic ult
k lasse
Ġm ove
ct ors
Ġplan s
Ġaktu elle
ĠHerr schaft
ĠGren ze
Ġb ott
Ġpre uÃŁ
ĠSt affel
ĠAn s
Ġne hmen
Ġbrit ischen
Ġso on
Ġconc ern
ĠAben d
is er
Ã¼ ge
ĠM and
ĠT at
lie fert
imm el
Ġso fort
R uft
hockey spieler
alys is
ĠL ad
ĠJ ung
Ġch em
G B
ĠS ar
ĠE ll
ĠH alle
ĠÃ Ĺ
ĠE th
Ġun ivers
Ġam ount
ud es
k le
s a
Ġw anted
ĠVer wendung
h auer
Ġd adurch
Ġk rit
ain ing
Ġreg ul
Ġpre vious
ash ion
as er
Ġz entr
Ġst ock
Ġprodu ction
Ġpict ure
u ell
ĠD azu
Ġ3 6
ĠKont akt
Ġrela ted
it ial
ĠR Ã¶
fer en
Ġbed room
Ġhinz u
Ġd ro
Ġver z
w el
op t
Ġb esser
Ġn ice
ol ution
Ġk ids
uch ten
Ġco ol
Ġl ock
ĠfrÃ¼ h
Ġrece ive
D es
Ġse em
ĠRel ig
an ische
al ian
ĠV e
rie be
ĠAus gabe
Ġins ide
G er
Ġb lo
Ġs etzt
as c
ĠDeutsch er
aug h
amerikan ischen
k ampf
Ġd et
Ġzw eit
gy pt
I P
at tet
ĠF ischer
ade d
Ġindivid ual
Ġw ays
ĠM Ã¼ller
ĠAn schlieÃŁend
c ement
ĠFÃ¼r st
ĠAr ts
G r
Ġa ction
Ġem er
ĠRes earch
ĠL ake
ell o
hen s
Met hode
9 4
s or
Ġn immt
Ġge prÃ¤
Typ e
ĠJak ob
k unden
st all
rat s
Ġsour ce
Ġs ix
ĠVerkehr s
sch auspieler
um in
sp rache
sw Ã¼rd
S T
v els
leg ung
Ġpar ts
Ġ192 4
ĠSicher heit
iti ative
n itz
ĠP fer
ĠN amens
asch ine
ĠM ur
Ġp rÃ¤sent
ĠIn str
gew icht
Ġm ent
U N
ĠS atur
ĠP rÃ¼
Ġdiff icult
h Ã¤user
m ond
Ġd at
Ġm er
ĠB all
es h
Ġt old
ĠWe hr
ou ver
w an
at ik
ĠN Ã¼rn
Ġso und
Ġor d
Ġfin ancial
ĠEnt wick
Ġd iv
ĠF eder
ĠL ab
ag d
ĠspÃ¤ter en
l ers
Ġb rachte
ĠBes te
Ġra te
p ret
Ġ192 5
Ġco de
ĠBr un
Ġfal se
n amen
ind ungen
20 17
Ġstra teg
hal le
ĠMÃ¼n ster
Ġnor mal
ĠDire ktor
E is
Ġt rÃ¤gt
ĠSt rom
ĠAut om
E O
Ġb ud
ad el
Verein igte
ten ded
ĠSp ec
Ġpr int
Ġpolit ische
ĠBen utz
ĠSch le
ger ichtet
reich e
ĠBl ick
fas ste
an walt
Ġh or
ĠW ell
ĠVer treter
Ġcom ing
M L
us es
ĠM un
Ġph il
Ġ >
ĠT Ã¼r
ĠN icht
unc il
I V
Ġ ut
ĠT Ã¤tigkeit
Ġc ann
ĠBest and
Ġlearn ing
ĠK u
Ġwelt weit
ĠOct ober
ste ad
fl Ã¤chen
Â ®
Ġdes t
Ġgl obal
ĠM aster
iel ten
Ġpract ice
Ġbeginn t
g ruppen
Ġf resh
ĠK enn
ed s
Ġf urniture
Ġc ut
ov ers
ĠDe partment
B ahn
k ra
er o
ĠS ammlung
ver fahren
for men
ĠBre men
ĠM erk
ĠV ictor
Ġr unning
ĠH ill
ab il
ple ment
ibr ary
I L
t itel
Ġc enter
5 00
u elle
Ġm atter
ĠD amen
âĢ ŀ
ĠI nde
ĠH ei
ĠMar y
ĠMus iker
ĠD enn
b latt
Ġre pla
ll ll
T ra
l im
Ġw ohn
ĠM acht
ĠZ usch
ic kt
Ġall ein
Ġeas ily
Ġout side
l ingen
ĠN ur
Ġde g
Gem einde
K arriere
y es
ĠG reat
Ã¼r gen
ate ly
mit glied
icher ung
Ġcoup le
allow ed
ut n
Ġan z
Ġit ems
ĠPro zess
p ossible
ĠS und
Ġaus schlieÃŁlich
qu en
ho od
ipp ing
Ġreg ular
Ġmom ent
au x
zie hen
ĠPart y
or th
at us
ĠP ers
im inal
Ġbe legte
Ġwir tschaft
ĠHo ff
Ġmed ical
Ã £
Ġun mittel
umen te
deutsch en
ĠL ager
ĠC ast
Ġind ustr
ĠHaupt stadt
Ã¼ss el
Ġer setzt
ĠSchw ar
ĠRuss land
ĠPres ident
b ased
Ġ1 000
Ġyour self
Ġacc ording
9 8
Ġst op
rÃ¼ cken
Ã¶l f
Ġsl ow
W erke
uf e
ĠSch lag
ang ing
Ġje de
ow a
ne e
d r
Ĩ Ĵ
Ġtreat ment
K omp
Ġexp ect
Ġ19 10
ff er
ĠRo ad
B ut
w ell
Ġt un
Ġth ird
ĠM aschinen
ĠG ust
Ġges etzt
I nd
ĠVor g
Ġbring en
lÃ¤nd ischen
Ġequ ipment
he m
Ġfavor ite
on se
h te
Ġh und
ĠSp anien
ĠWind ows
I M
ien en
ĠAn lage
P re
le is
P olit
st attung
Ġsc reen
heim er
Ġpra kt
ĠTex as
9 2
Ġa sp
ĠS atz
Ġal tern
av es
Ġbet re
Ġwen ige
Ġs yn
ess el
ĠNatur schutz
lav ier
aupts Ã¤chlich
V D
ĠH ab
ĠR ennen
Ġ19 12
Ġgen ommen
ĠvollstÃ¤nd ig
swÃ¼rd igkeiten
ĠP ier
Ġdes halb
Ġrec ord
d aten
ur er
den burg
Ġde ep
Ġbo ard
Ġinsp ir
ĠAngel es
ul en
Ġins urance
ĠTeil nehmer
Ġh Ã¤tte
ĠK op
ĠPerson al
Ġle bt
Ġs ummer
onst ants
Ġschw ed
Ġbe ein
Ġne cess
Ġm el
se hen
ĠEs sen
Ġrepr esent
p ers
ĠN ic
ĠQ ue
Ġerm Ã¶glich
b as
ig ungen
ann er
Ġst aat
N ieder
er er
ĠG ru
ĠW ass
ĠChrist oph
ĠServ ices
k rit
ĠH aut
W Ã¼rttemberg
ĠFac ebook
Ġto uch
ĠVer kauf
mittel t
spr ung
Ġsp ort
Ã¼n ft
Ġb al
Ġverl or
ub s
Ġwe eks
Ġ15 0
ĠzusÃ¤tz lich
ie gen
ĠSt ruktur
od or
Ġus ually
ĠZusammen hang
at ory
ĠHe er
ĠNational sozial
ĠFe hler
ĠFried hof
ĠPat r
_ _
Ġc apt
Ġsk in
ĠM Ã¤dchen
ĠBe zirks
A uch
Ġbe ach
ho den
Ġexp ert
Ã¤dag og
ar ts
ĠWeit ere
om ie
Ġall ows
sp ro
Ġstud ent
Ġbeh ind
ĠAcadem y
as y
Ġm eine
ĠD at
ĠG lo
Ġeff ic
ĠHen ry
ĠmÃ¶ch te
ĠFreib urg
Ġf all
Ġme eting
schein lich
Ġc y
ĠO pt
ff ic
ren nen
ĠDar stellung
aly se
ĠForsch ung
Ġbrit ischer
ik ation
Ġinclude d
Ġgrow th
C l
Ġex act
W Ã¤hrend
r id
ĠMar c
Ġgesch rieben
gemein den
ĠS um
bo x
ĠVier tel
g u
p unkte
ĠCh icago
20 16
ist isch
ĠGroÃŁ en
ĠSt reit
Ġhow ever
d f
ĠG attung
iv ity
Ġwar m
ks am
ikan ische
Ġgleich nam
r Ã©
Ġp orn
Ġcho ice
ĠHeid elberg
ĠS Ã¶
Ġm ix
ei der
stand s
Ã¼ cht
ĠD igital
ĠHo hen
Ġjeweil igen
ĠArchite ktur
Ġin fl
ĠG ro
Ġst ation
Ġbet rieben
ĠgroÃŁ er
Ġn omin
Ã¶ glichen
ĠZ uf
Ġde p
ap ie
Ġm aint
anz er
ĠBra unsch
ĠDown load
Ġp rÃ¤
Ġs qu
Ġ- -
Ġexc ellent
irg in
ĠAb s
Ġfin al
ĠBes atz
denk mÃ¤ler
Ġsignific ant
B undes
ĠR Ã¤
Ġ3 3
ĠInd ia
Ġsol utions
Ġl ives
ge g
em e
pr ise
ĠWer te
ind est
ĠComp uter
Ġbeteil igt
ĠDÃ© partement
Ġ Ã¶stlich
st Ã¤tte
St adt
ĠS upp
Ġst ieg
Ġnot wend
Ġ192 2
reit et
ĠS ome
Ġf ig
Ġan im
gel n
20 10
Ġpr esen
Ġwest lich
m ission
Ġf irm
ĠAt lant
Ġd ur
ĠL ux
ot ing
ue ber
reif en
ĠunterstÃ¼tz t
Ġw ider
Ġk anad
Ġr isk
Ġd ir
Ġs n
Ġs ave
ĠFr ont
h ips
an ischer
Ġer baut
med iate
ĠSm ith
kret Ã¤r
k om
ĠG Ã¼n
Ġe igentlich
ĠÃ ī
Ġ192 1
bo gen
erd in
Ġg round
ma ÃŁ
ipp ed
ĠIs rael
Ġtyp es
M ail
Ġreg ard
Ġqual ifiz
Ã¶rder t
Ġw ords
le ger
ĠB ob
ot es
Ġdurch gefÃ¼hrt
ens ive
Ġpr im
ĠUnternehmen s
ĠVerwalt ung
ĠM ail
ĠO x
wer ks
Ġoffic ial
ge legt
el and
ĠP rom
Ġho tel
ĠKinder n
Ġopt im
Ġrece ived
c ast
Ġc aus
o z
ĠC y
ass el
Ġitalien ischer
ĠFlugh afen
B A
ĠW irtschaft
ist ry
Ġdar f
ĠJul y
Ġquick ly
Ġtool s
le hn
Ã¼hr en
ĠRich ter
Ġincre ase
s am
el a
Ġch rist
lei ben
Ġregel mÃ¤ÃŁig
ĠS at
Ġin tens
Ġsim ilar
K ultur
Ċ ĠĊ
ic ip
Ġge fÃ¼hrt
ĠBrand enburg
ĠverlÃ¤ uft
N A
ĠM ach
Ġl angen
Ġse ems
hol z
Ġzun ehmen
ĠS em
ĠL aur
ĠEl isabeth
w en
Ġa ud
Ġiss ue
Ġis n
Ġwo od
chn ung
ĠBau ern
alle l
ĠFahr zeug
Ġs al
Ġm orning
ĠL ieder
Ġ3 8
N eben
u ary
in sel
lo ud
Ġemplo ye
Ġh auptsÃ¤chlich
ver lag
Ġtra in
Ġje dem
I s
Ġs ah
ĠS icht
at al
le b
los en
Ġide al
ĠDreh buch
ĠerÃ¶ff net
S Ã¼d
Ġo il
ĠF al
ĠW ander
20 12
gew iesen
Ġrec ogn
ĠHeil igen
ĠHome page
Ġarch ite
P reis
Ġst reng
Ġgra ph
ĠÃ¼bern ommen
A utor
as ten
ic ated
Ġcom mer
laub t
Z ur
Ġv ari
ĠT ar
Ġdis cover
ĠÃĸ l
ĠQu ellen
Ã¶ p
ĠSp Ã¤ter
org ung
reit ung
Ġprob ably
U R
m esser
ĠS uche
ĠB a
om s
ĠAl so
Ġlook s
ĠL at
ow ers
Ġver lieÃŁ
ĠRe volution
20 13
ĠAus stellung
ĠMen sch
Ġhistor ischen
ĠNutz ung
k irchen
ro id
Ġ19 13
schaf ter
Ġro ad
zahl en
ĠBild ung
Ġphot o
on ial
Ġwer de
ĠCh urch
Aus zeichnungen
rech te
stÃ¤nd e
Ġhigh ly
anstalt ungen
Ġrecommen d
Ġplat form
N ame
Ġc oll
ĠI hren
ec ut
i Ä
Ġt ransport
Ġw ritten
Ġbe zeich
Ġapplic ations
Ġangeb oten
H ow
m l
au ern
B r
ig uren
Ã¤ss er
E l
Ġd ed
Ġgel ten
h och
o od
Ġver hinder
ĠAn gaben
ĠAuf stieg
ĠĠ Ġ
Ã¤hr t
Ġpos itive
Ġb ere
ĠA T
el la
um n
ĠLe x
ĠBeit rag
Ġerziel te
re l
Ġh alten
ĠSt udenten
fr ont
v ision
ĠS amm
Ġwieder um
sie he
Ġextre m
h agen
Ġsod ass
m eld
Ġun abhÃ¤ng
ill ing
Ġany one
II I
Ġcond itions
Ã¼ gen
et ts
Ġup on
Ġans wer
Ġp ers
ak ers
ĠStud io
ĠErgeb nisse
Ġpotent ial
ĠK omb
F re
ĠZ immer
20 14
ha ber
Ġcare er
Ġf uer
Ġgra du
Ġdra w
brit ann
Ġl aut
ĠCh in
Ġwork ed
Ġ192 6
ĠĊĠĊ ĠĊ
un ts
ĠT schech
am at
pl ant
ĠChar akter
ed ule
20 15
omm ern
Ġmus sten
ĠGo od
T r
re ign
om it
ib el
Ġch anges
rat es
ĠGegen satz
Ġb leiben
Ġplay ers
Bau werk
ĠAl fred
Ġd aily
Ġc ur
ed y
Ġprogr ams
i h
ĠF ernse
ĠK urt
ĠL ong
ĠMar ine
Ġcont rib
Ġverm utlich
ar io
les en
ĠReg isseur
ĠPap st
ĠTrad ition
9 6
Ã ±
il i
em ble
g ab
s achsen
ent y
gew and
ĠRep ubl
Ġbede utet
9 7
O L
f le
n ummer
ĠF ak
Ġer forder
m acht
Ġaddition al
ĠO h
Ġ192 3
Ġpo ints
pend ent
Ġresour ces
Ġd ress
Ġc irc
ĠD ir
ĠR enn
Ġver treten
Ġent lang
ond s
itt ing
Ġw ord
Ġin j
Ġsch Ã¶n
ĠBer eits
ĠY ear
Ã¶st lichen
Ġste p
S piel
Ġh ielt
Ġber eit
ĠBron ze
d ate
or et
Ġver antwort
Ġfor ward
Sch rif
ĠPort ug
Ġhe ll
Ġle ave
ĠTechn ik
ĠEng ine
erdin and
ĠF ritz
ĠK lavier
ĠReg ional
ultur al
zieh ungen
ĠF arb
Ġl os
pp e
Ġg lass
d essen
ĠL et
uf fer
Ġpr ices
Ġel se
B and
s itz
il a
ĠE ff
ĠAr zt
Ġuns eren
Ġausge tragen
Ġpie ce
Ġsug gest
ĠS onnen
lin ge
our ce
Ġbest immt
D P
ĠBeruf s
r Ã¤t
un i
and a
ĠZ ent
Ġfol gten
ĠR oll
iss ert
Ġinter ested
p a
z Ã¤hlt
ĠM icro
ĠW ork
Ġprom ov
Ġarbeit en
ĠUl rich
Ġg ives
hil fe
alle y
Ã¤ ste
ĠG olden
ĠH afen
os ed
ouver ne
p olitik
Ġin tern
Ġw in
ĠS V
age gen
Ġwrit e
L iste
and en
20 11
Ġander er
Ġd ig
ag te
Ġsh op
ĠPr ies
Ġweiter er
Ġmaterial s
b a
ch em
ĠI P
Ġl oss
ĠSt iftung
Ġ3 4
ink el
Ġbesch rieben
S c
f ur
ach ts
sel ben
ron ic
Ġpl us
Ġaktu ell
Ġsol ution
Ġd omin
ĠP DF
ad rat
Ġdo or
ly ing
Ġpurch ase
B l
D o
gen er
ot ten
urn ier
Ġgeb racht
ĠOrt schaft
Ġstor age
ĠR osen
Ġfol gt
Ġpl ant
gebie te
ĠSold aten
Ã¶ der
ĠEn ter
utt ing
ĠT ok
ĠVer teid
ĠSc ott
Ġsei en
ĠB ol
ĠN ummer
Ġent scheiden
erke hr
Ġsogen annten
ar ter
ĠK andid
Ġg anze
ĠIn form
ĠAd d
Ġentsp rechend
ĠIn tern
Ġerw eit
fass ungs
F e
d as
ĠH it
ĠL Ã¤ndern
Ġl au
ĠAn teil
g rad
ĠSt ation
ĠverfÃ¼ gt
D a
at r
ĠR og
Ġimpro ve
V erkehr
b our
ĠS PD
ĠC entral
ĠPar lament
Ġpre m
Ġbath room
ĠA ff
Ġh uge
ic ations
Ġre lease
Ġde f
ek te
E hemal
F rank
w eite
Ġnot hing
pe kt
Ġpat ients
d ar
d om
az in
Ġplay ing
ĠPat ienten
ĠS onn
ĠL ib
Ġfor mer
Ġpro f
ĠOr ganis
Ġgew innen
p ose
ĠSow jet
ĠV ize
ĠSchw ester
ĠrÃ¶m isch
a ber
b aden
Å «
Ġm ilitÃ¤r
ĠL ig
ĠJu den
Ġcond ition
A ug
glieder t
ĠnatÃ¼r lich
Ã£ o
an cy
Ġw oman
Ġb us
ĠWill i
Ġpubl ished
Ġcontin ue
a ign
be wegung
Ġbest Ã¤t
Ġdis play
ĠFr iday
Ġdec ided
ĠArch iv
l Ã¤nder
ĠD ro
eich ert
Wh at
Ġbestimm ten
Ġwirk lich
H L
ĠS ach
Ã¼ st
Ġme chan
ree k
por ary
w Ã¼r
Ġc ross
ul pt
Ġgo al
Ġbeen dete
Ġf ix
Ġle bte
Ġ6 5
ohl en
Ġsaf e
Ġ ult
ct ure
Ġla unch
forder ungen
Ġlik ely
Ġd ient
Ã¼ hm
ĠAn th
Ġexp la
West falen
v ant
ie fer
ĠB ist
ĠB ass
ĠBeit rÃ¤ge
ĠAngeb ot
Ġlon ger
ĠDe velop
ĠLand schafts
Ġele kt
Ber lin
il led
ĠW ettbewerb
ĠR od
ĠCo uncil
ĠAd olf
ket ball
ĠO ver
Ã© e
ĠUr s
ĠOp fer
K reis
ĠBundes liga
med aille
Ġter ms
d urch
Ġf ant
ĠT ransport
Ġc redit
ĠC anada
ĠAustr alia
kt ions
Ġjed es
ĠKarl s
ĠBÃ¼ cher
Ġleg al
I d
p erson
ĠW agen
ber eit
Ġk or
Ġpart ners
is ation
Ġwicht ige
ĠArchite kt
g ut
ist rat
Ġro t
ĠLeist ung
p olit
t um
Ġl if
Ġch ance
Ġerst es
ĠZentr al
ĠSt off
th ur
Ġmo unt
Ġatt ack
sp er
lin ik
Sch w
ĠProble m
Ġrele ased
ck len
ock ey
ĠAd els
lÃ¤uf er
Ð ½
im me
ĠProdu kte
P ol
or ial
ĠG rÃ¼n
ĠGra fen
ĠSpe zial
Ġheut ige
ĠSatur day
ĠT ore
ĠV iew
ĠEin fÃ¼hrung
Ġdevelop ed
Ġrelat iv
Ġhand s
Ã¤uf er
urf Ã¼r
Ġverkauf t
O C
Ġexper ien
ĠWei hn
ĠPro p
ian ce
Ġzerst Ã¶rt
Ġb and
Ġl Ã¤nger
pf lich
h i
k urren
ĠV iol
ĠFran ce
= "
m ine
ĠG Ã¼ter
Ġre in
ĠVer fahren
Ã© s
Ġgew onnen
ĠZeich en
Ġn ied
ĠY o
oh le
Ġgesch affen
For mat
g au
h old
Ã ½
ĠP rÃ¤sidenten
geb racht
Ġwor th
200 9
ĠÃ¤ uÃŁer
ĠL y
Ġg reen
lin es
ĠBe ach
Ġful ly
sch m
ot o
ick et
Ġsaf ety
zieh ungs
nd en
wei le
utn ant
britann ien
ks h
ĠGÃ¶tt ingen
Ġw ish
Ġab ility
Ġent ry
ĠGer hard
ĠMeister schaft
ĠBesch reibung
ĠWo od
Ġt en
Ġeurop Ã¤ischen
u gend
ho fen
ph one
ĠL eit
Ġzw Ã¶lf
ĠOb jekte
Ġgu ide
Ġdarauf hin
ĠAb teilung
wahl en
G ra
ĠJ on
Ġj unge
ĠEn gel
wer be
Ġdar in
ĠFo und
Qu ellen
Ġv e
aus piel
R ad
j i
ĠS us
ein er
ĠA ud
Ġo ption
ĠL Ã¤nder
B esch
Ġf lex
ĠW affen
ĠW oche
Ġro ll
ĠMain z
Ġeffect ive
st ern
ul y
Ġle bten
sk y
gef Ã¤hr
ĠLe on
Ġbet rug
ĠPe ters
Mus ik
i Ã¨
Ġd om
ichte ten
Ġunmittel bar
F in
r est
t a
we chs
ĠgehÃ¶r ten
ĠBraunsch weig
re u
ĠT ime
Ã¤n gt
pf licht
ar kt
ĠNe ue
ĠStat us
ĠA cc
Ġle gte
ĠInd ustr
ĠFot os
Ġb ul
Ġh um
Ġim m
Ġon es
Ġsow jet
g yp
ĠF erdinand
ul s
Ġver k
Ġch arge
Ġw uchs
em pl
ĠJ ob
gr Ã¶ÃŁ
wer te
res p
van ced
Ġhig her
Ġconstru ction
w ide
ĠM att
ĠD arm
ĠH D
Ġfe ed
Ã¤hn ung
Ġrem ember
gent in
19 45
geb nisse
Ġb ank
ahr en
lie der
stell er
Ġro und
br idge
Ã¼hl en
Ġcor re
Ġimp act
t liche
or ten
ĠS uch
Ġauf gerufen
Ġr ather
ige m
200 6
Ġs un
Ġf ab
id ents
Ġcomp lex
Ġsu it
ĠPrem ier
or fer
ĠH ay
Ġum fang
Ġ190 8
f amilie
Ñ Ģ
ĠT agen
ei ge
ken nen
Ġfo ot
Ġpl anning
ĠW appen
ĠR ing
Ġdes crib
gang s
Ã¤ll t
j ust
Ġc at
ver trag
Ġj ungen
S ystem
Ġm ot
ĠM ik
ach im
Ġmehr fach
ĠD et
ĠW in
ĠSt ahl
hol t
Ġreg ister
Ġs end
Ã¼ m
inn ing
ch ange
ĠK ult
be g
aller y
Z eit
ĠG ran
Ġ19 11
amer ika
m and
Ã¤ ische
O lymp
i ant
ĠR is
Ġl ux
200 8
ar o
ĠAuf gabe
leist ung
cklen burg
ĠHÃ¶ hen
Ġref le
R es
n ational
ĠH on
se x
ĠGe h
chn ik
ors itzen
reit en
stru ktur
ger ichts
ĠBas el
ĠGust av
Ġlie fert
d ire
Ä ±
ĠB rown
Ġein st
Ġg alt
oc al
ĠAuf t
Ġfin ish
ek ing
Ġmov ie
eng th
ar ischen
Ġsp Ã¤t
Ġex am
pro gramm
Ġ| |
ĠJes us
E P
ĠA C
ĠK ammer
Ġg ift
ug g
ĠÃ¼ber wiegend
mittel n
Ar t
ĠÃ¼ br
ur b
ĠSt an
W ie
d s
Ã Ħ
ĠB la
mann s
ĠPr im
ĠBlÃ¼ ten
m y
Ġer f
kt iv
Sch wei
ĠMat th
ĠE reign
Ġun bek
ĠWe chsel
ĠBl ue
Ġsol che
ĠKap elle
ĠErz bischof
i rol
ĠL i
ĠC ra
ĠN eb
Ġpr ior
Ġunser em
Ġcommer cial
N S
ĠP ower
em a
ann a
Ġpar ents
ĠKn oten
G ruppe
Ġs aw
re ise
Ġp ool
ĠHe ute
leist ungen
it ur
Ġf air
and ers
ĠĊĊ ĠĊ
akt iv
Ġmach ine
ĠCol umb
Ã¤ her
Ġer inn
Ġch ines
erk unft
reg ierung
ĠÃĦ nder
Ġb ase
ĠBetrieb s
Ġtradition al
Ġfinanz iel
K urz
e ff
p ack
it ation
ĠD Ã¶r
Ġde ath
Ġtr ip
Ġt ar
arch iv
ĠHein z
Ġwichtig sten
A A
ch ner
Ã¤ den
Ġh it
ĠW ed
Ġbe hand
Ġorgan ization
Ġask ed
Ġ( ,
Ġgirl s
Ã© r
Ġv ideos
ven ue
ĠsÃ¼d lichen
Ġl ok
Ġle er
Ġ4 8
Ġexp l
ĠPol y
Ġdev ice
Ġwir kte
ĠAuf bau
ĠEle ment
ĠEdu c
ĠE igent
ra te
Ġ Î
ĠP rag
minister ium
B is
u ted
Ġd auer
Ġun be
ĠZ us
Ġv ac
ĠNe uen
ĠSte fan
stit ution
Ġfert ig
ĠWebs eite
F F
m ont
Ġa k
Ġpro t
ĠThe ologe
Ġoffer ing
ĠApp le
ĠTurn ier
k ord
Ġge halten
ĠEr b
ĠAm az
O ne
g as
Ġse ction
B S
us te
ĠOr te
vers ammlung
Ġspe ed
m ore
Ġd ise
ĠVer lauf
rich ter
Ġabsol ute
Ġverlie hen
Ġcann ot
issert ation
ad d
ĠZust and
v olle
ig ation
Ġge gebenen
ver treten
Ġ7 5
ĠBundes republik
Ġ190 5
ĠProble me
ĠauÃŁer halb
Ġrelations hip
l uss
ir al
Er baut
Ġlang uage
ĠB rief
ĠV illa
Ġver gleich
ĠOr dens
ĠBo ard
Ġ190 7
Ġbrit ische
ĠQual itÃ¤t
ĠPhilosoph ie
ĠSommers piele
ĠPro gram
Ġprodu ziert
lauf en
ĠStand ort
Ġcount ries
b re
je w
200 7
Ġverw ende
ĠOff ice
fra gen
w rit
Ã ´
Ġin zwischen
Ġgo es
on ia
ĠD ah
if en
Ġle itete
Ġdeutsch sprach
Ġno te
ect ive
D ate
f Ã¶rder
Ġin ternet
ĠA f
Ġg iving
Ġaus geb
ont o
ĠTr ump
Ġbene fits
ĠR eb
au ten
zip lin
or der
ĠL ar
ate ur
Ã¶r en
rÃ¤ ume
ĠI hrer
ĠW ach
ĠAnd re
Ġerw arb
ĠGew inn
aly t
Ġunterschied lichen
ĠD ra
ĠC ho
ied lung
Ġgef Ã¤hr
ĠKrit ik
c ies
k opf
ĠZu kunft
ĠNÃ¼rn berg
Ġd ritte
ig an
ber e
ĠV arian
ĠBe wegung
Ġste ts
ĠGl Ã¼ck
Ġgrow ing
Ġsele ction
ĠSied lung
ĠId ent
n y
n ungs
Ġa verage
re form
Ġb ein
Ġein gestellt
Ġex tens
Ġunter s
hand lungen
Ġpol icy
9 1
Ġmit tels
Ġdar an
eiter te
ĠSoc ial
ĠM ol
Ġan ges
ĠV om
Ġ3 7
Ġdirect ly
2 000
ĠS eb
Ġb irth
ĠH istory
Ġsuccess ful
ĠSund ay
j o
Â «
Ġt Ã¤
ĠM ost
ĠE very
Ġor igin
ost on
ĠGrund lage
por ate
ĠDaten bank
z one
ik i
ce p
Ġor ient
Ġtra gen
vers e
ĠEle ct
Ad resse
ĠDistr ict
Ġklein er
ĠerklÃ¤r t
P er
im en
Ġvers ucht
G ener
ĠF rench
ĠSo und
Nach dem
ĠHoch schullehrer
ĠgrÃ¶ÃŁ ere
Ġwonder ful
Ġo l
Ġn ov
ac es
Ġeng ag
ĠJur ist
ĠC at
ĠPra xis
Ġdistr ib
ĠD omin
ei en
ĠEin s
Ġwe ight
ĠMann schaften
Ġmult iple
Ġl ost
ĠUnter nehmer
Ġdo uble
kathol ischer
Ġs an
ĠR am
ĠL ind
Ġl ower
ug s
ag ne
Ġbek ommen
ĠWissen schaften
C O
t or
Ġ Ã¶
us ing
ĠGe heim
w ander
Ġt ats
Ġzu ge
ph an
ĠChrist mas
ĠEd ition
ĠEpis ode
Ġim mediate
if ts
Ġinc reas
ĠHam burger
ĠSim on
ĠgeprÃ¤ gt
as ing
ĠD ichter
Ġs old
sch loss
Ġer fÃ¼ll
ĠAn wendung
rÃ¼ nen
. ),
b it
ĠE hr
ĠW ater
ĠNach richten
ĠÃĸff entlich
un te
ĠGes prÃ¤
' d
Ã º
ĠM Ã¶
ter e
lin ien
Ġinterest ing
f abrik
ĠL ink
ĠEr inner
rie chen
z o
ĠA S
ĠMan ager
yd ro
ĠRhein land
ĠJac ob
k unst
Ġw edding
as ons
Ġder zeit
Ġl ay
ĠV irgin
Ġinter view
ĠTem peratur
ĠSchm idt
r d
Ġg anzen
ĠMar ie
t l
is ieren
Ã¶ nen
omm iss
ĠUnivers itÃ¤ts
ĠInter esse
Ġd agegen
at i
ĠG ene
ĠE ber
gel d
fin den
ĠBern hard
ĠHinter grund
D r
ĠP ok
Ġe uch
ot yp
ĠRe chte
ĠVerb and
Ġ ;
ĠJ os
ĠEr de
ĠJahr zehn
Ġent deckt
gesch rieben
ĠGroÃŁ britannien
Ġsub ject
Ġrem ov
Ġamer ikanischen
g Ã¼lt
o oth
Ã¤nd ler
az ine
Ġag re
Ġschw ar
ĠHistor iker
Ġcomplete ly
te uer
Ġcom ment
amp les
Ġcomfort able
sp rÃ¼
bild ungs
ĠChar l
Ġindividu als
Ã «
ĠEurop ameister
ĠFar be
brÃ¼ cke
ĠjÃ¤hr lich
ĠB lock
Ġn utzen
Ġstar tete
ĠLauf e
Ġl Ã¤ng
Ġâ ĨĴ
ĠGren z
E d
z we
Ã¤ ger
Ġc ause
ĠEin heit
ĠAd am
ĠKar ten
Ġersch eint
ĠSchrif ten
is a
ĠP orn
Ġle vels
ĠBe zug
lan z
hÃ¶r den
so ft
ĠMed ia
ze ption
io de
m d
s berg
an geb
ĠG rÃ¤
Ġerst re
ĠNieder land
ĠLeicht athlet
Ġbe gan
ĠO ld
ĠEin trag
ĠBl ut
uck y
ĠFunktion en
W eit
ĠP enn
ĠR h
ist a
ĠFlor ida
Ã¤chs ischen
c ul
ie fe
il lage
ir ge
Ġun it
k osten
k rieges
Ġt al
Ġt hr
Ġf lieÃŁ
lie fer
ĠAll erdings
Ġs us
Ġm id
Ġp ath
ĠP unkten
Ġne igh
gr iffen
co very
200 5
Ġpos it
Ġpat tern
ĠFar ben
ĠEdu ard
ĠL ast
Ġex cl
ĠÃ¶sterreich ischen
ĠWies baden
Ġver pflich
iz iert
tell igen
Ġar g
glie dern
ĠEurop Ã¤ischen
leg ten
ĠWh ile
Ġinternational e
I G
Ġp assen
ĠH ub
ĠC ross
Ġwen igen
ĠgrÃ¶ÃŁ eren
Ã¼ mer
st uhl
ĠCent re
ĠP S
Ġg uten
ow ski
fr ist
Ġter m
ĠM ah
ĠL ine
Ġ4 2
Ġbek am
ĠInter view
Ġgroup s
ĠGel Ã¤nde
ĠVo gel
ĠArch Ã¤
Ġstart ing
r enn
re y
id ae
Ã¼tz t
Ġhtt ps
y ond
in y
Ġm other
ĠD ol
ĠR icht
ĠArchite kten
Ġg old
ĠC ost
Ġer gÃ¤n
ĠSant a
Ġgesp ielt
Ġs ort
Ġan erk
Ġge ts
ĠW omen
Ġweit gehend
ĠÃĦ r
ĠJournal ist
I A
l ike
Ġp aar
ru it
rach ten
or al
ĠA sp
Ġcl ient
ĠPfarr kirche
ĠSpec ial
ĠR ath
Ġth ous
Ġsur round
w ach
or ing
Ġf unktion
ak s
Ġso ft
ick ets
Ġ4 4
ĠSchw eden
Ġsm art
Ġcolle ge
Ġinvol ved
ĠP od
ĠW estern
Ġdoc ument
Ġver lassen
ĠBild hauer
Ġentsp richt
Ġser ious
Ġveh icle
Ġg ese
ct ic
Ġsch edule
ĠLe op
rif ft
Ġgar den
ĠDeb Ã¼t
Ġlar gest
fr iend
Ġbusiness es
Ġcreat ing
h u
Ġd ich
Ġro ck
deutsch e
ĠEhe frau
ĠÃľ berg
ĠH uman
Ġbe legt
Ġver fÃ¼g
pp ed
ĠBr as
Ġwest lichen
o ÃŁ
Ġs ent
ĠK ron
ĠH oll
Ġk ommun
Ġmy self
ĠSpiel zeit
ĠWeltkrieg s
aug ht
ĠW Ã¼rz
ĠMe tern
ĠZeit en
ĠKap it
an isch
ar zt
ĠD ub
ecut ive
E G
H ier
ĠS on
ĠK rank
ist ics
ff ee
Ġab gerufen
isten z
ĠZw eit
Ġdesign s
unk el
ĠFrancis co
Ġstreng th
b ul
Ġhelp s
Ġplay er
Ã¤mp fen
oper ation
ĠS T
Ġb aby
ĠF isch
Ġso uth
ĠAut oren
ĠFÃ¼hr ung
C om
ĠG ame
ib ly
Ġopportun ities
ĠS un
ĠH amm
Ġthem selves
) )
Ġan alysis
ab elle
Ġengl ischen
D on
k rÃ¤fte
z ub
ro at
Ġh Ã¤lt
ĠKon stru
Ġob wohl
ĠJan uary
hard t
eign et
L in
ĠF ass
Ġe arn
la h
Ġbek annten
ĠGo vern
Ġenc our
k ammer
l Ã¶
s ur
us ed
ĠG irl
ĠL iber
est ra
ĠIn ner
ĠFlug zeug
ĠHers teller
gren ze
ĠSch iffe
ĠUn garn
uar ante
ĠKom ment
Ġverantwort lich
Ġs on
or dens
Ġo w
st he
ĠH Ã¤user
Ġzu gleich
ĠArbeit er
Ġricht ig
at ic
Ġf arm
ĠA R
ĠT anz
ĠT ennis
gel assen
ĠChr on
Ġsupp l
M in
M ark
Ġv Ã¶ll
ĠT iere
ab et
iz en
Ġprodu z
Ġprov ider
Ġ190 9
k g
s et
v ement
Ġd Ã¤n
Ġc abin
Ġ5 5
gem einen
Ġfamil ies
Ġwahr scheinlich
Ġt im
ĠB Ã¤
Ġv irt
ei ÃŁ
Ġgen annten
Ġpart ner
ĠL ord
Ġent h
Ġdar gestellt
Ñ ģ
ĠÃľber setzung
ĠWider stand
ĠÃĸffentlich keit
Ġf ine
ĠJ Ã¼rgen
Ġat tention
ĠAuf grund
ĠCo de
en se
Ġd ark
ĠN av
Ġaus tr
The ater
Ġbec ame
Ġmax imal
ĠP or
ke y
Ġweek end
Ġâ Ĥ¬
Ġtit le
Z um
us ter
ĠB ran
Ġg ere
her zog
ĠAuf nahme
Ġw and
al ing
Ġb orn
ĠK ab
ĠH ir
ĠAb st
Ã¼ck sicht
ĠGeb Ã¤
Ġ190 4
bl Ã¤tter
Ġrequ est
ĠSchul en
iÄ ĩ
ĠK el
et he
ĠVer halten
Ġkl ar
Ã¼t te
ĠTex te
merk ungen
Ġ Ä
Ġverb reitet
Ġbil dete
ersÃ¶n lichkeiten
u ver
ĠK ommission
Ġun ten
Ġsp orts
gew Ã¶hn
ĠBar bar
ĠFot o
ĠMond ay
ĠDec ember
ĠW M
ill on
Ġhe ar
ĠLand wirtschaft
ĠNik ol
d own
f ast
r ong
w aren
er a
al u
ĠR y
Ġg ingen
ĠSie ger
itel y
Ġdec ision
V P
b lich
ĠL iter
Ġdes cription
ĠTh Ã¼r
ĠDar Ã¼ber
f Ã¤lt
Ġs and
ĠS ituation
ĠP en
ĠW he
Ġgeb ildet
ĠAustr alien
Ð¾ Ð
k lass
ĠM ission
ĠT H
Ġ19 17
Ġunter st
Ġactiv ity
A fter
D em
n icht
ĠT Ã¼rk
se ud
weg s
Ġsom et
ader s
frast ruktur
h orn
ĠS tell
Ġc ulture
Ġ3 9
ĠFl Ã¼gel
ĠMÃ¤n n
gangen en
re al
il den
Ġn ature
ĠG alerie
ĠFahr zeuge
Ġarbeit et
ĠSchrif t
lam ents
Ġnecess ary
: :
as ion
Ġf ashion
ann el
ĠAut ob
ur ts
ein d
ĠIn gen
Ġmus ikal
ĠSin ne
y ers
ĠG reg
ĠC re
b ungen
ĠC are
ate ll
Er st
ĠÃĦ gyp
Ġannoun ced
ouverne ur
N ord
lie hen
Ġent stehen
fl Ã¼gel
Be vÃ¶lker
schul en
stoff e
Ġroom s
ĠwÃ¼r den
b aus
i xt
Ġg ren
Ġg rand
ĠSch auspiel
ĠDeutschland s
ĠSÃ¼d westen
unn el
imate ly
Ġentsprechen den
B ild
at oren
ol i
ĠT hr
Ġcamp aign
ĠSchles wig
Ġsat is
ĠFak ult
K lasse
P la
en kt
ĠR ail
ier n
Ġim plement
Ġr Ã¼ck
200 4
ĠNord osten
ĠTod es
ĠPubl ic
fan ter
ĠEntscheid ung
ol z
ĠK och
ĠLeist ungen
afr ika
le te
ĠP lÃ¤
ov a
Ã¤r t
Ġthink ing
n ot
p aper
ĠAus druck
Ġco ach
ĠSer ies
C H
Ġz eich
ĠÂ £
ĠPre uÃŁen
ĠFrÃ¼h jahr
n etz
Ġd ry
Ġb all
ĠL ight
ay a
ĠSp ann
Ã¶r ung
ĠNord rhein
ĠCont in
Ġitalien ischen
Ġdivers e
B i
R A
Z w
Ġ Ã¶ffentlich
or ganisation
ĠF ert
ap el
Ġcons um
ĠFir men
Ġgleichnam igen
Ġw Ã¤hl
Ġp en
ĠK iel
ra gen
ĠAl pen
ennt nis
Welt meisterschaft
ĠhÃ¶ch ste
C omp
b ilder
ob by
ĠQ uer
ĠKon gress
Ġass oci
Ã¤us ern
ĠGeist licher
Ġg as
ĠâĢ ¢
ĠNord westen
ĠProdukt ions
ĠCour t
Besch reibung
an en
Ġe ye
ot ter
up s
Ġat tem
ĠVor der
ĠKon zept
Ġcons ult
geord net
ifiz iert
Ġkomp lett
ĠTro tz
Ġphys ical
d i
ĠL aut
J an
z if
Ä Ľ
is ions
um pf
os ted
ĠBe ziehungen
Ã© t
ĠMen ge
gra f
iw od
ĠGesund heit
st ation
ed ition
Or ganisation
Ġkosten los
ĠS tellen
os a
je kten
Ġob tain
Ġele ktr
geord neter
ĠMos kau
ĠK urfÃ¼r
Ġsen se
ĠPries ter
ĠC O
ĠMet all
Ã¼nd ung
tain ment
zus tellen
Ġgese hen
k ont
Ġ ueber
Ġk aufen
Ġso c
ĠAb schnitt
Ġexp ected
Ġsetz en
B ar
ĠW ag
Ġre ve
Ġab geschlossen
Ġum ben
Ã¤l de
ĠÃ¤hn lich
Ġrequire ments
Ġmess age
p al
ĠF lo
ĠR oss
ĠIn f
ran ce
auf hin
Ġbes ondere
gra ben
ĠFranz Ã¶s
ĠAward s
D ollar
T S
ro ck
Ã¶ gliche
Ġ2 50
be w
ĠFor men
fÃ¼ hl
Ġsuch en
ĠFound ation
at ives
Ġz Ã¤hlt
ze p
olog ies
let ter
C ode
k ts
m osph
ar ische
ĠE ck
ĠJ ones
Ġwe ather
ĠKar te
kl us
zÃ¼ ge
ĠVerÃ¶ffentlich ung
Ġp f
ĠK in
ĠH und
IN G
P C
Ġein gesch
Ġl ic
Ġk auf
ĠUn abhÃ¤ng
Ġ190 6
Ġlim ited
te hung
un a
Ġp ages
Ã¤n ner
âĢĿ .
ver stÃ¤nd
ĠIn halt
ĠBe w
Ġout door
ĠhÃ¶ch sten
ĠD rit
am ous
ĠE ich
Ġpro per
ĠTe ams
Ġapp ly
Ġgem Ã¤ÃŁ
ĠfrÃ¼her en
it o
Ġg ro
Ġl isten
ap ter
b u
ie den
Ġs icht
ill y
ĠReg ister
Al bum
Ġhin gegen
fel der
ĠHeraus geber
Ġerweit ert
ĠYo ung
il ing
ĠV alley
ick er
Ġhom es
a dem
s ere
Ġh arm
ĠW es
art ige
Ġsch le
ph y
Ġ189 0
itte e
ĠBrÃ¼ cke
Ġcas es
a ction
i ot
an er
em p
Ġver g
Ġde pend
Ġit self
qu is
ĠPar laments
Ġmod els
ĠGrÃ¼nd en
Ġstor ies
p ass
at re
ĠK anada
Ġze igte
Ġcar ry
Ġview s
Ġsogen annte
el or
Ġn umer
Ġc ru
Ġver schw
Ġhe im
rit e
L age
ro chen
ĠV iele
Ġexperien ced
ĠR et
ĠR aj
Ġex hib
ĠPfarr er
g ern
is at
Ġv iol
ĠM ov
ĠH ause
ĠV ort
ul f
id o
Ġsp ot
ĠThe odor
Ġmov ing
Ġmoder nen
G roÃŁ
s es
ĠB oston
Ġer kennen
Ġown ers
It alien
ĠDevelop ment
C o
D ar
Ġm aster
ick e
Er folge
S ehen
Ġh y
Ġat tend
Ã¤n em
ĠOr ient
20 19
bÃ¼ cher
ĠermÃ¶glich t
ĠB ab
ĠChr is
Aug ust
ĠP ed
ĠF ind
kt ar
Ġsp rach
Ġwe ist
Ġ190 3
ĠWirk ung
Ġ il
on isten
ĠF ord
ic ed
Ġse ch
ĠKon fl
ĠMin er
Weit ere
Ã ¥
he ute
ĠT sch
ĠW etter
Ġk om
ak ed
Ã¶r ter
Ġges etz
fang s
ĠInternational en
ĠLeist ungs
ĠCommun ity
ĠBund est
ĠdÃ¼r fen
L a
Ġf ail
Ġm otor
ĠL it
Ġmax im
ing u
Ġauf gelÃ¶st
ste ht
Ġruss ischen
Ġsym bol
D S
m Ã¼hle
ĠEin ige
ho ff
Ġher gestellt
Ġeigen stÃ¤nd
ĠB M
ĠP ak
Ġn amens
ol o
ĠI C
ic on
ĠC orn
ip fel
com es
p m
mer ksam
Ġcomp on
ÃŃ n
Ġtrans fer
Ġlin ken
Ġcreat ive
Ñ Ĥ
Ġ19 16
ei ht
erk l
Chr ist
ĠS aar
Ġg Ã¼nst
Ġver p
ĠVer Ã¤nder
Er ster
ĠNieder sachsen
Ġdah in
ĠMuse ums
ĠZ ahn
Ġad vert
ĠHand el
Ġbestimm te
D E
ru he
ĠTra ining
Ġeinge fÃ¼hrt
Ġprogr ess
Ġorgan iz
sc ar
ĠS P
ĠS ho
al te
ĠChe ck
klÃ¤r ung
ĠCarol ina
Ġd ining
Ġt ief
ĠK y
ĠK ath
Ã¤r ke
ĠOl denburg
Ġexact ly
Ġh our
ĠI ran
Ġpro pos
Ġfr ame
Ġplay ed
ĠChe f
Ġend gÃ¼lt
Jahrhund ert
I ON
b ibliothek
ĠS up
ste iger
aus schuss
ĠSp rachen
ĠBr ig
ĠG lauben
ast ian
ĠSm art
Ġment ion
Polit iker
ch mal
ĠI N
Ġk Ã¼nstler
qu enz
Ġ id
ĠS ab
ĠK Ã¶
ĠC all
Ġus es
ĠFre unde
ĠCol or
ĠVorg Ã¤nger
le m
Ġh ar
ĠT a
Ġto wards
qu es
pf lege
ĠBl og
urs day
ĠDate i
ĠEduc ation
al m
ĠK os
ĠJ agd
Ġhe il
tem porary
Ġpla ces
ident ial
akt or
wÃ¤r t
Ġreview s
======== ========
T A
ĠF ire
Ġcon ven
ĠAus land
meld ung
Ġs em
Ġl es
Ġl ength
Ġ190 2
Ġs ell
ĠS ak
ahr t
p o
Ġw ife
at ung
Ġv ierten
ĠR ost
Ġen dete
Ġfe et
ĠTeil en
Ġact ive
ĠAst ron
ĠK ong
ĠK athol
ent in
ĠC op
Ġl Ã¶
lin der
ĠÃ¼ber tragen
Ġbeein fl
A pp
w ettbewerb
Ġs agte
ĠB ord
ro te
ĠK ard
Ġre chten
ĠLand tags
omm od
ath an
Ġ8 00
ĠFilm s
ĠHand buch
Ġcl oth
Ġbl ue
Ġpolit ical
Ġresp onse
Ġkur ze
i ation
r ipt
te gy
el er
Ġein gerichtet
ĠT Ã¼b
Ġbe ge
ĠN omin
Ã© n
gem eine
ipp en
Schrif ten
k in
m es
er c
it ude
em ed
ĠAd min
ilit ary
Ġschool s
ĠMex iko
b und
ĠS et
ĠC ard
ĠÃ¼ber geben
Ġweiter es
H aupt
R ep
b ahnen
Ġzu erst
th a
iz iner
le hr
il de
Ġher r
ĠSÃ¼d osten
ĠMittel alter
Ġrela x
ĠOx ford
F L
J ohann
a iled
y t
gel t
ore a
ograph ische
emin ar
Ġess ential
Ġge zeigt
ad or
Ġst age
Ġ6 00
ĠFamil y
ĠPa ar
Ġstell vertreten
ĠEm il
F ra
M on
as ste
Ġf iles
st ab
ĠT imes
ĠR ena
Ġwe ar
ĠAl tern
Ġcla im
c u
ĠK a
ul i
ĠEle mente
ĠnÃ¶rd lichen
Ġrepor ts
B es
z te
st Ã¤tten
ĠBild ungs
D A
M A
Ġd etail
ĠW unsch
se c
lÃ¤nd ischer
ĠDistr ikt
Hol stein
al led
Ġg olden
Ġlie f
Ver Ã¶ffentlich
Ġback ground
Ġcoll abor
Ġre fer
ĠLe e
Ġber Ã¼hm
stra hl
Ġinst ru
ĠTer min
ĠUnd er
ĠFernseh serie
ĠAmaz on
un ehmen
Ġ19 15
ĠBe ck
200 2
Ġverw enden
Ã¤ll en
S P
Å ¾
ĠP ack
ĠR oten
Ġch at
Ġber ufen
Ġconsider ed
ĠS av
ĠH immel
Ġfor der
ug ies
Ġschw arz
ĠBas ketball
Ġnor th
Ġcost s
Ġdeliver y
Ġpur pose
g on
ĠG ames
ir us
Ġch urch
Ġte ams
ikan ischer
Ġ190 1
ĠIns gesamt
ĠIde en
ĠSÃ¶ hne
m ail
ĠP ay
Ġer stellt
ĠBe handlung
Ġent gegen
ĠWe imar
St ring
bau er
200 3
Ġadv ant
- )
c ia
Ġt Ã¼rk
ĠBei de
pla ce
Ġpol ice
Ġrepor ted
Ġpro fit
ap y
Ġwe g
ĠEn s
ĠStra f
ĠBre ite
lÃ¤ss lich
c en
ĠB an
ĠK ey
ĠV aters
bo ten
denk male
ĠComm ittee
Ġsomet imes
E le
ĠT hen
teil s
ĠÃľber setz
ĠIs lam
Ġbas ic
Ġcontin u
ĠParte ien
ĠLeop old
Ġ uk
er weise
Ġv ict
ain e
our ney
ĠHer bert
Ġste el
Ġben ach
zug s
Ġober en
Ġm ill
rie den
ĠAnd rew
ĠOrt es
anc ing
unn y
ĠBevÃ¶lker ungs
Ġf ung
Ġf lat
ĠB ett
ĠK anz
lie genden
Ġvor gesehen
Ġtra de
ĠFebru ary
ĠBÃ¼ hnen
ĠE ach
ĠO tt
ab ase
ges p
ĠfÃ¼hr ten
Ġret ail
Ġelect ric
nes day
Ġd ynam
ĠA P
Ġc andid
ĠU ser
ĠMar ien
son sten
Ġann ual
ĠIde e
O P
ĠH ockey
sp ar
ĠCh ild
pl Ã¤tze
Ġexist iert
ĠMÃ¶glichkeit en
fÃ¤l le
icht lich
iz a
ipp e
krieg s
ĠJo achim
hÃ¶ he
ĠKonz ert
Ġw ild
ĠS ig
he bung
ĠN ap
Ġoffer ed
ĠS inn
Ġm iles
stand en
werk en
Ġ189 8
ĠSl ow
Ġsle ep
? ?
ĠAn ne
Ġsp irit
ĠQ uar
m iss
ĠTechn ology
Ġadv ice
ĠHalb finale
ĠEben e
Ġtar get
C ont
ĠM ike
ĠL au
icher ungs
ĠBÃ¼ ro
Me ister
ĠbeschÃ¤ft igt
in zen
Ġm Ã¼nd
Ġbe ob
men s
Ġacc omp
at te
ĠVer hÃ¤ltnis
Ã¤ng nis
end ar
ĠDe v
ĠTeil nahme
Ġtem per
p at
ð Ł
ĠH orn
Ã¶ die
Ġer hoben
ind ustrie
ell schaften
co unts
stand ing
Ġlet ter
histor iker
ĠC a
ath on
stell ungs
app e
Ġview ed
ĠLauf bahn
ĠErfahr ungen
ĠWilli ams
l og
ĠF lag
200 1
Ġeff ects
arl ier
hy th
ĠWÃ¼rz burg
in det
ar ies
Ġin stead
ub a
ĠVor aus
yl van
ĠDurch messer
ĠHar ry
Ġmen sch
ĠElekt ro
U T
ĠB ibliothek
ol ge
Ġc amera
ĠMet hoden
ĠSer ver
P olitik
Ġl ots
ĠIn tegr
ĠAr thur
ĠFor st
bed ingungen
Ġhe at
Ġbut ton
vers ion
Ġbr as
Ġhol iday
Ġlov ed
ĠFrie den
Ġl ern
Ġl ines
Ġvers ehen
ĠMor gen
N o
r ight
ĠB aus
Ġp red
ĠR ay
Ġan hand
Ġvers uchte
Ġnah men
roll en
Ġverst Ã¤r
low ak
ĠvÃ¶ll ig
Ã¤nem ark
ĠK rieges
Ġst uff
Ġsp end
Ġtr ug
Ġinvest ment
N r
r iss
r ennt
z ul
ĠB ang
ĠN ie
Ġst ress
ĠMe yer
ĠWo iwod
ĠM und
ĠK Ã¼n
gen Ã¶ss
ow l
Ġr ates
Ġsc ience
ĠJuli us
ĠEpis oden
Ã¶ pf
Ã¼n sch
Ġausgest attet
ĠBayer ischen
Sehen swÃ¼rdigkeiten
ĠW a
ic ate
uss ion
hand el
Ser ie
ĠPier re
u ber
Ġt schech
ĠS qu
im b
me er
ĠKl ost
ĠCon c
lei hung
ĠHel mut
rÃ¤sent anten
Ġdev ices
akte ur
resp ond
p ite
ĠP ast
ze igen
ĠBe teil
Ġger ing
ĠGl obal
ĠDarm stadt
U r
m Ã¶glichkeit
y les
Ġt ried
Ġc lin
Ġel f
Ġentw eder
Ġinfl uen
ĠS af
Ġm Ã¤nn
ĠW ay
Ġpro p
Ġtr uly
ĠLie fer
Ġdeg ree
fur ter
in de
on i
ĠS n
ĠA qu
ĠT Ã¶ch
ĠE ven
ly wood
Ġab geb
ĠCh allen
Ġhigh est
ĠNationalsozial ismus
ĠIn itiative
ĠMon at
Ġass ess
Ġmed izin
Ġir gend
Ġupd ate
b n
ĠD ist
ug o
ĠTh ursday
Ġclass ic
B el
H o
d ach
ĠT isch
Ã¶ d
Ġfe hl
ĠÂ §
Ġhealth y
iforn ien
ĠChem ie
S G
as ts
Ġc ell
eb e
Ġbeg in
Ġerh ielten
Ġstand en
wes ome
z ur
Ġb atter
Ġand ers
ĠO pp
ĠDie t
ĠKon zer
An t
lÃ¤nd ische
ĠDire ctor
iz enz
ĠOr chester
Ġblo od
ĠVirgin ia
D en
ĠH aft
ĠRe form
ĠAm ster
latt form
ĠAfr ica
Ġess ay
gren zen
Ġsett ing
c ont
r t
ĠG ymnasium
af el
pr iate
alb um
Ġrep air
ĠFÃ¶rder ung
Ġs itu
Ġb oy
ill en
ap est
Ġ6 4
ring t
ĠOber st
ĠPe ople
ĠMark eting
H istor
s dorf
te gra
ĠB ell
ĠV ar
Ġk ulture
Ġ18 70
Ġch air
ĠGroÃŁ e
Ġverw and
Ġart ist
Ġsub mit
D isk
Ġt ritt
ĠD ur
ĠN ah
ĠSch lieÃŁ
Ġkein er
Ġmet al
Ġhund red
Ġded icated
ĠB lan
ra k
ach us
ann ter
Ġcl ub
lig isten
ĠRei hen
ĠSalz burg
sb ruck
Ġow ner
B y
er te
ĠZeit raum
Ġthan ks
Ġac cept
199 9
ĠRÃ¼ck en
C he
S eine
m ot
o und
Ġp et
fÃ¼hr en
piel en
ĠA rab
ĠK amp
Ġro b
Ġsc ient
ĠFakult Ã¤t
Ġumben annt
f ree
g ner
Ġg uarante
ĠMax im
Ġpress ure
ĠSowjet union
E hr
g ment
ĠN och
Ġes c
ĠSer ien
ĠSystem s
ĠGerman y
st on
ĠMit arbeit
ĠKon rad
Ġeff ort
M ich
or ted
or gan
ĠK en
ĠE vent
ĠW ett
Ġre ich
ĠÂ ·
Europ ameister
R L
ĠA ktion
ĠD VD
ĠN ight
ce ed
ak i
Ġaff ord
ĠzÃ¤hl en
h aps
Ġt ips
ĠG riechen
Ġ18 80
ry pt
k arten
ĠAn griff
ĠEr folge
ĠTh anks
Ġ4 3
Ġapp re
Pro zent
Pf alz
h ow
on ien
it is
Ġf ight
Ġan g
Ġst Ã¤r
âĢľ ).
Ġcent ury
ĠGeburt stag
Ġf em
Ġh op
we ge
Ġsh opping
Ġben utzt
haf te
Ġwa it
is ierten
Ġn ation
ĠVers uch
ĠBar on
ĠMod el
ĠmÃ¶ch ten
ĠBesuch er
o e
z ust
ar in
as che
Ġ1 10
ĠW it
rat en
ĠHe ad
iss ance
ĠFor um
ĠJohn son
Ġprogr amm
Ġest ate
ĠQual ifikation
Ġmittler weile
w is
te x
Ġin itial
ĠD auer
ic ine
ab teilung
Ġcon cept
hÃ¶r de
Ġpre c
Ġcour t
wor ks
D AP
Ġa f
Ġa im
Ġs av
ĠRÃ¼ck kehr
Ġunderstand ing
Ġgelegen en
k at
r ik
u ters
ĠM om
ten ance
ĠH ell
ĠW ho
Th ese
Ġbek annte
Ġgemeins amen
stÃ¼ck e
ĠF alls
em ann
Ġsch eint
ĠAb itur
ous ly
Ġw issen
ĠL abor
ĠV ie
iz eit
Ġ4 1
Ġ4 6
Ġgo als
Ġbeg onnen
ĠAnd roid
Ġdefin itely
Ġdien en
** **
Ġgeg rÃ¼ndeten
J uni
k Ã¼rz
y ed
z iger
Ġm ap
ĠF inal
ĠG Ã¤ste
Ġc ards
ĠStre cken
Ġresp ect
inc ip
j an
ol is
ber eitung
od urch
ĠGer icht
ĠQu elle
augh ter
e ur
Ä ĥ
ĠT able
Ġe yes
aus stellung
ĠMa ur
ĠEx empl
bahn hof
f els
j en
Ġw rong
Ġl ack
ĠEr ich
ues day
Ġgu ests
ĠEd ward
Ġelekt ron
A ut
Ġm ission
Ġhe ard
atur ing
erv ice
ĠBahn strecke
Ġexist ing
Ġzwe imal
ĠSchla f
C C
b liche
ein anders
de burg
ĠH arr
ĠW ohl
ĠVer antwort
ĠzurÃ¼ck ge
arb on
Ġsupp ly
Ġbring t
ĠZug ang
ĠErw eiter
ĠLex ikon
k ur
Ġf ans
ĠA gr
ĠN ahr
anz ig
Ġfin ally
Ġpower ful
Ġcorre ct
R O
u v
ĠR Ã¶m
ĠMo dern
stÃ¤nd en
Ġ189 9
part ner
Ġland wirtschaft
ĠWed nesday
achus etts
Ġw odurch
sch uhe
ĠAus nahme
ĠPre uÃŁ
ĠLin ien
Ġhistor ische
Film ografie
Ġmein er
B et
k ow
u ern
Ġ !
Ġb ill
Ġev alu
por ation
National mannschaft
Ġde ad
Ġsp richt
Ġall gemein
schn itts
ĠMicro soft
F unktion
el f
ion e
ĠK Ã¼nst
ĠL en
ĠAn y
ĠThe ologie
Ġsch af
rÃ¤ gen
fol gt
Ġover all
Ġacc ur
Unter nehmen
ĠTÃ¼b ingen
l ings
ĠH as
iert es
fÃ¼ gt
ĠMon aten
ĠSicher heits
Ġbeginn ing
Ġstruct ure
V ol
ar ia
ol en
ĠT ax
ic ing
ĠHe ft
ĠMa jor
gesch lagen
ĠTra in
ĠAlex and
B Ã¼rger
b lichen
om er
ĠR oh
ĠU kra
sen z
let te
Ġra ce
ĠjÃ¼d ischen
D igital
z in
Ġw ants
ĠF inn
ra ted
ĠEr satz
ĠFÃ¼r sten
Ġbeaut y
ĠComm ission
K irchen
u um
Ġw inter
ĠS ir
Ã¤ ure
Ġp aid
ach tet
ĠOb wohl
ĠWir ken
Ġfriend ly
ĠCam bridge
J e
ĠD iffer
Ġc old
ĠK amer
ĠVer anstaltungen
Ã¶ff nung
Ġprote ction
Ġmeas ure
ĠBenutz er
Ġb row
ĠL ow
ug u
ap h
ĠUn fall
onn a
min ton
ĠVerlag s
Ġbro ught
ĠMc C
M o
ĠR uf
Ġge eignet
Ġver ur
ĠOr den
Ġ4 9
Ġpar allel
ĠnÃ¤ch ste
ĠErfahr ung
G u
y ball
ie b
ĠM isch
Ġz er
Ġim press
ĠAutom obil
Ġnomin iert
Ã¤ st
sp ann
Ġgu ys
ĠPl us
Ber g
Ġkathol ischen
r ast
or ph
Ġm iddle
Ġc ash
ĠR on
ĠL ook
Ġe igent
Ġviel leicht
ĠÃ¶ffent liche
Ġoffiziel l
Ġemploye es
ĠOh io
N ov
l it
ĠA achen
ĠB lo
ĠM id
Ġdem and
iz z
Ġwas n
Ġco ffee
ĠWelt meisterschaft
Ġhel fen
ĠMich el
Ġpie ces
ylvan ia
m aterial
in ted
ĠD ok
Ġr ich
ĠPr esse
Ġfeel ing
Ġwall paper
ĠG olf
ĠC ook
ce an
se kretÃ¤r
ĠEin richtungen
âĢĿ ,
ĠAug sburg
omb in
ĠFo otball
ĠRath aus
ĠBarbar a
ĠD ialog
Ġn utz
Ġh a
ĠMe cklenburg
ons erv
Ġho her
ĠInd ien
Ġinc red
Ġentsprechen de
Ġrespons ible
Stra ÃŁe
Ġphil osoph
Ġin kl
ĠT el
ĠH ot
ĠAuf ent
ĠPf lege
Ġunterschied liche
C S
c are
m ie
ĠB our
Ġn ar
ĠG h
Ġle it
oren z
ĠgroÃŁ es
Ġstud ies
mar sch
ĠPublik um
k onstru
ĠH ig
fÃ¼hr te
Ġserv e
Ġpre vent
Ġhelp ing
ĠWohn ung
ĠHers tellung
ĠBek annt
Ġestabl ished
D I
Ġs y
re in
ing ly
ol ogen
ĠL am
Ġver legt
ĠSp itz
ĠGe walt
R Ã¶m
ĠD adurch
ĠL or
ĠL Ã¶sung
ss on
amil ien
ĠGener ation
ĠBen ed
ĠJo e
Ġsing les
Ġbras ilian
J ahre
Ġw ert
ĠP anzer
Ġzu geordnet
ĠIn fanter
ell i
Ġeben da
ĠSan kt
ĠAmster dam
ir at
Ġer le
Ġst ates
Ġex press
hÃ¶r igen
reg ion
gestell ten
Ġdise ase
P latz
Ġne arly
ĠJe ff
Ġfac ilities
ĠWoiwod schaft
ĠF igur
ĠE ugen
Ġge ist
Ġexp and
Ġeconom ic
Ġwes entlich
i y
Ġf an
et ze
Ġver kehr
ste dt
ĠPro ject
ond e
burg h
Al le
Te chn
Ġbud get
S k
Ġ Ã¶stlichen
Ã¼ nde
ĠP in
ĠK art
ĠLe arn
ĠAd el
W erk
t ur
en gl
ĠP ac
ĠL ED
ir ing
ia ge
eins am
bes itz
ĠJe w
Ġappro x
Ġpop ul
ĠKommun al
Ġcap ital
ĠFrei heit
Ġmean ing
f assen
ĠS ud
ier er
In s
Ġbas is
Ġstra ight
Ġjob s
ĠInn sbruck
ĠRund funk
okomot iven
w ise
Ġit em
Ġdurch schnitt
Ġsec ure
ino is
Ġur kund
Ġcomple ted
prÃ¼ ft
ĠbenÃ¶t igt
4 00
Ġs hel
re uz
st rom
aus gabe
ov en
act ive
ĠInter essen
hol m
ĠBro ok
Ġnational en
bere cht
> <
D an
ch o
ie fen
Ġs ituation
ĠD ata
Ġg ave
Ġad vent
Ġcont ains
Ġacc ommod
grÃ¼nd er
iate ilnehmer
!! !
P ort
z ern
is piele
ĠBer icht
t lich
ĠL as
Ġer fahren
Ġr ights
Ġex cept
Ġ4 7
ĠTr ib
ĠForm el
ĠSchwer punkt
ĠInde x
as ien
Ġn amed
ĠK up
land es
Ġ5 2
ĠWelt krieges
Ġwel come
Ġsol id
Jahr en
ĠCD U
Ġfab ric
t rue
w uchs
Ġf Ã¤llt
Ġo st
ĠL abel
ĠEr schein
zen e
tet t
arbeit ete
L E
or ien
if er
ond eren
Ġbet rieb
Ġed ition
Ġpass ion
Ġbeh av
ĠFeuer wehr
fÃ¤h igkeit
Ġeffic ient
ĠColumb ia
L A
or fen
Ġw ine
ĠAn frage
cl ient
Ġfin ished
Ġdis k
Ġexp lor
reg isseur
Ġkur zen
M ax
e hm
i Ã³n
es is
ĠS ender
Ġm is
ĠC ustom
Ġth ank
Ġim ag
Ġbet rach
Ġ189 6
Ġsub s
ĠWieder auf
ĠBron z
ĠWeihn achts
Ġaustr al
Ġin f
Ã¶ ÃŁen
ist ischer
Ġal ter
Ġj ud
Ġvor bei
ĠSong s
Ī Ĵ
ĠT rieb
ĠSte phan
ĠGeb urts
wend ungen
Ġunterst Ã¼tzen
u an
Ġb itte
Ġfor mat
ĠLand tag
gesch oss
Ġrelig i
ĠInstr ument
g ory
u ellen
Ġf ather
Ġer laubt
ĠSp ielt
In stitut
Ġbest ritt
ais er
Ġpre fer
rÃ¤n kt
Ã¤m lich
Ġnahe zu
Ġchallen ge
Ġbott om
L C
P art
Ġc ast
wer den
St ud
ĠOff izier
ĠSk y
ĠJust iz
ĠGest altung
in ks
Ġl isted
Ġge plant
est yle
ĠAn lagen
be zogen
Ver b
ĠPf ar
im p
ĠSch ritt
ĠPro te
ĠQu adrat
ĠSc iences
s ichts
ein heit
ĠP red
ver anstaltung
ĠAuf lÃ¶sung
ĠIns eln
Ġzust Ã¤ndig
ĠFernse hen
ĠÃ¼br igen
F ried
Ġb ot
ĠB art
ist ant
ad ing
Ġre li
Ã¤r m
Ġcol ors
er ien
Ġ15 00
Ġprodu ced
Ġreg ional
Ġausge fÃ¼hrt
Ġvis itor
Ġple as
Ġ @
ĠL ittle
ĠN ick
ĠO scar
Ġunter en
gr iffe
Ġeas ier
Ġdeter min
s ylvania
v orsitzen
Ð º
er em
al tete
ĠD etails
ĠD issertation
ĠT ay
ĠN ar
ĠBe wohner
ĠOr der
ĠSchn eider
ĠZahl en
ĠAktiv itÃ¤ten
Ġregard ing
F ranz
K rit
l ar
z usammen
ĠK urs
ĠR ab
ĠĊ Ġ
ĠVer st
ht t
ĠÃ¼ber haupt
Ġ189 7
Ġtechn ical
ĠGrÃ¼nd ungs
Ġsp ent
Ġmoder ne
Ġmot iv
ĠÃĦgyp ten
v ard
ĠB it
ĠC lin
Ġsch ied
Ġsh own
bach er
ĠDan eben
umen ten
ĠBesitz er
mitt lung
k ultur
de gang
ĠR umÃ¤n
ĠJ ed
Ã¶s ungen
ĠBereich en
sta aten
Ä «
ĠR ollen
ĠBe ob
ĠEin richtung
fen ster
Ġbes itzen
ĠPar ameter
ĠGra d
Ġbene fit
Ġhig hl
ĠMatth ias
m ag
al ed
ĠP ots
ĠL ate
Ġwh ose
Ġverb ess
ĠHoch zeit
Ġprofession als
3 00
W il
h aben
Ã ł
È Ļ
it ness
Ġb ur
ĠF iguren
ru p
ip end
Ġange legt
weil er
aka dem
Ġswe et
B ad
S A
Ġan gesehen
iv ision
ĠZ oll
ub il
ĠWe il
ĠAfr ika
Ġge kommen
her ren
teil ungen
Ġad vanced
Ġprodu ce
Ġdire ctor
Ġdiffer ence
ĠTÃ¶ch ter
C ar
Ġb la
ĠL ot
Ġen h
ĠHaus es
ÃŃ a
ĠBrÃ¼ der
ĠWeit eren
M B
z esse
ro ugh
Ã¶ z
ers ey
ĠVer dienst
ust ain
ĠDe ck
Ġet abl
Ġber ichtet
ĠOp ern
ĠJack son
c ar
d auer
Ġ ign
en ken
Ġthe me
ĠH erkunft
ĠSch on
Ġgra de
ĠKomp osition
Ġcover ed
Ġrad io
Ġs agen
Ġs agt
Ġh il
ĠT uesday
id el
ĠVer letz
Ġ18 48
Ġcon stant
Ã¤nd ige
zeit ung
Ġmethod s
p osition
ĠS tellung
Ġb lieben
Ġc ars
ad y
we ist
ĠAn spruch
Ã¤hr ung
Ġsele ct
Ġturn ed
schlÃ¤ ge
o ben
Ġs ets
ĠL ibrary
ĠN avy
fin ition
Ġbro ad
Ã¤dag oge
ĠNeub au
Eis hockeyspieler
ĠSonn tag
Ġthous ands
Ġt ransp
ĠE ind
Ġunter sch
olog ischer
ĠGrÃ¼nd er
Ġinnov ative
ĠS ens
al is
ĠD ank
am i
im ens
ĠL etz
Ã¤nd igen
fÃ¼hr ten
ĠSchl uss
l ation
ĠP os
ĠF ant
ra p
Ġent steht
Ġste ps
ĠFahr er
ĠPer form
ĠSÃ¤nger in
Ġren ov
H aus
f alt
ĠB res
ĠL ist
Ã¶ tet
Ġl it
ĠV el
Ġun er
ĠFran ken
Ã¤mp fer
zÃ¤hl ung
Ges ellschaft
w all
an th
Ġf elt
ĠM assen
Ġ20 22
ies e
Ġcan cer
ĠJuni oren
Arch ite
Ġassoci ated
! )
Ġh ospital
ĠBau werk
r ix
t aus
al ity
de cken
ĠW en
ĠBe ziehung
ied elt
ĠGren zen
produ ktion
O ff
p ost
ar ina
ĠA N
ĠB Ã¤nde
Ġn Ã¤mlich
ĠF Ã¤llen
Ġan schlieÃŁ
ann en
Ġhe avy
ĠBe am
Ġhand le
ĠWei ÃŁen
ĠFil me
ĠOrd nung
kurren z
Ġimmediate ly
N ot
r in
â Ĥ¬
re hens
ĠR ett
os is
id ung
Ġ18 50
Ġprote ct
ĠKommun ikation
ĠAnton io
L ist
k Ã¼nd
y ment
al o
ĠV ari
ĠO ster
Ġre icht
ate gory
Ġut il
in ary
ĠM ake
Ġbe yond
ĠSt rand
ip es
ĠPro fil
ator ium
Ġopen ing
k ins
it ag
ĠP ian
im ents
Ã¶ se
Ġj ur
ĠSp iegel
iz ien
rom e
Ġvor ge
Ġreg istr
Ġsur face
ĠjÃ¼n ger
n ing
ĠB latt
um a
ag ra
Ã¶r ungen
Ġtra ffic
trag ung
leg ant
Ġextrem ely
ch ip
ĠA M
ĠG ang
ĠRe is
ĠAn h
ĠDie ter
Ã¤r ung
ĠEnt wurf
icher heit
Ġcommun ication
Ġstra tegy
ol ar
ĠF un
iv als
Ġcon ference
dem okrat
gesch windigkeit
Ġdi agn
ĠZusch auer
B ere
K o
u ct
Ġm il
ĠP M
ĠOr ch
Ġsh ape
Ġac adem
ĠM ap
ĠT rÃ¤ger
ic ul
199 7
Ġphot ograph
ĠUntersuch ungen
Vers ion
Ġerstre ckt
S PD
ur o
Ã¤ fer
ĠT ief
Ġr ent
sp recher
ac ity
Ġen glisch
ĠEn glisch
199 8
haf ten
g ot
o ire
ĠS onne
ĠM ak
ĠE P
ic ious
ĠO ther
ĠRe view
lo ok
ĠWe ge
ĠNach richt
Ġserv ed
Ã¡ r
ĠEigen schaften
ĠMount ain
ĠUnabhÃ¤ng igkeit
M ilitÃ¤r
l ife
us band
ĠB om
ĠT en
Ġj em
Ġdar aus
ĠEng agement
ĠBed ingungen
ĠRegen sburg
ĠDipl omat
ĠÃ¤lt este
G o
H T
b rand
Ã¼ gt
ĠB os
ĠM ath
Ġp df
ad i
Ġkann st
Ġeinz igen
Te xt
Ġaufge fÃ¼hrt
Ġsele cted
Ġconne ct
Olymp iateilnehmer
W ert
m ack
er ei
Ġf uck
Ġp ot
em it
ĠAn trag
ĠNe use
ans as
ĠGes ang
ĠKont rolle
Ġsay ing
Ġa ward
le hre
ĠM Ã¶n
ĠK ent
ĠJ a
Ġde te
ĠRe port
esch oss
Ġber uf
ĠSh op
ĠUr laub
Ġd ish
ĠW aren
Ġverschieden er
ĠerklÃ¤r te
ĠMaÃŁ nahmen
Ġzunehmen d
ĠSeb astian
R el
W irtschaft
k u
Ã ľ
ch or
Ġf allen
ĠM ig
ent um
ĠEr ste
Ġmay be
in us
Ġt ruck
Ġm icro
de hn
Ġun ge
ĠFl Ã¤chen
Ġdr ink
ĠIhre m
ĠTÃ¼rk ei
ĠIngen ieur
k es
ĠP ow
ĠK assel
ĠR ub
ĠSt ory
ail s
ĠMar burg
ĠMan y
gangen heit
Ġtats Ã¤chlich
B est
l ist
ĠD rag
ĠP u
ĠT wo
ll en
ste igen
Ġbesch reibt
schei det
as tern
ĠB ert
ĠF Ã¤h
em burg
ĠC it
ĠSt ab
Ġver geben
Ġart ists
unds Ã¤tz
ĠTab elle
Ġachie ve
ung er
Ġver urs
Ġzw eiter
ĠLei den
m or
ich ert
Ġf amous
Ġh ers
ir urg
rÃ¼ cke
Ġ18 60
urop a
ĠStra ÃŁ
Ġange gebenen
Ġeigen es
Ġeinz ig
Ġdr iving
bl ing
Ġ189 5
ennt nisse
Ġunterschied lich
ĠInn ov
aill en
I R
Ġs uffer
ot ional
ild ing
Re chts
Ġ/ >
esent lichen
Ġchange d
Ġport ugies
ĠArn old
V al
c raft
ĠS her
Ġb ayer
ro nd
ent ur
Ġsch reiben
Ph one
ĠAbgeord neten
Ġdig it
ĠDah er
k amp
Å Ħ
ĠM auer
ĠK lassen
ĠK redit
ĠPro jekte
ĠNational mannschaft
Ġuse ful
mus iker
Ġkon zentr
obil ien
ĠÃ¤ uÃŁ
Ġpresen ted
re te
st ad
Ġg ather
Ġbes etzt
ĠGr amm
pro fess
ĠEnt fern
Ġappro priate
ĠCas ino
Ġnumer ous
ĠS om
st al
ĠH um
ann ed
Ġr ules
20 20
ĠCon ference
ĠChin ese
K irche
r amm
is tet
Ġm aÃŁ
ĠM Ã¤r
ver eins
ver zeichnis
ĠLe hre
ĠFre ist
ĠGew icht
Frank reich
f ue
ĠE arth
ĠSp orts
akt oren
Ġ187 1
fre und
Ġhoch wert
or ia
Ġbe grenz
ag ers
Ġbes onder
Ġtre ffen
Ġatt ach
ĠPlat ten
h ar
y o
ĠS yr
ĠF arm
ĠO d
Ġfor get
Ġpro ced
end o
ĠWe ber
ĠIS O
zie ht
Ġvisit ors
S a
r uss
w Ã¤l
Ġh Ã¤tten
im ir
ĠIn frastruktur
Ġbis lang
ĠBundes ver
ĠMann schafts
onen ten
bie ter
F B
ĠN Y
ĠAr men
ĠLand schaft
bur y
ĠBook s
plat te
Ġw achsen
ĠS oph
ĠW ord
ĠL td
Ġal bum
Ġge plan
ard o
ĠAr ray
Ġele ment
Ġinst r
Ġmult i
ĠInstit ution
wirk ungen
E lement
d rÃ¼ck
m otor
Ġd ein
Ġw eder
ĠG uts
ĠU fer
if ying
ag a
ap ers
rat is
olog isch
ĠSchn ell
ĠB ier
ĠH T
ĠJ im
ĠZ y
Ġfor ms
ĠSp an
ĠSp itzen
oc ol
unter richt
ournal ist
ĠursprÃ¼n glichen
ĠUkra ine
f al
w ord
al em
un Ã¤chst
rÃ¼ st
Ġunter halb
ĠTer ror
ĠGemein der
Ġrele vant
ĠBach elor
ĠNet work
D aten
F rom
W el
n oten
Ġk new
Ã¼r zt
Ġe arlier
ĠHe ktar
fahr zeug
Ġpe ace
ĠMon te
199 4
akadem ie
8 00
n i
ĠA le
ĠU t
ĠThe orie
ĠEin sch
ĠKomb ination
ĠI ts
eb urg
sen de
je kts
ĠFl ucht
Ġcol our
Ġnor weg
F alls
b on
k urs
ĠK im
ĠE conom
sen s
Ġ5 1
Ġbes aÃŁ
ĠFre izeit
ĠLin ks
ĠWahl kreis
Ġredu ce
Ġeinzel ne
Ġocc ur
l Ã¤nge
Ã¼r en
ĠAm ateur
ĠMy th
ĠrÃ¶m ischen
d is
Ġe at
Ġsp rechen
ĠSp itze
ĠAir port
ĠErw achsen
Ġcontra ct
re h
Ġb ess
ing ham
im ension
Ġe he
ĠSt ill
la ted
Ġtra f
Ġ189 1
Ġitalien ische
ĠArm y
Ġjapan ischen
T er
m ess
it ors
Ġn ennt
ĠR io
ist rÃ¤ger
ĠAs ien
ĠTer rit
ĠR ose
isch Ã¶
ik as
ann i
so ap
setz te
Ġmon itor
wor th
ar ed
Ġf ish
ĠH Ã¶ch
ed ig
Ġpro ud
ĠGe gner
Ã¼n fte
Ġtr ust
199 0
199 6
kon om
ĠGraf schaft
ĠKal ifornien
z z
Ġf ill
ol as
Ġab ger
Ġum geben
ĠNe um
ĠGegen wart
ĠPass ag
Ġrestaur ant
Ġnied r
Ġol der
Ġil leg
h art
t yp
ĠM u
ro ad
Ġk o
Ġun gefÃ¤hr
Ġse ven
eben e
Ġsur v
Ġengl ischer
b ell
is her
Ã¼ p
ĠF Ã¼nf
ĠN un
ĠJ enn
fe ct
Ã³ w
ĠPortug al
Ġs Ã¤m
ĠE sp
Ã¶ ck
Ġst Ã¤dt
ial s
Ġsc en
Ġstate ment
Ġruss ischer
Ġstre et
ĠFrie dens
Ġcompet ition
b al
an ia
el ess
ĠM ord
ig ar
ĠW Ã¼rttemberg
all iga
ĠNe ust
Ġro of
gest altung
Ġmov ed
zÃ¼ glich
J ohn
S ep
el en
im o
Ġer zeugt
ste uer
Ġj ourney
Ġsch rif
rÃ¤ cht
ĠCon ne
ĠKÃ¼ che
Ġbisher igen
Ġparticular ly
ĠKranken haus
T H
ie m
ol es
ĠC anad
ies s
rÃ¤ ft
Ġ8 5
ĠDem oc
Ġerinn ert
R uss
k Ã¶rper
v i
in ischen
Ġs amm
ol and
Ġer lang
In ternational
ĠBl ues
ĠPort rÃ¤t
Ġentwick eln
Ġnumber s
Ġdenn och
ĠSchriftsteller in
ĠFer ien
Ġbedeuten d
O st
he il
ro h
ĠF air
Ġauf gebaut
Ġschw ier
Ġgu y
ĠKÃ¼n ste
P l
Ã Ĺ
ch i
ĠV ideos
Ġum fass
stell te
grÃ¼nd ung
aj a
Ġincre ased
bour ne
Ehemal ige
chip karte
g s
w ater
y c
ĠW urz
ĠV iet
ĠSch ach
ĠBe weg
Ġbes onderen
Ġbeg innen
Ġgemeins ame
Ġcertain ly
Ġaltern ative
Ġdeutschsprach igen
er ung
Ġs ucht
le ute
ĠB och
Ġc entral
for scher
Ġco unter
ĠPf ad
Ġsm ooth
Ġstand ards
ĠKr ist
Ġverhinder n
J ust
u i
Ġ ?
Ġw rote
st aben
ĠE arl
ĠSt imme
ĠÃ¼ber nehmen
ĠSouth ern
ĠAustr alian
usÃ¤tz lich
b ad
f ranzÃ¶s
as p
im er
ber n
Ġre asons
iel le
be am
Ġexper ts
Ġeven ing
ĠTw itter
ch ern
ĠT oten
ra uf
ĠH em
end el
qu est
ile y
ĠVor stand
Ġstark en
Ġwissenschaft lichen
Ġwissenschaft liche
Ġmittel alter
Ġbenach bar
H ere
Ġs ession
Ġin fo
ĠSt urm
pp ing
ĠVer gangenheit
ate ver
Ġman chmal
ĠStÃ¤d ten
Ġpack age
Ġcas ino
ĠAtt rib
it at
ess ions
ĠRe v
ĠSte ve
ĠKÃ¼ sten
ĠMass achusetts
Ġchallen ges
, ,
S yn
Ġa wesome
ĠA L
Ġn ut
ĠAuf nahmen
Ge w
ĠBÃ¼ hne
Hand lung
C onstants
H ein
S pieler
S pe
Ġa ren
ĠM ir
ĠR al
ic ans
ĠSt ol
Ġsp ring
Ġres olution
Ġzusammen ge
h as
ĠT aschen
ver l
ĠGe fahr
gesch Ã¤ft
Ġinter ior
ĠMan fred
An merkungen
Ġfind ing
ĠÃ¶sterreich ische
Ġerr ichtete
M ill
e ch
Ã¤ b
ĠL oc
ĠN a
ĠSp eicher
Ġ5 6
bo den
ĠGroÃŁ herzog
Ġrelations hips
m aschinen
Ġa head
ro d
ĠC ru
Ġaus reich
Ġam t
Ġqu ant
fÃ¼hr ungen
Ġ189 3
ĠTor onto
Ġwind ow
Ġgeg rÃ¼ndete
ĠBesatz ungs
Ġve get
v ater
us en
Ġf ahren
Ġein geb
Ã¶ tz
ĠO R
id den
ĠSp ace
ack er
Ġfl ow
ĠGed anken
ĠSym bol
. ).
A F
ĠM P
ĠH ess
Ġer zÃ¤hlt
ÃŁ ig
ĠFor ce
yste men
Ġseit dem
Ġrequ ires
ĠDo ug
ĠSchl Ã¼ssel
re me
el ine
ĠV og
tel n
ĠLe ute
Ġen able
ĠMed ical
ĠVerein igung
umm ern
ĠSchiff s
far ben
Ġal though
ĠIn t
Ġsh ot
Ġw ebs
st ock
ent lichen
Ġad just
yn ast
Ġbel g
Ġinvest ig
Ġcharac ters
ĠGal ax
Ġgre ater
ĠKarls ruhe
Q L
x x
ĠK affe
Ġl ab
Ġauf gestellt
men d
ob el
Ġman age
sh ire
ĠInternational e
Ġexc iting
Ġmain tenance
fa ult
ĠDenkmal schutz
n s
ar es
re gel
Ġb ag
Ġein schlieÃŁlich
ĠK il
ĠH ugo
Ġre chte
ĠZ ul
Ġun its
qu ent
oll ten
stell ig
Ġgew Ã¤hr
Ġland sc
Ġclass es
ĠGef Ã¤ngnis
Ġprim ary
Ġd rop
or ff
an ie
ĠS ul
ĠK ost
ĠV I
ĠUnivers itÃ¤ten
acht ung
ĠBra un
Ġhim self
Ġsozial en
plat ten
Ġvo ice
O W
Ġge e
Ġmit einander
ĠVer anstaltung
alt y
Ġres idents
cl ub
ĠLÃ¼ beck
ĠKurfÃ¼r st
ĠD atum
Ġn Ã¶t
ĠR ap
ĠZ ivil
ĠSch e
Ġon to
ĠRe de
Ġcom ments
ast rop
Ġent schied
ĠAb t
mit glieder
Ġdam age
ĠStud ies
Ġdr iver
Ġspiel ten
Ġgest altet
Ġnotwend ig
H S
h op
Ġc overs
Ġzu g
art igen
ĠFre ien
part ments
ĠMag deburg
ĠAfr ican
Ġw ire
ĠReg ionen
Ġsc ene
ĠDon au
Ġtalk ing
hers teller
Ġd ank
Ġw under
ĠD Ã¤nemark
Ġl auf
Ġis land
Ġzum indest
ĠSchw ier
Ġ189 2
Ġtechn ischen
Ġklein ere
e f
w ing
Ġa uÃŁen
Ġf at
ĠE mer
ĠOff ic
Ġconne ction
ĠMehr heit
Ġoffiziel len
ĠEntwick lungs
ur ers
Ġus w
fol gen
Ġup load
Ġsur pr
EM ail
us sen
Ġh usband
ĠH av
Ġst yl
iz er
ĠSe en
ĠNe ur
Ġ5 4
hÃ¶r ige
man agement
ĠMann heim
Ġteil s
ĠgrÃ¶ÃŁ er
rech ung
upp en
ĠKÃ¶l ner
ĠInstitut s
Ġverst arb
ĠunabhÃ¤ng ig
J apan
st Ã¤d
ĠC ond
ĠIn sp
ial e
ac c
Th at
Ġgr und
ĠInd ivid
Ġersch einen
Date i
r um
ĠC ur
fol genden
ĠGesch ichten
Ã¤nder te
Ġ187 9
ziehungs weise
M art
o ter
Ã¶ ten
ĠN az
os lowak
men ten
ran ch
Ġapp l
ĠFe hl
ĠWil son
hÃ¤lt nisse
ĠAmts zeit
Ġt ag
ĠS yd
Ġn Ã¤her
Ġsch affen
ign ed
Wh ile
ĠkÃ¶nn ten
ĠPrinz ip
Ġexpl ore
Ġneigh bor
p an
Ġs ter
ig o
Ġg ran
wer ben
ĠBundes staat
Ġbas iert
Ġpoln ischen
ut ing
ĠH Ã¤
ĠZ erst
ĠAr g
ĠSe kunden
Ġletz ter
Ġresp ond
Ã¤mp fe
mod ell
e v
k la
Ġv ision
Ġn ames
ers dorf
ĠVer tra
Ġsp read
ĠGem Ã¤lde
leg entlich
Ġdevelop ing
Ġlov ely
Ġklass ischen
Ġteach ing
ĠBestand teil
ĠflieÃŁ t
mÃ¶glichkeit en
k ern
ĠB le
ĠM d
ĠK alk
ĠO der
ĠAn wesen
ĠNor wegen
Ġlook ed
por ts
Ġfre ien
ĠSchn itt
Ġleader s
wirk ung
G en
M Ã¤rz
N or
T od
p et
Ġe arth
ĠSch uhe
we ich
Ġsp anischen
ack en
Ġget rennt
spieler in
Ġange hÃ¶r
iqu id
Ġpropert ies
cel ona
dire ktor
I F
Ð »
or ient
re ck
âĢ ¢
ĠH yp
ĠW ales
Ġden k
Ġr at
ĠÃ ł
out s
Einz el
Ġbeen det
Ġhelp ed
ĠMet al
Ġ188 9
Ġser ver
Ġvert rat
fÃ¶rder ung
b ein
ĠD ial
Ġc e
ĠH rsg
Ġan genommen
ik es
ĠIn halte
Ġvor aus
Ã¼ck en
ock en
ĠBo ot
ĠMod elle
ĠmÃ¶glich st
ĠPlan ung
deck ung
Ġpres ident
Ġdist ance
ungsp ro
E W
n itten
ĠJ ord
ograph ic
Ġpol y
Ġdre am
ĠSec urity
T our
p ra
Ġh aven
ĠT y
ĠG att
Ã¼t ze
ĠMark e
Ġvis ual
wor ten
Ber eits
ĠChampions hip
T ube
k ar
it arr
ĠK eller
ĠSe le
fin der
alen der
Ġfo otball
Ġda ÃŁ
Ġac qu
Ġerw orben
Ġtechn iques
Ġbr ight
ĠSec ret
ĠEngine ering
ĠtÃ¤ glich
ĠBronz emed
h Ã¤ndler
ĠM Ã¼hl
ĠP oint
ĠF ore
ĠC ro
ug os
ĠMit gliedern
ĠBes etzung
Ġche ap
jahr es
ĠPap ier
ĠHor st
Ġlar ger
ĠbestÃ¤t igt
k as
n ieder
ĠAnd rÃ©
cy cl
ĠMark en
Ġbelie bt
Ġsepar ate
Ġgriech ischen
rehens ive
J ose
P lease
t own
st ift
Ġl iber
ow itsch
ien cy
art ig
ac ing
ĠGesch ichts
Ġob serv
Ġverb indet
ĠRu h
Ġpay ment
Ġwa iting
ĠjÃ¼n g
Ġindustr ial
Zw ischen
F ahr
H ome
l ight
age l
ild es
old ing
ĠBes ter
Ġadd ing
Ġstark e
verband es
ĠTab ellen
ĠVerÃ¶ffentlich ungen
Ġcele bra
ĠRestaur ant
ĠSchlag zeug
Ġbehand elt
ĠP ir
ol er
Ġh ast
Ġbe ziehungsweise
af e
ĠWe gen
Ã¤l le
ĠWelt cup
ĠCl ick
Ġpriv aten
ĠGott fried
prÃ¼ fung
ĠpreuÃŁ ischen
ĠRost ock
m auer
Ġs up
ĠB em
ĠAl k
ĠAus einanders
ĠMar i
stra ÃŁen
ĠTra g
ĠFrank furter
Ġpat ient
Ġbig gest
ĠpersÃ¶n lichen
Ġverpflich tet
Ġadvant age
ĠL inz
ic ians
Ġre v
ĠSch ott
Ġver fasste
Ġbu ying
ĠGrund stÃ¼ck
jÃ¤hr iger
ĠTem plate
ĠMail and
ĠCost a
Sep tember
P eter
Â ´
Ġm einen
ĠC S
ab ilities
Ġver gangenen
Ã¤t t
ord net
St affel
ĠSte phen
ĠMÃ¼n chner
Ġ188 8
stre cken
Ġant i
ĠÃ¤lter en
ĠGlo cken
Ġbetrach tet
k ommand
w Ã¤hnung
ĠT ake
ut ch
Ã¶r g
ho u
zen ten
ĠEing abe
Ġstat us
z ert
â Ħ
Ġ Ã¶rt
st ar
ĠE xt
ĠN ote
ĠAn forderungen
ĠÃ¼ber setzt
ĠCo ver
Ġsel ber
Ġinter pret
Ġgr undsÃ¤tz
ĠKÃ¶nig in
ĠOff en
ĠBur gen
ĠEing ang
bÃ¼rger meister
Ġfant astic
Ġorganiz ations
F amilie
b Ã¼t
p ommern
ĠS or
Ġum ge
Ġsh ip
St iftung
olle yball
ipp s
Ġdr amat
Ġlo an
ĠPenn sylvania
RÃ¶m isch
E nd
c os
ĠP ul
ĠK Ã¶r
ĠK ohl
sch uld
Ġver n
Ġaus ger
ĠCh am
ĠFran Ã§
ĠĠĠĠ Ġ
kauf t
Ġfollow ed
Dies er
Ġautomat isch
Ġbezeich nete
ĠT ats
ĠJ ava
ĠAus zeichnung
Ġ5 3
Ġres erv
Ġges ellschaft
Ġbesch Ã¤d
199 2
ĠMag n
Ġwicht igen
Ġsen ior
ĠAre a
l ach
p ool
in u
ĠG all
ers te
Ġver Ã¤ndert
ĠSp recher
gel s
Ġexper iences
legen heit
ĠTod ay
ĠerhÃ¶ ht
Ġcrit ical
ĠT ot
ĠSt ift
ĠBer nd
ĠWe iss
199 5
Ã¨ s
Ġerm Ã¶glichen
ĠSyn chron
ĠGef angen
ĠZwe ck
k op
k Ã¼ste
ĠM aschine
Ġp air
and e
ĠV ul
est ic
ĠIn g
ind ungs
ib e
Ġeinge tragen
ĠTele fon
besch reibung
v ollen
Ġc it
ĠJ ungen
Er gebnisse
ĠTra um
ĠCount ry
Ġrep rÃ¤sent
Ġlim it
ĠGesund heits
B uch
O per
z ell
ĠS ei
iv a
rÃ¼ ckt
lie f
Ġex ter
Ġnot ice
Ġsh aring
wer ten
Ġbo ught
Te il
Ġep is
ĠDipl om
feren ces
Ġgren zt
z unehmen
Â ³
ĠD J
st amm
ĠT ode
ĠT ony
ĠW ik
Ġum fasste
inz ip
Ġqu er
ĠHol lywood
Ġhinz uge
Ġupd ated
Ġgelegen e
A B
Ġs elling
ĠG il
schaf fen
Ġsp Ã¤ten
Ġsch reibt
ĠMet rop
ĠLeichtathlet ik
. /
z um
ĠA ction
ĠT ob
ĠU RL
auf tra
Ġte acher
Ġdo ub
ĠCo ast
ĠWelt meister
ĠStud ie
Ġschw eren
Ġtest ing
ĠAth en
ĠGebie ts
ĠUntersuch ung
ĠHeer es
c ient
i op
ie ten
ĠH agen
ĠR oth
Ġvor wiegend
ĠOr ten
ĠGesch windigkeit
Ġ189 4
med izin
ĠAlb recht
ĠBro ad
Ġverst orben
Con tent
ĠSzen e
C ol
F r
H inter
r asch
te am
ĠV Ã¶lker
ĠLe o
aut hor
ĠBundes wehr
Ġcor ner
Ġtre ten
Ġkathol ische
ĠRelig ion
b ay
Ġt rifft
ent hal
ass au
ib l
Ġte en
Ġqu arter
Ġbet roffen
Ġwel chem
Ġra p
Ġakt iven
Ġfl ight
produ zent
ĠMad rid
verkehr s
Ġverkauf te
ĠVen edig
ĠJos Ã©
N ow
S ein
c an
h Ã¼ter
p aar
ĠB io
st one
Ġc atch
ed om
Ġe ight
ĠEin heiten
In sel
Ġoff izielle
Ġav oid
bed ingt
ĠprÃ¤sent iert
ĠVictor ia
renn fahrer
Ġwebs ites
M P
Ġb illion
ĠE qu
ap ed
sw ald
ĠAlt ar
Land kreis
ĠViel zahl
ĠWag ner
âĦ ¢
A pril
S he
V I
ļ Ń
ĠS ince
ro ph
Ġi Phone
ĠBe hÃ¶rden
iss es
Ġper man
Ġpla ced
ĠRo ute
Ġrem ain
Ġinstall ation
ĠBist um
R o
re ht
ĠL em
Ġan aly
ĠU se
ĠDe leg
ĠMe chan
sk a
Ġplan ts
Ġpop ulation
Ġinde pendent
& #
k ul
ĠH ong
ĠH ospital
ĠVer n
ĠMar g
ĠMar gar
ĠVerb reitung
ĠAnt wort
Ġmov ies
ĠBesch Ã¤ft
Ġexc ited
Ġrun s
---- ----
ĠBened ikt
ĠTay lor
G et
ĠR ou
Ġer gibt
ĠHo tels
iam i
ĠmÃ¶glich erweise
Ph il
Jahrhund erts
P al
re pr
ach te
au ert
ru d
Ġ18 00
Ġcon vers
ĠkÃ¶n ne
ĠFahr t
ĠWahl en
Ġcommun ities
Ġ186 7
ĠFo od
ĠDort mund
Ġvol unte
M en
k Ã¶nig
w ith
ĠW Ã¼r
ĠC H
ĠC apt
ad ies
Ġre ag
Ġre form
Ġle gend
ĠWe ek
opp elt
setz ungen
Ġsec ret
Ġinc ome
Ġ188 5
roll er
Ġpromov iert
c onstants
or i
ar ma
ĠP ic
ĠRe fer
rÃ¼ ne
ron en
ĠKl ima
ĠEurop as
Ġpl enty
Ġaut om
Komp onist
Ġmaint ain
w s
ĠS endung
ĠM inn
Ġh Ã¶ren
Ġse a
ĠFl Ã¼cht
St re
ĠspÃ¤ter e
ĠNieder lage
Ġtrat en
ĠGebie te
r us
Ġb aute
Ġm ut
Ġm ilitary
ĠR ainer
ĠL isten
Ġbe we
Ġsh ipping
An halt
Be im
Te am
ĠGu ide
ĠKÃ¼ ste
ĠEnts tehung
Ġsatis f
w irtschafts
ie ber
Ġp ull
Ġg one
Ġauf treten
Ġknow s
gra de
Ġcould n
folg ung
Film schauspieler
Ġallow ed
Ġattem pt
c z
Ġb rief
ĠT enn
ĠK abin
gen ossen
ot ic
os ing
ĠSch aden
ph ia
ĠWerk en
199 3
.:.: .:.:
p ie
Ġf eder
ĠD og
ĠBe fehl
Ġwir ken
formation en
Ġsol chen
ĠBi ograph
Ġbestehen den
iar den
ĠIll inois
Ġerforder lich
Ġprof ile
ĠM ix
Ġp al
ungs ver
hen den
me ter
ĠBar celona
ĠBot schafter
zuf Ã¼hren
ĠMathemat ik
e ister
or p
ĠM iddle
Ġein iger
ĠF ab
Ġbe ant
ist ance
ĠJ ersey
ĠSch reib
Ġzu k
ert al
ru pt
Ġsp ect
Ġle ather
Ġcont ain
Ġop in
Ġd aughter
st at
ĠK amera
ĠR un
Ġal one
ess in
Ġunter scheiden
Ġgen ug
ix el
Ġange zeigt
Ġdort igen
Ġgef ert
ĠlÃ¤ uft
Ġbein hal
E FA
ĠB am
od ox
Ġele ments
Ġeff orts
ĠDon ald
Ġcompar ed
A cc
c ause
Ġb urn
Ġv en
ĠG a
ĠC ob
ĠN ation
ĠV f
ste ig
Ġex erc
ĠAl te
Ġkomp lex
ĠSec ond
K arl
L auf
W as
k olle
v as
in ken
ĠB arn
ĠK Ã¶n
ĠL ock
ĠSch all
ĠFor mat
ĠBo y
ĠGemeinde gebiet
ĠMo de
ester day
Ġfre uen
Ġbr ings
Ġoper ations
ĠEis hockeyspieler
a wa
v y
Ġf le
ĠH eb
and o
Ġk id
eb all
ak u
ĠBr uch
unkt ions
Ġdire ction
Ġcor porate
ĠMein ung
ĠZent imeter
Ġsoc iety
f ir
ĠB at
ab geordneter
ĠSp ur
ok er
Ġsch uf
rat ing
The y
Ã© l
Ġmein em
W ill
ĠSt unde
ĠSch uld
Ã¤r ten
utz ung
ĠPf alz
Ġbesch lossen
Ġinc or
Ġspe zial
ĠGed ichte
ĠVerm Ã¶gen
Ġanim als
Digital isat
B M
Ġf uhr
ĠP as
ol ph
Ġc alls
Ġse eing
ges prochen
ĠIm p
Ġad ult
igt es
ĠKais ers
ĠBud apest
Ġcent re
Ġsicht bar
ĠKlost ers
U p
o ir
ter m
Ġc loud
ĠTh ank
Ġbeh aup
Ġengl ische
ĠGi ov
Ġcomb ination
ĠOrganis ationen
ĠThÃ¼r ingen
M aler
g han
Ġf ear
st il
Ġein deut
Ġn am
ĠJ ena
Ġman ager
ĠGesch le
Ġ187 4
ĠEinwohner zahl
ĠGleich zeitig
K Ã¶nig
k w
ĠB R
ĠM io
ĠGra z
Ġmov ement
ĠRuss ian
Ġwatch ing
K r
ie ht
Ġt on
or row
ĠW Ã¤r
ĠJ Ã¼d
ap os
be zeichnung
ĠSie ben
ĠSe a
Ġ9 9
bau te
ĠFre d
Ġneg ative
lehn t
Ġaud ience
S ee
s ein
ĠZ iele
Ġr ental
ĠPro pert
ĠAl ters
ĠCon gress
Ġpo or
Ġ188 7
ĠzusÃ¤tz liche
ĠSpring er
vier tel
rond iss
F il
z ielt
Ġin g
ĠL ike
ic ian
ĠC ert
ĠN ag
ik ations
ĠBe f
ĠBes onders
let scher
vers icherung
ĠAs ia
ĠPolitiker in
Ġtop ic
ĠFÃ¼hr er
ĠPfer de
llll llll
ĠÃĦnder ungen
Ġverur teilt
N atur
ĠC EO
ĠC reek
Ġl esen
Ġl ights
Ġdes k
Ġdes igner
ĠLe vel
ĠWe is
lan ge
199 1
ĠHel m
iller ie
Ġtem plate
Ġshar ed
adel phia
ĠverfÃ¼g bar
K unst
P R
U nd
Ġa partment
Ġs ister
ĠG Ã¼
ĠV it
ot ograf
Ġr u
geb nis
ĠHand ball
ĠGo ethe
Ġval id
ĠCor ps
kn own
P aul
f un
u is
ĠR ess
ĠC os
ber icht
Ġr ank
ĠLe h
Ġ9 5
ĠLebens mittel
ĠHil fs
mÃ¤ÃŁ ige
best and
Ġzie ht
Ġlux ury
BevÃ¶lker ungs
ð Ŀ
Ġ ðŁ
Ġa p
am ts
ĠR ober
ĠEr ic
Ġab gesch
ĠSp er
iz ont
ĠAus gang
ĠDes halb
Ġpark ing
Inter ior
n ight
ĠA sh
sch icht
Ġg Ã¼lt
sp ur
ia c
Ġent schieden
ĠCh ief
Ġ5 7
alt ar
Ġoper ating
ĠAbgeord neter
ĠAng st
ĠVarian te
Erster wÃ¤hnung
C A
K inder
T L
Ġt aste
ier end
ind ing
Ġdet ailed
ĠB alt
Ġfor ce
gr Ã¶ÃŁe
lan k
Ġfe aturing
ĠGes ell
Ã¼t ten
ĠJu an
ĠWh y
ĠBel gien
Ġkeep ing
ĠOper ation
Ġcap acity
Mus iker
u j
on ischen
ĠM i
ĠP fe
ach s
Ġer mittelt
St ar
ĠWelt meisterschaften
ins on
Ġpost s
ĠTem pel
Ġengine ering
re ten
Ġin tegra
ĠB aby
ĠF ast
Ġc ities
ss el
Ġget Ã¶tet
fort un
gor ith
Ġcour ses
B ook
] ,
z usch
ĠF ur
ĠH op
erk ennung
ĠPol ice
ĠRes erv
Par ameter
Ġfig ure
D DR
Z eich
a ver
k ov
ĠAn f
ĠAn im
qu ently
ss ystem
spe kt
Jan uar
Ġafford able
m i
p rÃ¤sidenten
ĠK la
sch iffe
ĠR av
ĠVer zeichnis
ĠUm setzung
ĠCl ark
Ġklein es
seit ig
ĠInform ations
ĠAutob ahn
M ai
c ore
Ġs now
ĠB Ã¼nd
ĠD S
ĠP y
ff e
ges ellschaften
imm ungen
ĠKl im
the ater
ĠDire kt
Ġstor es
Ġwind ows
ĠSyd ney
n ab
ch a
Ġt ask
ĠM ans
Ġn ennen
ĠW y
Ġan zu
os ite
op Ã¤d
Ġvor gestellt
ret ung
Ġber Ã¼cksicht
ĠVerb esser
ĠSc ot
Ġloc ations
arch ie
Ġpl astic
Ġreal ity
Ġtrans form
ĠRu hr
Ġbra in
ĠCont rol
Ġteach ers
Ġsong s
ĠGesprÃ¤ ch
Ġsus p
ĠCanad ian
B en
r ian
ra f
ut y
ĠThe atre
Ġen det
gesch lecht
ingen ieur
ĠBr ian
ipp er
ĠMark et
ĠCor poration
Ġnational e
d h
l iteratur
o ul
Ã ¦
Ġt ree
Ġp ush
Ġer l
Ġl ose
ĠEr m
ĠAr rondiss
geb lich
Ġsh all
ĠNach wuchs
ĠAll en
Ġtrad ing
Ġsw itch
H Ã¶r
e en
t w
ĠF ull
ĠK ob
ĠL ange
est and
Ġsch ott
fe uer
Ġgem ein
ĠĠĠĠĠĠĠĠ ĠĠĠĠĠĠĠĠ
ĠNetz werk
ĠLad y
Ġnov el
ĠRumÃ¤n ien
F ol
Ġ ĠĊ
Ġdie t
ĠL yr
ĠV ill
ell es
iz za
iz abeth
auf t
Ã¤ch er
Ġev idence
ĠBes onder
Ġsl ight
wor fen
ĠJes u
ĠGriechen land
M ag
Ġf la
ĠK rie
ĠN R
Ġan lÃ¤sslich
ĠVer fassung
Ġj o
ĠSe hen
Ġges te
ĠTr ier
bes itzer
arch ite
ĠÃ¤ gypt
ĠEner gy
ĠDokument ar
ĠImm obilien
ĠNaturschutz gebiet
Ġsqu are
hoch schule
Ġchines ischen
ĠZus atz
ĠSpielt ag
Ġ 00
Ġd inner
Ġa u
ĠS ed
ĠA ar
ĠM etz
ei he
Ġst ick
aus bildung
ant on
ĠNor mal
ĠGroÃŁ teil
Ġmed ium
ĠHam mer
ĠsÃ¼d Ã¶stlich
sw ers
ilome tern
Ġopen ed
E A
a ktionen
w Ã¼rd
or gt
ur ger
Ã¼ h
ĠF unk
Ġdie d
Ġc ore
lin s
Ġme x
ĠMot iv
Ġbrand s
Ġprepar ed
Schwei z
Ġabsolute ly
r un
il ot
ĠF ro
ĠK am
om y
ĠN iger
Ġver anst
ver letz
op her
Ġwir kt
ac ter
ĠGra ph
Ġrem ove
Ġerreich ten
Ġ188 2
ruct ure
Nov ember
Ġh alb
ĠPh ase
ĠPre ise
ĠAt om
ĠKap itel
Ġspeziel l
ĠEth n
ĠBronzemed aille
f iel
g ow
p ot
t ten
in stitut
is or
Ã¶ te
Ġent lassen
teil te
ĠUnter richt
ĠKr one
ĠFel ix
ĠPrÃ¼ f
ĠRena issance
E X
c omp
o or
Å Ł
er ie
ĠP R
ĠG ouverneur
ĠW atch
ĠL ag
ĠAn gabe
ĠAd v
Ġrec ords
Ã¡ s
198 9
ĠSa al
gÃ¤n glich
Ġenvironment al
Ġbus y
Ġkor re
ĠB Ã¼r
Ġv s
el be
ĠG rÃ¼nen
Ġre ference
ĠAn alyse
Ġum s
Ã¤r n
Ġsex ual
ĠZe hn
ĠProt est
ĠÃ¤lt esten
ĠGovern ment
BevÃ¶lkerungs entwicklung
B ay
z ens
ĠF assung
ĠSch ne
ĠSch aff
ĠEr richtung
... ]
app y
ĠAut hor
ĠBar ock
ĠSing ap
Ġcop y
Ġurkund lich
Ġd okument
ĠR he
ĠVer fassungs
ĠSp aÃŁ
ĠEin t
Ġdo ors
Ã¤ch te
ĠEd el
Ġpass ed
Ġexist ieren
ĠBras ilien
K at
T itel
en hagen
ĠT rom
ĠF els
ĠF abrik
iel len
ĠGe werk
ail and
Ġnot es
Ġsur f
ĠPl Ã¤tze
ĠOl iver
Ġcontin ues
ĠMil ch
Ġorganis iert
ĠÅ ł
ĠPers pekt
ĠPatr ick
ĠPremier minister
ĠA ster
ĠD iam
ver teid
ĠBe aut
ult y
Ã¤hl ten
Ġverb rachte
Ġspe ak
go ing
Ġclean ing
Ġsour ces
Ġjoin ed
fÃ¶rm ig
ĠSzen en
Ġprot est
" )
W or
i ben
ĠB ag
ĠB alk
ĠT onnen
ĠF a
ĠL eder
ĠIn stall
Ġse ctor
Ġse eking
ph ase
Ġsc ore
lex ikon
ĠMich igan
Ġfact ors
ĠSam uel
Ġzie hen
t i
v ia
v inz
Ã ª
un ters
Ġp latz
im it
ĠVer wand
ĠSo zi
itar re
Wer degang
ĠMik ro
b chen
ĠM S
Ġge Ã¤ndert
arr iage
ĠMittel punkt
Ġend lich
ðĿ Ĳ
b ody
g Ã¤nge
g reif
m iral
Ġs izes
st um
Ġh ieÃŁ
Ġl ernen
ĠV inc
Ġde partment
ly n
Ġ5 8
Ġ6 1
Ġbek ommt
Ġange p
ĠsÃ¼d westlich
prÃ¤ senz
ĠNutz er
Ġdist in
Y our
w ich
sch irm
kt op
ĠÃ¼ber sch
pt on
geb irge
pro zess
ĠAd ler
irt y
Ġra in
ĠJapan ese
ĠSam stag
Ġfil led
Ġbal ance
C up
R ock
n or
ie ge
Ġs inn
Ġs orgen
ĠA ccess
ĠD C
Ġc ir
ber s
Ġk ombin
ĠLe wis
act ions
Ġbef Ã¶rdert
ĠDav is
Ġnord Ã¶stlich
ĠB uck
ĠP av
la f
men ge
og a
Ġcomp l
Ġdo ctor
Ġ7 2
ual itÃ¤t
15 0
Ge ografie
Ġspec ies
bereich e
Ġfac ility
Ġoffen en
ĠPhys ik
Ġexpert ise
ĠEns emble
t y
Ġb on
ĠH Ã¼gel
Ġe legant
Ġver ab
ger Ã¤t
Ġges prochen
ĠOn t
For m
ĠWissenschaft ler
bro chen
Ġwalk ing
far be
Ġveh icles
Ġapprox imately
l itz
he ater
us alem
ĠD ynam
ĠT irol
ĠG au
Ġc ategory
ĠH aupts
sp art
ĠTh or
auf nahmen
Ġapp e
ĠMark us
Ġgar ant
Ġsex y
ĠAkt ien
ĠAth let
ĠergÃ¤n zt
kÃ¼rz ung
Ġst one
ang a
ĠBe geg
ungs gebiet
br onn
ĠVerb indungen
Ġshow ing
ĠTour ismus
scheid ung
ĠColor ado
B u
O D
P e
U L
al and
Ġin stitut
sch wer
ĠZ o
ĠÃ¼ber w
ast ik
ĠAb d
Ġpr incip
Ã¤hl te
Ġworld wide
sprÃ¼n glich
ĠPriv ate
Ġfem ale
b il
Ġa rab
Ġt rop
ĠA venue
ĠG Ã¶t
Ġc row
ĠW art
ĠAus bau
ĠGem ark
Ġ187 6
Ġauth ent
ĠerÃ¶ff nete
Ġeconom y
repr ene
it age
ur ies
le ar
ĠG ab
av or
be hÃ¶rde
ph il
pf ul
Ġviel fÃ¤lt
Ġinsp ired
kap elle
Ġcommit ted
Ġconven ient
b lock
Ġa gency
Ġs ustain
Ġf arb
ĠG ipfel
Ġver teid
Ġle aves
ĠGer Ã¤te
ĠEis hockey
ĠMex ico
Ġmem ory
Ġexcl usive
H z
W E
p her
ĠA u
ĠB rad
ĠP ie
ĠC A
reis en
old t
ĠBl Ã¤tter
ĠMin ute
ĠKo operation
ĠModer ne
ĠNikol aus
Ġing red
J azz
k B
ĠK rÃ¤
ĠE ver
sch le
ĠC ommer
ik ing
ĠSt ich
our i
ac ts
ĠMus ter
ĠYou Tube
ĠTechn ischen
Ġopt ional
Ġaff ect
Ġfocus ed
ĠAngeb ote
ĠHit ler
Ġbirth day
Ġcompon ents
a al
m aschine
ĠW rit
elt a
ĠAus bildungs
Ġgu est
Ġrem ote
Ġinst alled
Ġheraus gegeben
verb indung
ĠKauf mann
ĠzÃ¤hl te
Ġdeter mine
Ġzuf olge
ĠNeuse eland
Î ¿
Ġb auen
ĠF ield
ĠG U
ĠV iz
ap es
Ġcomp rehensive
Ġstatt finden
Ġgener ally
ĠGÃ¼n ter
Kurz film
in str
ĠT ransp
ĠK itchen
ĠK linik
ste chnik
ĠSp irit
ĠUnter schied
int age
ĠColle ction
ĠFrei herr
ĠerhÃ¤lt lich
Ġmittler en
E nde
v ar
at ische
ĠD ich
ĠL okal
uf er
Ġge zogen
ĠZ usÃ¤tzlich
ĠEin en
tern al
ma ÃŁen
ĠFr iend
jahr en
B I
l ik
Ġn av
ĠG anz
ĠO ze
ger Ã¤te
ive au
Ġeigen er
Pro gramm
ape ut
ĠGar den
D ata
e per
h arm
und et
Ġthe oret
Ġan geschlossen
th aus
lie gt
19 33
Ġpart ies
ĠSk i
Ġ188 4
Ġoper ation
Ġzeit genÃ¶ss
Ġcomb ined
ĠFle isch
Ġrom ant
ĠKard inal
A kt
m ans
un es
Ġv ieler
ĠR ow
lich em
iz ona
ĠGe gend
Ġbeg leitet
Ġgleich e
anc er
Ġbef ind
ĠRegion alliga
ĠBed arf
Ġschl ug
ĠInfanter ie
ĠHÃ¶ch st
ĠViet nam
W ird
m acher
r ia
or ney
ig ration
ĠP el
Ġ( ;
ĠT auf
ĠL uther
Ġch anging
ĠHe y
zeit schrift
Ar beit
ĠPark er
ĠAlt stadt
Ġlearn ed
Ġans Ã¤ss
ĠRog er
Ġdisk ut
B as
o es
y ard
us se
ter t
Ġge tragen
ĠO S
lie ger
ĠFor der
ĠHand lung
Ġra ised
uz z
ĠDorf es
ĠGed enk
b ut
b ringen
Ġb ird
ul ations
ei ro
ĠVer g
ĠSe g
Ġhier bei
iden z
Ġgu ess
Ġval ues
ĠKo ordin
Ġruss ische
ĠPac ific
/ >
d atum
ĠS au
Ġm ort
ĠM uss
ĠE M
ĠV ent
ak on
od ies
Ġch amp
ho fer
Ġum fassen
ĠGem einsam
Ġper haps
ĠGrund lagen
ĠKunst stoff
schn itte
ĠKn ow
ifiz ierung
Ġfav our
Ġunbek annt
writ er
ĠmÃ¼nd et
Ġ ice
ĠM atch
ĠE N
ra hlt
Ġle ider
Ġum gebaut
Ġag ree
leit en
Ġ188 6
ĠGeschÃ¤fts fÃ¼hrer
ĠFer r
Ġcaus ed
Ġschaf fte
H i
Ġd ance
is p
ĠS z
al om
ĠP seud
ĠT ank
iz ierte
ens es
che ck
ĠAus zeichnungen
ĠAm b
oh ol
Ġhin ein
Ġact ual
ĠSk ulpt
ĠSol o
ĠFot ograf
Ġnord westlich
Ġadmin istrat
K an
O G
ĠH at
Ã¼r f
ak et
ok us
Ġ6 6
bau en
ĠFre der
aw n
ĠOn ce
Ġmin ute
Ġocc asion
Ġvorhanden en
fÃ¤ll en
Ġleit et
ĠPots dam
c ious
w ird
ar ett
Ġc art
ĠSch ei
ĠEr ster
ĠEr furt
Ġ3 000
Ġapp ar
imm ing
ĠAnt i
Ġmax imum
ĠKommand o
ĠDenn och
ĠQue en
ĠDrehbuch autor
g ung
en ters
an teil
ar ischer
le ucht
ĠSch au
ust on
Ġor th
co uver
Ġad ults
Ġ6 8
Ġhin ten
Ġtechn ische
Ġart icles
pre uÃŁen
fÃ¼ll t
Ġdamal ige
Ġrestaur ants
Ġhappen ed
Ġpan el
ĠÄ Į
b ing
Ġt ickets
ig s
ĠP ho
ĠC her
ver lÃ¤ss
ap elle
Ge org
Ġcre am
Ġbelie b
ĠWehr macht
Ġsuit able
tl ere
ĠCharl otte
v ens
or um
un ted
Ġm ail
ĠR ats
Ġan gem
Ġis ol
use ums
ock et
Ġ186 8
Ġklein eren
Ġpract ical
ĠDi Ã¶z
Ġ </
ĠB ir
Ġh ook
ĠN ationen
eb ens
ste ine
ag on
ĠEr Ã¶ffnung
Ġsch Ã¶ne
Ġcon temporary
Ġ5 9
Ġmehr erer
Ġet hn
Ġserv ing
ĠAll tag
ĠVerb ands
Ġenjoy ed
ĠLÃ¶ wen
gestell te
Ġstrateg ies
Ġm ental
ĠP ut
Ġg allery
Ġver boten
Ġ18 78
ip edia
ĠAb stand
ack s
Ġar m
ĠProdu zent
ĠDar aufhin
Ġpract ices
Ġlaw s
Ġmanufact uring
ĠGÃ¼n ther
ĠendgÃ¼lt ig
ĠArrondiss ement
J uli
h ai
r ical
ĠD ark
ĠH aw
ĠL ein
Ġre volution
Ġfor eign
we ight
Ġr uh
ĠRechts anwalt
dienst kreuz
Film titel
Gener al
ĠPerform ance
re land
ĠM inder
ĠD inge
ĠN at
Ġver tra
ĠBr enn
pen den
ĠPla ce
CD U
Ġsor gt
Ã¤dagog ik
Ġlern te
E very
ĠB row
Ġp ul
ĠSp Ã¤t
Ġsch lecht
rÃ¤ umen
kl ar
ĠJuni or
Ã¼nd en
ĠBern ard
ĠDis ziplin
Ġestabl ish
Fried rich
s ing
Ã ĥ
Î ±
in tend
ĠS ummer
re ffen
ĠB ah
Ġc ells
19 20
ĠCh ance
ĠIm age
ĠX X
ĠWor ksh
Ġgeboren e
haupt stadt
Ġamer ikanische
ĠStad ion
ĠWhe ther
ĠR ie
Ġan imal
ĠAb out
Ġgen annte
Ġ8 8
ĠMin i
opp ed
anc en
ĠGemein schaft
Ġclos ed
Ġcover age
Ġdefin iert
eg as
Ġzentr alen
F ran
O p
S ow
k ind
o ted
ĠM Ã¼hle
Ġein heit
ĠK oll
los igkeit
Ã© d
Ġwork ers
ĠMill iarden
weis ung
Ġsozial e
stant in
Ġkont roll
strahl ung
H el
O K
Ġf inn
ĠM ut
ro y
ĠH ad
Ġbe coming
ĠO m
ab end
atur en
Ġapp s
ĠBr ust
ĠOb last
ĠFahr rad
ĠPhil adelphia
Ġbegann en
Ġ187 7
abr iel
ĠGest alt
Ġprevious ly
Ġlok alen
ĠMaxim ilian
d on
g in
z it
as i
am o
ent wick
ĠW ars
ĠL yn
ĠSch ild
Sie g
athol ic
ĠKap ital
mÃ¤ÃŁ igen
gebie ten
rÃ¼st ung
Ġver letzt
Ġso unds
ĠNach folge
Ġke pt
Ġbo und
iges etzt
Ġgener ation
Pr iv
Ġinde x
leb nis
ĠVerÃ¤nder ungen
g i
te ine
ĠB ene
st reit
ĠL ed
Ġl abor
ĠZ auber
ĠSch r
ĠAr gentin
iz ist
Ġex change
ĠAus stattung
ĠAuf ruf
Ġges ucht
ĠOrt schaften
ĠfÃ¼nf ten
Ein wohner
verein igung
Ġident ify
Ġlau tet
ĠEntfern ung
S m
c ard
h es
ĠM ember
ĠD NA
ĠF A
ĠG ot
ic i
ĠSt one
ĠVer eine
ĠEin kauf
ĠFran ces
ĠIt alian
Ġhel pful
Ġtr end
Ġteil nehmen
ĠPat ent
deutsch land
Fernseh film
Ġzeit weise
ĠhÃ¶her en
Ġdat abase
H am
M otor
] .
c les
k anz
r ale
z ant
Ġ iron
Ġp urs
ĠP A
ĠR app
ĠL ov
sp latz
Ġman aged
ose x
ĠUm bau
Ġdis app
Ġerw artet
ĠFr ucht
Ġander es
Ġhapp ens
Ġleader ship
ĠCast le
ĠKrank heit
zep te
ugos law
ĠM obil
Ġn annte
ĠH aar
qu elle
Sch ule
arr ier
Ġwicht iger
forder ung
gÃ¤n z
Ġbestehen de
Ġassist ance
Ġextens ive
ĠS auer
ĠB ou
ĠB ade
Ġo d
ĠK Ã¤
ĠR up
ĠL angen
Ġe ating
Ġwe isen
Ġunter gebracht
ĠkÃ¶n ig
vers orgung
Ġschwed ischen
wechs elt
A ss
B ra
D u
a o
c our
o ÃŁen
v iel
Ġd eine
Ġs it
Ġs ample
ĠB itte
ĠH Ã¼
ĠN on
19 18
ĠCh air
fen se
lass ung
Ġ188 3
gesetz ten
ĠSym ph
ĠErk rank
Ġpaint ing
ĠAndre a
ĠstÃ¤r ker
S ome
Ġa ware
ĠR olf
art ier
ĠAl ph
ĠVor stands
ĠComm on
ĠAutor in
ĠhÃ¶ here
Ġreli able
Ġg ain
Ã¶ gel
Ã¶ scht
ach ing
Ġi P
Ġfe e
ĠÃĸ k
kehr t
Ġfl owers
Ġvis iting
Ġeinfach e
Ġeduc ational
ĠEt appe
umin ium
Ġpromov ierte
Ġexerc ise
ĠGiov anni
> ,
b indung
l u
r asse
is burg
ein heiten
ĠA D
ĠB ow
ĠP ur
ĠP ad
ĠC oll
Ġer ror
ĠJ ubil
ĠSch atz
Ġr ub
od a
auf trag
Ġbes etz
ma jor
yl on
ĠBre mer
met hode
Ġconne cted
ĠKan al
Ġintrodu ced
Ġwes halb
ĠDoug las
K W
Ġf unds
Ġbe comes
Ġk inder
ran e
me te
Ġwas te
pr int
lieÃŁ en
ett i
ilit ation
Ġlang sam
ÃŃ o
legen heiten
Ġ188 1
ĠschlieÃŁ t
ĠBres lau
or o
ĠB Ã¶r
ĠM B
ger y
Ġapp oint
ĠOber flÃ¤che
off s
Ġsho es
ĠMeister schaften
Ġeinfach en
Ch ar
ĠGeorg ia
ĠRu he
Ġallow ing
Ġdoc uments
Ġhon est
Ġunivers ity
Ġzentr ale
Ġdur fte
ĠKandid aten
ĠB rie
ĠK Ã¼hl
ĠL iv
Ã¶ ner
Ġ18 40
ĠVor stellung
ĠAnd ers
Ġgar age
gef angen
ĠJer usalem
ĠTok io
reu ung
- /
R oman
l ein
Ġin ne
ĠM aus
ĠM iami
st ers
st ritten
ĠT ool
ĠK un
ul iert
19 80
Ġ7 00
gew inn
bild ungen
ĠVerb rauch
Ġdr ug
Ġstar ts
Ġlog o
ĠMaterial ien
Ġmass ive
figur ation
ĠTown ship
E B
H ans
P A
c ase
t al
Ġt at
Ġw inning
ĠS K
Ġf rag
ĠD al
ĠE g
ĠH alt
Ġge legt
geb oren
lan ze
In nen
Ã¶ff net
ĠZu cker
Ġschw ere
Ġval u
ifik ations
Ġelect ronic
ĠSchwar zen
Ġasp ects
b ase
g roÃŁ
or ter
re iter
ig ers
ĠF our
Ġc ivil
ĠK ohle
hl on
rit ts
ĠPr ix
reat ive
ĠWissen schafts
Ġzwe ier
ĠHei de
b Ã¤
f ix
i ang
j amin
ĠB iele
Ġg ay
19 25
19 70
Ġtechn ologies
Ġinst ant
Ġprocess es
Ġdan ger
ĠSchlieÃŁ lich
ĠgrundsÃ¤tz lich
i ors
x y
ĠS A
Ã¼ mm
ĠA x
ĠB urn
ien ne
Ġde ck
rat or
Ġar range
Ġverl Ã¤ng
deutsch er
198 7
ĠMathemat iker
ĠViertel finale
Ġbatter y
k al
o use
s burger
um ps
ier bar
Ġge langen
Ġdem onst
Ġr ing
land schaft
amm ern
ĠHe x
Ġ6 3
zeich nete
ĠPr ior
ĠMus ical
ĠRes erve
Ġwei ÃŁen
M Ã¼n
S chn
Ġd ipl
Ġb au
Ġin folge
ĠSt aff
Ġfor mal
Ġr umÃ¤n
Ġch airs
ĠAl ben
amp s
hÃ¶r igkeit
Ġacc ident
ommer ziel
ĠMag azin
Ġâ ļŃ
Ġtro cken
Ġern annte
Ġbestand en
Ġmat hemat
beg inn
p ear
ch ar
an bul
le ts
ach el
Ġk os
th en
ĠAl though
our cen
ĠPar ks
Ġdar stellt
ĠUm fang
ĠEl izabeth
ĠStud ent
Ġest im
Ġerfolgreich en
Ġgelang te
fÃ¤h ig
Ġkanad ischer
ĠErweiter ung
P ersÃ¶nlichkeiten
ar isch
ĠC laus
ĠN am
Ġan fangs
Ġe gg
Ġver haf
Ġde fe
ĠRe kord
Ġse at
âĢľ ),
Ġ9 6
igh ted
ĠBau er
sche f
Ġ187 5
Ġmar ried
ĠPrÃ¼ fung
ĠEreign isse
ĠEber hard
telligen ce
F est
T R
W ien
Ġbe wohn
ĠSt reich
ÃŁ er
ver treter
ud ing
rat h
wer tet
ĠUm gang
ĠBo gen
ĠBl umen
zw ei
ĠChrist us
Ġfl u
Ġdec ide
ĠAnt rieb
ĠSil ver
Ġ186 1
Ġ187 2
Ġaut o
ĠMinister prÃ¤sident
Ġcompet itive
Ġposit iv
VerÃ¶ffentlich ungen
Disk ografie
H C
N ode
Ġt ail
ĠK Z
ĠC R
ĠJ ens
ĠSch atten
od ie
se y
ĠGe werbe
Ġfe ierte
ĠRo hr
Ġfre und
Ġfre ige
bra un
B rand
d ies
es ota
or ps
ĠM oh
ir ts
ĠSt ore
af ft
ob jekt
ax oph
ĠCon tent
ĠRep rÃ¤sentanten
Ġpers p
ĠNiederland e
Ġtemper ature
H P
Ġin nen
ĠD id
ul in
ĠZ Ã¼ge
id ium
19 75
Ġgeb lieben
ĠNieder Ã¶sterreich
Ġgewann en
Ġcolle ct
ĠKirchen gemeinde
emb ly
maÃŁ nahmen
ĠDÃ¶r fer
b art
v arian
w irt
ĠM es
ĠT ai
ĠSch u
Ġj en
Ġsp ons
lo he
pro jekt
ĠX ML
ĠMill er
ĠEmp f
Ġappear s
Ġautomat ically
M useum
v et
Ġb rach
Ġein s
ĠL aus
ĠL ok
Ġst Ã¤rk
Ġde als
rit ter
ĠBer atung
ron ik
ĠÃľber nahme
ider s
ĠBet on
ĠInter pret
ĠBra uer
ĠMor itz
ĠRegierungs bezirk
ĠSupp ort
Ġhundred s
F o
ein st
Ġf ach
ĠB ase
ĠD R
Ġein gew
ul ated
Ġst yles
Ġzu gÃ¤nglich
sp itze
ĠBe cause
Ġ186 4
forder t
Ġanerk annt
ion ier
Ġz ul
if ff
Ġst unning
ill o
Ġle aving
ide t
Ġapp lied
ĠReich stag
Ġgl ob
Ġfun ctions
ĠKant ons
Ġthough ts
Ġfa ith
Ġregister ed
ĠErinner ung
E F
M ain
P lan
Z e
in yl
ĠA z
ĠD un
ig i
ĠG n
Ġe hren
ab len
19 39
ĠOr th
Ġrec ipe
Ġmost ly
licher weise
Ġ186 6
ĠGebie ten
ĠEnts p
Ġfertig gestellt
Ġagre ement
ĠKup fer
B aden
S an
b in
c s
s Ã¤tze
ĠI ron
ĠSch nee
Ġaus gebaut
ĠMar sh
amil ton
bo ot
ĠRo om
ĠKr iminal
Ġaccess ories
Ġcontin ued
Ġspecific ally
Ġmajor ity
Ġverste hen
Ġflex ible
Ġverwende te
merksam keit
O ktober
R ed
Ġr an
ĠEin stellung
be cken
ian ischen
zeug ung
ĠKo al
Ġerrich ten
ĠKol onial
gebie ts
ĠPrÃ¤ fe
Ġfield s
ĠDokument ation
ĠBul gar
ĠDiet rich
ĠB ald
op ran
ĠUn sere
auf nahme
amt es
Ġben annte
Ġed ge
ĠTechn ologie
Ġstr ugg
198 6
Ġill ustr
ĠTschech ien
ĠPeters burg
Ġstellvertreten der
j u
en te
im on
Ã¶ tt
Ġle hn
ĠVor bild
fahr ten
Ġthere fore
Ġgleich er
ĠLin col
Ġ186 5
En g
lad ung
ĠKolle gen
Ġfeder al
E U
ĠM ind
ĠDie go
Ġab hÃ¤ng
ĠJahr gang
tell ers
Ġakt ual
Ġsol cher
Ġmark ets
ĠÃĦ hn
glieder ung
Ad d
Ġvol ume
Ġarchite cture
or chester
an es
an alyse
ĠS W
ĠL ob
Ġan swers
ĠAn lass
Ġj u
ĠMit be
ret ch
Ġind ic
ĠAll gemeinen
Ã¤nger ung
orge ous
ĠEmp ire
ĠKategor ien
Ġtele vision
ĠBrun o
Ġinj ury
ĠDrit tel
ĠAnh Ã¤nger
Ã¤ use
ĠD ick
isch t
Ġl i
Ġk g
Ġge legentlich
Ġde ut
Ġr ule
ĠRe isen
ĠHe art
fahr ts
man uel
act yl
ĠOff iz
198 8
Ġsmall er
Ġerm or
ĠKapit Ã¤n
endo ktor
F irst
N C
g ard
el ing
ot ton
ĠZ unÃ¤chst
Ġcomp la
ĠEx press
fr ies
Ġerw eiterte
Or ts
Ġmin imum
Ġ187 3
Ġtrotz dem
T C
n ern
Ġd unkel
us ted
Ġ( ).
ĠK G
ĠC irc
Ġk Ã¤mp
Ġk irch
sp iegel
ĠAn z
Ġne ut
Ġsp anischer
ens us
ĠCo up
ĠChr isten
ĠKomp onisten
Ġ186 9
Ġlight ing
ĠFil men
ĠOs nab
Ġfil ter
Ġerlang te
Ġbenachbar ten
K om
t op
Ġt aus
te gie
ĠF alle
and t
ik te
Ġr ide
19 26
19 79
ĠIm per
Ġges und
Ġvers etzt
ĠAmer ika
Ġmin im
Ġchar akter
ĠBrÃ¼ cken
frast ructure
Ġadvert ising
Ġheil igen
ĠBundesver dienstkreuz
F ranzÃ¶s
m ach
Ġd ritt
ĠS ysteme
ĠD ollar
Ġp ump
Ġge fallen
20 21
ĠEx ecutive
Al t
ĠHoch schul
Ġmin or
198 5
ĠKat alog
Ġkur zer
isc ons
ĠpersÃ¶n lich
Ġrecommen ded
ĠBil dern
ĠKomment ar
ĠPfar rei
n g
ol s
ĠG oth
Ġer geben
Ġst ir
ĠBe at
ĠKon zentr
Ġstud io
ĠBereich e
T ER
s ite
it iat
ĠM obile
Ġc ultural
ĠH ind
ĠH ang
Ġwor ry
De zember
ĠReich es
Ġausgew Ã¤hlt
Ġresour ce
Ġincreas ing
ĠVerantwort ung
A re
Ġd az
sp l
och em
Ġse ek
tern oon
lo aded
Ġlie ÃŁen
Ġany where
ace ae
ĠWerk statt
fre ien
ĠRu der
He ute
Ġtradition ellen
Welt meisterschaften
ĠMaler ei
ĠPlÃ¤ ne
ĠNomin ierung
Ġacadem ic
B rite
E E
Ġw al
Ġm ist
Ġaus fÃ¼hr
sen der
âĢľ -
igkeit s
ĠHand werk
ĠHaus halts
Ġpolit isch
ĠGed icht
Ġcla ims
sprÃ¼ che
Kirchen gebÃ¤ude
is tern
Ġm Ã¶glichen
ro g
ra ucht
Ġbe zieht
Ġan sonsten
Ġch ain
ĠOr igin
Ġste igen
ĠUr ban
Ġperform ed
Fl ug
G C
Ġ ..
ar ks
ĠS we
ĠD ance
ĠT ho
Ġto ward
ĠZ er
ond a
amp en
uck s
ĠSen ior
des ign
ĠStock holm
J Ã¤hr
J ugend
Ġc ry
ĠH ildes
ĠAn st
Ġdurch aus
tem peratur
aw ay
ĠMo le
Ġcons istent
Ġgest artet
auch en
Ġmen u
Ġlo ad
Ġbra ucht
ĠIndustr ial
ĠlÃ¶ ste
Tod ay
B ox
Ġt oll
Ġv ul
ĠD ampf
ĠG allery
ĠC ass
Ġk aiser
ĠU rauf
Ġre aders
if orm
ĠAn k
Ġco ast
ĠSal v
ĠKrieg sende
ĠLie b
Ġ185 2
Ġconf idence
ĠIr land
ĠKons erv
; ;
F ebru
g rÃ¤
p oint
ch el
Ġs umm
or h
or ganis
ĠB ath
ĠI reland
ĠH als
et on
ber uf
Ġl aufen
ow itz
ad ow
Ġj ournal
Ġ% )
ĠPl ant
Ġprom ote
Ġgesp eichert
lad imir
Ġdistr ict
zust and
ĠFreist il
V ert
p st
on ic
te en
re es
un fts
Ġm ur
sch te
ĠH ills
Ġg laub
ĠV egas
ĠJ ar
Ġpro min
ok u
Ġ18 49
hen de
Ã¤n zer
ĠSe arch
ĠAuf merksamkeit
Ġlie be
sk ar
hel ms
Ġimport ance
Ġcele br
__ __
Ġa st
as ks
ĠB enn
ĠH ave
Ġst arten
ĠIn stanz
ĠVer stÃ¤nd
Ġunter lag
uss y
per iode
Ġlie genden
Ġseit her
Ġexp ensive
ĠMo z
Ġger iet
ĠĊĠĊ ĠĊĠĊ
ĠBuch staben
val u
Ġstamm te
Ġdiscuss ion
ĠTher apie
ĠMerk male
L iter
U C
j ahre
Ġt utor
ĠS ort
ĠS now
ĠM esse
st rÃ¤ger
ĠG on
ĠK ai
ĠW alk
Ġl ibrary
Ġyo uth
men ted
19 14
ĠFre itag
Ã¤hl er
akes pear
ĠDi agn
On line
ĠSied lungs
ĠpersÃ¶n liche
Ġlaunch ed
Ġsurround ing
e ck
t rieben
} ,
re ll
Ġne ck
fol io
chn ungs
ĠAnd ere
Ġsc ale
Ġhand elte
ital ien
ĠRegel n
Ġausgest rahlt
ĠMom ent
D okument
V A
z lich
he ben
ĠG T
ĠL av
Ġg rÃ¼nd
ver lauf
Ġwh atever
Ġnach halt
ĠAr izona
Ġad apt
ĠKl ub
Ġmo de
ĠVers icherungs
Ġfre ie
Ġrem ains
herr schaft
ĠVan couver
Ġunters ucht
angeb ot
Ġproduz ierte
f ers
h ire
Ġb rown
Ġm arriage
ĠR oland
Ġbe her
ĠEin er
Ã¶r dern
ĠAb stieg
St at
ĠAd vent
org ungs
ĠOber liga
ĠSÃ¼d afrika
Me hr
ias ieger
Ġadv ance
ĠÃ¤lter e
Ġspeziel le
ĠLate in
h ain
p unkten
er ten
Ġw omit
Ġp m
ĠP ersÃ¶n
Ġein gest
gen cies
ĠSch icks
ug by
Ġj ump
bar er
ĠGeb rauch
ĠSta ates
Ġcal cul
fre ie
Ġbew usst
Ġnieder lÃ¤ndischer
Ġbefand en
ĠEvangel ischen
Gr und
Ġmention ed
U l
k ette
Ġm ac
ĠD B
ĠP az
ĠG abriel
ĠH arm
ĠR an
ĠL ern
ĠL Ã¤nd
Ġj ava
se quen
ht ml
ĠThe ir
19 28
Ġunter wegs
Ã¶n t
Ġmy ster
gl ing
ett a
Ġ0 1
Ġpo et
ĠPort al
198 3
ĠNS DAP
Ġemer gency
ĠMun icip
Ġneighbor hood
H alb
Q ual
d ner
e ber
al i
ge legen
ĠG ur
sch Ã¼tzen
ĠJ etzt
Ġge h
ens is
ĠSie ge
ĠAd resse
ĠEx istenz
Ġkind s
ĠSyn ag
Ġevangel ische
ĠMult ic
okomot ive
ĠErzÃ¤hl ungen
Ġinkl usive
ynast ie
in ations
Ã¼ re
ĠA udio
Ġh yp
Ġ( "
ĠW ester
ier endes
Ġmit tlere
ĠVer w
ru cken
19 78
ĠY es
rei hen
Ġ6 2
Ġ6 9
Ġher um
ene z
Ġho using
ĠOn ly
Ġdel icious
ĠBot an
ĠSign al
Ġsowjet ischen
lieder ung
Schwei zer
fortun ately
in th
Ġs um
ein richtungen
st ate
ĠSch Ã¼l
sp h
end ungen
Ġsch Ã¼tzen
Ġsch Ã¶nen
ip er
ĠMar s
ute te
ĠBr idge
zw ungen
ĠMon ats
Ġbeste hend
Ġtop ics
ĠFo x
ĠRein hard
Ġenh ance
Ġbeinhal tet
iscons in
E t
L ebens
S onst
on line
le bt
ĠG ymnas
ĠE va
ĠL iving
ĠJ Ã¶rg
ĠSch we
Ġj ener
ĠBe ispiele
Ġdies mal
Ġme ant
hal ter
ĠTh ailand
entr um
ĠKre bs
ĠMel bourne
ĠMeer es
ĠOrch estra
O Exception
ĠB BC
iel l
Ġun gewÃ¶hn
ĠRe f
ett ing
br id
Ġricht igen
qual ity
ĠpreuÃŁ ischer
ĠNiederland en
ĠChild ren
Ġverhaf tet
ĠLincol n
Ġv illage
ĠT u
ach ter
af Ã©
ĠBer ge
ĠMar io
ition en
ĠMa de
Ġqu iet
yr am
Ġsur vey
ĠAss istent
Ġbuild ings
ĠGraf ik
Ġober halb
ĠHin weise
Ġausgew iesen
Ġsym pt
ĠverstÃ¤r kt
Ġbegrenz t
m ers
m ade
un sten
Ġb Ã¼rger
ĠZ ell
ĠAn erkennung
Ġj ack
Ġup coming
oh ne
Ġerfol gen
Ġben ch
Ġeinge gliedert
ĠKreis es
minister iums
ordin ate
ĠJac ques
Ġdog s
ĠRelig ions
Ġpresen ce
ĠBeteil igung
Ġabger issen
ĠOnt ario
; &#
S en
T ro
W ahl
d ra
Ġb ist
sch ung
Ġre ar
Ġre pe
all as
Ġ3 50
19 38
etz ungen
port al
Ġpl ug
ĠSer ge
ĠÃĸsterreich ischen
ĠTre ffer
Ġwhe el
Ġsil ver
A ccess
L o
V om
n ull
w ein
w affen
Ġa kadem
ie u
Ġf lag
ĠD afÃ¼r
ĠP ot
ĠP ict
ĠH inz
ĠR eit
Ġg olf
Ġg estorben
ul ate
la ut
Ġcon text
Ġ6 7
ĠNorth ern
Ġredu ziert
ĠEben so
ĠExp edition
gewand elt
iÃ¨ re
Ġverwende ten
Acc ording
f indung
k ol
ĠS omit
Ġv ent
ĠT unnel
ĠF ellow
ent liche
Ġbe auftra
ĠN erv
Ġl agen
Ġsh ower
ĠFor ts
ĠGesch lecht
ĠWei bchen
Ġequ ipped
ĠHin weis
Ġupd ates
Ġwirtschaft lichen
ĠHoff mann
eme ister
Ġintens iv
Ġkauf te
ĠNeust adt
E m
L ook
w eiten
z ing
Ì Ī
te au
ĠS M
Ġm ale
ĠB ug
ĠAn at
Ġam b
19 30
Ã¶r te
form at
ock e
Ã¼t ter
ĠSÃ¼d west
ĠRes p
ĠGu ard
198 2
ĠSm all
Ġsearch ing
Ġerhe blich
ĠSar ah
ĠAT P
ĠBM W
D ire
G A
n isch
in ent
Ġc up
Ġc ute
Ġc utting
aus o
Ġj oint
Ġman ual
gesch Ã¼tz
Ġpla ys
ĠBet reiber
Ġfest gelegt
ĠLie bes
198 4
Ġhol te
G l
Ð ²
ĠS Ã£o
he ber
ĠB uen
Ġk Ã¼nd
Ġent deck
tra ck
ĠMar sch
ĠÃľber sicht
Ġdr ivers
Ġakt ive
Ne u
Ġtre es
htt p
ĠBiele feld
Ġd Ã¼n
un nen
ĠB uk
ro it
ĠP iet
ĠK ul
et ime
ĠL izenz
Ġdes pite
ĠSt ark
ah a
au be
Ġcon cl
ac o
par ks
ĠAd ams
ect or
Ġstatt f
ĠLes er
Ġdeb Ã¼t
Ġbreak fast
ĠGemark ung
B Ã¼
K e
| -
ĠK ay
ĠSch mer
ĠAuf tritt
olog ien
old s
igh ter
ĠPaul us
Ġbr ill
Ġter min
ategor ies
ĠursprÃ¼n gliche
Ġask ing
Ġmiss ing
qual itÃ¤t
stud ium
v ideo
ie ck
ĠS ache
ĠG ord
em an
ent le
ĠL P
ĠAl i
ĠCh ile
Ã¼n sche
ĠDeutsch es
Ġob vious
ĠzurÃ¼ck gegeben
Ã¤nger in
ĠRuss ia
Ġcho ices
Ġsug ar
ĠDir igent
ĠmilitÃ¤r ischen
ĠEigent Ã¼mer
ĠRaj on
profess or
S ervice
Ã ¯
Ġ rand
Ġf oll
ĠA er
ĠW ellen
ĠL ust
ĠZ weig
Ġwar um
ĠAl an
Ġvor der
ĠAus fÃ¼hrung
Ġbes ie
unt ing
ĠUS B
arb y
Ġgesch Ã¼tzt
Ġgu itar
Ġown ed
Ġ186 2
ĠschlieÃŁ en
ĠAben teuer
ĠMem orial
Ġintern al
ĠMÃ¶ bel
) -
B ek
D is
W ei
c lass
Ã ī
Ġa th
Ġa udio
Ġt end
Ġs au
ĠJ Ã¤ger
Ġst abil
ĠSch acht
ans ion
ĠTra ck
ĠLeip ziger
Amer ican
Ġricht ige
Ġdistrib ution
ĠNahr ungs
e ist
p es
Ġp utting
ĠT s
ĠF ans
ĠK ader
and al
Ġy esterday
Ġj un
Ġget roffen
Ġ13 0
Mit tel
Ġfamil iar
ĠMag azine
ĠFest ung
Ġappro ved
Ã¨ re
Ġhard ware
Ġbreit en
ĠKonfl ikt
ĠKath arina
b ett
u ers
ĠS yl
ing ers
ĠK Ã¼r
Ġg ern
Ġbe it
ier mark
Ġk Ã¼nst
Ġst imm
Ġver grÃ¶ÃŁ
Ġ18 30
Ġex amples
Ġunter scheidet
ler in
ĠLand s
Ġet h
Ġbel ief
stit ute
Ġgl Ã¼ck
Ġnor m
Ġlead s
Ġschwar zen
ĠGlauben s
Hinter grund
Ġzuk Ã¼nft
H il
S E
g ast
Ġf aster
ĠB ibel
ĠG reif
ĠW arn
ĠV ide
ĠO berg
ĠO bst
ĠSch Ã¤den
ĠMit tler
ĠFre md
ĠMan uel
Ġgreat est
Ġprocess ing
Ġpriv acy
Ġwid mete
Ġbem erk
Ġprem ium
leucht ung
P okal
r ischen
te le
ĠP i
ĠP unk
ĠR ies
rie t
Ġab gest
Ġsp ending
ĠUn ser
ĠNe ues
ĠKon kurrenz
Ġgesch ieht
Ġtr uth
Re zeption
ĠPol icy
Ġpar ent
Ġ: )
Auf grund
Ġlo ans
ĠTre ffen
Ġangeb racht
Ġmag net
ĠInnen stadt
ĠSing les
ĠFranÃ§ ois
Ġingred ients
D av
I st
k ore
Ġa chten
ĠP ont
em y
ĠH amilton
ot ions
Ġzu gelassen
Ġsch eiterte
19 29
Ġnoch mals
ble iben
Ġstatt dessen
ĠDo ktor
ĠÃĸsterreich s
ĠIns besondere
ĠStÃ¼ck e
ĠLux emburg
opÃ¤d ie
L P
f angen
g asse
Ġt ables
Ġin fe
Ġf ly
Ġp reis
ĠG ieÃŁen
sch ild
ĠH imm
Ġk Ã¼rz
uch er
Ġch ron
Ġres ol
Ġlie fer
Ġ7 6
Ġem otional
ĠGer Ã¤t
ĠPa der
Ġmin i
Ġgest alten
ĠVolks zÃ¤hlung
apt op
ĠSen at
ĠFil ter
Ġmanufact urer
Ġprepar e
ĠDemokrat ischen
ĠHig hl
D oc
ĠS eminar
ur i
ĠM ort
ĠG Ã¶r
ĠL och
ic z
ĠC ann
ĠAl ice
off izier
ĠEurop Ã¤ische
Ġshow ed
ĠMain e
Ġsign ed
Ġenter tainment
Ġfrei will
book s
ĠVerd ienste
ĠVerl ust
ĠBesatz ung
Ġinfluen ce
B B
K lass
h Ã¤usern
ol t
Ġ( ),
Ġzum eist
ph ys
Sie ger
Ġtyp ically
ĠBen jamin
pos it
ĠAuss age
Ġinspir ation
Ġstaat lichen
ĠÃľberg ang
ĠsÃ¤m tliche
Ġs ang
Ã¤ nen
ĠM A
ĠG leis
ĠG itarr
ĠK ub
Ġbe igesetzt
ul den
Ġber u
ende te
Ġdire kten
Ġsupp orted
Ġbef est
ĠErw Ã¤hnung
ĠFrei will
Fra uen
ĠBoch um
Mart in
Ã¼ pf
ĠB ein
ĠP osten
ut ung
hr ung
Ġst Ã¤ndig
Ġver an
od ge
gesch Ã¤
Ġ0 4
ĠfrÃ¼ here
Ġbevor zug
ĠKing dom
ĠProm otion
Ġincred ible
ĠSehen swÃ¼rdigkeiten
k W
t ums
z ellen
Ġm ont
ĠK it
la y
19 74
iz ens
ĠCh rom
ĠAuf l
Ġcomp let
Ġgew Ã¼nsch
Ġvers uchen
Ġpol ic
ĠOl iv
zir ke
Ġuntersch rieb
H ar
S ing
g age
n ischen
re uth
he w
Ġin iti
ĠB auch
ĠW itt
ĠW Ã¶rter
ĠJ am
Ġun c
Ġsp ann
Ġgen et
ism ar
ĠfÃ¼hr enden
Ġgel ungen
Ġhistor ical
ĠHerr n
ĠSum me
G ymnasium
J o
b ist
b undes
le un
ĠP okal
ol id
ĠF as
ĠW esentlichen
Ġ18 15
Ġme al
ĠDe ad
Ġen ded
ĠAus gaben
ĠOber bÃ¼rgermeister
Ġac counts
Ġâ ĪĴ
kathol ischen
ĠAc count
Ġged reht
Ġhund ert
ĠMiner al
hyth m
jen igen
g io
l uft
r ische
Ġv ote
Ġv eter
Ã¤ ne
ĠG ard
ĠR ain
19 24
ĠDe ath
ĠDe finition
Ġvor ne
Ġvor kommen
Ġtr ends
ific ations
zahl ung
Ġworks he
Ġaktuell es
ĠKandid at
ĠNap ole
Ġaccomp l
Ġf uel
ĠM all
ĠW itten
ĠC er
Ġst ars
art ikel
Ġro ten
Ġ8 3
Ã¶l be
ĠEs c
ĠUm feld
ĠInd ones
ĠVers and
ĠDes igner
ĠZe aland
stag ram
Ġfeature d
Ãĸsterreich er
Ġdescrib ed
frist ig
L og
T it
w affe
z ut
ch nen
or ough
Ġk it
Ġis rael
Ġaus drÃ¼ck
Ġum gewandelt
ĠGesch mack
amen te
An fang
Ġ0 9
ĠJul ia
Ġdec isions
ĠDaten schutz
ĠJugend liche
Ġ186 3
pos es
hor st
ĠEv ents
Ġrepla cement
ĠKop enhagen
Ġdiscover ed
ĠInner en
ĠIntegr ation
w inkel
Ġ icon
on om
ĠB ry
el det
ĠT ak
ĠT iefe
ent h
ic us
ic als
Ġsp aces
Ã¤n glich
du ate
ac ional
Ġ16 0
lÃ¤ uter
ĠSh ort
ipp i
Ġdel la
ĠSal es
Ġbre ite
ĠBad minton
verb Ã¤nde
ĠnatÃ¼r lichen
ĠSieg fried
eten z
Ġarr ived
ĠInf os
spar tei
ĠbeschÃ¤d igt
B re
K ey
O l
ie bel
an on
ĠB atter
ĠG rupp
Ġc os
ĠE C
Ġer zÃ¤hl
Ġk ennt
we ar
ĠVer z
ĠRe aktion
ĠSp uren
fe ier
iker in
fahr zeuge
ĠÃľber blick
ĠNord amerika
buch autor
ĠHier bei
ĠFreund in
ktr um
Ġhervor ra
ĠerfÃ¼ll t
P ress
s inn
w id
in ch
Ġr ise
Ġne ur
Ġab s
ĠAr z
Ġch annel
mann schaften
esse e
Ġpass iert
Ġter ror
198 1
Ġmonth ly
ĠBed Ã¼rf
EN T
Ġoffen bar
ĠKÃ¼nst lern
S ince
Ġm outh
ĠB apt
Ġ1 14
im i
la ce
19 27
Ġbes uchen
Ġ9 00
Ġro ut
ĠKl eine
Er zeugt
ĠPat ri
Ġbil deten
Ã¼l le
umb oldt
bed arf
ĠPosition en
fÃ¶rm igen
ĠBrun nen
ĠRett ungs
g Ã¤
Ġa id
ĠA cht
Ã¤ le
Ġ1 15
ĠG ross
ĠR au
and em
ow o
ĠZ one
ĠNe uer
ĠKon stanz
Ġag gress
Ġbo at
Ġ% .
Ġcre ation
ari at
hÃ¶ fe
Ġocc up
ĠKu gel
ĠÃ¤uÃŁer st
M ore
it als
ĠB uff
ĠK ino
Ġth read
ru gen
Ġall gemeinen
ĠEn vironment
ĠFl otte
Ġother wise
Ġgesch lagen
ikt or
ĠTyp s
Ġ180 6
fil me
Welt meister
omet imes
feren zen
Ġwirtschaft liche
ĠAnth ony
Ġaf ternoon
ĠJord an
H A
L isten
b oy
Ġd oll
Ġs in
Ġb attle
ĠA ur
ĠA cker
ĠC ell
Ġk Ã¼nft
Ġre iste
19 44
Ġsie gte
Ġmehr mals
ĠSpiel klasse
ĠĊĊ Ġ
ific ate
Ġmach ten
ĠMill ion
Ġbring ing
196 9
Ã¼ste t
Ġengag ierte
mosph Ã¤re
Ġuk rain
Ehr ungen
Ġangep asst
R S
n ik
on te
or ges
Ġb ike
ĠB ull
Ã¤ hne
ĠN ich
Ġ3 60
be c
ĠNe ck
ĠArbeit sk
zahl t
ĠWest falen
ĠChar ts
ĠMill imeter
Ġtot ally
kr ise
ĠQue ens
Ġfung ierte
BÃ¼rger meister
ĠdebÃ¼t ierte
D ivision
f i
p iegel
x id
en ix
Ġs itting
ĠD ienste
ĠE astern
et a
ĠV il
ĠVer handlungen
Ġum gesetzt
ian z
amp e
Ġ7 1
iste te
ott a
Ġevery day
Ġact ions
Ġgef angen
Ġur ban
ĠLehr stuhl
ĠPrem iere
omot ive
ĠIst anbul
ĠAust ausch
Ġdom ain
Lin ie
ĠGirl s
Ġbeeinfl usst
6 00
f rÃ¼
g reg
y ll
el ia
Ã¤ ck
Ġk ick
aus geber
ĠAl f
Ġvor genommen
ren ce
ĠHer zen
inter est
Ġappear ance
Ġpurch ased
ĠEben falls
ĠverfÃ¼ gte
Ġpoln ischer
ĠdÃ¼r fte
ĠExper ten
ĠjÃ¼d ische
ĠKaffe e
F rÃ¼
P an
P at
W ind
m os
al ters
ĠW Ã¤l
ĠL is
ĠL aden
ĠL uk
Ġdes ire
ĠAn sicht
ib ilities
Ġex ec
Ġwill ing
gesch ichten
ĠJun ge
ĠMon uments
Ġdec ades
Ġbef re
ĠNatur al
ĠProv inzen
ĠKe ep
Ġsecond s
ĠKaiser reich
N ummer
Ġa fr
Ġt ab
le ten
ĠF ile
ĠG ert
ĠW end
ĠC hl
and in
ab schnitt
19 60
ĠDe kan
rÃ¤ um
Ġch arm
gr at
erv ation
ĠSchw anz
ĠDu isburg
Ġ185 8
Ġintegr iert
ĠDemokrat ie
Ġemploye e
ĠTrain ings
c us
Î ¹
Ã¤ s
ro vers
Ġc able
ĠSch um
ĠSch los
rich ts
ĠPr ice
ser ien
ĠKon text
Ġ14 0
Ġverb esser
ĠUr sprung
ĠProfess ional
Ġwrit er
ĠHistor ic
ĠKÃ¼ chen
Ġjapan ischer
ĠVerteid igung
ĠHoll and
waren ess
p ap
ĠI owa
ĠW under
ĠSt ationen
ab schluss
ĠIn v
sp rÃ¤sident
ok a
19 00
ĠAr k
rat ic
ĠHe ck
Ġout standing
ĠBau ten
Ġtal ent
ĠRy an
Mich ael
Ġinstr ument
M C
M ont
h Ã¤n
z ed
ĠB orn
ĠD etail
Ġthe ory
ro se
om on
sch ritt
ĠR ÃŃo
Ġk ommerziel
id i
ap olis
ain less
ĠFor est
igh ten
Ġ8 4
ĠGesch Ã¤ft
ĠEx c
Ġcommit ment
Ġfeed back
ĠGebÃ¤ udes
ĠContin ue
Ġimpress ive
Ġgefert igt
T P
Ġf ruit
le utnant
ĠB ret
Ġn ine
ĠH ed
ĠC loud
Ġth reat
Ġver teilt
19 77
Ġar ts
ĠRes te
ĠverÃ¶ffentlich ten
Ġleg s
Ġmeisten s
ĠBÃ¶ hmen
Ġcook ing
Ġprovider s
Ġdenk mal
A ustr
E hren
i oren
Ġd ates
Ġin tended
Ġf Ã¼hl
Ġein erseits
ra ham
Ġl anger
ĠV as
ĠJ r
Ġaus gesch
ĠRe par
ĠSe attle
Ġdar um
Ġreg istration
Ġmin imal
ĠÃĦ m
wend ungs
Dies es
ĠHow ard
verb indungen
ĠQual itÃ¤ts
Ġperfect ly
Ġfit ness
Ġbege ister
vorsitzen der
ĠUrauf fÃ¼hrung
ar ily
le itete
Ġm Ã¼s
Ġer stellen
la de
eb au
id ays
Ġpro sp
Ġnach gewiesen
ĠÃ¼ber gebenen
Ã¤t zt
ĠVor arl
ivers ary
mit ted
Ġtra il
Ġ7 7
Re gie
Ġander erseits
Ġerfolgreich e
ĠKe vin
Ġfilm s
ĠSilber medaille
Ġevangel ischen
ĠJahrzehn ten
Ġconsum ers
I mp
te e
ĠS ac
ĠT am
ut ation
ĠH enn
ĠW ende
ĠL ett
ĠSch Ã¤d
ĠIn se
Ġbes ucht
Pro jekt
Ġsign s
Ġerfolg ten
Ġhold ing
Ġple ased
Ġvac ation
ĠÃĦr zte
Ġencour age
Ġabgeb rochen
ĠChallen ge
ĠSoph ie
ĠWÃ¤r me
A lex
E p
m ir
ge ist
ĠB oth
ĠR E
ĠN u
ĠEr be
ĠSp ark
19 12
ĠAr me
ob s
Ã¤hr en
els on
pro ble
gend es
schie de
Ġger inger
Ã¤mp fung
Ġkomp on
Ġcall ing
lÃ¤uf e
Ġwichtig ste
Ġmanufact urers
UN G
Ġexpla in
ĠHir sch
Ġaccur ate
ĠKabin ett
' .
D ur
R eich
v org
or ded
Ġw ollten
st ufe
ĠH us
ĠV i
ĠV illage
Ġth row
Ġdes selben
ei zer
ill es
qu em
tel finale
gesch icht
br unn
ĠKl ang
An gabe
sg ruppe
Ġgef Ã¶rdert
Ġbekannt esten
ĠCla ud
ĠVerl Ã¤ngerung
ĠIntern ets
ĠabhÃ¤ng ig
f ig
ĠB lau
Ġp ink
ĠE uch
ĠH P
Ġr are
ud a
ĠBe h
ĠSie gen
Ġen co
Ġte a
Ġres ume
Ġ7 8
ogra pher
Ġho uses
ĠMo on
ĠCar los
ĠParis er
ĠJugend lichen
Ġperfe kt
Ġnieder lÃ¤ndischen
ĠHalb insel
ĠPsych ologie
Ġpattern s
ĠThr on
Ġausreich end
ĠverlÃ¤ng ert
ĠHildes heim
Ġv i
ĠD uring
Ġbe wegen
Ġer b
ĠSt att
Ġhe ft
auf lÃ¶sung
co in
Ġ8 2
min a
ĠSpiel film
ĠOb ama
Ġbo ys
spr uchs
Ġlate in
Ġparticip ate
ĠVert rieb
Ġposs ibly
ĠEnter tainment
ĠRis iko
ĠOsnab rÃ¼ck
D enk
F uÃŁ
b org
u ben
Ġt ub
Ġm ine
de cke
ĠT oy
ĠK orea
ĠL Ã¶sungen
um me
ier re
est on
ĠSch reiben
ĠRe formation
ĠAn bieter
ĠEr klÃ¤rung
Ġle gt
Ġent worfen
geb ra
ĠSchw imm
ĠDies el
Ġcons umer
Ġsol ar
ĠGold medaille
wh at
national spieler
liefer ung
ĠAltern ative
Ġrap id
P ass
l s
Ġa gr
re ens
ur st
Ġin vent
ĠM eld
st yle
ĠP est
ra gt
Ġg rÃ¼n
Ã¶ ger
Ġan grenzen
Ġle isten
19 34
19 71
ine a
ĠTh ree
hand els
mÃ¤ cht
ĠFranz osen
zus etzen
ĠCamp us
ĠAtlant a
Ġcabin et
Ġproper ly
Ġcelebra te
D own
L ou
Ġm Ã¶gliche
ĠP age
ĠF ed
ĠK h
ra it
ĠW id
Ġth us
Ġge laden
Ġre ichen
Ġex tend
mal en
ĠSe kretÃ¤r
use ppe
sh ips
Deutsch e
ĠMiss ouri
ĠunterstÃ¼tz te
grenz ung
ĠHoff nung
wÃ¼r fe
ĠMinn esota
L ink
d ale
Ġs ud
le vel
ĠD oc
ĠP ick
ĠH ope
ĠW upp
ĠC in
ĠC ivil
ĠN C
Ġk onserv
Ġwe aring
Ġum stritten
Ġres idential
Ġ7 4
Ġ8 7
Ġdis count
Ġverb lieben
ĠKn ochen
ĠLin den
the t
yd ra
Ġbre ath
ĠHa wa
Ġdeliver ed
fÃ¶rm ige
orh iza
F i
S D
ĠA uge
ĠK orn
sch reibung
em pf
ĠR och
Ġl ived
ot ische
ĠVer arbeitung
Ġex ecutive
Ġgew Ã¶hn
ĠBau reihe
ĠArbeit geber
arb rÃ¼cken
ĠOber Ã¶sterreich
ĠĠĠĠ ĠĠ
Ġcl imate
ĠCon rad
Ġcomm and
ĠApp lic
ĠHÃ¶he punkt
Ġfort an
nehm ern
Ġhon or
lehn ung
ĠPreuÃŁ ischen
ĠEind ruck
ĠFÃ¤h igkeiten
cycl op
actyl orhiza
' ,
K ilometer
i ologie
z es
Ġb owl
Ġge pf
ĠIn stagram
Ġso fern
me chan
ite ten
ian e
Ġgesch Ã¼tz
ced es
ĠChrist i
ĠUr teil
ĠDr ama
ĠKomp onenten
film ung
zy kl
Ġredu z
ĠFass ade
ĠMÃ¤nn ern
Ġpleas ure
Franz ose
O ver
V iew
Ġc urren
ĠK av
Ġbe at
ĠSt ars
sp unkt
19 21
Ġch osen
ĠCh a
ĠSe ele
ĠBer ater
amm ad
Ġ12 5
Ġinter ests
ĠMon ument
Ġdire kte
Ġu pper
rue ft
rÃ¤sent ation
Ġbro ther
ĠPra ct
Ġvert rieben
ĠÃ¼b lich
g ert
k andid
y nd
Ġt arge
ĠM uh
ro hr
ĠF usion
ĠL iss
Ġan gen
Ġab stra
ĠBe cker
ĠAr ena
Ã¤t igkeiten
ĠBer gen
Ġgew eiht
Ġsupport ing
ĠSchloss es
gesetz es
Ġmag azine
wh ile
ĠDrei ÃŁig
R ec
f amilien
or ium
Ã¼ ch
Ġp oll
ĠP ool
ist ungs
Ġk ing
ĠO ak
Ġhe aring
ĠVor bereitung
Ġbet reibt
Ġges amm
ĠAll es
Ġbesch loss
Ġletz tlich
Ġele ction
oin ted
ĠFel der
wal de
ĠLeg is
ĠClass ic
Ġadmin istration
Ġstaat liche
c iate
in fo
us her
ĠM alt
Ġc raft
ĠW ird
ic ial
Ġk onstru
all o
ĠJahr buch
19 32
Ġunter schieden
Ġ9 8
Ġfe els
Ġ7 3
Ġho tels
ĠHaupt rolle
ament al
Ġstre am
Ġerk enn
kathol ische
Ġpur poses
Ġreach ed
Ġparticip ants
Ġmount ain
Ġintegra ted
ĠViz emeister
d ung
Ġ Ã¤ndern
ĠS U
as is
Ġfor um
ver k
Ġco ck
fl Ã¼sse
ĠEx tra
ĠSÃ¼d ost
ĠAmer icans
ĠEle f
Ġstell ten
Ġcount y
schein lichkeit
Ġhouse hold
Ð¸ Ñ
Ġmeas ures
ĠHon or
Ġforder te
ĠSchott land
D atum
S aison
ĠF la
ĠF ly
ĠW i
ĠL aub
ĠU d
kt oren
Ġr is
19 19
ĠMar co
Ġgesch ickt
Ġac cep
uc ted
Ã¤tz ung
ĠBut ton
geord nete
ĠPhys iker
lah oma
ĠeigenstÃ¤nd ige
Ġverbess ern
Febru ar
! âĢľ
p in
r Ã¶
Ġt ast
ĠA gency
st ances
ĠF L
ĠW inkel
ĠR ade
ed el
Ġg orgeous
Ã¶ he
Ġy ellow
Ġle hrte
ĠMar x
ĠIt aly
ĠFre ude
oth ing
ĠOn kel
Ġed itor
Ġdre imal
ĠZug riff
ĠStÃ¤d t
Verein igtes
Ġreturn ed
Ġchallen ging
Ġclick ing
ĠMult i
Ġfund ing
Ġeffic iency
Ġausgeb ildet
ĠKonstru ktion
erkl Ã¤rung
L uft
M M
is is
Ġm anner
st art
Ġn Ã¤chst
ĠR it
ĠN ad
iv itÃ¤t
ho b
ĠAus stellungen
ile t
ĠInd iana
ĠWohn haus
ĠWinter spiele
Ġkeep s
196 8
ĠIde as
ĠHen ri
ĠHerzog tum
war ded
ĠKÃ¶nigs berg
Ġther apy
ĠHu bert
Ġshar es
ĠFeder al
ĠAf ghan
Ġconstant ly
O h
} .
Ġin ches
Ġin frastructure
st Ã¤
ol ine
ĠK Ã¤rn
ĠC urt
Ġth ick
Ġle ichter
19 42
Ġat mosph
ĠSe il
Ġlie fern
gew alt
ĠChar lie
ĠPra kt
Ġcert ified
ĠKommand eur
ĠwÃ¤hl en
ĠAufent halt
I K
M at
T E
T em
ĠS ams
ĠS atell
ĠD ak
ĠT ran
ĠK ohlen
ĠE ro
ĠE ier
Ġz ogen
ĠH unde
ĠH allen
ĠN HL
Ġfor ces
od s
Ġle tt
yp en
lag ert
ĠTr ennung
ĠMo ore
ĠChrist ine
ĠQu ell
ament o
Ob ject
Ġverkauf en
ĠMotor rad
Ġpres ents
ugu ay
Ġhil ft
k rank
or ders
Ã¤ ts
ĠD y
âĢ ¯
ĠC urr
os c
ĠZ DF
ien te
Ġor ange
me yer
fahr ens
ĠGes icht
ĠSh akespear
ĠAs ian
Reg iment
Bo ot
ĠErzÃ¤hl ung
Ġdest ination
ĠHohen lohe
ĠVerteid igungs
ĠMÃ¤nn chen
Ã¤rt ner
Ġbrow ser
ipend ium
ĠArgentin ien
in cl
st ens
ĠG or
ĠK abel
ĠE cke
ĠR ic
ĠL uz
Ġdem on
ag an
Ġwar n
19 10
19 11
ob a
ĠGe legenheit
ĠVers orgung
Ġmach ines
ĠHigh way
Ġconf irm
ĠBot schaft
ĠSlow ak
ĠPast or
Ġslight ly
d orfer
h ungs
Ġm Ã¤cht
Ġv ital
ĠK ommiss
ul der
19 35
19 72
Ġbest immen
Ġwel chen
alle tt
ĠBel g
mus ter
ĠHar vard
ĠKont akte
ĠnatÃ¼r liche
ĠSpr ung
ĠProgram me
ĠInstitution en
Ġvalu able
d ienste
r unden
Ġ ).
Ġ ==
Ġd t
Ġp ure
Ġh Ã¤ngt
ĠF an
ĠJ en
Ġk Ã¶rper
Ġan gew
Ġwh om
ok oll
ime tern
Ġwieder holt
ĠGeb irg
gem Ã¤ÃŁ
Ġmus ical
Ġgood s
ĠPaul o
Ġel imin
ĠGeneral major
Ġkon kre
ĠDisk ussion
ĠRÃ¤ ume
ĠKonzer te
Ġbehav ior
b urn
Ġa ges
at ischen
ĠR ome
ĠSch enk
ien sten
ĠRe zept
Ġle gen
Ġwe chs
rÃ¤ der
Ġent reprene
geb Ã¤
ĠVor teil
als o
haus e
Ġ185 6
ĠCom ic
Reg ion
ĠerklÃ¤r en
ĠChem iker
Ġpresent ation
Ġumfang reiche
ĠPak istan
b ring
à ¤
Ġw alls
il st
Ġp Content
ĠG le
ĠG ol
ĠH Ã¶l
ĠU C
19 36
ia e
ens wert
ĠAuf sichts
res te
Ġ0 7
ĠVol ume
Ġ[ ...]
ender s
ĠDem onst
Ġkommen den
ĠMont ag
Ġimpro ved
Ġlov es
ĠAp ost
Ġeurop Ã¤ische
Ġprakt isch
Wel come
Ġlandsc ape
H D
u hren
ĠD actylorhiza
ig sten
ĠV II
Ġauf gel
19 76
zeich nen
imm y
ĠBl u
ĠZw eiter
stra fe
Ġeinge laden
Ġopt imal
Ġhistor iques
Ġleg is
Ġappear ed
ĠChron ik
S aint
Z wei
or ation
ĠS amen
Ġf ellow
Ġn a
Ġc aught
ber gen
Ġge be
ĠEr gÃ¤nz
ph ones
ong s
ĠPr int
Ġdis p
ĠVerb reit
mat ik
Ġmed icine
ĠIns urance
Vor pommern
wh ich
Ġintrodu ction
ĠLeg ion
Ġbrasilian ischer
Ġrand om
M erk
Ã °
ĠS ale
Ġb order
ĠB ird
Ġan alys
ik um
ug ger
Ġhe ight
19 23
Ġch ocol
ign ment
az itÃ¤t
bes te
Ġsim pl
ĠBi ografie
Ġvoll er
lÃ¤nd ern
ĠFrÃ¼ hl
Ġprote cted
ĠAp othe
Ġill ust
ĠOpt im
ĠÃ¶ k
Ġscient ific
Ġadvent ure
Ġd ental
Ġs ides
ĠA y
ĠB arb
Ġo k
ĠP ersÃ¶nlichkeiten
sch les
ra hmen
ĠR iv
ĠL isa
Ġl yr
ck te
ĠSch uss
ĠUn it
Ġte eth
berg s
Ġsow eit
stell erin
nis sen
Ġsupp orts
ĠLim ited
Ġsuppl ies
Ġexhib ition
Ġmaxim ale
Ġmensch lichen
Ġclin ical
Ġhinzuge fÃ¼gt
P rÃ¼
b rechen
k ommt
w ahr
en ces
as ka
Ġp our
ĠT an
Ġan alyt
Ġver arbeitet
op ath
ĠVer tre
ĠEn kel
ĠWe iler
Ġbeg ins
Ġ0 5
Ġsol o
ĠMet ro
Ġcle arly
ros sen
Ġprogram me
ĠKind heit
Ġarch Ã¤
ÅĤ aw
gere chnet
Ġmess ages
Ġerr ichteten
Ġofficial s
ĠFert ig
Ġinstru ctions
F eld
T ime
n ur
n ord
n Ã¼tz
or er
al itÃ¤t
Ġf ir
im ental
ĠR ick
Ġl ayer
Ġr ene
Ġall eine
lo gen
Ġpr inted
Ġfe es
hand lungs
Ġverl ang
ĠPhot o
ĠRail way
Rel ig
h Ã¼tte
t Ã¤
Ġb undes
us ste
Ġf lav
um es
ach es
Ġvon einander
ĠSt imm
ĠAus schuss
Ġ5 000
att an
own ed
Ġ8 9
schie ÃŁen
ĠStud ios
Mit te
ĠBar th
ĠRes ult
ĠMittel meer
Ġinnov ation
ĠGemeinder at
ĠRuh estand
Ġopin ion
T rans
l t
p rechen
Ġs tet
Ġw et
al in
Ġb at
Ã¤ pst
Ġp ed
ĠI OException
ĠR af
ĠR eiter
ĠN assau
ĠJ eder
Ġge leitet
ĠVer leger
lin ed
Ġj oy
ĠSe gel
par tei
Ġro ute
Ã¤hl en
Ġpre gn
ĠTra vel
Ġwould n
ĠChrist opher
ĠTechn ische
ĠDire ct
ĠBrÃ¼ ssel
ube hÃ¶r
Ġleben s
ĠSpr int
uert o
ĠÃĦnder ung
Ġepis ode
Ġdoub t
ĠPrÃ¤fe ktur
h ome
Ġf f
Ġf ein
ĠB anken
st es
ĠK ast
eb el
ĠZ eile
ĠSp enden
ok es
ĠDe f
ium ph
ĠUS D
ĠFin ancial
stre am
Ġunser es
geord neten
ham mer
Ġfour th
Ġjapan ische
wir ken
ĠPfer d
Ġrecogn ized
ĠExempl are
ĠPader born
re chnung
ĠM ob
Ġauf s
Ġauf w
ĠVer y
ap ing
ĠGe fÃ¼hl
amm lungen
ĠUnivers al
ĠEx port
Ġverb re
Ġshe et
ĠBas il
ĠGen f
zÃ¼ gen
ĠBÃ¶ hm
Ġklass ische
frei heit
Ġgraph ics
ĠSchwier igkeiten
c ers
ĠP ommern
ĠK inos
op ol
ĠVer leihung
ĠRe ktor
ĠCh i
Ġ9 3
Ġgen ieÃŁen
ĠGr Ã¶ÃŁen
ĠMan chester
ĠSpiel s
Ġger ingen
eiter ten
Ġpl Ã¶tz
ĠPart ien
ĠGu y
Ġstar tet
ĠHerr scher
druck t
ĠDis ney
Ġherv orge
Ġdepend ing
Ġjem and
r ichtete
s Ã¤chsischen
È Ľ
Ġs itzen
Ġm agn
Ġv ary
ĠM au
Ġc red
ĠW isconsin
ĠC arr
ber ry
la te
Ġr iver
qu er
qu ert
ĠÃ¼ber zeugen
Ġgen e
Ġfe hlen
Ġlie ben
elle d
ĠTr in
Ġra ise
ĠEd in
stoff en
Ġbene f
ĠBu ilding
aun a
ĠWahr heit
ĠAcc ording
Ġak zept
================ ================
Ġappre ciate
ĠstÃ¤dt ischen
fir ma
? )
O f
R I
n el
ar us
ĠS ite
al teten
ĠF ame
ĠE w
ĠJ Ã¼n
ĠU we
Ġauf t
ver m
for ce
me ier
ĠAus wirkungen
ĠPr ince
pf alz
ĠZw angs
ĠTr ip
Ab sol
Ġchar ges
ole an
Ġ180 3
Ġsen ten
ĠWeiter hin
Ġbedeuten de
ĠGreg or
ischÃ¶ fe
ĠDokumentar film
2 50
L AN
l enz
v ements
it ate
ĠM ei
il ation
ĠL ub
Ġge zÃ¤hlt
ak ten
ĠAl uminium
Ġvor Ã¼ber
ĠY am
gew Ã¤ch
Ġag ent
ĠMed iziner
Ġgel ingt
Ġsl ot
Ġphot ography
wor tet
ĠForsch ungen
Ġorder s
fried hof
ĠverfÃ¼ gen
RE E
Ġprint ing
ĠZuf luss
Ġlif estyle
ĠGrÃ¤ fin
ĠÃľbersetz er
Ġbayer ischen
ĠSpan ish
J J
R C
k ommun
n isses
Ġt ests
Ġf ishing
ĠD I
ĠD ob
st Ã¤rke
Ġh all
ĠI gn
et ch
ĠR acing
Ġto ugh
th ese
Ġsich ern
19 22
19 73
Ġher unter
Ġour selves
utz te
St ation
ĠPh Ã¤n
hed rale
Ġprote in
Ġconcern s
Ġcirc um
Ġenth us
ĠVerbesser ung
G H
m Ã¤nn
un sel
ĠA kte
ĠE ag
ra ph
ĠL orenz
Ġan cient
Ġdem okrat
ĠEr langen
19 13
ov ice
ĠLand gemeinde
Ġgew id
ays ia
ĠEx pl
hand elt
hÃ¶ hung
Ġcandid ates
Ġguarante e
L S
W ell
ĠA hm
ĠB ush
ĠM Ã¼hlen
ĠK han
ĠR auch
ĠV eter
ĠJ oy
Ġe ar
og ie
ĠZeit schriften
ĠFl ach
pf lanzen
Ġbek le
ĠNord west
ĠDurch schnitts
ĠWer be
ĠBi ographie
tr ib
190 6
ĠVertrag s
ĠPubl ishing
ĠWochen ende
Ġhei ÃŁen
ĠLat in
Ġfavour ite
1 10
D C
S ec
Ġa men
ĠS ide
Ġp rÃ¼
Ġein gebaut
ĠT ib
am ents
ut ors
ĠH aup
Ġg aben
ĠO range
ver Ã¶ffentlich
ĠIn schrift
ĠEr ik
art z
end t
19 40
Ã¼n schen
Ã¼hr t
Ã¤d te
ĠHaupt ort
Ġcons ists
leit ungen
Ġehemal s
Ã¶m m
ĠSol ar
Ġschn eller
ĠSpe ed
Ġ185 5
ĠDis c
Ġconc rete
Ġsil ber
ĠOk res
ĠTschech oslowak
Fin ale
ĠPlÃ¤ nen
Ġermor det
ĠS achen
Ġv ib
ĠT ac
Ġl Ã¤nd
Ġge lesen
ĠO skar
ei ra
ver liehen
19 50
Ġra il
Ġhier fÃ¼r
rÃ¤n ke
ival ent
Ġiss ued
ĠFÃ¼hr ungs
ĠBu y
Ġwissenschaft licher
abil itÃ¤t
ĠJon athan
ĠerfÃ¼ll en
ĠPian ist
Ġt ube
Ġwar rant
Ġunter stellt
gel Ã¤nde
ĠFre unden
Ġeff ekt
gemein det
Ġcare fully
ĠDon ner
190 2
eter sen
Ġrespons ibility
ĠPrinz essin
Ġmill ions
Archite ktur
c ons
te ger
Ġw asser
ĠA tel
ĠB ond
Ġv ierte
ĠM ie
ĠD ein
ed ing
Ġl unch
Ġge Ã¶ffnet
ann over
Ġaus geschlossen
ĠAn satz
ĠAus stellungs
fin anz
Er stellt
ĠPe er
Re ad
Ġfl ower
Ġgu ter
Ġsur gery
ĠRuss ell
ĠStat istik
ĠSchm id
ĠKriegs gefangen
ĠFreund schaft
ĠTest ament
rÃ¤nk ischen
Ġcabin ets
ĠReihen folge
ĠÃ¶rt lichen
Ġpolic ies
D am
a ire
b rief
s ub
Ġt ight
Ġs ac
Ġw inner
ĠM ethod
ĠP eking
ĠF inger
ĠE valu
sch el
ĠR um
ĠL ocal
ĠN i
Ġge he
oc iate
ĠCont ainer
ĠIll ustr
sta ates
ĠÃ¼bern immt
ĠNachbar gemeinden
Ġchrist lichen
ĠWach stum
tor hÃ¼ter
F S
d ro
i ierten
l isten
Ġw Ã¤ren
Ġm oral
ĠD ig
Ġp or
Ġp ic
ĠK ond
sch i
sch reiben
ĠH altung
ĠJ oh
os se
ĠâĢ Ļ
ĠEr werb
ru der
ang o
19 31
iss ippi
St a
ĠAd ress
ĠCar lo
ĠQu est
Ġgef Ã¤r
Ġentwick elten
ros se
190 3
Ġimpro vement
ĠZust immung
Ġsor gte
ĠWass ers
Ã¶p fe
ĠAnth rop
Ġorigin ally
Ġschwar ze
B ack
L ast
M any
T op
l Ã¼ck
ĠB enz
Ġ1 18
Ġ1 12
il deten
ĠP le
ĠF reis
Ġc ake
ĠO hne
ĠSch re
19 37
ĠTe uf
Ã¤hr ungs
Ġpla te
uk i
Ġfre m
wert ungen
Ġ185 9
Ġtw ice
Ġdynam ic
ĠberÃ¼cksicht igt
ĠEro ber
r ent
t est
Ġt asks
Ġf er
ĠD aily
st age
ĠF lex
Ġl abel
id ad
for mer
ac ious
ĠNach kommen
Ġ8 1
ĠKon stantin
ĠGer d
ĠEl s
ata illon
ĠfranzÃ¶s isch
ĠGew inner
En ts
Ġpriv at
196 5
Ġair port
Ġless ons
k ter
l och
r ufen
Ġt om
at on
ĠD ating
Ġh l
Ġh ire
ĠH af
Ġbe zogen
ĠIn fe
ĠVer k
ĠVer sch
Ġex tended
hal f
Ġqu otes
Ġber ichtete
ĠSo ft
Nach bar
Ġbesch rÃ¤nkt
hol en
Ġ185 4
Ġbro ken
ĠBru ce
Ġkanad ischen
abet es
ĠTH E
ĠWes er
ĠDok umente
Ġbess ere
K rieg
L aut
a a
Ġd icht
Ġd ick
ro b
ter min
Ġp asst
ĠF ell
ĠK ok
ĠJ ury
ĠEin zugs
ĠPro zesse
ian er
ĠVor gang
olit an
ĠEx il
Un sere
ĠWh ere
Ġaccess ible
196 3
196 7
ategor ie
bÃ¼ ro
ĠPropert y
T urn
m ung
m outh
z uge
an ing
ĠT ipps
sch Ã¤d
ĠH ugh
Ġg g
Ġge liefert
ver halten
Ġse qu
iz ieren
Ġch icken
enn zeichnet
Ġbes ter
ĠAnd erson
ĠJan e
ins ichtlich
ĠAut omat
alle utnant
ĠAnfang s
ĠJust ice
leist ungs
Ġsuccess fully
Gem ein
Ġpartners hip
ĠOpp osition
F Ã¼gt
s endung
y en
es c
Ġw ies
Ġder selben
ĠB og
Ġ1 13
ĠD ave
ĠP ear
et tet
ĠL okomotiven
ĠC hen
Ġl as
au ben
Ġwar ten
qu ellen
Ġso fa
rÃ¤ glich
ens atz
ult an
Ġfe hlt
ĠSte ink
ĠSh ang
Ver walt
iven ess
ĠVers ionen
Ġsk ill
196 6
ĠPil ot
Ġsett ings
Ġhor se
Tra iner
ĠBundest ags
Ġcollabor ation
Ġeingew eiht
Ġa gencies
ĠB od
ĠB reit
Ġv ast
ĠF okus
ĠH C
ĠW iesen
ĠC omb
Ġge arbeitet
ĠU EFA
ĠAn wendungen
ust ic
âĢĻ ,
Ã¤r er
Ġ9 2
fin det
ĠSpiel ern
Ġtr ial
Ġra ck
Ġstand s
ĠRÃ¼ck tritt
Ġpost ing
Ġturn s
Ġevangel isch
Produ ktion
ĠStruktur en
Ġnied rig
Ġfinanziel len
ĠAstron om
a ult
l ov
m Ã¶glich
it iv
un er
Ġf ran
ĠD OC
âĢ ĭ
ĠC P
ĠC ome
ran che
ant es
ĠPr ime
Ġmy th
ĠSh ar
ĠTr ust
ĠEl f
por ter
ĠDurch fÃ¼hrung
ĠTem p
west lichen
Ġemp fehl
Ġempf angen
Ġult imate
wach ung
ĠLÃ¤nd ers
andin av
B O
F ach
M al
T ag
W ar
ĠF I
am ik
ĠR ent
ic ts
ĠN est
ĠO ption
Ġre covery
ver hÃ¤ltnis
sp rechen
19 46
Ġme at
ĠGe fÃ¼
ĠNe xt
Ġsh ops
let ten
ĠVerb indungs
Ġexper iment
Ġplan et
ĠAlb ums
Ġperform ing
ĠViel falt
ĠSy mp
ĠmilitÃ¤r ische
Ġcandid ate
ĠDist anz
ĠAnz eige
en ten
ĠS itze
ĠM ul
ĠC hal
ĠN y
ib il
ĠÃ¼ber liefert
19 41
Ġall gemeine
ĠMar cel
bar ung
ott es
eich ern
Un garn
ĠCl ient
Ġfound ed
190 5
190 7
190 9
ĠNeu zeit
ES CO
ĠMer cedes
sm ith
Ġfunktion iert
Wil helm
Ġeindeut ig
k Ã¼nstler
t im
or ne
ĠS ix
ol ith
ĠK lin
Ġun bedingt
ne uer
og ramm
Ġne arby
ĠÃ ©
ail able
Ġout put
cc i
ĠPar ad
Ġ8 6
Ġges agt
Al so
ĠGrund schule
Ġnun mehr
Ġsign al
Ġpos itions
ĠSen ioren
ĠEhe mann
ĠMont real
pec ted
Ġregion alen
ĠProt otyp
ĠÃ¼b lichen
ĠVarian ten
ĠJed och
franzÃ¶s isch
Ġgee ig
Ġbewe gt
m utter
s Ã¼d
Ġs essions
ar ium
Ġf ell
Ġf Ã¶rdern
Ã¤ sten
ra ut
ra ben
em er
ĠL ac
ĠN AS
Ġauf merksam
Ġsp r
ens ed
Ġar gentin
Ġmo le
Ġstand ing
Ġinv ited
ĠSaison ende
Ġtro uble
ĠStraÃŁen bahn
Ġeffect ively
ĠbenÃ¶t igen
Ġbedroom s
irurg ie
V ier
h aven
k rÃ¤
ĠJ ess
Ã¼r mer
Ġde cl
hn s
ĠLe ader
Ġgen auso
ĠSte el
ĠZw ar
Ġknow ing
Ġqual ified
Ġcond ucted
Ġ185 3
ĠKom tur
Ġern st
bereit et
Ġsech sten
ĠWit we
Ġehren amt
O ut
z ucht
Ï Ħ
ein richtung
Ã¼ se
ĠD orn
ess ed
op en
ru ption
lie gende
Ġent stamm
ite e
iff s
ĠRo und
ĠMag d
ĠLandkreis es
Ġhistor ic
wei ÃŁ
ĠGi useppe
Ġgraph ic
Ġcloth es
Ġsitu ations
Krit ik
Ġbesonder er
Ġattach ed
K Ã¼nstler
P ark
i ago
Ġd unk
al ben
Ġin put
Ġm ic
ĠT auch
ĠH Ã¼r
ste chn
be teil
enn zeichen
ĠAb tei
ĠAb wehr
St art
eins atz
ĠFe ucht
Ġbed ient
ĠDo uble
Ġ185 7
ĠSen ator
ĠDienst leistungen
Ġcompar e
Ġattra ctive
How ever
ĠAud i
Ġeigent liche
Ġperman ent
Sow jet
M ost
R P
p ed
w ass
us hed
ig u
ĠF unktions
ĠR unden
ĠL ip
ĠC ase
Ġbe zÃ¼glich
ĠV irt
Ġk onst
ĠO cean
ere cht
ĠRe ferenz
Ġbei der
18 90
iss a
Sch on
Ġfest ge
klÃ¤r t
Ġinner en
190 1
ĠUl m
Ã¤ss ern
ĠTur ner
ĠDres dner
ĠLu is
nehm ung
ĠKonz ern
Ġzuf rieden
Ġgradu ate
ĠSqu are
inu ier
Ġsympt oms
l inger
w eiter
is st
ĠF itness
ĠG lÃ¤
ĠW rest
and y
ul ous
ĠSt or
ess a
Ġst retch
Ġsch m
ĠAl ber
ĠMa j
als ieger
ron ics
bau werk
ĠKon ferenz
Ġind ire
ĠEl be
Ġevent ually
Ġident ified
ĠDiv is
Ġged acht
Ġregular ly
bas is
Ġcaus es
ĠdÃ¤n ischen
ĠjÃ¼nger en
Fo otball
ĠMultic ast
K ur
S il
in ne
Ã¼ ÃŁ
ĠM Ã¼ndung
ĠD M
ĠG az
ĠH Ã¤usern
Ġg ifts
ab on
ĠSch er
op ing
ĠLe hen
Ġus ual
ohn t
ction al
Ġber aten
Ã¶l z
Ġ12 00
Ġdis pla
ĠZe ilen
Ġgrow n
Ġorgan ized
ĠBrit ain
fa ction
ĠPublik ationen
ĠAust in
Ġlic ense
R ichtung
W asser
h ten
k inder
es ents
at in
Ġn ative
Ġh idden
ĠG y
ten nis
ĠC C
ĠJ ag
ĠU etersen
if est
Ġcon fl
lo yment
ĠLand rat
ĠUm satz
Ġob jects
ĠAll gemein
Ġspe zif
ather ine
ĠBerg bau
Ġter rit
ĠOper a
ĠÃ¤hn liche
ĠBahnhof s
ĠErschein ung
Ġbedeutend sten
Ġzusammenge fasst
verl ust
Ġfoll ows
L ied
P rÃ¤sident
P osted
g Ã¤nger
Î ½
le e
Ġv olle
ĠD FB
ĠK ot
ĠK iss
sch rau
Ġan gest
ĠSt Ã¤rke
we iger
Ġr ies
ĠBe fest
ĠBe wertung
19 43
nen nung
urg esch
ĠNe ug
Ġen ables
co hol
ĠMa ÃŁe
Ġ7 9
ĠAnt arkt
Ġstar ben
Ġ185 1
Ġnational sozial
Ġinvest igation
ĠIr ish
ĠFlor ian
Her r
ĠAdmin istration
R und
R om
k Ã¼
m ing
m ol
Ġbe herr
Ġan bie
ĠSe ch
Ġman chen
ĠVor schlag
ĠFre m
ĠFre il
ĠzurÃ¼ck kehr
stit u
Ġcomm ission
ĠHil de
Ġspeziel len
wel ry
ĠSat tel
sthe orie
ĠFranzÃ¶s isch
ĠSchÃ¼l ern
ĠGord on
k lassen
es a
Ġs alt
ĠS G
ĠL az
Ġg rad
ĠC av
Ġim pl
if ter
Ġaus gestellt
ĠEr haltung
qu et
qu ir
Ġcon v
Ġch ief
Ã¼ck t
ition al
ĠSchw estern
Ġqu e
min der
Ġange kÃ¼nd
ĠBra z
Ġaufge teilt
196 4
ES T
ĠSchm uck
ĠMinister ium
Ġoffic er
ĠRÃ¶ mer
ĠEff ekt
idel ines
Ġinstitut ions
1 20
C al
P op
on omen
Ġs org
ĠS ara
Ġf asc
Ġm otion
Ġein gemeindet
ĠK ro
sch rank
ĠN umber
ĠO F
ab a
Ġ18 44
Ġbut ter
ĠGra ben
ict ions
ĠTr ink
Ġerw arten
ĠJohann a
Ġcar ried
ey er
FuÃŁball trainer
ĠHil f
ĠTyp e
195 2
ĠHei z
ĠEnter prise
Ġumfang reich
P osition
V ER
as a
ĠG P
ĠK ids
ĠH ost
ĠR Ã¼st
ab ol
Ġver ring
Ġis lam
Ġun less
ure au
oc ation
ign et
ĠFran co
Er n
asch a
Ġpl anned
ĠAir lines
Ġhold s
Arch Ã¤
Gra f
Ġspirit ual
ĠInnov ation
Ġumfass ende
ĠInsp ir
Ġverab schie
gewÃ¤ch se
? âĢĿ
A BC
R enn
R ennen
S uper
o a
it iert
Ġw Ã¤chst
ĠF erner
ĠK em
ĠK roat
ĠC onn
eit h
pp t
Ġr Ã¤um
ĠEr hebung
ungs ort
Ġ18 16
ĠNach kriegs
ude d
ĠNor bert
Ġselbst stÃ¤nd
ĠDr ive
ĠHar ald
Ġdisc ip
onen te
Ã¤chs ische
A c
p ur
Ġs ad
ĠS emin
Ã¼ tt
ĠM is
ĠP s
ĠP lattform
ĠF Ã¤r
ĠL Ã¼n
Ġbe achten
ers teller
ĠIn haber
ĠSte iermark
fess ion
stein er
ĠPhil ip
ĠOst preuÃŁen
Ġwei ÃŁe
Ġclos ely
ĠEU R
Ġzie m
ĠModer ator
ĠSak r
ĠmaÃŁ geblich
Ġdemon stra
ĠEdin burgh
e z
y ou
ĠA kten
ĠM indest
Ġ1 16
Ġg un
Ġ18 43
Ġad s
Ġro w
ĠBand s
ief el
Ġbesch rieb
Ge gen
ĠLei b
Sp eichert
ĠCal c
Ġcr ime
fest ival
Ġenter tain
ĠSold at
Ġpick ed
ĠbeschÃ¤ft igte
ĠJahrzehn te
ĠVerstÃ¤nd nis
p op
in um
or able
at isch
ĠM az
Ġ1 17
Ġein ger
ĠT um
ĠK und
ĠK ilometern
Ġbe arbeitet
Ġge fe
sp ring
Ã¤t tern
Ġsc ript
Ġbo ost
Ġreal ize
Ġstehen den
ĠAustr ia
kan al
ĠVorsitzen de
Ġdivers en
Mod us
gram me
Ġbem Ã¼
ĠNationalsozial isten
ĠMarc us
ĠDet roit
Ġdipl omat
D oppel
K n
k irch
s an
Ġa wareness
Ġm iner
st ahl
st het
Ġn utzt
ĠR ied
ĠSt u
Ġst il
Ġab sor
ov o
be griff
auf tritt
stand es
Ġ0 8
Ġverb inden
hol der
Le icht
ĠKre u
Ġcolle cted
room s
ĠVolks republik
ĠSa arbrÃ¼cken
ĠOk lahoma
Ġremov ed
ixt ure
ĠFinn land
Ġwire less
F lor
N icht
S el
d el
k ing
v it
w enn
z ule
Ñ ĥ
Ġt ur
Ġm orgen
Ġz weig
ut a
ĠL ess
Ġk illed
Ġge p
la im
af eln
Ġfor ec
sp reis
Ġi OS
ok en
ob i
ue z
ĠVor name
ĠVor stellungen
Ġtra ined
cl ing
Ġserv es
ellen ce
ĠBre ak
Ġel ig
gar ter
Ġconsider ing
Ġrepr esents
ĠEss ay
Ġcy cle
ĠStreit krÃ¤fte
dar steller
ĠEuropameister schaft
ĠEuropameister schaften
ĠAsp ekte
Ġgeplan ten
Ġchocol ate
V C
m ain
u ine
st urm
Ġp apers
ra de
ik eln
Ġver lei
ver leihung
ĠBe arbeitung
Ġso ul
19 48
up t
Ġvor be
ĠAb raham
tz t
ĠMan ufact
ps ych
Ġsub t
Ġeinge zogen
ĠRad rennfahrer
Ġfound ation
Ġkon zip
itu ationen
ush ing
Ġorgan ic
Ob wohl
Ġresearch ers
Ġangeb lich
Ġsuper ior
gehen de
Ġarg ument
ĠJew ish
Ġappoint ment
D ialog
g Ã¤ng
it able
ĠA ktionen
ĠB C
Ġv intage
ber ge
Ġbe geg
ĠU ran
âĢĻ .
Ġoff ens
Al ben
ĠPart ners
ĠStand ards
wissenschaft lichen
ĠKat zen
sprach ige
ĠFlor a
ĠMount ains
aud i
Ġverhinder t
Ġbere chnet
ĠBrig ade
ĠtÃ¼rk ischen
Ġbeob achtet
Ġappre ci
ĠWiederauf bau
ĠGÃ¶t ter
Ġdenkmal geschÃ¼tz
M ass
O t
it Ã©
Ġb io
ĠB B
ĠM ahl
ĠM asse
ĠD ass
ig rant
Ġn erv
ĠF ont
ĠG riff
ĠK rÃ¤fte
ĠH ear
Ġunter teilt
ĠAb sol
ĠIm mer
St atus
ĠHo uston
Ġexp os
reg ister
uc lear
ĠAt mosphÃ¤re
ĠDr amat
Le x
ĠFranz isk
Ġland es
ask et
ĠEmp fehl
ĠSchwar zw
ĠNic ol
Ġtransport ation
Ġdom estic
Ġregistr iert
ĠPow iat
ĠnÃ¶t ig
ĠBÃ¼nd nis
W o
ar is
Ġb an
Ġb lau
Ġin telle
Ġin stitution
Ġf unny
ĠB Ã¤r
st iftung
ĠF u
ĠF ortun
ĠI ra
em eter
ĠH els
ĠR ace
ĠL A
ĠN ations
ĠN Ã¶rd
ĠJ osh
kt ive
op ter
ĠEr ziehung
Ġsp anische
Ġ18 21
ial en
Ġex port
ĠCh Ã¢
teil ten
Ġ9 1
ett es
ank a
ĠPf licht
Ġgl ad
ĠEm ail
190 4
Ġmir ror
Ġdefin ed
Bau denkmal
ĠLou ise
Ġhost ing
Ġrelig ious
Ġzweit es
ĠNamens geber
ĠAuft ritte
ĠDrit ter
Vol ks
Techn ische
ĠMÃ¤r chen
ĠRess ourcen
C hem
ar at
ĠA la
ĠM ale
ĠF act
ĠK ann
ĠL uf
Ġg rÃ¼ndeten
ĠC ock
Ġbe ar
ĠIn halts
Ġj ung
ens ation
ĠTe en
alt itel
Ġ9 7
Ġdar stellen
ober flÃ¤che
Ġ10 1
ĠBet racht
195 8
ĠAuss agen
kurren ten
Ġmittelalter lichen
ĠPho enix
ĠPersÃ¶n lichkeit
ydra ul
I hre
g ies
g rÃ¼n
i ja
y an
ï »
ĠB ren
il iate
ĠT ieren
ĠF ive
Ġc orn
ĠK ansas
ĠI tem
ĠW at
ĠR Ã©
ann y
19 17
ĠDe te
ĠY or
sk irche
ĠAnd y
Th ank
sh aber
ĠStra teg
Ġend s
Ġcol umn
ĠDre am
Auf gelÃ¶st
ĠErw art
Ġworks hop
atÃ¼r lich
ĠgrÃ¶ÃŁten teils
Ġinform iert
ĠCons ult
ĠLuc as
Ġkrit isiert
ĠgefÃ¤hr det
Ham burg
G ed
g ru
t age
Ġs oph
ĠS ich
ĠD allas
ĠH arb
ul ing
ĠSch ult
Ġwe ap
ĠStadt gebiet
Ġem ph
bl ings
uck er
Ġfest gestellt
ĠKomp lex
anad ier
195 9
Ã¼rz te
ĠHeimat stadt
Ġlik es
Ġcra ck
ĠMuse en
ĠSchles ien
Ġdraw ing
ĠVize prÃ¤sident
Ġdetermin ed
ĠHT ML
ĠAlk ohol
Ġpersp ective
/ *
f are
Å Ľ
Ġf ro
hr ingen
ĠL Ã¤ng
ĠZ wer
Ġon going
ĠAn bau
ĠSte ine
ĠMo or
ĠVers icher
pl Ã¤tzen
ĠKn ight
sport ler
ĠPla yer
ĠKommun ikations
Ġfood s
ĠIll ust
Ġpoln ische
Ġverste ht
ĠArchÃ¤ ologie
Ġwand te
Ð¾Ð ²
Ġreve aled
Ġpropos ed
Ġign or
W eiter
f isch
p Ã¤dagoge
Ġ {
ĠS E
ĠS iz
ĠD ress
Ġh ang
ĠT alk
Ġc arbon
ra iner
ĠH ahn
ĠL ith
ik at
ĠIn cl
ĠAn walt
ĠAb lauf
Ġtra fen
ĠPh ant
ĠEd itor
ĠSand stein
Ġenter ed
ĠSamm el
Ġstyl ish
c or
m aus
Ä Ĺ
ge gangen
ĠD ritten
ĠH ung
Ã¼r tel
sp rachen
ĠEn cyclop
ĠUnter richts
ystem s
Ã¤ll ig
Ġaufge geben
Ġschn elle
Ġoper ate
kn Ã¼p
SS R
Ġdeg rees
gesp ielt
ĠBeweg ungs
O O
h ost
ĠP oten
ĠE k
Ġan f
Ġ18 18
ĠGe fe
iss ions
Ġar ms
ake ten
Ġtra v
ĠJan eiro
Ġtr ib
ĠMed icine
Ġger inge
ĠCon stru
ĠWerk zeug
yr ight
Ġaufge hoben
ĠPal ast
ĠZeich nungen
iction ary
dr ama
Bundes liga
ĠLaur a
ĠDub lin
Ġstattf and
M ay
j un
m ord
te or
Ġf Ã¤hrt
ĠB j
ĠG itarre
ĠR ally
ic ultural
Ġer fasst
Ġer rang
od ing
Ġ18 32
ens burg
ĠStadt rat
gl as
ĠGra ham
ĠAd vis
ork ommen
Sch utz
ende d
ĠArt illerie
Ġdec ade
Ġrem aining
Ġbed ro
ĠBro t
Ġfac ing
ĠErn Ã¤hrung
plan ung
195 5
189 8
Ġtre ated
ĠGesetz es
Med aille
Ġinteress iert
Gemeinde auflÃ¶sung
leis tet
Ġqualifiz ierte
ĠLi bert
Ġengag iert
Ġhy per
ausschuss es
fal se
Parameter ID
" :
E ben
W al
nd orf
Ġt all
ig r
ĠR as
ir aten
Ġge omet
Ġre venue
ass o
Ġr id
Ġne ug
ĠÃ¼ber zeugt
Ġex pression
ĠNach lass
In halt
ĠSchw ed
rich tet
mit tag
Mann schaft
Ġpolit ischer
Ġverm utet
196 2
Ġbew ir
Ġlet ters
Med iziner
Hand ball
ĠCle mens
Bi ografie
ï» ¿
7 00
s ort
Ð ´
Ġt we
Ġb rachten
ĠP ath
ĠK upp
ĠC oc
Ã¶ hm
ir en
Ġer zeugen
ĠV olleyball
ĠBe frei
Ġat tended
Ġbeg rÃ¼nd
Ver band
Ġgeb unden
ĠSÃ¼d t
hol ung
ĠAss istant
ĠTour isten
wor ld
Ġschwed ischer
Ġmix ed
Ġdep th
ĠKel ly
ĠVort rag
Histor ische
Ġaccommod ation
ĠErwachsen en
Ġatmosph ere
Merk male
I nde
M Ã¶gliche
T her
V ideo
c as
f iguren
u eller
on ent
ĠB usch
ĠG ib
ĠG reek
ĠK ore
Ġl iquid
Ġre produ
th al
qu ote
auf gaben
erv ers
Ġnot iced
ĠIm pro
zeit lich
man ager
ĠAll gemeine
ĠFe ier
Ġsupp osed
ĠNieder lagen
ĠAnt ike
189 9
Ġident ity
Ġredu ced
Ġnet works
Ġbeteil igte
ĠUN ESCO
Ã¤cht nis
ĠRon ald
L ie
P M
W appen
f onie
Ġp ow
Ġc enters
im il
sch lossen
ĠH amp
Ġver fasst
ĠDe kor
ĠMar athon
ieren der
Un ser
Ġausge dehn
ĠStre ifen
Ġsur prise
195 6
Ġlist ing
osp el
Qu elle
Ġnie mand
Ġmeet ings
ĠCent ury
Ġrepla ce
Ġeingest uft
s he
en berg
on c
le ans
Ġm a
ĠF aktoren
ĠG rant
ach se
Ġer ober
Ġe cht
ĠSch al
ĠEin kommen
ĠBer at
Ġprov en
ĠTr io
ĠAll ianz
schl Ã¼ssel
Ġsho ck
Ġass ets
ĠRo te
ÃŃ k
ĠMot to
ĠHistor ischen
ĠRel ief
Ġmom ents
ĠMas ters
ĠVoraus setzungen
ĠMaur ice
Ġerle bte
izien z
ĠRal ph
. ;
I B
K ar
N et
h Ã¤ngt
Ä Ł
er al
Ġt ells
ĠS D
Ġb ars
ĠM Ã©
ĠT aus
ĠF res
am as
Ġc ro
ĠC ow
ĠC art
ist ing
ĠSt ick
ĠO N
ĠSch iffen
ĠÃ¼ber all
19 47
lo cken
ĠSchw ein
fl ow
ĠZw eite
ĠKunst denkmÃ¤ler
Ġfl ash
ĠPer u
ender t
ĠSeit dem
zy linder
ĠPsych iat
ĠRen ov
usst sein
ĠEntscheid ungen
ĠLy on
ĠIdent itÃ¤t
zub auen
Pla y
Ġelektr ische
Ġassess ment
Ġmil k
ĠRober ts
Ġsud den
ĠDreiÃŁig jÃ¤hrigen
F iction
R ich
k linik
s l
u ages
w enden
Ġb ags
Ġf usion
le isten
ĠT all
ĠF Ã¼
ĠW ettbe
Ã¶ cke
ot os
ad ion
ad bach
Ġzu verlÃ¤ss
Ġj ene
our ces
ĠÃ ģ
ĠTh rough
ĠLand gericht
ĠGesch enk
man ischen
ĠMon ster
Ġfl ights
ĠBischof s
189 5
ĠPrÃ¤sident schafts
ĠOs lo
ĠMr s
Ġmat ters
Sonst iges
H g
I hr
V G
d re
h Ã¶ch
j Ã¤ger
l ia
Ġf urn
ĠB ucht
ĠM eine
st oÃŁ
ĠL ay
lich ten
Ġre ichte
id al
ĠSp ain
Ġcom pr
oc aust
Ġcomp lic
Ġinter face
eid ung
Ġspe aking
Ġtyp ical
stre ifen
Ġident isch
ĠAmts gericht
Ġoffen e
maler weise
ĠCap ital
Ġfix ed
ĠlÃ¤ng ere
ĠiP ad
ĠausdrÃ¼ck lich
L ud
W he
c ular
f uÃŁ
Ġ essen
Ġa w
le id
ĠA B
ĠA ge
ĠM D
ig ern
ĠF F
ĠG rif
Ġc lock
ĠE gypt
ĠH umboldt
ĠL iver
Ġg ross
Ġbe er
ĠN ature
ĠN OT
Ġver zeichnet
Ġfor est
Ġsp l
Ġfin de
ĠCo le
schl Ã¼sse
ĠRes idenz
ĠWohn ungs
Ġverm eiden
ĠRed akteur
ĠKind es
hers tellung
Ġseem ed
ĠHay es
ĠElect ric
Jose ph
C ount
H ello
O s
v ik
ĠS ay
at iver
as ie
ĠE volution
Ġg al
ik ro
ran ten
Ġab gelÃ¶st
Ġex ternal
rÃ¤ uch
ĠGr as
Ġje w
ĠAut os
ĠVol ker
Ġdesign ers
ĠDo ctor
Ġavail ability
Ġextre me
hab t
ĠKolle g
Ġexpect ations
ĠRepubl ic
Ġlok ale
ĠgÃ¼nst ig
wÃ¤rt igen
mot oren
ĠBom ben
ĠOffic er
ĠNR W
Dav id
L ei
a er
d ichte
es er
re ation
ein kommen
ĠG un
ĠK ings
ĠI ss
ĠH Ã¤nde
ber ater
Ġer zielt
if th
ste her
Ġab ges
tel la
Ġ9 4
ĠSo f
Ġob s
Ġrec orded
Ã¼nd er
Ġfre quently
Ġeng age
Ġabge leitet
ĠErn est
leben s
ĠStutt garter
Ġmain ly
Ġsw imming
ĠJournal isten
Ġcamp us
Ġkont inuier
ĠPed ro
Ġeigent lichen
ĠVul kan
ĠTenn essee
Ġaccep ted
! "
E vent
k ular
k ommission
ã Ģ
ch ing
it as
Ġs amples
ĠB ible
ĠJ ason
gen s
Ġge ar
ĠO il
ĠBe weis
ia de
ĠNe v
ou v
Ġtra g
ĠAd miral
ograph ischen
ĠHand lungs
Ġdire cted
Ġsub stant
US A
190 8
Ġpay ing
Ġaff ected
Ġsicher te
ĠKrit iker
ĠWand el
fÃ¤ll ig
ĠRestaur ants
cep ts
ĠBundest ag
ĠKent ucky
ĠSozi ologie
ĠSynag oge
A ir
D i
P ierre
t lichen
Ġt ested
ĠB reis
ĠB ibli
Ġv end
ĠM ust
ĠD ritt
ĠF Ã¤lle
et o
Ġg rew
Ġl ust
og ne
Ġr ig
ĠEr nennung
Ġ18 35
ian ces
Ġdevelop ers
ĠGew Ã¤sser
ĠRuss ischen
Ġclos er
Ġfac ilit
ĠIhr es
189 6
Ġfile d
Ġreturn s
Ġvirt ual
verstÃ¤nd lich
ĠFlag ge
ĠMitarbeit ern
**** ****
ĠWurz eln
Ġkorre kt
Ġgg f
L uther
M er
V E
n acht
v ents
Ġ Ã¤nderte
ĠS ier
Ġv illa
ĠP ixel
im aur
ĠK ate
ent schieden
ic ient
ĠC ant
ĠVer ordnung
ĠRe vol
ĠSp ar
19 49
auf lage
Ġev ol
arbeit ungs
ĠEx ception
bach s
bet riebe
Ġcap abilities
ĠUp date
ĠEst ate
ksh ire
uum l
k ilometer
m Ã¤r
ĠD ame
Ġh osted
ĠG rÃ¼nde
ĠE S
ĠV ision
if ier
ĠZ ert
Ġver folgt
ver teilung
Ġbei ge
Ġ18 45
ĠAr c
be zirks
Ġwe alth
Ġsh ift
ĠSchw Ã¤b
Ġoff ices
ĠPh arm
Th anks
ĠPf ei
ĠStud ents
ograf ische
ĠWor ks
Ġerreich bar
Ġabge lehnt
ĠWar schau
195 7
Ġoft mals
ĠzusÃ¤tz lichen
Mod ell
ĠUrs ache
friend ly
ĠLandtags wahl
ĠTot al
ĠFrances co
Ġziem lich
y k
Ġd ent
ĠL Ã©
Ġe ast
Ġst ated
Ġle iden
Ġ18 46
ĠFl ur
Ġins zen
akt ions
ĠSer b
ĠChe v
ĠBel ast
Ġsetz ten
flug zeug
ĠBill y
ĠBist ums
Ġmusikal ische
BevÃ¶lker ung
Ġnutz te
ĠScot land
Ġdanger ous
Ġbrill iant
ĠInse kten
J a
h lich
Ġs uff
st unden
ĠT un
ĠT ower
ĠF DP
ĠE asy
Ġz iv
ber gt
Ġk rÃ¤ft
Ġk Ã¼mm
Ġge heim
ik ers
ĠSt ro
os om
qu in
ĠSp alte
Ġ18 14
ĠGe orges
Ġro ugh
Ġtr ig
ash i
Ã¶st liche
ĠTo uch
ĠSol id
ĠMitte le
Welt cup
Ġerk annt
ĠGeist es
Med ien
ĠLaw rence
Ġerziel en
ĠBlÃ¼ te
ĠSÃ¤ ulen
ĠVerkauf s
Ġimag ine
Ġproced ures
Ġgewid met
j er
r s
x e
Ã ®
Ġt aught
ar est
re lated
ĠF uture
ĠH ydro
ic ted
Ġer lern
Ġge kauft
ĠO w
id ance
ok ol
ĠBe fore
Ġ18 20
omp son
Ġ0 2
ĠUr kunde
ĠOrts teile
ĠLebens raum
Ġrest lichen
Ġbig ger
Unter nehmer
stehen den
Man ager
Ġwid ely
ĠEv ans
ĠAtlant ic
umn i
Ġbrow se
ĠAuseinanders etzung
Ġmur der
E igen
R em
S eite
f und
ĠS ke
Ġf ried
ĠA ra
ĠD Ã¼
Ġh insichtlich
ĠF uchs
Ġc um
ĠE id
ĠC ab
ĠN an
Ġth orough
Ġre ader
Ġaus einander
ern t
Ġ18 10
ĠEin z
ĠMed ik
Ġreal isiert
ĠLin ux
Ġret ten
En gl
ĠMat rix
ĠCont act
ĠTro cken
ĠTex ten
ĠauÃŁer ord
Ser ver
Ġfiel en
Ġsignificant ly
ĠMach ine
Ġverg essen
ĠWeimar er
ĠAfghan istan
D ienst
Z usammen
Ġd uty
ein trag
st Ã¤dt
ĠF unde
am ic
ĠC ut
ĠZ ut
Ġver standen
Ġsp lit
ok ing
Ġ18 42
ake te
fahr ung
Ġvers ions
ĠInter ess
Ġinternational er
Ã¨ ne
Ġturn ing
ĠTurn iers
omet rie
komp lex
Ġstrateg ic
Ġbetre ff
ĠScott ish
Don ald
ĠKanz el
Ġsitu ated
ĠHarr is
Ġconvers ation
F K
R hein
W A
k orea
Ġt iny
ĠA uÃŁ
ĠB eth
ĠD ag
Ġp ill
Ġg aming
Ġer leben
ul us
Ġge zwungen
Ġst im
th iop
sp olitik
Ġsp ark
Ġ18 13
lo h
rat ive
Ġad opt
Ġwo oden
Ġcont rast
Ġrec ording
Th omas
ĠBundes regierung
reg on
schlieÃŁ en
ĠFach werk
189 2
ĠMiss issippi
ĠEt wa
Ġregion ale
Ġangegeben e
wander ung
ĠGebÃ¤ uden
Ġhighl ight
Ġilleg al
ĠSchlagzeug er
Ġspezial isiert
ĠFerr ari
ĠVerbrauch er
F amilien
R eihe
u der
Ġt icket
ĠT SV
ĠG ary
ĠG umm
sp rech
ov ed
Ã¶r n
ĠCh art
Ġres ort
ĠSo ul
Ġev olution
ĠBundes straÃŁe
ĠMann es
ĠIs lands
Ġtechn ique
fra uen
ĠMot oren
ĠGemein schafts
ĠZe ug
ĠauÃŁer gewÃ¶hn
Ġerk ennt
ĠRob in
miss ions
ĠÃ¤uÃŁ eren
dis ziplin
Ġce iling
Ġbon us
Listen er
F ree
G E
S im
S ub
U s
W M
Z ug
f onds
g alerie
es tet
Ġs ink
ĠS ain
ge h
Ġh ess
ĠF ein
Ġc am
em en
Ã¶ hne
Ġbe ziehen
Ġe ase
Ġge folgt
Ġst ring
Ġfor med
ĠAn meldung
Ġso le
Ġ18 47
Ġex cess
ĠVor teile
Ġcomp at
ĠPr ize
lÃ¤ chen
Ġsho ot
Ġentsp ringt
Ġgest altete
Ġweek ly
ĠDu ke
Ġbra un
ĠFrankreich s
Ġfact ory
ĠStr Ã¶m
bÃ¼ hne
Ġemplo yment
fÃ¤l ischen
Ġhor izont
ĠErinner ungen
ĠVie h
ĠFant asy
verteid iger
ĠBegeg nung
Ġcrow d
Ġath let
ĠSlowak ei
F k
he orie
Ġb ab
ĠC ott
ĠSt aub
ĠSch Ã¤fer
Ġle istete
ant a
Ġdurch setzen
ĠOr leans
ĠGra nde
ĠBesch luss
ifiz ierte
Ã¤m mer
So ftware
ĠBaum w
ĠPan el
ĠZwe cke
ĠOut door
Ġfa iled
Ġverp asste
ĠAdmin istrat
ĠSaf ety
I X
i u
Ġd iam
ĠS ind
ĠS einen
re b
re z
re de
us a
ĠA uÃŁer
ĠB att
ĠM ang
Ġp od
ĠF ollow
Ġc erem
ĠE T
om ing
Ġg am
ĠC rit
ĠC ry
ĠN elson
Ġan al
ann els
Ġauf einander
icht ig
ag ram
ĠEr mitt
se a
ob le
Ġ4 50
ĠBr ut
ĠBere chnung
ĠWer bung
Ġche ese
ĠBel ie
sicht lich
Ġwei bliche
eint rÃ¤cht
Ġ180 8
ĠHa ag
Ġfact or
gesetz te
Ġjeder zeit
Ġbetre ut
Ġfig ures
ĠJob s
Ġerinn ern
Ġmusikal ischen
Ġviol ence
beam ter
Ġrechte ck
ĠSecret ary
ĠKob lenz
ĠLein wand
ĠSchicks al
emeter y
p it
Ġw ra
ar ben
ĠB org
Ġv it
ĠD A
ĠP ension
ol ia
Ġh art
ĠG ibt
ra ums
ĠC ape
ĠC atholic
ĠN oten
ĠV Ã¶l
Ġk ol
Ġauf zu
ĠBe hinder
Ġme ets
Ġunter nahm
fol k
Ġben utzen
ĠAt las
bereich en
ĠErz bist
ĠNeben fluss
Ġrece iving
ĠVorsitzen den
Ġmatch es
ĠMary land
ĠSem ester
jew itsch
ĠGene hm
Ġcit izens
ĠTai wan
H R
S al
h attan
p rechung
Ġd rag
ĠS id
ĠB auf
ĠG am
am ann
ĠH appy
ĠR ight
ir i
Ġk r
Ġan alog
Ġle ichte
be hÃ¶rden
Ġunter richtete
io den
ĠZeit ungen
utz er
Ġgew er
wer fer
St ate
Ġvers orgt
iner y
Ġfre ier
ĠPhil harm
ĠSel f
less ly
ĠText il
ĠKom Ã¶die
ĠTre ff
produ kte
ĠLang uage
ĠFernseh film
val ue
Ġindividu ell
ĠRen Ã©
Ġorganis ierte
Ġarr ive
ĠBon us
ĠVorder grund
Ġfail ure
Ġcompon ent
Ġcir ca
ĠGon z
ĠElef anten
F ield
G S
u in
Ä ħ
Ġd ual
ĠB ibliothe
Ġo lymp
Ġo cean
ĠT U
ĠT ol
Ġc in
ĠL if
Ġl aden
ĠBe werb
ord neten
geb ot
Ġus age
ĠAus bruch
br unnen
ĠGrund riss
ĠOlymp ic
Ġalong side
Ġevangel ischer
Ġschwed ische
ĠSamm lungen
ĠNeb el
Ġlay out
S ingle
n immt
ol stadt
ĠF REE
et wa
ĠL aser
and el
Ġbe an
ĠN acional
ad os
Ġde fault
Ġnach t
Ġ18 38
ĠBer ger
ĠEn joy
Ġte x
rich en
pro of
Ġgr ass
Ġmark iert
fra gt
ĠHel den
ĠPal m
Ġheraus ra
189 7
ĠSchiff es
Ġyoung er
Ġzurueck gegeben
ĠSied lungen
ĠKrit erien
Ġhappen ing
ĠEvangel ische
ĠEreign is
ĠOze an
Ġerkenn bar
. [
D ec
c al
w ender
er ed
ĠS ony
re ff
Ġp un
ĠF ett
ĠG allen
ĠI wan
ab ama
ts piel
sp rechend
Ġab zu
Ġle ts
Ġ18 36
Ã¼n scht
Ġman aging
ĠIm plement
Ġgew orfen
lÃ¤ s
ins eln
halt ungs
mittel alter
ĠKat hedrale
Ġdan eben
On ce
fred akteur
Ġelect rical
Ġindividu elle
wes ens
ĠZerst Ã¶rung
ĠkÃ¼nd igte
ĠÃĦm ter
> .
B rit
k ok
Ġb ond
ur teilung
us che
Ġm obil
Ġp oker
ĠW edding
ies sen
Ġst ainless
Ġr ichtet
land e
ide te
per rt
olog in
Ġsc rew
Ġph ase
Ġviel fach
ĠWh it
Ar ten
recht lichen
schutz gebiet
Ġhealth care
ĠBrit en
Ġconf ir
Ġleben den
Ġauth ors
Ġfal sch
kor de
wal ts
ĠSter nen
Ġexcept ional
Val ue
ĠAtel ier
d in
n ommen
z ien
Ġa er
an ke
ĠB ody
Ã¤ ischer
ĠD utch
ĠF ul
ĠI an
ĠC ir
Ġer gab
ot ischen
ĠU V
ĠDe ep
ĠGe is
ire ment
ĠSe ktion
ink i
Ġges ichert
ĠFilm regisseur
ĠMen gen
ĠSc ient
leg ungen
Ġgra b
ĠWill y
Ġpersonal ity
ĠDesign s
ĠBur k
Ġrelat ive
Ã§ a
ĠPlat te
ĠPil oten
Ġbedeuten den
ĠAuss icht
Ġcra zy
iro ler
ĠErk enntnis
zwe ck
Ġcloth ing
konstru ktion
Ġproced ure
Ġverstorben en
ĠBam berg
ĠSingap ore
ĠWupp ertal
R itter
S et
w ords
ã ĥ
le ep
ĠB omb
ĠD IN
Ġo h
de i
ic ulture
Ġl aptop
ĠV at
Ġk Ã¤mpfen
iv o
ĠVer f
ĠEin zug
ĠBer ichte
18 85
Ġar ray
Ġsu ite
ina e
Er ste
Ġletz tes
Ġsm ile
mar ine
Ġprom ise
vert retung
ĠHistor ische
195 3
189 3
ĠWal ther
ĠMer c
ĠrÃ¶m ische
fÃ¤ll t
Ġgek ennzeichnet
Ġdat iert
Ġsubmit ted
E mp
O B
P ublik
en ke
ĠL ion
ic ity
ĠZ in
be y
amm ung
inn t
ĠOber flÃ¤chen
Ġverw altet
ĠProdu kten
Ġmon at
ĠKr im
ĠMag net
ĠDo zent
Ġgut es
met ter
Ġerne uert
irm ingham
Ġmass age
Ġinform ieren
Mod el
Verkehr s
Ġveranst altet
ĠInstall ation
D el
L et
N ote
T M
h essen
o be
Â §
Ä Ļ
Ġs aÃŁ
ĠB utter
ĠP aper
ĠH ack
ĠL LC
ĠN ort
ĠO ran
Ġy es
ell ers
ĠEr ziehungs
tell te
ĠUnter schiede
ĠSchw ert
ĠPar allel
Ġste igt
ĠĊĊ ĠĊĠĊ
Ġsho oting
Ġeinfach er
ĠAir es
Ġlaw yer
ĠErd geschoss
ĠPop ular
imar ily
ĠVe ktor
Ġnormal en
Ġarchite ct
ĠEigent um
Ġtal ks
Europameister schaft
EMail Adresse
check EMailAdresse
ĠBrie fe
ĠLiss abon
M ein
T schech
b ass
Ġa part
es k
Ġt or
re kord
ing o
ĠW arm
ĠC rist
Ġl Ã¶sen
ĠJ ama
sp ec
ib us
Ġle istungs
ard in
ire ktor
Ġbes tellt
Ġlie gende
ron om
Ġbeg rÃ¼
ĠQu ad
Ġfest ival
Ġinst ance
ĠWer ft
ĠMor gan
roll ing
ĠBed ien
Ġspecial ist
ĠKat astrop
ĠBaum eister
ĠWeiter entwicklung
Ġasp ect
ĠMisch ung
Ġzug unsten
ĠTob ias
Ġprotest ant
ĠSchr Ã¶der
P P
T hre
k ers
ĉ ĉ
ĠB elle
ĠD in
ĠD est
ĠD anzig
ĠR ugby
Ġl oy
ĠJ immy
Ġk ar
os er
Ġst uck
ĠAl m
ick el
Ġunter brochen
erk raft
Ġ10 5
Ġnew sp
ĠTr end
ĠNational park
Ġeinz eln
Ġfre edom
ĠDar stellungen
ĠFot ografie
196 1
brÃ¼ cken
Met al
Sport veranstaltung
maler ei
Ġentire ly
Ġmem ories
ctic ut
ĠwÃ¤hl te
ĠTrotz dem
Ġvict ory
Ġmedizin ischen
ĠLearn ing
ĠForts etzung
ĠShakespear e
ĠVerbreit ungsgebiet
Fk EMail
K ol
S Ã¤nger
W eiÃŁ
b ungs
h ier
h Ã¤ngen
Ġs ed
Ġw ander
ĠS H
Ġf otograf
ist o
Ġl ift
igen en
ite es
Ġwor aufhin
lo ÃŁ
ack t
ied s
ĠHoch stift
Or igin
ĠDurch schnitt
ĠDurch bruch
ĠWor te
ĠIns zen
Ġant iken
Ġlink ed
ĠVis it
Ġcapt ure
i ÃŁ
m aking
Ġt olle
ĠB lat
ro ff
ĠT ry
ĠG ift
ĠH i
ĠH eld
ĠL oth
Ġl uck
ĠJ ay
ver anstaltungen
ĠBer Ã¼cksicht
ĠHe irat
ĠVor les
Ġad j
ĠFl Ã¼ss
inn ers
Ġob lig
Ġinter active
of ern
Ġmo ist
ĠOb ject
sche e
Ġtyp ischen
Ġzahl en
rÃ¤n gt
Ġmember ship
!! !!
Ġbew aff
Ġinvest ors
ĠErw in
Ġir re
Ġtradition elle
Ġenter prise
Ġversch oben
ĠAth leten
Ġcharge d
Ġcru cial
Ġkulture lle
ĠWett kampf
Ġprogramm ing
ĠVog t
Ġdiskut iert
A fr
c am
er gebnisse
Ġa warded
he ast
ĠT akt
ĠW esen
Ġal arm
ĠZ it
Ġst ab
Ġst opped
ĠSch alt
ĠSch Ã¼tzen
ver d
pp el
ĠAr te
Ġwas h
alen a
Ġno ted
ĠTra de
ĠMittel feld
Ġcre w
ĠSal on
ĠYork er
esent liche
ĠForsch er
Ġcho osing
ĠPlan et
Ġimpro ving
kap it
ĠSy nd
Ġkulture llen
ĠanschlieÃŁ enden
Ko ordinate
ĠLeiden schaft
Ġmonitor ing
bay ern
S etz
W olf
k arriere
ch sen
es telle
ĠS R
ĠB ib
ĠB ian
ĠB akter
ĠM ine
ĠT O
ĠT hal
ĠT Ã¤ter
ĠH ass
ĠR uth
ĠN ull
ĠSt ufen
Ġver me
Ġaus gesetzt
19 15
ĠPro tag
ĠTh ompson
oc ated
ĠNe uf
Ġte ch
Ġres istance
mp el
gl Ã¼ck
ĠTyp en
Ġcr ash
Exception Constants
voll stÃ¤nd
gehen den
ĠFinanz ierung
Ġren omm
Ġbott le
ĠStan ley
Ã« n
ĠPassag iere
ĠZul assung
Ġbeher bergt
ĠHimm els
Ġempfehl en
Ġ q
Ġ ~
is pr
it ative
Ġs auber
ĠS ib
ĠT oren
ĠT ree
Ġbe quem
ĠO le
Ġsch lÃ¤
ĠBe cken
utz ten
lieÃŁ t
ĠCo oper
ĠFra ktion
ĠPol ize
ĠMal aysia
ĠFrank lin
Ġcr isis
195 1
195 4
ĠGeschÃ¤ fte
Ġautomat ic
sta ats
Ġliter ature
Kl ein
ĠEntwick lungen
Bet rieb
stad ion
ĠCapt ain
Ġjo ining
B este
S pr
S to
n ische
s ysteme
ĠB un
ĠT reib
Ġc odes
ent urm
Ġg ast
Ġk reis
Ġan x
Ġge prÃ¼ft
ĠVer folgung
Ġr asch
Ġsch olar
ĠLe er
ĠAb b
18 88
ivers itÃ¤t
to o
Ġgew isse
Ġ16 00
ĠGes ichts
ĠBo ys
Ġrec ipes
ĠNor m
ĠZu vor
ĠMed ium
ĠHol ocaust
Ġbef Ã¼r
ĠfrÃ¼ he
ĠPer fect
Ġcol ours
zentr ums
ĠGraf iker
Ġbede ckt
Ġdien ten
sprach igen
ĠStad ium
ĠSpr ings
Ġmer ch
Ġhum or
Ġsatis faction
Ġentdeck te
B und
B oden
C an
F ind
U hr
ur ist
ĠG os
ĠH im
et tel
ĠR ange
uch tt
ĠZ oo
Ġfor ced
ran gl
Ġex ception
ĠLe gende
ĠTh read
zen en
ĠAus gra
ong o
ren e
amer as
An y
ĠBand e
Ġgu ard
ĠUr sprÃ¼nglich
Ġsk y
ĠAnt ar
ĠRei fen
welt meisterschaften
Ġwei blichen
Ġcond uct
ĠSozial demokrat
ĠWeb prÃ¤senz
Ġindividu ellen
ĠSym pt
Fl uss
Ġconcern ed
Ġerf Ã¤hrt
ĠEins Ã¤tze
ĠEins Ã¤tzen
ĠSchlaf zimmer
ĠGeschle chts
ĠWorksh op
Ġlehn te
B ot
D reh
f ranken
Ġb read
Ġin ch
Ġf ern
Ġf emin
ir s
ĠEr sch
ok o
ĠAb schied
Ġpr ison
uld a
vel and
ĠBet reuung
ĠVerb rechen
rag ung
Ġgu idance
Ã¤nder ung
ĠZusammen schluss
Ã¤us ch
Ġtrans lation
Ġkomp lette
ĠZahl ungs
ĠkÃ¶nn t
ĠJur a
ĠDel hi
ĠPrem ium
Ġprepar ation
Ġfloor ing
ĠKenn edy
Ġindustr ies
ĠTemperatur en
ĠberÃ¼hm ten
tw och
Ġappe al
Ġgarant iert
Î¿ Ï
Ġdoll ars
ĠMuh ammad
ĠShang hai
C olle
E isen
M ap
l Ã¶s
r isch
z iele
en ne
Ġf iber
Ã¼ g
ĠB ac
ig ert
ĠW affe
ĠN BA
ĠV III
ĠJ Ã¼
Ġk ill
Ġver lauf
ĠAn nahme
age ments
ĠMit ch
ĠTh ai
Ġ4 000
ĠUS S
ĠAd l
ĠAnd er
ener gie
ĠBet riebe
wohn ung
ĠUr kunden
ĠBi ologie
ĠIde al
Ġinstall iert
gien e
Ent fern
Ġhers elf
ĠCru z
spart ner
Lou is
ĠHawa ii
? "
A K
a ucht
g le
w il
Ġb ow
Ġin du
ĠB innen
ĠT ed
ĠF aust
Ġc ategories
Ġz entral
ĠL ade
Ġto urn
ber eiten
ist ol
Ġl ucky
iv ia
ik ts
ĠSt yle
Ġauf nehmen
ver w
Ġsie d
be zirke
Ġwe ak
rÃ¤ ts
Ġcon ver
land o
18 0
Ġ0 3
ĠMin istry
ĠVers uche
ĠHol y
ĠPl ug
Ġbr ut
Ġhistor isch
ĠRegel ung
ĠSant iago
ĠPet ro
plat es
Ġschedule d
:: ::
Verb reitung
Ġverbess ert
Ġverurs acht
Ġsurpr ised
Ġnorm ally
Sing les
ĠplÃ¶tz lich
ĠDonner stag
B ass
h ut
is ierungs
ĠM oney
il ia
st yp
ĠT ap
ĠF ron
ĠK ass
ĠI ce
em ester
Ġg ratis
est het
Ġauf geb
ag entur
ĠVer pflicht
se quent
Ġ18 39
ĠCh ap
Ġtra cks
lÃ¤ ne
ism s
Ġ0 6
Ġmus cle
Ġausge prÃ¤
ĠIs a
ĠStre ik
Ġvis ited
jÃ¤hr ig
ĠStaats anwalt
zentr ale
fel de
ĠSpe z
Rep rÃ¤sentanten
ĠAgr ar
bÃ¼t tel
ĠFriend s
A uÃŁerdem
B ern
H igh
N etz
o iden
ĠS uz
le v
ĠB ott
ĠP ionier
ĠT Ã¤nzer
ĠG uten
ra c
ĠC od
Ã¶ ster
Ġl ib
ers e
Ã¼r zen
ĠSch Ã¶ne
ĠSch ienen
Ġver e
hn er
se il
Ġ18 34
ick te
ign y
Ġqu adrat
fin al
ĠGes am
ĠHo he
ĠFre y
Sch l
Ġsc rat
ĠTra uer
Ġange ordnet
ĠFlug zeuge
Ã¤m me
fo ot
gÃ¤n gen
ĠCla ude
ĠGre y
ĠInde pendent
ĠFal ken
ĠAR D
Ġattem p
Ġincred ibly
ĠKomposition en
ĠÃ¤gypt ischen
ĠTschechoslowak ei
D ruck
g am
k rat
w y
on ed
el Ã¤nd
ĠG lass
sch ool
ĠL er
ĠJ as
Ġk andid
Ġre pl
ien e
ĠAn other
Ġro ot
ĠPr inc
Ġins ight
alen ted
ĠĠĠĠ ĠĠĠ
ĠMed aille
ĠRes ort
schn itten
Ch ina
ĠHel p
IN E
ĠOl den
Ġrep utation
ĠHeil ig
ĠLang haus
Ġdeb ut
Ġstay ing
ĠVis ual
Ġregul ations
Ġord entlich
ĠWettbewerb s
Ã´ ne
Ġzeich net
russ isch
Ġbelg ischen
Ġangrenzen den
ĠApost ol
B ur
H erkunft
S tein
c ue
l Ã¶sen
on ische
Ġb ild
Ġb odies
el ly
ol in
am ar
ĠK ie
sch reiber
ĠH Ã¤nden
ist urnier
ĠV alen
os es
av ier
Ġpro of
ĠEr stellung
ard t
Ġ18 12
Ġvor geschlagen
Ã¼n ster
ac ted
bar es
Ġra w
ĠStud y
Ġdr ugs
Ġfind s
Ġele v
Ġbl end
ĠOlymp iasieger
Ġzahlreich er
Ġdav or
ĠSen ats
ĠJust in
Ġfocus es
ĠmÃ¤nn lichen
ĠLetz ter
Ġnut rit
Ġenco unter
R aum
f ungen
j on
p us
v ie
Ã ²
Ġs la
Ġm useum
ĠB ent
ĠD E
ĠG ate
ĠW asch
Ġaus gerichtet
Ġaus gesprochen
ĠPro cess
Ġch apter
erk rank
Ġen ger
Ġfe iern
els heim
ĠStud iums
str Ã¶m
ĠJo an
ĠKirch spiel
Ġneg ot
ĠTat ort
ĠFeder ation
Cl ub
Ġinj uries
Ġdauer te
Ġnar row
Absol vent
Leicht athlet
A ber
B urg
E ins
K al
R obert
i ak
p rach
at sch
Ġm aps
Ġh alt
ĠT R
ĠF ashion
ĠH inder
ĠH ins
ĠR in
ĠL anc
ĠC reative
ĠN ash
Ġan gewand
Ġe gal
ab ad
th is
ant ie
iz it
Ã¤t igung
her it
ĠPro gr
ĠY outh
ĠMar in
ĠVor gehen
Ġpr icing
ĠPf lanze
ĠMed al
bild ner
Ġger aten
othe k
ĠCont est
Ġconc ert
ĠTur in
fÃ¼ll ung
ĠvollstÃ¤nd ige
ĠHy per
Ġimplement ation
ĠBeob acht
Ġgrund legen
ĠFertig stellung
9 00
T est
h Ã¤nge
w elle
w iesen
in haber
ĠS F
Ġm or
ĠP Ã©
Ġn one
Ġh ydro
ĠK ess
sch Ã¼tz
ĠR ib
ir r
ul ator
Ġr um
ĠTe ch
ĠCo ach
ek ten
Ġreg ions
Ġtr ick
Aus gabe
ĠInter ior
ĠGener alleutnant
ĠLie ben
ĠOlymp ia
lÃ¤nd isch
ĠQual ifikations
gef unden
ĠRos a
Ġung arischen
ĠVal ent
funktion Ã¤r
stud ien
ĠNÃ¼rn berger
Ã¶der ation
Ġfinanziel le
ĠChallen ger
ĠBeam ten
ĠNeum ann
ĠPerspekt ive
Ġfir ms
P ost
ich i
Ġin tr
il o
ĠK i
ĠC ommand
Ġge gliedert
ste tten
Ġr ating
ĠEr finder
ĠEr lebnis
Ġ18 33
Ġ18 29
ord nen
Ġch ose
ĠFl ash
Ġnew ly
sk on
Ġcont est
ma x
Ġind ischen
Ġhin weg
Deutsch es
pla in
other apie
Ġrem ark
Ġoper ated
oin ts
Ġrelat ively
ĠAnge hÃ¶rigen
Ã¶ss er
Ġblock s
ĠSter ne
ĠTok yo
ĠClin ton
icul um
Ġwunder sch
ĠWik ipedia
ĠJÃ¼d ische
penden ce
ĠMarsh all
ĠBundesverdienstkreuz es
B lack
O pt
S outh
U M
V ID
a ÃŁen
in formationen
ĠM ira
ĠP aw
ĠVer hÃ¤ltnisse
Ġr ichtete
ĠÃ¼ber rasch
Ġgen ehm
mit tler
ĠSte iner
Ġbeg rÃ¼ndete
ĠDes cription
ĠBel ager
ĠSol utions
Ġdirect ory
ĠAnn ual
Ġgenau e
Ġverlie h
Ġdeal ing
Ġinform ed
oder ator
Ġchem ical
Ġplatform s
Ã± a
Ġguarante ed
ĠStol pers
ĠHinz u
Ġris ks
ĠDak ota
Whe ther
ĠBreis gau
" -
C ity
D M
K or
S ach
f elt
m ay
Ġd auert
Ġa ben
Ġa wards
ie hen
Ġw ann
at ro
ĠA tem
ĠB attle
ĠH Ã¤uf
Ġg lo
Ġk ap
ĠRe eder
Ġle ague
Ġse ats
Ġ18 37
be fehl
Ġch art
Ġzw anzig
ahl en
ĠAus richtung
ĠVor lage
olog ist
ĠGes and
ĠChr istent
ĠHand y
Ġac id
ĠProdu ct
Ġgel Ã¶scht
ĠAnt worten
ĠBÃ¼ chern
ĠTre ppen
Ġcap able
ĠSw iss
ban ken
Ġreport ing
Ã¤rk ung
Ġconcern ing
ĠAdels geschlecht
Ġdurchschnitt liche
Ġreligi Ã¶sen
Hein z
Ġincor por
ĠMitbe grÃ¼nder
ĠangekÃ¼nd igt
D B
K ap
K irch
P ubl
T O
T or
w achsen
w Ã¶rter
Ġt ile
Ġf esten
Ġm ile
ĠA sk
ĠD ritte
ĠG is
ĠK alender
ik ten
ĠSch ein
Ġme als
ĠBer eit
ĠVor runde
ĠHand eln
ĠPol iz
lig as
189 1
ĠKÃ¼nstler in
ĠTrans fer
ÅĻ ÃŃ
Ġbeob achten
ĠConc ert
Ġprincip les
A uth
B ras
R Ã¼ck
T B
Ġt ie
Ġb ol
as ters
Ġc otton
ĠK amm
ent z
ĠL etter
ĠC V
ff t
19 16
Ġat trib
ges ted
ĠSe pt
ĠAb satz
18 84
Ġco ordin
Ġro te
Ġbut t
isten ce
Ġfol ks
ĠEnt deckung
stein en
ĠFr ies
ĠCl ara
ĠSk la
ĠÃĦ l
ĠSan ierung
Ġgener ate
ĠRec ord
Land es
Ġamer ikanischer
ĠGef Ã¤hr
ĠWirk lichkeit
Ġfunction al
new s
ĠInvest ment
Ġstruct ures
Des cription
ĠDro gen
Ġmedizin ische
ĠPseud onym
Ġverbesser te
Ñ Į
Ġd iss
Ġt ank
re volution
ĠT ir
ĠL ic
ĠN athan
os o
ag u
ov iÄĩ
fe hler
ĠMe g
zeich ner
ock el
ĠSte wart
app ing
ĠKl einen
Ġph ones
ĠAll er
ĠAll ein
ĠNord ost
Ġgu idelines
Ġbl ow
Ġmin ing
ĠWei h
ĠAss oci
Ġorder ed
chten stein
ĠKlein stadt
ĠTal ent
Ġbeteil igten
ĠÅ ½
ĠUs ing
Eis hockey
angeb ote
ĠDub ai
Ġrefer red
Ġsav ings
ÅĦ ski
Ġven ue
ĠGreif swald
ĠEinzugs gebiet
1 15
L ive
S ol
T urnier
V is
s aison
Ġa ims
Ġs amt
ar mee
ĠS oll
ĠA chter
Ġh rsg
ĠF ine
âĢ ³
ĠL enn
Ġbe deut
ĠJ g
ĠO hr
if ies
ind a
aus stellungen
ĠSp reng
ĠUnter k
ĠReg istr
fin ed
Ġbet Ã¤t
ĠSÃ¼d amerika
zent ren
ĠPart ie
ĠSchul ter
ĠMor ris
189 4
Ġconf ident
Ġtem por
zÃ¼ g
Ġcontrib ute
Ġearn ed
Ġobtain ed
Ġsem i
ĠStraÃŁ burg
ĠTats ache
ĠMargar et
ĠSams ung
Ġamen ities
asket ball
D uring
S K
h aut
m Ã¶
m achen
z weig
ĠS ten
ĠB aut
Ġv oc
ĠM ack
ĠM ilit
ĠD sch
st an
Ġn ad
ĠE ichen
ĠSt uhl
Ġy ard
ĠZ en
ind s
qu artier
ĠEin stieg
ord nungen
Ã¤nd igkeit
ĠAb hÃ¤ng
Ġen han
18 89
omm y
Ġfin est
ĠCo us
ĠEx change
Ġcl ar
ĠHaus halt
ĠVerein ten
ĠGener ationen
ĠWor ten
ĠRÃ¼ck seite
Ġkein em
23 4
ĠQual ity
mark e
ex p
Ġtreat ments
ĠRand e
Ġcele b
krit iker
ĠAbst ammung
ĠDiÃ¶z ese
Ġbesie gte
ĠgefÃ¤r bt
Lud wig
s wert
t ages
z oll
ĠK enntnis
ĠE rot
ber atung
ĠJ ugoslaw
Ġdes ktop
ĠZ ellen
ĠSch mal
ĠVer teilung
aus stattung
ard i
be h
ho e
enn ame
los er
Ġro se
wer ber
Ã¤ch ter
pf lanz
ĠFe atures
ĠHoch wasser
Ġbef asst
ĠGegen stand
kon zept
ĠHeil bronn
ĠDenk m
ĠDÃ¼sseld orfer
Ġcompar ison
Ġhab ilit
Des ign
ĠprÃ¤sent ieren
ĠGesell schafts
ĠAuthor ity
Ġsustain able
ĠLiver pool
N orth
f ile
â ĨĴ
Ġs itzt
ĠS ultan
le ments
ĠT Ã¤
Ġc er
Ġc ater
ra uchs
ĠW als
ĠV R
Ġre cover
Ġcon vert
ac ular
ĠAb bau
Ġen orm
Ġher o
Ġgen auer
wer fung
rif t
yp ern
ĠGr ill
sk o
ĠÃľber leben
Ġvers at
ĠStra hl
ĠKinder garten
ĠLie blings
ĠWohn ungen
laub nis
ĠDu o
Ġfac ulty
Ġunterschied licher
ĠBeruf ung
Ġnatur ally
Ġmag ic
ĠHall ow
Ġverbunden en
ĠerhÃ¶ hen
Ã¸ r
Ġerhe bt
ĠInstr umente
ĠSchwar ze
Ġattack s
ĠDrag on
Ġlauf enden
archite ktur
Ġmort gage
ĠLaus anne
Ġrout ine
incl uding
P res
p ower
t it
â ĪĴ
un ken
Ġin ten
ĠP uerto
ĠG PS
ĠL an
ĠL ichten
ber ichte
ĠN AT
ĠRe z
Ġ18 26
ĠEin fach
ĠEn zykl
ign al
Ġco at
ĠKÃ¶nig lichen
ĠRad i
Ġprom pt
fert igt
Ġann iversary
cript ions
Ġstamm ten
Ġocc as
Ġcas ual
ĠDate ien
ĠMatt hew
Ġdescrib e
ĠGeh irn
ĠkÃ¼nstler ische
Ġkeiner lei
ĠAN D
Ġgeplan te
ifff ahrt
r ick
w ende
Ġm att
Ã¤ hre
Ġh aus
ĠT Ã¤tigkeiten
Ġc ul
ra ce
ĠJ Ã¤nner
eb ahn
ĠEr forschung
ĠSp ons
ult iv
18 79
ĠgroÃŁ em
ĠSpiel zeiten
ĠJul ian
Ġgem Ã¼t
hel ess
Ġze igten
Ġfl ach
ĠMich ail
ĠKr ise
Ġrest r
ĠBeg leit
Ġfac ts
Ġlight weight
ĠnÃ¶rd liche
Ġcover ing
Ġflo ors
ĠMad ison
AL L
emb les
Ġrestaur iert
Ġdur able
Ġprof iles
Ġdisplay ed
ĠSab ine
Ġsy mp
Bad minton
Ġster ben
I r
K ommand
M ot
V iele
k rie
Ġs aving
ĠS ad
he iz
ĠB irmingham
ĠM esser
Ġp ocket
ĠK ein
ĠK letter
et ik
ĠL j
Ġl ob
ĠV ic
ĠZ irk
ver kauf
op fer
ĠAn to
ĠÃ¼ber ras
ip ts
ick ing
Ġco unsel
pr esent
Ġpr imarily
Ã¤l z
Ġup grade
Ġfin ance
sk op
ĠKon tra
Ġbek annter
ĠJohn ny
Ġdarauf folgenden
ĠFolge zeit
wissenschaft liche
Ġens uring
ĠKommand ant
ĠBil den
ĠYear s
Ġult ra
polit iker
Ġschwier ig
ĠGroÃŁherzog tum
Ġgemein nÃ¼tz
ĠVinc ent
Setz liste
C as
d ays
p fe
Ġ 000
Ġd ust
Ġin halt
ĠD ad
ĠD ess
ĠD ays
Ġh ack
sch Ã¼ler
ĠI L
ĠC afÃ©
Ġl okal
Ġal cohol
ĠSch icht
Ġdem ent
Ġaus zu
ia z
ĠEin blick
ĠSe ver
los ure
oth y
ĠTr i
ĠGrund stein
Ġdr iven
Ġsol ve
ĠBest immung
Ġbre ast
kre ise
ĠProble men
Ġpack ages
Ġnie mals
Her ausgeber
Ġverlie f
Ġdet aill
Pre istrÃ¤ger
Ġqualifiz iert
Ġunmittelbar er
ĠVerÃ¤nder ung
Ġdurchschnitt lich
ĠJenn ifer
Hein rich
ĠTaschen buch
Ġsup erv
ĠBiograph isches
FuÃŁ noten
ynd rom
Ġpow der
ĠBerÃ¼cksicht igung
ReprÃ¤sentanten haus
I ll
J ournalist
h on
p df
z ure
re ts
re aten
us ten
ĠD j
ĠR ights
ĠL uck
ĠN ancy
den ken
ĠSt Ã¶rungen
est adt
Ġauf weisen
Ġ18 28
ov Ã¡
ĠEin leitung
rÃ¤ g
ges prÃ¤
eth yl
ĠCon f
Ġbesch reiben
Ġeinz us
ĠVers orgungs
Ġgel b
ĠReich en
Ã¤nder ungen
fas sten
ĠGott lieb
Ġwrit ers
Ġobject ive
ĠSchool s
ĠMc K
ĠStat ue
Ġcreat es
spe ction
Ġcontrol s
All gemein
Ġstre ets
Ġentstanden en
ĠLog o
ĠKle idung
ĠDenkmal pflege
Ġcook ies
Ã¶p fer
Ġumfang reichen
ĠDiam ond
Ġveran las
% .
L it
Ġin it
us er
Ġf erner
Ġund ert
ĠM other
ĠI hm
ĠH olding
ĠL ese
um fang
Ġl ady
Ġge teilt
os k
ĠU ll
iel ler
Ġr ural
ĠRe uter
se le
Ġnach folgenden
for cement
ĠDe part
ĠTh ose
ĠAuf klÃ¤rung
ish es
Ġsu c
ĠMan hattan
weil ig
Ġ24 0
Ġspe ech
ĠSchrif ts
ĠRechts an
ĠGen re
Ber uf
lav a
Ġbisher ige
Land tags
ikal ische
ĠSchÃ¶n heit
ĠContin ental
Ġrene w
ĠHins icht
1 13
H or
I O
T al
d ig
f rom
k ons
en kte
ĠS ah
ĠS ri
Ã¼ sten
ĠB in
ĠD amp
ĠP ink
ĠR ates
ĠL ohn
la c
Ġst ren
Ġfor th
ith er
ĠVer schw
ĠVer anstalt
ĠEr ben
Ġse ctions
ĠUn i
Ġ18 31
Ã¶r ten
pt y
uss ia
lo yd
co le
ĠÃľber tragung
Ġho le
ious ly
ĠQu ick
Ġperson s
Ġdevelop er
ĠSchul z
Ġbra uchen
ĠAg ent
ĠRegierung schef
Ġless on
ĠJournal istin
ĠJazz musiker
ĠExp los
Ġful f
Ġslow ak
Ġdiagn ost
ĠGatt ungen
ĠEvalu ation
ĠHels inki
B ank
M ess
b ald
g h
h um
in cess
ĠB allett
Ã¤ ule
ĠD irk
st ance
Ġp ussy
ĠP L
Ġh am
ĠT ests
ĠG M
ĠG letscher
ĠK rÃ¼
eb y
ver arbeitung
we alth
ĠAl p
ĠMit twoch
auf ent
Ġbes iedelt
ĠAm y
Ġqu ote
ĠFre ie
12 3
Ġprodu cing
ĠFin ance
Ġsk i
ĠGew ichts
ĠVolks schule
ĠRechts wissenschaften
ĠKommun e
ĠInn ere
ĠGesamt wertung
BC I
Ġwid th
umin um
ĠTÃ¼r en
ĠDat abase
gerichts hof
Ġdauer haft
quis ition
Christ ian
dehn ung
Wor ld
Ġberu ht
Ġworkshe ets
K reuz
M Ã¤nner
O U
S ym
l is
is emit
it ime
ĠS ug
he ll
ut age
ĠH ut
pp ich
Ġj ahr
Ġsch lossen
Ġ18 27
be an
ĠAl aska
Ġdurch ge
ob ahn
ĠGe lehr
Ġman gel
Ġman che
Ġad op
Ġgew issen
ĠGesch w
ĠBo ots
Ġhand ling
ĠHaupt bahnhof
ĠFest ivals
Ã¤uf e
Ġcr iminal
So zial
Ġdeb t
Ġtw enty
Arch iv
Ġachie ved
ĠGeheim nis
Theater schauspieler
ĠCorn el
ĠAuseinanders etzungen
Ġdokument iert
ĠInternets eite
Ġelig ible
b els
c at
m g
ĠS v
ĠS hel
ge halt
ĠA V
st ufen
ĠP for
ĠF itz
im ore
ĠI M
ĠH onda
Ġg entle
ik ern
la uer
Ġde kor
ĠFl orenz
Ġger ufen
ĠBuch es
Ġdel ay
Te chnik
ĠBas eball
Ġfac es
Ġadv oc
produ ktionen
ĠÃ¶ff nen
spe zif
ĠKÃ¶nigreich s
schei be
ĠWahr scheinlichkeit
Ġang le
Ġelektron ischen
Ġaustral ischen
Ġdigit alen
ĠkÃ¤mp fte
ĠBuen os
ĠAlf ons
urgesch ichte
G old
G ood
W issenschaft
d an
j ana
l ong
m il
w ider
Ġt ack
Ġt Ã¶d
Ġw itness
Ġb anks
Ġp itch
ĠP ause
ĠF eind
ĠK ies
ĠH irn
ĠW ink
ĠC B
Ġ2 20
ĠN O
ĠN ut
ĠO regon
ĠIn vent
Ġ18 11
be weg
Ġch annels
ĠSe chs
Ġwor se
18 83
Ġdeutsch es
ĠMe ilen
ĠHer itage
Ġcomp uters
ĠFl u
ĠReg isse
ĠGra phen
ĠPh ill
ene ver
ĠInd ustry
ĠQu Ã©
âĢ¦ .
ĠFr ame
ĠEle ktr
ĠAt tra
ĠBest immungen
Ġpolit ics
Ġeng agement
ĠKont roll
Ġwest liche
ĠSÃ¼ ÃŁ
ĠMay er
Ġhol idays
Ġpain ted
Ġdro pped
Ġintens ive
klass igen
Bere chnet
Ġscen es
Russ land
ĠCham ber
ĠKÃ¤rn ten
Ġgefe iert
> -
A tt
H K
T ags
b ilden
i ast
ĠS AP
Ġb id
Ġm ature
ĠB ock
ĠD eine
ĠT reat
ĠF iction
ĠG ulden
ĠW are
ĠW ladimir
hr ten
ĠL enk
ĠC ord
ĠV es
ĠJ h
Ġth in
iv an
ĠSt all
ĠO ste
sp lan
ĠÃ¼ber arbeitete
ĠDe cken
ĠPh asen
ĠSpiel ers
ous ine
vent ional
Ġsub sp
ĠAg ain
amb a
Ph ys
kn oten
ĠFel sen
Ġstat istics
ĠGet re
ĠCle veland
ĠHÃ¶r spiel
Ġqualifiz ierten
Ġexpla ined
grÃ¶ÃŁ te
ĠBÃ¤ ume
ĠArz ne
S M
k Ã¼hl
r ible
Â ·
it ischen
at io
al ier
Ġf Ã¶rder
ĠA sch
st ark
ro Ã«n
Ġ( +
ĠE y
ĠE igenschaft
om i
ĠH ur
ĠC row
Ġer baute
ĠV ik
ĠSt apel
ap o
rÃ¤ te
tell igent
ĠCh ange
Ġman agers
ĠNe apel
co ck
ĠReg iment
St il
Ġseiner zeit
ĠAd vanced
ĠProdu cts
ĠProdu zenten
Ġperson ally
Ġgra u
ĠGu ido
Ġtrans mission
ĠBÃ¼rger krieg
ĠBro thers
ĠSchn itts
Ġtrad itions
fil ter
pre uÃŁ
ĠhÃ¤uf iger
ĠKer amik
schlÃ¤ gen
Ġposs ibility
ĠAtlant ik
ĠUrs ula
ĠMov ie
Ġrob ust
ĠVerdienst ordens
Ġnorweg ischen
Ġbeauftra gt
Ġjun ior
S am
h all
h ielt
k os
ĠS tett
Ġm Ã¼sse
Ã¼ ten
ĠB eing
Ġc arr
Ġer leich
Ġk unst
Ã¼r me
ant rieb
ip her
ĠAb kommen
Ġgen der
Ġper mit
imm ern
ĠBau werke
bo ards
Ġhand eln
ĠHoch schulen
Ġinc ident
Ġspe aker
Ġdiffer enz
rech ten
Ġvoll kommen
str asse
fert igung
Ġlink er
ĠUntersuch ungs
Ġerschienen en
Ger man
quen cy
Ġlif etime
ĠspÃ¤t estens
marsch all
ĠCommer cial
ĠGU I
ĠOberg eschoss
ĠGitarr ist
B ilder
L iga
S cript
c omm
p ubl
v all
ĠS EO
Ġf inger
Ã¤ fts
ĠD unkel
ĠG Ã¤rten
ĠH ip
Ġg ig
ĠSt Ã¼tz
Ġum liegenden
Ġvor ange
18 81
ĠMar mor
Ġbet reiben
Ġra us
Ġhier zu
vers uch
Ġteil en
ĠPal Ã¤st
Ġabsol ut
ĠCom edy
ĠMay be
Ġport ion
Ġoffic ers
Ġill ness
Ġneg ativ
ĠjÃ¤hr liche
ĠLux us
ĠAff airs
Ġfair ly
Ġframe work
Ġhop ing
ĠNahr ung
ĠjÃ¼ng ste
ĠBroad way
Ġromant ic
ĠSkulpt uren
ĠAx el
MÃ¼n chen
Relig ion
P oint
ch ild
Ġt iss
Ġt ags
te ch
an ced
Ġb ay
Ġb ass
Ġin telligence
ĠD itt
ĠP ant
ĠF avor
ĠR idge
Ġge habt
kt ors
ĠSch metter
ver hÃ¤ltnisse
ĠIn stead
Ġun able
ov es
ome ter
ĠNe uk
18 86
Ġbes eit
Ġsh aped
Ġgen Ã¼
Sch lag
ĠBl as
Pro vinz
Ġtechn isch
Ar ray
gra fen
Ġcommun ications
Ġnational er
ĠHeil ige
herr n
Ġ180 7
Ġentfern en
Ġresult ing
Ġmatch ing
Ġannoun ce
Ġcommit tee
ĠWeihn achten
Bild ung
Ã¼nde te
ĠDemoc ratic
Ġsamm elte
ĠkÃ¶nig lichen
ĠJoh an
ĠHallow een
X X
Y es
b ig
m ass
m auern
} .<
le ton
ĠF at
Ġzu geschrieben
Ġwh ilst
ĠDe an
ord ination
ob ald
18 87
18 82
ĠMe et
Ġ17 00
Ġste uer
Ġover w
ĠNor man
aur us
ĠNieder schlag
Ġpass ende
Ġerhalten e
Ġpat io
ĠThere fore
Ġatt orney
Stand ard
Ġgegeben e
funktion en
Ġprem ier
Ġanges iedelt
L ang
M a
W inter
f ire
ar isches
ĠA ub
ĠB ast
Ġp ad
ĠG utsch
ĠW enz
ĠR i
ĠR out
ĠC ore
ul ationen
Ġge gangen
Ġre chter
Ġver bleiben
ug a
ze ch
Ġwh enever
ĠÃ¼ber s
18 80
teil ungs
ĠVor jahr
Ġgew alt
pro fit
Ġbeg raben
pf el
Ġdesign ing
Ġausge legt
Ġdiffer ences
ilder t
Ġkein es
Ġerhalten en
Ġ180 4
ĠGast geber
ĠAuÃŁen minister
Ġcommon ly
Bundes staat
ĠschÃ¶n sten
ĠViol ine
Juni oren
ĠBrook lyn
Ġphotograph s
ĠNiger ia
W ein
h ent
l io
w Ã¤
w Ã¤nde
w ski
Ġf ikt
ĠB A
Ġp ics
Ġein fluss
ĠW Ã¼nsche
Ġg rÃ¼nen
ĠC any
and ro
ĠO ra
Ġab use
ĠSp a
ĠCh ancen
ack e
ĠAus gleich
je cted
lan ke
Ġpr ide
Ġlie ber
ser ver
Ġthem es
Ġange trieben
Ġbo ot
Ġschw eizer
weil en
Ġdel ivers
Ġpass word
rÃ¤n ken
Ġdre ams
ĠEnd spiel
ĠZug leich
Ġdeliver ing
ĠChem nitz
aun us
Ġkosten lose
ĠDec or
ĠAnge legenheiten
Ġut ility
ĠermÃ¶glich te
ĠBran chen
spann ung
mag azin
ĠMd L
ĠBeaut iful
Ġbefind lichen
Ġcelebr ation
ĠErober ung
ĠKroat ien
S u
ï ¼
Ġd ialog
Ġa partments
Ġt ut
Ġs olle
Ã¼ ben
ĠD iss
ig ter
de cker
Ġp atch
ĠT afel
ĠF Ã¶r
ĠK lagen
ĠH Ã¤ndler
ĠH Ã¼tte
ĠH obby
ĠW eid
ĠL oh
Ġer zeug
iv alen
Ġy e
ĠZ ubehÃ¶r
ĠAn alyt
Ã¼hr ung
Ã¤ch ern
Sch ul
gew orfen
ĠMed aillen
Ġviel mehr
Ġdown town
ĠWh ich
ĠMeister titel
ĠBre m
ĠKre ise
ĠFest schrift
Ġbelie ved
Ġkurz zeitig
Ġport folio
ĠMos k
ĠZur Ã¼ck
ĠEngl ischen
ĠZÃ¼r cher
ĠAbgeord nete
ĠMur ray
Ġkanad ische
ĠLiber al
Ġsuppl iers
ĠKab arett
ĠkÃ¼nstler ischen
ĠberÃ¼hm t
ĠSud an
Ġbess eren
Ġfasc in
H en
P ra
b og
l on
l uther
o ons
s y
v elt
z essen
Å ¼
Ð ¹
er ne
Ġw Ã¶ch
un fall
ĠB arr
ĠK ran
ĠW els
ah me
Ġfor g
ill i
ast ing
ĠAus b
Ġfe at
ober haupt
sk Ã¤mpfer
ĠEl ite
ĠBet rag
ific ial
bl og
pl us
ĠRom ant
ĠsÃ¼d kore
ĠJe de
ĠWal ker
Ġdefin ition
Wh y
ĠFluss es
Ġmiss ed
Sport ler
Ġ179 8
ĠOrgan ist
ĠBox er
system s
Ġwohn te
fle isch
bre ite
Ġpassen den
ĠBekannt heit
ĠCustom er
pra xis
P O
P ap
S Ã¶hne
U B
b ot
c enter
d n
s i
Â ½
Ġd einen
al p
ĠB ureau
ĠI F
ĠC L
Ġal ph
ĠZ iegel
Ġst ruktur
Ġver letz
ver eine
ver gleich
Ġdem nach
ate l
qu ire
iz itÃ¤t
Ã¶r er
18 78
ĠMar tha
ĠIm port
zeich neten
Ġag ents
ĠStra tegie
Ġmake up
Ã¼nst ige
ĠX box
Ġspe akers
Ġclass room
Ġpack aging
Ġsens itive
ĠGlas gow
Ġexpla ins
ĠPok er
Ġagre ed
ĠFranzÃ¶s ischen
Ġkombin iert
Ġnav ig
e xt
ch witz
Ġt um
ĠS N
ĠS ession
ĠT rue
ĠF R
ĠF eb
ĠI X
ĠW ard
ĠW etz
ĠV iv
ck now
ĠSt immung
ĠSt ifts
ĠIn fo
ang aben
Ġ18 24
ĠPro gress
ĠSe ction
ĠVor feld
ĠBo eing
Ġem otion
Ġind oor
kreis es
Ġperson en
hol ders
ĠsÃ¼d liche
Ġbas ically
ĠSil v
rist all
ĠSalz burger
Ġsyn chron
ĠKult us
Ġserious ly
inde x
Ġoccur red
Ġdistin ct
Ot to
b ow
in chen
ie de
Ġb unch
Ġo ven
ĠP oll
ĠP latt
im edia
ĠK id
ic ide
Ġk ub
ien er
id as
for um
ĠCh annel
Ã¼ck e
Ġpr inter
ish ment
min ute
so zi
ĠQu art
Ġteil te
Ġreal ized
Ġbr idge
gemein schaften
Ġtrans ition
Ġhistor ischer
Ġhistor ique
urf ten
verb rauch
AT E
fil men
Ġredu cing
ĠRead ing
ĠerhÃ¶ hte
ĠVe get
Ġrecogn ition
Ġfla vor
Ġbesetz ten
Bek annte
Ġbegeister t
Ġconfir med
A ch
B asketball
J ames
V O
c in
e hemal
on omie
ĠS ED
Ġb old
as ar
ĠB aker
ĠG ay
em m
ĠH l
ĠR TL
ĠC lan
Ġbe ur
Ġl ies
ĠV all
Ġdes ired
Ġim per
est one
Ġde posit
ĠÃ¼ber le
ĠAr sen
ĠPro jekten
Ġman ip
ĠAb kÃ¼rzung
ĠVor schriften
Ã© es
ĠSchw erin
ĠGem Ã¼se
12 5
gew achsen
gew Ã¶lbe
sh op
Ġra cing
Ġevery where
ĠKunst geschichte
Ġeinz iger
iffer enz
Ġele gan
ĠRom ans
ling ton
Ġtyp ische
ĠMot ive
ĠEm ma
ĠLondon er
ĠWinter spielen
Ġequ al
Ġerk ran
Ġpurch asing
ĠChampions hips
onym ous
serv ice
Ġrepla ced
ĠDigital isat
Kultur denkmal
Min ister
Ġelektr ischen
ĠVoraus setzung
ĠLiefer ung
Ġhop es
rup ted
ĠVerletz ungen
imens ions
ĠGalax y
Ġestim ated
Down load
C la
D ep
G ren
G leich
H O
o ft
r und
z elt
er ia
is ka
Ġf t
Ġm erk
ĠB L
âĢ ²
sch a
ĠL ost
gen z
ĠSt rat
ĠU k
Ġr iding
Ġj ahre
ff ekt
Ġsp acious
Ġcon cepts
ĠPro jekts
ĠSe ason
18 74
ĠAuf fÃ¼hrung
ret a
ĠUnter b
mit te
ĠGes etze
arbeit s
br ig
ĠUm zug
Te x
Ġvis ible
Ġprofess or
ĠApp ro
iat hlon
ĠGar de
ĠAp oll
ĠSchÃ¼ler innen
Ġaddress es
Ġdiscuss ed
Ġbox es
Ġsle e
Ġtats Ã¤ch
Comp uter
Ġgesellschaft lichen
Ġvolunte ers
Ġbird s
Ġneut ral
ĠStatt dessen
0 18
K S
M el
N O
O k
c ell
j ak
Ġt alented
Ġs q
ĠB ischÃ¶fe
ĠP itts
ĠG ou
um pe
ĠC amer
ĠN FL
Ġk roat
ei de
ĠZ ag
Ġun e
ĠRe chnung
ĠAn alysis
ger ichte
ĠSp rech
Ġ18 41
Ġbis schen
rÃ¤ gern
ĠNach frage
iet ies
ĠMus lim
sh ut
heim ate
ĠSh are
Ġass um
Ġ[ ]
Ġlang uages
Ġdel ight
Ġbr ush
ĠZusammen setzung
reib ungen
FuÃŁball nationalspieler
Ġenjoy ing
Ġcontrol led
ĠClub s
ĠWeiter bildung
ĠPhilipp e
Ġaccount ing
ĠzÃ¤hl ten
ĠjÃ¼n gere
spro zess
Je an
ĠAufent halts
ĠMoz art
imaur er
J ud
N ein
T ION
g re
s Ã¤nger
v illa
ĠS ond
ĠD raft
Ġp hen
Ġp iano
ĠG ute
im an
ĠK etten
ĠE cho
ut o
Ġg ate
um pen
Ġk lin
ĠIn tens
Ġaus gel
ag ues
og y
ru kt
ĠSp in
Ġent rance
ĠBer th
18 70
18 71
Ġsh irt
In n
Ġar men
ĠSte ven
ĠQu ant
schl iess
ĠDar steller
urr ican
ĠPat ient
ĠPal ais
ES S
bÃ¼ chern
Sh ow
Ġtravel ing
ĠSow ohl
ĠDor othe
rÃ¤nk ungen
ĠSus an
ĠRal f
pie ce
ĠInterpret ation
ĠNapole on
ĠvorÃ¼ber gehend
Ġbekle idete
C or
G ar
H F
J ul
M ult
W ohn
r igen
s ow
z onen
Å ¯
Ġf as
ĠA mal
ĠB reiten
st atus
ĠG ian
Ġz o
Ġto ys
ĠC F
Ġbe legen
Ġbe zog
os te
ad Ã©
Ġre lief
ct ual
ver ordnung
ĠJahr taus
iz on
ĠEin ladung
fe kt
Ġcomp act
igh th
Ġmus lim
haf en
Ġmov es
Ġlin ke
AT ION
Ġevent uell
lÃ¤uf erin
ĠKurz film
ĠAuftrag s
Ġverlie bt
Ġlik ed
ĠProf i
Ġ179 3
Ġreason able
hab ilitation
ĠLig as
ĠInner halb
ĠSpann ung
ĠErschein ungs
ĠVf L
Ġschott ischen
ĠBapt ist
' '
C lass
f aktor
Ï ģ
Ġd ot
ĠD Ã¼r
Ġp hr
ĠP omp
ĠR Ã¤um
ĠL ipp
Ġan spruchs
ĠSch lange
ran ts
Ġab schloss
Ġsie bten
ĠAl abama
enn amen
Ġ17 0
St r
Ġgegen einander
pro fil
ĠNor mand
ĠTra il
ĠVerein igte
Be griff
ĠRo ose
Le ague
ĠWer ks
Ġbook ing
con ne
Ġcolle ctions
ĠCol omb
ĠRei fe
fre unde
Ġpower ed
Ã¼ll en
ĠLuft waffe
Ġpay ments
ĠTur k
Ġintegr ation
ĠRod rig
ĠSup reme
ĠSlow en
Ġjud ge
ĠVertra uen
ĠReichstag s
Denk mal
Ġcircum stances
Ġwarrant y
ĠSier ra
Ġcerem ony
H op
K ont
T wo
g ate
Ġd urften
Ġw estern
ĠS ometimes
ĠA K
Ã¤ ub
ĠP yram
Ġh ung
Ġh orn
ĠG itter
ĠK anten
ĠE b
ĠW oman
ĠL ane
ĠC e
Ġbe wertet
ul ierung
Ġe hr
iel en
sp anisch
art a
Ġ18 22
be cker
ĠNach ruf
Ġexp ansion
Al though
lauf bahn
Ġgef ragt
ĠBra ut
Ġbed s
Ġjeweil ige
upp e
Ġcor respond
ĠBÃ¶ h
ĠCamp bell
ĠMand at
Ġsyn thet
ĠGeh Ã¤use
Ġconsum ption
Ġscient ists
ĠUt ah
ĠFur ther
ĠKrie ger
ĠKoordin aten
cour t
Tro tz
Ġtom orrow
ĠbegrÃ¼nd et
. ]
G P
N amen
R T
W ork
c ut
p he
Ġt ill
ar as
Ġf its
ĠG iebel
ĠL ars
ĠSt op
ab st
op y
th on
ne um
ind el
ĠAr range
ast ische
Ġpr ime
ĠKon f
ool s
Ġgesch ah
ĠStra uss
ĠCon temporary
Ġausge geben
Ġadd s
ĠRich mond
ĠHar z
Ġphot ographer
Ġleg it
Ġair craft
fo und
kn Ã¼pf
ĠZeich ner
ĠEhren bÃ¼rger
ĠWein bau
Ġstammen de
ĠDisk uss
sa al
Bahn hof
Art ikel
ĠZweit ligisten
ĠEich st
htt ps
Ġdrink ing
Brand enburg
Ġstet ig
Verwalt ungs
Entfern t
N och
e u
i our
m useums
ch rist
Ġd oppel
Ġt elling
ĠS i
ge fÃ¼hl
de uten
ĠF ut
ĠG B
ĠW elle
ĠW atten
Ġto oth
uf Ã¼gen
Ġl ake
Ġl uther
ul u
ĠRe ck
ĠRe chnungs
Ġch er
ian i
ĠAb u
18 75
ĠY oga
ĠVor sprung
rif fe
Ġteil t
zie her
Ġbed ingt
Ã¤us chen
ĠOst see
ĠStaats bÃ¼rger
Ġant icip
lÃ¤uf ig
ĠKol onie
ĠHerren haus
Ġwhe els
ĠSu ite
Ġversch le
ĠCr icket
Sh op
ĠRem ote
ĠHu ber
Ġdiv or
ĠZusch auern
person en
national mannschaft
DE F
Bere ich
ĠConne cticut
Ġbetroffen en
A v
E ach
R h
l atur
is men
Ġs ending
ĠS O
ĠM am
Ġo vers
st ationen
ĠP Ã¤dagoge
ĠT iger
ĠW Ã¤hler
Ġg od
ĠN as
ad ier
ĠSch ichten
ĠSch iller
ug gling
aus wahl
ĠEin nahmen
ĠDe g
erk irche
ĠSe kund
ĠEn th
Ġ- >
ikan ten
ĠDies en
ĠKar ib
ĠFra cht
Ġje welry
ĠPol ar
ĠIs ol
ĠMittel n
ĠAnt wer
ĠComp lete
ĠHann ah
ĠFrÃ¼ chte
ĠRem ix
ĠPok alsieger
Ġremov al
has Access
D om
H of
T enn
u als
w alk
Ġd ad
Ġa rom
Ġt reas
Ġs inger
he id
ĠM C
ĠP anz
ĠF urniture
ĠN iveau
Ġan stelle
Ã¼r ft
Ġe ignet
Ġhe ating
Ġsch ein
ĠBe ge
enn ungs
ame ters
urg ie
Ġsome where
sh ow
Ġno ise
bo le
ĠEurop ap
ĠPe ak
ĠKunst historiker
Ġfind est
ift y
li ament
recht liche
Ġschn ellen
Ãĸ ff
Ġcreat ivity
Ġtradition ell
ĠBud dh
ï¿½ ï¿½
Ġinvol ves
Ġwonder ing
ĠSteuer ung
Ent wicklung
Ġtrack ing
Ġcat alog
Ġlic ensed
ĠRay mond
Gew Ã¤sser
ĠBesonder heit
ĠErkrank ung
organis ationen
ĠNeck ar
schrau ber
ĠGenehm igung
! âĢĿ
S zene
Ġt ons
ar ent
ge ts
Ġm ath
ĠB ien
ĠM Ã¶rder
ĠD L
ĠD Ã¼n
ĠD opp
ĠK ante
ĠI van
ĠW ats
Ġbe heimate
ĠJ ochen
ĠSt ufe
th at
ĠAn merkungen
ĠBe griffe
ĠBe grÃ¼ndung
ĠOr lando
18 76
Ġgem isch
ĠQu in
ĠSc reen
ĠChar ter
ĠWill en
ĠPort land
Ġpriv ile
ĠHerr schafts
ĠFot ogra
ĠDen ver
Ġmoder ner
hib ition
Ġgriech ische
ĠLaur ent
ĠbestÃ¤t igte
Ġsowjet ische
System atik
imen te
ĠOrient al
ĠmÃ¤nn liche
ĠFlÃ¼cht linge
Ġstrugg le
Ġgesamm elt
ibil itÃ¤t
beteil igung
Z eitung
m isch
Ê ¿
Ġw ave
ĠB ak
ĠB rÃ¤
ĠD ennis
Ġp it
ĠF em
ĠF lat
ĠH ud
ĠR umpf
ĠN om
Ġdes wegen
ah o
ĠIn telligen
ste ins
ind lich
ĠRe chen
ĠBe zeichnungen
Ġent it
Ġsh ots
hÃ¶r en
ĠMan us
stÃ¤nd igkeit
mar ks
Ġbas ketball
En glisch
US S
ĠLauf zeit
mark et
Ġconc ent
Ġober e
ĠMiss ions
ĠTele f
parte ments
Ġauthor ities
ĠAnge hÃ¶rige
ĠWel come
ĠGru ben
Ġnotwend igen
Ġrecommend ations
bour g
hyth mus
Ġfight ing
ĠDiffer enz
Ġdish es
ĠCit roÃ«n
ĠEconom ic
ĠEinkauf s
ĠJubil Ã¤um
ĠToy ota
ĠStu art
ĠConstru ction
Leichtathlet ik
: .
K anada
M r
h yd
o fen
r idge
v re
Ð ¼
is i
Ġt ap
an ion
ĠB owl
ĠM iet
ing ung
Ġh anging
ĠT ru
ĠF uss
ĠF ulda
ĠE arly
ĠH end
ĠR ass
ĠC N
ĠC ash
Ġer a
ik alen
Ġun regel
ĠAn gl
qu ar
Ġent decken
ĠNe ed
Ġbes tellen
ĠAm ph
ĠZeit ungs
ĠStadt bezirk
Ġ12 8
ĠEx pert
Ã¼nd et
ĠAt tent
For sch
Ch arts
pre ise
seit igen
ĠTher es
Ġschwer er
Ġbul gar
Ġkom ment
Ġforder t
ĠSiz ilien
M iss
R oy
f ted
k am
k Ã¤mpfe
v enz
w ischen
Ġd ump
Ġt ip
ĠS ag
ĠC redit
and ra
ach i
Ġan treten
kt iert
eb ack
ĠAn aly
se ille
ang riff
out ube
able d
Ġ7 50
Be fore
ĠRes ume
Ġplan e
Ġeng aged
ĠHier zu
ĠFlug platz
ĠDienst ag
stÃ¼ck en
ĠMont ana
ĠCas par
ĠBor is
nehm lich
Ġgre y
Ġpan els
ĠWurz el
ĠFreder ick
ĠCommon wealth
Ġdaz uge
ĠFrÃ¼hl ing
, ...
1 14
H ave
W S
d orff
g ne
g Ã¼ter
m ill
ĠS alt
ĠS QL
re am
ĠM Ã¶r
ĠD rachen
Ġp Node
Ġh erk
Ġh urt
ĠF ig
ĠF ugger
Ġz one
ĠH unter
ĠL ack
Ġg lauben
ĠIn itial
aus en
ĠSp alten
ast ral
ĠSie mens
je ction
chn ungen
Ġgen uine
ish ers
ĠUm frage
off er
Ġcl imb
ĠGroÃŁ vater
ĊĊ Ġ
ĠEd itions
Sp ec
Ġcal endar
ĠSpe ktrum
Ad ress
AN D
erke ley
ĠInnen raum
Ġung arischer
Ġrespons es
National park
ĠAnge la
ĠCons erv
ĠSur vey
ĠFÃ¼rst entum
krit ik
Ġrefle ct
Ġextens ion
Ġevalu ation
ĠFÃ¤h igkeit
ĠSymph ony
Ġvorder en
1 17
H in
I E
a ired
n utzung
Ã µ
on ing
Ġs hr
ĠS ven
Ġb omb
ĠM ick
ro let
ĠP rad
ĠF K
ĠW oll
ĠW right
ĠC ad
ĠN obel
ĠSt o
ĠSch aum
Ġver mittelt
ĠAn sprÃ¼che
ĠEr hÃ¶hung
Ġso il
Ġor ch
ster ben
Ġpr est
Ġber ichten
Ġbeen den
ĠFre quenz
Ġstud ied
ĠBundes land
Ġeinz iges
ĠEd mund
ĠFahr zeugen
ĠFriedrich s
ĠRad sport
Ġ180 2
Ġ180 9
Ġnieder lÃ¤ndische
Ġcheck ing
Ġsever e
brÃ¼ ck
ordin ary
ĠEnts te
Ġregul Ã¤ren
Ġprakt ische
Ġstrength en
ĠdÃ¤n ischer
Ġgesetz lichen
Ġcontinu ing
Ġelectric ity
ĠBrauer ei
ebau ung
Ġexpos ure
ĠPrinc eton
? âĢľ
j ob
y ter
ur laub
Ġf ahr
Ġf liegen
ĠM ast
Ġn ights
ĠK reat
om aten
sch lagen
ĠC ulture
ĠC emetery
th rop
Ġvor stellen
Ġen gen
ĠKon figur
16 0
vor stand
so le
ĠVers ammlung
ĠSport ler
Ġdre hte
Ġhead s
hÃ¶ fen
ĠPet rus
rÃ¤nk ung
ĠAns ichten
ĠÃī d
Ġbezeich neten
meld ungen
ĠLeon ard
ĠVerletz ung
ĠBrow ser
ĠBulgar ien
Ġgesund heit
ĠKreu zer
ĠEncyclop edia
A k
G M
H ey
M or
R ot
U K
g ro
g ier
j as
u ens
u tel
Ġs Ã¤chsischen
ĠB rom
ĠB oss
ĠD ion
ĠD amm
Ġo s
Ġc oc
ĠI BM
ĠW Ã¶r
Ġl adies
ab is
Ġauf bew
Ġst ieÃŁ
ste il
Ġpro ve
Ġj unger
Ã¼ber tragung
Ġsp ont
Ġor ganisation
Ġent f
Ġvor n
ĠLe gal
Ġen ge
Ġwor auf
ath ers
use elÃ¤nd
stell ten
Ġbet ont
ĠGr imm
ĠGer ade
Ġtr usted
ĠVerb Ã¤nde
ĠReich sk
Me x
ĠHel en
gar de
ĠSen ate
ĠFrÃ¼h stÃ¼ck
ĠCla y
Ġfunction ality
Nieder lage
ĠJeff erson
ĠForder ungen
Ġsau ce
ĠVorarl berg
Ġwechs eln
ĠPhÃ¤n omen
A bst
J ac
T able
d ated
k asten
Ġd oppelt
Ġt iefer
Ġb ron
ĠF utter
Ġc ab
ĠH ain
Ġg rat
ĠC abin
ĠV Ã¶gel
Ġmit ten
ei z
ver antwort
ag anda
ĠAn teile
ĠThe ory
Ġ18 25
ho ur
18 77
ail ing
ĠMe teor
ret to
wa ppen
ĠUm stÃ¤nden
ĠMan ual
Ġthem at
ĠArt ist
Ġra ted
ĠHaupt mann
Ġact or
ĠKunst s
ĠWil helms
grÃ¼nd en
ograf ien
Ġsk illed
Ġgener ated
ĠHistor ical
Ġequ ivalent
Ġ180 1
ĠSicher ung
Ġlov ing
Ġop ens
ĠHal te
Ġcrit ic
Ġlos ing
Ġincreas ingly
Ġgere cht
ĠTrieb wagen
imens ional
ĠBeweg ungen
Ġsurpr ising
Ġausger Ã¼stet
ĠBeaut y
ĠIra q
N omin
S ong
f ly
Ċ ĠĊĠĊ
in as
Ġs ick
ĠA BC
ĠM ent
Ġp in
Ġn ic
ĠK az
ĠK eith
om ed
ĠW alt
Ġer re
Ġl ists
Ġal gorith
ck et
Ġre ception
ĠSch uh
Ġver mitteln
Ġver laufen
ver g
og an
od ore
ĠAn ordnung
Ġpro ceed
end ant
ĠBe ver
Ġunter ird
Ġwor n
itz sch
ĠUnter lagen
Ġro les
gend a
Ġrec ruit
bo und
ĠEle menten
Ġabge halten
ĠRed aktion
ĠTre k
Ġref resh
Ġbeautiful ly
Ġoffic ially
Ġcoup les
Ġbuy ers
crib e
ĠAch telfinale
Ġchem ische
Ġmaint aining
Ġflex ibility
verstÃ¤nd nis
ĠSmart phone
ĠBlo od
ĠGh ana
ĠDenkm all
o i
s il
t urm
z heim
it us
Ġt ape
Ġs tem
an ter
ar ius
al on
ge ht
ĠB eine
ĠM ant
ro gen
ig ne
ĠL Ã¤
Ġg riff
Ġto w
ul se
ĠU eber
ess piegel
ĠAn ten
Ġsch eme
ian ische
ide en
ĠMar ion
amp a
Ġfe hler
att a
pro vinz
ĠGra de
wick elt
irt schaf
Ġgem essen
ĠCar ter
ĠNational en
Ġdr inks
Or iginal
setz er
ĠUr heber
ĠEd gar
ĠPl Ã¤tzen
ux e
Ġentstand ene
Ex p
Ġkon k
Ġprom otion
ĠGed Ã¤chtnis
Ġstehen de
ĠAg entur
Ġaff iliate
Ġconf igur
ĠPubl izist
ĠRein hold
ĠWeiter lesen
pol izei
Ġtele fon
ĠRepubl ican
Ġerf uhr
Ġinterview s
ĠKomment are
Ġsuppl ier
ĠKurfÃ¼r sten
Che ck
Ġprefer red
Ġerl itt
Einwohner entwicklung
ĠBedÃ¼rf nisse
andem ie
ĠschlÃ¤ gt
+ +
H y
b ian
c io
g iving
Ġt rugen
Ã¤ ums
Ġ1 11
Ġn ude
Ġh ind
ĠH ob
ĠC u
Ġer setzen
ĠV ice
ik ale
ben ennung
og s
Ġr ar
Ġnach weis
lie be
Ã¤nd iger
ĠAb riss
rÃ¼nd ung
Ġsc ope
ĠPe ace
Ã¶st licher
ĠDar in
anst alter
wei he
str ong
Ġabge geben
He il
ĠVerwaltungs sitz
Ġimp ossible
ĠPo et
Ġauthor ity
Ġintrodu ce
Ġinteress ant
ĠHart mann
lim ited
Ġconven ience
Ġgolden en
ĠReprÃ¤sentanten hauses
ĠPict ures
ĠApplic ation
verm Ã¶gen
B enz
E st
T ur
c la
e an
j ournalist
l Ã©
t our
Â ¼
st op
ol y
Ġc ord
ĠE i
ĠR aub
ĠC T
Ġl ip
Ġmit ge
ann ung
eb o
ĠSch af
Ġver Ã¤ndern
ib ia
Ġab gebaut
ĠSie b
ĠTe ich
ĠNe ver
ĠAuf fassung
Ġad mit
Ġro y
Ġsuch te
Ġrequ ests
ĠKreis stadt
Ġnor malerweise
AS S
ĠRegel ungen
Ġpublic ation
Ġmar ks
ĠHin blick
ĠDom ain
ĠHal f
ĠRob inson
col or
afr ikanischen
Ġfra uen
Ġrepresent ative
Ġrecogn ize
Ġincreas es
sthe ater
Ele kt
ĠMyth ologie
ĠGoth a
Ġsumm ary
P ack
a endert
p Ã¤dagogik
w atch
w ache
Ġ á
Ġb ranch
il ie
st immen
Ġh its
ĠT ell
ĠK ill
ĠE D
ir ischen
Ġer fre
ĠN utzen
Ġden ken
Ġan gel
ĠSt au
ĠZ am
Ġyo ga
Ġdem ands
ĠEin tritt
ĠSe hr
ĠAuf stand
Ġbeg leitete
aw are
res erv
Ġover look
ĠBundes kanz
Ġgesch Ã¤tzt
ĠfÃ¼hr ende
ĠMon archie
Or gel
link plain
Ġentsp rach
ĠMot ors
ĠCol lins
ĠBetrieb ssystem
ĠJo in
Ġbede utete
ĠOper ations
Ġbeh ielt
Ġmet all
AR T
Ġredu ction
ĠhÃ¶ch st
Ġcomb ine
ĠReal itÃ¤t
ĠHan au
ĠZimmer mann
Ġfab ulous
ĠWay ne
Ġsav ed
ĠGh ost
Ġappl iances
ĠDial ekt
-------- --------
intend o
Stat istik
B ear
E th
L ondon
L Ã¤ufer
M as
b rÃ¤
c amp
h ops
j ing
l ob
er cis
Ġa cknow
le z
Ġp il
ĠP erk
ĠK enntnisse
ĠL amb
Ġg iant
ĠN ak
ĠV in
ver folgung
Ġun us
men gen
ĠRe lease
ian ischer
Ġdo ctors
Ġgew Ã¤hlten
ve x
Ġrec ip
Ġmo od
Ġdire ctions
ĠUr spr
ĠGl en
Ġed it
ĠPer th
ĠDo es
ĠTer r
Ġverl iert
Ġperfe kte
ĠIns assen
ĠHof mann
mark en
Ġapproach es
schei ben
Ġinj ured
ĠÃľberg angs
ĠKrank heiten
Ġenth ielt
ĠVort rÃ¤ge
Europameister schaften
Archite kt
Ġhochwert ige
Ġveget ables
ĠClaud ia
Ġinvent ory
ĠTac oma
Ġconfl ict
A uÃŁen
H H
H ersteller
Z ent
b Ã¶
k ong
as ted
le f
Ġm and
ĠA pos
ĠK unde
ĠK alten
ĠH unt
ĠN ost
Ġim pression
Ġe if
ĠSt urz
os itions
os serie
ĠTh ink
ĠAus chwitz
ĠNach weis
ĠAm ate
Ġweit e
ors es
ĠJahrhund erte
ron omie
ĠAd rian
ĠGer ichte
ĠAll iance
Ġcl ubs
ĠKunst halle
cy cle
esen ted
âĢ¦ )
Ġass ociation
ĠBild schirm
Ġinv ite
ĠBuch en
Ein ige
ĠTag s
Ġâ Ī
Ġhol en
ĠMc G
Ġcert ificate
Mar ie
ĠKol umb
Ġocc urs
Ġinn ere
lager ung
Ġmass iv
ĠLog istik
ĠHard ware
Ġexam ination
Ġschle chten
Ġcarry ing
Ehr endoktor
ĠWord Press
ĠErwachsen e
ĠAster oiden
ĠOffiz iere
Ġanbie ten
ĠHamp shire
ĠQuÃ© bec
E ven
el berger
ro c
Ġp ant
ĠP it
Ġein ges
ĠT ote
ĠF oss
Ġc ush
ĠK eine
ĠH R
Ġto x
ul ating
if i
Ġun ex
Ġsp iegel
ĠAr min
ov on
ĠAus rÃ¼stung
ĠAuf hebung
Ġweit en
Ġgo ogle
ish a
Ġfr isch
uk le
Ã¤nder ten
Ġbef asste
ifiz ieren
Ġant rat
Ġrep airs
Ã¼ll t
Ġlist ings
Mar ia
Ġconne ctions
Å¡ t
ĠEhren mitglied
Ġklass ischer
Ges etz
Ġassist ant
Ġarr ival
ĠGottes dienst
Ġsah en
ĠInform atik
Ġlau tete
ĠOrganis ations
ĠStell vertreter
Ġschle chter
ĠAP I
ĠHarr ison
Ġpassion ate
Ġumfassen den
ĠLuz ern
ĠLoth ar
G reat
P ersÃ¶n
Z entrum
b Ã¶r
p ause
p assung
s u
ĠS end
ĠB erkeley
ro e
de aux
ĠP on
Ġh ate
ĠG R
ĠI A
ĠR Ã¼ss
ist oire
ĠV ene
la fen
ĠSch lÃ¤
Ġzu gewiesen
Ġr ib
Ġsp ots
ub les
Ġdies el
ĠLe gend
tra cht
az ier
ĠFl Ã¼sse
Ġcont aining
ĠÃľber reste
Ver fahren
Ġgeb raucht
ĠSÃ¼d seite
Ġgef Ã¤llt
ĠComp et
ĠCom ics
ĠFil ial
Ġvorhand ene
ĠSu hr
Ġess ays
ĠÃ¤hn lichen
ĠJer ry
Ġanz ut
But ton
Ġstation iert
Ġmaint ained
Ġbezeich nen
ĠÃ¶ konom
Ġverschw unden
ĠLit auen
genossen schaft
Ġchamp ions
ĠPiet ro
Ġliefer te
Sel bst
F ar
N un
O der
b eln
ĠS ize
re f
re ate
Ġb att
ĠB ark
ĠE cht
ist isches
ach ed
Ġer setzte
ĠN E
Ġl aid
Ġst ro
Ġst Ã¼rzte
ĠAn reg
rÃ¼ der
Ġen de
18 73
ĠAuf wand
ĠUnter grund
mit ten
arbeit eten
res ted
Ġexp los
Ġac ts
Ġcons cious
ĠHaus halten
ĠFol k
ĠArch ive
Ġmin ister
ĠHol iday
Ġerfolg los
ĠGen ossen
bra uch
Ġmanufact ured
ĠCap it
ĠModer nis
Ġdiv ision
Ġsouth ern
ĠGreg ory
Ġlisten ing
Ġmensch liche
Ġelektron ische
ĠPassag ier
ĠKÃ¶n ige
verletz ung
ĠKonzentr ations
ĠRepar atur
Ġcurren cy
ĠBelager ung
Ġinten se
ĠNormand ie
A g
B ud
F rance
m aster
ĠS opran
Ġein heim
ĠT iefen
ra ck
ĠR achel
ĠL ernen
ul ierte
ĠO ft
Ġr anging
Ġsp ir
Ġse gment
be vÃ¶lker
her z
Ã¤l en
iger ung
Ġsc reens
Ġgesch m
ĠCon tra
Ã¤ng ers
ĠBar ry
Ġpl ot
recht lich
ĠAnt iqu
ĠOrts name
Ġcommun icate
ĠGegen stÃ¤nde
ĠBel ow
ĠBro ck
AT A
ĠAmt es
Ob jekte
AR D
kap ital
Ġcra fts
Ġfund amental
ĠÃ¼b te
ĠEvangel isch
Ġrelig ion
Ġcharacter istics
ĠEntwick ler
Ġdise ases
ĠBrig itte
ĠKoal ition
Ġstir bt
Dam it
ĠHÃ¼r den
P N
h Ã¤
u gel
in sp
ie in
Ġb acter
Ġf ru
ĠD ikt
st orf
Ġh ip
ĠT arn
ĠL loyd
ed a
est ag
Ġre ine
Ġst range
ĠEr neuer
esch t
Ġwh oles
Ġsp itz
Ġex haus
ĠAb bildung
ĠLand wirtschafts
In itial
Ġgew innt
fl Ã¼ge
oh es
ĠTeil nehmern
ĠFilm fest
meister s
enk o
Ġbel ong
Ġben annten
anc ement
Ġeng aging
ĠPla ces
azz o
ĠBed room
ĠProfess ur
ĠZe ugen
ĠDis play
ĠGel b
ĠRel ations
viron ments
ĠGerman istik
Ġrele van
ativ ely
ĠEing angs
seit ige
ĠNet her
Ġfinanz iert
ĠGesprÃ¤ che
Ġreligi Ã¶se
Ġdigit ale
ĠSkulpt ur
sph ase
ĠEnvironment al
Ġverblieben en
ĠUd SSR
ĠÃ¼berrasch end
1 12
R ud
f eind
n ÃŃ
o an
s eiten
Ġd os
is an
an u
ĠS umm
ur u
us el
Ġf lying
ĠB utt
ĠM Ã¤
ĠP ent
ĠP aint
ĠF lieger
Ġc ultur
ĠR asse
ĠL ords
ĠC rew
Ġre ward
Ġst ake
Ġde fense
ition ally
iss er
ĠCo ol
ald o
Ġph arm
ym met
ĠRÃ¼ck zug
ha elt
kon omie
ĠCom par
ĠUl tra
Ġ180 5
Ġsug gested
emb ran
ĠZuge hÃ¶rigkeit
ĠFern ando
ĠAre al
ĠEss ays
Ġvorher igen
ĠSus anne
struktur en
Ġtschech ischer
Ġpopul Ã¤r
Ġniedr igen
ĠEint rÃ¤ge
Ġbedro ht
Ġerlern te
ercis es
1 000
F ue
Z E
b eing
h au
l ernen
ie val
Ġw aters
ĠS audi
us ions
ĠM Ã¼l
ĠM Ã¼ll
Ġp ace
ĠP un
ĠG riech
ĠW eing
Ġg ym
Ã¶ ge
ĠV W
Ġk at
la uch
ill ings
Ġunter b
ans on
wer fen
St adion
leg al
Ġcons erv
Ġmark ed
Ġgener ell
Ġchild hood
ĠÃ¼b licherweise
Ġverz ichtet
Ġshel f
llllllll llllllll
Ġauthent ic
Kan al
ĠWitten berg
schles ien
Publik ationen
> </
E inen
ĠD um
ĠH K
ĠH ert
ĠR ivers
Ġge le
af ter
Ġver schl
Ġr ender
ĠRe cher
ĠAn leitung
Ã¼ber greif
Ġ18 19
hen g
iz ierten
Ġunter e
Ġ17 89
Ġfe ier
pro p
sh ore
fr iger
[...]
