#version: 0.2 - Trained by `huggingface/tokenizers`
e r
e n
i n
c h
Ġ d
Ġ a
e s
n d
i s
o n
i e
i t
Ġ t
Ġ s
o r
t e
a n
Ġ w
a r
Ġ S
a l
a t
r e
h e
u n
u r
Ġ b
i ch
u nd
e in
Ġ in
a s
g e
u s
Ġ f
Ġd er
l e
Ã ¼
Ġ m
Ġ A
Ġ B
Ġ v
e l
Ã ¤
Ġ und
Ġ 1
Ġ M
i l
Ġ D
s t
Ġ o
Ġt he
un g
in g
t er
r o
i g
d e
i on
Ġ P
Ġ p
Ġ ein
Ġ n
o l
Ġ h
Ġ T
Ġd ie
Ġ F
Ġ G
Ġ (
a m
â Ģ
i m
Ġ K
Ġ E
Ġ c
t en
Ġ z
o m
s ch
r a
u t
Ġ I
e m
Ġ H
en t
Ġ W
h r
Ġ R
e t
is ch
Ġ L
Ġa nd
i c
u m
Ġ g
e d
Ġ C
Ġo f
b er
u f
Ġt o
Ã ¶
Ġ 2
a nd
Ġb e
e it
is t
i r
a ch
Ġ er
Ġ1 9
Ġ N
d en
Ġ l
Ġ V
Ġv on
Ġ J
i er
Ġa l
d er
c k
Ġ k
l ich
Ġt h
Ġd en
Ġd es
Ġa n
u l
er s
g en
Ã¼ r
Ġ im
i v
Ġ2 0
o t
Ġ ge
Ġ e
at ion
ĠS t
Ġ O
i k
Ġm it
a b
u ch
es t
o w
o s
a d
an n
Ã Ł
l a
Ġd as
Ġ y
Ġ U
Ġ âĢ
t s
Ġ re
i es
e i
Ġa uf
k t
Ġ Z
e b
al l
ĠS ch
i f
i en
Ġz u
a f
es s
Ġs t
a h
Ġv er
ie l
o u
Ġw ur
c t
v er
Ġf or
Ġ is
Ġ ist
isch en
Ġd em
Ġf Ã¼r
Ġal s
a u
o p
i d
te l
a y
ich t
Ġ on
ĠI n
c e
a hr
Ġ Ċ
er e
Ġa us
or t
n e
Ġ un
m en
Ġwur de
a g
b en
it h
as s
p p
il l
Ġd e
Ġein e
o ur
ĠV er
o g
in d
t h
er n
w e
Ġs ich
Ġw ar
s p
Ġ r
0 0
a v
ĠR e
Ġ20 1
o d
a k
a us
a te
sch af
Ġw ith
ĠA n
z e
el l
er t
l in
u g
o ch
es ch
ĠD ie
ĠE r
l y
Ġ j
Ġs ein
Ġp ro
Ġ i
Ġw h
r an
) ,
en d
Ġy ou
i b
us t
ar t
s te
Ġn e
f f
r u
ung en
h n
Ġa m
isch e
Ã¼ ber
Ġth at
Ġa b
g er
ig en
r ie
Ġbe i
Ġ it
ĠS p
q u
a p
an g
s e
Ġs p
Ġ 3
ĠT he
ut sch
h t
âĢ Ļ
Ġs ch
o k
s en
Ġa uch
Ġ le
Ġ he
ur ch
Ġs e
ĠB e
Ġ20 0
u d
Ġn ach
ĠJ ahr
m er
an t
ĠU n
Ġ Ã¼ber
u b
l er
âĢ ĵ
r Ã¼
ĠA l
âĢ ľ
ar d
Ġ1 8
Ġw ir
ung s
i a
Ġa s
Ġa re
l ie
Ġs o
1 9
k s
ĠA r
Ġb is
h en
Â ł
schaf t
or d
i p
ĠE in
Ã¤ t
i z
o v
Ġs ie
o st
is e
Ġz ur
Ġd ies
ĠâĢ ĵ
i al
iv e
Ã¶ r
Ġ or
Ġm e
ro m
m ent
u p
ol l
Ġc om
ĠD e
Ġw e
b e
tel l
ĠâĢ ŀ
r Ã¤
n en
it y
as t
h er
Ġe x
a ge
Ġz um
Ġa t
or m
a in
et z
ĠP ro
r it
Ġw er
h l
Ġein er
Ġ ch
Ġ um
Ġz w
Ġc on
Ġn icht
ch en
ic k
p t
Ġw as
or e
Ġwer den
m e
h o
Ġ ent
Ġun ter
i ge
l and
isch er
Ġh at
Ġv or
Ġ es
Ġd urch
Ġy our
en s
Ã¤ r
g r
av e
ier t
. .
om e
o nd
h al
Ġ19 9
Ġwir d
ar k
Ġw ie
n er
us s
te d
g es
Ã¤ n
ge l
u re
o b
en n
in e
el t
ĠG e
ĠT e
Ġs ind
ter n
f er
re ich
ĠS ie
it e
u e
D ie
) .
Ġo der
Ã¶ n
Ġb y
Ġein em
i an
Ã¤ nd
er k
Ġal l
Ġth is
i de
ge b
Ġf rom
ur g
Ġ Ã
Ġ 4
ĠT h
ĠC h
il d
g t
f t
i o
st en
ĠL e
is ter
z en
Ã¼ n
am e
lich en
i re
ĠM it
Ã¼ hr
ch e
Ġh ave
ĠD er
ĠS e
Ġein en
u ÃŁ
a uf
b eit
ah l
d u
at ur
Ġm an
ĠO r
p h
a c
ion s
ĠA b
Ġ us
ĠN e
p ar
Ġ 5
o c
2 0
l at
Ã¼ ck
Ġ en
Ġc an
m al
te t
o ut
ad t
Ġw ill
l o
p er
ĠB er
ul t
s s
ic e
we ise
Ġw or
a ck
ation al
o hn
Ġ -
in z
Ġ19 8
ĠE n
er v
ch t
t ra
el n
ĠA uf
j e
lich e
1 8
de m
ĠA us
f e
ig ht
on t
e ar
ĠL and
Ġ Y
f orm
Ġt e
ur n
st er
t z
r y
a il
om m
l l
at er
ig n
Ġdas s
ĠM ar
Ġn ot
f en
i le
Ġb es
k eit
re i
ĠN ach
te il
l os
o ok
Ġ19 7
Ġs h
on e
p r
ĠI m
ar e
re is
all y
or en
on g
Ġde utsch
Ã¤ hr
al t
' s
ĠM e
o un
l ass
iv ers
ĠH e
ĠW e
r at
b urg
it ion
l an
Ġ Ġ
r en
ich te
ĠD as
Ġ( *
am m
ier te
re t
ĠV or
il m
Ġ 6
Ġ 9
Ġi hr
is s
Ã ©
Ġh as
I n
ul d
k e
Ġp r
it z
f ol
de t
em ber
ab le
Ġa d
Ġ19 6
a z
al e
T he
ber g
am p
im e
ation s
ol og
he it
Ġwur den
ak e
Ġa r
ro ÃŁ
ĠUn ter
iel er
Ġw eit
ing s
er en
at en
ein e
ers on
Ġw o
ĠH er
Ġs ow
h re
ĠA m
c c
eb en
ĠZ eit
u te
Ġcom p
Ġh er
Ġn ur
it er
om p
th er
W eb
Ġ "
ĠSch w
Ġv om
ĠF l
Ã¤ l
at h
lin ks
an s
Ġ 7
l es
ab en
Ġ1 7
Ġme hr
ĠDe utsch
ut z
Ġg en
Ġo ur
Web links
Ġ up
a ut
Ġd o
r ich
Ġn och
Ġg o
ol d
z eit
as e
ent s
Ġ19 4
ch n
Ġr es
par am
t o
Ġ et
ig er
ier en
os e
an z
ct ion
e c
ĠRe g
ĠF ran
Ġge w
i um
Ġo ut
us e
om men
Ġ 8
ze ich
m it
on s
f l
at t
ĠSt adt
Ġ qu
ĠM a
s el
k en
Ġ19 5
am il
Ġl ie
ne h
ĠP r
Ġf e
ĠG em
D er
r if
al s
m ann
Ġm y
ib t
or s
nd e
ol it
re e
Ġb ut
ie d
g an
f in
le ich
v e
Ã¼ d
w er
ig h
Ġ1 5
kt ion
el d
Ġb et
te m
b ar
S t
Ġ ro
c o
E inz
Ġt ra
S B
ow n
og ra
h Ã¶r
Ġa ber
f Ã¼hr
Ġsow ie
Ġc o
la g
ik e
Ġthe ir
b all
y s
u en
in n
ĠP ar
is h
ah n
Ġb est
Ġ1 0
ie t
ol le
st and
n is
ach weise
ar y
on n
an ce
eln achweise
Ġp er
it Ã¤t
g esch
Einz elnachweise
h und
Ġon e
y p
w a
Ġ1 6
Ġm ore
Ġ19 3
is ten
or n
ate d
ic al
el s
g lie
o ck
am men
ier ung
Ġ Q
r ing
Ġd ar
ik er
oun t
ah re
Ġs te
l d
a de
f ahr
etz t
Ġge gen
Ġb er
ann t
es e
Ã¤ ch
y ste
SB N
ĠGem ein
Ġals o
ig keit
c l
ĠU S
ĠI SBN
Ġsein er
ĠI t
Ġzw ei
m p
ĠG esch
h aus
r on
in k
ĠUn ivers
ig t
Ġin s
g l
Ġge t
lat z
Ġab out
a is
Ġein es
ie der
m in
Ġhat te
lie ÃŁ
ub l
l ung
o ber
Ġf in
im m
ĠG r
Ġa pp
s k
Ġal le
el le
Ġsein e
Ġj ed
is sen
p ro
am en
re at
.. .
g lich
Ġg es
ĠJahr hund
ĠS o
Ġthe y
ru pp
u al
Ġk ann
u er
Ã¶ ff
ur op
Ġwie der
ĠS te
ge ben
m an
Ġ &
ĠJ ahre
ik an
00 0
ĠG ra
x t
Ġdies er
ie le
ĠG eb
ar beit
Ã¶ l
o h
Ġe v
Ġne w
Ġwh ich
Ġk Ã¶n
us ammen
Ġs oll
at z
or y
s tell
ĠD ies
an k
eit e
ĠG es
et t
Ġh is
ĠK ar
w o
iter atur
Ġbe en
ay s
m ein
und en
Ġp la
n ah
or f
âĢ Ŀ
Ġof f
ĠP h
Ġy ear
ĠTe il
ĠA d
ro w
at s
ĠE s
yste m
al d
Ġzw ischen
a ct
ĠF or
ÃŁ e
1 7
ĠF re
Ġi hre
t on
n et
v el
Ġ1 2
ĠK on
it t
b au
Ġbe g
ĠU m
s er
in ter
Ġwh o
o f
p ort
am er
ĠF ra
Ġf ol
h m
Ġwor k
Ġ1 4
ab e
b r
D as
Ġt ime
u le
f all
1 0
Ġs eit
ĠJahr en
ĠM us
an ge
a pp
u de
ĠC hr
w ick
in der
Ġwar en
ent lich
ach t
ĠBer lin
ĠW elt
Ġo b
Ġk n
ľ ber
w erk
i x
ĠK ir
ret urn
a w
ck e
S ch
Ã¶ s
re d
Ġs u
1 6
t t
Ġzur Ã¼ck
e k
ent r
ter s
Ġs ome
b st
Ġs el
ing en
c es
lin e
eit en
is te
b le
Ġh aben
i ent
Ġan y
rie d
ir t
rie g
Ã¤ ter
ĠSt a
ĠK l
in a
1 5
Ã¤ hl
iel t
ie w
au pt
if f
Ġ1 3
eit s
und es
or k
ot t
or g
Ġin ter
ĠB r
Ġd am
os s
o ff
gen d
o y
Ġg roÃŁ
Ġcon t
ĠE x
hal ten
ic t
schaf ten
em p
id ent
rÃ¼ nd
Ġo ver
ĠNe w
e ich
o ol
sp ieler
Ġd is
Ġp art
en e
m a
Ġbe k
l Ã¤
ĠB es
la ge
at ing
ĠâĢ ľ
ĠF ilm
un k
ĠA nd
ge w
le d
ell en
Ġst ud
ar n
am t
a um
1 2
y n
ck en
r es
E r
Ġdies e
ĠM an
Ġdeutsch er
ĠA ug
Ġ ra
ĠJ an
T h
Ġk l
ĠB l
Ġre c
ĠSp iel
ĠT ra
Ġge hÃ¶r
Ġer sten
s h
uÃŁ ball
ĠEn t
rie b
ĠZ w
ĠÃ ľber
ĠB au
Ġl ike
ĠGemein de
Ġs erv
ĠJ un
al en
g te
Ã¤hr end
Ġp h
he im
sch en
Ġbe im
glie d
ir st
ĠS h
ĠkÃ¶n nen
Ġp re
Ã¤ d
in t
Ġv ers
ver y
st ra
en er
at es
f or
e p
ĠG er
ot h
ĠJahrhund ert
in s
ar b
form ation
neh men
G eb
c om
V er
A n
Ġa cc
ĠB o
ĠJ ul
Ġthe m
ra ch
m us
ster reich
Ġpro du
Ġs c
L iteratur
Ġo ther
ÃŁ en
Ġj e
ov e
Ġn o
1 4
Ġer st
I m
ĠSt ra
en de
Ġp e
sch ie
Ġbe f
Ġ19 2
ĠO ber
o us
Ġd rei
h and
ĠAr beit
und e
ou g
uch t
Ġ 0
Ġjed och
ug h
a ir
Ġwh en
Ġpro v
et h
Ġhe l
Ã¶n ig
Ġj ust
ĠTh is
tell t
ĠE l
ist or
f r
rÃ¤ s
y m
Ġin d
ier ten
ĠN ov
tern ational
a x
ogra ph
Ġd ann
me ister
Ġk onn
Ġ if
Ġge b
1 3
r Ã¶
ul l
2 00
k l
ĠB and
ar r
ĠP f
7 8
u ar
p iel
Ġg esch
ĠT r
aus e
Ġ ich
A l
Ġre g
ĠM en
z er
o ten
Ġex p
en k
ĠM in
Ã¤l t
Ġw el
h ne
i pp
en den
Ġsp Ã¤ter
z w
D e
i der
ĠA ut
Ġth ere
Ġf Ã¼hr
ĠF amil
ra nd
p f
ĠÃ ĸ
es ten
f ess
ĠE urop
Ġa g
Geb oren
ĠAug ust
ĠZ u
ĠB undes
Ġan ge
a ce
Ġc l
ĠAr t
Ġm us
Ġne ed
and er
if e
Ġh ow
Ġwh at
t re
Ġver b
ic es
Ġh o
un st
f Ã¼
Ġl ook
ic s
ĠH and
as h
f ter
Ġer h
le x
au er
ĠC ar
Ġit s
Ġ201 8
Ġw enn
en z
le t
d ay
Ġet wa
Ġg ibt
ĠI nd
Ġw ere
ĠĠ ĠĠ
ĠP e
tra g
op le
Ġt r
ĠN ational
it el
b ach
ur t
Ġbe c
r ess
U n
z ial
Ã¶ glich
al k
ĠO b
Ġin cl
iv er
ĠDeutsch land
il it
ar m
p en
Ċ Ċ
Ġin to
tem ber
Ġh ad
n ung
ch er
r icht
eb s
ĠFran k
Ġd a
Ġi hn
ĠM ed
ass en
ĠK Ã¶nig
Ġwo uld
s o
c ed
Ġm ake
w ard
ĠN ord
io us
Ġf o
v or
Ġweit er
5 0
ĠM Ã¼n
uÃŁ er
ĠP erson
hal b
on st
ĠM ann
schaf ts
b ild
ier e
ar s
lich er
ru ck
ĠP latz
Ã¼ t
Ġth an
je ct
je kt
Ġh ier
Ġf r
ro und
Ġm ost
ĠChr ist
Ġk e
pr il
ge mein
ĠSt ud
Ġsein em
Ġb el
M ann
ir k
Ġh and
Ġer fol
ĠM on
Ġf irst
ab ei
ĠM al
ĠP ol
it al
R e
ĠSe p
Ġ .
o der
ĠVer ein
Ġ /
Ġb u
Ġg leich
Ã¤r z
e ct
schie den
ĠG roÃŁ
Ġsein en
ol f
ib le
ĠH aupt
ho f
ĠE nde
Ġun s
k er
Ġz usammen
re it
Ġg er
ch ts
un kt
' t
ĠĊ Ċ
ig ung
he l
ar ten
ass er
pt ion
Ġhel p
uf t
in er
Ġth ro
ĠNov ember
ur z
ien ce
v ers
Ġlie gt
k a
ĠH o
ĠS c
ie f
eit er
ĠJun i
ĠSep tember
ut ion
d ition
2 1
u z
ais on
Ġ3 0
Ġus e
de d
g ang
ow er
w ohn
Ġer ste
Ġpe ople
et s
un ter
ĠQ u
i qu
Ġe very
in ess
b o
ul ar
. )
el y
Ġkn ow
ien st
u ten
g est
Ġaus ge
ĠA pril
ĠAl l
st it
Ġw ell
k reis
ĠB ei
rupp e
a kt
Ã ¡
ag es
al ien
st adt
ĠGr und
kt ober
i ze
a gen
at or
ment s
ĠV ol
M it
ĠI I
ich ts
ran z
f ul
ro l
s atz
Ġb esch
hal t
Ġh in
ĠVer b
ste in
u es
1 1
Ġle tz
ĠB et
Ġ19 0
iv en
Ġver w
ĠS Ã¼d
ke hr
a id
Ġber eits
Ġein z
we g
issen schaft
Ġse hr
ĠMa i
ult ur
Ġon ly
Ġd ort
N ach
w n
b es
G e
Ġand eren
Ã¶ff entlich
Ġfol gen
op h
ĠV ers
if ic
isch es
Ġdies em
a den
Ġ201 7
v en
is en
ĠI s
sch l
ĠF e
Ġe igen
at ive
ĠJul i
st Ã¤nd
Ġz e
ic a
v ent
oh ann
Ġver y
Ġihr er
es en
af f
Ã¤n g
g ra
Ġm ay
Ġbes te
Ġe ben
ost en
c y
an y
at a
Ġv iel
Ġer w
Ġb ack
us iness
ess en
ĠY ou
ĠH och
ein en
Ã¼ tz
ĠO ktober
Ġa ct
Ġd ire
ĠP olit
z ahl
w alt
a i
Ġdes ign
Ġ201 6
= =
f ach
b uch
Ġs he
Ġcom m
Ġkonn te
ion en
Ġ201 0
ĠOr t
es ter
am s
ran s
f ang
Ġi hm
De utsch
Ġv ier
eb ru
Ġte il
Ġ201 5
al le
gr und
k te
ĠP a
la gen
m Ã¤
19 9
ra g
Ġk eine
Ġ X
le g
ĠK inder
a ur
or ben
Ġman y
b l
Ġs ol
ĠC o
ĠM et
Ġf ind
ze ug
ation en
Ġa kt
Ġsu pp
ĠJan uar
Ġsch w
ĠF Ã¼r
it ed
Ġk am
Ã¼r ger
S ie
ĠK unst
ĠO n
Ġ201 4
Ġas s
u k
op p
ein g
Ġh ome
la uf
sch e
ĠM Ã¤rz
u c
Ġf l
Ġd own
as ch
if t
ust r
Ġ201 1
re g
Ġ201 2
ei d
Ġt wo
Ã¼n st
Ġyear s
Ġ201 3
Ġst and
f eld
3 0
m s
r s
Ġund er
Ġp l
Ġbe fin
i or
Ġd r
ĠPro du
amer ikan
Ġcon s
Ġ %
Ġ |
ĠH aus
ĠB ar
at ch
z ember
Ġb as
Ġex per
ion al
Ġ Â
f te
Ġs ho
he mal
it s
rit t
ĠC l
oug h
ĠB ild
ĠĊ ĠĊ
Ġ1 1
ĠC on
am es
Ġ200 8
Ġs m
Ġl oc
Ġhe ute
Ġsp ec
Ġm ach
ĠF ebru
ĠJ ohann
s etz
i den
p or
Ġsel bst
B e
y l
um ent
Ġal ler
c ts
ĠS aison
ern se
olog ie
Ġge l
Ġthro ugh
Ġ18 9
fall s
ĠG ener
ĠLand es
Ġw Ã¤hrend
mit tel
Ġth ese
ranz Ã¶s
Ġ2 5
ĠR es
ĠF ol
if fer
ar ch
Ġh igh
ort h
Ġim mer
sch lieÃŁ
ĠW h
âĢ ¦
Ġb l
Ã¶ ch
c ess
u ck
ĠS er
Ġver schieden
gan is
ĠW erk
p s
vel op
ĠMus ik
Ã¶ st
w ahl
omm un
Ã¤n ger
o gen
l ig
ge t
ing er
os ition
l i
ber t
b ahn
ĠAr ch
A us
ebs ite
Ġ200 9
ĠF ried
ak ing
Ġsch on
ig te
ur s
Ġb en
Ġ em
Ġsp iel
Ġbei den
w ay
Ġp ar
in al
Ġin v
ich er
ĠW il
ĠJ u
Ġdam it
Ġg rÃ¶
is ion
um s
Ġgo od
h ol
ĠL iste
Ġg u
ĠAl s
O r
W e
ĠIn ter
ĠGesch ichte
Ġand er
g rÃ¼nd
ĠUnivers itÃ¤t
Ġer sch
ĠDe zember
Ġ [
tel ler
il ity
Ġs uch
P ro
Ġw en
s on
z ie
ĠA mer
Ġf ree
sch rif
Ġde c
Ġ200 7
zeich net
ĠW est
z u
ĠRe ich
ĠKir che
ĠgrÃ¶ ÃŁ
ĠF r
in nen
ĠR om
z ug
Ġa ut
Ġm in
hr en
ĠW ert
r ip
Ġp erson
ĠDies e
Ġe le
A r
ĠV on
ow s
Ġ2 4
ĠB as
Ġge f
rie ben
los s
Ġm ark
ist r
ĠG l
ic an
kt ur
Ã¼ l
Ġa fter
b t
Ġst att
Ġne ue
ĠG o
we il
Ġg reat
ĠâĢ ł
Ġb o
v iew
ĠSt re
Ġn ow
it ies
ges tellt
ĠP re
Ġm on
a j
ĠM ark
Ġo hne
Ġpla y
o te
Ġw ay
ĠO ff
ĠVer lag
sch n
Ġl ang
te te
Ã¤ch st
hr er
ra d
ĠE le
Ġbec ause
p ieler
G esch
Ġm ed
ly mp
ĠS k
he m
ĠUnivers ity
mal s
is mus
an c
al th
Ġ9 78
A m
âĢľ ,
Ġs om
ĠD es
. ,
Ã Ń
ell schaft
ogra f
ĠA s
Ġ200 6
ĠN ieder
i us
fÃ¼hr t
o hl
Ġf re
ra ft
T e
ten t
Ġa c
sp iel
Ã¼ nd
al ter
Ġon line
ĠPh il
ach sen
{ @
Ġar t
ĠMit glied
ur ing
Ã¤ hn
ut t
Ġz un
Ġe ff
âĢľ .
Ġs ub
Ġd ay
Ã¤nd er
ĠEin e
Ġwh ere
ĠFebru ar
ĠB uch
ĠSchw ei
in es
Ã¼n f
Ġte chn
he d
ĠH ol
Ġb usiness
Ã¼ s
f ra
o de
Ġa v
lin k
u ge
ĠF orm
ĠW ien
Ġ ,
in o
ĠD urch
ĠH am
Ġqu al
ĠF uÃŁball
ch s
w ert
em ent
Ġ1 00
iv es
ain t
Ġp o
f ass
ch sel
Ġf est
L e
ĠM ill
Ġin c
ĠUnter nehmen
Ã¤ ude
Ġ200 5
los sen
ik a
a e
un ktion
ro p
ĠF ahr
lo ad
Ġd el
or den
Ġse c
g abe
om en
Ġs Ã¼d
ĠD r
ĠÃ Ħ
tel le
w end
Ġdes sen
ĠMit tel
ed er
rÃ¼ n
Ġse e
neh mer
y r
le it
ĠS al
p l
ĠN amen
la y
ĠMÃ¼n chen
il t
Ġf ranzÃ¶s
b and
Ġg ab
Ġihr en
ĠJ ohn
ĠCh ar
Ġar beit
is piel
4 0
m ed
a der
ĠM ich
co de
g leich
al b
Ġ #
Ġein ge
re cht
Ġ18 8
ien d
Ġg ra
h in
ĠK rieg
Ġ ed
Ġ20 00
ie g
ĠH Ã¶
kt or
is k
Ġsp e
l en
iss ion
Ġs ystem
uf en
rupp en
Ġh ere
ĠK n
Ã ³
i ra
Ġbek annt
ĠMen schen
ĠA t
Ġo wn
Ġ end
p art
Ġerh ielt
ĠL eb
Ġs aid
Ġev en
nah me
Ġf rÃ¼
Ġco uld
al er
Ġe hemal
Ġne uen
ig es
Ġre m
k rieg
Ġ u
ot her
Ġre ad
il der
Ġwor ld
Ġn ah
p e
Ġc re
ur es
Ġs ur
ro ss
ĠB est
Ġste ht
2 5
ĠB ay
Ġv is
Ġth en
glie der
est orben
ĠC omp
ĠKar l
sch ule
ĠMe ister
ĠP art
ĠP er
le gt
le ase
in ce
wick lung
le gen
Gesch ichte
ĠD ar
ĠU r
ĠE d
Ġd iffer
Ġw ant
Th is
stra ÃŁe
ust om
ĠR o
Ġdies es
ro up
Ġp ol
w are
ĠSch ul
Ġweit ere
Ġin st
Ġf amil
ĠD an
Ġc ar
Ġ200 4
Ġd abei
Ġm ade
it zen
m ar
f ern
il le
6 0
e h
ubl ik
ĠW er
Ã¤hl t
Ġde velop
p unkt
Ã¤t z
ĠF in
k auf
stell ung
sp ort
ĠY ork
Ġpro gr
Ġincl ud
Ġdeutsch en
in en
all s
Ġs im
ĠK omp
ig ten
Ġder en
Ġre qu
aus pieler
z ent
ag er
Ġ2 2
v an
ĠK r
Ġb zw
ĠAn t
ernse h
l ing
un n
use um
ap an
u ter
ar i
L eben
Ġs k
fahr en
ĠW or
ĠA uch
Ġs ei
in ing
geb iet
at her
ĠM ag
ĠI f
an gen
ot s
Ġt ake
h ard
ĠL in
iv ing
Ġst ar
olog y
Ġm uch
Ġd on
ĠT od
p le
ater ial
ĠR Ã¼ck
ĠH ein
Ġer reich
Ġent sp
Ġf Ã¼nf
pr ess
Ġ201 9
Ġp lan
ĠPerson en
Ġin formation
o ge
ĠW asser
all en
ĠB ere
Ġb ook
sch utz
lass e
w w
k ommen
Ġus ed
Ġi de
iel d
Ġre al
az u
an st
ĠSch l
Ġch e
la ck
ur r
en ce
Ġ ur
ei den
as on
um mer
ĠZ usammen
Ġv al
en der
ĠP at
ĠSch rif
ĠW ohn
ĠW ill
G estorben
Ġp olit
Ġp ubl
E in
ĠF est
ĠN atur
up er
it Ã¤
ĠB re
Ġ *
Ġalle m
isch of
um ber
ak es
rs g
t ag
Ġ18 7
im es
2 2
ann te
ar ge
an ts
um e
ond er
Ġbefin det
Ġ5 0
Ġ2 3
Ã¶r der
as ter
Ġt yp
ĠG u
s ol
wohn er
out h
at ure
age ment
ĠD aten
ir d
l am
Ġ2 1
Ġsho uld
e y
Ã¶l ker
ĠM o
om in
ĠS ohn
Ġe as
ĠBer g
ĠS an
ĠAl b
re ib
ĠFamil ie
Ã¶ sterreich
8 0
w ig
Ġ emp
Ġb eing
u gen
ĠO lymp
Ġl ife
Ġbeg ann
Ġp ra
ide o
schl uss
Ġprov ide
ĠA ss
Ã¤ us
ĠLeb ens
ĠP l
Ġin ternational
d ings
Ġwor den
ĠSt and
he in
rit ten
u x
sch ied
re ch
iqu e
u pp
ĠOr ts
E R
re uz
k m
ĠJ e
z iel
ĠS il
sch ul
ran k
ĠB en
ĠK reis
ĠL ie
es ent
f ilm
ĠFried rich
Ġen g
irt schaft
z t
ĠW ei
Ġ200 3
omm t
ĠPa ul
ck t
ĠR ad
Ġc ol
an ad
ct or
ĠGe w
e te
ĠD re
Ġof fer
ĠB ra
ck er
ich ten
Ġso nd
4 5
Ġdeutsch e
ru e
Ġr ight
Ġzun Ã¤chst
ĠDeutsch en
rip t
Ġ200 1
Ġ200 2
ĠP ort
Ġgew ann
ĠO st
Ġden en
Ġf and
ut ter
ĠFra uen
ĠB ahn
um en
Ã¤nd e
< /
ĠC ol
Ġge mein
ĠPolit iker
ĠE m
u ally
ĠSta ats
Ġs ite
ip s
ath ol
ĠRe p
om mer
Ġs tell
2 3
en det
Ã¤ uf
rÃ¤s ident
Ġand ere
ent ly
Ġp ass
Ġent stand
F uÃŁball
ĠB el
s w
ĠN ame
ĠGe gen
A b
ho de
mÃ¤ ÃŁ
ur m
le i
ĠH ans
h a
g or
Ġsond ern
Ġb ed
c a
ĠB Ã¼
ond on
sch w
Ġ $
Ġ( âĢ
Ġto p
ĠT itel
Ġ2 6
Ġad d
gl isch
on om
hel m
oll ow
re chen
Ġ2 8
ĠEn g
ĠK ap
Ġbef ore
it ter
Ġ2 7
Ġ el
Ġeben falls
ear ch
E x
er ts
Ġp ost
Ġ199 0
h af
Ġcomm un
g y
er st
schrif t
Ġa round
M e
ĠPro v
our n
as st
ir che
ĠH ar
Ġl ast
grÃ¼nd et
amp f
ĠB i
nis se
b ur
ĠM at
ĠIn stit
Ġg est
id es
Ã¤n ge
ĠW ahl
ĠIn ternational
ing le
r ib
Ġl a
Ġav ail
ĠT er
Ġc olle
Ġs er
ĠL eben
ĠTe chn
ĠS eit
tel y
re en
le y
ar te
Ġd u
ĠL a
Ġth ink
ĠC ount
Ġc ustom
ĠM ot
Ġre t
Ġw icht
Ġag ain
h Ã¤lt
om b
Ġd id
ĠBere ich
Ġz ahl
Ġre p
ann ten
rÃ¼ nde
Ġ =
Ġk ein
ĠS eite
Ġwh ile
a el
Ġm od
ra um
iz ed
Ġ199 9
Ġsh ow
Ġa uÃŁer
n a
w ays
Ġgen er
ĠFran z
Ġander em
l ic
Ġb r
Ġe ach
ĠD em
Ġh abe
Ġr und
Ġl ong
d orf
D R
Ġdar auf
Ġc are
Ġb re
Ġje weil
Ã¼ ss
st off
N e
19 8
Ġ18 6
ĠLand kreis
ĠM or
Ġb il
am a
fÃ¼hr ung
Ġch ild
itt le
lo ck
Ġl ove
ess e
Ġne u
ĠM od
ĠPe ter
k ten
Ġwe ek
f ort
h ung
ĠJu gend
Ġver l
Ġpla ce
Ġfor m
ĠM ain
Ġth ose
Ġr est
i as
y ch
gen ommen
gr amm
uÃŁ en
j Ã¤hr
Ġdies en
I t
p latz
ĠL ei
od y
Ã¤ re
Ġfin den
e hen
rÃ¤ ger
ĠPar is
ges etzt
ess er
min ister
en ter
Ġh im
Ġres p
2 4
a uch
Ġm uss
ĠÃĸ sterreich
bild ung
Ġver Ã¶ffentlich
Ġs ign
an a
n ess
ĠL ondon
s am
Ġn un
Ġre ally
ĠHe im
S p
Ġm oder
Ġc le
st re
f Ã¤
fol ge
Ġfo und
Ġv iele
w as
j ahr
Ġ ...
p rÃ¤
y d
as ed
Ġh istor
r i
Ġdis c
ĠGener al
ĠB Ã¼rger
ĠM art
Ġs l
Ġdo es
ond ere
ĠGe org
f urt
Ġp os
ist s
A uf
Ġserv ice
Ġnah m
us ch
ass e
Ġent wick
c ted
Ġer halten
I N
H rsg
al ten
Ġsoll te
ch es
ik t
Ġspiel te
Ġf ast
ce ption
E n
oll en
ro om
Ġ :
Ã¼nst ler
we en
ten s
or ts
iv id
v Ã¶lker
ur en
c ial
Ġavail able
Ġ2 9
ard s
im al
iz iel
lich keit
Ã¶ m
C h
Ġs et
Ġt rans
Ġph ot
D F
ĠSp ort
ll en
ĠT o
z el
ĠM y
Ġ20 20
b y
gesch ichte
Ġm Ã¶glich
.) :
z og
ord s
Ġg ut
Ġein fach
Ã¼ b
g ie
ĠVol ks
se e
ĠPar te
Ġein ige
ĠP ark
ĠK ont
tre ten
Ġc our
or ge
Sie he
Ġletz ten
Ġd i
Ġm ov
is se
ĠSta aten
o ver
Ġdiffer ent
Ġn umber
Ġc ount
ĠReg ion
g aben
Ġg l
Ġ199 8
ĠB ut
Ġv ar
tra gen
on nen
z entr
Ġsch ool
il ome
ar en
tern et
) :
ap er
en nen
r ic
ap t
ol ution
t he
ĠB ern
kl Ã¤r
ĠR ei
s c
I I
lass en
och en
ĠT or
Â Ń
Ġst ill
ĠR ich
Ġ '
4 8
enn t
im mer
w ei
ĠD on
Ġ4 0
re ad
U S
it ions
ges amt
7 0
rÃ¤ n
alt ung
ĠD av
Ġpro cess
ĠHer r
ge ord
Ġ <
Ġwel che
p ert
amerikan ischer
ĠW ir
ĠP al
ff en
ĠH el
imm t
om at
ĠBe g
ĠT ag
Ġauf ge
s icht
Ġst ark
ĠgroÃŁ e
Ġfr iend
al y
ĠK ultur
ell er
haus en
ilit Ã¤r
h or
la u
ĠFor sch
et ing
Ġerfol g
Ġc lass
Ġus ing
Ġn eben
Ġt rat
ne y
st ru
af fen
Ġpro fess
el te
Ġg ing
ĠH ier
an e
ĠT our
iv al
ĠB urg
Ġf un
le tz
Ġ â
Ġb ie
is hed
Ġin ner
Ġbet ween
Ġb oth
ĠI hre
Ġf ollow
ĠG rÃ¼nd
e le
Ġl and
ies en
ĠF ach
al es
ĠS he
Ġst art
h am
nah m
ourn al
Ġfamil y
ograph ie
Ġexper ience
ĠPro fess
ĠB rÃ¼
2 9
ond ers
Ġcomp any
Ġersch ien
ĠRe chts
ĠD orf
Ġch ar
ĠgehÃ¶r t
ĠH il
d ienst
uch s
Ġakt u
ĠKir chen
Ġkl ein
g ar
Ġt er
ra che
sel f
Ġserv ices
de ut
fol g
ĠSch auspieler
ĠG old
ber eich
Ġinclud ing
z ig
Ġ199 6
ĠS a
b et
Ġo pt
ire d
3 3
e ver
Ġ198 0
Ã¤ mp
ĠFamil ien
sp r
ĠJahr es
Ã¤ m
Ġc al
teil ung
av ing
nah men
Ġzahl reich
Ã¶ t
et te
tell ung
ĠC he
de te
Ġsm all
ĠFol ge
ĠgroÃŁ en
ĠJ ose
op f
Ġab ge
l Ã¤nd
igh ts
Ġihre m
o le
f ts
Ġim port
w ort
Ġg anz
Ġun ser
ct ions
Ġ199 2
2 6
m ut
ĠWil helm
w ork
on es
ĠFra u
ĠAn fang
b el
ar a
Ġmon th
ver n
Ġfe w
ĠUS A
it u
w issenschaft
sch ein
v es
ir l
Ġsch n
2 8
i am
s st
Ġ18 5
Ġzw eiten
Ġbe zeichnet
Ġ194 5
us h
ind ung
w elt
m et
ĠA pp
Ġsch lieÃŁ
ch te
Deutsch er
uf f
Ġhat ten
ĠB esch
ograf ie
ot he
ĠWelt krieg
la ub
Ġb ring
ĠD o
Ġw rit
cc ess
iet y
I D
Ġb rit
st Ã¼tz
Ġst ra
d ing
w est
Ġbeste ht
3 5
Ġk ommt
Ġd ating
Ġ199 4
z ogen
Ġbu ild
igkeit en
ĠF ot
for der
l ang
ne te
ro s
hn en
Ġpr iv
ĠS erv
om as
icht ung
ĠC ity
Ġd azu
ĠC al
ĠThe y
ĠK ais
it es
de utsch
Ġerst mals
app en
ig a
den k
Ġch o
Ã¤ ft
if iz
ab el
ĠD a
Ġp op
Ġpro m
ge d
Ġp at
ĠIn s
ur y
Ġo pen
Ġte am
Ġle arn
t r
ier ungs
o x
i at
Ġ199 7
4 9
f el
on y
Ġmehr ere
Ġapp ro
ĠA lex
et ail
Ġst r
ĠHein rich
t es
st ag
Ġsein es
Ã¤ che
B er
oss ible
Ġw ei
Ġhe alth
Ġaller dings
ĠJahrhund erts
Ġw est
Ġs ame
ur o
ĠW ebsite
ĠN ot
2 7
Ġsupp ort
ĠTe xt
Ġper fe
y le
Ġwe gen
is m
Ġro om
ĠHam burg
Ġd uring
ic ally
Ġor der
ver ein
Ġspec ial
ra cht
ĠZ entr
Ġc or
n ungen
um b
ĠgehÃ¶r te
Ġf ull
ĠS ystem
ĠCount y
Ġv oll
19 7
Ġgo ing
d ie
Ġw ater
oc i
P erson
ĠR aum
Ġm en
ĠG en
Ġv iew
ĠA uss
ĠIn formation
Ġcomp le
ĠTe am
Ġge ht
h Ã¤ng
ĠP lan
ar ly
Ġf ac
Ġbe de
Ġan n
ĠR ed
Ġl ittle
Ġ Ã¶sterreich
ĠR ah
at ter
uch te
ble m
ĠH ow
ft ware
Ġher aus
s ych
Ġab sol
ĠArch ite
f ert
an ten
ĠJ o
ĠSch n
Ġth ree
ĠMich ael
w and
A N
ĠC olle
ĠT yp
Ã¤t ze
ĠS el
ĠD ire
Ġ197 0
A d
v ed
l ess
Ġbel ie
h ler
ĠB ro
utz t
Ġk on
ĠEin satz
heit en
ĠD u
9 0
Mit glied
ĠS ol
ĠS eiten
ĠS en
ĠWor ld
Ġare a
ĠK Ã¶l
op e
Ġet was
in ner
lie b
ĠEin wohner
ĠAmer ican
ut s
ĠG ren
Ġm ember
Ġlook ing
ĠĠĠĠ ĠĠĠĠ
ĠR u
ilome ter
ver t
b ed
Ġan t
ost er
ĠGeb Ã¤ude
f re
== ==
lat t
gan gen
ate gor
Ġwe chsel
Ġg ar
Ġincl ude
Ġke ep
sp rÃ¼n
ĠC or
Ġvis it
ĠAl t
ĠfÃ¼hr te
Ġer ne
Ġge m
ĠN o
z irk
is iert
Ġh inter
Ġc ond
Ġhe ut
ik en
ar z
Ġb ig
ap e
um p
ĠN eben
wer b
Ã ¨
ĠQ ual
th ing
Ġqual ity
ĠL auf
och ter
Ġ199 5
c ript
rÃ¤s ent
Ġall en
ut h
. âĢľ
F ilm
d ruck
Ã ĸ
Ġd och
- -
ĠMa x
D ies
Ġper form
Ġal ways
j oy
ĠK at
id s
Ġfe el
st r
Ġk omp
Ġn ational
st a
ĠH a
ĠT re
Ġc urr
Ġse x
ur f
H e
ach en
t ing
Ġl assen
ĠEr n
Ġl in
gr iff
G ibt
Ã¶r d
Ġsh ort
3 6
ĠFl ug
ĠEr z
ĠBet rieb
Ġto o
ĠG ruppe
o od
ĠW inter
ĠA ustr
ĠSp e
Ã¶r per
19 0
Ġ199 3
Ġm ind
Ġ est
ent al
ers Ã¶n
omm and
ober t
Ġ199 1
ig ital
ĠH istor
in c
Ġb ro
ser ie
Ġk urz
ĠA ir
4 6
ĠK Ã¼
schn itt
ĠS m
amm lung
Ġd av
ĠG ott
ĠVer walt
Ġverw endet
ĠB rand
Ġbe h
Ġse chs
zeich nung
ch ten
Ġo per
! !
Ġst ate
Ġd re
ĠZ ahl
in ation
ĠA kt
B ei
Ġg roup
Ġob ject
Ġpart ic
Ġto day
ĠRah men
ĠK o
ĠMe ter
Ġ196 0
schlieÃŁ end
ĠB ed
m m
Ġd ah
Ġc los
Ġs etz
i ents
l ungen
Ġ3 1
ĠEurop a
if ik
az z
ĠTh ere
ĠProv inz
m ark
il es
on en
ĠL ud
Ġor gan
3 9
y e
Ġcom e
Ġex c
ĠW ar
Ġind ivid
Ġt Ã¤t
ver b
bur ger
ĠR uss
19 6
ĠZ e
ĠSch ool
h le
ĠE he
h ip
Ġste hen
Ġk ommen
ĠO l
ĠNe u
d o
Ġg r
Ġg ame
ganis ation
le hrer
ĠEr st
es te
ĠSchwei zer
ĠZ iel
sk i
ief ert
3 8
hl en
ĠS Ã¼
im a
Ġg ot
Ġwith out
Ã¼s sen
we is
Ġth ings
ĠF all
ĠW olf
A T
ĠMit te
bes ondere
o den
Ġ Ð
p iele
ob ei
Ġgen annt
ein ander
Ġverschieden en
ir on
Ġ198 9
one y
ich tet
ĠM ay
ir m
heit s
os en
Ġis s
Ġs ure
ĠFrank reich
Ġab le
Ġo pp
i ally
ĠB ad
ĠfÃ¼hr t
ĠV ater
au g
ĠThe ater
Ġre ce
j a
am b
unk te
st Ã¼ck
Ġacc ess
Ġd an
tell en
Ġd ata
il y
ĠD is
ĠGra f
ĠF ar
Ġc ost
ĠMann schaft
our s
Ġg row
ĠP reis
Ã¶glich keit
i ol
/ /
irt schafts
Ġt ro
ĠT ro
re as
Ġweit eren
g ruppe
ĠC om
fÃ¼ g
ĠF er
g o
Ġm al
Ã¼ gel
ab r
ĠF eld
ĠO t
Ġg ive
Ġof t
ist ischen
o ung
ail le
Ġw Ã¼r
Ġl Ã¤
ĠD ort
ĠBe ispiel
n ame
w or
ĠM c
Ġarbeit ete
ĠSe e
Un ivers
ĠChrist ian
A S
ĠE nd
O N
ĠK la
Ġval ue
Ġerfolg reich
ĠE p
ĠEnt wicklung
Ġbe w
ĠHe il
ts teller
Ġh ard
ĠG ed
Ġ20 21
ain s
Ġh och
Ġbe aut
ĠLei p
Ġs ay
Ġm ir
3 7
Ġp ower
g art
il la
p lan
ĠSp ieler
reib ung
ĠC ont
Al s
ĠB ischof
ĠN r
ĠD en
Ġt ry
Ġs ince
ĠS and
L iefert
ĠMart in
4 7
Ġl ot
Ġw obei
Ġh ol
Ġad v
ĠT ochter
un ft
Ġ6 0
ĠW ind
ĠS ein
au p
Ġcont in
ĠD ienst
ĠMin ister
ut es
Ġf act
eth ing
h ere
ĠS itz
ĠF C
ĠTh omas
ge ber
Ġev ent
Ġw ebsite
um m
ĠFrank furt
ĠEin zel
f ord
Ġk m
FuÃŁball spieler
ik el
iz in
ĠReg ierung
Ġc r
ra y
Ġ x
s weise
ar l
le ben
ĠM Ã¤n
ĠZ ug
ier s
ĠU nd
Ġeigen en
Ġqu est
ĠW ald
h end
att ung
Ġle t
en glisch
Ġb ra
9 9
O b
Ġb it
Ġp ict
E s
st ieg
ĠG ar
Ġc a
Ġho use
sh ip
her r
rÃ¤ ge
ĠK ant
: //
Ġfolgen den
Ġe qu
ĠD abei
ĠHÃ¶ he
Ġp ay
ĠS im
ib li
Ġimport ant
ĠN orth
Ġn ame
ach e
lig a
Ġstud ierte
. âĢĿ
ĠS ommer
ĠGeb iet
Ġd ays
sch eid
I f
ĠS outh
Ġl ight
uch e
ĠI hr
Ġjeweil s
Ġst or
Ġ198 8
Ġstud ents
ist ory
und s
Ġinner halb
ĠU hr
Ġg ilt
z y
ĠH of
den s
Ġbet ter
Ġinv est
4 4
Ġ18 0
ĠA g
ĠG el
Ġf ile
ig ent
ĠOb jekt
Ġdav on
ĠSte in
ĠM ont
ĠSch m
ĠKais er
sch er
Ġwe il
Ġres earch
ĠE is
Ġm et
Ġwith in
tel s
um an
ĠtÃ¤t ig
i os
ĠM useum
ĠK e
teil t
a he
Ġat t
oug ht
Ġne xt
ĠK om
Ġm ust
Ġloc al
l ungs
ĠZw eiten
ob il
ĠB ru
Ġge grÃ¼ndet
Ġmus ste
Ġit alien
im ent
ĠSt utt
b ei
op s
pro du
k irche
Ġt rue
an te
Ġch ange
Ġl ist
af Ã¼r
j et
os oph
Ġl o
uch en
ĠSt ring
w irtschaft
atur es
ill s
im men
ĠS oc
gen den
Ġinter est
19 5
ĠMill ionen
Ġins gesamt
ĠRe gel
ĠLe ist
as k
ĠKl ein
Ġbu y
ĠK ommun
and s
ĠRe c
ĠF rÃ¼
en a
Ġerfol gte
gr ess
f il
p os
ĠL uft
Ġn ieder
ĠRom an
us Ã¤tz
ig inal
ĠK ol
ic le
ĠI de
lich es
v ille
ĠIn ternet
rÃ¤ gt
richt ung
ĠW Ã¤hrend
geben en
arbeit er
3 2
3 4
3 1
Ã¤ ss
Ġl ange
ĠM er
ĠâĢ ¦
Ġperson al
Ġwork ing
E igen
ĠA ward
Ġwechsel te
ĠF unktion
em s
Ġen joy
Ġer rich
ĠH ome
i ate
Ġn Ã¶rd
Ġse hen
gemein de
Ġin t
Ġp age
ĠB rit
ĠWe g
k on
ei le
A R
Un ter
we hr
Ġle g
ub e
ig ur
m b
ĠH igh
Ġprodu cts
ĠM ad
ĠS eine
u el
ĠIt alien
ĠP ap
ĠW ith
Ġm ein
Ġo ld
Ġsom ething
Ġse le
ĠP o
ĠSt at
Ġex ist
re if
ĠBe vÃ¶lker
E S
Ġunter schied
ĠEr geb
ĠH ann
ĠO p
mann schaft
Ġmach en
Ġl arge
ag ue
ĠKÃ¶l n
if ul
ra b
ĠGes ellschaft
ĠFuÃŁball spieler
ra u
ĠReg ie
in i
ĠUn ited
z ess
ten d
ett be
Ġm ax
Ġ198 7
l ow
ĠR el
ĠR obert
Ġm ar
ĠâĢ ĺ
ne ten
Ã¤t te
ĠD am
Ġsec ond
ie gel
Ġpubl ic
f asst
Ġt re
| |
Y ou
Ġeas y
8 9
Ã¤ fts
ort un
ĠEr w
ĠLud wig
a ÃŁ
Ġm ain
F or
wend ung
am ent
am mer
ran sport
ĠDeutsch e
der s
Ġ195 0
Ġc ert
ol oge
ĠK ilometer
ĠSchrif tsteller
Ġcon c
ĠU l
ĠF ir
ĠHeim at
ĠschlieÃŁ lich
Ġerreich te
Ġbes onders
b te
E N
Ġa ff
ĠSt ate
Ġauf grund
d a
zeit ig
Ġw omen
ĠMet hode
iv ed
setz ung
ĠPr iv
is ierung
ter t
ic o
7 5
ĠN or
ĠLeip zig
en g
Ġf lo
Ġer n
gen de
Ġapp lic
ult ure
Ã¶st lich
g lichen
f est
Ġ198 4
row s
h Ã¶
on ist
Ġco ver
Ġde fin
Ġact iv
ce pt
it or
all er
Ġad dition
Ġpra ct
ing ton
ber ger
Ġme ist
ĠN orden
ĠL ang
w ie
ĠI ch
rei ben
Ġle ad
Ġden n
ĠStra ÃŁe
ok ument
S o
ag n
ĠE uro
ka dem
Ġfin det
ĠF il
Ġ198 6
ĠD i
ran ken
Ġa ir
Ġhe ad
Ã¤r en
Ġein mal
ĠJ apan
op er
id ge
if ied
Ġche ck
ĠBes itz
ok rat
Ġmus ic
on a
ab l
ĠM utter
ĠÃ¼ber nahm
M ar
an ien
ĠStutt gart
y er
Ġfo od
Ġprogr am
Ġn ord
Ġj ob
Ġmark et
it ive
erk e
O R
I S
. "
ĠSchwei z
t y
ĠR hein
ĠOlymp ischen
Ġ198 5
Ġur sprÃ¼n
Ġdire kt
Ġ }
ĠDav id
lich t
Ġan geb
ĠE isen
Ġt urn
en burg
Ġh Ã¤uf
ĠSo zial
ĠE v
ĠMit glieder
am ens
ĠSch loss
ĠParte i
Ġb lieb
Ġchild ren
ĠF ernseh
ĠMar ia
ĠO ur
iz ation
Ċ Ġ
fl uss
Ġof fen
ĠB ank
Ġperfe ct
Ġkonn ten
Ġgel ang
Ġan other
B au
ĠS w
Ġpro ject
A s
ĠT ur
ĠP ass
Ġm aking
ĠF rei
Ã¼r z
ĠAm t
ist ische
ĠProfess or
opp el
ĠR olle
ĠLe hr
Ã¼r k
Ġm ich
Ġ197 2
ĠAlb um
Ġm ight
Ġgegen Ã¼ber
af en
E D
ĠHol z
t il
ĠP ost
ĠJ ust
our ce
z Ã¼
ĠSch iff
Ġneed s
Ġne ver
F ernseh
eit ung
8 5
te ile
Ġo ber
i ber
il nehmer
ym n
ĠK Ã¼nstler
ĠL iteratur
ĠDes ign
b ra
ru ktur
te chn
Ġzw eite
ĠSil ber
ĠO per
Ġges am
ab or
Ġh al
ĠOn line
ĠL ou
und er
Ġre view
ul ation
Ġdown load
ĠSta at
Ġt est
f it
ĠBeg inn
deut ung
Ġgeb oren
ĠMal er
Ġins besondere
Ġ( )
' m
ĠE ner
w Ã¤r
8 6
Ġcons ider
ĠD enk
Ex ception
ĠP ra
Ġgew Ã¤hlt
ĠKrieg s
ern er
Ġal ong
ĠZ eich
ge ther
Ġc reat
ĠB ur
un ch
oc us
p end
Ġ Ã¶ff
ges etz
s etzt
Ġw all
sche ch
ĠS am
ĠRe v
ein t
ab ility
le ist
ĠMar kt
g a
Ġen gl
Ġ ident
Ġpro te
ĠK reuz
Ġle ben
ĠP rÃ¤sident
b ank
ue ck
ĠB eit
Ġp ort
me e
Ġim pro
ze pt
P D
Ġcon f
Or t
cript ion
ak ter
Ġl aw
ĠV ier
ĠArbeit s
ĠW al
iv ision
uÃŁer dem
and id
ĠTe x
ĠB is
ĠH en
ĠStra ÃŁen
ĠK ur
ho cke
ĠH alb
Ġde ut
Ġc ap
Ġv ideo
ĠW ieder
ĠPf arr
ord ing
rÃ¼nde te
f an
ium s
ger ufen
Ġme isten
ĠDies er
W h
ĠR ock
v iron
Ġz eit
ut ions
it chen
th ers
ll t
g ing
ĠS uper
ĠâĢ Ķ
e e
ĠK lasse
issen schaften
ĠH inter
W elt
Ġbas ed
Ġ198 3
b rÃ¼
ĠVer trag
ĠA fr
ul ts
Ã¶r t
9 5
r ist
Ġviel en
Ġent fern
Ġprodu ct
Eigen schaft
" ,
Ġm ill
ĠM il
ĠT age
ĠII I
Ġsu ccess
Ġwor ks
Ġeinz el
ver kehr
te gr
ĠZw ischen
Ġ198 1
ok al
ĠBer uf
Ġtra dition
Ġl ess
w ald
e x
Ġs w
ĠIn sel
schul lehrer
ĠC omm
- ,
Ġm ult
ĠN utz
ĠPro zent
Ġs ingle
ĠB ilder
k o
at Ã¼r
lÃ¤ uf
o in
ĠBay ern
Ġ197 9
Ġa way
ĠR est
ch an
Ġre f
ktion en
St and
fahr t
' re
ĠR ichtung
Ġverschieden e
om an
A L
z a
Ġ {@
ĠW esten
u h
ĠR h
Ġre l
os p
Ġse arch
eth od
Ġfor t
4 2
ĠIn n
Ġze igt
r or
wa gen
Ġkl eine
Ġerne ut
p re
al og
Ġ ir
ĠW eb
Ġto gether
Ġ197 6
b est
c er
it ten
Ġ197 8
Ġse ver
itÃ¤ ts
Ġsow ohl
Ġze hn
Ġn Ã¤ch
ab hÃ¤ng
Ġc all
au en
Ġcommun ity
ĠM el
F Ã¼r
p reis
Ġd ien
ĠB lack
land s
ĠAut or
Ġ Ã¤
ĠJ ournal
gesch lossen
Ġd ra
Ġbis her
Ġ198 2
ĠF Ã¼hr
ĠSch utz
k n
Univers itÃ¤t
ĠSch ule
ĠSÃ¼ den
Ġm Ã¼ssen
rÃ¼ f
Ġbel ow
ĠM os
Ġl ine
' ve
d es
h aupt
Ġein gesetzt
Ġk ind
ge gen
Ġp ut
ach er
zie h
it te
ĠPro gramm
Ġer m
Ġ8 0
zeich nungen
Ġd afÃ¼r
Ġk ur
Ġ3 5
f o
ol a
Ġr un
b Ã¼
Ġs af
8 8
id ing
ian s
h il
ĠR iver
ĠV e
Ġf our
ust ry
Ġcon ne
m el
Ġbeg inn
6 5
Ġfolgen der
Ġv ol
ĠGes amt
Ġver st
ĠE t
Ġkl einen
Ġunder stand
it ze
ĠAn zahl
ich ter
4 3
f red
is ing
Ġp ast
ĠEurop e
ĠK al
Ã¼r t
ĠK ind
sch lag
ĠC as
Ġbest and
Ġl ive
ÃŁ t
ill er
Ġas k
Ġs og
ĠS ong
Ġan s
Ġhin aus
O n
ĠW eit
Ã¶s ung
ĠP ubl
ob ile
ĠCh ina
Ġ197 5
ĠHer ren
Å į
Ver ein
L and
Ġin sp
Ġn ahe
if orn
ver band
te id
Ã¼ ler
Ġh aving
Ġ197 4
Ġvor hand
Ġ196 8
ĠHer zog
la te
J ahr
Ġ )
rit te
c le
we ig
Ġerrich tet
ibli othe
ĠD DR
wo od
Ġh tt
anst alt
Ġw eb
Re g
itÃ¤ ten
ĠT urn
ĠPr ess
un e
ĠT est
stell en
ĠT V
ĠO sten
ip l
ĠAm ts
Ġed uc
ĠBe deutung
part ment
l or
ĠSt art
ĠVor s
Ã¤us er
ĠS icher
Ġver kauf
is ed
ĠW ie
ĠGemein den
ĠZ ur
ĠGesch Ã¤fts
ict ion
Ð ¾
ak en
Ġs ize
if fe
Ð °
le ge
c ing
Ġpro pert
S eit
ien s
ord nung
ĠB ron
Ġn atur
red it
mb H
V on
ust rie
hem at
ĠCar l
Ġ(âĢ ŀ
c onom
Ġde v
ĠPro jekt
Ġle d
Ġgemein sam
ĠFl or
Ġcour se
je kte
Ġemp lo
ag o
Ġbeaut iful
V or
ar ing
hocke y
geb Ã¤ude
h an
Ġg irl
iziel le
ĠC D
ĠSt Ã¼ck
A C
be k
Ġ7 0
Ã¼t zen
ĠlÃ¤ sst
ge f
meister schaft
Ġ9 0
ge geben
ĠS ant
Ġoff ers
Ġ ess
, âĢĿ
ĠT al
T yp
Ġre du
if y
ab ly
zeich en
Ġbie tet
h men
fer ence
ĠP osition
Ġn orm
row n
v ier
ĠL es
amp le
ir g
Ġbe vor
Ġc as
Ġ196 9
Q u
Ġeff ect
ir chen
s erv
ic ks
ĠAn ton
g n
il en
Ġh Ã¶ch
ck s
ĠOt to
7 6
b ol
w eit
un t
ĠAl ter
ĠAuf lage
etail s
it i
ĠK urz
olit ik
it ing
ĠT op
ĠF o
ĠI r
ĠO ne
fÃ¼hr er
is on
ab in
Å ¡
ĠMe hr
ĠGer man
Ġsie he
viron ment
b ung
ĠErn st
z ir
Ã¤ ischen
ure d
Ã¤ch lich
ĠInformation en
Ġf av
ĠBo den
Ġ197 7
Ġm oney
Ġn ie
Ġagain st
A P
s burg
ĠN Ã¤
âĢľ )
Ġst amm
ĠT emp
4 1
Ġb rand
I C
Ġdevelop ment
weg ung
Ġcont rol
ar ian
ĠS aint
geb aut
ichte te
ĠColle ge
arbeit en
ĠW irtschafts
ikan ischen
Ġjed er
Ġer klÃ¤r
ĠR ot
Ġsich er
9 6
Ġa cht
Ġke y
ru ct
Ġt reat
Ġheut igen
E ine
ĠB or
wo hl
t ler
ĠVerein igten
Ġ197 3
Ġz usÃ¤tz
Ġ197 1
Ġs en
Ġh erv
Ġl ov
Ġal ten
Ġdah er
Ġwh y
ĠE mp
Ġto t
Ġbeste hen
werk e
Ã¼ ter
ĠSt Ã¤d
Deutsch land
ĠD el
Ġcre ate
Ġopp ortun
u den
Ġall es
ĠkÃ¶n n
ann e
ord in
Ġver t
re icht
sch eiden
Ġf ilm
an o
ĠC hem
Ġ(âĢ ł
ĠEng land
ĠTh ese
Ã §
Ġre le
r as
ĠG ast
Ġc ity
id a
f s
ĠK re
Ġ +
ĠB aum
Ġehemal igen
o is
ĠR ein
a ar
Ġb ar
ĠW hen
ĠW ochen
un sch
ĠSp rache
rach te
ĠJohann es
ispiel sweise
c m
n am
ĠT rans
ist ik
il s
b aut
i j
it en
ĠH or
Ġre la
aff el
ĠCl ub
Ġwicht ig
ge hen
Ġn ight
Ġh inz
Ġt imes
ĠM Ã¶glichkeit
ĠG mbH
ĠA uÃŁerdem
de ck
sp rach
Ġpr esent
an ks
re ibt
ĠAn gel
Ġhand elt
ĠS ub
al tet
Ġlie ÃŁ
hr te
Ġun til
ung sp
ĠverÃ¶ffentlich t
Ġn et
ger icht
k an
Ġsie ben
Ġso zial
e kt
f a
ĠL u
ĠVer kehr
denk mal
r im
s eite
ĠM iss
Ã¤nd ern
g Ã¤n
Ġschn ell
Ġst arb
id ay
Ġr uss
Ġz og
S S
Ġzahlreich e
Ġr Ã¶m
v al
ettbe werb
ĠG od
ĠfranzÃ¶s ischen
Ġm aj
ĠR und
der n
w ar
Ġm ot
Ġet c
stell t
Ġzu dem
Ġ Ã¤hn
Ġall ow
Ġpr ice
ĠKar r
ĠM ilitÃ¤r
iv ely
Ġe ver
ĠP lay
Ġph ys
ĠVerwalt ungs
ĠW enn
B C
Ġdam als
ur ity
Ġm ag
ol den
ĠG eld
Ġp ack
ĠSp iele
ĠSe c
Ġm aterial
ch ter
Ġd ist
r am
Ġb ody
le gte
Ġj etzt
Ġentsp rechen
ymn as
ul a
anad a
ĠC enter
Ġ196 4
entr al
arr iere
Ġihn en
u tet
Ġw ahr
Ġ196 6
ĠJ ur
ian a
s ide
ĠH in
ĠH all
Ġn on
et ter
Ġre lat
ges ellschaft
ĠMot or
d i
eh men
* *
Ġver m
Ġzur ueck
Ġdar unter
Ġinst all
I T
ze uge
Ġ196 7
ro ll
ĠK auf
ĠAn n
Ġso cial
Ġp lease
Ġc ase
Ġr ange
Ġfollow ing
Ġdan ach
M us
Ġ193 9
b ack
Ġim age
Ġf ocus
ĠhÃ¤uf ig
f ried
ĠZ ust
ant wort
Ġso gen
Ġfe atures
ag s
ak er
s uch
ĠK or
ĠA ben
ĠR ang
l ad
ĠM oder
Ġ ung
Ġeigen e
h ang
ad urch
H och
c ent
ĠDre h
5 5
Ġzw ar
ĠHo tel
Ġcount ry
al z
ĠZ um
og le
Ġ193 3
Ġbec ome
Ġb ene
ĠÂ »
ĠSer ie
ick en
ĠJ ack
ĠOrts teil
Ġh Ã¶
ĠE igen
tem berg
Ġs ide
ame ister
Ġf ar
um er
oll te
Aus wahl
ĠK ategor
ĠR os
uf act
. :
ĠE ing
ĠfrÃ¼ her
Ġm akes
br uch
th rows
fl Ã¤che
9 8
Ġth ing
ĠServ ice
Ġme et
on ne
Ġwen ig
i i
Ġac ross
Ġ196 5
ĠSal z
fin ale
Ġof ten
Ġind ustry
en en
iz ei
bar en
n ach
ĠTe le
Ġele ct
Ġpo int
H er
ĠA kadem
em per
Ġsever al
ap s
an zen
ĠE ben
ĠZ Ã¼r
ide os
Ġh app
ĠSie d
ge fÃ¼hrt
ĠG Ã¶
d f
i od
7 7
Ġwo hl
Ġgef unden
ĠS yn
ĠIn nen
ĠEr folg
Ġse ason
Ġb in
par te
Ġbefin den
Ġp ossible
ĠB ach
rol le
ĠP et
ib r
oten t
v est
Ġo cc
k i
Ġim p
Ġwel ches
ĠStud ien
Ġdire ct
ĠRich ard
it a
Ġsoll en
av en
ĠSie g
Ġpr es
ĠJose ph
Ġzu vor
Ġbl og
Ġth ough
Ġsh are
Ġdel iver
ĠKarr iere
ĠD ruck
je cts
Ã¤l fte
ĠD ate
ĠP la
vern ment
at um
Ġl ag
in ge
Ġbe ispielsweise
id d
Ġbest imm
Ġle vel
omm ers
Ġam er
ob al
Ġy oung
Ġbes ten
x ik
Ġre gel
Ã¶ ÃŁe
ikan er
Ġabsol v
M et
v oll
Ġdeut lich
Ã³ n
z us
ĠSel bst
mÃ¤ÃŁ ig
ĠE hren
Ġar ch
Ġqu ick
co ver
Ġapp ear
fra ge
w ind
esten s
ing t
ĠT ab
ĠLe ague
Ġsom it
c is
s eit
ĠEn gl
ĠRei he
Ġf al
geb ung
0 5
Ġv an
Ġc ou
Ġcom es
ĠJ ames
ĠV al
b an
ĠEle kt
" .
isten t
he ther
ĠgehÃ¶r en
p lay
m on
.. ..
ĠP an
ĠNach dem
Ġget ting
Ġh om
w es
Ġ( =
ĠR ud
Ġme ans
Ġcle an
Ġres ult
Ġcal led
ĠB y
ĠI hnen
Ġstud y
Ġst re
ĠD own
ĠK raft
ĠP rÃ¤
la den
ĠBevÃ¶lker ung
ĠM ore
lan zen
ĠK rit
Ġ193 0
c el
Ġl at
Ġmaj or
an ies
Ġex tra
A nd
re w
ĠPhil ipp
6 6
an ze
as er
Ġc amp
ier ungen
Ġsp ace
Ġhe i
A ut
ĠH ers
Ġletz te
G em
Ġle ft
ilit ies
A mer
b are
asch inen
9 3
ĠW ild
Ġspec ific
ĠI l
ĠC amp
Ġst ory
itz t
ĠSt ar
oll ar
Ġin n
ĠB ot
Ġ194 0
Ġwen iger
ĠG i
Ġe urop
la w
ie te
ift ung
w esen
ĠF el
ro du
Ġl ow
ich en
ac y
ĠZw ei
Ġn atÃ¼r
read y
ĠB u
Ġlie gen
Ġerw Ã¤hn
ĠProdu kt
Ġk osten
ĠPre m
Ã¤l ter
Ġver lie
av a
Ġgen au
Ã¼r d
ges ehen
Ġfol gte
enn ung
il er
ĠHo use
m as
r unde
Ð µ
te g
ic ro
ĠgrÃ¶ÃŁ ten
b s
ĠS achsen
re m
Ġl im
ag t
ĠFl uss
Ġst at
la ger
Ġsog ar
Â ²
ĠG ruppen
ut ure
ĠFre und
em in
Ġer Ã¶ff
fahr er
Ġoff ic
ĠReich s
Ġ196 2
at ers
ic y
ĠDe c
ra el
Ġrequ ire
an ischen
Ã¤ chen
ĠGe orge
onst ru
Ġprofess ional
it ch
Ġ ens
Ġser ies
Ġd one
Ġw elt
ĠC la
ĠRe al
Ġ196 1
Ð ¸
Ġein igen
Ġ196 3
Ã¼s se
ĠD om
ern en
f Ã¼r
ĠA p
ĠA st
Ġbe teil
Ġ193 8
ibliothe k
ĠKl oster
Ġer k
ĠTh at
Ġ194 4
Ġgen utzt
ĠPar lam
Ġb lack
ĠA G
om ot
os sen
ungs k
ĠGe f
ĠHil fe
ell ing
rie f
ĠMÃ¤n ner
Ġt alk
etz ung
leit ung
Ġk lass
rie ch
Ġte xt
is c
Ġf alls
Ã¤t igkeit
ch ester
he ira
letz t
Ã¤d ag
v ious
ĠBru der
ĠR ob
Ġs uper
Ġn ichts
Ġpro blem
Ġs tellt
Ġm om
Ġto ol
ĠO s
unn ing
ĠBahn hof
Ġchar ac
ĠK an
n es
Ġfriend s
ĠL age
ĠEr d
o int
im s
Ġgleich en
Ġm acht
ĠM ac
Ġne ar
Ã¤t zen
Ġ195 6
ĠÃ¶ff ent
we gen
ĠS telle
haf t
E M
ĠV o
Ġver sch
ĠWh at
Ġw ind
ĠMit arbeiter
ress e
Ġp urch
men te
ish ing
ĠBerlin er
Ä į
ĠRep ublik
ĠK le
Ġoff ice
ik al
Ġdam al
ĠArt ikel
ach ten
Ġd eb
Ġl og
ur ance
ra chen
Ġnach dem
Ġide as
rie ges
ĠEr sten
ĠSch Ã¼ler
ĠD istr
ĠR em
Ġw atch
Ġteil weise
Ġer reicht
Ge ographie
Dies e
r ig
Ġl ink
ast ic
ĠSe x
Ġcont act
Ã¼l t
ĠG leich
Ġsetz te
ĠNÃ¤ he
e ten
g liche
ze hn
' ll
Ã¼rt temberg
ĠM Ã¼
ĠAr mee
Ġw issenschaft
Ġstell te
fÃ¤ h
z i
b esch
ĠI D
itu ation
U m
ĠB aden
Ġauf genommen
g ent
ĠS u
ran g
ĠD eb
Ġstar ted
ĠP DF
Ġk amen
ĠAlex ander
ĠVors itzen
ĠD res
Ġbei de
ĠBes uch
Ġges p
le ment
le cht
p ec
Ġl iving
al ys
ĠM ass
ĠF ac
ring en
ĠSpiel en
âĢ Ķ
) ;
A M
g g
in ts
ĠW o
Ġst yle
Ġverb unden
Ġinv ol
ĠAustr al
isse ur
b ten
S h
Ġup d
ĠS ommers
Ġo p
ĠauÃŁer dem
in ed
ĠJ azz
Ã ľber
ĠC an
ĠB Ã¶
Ġprov ides
k el
ay er
ĠThe ma
Ã¼l ler
Ġen er
led ge
ĠB ook
9 7
u a
en zen
ĠM aterial
fe hl
. <
ĠF ort
ĠSt ates
schlieÃŁ lich
ie ten
ĠW eiter
Ġ19 20
ier ter
ĠVer fÃ¼g
Ġuns ere
Ġz we
Ġ4 5
ĠMus ic
in os
Ġor ganis
a un
ĠE du
ĠL Ã¶
Ġmember s
b ro
ĠG al
ĠR en
ad a
es ted
an gel
ĠP lat
Ġge g
Ġal ready
Ĥ ¬
te xt
Ġcol or
Ġindivid u
for sch
w esten
ĠSchw er
Ġc ent
Ġ195 8
W est
ou ver
och e
lie ben
fol ger
Ġcom b
ĠLou is
Ġver fÃ¼
Ġs ug
k et
ge m
ĠW ein
Ġret urn
Ġkn own
Ġp ie
ĠH Ã¤lfte
aup ts
rich ten
wert ung
g al
p la
Ġf ield
ĠAr m
Ġm Ã¶ch
og n
Ġeng ine
Ġbuild ing
at iv
y a
Å Ĥ
rit z
ww w
Ġw a
Ã¶r m
Ġcl ick
8 7
O S
ĠC ommun
ak te
at ory
ĠG et
g ere
s ie
w asser
Te ilnehmer
Ġk itchen
f ten
be zirk
Ã¤hl en
ĠVerb indung
ĠCh amp
Ġre port
Ġh ours
Ġsch wer
ĠWerk e
Ġm ethod
ĠW alter
ĠÃ ľ
or ie
Ġent hÃ¤lt
Ġlin ks
k unft
o on
il ien
ĠH al
H and
e ter
ĠC r
Ġer ster
T rÃ¤ger
ig ungs
fass ung
ĠAss oci
k or
el ten
Ġen c
or gen
ĠAn geb
Ġ194 6
an lage
c i
ĠK Ã¶rper
ĠN etz
Ġtyp e
our ces
fl ug
Ġentfern t
ĠN orm
es tern
Ġre cht
ou d
ĠAus bildung
âĢ ĺ
ran ge
ĠB ud
ĠWill iam
9 4
m ost
auf en
ĠMed ien
Fernseh serie
ĠA k
ĠK ons
Ġcomp uter
ĠWolf gang
Ġm ass
ell s
arbeit et
Ġem ail
Ġtechn ology
Ġcustom ers
Ġmehr eren
Ġbef and
ĠSc ience
b um
ad o
Ġm iss
ĠB on
ut zen
v in
w art
leit et
Ġ Å
Ġpriv ate
c ome
ĠPh ys
ĠD ay
res h
r uf
Ġth ought
ward s
z iert
ĠW issenschaft
E C
0 6
i ar
ĠFe uer
Ġakt iv
Ġvar ious
S port
ĠG est
P h
m od
est s
Ġj apan
k ur
Ġdo ing
Ġcomple te
ĠB und
imm ung
ĠEl tern
Ġer ziel
ĠW and
ĠV iel
Ġe arly
Â °
sch iff
ĠPolit ik
Ġdesign ed
z immer
ang s
Ġ195 7
schrif ten
van gel
A ll
r ies
Ġen vironment
ĠAuf trag
w in
Ġr icht
ĠP op
ien ces
Ġfolgen de
Ġacc ount
ĠZÃ¼r ich
k ret
er ing
ens ion
Ġ195 2
sp iele
5 6
as en
er ie
Ġw on
ĠAr ten
ĠNach t
ĠG arten
ed en
r al
w ill
ĠGes etz
Ġrel ations
ĠGe ist
i w
un ge
ĠA th
Ġ3 2
m at
ĠM ess
ĠW ash
Ġcomp anies
Ġmoder n
ĠPr es
o o
ste hen
ang es
ĠJun e
n ers
Ġaus gest
Ġ195 4
ĠHer mann
ĠE U
Ġinc re
p ark
Ġpop ular
Ġst ay
p age
ig lich
F rau
ĠG roup
Ġun ique
Ġmach te
Ġdisc uss
E L
te in
Ġ5 00
Ġo thers
Ġh istory
8 4
ĠR oy
iv il
tre ter
v is
ĠM ount
lÃ¤ ss
us ion
Ã¼ss eld
l ant
n ow
zentr um
Ġmonth s
P ar
Ġbes uchte
so zial
re p
ĠHann over
le iter
ĠO pen
ab y
ĠPhil osoph
ĠB al
ĠW ol
af r
ĠH ir
0 1
ieren den
f rei
k und
it ar
am in
Ġpropert y
N ational
ig in
itz er
ec ts
amer a
ct ive
ĠRe gen
jÃ¤hr igen
ĠL o
st ant
Ġw alk
Ġge legen
ĠGra nd
Ġsch rieb
Ġ195 5
Ġentstand en
Ġgew esen
ĠL iga
ak a
ges tell
Ġwh ite
Ġman agement
ĠBas is
Ġ195 9
us st
Ġp ersÃ¶n
ĠJe an
ĠAkadem ie
ĠB d
Ġfr ont
M an
ĠwÃ¼r de
g ten
ĠK ampf
air s
ĠB ill
p ut
Ġ194 9
f ield
h inder
ĠP sych
anc ial
ide d
wohn ern
a at
ĠF ree
Ġbede uten
W ir
C hr
Ġc ard
Ġvoll stÃ¤nd
Ġin form
ĠKÃ¶nig reich
gel Ã¶st
k ra
ach ing
0 8
it sch
Ġon ce
ze ugen
ĠPro f
k athol
Ġen ough
ĠFrÃ¼ h
Ġact ually
ge hend
Ġho hen
iden ten
ĠT eile
Ġl ate
ĠY our
heira tet
ile d
Th ere
Ġre pr
ym bol
ĠK ing
ĠW irk
ĠSt amm
Ġdes cription
P r
v a
ã ģ
Ġloc ated
ĠForsch ungs
7 9
ĠVerfÃ¼g ung
O T
Ġh uman
ite te
Ġtra ining
ĠSt r
Ġre por
ĠD oppel
hl t
b or
Ġ195 3
Ver lag
Gem ein
ĠUn ion
yn am
Ġcert ain
ĠT her
Ġan schlieÃŁend
ow jet
ĠP il
ien ten
qu e
E T
ĠF rie
ĠC our
zeug t
ent wicklung
ĠFin anz
d in
Ġunter stÃ¼tz
b i
Ã¼ ste
Ġp ur
ĠW as
ĠÃ¶sterreich ischer
b Ã¼rger
ĠW ort
ne ter
ame ter
G es
Ġd ivers
C D
re cher
ĠE st
ĠBÃ¼rger meister
P S
ĠI d
tag s
Ġge k
ĠAl le
Ġch allen
Ã¶ hn
aler ie
w irk
Ġf rei
ĠM ond
ĠR and
ĠN ow
Ġso ftware
Ġsoll ten
ĠDenk mal
M ed
or ies
ĠT ier
Ã¤t ten
ĠHer aus
ĠK unden
vent ion
ĠAl bert
stre cke
ro t
t ritt
ĠUnter stÃ¼tz
et ten
Ġ194 8
ĠDam it
7 1
S etzt
l as
ĠJ es
I G
ren g
Ġ194 3
Ġcurr ent
Ġm em
Ġmill ion
9 2
Ġk einen
we isen
Ġaut omat
ĠS l
Ġf it
ing les
ĠIs land
ĠfranzÃ¶s ischer
ĠR at
Ġge ben
Ġc ame
ĠH essen
be ck
Ġger ade
Ġfav or
a ul
ĠF en
sch au
Ġto ok
ĠCh or
iden ce
==== ====
Ġl ik
meister schaften
Ġsim ple
Ġherv or
nd er
ĠN ik
Ġam az
ut her
Ġle icht
f ar
ĠF Ã¶rder
ĠN et
Ġ194 1
te ten
ag ing
ĠsÃ¼d lich
Ġam ong
ca dem
20 18
Ġmin utes
zeit en
t d
ge hÃ¶r
rÃ¤s identen
ĠKant on
ĠL og
Ġh ig
age d
ĠT on
os ph
olog ische
Ġb ath
ĠR unde
ĠL Ã¼
ud io
ĠPol izei
M S
K on
b ook
im ate
ĠBr un
ĠStre cke
ĠN S
ĠSt ock
oun c
p ly
Ġadd ress
Ġresp ons
ĠHer z
ĠEx p
Ġunser er
ifik ation
Ġt able
ĠVer l
Ġman ufact
Ġj a
ĠStud ium
gr am
ĠK opf
ĠUnter such
ĠF le
d am
Ġevery thing
S e
ĠB ack
hand lung
Ġgem acht
F orm
ĠSt ad
Ġres ults
bl ick
it ure
Ġ194 2
I ch
zir ks
Ġpartic ular
rÃ¼ ck
Ġme an
C on
ĠL aw
Ġde al
Ġentwick elt
ĠA re
ĠRe cht
il ian
Ġag o
Ġb le
A t
Ġt emp
ĠZu dem
ĠM ult
ĠL os
Ġeben so
ain ed
Ġd oc
Ġs il
Ġm ess
Ġihr es
Ġad min
ĠnÃ¤ch sten
Ġf ur
Ġge d
av y
b ischof
Ġe conom
olog ischen
ĠSchl acht
Ġw onder
Ġf uture
ĠM ein
Ã¼r n
Ġcomm on
. -
Ġe her
rech end
ĠS old
ĠStre et
0 4
Ġmed ia
Ġdid n
Ġd ate
ĠLe hrer
Ġele kt
Ġp df
ĠT om
or te
ĠF ern
Ġsch loss
Ġ195 1
F l
ĠDan ach
u hr
sch uss
Ġg rÃ¼ndete
ĠC ent
ĠDies es
ĠReg ierungs
Ġrec ommen
ĠErgeb nis
g ien
ĠG re
ell ow
Ġare as
c ol
Ġsome one
ĠZentr um
Ġd ritten
Ġver d
0 7
Ġin de
ĠPr inz
Ġle ader
Ġen ter
v ing
ĠK ommand
Ġg ames
ic ation
Ġ3 6
arbeit ung
ĠJ ac
Ġgemein s
k ap
Ġz erst
ĠA uÃŁen
ĠC up
Ġcon tent
in ne
Ġz ie
ĠMe er
Ã¤ch s
sta at
ial og
ĠA cadem
ĠÃĸ ff
Ġy et
Ġgeb aut
ĠVers ion
Ã¤nd ert
Ġf ert
Ġle ast
ĠNach folger
f Ã¶rm
ĠT ruppen
ho ben
ĠAb geord
ĠKategor ie
ir c
9 1
at ors
hr t
ip ment
Ġex tre
Ġne un
ho ut
Ġt aking
ĠW all
ĠverÃ¶ffentlich te
Ġprofess ion
Ġw ent
Ġwei ÃŁ
r hein
ï ¿
ĠIn c
ĠEr fahr
ĠC le
ot a
Ġnew s
an ger
ĠL ied
ran t
lan gen
ĠMin uten
ĠF uÃŁ
ĠC am
wie gend
ï¿ ½
ĠWash ington
ĠV ideo
Ġabsolv ierte
b ark
ĠD Ã¼sseld
de ckt
ll ig
v o
ĠK ra
Ġ194 7
Ġ Ã¼b
an ces
ot te
all ow
ĠSp r
ĠursprÃ¼n glich
Ġs ale
Ġge hen
Ġcolle ction
S V
h i
k le
ent ial
ĠU p
ĠGo ogle
C l
Ġs ays
ien ste
ĠI st
1 00
Ġh ope
Ġtra vel
Ġflo or
Ġw id
p ol
ĠO ct
omm ission
Ġf ive
ĠJ er
p aper
ĠComp any
ĠA ber
lin ie
0 9
ra uch
Ġum fasst
Ġsel ten
l ern
ĠS Ã¤nger
ĠBe zeichnung
mer k
zie hung
de ten
ĠInstit ut
Ġs ett
ĠR a
0 2
Ġc ra
W hen
eb ook
if fen
ain ing
ĠP ublik
ĠProdu ktion
Me ter
z uf
ĠAn g
ĠKÃ¶nig s
urn iture
ĠL Ã¤nge
ĠTra iner
T o
ĠSt il
ĠArbeit en
ĠnÃ¶rd lich
ar th
Ġm atch
gew iesen
ir es
ur a
Ġb reit
Ġin tegr
ĠK as
ĠZ we
7 2
Ġhe ira
ĠMa ÃŁ
ĠPriv at
ch ie
il led
Ġdoes n
Ġwrit ing
h istor
ze igt
Ġehemal ige
ĠSchauspieler in
Ġo ption
ĠF und
ĠAr n
ĠK osten
ĠB all
ĠKomp onist
Ġquest ions
5 4
8 3
l iste
ĠD ach
Ġ193 6
ĠGra b
ĠFir ma
r is
rÃ¤ fte
Ġsystem s
Ġn ull
Ġab ove
ĠH eid
Ġ Ã¤lter
ver walt
O ur
Ġp aper
bet rieb
a ktion
ad s
Ġstamm t
ĠG as
Ġcre ated
ific ation
O M
Ġre chts
Â »
ĠH y
ran sp
ĠBe griff
ĠEner gie
, "
aus ch
Ar ch
ar f
ĠFre ib
ĠfÃ¼hr en
Ġaut hor
Ġpos ted
Ġd ue
Ġm at
um Ã¤n
Ġvorhand en
ĠNach bar
ĠUm welt
ĠOff izielle
Ġbre ak
En t
los e
Ġperform ance
is es
he t
ĠP unkt
ĠK ranken
hal ts
Ġass ist
ĠR Ã¤
ful ly
Ġinclud es
Ġiss ues
Ġerreich en
Ġd etails
ot o
u hl
stell ungen
med aille
anst altung
f Ã¤l
m o
Ġv o
mit t
r ug
ie ur
le tt
Ã¤nd ig
ĠO f
lie d
or a
Ġw ollte
ĠW ider
amil ie
x is
Ġp otent
S tra
k unde
Ġcom par
ĠfranzÃ¶s ische
0 3
ĠSp rach
Ġeinz ige
Ġa ge
ĠÃ¼ber n
Ġph one
e ded
Ð ½
ĠA fter
Ġh old
Ġh appen
om et
ib ility
Ġsp ielt
Ġsel ben
Ġpro b
Ġdar Ã¼ber
ĠSte uer
iqu es
g round
p ass
Ġ ill
ĠStand ard
ĠAmer ica
Hoch schullehrer
Ġl ater
ĠerwÃ¤hn t
ĠD enn
Ġwel cher
ĠSt unden
Ġhe art
ab eth
Ġoff iziel
ĠL im
ĠA ct
ĠF Ã¤
ĠE vangel
olog ical
ĠNew s
Ġper iod
Ġpre par
ĠChar les
em b
Ġnatur al
Ġf und
ĠB onn
Ġentwick elte
ymnas ium
ĠR ou
m useum
Ä ģ
ĠL eiter
Ġk ont
ograph y
um ents
ĠC ons
ĠZeit schrift
6 4
ann ing
ret ty
8 2
W er
Ġb ad
ĠA v
sch ei
Ġse en
w al
sch t
ot ball
Ã¤t ter
ĠDres den
lichkeit en
ĠT it
M od
an ken
ĠL icht
Ġev angel
Ġevery one
ĠFest ival
ĠMat hemat
Ġrest aur
Ġp osition
ĠVer Ã¶ffentlich
ĠPart ner
Ġeinzel nen
w urf
Ġre d
ĠFol gen
Ġr en
ĠSommers piele
f ur
ĠA tt
il det
chn et
Ġvers ion
Ġt it
k arte
ble ms
Ġstr ong
6 7
Ġent halten
ur al
ĠV en
end es
amerikan ische
wissenschaft ler
Ġd Ã¼r
ĠG ut
Ġpr ess
ok e
Ġweiter hin
Ġd iff
af t
ĠWien er
S C
Ġwho le
af fe
Ġread ing
ĠLin ie
r id
G B
ĠM as
Ġhal f
bo ard
âĢ¦ ]
Ġmod el
Ñ Ģ
( )
Ġw ollen
Ġspe ziel
b aum
gr enz
Ġho he
Ġj Ã¼d
Ġern annt
Ã ¢
Ñ Ĥ
F C
i est
ĠA cc
ĠEn ts
Ġlat est
k reuz
ĠRe ise
Ġbil den
Ġpict ures
Ġto ur
Ġra te
8 1
e ign
Ġver heiratet
Ġs ong
Ġs onst
Ġv ia
Ġg iven
Ġk athol
ul es
Ġcl ients
w h
ĠC ap
od es
ĠSchw arz
ĠD och
rif f
g as
ĠRe ad
ug hout
ĠPol en
Ġmind estens
l Ã¶sung
rei ber
Ġ193 7
ĠFin ale
ĠHow ever
eit her
Ġor iginal
Ġgo vernment
ath let
mus ik
unter nehmen
Ġben Ã¶t
re chts
ĠVerein s
at ten
ĠO ut
ĠEnt scheid
Ġgesch lossen
Ġreg ion
ĠInstit ute
Ġopt ions
ĠS ur
ĠVer gleich
Ġcom fort
Ġbesch Ã¤ft
ĠM use
ĠD ivision
Ġpol n
t est
ĠS Ã¤
Ġspiel en
Ġbie ten
i ro
Ġmit tler
Ġre ason
Ã¤d chen
Ġcho ose
p lat
ing ungen
Ġclos e
ĠD Ã©
Ġver ein
Ġpr im
ĠStadt teil
Ġw es
Ġ19 18
Ġfin anz
T ra
Ġj Ã¼n
etz en
ieren de
Ge grÃ¼ndet
Ġg re
Ġal te
ail y
ĠPf lanzen
richt ungen
ĠBrit ish
el berg
Ġl ar
la v
an i
Ġb i
ict or
com ing
Ġaktu ellen
Ġc m
ĠN ic
Ġj Ã¤hr
ab les
Ġne g
f igur
Ġcon stru
A D
p hen
ĠH Ã¶r
press ion
ĠLie be
a ill
ĠA ugen
ĠI V
gen cy
Ġ3 00
ĠJose f
Ġd ou
an ted
âĢ ŀ
Ġst aff
haus es
ĠAben d
Ġener gy
m Ã¶
Ġne ues
ĠFran cis
Le gt
Ġemp f
Ġbes itzt
ĠB ul
g u
Ġt w
ve y
ok omot
ĠBay er
ĠD ann
Ġal t
Ġge geben
Ġre lig
ĠThe men
ip le
orn ing
Ġinternational en
Ã¤hl te
Ġstell en
Ġappro ach
sp e
fer enz
unk ten
hockey spieler
t schaft
Ġreg ul
rÃ¼f ung
ig ner
Ġfe ature
ĠDan iel
ĠGrÃ¼nd ung
d t
ĠU K
abr ik
Ġeduc ation
ĠL ive
ĠZeit punkt
ĠB ig
Z u
b ie
c on
Ġp ick
Ġpict ure
Ġwall paper
h ib
m und
Ġc rit
ren nen
al a
ĠAn na
Ġpolit ischen
hÃ¤lt nis
ĠS C
he ad
on ie
Ã¶ ÃŁ
Ġer z
pro chen
Ġev ents
Ġt ax
ed ia
Ġex ample
5 7
ĠL eitung
s b
v on
ĠG reen
ĠSt affel
5 3
f unk
ie ger
ĠW ahr
ĠAnd reas
ro ffen
Ġl iter
Ã¤ ten
Ġzu letzt
ĠVer d
y th
ĠS tern
Ġbet rÃ¤gt
Ġhtt p
ĠAssoci ation
Ġe p
or ial
Ġum fass
r ation
ĠD okument
Ġvers te
Ġim ages
reich en
ĠSoc iety
us ive
ĠV oll
ĠJ ud
id t
ho use
Ġtro tz
g arn
ĠCar ol
Ġh ot
ĠP unkte
west lich
ĠS ter
ĠK ern
ĠSch les
Ġent ire
iz es
s a
ie ÃŁ
ĠO k
ĠF rom
Ġ19 19
Ã¤n gen
Ã¡ n
techn ik
k re
l im
Ġbrit ischen
Ġpartic ip
Ġerh Ã¤lt
ĠVol k
Ġverl oren
pec ially
ain er
halt ung
ĠW ebs
Ġins ide
Ġh ab
ĠSp ring
Ġ193 5
p rÃ¤sident
Ġsel f
ĠM Ã¼ller
f alen
ĠEx per
Ġcurr ently
z ip
ĠT w
ĠH is
g arten
Ġke hrte
ĠGl as
Ġbelie ve
B o
Ġv eh
ĠG attung
ĠH art
ĠKla us
Ġheira tete
ĠJ ung
ĠEin wohnern
Ġide a
ĠT urm
ĠL au
ĠJ ak
ir th
ers eits
zen e
Ġw ide
Ġc ele
ĠH u
Ġg ute
Ġne uer
Ġapplic ation
f ace
| }
ĠfrÃ¼ hen
Ġbil det
le icht
ĠT own
ĠZusammen arbeit
neh m
Ã¶ sen
7 4
Ġc op
ĠE ast
tent ion
h ers
ĠS ingle
5 2
Ġat tra
Ġ193 4
ĠGer ichts
ĠMÃ¼n ster
Ã ¸
ĠS und
Ġf ul
et y
ĠGes und
Ne w
im um
Ġj oin
ĠRud olf
Ġread y
Ġphot os
ĠEisen bahn
iforn ia
R E
ĠW erner
end ing
ĠMar ch
ĠEnt wick
Ġc ook
Ġ1 20
ĠT ages
ĠSch Ã¶n
ĠBe zirk
7 3
Ãĸ sterreich
il ar
Ġcom mit
Ġcomp et
ĠFra ge
ĠDown load
E urop
f its
iz ier
zw ischen
Ġd istr
at o
ĠH ere
aut or
I P
T V
l ast
Ġs ites
ĠR itter
ĠL ake
Ġst ammen
ĠMed izin
E is
V ers
un ion
ig entlich
Ġh air
Ġth er
k ampf
Ġw Ã¤re
ĠF ass
ĠVer t
ĠMan agement
Ġ Ã¼
is ierte
Ġw ww
as chen
we chsel
Ġausge zeichnet
Ġ[ âĢ¦]
spiel en
ĠkÃ¶nn te
Ġp lat
th ough
Ġb ill
Ġz ust
ne w
Ġhe ld
Ã¤r k
at iven
ĠU s
Ġst ore
Ġges tellt
mar kt
rep ublik
ich e
Ġf ra
Ġp ark
ĠDÃ¼sseld orf
g ruppen
Ġcle ar
f ore
pp en
rei he
ĠBl Ã¼
Ġrela ted
ĠV is
u ed
ĠD ipl
Ġp le
fra u
ĠGren ze
ĠhÃ¶ her
d y
ĠgrÃ¶ÃŁ te
er in
Ġp sych
ip e
o id
Ġo ben
ĠH an
ist ic
Ġpre uÃŁ
Ġ192 8
ĠRec ords
ĠK er
schein lich
Ġg riech
ver age
yste me
m Ã¼
ĠP lease
ĠT enn
ĠOr ganisation
Ġerfol gt
aug h
ĠEp is
Ġled iglich
Pro du
k y
ĠS onder
ĠK op
ĠInd ustrie
6 1
Ġqu ite
ĠK u
U N
am ed
end s
Ġcharac ter
ĠUnterstÃ¼tz ung
ĠD isk
Ġknow ledge
ĠZu ge
ĠHoch schule
ien en
an lagen
Ġf ire
Ġun ver
t ime
Ġz uf
ĠA c
Ġp retty
ĠH om
ĠAn s
ĠAn schluss
Ġme as
bau ten
Ġze igen
u ell
it ts
Ġa chie
ĠS ar
ik ation
ĠUm gebung
Ġc la
ĠU N
ĠBe k
ĠOr d
ĠÂ «
Ġtot al
Ġsch l
Ġthro ughout
Amer ikaner
5 8
ĠAb schluss
P f
pp er
Ã¤nd en
ĠLe g
mut lich
Ġra d
6 8
ĠH alle
ct ing
Ġde ter
w issenschaften
Ġc ur
ĠN Ã¼rn
Ġsim ply
ĠKont akt
idd le
u age
uch ten
end ung
Ġh on
op t
ĠBes te
osp ital
ber e
Ġamaz ing
5 1
Ġ ut
as es
as te
st ud
ell ent
ars teller
Ġst ock
ah nen
ĠFra gen
Ġp ain
Ġpro blems
Ã© s
ĠEngl ish
W enn
Ġf ace
ĠD or
Ġal most
ud es
ĠFl ugh
Ġper cent
Ġange geben
ĠRel ig
Ġgesam te
wÃ¤r ts
st anz
ĠF irst
Ġes pecially
ĠGr Ã¶ÃŁe
in den
k au
l ingen
Ġsh ows
P DF
Ġne eded
me hr
hal te
Ġar r
Ġ19 14
S te
ic les
Ġjed en
6 2
h ab
Ġk aum
ĠAn schlieÃŁend
erv e
Ġbo x
Ġt aken
or ed
ĠW el
ĠR Ã¶
ĠAus wahl
ec ted
Ġart icle
F A
Ġ Ã¤lt
Ġf iel
em ed
lie gen
Ġ193 2
ĠGeb urt
Ġ3 3
Ġerh Ã¶
Ġschw ed
ĠHerr schaft
Ġopportun ity
wind igkeit
ar tet
ic ago
Ġconc ern
In ter
Ġkn app
5 9
c rib
ĠB usiness
ĠM em
Ġp an
ist an
ĠInd ian
ĠAkt iv
Ġf a
ĠAut o
Ġh ost
isch em
ĠL ife
Ġan alys
teil en
zeich nis
istr ation
am ing
Ġre ach
ess ion
ian o
ĠEin fluss
ĠL ove
ĠZ usch
ĠKon z
low ak
e ks
Ġd adurch
Ġs le
Ġp oss
Ġvar iety
6 3
k unden
ĠI T
Ġmit tel
Ġer he
Ġcon tra
Ġfin ancial
Ġwir k
b rit
at ik
Ġbook s
ĠEurope an
g ibt
ĠW ies
gew icht
onst ants
Ġehemal iger
Ġzahlreich en
Ġquest ion
Ġdamal igen
Ġer r
m ot
hal le
Ġinn ov
k omp
or es
ĠIn vest
ash ion
ĠfrÃ¼ h
Ġus ers
Ob jekt
Ġw hether
Ġver lÃ¤
Ġvor her
gel n
Ġprovide d
is ted
Ġk ids
rat s
Ġhei ÃŁt
H ol
Ġs etzt
Ġhapp y
D es
Ġnet work
D urch
Ġun ivers
ime ter
Ġqual ifiz
al u
ĠM r
Ã¤n n
an ische
Ġto wn
Ġco de
bark eit
ĠRes earch
ĠUnternehmen s
Ġfun ction
ten ded
Ġso on
Ġpolit ische
ĠAl ler
ĠL uc
Ġk rit
ĠRest aur
R uft
Ġb em
Ġk ennen
Ġany thing
ĠM ur
qu al
fall en
Ġben annt
ĠFamilien name
Ġm obile
h te
as c
Ġ19 00
ĠSp anien
eich er
w here
ct ors
gemein schaft
Ġfand en
Ã £
Ñ ģ
ĠW ass
ĠN amens
Ġad ded
ĠFÃ¼r st
Ġwen ige
Ġmark eting
Ġgener al
ĠT Ã¼r
ad el
ĠM un
ĠIm m
sel ves
r um
u it
ch ron
ĠA ch
aus t
fass ungs
forsch ung
Ġn immt
n o
ĠA ust
Ã¤ te
Ġtra ck
amerikan ischen
rÃ¼nde ten
Ġinter ess
p unkte
Ġsie ht
b ul
Ġd igital
ĠC lass
uf e
Ġde p
Ġrequ ired
ad es
ĠGe heim
Ġass oci
setz en
ĠRoy al
ĠAcadem y
on se
ĠB us
ĠK enn
ak s
Ã¤d t
Ġactiv ities
Ġ Ã¶stlich
un a
ĠM and
lau ben
S T
ĠZeit ung
Ġplan s
Ġble ibt
ĠSch le
iz ing
umen te
I nd
t itel
w en
Ġb ud
Ġpart y
Ġs od
Ġb ald
ĠS ign
el a
ant as
ĠHe alth
Ġdien te
E O
e ff
Ġd ro
end orf
ĠNe ub
ĠKir ch
Ġest abl
ĠWind ows
ĠVer wendung
mal e
Ġrec ent
b is
c up
st all
sch lÃ¤
Ġins urance
Ġint rodu
ĠK lass
sch auspieler
ic ult
ed ding
Ġdec or
Ġb esser
Ġwest lich
ĠPro ble
ĠHer bst
ĠBl ick
Ġsec urity
Ġann oun
ĠT at
Ġge prÃ¤
I V
Ġcho ice
Ġw ays
ar ed
ut n
Ġne hmen
Ġgew orden
parte ment
Ġs ales
ĠI nde
ĠAus gabe
fr ast
ĠH ei
ĠBest and
ĠGÃ¶ tt
W Ã¼rttemberg
Ġse par
Ġwo od
ĠMod ell
do or
B ahn
at tet
ĠSo ftware
mittel t
icher ung
ĠDem okrat
ĠCal ifornia
Ġlearn ing
ĠMar y
Ġrec ently
au te
Ġ4 00
Ġs ens
Ġpro jects
Ġbeginn t
u elle
em ents
ic kt
Ġl ock
ĠPerson al
ĠWh ite
ĠF eder
ist in
Ġpra kt
Ġw anted
Ġb lo
Ġin dem
st Ã¤tte
ĠE ss
ĠDeutsch er
ĠHand els
Ġgleich zeitig
Ġindivid ual
Ġch em
Ġte le
ot es
tra iner
un i
Ġsign ific
ĠP or
Ġbe legte
ne e
lÃ¤nd ischen
s ystem
Ġf urniture
ĠFl Ã¤che
mÃ¤ ler
b orn
s m
ĠEr k
spr uch
W ith
Ġens ure
ĠT schech
Ġcustom er
Ġhinz u
ĠF ischer
Ġan z
G er
Ã¤ cht
Ġcou ple
Ġdiff icult
h ing
Ä ±
Ġt ell
ĠD azu
Ġver z
Ġcom ing
ĠGott es
Jahr hund
B A
ĠS atur
ĠWeit ere
j or
n itz
Ċ ĠĊ
Ġm ove
sw Ã¼rd
Ġ either
Ġa ction
Ġaktu elle
Ġfur ther
ie ÃŁen
ĠZ uf
rÃ¤n k
Ġm Ã¶
ĠT im
ĠRh od
Ġso und
Ġsk ills
Ġfal se
in sel
on ym
ĠR ennen
ĠL Ã¤ndern
ĠEs sen
ĠD igital
ĠP C
ĠW issen
ann er
lie fert
Ġloc ation
Ġklein er
6 9
p ossible
ĠFe hler
g ers
Ġp orn
ra in
ĠZeich en
ĠP ers
sp rache
Ġall gemein
verwalt ung
n amen
u he
Å Ļ
ĠM Ã¤dchen
om a
ĠspÃ¤ter en
Ġf Ã¼
ĠW ell
alle l
spr ung
opp ing
zie hen
ĠBre men
ĠN icht
Ġyour self
Ġus er
Ġstand ard
Ġgesam ten
K ultur
ĠM acht
Ġpr int
Ġro le
Ġequ ipment
p ret
au ber
Ġ192 9
Met hode
it ial
ver fahren
Ġre v
ĠDire ktor
aller y
Ġm ent
Ġco ol
ĠBrand enburg
Ġlead ing
Ġt akes
ste ad
ĠSp ec
ĠWer te
Ġs at
Ã¼r gen
Typ e
Ġd et
ell o
b us
ĠVer treter
att le
Ġdar f
Ġverl or
Ġbeteil igt
f unktion
Ġs n
ic ip
ind est
Ġbet re
ĠRad io
ĠÃ¶ffent lichen
K arriere
Ġ6 5
jÃ¤hr ige
ĠForsch ung
A uch
w an
Ã¶ ne
ĠIn str
Ġrep la
h Ã¤user
Ġn ice
ĠJ os
asch ine
Ġb lock
Ġam ount
Ġsp ort
Ġausge tragen
Ġinsp ir
ĠFen ster
Ġs we
ĠSm ith
ĠN ur
ĠV ictor
Ġdes halb
ger ichtet
Ġus ually
Ġstud ent
Ġerziel te
Ã ±
es h
and a
ot ion
Ġun mittel
se hen
oren z
B ut
ĠC O
ĠAut om
ur er
Ġn omin
ĠSt ruktur
ĠBe im
Ã¼hr en
Ġs ummer
ĠL ux
Ġout side
Ġd og
Ġall ein
ĠâĢ ļ
ron om
ĠIs rael
st att
ĠF ritz
leg ung
Ġm el
Ġ1 000
ĠO x
ĠInd ia
Ġtry ing
t a
Ġde g
Ġ3 4
Ġdurch gefÃ¼hrt
Ġprov iding
aupts Ã¤chlich
em ble
Ã¶l f
ĠMar c
ĠSh ow
ĠFreib urg
Ġ rom
ie gen
ade d
ĠPubl ic
an walt
ĠD rei
ĠL at
ĠChamp ions
allow ed
ĠOr gan
Ġ192 7
Ġrece ived
Ð¾ Ð
ĠE th
ĠH D
ed s
se qu
for men
M y
d aten
Ġm o
Ġm eine
ĠM aster
ĠLe icht
Ġ7 5
Aus zeichnungen
ĠAngel es
ab il
ir it
Ġent w
los en
Ġk anad
Ġb rachte
ĠE ff
Ġstra teg
Ġst ruct
Ġbu ilt
ĠComp uter
Verein igte
W erke
ĠS at
Ã¼ss el
Ġth ird
ĠCh icago
Ġgra du
k lasse
um n
ir ch
ĠDreh buch
Ġp rÃ¤sent
I L
ĠH ill
wer ks
oden d
ĠVorsitzen der
Ġm m
ĠL ab
reich e
Ġreg ular
Ġf all
ĠT Ã¤tigkeit
ĠAuf stieg
org ung
K l
Ġo il
ĠF ak
Ġz entr
ĠSt reit
Ġwir tschaft
ĠJul y
ĠMon ate
Ġrece ive
ĠI P
ĠH off
Ã¶ p
ang ing
Ġso fort
20 17
d s
u ert
w itz
y ear
ĠS atz
Ġer setzt
Ġ- -
ĠHeil igen
irg in
v els
Ġh alten
ad y
iel ten
A G
ver lag
Ġzw eit
ĠPort ug
Ġtreat ment
Ġl os
Ġpar ts
C H
I M
ĠM ach
Ġto uch
Ġges etzt
Ġpract ice
k raft
ig uren
Ġacc ording
Ġp aint
ĠAl fred
Ġch rist
ĠGroÃŁ en
ĠFac ebook
Ġt rÃ¤gt
Ġl on
sp ro
lin ge
ĠCh in
Ġiss ue
en ces
d r
Ġt ransport
ĠC ast
Ġme eting
Ã£ o
ĠS S
Ġb ere
Ġm orning
ĠBen utz
ĠS um
ĠS upp
ĠF arb
ĠTeil nehmer
ĠGegen satz
ĠM erk
Ã¶ k
swÃ¼rd igkeiten
b as
er o
ĠL ager
ĠAr ts
ho od
mit glied
ĠBo x
Ġge fÃ¼hrt
ĠPro blem
Ġgen ommen
Ġro ad
Ġbeh ind
Gemein de
B undes
ĠAn gaben
mal er
Ġpre vious
Ġ192 5
h och
ĠD amen
Ġne cess
rÃ¼ cken
Ã¤dag og
Ġmom ent
ĠS un
ĠPro zess
uden ten
Ġextre m
Ġd ir
am at
Ġver lieÃŁ
Ġmus sten
ie ts
Ġnot wend
Ġje de
Ġsol utions
ĠM ik
Ã¶ ss
ess el
Ġprodu ction
W Ã¤hrend
Ã ½
ĠS ammlung
Ã¤hr t
Ġjeweil igen
ounc il
Ġg round
Ġer forder
ĠBas el
Ã¼ cht
ĠG reat
ar io
ff er
p a
Ġs ah
ge g
ĠOr gel
stÃ¤nd e
Ġt old
le b
ow a
ĠDar stellung
u ary
ag d
Ġcom ment
ĠChar akter
ĠK olle
od or
Ġit ems
ks am
Bau werk
i h
Ġd at
ov ers
ĠRev olution
ĠBeit rag
M L
w el
Ġs ix
Ġr unning
ĠPres ident
odend ron
Ġc apt
Ġzun ehmen
ĠVer teid
omm ern
Ġdr ive
P olit
ĠWe ise
Ġemplo ye
Ġa ud
ĠS om
at us
Ã¤ um
Ġle bt
Ġexp ect
ket ball
in de
ĠS Ã¶
ĠAn lage
ĠD at
ĠRo ad
p rÃ¼
Ġh und
ul en
Ġwe eks
ĠArchite ktur
ĠzusÃ¤tz lich
Ġ193 1
fr ont
Ġgesch rieben
ig ungen
z Ã¤hl
ĠB ob
Ġex act
schaf ter
y es
ĠS uche
ĠI S
ĠSt rom
Ġ3 8
ĠWe hr
Ġph il
Ġb us
ge legt
Ġm aint
Ġent scheiden
Ġmed ical
N ame
c ast
ĠA T
um in
au x
hen s
Ġsignific ant
V D
ĠS owjet
Ġfavor ite
Ġprom ov
ĠVier tel
K omp
Ġh auptsÃ¤chlich
Ã¼n ft
oun ts
Ã© e
Ġâ Ĥ¬
Ġerm Ã¶glich
kret Ã¤r
Ġm er
ĠL ig
Ġwelt weit
B E
ĠB ol
Ġbath room
il i
ut ive
Ġ4 8
ĠAb s
ĠgroÃŁ er
Ġbrit ischer
ĠBron ze
ĠvollstÃ¤nd ig
Ġp ers
ier re
Ġaus gew
St adt
ĠMus iker
Ġl angen
ĠBe zirks
ĠSicher heit
le is
le hn
Ġ19 10
ĠSt ahl
ail and
zahl en
ĠVerkehr s
ĠOct ober
d essen
l ers
Ġs ource
Ġger ne
Ġ >
Ġm ix
ĠSchw ar
Ġb ott
Ġbe ein
ens ive
Ġpr ices
lei ben
m ont
im ar
ĠR enn
ple ment
ibr ary
S Ã¼d
Ġdes t
au ern
ĠCh urch
Ġlook s
Ġpl ant
Ġst op
ink el
Ġ192 4
Ġander er
l Ã¤nder
w ell
ist rat
ĠChrist mas
pl ant
Ġt un
fl Ã¤chen
ein s
st attung
ber n
Ġaus schlieÃŁlich
ĠAl ten
Ġhow ever
ouver ne
f on
h agen
ik i
Ġ4 2
Sch rif
hol z
ĠK omb
Ġbring en
ĠRuss land
Ġw ords
ĠS ome
om s
Ġl aut
Ġ3 7
Ġsk in
ĠB a
ĠOr iginal
Ġexp ert
ĠNational sozial
Ġh or
5 00
ĠTra dition
re l
ikan ische
Ġwrit e
Ġbede utet
Ġc ut
Ġal tern
-- --
Ġh Ã¤tte
ĠÃ ī
Ġh ielt
zeich nete
ĠS icht
Ġup load
B l
ch em
Ġg anze
ĠSt ation
ĠFried hof
Ġeas ily
k r
ĠY ear
Ġstor age
ar ts
Ġ15 0
ock ey
ĠHaupt stadt
ĠMag az
Ġprob ably
Ġf resh
Ġgeb racht
ipp ing
Ber lin
ĠerÃ¶ff net
K reis
ĠS amm
ĠL aur
ĠL Ã¤nder
ach ts
ĠSch la
ma ÃŁ
laub t
ĠParlam ent
ĠHome page
ĠF ernse
Ġc y
ĠV ize
U R
V erke
g Ã¤nger
Ġst ieg
Ġr isk
ĠQu ellen
hil fe
m esser
ĠS y
Ġf ig
Ġind ustr
ĠnatÃ¼r lich
Ġf uer
ab et
itt ing
ĠZusammen hang
ĠmÃ¶ch te
ĠS V
Ġfol gt
ĠÃ¼bern ommen
d ate
m ission
Ġch anges
ick et
Ġent lang
Ġrec ord
ĠG ust
Verke hr
c ia
as ten
ĠP rom
ĠH imm
ĠO ver
Ġde f
Ġbesch rieben
ĠMeister schaft
ist ry
ag te
ĠSpiel zeit
ĠG Ã¼n
ĠG olden
Ġsch ed
ĠMar ine
Ġ| |
ĠNatur schutz
ĠRich ter
Ġsogen annten
ĠReg isseur
I s
le ger
Ġc enter
E l
Ġall ows
l uss
Ã¼ ge
ĠW ettbewerb
Ġde ep
ĠBern hard
ĠSold aten
ĠT ransport
Ġst ation
Ġgleich nam
Ġarbeit en
iti ative
er er
Ġb leiben
Ġis n
Ġfin al
Ġje dem
ĠErgeb nisse
Ä ĩ
ĠHeid elberg
N ieder
ĠL i
ĠC y
ĠLe on
Ġpr esen
d ire
Ġ192 6
Ġsim ilar
Ġm atter
ĠG rÃ¼n
ĠDe partment
20 12
ĠBer eits
Ġtra in
Te chn
Ġst aat
Ġver treten
Ġsei en
ue ber
Ġm ilitÃ¤r
ĠM icro
bo x
ĠPap st
ĠStÃ¤d te
F re
em e
Ġel se
Ġrelat iv
Ġoffic ial
P reis
Ġd unk
an cy
ĠT emper
ĠunterstÃ¼tz t
h auer
Ġp rÃ¤
Ġl au
Ġun abhÃ¤ng
ho den
ib el
w ir
Ã ´
Ġver mutlich
ass el
sel ben
and en
Ġsh op
Ã¤ her
ĠH ab
Ġdra w
B esch
N eben
ad rat
ond s
20 10
ĠQ ue
Ġfol gten
Ġrec ogn
ĠChrist oph
ĠPart y
fan ter
h ips
k ord
Ġw ohn
ĠM aschinen
stand s
Ġgu ide
Ġpotent ial
Ġc aus
ĠH ard
th ur
ĠHen ry
F in
il a
ot ing
os ed
ĠIn form
Ġeff ic
ĠPr ies
Ġopt im
Ġinclude d
Ġcontin ue
el la
ĠP fer
Ġreg ard
ĠMen sch
_ _
ĠW ach
Ġfor ward
ĠTechn ik
ĠRhod odendron
nd en
ĠW ander
Ġ19 12
pr ise
ĠFar be
Ġsug gest
ĠSchw ester
Ġaddition al
D P
b ased
Ġany one
ĠM Ã¶
ind ungen
ly ing
Ġch ines
ied lung
Ġbest Ã¤t
wei le
Ġun be
Ġwork ed
Sch wei
pend ent
m l
o z
ar p
Ġe igentlich
kt ions
ren ch
Ġgrow th
N A
a ign
ĠH on
Ġsc reen
ĠRep ubl
gent in
ĠPh ot
ĠPe ters
alle y
ĠĊĠĊ ĠĊ
Ġem er
C O
Ġin fl
ug ht
Ġle bte
ĠFr iday
C S
ĠD ro
ultur al
g ab
Â ®
ĠD arm
ĠSch lag
urn ier
Ġsch Ã¶n
Ġweiter er
Ġsl ow
ĠTex as
ĠKr im
Ġphot o
Ġrepr esent
2 000
D ate
S piel
Ġw ider
ĠBau ern
utn ant
Ġs ave
at al
Ġc ann
ub s
Ġup on
h op
p ack
ĠF al
ĠE re
200 9
reit ung
ĠNutz ung
Ġans wer
chn ung
Ġwieder um
ĠBild ung
ĠBra unsch
Z ur
Ġd ress
we chs
emp l
ĠĠĠĠĠĠĠĠ ĠĠĠĠĠĠĠĠ
Ġrecommen d
G ruppe
ĠS ach
ĠStud io
ĠH aut
ĠLe op
20 16
Ã¶st lichen
ĠEng ine
ĠBrÃ¼ cke
Ġregel mÃ¤ÃŁig
Â «
ĠL ieder
ĠSt immen
Ġver hinder
ĠReg ional
Ġerschien en
Ġsod ass
r enn
Ġer f
P re
S ystem
Ġv ideos
Ġcom mer
ĠLand schafts
Ġbed room
ĠSant a
ĠAngeb ot
s berg
Ġber eit
Ġdis cover
ĠKinder n
s et
v i
Ġer inn
Ġpurch ase
ĠR od
ĠSp Ã¤ter
reit et
A ug
d as
m acht
ĠT ime
Ġcont rib
Ġwicht ige
I A
Ġa sp
ul s
if en
ren z
gew and
ĠPat ienten
Ġb al
ot ten
Ġbeen dete
Ġhigh ly
ĠKn oten
Ġla unch
II I
ĠVerwalt ung
ĠJak ob
on ial
ĠP ower
Ġver k
Ġ3 9
20 11
Ġdo or
ĠGo od
ĠAt lant
brÃ¼ cke
Ġs qu
ĠL ong
Ġj ungen
ian ce
ĠHinter grund
k rit
ĠÃ Ĺ
eich ert
Ġincre ase
b latt
Ĩ Ĵ
ig an
ĠAl so
Ġme chan
ĠAd els
Ġprogr ams
Ġgl obal
F rank
S c
Ġbest immt
ĠWei hn
ĠverlÃ¤ uft
ĠA sp
Ġwar m
ĠBe ach
ĠBr as
Ġdis play
gemein den
ĠHÃ¶ hen
rech te
ĠLeist ung
B and
ĠH istory
Ġgirl s
Ġeurop Ã¤ischen
ist isch
ĠNÃ¼rn berg
n ational
it ation
Ġf il
ĠIn tern
ie fer
Ġw oman
ĠVer fahren
19 45
Ġhistor ischen
Ġverkauf t
ĠU kra
Ġse ems
ĠHo hen
Ġpos itive
Wh at
D a
s achsen
Ġs yn
ph one
iss ert
200 7
Ġfl ow
ĠS onnen
ĠJ ob
ĠPro p
gr en
Aut or
Ġst reng
Ġver pf
ohl en
ĠZust and
ĠG Ã¼ter
ill ing
zieh ungs
ĠverfÃ¼ gt
or gt
ĠU rs
ĠPro gram
zieh ungen
l ife
em a
oun ter
Ġ192 1
Ġsol ution
sie he
Ġlik ely
Ġd ed
or et
Ġin tens
rÃ¶ m
Ġgra ph
Ġtyp es
ha ber
lÃ¤uf er
anstalt ungen
G ener
Ġa k
ĠL eit
ĠZ immer
ĠAuf gaben
Ġ192 2
Ġentsp rechend
Ġw ord
ar kt
us te
ĠW ood
ĠRe f
ĠEin s
Ġ192 3
rie be
ĠSchm idt
ĠAn teil
Ġpre m
ĠFahr zeug
pe kt
Ġpol icy
reif en
H L
s telle
Ġbe ach
b a
u gend
Ã º
geb nisse
20 15
ĠProdu kte
Ġexc ellent
Qu ellen
b ilder
or der
Ġn ied
Ġl Ã¤nger
gen er
ĠFr ont
Ġv e
Ġh uge
Ġte ach
Ġide al
Ġdarauf hin
ĠKla vier
Ġw ritten
ĠG ran
ul pt
age gen
Ġdec ided
Ġin tern
ĠD ir
Ġcare er
k om
y ing
ĠR is
20 13
Ġpubl ished
ĠMat th
Ġaktu ell
Ġwahr scheinlich
E P
O ber
v ors
ĠS ing
ak ers
Ġwer de
ic ated
ik o
200 5
ĠPrem ier
m ine
ĠB rown
ist ol
ĠFran ce
utt ing
ĠEdu c
ei der
ap ie
Ġle ave
br idge
c ement
Ġv ari
ĠV an
Ġver antwort
Ġpr ior
Ġitalien ischer
ĠBeruf s
ĠTurn ier
G ra
ĠT ok
ĠOr ganis
Z eit
n ummer
r Ã©
ger ichts
geb iete
20 14
Ġreg ister
r Ã¤t
w Ã¼r
Ġin j
Ġf ix
Ġf irm
Ġbet rieben
Ġgesch affen
ĠJu den
ĠD ou
Ġangeb oten
Ġquick ly
res p
Ġcond ition
Ã¤ss er
H ow
t liche
ĠG ru
Ġc abin
uf fer
ĠGer hard
r ick
Â ½
Ã Ħ
Ġb and
Ġl ives
av es
vers ammlung
ĠWill i
minister ium
b re
Ġd ient
Ġent ry
ĠAm az
ect ive
ĠZentr al
Ġex am
Ġsol che
deutsch en
k irchen
ĠD ah
ĠG ro
Sch w
is ation
ĠHe ute
Ġrele ased
Ġd ur
sch m
Ã¤n gt
is abeth
Ġw ish
ĠS ym
Ã¼ gen
ĠR et
ber eit
200 8
Ar t
Ġwirk lich
ã ĥ
ĠW irtschaft
ĠgehÃ¶r ten
Ġverlie hen
E hemal
p erson
r d
Ġ Î
ein er
Ġmov ie
Ġl if
Ġdes crib
be wegung
heim er
Ġgel ten
brit ann
at i
ree k
Ġvers ucht
Ġexper ien
ĠFar ben
Ġtool s
g au
ĠT Ã¼rk
ĠI ll
Ġr ather
Ġinter ested
Ġerw arb
Form at
Ġd ig
ĠNe ue
Ġitalien ischen
Ġd aily
or ing
200 4
Ġho tel
w eite
ĠOr dens
Ġpo ints
Z W
b n
Ġre lease
ĠVer kauf
Ġexp la
ĠMet all
aly se
ĠDÃ© partement
ĠC anada
ĠDe velop
stru ktur
ĠFot os
Ġwichtig sten
il den
ent y
Ġj unge
ĠSatur day
R es
Ã¼ hm
ra te
aus piel
Ġeffect ive
m ond
ir ge
lie der
ĠOr te
rat es
ĠÃĸ l
ĠBÃ¼ cher
Ġsaf e
Ġmaterial s
Mus ik
ĠW issenschaften
geb racht
ĠNach richten
ĠGl Ã¼ck
ĠServ ices
Ġs ort
ach im
ier n
ĠZu kunft
ĠArchite kt
g ut
Ġin zwischen
Ġin ternet
ĠK ult
Nach dem
gra f
s itz
Ã¤ ische
Ġre fer
Ġauf gerufen
ĠEin trag
Ġro und
ĠMain z
z z
and ers
Ġwe ight
Ġste p
r est
w ander
ĠR ing
Ġ5 5
ĠOb serv
reg ierung
Ġ ;
ĠFot o
Ġfert ig
Ġgew innen
Ġmach ine
ĠEle ment
Ġs end
ĠI hren
ĠSt udenten
lie fer
Ġzw Ã¶lf
Ġ4 4
tr al
j i
w ach
Ġ ult
Ġw in
se x
ĠArch iv
ĠH afen
oc al
Ġrem ember
ĠG lo
Ġc redit
ĠL aut
Ġg ives
ĠGren z
p ers
ĠS uch
ĠThe ologe
Ġjed es
ĠMed ia
Ġs ent
ck len
Ġerst es
ĠS us
ĠUnivers itÃ¤ts
Ġuns eren
ĠOp fer
p ose
Ġver lassen
ill on
Ġa verage
ar ischen
Ġb ank
ont o
Ã¶rder t
ĠBeit rÃ¤ge
Ġd omin
Ġt ats
ĠV iew
la h
Ġent deckt
ĠSte fan
ipp ed
ĠW ork
ĠWe chsel
ĠBes atz
ĠPhilosoph ie
ĠS onn
Ġl oss
la us
ver trag
Ġgo al
wer be
eld ung
ĠSim on
Ġk or
ichte ten
din and
Ġs al
Ã© n
Ġplay ing
ĠM att
iv ity
200 6
Ġbo ard
Ġtradition al
l ies
Ġt Ã¼rk
Ġg lass
ĠsÃ¼d lichen
van ced
Ġhig her
ĠAb teilung
Ġapplic ations
ĠÃ¼ br
stra hl
ĠMann schaften
p olitik
Ġbestimm ten
v ol
Ġg old
au d
ĠAn th
ĠSc ott
ĠBesch reibung
it ur
ĠB ist
Ġ19 17
Ġpie ce
t or
glieder t
c ul
ar es
ar ter
ĠVer lauf
Ġunmittel bar
ĠK ammer
Ġun bek
ĠSer ies
d om
Ġc oll
200 3
ch ange
Ġf air
ĠE very
wer te
ĠÃ¤ uÃŁer
ĠerklÃ¤r t
Ġder zeit
ĠA ff
ĠG Ã¤
ĠSpe zial
Ġd ritte
Ġlie fert
eiter te
gang s
ĠHein z
ĠSied lung
O C
ĠSt iftung
kt iv
ĠWebs eite
ĠAller dings
ĠEin fÃ¼hrung
Ġum fang
Ġnot hing
ĠBl ue
Ġerw eit
Ġplay ers
ĠNieder land
Ġheut ige
ĠSoc ial
ĠP ok
Ġd om
im en
ul y
iz iert
Ġex ec
por ate
yd ro
L iste
ĠW affen
ĠR eb
v ant
ĠKarl s
Ad resse
W eit
ĠN ummer
stit ut
ĠIs lam
B is
P ol
Ġh ous
et ts
Ġ190 6
t i
Ġw orth
Ġer baut
Ġan im
Ġex tens
mann s
Ġbek ommen
reit en
Ġeng ag
ĠW oche
ĠR og
Ġver gleich
xik on
Ġkosten los
ĠFak ult
ĠTemper atur
ĠD et
ĠBe zug
ĠSo und
amer ika
m ess
ð Ł
ĠSt off
ĠAuf t
Al bum
Ġtr ip
I d
ĠC ra
Ġch ance
Ġch arge
Ġpl anning
ĠFlor ida
Ġw uchs
Ġg ift
ĠC entral
ĠFlugh afen
ĠH it
ĠGes prÃ¤
n ot
ĠE dition
Ġsu it
Ġspe ed
tert ain
Ġimpro ve
ig ation
iel le
gef Ã¤hr
ĠFo und
ĠE igent
ĠC orn
Ġle er
ĠKrit ik
el and
ĠP enn
Ġim m
ĠÃ¼ber wiegend
Er baut
ĠKap it
h old
Ġg alt
ei ge
ek te
ĠAuss tellung
is er
ĠG alerie
id ents
Ġpro f
ĠUn garn
gra ben
ĠInter esse
ĠCol umb
Ã¤mp fen
k lass
Ġd Ã¤n
Ġd auer
Ġs un
Ġc irc
ĠBe ck
Ã¶r ter
les en
ĠInd ustr
forder ungen
cklen burg
ĠS ab
ow ski
Ġle gte
Ġpl us
b our
Ġo l
ei ÃŁ
Ġ6 4
ĠGra fen
ĠAd olf
afr ika
Ġzerst Ã¶rt
an ischer
ing u
Ġl ok
mittel n
Ġlang uage
Ġentsp richt
Ġplat form
ĠProble me
ĠR y
Ġon es
Ġat tention
Ġres ources
Ġinc reas
denk mÃ¤ler
ĠGel Ã¤nde
gr Ã¶ÃŁ
rif ft
ĠOff ice
Ġask ed
ĠSund ay
Ġinvol ved
M ail
k opf
in y
Ã¤ ger
Ġge gebenen
Ġcor re
ĠP rag
ĠBl ut
ĠSchrif t
Ġverpf lich
S G
Ġh um
ĠR ost
ce p
ges p
Ġmehr fach
Ġtra gen
Ġdar an
Ġpar ents
Ġref le
Ġor ient
hol t
ĠErz bischof
S P
g Ã¼lt
lieÃŁ t
ĠÃĦ nder
gy pt
Ġrequire ments
or ten
Ġ19 13
Ġwir kte
ĠAr zt
ĠMar ie
Ġimp act
B r
ĠD iv
ĠT ore
ĠW appen
Ġmit tels
Ġfor mer
lin ik
Ġconstru ction
ĠV om
ĠIn gen
ĠHistor iker
Ġinterest ing
b ungen
Ġdeutsch sprach
Ġdar in
so ft
Ġcond itions
ĠAuf grund
ĠOb jekte
Ġorgan ization
Ġein st
ĠE hr
ĠW agen
ad or
ĠAuf bau
Ġlon ger
ĠM ission
ĠR oll
Ġaus tral
ĠJan uary
ĠT ar
ĠK en
Ġsow jet
. ),
pro gramm
Ġstar tete
W ie
re ise
Ġ19 11
b aden
Ġd iv
re a
ĠW ed
ate ur
Ġarbeit et
im me
ĠV iol
ĠAn ge
ĠgrÃ¶ÃŁ ere
ĠÃĦ r
k rieges
ĠI hrer
ek ing
ĠBo ard
ĠWh ile
Ã¤hn ung
ĠGew inn
ĠPra xis
ĠGÃ¶tt ingen
Ġd ise
Ġb ein
ho ff
Ġbe hand
Ġl Ã¤ng
Ġgew onnen
Ġpart ners
West falen
d urch
ige m
ĠauÃŁer halb
Ġful ly
Ã¶r en
ĠKap elle
' d
h orn
ĠR ay
Ġg ere
ĠO pt
ĠMe tern
Ġbet rug
tem por
Ġbek annten
ĠNord osten
fur ter
m y
ro id
ĠL et
Ġle itete
Ã© r
Ã¼t te
Ġinternational e
ĠAustral ia
ĠJes us
Ġn or
im er
ĠC re
ĠLe e
ĠKar ten
gra d
ĠQual itÃ¤t
Ġb irth
ĠB la
stit ution
Ġweek end
ĠVo gel
p olit
erk unft
schul en
Ġanalys is
issert ation
v olle
ch ner
Ġb all
ĠSt an
ĠFir men
ã Ĥ
Ã¼ st
ĠL ast
lin es
orden s
ĠFer dinand
britann ien
Ġg reen
ĠEr b
ter e
ĠT isch
ist ics
ahr en
io de
Ġbene fits
p al
Ã¼ m
ĠM ah
ĠSchw eden
ken nen
Ġsuccess ful
O lymp
ĠS n
ĠD ub
ver treten
ĠOrt schaft
leist ung
Z X
or al
Ġf lex
ĠDie t
oh le
Ġ190 8
J uni
Ġmy self
oper ation
ĠgeprÃ¤ gt
j o
st uhl
Ġl ower
ĠgrÃ¶ÃŁ eren
Ã¤uf er
E G
Ġt Ã¤
Ġs aw
ĠS on
ĠVor der
Ġpat ients
Ġreview s
ĠrÃ¶m isch
M A
o ÃŁ
ĠS eb
ĠAuf gabe
Ġ190 7
at r
ĠK rank
ik on
ĠGrund lage
ĠCour t
C C
Ġh Ã¤lt
gr iffen
ĠAb st
O L
ĠF ert
rÃ¤ ume
Ġ4 3
Ġste ts
Ġser ious
stoff e
fel der
m d
ro at
ĠJ on
Ġoffer ing
Ġrelations hip
ĠJac ob
g le
te uer
ĠT agen
Ġle bten
Ġcomp lex
Ġprodu ziert
Ġexp l
Ġhtt ps
Ġcommer cial
w ide
ĠS ituation
Ġth ous
Ġunter s
ĠEn gel
Ġdec ision
Ġmax imal
Ġaus geb
ff ic
Ġsp Ã¤t
Ġar g
ĠBundes liga
ĠFÃ¼hr ung
Ġdou ble
Ġsched ule
ĠS em
Ġv Ã¶
ĠIn fanter
Ġhand s
ĠÃĸff entlich
P er
ĠR osen
re form
Ã¤ llt
ĠL ib
ĠO h
Ġfe ed
ĠArbeit er
ĠBraunsch weig
G r
en se
Ġre in
ze ption
Ġunter st
Ġro t
inn ing
Ġob wohl
ĠBild ungs
Ġbrit ische
Ġsaf ety
or fer
ĠR ail
ĠL y
ĠZ us
ĠBlÃ¼ ten
ĠRe chte
ph an
Ġschw ar
ĠEle ct
Ġdevelop ed
ĠDaten bank
k ammer
ĠA R
Ġge ts
Ġgen annten
hand lungen
uck y
b u
Ġb ul
ĠT hr
ĠK urt
ĠV irgin
z we
ie den
re al
ed y
Ġwen igen
ĠDar Ã¼ber
Ġrequ est
ĠStand ort
Ġveh icle
Ġw r
as ons
Ġp ool
ĠNe uen
je w
Ġhelp s
ĠKom ment
Ġsele ction
ĠTe ams
Ġgo es
vers e
ĠTer min
ĠLauf e
ĠMÃ¤n n
A F
G roÃŁ
i y
ĠA f
ĠT iere
Ġc ross
ĠN av
est ra
ĠVer halten
Ġab ility
tell igen
ĠGeb Ã¤
ĠWeltkrieg s
Ī Ĵ
ĠG ene
ĠE ich
Ġl ic
ĠBe wegung
Ġbet rach
ĠInter view
ouverne ur
o e
en kt
ĠEr de
Ġno te
ĠSchul en
Ġ ord
is ions
st ation
Ġp ath
Ġse em
aug ht
Ġatt ack
ĠStat us
y ond
arm on
Ġter ms
ĠDec ember
R ad
ie fe
ist a
ĠTeil en
a dem
f amilie
Ġg uten
ĠC ouncil
ĠV illa
ct ure
Ġse ction
lauf en
ĠArchite kten
Ġleg al
ĠjÃ¤hr lich
zip lin
k g
Ġd agegen
Ġs ingles
Ġf unktion
gel d
ĠEl isabeth
Ġarch ite
b it
Ã¼ mer
ĠV arian
Ġun ten
ug s
ost on
ĠÃ¤hn lich
ar ische
ĠR au
ĠEurop Ã¤ischen
m ore
ĠB rief
Ġg ingen
Ġg iving
ir us
Ġne igh
ĠSchrif ten
Me ister
ĠIde en
zÃ¼ ge
ĠD Ã¶r
ĠO ld
rit ter
Ġdar gestellt
ĠÃľber setzung
I ON
t lich
ĠP ak
ĠL ink
leg ten
Ġcolle ge
Ġlin ken
O ne
k osten
ĠF air
if ts
rit e
Ġch urch
ĠFl Ã¼gel
Ġunser em
Ġf arm
ag ne
Ġle vels
Ġsc ience
re u
akt iv
ĠFranz Ã¶s
Ġstart ing
Ġamer ikanischen
Ġz eich
Ġor igin
Ġm id
ĠF isch
ra gen
ĠH Ã¤user
ĠL it
pf licht
ĠĊĊ ĠĊ
ĠFebru ary
ĠEle mente
ĠÃ¶sterreich ischen
ĠFrancis co
is at
Ġo w
Ġn utzen
ĠC ho
ul i
ĠKon fl
ĠUl rich
ĠEre ign
b ibliothek
Ġg anzen
Ġ4 1
amp les
n ungs
Ġ Ä
ain e
ĠMen ge
wahl en
ĠAustr alien
Z w
Ġf ashion
el er
ĠH ub
ĠEurop ameister
ĠBas ketball
Å «
ĠM ost
Ġge halten
ei en
ar ia
ĠD omin
ĠW estern
Ġg ese
Ġunterschied lichen
k ont
ĠK os
Ġr Ã¼ck
Ġben ach
u ted
ĠE ck
ĠZ ahn
ard o
ĠHe er
ĠP od
ĠT anz
Ġc ause
ĠSch auspiel
Ġerst re
Ġersch eint
ĠLeist ungen
t l
ĠT H
Ġbe gan
s or
as ion
ĠAl pen
Ġgef Ã¤hr
Ġwonder ful
Ġde ath
Ġbek am
ĠMan ager
gem eine
B est
ĠEin heit
app e
Ġtit le
Ġc at
ĠH ause
ĠR am
Ġl ay
pp e
Ġab gerufen
ap ter
Ġmult iple
Ġw edding
ĠF lo
Ã¼ck sicht
Ġsub ject
Ġcann ot
I F
Ġs old
ĠW omen
Ġan erk
ĠWei ÃŁ
Ã¶r ung
leist ungen
ĠDate i
Ġbe legt
ann a
Ġver fÃ¼g
ron ic
ĠKar te
Ġpla ces
ĠNord westen
Ġpos it
ĠBrÃ¼ der
ĠS ig
al m
Ġz Ã¤hlt
Ġweit gehend
fin den
Ġcl ient
ĠPre uÃŁen
ĠEben e
Ġenc our
Weit ere
Ġs on
Ġh it
Ġ19 15
ze p
ib ly
Ġ4 6
Ġcreat ing
Ġcamp aign
ĠP ed
ĠW ater
her zog
Ã¤nd ler
Ġ4 9
ĠChar l
ĠBron z
Ġdoc ument
ĠSpec ial
Ġb ase
Ġf ab
ĠP ack
ul f
The ater
ĠZeit en
gesch rieben
ĠSÃ¼d westen
Ġsom et
ĠhÃ¶ch sten
Ġt hr
ĠS inne
Ġv irt
Ġl ost
Ġl ux
Ġkl ar
Ġag re
itel y
ĠBar bar
Ġfamil ies
ĠG rÃ¤
ir al
ĠAn wendung
Ġso uth
Ġent h
Ġverw ende
ĠÂ £
Ġstor ies
ĠCent re
Aug ust
D on
K lasse
c ies
o und
ĠH orn
Ã¼tz t
ĠTod es
ĠChe ck
L in
L age
U T
ĠAn ne
kathol ischer
ĠGust av
D A
i xt
Ã ¥
Ġein gestellt
Ġ( ,
ĠW in
ĠW Ã¼rz
omm iss
Ġ190 5
merk ungen
ĠB ass
ĠE ber
ic ations
ĠV ort
ĠRou te
D o
us ter
Ġv iol
sp er
Ġhe il
sk y
Ġgesp ielt
C ode
Ġn ov
ab elle
tell ungen
Ġfin ish
Ġbusiness es
ĠEduc ation
h ow
un te
Ġim med
Ġsch le
ho fen
Ã¤hl ten
ĠPol y
ĠHoch schullehrer
ĠHel mut
Ġgrow ing
Ð º
Ġd ark
ĠB Ã¤
ĠG ames
ĠL ind
Ġer fÃ¼
ĠCo de
Ġgroup s
f Ã¶rder
g ern
k in
v ement
ĠS au
ĠT Ã¼b
Ġzu erst
Ġ5 2
at ic
ĠF ein
sch loss
Ġout door
Ġphys ical
ĠÃľ berg
Ð »
Ġp aar
Ġg rand
ĠBe w
t um
Ġt ar
Ġs an
ĠT ax
ĠEin ige
ĠAd am
Ä Ľ
Ġ Ã¶ffentlich
Ġn ature
ĠK ath
ĠL iter
ĠO tt
ĠIn ner
ĠDe v
Ġent stehen
lan z
ĠOx ford
ĠD ol
Ġn amens
Ġan aly
Ġmus ikal
ĠMos kau
mÃ¶ gen
D I
N o
j ust
it o
ĠEr inner
ac es
ĠAll gemein
Ġcons ult
Ġnorm al
M ark
ĠK ard
Ġk om
Ġab geschlossen
ick ets
ĠSie ger
rich ter
Ġ190 4
Z um
im p
rie chen
Ġso c
Ġres olution
ĠAd min
ĠVerÃ¶ffentlich ung
Ġerhe b
) )
er weise
ĠS up
ĠD ra
Ġde pend
ĠMag de
ĠnÃ¶rd lichen
Ġess ay
ĠBund est
D ollar
z if
ĠD ialog
ak i
Ġher gestellt
ĠKon stru
Ġâ ĨĴ
Ġlet ter
Ġdirect ly
xik o
Ã¤chs ischen
Besch reibung
F ra
fr ist
Ġcost s
Ġentsprechen den
Ġd ich
ĠS av
le hr
ĠK rieges
ct ic
ĠSp rachen
Ġrem ov
T r
ĠS PD
ĠD Ã¤n
bÃ¼ cher
S er
ĠS T
ĠS et
ĠG irl
ĠUn abhÃ¤ng
ip fel
Ġlie f
Ġsm art
ĠMor gen
C A
lin ien
auf hin
ÃŃ n
ĠGeorg ia
wÃ¤r t
iw od
m osph
an geb
Ġbe ob
ĠâĢ ¢
ĠZ ent
Ġob t
Ġpre fer
ĠAut ob
Ġcl oth
ĠCommun ity
ĠFrÃ¼h jahr
V P
on i
le m
ĠK och
ĠV alley
Ġpart ner
y t
as ing
ĠP orn
Ġum ben
anz er
200 2
fra gen
ĠHam burger
ĠDeb Ã¼t
Ġmess age
Schrif ten
Ġt al
Ġv ac
ĠP unkten
ĠR icht
ran ce
be g
lÃ¤nd ische
ĠwÃ¼r den
ĠFakult Ã¤t
tertain ment
D E
z ub
Ġl isten
iel len
ĠTeil nahme
Er folge
ĠB ell
Ġp ages
ĠH ockey
Ġ19 16
Ġver g
Ġ190 9
Ġstand en
Ġorgan iz
ĠJur ist
ĠSalz burg
ĠA rab
ĠB lock
ĠG ame
Ġcount ries
D en
N ord
P latz
j en
o oth
ĠÃ¼ber tragen
ĠY oung
ret t
Ġbec ame
arch iv
ĠCol or
Ġwest lichen
ĠhÃ¶ch ste
Ġexperien ced
Ã ł
Ã¤ hler
ĠM ol
ĠK amer
fl Ã¼gel
200 1
ĠAut oren
ĠDeutschland s
ĠArch Ã¤
ĠVerlag s
Ġcomple tely
Ġemplo y
Ġopportun ities
ĠElekt ro
Ġs us
Ġw and
al te
ad d
ay a
Ã¤r t
âĢĿ .
ĠTra ining
Ġweiter es
g ment
Ġb orn
st on
Ġver schw
gel assen
ĠSÃ¼d osten
A fter
Ġh a
ĠL en
Ġe arn
Ġfor get
B S
Ġt en
ann el
Ġit self
hÃ¶r den
ĠBl og
Ġcons um
yl van
Ġnecess ary
is ieren
ie b
ĠK ron
Ġ2 50
ĠLand wirtschaft
ĠMin er
ĠBei de
geord net
ĠMond ay
Ġgese hen
i ant
Ġ uk
ĠC at
Ġl Ã¶
Ġse ch
ĠNord rhein
ĠGroÃŁ britannien
unn el
Ġ ueber
Ġge zeigt
Ġat tem
isten z
ĠKon gress
Ġdivers e
in zen
ĠMe x
Ġinter view
Ġannoun ced
d own
f le
Ġs icht
ĠC ross
ill y
ak ed
Ġhin gegen
ĠBetrieb s
fÃ¤h igkeit
Ġverantwort lich
C omp
ch mal
ĠN eb
Ġindividu als
s ur
ell schaften
ĠFor men
Ġruss ischen
ar in
ĠS ender
ĠT hen
Ġzu gleich
qu is
ĠTh Ã¼r
bl Ã¤tter
Ġcreat ive
ĠD ur
Ġk aufen
Ġpro per
Ġbes ondere
fr iend
klÃ¤r ung
ĠLeicht athlet
Ġt schech
ĠIn halt
ĠHir sch
c u
Ä «
ĠN omin
af el
ĠQ uer
ider s
zug s
ÃŃ a
ĠRhein land
an isch
am ous
ĠK urs
Ġc ulture
ic ed
ed ition
Be vÃ¶lker
ĠPries ter
ĠM ov
ĠVer Ã¤nder
ĠEn s
Ġrep air
gangen en
rÃ¤sent anten
p at
z ur
ĠJahr zehn
be w
ĠDistr ict
ĠSchles wig
un ehmen
ĠP rÃ¤sidenten
ag ra
ore a
ĠNe ust
Ġpat tern
Ġlar gest
k onstru
Ġs agte
em ark
Ġan ges
Ġre chten
ap el
bo gen
ĠfrÃ¼her en
f ung
Ġw ife
ur ts
ol o
ĠEntscheid ung
a ber
ĠB ibliothek
ĠK andid
ĠI N
Ġen dete
eng th
F e
K urz
n icht
n etz
r ik
al ing
ĠR umÃ¤n
ĠAuf nahme
Ber g
l Ã¶
n y
ĠPro t
ĠCh ild
ĠChr on
Ġcar ry
sc ar
ĠIde e
l ike
ĠS oph
ĠD ichter
ĠOlymp ische
ĠChe f
Ġm ount
kt ar
id ae
ĠAn griff
ĠÃĸ k
Ġkur ze
Ġentw eder
is a
il lage
ĠP ersÃ¶n
ers ey
ĠBe ziehungen
ĠFilm s
Ġche ap
ĠdÃ¼r fen
ĠW ett
fÃ¼ hl
Ġfre qu
Ġhom es
ĠA u
Ã¶ die
ph y
Ġbl ue
Ġsogen annte
an en
ĠGe h
20 19
Ġend gÃ¼lt
mÃ¼ hle
or ganisation
ĠT imes
Ġer gÃ¤n
ly wood
ste ht
Ġmoder nen
geord neter
Ġdistr ib
S ehen
Ġp en
ĠK in
os ted
Ġsen se
ĠLeop old
ĠR aj
se ud
ĠAl tern
Ġro ck
Ġed ition
Ġprogr ess
G V
pp ed
son sten
frast ruktur
Ġ @
ste chn
Ġfo ot
ĠVerb and
Ġricht ig
ĠWirk ung
f ast
k rÃ¤fte
Ã Ĺ
Ġ5 1
Welt meisterschaft
ĠJournal ist
ĠP lÃ¤
Ġg ro
Ġthem selves
fang s
lowak ei
gren ze
l u
Ġh our
Ġfin ally
Ġgar den
ĠÃĸffentlich keit
ei ht
ĠOr ient
ke y
Ġher r
Ġhealth y
Ġdev ice
ĠNik ol
z ul
ĠR oss
ic on
ran ch
Ġunderstand ing
ĠA qu
ĠG rÃ¼
Ġex cl
Ġze igte
ĠWider stand
eign et
Ã¤ den
ĠC ard
gl as
ĠLeist ungs
ĠbeschÃ¤ft igt
ĠDevelop ment
f Ã¤lt
Ġd ry
ĠR ath
ĠL ar
men s
lin der
ap h
ĠAb schnitt
bild ungs
Ġsuch en
ĠErz Ã¤hl
ĠParlam ents
Eis hockeyspieler
O P
ĠS tellen
Ġk Ã¼nstler
ver stÃ¤nd
ĠÃ¼ber geben
ĠInternational en
Ġsle ep
ĠAmaz on
J an
T A
te i
ĠJ ones
Ġ4 7
ĠBesuch er
Ġ id
co very
Ġnomin iert
Ġstreng th
tempor ary
B ild
D isk
ĠP en
Ġto wards
ab ase
Ġexist iert
Ġlim ited
ĠId ent
B i
Ġ1 10
Ġp f
ot yp
art ige
Ġverst Ã¤r
Ġbil dete
D r
at oren
ro llen
ĠC op
ru he
Ġwei b
wes ome
Ġein gesch
ĠW es
icht lich
Ġber ufen
gew Ã¶hn
ĠÃľber setz
Ġ189 0
ĠSer ver
It alien
ĠWies baden
ĠvÃ¶ llig
m ail
at re
rie den
ĠThe odor
je kten
ĠPr esse
Ġresp onse
Ġbestimm te
ĠK anada
Ã¤n ner
ven ue
Ġeigen stÃ¤nd
stÃ¼ck e
Ġober en
Ġengl ischen
ĠB M
ĠF lag
ĠK a
ĠC are
Ġst uff
Ġwe ist
Ġad vert
Ġstell vertreten
ĠBÃ¼ ro
H ier
I R
f abrik
st he
ĠChr is
Ġdesign s
ĠMax im
Ġgleichnam igen
= "
p m
ĠF inal
Ġexp ected
ĠWohn ung
Ġrepor ted
L a
ĠTex te
ĠHers teller
D em
L C
b aus
in u
at ives
ĠHe ft
mit glieder
Ġmittler weile
g yp
or ph
ĠB oston
Ġand ers
Ġprodu z
ĠMann schafts
ĠCarol ina
er c
Ġn umer
aus schuss
Ġwe g
ĠZw eit
Ã¼nd et
ĠGrÃ¼nd en
Ġcas es
Ġmot or
it ness
Ġh ar
ĠR ose
ĠZ erst
St ring
ograph ische
ĠM om
ĠG reg
ĠW a
Ġe uch
eb e
In s
pf lege
ĠEnts te
Ġexact ly
ĠF ind
ĠH uman
Ġhe ar
Ġact ive
ĠIns gesamt
Ġactiv ity
fÃ¤l le
Ġment ion
ĠTÃ¼b ingen
Ġt emper
ĠM Ã¶n
Ġpro ced
ilit ary
ĠEhe frau
g ner
s ylvan
onn a
Ġsetz en
ĠTenn is
ĠSowjet union
M on
h u
ĠL ight
ĠUnter nehmer
Ã¤l de
ĠEx empl
ĠStra ÃŁ
ifiz iert
ĠDire ctor
ĠFrei heit
ĠGesund heit
N ov
k ts
he ute
ĠB an
Ġv ierten
ach tet
ĠN ick
ĠV ar
ĠSch lieÃŁ
ste iger
lig isten
ĠQual ifikation
ĠTro tz
H aupt
ess in
Ġverb reitet
ĠHand el
ĠNieder sachsen
ĠRÃ¼ck kehr
Ġmen sch
ĠMuse ums
S A
ur b
ĠE ur
ĠJ Ã¼rgen
ze igen
Ġsp ent
hol m
ĠDon au
Ġess ential
ĠHeraus geber
M in
l ings
Ġm other
st ern
ro ck
Ġz er
Ġz Ã¤hlen
gr enzen
Ġges etz
Ġnah men
======== ========
B es
R ep
at ung
ĠL ord
ĠHer bert
ĠAd d
ĠfÃ¼hr ten
Ġbeein fl
m aterial
Ġh op
Ġst age
Ġplay er
ima tely
Ġsomet imes
Ġs and
ĠS ho
Ġb aby
ĠP ay
Ġl ots
Ġre ve
Ġsp rach
mer ksam
iz en
Ġber Ã¼hm
Ã¶ff nung
ĠDurch messer
ĠWo iwod
in det
Ġk auf
Ġfor der
weg s
Ġs ell
Ã¼ nde
Ġm aster
ĠA ud
ĠW etter
og a
ĠBundes republik
Chr ist
us ed
ĠMon aten
Ġsur round
C om
g ory
ĠT a
ick er
ĠAus land
Er ster
vers ion
Ġass ess
k unst
ĠA P
il ing
ĠF rench
ab teilung
ĠSch iffe
stand ing
ident ial
Ġm il
Ġex press
ball spieler
com es
bere cht
v ision
ĠA ktion
ind ustrie
199 9
Ġbas ic
Ġben utzt
ennt nis
iforn ien
ĠProdukt ions
on ien
Ġs ymbol
ĠF igur
ĠR ol
ob by
Ġapp re
ĠDarm stadt
c an
es is
ĠP ir
ĠF ire
ĠV aters
Ġsp orts
Ã¤r ke
Ġoffer ed
Unter nehmen
ĠermÃ¶glich t
at te
ĠG ymnasium
ĠW ag
Ġwe ather
ader s
Ġschool s
ĠGeist licher
ar ies
ro chen
im ed
Ġal bum
ĠPro te
uss ion
ĠPa ar
Ã¼nd ung
Ġsub mit
Ġthink ing
ĠApp le
ĠMatth ias
w aren
Ġvor gesehen
Ġtr ug
ĠMon at
Ã¤us ern
Ġter m
z te
Ġf ine
ĠM und
ĠH und
ĠC all
ĠAus druck
el f
el or
ĠIn f
Ġ6 00
uar ante
ĠSilber medaille
o ben
r ennt
s es
ĠB ett
Ġg as
ĠBe teil
ĠVor aus
ĠIt al
ĠKon zer
ĠTra in
let te
Ġow ner
Ã¶ nen
Ġk ommun
erk l
hÃ¶r de
ĠGra z
haf te
Ġwes entlich
ĠB ang
im ents
ĠL Ã¶sung
Ġim plement
ap ers
Ġverw and
Ġac cept
alb um
ĠMod el
IN G
ĠAfr ica
Ġausgest attet
D S
Ġp et
ĠH ug
au ten
ues day
Ġ190 3
Ġpolit ical
Ġel f
histor iker
z ust
or i
Ġin stead
Ġn orth
ol ge
ĠO pp
Ġun it
Ġ5 6
199 6
Ġdeg ree
on isten
ing ly
Ġl ern
ĠForm el
sylvan ia
E le
e ur
ent in
tel n
Ġbeg in
piel en
ĠGl obal
latt form
k ins
Ġt ips
ĠG h
ĠR uf
qu es
Ġus es
ĠVor gÃ¤nger
Ġ8 00
Ġbek annte
ĠTechn ology
ĠJo achim
ĠPfarr er
Ġbeginn ing
z one
Ġge mÃ¤ÃŁ
if er
ick e
Ġcomp on
Ġtra de
Ġback ground
Ġown ers
ĠB ab
st ab
ĠF inn
os a
ĠStra f
Ġerweit ert
Ġumben annt
- )
ĠF alls
ĠK ommission
ĠL okomot
ic ate
ĠN ahr
Ġdem and
ce ed
Ġinst ru
Ġann ual
F L
ĠM ig
Ġ5 4
Ġbeg onnen
Ġeinge fÃ¼hrt
Ġein gerichtet
ĠH arr
ic ine
aus gabe
Ġpro fit
ĠSp iegel
ĠBr ig
ous ly
ĠRei hen
ĠKonz ert
ir n
Ġl es
Ġent gegen
ĠPr im
ĠZahl en
Ġdefin itely
ĠWilli ams
le te
id ung
Ġex hib
ĠLe w
Ġacc omp
r t
u ern
ĠRe view
Ġmov ing
inc ip
ĠDah er
ĠBronz emed
den burg
ate gory
Ġaut h
ĠBre ite
f els
i Ã¨
ein anders
ĠA C
ĠM ap
ĠK athol
ĠW unsch
Ġg Ã¼nst
ĠV iele
ĠBild hauer
Ġmax im
ĠFound ation
m ie
ĠR ab
ĠN ight
olog ies
ĠKon zept
ĠLauf bahn
ĠPfarr kirche
Ġcomfort able
Ġ il
rat en
ĠOber st
Ġger ing
ĠS P
re y
ĠL iz
Ġkomp lett
an er
ĠH aft
Ġe ye
Ġpro pos
Ġ8 5
ĠBau werk
urs day
krieg s
ĠAward s
** **
Ġemploye es
S eine
or fen
ĠS ir
ĠB lan
ĠK Ã¶
Ġc ards
lÃ¤nd ischer
augh ter
R A
Å ¾
en gl
as ts
ĠT sch
Ġe igent
Ġre ich
Ġsp end
Ġhe im
up s
Ver b
ĠPre uÃŁ
ĠAlex and
Ġadv ant
ĠFernseh serie
ĠSong s
ĠC a
Ġk ulture
ĠPf lege
ĠFahr er
Ġdeliver y
Ġb row
ĠM ike
Ġwe ar
Or ganisation
ĠRÃ¼ck en
it ude
Ġw ert
ĠB ord
et he
Ġso ft
Ġ190 1
Ġsupp ly
Ġplay ed
ĠS emin
Ġm Ã¤nn
iert es
Ġpol ice
Ġwr ong
e f
ic ing
Ġbe ge
C he
Ġer kennen
ĠRe form
ĠAb itur
Ġ187 0
bur y
Ġtrans fer
Ġunterschied liche
Sehen swÃ¼rdigkeiten
Ġt ried
un s
our ney
ĠVers uch
ĠErw eiter
Ġconsider ed
Ġcent ury
a iled
Ġn utz
ĠL as
ru it
icher ungs
unn y
bed ingungen
Ġaff ord
lÃ¤ss lich
S erie
er te
he bung
ĠEr folge
ĠĠ Ġ
Ġfe hl
ĠSicher heits
? ?
B ar
H o
Ġt Ã¶
ĠW M
ĠKon rad
Ġb rach
Ġp ot
ĠRe fer
ĠMe xiko
ĠFor st
ĠEm il
S k
ĠS ak
al em
al led
ĠBe handlung
Ġ18 48
akt or
ĠIns eln
Ġt ritt
ĠS tellung
ĠD VD
ĠSm art
D AP
V ol
ch ip
ĠD adurch
ion e
Ġh y
ĠW alk
Ġr ates
Ġhol iday
ĠFernse hen
Ġunterst Ã¼tzen
C ont
e hm
g Ã¤nge
m Ã¶glichkeit
y les
is piele
Ã¤ ure
st ad
ĠE vent
ht t
ĠLand tags
pl Ã¤tze
zus tellen
ĠErfahr ungen
ĠjÃ¼d ischen
m ag
w rit
Ġer stellt
ĠLe xikon
ĠOr chester
Ġt ief
an bul
ĠB lo
ann ter
af ft
ring t
part ner
itte e
ĠGeburt stag
Ġapp ly
ĠHand buch
Ġschw arz
antas y
B Ã¼rger
M P
Ġw issen
ed ig
cl ient
Ġkein er
arl ier
c ont
Ġa f
ĠB oy
ĠVer gangen
ath on
Ġserv e
Ġroom s
ĠBevÃ¶lker ungs
National mannschaft
i op
ing ham
ĠL ine
ĠÂ §
Ġs av
ann en
ĠPro ject
Ġ5 3
teil s
Ġstud ies
ĠJo e
P olitik
ro te
Ġp red
Ġe he
ĠEr schein
zen en
Ġcl ub
Ġ190 2
Ġrelig i
Ġsat is
Ġb ot
ĠM ord
Ġsp ot
Ġwas n
Ã¼n sch
ĠgroÃŁ es
Ġ188 0
Ġphot ograph
ĠParte ien
Ġrela x
ĠAutom obil
a ction
v ard
ĠH ay
ou p
Ġle it
ĠGesch ichts
ĠGroÃŁ e
Ġmein er
Ġupd ate
Europ ameister
resp ond
M ich
h aps
ĠH ell
Ġch air
Ġvor bei
ĠFre unde
ĠUnd er
M ot
t aus
ĠT ay
ĠK up
Ġc ash
ĠVer hÃ¤ltnis
ov a
Ġch at
ĠMe cklenburg
Ġ9 9
Ġsc ient
ĠLin ien
ĠBahn strecke
Ġest ate
hÃ¶ he
denkmal e
nes day
Ġpur pose
Ġf iles
st Ã¤tten
ĠT u
Ġc ru
ĠEr ich
Ġj ur
omm od
fÃ¼hr te
Ġvers ehen
Ġlov ed
Ġbenach bar
Ġin f
Ġm ap
ĠR oten
ĠR Ã¶m
Ġl ack
ag a
fol gt
ĠSc iences
Ã¤mp fe
Polit iker
z ell
Ġd ining
od urch
ite ktur
Ã© t
ĠSchl uss
Ġmod els
wor ks
Ġextrem ely
m iss
z ern
Ġin itial
ra k
et ze
Er st
Ġgeb ildet
ĠFil me
ĠNationalsozial ismus
r ische
Ġd ynam
ĠC ost
ĠEr satz
ĠAr thur
ĠJuli us
199 8
Jahrhund ert
ĠUkra ine
ĠSeb ast
Ġin kl
ĠP ast
ol z
ĠT el
Ġge plant
ĠSch ritt
Ġpro p
ĠReg ister
Ã¤ng nis
ĠCam bridge
ĠWeihn achts
w ettbewerb
Ġf ung
ĠA ster
ĠP ow
Ġe yes
Ġst Ã¤r
ĠSp ann
ail s
Ġdire ctor
ĠStre cken
lei hung
ĠSch on
se kretÃ¤r
Ġhe ard
Ġcon ven
ikan ischer
Ġgeg rÃ¼ndeten
it at
ĠD auer
ĠG lauben
Ġbest ritt
Ġpar allel
Ġresp ect
Ġentsprechen de
c en
Ġw odurch
ĠL orenz
ĠJ im
ans as
ĠzurÃ¼ck ge
ĠBen ed
Ġcontin u
ĠUntersuch ungen
ĠM ath
ent ur
ĠL iber
id o
pro fess
ĠKÃ¶nig in
ĠCas ino
P ort
x x
Ġb oy
Ġvers uchte
Ġinc red
ĠZusch auer
E d
S a
Ġs amm
ĠS qu
Ġg olden
Ġge plan
ĠVer antwort
Ġsch eint
Ġhigh est
Ġview s
ĠMad rid
L E
N r
o ire
ĠT Ã¶ch
ĠK ey
Ġcon cept
por ation
ĠHalb finale
Ġgelegen en
ĠBayer ischen
ĠWoiwod schaft
F unktion
ĠT uesday
ber eitung
ĠVer dienst
âĢľ ).
Ġeff ort
ĠKommun ikation
Ġdien en
b rand
s ere
Ġf ight
ĠK iel
ĠN ap
Ġhe ll
l og
t rue
ol i
ĠF ro
Ġsp richt
ov en
Ġ189 8
ĠerklÃ¤r te
Ġrepor ts
wirk ungen
P art
an th
Ġw ild
re in
Ġn ation
gen Ã¶ss
ow l
Ġsh opping
min ton
ĠFahr zeuge
Ġir gend
H istor
aus stellung
ug ies
lie genden
bau er
cel ona
e an
le hre
ro y
ĠZug ang
Ġengl ischer
B el
R Ã¶m
ĠD ok
ĠAn frage
Ġj ud
fÃ¼hr en
ĠÃ¼br igen
s dorf
Ġt ut
or ted
em ann
ĠR ollen
ĠL abor
Ġst ress
ĠZeit raum
Ġpop ul
Ġview ed
Ġdah in
ĠPublik um
k ultur
Ġw inter
st aben
ĠE ll
Ġc andid
af e
ĠSp orts
Ġ5 7
eben e
ĠPf ar
Ġmed izin
ĠFlug zeug
Ġbro ught
prÃ¼ ft
d ach
us band
ĠH oll
ĠVer fassungs
ĠWe imar
aka dem
Ġgemeins amen
k Ã¶rper
ĠS inn
ĠW it
ĠVer letz
ĠBe wohner
St ud
Ġbel g
Ġprogr amm
ĠJack son
ĠSchwer punkt
ĠSÃ¶ hne
Ġtats Ã¤chlich
Ã¤ st
Ġfr ame
omb in
ĠFrie den
Ġoffiziel l
Ġthous ands
ahr t
ĠSp itze
ĠAb d
anz ig
Ġverw enden
Ġviel leicht
Ġ189 5
ĠInde x
Ġd etail
Ġs org
te gy
ist ischer
ant astic
ĠGe walt
ĠCh allen
stÃ¤nd en
anc ing
ĠCD U
akte ur
Ġbud get
ĠWÃ¼rz burg
B y
w s
ar zt
ĠM auer
ĠK ab
ĠC ustom
ĠTh ursday
Ġange legt
ĠFrank furter
ĠMittel alter
Ġb ur
Ġv ict
ĠF iguren
ĠW ohl
Ġ5 8
fÃ¼ gt
ĠDan eben
Ġdev ices
Ġhund red
D igital
Ġm ission
ĠD ollar
Ġac adem
ĠSystem s
ĠEntwick lungs
G u
al tete
ug u
Ġdurch schnitt
ond eren
teil ungen
ath an
ĠWelt meisterschaft
Ver Ã¶ffentlich
ĠEd ward
E hr
w uchs
Ġm iles
ĠK ong
Ġge z
ĠFamil y
ĠCont rol
ĠMÃ¶glichkeit en
ĠHimm el
ĠColumb ia
ĠB aus
ĠM d
Ġc ast
ĠU ser
Ġver ur
Ġver kehr
ĠOr ch
Ġ5 9
Ġfeel ing
ĠChem ie
ĠMicro soft
ĠUnabhÃ¤ng igkeit
ĠBronzemed aille
ver anstaltung
ĠSp ielt
se c
199 3
Ġart ist
urf Ã¼r
pla ce
gestell ten
p ost
Ġan gesehen
ĠSt ab
Ġet abl
Ġfe et
ĠGer icht
grÃ¼nd er
Film ografie
ĠnÃ¤ch ste
in ischen
ĠR ena
ĠUn fall
olog ischer
amil ien
b al
k arten
ar o
ĠK y
ĠL am
ir urg
Ġer le
ĠV ill
ell i
ĠAd el
199 0
ĠSer ien
ic ul
ĠJ ed
Ġsp irit
rÃ¤ gen
ĠPro fil
Ġtra f
Ġdiffer ence
ĠInstit ution
z um
ĠK anz
ĠH um
Ġg ave
Ġer hoben
sp recher
ĠDie ter
ĠAm ster
ons erv
werk en
Ġdise ase
e g
h aben
ĠM id
ĠK assel
ĠC ru
ier er
iz ien
gr iffe
ĠWelt krieges
ĠMet hoden
Ġclass ic
k urs
Ġauf gelÃ¶st
Ġbut ton
ĠMc C
ĠFÃ¶rder ung
ĠVirgin ia
T S
Ġt im
ĠL ook
Ġl isted
Ġde ad
ĠMe yer
ĠgrÃ¶ÃŁ er
ĠGew icht
Pf alz
vors itzen
on ia
Ġs em
ĠM P
ĠP S
ol is
Ġg ren
Ġl ines
iz iner
burg h
Ġob serv
Ġsur face
ĠFunktion en
ĠWed nesday
b und
m eldung
ĠB art
de cken
Ġc lin
ĠL ibrary
ÃŁ ig
ĠSch ach
Ġab geb
Ġeff ects
ĠGerman y
ĠInfanter ie
Ġs ym
Ġw he
as p
Ġan hand
au b
sen z
ost ers
ĠFl ucht
Ġhel fen
ĠTr ib
ĠNational mannschaft
ĠJuni oren
Ġeinzel ne
Ġtar get
D an
te x
Ġf em
Ġh Ã¤tten
Ġbe yond
ĠGesch le
ĠVergangen heit
U r
ĠP ierre
ĠW ay
ĠL ag
Ġro ll
arbeit ete
Ġausge fÃ¼hrt
ĠAbgeord neten
Ġzunehmen d
Ġcorre ct
T C
W ert
c are
Ġf Ã¤llt
de gang
ĠN och
Ġunter halb
oc ol
W il
l Ã¤nge
ĠU fer
ais er
Ġhelp ing
ĠQu elle
schn itts
hard t
sw ald
ĠComm ittee
Ġwa it
Hol stein
ĠB R
ĠC S
Ġim ag
ĠIn tegr
gesch lagen
Ġverschieden er
d h
g Ã¤
ot ional
ĠTh anks
ĠAus nahme
ĠBes ter
199 1
ĠD im
ĠD ank
ĠN ar
ĠÃ¼ber haupt
Ġ7 2
Ġprodu ced
ĠRund funk
Ġeconom ic
S yn
m es
Ġt ransp
ĠB Ã¤nde
ac ity
ĠHe ad
ĠGra d
reg ion
Ġbeh av
ĠAnton io
Ġelect ric
ĠMagde burg
A pp
e ch
p ite
ĠB ert
Ġzu geordnet
lo y
erv ice
ĠInd ien
so ap
ĠMark eting
Ġzwe imal
ĠmÃ¶ch ten
Ġcoll abor
b ad
r ix
er ien
ĠS ud
ĠM io
ĠSch ott
ĠGener ation
deutsch e
ĠÃ¶ffent liche
Ġf lat
st Ã¤d
ĠP R
ir ing
ers te
Ġr ights
Ġwel come
Ġtr uly
Ġbeaut y
Ġadv ice
Ġinvest ment
ĠGÃ¤ ste
ĠB os
rÃ¼ cke
ĠCon c
schei det
Ġblo od
ĠKomb ination
> <
g rÃ¤
m auer
ĠD J
ĠV ideos
Ġletz ter
ĠWei ÃŁen
ĠWeit eren
Ġcou p
ĠS tell
ol ogen
ic ious
ĠZ un
Ġst ates
ia ge
ĠBesitz er
C ar
ĠL ittle
ĠJ ersey
Ġgu ys
Ġw ebs
ar ily
Ġb lieben
ein heit
ĠF un
Ġzum indest
let ter
Ġhistor ische
Ġfac ilities
ĠTÃ¼rk ei
s ichts
y c
Ġc old
be zogen
Ã¤hr ung
Ġmay be
199 7
Ġstark en
ĠS in
ia tely
ĠAr men
ss on
Ġco ff
Ġev alu
Ġ189 6
Ġunterschied lich
ĠBek annt
ĠOrd nung
Ġestabl ished
Ġb atter
Ġn Ã¤her
ĠR io
Ġ9 5
ĠMan y
ĠIngen ieur
chip karte
k Ã¼
Ã ª
Ġ Ã¶stlichen
or gan
ĠH ig
Ġg uarante
ad ies
ĠNe um
ĠEnt wurf
Ġserv ed
hand el
Ġstra ight
Ġkur zen
C ol
Ġf elt
ĠO scar
Ġ189 9
Ġfriend ly
Ġbring t
Ġsett ing
Ġple as
eb urg
Ġent schied
Ġunter sch
olle y
ĠFor um
Ġpre c
ĠHoch zeit
leg entlich
Ġ189 7
bahn hof
Ġkon zentr
ĠCont in
d auer
ar ina
ĠD ist
ĠF Ã¼
âĢĿ ,
sche f
!! !
ĠKommun al
Stra ÃŁe
ĠBenutz er
m and
Ġit em
iss ance
ĠPar ameter
ĠSte phan
Ġover all
Ġexp and
ĠInter essen
Ġpass ion
ĠbenÃ¶t igt
Ġin fo
am i
Ġc amera
arb on
ĠBar celona
N S
h ar
or ff
ĠE as
Ġer laubt
Ġmit einander
stand en
ĠPe ople
199 4
ĠKr ist
zÃ¼ glich
Ġcas ino
N ot
c raft
k ow
ĠT ief
ĠL ot
Ġauf gestellt
ĠModer n
ĠEdu ard
Ã¤ b
ĠF arm
ĠVer anstaltung
ĠRe is
ĠSp itzen
ĠThe ologie
ĠEn glisch
Ġ6 6
kl us
ĠWor ks
Ġnational en
ĠrÃ¶m ischen
Ã¤dag oge
Ġded icated
ĠBarbar a
L auf
h ire
as che
ĠK lassen
Ġl ength
ĠAn y
gel t
Ġbro ad
ĠRost ock
i Ã³n
ol es
ĠT able
ĠK art
ĠLe hre
Ġber ichtet
ĠAnd erson
Ġerh ielten
199 5
Ġbene fit
Ġklass ischen
B ad
i ang
v ens
ie fen
Ġs y
st rom
Ġh il
em burg
ĠH ess
iv als
Ġre li
fÃ¼hr ten
fass te
Ġmet al
ĠHers tellung
akadem ie
C onstants
â Ĥ¬
en ken
ro ad
ĠL eiden
Ġk new
ĠEin heiten
yn ast
ĠOrt es
ĠOp ern
ĠAustral ian
F ranz
T H
w ing
ĠB it
ĠD issertation
ĠK Ã¼n
we ge
Ġ18 60
Ġes c
Ġpre vent
bes itz
ĠGef angen
ĠErfahr ung
Ġstruct ure
l le
us en
ĠE sp
end ar
ĠThe orie
Ġsch ied
ĠAuf lÃ¶sung
wer den
ĠSh op
med izin
ĠGrÃ¼nd er
ĠWieder auf
ĠComm ission
b ell
r ight
ĠH Ã¼gel
ĠR oh
ĠV el
ru p
cy cl
199 2
ĠFÃ¼r sten
Ġdr ink
ĠOff izier
ĠAs ien
ĠFÃ¤ llen
Ġdeter min
M ill
T er
ĠS auer
ĠG riechen
ĠN ationen
os is
qu enz
ipp e
Ġ/ >
ator ium
ĠHar ry
Ã¤m lich
r in
Ġs ituation
al ed
Ġn amed
ĠC ook
Ġver geben
leg ant
Å Ħ
te gra
ĠJ agd
sen s
zen ten
Ġbes itzen
Ġad vent
ĠHaus es
ĠTer rit
lad ung
J ohann
Ġs agt
ĠN a
Ġver legt
ip end
Ġ8 8
Al le
Ã¤mp fer
ĠAfr ika
Ġassoci ated
Ġf uck
ĠV Ã¶lker
os h
ĠLand tag
Ġ6 8
Ġste el
Ġschw ier
ĠMinister prÃ¤sident
Ġinfl uen
K irchen
M B
m ack
or ien
ĠG olf
ĠH av
Ġge kommen
Ġun er
sp ann
ĠBe am
ĠBe ziehung
ipp en
Ġland wirtschaft
B ere
is ierten
Ã¶ pf
ĠGr amm
bl ing
ĠMount ain
p osition
Ġf ans
ĠK amp
Ġne arly
Ġte ams
Ġbas is
arte i
Ġturn ed
ĠEigen schaften
j an
ĠB our
Ġh ers
ĠV ene
Ġun ge
ĠNach richt
Ġpower ful
Ġmot iv
Ġpie ces
Hand lung
Ġchallen ge
ĠSchla f
u ct
zie ht
Ġappro pr
Ġverkauf te
u an
ĠS onne
Ġf ill
Ġf allen
il de
ĠD iffer
ro ugh
ĠC anad
end o
fin ition
Th ese
Ġange gebenen
Ġsol id
Ġerm Ã¶
ĠStÃ¤d ten
ungsp ro
Ġerinn ert
p et
ĠS ymbol
re hens
ro nd
Ġp aid
ĠC A
ĠGeb urts
Ġfind ing
Ġeas ier
ĠPl us
Ġdi agn
# #
u um
ĠS her
Ġh usband
um pf
Ġ6 2
wer ben
gesch oss
Ġur kund
Ġappro x
ĠGest altung
Ġprofession als
ĠVen edig
Vers ion
ĠChin ese
ĠTÃ¶ch ter
l ar
z iger
Ġ !
Ġm is
ĠA L
ol en
ĠG ang
ĠGes ang
grÃ¼nd ung
rÃ¤n kt
ĠJust iz
Ġnotwend ig
Ġm icro
ĠE ven
ĠL ist
gel s
ĠPr ince
Ġho her
Ġuse ful
ĠNeub au
ĠObserv atory
D ar
I E
Ġs ession
Ġb ayer
ĠA achen
ĠP ac
ĠE ugen
ĠL ate
Ġan schlieÃŁ
Ġgo als
ĠTr ump
ĠOb wohl
Ġnumber s
ĠMaÃŁ nahmen
V al
W erk
r iss
ĠF ord
ĠK Ã¼nst
Ġbesch reibt
Ġcommun ication
Ġklein ere
iate ilnehmer
Ġzust Ã¤ndig
i Äĩ
Ġ ign
Ġw achsen
ten ance
ĠR ub
Ġl it
Ġdis k
Ġeben da
ĠÃĦ gyp
ĠPlat ten
ĠAmster dam
C P
ĠN ie
ĠAn gehÃ¶r
ste dt
geb nis
ĠLand schaft
ĠGeb iete
ĠjÃ¼n ger
F ried
ĠB io
ĠD un
ĠP ian
Ġdes k
Ġe at
ĠSp ace
ĠCon ference
ĠWahl kreis
Ġform at
ĠPenn sylvania
W irtschaft
Ġs agen
Ġm iddle
Ġc ell
Ã¼r en
Ã¤nd igen
Ġfin ished
ĠAug sburg
Ã¼t ze
weil er
wend ungen
ĠAktiv itÃ¤ten
O W
R L
or row
Ã¼n fte
Ġen glisch
umen ten
Ġclass es
ĠÃ¶sterreich ische
schlÃ¤ ge
H aus
Ġ Ã¶k
ĠE ind
ĠBer icht
ĠWe ge
ĠWir ken
K rit
ĠM assen
Ġal ter
ell y
ĠÃ¤ uÃŁ
ĠTab ellen
f al
r ast
Ġb la
ĠM isch
ĠM ak
sp rÃ¼
ap y
verein s
ĠRu h
Ġdenn och
Ġf ather
ĠR on
ĠN ah
Ġum geben
Ġ15 00
ĠQ uar
Ġra ce
ĠKal ifornien
er em
Ġf an
ĠM ans
ĠE ach
ĠH as
ĠAn h
Ġj em
ub a
Ġent steht
zeit ung
ĠmÃ¶glich st
ĠPo int
Ġcertain ly
zuf Ã¼hren
F alls
] ,
w all
de hn
ĠP ot
ra p
ĠW ho
ĠR av
ĠL etz
ĠC ro
Ã¶ tz
iel l
atur ing
ĠBr es
Ġstre et
ĠEpis ode
w ise
z in
Ġa wesome
Ġn Ã¤mlich
ĠZ ell
ien cy
Ġvor ge
ĠCon ne
produ ktion
ĠEpis oden
N atur
he il
Ġk Ã¼
ĠMar ien
onen ten
Ġut il
B et
Ġw ants
Ġf amous
ĠP red
Ġ18 50
Ã¤l le
Ã¶s ungen
ĠStud ies
gest altung
Ġnahe zu
ĠDistr ikt
Ġa ren
at om
ent um
Ġad vanced
Ġeinz ig
Ge w
ĠLie fer
Ġsele ct
Ġjob s
far ben
ĠermÃ¶ glichen
P l
P ersÃ¶n
Ã¶ se
ĠJ enn
Ġbis lang
rÃ¤ ft
Ã¤r ung
ĠStra nd
onom ie
Ġchange d
ĠOper ation
Ġhig hl
Ġcrit ical
ĠÃ¤lt este
m or
is tet
ĠSch uhe
Ġzu g
we ist
Ġr ich
Ã¤r chen
form ance
Ġbes aÃŁ
In ternational
gesch windigkeit
Ġsel ber
Ġeinz igen
ĠMich igan
Ġrespons ible
Ġerz Ã¤hlt
ĠDÃ¤n emark
A B
ĠA M
ĠN un
Ġk g
ĠVer anstaltungen
ĠRe port
ĠBereich en
Ġregard ing
renn fahrer
ĠT ats
im in
Ġc ry
Ã¶ gel
iv a
ĠGemein der
ĠLin ks
Ġopen ing
Ġsay ing
ĠInstr ument
L ist
st ock
um a
ĠU t
Ã¤r m
Ġprodu ce
Ġsozial en
Ġcoff ee
ĠA gr
ĠR al
ĠIn itiative
Ġat tend
Ġman chmal
ĠQu adrat
ĠMet al
setz te
ĠBÃ¼ hne
ĠBu ild
Ġmeas ure
b m
i ot
ĠFran ken
ĠAnd rew
Ġret ail
ĠGren zen
Ġocc ur
Ġstat us
kur renz
Ġmean ing
ĠKranken haus
Ġwebs ites
Ġth ank
Ġge eignet
Ġj ournal
land es
Ġcol ors
plat ten
Zw ischen
in ary
ĠE P
ĠH erkunft
Ġer fahren
ĠZ ul
ver l
ĠAn k
ĠEr ste
ĠAr ray
Ġunter en
ĠSte ve
ĠFeuer wehr
ĠImm obil
ĠPortug al
Ġn ar
ol ar
Ġim press
ĠAn spruch
ĠEin richtung
ĠMar g
Ġbet rieb
M art
r uss
in ted
Ġo st
ol as
ĠAuf ent
ĠAus einanders
esent lichen
Ġpat ient
Ġprote ction
p an
er a
ĠK im
ier end
ĠSan kt
Ġincre ased
k Ã¼rz
ĠJ ord
Ġon to
we ich
iz eit
ac c
ix el
Ġthan ks
Jahr en
Ġgriech ischen
f ue
ĠC reek
ĠAnd roid
ĠBar on
Ġmon itor
ĠBÃ¼ hnen
Ġexist ing
Ã¼ p
ĠH Ã¤
ĠH ot
Ġam t
Ġsch affen
ack en
Ġbeg innen
Ġdam age
ĠÂ ·
ĠKont rolle
ĠGrÃ¼nd ungs
Ġcomple ted
S he
ĠS ul
ĠT wo
ĠSp an
Ġsp anischen
ĠGe gner
Ġpress ure
r ischen
Ġs Ã¤m
Ġb ess
ĠA N
ĠSt urm
Ġbes onderen
Re chts
aj a
aill en
ĠRath aus
! )
T ube
ĠC onst
Ġge ist
ĠAn trag
Ġteil s
Ġsele cted
Ġcover ed
M ax
M ilitÃ¤r
an ie
st ar
ung er
ĠH eb
Ġpro ud
ord net
ĠGe werk
ron en
Ã³ w
ĠEng agement
ĠHor st
Ġgemeins ame
ĠpreuÃŁ ischen
ĠHug o
Ġ ?
Ġs ets
ĠC ond
ĠV ari
ĠVer st
ert al
ĠEin richtungen
ĠOr der
ĠBer nd
fahr zeug
Ġkann st
Ġseit dem
Ġhand le
ĠSchn ell
Ġstate ment
Ġexc ited
ĠBras ilien
strahl ung
Ġerstre ckt
M en
Ġf ail
ĠR oth
Ġhe avy
Ġunter scheiden
Ġtra ding
Ġinter ior
ĠEnt fern
ĠBel gien
ĠUntersuch ung
ĠTw itter
f ree
f ranzÃ¶s
Ġb ag
ĠB at
ist ant
ad ing
ĠZ ivil
art igen
ĠMon te
ĠErw achsen
p el
Ä ĥ
ĠP M
sen de
Ġhe at
ĠGe fahr
ĠHe y
ĠFÃ¼hr er
A cc
u tely
| -
ĠM ir
ĠM ake
Ġh ospital
ĠN Y
zeich nen
ĠFre ien
Ġ188 9
Ġitalien ische
ĠFo otball
ĠIst anbul
bie ter
sb ruck
Ġphil osoph
p rÃ¼fung
is l
ĠE conom
ĠI ran
Ġer zeugt
est yle
ĠĊ Ġ
ĠBe ob
fen ster
ĠWe gen
fÃ¼hr ungen
Ġdar aus
Ġber uf
Ġmov ed
ĠPap ier
Ġpresen ted
r amm
w ater
al ity
ĠB latt
ĠJ ava
Ġr ent
gesch lecht
Ġinter pret
ĠJohn son
ĠGegen wart
ĠNet work
Ġinnov ative
ĠRumÃ¤n ien
g on
k ern
ĠD ata
ĠL td
Ġg allery
Ġab ger
ild es
Ġ6 3
Ġ7 8
mar sch
sta aten
Ġwissenschaft liche
ĠBestand teil
R el
b ein
t w
Ġt ree
ĠB ir
ĠG all
Ġge e
ĠEr ic
ĠBe weg
be am
Ġkathol ischen
Ġpromov iert
c onstants
Ġ1 15
ĠG it
ĠR ap
Ġl ab
ow ohl
ust ain
ĠSe kunden
auf tra
urop a
Ġcont ains
Ġverb ess
ĠRo om
ĠPl Ã¤tze
Ġser ver
Ġcour t
Date i
Ġdig it
J ahre
l it
v ater
el ine
ĠVerein igung
Ġ187 1
Ġprote ct
Ġcap ital
Ġclick ing
Ġerr ichtete
ziehungs weise
Olymp iateilnehmer
h es
ĠT aschen
Ġk o
ĠO ther
Ġex ter
je kts
Ġbes etzt
Ġdr iving
ĠmÃ¶glich erweise
ĠBro ok
Ġmethod s
Ġmem ory
. ).
F F
d on
Ġs ter
Ġs itu
ĠB le
Ġsec ure
Ġbedeuten d
dire ktor
ĠD atum
Ġn ames
ies e
Ġr ules
Ġzw eiter
Ġ6 9
Ġgew Ã¤hr
Ġreg ional
ĠStud ie
Ġaufge fÃ¼hrt
ĠSchn eider
Ġbetrach tet
ĠNeust adt
D aten
Ã¶ ÃŁen
Ġbe grenz
erk ennung
Ġte aching
Ġexper iences
Ġ189 2
Ġwind ow
z o
ĠGesch ichten
mus iker
Ġverhinder n
H ein
ĠD rag
ĠH Ã¶ch
lin ois
ste igen
hl on
ock en
yd ney
Ġrestaur ant
Ġbott om
Ġf lieÃŁt
ĠD etails
Ġer lang
ĠSt ift
Ġr ank
ĠAn wesen
ĠSie ben
utz ung
ĠReg ionen
ĠMa jor
Ġget rennt
ĠMan fred
Ġpe ace
Ġexp lor
Ġsen ior
Ġwissenschaft lichen
J ohn
b ahnen
Ġm aÃŁ
Ġv en
Ġein schlieÃŁlich
ĠK ent
em it
rÃ¼ st
stell te
Ġele ments
Ġgest altet
Ġprim ary
Ġachie ve
ĠJos Ã©
w Ã¤l
Ġs uffer
or ient
re h
ĠB alt
ĠC lin
Ġl iber
ĠIn sp
men ten
Ġsp Ã¤ten
ĠOr den
Ġtra ffic
ĠKl im
Ġexper ts
Ġ189 4
haf ten
ĠSa ar
Ġvisit or
ĠAtt rib
plat te
B M
Â ³
it ag
ĠS ei
ik as
ies s
Ġ6 1
ied elt
Ġacc ommod
Ber eits
Ġinvest ig
Ġa ward
re me
ich ert
st il
Ġp assen
ĠH ospital
Ġun gefÃ¤hr
Ġsch reibt
me er
Ã¤nd ige
lo ok
reg isseur
E lement
S ep
S pe
m aschinen
p ommern
â ĪĴ
ĠL ED
ach us
ĠZ oll
ĠAn lagen
ĠAl ph
Ġvor aus
Ġsh ape
ennt nisse
Ġumfass te
J apan
k u
r us
Ã ľ
or ia
ut ing
ber s
ĠJ a
Ġwel chem
icher heit
ĠSÃ¤nger in
B ook
H T
Ã «
al o
Ġal one
ĠSch all
if orm
Ġtechn ical
Ġinstall ation
. /
k at
ĠS ince
re ht
ĠF iction
ir at
Ġan genommen
ĠSe le
fol gen
unter richt
Ġgra de
legen heit
Ġlim it
ĠRegen sburg
ĠRestaur ant
Ġf ein
Ġre ag
ate ver
qu est
erv ation
ĠPh ase
An t
ĠMed ical
ĠMet rop
ĠBach elor
ĠDipl om
Ġnied r
B B
M Ã¤rz
ch a
ĠM i
Ġbe ziehungsweise
ver zeichnis
Ġsch ott
ĠDe ck
her ren
ĠAuf l
Ġqu ant
ĠGesch windigkeit
Te xt
Ġlov ely
Frank reich
C o
O ff
n i
is her
Ġn Ã¶t
ĠK eller
ĠK amera
Ġc ategory
ĠIn t
och ia
dem okrat
Ġ6 7
ĠLÃ¼ beck
u ellen
ĠF els
Ġc atch
Ã¶ z
ess ions
Ġj ourney
An merkungen
Ġele ment
Te am
ĠPat rick
stre cken
best and
ĠZwe ck
ĠMathemat ik
K irche
it is
ĠN ation
Ġl esen
Ã¼r zt
ĠMit arbeit
ĠFor ce
Ġspiel ten
Ã¤tz lich
ĠSchl Ã¼ssel
Ġhoch wert
ĠSec urity
EM ail
wirk ung
Ġswe et
p ot
Ġa head
Ġt rifft
Ġf Ã¶rder
el be
Ġein geb
ĠT en
ĠT ob
os ing
Ġzu k
Ġcon stant
Ġstand ards
ĠHol lywood
ĠKÃ¼ che
k es
ch ern
Ġc ars
ent lichen
Ġe arlier
ĠEin sch
Ġsur v
Ġverpflich tet
us alem
ĠA S
ĠA ar
Ġh aven
Ġwh ose
Ġ7 7
Ġreg istr
Ġtre ffen
mitt lung
Ġdeutschsprach igen
Ġorganiz ations
b ay
ĠM ut
Ġver fasste
ĠVer tra
Ġbeen det
ĠOff ic
Ġmov ies
S pieler
ĠF ood
ĠW ales
ĠSt ory
wer ten
ĠBrÃ¼ cken
Ġtalk ing
Ges ellschaft
Ġparticular ly
Ġol der
F amilie
k Ã¼ste
ĠK am
ĠEr m
ph ase
ĠAb t
ĠIm p
ĠSchw ier
Ġges ellschaft
ĠMark us
ĠAkt ien
ĠBur gen
ĠTab elle
ĠNetz werk
Ġcompet ition
b chen
Ð ²
an ch
ĠA le
Ġfor ms
Ġcon ference
iss es
iet nam
ĠKomp osition
verkehr s
ĠInn sbruck
4 00
n g
w ord
an ia
Ġf at
st al
isch Ã¶
th a
folg ung
ĠPlan ung
Ġren ov
zÃ¤hl ung
Ġnumer ous
O D
c omp
d ar
z unehmen
Ġw ine
us sen
Ġf ish
Ġn am
ĠF ab
ĠK ost
ĠE M
la ted
Ġre asons
ru pt
Ġ9 6
Ġtr ust
Ġwicht igen
Ġbig gest
ĠAfr ican
ĠEt appe
ĠEing ang
ĠWild life
ĠAst ronom
Ġ ðŁ
sch uld
Ã¶ ck
and e
Ġauf gebaut
stell ig
alen der
ĠGroÃŁ herzog
ĠJe ff
ĠLÃ¶ wen
" :
K o
Ġ20 22
uer ung
Ġlook ed
Ġbas iert
Ġgu id
Ġpriv aten
Ġchallen ges
ĠDipl omat
Ġsoc iety
u y
Ġn ut
ĠH Ã¼
ann ed
ĠSte phen
Ġinter act
Ġsc ene
Ġstra tegy
ĠGed anken
Ġconne ction
ĠÃ¤lter en
ĠG itar
ĠSch ne
geb irge
20 20
Ġ9 8
Ġtechn iques
Ġallow ed
ĠSec ond
Ġoffiziel len
k amp
Ġa uÃŁen
ĠG Ã¼
ĠK h
ĠV I
Ġver urs
fol genden
ĠFl Ã¼cht
ĠMa ur
Ġzusammen ge
Ġ189 3
ĠMil ch
ĠAbgeord neter
rond iss
er y
ran che
Ġnot ice
ĠBo ot
Ġrele vant
Ġmittel alter
, ,
P hil
d is
p asst
Ġde te
ĠSp er
Ġsch reiben
Ġsh aring
rat is
Ġqu arter
igkeit s
Ġschw eren
Ġplan ts
ĠDis c
Ġvert rat
G en
o ter
o ul
ĠB em
Ġc entral
ĠSt aff
aut hor
sk a
ĠkÃ¶n ne
ĠursprÃ¼n glichen
Ġnor weg
ĠTay lor
p her
Ġs ing
all iga
Ġst Ã¤dt
od ox
oll ten
lan k
ĠFre ist
app y
ĠBook s
ĠArm y
ĠKarls ruhe
te am
ĠL inz
Ġre icht
ĠSch e
ĠIn frastruktur
Ġsch aff
In sel
gor ith
ify ing
Ġep is
Ġd rop
ĠP ie
ĠK urfÃ¼r
ĠE arl
ĠL ow
Ġre chte
Ġman age
ĠFrie dens
A A
H ere
O K
S PD
U L
k la
o es
r ia
u ters
ĠM inn
ann i
Ġsp read
ĠTor onto
ĠBed ingungen
ĠInform ations
Ġimmed iately
Ġh alb
az in
kauf t
ĠSchriftsteller in
H ome
ĠA ction
ĠT ode
ra uf
ĠC H
ach ed
esch oss
Ġ7 6
ĠGeb iets
let scher
Ġsol chen
ĠInstit uts
ĠIhre m
deck ung
Ġrelations hips
f alt
st um
ra ted
ĠL or
Ġal though
ial e
ĠAuf nahmen
ile y
sh ire
Ġass ign
Ġdevelop ing
Ġexc iting
ĠVictor ia
Ġd aughter
Ġange hÃ¶r
ĠInd ivid
Ġstark e
Ġwa iting
gestell te
Ġelekt ron
al om
ĠA sh
Ġl auf
ĠÃ ł
ĠAm b
ĠAm ateur
ĠEd el
Ġredu ce
Ġautomat isch
ĠArn old
a tely
n ieder
Ġn ennt
ĠW urz
St iftung
imm ungen
Ġ188 8
ĠC apt
ik ations
ĠZ y
ĠPrinz ip
Ġaltern ative
ĠbestÃ¤t igt
S ein
ĠG ipfel
ungs ver
ĠMar gar
ĠFre d
Ġeigen es
Ġ188 5
Ġsur pr
fa ult
M ai
c ient
g reif
k olle
st amm
ĠW upp
Ġan zu
ers dorf
ass ung
ill en
ub il
ĠAr g
Ġcom ments
ĠVor stand
ĠGo vernment
ĠOh io
D u
ro h
ĠW aren
Ġg Ã¼lt
uf er
Ġden k
ĠAr rondiss
Ã¤r ten
Ġcl oud
ĠTod ay
ĠAlb recht
Ġland sc
ĠViel zahl
lehn t
T our
n oten
ĠE w
ach te
ĠVer wand
ĠPro pert
ĠLe arn
ograph ic
ĠBundes staat
Ġcor ner
ĠGraf schaft
ĠNutz er
H inter
P eter
b ing
ĠT rÃ¤ger
Ġis lam
au ert
ĠSp eicher
olog isch
ĠFre il
Ġsc en
upp en
ĠKÃ¶l ner
ĠKÃ¼ sten
besch reibung
ĠChampions hip
Ehemal ige
ĠverfÃ¼g bar
k Ã¶nig
Ġp al
ĠF a
ĠK Ã¶n
ĠL abel
ver teid
ĠRe de
ĠAn forderungen
Ġsp rechen
ĠOr ten
Ġspec ies
Ġ189 1
Land kreis
Ġpropert ies
Ġzie hen
erc ise
n ing
z esse
in ks
Ġt ag
ĠF unk
ĠF ull
ot ograf
pp ing
ĠVer fassung
ĠAl k
Ġsh own
Ġsm ooth
Ġ187 9
istol ochia
Ġfab ric
D DR
c z
r asch
on us
ĠB om
st ift
kt oren
end el
pt on
Ġlight ing
ĠB alk
ĠR auch
Ġcon vers
Ġgu ests
Ġart ists
Dies er
ĠGal ax
ĠGesprÃ¤ ch
ĠSebast ian
achus etts
B en
l itz
r un
âĢ ¢
ĠC ur
Ġbe zeichnete
Ġer mittelt
Ġen h
ĠMin i
ĠBra un
ĠKant ons
ĠMitglieder n
seit ig
Ġmaint ain
Ġeffic ient
Gener al
ĠSonn tag
h Ã¤ndler
Ġg ather
Ġver Ã¤ndert
men d
ap os
St re
Ġste ps
Ġeven ing
Ġop in
Ġjapan ischer
Ġvo ice
ĠRelig ion
O st
w orth
Ġein iger
geb lich
ĠUnivers itÃ¤ten
Ġbit te
Ġverst arb
ĠBot schafter
F B
Ġa p
Ġf eder
ĠK Ã¤
Ġsch rif
Ġent schieden
Ġverb indet
Ġav oid
ĠMich el
ĠCount ry
jahr es
Ġc overs
ĠPass ag
ĠkÃ¶nn ten
Ġjapan ischen
Ġpoln ischen
Ġexpl ore
Ġs ucht
al i
ĠT i
Ġzu ge
ug os
Ġi Ph
art ig
ĠUS S
man agement
ĠBr uch
Ġcol our
Ġbr as
ĠIS O
Q L
Ġw rote
ur ers
ĠD E
ĠT rom
id den
age l
fÃ¼ ll
ĠCl ick
Ġvisit ing
ĠAir port
mot or
ĠtÃ¤ glich
Å Ł
Ġm einen
ĠM oh
ro ph
sch wer
ĠW en
ĠO m
os ite
ĠIn g
Ġbes onder
Ġ8 3
ĠPf ad
Ġdr iver
Ġbegann en
ĠEis hockeyspieler
Ã§ ois
ĠSyn chron
Ġcharac ters
A pril
Ñ ĥ
in us
ie ht
Ġt ruck
ĠB aby
ĠK rie
ĠSch reib
ce an
Ġsh ared
Ġres idents
ĠEurop as
Ġgleich e
Ġstr ug
ĠlÃ¤ uft
ĠInn ov
Schwei z
Ġappropr iate
k ommand
Ġd ank
ĠH rsg
Ġg ran
ĠSch ei
Ġsh all
Ã© d
Ġ8 4
Ġoff izielle
setz ungen
ĠSchn itt
W el
z usch
ĠK ok
ĠR ett
lin s
oc ation
ĠUr laub
ĠAlt stadt
Con tent
Ġzie ht
A kt
a wa
w ich
Ġbe ant
ĠSt imme
eb all
Ġse ven
Ġcan cer
inz ip
Ġverb rachte
Ġcould n
ĠMeister schaften
ĠLebens mittel
Ġcommun ities
Ġconne ct
Ġrad io
er b
re te
und et
Ġe arth
Ġver n
fe ct
ĠWe ber
Ġro b
Ġ10 1
Ġget Ã¶
bau te
ĠNieder lage
ĠMag n
Ġpop ulation
J ust
K unst
ĠG uts
ĠN iger
Ġsp ring
Ġad ult
ĠWil son
sprÃ¼n glich
Ġupd ated
Î ±
Ġs up
ic ians
ĠCh am
Ġte en
Er gebnisse
ĠYou Tube
ĠMot iv
Ġbeh aup
Ġbestehen den
Ġcele bra
al is
ĠF ur
ab geordneter
th aus
Ġcomp rehens
Ġbek ommt
ĠBl ues
Ġvisit ors
ĠKÃ¼ ste
hers teller
RÃ¶m isch
a al
f ir
v ar
Ġf ahren
ter m
ĠP el
ĠT rieb
est ic
Ġab gesch
rom e
rÃ¤ cht
Ġen det
teil te
The y
ĠFl Ã¤chen
Ġdo ors
vers icherung
Ġfact ors
F ahr
ĠB och
ist rÃ¤ger
ĠV og
est and
ger y
sen der
Ġen able
Ġinst r
ĠBul gar
Ġchines ischen
Sep tember
ch or
ĠN ote
ĠU se
Ġst yl
Ġde partment
ĠSp recher
ĠAus zeichnung
Ġhim self
ĠGef Ã¤ngnis
Ġsong s
Ġneigh bor
U p
g han
n itten
ĠW Ã¶rter
ĠWelt cup
Ġmoder ne
ĠFer ien
ĠTemp el
Ġspeziel l
Nov ember
d itions
al ia
Ġb aute
as ien
us k
ĠP os
schaf fen
Ġex ception
Ġdort igen
Ġpol y
ĠTer r
Ġstor es
iar den
ĠAng st
m aschine
Ġt rop
ĠK ino
ĠC er
la ut
ang a
ungs gebiet
lass ung
kl ar
bed ingt
verband es
ĠzusÃ¤tz liche
ĠÅ ł
Ġadvant age
8 00
G o
R uss
d rÃ¼ck
g ow
Ġw ire
ĠS ed
Ġf antastic
st at
ĠV f
ĠRe kord
ĠWe il
Ġ7 4
Ġgo vern
ĠTra g
An halt
ĠspÃ¤ter e
Ġmov ement
Ġengl ische
Ġgeg rÃ¼ndete
Z eich
f un
ĠS ens
ĠB Ã¼r
ĠF ore
ĠAn gabe
ap es
ĠPro jekte
Ġber Ã¼cksicht
ĠAnt wort
Film schauspieler
Ġbisher igen
ĠEngine ering
Ġbehand elt
mÃ¶glichkeit en
c s
u ber
z ens
Ġm ail
ĠT s
Ġc it
ut ch
ĠC ert
ber icht
ĠSt ill
ere cht
Ġaus ger
ib l
ĠAl ters
19 18
ĠOr th
ĠBes etzung
ĠGrund stÃ¼ck
Ġpl enty
ĠWh y
fÃ¶rder ung
U l
c ore
h Ã¼ter
v as
Ġs ample
ĠS ydney
ĠM u
ĠP ul
Ġh Ã¶ren
ra ucht
lie f
Ġeinge tragen
Ġbelie bt
ĠMehr heit
ĠSpielt ag
re gel
Ġerw orben
Ġfre ien
198 9
Ġ186 7
wor ten
Ġnord westlich
ĠGleich zeitig
F rom
es k
ĠS zene
Ġb ought
ĠD ick
ĠG ab
ĠG allery
ĠO R
ĠSch aden
... ]
Ġtr ial
Ġhelp ed
Ġ186 6
Ġpay ment
fÃ¶rm ig
Ġzuf olge
ĠEns emble
L A
Ġs elling
Ġf ear
ĠM uss
ĠD ark
Ġp latz
Ġc ities
ent hal
ĠSt unde
Ġbet roffen
Ġbesch Ã¤d
Ġtop ic
Ġcap acity
ĠS yr
Ġp ow
ĠK alk
ĠV it
sp ur
ĠBe fehl
yste men
ĠHo tels
Ġsl ight
Ġmain tenance
Ġnord Ã¶stlich
ĠKauf mann
Ġfig ure
P C
p ool
Ġd ish
it ors
Ġw under
ĠT onnen
Ġl i
iz er
Ġ7 3
ma ÃŁen
trag ung
Ã¼t ten
Ġgu y
Ġrep rÃ¤sent
Ġzeit weise
ĠAth en
Ġgren zt
O G
a ver
o or
Ġw om
ĠK el
Ġe ight
Ġr at
ĠKl ub
ĠOn ce
ĠWerk en
ĠPort rÃ¤t
Ġbuy ing
E X
M ag
Ġ ĠĊ
Ġt on
ĠG att
ĠW ik
Ġer l
ck te
ĠVer n
Ã¤t t
ges ellschaften
ĠLe ute
ĠMar s
Ġleader s
ĠFÃ¤ h
P lease
c ar
Ġm Ã¼ndet
ĠD IN
Ġc oun
ĠWelt meisterschaften
aw n
off s
ĠSc ot
ĠCor poration
ĠSam stag
ĠMein ung
Ġsicht bar
ei ro
ĠZ o
Ġaus reich
Ġte acher
ĠMar i
ĠWe ek
zeit schrift
lieÃŁ en
gra de
Ġtechn ischen
Ġentwick eln
Ġafford able
S ee
Ġs inn
or o
or p
as i
ĠM inder
ĠE arth
ĠI C
Ġge legentlich
ungs entwicklung
out s
Ġpla ced
ĠPhys ik
ĠTown ship
H z
g in
i ation
y ers
an teil
ĠM obil
Ġver ab
rÃ¼ ckt
Ġsh ot
ĠTra um
Ġaut om
ĠBesch Ã¤ft
Ġmult i
ĠTemp late
adel ph
ĠDiet rich
g ung
Ġ Ã¶rt
ĠB ath
ĠD og
ĠD oc
st one
ĠW Ã¼r
ad i
Ã¤ch er
Ġacc ur
Ġverst orben
Ġgre ater
ĠBist um
Ġd ein
Ġd ance
le ute
Ġp air
Ġn annte
ĠR ied
Ġra p
Ġfre ie
Ġ188 2
Ġrequ ires
Ġgr und
wor fen
ĠEing abe
ĠerÃ¶ff nete
Ġengine ering
ĠpersÃ¶n lichen
ĠSpring er
Ġve get
K arl
v y
is burg
Ġm ut
ĠD ial
Ġein deut
ĠK il
ĠK ohl
ĠV inc
ĠSch nee
Ġ7 9
ĠFre izeit
Ġhier bei
iqu id
Ã¤nder te
ĠsÃ¼d westlich
Ġgr unds
Ġlo an
Ġgeboren e
Ġport ugies
ĠunabhÃ¤ng ig
Digital isat
" )
o ÃŁen
w irtschafts
in ken
ĠS A
Ġ( ;
im ir
ĠH em
art ier
gr Ã¶ÃŁe
ester day
Ġart icles
Ġsec ret
legen heiten
Ġ187 4
Par ameter
ĠRef uge
Ġs hel
qu elle
ok er
hal ter
ĠMe chan
Ġ8 6
St affel
ird s
ĠHil fs
verb indung
Ġpres ident
ĠKup fer
R ock
h ou
ĠB il
st ritten
Ġp ush
ĠIn halte
Ġse at
âĢľ -
Ã¶r g
ĠHoch schul
ĠCl ark
Ġpo or
Ġadd ing
Ġgener ally
Wh ile
G et
P al
P aul
k as
v ollen
ã Ģ
ĠN on
ĠV iz
sp latz
ĠTh ank
Th at
bach er
bo den
Be im
part ments
Ġrem ain
ĠInternational e
gÃ¤n glich
ĠVerÃ¶ffentlich ungen
c ause
p ra
ĠS af
Ġf le
ĠG ord
ow itsch
ly n
Ġ7 1
bereich e
Ġcor porate
Ġpack age
k ar
È Ļ
ĠB am
ĠT un
ĠH yp
igt es
ĠJer usalem
ĠPremier minister
Ġbein hal
ĠG ouverneur
ĠE qu
Ġver gangenen
ĠVer zeichnis
ĠEr Ã¶ffnung
ĠBe hÃ¶rden
ĠSe arch
Ġ8 9
for scher
ĠCo ver
Ġpass ed
Ġpost s
usÃ¤tz lich
ĠGesund heits
ĠBened ikt
W as
g ot
Ġw eder
ĠS or
Ġ1 18
ro d
ol er
ĠR ess
ĠR ainer
ĠL ok
od a
ĠCh ief
ack er
cl ub
akt oren
ĠRu hr
Ġinde x
Ġcla im
r ale
Ġver anst
ĠÃ¼ber setzt
ast rop
ens is
Ã¤nd ers
ĠLe vel
ĠDes halb
ĠBro ad
ĠDenkmal schutz
ĠKÃ¼n ste
ĠM ail
ĠT oten
ges prochen
Ġsh ipping
ĠHe ktar
Ge ografie
Sie g
ĠDem onst
ĠDav is
Ġexist ieren
Ġhinz uge
Ġsozial e
ĠjÃ¼n g
Ġil leg
s l
w Ã¤hnung
ĠG n
Ġg rÃ¼
ĠC EO
op her
hen den
Ã¶r ungen
ipp er
Ġverb oten
rech ung
ĠOl denburg
adelph ia
w ith
ĠW Ã¼rttemberg
ĠL isten
Ġ3 000
iz ont
ĠPro test
Ġent lassen
Ġman ager
Ġ8 2
ĠPre ise
Ġwes halb
ĠprÃ¤sent iert
Ġbus y
3 00
f iel
t own
Ġm ilitary
Ġthe me
ol ph
ĠH ong
Ġk onst
ĠO ster
our i
âĢľ ),
lie gt
be hÃ¶rde
ĠNach wuchs
lan ge
Ġdo ctor
acht ung
ĠDon ald
Ġkeep ing
Ġkomp lex
Ġoper ating
Ġoffen en
Ġwind ows
Ġmittler en
Ġbenachbar ten
C up
K Ã¶nig
Ġb auen
ĠK ot
ĠN az
ad ow
ĠBe aut
Ġpr incip
ma jor
Ġfo otball
iden z
ĠMark e
Ġspe zial
ĠGu ide
fÃ¤ llen
Ġtemp late
ĠKard inal
g age
it age
or ney
re es
ĠVer w
ĠAn f
Ġsh ower
Ġbesch lossen
ĠVerb esser
ĠsÃ¼d Ã¶stlich
hÃ¤lt nisse
ĠMex ico
ĠÃĦgyp ten
J ose
Ġs au
ĠF la
ĠW arn
Ġer b
ĠN ob
ot ic
Ġauf treten
Ġvor wiegend
ins on
Ġsc ore
ĠGroÃŁ teil
ĠRes erv
ĠBuch staben
ĠForm at
ĠMy th
ĠImmobil ien
k ul
ĠH aupts
Ġr u
ss ystem
Ġsh ip
arr iage
ĠZu cker
Ġresp ond
ĠNor wegen
vier tel
ĠTele fon
Ġadmin istrat
Ġinde pendent
Ġsepar ate
BevÃ¶lker ungsentwicklung
ĠF Ã¼nf
ĠK abin
ĠI ron
fen se
Ġres ume
Ġ8 7
Ġev idence
ĠNieder Ã¶sterreich
Ġ188 7
D okument
F ol
Ġle gend
ĠBes onders
Ã¡ s
Ġdist in
Ġverur teilt
b on
i ben
ĠT y
ĠT ony
Ġc ir
ĠR olf
ĠEr richtung
ĠAl te
Ġco ach
ĠTr ier
ĠFot ograf
Ġmag az
Ġlar ger
ĠGÃ¼n ther
st ate
Ġc ivil
ĠH T
ic ans
ĠAll en
Ġinc ome
jÃ¤hr iger
ĠHerr n
Ġsex y
On line
Ġcent re
telligen ce
ĠG il
ĠK Ã¶r
ĠL och
Ġre form
ind ing
ĠÃ¼ber w
elt a
ĠGem Ã¤lde
ĠFre der
ĠVerb reitung
Ġopen ed
J uli
el ess
ĠW y
ĠW rit
ĠJ ungen
ÃŁ er
ib e
tet t
ĠIm age
ĠJu an
ĠHam mer
ĠFahr t
ĠGold medaille
Ġoper ations
ĠKommand o
ĠÃ¤lt esten
Ġdet ailed
Ġindustr ial
ĠÃĦnder ungen
g s
Ġv s
Ġp ull
ĠG reif
Ġc e
ĠIn stall
ĠMar x
ĠGeb ieten
Ġbeg leitet
ĠJuni or
Wer degang
ĠTok io
Ġleit et
Ġbras ilian
sch icht
Ã¶ der
Ġbe coming
ĠBe f
Ġwir kt
Ġwir ken
Ġwas te
ĠAus gang
ĠUm setzung
ĠOn t
Ġac qu
the ater
Ġfac ility
Ġdist ance
ĠColor ado
E B
F r
b Ã¼t
ar film
ĠS z
ĠB od
ĠD ynam
ĠE N
Ġan geschlossen
Ġfor eign
Ġde als
ĠSe en
Ġ9 3
ĠGes ell
ĠEx press
Ġersch einen
Ġgef ert
Ġbr ight
ĠBern ard
ĠKais ers
Ġabsol utely
ĠIl linois
Ġhappen ed
stechn ik
ĠCanad ian
r ian
t yp
as is
ig ers
ĠP seud
Ġfor ce
ĠÃ¼ber sch
Ġvor gestellt
Ġco ast
ĠBundes ver
ĠMÃ¼n chner
jahr en
Ġenjoy ed
ĠerhÃ¶ ht
ĠWag ner
ĠArrondiss ement
E nd
Q ual
Ã¼ gt
el en
ĠM ix
ĠR ats
ed om
Ġus w
rat ing
ĠKl ima
Ġange zeigt
bes itzer
Ġend lich
ĠfÃ¼nf ten
v it
} ,
Â ´
er ung
Ġein s
ĠL ike
Ġge Ã¤ndert
ik es
ei he
ru d
ss el
ĠLie b
ĠBi ograph
ilome tern
Ġvorhand enen
Jan uar
H alb
g asse
Ġd okument
re uth
Ġf arb
ĠN avy
ond e
zeich neten
ĠFe hl
Ġ188 6
Ġrem ove
ĠOl iver
ĠEv a
ĠMaterial ien
Ġcompar ed
n ull
er d
ĠK un
Film titel
Ġsex ual
Ġwatch ing
h as
on line
ĠM ailand
ap est
Ġse a
unkt ions
por ts
Ġinc or
ĠBre mer
Ġtrans form
â Ħ
ĠB ade
ĠP ur
ĠT ot
ĠL yr
Ġk Ã¤mp
Ġ18 00
ĠLe o
auf trag
Ġaut o
Ġaud ience
Ġunbek annt
Ã ¦
Ġt ask
ĠP anzer
ĠK Z
ĠI ts
ĠL angen
Ġun its
ĠAn im
ian ischen
gesch Ã¤ft
Ġrec ords
Ar beit
ĠMark en
Ġdre am
Ġmar ried
ĠHy per
in str
Ġer gibt
Ġk ombin
Ġum ge
ĠFor der
Ġdr amat
ĠDar aufhin
mÃ¤ÃŁ ige
Ġshow ing
Ch ar
forder t
Ġnational e
ĠVarian te
E nde
k B
ar ks
Ġg ain
ĠSch ild
ĠThe atre
ens es
ĠTh or
ĠSe hen
auf t
Ġ9 7
ĠGemein schaft
ĠAnd ers
opp elt
Ġspe ak
herr schaft
ĠGeschÃ¤fts fÃ¼hrer
CD U
Ġattem pt
G l
S E
l iteratur
ĠG U
ĠK itchen
Ġbe we
ver treter
men ge
ast ik
che ck
Ġman ual
form at
reis en
ĠUnter richt
ĠMann heim
Ġeff orts
ĠPolitiker in
Ġpract ices
Ġerforder lich
d atum
z ert
or um
lich em
ĠAn erkennung
ingen ieur
ĠĊĠĊ ĠĊĠĊ
ĠKo operation
ĠRelig ions
N ow
d arsteller
g roÃŁ
t ten
re ten
ĠB enn
Ġ1 17
Ġc ore
Ġg ay
Ġg one
Ġsch lecht
Ã¼nd en
Ġdamal ige
Ġmat hemat
Ġheil igen
ĠLew is
V A
Ġs ister
Ġh ieÃŁ
ul ations
ab end
ĠVer mÃ¶gen
ell es
ĠEin kauf
ens us
Ġ8 1
Ġper man
Ġges te
Ġda ÃŁ
Ġakt iven
yl on
ĠKn ow
ĠColle ction
fre und
Ġcover age
ĠAmts zeit
Ġexpert ise
ĠSchlag zeug
F est
p aar
u v
ĠS endung
ĠB arn
ig ration
ĠO der
Ġle hn
tern al
old ing
ĠGer Ã¤te
ĠWahl en
Ġlearn ed
ĠhÃ¶her en
ĠDou glas
ĠgetÃ¶ tet
ĠS ac
ĠA x
ĠK affe
ĠR ac
ic us
ph il
Ġ188 1
Ġvis ual
weis ung
ĠAre a
ĠKu gel
ĠVerÃ¤nder ungen
b lock
k Ã¼nd
v olution
Ġ </
re pr
Ġan fangs
Ã¼r f
ok us
19 80
Ġex ercise
ĠGem ark
ĠMin ute
ace ae
prÃ¤ senz
Ġlaw s
ĠModer ne
Ġclean ing
umin ium
Ġacadem ic
K W
P e
s ite
Ġin g
Ġf uhr
ĠB Ã¼nd
ĠP as
ĠT ake
ĠG T
ĠK ai
Ġe hren
Ġver teid
ĠÃ¼ber nehmen
Ġgen ug
Sch ule
Ġerreich ten
sw ers
Ġcour ses
Ġpark ing
T od
ĠM A
ĠP ict
ste ine
Ġse eking
ĠEin t
Ġex change
ret ung
Ġ9 2
Ġad just
ĠFran ces
ĠKon zentr
ĠGed enk
ĠHigh way
Ġkur zer
Ġcontra ct
ĠEth n
Fra uen
ļ Ń
Ġin ne
ĠP in
ĠF ast
ĠL ady
Ġis ol
ĠSp Ã¤t
Ġsch uf
ĠEn ter
stra ÃŁen
Ġverl Ã¤ng
Ġbra in
Ġans Ã¤ss
mod ell
Ġdeter mine
ĠDrehbuch autor
ĠiPh one
s ein
en te
ĠD rit
Ġh ast
ĠH amm
ĠC P
ĠC ob
auf nahme
ĠNe use
ĠMod elle
Ġdefin iert
ĠTur ner
Ġorganis iert
ĠStock holm
U nd
or ganis
ĠK ul
ab ilities
Ġis land
ste ig
ĠSp ur
ĠAr istolochia
ĠGe gend
ĠMar burg
formation en
Ġmed ium
ĠRep rÃ¤sentanten
go ing
Ġmein em
Ġtre ten
Mus iker
ĠMagaz ine
f ix
es ota
is p
sch le
Ġl abor
ip es
Ġcon temporary
Ã¼ck en
Ġro of
Einz el
ĠkÃ¶n ig
ĠKl osters
Ġinst ant
Ġsqu are
ĠOrganis ationen
ĠNiederland e
Ġfem ale
: .
B ay
n ight
ĠD id
Ġc art
ĠR un
ĠU RL
ger Ã¤te
ĠRes erve
anc en
umm ern
Ġneg ative
---- ----
Fin ale
Ġcabin et
g i
Ġa st
Ġs ources
ĠB Ã¶r
ĠM B
Ġn ennen
Ġc up
Ġge tragen
Ġse eing
ens burg
atur en
Ġdr ug
schn itte
Ġprepar ed
ĠZus atz
E m
Ġa rab
Ġf inn
ĠB auch
ĠV ie
Ġmehr erer
ĠMus ter
uck s
Ġpolit isch
198 8
produ zent
Ġschl ug
Ġsatis f
D ata
n ab
o use
re ffen
us se
Ġthe oret
Ġdie d
ĠF ox
ip edia
iz ierte
oh ol
ĠMark et
Ġant i
Ġprof ile
ĠÄ Į
zep te
ĠAutob ahn
W ien
ĠS zenen
Ġv ision
ĠD ig
ĠL iving
Ġl ose
Ġsp ect
Ġvers etzt
ĠX X
ĠCo ast
Ġmark ets
ĠGar den
hoch schule
ynast ie
z ed
ĠP ad
Ġh ook
ĠC os
ach s
Ġl ights
ĠO d
our cen
ap ed
Ġse ctor
ĠNach folge
ipp s
ĠPort al
Ġgelegen e
ĠMun icip
Ġbal ance
âĦ ¢
W ill
n s
ĠP rÃ¼f
ĠG a
Ġz ul
ic i
Ġr umÃ¤n
ak on
ĠGra ph
ĠBr ian
Ġstatt finden
mÃ¤ÃŁ igen
ĠDem oc
minister iums
Ġtrat en
Ġfollow ed
Ġzeit genÃ¶ss
Jahrhund erts
ĠBM W
M aler
Ã¤ s
ĠF our
ĠH aw
ĠV ietnam
Ġle ider
me ter
Ġwork ers
ĠBr idge
ĠAut hor
lex ikon
Ġpl astic
ĠJe w
Ġvol unte
ĠStad ion
Ġbill ion
K an
Ġa im
ĠS Ã£o
ĠK rÃ¤
sch irm
ĠZ Ã¼ge
ass au
19 33
ock et
ĠBr ust
ital ien
ĠGrund lagen
Ġact ual
Ġbr ings
Ġchar akter
kn own
Ġdunk el
Schwei zer
Ġs orgen
Ġ1 14
Ġz Ã¤hlte
Ã¶ scht
ĠV ul
ran ten
ĠAd ler
Ġcre am
ĠPer formance
Ġinsp ired
ĠhÃ¶ here
H R
K inder
k ov
ĠL ad
Ġbe auftra
ĠAb stand
ĠAus stattung
Ġknow s
Ġcomb ination
Ġanim als
Ġsus p
ĠEntste hung
/ >
it als
re land
Ġf la
Ġm ist
ĠK linik
ĠAl p
Ġwe isen
pf ul
Ġdire ction
ĠCon gress
Ã¤tz t
Ġextens ive
ĠNikol aus
rÃ¼st ung
b ody
x y
or ps
ar isch
Ġm ental
ĠM iddle
ĠG ot
ut y
ĠW ord
Ġk os
ĠO ze
Ġbes etz
ĠUnter schied
ĠHand ball
Te il
ĠBel g
ĠKo ordin
ĠSchiff s
bra un
ĠMaler ei
Erster wÃ¤hnung
B uch
k w
p rÃ¤sidenten
z it
ĠP u
Ġh off
ĠE ver
ĠL okal
Ġan lÃ¤sslich
ĠSt ol
ĠAn alyse
Ġch anging
Ġval ues
iller ie
ĠstÃ¤r ker
J Ã¤hr
ĠB rie
ĠF ield
ĠL ock
ind ungs
ak u
ia c
ho fer
ult y
Pro zent
Ġschwed ischen
ĠChild ren
ĠendgÃ¼lt ig
D atum
c os
ar ma
Ã¤ fte
ĠM ode
ĠO ption
Ġre ference
ĠVer eine
iz z
auf nahmen
Ġpo et
Ġ186 8
Ġheraus gegeben
ĠDort mund
Inter ior
Ġlok alen
Ġbirth day
ĠMom ent
i ors
ĠB rad
ĠF antasy
ik um
ĠZ iele
Ġpro test
ĠSp itz
ĠCon tent
Ġgu ess
ĠFr ucht
Ġstar ts
ĠWei bchen
ĠSouth ern
wechs elt
R o
w ird
at isch
ĠA ccess
ĠB urn
ĠB atter
ĠW atch
ĠR he
ĠL ein
ĠN R
ĠSt ich
Ġum s
ĠNe ur
Pro gramm
Ġruss ische
ĠGi ov
Ġdoc uments
ĠMik ro
ĠThÃ¼r ingen
cycl op
Ġschaff te
T L
Ä Ł
ĠT ransp
ĠC ommer
Ġso unds
ĠAb stieg
ĠVor bild
Ġet hn
ec utive
St ar
imm ing
ĠInd ones
ĠSÃ¼d afrika
Ġfl ight
Ġ187 3
ĠTour ismus
Ġoper ation
ĠSec ret
ĠSpr int
Ġstrateg ies
ĠViertel finale
W ird
l ight
Ġd inner
Ġb rief
ĠP av
im ens
ĠR ie
ĠR och
ic ian
ver letz
use ums
Ġper haps
ĠRo hr
Ġgl ob
Ġtro ub
ĠGed ichte
ĠBrun o
ĠTschech ien
ĠKonfl ikt
> ,
M ain
ĠF u
am o
ĠK ob
au ben
ag ers
hen de
ĠEs c
uz z
Ġfl u
ĠGott fried
Ġober halb
Ġnov el
H Ã¶r
f as
ĠP fe
eb ens
ĠAl ben
iz ona
ĠOr igin
Ġ7 00
Ġapp oint
ĠMan uel
Ġgleich er
Ġ187 5
Ġprocess es
Ġkor re
ĠNomin ierung
Ġlern te
ildes heim
P lan
e ist
ĠB uk
ĠH op
ĠAn aly
Ġj o
ĠSp aÃŁ
Ġsch eiterte
ĠZe hn
Ġtest ing
Ġcop y
p o
is or
ĠM aschine
ĠD inge
ĠF an
ĠG oth
In nen
ĠEl iz
Ġreal ity
ĠschlieÃŁ t
stag ram
ĠCla ud
bro chen
Ġausgest ra
Ġeconom y
ĠerhÃ¤lt lich
Ġfa ith
ĠAT P
l ein
l ik
Ġb rown
Ġ1 12
ĠSt reich
Ġver tra
Ġne ck
Ġme x
Ġfe aturing
pro jekt
hol der
ĠOff en
Ġ187 6
ournal ist
ĠPriv ate
Ġfav our
ĠKapit Ã¤n
ĠLeichtathlet ik
ĠOrch estra
] .
i agra
on te
ĠG on
sp art
ant in
Ġch airs
arb y
ĠJapan ese
rim in
bÃ¼rger meister
Ġunivers ity
ĠKolle gen
ĠKrank heit
O ktober
à ¸
ĠS ummer
ur i
el ing
Ġ1 13
Ġp m
ĠN am
Ġst one
Ġaus gesch
sp h
aus bildung
Ġsp ons
Ġnach halt
St at
Ġapp e
Ġamer ikanische
ĠMathemat iker
figur ation
ĠQue en
gentin ien
M Ã¼n
P at
Ġs now
ĠB ier
ĠF abrik
ĠG R
am ts
ĠE xt
gen ossen
ien ne
ger Ã¤t
ĠCh ance
lo aded
Ġar m
Ġbef Ã¶rdert
ĠSam uel
ĠRog er
ugos law
W ei
b indung
Ġ1 16
Ġzu gÃ¤nglich
Ġres erv
ĠGemeinde gebiet
ĠJul ia
Ġhand elte
Ġeigen er
athol ic
ĠHalb insel
ĠVerl ust
ĠBres lau
Ġfeder al
v iel
ist ance
ĠJ r
Ġzum eist
rit ts
ĠTh ailand
Ġ14 0
org ungs
Ġloc ations
Me hr
198 4
ategor ies
ĠNS DAP
ĠCast le
ĠHit ler
Ġreli able
J ugend
K ap
g Ã¤ng
ä ¸
ĠP ic
ĠP rÃ¼fung
im o
ent wick
ĠSch au
ĠMar io
Ġra in
Ġger iet
ĠMill iarden
Ġ188 4
ĠDorf es
Ġerfolgreich en
ĠFass ung
ĠNaturschutz gebiet
b ase
Ä Ļ
Ġc ultural
ver lÃ¤ss
ĠCh air
ĠWelt meister
Ġserv ing
ĠSk y
Ġconne cted
Ġenvironment al
- /
K at
h art
Ġe legant
Ġsch Ã¶ne
Ġ18 78
be zeichnung
ĠHand lung
Ġbeste hend
ĠMittel punkt
Ġbestehen de
ĠAth let
lieder ung
Z e
h y
à ¤
Ġf illed
Ġm ale
isch t
and o
we ight
ĠAus bau
int age
vers orgung
kehr t
ĠLie bes
orge ous
Ġklein eren
ifik ations
Ġeduc ational
Ġfocus ed
far be
ĠlÃ¶ ste
P R
m ans
u i
Ġa udio
ĠL yn
Ġdes igner
Ġge langen
Ġr ub
ĠSchw anz
Ġfe e
Ġstud io
ress en
licher weise
Ġinst alled
ĠKap ital
Ġwei ÃŁen
Ġcompon ents
I O
c ard
e en
h ops
Ñ ı
un fts
ĠA D
ĠB ag
ĠP ut
ĠP az
Ġc ounter
Ġge zogen
kt op
Ã© l
Ã¼nst ige
ĠNatur al
Ġrestaur ants
ĠAllgemein en
Ġcomprehens ive
E W
R oman
al in
ĠG ross
ber uf
ĠSch icks
ĠEr furt
ĠGe werbe
Deutsch e
Ġgu est
ĠSk ulpt
Ġ186 2
Ġtre es
Ġpan el
Ġpromov ierte
Ġlau tet
ĠPac ific
M T
b ist
o ir
s ing
en hagen
ĠS now
ĠA cht
ĠB ou
ĠG abr
ĠW ellen
ob jekt
Ġapp ar
Ġschw ere
Ġsur vey
deutsch land
Ġmax imum
Ġd ipl
ĠSt one
Ġunter scheidet
ĠLe h
rat h
Ġ9 1
ĠReich stag
ĠMill ion
iges etzt
Ġeinfach e
ĠDire kt
ĠEinwohner zahl
Ġerrich ten
ĠFil men
ĠAngeb ote
Ġallgemein en
Ġteach ers
F il
m acher
Ð ´
Ġs it
re iter
he ater
us her
ĠD ating
uch er
Ġsupp l
Ġcontin ues
ruct ure
Ġappear s
Ġbreit en
Ġpers p
Disk ografie
Ġmention ed
P lay
T ER
V u
h Ã¤
Ġt aste
ĠD ampf
ĠR ies
ĠC oll
ĠC her
ult an
Ġcont ain
Ġhel pful
ĠOb last
Ġteil nehmen
ÃŃ o
ĠSil ver
fre ien
ĠVerd ienste
tl ere
b Ã¶
p ap
ĠK ohlen
ĠW Ã¤r
av or
lie ger
ĠEin en
rÃ¤ umen
etz ungen
Ġges ucht
ĠSte el
irt y
Ġbef ind
Ġviel fÃ¤lt
leit en
Ġklein es
Ġperform ed
ĠDis ziplin
Ġvol ume
Ġbrand s
Ġestabl ish
ĠGlo cken
htt p
H el
H am
S an
c ious
Ġt ickets
re ck
sch ild
ut ation
ĠC reat
Ġdem onst
ĠBe geg
19 39
uss y
20 21
ĠGemein sam
Ge org
Ġander es
Ġlang sam
ĠDo ktor
ĠRu he
ĠStÃ¼ck e
ĠWissenschaft ler
ĠMagaz in
ĠCharl otte
zust and
ĠPfar rei
I H
T itel
o ted
Ġer geben
Ġunter lag
geb ieten
lan ze
bar er
Ġke pt
ĠSen at
stud ium
ĠLux emburg
H ans
V om
he ber
un sten
Ġm ort
ĠL eder
ir ts
ĠJ ens
sp artei
ĠAn st
ĠSe g
ĠAnd rÃ©
ĠBo gen
rol og
ĠAs ia
ĠEner gy
ĠFel ix
Ġkathol ische
ĠZun Ã¤chst
Mart in
h ai
Ġd Ã¼n
ĠP ots
ĠH enn
Ġge legt
Ġe gg
la ce
ĠRe aktion
ĠAus zeichnungen
In stitut
ĠPr ix
Ġfe ierte
ĠBr ut
ĠMan chester
ĠBundes wehr
Ġerfol gen
aur us
ager ung
ĠGu ard
Auf grund
Ġbelie b
ĠSen ior
Ġleader ship
ĠSchwar zen
eme ister
S im
p st
s Ã¤tze
ur ger
ĠK redit
ik ing
tel finale
Ġr ing
Ġj ava
ĠThe ir
ĠKap itel
Ġest im
Ġassist ance
ĠRena issance
Ġb urn
ein heiten
Ġin nen
ĠW art
lie hen
Ġad apt
Ġmin ute
Ġ187 2
198 7
ĠHa wa
ĠpersÃ¶n lich
ĠPers pekt
ĠNiederland en
ĠZent imeter
Ġurkund lich
Ġapprox imately
kÃ¼rz ung
e per
en ten
in ent
le ide
ĠD ich
geb oren
amm ern
opp ed
ĠGo ethe
ĠPhil adelphia
Ġcolle ct
ĠAlt ar
Ġaccess ories
ĠMÃ¼ hl
ĠMass achusetts
Ġrom ant
r ical
ĠS W
ĠM obile
ĠK av
ĠK inos
Ġc alls
ĠKon stant
Ġhin ten
Ġrem ains
ĠIr land
ĠErweiter ung
Ġzuk Ã¼nft
I mp
f assen
ĠU SB
Ġr ide
ant on
Ġunter gebracht
fe uer
alt ar
Ġ188 3
Ġ186 4
ĠHerr scher
Welt meisterschaften
Reg iment
Ġruss ischer
ĠBot an
ĠmÃ¶ glichen
R ed
ie u
ie ck
Ã¼ h
ĠB ein
ĠF as
Ġ( ).
ĠW hether
ĠR ome
ĠR ober
Ġl ernen
Ġaus fÃ¼hr
ĠUm bau
ĠAnd rea
Ġtechn ische
ĠMill er
Ġpol ic
Ġill ustr
Ġverste hen
Ġing red
s burger
ĠG ymnas
ĠL uz
Ġan sonsten
ag on
Ġges prochen
Ã¶ff net
ĠBes onder
Ġthough ts
ĠKan al
Ġkont roll
Ġveh icles
leb nis
ĠEber hard
N ode
V ert
c our
Ġa u
Ġa partment
Ġw inning
ĠK ro
Ġver letzt
ĠEr ster
fahr ts
Ġ0 1
zw ei
198 6
Ġkomp on
Ġmiss ing
Ġwalk ing
kap elle
Ġcommit ted
ĠZuf luss
Ġposit iv
Mot or
p ie
Ġb Ã¼rger
ĠB lau
ĠP ont
ent liche
ĠSch mer
sp ekt
Ġle ather
iz ist
Ġ9 4
co hol
ĠAd vent
Ġdec ide
ĠRegion alliga
fre ie
Ġsw itch
Ġmanufact uring
Ġsil ver
Ġinspir ation
ĠTrain ings
u ers
Ġa gency
it iat
ĠS we
ion ier
ĠH agen
Ġst ick
Ġst imm
Ġr uh
ĠBe ispiele
ive au
Ġum stritten
ond a
Ġar range
Ġqu otes
igh ted
ett ing
bau en
arr ier
Ġfre uen
Ġ: )
forder ung
pre uÃŁen
ĠWehr macht
k ind
m i
v arian
Ġ ice
es a
le ar
ĠE mer
ach ter
Ġan g
Ġne ut
ĠMar sch
Ġob vious
Ġgeb lieben
Ġval id
ĠTechn ischen
Ġclos ed
frei heit
Ġoption al
ĠpreuÃŁ ischer
Ġzentr ale
Ġlaunch ed
Ġanerk annt
ĠverstÃ¤r kt
Ġkauf te
ĠGriechen land
H i
j u
p oint
ĠM S
ĠD orn
Ġh yp
ĠSch aff
op Ã¤d
od ie
ru gen
ĠAuf ruf
ren ce
Ġtr end
ĠSa al
met hode
ifiz ierung
197 5
197 9
ape ut
Ġbro ther
Ġgesp eichert
ĠTschech os
ĠItal ian
Î ¿
is tern
ar ischer
ĠA y
Ã¤ h
ĠM asse
Ġdie t
Ġ0 4
Al t
Ġfre ige
Ġ186 5
Ġerm or
Ġautomat ically
olley ball
H A
K om
M C
b ett
d ner
Ġd eine
Ġs ustain
ĠT unnel
ĠV ikt
ĠJ ena
ah a
ose x
Ġges und
ĠFor ts
ĠzurÃ¼ck gegeben
Ġ% )
ĠKrieg sende
Ġed ge
ĠAss istent
Ġpract ical
Fernseh film
ĠDenn och
ĠMem orial
ĠSchlieÃŁ lich
F i
m iral
Ê ¿
un nen
us es
le bt
ul in
per iode
ack s
ĠBau er
ĠStud ent
iam i
ĠVerteid igung
ĠKrim inal
ĠBesatz ungs
E very
U C
l iance
t al
w eiten
Ġin tegra
ĠD iam
ĠE C
ĠC urt
men ted
Ġam b
ĠBe cause
tern oon
Ġdar stellt
Ġdis app
ĠPol icy
Mit tel
ommer ziel
ĠHa ar
fil me
Ġtot ally
Ġstellvertreten der
ĠRol and
Ġ iron
Ġo d
ĠK ader
Ġver teilt
ĠAus bildungs
ĠBr enn
Ã¨ s
ĠQual itÃ¤ts
ĠSm all
Ġaff ect
ĠursprÃ¼n gliche
gef angen
Ġwid me
ĠPfer de
bour ne
ĠKath arina
v ideo
er ten
Ġ( ),
ĠH at
ĠV II
Ġy outh
Ġfor mal
Ġj u
se y
Ġtr uth
ĠVerb indungen
ĠReich es
ĠÃĦ hn
197 6
Ġstamm te
ĠAben teuer
ĠProgram me
Ġlux ury
Ġconven ient
ĠJord an
A ccess
H P
L P
T R
Ġs izes
at ischen
Ġm outh
ĠD C
ig s
Ġp ul
ĠH als
Ġbe zieht
ust on
Ã¤r n
ian e
ĠKl ang
ĠBl Ã¤tter
zu ela
ĠOff iz
Ġ187 7
Ġkanad ischer
Ġasp ects
Ġinj ury
B ek
G A
Ġ ..
Ã¤ fer
ra gt
ĠH alt
Ġer ror
ĠN ag
Ġst Ã¤rk
ĠAn z
ĠPr ior
gÃ¤n z
Ġsuit able
Ġadvert ising
Ġdisk ut
ĠEntfern ung
A ss
E E
Ġd az
Ġs um
or ium
ĠP s
ĠF alle
ĠVer stÃ¤nd
ĠFre md
ĠSta ates
Ġpre gn
ĠCar los
Ġimport ance
ĠAuss age
ĠBud apest
ĠMÃ¶ bel
repr ene
S ome
a o
f ein
ï ¼
Ġin stit
ĠB BC
ĠH ope
ver lauf
Ġex amples
ĠEn tertainment
Ġlie fer
ĠUm fang
Ġthere fore
Ġzusammen geschlossen
Ġsol cher
Ġem otional
ĠKn ochen
ĠschlieÃŁ en
scheid ung
ĠEis hockey
ĠKe vin
Ġbestand en
Ġmass ive
Ġsowjet ischen
M o
v inz
te gie
Ã¤ nen
st reit
ĠL em
ĠV ent
iz za
ĠRes te
Ġhistor ical
Ġlo ans
Ġzwe ier
ĠpersÃ¶n liche
ĠFle isch
O V
al and
ĠD NA
sp itze
od ies
ret ch
Ġbef est
Ġag ree
buch autor
Ġworld wide
ĠKo al
ĠSied lungs
Ġocc asion
Ġged reht
ĠPlÃ¤ ne
ĠHÃ¶ch st
N or
j ahre
ig ar
ĠF ans
sch iffe
ach el
ok o
19 30
me chan
ĠTr ust
arch ie
haupt stadt
Ġdeb Ã¼t
Ġwirtschaft lichen
Ġincreas ing
t op
ch o
or ded
un ting
ĠB ret
im ension
ot ions
ĠVer z
ĠSie gen
Ġet h
br onn
Ġbew usst
ĠRegel n
Ġcompet itive
ĠErk rank
Ġcaus ed
Ġflow ers
Ġfertig gestellt
ĠergÃ¤n zt
ĠDrit tel
Ġb au
ĠM ul
ĠM all
ĠD al
Ġn av
Ġst rip
ak et
tell ungs
Ã¶n t
tra ck
Ġgen annte
ilit ation
ĠAll tag
ĠX ML
Ġsur f
ĠÃĸsterreich ischen
endo ktor
Ġerlang te
B Ã¼
H S
Ġt aus
us ted
le ts
ĠB ow
ol t
Ġh arm
ĠL Ã¤nders
ik te
ĠSch uld
Ġj un
ĠAl though
amp s
ĠFre itag
ĠVerb rauch
ĠVers icherungs
198 5
ĠHier bei
ĠAnfang s
verein igung
ĠKol umb
Ġbefand en
Ã¤dagog ik
ĠFert ig
M ont
S m
a ktionen
j amin
n ischen
t te
x id
Ġv ieler
ĠG anz
et a
ab schnitt
ĠVer g
Ġr ule
pt oc
geb Ã¤
ac o
Ġnot es
Ġlie ÃŁen
fahr ten
ĠBand s
Ġpl ug
Ġgef angen
ĠKr one
ĠKol onial
Ġbevor zug
ĠNorm al
emb ly
ĠHei z
Ġzentr alen
national spieler
ĠAnh Ã¤nger
W ind
in ten
ĠA cker
ĠD unk
Ġver haf
Ġman aged
Ġup coming
amt es
ĠverÃ¶ffentlich ten
Ġgar ant
ĠDis ney
ĠIde as
Ġelect ronic
ĠMult ic
ĠGord on
O p
Y our
e ister
Ġs orgt
ĠS ysteme
Ġf rag
st ers
ĠH ildesheim
ent le
Ġl agen
ul iert
ĠSt att
ĠCom ic
Ġjapan ische
Komp onist
u ben
w Ã¼rd
Ã ī
Ġ {
ĠC irc
iz ens
ac ter
Ġen ded
berg s
St a
ĠPar ks
Ġexp ensive
De zember
Ġakt ual
ĠAmer ika
ĠLehr stuhl
Ġhundred s
VerÃ¶ffentlich ungen
k ol
or ter
Ġein gew
ĠAl an
19 70
ĠPol ice
Ġpar ent
Ġfest gelegt
Ġwrit er
He ute
Pr iv
Ġhon est
ĠProm otion
Ġregister ed
ĠThr on
jen igen
profess or
Ġincred ible
b art
e ber
Ġm ont
Ġthe ory
aus geber
Ġab gest
Ġpart ies
ĠKunst stoff
Ġgel b
ĠDaten schutz
Ġwicht iger
ĠMor itz
Ġtro cken
ĠRegierung schef
ĠjÃ¼d ische
Ġschwed ischer
ĠDÃ¶r fer
M useum
S aint
l s
ch i
Ġd oll
Ġin folge
le ucht
st ens
ĠK ohle
Ġz ogen
ĠL il
ĠL ange
Ġbes uchen
rich ts
ĠChr isten
schie de
ĠHel m
ĠRechts anwalt
Ġcal cul
Ġhol te
ĠKategor ien
ĠOs nab
ĠSupp ort
Ġdat abase
merksam keit
Ġaccomp l
Ġbatter y
B rite
L S
in fo
at ische
ĠB itte
ĠP A
ĠH ang
ĠJ ag
Ġan swers
ien te
Ġ18 40
gr at
ĠCh ile
ĠVor stellung
wer tet
tem per
Ġget roffen
ĠAt om
Ġbil deten
Ġern annte
ĠBilder n
ĠGit arr
B aden
Ġs itting
or ation
ĠM ind
st ufe
em an
ĠR ain
19 78
gel Ã¤nde
uk i
Ġdel icious
198 1
Ġ186 1
ĠTre ffer
Ġcomb ined
ĠJes u
ĠOnt ario
k ommun
Ġm arriage
ĠM etz
ĠM ember
ĠD S
Ġp urs
ol id
ĠJ Ã¼d
Ġde fe
alt y
Ġmost ly
Ġhin ein
Ġletz tlich
Ġmin imum
ĠAs ian
ĠProfess ional
For sch
ĠComm on
ĠExp edition
Ġjoin ed
UN G
ĠHoff mann
ĠLi bert
Ġtemper ature
B I
z ellen
an on
ĠD ienste
ig o
ĠL ov
Ġbe wohn
ier mark
Ġk inder
ite ten
ĠMar co
ĠUr ban
ĠPla ce
Ġprevious ly
Ġhous ing
ĠGebÃ¤ udes
Ġauth ent
E t
K ey
a er
ot ton
Ġst ir
Ġsp ending
ĠEx ecutive
Ġval u
Ġtop ics
Ġtradition ellen
Ġtrotz dem
Ġbem erk
ĠKomment ar
ĠEreign isse
c les
f rÃ¼
ch ar
ĠS K
Ġin stitution
ĠA z
ĠC ass
ĠC hen
ĠV il
Ġzu gehÃ¶r
fin der
Ã¤ch te
Ġsc ale
ata illon
Or ts
lam ent
Ne u
ĠVertrag s
ĠVe gas
ĠMotor rad
ĠGÃ¼n ter
ĠM ethod
ĠZ er
ĠEin er
ĠCh rom
ĠAus fÃ¼hrung
Ġapp s
ĠFor est
ĠÃľber sicht
ĠChrist us
ĠGest alt
Ġdiscuss ion
ĠTher apie
ĠRÃ¤ ume
Ġspeziel le
__ __
ĠExempl are
he w
ĠD ance
Ġc row
ĠJ etzt
ĠGeb rauch
Ã¡ r
ĠSÃ¼d west
ĠSk i
lÃ¤nd ern
Ġprom ote
197 7
Ġcond uc
fÃ¶rm ige
K ar
l ach
ĠB row
st rÃ¤ger
ro hr
Ġein gest
sch reibung
ĠSe a
ac ts
pr int
oun ted
ĠAd resse
sport ler
Ġsearch ing
ĠGabr iel
B ox
T ro
v ia
Ġs umm
le utnant
ĠF uld
Ġk Ã¼nd
ĠSch Ã¼l
ĠAn lass
Ġpro min
ho e
ĠGesch mack
ĠBl umen
Ġgesch Ã¼tzt
ect or
ĠTre ffen
ĠRein hard
ĠGemark ung
Ġbe her
Ġk id
ĠAr k
ĠAr me
ĠMus ical
ĠSh ort
ai wan
Ġ% .
Ġmach ten
Ġeinfach en
Ġ185 9
gesetz ten
Ġbreak fast
ĠSom it
ĠSing ap
ĠEigent Ã¼mer
A ustr
F irst
f and
n ern
w irt
al ters
de cke
ĠI reland
ĠL ed
Ġbe comes
ĠZ usÃ¤tzlich
Ġle aves
Ġwor ry
Ġher unter
ĠOber flÃ¤che
ĠEurop Ã¤ische
ĠBereich e
Ġhervor ra
Ġrecommen ded
Ġintrodu ced
ĠMÃ¤nn chen
ĠContin ue
ĠdebÃ¼t ierte
L ebens
U M
w inkel
ĠS ort
ĠS ite
ur ies
Ġf uel
ĠB apt
Ġv ent
ĠT ell
ĠE ro
ĠL uk
ĠV alen
Ġver arbeitet
ru cken
fe ktur
fol io
ĠGl ad
ĠFeder al
ĠverlÃ¤ng ert
S owjet
ĠD arsteller
ĠL aus
Ġst ars
th iop
od ge
Ġ18 49
lo gen
co in
Ġ13 0
ende te
Ġverb re
ĠĊĊ Ġ
Ġgreat est
ĠKreis es
Ġdan ger
ĠNorth ern
ĠEU R
Ġhous es
ĠHeer es
beg inn
Ġbeinhal tet
J o
ein st
ĠE g
ĠL uther
Ġwh atever
ition en
Ġra ised
ĠOber liga
ĠVers and
ĠVers orgung
yr am
198 2
Ġrun s
ĠHin weise
ĠMÃ¼ hle
ĠKommand eur
ĠAust ausch
Ġprem ium
R eich
r unden
he ben
Ã¼ re
Ġm ac
ĠM alt
ĠG ieÃŁen
ach se
eb au
ĠSch we
ĠSch reiben
ĠAl les
Ġ18 30
ĠAb out
ĠÃľber nahme
Ġprocess ing
Ġsmall er
ĠRÃ¶ mer
ĠErinner ung
ĠMaxim ilian
Fried rich
ĠEliz abeth
f angen
Ġa ware
Ġt at
an es
Ġf ly
ĠH inz
ĠW ester
Ġth row
ĠZ auber
los igkeit
res te
Ġrec ipe
Ġprov ider
ĠMon ats
ĠInter pret
Ġtechn ologies
ĠKomp eten
des ign
Ġappear ed
fÃ¤h ig
ĠÃ¤lter e
ĠEnts p
Ġausgew Ã¤hlt
Ġeffic iency
ĠSchwier igkeiten
B rand
d ies
m g
or r
ĠB oth
Ã¶ tt
Ġver an
ĠVor stands
ans ion
Ġapp lied
oh ne
ble iben
Ġany where
Ġgesch lagen
Ġho tels
Ġmin im
Ġgener ation
Ġcontin ued
zir ke
ĠEben so
ĠFreund in
Ġupd ates
fÃ¶rm igen
ĠmilitÃ¤r ischen
reu ung
ĠTi rol
Ġgrunds Ã¤tzlich
Ġausgestra hlt
H ar
S ervice
Ġf oll
ber ry
ĠV ide
ĠJ ar
ĠSt ore
ĠSch atten
19 14
ĠDe ad
ett i
ĠUm gang
ĠJan e
zeug ung
Ġpl Ã¶tz
Ġshow ed
ĠCor ps
Ġmajor ity
una tely
Ġunters ucht
B R
E A
R l
ĠA uÃŁ
ĠD y
ĠT Ã¤n
ĠG ert
ĠW ende
ĠW itten
ic ient
ĠC ry
all as
Ġj ener
Ġvor der
geb iets
Ġher um
Ġdar um
gew inn
ĠOb ama
bild ungen
Ã¼tz te
ĠFr iend
ordin ate
Ġcele br
Ġsurround ing
ĠNahr ungs
ĠPreuÃŁ ischen
writ er
Ġaf ternoon
ĠB ull
ĠB enz
ĠP age
ĠK orea
ĠW under
ĠSt ars
Ġre aders
Ġj ack
end ungen
Ġ10 5
eich ern
Ġger inge
Ġmin or
anc ouver
Ġgewann en
ĠHon or
ĠÃĦr zte
ĠSoph ie
A uss
w eiter
ch el
ro vers
ĠH ad
ĠW at
ĠW inkel
Ġ18 15
Ġme ant
ĠDe kan
Ġbes ucht
ĠEx istenz
ĠAnd ere
Ã¼t ter
Ġerw artet
Ã¤nger ung
ĠLin den
Ġgest alten
Ġgar age
ĠFrei will
ĠmÃ¶ gliche
ĠMinn esota
Hinter grund
m os
Ġa th
it Ã©
Ġw Ã¤hlen
ĠA udio
ĠP osten
Ġp utting
ĠH ed
ĠV as
Ġk aiser
ĠIn stanz
Ġaus gebaut
Ġr iver
Ġle aving
19 20
Ġdurch aus
ĠBer ge
amp e
Ġphot ography
Ġrev olution
Ġdescrib ed
Ġbeeinfl usst
sprÃ¼ che
ĠRuh estand
PersÃ¶n lichkeiten
F ebru
M Ã¶
er ei
Ġd ritt
ĠM esse
ĠD afÃ¼r
ro it
Ġp reis
ĠL iv
Ġst arten
id ad
Ġnach gewiesen
Ġgew eiht
Ġbesch loss
ĠVerb ands
ĠOrt schaften
ĠBar ock
ĠTer ror
Ġ186 9
Ġbuild ings
Ġleben s
ĠunterstÃ¼tz te
Ġdistr ict
ie ge
ĠB ry
Ġo k
ĠK ann
and in
ĠAr izona
ĠBer atung
ute te
ĠUm feld
Ġind ic
uck er
Ġgu itar
ĠParis er
deutsch er
ĠFer r
Ãĸsterreich er
K lass
y ard
ĠF usion
sch ritt
ier endes
Ġis rael
ĠIn stagram
Ġun gewÃ¶hn
Ġi P
Ġum gebaut
Ġent deck
ĠHaupt rolle
zahl ung
Ġakt ive
Ġbo und
Ã¤m m
Ġadv ance
ĠEben falls
Ġocc up
ĠDokument ation
ĠIndustr ial
mosph Ã¤re
Ġobt ain
Ġexcl usive
ĠGiov anni
M at
b in
d el
y o
Ġf ach
il ot
ĠSt imm
art a
ru der
âĢĻ ,
19 28
Ġdies mal
rÃ¤ g
ĠAus schuss
ĠY es
ĠAd v
Ġ12 5
gend es
ĠGeneral major
Ġnieder lÃ¤ndischen
hÃ¶ fe
Ġgelang te
Ġhund ert
Ġdur fte
Ġproced ure
D ire
L isten
S onst
m utter
v et
ĠP le
Ġp apers
Ġ( "
ĠH ave
ĠSch Ã¤d
Ġr ental
Ã¤t igkeiten
geb ra
Ġcomp la
old s
Ġste igen
maÃŁ nahmen
ĠÃľberg ang
ĠNeuse eland
Ġpolic ies
I st
T P
m lich
ĠF ed
Ġc utting
ĠI O
ĠW ars
sp iegel
Ġpro t
Ġne ur
ĠHe ck
als ieger
Ġber u
ĠHand werk
Ġevery day
Ġerw eiterte
ĠfrÃ¼ here
ĠUr sprung
ĠWer be
197 4
Ġangeb racht
Ġspecific ally
Ġaktuell es
inu ier
Kirchen gebÃ¤ude
ĠKonstant in
W ahl
i ierten
k ing
z ut
ĠB og
ĠB uck
Ġg estorben
ĠC hl
Ġan imal
ĠAus wirkungen
ĠHe art
Ġour selves
ĠFran Ã§ois
An fang
ĠStud ios
ĠQu ell
ĠKomp onisten
Ġâ ļŃ
Ġ185 6
ĠWinter spiele
ĠBrun nen
ĠVert rieb
ĠSar ah
qual ity
Ġfil ter
Ġbehav ior
ĠSchott land
R S
p unkten
Ġt om
ĠT am
Ġbe igesetzt
ĠN at
Er zeugt
Ġra il
ĠNord amerika
ĠVerb reit
ĠX V
ĠProdu zent
ĠTechn ologie
ĠBeteil igung
Ġb attle
Ġk irch
ul ate
ang o
Ġse qu
Ġcon cl
Ġres ource
ool s
Ġbef re
ĠWerk statt
Ġgest artet
198 3
ĠGen f
ĠDi Ã¶z
Ġricht igen
Ġcla ims
Ġposs ibly
Ġrepla cement
Ġbeob achtet
Ġneighbor hood
Ġwom it
Ġverhaf tet
T E
h Ã¤usern
k anz
le itete
Ġm ode
Ġv ierte
and al
ĠN HL
ĠSt ipend
op ran
ĠDe f
tell ers
Ġch amp
ĠAuf merksamkeit
ĠHe x
ĠGo vern
ĠÃĦ m
Ġ186 3
Ġfun ctions
Ġpriv acy
ĠKat alog
ĠEv ents
Ġoffen bar
Ġproduz ierte
Ġfung ierte
I K
Ġw al
ĠK orn
ra f
ic z
ĠN AS
Ġde ck
Ã¶r er
Ã¤n glich
ĠAuf tritt
Ġad ults
ĠWh it
Ġben annte
Ġpass iert
Ġgl Ã¼ck
Ġperfe kt
Ġkon kre
ĠBad minton
Ġident ify
Ġfrei will
ĠEvangel ischen
ĠWass ers
Ġstaat lichen
ĠLate in
E FA
a ire
p es
z lich
Ġf unds
il st
Ġc ute
ten nis
sch te
ĠR ug
um es
gen cies
ob i
Ġgew Ã¼nsch
aw ay
Ġverb esser
anc er
ĠKaiser reich
ĠPosition en
Ġfield s
ĠHei de
Ġpaint ing
ĠBesatz ung
ĠsÃ¤m tliche
Ġs a
te en
ĠP i
ĠW ird
ill o
Ġmehr mals
Ġgesch ieht
Ġwould n
gra fen
ĠMill imeter
Ã¨ re
leist ungs
Ġdeliver ed
Ġfeature d
ĠVerantwort ung
ĠKÃ¼nst lern
Ġabger issen
O per
ĠB ald
ĠB arb
sch Ã¼tzen
ĠC in
ei ra
Ġdem on
Ġab stra
Ġ3 60
eld ungen
ank a
Ġdire kten
ĠOn ly
ĠPl ant
ĠGraf ik
ĠPra kt
brÃ¼ cken
ĠPeters burg
ĠCorn el
Ġbrow ser
Ġslight ly
ĠSehen swÃ¼rdigkeiten
Ġp ump
Ġe ating
Ġmit tlere
ab len
ow o
Ġst Ã¤ndig
ĠSp uren
ĠAl f
ĠMit tler
ĠNe ck
ĠEn vironment
inter est
ĠTra vel
ĠFranz isk
ĠAutor in
Ġkind s
Ġverwende te
ĠViz emeister
! âĢľ
D av
b ut
g reg
ch nen
Ġb ab
ein richtungen
ter min
ig i
Ġwar um
ip t
ain less
ĠMit be
Ġcons istent
ĠRes p
Ġsub sc
Ġcre ation
ĠLin col
Ein wohner
ĠJugend liche
ĠBed Ã¼rf
ĠKons erv
Ġtemp or
Ġcabin ets
Ġschwar zen
Ġverwende ten
ĠF act
ĠK i
ul ated
ĠÃ ģ
Ġpla ys
Ġra ise
ari at
ĠMo on
film ung
hÃ¤ng ig
rÃ¤sent ation
druck t
ĠOl iv
F ran
Ġb at
Ã¼ pf
ĠP iet
ol s
Ġc red
ist ungs
ĠJ am
ĠZ DF
ĠRe isen
ht ml
Ġsch m
ok ol
ĠÃ¼ber gebenen
Ġcon text
Ġnoch mals
Ġacc ident
Ġlog o
Ġexec utive
ĠMiner al
vorsitzen der
Ġwidme te
' ,
) -
T rans
b Ã¤
c lass
d ale
Ġg rÃ¼nd
Ġg orgeous
ĠJ Ã¶rg
gen s
ĠAl i
ĠDe leg
Ġch ron
Ġger inger
ĠPart ien
197 2
ĠDire ct
ĠMerk male
Ġintern al
bereit et
Ġagre ement
ĠGirl s
H C
S aison
m den
r isch
Ġb ike
ĠB ene
el ines
Ġp ure
ĠG Ã¶r
sch rank
hr ung
et on
ĠL aden
19 19
ĠAus gaben
amm elt
Ġlie genden
ĠPf alz
ĠPa der
Sie ger
Ġstand ing
Ġbre ite
ham mer
Ġschn eller
ĠSpe kt
ĠZug riff
ĠLes er
Ġhapp ens
Ġricht ige
Ġadmin istration
Ġintegr iert
ĠAnth ony
Î ¹
it as
Ġt ail
le ten
Ġv illage
ĠK G
and y
ĠJ oy
Ġan grenzen
Ġr ise
ĠDe finition
ho b
ĠSchw imm
entr um
zw ungen
ĠInd iana
ĠCl ient
fort unately
Ġ185 4
Ġ185 7
Ġbra ucht
Ġperfect ly
Ġallow ing
ĠDemokrat ischen
ĠSum me
ĠdÃ¤n ischen
L iter
d ung
z usammen
it ate
or er
Ġw ollten
as ka
Ã¤ le
Ġein heit
ĠL ust
and t
ĠJ Ã¤ger
Ġre pe
Ġun c
ĠVer tre
och em
19 46
Ġex cept
Ġunter wegs
Ġ5 000
rat or
Ġ9 00
ĠKl eine
spieler in
lÃ¤ uter
Ġbr ill
Ġcho ices
ĠHistor ic
ĠInnen stadt
Ġlate in
Ġmanufact urer
ĠSpr ung
ĠPak istan
I B
R ennen
ĠB ibel
ol in
ĠW i
ĠW Ã¤l
ĠAn sicht
Ġ3 50
ine a
igh ter
Ġbet reibt
man uel
br id
ĠEx c
ĠGer Ã¤t
ĠMÃ¼n z
Ġdel la
ĠSal es
Ġur ban
apt op
ĠSa tell
Ġ185 8
ZX J
ĠLiz enz
6 00
B ra
R C
Ġ ==
in yl
or ough
Ġb ist
ĠD uring
am ik
ĠR ÃŃo
Ġg laub
ĠJ oh
Ġk onserv
Ġth us
la f
ia de
Ã¤hr en
Ġwo oden
ĠChar ts
ĠKomp onenten
ĠBi ografie
ĠKirchen gemeinde
ĠdÃ¼r fte
Ġconcern s
Ġak zept
Mich ael
Ehr ungen
K e
f uÃŁ
g ert
h ain
Ġder selben
ĠF ellow
Ġc ells
ut a
Ã¶ ll
Ġdem okrat
ĠUn sere
ĠWe iler
Ġgen et
Ġout standing
ual itÃ¤t
ĠKon kurrenz
port al
Ġ0 7
Re zeption
Ġdec ades
Ġown ed
ĠBen jamin
Ġter min
ĠStat istik
Ġredu z
Ġpresent ation
ĠMeer es
yth m
Ġdom ain
ĠMÃ¤nn ern
Ġgee ig
G C
al itÃ¤t
ĠB ran
ĠM iami
Ġer ober
Ġl ived
Ġse ek
19 25
Ġch arm
Ġent worfen
Ġqu er
ogra pher
iker in
ĠKon text
Ã¤nger in
Ġbo ys
ĠmilitÃ¤r ische
ĠAltern ative
ĠSemin ar
Ġinkl usive
Ġsym pt
L og
g io
Ġ icon
Ġb onus
ge legen
Ġp ink
ĠH ind
ĠN ich
Ġl anger
Ġdes ire
ĠNe ues
Ġlie fern
bar ung
ĠTr in
ĠRom a
Ġappear ance
ĠWeiter hin
ĠBon us
n isch
p iegel
Ġin tended
ĠG ard
im b
ĠK oll
em y
ĠC ell
ĠJ ubil
tz t
Ġsign ed
stre am
Ġerfolg ten
ĠErw Ã¤hnung
ĠCamp us
Ã¼ste t
Ġcook ing
ĠVerteid igungs
Ġintens iv
Ġdenk mal
k ette
Ġt end
ĠP okal
and em
Ġab s
ĠSp irit
rÃ¤ um
Ġch ocol
Ġcomp let
Ġro ten
els on
imm y
man ischen
An gabe
ĠTr ennung
Ġstell ten
ĠForsch ungen
ĠIns besondere
ube hÃ¶r
gere chnet
gewand elt
P okal
ĠP L
ĠK ub
af Ã©
ĠEr klÃ¤rung
ĠBe at
Ġsie gte
Ġte eth
Ġmy ster
pro zess
ĠGeb irg
off izier
ĠMen gen
ĠMon ument
Ġgu ter
Ġsur gery
ĠBed arf
ĠKind heit
Ġverm eiden
Acc ording
ĠLincol n
W or
it iv
ĠS itze
Ã¤ hne
Ġst yles
Ġwar ten
Ġ16 0
ĠGesch Ã¤ft
mÃ¤ cht
wend ungs
Ġbekannt esten
spr uchs
Ġmonth ly
ĠEmp ire
Ġuk rain
ĠÃľbersetz er
D C
F ranzÃ¶s
P ark
R enn
Ġin iti
ĠD etail
st ances
ĠE cke
ra iner
ĠH P
ĠW esentlichen
Ġbe ar
Ġk ommerziel
Ġth reat
Ġy esterday
ok a
Ġle hrte
ĠBe h
urr ent
Ġklass ische
ĠÃ¼b lich
Ġreach ed
abil itÃ¤t
ĠGrÃ¼ nen
irurg ie
ĠIntegr ation
ĠB orn
Ġv eter
ĠM Ã©
ĠT ak
sch uhe
Ġsp ann
be cken
lat es
ong o
olog ien
Ġro ut
Ġcl imate
ĠAll gemeine
Pro jekt
ĠFest ung
Ġel imin
ĠTyp s
Ġevangel ischen
ĠKonstru ktion
Ġscient ific
Ġehren amt
D ialog
F Ã¼hr
t lichen
z ing
in tend
Ġa fr
or ges
ur st
us ste
ĠB ast
ĠK upp
ĠâĢ Ļ
ei zer
sp l
Ġsp aces
ĠAuf sichts
ĠPr ice
lag ert
gesch icht
Ġverb lieben
ĠBet on
ĠDes igner
rue ft
Ġmen u
ament o
Ġfund ing
Ġwirtschaft liche
F rÃ¼
Ġs ac
Ġm Ã¤cht
Ġg rÃ¼n
Ġk ing
Ġdes selben
ĠSch Ã¤den
th ese
Ġbei der
Ġsch Ã¼tzen
ĠCh a
ĠMar sh
Ġra di
ĠWest falen
Ġfest ge
ĠLandkreis es
yd ra
Ġentwick elten
ĠAustr ia
Ġnieder lÃ¤ndischer
ĠStaat sp
Vor pommern
rim inal
ĠMiss ouri
Ġmagaz ine
ĠEro ber
D is
c ase
h aven
} .
Ġm anner
ĠA er
Ġp ed
ĠG az
sch les
ĠZ ert
Ġst unning
land schaft
mal en
Ġlie be
Ġshe et
ĠRuss ian
Ġhard ware
pos es
Ġconf idence
ĠMult i
wh at
ĠRail way
ĠBuild ing
h ut
l t
ra hmen
ĠC ott
Ġre ichen
ok oll
Ġ12 00
ĠSpiel s
ash i
Ġbel ief
alle utnant
sta ates
aun a
Bo ot
Ġkanad ischen
ĠIntern ets
Ġnied rig
Ġengag ierte
Ġconsum ers
ĠWupp ertal
b ringen
c or
c iate
n isses
w ein
Ġ Ã¤ndern
on ent
ĠB ush
sch el
ra it
Ġto ward
ass te
ĠDie go
art z
Ġwe chs
Ġact ions
rÃ¤n ke
dienst kreuz
ĠRegierungs bezirk
on ischen
ar is
Ã¤ pst
st es
ĠE ier
Ġc orn
ĠH af
Ġbe at
Ġk ennt
Ġauf t
ok ing
19 44
Ġch osen
amp en
stell ungs
ser ien
iste te
Ġger ingen
ĠSer ge
Ġgood s
Ã¤tz ung
Ġerheb lich
Vol ks
rauf fÃ¼hrung
G ymnasium
I X
J e
h Ã¼tte
Ġ orth
ĠS low
le un
ĠM atch
ĠR up
all o
Ġj ump
ĠEin stellung
ite kt
ĠEn cyclop
ĠVor bereitung
Ġ0 9
Ġgel ingt
Ġstatt dessen
ĠWohn haus
ĠKÃ¼ hl
grenz ung
ĠDemokrat ie
Ġstaat liche
ĠDir igent
ĠEas tern
h armon
i ak
n ik
en ters
ĠS ingles
ĠM ort
ro g
am ann
ĠK ansas
ĠC ivil
Ġaus gewiesen
ĠRe ck
Ġat mosph
mann schaften
Ġro ute
Ġwieder holt
Ġhier fÃ¼r
reg on
ĠChar lie
Ġtyp ically
gress ive
ĠFrei herr
ĠFlor ian
ĠFel der
ĠJac ques
Ġemploye e
ĠKonzer te
Ġpleas ure
Ġopin ion
Tod ay
M erk
N ummer
in th
te ine
ĠB ah
ĠL ern
ĠDe ath
Ġvor genommen
hal f
du ate
Ġgew Ã¶hn
Ġra nd
ĠDr ama
Ġabsol ute
liefer ung
ĠChallen ge
S en
T it
f ranken
s Ã¼d
Ñ ĭ
Ġd ates
un ters
Ã¤ ne
ĠD est
ĠT Ã¤ter
Ġl aufen
Ġzu gelassen
ĠAn bieter
Ġhe ft
Ġad mit
ĠPr int
act ions
ĠSpiel film
Ġvers uchen
ipp i
ific ate
ĠReich en
Ġmin i
197 3
Ġerk enn
Ġsug ar
ĠKandid aten
ĠNap ole
L aut
Ġd icht
ĠS ache
ĠB iele
ĠG rupp
Ġre iste
Ġle ichter
ĠJahr gang
19 10
19 50
Ġch annel
ĠNe xt
ĠZw angs
ins eln
ĠBra z
Ġerfolgreich e
lad imir
ĠPublik ationen
ĠMarc us
ĠHig hl
ĠFreist il
B re
M ore
O ver
S K
Ġm ur
Ã¤ ts
ĠT ran
ĠZ weig
ĠIn v
Ġsch Ã¶nen
age ments
ĠEx pl
ĠÃľber blick
hel ms
ĠSal v
Ġredu ziert
ĠAcc ording
Ġflex ible
Ġbegrenz t
ĠBoch um
ĠbeschÃ¤d igt
F o
d ienste
Ġt oll
ĠS ams
Ġb undes
ĠT auf
ĠW he
Ġk Ã¶rper
Ġauf w
ĠVer sch
Ġne arby
ip er
ens wert
ĠGe legenheit
ĠBer gen
ieren der
ĠSer b
Ġdec isions
ather ine
ĠGu y
Ġ185 5
ros sen
ĠStruktur en
abet es
Ġpresen ce
Juni oren
ĠPots dam
B as
b org
p ed
ĠS F
ĠS ultan
ein richtung
ĠK ond
ic ial
ĠO ran
ĠIn schrift
Ġsp anischer
Ġvor kommen
enn zeichnet
ahl en
ĠAb sol
Ġen tertainment
fl ow
Ġqu iet
Er stellt
ĠOber Ã¶sterreich
ĠSÃ¼d ost
Ġed itor
ĠHar vard
ĠHow ard
ĠHerzog tum
Ġhil ft
ĠOsnab rÃ¼ck
A V
E p
s ub
w id
Ï Ħ
te le
Ġin vent
ĠF ile
Ġge laden
ĠEr langen
Ġle gen
St ation
ĠDre am
Ġbre ath
Ġlet ters
qual itÃ¤t
waren ess
ĠCost a
ĠDok umente
ĠGitar re
D ivision
a ult
m ade
at ra
re z
ĠB ase
Ġn ine
ol ine
Ġh Ã¤ngt
ĠG ur
ĠJ ess
Ġver grÃ¶ÃŁ
19 38
orm s
Ġvor ne
ian z
Ġall eine
Ġgen e
Ġfe hlen
ald o
Ġange passt
ĠHaus halts
Ġ[ ...]
stoff en
Ġcle arly
zentr ums
ĠHen ri
Ġfort an
Ġsicher te
Ġwichtig ste
Ġbedeuten de
Ġausgeb ildet
Ġencour age
Ġenth us
ĠeigenstÃ¤nd ige
BÃ¼rger meister
B ern
H il
K rieg
k ore
Ä ħ
Ð ¼
ĠF itness
ĠG erecht
we iger
par ks
ĠIm per
amil ton
ĠUnivers al
Ġseit her
bach s
ĠDr amat
ival ent
Ġbring ing
iol oge
ĠMount ains
Ġkont inuier
wir ken
ĠJahrzehn ten
ĠFinn land
ĠHoll and
ĠGeschle chts
W ell
ĠT ib
ĠV ision
we ar
art ikel
ĠTh ree
ĠBer ater
Ġreg istration
ific ations
hol en
Ġopt imal
Ġwei ÃŁe
Ġfilm s
isc ons
Ġprepar e
ĠWach stum
Ġepis ode
Ġgefert igt
F eld
in stitut
Ġw ies
Ġf ellow
ĠA gency
Ġ1 19
ĠG Ã¶t
ĠK emp
om er
sch a
ĠW itt
ĠR E
ĠAn teile
ib ilities
qu em
Ġprov iders
ĠChrist opher
Ġappro ved
ĠVe ter
omet imes
okomot iven
ĠFass ade
ĠKop enhagen
ĠWissen schafts
Gr und
frist ig
Ġemploy ment
ĠErschein ung
Ġuntersch rieb
' .
L uther
Ġt ur
Ġv oc
ĠM aus
Ġp oll
ĠF A
ĠG ill
et ch
ĠL P
ĠL ip
au be
me ier
ĠVor teil
Ġar gentin
Ġ0 8
Ġdr ivers
ĠFranz osen
ĠDu isburg
fest ival
RE E
Ġarr ived
Ġdog s
Ġfunktion iert
L ook
v ements
as ks
ĠA venue
Ġh ire
ĠT iefe
ĠH ack
ĠL Ã¶sungen
Ġ18 20
19 11
az itÃ¤t
ĠSpiel ern
ĠfÃ¼hr enden
Ã¼tz ten
Ġac cep
hed rale
ĠWohn ungen
197 1
ĠLuft w
ĠJust ice
ĠSieg fried
onstru ction
inos aur
Ġerziel en
Ġrespons ibility
Ġchrist lichen
ĠAtlant a
ĠPed ro
f indung
k ommission
ĠD ien
Ġc aught
Ġl unch
ĠZ eile
ĠRe formation
ok es
Ġle gt
oth ing
fÃ¼ llt
bo ot
ĠMinister ium
Ġhouse hold
Ġequ ipped
zy kl
Welt meister
ĠÃ¤hn liche
wÃ¼r fe
ĠGreg or
Ġbege ister
ĠInstitution en
p op
Ġ ).
is lat
Ġt ight
ĠP y
Ġbe wegen
ĠEr be
19 27
ial en
ĠSe kretÃ¤r
Ġwill ing
ĠWe is
ĠUS D
ĠAnt i
ĠHar ald
ĠBut ton
ask et
Ġprote cted
war ded
frast ructure
Kurz film
ĠLokomot iven
A lex
c ers
k al
m Ã¼n
n ÃŃ
ĠP ier
ĠG leis
om on
sch Ã¤d
ĠR app
ber ge
Ã¶ te
ĠRe par
Ã¶r te
Ġum gesetzt
ĠPh oto
ĠArbeit sk
zahl t
Ġsign s
Ġaufge geben
ush ing
zus etzen
Ġzie mlich
ĠPfer d
Lin ie
Wil helm
ĠKabin ett
Ġw Ã¼n
Ġf lag
Ġv ul
Ġv ary
Ġv ote
ĠF reis
Ġl ayer
Ġal cohol
Ġge leitet
19 00
ĠEin kommen
ĠBau ten
ax oph
pf lanzen
ĠCon f
Ġbo at
ĠBi ographie
Ġdivers en
ĠDiv is
ĠVort rag
Ġforder te
Ġ 00
Ġs ud
Ġm agn
ĠF inger
ĠG or
ic um
Ġl abel
ĠU C
Ġst il
ĠVer m
Ġ18 46
19 60
ĠAus gra
ren ten
ĠZeit schriften
Ġber ichtete
Un garn
ĠMon uments
Ġmach ines
ĠZe ilen
Ġlead s
ĠKriegs gefangen
Ġarch Ã¤
wal de
Ġproper ly
fir ma
á »
te ger
ar at
ĠB usch
ĠG ift
ĠL av
ĠL ett
Ġl ibrary
Ġge p
ou is
19 34
ĠEin zugs
ure au
out ube
ĠMar cel
ĠPar allel
ĠBl u
ĠSpiel klasse
Ġben utz
glieder ung
ĠPart ie
Ġ185 2
196 6
ĠnatÃ¼r lichen
ĠAcc ount
Ġcloth es
Ġdistrib ution
Ġappre ciate
ĠPader born
R h
ĠP ommern
ĠH allen
ĠR as
ĠR ick
ĠC it
Ġto ugh
ĠN ad
Ġk illed
ĠO ak
Ġde cl
Ġr h
ĠUn ser
19 26
Ġwe aring
Ġum gewandelt
Ġres ol
Ġ10 3
Ġwel chen
ĠBet reiber
ĠIr ish
ĠHin weis
ĠLim ited
Ġcommit ment
ĠDisk ussion
andin av
G H
P ass
ĠM az
ing ers
Ġp Content
Ġk it
Ġge h
ab on
ĠSch uss
ver hÃ¤ltnis
ĠRe ktor
ste uer
ĠGes icht
eth yl
eiter ten
Ġsho es
ĠProv inzen
Ġ185 3
ĠErz bist
Ġsil ber
Ġempf angen
umn i
konstru ktion
Ġlandsc ape
Ġconduc ted
E vent
R ec
ĠB ienen
ĠD B
um ps
ĠC e
Ã¶ ger
Ġk Ã¼nft
ow itz
ou v
ver g
ĠFl orenz
Ġfe els
fahr ens
Ġtr ends
Ġfre und
ĠEhe mann
Ob ject
Ġprakt isch
ĠÃĦnder ung
Ġarg ument
Ġsech sten
ĠPast or
Ġsorg te
iscons in
u is
Ġb an
Ã¼ ch
ĠB ug
Ġc ake
ĠH ass
ĠH ills
ĠC av
Ġk ick
Ġy ellow
ver k
ĠJahr buch
ia e
19 21
19 40
ĠSo ft
Ġsol ar
ĠBar th
Ġmed icine
Ġfamil iar
stre ifen
Ġimpro vement
Ġpurch ased
Ġfit ness
ĠWahr heit
kr ise
ĠSym ph
Ġexpla in
Ġpattern s
Ġappre ci
ĠEind ruck
ĠberÃ¼cksicht igt
D own
E hren
V iew
n orm
Ġf aster
ĠR ic
ĠL ocal
Ġg aben
Ġbe herr
ĠV ancouver
os c
op ing
ĠBe wertung
19 36
nis sen
Ġacc ounts
rÃ¤s id
let ten
Ġstand s
wert ungen
Ġeinge gliedert
ĠUr teil
ĠAnt rieb
Ġple ased
Ġhon or
Techn ische
Ġemer gency
Ġdiscover ed
lah oma
Ġcandid ates
ĠGemeinder at
ĠIO Exception
v org
Ġa kadem
Ġs or
ĠA ge
ra ut
et ime
Ġbe zÃ¼glich
Ġer stellen
ĠN y
Ġk onstru
Ġge fe
ess ed
Ġst abil
Ġsich ern
19 32
ange hÃ¶r
ced es
Ġsupp lies
Ġeff ekt
Ġspe zif
ĠBerg bau
ĠBrÃ¼ ssel
ategor ie
Dies es
ĠBru ce
Ġask ing
Ã¤chs ische
Arch itektur
ĠbeschÃ¤ft igte
Ġbere chnet
Ġpartners hip
ĠAf ghan
Ġlic ense
Ġeigent liche
Ġverbess ern
ĠWÃ¤r me
b undes
f iguren
k inder
n ur
re chnung
Ġ1 11
ĠC arr
Ġvon einander
Ġge lesen
os se
ĠU d
Ġver p
nen nung
ime tern
ĠAd dition
hand elt
ĠBel agerung
esse e
fÃ¤ ll
Ġtest s
Ġherv orge
ĠPrem iere
book s
Fl ug
ĠÃ¼b lichen
Ġsett ings
ĠNic ol
Ġengag iert
ĠInf os
ĠInsp ir
Ġingred ients
W asser
b oy
ĠH altung
ĠH ydro
ĠV ic
Ġan gew
Ġpro sp
ĠAb wehr
iss ions
Ġar ts
igh ten
ĠSk la
ĠPaul o
fÃ¤ llig
ole an
196 5
Ġevent ually
ĠSchles ien
Ġcaus es
ĠtÃ¼rk ischen
gesp ielt
Ġvac ation
ĠWit we
ĠjÃ¼nger en
? )
C al
S chn
d lich
h ten
m Ã¶glich
ie ber
re ens
Ġb order
le vel
ĠB uff
ĠP unk
ĠV irt
Ġan cient
ĠO berg
ust ic
Ġle isten
ĠAr z
Ġbut ter
gesch ichten
ron ik
sk o
Sch utz
ator in
eid ung
Ab sol
Ġsupport ing
ĠWar schau
ĠSchm uck
Ġlo ad
ES T
ĠRob in
ĠPhys iker
ĠPrinz essin
Ġdeg rees
Ġfeed back
ĠAdmin istrat
ĠVene zuela
Febru ar
F uÃŁ
P osted
l ist
t Ã¤
y ou
y ll
Ġa ges
ro st
Ġp or
ĠF erner
ĠG allen
ĠL is
ĠSt u
ĠSch ult
ag u
Ġso fa
Ġad s
cc a
Ġres idential
ĠZw eiter
ĠVol ume
Ġgel ungen
ĠWochen ende
ĠverfÃ¼ gen
gram me
Arch Ã¤
Ġparticip ate
Ġgradu ate
ĠTH E
Ġnutz te
ĠJed och
ĠKurfÃ¼r st
Ġverab schie
R I
l enz
z ule
ĠT ower
ĠK it
ĠH Ã¶l
Ġg ern
Ġbe geg
Ġth ick
Ġauf gel
sp unkt
19 29
ĠAr gentinien
oc ated
fe ier
ren cy
Ġbest immen
ĠKon stanz
ict ions
Ge gen
ĠAnt arkt
ĠJugend lichen
Ġwissenschaft licher
Ġmanufact urers
Ġtele vision
ĠStan ley
Ġinfluen ce
J azz
L o
R aum
g h
p ur
ein satz
ĠR af
Ġdes pite
tel ier
Ġsp anische
ĠGe fÃ¼hl
Ġmus ical
Ġerw arten
ĠZusammen schluss
190 6
Ġdre imal
Ġsen ten
Ġeurop Ã¤ische
ĠÃ¤uÃŁer st
Franz ose
Ġcelebra te
D oc
D enk
L ast
O f
f amilien
n el
le ans
st oÃŁ
ĠG au
ĠK ings
ĠI gn
ĠH aup
ĠL ith
Ġre ar
op en
sp rachen
ap olis
zeit lich
ĠMo ore
EN T
Ġhold ing
Tra iner
ĠĠĠĠĠĠĠĠĠĠĠĠĠĠĠĠ ĠĠĠĠĠĠĠĠĠĠĠĠĠĠĠĠ
Ġgeplan ten
ĠPropert y
m ach
s he
Ñ Į
re ll
ĠM ie
ĠM Ã¤rchen
ĠC hal
Ġge he
ĠU EFA
lin ed
Ġhe aring
Ġent stamm
ner stag
ob s
ĠBer ger
ĠLand gericht
Ġsow eit
Sch on
Ġrec orded
ĠDurch schnitts
ĠPat ri
ĠMain e
Ġturn s
ĠKre bs
ĠBÃ¶ hmen
ĠHoff nung
wach ung
Ã¤rt ner
Ġdenkmal gesch
P an
S ince
T urn
Ã ¯
ĠD amp
ĠI ss
Ġk Ã¼rz
iv alen
Ġge be
ĠAn satz
Ġse emed
rif fe
ĠGesch lecht
ĠPol ize
ĠRes idenz
yr ight
Ġel ig
196 8
Ġkommen den
ordin ary
Ġcloth ing
Ġadvent ure
ĠTschechos lowakei
" -
r ichtete
es ents
te e
an alyse
ĠA hm
ĠM am
ĠG ul
Ġbe it
aus o
cht es
Ġ0 5
ĠMal ays
Ġorgan ized
Ġstehen den
ĠHÃ¶he punkt
ĠTest ament
ĠMach ine
ĠPian ist
fal se
Ġbess ere
Ġenh ance
leucht ung
D ur
L uft
h att
Ã ®
Ġs ad
ge mÃ¤ÃŁ
Ġf f
Ġm ine
Ġm Ã¼s
ĠP ixel
Ġbe er
ĠV illage
Ġj oy
up t
ohn t
ĠNach kommen
ober haupt
ĠKon ferenz
ĠChrist ine
Ġem ph
ĠauÃŁer ord
Ġdisc ount
Ġnational sozial
ĠNeu zeit
wh ile
Ġpoln ischer
Ġther apy
Ġerr ichteten
Ġlif estyle
================ ================
erkl Ã¤rung
ĠAufent halt
ĠstÃ¤dt ischen
1 10
S uper
d orfer
g rÃ¼n
p ear
Î ½
Ġt ub
Ġs in
Ġw et
Ġn a
ĠN i
ĠJ h
ab schluss
inn ers
Ġper mit
elle d
for ce
Ġdire kte
ias ieger
ĠMont real
ĠKe ep
Ġpur poses
ĠKÃ¶nigs berg
lehn ung
ĠBundest ags
Ġrap id
J J
Ġw alls
ĠM au
st Ã¤rke
ĠT an
ĠK Ã¼r
Ġg ifts
and el
ach es
ĠN erv
ĠJ ury
ĠO hne
ob a
auf lÃ¶sung
Ġpr inted
ĠMan ufact
ĠZw eite
Ġag ent
ĠCon rad
Ġgef Ã¤r
Ġrem ote
ĠMo z
Ġter ror
ĠAuss tellungen
ĠEv olution
lÃ¤uf e
Ġpres ents
ĠMuse en
roat ien
angeb ot
ĠAnz eige
H Ã¶
al teten
il deten
ĠP ick
ĠF ell
ĠF unde
ĠG B
ĠG le
ĠN ull
Ġge pf
ĠSch atz
ren ner
Ġco ck
ĠUm satz
15 0
ĠEx tra
enk ung
ĠDurch fÃ¼hrung
ĠMo le
geord neten
verb Ã¤nde
ĠEv alu
Ġvol ler
ĠverfÃ¼ gte
ĠExper ten
ĠerfÃ¼ llt
ĠRaj on
R und
S eite
Ġa chten
Ã¼ hle
ĠD ave
ĠD aily
Ġp asst
Ġc ro
ic als
Ġth read
ĠSt ark
ĠBe arbeitung
ud ing
ĠSe ele
ĠLand s
Ġbes ter
Ġgew id
Ġtra ined
ring er
fahr zeuge
ĠJun ge
ins ichtlich
hand lungs
ĠFe ier
ĠPhil ip
Ġu pper
Ġrest lichen
itu ationen
ĠTyp e
oin ted
Ġlov es
alys is
wh ich
Verkehr s
Ġofficial s
ĠPersÃ¶n lichkeiten
ĠVerbesser ung
c as
d ra
nd orf
ie bel
Ġb owl
st ahl
ĠG la
ten ding
ĠVer handlungen
sp ar
me yer
Ã¼ck e
ĠEn kel
als o
Ġoff ens
hand els
Ġcare fully
Ġcount y
Ã¤mp fung
196 9
Ġmain ly
Ġconsider ing
ĠnatÃ¼r liche
pass te
Ġmeas ures
Ġtal ent
Rel ig
opÃ¤d ie
ĠVerstÃ¤nd nis
A rab
D am
F Ã¼gt
U P
h ungs
k rank
Ġv ital
ĠF ortun
ĠJ en
af eln
id ays
Ġr id
ff e
ĠCh at
ign et
ĠUnter richts
ĠGesch w
min der
ĠSaison ende
Ġdisc ip
Ġchar ges
wissenschaft lichen
Ġconf irm
kan al
ĠLaur a
Ġschwar ze
Ġverg essen
Ġmaxim ale
Ġclin ical
/ *
f i
g alerie
h ome
m ers
is is
il ation
Ġp un
Ġp rÃ¼
ĠR eiter
Ġaus zu
Ġaus gestellt
Ġwh om
ok u
ĠMed icine
Mann schaft
Ġander erseits
Ġmin ing
US A
AN D
Ġiss ued
wor tet
ĠAp ost
ĠAp othe
kor de
ĠÃ¼bern immt
ĠSau di
stad ion
ĠBundesver dienstkreuz
Ġintegra ted
R om
k ommt
l ation
m Ã¤nn
Ã °
in ations
Ġm oral
ĠH C
Ġg od
Ġk rÃ¤ft
Ġge fallen
ĠVer arbeitung
Ġj oint
ĠAl ice
19 12
19 24
Ġch ain
ĠSe gel
ph ones
Ã¤hr ungs
ĠVor lage
ĠFl ach
Ġapp l
fr ies
ĠHand lungs
Ġeinge laden
En g
190 5
onen te
Ġcert ified
ĠPra ct
Verein igtes
ĠNachbar gemeinden
Ġparticip ants
ĠJob s
Ġgraph ic
ĠfÃ¶rder n
Ġappoint ment
ĠMultic ast
Ġvalu able
K ilometer
L ei
M ay
a a
ĠS amen
Ġin fe
ĠB ucht
ĠB ibli
ĠM ang
Ġc erem
ent h
ĠW iesen
ier ra
Ġge Ã¶ffnet
esch ichte
Ġex tended
ĠSie ge
ĠLand gemeinde
Ġad opt
ĠEx ception
Er n
gemein det
Ġexper iment
ĠRes ult
aler weise
ĠBest immung
Sp eichert
kathol ische
Ġrepr esents
gehÃ¶r igkeit
ĠReihen folge
Ġermor det
Ġdemon stra
M any
T emp
W eiter
f Ã¤nger
i oren
l inger
n ische
s inn
Ã ²
Ġs essions
ĠS M
Ġf ruit
ĠP eking
Ġein erseits
Ġim pl
Ġst retch
Ġfor ces
ĠVer leihung
qu ellen
ite e
ĠNe uer
Ã¼ck t
ĠHer zen
Ġgen ieÃŁen
Ġro w
ock el
Ġbek leide
Ġgesch ickt
Ġsupp orts
ĠFin ancial
Ġverl ang
Ġhistor iques
klÃ¤r t
west lichen
ĠCla us
ĠLat in
Ã¶p fe
Ġfix ed
ĠOpp osition
izien z
ĠAlk ohol
g ru
m ir
ĠS i
Ġc os
ier bar
Ġun bedingt
ĠRe ferenz
19 35
ĠReg iment
Ġ10 2
sk ar
mus ter
ĠStud iums
uc lear
ĠMag net
ĠVolks zÃ¤hlung
ĠIns urance
Ġ180 3
Exception Constants
Ġfour th
Reg ion
ĠHu bert
ĠChron ik
Ġinstru ctions
Ġguarante e
e z
Ġa id
or chester
ĠJ ay
ĠIn se
ag an
Ġr an
ib us
Ã¤t tern
ĠCh i
ĠAb ra
Ġqu ote
min a
amen te
alle tt
arch itektur
ĠWh ere
ling ton
Ġsign al
ĠPal ast
ĠSol o
ĠZe aland
Ġsecond s
zÃ¼ gen
Ġvert rieben
ĠRis iko
Ġumfang reiche
Ġdepend ing
ĠPersÃ¶n lichkeit
A re
L ud
T ime
k rÃ¤
Ġt ab
us hed
ĠA B
ĠA ur
ĠA uge
ĠB ible
ĠD ak
ĠP lattform
Ġp ill
ĠT ed
ĠG P
ĠK ay
ĠI owa
Ġl yr
th al
Ġab hÃ¤ngig
qu er
Ġle tt
ĠAl ber
ĠVor schlag
ĠPr ime
Ġ10 7
ĠEx il
ĠJan eiro
ĠVers orgungs
stÃ¤nd ig
Ġcons umer
Pro fess
Ġsur prise
ĠÃĸsterreich s
ĠRuss ia
ĠErw in
Ġverkauf en
Ġeffect ively
Ġmot ion
ĠRos a
Ġinform iert
Ġeigent lichen
ĠGlauben s
verl ust
W A
i ago
Ġs ang
ĠS yl
Ġein ger
ĠL ob
ĠSch al
ĠFl Ã¼ss
gl ing
ett a
ĠEl be
ĠSa arb
Ġabge lehnt
Ġverm utet
Ġreturn ed
ĠVerl Ã¤ngerung
ĠCons ult
Ġqualifiz ierte
ĠTemperatur en
Ġremov ed
Ġconstant ly
ĠÃ¶rt lichen
L et
ig r
Ġn ative
ĠG ol
ĠK ate
ed el
ĠJ eder
ĠO S
os k
ĠEr hebung
ĠÃ¼ber zeugen
Ġman chen
ĠDeutsch es
Ġbeg ins
Ġverb inden
ĠAs yl
ĠWer ft
Ġzahl en
auch en
ĠTre ff
ĠBot schaft
ĠGesetz es
Ġmess ages
Mod us
ĠSchwar zw
wander ung
ĠVarian ten
Ġmensch lichen
ĠPow iat
âĪĴ âĪĴ
ĠFrances co
Ġchocol ate
K ur
L ink
Z wei
u hren
Ã ĥ
in cl
on c
ĠN Ã¶rd
ĠSt or
ĠTe en
ĠTe uf
ĠÃ ©
ĠAb b
iss a
iss ippi
ĠIt aly
ĠGr Ã¶ÃŁen
Ġsupp orted
Ġfound ed
Auf gelÃ¶st
Ġter rit
Ã¤m mer
Ġfact ory
ĠDi agn
Ġair port
ĠFÃ¼hr ungs
Ġhost ing
ĠAsp ekte
ĠFranzÃ¶s isch
Ġinstr ument
ĠSchÃ¼l ern
ĠBiele feld
F S
R ichtung
S zene
f isch
Ġd ick
Ġf ishing
ĠM Ã¼ndung
im it
ĠH us
ĠZ one
ial s
fe hlen
ivers ary
ĠVor name
ake te
Ġdar stellen
Ġausge prÃ¤
Ġcolle cted
AT O
ĠSand stein
zy linder
Ġcall ing
ĠPlay er
ĠKult urg
Ġpersp ective
N C
O s
T B
c us
Ġs ides
us ing
Ġein gebaut
ed ing
ĠC C
Ġbe zogen
est on
Ġauf s
Ġr asch
ĠEr gÃ¤nz
19 37
Ġat tended
oc o
rich tet
Ġpla te
ĠFre unden
ĠFre ude
ĠEd in
Ġnun mehr
Ġcho osing
Ġfact or
Ġbuy ers
Ġregion alen
Ġzuf rieden
tor hÃ¼ter
ĠerfÃ¼ llen
ĠRett ungs
ĠFertig stellung
V ideo
m il
t im
Ġw inner
Ġf Ã¤hrt
ĠT ank
ĠG lÃ¤
ĠK rÃ¤fte
ĠW end
Ġan b
sp rechen
ĠSp alte
ant es
ungs ort
Ġcon fl
amm lungen
Ġother wise
Ġehemal s
fÃ¤ llt
ĠSw iss
bÃ¼ ro
ĠerklÃ¤r en
sprach ige
ĠFreund schaft
ĠPsych ologie
Ġorigin ally
Ġbedeutend sten
f ers
ĠS EO
ĠK ilometern
Ġg g
ĠSt aub
kt ive
ver teilung
og ramm
Ġr ies
ĠAl uminium
Ġunter schieden
ĠSe ch
Ġfe hlt
sk op
ĠChr istent
unk er
ĠChrist i
ĠOn kel
ĠEm ail
ĠLu is
Produ ktion
Ġrecogn ized
ĠBundest ag
Ġbayer ischen
Ġeindeut ig
Ä Ĺ
Ġa gr
Ġt iny
Ġh all
ĠF uchs
ent schieden
ĠR it
Ã¼r tel
ĠO regon
ab a
Ġde pos
ĠRe zept
ĠAr ena
ac ional
fl Ã¼sse
haus e
ĠAd l
bau werk
Ġbef Ã¼r
Re ad
Ġben ch
ĠMittel feld
ĠAnt ike
Ġhistor ic
ĠHeimat stadt
Ġimpro ved
Ġmeisten s
kn Ã¼p
Ġjeder zeit
emin ar
kathol ischen
nehm ern
Ġrepla ce
leis tet
ĠDet roit
cu ador
Ġwhe el
franzÃ¶s isch
Ġausreich end
Ġhinzuge fÃ¼gt
r ufen
or able
ge ist
Ġf asc
ĠA V
ol stadt
ĠH ut
ĠR Ã©
ĠL ay
ĠN ature
ĠJ immy
Ġauf merksam
sp rech
19 22
Ġme al
erv ers
ĠSo f
akes pear
ĠPlan et
Ġhei ÃŁen
Ġevangel ische
ti rol
ĠWett kampf
F ach
l isten
ur ist
ĠR in
ĠC ann
ĠV orm
Ġk Ã¼nst
eb el
Ġ18 47
19 13
Ġcon v
Ġbes ie
oun ge
ĠStra teg
pf alz
ĠPer u
Ġcar ried
iat hlon
ĠText il
190 9
ĠFlor a
Ġdou bt
B und
G ar
P ress
V ier
l ler
l uft
n ord
ĠD Ã¼
ig sten
ĠR eit
ul der
ĠSch er
id i
Ġbeg rÃ¼nd
ĠTra ck
Al so
ĠCl oud
ĠWohn zimmer
ĠAlb ums
ĠKÃ¼ chen
ĠGet re
ĠEntscheid ungen
Ġregular ly
Ġumfang reich
Ġproced ures
iÃ¨ re
Ġjem and
W E
W ar
Ġw Ã¤ren
ar mee
ĠM ob
Ġn Ã¤chst
ĠF ame
ĠE b
ĠH amilton
ĠL ac
ĠC onn
Ġe ast
Ġsp ac
ĠBe cker
Ġte a
ong s
Ġcomp lic
ĠStadt gebiet
ĠMa j
Ġ10 6
Ġber aten
br unnen
Ġsk ill
Ad d
Ġsetz ten
Ġresearch ers
war f
ĠFel sen
ĠgrÃ¶ÃŁten teils
ĠBahnhof s
vo gel
Ġtw ice
Ġprint ing
ĠStreit krÃ¤fte
verteid iger
F iction
P M
P op
R hein
ar ett
ĠS ke
st yp
ĠP ool
ĠF ul
ĠW Ã¤hler
ĠC oup
ĠSch um
ĠVer f
be vÃ¶lker
hl ing
ges prÃ¤
ĠNord west
ĠOst preuÃŁen
Ġheraus ra
190 7
196 7
ĠTur k
ĠChem iker
Ġfal sch
Ġlink er
kur renten
Ġerinn ern
ĠGebÃ¤ uden
ĠRess ourcen
K reuz
O ut
W olf
l ov
en ne
ĠM ust
am ar
ĠR ace
ĠC ase
ĠC ock
ĠSch uster
Ġver folgt
ĠIn haber
ant a
ĠÃ¼ber all
19 43
alt itel
Ġfe es
br unn
Th anks
Ġerreich bar
ĠRad rennfahrer
ĠSpe ed
Ġorgan ic
ĠGed icht
atÃ¼r lich
gehen de
Ġenter ed
Ġfinanz iellen
sm ith
ĠEff ekt
ĠDou ble
Ġdom estic
Ġgez Ã¤hlt
F amilien
N icht
S ec
c enter
w enn
Ġa gencies
on ic
ĠT ieren
ĠT alk
ĠK Ã¤rn
ĠN est
Ġge liefert
Ġauf zu
Ġaus einander
ĠDe kor
ĠNach lass
ĠVor gang
amer as
ĠZw ar
stra fe
Ver walt
Ġange ordnet
ĠBas il
Ġcol umn
lei hen
ĠMat rix
ĠSeit dem
ĠVolks republik
ĠFach werk
Ġunser es
ĠTyp en
Ġkeep s
ĠZe ug
Amer ican
ĠVorsitzen de
Cl ub
Ġgraph ics
B este
Ġs itzen
ĠS G
Ġo s
ro tt
ĠP ho
Ã¶ d
ab ol
ĠEr nennung
Ġj ung
ler in
Ġso fern
be teil
ĠBet racht
ĠJohann a
Ġele ction
the t
ĠRu der
Ġatt ached
Ġinterest s
ĠVe ktor
ĠSyn ag
ĠBrig ade
Ġzusammenge fasst
B rit
T O
T op
T enn
c n
p rechen
s ucht
t rieben
re kord
Ġin telle
ĠM rs
il o
ĠT ol
sch rau
Ġk Ã¤mpfen
ĠSt Ã¤rke
ab ama
Ġhe ight
ide t
ĠPh Ã¤n
ĠSh ang
ĠBo ys
Ġgeb unden
ĠĠĠĠ Ġ
ĠQu est
Ġmin imal
En ts
Ġorder s
ĠBrit ain
Ġfood s
ĠAst ron
Ġpick ed
Ġreve aled
Ġassess ment
Ġabgeb rochen
ĠSchicks al
O h
it ative
at in
Ã¼ hl
ĠM es
ĠD ritter
st yle
ĠT oren
ĠF Ã¤r
ĠH Ã¤nde
ĠW ettbe
ĠL iss
Ġre covery
land o
ĠCh ange
ĠBer at
ĠLand rat
ĠSchw Ã¤b
ork ommen
ĠBundes regierung
Ġfest gestellt
Ġreal isiert
Ġ185 1
ĠBesch luss
ĠSol ar
190 1
ĠMont ag
ĠEst ate
kle idung
Ġcompar e
Ġpoln ische
Ġkrit isiert
ĠRy an
ĠJon athan
ĠEuropameister schaft
ĠGreif swald
MÃ¶ gliche
Ġatmosph ere
Ġb ond
Ġm iner
ĠB B
Ġv olle
st rÃ¶m
ĠF I
sch lossen
ĠH unde
Ġl Ã¤nd
ag ram
ĠEr mitt
19 23
19 31
Ġor ange
Ġunter teilt
uss ia
ystem s
gew Ã¤ch
asch a
ĠGener alleutnant
ĠStre ifen
ĠAt mosphÃ¤re
ĠLin ux
Ġreal ize
196 3
ĠLeip ziger
Ġ180 6
ĠPubl ishing
Ġdeb t
dr ama
Ġdest ination
ĠSpan ish
ĠHawa ii
Merk male
D i
ie m
ar us
ĠK ids
ĠL ub
ĠL oth
ĠU rauffÃ¼hrung
ver halten
ĠVer leger
ĠAn wendungen
ran gl
ĠBe fore
be c
tell te
amm ad
ĠUnter b
Ġtra fen
Ã¤d te
IN E
Ġaufge teilt
Ġaccess ible
ĠNor bert
ĠZust immung
Ġstre am
ĠBu y
Ġqualifiz iert
uert o
ĠErzÃ¤hl ungen
Ġgeplan te
Ġconvers ation
Ġdipl omat
1 20
S ub
i om
Ġm obil
ĠM ilit
ĠF okus
sch reiben
ĠC ommand
Ġl ust
Ġy es
qu ert
ĠBe fest
Ġall gemeine
ĠEl f
schl Ã¼sse
ĠVal ent
ĠKing dom
ĠOk res
wÃ¤rt igen
ugu ay
2 50
U B
k ter
m outh
Ġt ells
Ġf ell
ĠM ack
ĠD ritten
ĠL az
Ġun w
Ġun less
Ġab sor
19 41
ĠTh rough
ĠAb kommen
ĠFran ch
Ġmy th
Ġdis p
ĠCar lo
schl Ã¼ssel
Ġfl ash
Ġmod ische
190 3
Ġbro ken
ĠStÃ¤d t
ĠDres dner
stehen den
ĠQue ens
Ġlay out
Ġfrequ ently
ĠPlÃ¤ nen
Ġzug unsten
Ġaccur ate
ĠGerecht igkeit
bevÃ¶lker ung
E ben
j Ã¤ger
v ie
ĠS R
Ġf ran
le v
ĠM indest
ĠR uth
la de
ĠSch u
ou red
enn zeichen
Ġen orm
ĠBer ichte
ail able
ĠGra ham
ĠStra hl
ĠArbeit geber
Ã¤uf e
ĠHar z
Ġdien ten
ĠzusÃ¤tz lichen
omot ive
Ġliter ature
Bundes liga
ĠInner en
Ġbewe gt
k W
ie hen
ĠS ix
ĠA ra
Ġv orm
ĠD M
ol y
ĠF ollow
Ġer leben
ĠN assau
iel ler
Ġaus gerichtet
Ġ18 35
ĠOr leans
ĠAb lauf
Ġsh ops
Ġqu adrat
olit an
ĠzurÃ¼ck kehr
Ġserv es
ograph ischen
ĠPart ners
ender t
Ġunterschied licher
ĠPrÃ¤ fektur
ĠMÃ¼ hlen
Ġevangel isch
Ġerz ielt
Ġattra ctive
ĠLaur ent
ĠAdmin istration
F lor
I nde
g ast
un en
ĠA kte
ĠB ibliothe
ĠD ob
ĠD OC
Ġo h
ĠF ett
ĠK abel
ic ts
ĠV III
ĠUn it
Ġvor Ã¼ber
ĠLe hen
ike a
act ive
ende d
Ġbesch rieb
pl Ã¤tzen
Ġgest altete
geord nete
ĠKommun ikations
ĠMel bourne
fried hof
ĠOffic er
h all
k andid
ĠA la
ĠB utter
ĠK iew
ĠK ommiss
ĠW is
ĠC ad
Ġbe achten
Ġer leich
ĠN BA
ul ing
ĠAb tei
rei hen
Ġste igt
ĠGemein schafts
ĠHaupt ort
ĠStaats oberhaupt
Ġbed ient
Ġoft mals
Ġcr im
Welt cup
Ġmill ions
Ġversch oben
Ġdeb ut
Des cription
ĠSign al
Ġaustral ischen
ĠOpt im
Ġdetermin ed
ĠTats ache
Ġcit izens
Parameter ID
Ġrand om
T or
d ichte
p Ã¤dagoge
v enz
Ġw Ã¤chst
Ġf if
ĠD ass
Ġein gemeindet
Ġh ind
Ġc raft
ĠH ugh
ir en
ĠO il
Ġver zeichnet
ĠNe ug
teil ten
own ed
Ġges agt
Ġletz tes
Nach bar
ĠMittel meer
ĠfranzÃ¶s isch
ĠKomp lex
ros se
190 2
196 4
Ġwid ely
ĠCap ital
ĠDokument arfilm
Ser ver
Krit ik
ĠmaÃŁ geblich
Ġfavour ite
ĠVerbreit ungsgebiet
M ost
W eiÃŁ
z elt
in as
Ġd t
is st
Ġs uff
an ke
ar est
ĠS ad
re lated
ge gangen
ĠL anc
Ġl as
ot ische
ĠZ it
sp olitik
ak ten
ph ys
Ġ10 8
gl Ã¼ck
ĠFre quenz
ĠUm zug
ĠFrank lin
ĠMed aille
ĠHo uston
iven ess
esent liche
Ġpost ing
lic ation
ĠLei b
Ġclass room
ĠMer cedes
Ġinstall iert
Ġconcern ed
ĠVize prÃ¤sident
ĠErwachsen en
Ġfoll ows
D oppel
K Ã¼nstler
z ucht
Ġt ast
or ne
ĠM ei
ĠP ath
Ġn utzt
am an
ĠN OT
Ã¼r mer
Ġr are
ud a
ĠMor gan
ĠHistor ische
ĠDienst leistungen
gesetz es
Ġconf ir
pec ted
ĠEvangel ische
ĠDro gen
Ġviol ence
uum l
Ġeingew eiht
g ate
k Ã¼nstler
re volution
Ġo lymp
ĠT oy
ĠF alk
ĠK und
ĠJ Ã¼n
ĠSch re
per rt
old t
Ġ10 4
ude d
ott es
Ġtr ig
ĠVerein ten
ĠLebens raum
ĠHistor ischen
195 8
Ġgek ennzeichnet
klass igen
ĠStraÃŁ burg
L iga
P rÃ¤sident
g ard
k Ã¤mpfe
w ender
Ġt arge
ĠS ide
Ġf ir
le e
Ġm orgen
el in
ĠI ce
ĠW asch
ĠN ash
ĠSt ationen
ĠO bst
ver leihung
zen ierung
Ġsh ares
ĠVor gehen
stand es
ron ics
imm ern
Ġcons ists
Ġsub t
Ġtechn ique
schutz gebiet
Ġsl ot
schein lichkeit
Ġoffen e
nehm ung
komp lex
ĠClass ic
bas is
ĠMov ie
kriegs zeit
Ġphotograph s
ĠWeimar er
! "
A uÃŁerdem
Ï ģ
Ċ ĠĠ
ĠS ind
am ents
im ental
ĠH appy
lich ten
ou x
Ġaus drÃ¼ck
Ġwar n
Ġr is
olog in
ene z
Ġbesch rÃ¤nkt
hol ung
wei ÃŁ
Ġinner en
wissenschaft liche
Ġkomp lette
190 4
Ġaff ected
ĠNamens geber
Ġschedule d
ĠnÃ¶t ig
ischÃ¶ fe
R itter
f are
n ommen
Ġt icket
ĠP ear
ĠF res
ĠE gypt
ĠL isa
Ġg rÃ¼ndeten
Ġbe ziehen
ĠN umber
Ġver fasst
ĠEr ik
Ġsp r
ry pt
Ġpr icing
ĠSchw estern
ĠMa de
Ġlie ben
fin det
pro fil
Deutsch es
Le icht
ĠTo uch
ĠKont akte
Ġgl ad
Ġcamp us
rÃ¤nk ischen
Ġbetre ff
Ġattem p
ĠFlag ge
ĠEdin burgh
M al
t ur
v ents
es er
ar ben
ĠS ib
ĠS lowakei
ĠB ock
ĠF REE
ĠL aser
Ġan f
ĠZ ut
ver w
ĠAn walt
ru ption
ĠBe cken
ĠGe fe
ĠGra nde
Sch iff
Ġsc ript
Ġind ire
grÃ¼nd en
ograf ische
Ġfound ation
Ġaufge hoben
ĠErn est
mark e
Ġangeb lich
Her r
Ġill ust
ĠKenn edy
Ġintrodu ction
ĠMitarbeit ern
ĠCapt ain
ĠTot al
L ied
er al
Ġd ental
Ġf ried
Ġv it
Ġp od
ĠF DP
ĠH i
ĠR ight
Ã¶ ner
ik ern
Ġfor um
pp t
Ġab use
rÃ¤ der
ick te
ĠMa ÃŁe
cl ing
Ġins zen
ĠSte iermark
ĠMann es
Ã¤nder ung
ĠAt las
Ġche ese
Ġgrow n
Ob wohl
195 2
195 6
Ġconc rete
ĠTurn iers
SS R
ĠMÃ¼ ll
ĠSy mp
ĠlÃ¤ng ere
ĠErzÃ¤hl ung
Ġerle bte
ĠTaschen buch
B ack
S al
T ag
c am
m V
y k
Ġa wareness
re f
as a
Ã¤ ck
ĠD O
ig l
ĠT afel
ĠK lin
ĠK elly
ĠR ent
ber gen
Ġre ichte
Ġver ring
ag entur
qu ar
qu et
rÃ¤ glich
ens ed
ian i
ĠAm ph
Ã¶l be
ĠEx port
Ġexp os
ĠPol iz
ĠFe ucht
fra uen
ĠDar stellungen
ĠAss istant
ĠHel den
190 8
ĠKrit iker
Ġut ility
Ġfiel en
Ġult imate
loy ment
Ġstyl ish
ĠClaud ia
Ham burg
J ul
k orea
p in
Ġt all
or men
Ã¤ ll
ĠD ritt
Ġc um
ut or
ĠC ash
Ġk reis
ĠU we
Ġwe ap
ĠSe ktion
ium ph
ĠTra de
An y
Ġend s
ĠAuss tellungs
chten stein
Ġpay ing
Ġinvest igation
ĠKom Ã¶die
Ġident ified
Ġmag net
ĠRen ov
ĠWand el
ĠViel falt
ÅĻ ÃŃ
Ġarchite cture
ĠAuseinanders etzung
ĠHey ne
Ġpow der
ĠKolumb ien
ĠplÃ¶tz lich
7 00
C B
K n
k lassen
k arriere
Ġt ables
ĠS ug
ĠA ktionen
Ġh l
ut ung
Ġto urn
Ġer gab
ul ous
ot os
ad os
Ġzu verlÃ¤ss
ver Ã¶ffentlich
ĠVer k
ĠEr werb
ste iner
Ġ18 18
Ġ18 42
ian er
ĠMar athon
Ġnot iced
ĠFl otte
sh ips
bes te
Ġvis ited
Ġsim pl
Ġstar tet
Ġbre ad
Ġperform ing
ĠKat zen
ĠFlug platz
Ġleg s
ĠStraÃŁen bahn
ĠLouis iana
ĠKer amik
maler ei
ĠZerst Ã¶rung
ĠNiger ia
ĠÃĦm ter
Ġsympt oms
Å Ľ
Ġn erv
ĠT R
ĠT hal
ĠH ahn
ĠR ange
Ġg rad
ĠC ant
ĠC omb
ir i
Ġan gen
iv itÃ¤t
if est
ĠBe frei
Ġ18 45
Ġso ul
In halt
Ġro te
Ġ0 2
Ġange kÃ¼nd
halt ungs
ĠVers ionen
Ġqual ified
ĠWer ks
ĠPat r
ĠEmp fehl
ĠDec or
Ġbeteil igte
Ġmom ents
ĠVorsitzen den
ĠPop ular
Ġmat ters
ĠAR D
ĠEuropameister schaften
ĠHarr is
ĠKaffe e
S etz
d re
u ages
ĠD ame
st het
Ġh insichtlich
ĠF Ã¤lle
em er
ĠC ome
Ġge arbeitet
ĠVer ordnung
be zirks
Ġch ief
ĠGe lehr
ĠMit tw
mit tler
imm el
ellen ce
Ġcomm and
Ġpl anned
Ġrem ark
Ġpolit ischer
ĠQual ity
Ġworks hop
ĠVerl uste
iro ler
Ġdep th
Ġhor izont
Ġcirc um
ixt ure
Bi ografie
Ġsubmit ted
ĠBeweg ungs
K al
i ologie
ĠB anken
Ġv ast
ĠD ein
ro b
am as
et tet
Ġg olf
ĠC ous
ĠN u
Ġk ol
ad ion
ĠSch aum
ver d
icht ig
sp reis
ĠAn other
ran e
hn er
19 42
stein en
Ġass ets
schlieÃŁ en
ĠGew Ã¤sser
Ġwrit ers
Ġspecial ist
ĠTal ent
ĠPil ot
ĠSter ne
ctic ut
ĠWiederauf bau
Ġign or
ĠÃ¤uÃŁ eren
ĠTob ias
Ġt ube
Ġb ags
ĠB j
ĠD iction
ĠP ension
ĠH ost
ber gt
Ġge heim
Ġre ader
ĠSch alt
ess a
ĠIn halts
lie gende
pr ises
ĠUnter schiede
Ġgen utz
Ġgew orfen
âĢ¦ .
Ã¤us ch
Ġlist ing
Bau denkmal
Ġsw imming
Ġredu ced
Ġverlie f
ĠStad ium
ĠTat ort
ĠInstr umente
wel ry
ĠIll ustr
Ġbeauftra gt
Ġgewid met
D M
T M
d ro
Ġs oph
ĠS ich
Ġin ch
ig ra
Ġp in
im ore
sch i
ĠV at
Ġst im
op ter
ĠSp ons
ov o
Ġvers orgt
rach ten
Ġsho oting
ĠFahr rad
Ġeinge zogen
Ġland es
ĠAir lines
Ġprogram me
Ġless ons
Ġgenau e
Ġdiscuss ed
Ġspeziel len
ĠDrei ÃŁig
Ð¾Ð ²
ĠDat abase
ĠNationalsozial isten
ĠGrÃ¤ fin
B oden
O t
d l
á ¸
al ben
ĠT reib
ĠK ast
ĠE ag
ĠO N
if ff
ver gleich
og ne
ĠÃ¼ber liefert
ĠEin ladung
ast ung
Ġex cess
ĠTh ai
ear s
Ġ10 9
gew alt
Ġstatt fand
ĠRÃ¼ck tritt
Ġentsp ringt
Ġfac ing
Ġfac ts
Unter nehmer
Ġleben den
ĠVorder grund
Sonst iges
P ierre
ein trag
Ġin frastructure
ĠL ichten
ĠN ort
ĠN FL
ĠO w
ann over
ĠZ iegel
ĠGe iger
sh aber
ĠAut omat
ĠZu vor
stit ute
gra ph
Ġinv ited
ĠMo or
inde x
ĠEins Ã¤tze
ĠAqu ar
Rep rÃ¤sentanten
**** ****
Europameister schaft
ĠRal ph
Ġveranst altet
Ġgg f
f ish
h Ã¤n
h Ã¤ngt
k ons
y an
en ix
ĠS E
ĠG am
ĠG ib
ĠG lass
ĠI F
ĠW Ã¼n
Ġg un
ĠC art
Ġl iquid
ĠVer folgung
Ġle istungs
Ġ18 13
iz enz
Ġch icken
Ã¤r er
Ġfin de
ĠAll ianz
ĠStaats anwalt
En gl
ĠAuss agen
ĠSen ator
verb indungen
ĠGef Ã¤hr
ĠBud dh
ĠbenÃ¶t igen
kre ise
ĠJos h
Ġerf Ã¤hrt
Ele kt
Ġdoll ars
F k
p enden
w ass
or ders
le mente
ĠB ody
ĠI an
ĠH im
ĠH els
ĠR ow
ĠR ote
and ro
Ġr um
Ġpro of
iz ieren
auf tritt
ĠSte ine
gew orfen
ĠProdu zenten
Ã¶st liche
Ġdec ade
Ġgef Ã¶rdert
ĠGew inner
sta ats
ĠTro cken
ĠJournal isten
Ġfloor ing
ĠMas ters
ĠOk lahoma
ĠGerichts hof
ĠKav aller
E ins
L ang
T schech
Ġa ben
Ġa wards
Ġw itness
Ġf usion
ĠG ibt
ĠI tem
ĠL Ã¤ng
ĠC R
ĠN oten
ĠO hr
Ġr ene
Ġex port
ĠSe pt
wer fer
Ġtra v
Ġ16 00
isten ce
ock e
ĠGesch enk
ĠGr as
ĠÃľber leben
Ġcomm ission
Ġteil te
ĠCo oper
ĠAmer icans
ĠMark graf
Ġspe aking
ĠWal ther
Ġcra zy
ĠSÃ¤ ulen
Ġverste ht
Ġschwed ische
ĠGene hm
Ġmedizin ischen
Val ue
ĠAuseinanders etzungen
ĠLein wand
Ġinstit utions
B u
N etz
W M
W o
h lich
k ers
Ġs ink
ĠK ore
ĠE uch
et wa
Ġbe arbeitet
ĠN ations
Ġge kauft
ĠZ ellen
Ġab ges
rÃ¤ uch
Ã¼n eburg
fall enen
ĠSh akespear
ĠOber bÃ¼rgermeister
ĠVol ker
ĠDr ive
ĠStand ards
Ġrep utation
Ġschn elle
195 9
ĠRel ief
ĠFil ter
ĠLou ise
Qu elle
ĠKrit erien
Ġoffic er
zi ologie
Ã¢ te
Ġpan els
Ġbul gar
Ġbrach ten
ĠkÃ¤mp fte
Ġperman ent
ĠJew ish
ĠForts etzung
R em
S R
g ies
n Ã¼tz
Ġ ikea
ĠB uen
ĠB aker
st urm
ol ith
ĠG rÃ¼nde
ĠW edding
ĠR unden
ĠSch rÃ¶
Ġst ated
Ġ18 10
Ġ18 37
Ġwe alth
ĠIm mer
Ġgen auso
ĠMÃ¼n zen
Re gie
hel ess
ĠSÃ¼d amerika
Ġplace holder
laub nis
irm ingham
ĠMiss issippi
ĠPan el
Ġged acht
Ġfa iled
Ġbrow se
Ġster ben
: :
S il
Ð ¹
Ġv ib
Ġz weig
Ġab gelÃ¶st
ĠSp ark
ens atz
ister s
ĠAus gleich
ĠSchw ed
Ġgen ehm
entlich er
Mit te
ling hausen
ĠWor te
ĠDre ie
Ġmember ship
ĠQual ifikations
Ġcr usher
Ġfile d
ĠRev ol
Ġident isch
ĠRen Ã©
Ent wicklung
ĠGlas gow
Ġangegeben e
hab t
ĠPublic ations
Ġvirt ual
Ġmusikal ischen
ĠVoraus setzungen
ĠDist anz
ĠGon z
Ġaccep ted
Ġcrim inal
C L
J a
b ass
e ction
Ġ essen
re ts
ĠK au
Ġc odes
ra ben
ot ter
ien e
ĠBe hinder
Ġ18 44
be h
Ġdurch setzen
ake ten
wer ber
Ġra us
ĠTr ik
ĠPark er
ĠHil f
Ġabge leitet
ĠKat hedrale
Ġinvest ors
ĠDel hi
Techn ik
Gra f
How ever
ĠBist ums
ĠPok alsieger
Ġpropos ed
miss ions
ĠSqu are
ĠFÃ¤h igkeiten
M as
g Z
te or
at iver
he iz
ĠA uÃŁer
ro ff
Ġh ydro
ĠG ary
ĠE k
ĠE ichen
ann y
se a
ard in
ip h
Ġex ternal
land e
ĠCh ap
ĠVor feld
Ġgew isse
ĠTr io
ĠMed iziner
wohn ung
Ġsol o
Ġbo ost
ĠfrÃ¼ he
ĠPort land
ĠDo zent
ĠCont act
Ġmet all
Ġyoung er
ÅĤ aw
ĠSter nen
ĠInde pendent
Ġtransport ation
ĠAtlant ic
ĠUrs ache
Ġanaly t
ĠanschlieÃŁ enden
Ġimpress ive
Ġlehn te
ĠBÃ¼nd nis
Ġkorre kt
temper atur
K ol
W ohn
l och
ĠS ah
re c
ĠB elle
ĠF ont
am ental
ĠL ingu
Ġth orough
Ġon going
ĠAl m
Ġoff ices
ĠPat rim
ĠMot to
195 7
Ã¤ss ern
Ġerk ennt
ĠBill y
ĠEntwick lungen
ĠSamm lungen
Ġmil k
K ont
P A
P oint
Ġt we
Ġp our
ĠE V
ĠH amp
eit h
Ġfor med
âĢĻ .
ren e
Ġ7 50
Ġ17 0
chn ungs
pf el
Ġag ents
ĠWer bung
lei h
196 2
Ġcr ime
parte i
ĠPrem ium
ĠErd geschoss
Fl uss
ĠAbst amm
zub auen
Ġweib liche
ĠScot land
ĠkÃ¼nd igte
ydra ul
M Ã¤nner
P ost
t age
ĠS ale
Ã¤ llig
st art
ĠG uten
ĠW arm
ĠW isconsin
ĠL uf
ĠC ab
ĠV i
ĠU A
ĠIn sol
ĠAus bruch
Ġbes tellt
Ġsh ift
Ġqu e
ĠSte wart
ĠPf licht
ĠCar ter
Ã¼l le
Ġinst ance
Ġtyp ical
Ġpos itions
hor st
hÃ¶ hung
ĠBur k
ĠSied lungen
fÃ¤l ischen
Ġbem Ã¼
Ġmusikal ische
Ġcollabor ation
ĠBeam ten
Ġverstorben en
Ġbrill iant
. ;
b rechen
l is
il og
ĠG un
sch reiber
ĠI SS
ĠZ ubehÃ¶r
Ġfor ec
sp rechend
ĠÃ¼ber ras
Ġ18 38
Ġch art
ĠGe orges
ĠSe attle
ĠVor runde
ĠZeit ungen
co ck
ĠFra ktion
Un sere
Ġausge dehn
ĠBas eball
ĠMeister titel
ĠUr sprÃ¼nglich
ĠSen ioren
otent ial
ĠLau b
Ġinnov ation
Ġexpect ations
Ã´ ne
ĠSab ine
Mill ionen
ĠInstall ation
Ġeingest uft
ĠEinzugs gebiet
ĠApost ol
H ers
R eihe
S el
c io
i u
ie de
ĠT Ã¤tigkeiten
ĠF aust
Ġc able
Ġc ategories
om orph
ĠV iv
ik ar
ess ischen
op y
ĠVer anstalt
ĠEr ne
Ġbei ge
Ġ18 43
ov ed
rom an
Ġent reprene
ue z
Ġpr ison
omp son
St ate
Ġob lig
Ġinter face
Ġknow ing
ĠGrund schule
ps ych
ĠWor ten
FuÃŁball trainer
Ġbr ut
ĠErn Ã¤hrung
Ġclos ely
ĠMitte le
wor ld
Ġsuccess fully
Ġnet works
Ġzurueck gegeben
Ġbene f
ÑĢ Ð°
Ġrelig ious
hers tellung
Ñģ ÑĤ
ĠElect ric
Ġspirit ual
Ġath let
Listen er
ĠSaarb rÃ¼cken
M ass
N orm
Å ¼
Ġa w
Ġf lav
ĠB ott
ĠG rant
Ġg am
Ġan gest
igen en
ard i
Ã¶r n
lo h
los er
ĠVor les
for mer
ep ing
ĠEl s
ĠTr end
enk te
ĠArt illerie
Ġ% ,
Ġbl ind
196 1
AT ION
Ġdra in
ĠChem nitz
Ġchallen ging
ĠPor sche
ĠHimm els
ĠEins Ã¤tzen
sthe orie
stÃ¤d ter
Ġmittelalter lichen
ĠBrie fe
C an
M oder
N et
S M
T est
h us
w elle
Ġ ~
Ġf unny
ĠT U
ĠW id
ĠV Ã¶gel
ul u
ĠVer y
Ã¤nd igkeit
erk raft
ac on
Ġout put
St art
St atus
Ġste uer
Ġsupp osed
ader n
ĠStaats bÃ¼rger
Ã¤m me
Ġbig ger
Ġrece iving
Ġbew aff
ĠAg ain
ĠEt wa
ĠTele f
Ġindividu ellen
ĠEvangel isch
Ġregul Ã¤ren
stud ien
Kl ein
ĠWettbewerb s
ĠFein d
Ġwand te
Ġauth ors
ĠMisch ung
Setz liste
i ja
k ilometer
u in
it iert
ĠM ale
ĠC ow
ĠC ulture
Ġan gewand
Ġr ig
qu ir
Ġle ichte
ĠAl aska
Ġme ets
rit ion
pro fit
Sch ach
Al ben
ĠBundes straÃŁe
ĠIs a
Ġsho ot
setz er
ĠNieder schlag
ĠDurch bruch
Ġstar ben
ĠWei h
Ġbed ro
Ġfac ilit
Ġtre ated
brÃ¼ ck
Ġreturn s
Ġverhinder t
ĠberÃ¼hm ten
Ġrechte ck
ĠAx el
ReprÃ¤sentanten haus
D ec
H O
a ise
l Ã¶s
n acht
u ine
Î µ
Ġ Ã¤nderte
en ke
Ġa men
ar den
Ġm ature
ĠH Ã¤uf
Ġg rew
ĠO range
Ġre venue
Ġaus geschlossen
end ant
ial is
ite es
man ager
Ġgesch Ã¤tzt
ĠMag d
ĠWohn ungs
FuÃŁball nationalspieler
Ġorder ed
ĠSÃ¼ ÃŁ
ĠTex ten
ĠBaum w
Met al
Ġsuper ior
Ġmiss ed
ĠGre y
Ġmix ed
Ġcy cle
EMail Adresse
check EMailAdresse
ĠFuld a
Ġverbesser te
Ġgefe iert
% .
O l
P osition
b urn
in cess
Ġv iagra
ĠH eld
ĠW are
Ġg ast
ĠC ape
Ġ18 32
Ġum fassen
ĠEn joy
ĠVor teile
Ġlie gende
Ġro ugh
Ġcl im
ĠCo ach
Ġfl ower
Ġac id
Ġhistor ique
Ġoper ate
195 1
ĠTur in
", "
ĠAmts gericht
ĠTrans fer
Ġinform ieren
Ġmem ories
ĠLaw rence
ĠCle mens
ĠAust in
ĠPor zell
Meister schaft
Ġobt ained
Histor ische
Wel come
Ġspezial isiert
Ġdistin ct
ĠAfghan istan
gewÃ¤ch se
> .
G old
Ġ Ã¶
un es
ĠB lat
ol ia
ĠF unktions
ĠG Ã¤rten
ber ater
ber atung
Ġer zeugen
kt ors
Ġr ichtet
ap ing
ĠAr c
Ġunter stellt
ĠIm plement
Ġteil en
ĠNieder lagen
Ġfest ival
jÃ¤hr ig
amb a
ĠAg ent
ĠKind es
ĠAnn ual
Ġorganis ierte
Des ign
ĠAust rag
ĠDigital isat
Ġlok ale
ĠMd L
ĠUt ah
beam ter
ĠKent ucky
Lud wig
Fk EMail
A ch
n immt
o iden
ch ild
Ġt iefer
ĠB auf
st age
ĠT um
ĠT auch
ent z
Ġge folgt
Ġe ar
Ġver standen
ĠVer schw
ĠVer teilung
ĠAn bau
Ġse ats
be griff
Ġvor be
ĠCh annel
ac ted
Ġar ray
use ppe
Ã¶l z
ĠAut os
Ġtr ib
ĠMet ro
Ġsk y
Ġplan et
Ġcap able
pla in
Ġextre me
Ġqualifiz ierten
Ġzweit es
Ġcapt ure
Ġhum or
Verb reitung
ĠkÃ¼ mm
W appen
m de
s Ã¤chsischen
Â ·
Ã¼ se
ĠA K
ĠM D
ĠM is
Ġp hen
ĠT SV
ĠF L
ĠH K
Ġg ross
Ġ2 20
Ġbe quem
ĠJ as
ĠZ ach
ver kauf
ver arbeitung
ĠÃ¼ber rasch
Ġ18 16
ĠDe cken
Ġcon sequ
ĠStadt rat
ĠGr imm
Ġrec ording
Ġ0 3
ĠStud ents
Ġdire cted
Be griff
ĠAnt ar
!! !!
Ã¼rz te
ĠVe get
ĠUp date
ĠAnge legenheiten
ĠFranzÃ¶s ischen
Ġzeich net
Hein rich
ĠInnov ation
ĠNR W
Ġtroub le
Ġsud den
ĠLiss abon
K or
b rÃ¤
f ind
h Ã¤ngen
p rach
w arte
ĠS ain
ĠS hel
Ġin tr
ro se
ĠP est
ra ums
ĠI wan
ĠN an
Ġst opped
od ing
ib il
ĠAr ist
ack e
ĠFl ash
ĠDies el
Ġvers uchten
Ġviel fach
Ġmon at
Ġtrans ition
welt meisterschaften
ĠDu o
ĠZeich nungen
Mod ell
Ġkanad ische
ĠAuft ritte
Ġdauer te
ĠErinner ungen
Ġregistr iert
ĠWurz eln
Ġausgesch ieden
ĠNAS A
I hr
M er
s il
Â §
Ñ ĩ
Ġt ank
Ġt aught
Ġs aÃŁ
Ġin halt
ge ts
us ten
Ġm ole
Ã¤ ÃŁ
ĠD FB
ĠF ly
ic ted
ĠC ord
Ġl Ã¶sen
ĠUn i
ĠÃ¼ber zeugt
be fehl
ĠSe es
rich en
Ġob jects
ott a
Ġprov en
ĠJohn ny
Ġrem aining
ĠUr kunde
ĠSchul z
mar ine
zent ren
Ġret ten
ĠRechts wissenschaften
bed arf
Ġant iken
Ġgr ass
fred akteur
gef unden
ĠCr icket
Ġfig ures
ĠtÃ¼rk ischer
zwe ck
Ġhop es
ĠDrag on
ĠBulgar ien
? âĢĿ
S ach
h essen
k irch
Ġa warded
Ġs ed
ĠB omb
ĠD irk
Ġh alt
ĠH ob
ĠW Ã¶r
ĠSt ufe
if ier
Ġde fault
od on
ĠSp enden
Ġ18 14
Ġch apter
io den
ĠFre ie
Ġ0 6
leit ungen
sicht lich
ĠGesamt wertung
ĠFinanz ierung
Ð½ Ð¸
Ġfinanz ielle
Ġexhib ition
ĠVerdienst ordens
Ġmonitor ing
bay ern
Ġtom orrow
ĠErober ung
Absol vent
k ong
Ġa part
Ġt a
Ġt ile
Ġw Ã¤hlte
ar ab
ein kommen
us a
Ġf esten
Ġv intage
ĠD sch
ĠD anzig
de i
ĠT O
ĠH arb
ent scheid
ĠC atholic
Ġer rang
Ġan x
ul er
ĠSt rÃ¶m
la p
Ã¤t igung
ĠPro cess
ĠUnter k
ĠSte ven
Ġph ones
ĠNord ost
ĠStud y
Aus gabe
Ġinternational er
Ġhistor isch
ĠForsch er
Ġprote in
Ġrelat ively
Ġung arischen
Ġerk annt
Ġindividu elle
Stra ÃŁen
ĠProble men
Ã©n Ã©
Ġmount ain
ebau ung
ĠInsol venz
A BC
G ed
L it
k ular
r ise
w il
es c
ĠS achen
st an
ig ern
ĠP ionier
sch reit
Ġbe an
Ġl ift
ĠO K
ik eln
Ġre chter
ah m
Ġfor est
Ġfor ced
Ġr Ã¤um
ĠAn meldung
ĠEr ziehung
ĠSe ver
ĠAus richtung
ĠVor stellungen
Ġfe iern
rif t
Ġcont est
Ġtyp ischen
Ġbre ast
ifiz ierte
ĠSol utions
Ġgem el
Ġdan eben
plan ung
Mar ie
Med aille
Ġenter prise
ĠZwe cke
Ġsignificant ly
Ġsamm eln
ĠCru z
ĠSchlaf zimmer
H erkunft
M el
S ingles
k linik
m ol
Ġs ick
ĠS v
un er
as ar
Ġm Ã¼sse
ĠA BC
ĠM iet
ĠT aiwan
ĠG A
ĠK rÃ¼
ĠK han
om ing
ra c
ĠI L
ĠC ir
ĠJ ugoslaw
Ġk ar
ĠO ste
19 15
Ġunter nahm
ĠMit ch
lo hn
Ã¤l te
zeich ner
Ġev ol
ĠTr ip
Ġverw altet
ĠVers icher
ĠVers ammlung
leg ungen
uge hÃ¶r
ĠDu ke
He il
ĠFernseh film
Ġelect rical
Ġhold s
Mod el
Ã± a
ĠBÃ¤ ume
mag azin
ĠHT ML
I hre
e u
u cc
ĠS alt
ĠS uz
Ġf erner
ĠB Ã¤r
Ġh art
ĠL an
ĠC ou
Ġver passte
19 48
ĠVor sprung
Ġges ichert
schie ÃŁen
Ġgeb raucht
ĠFÃ¼r th
Ġbl ow
ĠAuss icht
fert igt
ĠNeben fluss
Ġdefin ed
Ġcreat es
Ġcra ck
Ã¤rk ung
ĠRepubl ic
Ġbeob achten
dis ziplin
ĠBom ben
E U
T ION
d an
Ã¤ sche
ĠP ink
ĠT aus
ĠF lex
ĠL oh
ir kt
ir aten
Ġge zwungen
ĠU ll
ĠIn tens
Ġwe ak
ĠPro zesse
ick el
Ġunter richtete
ens ation
Ġnew sp
ĠPh ill
ĠAd ams
Th ank
Th omas
13 4
ĠEurop Ã¤
ĠHaupt darsteller
Ġeinz iger
ĠHol y
ey er
Ġeinfach er
Ġkon zip
Ġcond uct
ĠhÃ¤uf iger
ĠOper a
ĠÃ¶ff nen
Ġnorm ally
ĠCla ude
Ġmass age
ĠAth leten
Ġevangel ischer
ĠRead ing
ĠBlÃ¼ te
Ġhor se
ĠIll ust
ĠDub lin
Don ald
ĠPir aten
Ġkeiner lei
ĠBath room
ĠCreat ive
ĠValen cia
A k
M M
h Ã¤nge
È Ľ
Ġd iss
Ġin ches
ĠM ine
ĠM eine
ĠK roatien
ĠH Ã¤usern
um me
ĠN elson
Ġst amp
Ġ18 36
19 49
ĠTh read
Ġpr ide
Ġbet Ã¤t
ĠSte ink
ser ver
Ġeinz eln
Ġdr ugs
45 3
tes te
ĠBro thers
Ġdre ams
ĠBrit en
Ġern st
Ġworks he
ĠÃ¤ gypt
Ġenc ounter
ĠSamm el
jew itsch
grÃ¤ ber
Ġjun ior
D ienst
S W
e xt
t ums
es tet
Ã¼ ten
Ġm att
Ã¤ ub
ĠD allas
ĠT rÃ¤
am ic
ĠE id
Ġc er
ĠL iver
ĠL ars
ĠV olleyball
ver anstaltungen
Ġaus gesetzt
ern t
ĠLe ader
ĠAuf klÃ¤rung
18 89
ĠStadt bezirk
ina e
ma x
Er ste
ĠVers uche
Ġgut es
ĠTour isten
Ġpriv at
ĠRed akteur
Ġabsol ut
ĠTre ppen
ĠFrÃ¼ chte
Her ausgeber
ĠSold at
ĠErk enntnis
Ġstrateg ic
ĠSat tel
Ġmer ch
Ġbott le
Ġschwier ig
ĠOze an
ĠVerbrauch er
ĠAbra ham
C lass
K ommand
g ymnasium
u der
Ġt or
ĠS ED
Ġm ic
ĠB reit
ĠD R
ĠT akt
ĠF aktoren
Ġc arbon
ĠR um
Ġg lo
ĠC rew
Ġal ign
ann els
ĠSch Ã¼tzen
Ġst ab
ĠEr sch
qu ote
ĠEin zug
Ġme at
auf ent
Ġte x
pr esent
Ġtra il
Ġtra cks
ĠGes am
ĠAd vis
Ġtr ick
ĠNational versammlung
Ġger aten
Mit glieder
por ter
ĠGener ationen
Ġfre ier
ĠEd itor
Ġdi am
ĠGen re
gesetz te
Ġcas ual
ĠSchwer in
ĠEss ay
sequ ent
bour g
Ġimag ine
B ot
S et
p rechung
s ysteme
is ka
it us
Ġw ander
ĠS ay
ĠS ri
Ġf otograf
ĠB eth
Ã¤ ule
ĠM oney
st Ã¤dt
st atus
ĠH Ã¼tte
ĠR Ã¼
ĠC F
Ã¶ hm
Ã¶ cke
and ie
ĠSt Ã¼tz
ĠZ wick
th es
ĠEr lebnis
Ġsch lÃ¤
ĠBe griffe
19 16
Ġex pression
ĠLe x
Ġus ual
Ġen ger
je cted
lan ke
ĠPr ize
ĠAnd y
ĠSpiel zeiten
oth y
ĠÂ °
ĠRom ant
ript ion
Ġclos er
ĠGar de
gehen den
wes ens
ĠCent ury
Ġfunction al
Ġprogramm ing
S to
T urnier
å ¤
is ierungs
ĠS ob
re de
ĠB reis
ĠB ureau
st unden
Ġc ater
ĠH obby
ĠR ib
Ġge omet
ik ten
qu artier
19 47
Ġcon vert
ges ted
ĠOr lando
ober flÃ¤che
Ġfin ance
ĠGra phen
ĠSc reen
ĠIs lands
ĠInter ess
Ġdarauf folgenden
ĠFlug zeuge
ĠMer c
ĠSant iago
ĠDenkmal pflege
Ġhab ilit
Ġdat iert
ĠPhot os
Ġdescrib e
ĠJahrzehn te
Ġcompon ent
Ġdynam ic
Ġsitu ations
ĠBalt imore
ĠVinc ent
ĠSaf ety
Ġerkenn bar
P ublik
b ald
z ure
en cy
Ġt olle
Ġm aps
ig ter
em en
op ath
Ġsch olar
Ġle istete
ord neten
ĠDe ep
gr id
ĠTe ch
ĠTe ich
Ġman gel
ĠNe apel
ĠHe irat
rat ic
ĠFl u
mit tag
lÃ¤ s
Ġhin weg
Ġgel Ã¶scht
Ġspe ech
ĠRo und
ĠBÃ¼rger krieg
Ġâ ĪĴ
str asse
Ġconf ident
ĠJur a
Ġlik es
ĠRÃ¤ um
ĠUs ing
ĠWik ipedia
Ġbesetz ten
Ġentdeck te
E isen
S ign
Y es
h ielt
i ÃŁ
m oder
in et
Ġs alt
ĠD I
ĠD ale
ĠP late
ĠF uss
Ġbe le
ĠJ ason
Ġk andid
Ġan al
ul ator
Ġe ase
Ġen ables
Ġup gra
Ġbek annter
ĠEnt deckung
ĠTr ink
Ġhier zu
ĠAll ein
ĠProdu kten
ĠArch ive
ĠSchrif ts
ĠBro ck
Ġequ al
Ġenjoy ing
ĠAbgeord nete
athlet ik
Gemeinde auflÃ¶sung
ĠIdent itÃ¤t
Ġhighl ight
Russ land
F ind
F ree
G E
V C
o i
p it
es telle
Ġw ann
ĠS ony
ur teilung
Ġb anks
Ġm ile
Ġund ert
il ia
ĠG letscher
ent urm
ck now
est het
ei fen
Ġauf weisen
ith er
th en
sp rÃ¤sident
ger ichte
iz a
iz itÃ¤t
Ġsie d
ĠSe ason
ĠBer eit
Ġwor aufhin
ĠFre y
ĠIs abel
ĠCo le
Ġele v
Ġmark iert
ĠFest ivals
Ġkein em
ĠPal m
Ġ180 8
produ kte
195 5
ĠKÃ¼nstler in
ĠOper ations
Ġprim arily
ĠMur ray
ĠArchÃ¤ ologie
Ġhers elf
ĠMargar et
ĠHinz u
Ġcerem ony
L ie
O F
P N
P ap
S ingle
Z usammen
c ell
ar ent
le ton
ĠM ira
ĠM other
ĠD inosaur
st ark
ter y
ĠF itz
ĠH ud
Ġan alog
ĠEr stellung
ran ty
Ġ18 12
Ġman aging
ĠPr inc
inn t
ĠEl ite
ĠMed al
Ġfre edom
Ġsub stant
Ġavail ability
ĠDon nerstag
ES CO
Ġimpro ving
Arch iv
Ġasp ect
ĠRis ik
cep ts
BevÃ¶lker ung
Christ ian
Ġkulture lle
ĠSak r
icul um
ĠiP ad
S pr
g rÃ¼
s endung
u eller
Ġd ivision
an ing
Ġw asser
ĠS ierra
re fer
Ġv illa
Ġh armon
ĠG riff
ĠH Ã¤nden
ĠR s
ĠL ion
ĠL ater
ber ichte
Ġl ucky
Ġge gangen
Ġre pl
ah me
ĠEin fach
ome ter
ĠBer Ã¼cksicht
Ã¤l en
arbeit s
ĠPh arm
Ġfol ks
Sch l
ĠGer ade
ĠĊĊ ĠĊĠĊ
ĠRom ans
ĠSal on
ĠFest schrift
ĠBre ak
ĠauÃŁer gewÃ¶hn
ĠGast geber
ĠLog o
ĠTenn essee
Ġdraw ing
ĠLy on
Ġlisten ing
ĠVoraus setzung
ĠmÃ¤nn lichen
ĠAngehÃ¶r igen
Ġgesellschaft lichen
ĠCommer cial
pap ier
Dav id
ĠMalays ia
hatt an
. ]
F ield
m aking
u ing
Ġ q
Ġt asks
ĠS id
ĠA tem
ĠF avor
ĠG y
ĠL Ã©
ĠC rit
Ġer fasst
Ġk reat
Ġver letz
id al
Ġj ahr
hl te
Ġcon ver
ĠTh ose
ĠY outh
ĠMus lim
fess ion
reg ister
Ġerne uert
Ġ180 4
lÃ¤uf erin
ĠWeb prÃ¤senz
pla ys
yth mus
national mannschaft
ĠProp ag
Ġarchite ct
Ġreligi Ã¶sen
ĠAbd ul
Ġguid ance
ĠBam berg
ĠForder ungen
Sta ats
B asket
v Ã¶gel
he orie
ig rant
Ġp hr
âĢ ĭ
ĠE arly
em m
ĠW affe
ist ing
Ġy ard
tel la
Ġun e
Ġ18 39
ord nen
be zirke
ĠGe fÃ¼
lo ÃŁ
iss ue
Ġgew issen
fin al
Ġseiner zeit
ĠKon tra
ĠVerein igte
Ġdesign ers
Be wegung
mittel alter
ĠFot ografie
ĠÐ ¿
Ġbra uchen
Ġconne ctions
Ġfocus es
Ġcook ies
ĠermÃ¶glich te
ĠEigent um
angeb ote
ĠNahr ung
ĠBlo od
ÅĦ ski
Ġaccommod ation
9 00
R ich
S D
U K
k rat
is men
he ld
Ġf urn
ĠA telier
Ġv end
ĠM uh
ro skop
em at
ĠW oll
ĠW els
et o
Ġbe zog
Ġl ib
Ġan treten
ul ationen
ĠAn pass
ĠLe gende
ĠNe v
ĠEn zykl
fin anz
ron ze
ĠAd miral
ĠBr istol
ĠKinder garten
ĠProdu cts
Ar ten
Ein ige
ĠBel ie
ĠPal Ã¤st
Ġpay ments
ĠIhr es
ĠAre al
Bahn hof
ĠLit auen
ĠFreil icht
ĠEinkauf s
ĠBegeg nung
ĠRober ts
ĠLuz ern
Ġelig ible
ĠGetre ide
? "
E mp
h Ã¶ch
m ay
r igen
w issen
y ter
Ġt um
Ġw ra
us er
us che
Ġh idden
im on
ĠK ies
ĠW right
Ġg aming
ĠZ en
ĠSch af
ĠSch icht
Ġaus gel
Ġr ational
ĠAr sen
ĠMar in
Ġra w
ĠVerb rechen
Ġze igten
ĠCl ar
ĠÃĦ l
ĠBÃ¼ chern
Ġcal endar
lÃ¤nd isch
ĠIde al
Ġentire ly
ĠKonz ern
Ger man
Art ikel
bu ild
ĠSup reme
Ġkulture llen
Ġadministrat ive
ĠTÃ¤n zer
ĠDreiÃŁig jÃ¤hrigen
S tein
T ags
U hr
Ì Ī
Ġd auert
Ġa ims
Ġt elling
ĠB irmingham
ig ert
Ġp ussy
Ġh ang
ĠT all
Ġk ap
Ġj en
19 17
ĠIm pro
ied s
ĠAd vanced
lÃ¤ ne
ĠQu art
ĠVerb indungs
ĠHoch schulen
Ã¤nder ungen
Ã¶m m
ĠHil de
amb od
Ġmir ror
Ġbeteil igten
ĠLim burg
ĠReprÃ¤sentanten hauses
ĠkÃ¶nig lichen
Ġjo ining
spart ner
H ello
P rÃ¼
V iele
h ier
l alom
er ia
on omen
Ġin du
Ġin put
ĠD iss
de cker
ĠP oll
ĠF ashion
ĠK az
ĠK anad
ĠW oman
ĠR ott
ĠL ess
ĠSt ories
Ġst ring
Ġver lauf
ĠAn ordnung
ĠEr ziehungs
Ġab schloss
ok en
ĠAr mut
be hÃ¶rden
18 96
arbeit ungs
vel and
Ġsu ite
ĠFr ame
fern t
ĠGegen stand
rist all
kn oten
On ce
ĠSub st
usst sein
Med ien
Med iziner
Ġumfass ende
Ġcele b
Ã¼nde te
Ġincred ibly
ĠCS U
ĠÃ¶k onom
Ġcir ca
' '
A tt
D om
c in
f ische
i ast
er ed
ĠR iesen
ic ultural
Ġal ph
ĠO skar
ĠZ wer
ct ual
Ġi OS
Ġab zu
Ġunter brochen
enn ame
geb ot
ire ktor
sk on
ĠMed ik
Ġfr isch
ĠOrts teile
Ġpass ende
ĠTechn ische
Ġatt rib
zÃ¼ g
schei de
funktion Ã¤r
person en
Ġexpla ins
ĠRay mond
Theater schauspieler
Ġschott ischen
Ġbesonder er
Ġincor por
ĠVie h
ĠStatt dessen
Ġconfir med
ĠAbstamm ung
Z ug
b ungs
c ular
in ch
ĠS ara
ĠD j
ĠD ritte
ĠT ree
ĠH unter
ic ulture
ist urnier
Ġge ar
ts piel
Ġun able
rie ge
ĠNe ed
18 90
ĠVor arl
ĠReg isse
Ġcont rast
lÃ¤ chen
Ġho le
ĠChrist ina
Ġentstand enen
Ġgener ate
Ġident ity
Ġport ion
fa ction
ĠCamp bell
ĠInvest ment
bre ite
Ġumfang reichen
ĠKandid at
Ġsamm elte
Hein z
ĠVertra uen
ĠVf B
ĠGesell schafts
Ġkombin iert
M ap
b at
Ġd ad
Ġd rag
is emit
Ġs Ã¼
al on
un ivers
Ġb ay
ig ne
ĠT et
ic ity
Ã¶ hne
Ã¼r zen
iv ia
ien n
Ġj ene
Ġex tend
ĠNe g
18 80
fe hler
Ġbes tellen
ĠGesch Ã¤fte
ink i
Ġph ase
Ġmus lim
ĠHoch stift
li ament
ĠRÃ¼ck zug
ĠEm ma
ĠDo es
Ġatt orney
ĠEigen schaft
ĠBud get
omet rie
Ġneg ot
Eis hockey
Ġannoun ce
Ġserious ly
Ġagre ed
ĠkÃ¼nstler ische
Ġweib lichen
ĠLetz ter
Ġverurs acht
Ġlauf enden
Jose ph
ĠInse kten
I l
M ess
ĠP aper
ed lin
Ġauf geb
Ġr ating
ang riff
ĠBe weis
ĠPro tag
ĠLe hn
ĠAb hÃ¤ng
oc a
18 92
ĠY oga
ĠPar ad
12 5
Ġhand eln
ĠGrund riss
weil en
Ġpass enden
ĠSozial demokrat
ĠBÃ¶ h
Ġcompar ison
Ġprepar ation
wal ts
Ġincreas es
ĠInner halb
Ġdurchschnitt liche
Ġwire less
Fo otball
> -
T F
h um
k am
o be
u j
y nd
Ġf er
Ġm a
ĠB attle
ĠM ant
ro th
Ġp it
Ġc otton
ĠI rak
ĠC rist
ĠV all
ĠSt ufen
ab lo
ĠSch Ã¶ne
ian ces
erk rank
Ġgen auer
pro of
gend a
ĠHand eln
Ġeinz us
Ġsol ve
ĠCo x
Ġperson ally
ĠsÃ¼d liche
bed ing
urf ten
ĠCont ainer
So zial
Ġturn ing
Ġtradition elle
ĠInn ere
.... ....
Ġrespons es
Ġgeschlossen en
ĠNÃ¼rn berger
Ġdet aill
ĠNeum ann
Ko ordinate
Ġsurpr ised
ĠKoordin aten
ĠEncyclop edia
A g
B D
D uring
g ium
p ubl
r h
t urm
z es
Ġb odies
le isten
ĠB akter
Ã¤ use
ĠT ut
ĠC redit
Ġge teilt
os om
ĠSch mal
ĠSch Ã¤fer
Ġst ainless
op fer
Ġne ug
ord nungen
enn amen
Ġen ge
18 99
Ġjust ice
ĠPf lanze
Ġsho ck
Ġben utzen
ĠBra ut
ĠFolge zeit
ĠErst aus
leben s
pre ise
ĠDenn is
Kultur denkmal
ĠWalk er
Ġexception al
Ġmur der
. âĢĵ
A ir
S L
p il
s aison
Ġs olle
ĠB ond
ĠB utt
Ġh osted
ĠF ive
ĠL ug
ir s
Ã¼r den
Ġst ren
ver eine
id as
ass o
Ġwh ilst
Ġ18 34
Ġ18 31
Ġ18 41
ungs mittel
ĠEin z
Ġdurch ge
Ã¼hr t
Ġad op
ĠFl ur
ĠGra ben
Ġgra b
ĠWill en
rÃ¤n gt
ĠHier zu
ĠProfess ur
Ġkurz zeitig
ĠHeil bronn
Ġadv oc
ĠLang uage
Ġgelang t
ĠSchiff es
eint rÃ¤cht
Ġnorm alen
ĠSalz burger
system s
Ġsuggest ions
ĠAnge la
friend ly
ĠMÃ¶n chen
Ġcandid ate
ĠPseud onym
MÃ¼n chen
ĠEvalu ation
ĠbegrÃ¼nd et
B lack
d ays
f unden
h Ã¼
m Ã¼ller
w Ã¶rter
Ġd uty
ĠS ou
at on
Ġf emin
ĠB Ã©
Ġp a
Ġl uck
ĠSt uhl
ĠSt apel
Ġfor g
th is
Ġj unger
olog ist
use el
rif fen
ors itzen
Ġno ted
Ġausge geben
ĠsÃ¼d afr
ĠKr ise
Ġhealth care
fre unde
ĠHerren haus
Ġtreat ments
Ġocc as
Ġdirect ory
aser ne
ĠGeist es
Ġbedeuten den
Ġrelig ion
ĠGeheim nis
Ġbetre ut
ĠYear s
arp us
Ġbedroom s
ĠKult us
Ġkom ment
ĠWes er
Ġbelg ischen
Ġdurchschnitt lich
ĠRac ing
Ġdanger ous
ĠMarsh all
Down load
ArchÃ¤ ologischer
1 15
A K
A fr
b els
Ġs tet
ĠD ress
ĠP ant
Ġp ocket
ĠG ay
ĠK amm
ĠK PD
Ġz entral
ĠI hm
Ġbe ur
ist anz
ist oire
Ġer a
Ġl aser
ier i
Ġe gal
ik ers
os te
ce ae
ĠVer pflicht
ĠEr haltung
ĠEr forschung
ĠAl tert
rÃ¤ ts
Ġlie ber
ĠSte iner
Ġvers ions
ĠProdu ct
schn itten
Ġeng ines
Ġeng aged
Ġcol ours
ĠrÃ¶m ische
ĠUN ESCO
ĠerhÃ¶ hte
gerichts hof
Cont rol
Bere chnet
ĠPassag ier
ĠWÃ¶rter buch
Ġappe al
D reh
H K
W issenschaft
Ġs amt
ar isches
re b
ĠD in
ber eiten
Ġre produ
Ġaus gesprochen
ste tten
qu ire
Ġsp lit
Ġzw anzig
ĠAb schied
ĠMe g
rat ive
amm ed
Ġje w
lauf bahn
Or igin
weil ig
ĠSel f
ĠRuss ischen
Ġlist ings
kon zept
Ġinvol ves
ĠFle cken
ĠZusch auern
Ġinteress iert
ĠprÃ¤sent ieren
ĠFal ken
ĠAdels geschlecht
Ġmensch liche
ĠAud i
htt ps
spann ung
ĠConne cticut
ĠVog t
organis ationen
Bek annte
Tro tz
ĠMitbe grÃ¼nder
ĠPorzell an
B ank
O O
P ubl
b ah
k ok
Ï Ĥ
Ġ 000
er es
Ġs itzt
an aly
he id
he ft
ĠP Ã©
ĠF F
âĢ ²
im i
ĠH ung
ĠH onda
ĠR Ã¼st
Ġg entle
ed a
Ġauf nehmen
aus s
ĠY am
amp a
ction al
ish es
Ã¤ch ter
ĠMed ium
ĠKn ight
ĠWill y
ĠSan ierung
ĠJe de
ĠOst see
ĠEnd spiel
sprach igen
Ġcommon ly
Ġelekt rische
Ġimmed iate
ĠJenn ifer
ĠAusgra bungen
; ;
A ber
O k
j un
l Ã¶sen
y en
Ï ĥ
Ġs amples
ĠS aw
Ġb omb
ĠA kten
ĠT ry
ĠF resh
Ġer baute
ĠSch eit
aus en
Ġ18 17
ĠAr te
18 98
fe kt
Ġnur sing
Ġgen Ã¼
Ġind ischen
ĠMed aillen
Ġed it
ĠPat ent
Ġcolle ctions
ĠLondon er
Ġant icip
ĠUl m
ĠPrÃ¤sident schafts
Ġlink ed
Ġdeal ing
Ġdep ot
Ġcharge d
ĠKomment are
ĠgefÃ¤hr det
ĠAngehÃ¶r ige
Ġprincip les
ĠBiograph isches
ĠInternets eite
D ynastie
E ff
L ive
N ur
R obert
X X
b rief
m ord
Ġs hr
ĠB in
ĠD ays
Ġp ic
Ġp atch
ĠF uture
ĠK ass
ĠW ang
ĠC hel
os es
Ġst ro
Ġver bleiben
op ol
Ġsch eme
ob t
ĠCh ines
ĠY or
Ġ12 1
oy al
ĠgroÃŁ em
ĠSpiel ers
Ġweek ly
ĠCor porate
Ġlin ke
ĠRuss ell
ĠZÃ¼r cher
ĠOs lo
ĠAnth rop
verstÃ¤nd lich
dehn ung
ĠRal f
Ġscen es
Ġdiskut iert
Ġangrenzen den
ĠausdrÃ¼ck lich
C la
G ood
H E
l on
p g
r und
x i
z ien
z oll
Ġa cknow
Ġt rugen
ĠS einen
Ġb id
Ġm or
ĠD raft
Ġo cean
ĠT rue
ĠF at
ĠG Ã¼nstige
Ġc am
om aten
Ġto oth
iv an
Ġst orm
av ier
Ġso le
ian ischer
ĠTh ompson
Ġman che
18 97
Ġte ch
sk Ã½
Ġnew ly
ĠUm stÃ¤nden
ĠGer d
zeug te
Ġcre w
ĠComp lete
ĠDar in
ĠUr kunden
ĠYork er
ĠSol id
Ġhol idays
Ġnieder lÃ¤ndische
ĠDate ien
ĠGi useppe
Ġqualifiz ieren
Ġhy per
Ġcru cial
ĠSauer stoff
Bere ich
ĠKrie ger
Ġdokument iert
ĠEnter prise
B ul
C olle
S Ã¤nger
U s
re le
ĠT ap
ĠF R
em eter
Ġl ies
ĠSt yle
Ġzu gewiesen
ant ast
ĠDe te
ian ische
ĠNe ut
ĠAuf fÃ¼hrung
18 85
18 79
omm y
St il
gew achsen
res ted
ĠOb ject
ĠPlatz ierung
ĠBet rag
ĠSchul ter
Ġpolit ics
Ġpubl iziert
reib ungen
ĠBra uer
Ġmoder ner
ĠSport ler
Ġpat io
Ġann ounc
ĠAir es
Ġport folio
Wh y
ĠKurz film
ĠVerhalten s
Ġtal ks
Ġforder t
Ġven ue
Ġguid elines
ĠWrit ing
Ġliefer te
ĠReck linghausen
ĠMittw och
1 16
w ords
Ġd urften
is pr
at hlon
Ġin it
ĠP un
ĠT ir
ĠH ip
hr ingen
ĠL ohn
ĠC amer
Ġal umni
Ġk roat
Ġan onym
Ġge prÃ¼ft
ĠU g
ĠSch los
if ter
Ġwh oles
ame ters
ack t
Ġdeutsch es
heit lich
St unden
Ġra ck
Ġbef asst
Ġreg ions
ĠInd ustry
ĠBet reuung
gra b
Ġperson en
ĠGl en
recht lichen
Ġerschien enen
bereich en
Ġvoll kommen
ĠFrankreich s
Ġhol z
Ġleg it
So ftware
Ġless on
Ġess ays
Ġnie mand
ĠEing angs
ĠFluss es
Ġindividu ell
ĠIndian er
Ġprakt ische
ĠPortug ies
Bundes staat
Ġrefer red
ranch ise
Ġjud ge
A st
J ean
O B
R Ã¼ck
m achen
p rÃ¼f
v all
Ġa er
at io
Ġb ass
ĠD Ã¼r
ĠI BM
ĠH inder
ĠL Ã¼b
Ġge gliedert
esch ool
Ġvor n
ĠCh apter
auf gaben
sk irche
Ã¶l ler
Ġprodu cing
ĠBand e
ĠEurop ap
Ġmus cle
ĠĠĠĠ ĠĠ
ĠKÃ¶nig lichen
ĠCon tra
ĠCol lins
haf en
Ġerhalten en
Ġdre hte
ĠErst ligisten
195 4
Ġverlie h
ĠFrÃ¼h stÃ¼ck
Ġchem ical
Bild ung
Ġnar row
ĠSkulpt uren
ĠGitarr ist
Ġberu ht
N D
b il
d ig
j on
} .<
Ġd ialog
an ion
und ers
ĠD um
Ġn one
ĠG PS
ĠK enntnis
ĠE y
ĠW esen
ĠW iki
Ġer lern
ĠZ ag
ĠIn telligence
aus stattung
Ġle iden
ĠÃ¼ber s
ov iÄĩ
Ġch ose
oc aust
ĠSchw immen
yp en
Ġbeg rÃ¼ndete
pf lanz
iner y
Ġemp fehlen
ĠSen ats
Ġstehen de
195 3
Ġdefin ition
ĠCle veland
Ġmo ist
Ġrecommend ations
ĠPak et
Ġsav ings
ĠGalax y
W inter
b om
e ck
f ile
Ġd ual
Ġs la
Ã¼ g
Ġm and
ĠD ag
im ann
ĠK Ã¤mpfe
ĠE rot
ĠH l
ĠH end
ĠL Ã¶s
iv o
kt on
Ġfor th
Ġus age
ĠAuf fassung
ĠWe iss
Ġar men
fahr ung
ĠGr ill
ĠJahrhund erte
Ġev olution
Ġbeen den
ĠNov a
bild ner
ĠBet riebe
Ġfl ach
ĠWerk zeug
Ġbede ckt
Ġpublic ation
ikal ische
ĠSur vey
spe zif
ĠRestaur ants
spro zess
Ġexpla ined
ĠMatt hew
Ġcat alog
ĠLokomot ive
russ isch
Ġislam ischen
Ġsup erv
ĠBeaut iful
Ġbeher bergt
ĠJoh an
1 14
G rÃ¼nd
R ot
Z y
Z SB
h ot
s em
Ġt ested
ĠS aur
un ken
Ġb ild
ĠA ub
ro v
Ġh aus
ĠG ian
im il
Ġc urt
ĠO F
Ġauf einander
eb o
Ġsp l
ĠBe grÃ¼ndung
ip her
Ġ4 50
ĠAus lands
co le
Ġins ight
min ute
ĠGes ichts
oss a
ĠKÃ¶nig lich
ĠRes ume
Ġersch ossen
Ġperson s
Ġvis ible
Ġreal ized
bet riebe
Ġabge geben
vert retung
ĠNor men
parte ments
Ãľber setzer
ĠWeiter entwicklung
ĠNorm an
ĠÃ¼b te
Ġwid th
emb les
Ġarr ive
System atik
ĠScott ish
Ġgere cht
ĠVerletz ung
ĠChallen ger
ĠConc ert
ĠVermÃ¶gen s
ĠDiÃ¶z ese
ĠgefÃ¤r bt
ĠSof ia
ĠBerÃ¼cksicht igung
M il
c ons
g ouverneur
h d
h yd
he ast
ĠP itts
ĠF ine
ĠK etten
Ġg al
ĠJ ochen
ĠIn cl
ĠVer mess
ĠSp ar
Ġsch ein
Ġ18 22
Ġbes iedelt
ĠGes etze
bl og
ĠUr heber
ĠBre m
ĠWei ÃŁe
23 4
ĠTag s
Ġerfolg los
Ġzahlreich er
azz o
ĠnÃ¶rd liche
ĠLu ise
Ġverbunden en
Ph ys
ĠWol ff
Man ager
Ġsens itive
ĠWeihn achten
ĠspÃ¤t estens
Ġearn ed
ausschuss es
ĠStell vertreter
Ġce iling
Ġsumm ary
Relig ion
B ur
D ep
N G
T al
f elt
g am
m ass
it ution
Ġw Ã¶ch
Ġb irds
as ters
Ã¼ sten
ĠB C
ĠB ird
ĠM ahl
ĠP on
ĠP ent
ĠK id
est ag
ĠSch ein
ĠAn kunft
Ġ18 11
be y
ĠTh om
Ġcan ada
ign y
chn ungen
ĠGra y
app ing
Ġsome where
ĠAnd re
alen a
ĠJul ian
Ġger ufen
vers uch
Ġbl end
ĠFin ance
Ġtyp ische
Ġjeweil ige
Ġnie mals
Ġrelat ive
ĠKle idung
Ġsug gested
ĠProf i
Ġhappen ing
ĠHÃ¶r spiel
ĠLig as
ĠUrs ula
ĠGru yter
ĠErschein ungs
Sa ale
Ġsitu ated
ĠLaus anne
Ġbekleide te
h ost
t it
Ġd ent
Ġm un
ĠP all
ra uchs
et ition
ĠL ic
Ġg riff
ĠN utzen
Ġl ady
ĠSt all
Ġun klar
Ġr ug
Ġsch afft
Ġso il
iz ierten
her it
auf lage
ĠAb satz
ster ben
ĠMe ilen
Ġ17 00
of ern
ĠPe er
Ġpass ing
Ġrest r
Ãĸ k
Ġdav or
ĠDienst ag
ĠHall ow
Ġreport ing
Ġful f
ĠerhÃ¶ hen
Bad minton
Ġfail ure
Ġsuppl iers
ĠAuÃŁ ens
FuÃŁ noten
ĠShang hai
C hem
H g
b eln
d orff
l Ã¼ck
l ong
u tel
w Ã¤nde
Å ĳ
Ġt ill
Ġs Ã¤chsischen
Ġb io
le itz
Ġh am
âĢ ¯
ĠK essel
ĠI M
ĠH Ã¤nd
Ġg ratis
ĠN ut
Ġl adies
ul us
Ġe ignet
ĠO cean
Ġr iding
Ġnach folgenden
ob ahn
io xid
ĠNe uk
teil ungs
Ġro y
ĠFra g
Sch ul
Ver band
ĠMin istry
ĠVerb ot
40 6
Ġbook ing
rÃ¤n ken
Ġschn ellen
met ter
Ġpack ages
Ġamer ikanischer
Ġconsum ption
Ġpropos al
ĠKrist all
Bet rieb
Ġzul Ã¤ss
ĠUd SSR
c amp
g rÃ¼nde
j ap
Ġm useum
il ang
ĠP aint
ĠT ipps
ĠF urniture
âĢ ³
ĠK alender
ĠH un
ĠW DR
ĠL if
ĠC ool
Ġbe legen
ĠN ATO
den ken
Ġk ill
Ġge habt
ĠZ Ã¤hne
Ġver mittelt
iz it
ĠAb bau
ult iv
18 82
ĠSchw ert
bar es
Ġbeg rÃ¼
ĠSh are
Al though
Ġdown town
ĠBere chnung
ĠPat ient
ĠMay be
ĠSchm id
Ġtradition ell
Ġbisher ige
BC I
Ġcolor ing
ĠKÃ¶nigreich s
ĠGatt ungen
ĠGU I
ĠBreis gau
N ein
b ow
e v
j ob
v gl
w iesen
ĠS ow
ĠS owohl
ĠK ante
ĠW elle
ĠR ights
ĠL ade
ĠV Ã¶l
Ġdes ktop
ĠO ft
ann ers
Ġle ts
ast ral
Ġum liegenden
ĠAus b
ett es
Un ser
ĠGrund stein
esen ted
Ġbas ketball
Ar ray
ĠAt tra
ĠRÃ¼ck seite
ĠOlymp ia
ĠTer ra
ĠMor ris
Ġfac ulty
Ġevent uell
ĠErw art
Ġregul ations
Ġconcern ing
Ġstruct ures
date i
Ġvergleich sweise
Ġprof iles
ĠTisch tennis
Ġzeich nete
ĠgÃ¼nst ig
Ġestim ated
! âĢĿ
R P
c al
m ill
m aus
r ike
t ages
Ġs aving
Ġf inger
le kt
Ġm erk
ĠB L
ĠF ron
ĠG umm
ĠW eiden
Ġk lin
ien z
ste ins
ĠAl abama
ov es
18 95
to o
Ġges ungen
Ġbeg leitete
ĠBau reihe
Ġverb lieb
ĠHaupt mann
bo ards
stÃ¤nd igen
Ġfl or
Ġmark ed
ĠDurch schnitt
ĠEd itions
ĠPl ug
ĠKreis stadt
ĠHerr schafts
ĠCont est
Ġconc ert
Ġober e
ĠBor ussia
ĠKle id
ĠKommand ant
Ã¶p fer
ĠKamer amann
ĠkÃ¼nstler ischen
ĠSmart phone
Ġsav ed
Ġgrund legen
ĠGenehm igung
H igh
T hre
in um
is i
te ch
ĠA j
ro gen
ĠG utsch
ent ums
ĠR ally
ĠL ese
Ġer g
Ġth in
Ġth esis
ul ierte
ot ischen
os hi
ah ler
Ġent decken
ĠCh ancen
ĠSchw aben
Ġgen der
ish ers
Ġges tern
ĠSo ul
ĠGra u
Ġph arm
ĠBundes land
Ġschw ach
Ġem otion
ĠPer ry
ĠPer fect
ĠGed enkt
ĠBischof s
kn Ã¼pf
Ġstre ets
Ġverlie bt
Sport veranstaltung
ĠDisk uss
But ton
Ġrecogn ition
ĠSem ester
Che ck
S ol
m essen
s g
s wert
s iedlung
u ka
er folg
er gebnisse
Ġt ack
at ible
Ġf as
Ġv enez
Ġh rsg
Ġc lock
ĠH ur
ĠH au
ent on
ĠL ane
Ã¶ he
Ġdes wegen
ĠO swald
ĠZ F
we alth
ran ts
ov ice
Ġwas h
ĠSe chs
Ġwor st
18 78
Ġsh ut
rat ch
ĠVor jahr
ĠHer itage
Ġ17 98
Ġout fit
Ġsu c
Ġrec ipes
sh afen
ĠHand ballspieler
ĠSc ient
Ġgu ard
ĠStre ptoc
fass ade
Ġalong side
ĠÃ¤hn lichen
Ġversch le
Ġschwer er
Hand ball
Ġaccount ing
bi B
kle id
ĠBayer ische
Ġassoci ation
ĠFeder ation
ĠBob by
Ġindustr ies
ĠPok er
gÃ¤ u
Ġsy mp
ĠSecret ary
ĠBapt ist
C ount
p fe
Å ¯
Ġh ung
ĠT iger
ĠG ent
ĠG ate
ir r
Ġzu geschrieben
Ġver e
esch e
be cker
18 94
ikan ten
Ġover w
for cement
ĠStra tegie
Ġbesch reiben
Ġrem ind
Ġnational er
Ġcap abilities
lÃ¤uf ig
ĠMiss ions
Ġoffic ers
Ġlik ed
Ġsn ap
vol ler
ĠVerÃ¤nder ung
Ġwunder sch
Ġmort gage
Ġsustain able
ĠVikt or
ĠKompeten z
ĠSpekt rum
1 18
H B
on ed
ĠM Ã¶rder
Ġp itch
ut o
ĠW rest
ĠC afÃ©
Ġl ake
Ġden ken
ĠO le
Ġ18 25
Ġ18 33
Ã¶r ten
Ġvor erst
Ġwor auf
Ġ- >
18 88
Ġgew alt
Ġfin est
ĠMan hattan
ĠTra uer
Ġje welry
ĠPe ak
ĠCl ara
zie her
Ex p
rib e
Ġgem essen
ĠKommun e
ex p
anze igen
Ġkosten lose
ĠLeg isl
Ġnotwend igen
cast le
ĠVerkauf s
ĠdÃ¤n ischer
ĠLandtags wahl
Ġdiagn ost
ĠBeob acht
ĠBrook lyn
fÃ¼ll ung
Ġilleg al
cour t
Ġfasc in
B rÃ¼cke
O U
T ur
W ald
g d
in sp
le ments
ĠD ess
ĠT Ã¤
ĠH MS
ĠW ink
ĠC el
Ã¶ ster
ĠN ancy
ĠSt ro
ab wehr
est one
os er
ĠSch iffen
ĠAn merkungen
ĠBe ge
ĠAl ois
Ġ18 21
Ġ18 29
ast ing
ĠPro jekts
pt y
lo yd
tra cht
18 93
ail ing
ĠNach frage
ĠMe ier
ĠAm ate
mit ten
ĠVerb Ã¤nde
Ġschw eizer
ĠKunst s
ĠPl Ã¤tzen
upp e
gar de
ĠBed room
ĠMc L
fil men
Ġhead s
ĠhÃ¶ch st
Ġlov ing
gÃ¤n gen
ĠPhilipp inen
ĠvollstÃ¤nd ige
ĠÃ¼b licherweise
Ġmatch es
Ġren omm
fur th
Ġregion ale
Ġgegeben e
ĠVis ual
Ġerf uhr
Ġtats Ã¤ch
Ġfair ly
Ġextens ion
ĠSwe et
D istr
L AN
W al
b lau
m auern
o ine
z essen
Ġd einen
ĠS le
ĠS iz
Ġb ars
ĠM old
Ġp oker
ĠE i
ĠC u
Ġk unst
ik s
la fen
ĠIn fe
ĠAn atom
Ġsp ir
ĠBe is
ĠTh urn
ĠSe kund
ĠNe uf
ĠAus sehen
gl ad
res erv
ĠOber flÃ¤chen
bo le
akt ions
oph ys
lig as
Ġsuch te
Ġret ire
Ġbelie ved
ĠBro t
ĠMc K
ĠHeil ige
roll ing
ĠJazz musiker
Ġinform ed
ĠPil oten
Ġtw enty
ĠSchÃ¶n heit
ĠSus anne
Comp uter
ĠAster oid
ĠFlÃ¼cht linge
Ġerl itt
Qual ifikation
verletz ung
Ġstir bt
/ -
G leich
H D
L ouis
M ult
c ue
r ent
w alk
w affen
in haber
Ġd ust
Ġb ol
ĠM ic
Ġn ob
ĠT rop
ĠH ins
ĠH urr
Ġl uther
ab ad
est adt
ind a
sp lan
ĠRe chen
end orff
ste her
Ġsch lossen
ĠBe werb
ord ination
Ġent s
Ġvor geschlagen
ĠLe gend
Ġman agers
Ġges perrt
ule tzt
Ġke ys
ĠCon temporary
ĠEle menten
Ã¤nder ten
Ġtechn isch
Ġdiffer ences
ĠMag ic
ĠVolks schule
Ġleg isl
ĠTÃ¼r en
ĠMary land
Ġimplement ation
Ġtut orial
ĠRon ald
ĠBuk arest
ĠRome o
Ents te
ĠBuen os
Z E
w ed
w enden
al p
ge fÃ¼hl
il iate
ĠK ie
Ġz iv
ĠI van
ĠH oy
ĠL A
ĠN iveau
ĠJ Ã¤nner
Ġim per
ver folgung
ĠVer pack
Ġr ichtete
ĠEin tritt
Ġch annels
18 91
Ġtra g
fÃ¼hr ende
ĠFilm regisseur
fr iger
ĠAll iance
kreis es
ĠFe atures
Ã³ r
ĠBi ologie
ĠBeg leit
Ġprom pt
Ġant rat
Ãĸ ff
ĠTro phy
Ġstay ing
Ġkont akt
Ġachie ved
Ġpain ted
Ġdisplay ed
grÃ¶ÃŁ te
ĠLiber al
Ġexter ior
ĠKÃ¶n ige
ĠFore ign
ĠBesonder heit
ĠDunk el
ĠSams ung
ĠShakespear e
D el
T Ã¼rk
h aut
o ons
ch witz
Ġs ending
ĠM C
ĠT orn
ĠE cht
sch ung
sch ers
ĠV ice
if ies
Ġst ieÃŁ
ĠVer hÃ¤ltnisse
ĠÃ¼ber prÃ¼ft
ungs weise
ĠBau werke
ĠCar s
urt stag
vor stand
Ġben annten
Ġbo ot
ĠSchl Ã¶ss
ĠPal Ã¤
ĠPal ace
ifiz ieren
umb oldt
ĠGen au
ĠKat astrop
ĠZe ugen
herr n
fo ot
ĠAp oll
Ġpurch asing
ĠWel come
Ġverz ichtet
sper re
ĠProt otyp
ĠGeschle chter
Ġguarante ed
ĠHess ischen
ĠGroÃŁherzog tum
ĠCham ber
ĠGoth a
Ġcrow d
ĠZert ifik
ĠSynag oge
ĠKavaller ie
G S
M E
Z ent
c at
l uther
w ischen
it ischen
Ġt reas
Ġb lau
ĠG ou
Ġc in
ĠR ade
ĠL ack
ist isches
Ġer werben
Ġan spruchs
Ġe hr
ik ts
Ġre lief
ĠSch ar
Ġver me
ag ues
aus wahl
qu in
ard t
ov Ã¡
Ġyour s
ĠCh art
ft rainer
je ction
ĠMe et
ĠTra il
ious ly
Ġevery where
Ġeigen em
stÃ¤nd ige
bl ings
sche w
Ġgra u
ĠBest immungen
Ch ina
ĠProfess oren
ĠRed aktion
AL L
Ġmag ic
ĠPhilipp e
Ġstat istics
Ã¤um t
Ġrecogn ize
Ġult ra
Ġfight ing
ĠRug by
ĠStu art
C arl
E ss
G F
I r
N och
b eing
Î »
Ċ ĠĊĠĊ
en ien
ich i
ĠB reiten
Ġein heim
ĠK anten
ra ck
ĠW onder
ĠR out
ĠC N
ir ischen
Ġer fre
ĠN atal
ck el
eb y
ne z
sp ec
Ġr ural
ĠSp ain
ĠBe fÃ¶rderung
ĠIm port
iger ung
Ġco ordin
Ã¤ch ern
ĠÃľber setzt
ĠHand y
Ġass um
ĠRom ane
ĠAss embly
rech ten
Ġphot ographer
Ġprom ise
ĠLauf zeit
Ġmar ks
Ġcert ification
Ġcontrol led
ĠDreh arbeiten
ĠKle ider
ĠJer ry
ĠFund platz
Ent fernt
ĠDann y
Ġapproach es
Ġdeutschsprach ige
Ġprefer red
Ġdrink ing
ĠZul assung
Ġverbess ert
Ġdigit ale
ĠMaur ice
ĠLearn ing
Ġexpos ure
ĠangekÃ¼nd igt
B urg
H en
b elt
c ut
s eiten
Ð ·
Ġ Ñģ
re ff
ĠB ilden
ĠD ill
st imm
ing o
ĠL amb
Ġst range
Ġver mein
Ġfor ever
Ġde fense
th alter
ĠAn to
Ġsp ark
ĠEin blick
tell igent
Ġvor bereitet
ĠGe is
che f
ĠAb bildung
ble me
ĠNational park
Ġeinz iges
ata ill
ĠPhil harmon
other apie
Ġentsp rach
Ã¤us chen
Ġeng agement
Ġcommun ications
sc reen
Ġcr ash
ĠBeruf ung
bÃ¼ hne
Ġmatch ing
ĠNachbar n
ĠEntwick ler
Ġstammen de
umin um
Ġchines ische
kom Ã¶die
Ġlif etime
tor wart
Ġrefle ct
ĠDub ai
ĠEreign is
Ins eln
Ġvict ory
": "
ĠKob lenz
Ġegg s
ouv elle
ĠLiver pool
C amp
J ournalist
j ing
Ġd raft
is erie
an as
ĠA sk
ĠD A
Ġp ics
Ġein fluss
Ġn ad
ĠT ul
sch mer
sch Ã¼tz
ĠV amp
ĠSt orm
Ġde kor
Ġab gebaut
ĠSp reng
Ġsp ray
Ġnach t
Ġnach weis
ĠÃ¼ber arbeitete
be weg
gr ammen
ĠLe er
Ġro ot
yp e
sk l
ĠFra cht
vent ional
Be lege
Ġcar pet
ĠHar per
ĠRei fe
mark en
ES S
ĠZur Ã¼ck
ĠBy z
Par is
ĠBrun s
ĠjÃ¼n gere
Ġcrit ic
ĠAns ichten
Ġsle e
Ġdauer haft
ĠZerst Ã¶rer
ĠTrotz dem
rup ted
ĠÃ¼berrasch end
K ommun
M r
Y W
f uÃŁball
f licht
p ower
in formation
ĠS O
Ġo ven
ĠP uerto
ĠK ran
om o
ĠI ra
ĠH R
ĠR ass
ir ges
ei z
if i
ess piegel
Ġst uck
ah o
sp eicher
ĠRe z
enn ungs
yp ern
ĠBo ote
ĠTr i
aid sch
Ġsub s
link plain
ĠMittel n
ĠUr spr
En glisch
ĠMay er
Ġhal ben
Ġmeet ings
ĠTit an
Ġrestaur iert
Ġgre y
ĠAch telfinale
schlÃ¤ gen
Ġblock s
Ġlos ing
ĠbestÃ¤t igte
Ġcontrib ute
ĠAster oiden
Ġbess eren
Ġsuffer ing
ĠAar on
has Access
Ġbefind lichen
ĠInterpret ation
ĠFriend s
Ġtourn ament
ĠStreptoc arpus
J ud
w ende
z weig
ch sen
Ġs ke
ĠS ang
ĠB att
ĠD utch
ĠK ein
ĠR iv
ĠL id
Ġg ate
Ġg rant
ĠN ak
ĠN acional
ik at
ab st
ib ia
ĠDe part
ĠCh and
Ġad j
Ġup grade
ied el
ĠBar ry
ĠZusammen setzung
ĠStaats sekretÃ¤r
Ġerhalten e
ĠPal ais
ĠHel p
str ong
ĠKol onie
Ġflo ors
Ġcover ing
Ġlaw yer
ĠEt appen
Ġens uring
All gemein
kap it
kap ital
Ġassist ant
ĠNic olas
Ġumfass enden
Ġcommit tee
ĠLuc as
spro gramm
ĠTok yo
Ġhop ing
ĠErwachsen e
ĠBeweg ungen
ĠSyr ien
schles ien
ĠRepar atur
ĠPho enix
ĠHels inki
A c
A ktiv
B ras
L es
P ack
V arian
r asse
Ġa cts
ĠP ause
ut age
ĠL anka
Ã¶ ten
Ġbe zeichnen
Ġal arm
ĠSt urz
ĠSp alten
Ġdies el
fer enzen
dem ann
olog ists
Ġseit ens
Ġmake up
ĠBuch es
med ien
ĠEd mund
ĠMot oren
Ġcor respond
ĠRu ine
Ġbeh ielt
mel de
Sh ow
flug zeug
Ġposs ibility
Ġkrit isierte
Ġmaint aining
ĠmÃ¤nn liche
ĠangehÃ¶r te
ĠBeaut y
bÃ¼t tel
ĠPict ure
ĠAuthor ity
ĠPaz ifik
Ġneut ral
Ġspac ious
ĠschlÃ¤ gt
b ilden
f und
h ill
m ain
m Ã¼nd
in formationen
an ced
Ġw esentliche
Ġb Ã¶hm
ĠP for
Ġp ad
ĠK ick
ĠK eith
ĠH ain
ĠL LC
ĠC onstruction
ers e
ers p
Ġge le
Ġre fin
ver hÃ¤ltnisse
ĠAn sonsten
Ġ18 26
Ġcon vey
erk irche
Ġ4 000
Ġen tert
ĠAuf stellung
ĠGr Ã¶n
ĠDies en
ĠGes and
Ġbef asste
ym ph
ĠAll iierten
Ġsk illed
ĠDo ctor
ĠPlan eten
ĠHistor ical
Ġnorm alerweise
ĠLu ke
ban ken
ĠSpr ings
ĠBol iv
ĠGolden en
Ġwohn te
ĠSym pt
Ġattack s
DE F
Ã¤rt yr
Ġnorth ern
Ġles b
ĠVerletz ungen
Stat istik
andem ie
Ġbegeister t
L ab
N ote
V ID
b og
m aster
r one
Ġb ow
ĠM s
de uten
Ġn ights
ĠG is
ĠK ell
ra ys
ĠR S
Ġto ys
Ġl augh
Ġan wes
uch tt
au c
sp anisch
ĠRe eder
Ġsp ots
Ġse ctions
ĠJahr taus
âĢľ :
18 84
ĠAus lÃ¤nder
ĠY e
Ġro se
Ġges ammelt
ĠEx change
ĠQu edlin
Or dens
Ġsub jects
ER S
Ġrep airs
Ġview ing
Ã¨ ne
Ġmein t
ĠMaler in
Stand ard
ĠJournal istin
Ġvorhand ene
ĠKre u
Ġop ens
kra ut
Ġill ness
Ġerhe bt
Ġdiv or
Ġpopul Ã¤r
Ġoffens ichtlich
Ġris ks
emeter y
B enz
S ong
S Ã¶hne
W ein
a endert
g ger
l ot
t ier
z ies
Ġf ikt
ĠP Ã¤dagoge
ĠT ool
ĠK lagen
sch atz
ĠH erk
ĠR ates
Ġmit ten
Ġre cover
ĠSch mitt
ĠIn fo
ze k
ĠEr ben
ĠAr range
ĠDe g
Ġunter ird
ac a
18 70
18 71
Ġcomp uters
Ġ17 90
fl Ã¼ge
ĠPr inzen
ĠChr ys
ĠSh ar
Ġind oor
ĠVers te
ĠRes ources
âĢ¦ )
ĠGew ichts
Ġgener ated
verb rauch
Land tags
ĠPla ces
Ġinn ere
ĠWol ken
Ġdeal ers
ĠHu ber
Ã¸ r
ĠWay ne
ĠOR F
ĠPerspekt ive
Ġbevorzug t
E ach
l ob
Ġb elt
Ġb unch
ge halt
ĠP rÃ¼
ĠE c
Ġc enters
sch iffen
ĠH ipp
ent ially
ĠJ et
ĠU V
ĠIn vent
ĠAn alysis
Ġpro port
18 81
ĠAus rÃ¼stung
ĠY et
ĠNach halt
ĠNach weis
Ġher itage
Ġres idence
ish op
... )
ĠgehÃ¶r enden
mÃ¤ ss
ĠKunst geschichte
Be ispiel
Ġdel ay
Ġtrans mission
AR D
ĠBesitz ungen
Ġdra wn
ĠClub s
Ġautomat ic
ĠVis it
atr ium
ĠFlo or
Ġreligi Ã¶se
ĠCustom er
ĠgrÃ¼ nen
Ġdaz ugehÃ¶r
ĠArk ansas
ĠAlf ons
Wor ld
F rance
ar ius
ĠS ais
re am
ĠF em
Ġz one
sch ool
ik alen
os serie
ĠSch enk
ĠSch okol
ĠRe chnung
ĠAn wender
Ġpro ceed
Ġsp ont
ĠAb teilungen
pr es
iss er
Ġco al
ĠÃľber reste
Ġgeb rÃ¤uch
ĠNational en
ific ial
Ġshe ll
ĠWh ich
ĠHÃ¶ hle
eh ler
ĠJe anne
Ġgemein nÃ¼tz
Ġentstand ene
gar ter
Ġgem isch
ĠKlein stadt
ĠRot ter
ĠAuftrag s
Ġfra uen
krit iker
ĠGefangen en
marsch all
Ġkompon ierte
Ġaccompl ish
ĠLibert y
ĠSingap ore
ĠErzbist um
Leicht athletik
A p
B ass
B ilder
E F
H op
n ia
t our
ĠD ad
ĠD rachen
ĠF oss
om i
ĠW ladimir
ĠR umpf
Ġbe zeichneten
ĠN athan
Ġdes ired
Ġsch ul
Ġsie bten
ĠTh ings
los ion
Ġres istance
heim ate
Ver fahren
ĠGroÃŁ vater
hol ders
ÃŃ k
mar ks
Ġfound er
ĠIns zenierung
ĠDis play
ĠGraf iker
bÃ¼ chern
Land es
ĠSied ler
ĠRem ote
ĠAuÃŁen minister
Ġtravel ing
uell es
Ġsort iert
Ġunmittelbar er
ĠKrank heiten
quis ition
ĠFranch ise
ĠHallow een
% ,
P rÃ¤
c omm
d lichen
r ible
s ort
x p
er z
Ġt ip
ĠG riech
ĠK iss
ĠE L
Ġc ul
ĠR idge
ĠL etter
ĠC V
ĠZ ister
Ġdem nach
ĠIn fl
ĠAn reg
ap o
ĠThe at
etz te
ĠFl Ã¼sse
utz er
fÃ¼hr ungs
iet ies
wa ppen
ĠGr unde
sh ow
alen ted
ĠBo hr
Ġtr usted
ĠHaupt bahnhof
ĠVol umen
ĠHÃ¶ hlen
ĠLie chtenstein
Ġkein es
ĠRegel ung
ĠJust in
Ġentfern en
pre uÃŁ
mel det
ĠRein hold
ĠNorm andie
ĠRÃ¤ umen
ĠWahr scheinlichkeit
Ġcharacter istics
rÃ¤nk ungen
ĠOrgan ist
Nieder lage
Ġintens ive
Ġremov al
Ins gesamt
ĠEconom ic
ĠBir ken
owohl t
ĠPassag iere
Ġton ight
ĠEqu ipment
ĠDemonst ranten
ĠSchlagzeug er
sph ase
gebÃ¤ udes
Brand enburg
ĠLoth ar
Ã¢te au
A qu
B rig
F P
G alerie
H ave
b em
b les
f ig
g ary
k Ã¤
m useums
p he
ĠS ten
ĠB rom
ĠP iano
ĠP yram
ĠF ig
ĠG rem
ĠK app
ĠN as
Ġy oga
ant ie
ĠPro be
Ġunter b
ĠCh ip
ĠAuf stand
los ure
fol k
olog isches
Ġar rested
use hen
wer fen
ĠTeil chen
Ġexper imen
ĠHol ocaust
fel de
Ġfac es
Ġlow est
ĠPlat te
mat ik
ĠCons erv
Ġreason able
ĠlÃ¤nger en
Ġinj uries
struktur en
Ġsowjet ische
Ġenth ielt
Ġverwand t
ĠDiffer enz
Ġinteract ive
Ġsurpr ising
Ġverbre itete
ĠArz ne
Verwalt ungs
beteil igung
ĠPhÃ¤n omen
penden ce
useel Ã¤nd
Ġpersonen bezogen
E st
F el
S U
f onds
h om
Ġd ritter
ĠS urf
Ġf iction
ĠB oss
ĠG uer
Ġc arr
ĠC ore
Ġbe deut
Ġim pression
Ġmit hilfe
pp el
Ġunter richtet
Ġen han
lo cken
ĠUnter lagen
Ġbut t
Sch war
Er z
Ġange griffen
ĠQu in
ĠProdu ktionen
anst alter
urr ently
Ġcommun icate
ĠMot ive
ĠDav on
Ġobject ive
stÃ¼ck en
Ġcr isis
ĠOs man
Ġwatch ed
ĠBÃ¶ hm
ĠDor othe
ĠMand at
Ehemal iges
Ġanges iedelt
ĠOrient al
Ġdigit alen
ĠPict ures
ĠReichstag s
ĠNeck ar
Ġwechs eln
ĠprÃ¼ fen
ĠErstaus strahlung
A uÃŁen
D ay
F er
M ad
N orth
P res
j ournalist
Ġw estern
at ively
Ġm ad
Ġv irus
ĠP oten
ĠP latt
Ġh anging
Ġh ielten
ĠF K
ĠK Ã¤lte
ĠH arm
ĠW als
ĠL oc
Ġer setzen
ĠSt ick
ĠSt immung
ĠZ irk
Ġver legte
ĠIn stead
men gen
ĠBe zeichnungen
ia z
iz ismus
ĠSie mens
Ġbes eit
fl ix
aw are
An n
ĠJul ie
bo und
schl iess
Ġfind s
ĠKomp onente
ender s
ux e
Ġpriv ile
Ġann iversary
ĠWar um
ĠCom par
ĠPo ul
serv ice
seit ige
Â» ,
mo or
Ġtransport iert
ĠLeon ard
Pre uÃŁen
Ġschle chten
Ġgesetz lichen
ĠtÃ¶ ten
Ġoccur red
ĠGebirg s
glad bach
L ondon
T able
W ol
f rom
o a
o ft
s ign
Ġt ags
Ġf t
sch Ã¤den
ĠL er
ĠC atherine
Ġbe heimate
Ġk at
ab sicht
Ġr ice
Ġsp iegel
Ġ18 23
ks hire
ĠDe an
Ġent it
mit te
ors es
ĠAd rian
ats on
ser b
Ġ13 00
for um
ĠHaupt rollen
wohn ungen
Ġausge legt
Ġdevelop ers
Sp iele
ĠHel en
Ġprofess or
less ly
ĠSen ate
ĠhÃ¤ufig sten
Ġeurop Ã¤
ĠUntersuch ungs
Ġvorher igen
Ñģ Ðº
Ġsah en
ĠschÃ¶n sten
ĠAbst immung
ĠBasketball spieler
verstÃ¤nd nis
sthe ater
Ġsem i
ĠGab rie
ĠKonzentr ations
Ġarab ischen
ĠBran chen
ĠLegisl atur
l ia
m esse
s u
ar ag
Ã¼ bt
Ġm g
el i
ĠE llen
ed ern
ĠC z
ĠC abin
Ġl itt
ĠSt ress
ow ers
ĠSch lÃ¤
ĠSch ienen
ĠAn zeigen
Ġj ahre
tell ten
Ġent t
ĠLe v
Ġcont aining
ĠOber sten
ĠBundes staates
ift y
ĠGeneral stab
wei he
ĠTour en
ĠFot ogra
inc inn
ĠWar ner
ĠRegel ungen
OR E
Ġans telle
Ġimp ossible
ĠEngl ischen
ĠLeg ion
ĠrÃ¼ck te
ĠZweit ligisten
ĠFur ther
inten do
ĠGÃ¶t ter
Lei p
Ġconfl ict
Ġlegisl ation
D L
H N
M iss
f ly
h Ã¼gel
m ing
Ð ¿
Ġs inger
Ġp iano
Ġh ate
ĠT ickets
ĠK opp
ĠH olding
ĠW ur
Ġer laub
ĠN ike
Ġan gle
ĠSt op
Ġdem ent
ass istent
ĠEr finder
Ġsp in
Ġ18 28
iz ip
Ġcon cepts
Ġvor ange
In itial
Ġbet reiben
sh ot
pf Ã¤l
stÃ¤nd igkeit
Ex per
ĠMod ul
ĠTor ped
AR T
ĠStat ue
ĠOut door
lim ited
Ġgriech ische
Ġanz ut
Ġrepla ced
ĠBox er
Ġschle chter
ĠMig uel
Part ner
stÃ¤d te
Ġsau ce
Ã¼h ungen
ĠNapole on
F ile
N amen
k urz
p red
ĠS r
ĠS ometimes
us ions
ĠD amm
Ġp Node
ĠF ay
ĠK unde
ĠE cuador
Ġz Ã¤hlten
Ġl ists
ĠV u
Ġal b
ĠSch ritte
ver ordnung
Ġvor an
ĠTh under
ĠAm tes
ĠGes ellschaften
ĠzurÃ¼ck zufÃ¼hren
Ġhand ling
ĠReich weite
Ġsur ve
ĠBay reuth
ĠAnt wer
ĠAnt worten
Ġeng age
schw anz
zentr ale
Ġwest liche
fert igung
ĠJo an
ĠSitz ung
ĠRec ord
ĠModer nis
Sh op
Sport liche
ĠSteuer ung
Ġtax es
ĠverlÃ¤ sst
ĠKirch spiel
Ġsatis faction
Ġmedizin ische
ĠKanz el
Ġcoun sel
ĠSerb ien
ĠBundesverdienstkreuz es
Ġfir ms
B O
M or
e hemal
j er
k os
m isch
o fen
p osten
r ass
ch at
ĠS ession
ĠB eine
ro c
Ġh ob
ra ÃŁe
ĠI X
ĠW inn
ach i
Ġl aptop
Ġe cht
ĠSt ief
ĠSch lange
Ġr ib
ĠAn liegen
ĠEin nahme
ĠEin stieg
Ã¼hr ung
Ġen gen
18 77
ĠY ellow
ĠMar mor
ĠNach ruf
ĠWe ich
Ġar ms
ĠSte vens
Ġ12 8
wick elt
ause e
ĠPol ar
Ġviel mehr
ĠKunst historiker
ĠÃĦ thiop
He im
Ġbeh inder
produ ktionen
ĠSchloss es
pol izei
ĠjÃ¤hr liche
hab ilitation
ĠErk enntnisse
ĠKomb in
polit ische
ĠÃ¼bergeben e
ĠRÃ¶m ischen
ĠArg ument
ĠNob el
ĠVul kan
ĠEnvironment al
ĠBundestags wahl
ĠDak ota
ĠKÃ¤rn ten
incinn ati
D ruck
N un
b ab
u als
w achsen
Ġt ap
ĠS U
ĠS oll
Ġb ird
Ġf Ã¼nfte
Ġm ath
ĠB owl
ĠP aw
ĠT enden
ĠH ous
hr ten
Ġg la
ĠN om
ik ameister
Ġsp an
Ġor ch
Ã¤r kte
ĠTh ink
lan ken
Ġcomp liance
Ġ17 89
ĠMus l
ĠBl itz
Ġrec re
Ġdire ctions
Le ague
iat rie
ĠSchm el
produ kt
ĠStaat lichen
ĠZeich nung
ĠBy te
Cl ick
Arch itekt
Ġauthor ities
Ġinteress ant
ĠdÃ¤n ische
fle isch
ĠErm land
ĠEint rÃ¤ge
imens ional
ĠCommon wealth
ĠLuk as
ĠWitten berg
ĠGeschw ister
ĠSchwarzw ald
C R
F ar
S am
T her
b ig
k asten
l Ã¼sse
s Ã¤nger
t iere
Ġt one
ĠS oci
he ll
ĠM esser
Ġh orn
sch lagen
ĠW eing
ĠL ost
ĠC ON
Ġpro ve
ap elle
Ġsch lagen
Ġor al
rÃ¤ te
ĠSe ction
ph p
dem ar
able d
iter ran
Ġco at
pro vinz
off er
Ġra ted
ĠBau arbeiten
Ġcl ar
Ġbu ck
aur er
Ġbas ically
ĠPort o
Ġser b
ĠChe fredakteur
verb ot
amb ia
Ġair craft
ĠDesign s
Ġstudy ing
Ġerk annte
ĠStamm es
Ġaddress es
merk ung
Ġcra fts
Ġbox es
ĠCra ig
Ġbein ahe
polit iker
Ġsouth ern
ĠProte ction
ĠRav ens
ĠMix ed
Bay ern
Ġgarant iert
ĠLuftw affe
Ġverabschie det
1 000
C ity
H or
O der
d isc
s heim
is le
on o
Ġs ank
ĠS QL
Ġb rows
Ġm ounted
il dete
ĠG os
im edia
sch ar
ĠH az
ĠW ilm
Ġl aden
ĠJ i
Ġe c
af ter
ĠRe present
ĠSp in
Ġsch Ã¤tz
Ġcon ten
Ġent rance
ĠGe fÃ¤
Ġall mÃ¤
ĠReg istr
ĠWelt rangl
Er mittelt
Ġlang uages
Ġpass word
ĠTechn iken
Ġgl Ã¤n
ĠChe v
Ġgem Ã¼t
ĠHa are
ĠBed ien
Ġhol en
Ġpersonal ity
Ġconc ent
ĠSl ots
ĠImm un
ĠStoff e
Ġcarry ing
Ehr endoktor
Krit iken
ĠClin ton
Ġpregn ancy
ĠWeih bischof
1 13
T I
V e
W G
an ter
ĠS it
us c
ĠM ilitary
ĠP anz
ĠP Ã¤dagog
ĠF eb
sch Ã¼tze
ĠH Ã¼tten
ĠR owohlt
ĠN it
ik ale
ad Ã©
ne cht
av el
Ġi bn
ste il
Ġen de
Ġwor se
ĠMe gal
haus er
ĠGeb irge
ĠUm frage
ĠGer ichte
Ġdesign ing
ĠPa are
ĠHaus halt
ps is
Ġersch lossen
dienst es
Ġabge legt
iat ischen
Ġref resh
ĠrÃ¶m ischer
Ġrequire ment
ĠRob inson
Ġwonder ing
verwalt ungs
aust ausch
Ġfall ing
Ġdest roy
ĠZimmer mann
Ġincreas ingly
berecht igt
Ġconven ience
ĠðŁ ĺ
Ġstrug gle
ĠDoc ument
JÃ¤hr ige
Ġcircum stances
Ġphen omen
F ue
R ek
c il
g aden
h au
h our
i ah
Ġd ot
Ġs enk
ĠS MS
Ġb ands
Ġf liehen
Ġm ood
ĠA chter
ĠB ibl
st ance
ĠF lat
ĠF ish
ĠI v
ĠH ear
ul ierung
ĠO P
aus chen
aus stellungen
ze ch
ĠEin stellungen
ĠLe gal
ĠSe oul
ĠHe avy
ĠUnter grund
Ġcomp act
Ġgew Ã¤hlten
Ġfe ier
ĠGem Ã¼se
Ġbet ont
sk Ã¤mpfer
Ġges endet
ĠGra ce
ĠKar in
irt schaf
ĠAnd er
Ġind ia
ĠArt ist
ĠPe ace
ĠMon ster
stit uts
Ġact or
ĠLandes amt
pl us
ilder t
ĠDar unter
Ġbede utete
Ġhinter en
druck s
mark et
Ġopp osite
ĠCom ics
Ġsever e
Ã¤cht nis
Ġmel dete
ĠRet urn
ĠTax is
Ġdepend s
Ġreag iert
ĠTrom pe
Ġportugies ischen
ĠFreder ick
Ġvolunte ers
Ġprotest ant
Ġnav ig
ĠVertre tern
Ġverblieben en
ĠMitch ell
ĠMuh ammad
M G
S onder
b ag
f aktor
m ung
w ochen
Ġd ring
Ġd oppel
Ġs ight
Ġw is
Ġw esentlichen
ar ded
at ile
re aten
Ġo vers
Ġn ic
Ġh urt
ĠF ang
ten se
ĠV R
Ġun ex
ĠRe cher
od el
ĠSp rech
ĠAl gorith
ov ision
ob el
ĠAb kÃ¼rzung
ĠAuf lagen
ĠAuf wand
ĠBr is
enk o
gra duate
Ġfl achen
ĠRes ource
ha elt
ĠPlan ungs
Ġbro ke
Ġoper ated
ĠCom edy
ĠFil ial
ĠkÃ¶nn t
Ġresult ing
Ġcomb ine
Sport ler
ĠWirk lichkeit
Ġenter ing
ĠFass aden
Ġflex ibility
Ġfab ulous
Ġframe work
ĠLeiden schaft
Ġniedr igen
ĠKoal ition
Ġinvent ory
Ot to
Ġgemel det
ĠJugoslaw ien
A v
G rand
P o
W hether
j as
w oche
Ġ ×
it able
ĠS ource
as sten
ĠB rÃ¤
ĠB ark
ĠB allett
uf Ã¼gen
la imed
ĠZ a
Ġun iform
ĠAn nahme
ang aben
ĠAr min
Ġbis schen
ide en
ĠSe il
18 83
Ġpr inter
Ġ17 93
mp el
ĠPh asen
Ġno ise
Ġho hem
Ġtr enn
ĠQu ick
ĠInter ior
ĠReich sk
Ġgreat ly
[...]
