#version: 0.2 - Trained by `huggingface/tokenizers`
e r
e n
i n
c h
Ġ d
Ġ a
e s
n d
i s
o n
i e
i t
Ġ t
Ġ s
o r
Ġ w
t e
a n
a r
Ġ S
a l
a t
r e
h e
u n
Ġ b
u r
i ch
u nd
e in
Ġ in
a s
g e
u s
Ġ f
l e
Ġd er
Ã ¼
Ġ m
Ġ A
Ġ B
Ġ v
e l
Ã ¤
Ġ und
Ġ M
Ġ 1
i l
Ġ D
s t
Ġ o
Ġt he
un g
in g
t er
r o
i g
d e
Ġ ein
Ġ P
i on
Ġ p
Ġ n
o l
Ġ h
Ġ (
Ġd ie
Ġ T
â Ģ
Ġ F
Ġ G
a m
Ġ K
i m
Ġ E
Ġ c
t en
Ġ z
s ch
o m
r a
u t
Ġ H
Ġ I
e m
en t
Ġ W
h r
e t
Ġ R
is ch
Ġ L
Ġa nd
i c
Ġ g
u m
e d
Ġo f
b er
u f
Ġ C
Ġt o
Ã ¶
a nd
Ġb e
Ġ 2
e it
is t
i r
a ch
Ġ er
Ġ1 9
Ġ N
Ġ l
d en
Ġ V
Ġ J
Ġv on
i er
Ġa l
d er
c k
Ġ k
l ich
Ġt h
Ġd en
Ġa n
Ġd es
u l
g en
er s
Ã¼ r
Ġ im
i v
Ġ2 0
o t
Ġ e
Ġ ge
ĠS t
i k
at ion
Ġ O
Ġm it
a b
u ch
es t
o w
o s
a d
Ã Ł
an n
l a
Ġd as
Ġ y
Ġ âĢ
Ġ U
t s
Ġ re
i es
e i
Ġa uf
k t
Ġ Z
i f
ĠS ch
e b
a f
es s
Ġz u
Ġs t
al l
a h
i en
Ġv er
ie l
Ġw ur
c t
Ġy o
v er
Ġf or
Ġ is
Ġ ist
Ġd em
isch en
Ġf Ã¼r
a u
Ġal s
o p
te l
i d
a y
ich t
Ġ on
ĠI n
c e
a hr
Ġ Ċ
t h
er e
Ġa us
n e
Ġ un
as s
it h
Ġwur de
p p
a g
m en
b en
u g
il l
Ġein e
in d
o g
Ġd e
w e
ĠV er
or t
er n
Ġw ar
Ġ r
Ġs ich
s p
0 0
a v
Ġw ith
ĠR e
a us
Ġ20 1
z e
sch af
a k
o d
a te
el l
ĠA n
er t
l in
) ,
o ch
es ch
ĠD ie
Ġs ein
ĠE r
l y
Ġw h
Ġp ro
Ġ j
r an
i b
ar t
Ġ i
Ġn e
us t
en d
r u
Ġyo u
f f
ung en
h n
s te
Ã¼ ber
Ġth at
isch e
Ġa m
Ā Ā
r ie
Ġa b
g er
ig en
âĢ Ļ
ĠS p
Ġbe i
Ġ it
q u
an g
a p
s e
Ġs p
Ġ he
h t
ĠT he
ut sch
u b
Ġ le
s en
u d
Ġa uch
Ġs ch
ĠB e
Ġ 3
ur ch
k s
Ġs e
Ġn ach
Ġ Ã¼ber
Ġ1 8
tel l
an t
m er
ĠJ ahr
Ġs o
ĠU n
Ġ20 0
r Ã¼
ĠA l
âĢ ĵ
ar d
Ġw ir
Ġa s
l ie
Ġa re
1 9
âĢ ľ
ung s
Ġb is
o k
h en
u p
ĠâĢ ĵ
i a
or d
schaf t
Ã¤ t
o v
ĠE in
ol l
ĠA r
i z
ro m
i p
Ã¶ r
Ġ or
o st
Â ł
is e
iv e
Ġs ie
m ent
h l
i al
Ġd ies
Ġc om
Ġm e
Ġz ur
Ġw e
ĠD e
n en
it y
b e
h er
as t
Ġe x
ĠâĢ ŀ
Ġa t
f or
r Ã¤
Ġz um
a ge
a in
Ġw er
ĠP ro
r it
et z
Ġein er
Ġc on
Ġ um
isch er
h o
Ġz w
Ġn icht
l er
Ġ ch
m e
ic k
Ġwer den
ch en
Ġ ent
Ġw as
p t
l and
Ã¤ r
Ġv or
Ġun ter
i ge
en s
Ġd urch
Ġ es
Ġyo ur
g r
Ġh at
av e
o ur
ar k
Ġwir d
n er
ier t
. .
Ã¤ n
te d
o nd
us s
o b
h al
Ġw ie
om e
ge l
g es
Ġ19 9
u re
in e
en n
u e
el t
f er
Ġs ind
D ie
) .
ĠT e
Ġo der
ter n
Ã¶ n
ĠG e
re ich
Ġein em
Ġf rom
ĠS ie
or e
it e
er k
Ġal l
Ġb y
g t
ge b
Ã¤ nd
i o
i de
ĠC h
m al
il d
Ġth is
ĠM it
f t
lich en
st en
ĠL e
i an
Ġ Ã
ĠT h
ur g
ch e
Ã¼ n
d u
am e
ĠD er
i re
Ġh ave
at ur
Ã¼ hr
is ter
Ġ 4
z en
ĠS e
Ġein en
a c
u ÃŁ
a uf
ĠO r
ah l
Ġm an
Ġ us
ĀĀ ĀĀ
ĠA b
b eit
o c
p ar
p h
ion s
ad t
ĠN e
Ġw or
Ġ en
te t
Ġw ill
Ġc an
l at
p er
ĠB er
l o
ul t
Ã¼ ck
ic e
a ck
Ġ 5
2 0
s s
o ut
t ra
we ise
o hn
Ġ -
1 8
Ġ19 8
er v
in z
j e
ĠA us
f e
lich e
ĠA uf
ĠE n
el n
Ġt e
ch t
ation al
ig ht
on t
e ar
l l
r y
de m
Ġ Y
for m
st er
ĠL and
Ġc o
a il
Ġdas s
ig n
om m
Ġ( *
Ġb es
te il
at er
ur n
t z
f en
ĠM ar
re i
Ġn ot
k eit
on e
Ġ19 7
i le
p r
al t
l os
re is
ĠN ach
Ġs h
ĠI m
ar e
ĠM e
Ã¤ hr
it ion
on g
r at
' s
re t
all y
ĠH e
or en
ĠW e
it z
l an
is s
r en
ich te
ĠV or
Ġh as
k e
l ass
am m
T he
ĠD as
iv ers
de t
Ġde utsch
em ber
ier te
I n
Ġi hr
c o
b urg
Ġ19 6
ul d
Ġp r
im e
f ol
ab le
ol og
Ġa d
Ã ©
u te
a z
ĠUn ter
Ġwur den
he it
am p
ation s
ber g
ein e
il m
Ġ 9
ro ÃŁ
ing s
Ġa r
Ġ 6
ak e
iel er
er en
Ġs ow
Ġw eit
at en
Ġcom p
ĠZ eit
ĠH er
al e
th er
Ġh er
at h
it er
Ġn ur
eb en
Ġw o
Ġi h
Ġd o
Ġ "
Ġ1 7
ĠA m
ers on
Ġv om
a ut
r ich
ĠF l
om p
W eb
Ġo ur
Ã¤ l
lin ks
w er
t o
ab en
Ġme hr
o u
ut z
ĠDe utsch
ol d
Ġg en
un t
Ġn och
ĠF or
ct ion
ch n
Web links
ent s
an s
e c
Ġ up
Ġ19 4
ĠSt adt
l es
Ġg o
as e
Ġ et
os e
z eit
on s
ig er
ier en
ze ich
o ok
an z
par am
k en
Ġr es
at t
Ġo ut
us e
s el
ĠF ran
f l
Ġ19 5
Ġf e
ah n
i um
ne h
ol it
om men
Ġ qu
m it
ĠM a
Ġge w
am il
Ġm y
Ġl ie
ĠRe g
c c
g an
D er
al s
ib t
Ġ ro
v e
m ann
ĠSch w
f in
r if
Ġb ut
ig h
Ġ 7
or s
ĠG em
el d
le ich
nd e
ug h
Ġb et
Ã¼ d
u en
S t
ie d
ĠP r
Ġt ra
ik er
Ġthe ir
f Ã¼hr
n is
Ġsow ie
Ġa ber
h Ã¶r
Ġ1 5
kt ion
y s
ow n
ie t
ik e
E inz
la g
og ra
b ar
Ġ 8
Ġm ore
w a
te m
ar y
Ġ19 3
re e
an ce
st and
in n
ic al
r ing
Ġb est
b all
Ġon e
y p
Ġ Q
is ten
S B
Ġp er
is h
ol le
or n
el s
ate d
ach weise
g lie
ĠP ar
eln achweise
h und
Einz elnachweise
on n
ah re
g esch
ier ung
Ġs te
a de
Ġ Ġ
Ã¤ ch
f ahr
ann t
it Ã¤t
c l
es e
Ġd ar
s tell
Ġ1 6
l d
am men
ĠU S
Ġsein er
Ġzw ei
ĠG r
p ro
etz t
Ġals o
ik an
in k
o ck
Ġge gen
g l
Ġb er
SB N
ig t
ie der
ĠI SBN
h aus
ĠG esch
ĠI t
ig keit
Ġab out
ĀĀĀĀ ĀĀĀĀ
.. .
Ġ1 0
Ġf in
y ste
Ġein es
Ġge t
ĠGem ein
re at
am en
m p
Ġsein e
g lich
Ġal le
Ġin s
is sen
lie ÃŁ
o ber
u er
l ung
ub l
lat z
el le
Ġa pp
s k
ĠUn ivers
âĢ Ŀ
Ġthe y
v en
Ġhat te
Ġg es
m in
u al
m an
Ġj ed
ĠJ ahre
ru pp
Ġne w
ge ben
ĠS o
ĠS te
Ġk ann
ur op
ĠC o
Ġk Ã¶n
Ġwh ich
Ġwie der
am er
im m
Ã¶ ff
at z
an k
a is
x t
ĠJahr hund
Ġdies er
et t
Ġs oll
ĠD ies
00 0
Ġbe en
ie le
iter atur
o h
a w
Ġ &
ay s
Ġy ear
r on
Ã¶ l
und en
or f
ĠG es
b au
ĠG ra
ÃŁ e
eit e
ro w
m ein
a ct
ĠG eb
1 7
w o
Ġh is
ar beit
ĠA d
Ġp la
us ammen
ĠP h
it t
v el
Ġwh o
ĠK ar
o f
Ġof f
t on
Ġzw ischen
n ah
ĠE s
b r
al d
in ter
u le
ĠTe il
Ġwor k
re d
re m
p ort
ab e
at s
Ã¤ hl
ĠK on
or y
ing en
n et
ĠF ra
ĠU m
Ġt ime
Ġf ol
Ġbe g
ĠBer lin
yste m
ĠM us
Ġwar en
f all
ach t
Ġk n
ck e
ĠK ir
ĠJahr en
ĠB o
Ġs eit
a pp
Ġ1 2
ĠW elt
b st
ĠC hr
D as
Ġs u
e k
Ã¶ s
an ge
Ġan y
u de
1 0
in der
t t
ent r
i x
ir t
w erk
ret urn
w ick
Ġo b
ent lich
Ġs el
ĠÃ ľ
Ġs ome
rie d
if f
in a
S ch
ĠK l
ter s
Ġzur Ã¼ck
Ġh aben
is te
or k
eit en
s er
ĠâĢ ľ
r es
ĠSt a
Ġcon t
und es
i ent
le d
c es
iel t
ck en
Ã¤ ter
Ġ1 4
au pt
p f
eit s
l Ã¤
Ġp art
rie b
Ġd am
ot t
ar n
la ge
gen d
Ġd is
s h
ie w
rÃ¼ nd
Ġ1 3
Ġo ver
o ff
ĠF re
rie g
os s
Ġ em
hal ten
m a
ge w
ĠE x
ra d
1 6
1 5
Ġbe k
Ġin ter
T h
un k
g te
Ġg roÃŁ
id ent
lin e
y n
Ġge hÃ¶r
he im
Ġst ud
ell en
schaf ten
ĠNe w
Ġs erv
ĠA nd
Ġdies e
ĠB es
ic t
e ich
ĠG en
ĠSp iel
ĠJ an
sp ieler
o ol
ĠM an
Ġl ike
ot h
Ġre c
ĠB l
ĠB au
ver y
ir st
sch en
ĠG er
a um
m us
ĠB r
ĠkÃ¶n nen
ĠSt ra
Ġer sten
ĠS h
Ã¤ d
am t
glie d
o y
Ġpro du
ĠA ug
ÃŁ en
Ġp e
E r
h and
st ra
Ġ19 2
neh men
Ġk l
in s
Ġwh en
Ġo ther
1 2
ster reich
uch t
Ã¤hr end
ĠP f
Ġhe l
ĠEn t
e p
ĠJ un
ĠJ ul
A n
uÃŁ ball
Ġv ers
at es
V er
en de
v ent
ĠGemein de
ĠF ilm
form ation
Ġp h
L iteratur
ĠÃľ ber
ov e
ra ch
ĠO ber
ĠZ w
ar b
Ġs c
l i
G eb
Ġthe m
Ġer st
Ġdeutsch er
et h
tell t
or g
I m
ĠJahrhund ert
Ġbe im
c om
in t
b le
sch ie
me ister
Ġpro v
ĠA ut
Ġj e
r Ã¶
al en
Ġd rei
Ã¶n ig
Ġ ich
Ġj ust
Ġn o
ist or
f r
y m
Ġ 0
b o
Ġh o
u ar
ĠTh is
ogra ph
und e
un st
ier ten
k l
f Ã¼
z er
ar r
Ġin d
Ġjed och
Ġk onn
ĠT r
ĠN ov
Ġw el
p en
ĠN or
a x
7 8
ĠH and
Ġp re
Ġd ann
Ã¤l t
1 4
ĠAr beit
p iel
Ġa g
es ten
A l
Ġth ere
Ġm us
tern ational
z w
Ġex p
ul l
Ġ if
ass en
a ir
ĠM en
f ter
ic es
ra nd
Ġre g
Ġh ow
ĠB undes
Ġg esch
Ġsp Ã¤ter
Ġne ed
Ġge b
le x
Ġit s
Ġer h
ĠE urop
Ġwh at
ĠZ u
at ing
ĠM in
a ce
h ne
D e
en k
op le
ĠÃ ĸ
ĠF amil
au er
i der
Geb oren
ĠE l
un ter
Ġih re
en z
Ġ201 8
Ġan ge
rÃ¤ s
Ġw enn
Ġg ibt
ĠT ra
il it
Ġf Ã¼hr
i pp
r icht
Ġin cl
Ġt r
ch er
as h
if e
r ess
ĠAug ust
Ġin to
aus e
1 3
le t
ĠAr t
ĠB and
ur t
en e
b ach
tra g
ĠN ord
d ay
Ġet wa
ĠI nd
ĠP e
Ã¶ glich
n ung
Ġh ad
f ess
Ġf o
ic s
Ġw ere
it el
io us
U n
ĠC ar
and er
Ġi hn
Ġth an
c ed
z ial
o ten
it al
ru ck
Ġver b
ĠDeutsch land
Ġf r
ass er
Ġ ra
Ġa cc
s o
ĠK Ã¶nig
lich er
er al
Ġm ost
w ard
o us
st it
2 00
ro und
Ġf irst
v or
ĠM on
je ct
ho f
schaf ts
Ġwo uld
Ġh ier
Ġweit er
k er
ar m
ĠM o
ge mein
Ġhel p
ĠP ol
pr il
is en
eb s
k a
ĠM ed
iv er
5 0
re it
uf t
ier e
Ġh and
Ġb el
Ġk e
tem ber
b ild
je kt
u z
uÃŁ er
Ġsein em
Ġd a
w ohn
Ġth ro
ab ei
in ess
Ġa c
ĠH o
hal b
ir k
Ġer fol
ĠN ational
Ġm ake
e ct
g ang
Ã¤r z
ĠG roÃŁ
ĠM Ã¼n
Ã¼ t
Ġb o
ig ung
Ġg er
Ġ /
ĠM ann
ur z
Ġsein en
ĠP latz
ol f
ĠM al
Ġpe ople
en den
ĠP erson
R e
M ann
ie f
ĠĊ Ċ
ĠChr ist
ĠH aupt
ib le
un kt
ch ts
Ġbe c
we g
a gen
Ġlie gt
Ġg leich
ion al
Ġe very
ste in
schie den
a kt
ul ar
ĠV ol
ĠFran k
Ġkn ow
f ul
v ers
ĠVer ein
Ġb u
ĠGr und
Ġ3 0
he l
Ċ Ċ
Ġl ook
Ġus e
ĠJun i
Ġm o
ĠSt ud
eit er
Ġun s
ke hr
ow er
ĠE nde
ment s
ĠNov ember
ĠB et
ĠSe p
ĠP olit
ĠA pril
Ġz usammen
iv en
t re
amer ikan
ult ur
ĠB ei
u ten
ĠQ u
ien st
Ġver w
2 1
. )
at ive
ĠVer b
ar ten
st adt
al k
ien ce
der n
de d
ich ts
ĠO b
rupp e
a id
Ġaus ge
us iness
u es
M it
k reis
Ġw ell
s atz
Ġb esch
el y
ĠSep tember
ĠS c
Ġh in
Ġse hr
g est
Ġer ste
op h
Ã ¡
at or
ĠS Ã¼d
ĠF e
i qu
ĠP a
ro l
ĠC on
sch l
hal t
es en
kt ober
ĠI s
Ġe ben
issen schaft
ĠH och
Ġein z
ag es
' t
Ġ19 0
Ġle tz
ĠJul i
es ter
w n
af f
st Ã¤nd
ĠAl l
at a
Ġz e
if ic
le g
ĠOr t
i ze
Ġon ly
G e
ĠB ar
ĠI I
ut ion
Ġand eren
ĠK unst
isch es
Ġb ack
ran z
Ġdies em
N ach
an y
Ġber eits
ĀĀĀĀĀĀĀĀ ĀĀĀĀĀĀĀĀ
ost en
if t
b ahn
Ġer w
w alt
Ġbes te
Ġa ct
et s
Ġm ay
Ġd ort
Ġv iel
Ġfol gen
Ã¼ tz
la gen
al ien
ran s
Ġd r
oh ann
b es
p or
m s
ein en
Ġd ire
Ã¤n g
ĠY ou
k te
Ġv ier
Ġver y
Ġe igen
ze ug
f ach
Ġ201 7
m Ã¤
Ġihr er
re g
Ġkonn te
am s
Ġsu pp
a den
u k
Ġad d
in er
Ġcom m
Ã¶ff entlich
z ahl
ĠO ktober
Ġte il
c y
ĠMa i
Ġih m
ust r
Ġc l
Ġl oc
m at
op p
f eld
Ġdes ign
gr und
Ġ201 6
1 1
ess en
ein g
it ed
ur s
b uch
âĢ ¦
Ġyear s
Ġk eine
ic a
Ġ Â
ĠM Ã¤rz
Ã¼r ger
ĠJan uar
De utsch
b l
a i
Ġs ol
ĠPro du
Ġman y
ĠV ers
Ġbe fin
Ġsch w
Ġs he
z ember
olog ie
ais on
or ben
Ã¼n st
Ġs ho
Ġhe ute
as ed
la uf
Ġex per
Ġf ind
eb ru
ĠF Ã¼r
ist r
ĠM et
Ġund er
Ġa kt
ĠH aus
Ġ201 0
Ã¤n ger
Ġ201 3
Ġs m
S ie
Ġ201 5
on st
Ġm ach
ei d
pt ion
ĠB ild
Ġt wo
ĠK inder
vel op
it s
as ch
f ang
ing er
Ġ201 4
Ġthro ugh
if fer
Ã¶ st
Ġas s
Ġp l
Ġh igh
3 0
he mal
ation en
p s
c ts
ut h
Ġsel bst
ĠMus ik
Ġf l
Ġ201 1
Ġth ese
ĠO n
Ġ X
ar s
Ġk am
= =
Ġh ome
Ġcon s
Ġsp ec
ĠJ ohann
Ġst and
Ã¶ ch
ĠF ried
Ġ201 2
Ġ18 9
fall s
Ġd own
ra g
v an
ĠW erk
B e
s etz
s g
ĠĊ ĠĊ
ĠâĢ ł
ĠW h
al le
i or
gan is
rit t
p l
Ġ2 5
ĠE d
ber t
ar ch
p la
u c
in nen
Ġ1 1
ion en
Ġb l
f te
at ch
Ġin v
ĠL iste
Ġ200 8
mit tel
sch n
ĠDe zember
W e
Ġge l
am es
ĠF ebru
ĠR es
Ġw Ã¤hrend
ĠLand es
um ent
sch lieÃŁ
Ġver schieden
w ay
Ġim mer
Ġe le
Ġb en
ge t
os ition
use um
Ġp ar
Ġal ler
i den
ĠA mer
a ur
il ity
ern se
ĠF r
O r
ĠKir che
z ie
ĠF ol
ich er
omm un
Ġ .
ig te
in al
c ess
ebs ite
Ġa fter
rie ben
ak ing
w ahl
ĠIn ter
ranz Ã¶s
ĠAl s
Ġs uch
Ġw en
sch e
ĠR o
hr en
Ġand er
Ġg rÃ¶
Ġsch on
A us
Ġg u
Ġm ark
zeich net
Ġdam it
l ig
o gen
Ġst att
a j
ĠV on
is ion
ĠS er
Ġbei den
sch rif
z ug
Ġer sch
p ieler
o ugh
Ġ200 9
ĠRe ich
ĠW est
ach sen
P ro
ĠW il
l en
ĠGesch ichte
Ġgo od
ĠM ark
ges tellt
ĠAr ch
Ġ [
Ġne ue
i us
ĠJ u
Ġm in
ĠO ff
Ġm on
Ġsp iel
Ġ200 7
z u
ic an
Ã¤ch st
ĠU r
ĠC l
ĠDies e
Ġge f
w ert
ĠgrÃ¶ ÃŁ
Ġg reat
e h
ĠH ol
g rÃ¼nd
it ies
te te
al ter
ĠSt re
ĠW ien
Ġb usiness
ĠF ahr
Ġde c
s on
Ġte chn
Ġ9 78
Ġ2 4
mal s
Ġpla y
Ġl ang
Ġw ay
ĠR om
Ġ ,
we il
19 9
ĠG o
ĠW ert
ĠUnivers ity
A r
ow s
G esch
los s
Ã¼ s
Ġm ed
v iew
Ġn ow
ten t
ell schaft
. ,
Ġs om
al th
u ck
fÃ¼hr t
kt ur
is mus
h ol
Ġz un
Ġp erson
sp iel
Ã¼ nd
y l
hr er
ĠMit glied
ĠS k
ĠN ieder
ra ft
ut t
b t
for e
A m
ĠMit tel
Ġwh ere
ur ing
ĠB uch
Ã¤ hn
Ġse c
ĠA s
ot her
iv es
Ġe ff
h re
a e
ĠUnivers itÃ¤t
ĠVer lag
o hl
ĠF uÃŁball
Ġ %
ĠPh il
Ġo hne
Ġar t
ĠS al
Ġbe f
tel le
Ã¼ l
Ã¼n f
Ġd ay
Ġs ub
w end
ĠD r
ĠM ich
Ġa v
âĢľ .
he d
Ġ |
in es
ĠH am
y r
Ġf re
ik a
un ktion
ĠS aison
le it
{ @
rÃ¼ n
T e
Ġqu al
il t
ro p
m ar
ch s
ĠD urch
ogra f
ĠB as
ĠD es
sch ule
Ġein ge
c ial
ly mp
ch sel
Ġ200 6
neh mer
ĠC he
lin k
g abe
Ġdes sen
Ġse e
ien d
ĠUnter nehmen
ĠFebru ar
Ġne uen
Ġd el
ain t
Ã¤nd er
em ent
Ġin c
Ġp o
Ġwor ld
ĠÃ Ħ
Ġs aid
Ġe ven
is piel
f ra
ĠG l
ust om
b and
Ġs Ã¼d
p art
Ġp ol
Ġre ad
u ge
Ġf est
ĠJ ohn
m ed
Ġg ra
ap an
p e
ĠE le
Ġ18 8
Ġg ab
ĠEin e
o te
Ġ1 00
is k
ĠD ar
ĠĠ ĠĠ
ĠA t
Ã¤ ude
Ã Ń
g leich
Ġf rÃ¼
Ġar beit
ĠMÃ¼n chen
ĠSchw ei
ĠN amen
Ġ200 5
Ġbek annt
Ġerh ielt
Ġsp e
Ġd iffer
Th is
h in
ig es
âĢľ ,
Ġ end
Ġde velop
ĠCh ar
z ent
it zen
i ra
at her
ĠL in
g ra
le gen
f ern
co de
Ġihr en
le gt
Ġincl ud
Ġm ade
ĠK omp
Ġste ht
4 0
ro ss
ĠH Ã¶
un n
Ġdies es
ĠMen schen
om en
los sen
nah me
ĠKar l
Ġe hemal
6 0
Ġh ere
il le
Ġon line
rupp en
f ass
Ġc re
uf en
Ġo wn
ro up
le ase
ĠL eb
ĠW or
Ġf ree
aus pieler
in o
Ġw ant
Ġs k
Gesch ichte
Ġn ah
Ġth en
r ip
ĠD an
Ġder en
Ġf ranzÃ¶s
Ġre m
Ġ20 00
ot s
Ġbec ause
stell ung
Ġco uld
Ã¤hl t
stra ÃŁe
z t
ĠP er
ater ial
L e
ĠM ill
Ġin st
k auf
Ġf amil
ĠY ork
ĠB est
geb iet
all en
Ġ u
ĠT od
ag er
ĠFor m
Ġpro gr
iss ion
p unkt
Ġc ar
ĠPolit iker
est orben
in en
der s
Ġ ed
Ġs ur
ĠK rieg
re cht
ĠP art
Ġent sp
Ġs im
ĠW er
Ġweit ere
Â Ń
Ġd abei
Ġv is
ĠN atur
ĠR ad
kt or
Ġ200 4
2 5
ĠF in
k rieg
Ġb zw
Ġst ar
ubl ik
fahr en
o ge
all s
ĠB ere
Ġs ystem
ĠK n
Ġre qu
Ġm uch
al b
Ġd on
ĠSch ul
Ġ18 7
iv ing
ĠAn t
w are
Ġt ake
ĠB ahn
he in
ĠB ay
u gen
in ce
t ag
irt schaft
tell er
ernse h
ĠS an
wick lung
ĠW asser
Ġv ar
Ġre al
ĠF est
in ing
wohn er
ie g
ir d
l ing
Ġl ife
al er
sch utz
ĠL ei
Ġf Ã¼nf
Ġs ei
Ġv al
ur es
L eben
Ġ ur
h ard
ĠK r
ĠC omp
ĠR Ã¼ck
an gen
ĠI f
um ber
ess e
it Ã¤
ĠBer g
Ġin formation
Ġus ed
Ġ201 9
um mer
Ġ $
as on
w w
um s
isch of
Ġdeutsch en
up er
e y
ĠOr ts
ĠG u
ig ten
ĠH ein
iel d
olog y
az u
Ġalle m
ĠSt and
ĠFried rich
sp ort
Ġbefin det
c a
ed er
an st
ĠA ss
Ġ2 2
Ġ( âĢ
s ol
Ġp olit
age ment
Ġt yp
G estorben
ĠM ag
ĠK reis
ur r
Ġb eing
ond er
ĠMe ister
ĠW ei
Ġp ubl
im es
ak es
Ġprov ide
ĠW ill
Ã¤t z
Ġ2 3
Ġe as
schl uss
g y
ĠSch l
Ġl ast
k ommen
Ġof fer
Ġp ra
pr ess
ĠFra uen
8 0
es ent
ĠSch rif
ĠPa ul
E in
ĠP at
it ter
Ã¤ us
Ã ³
Ġch e
ĠPerson en
l am
Ġ #
id es
y ch
ĠL ie
ar ge
en ce
Ġ2 1
ĠA uch
ann te
re uz
Ġi de
rit ten
ĠLeb ens
ur m
re ch
2 2
gl isch
Ġp lan
Ġc ol
Ġsho uld
ir che
Ġ5 0
w ig
an ts
lo ad
en det
ĠZ usammen
ĠFamil ie
Ġso nd
ĠT o
u ter
ath ol
ck er
lass e
ĠP l
Ã¶ sterreich
Ġer reich
amerikan ischer
oll ow
Ġzun Ã¤chst
Ã¶l ker
sch ul
Ġr ight
Ã¤ uf
Ġen g
ĠD aten
ĠS ohn
re en
ĠJ e
sch ied
ck t
as ter
h a
Ġc ustom
ĠDeutsch en
Ġden en
tell en
la ck
at ure
y d
Ã¤n ge
ich ten
mÃ¤ ÃŁ
ĠE m
ent ly
Ġb r
k m
Ġin ternational
Ġent stand
ĠB ra
Ġsond ern
out h
Ġbeg ann
ct or
ĠB Ã¼
z iel
f ort
ĠM ot
r sg
le i
tel y
Ġf and
ĠW ohn
sch w
ip s
ru e
Ġbe fore
om mer
Ġh abe
Ġa round
Ġd u
Ġwor den
omm t
nis se
iqu e
Ġ =
b ur
Ġ199 0
A b
d ings
Ġge mein
Ġ18 6
h Ã¤lt
ĠGe gen
4 5
um e
< /
le y
ĠD o
Ġre t
ĠBere ich
re chen
ut ter
ĠT itel
ail able
ĠO lymp
e te
u pp
ĠAl b
re ib
ho de
Ġ200 3
Ġto p
E x
ond on
u x
Ã¶r der
om in
Ġeben falls
glie der
r ib
ĠO st
ĠK ap
ĠCo unt
Ġag ain
ĠM at
Ġ200 1
Ġdeutsch e
k ten
ĠN ame
ĠFran z
N e
Ġs er
Ġcomm un
Ġb il
Ġl o
Ã¤nd e
ĠPro v
an ad
p le
Ġg est
ĠGe w
l ic
Ġwh ile
ĠB en
ide o
a el
u ally
Ġch ild
ĠÃĸ sterreich
ĠD re
um en
d orf
Ġand ere
Ġd id
ĠM od
hel m
ĠW ahl
rÃ¼ nde
amp f
c on
grÃ¼nd et
F or
schrif t
stit ut
Ġth ose
g or
Ġb ed
j Ã¤hr
Ġwe ek
our n
re ad
n a
w ays
st re
s w
E R
h af
itt le
om b
ĠH ans
ĠB el
Ã¼nst ler
ran k
as st
Ġe ach
Ġsh ow
ĠS il
Ġm od
er ts
Ġ200 2
ĠH ar
am a
ra um
ĠS eite
Ġp ost
Ġne u
ist s
ĠPe ter
ĠM or
ĠTe chn
ĠIn ternational
Ġ2 8
Ġl ong
f ilm
ĠSta ats
ĠS eit
fÃ¼hr ung
ar en
Ġn un
Ġs ign
Ġl ove
ĠP ort
Ġp ass
ĠRe p
2 3
Ġc le
Ġa uÃŁer
Ġgew ann
r i
ĠL eben
Ġ2 6
ear ch
ĠB re
Ġz ahl
Ġk ein
7 0
Ġserv ice
ĠB i
er st
m m
Ġm uss
ĠGen eral
ĠVol ks
w as
lo ck
ĠM y
Ġ el
Ġr est
Ġander em
Ġr und
I t
ĠT er
M e
lich keit
Ġth ink
ĠM art
iz ed
uÃŁ en
Ġb as
Ġt rans
Ġje weil
ges etzt
rÃ¤ ger
Ġc are
an a
h ung
p latz
te i
Ġdiffer ent
ĠEn g
et ing
e hen
st off
oll en
ann ten
Ġo pt
en ter
Ġpla ce
c ted
Ġdar auf
ilit Ã¤r
en der
Ġg l
19 8
Ġw icht
il der
Ġl a
ĠL ondon
od y
ass e
ĠB Ã¼rger
Ġfin den
ik t
Ġres p
Ġh istor
ur en
ĠLand kreis
Ġs et
ne y
ond ere
F uÃŁball
f urt
z el
Ġc olle
s am
Ġc our
ch es
st ru
o ks
en nen
Ġav ailable
Ġver l
t he
ard s
Ġnah m
ess er
Ġfo und
Ġg ut
Ġn or
ĠK ultur
rÃ¤s ident
Ġdo es
Ġco unt
min ister
ĠSta aten
bild ung
Ġh im
C h
Ġn umber
Ġe v
it ions
ĠP la
Ġer halten
o de
ĠB urg
ĠH el
al y
n ess
Ġl and
ord s
Ã¼ b
ĠP ark
p rÃ¤
ĠC ol
w ei
Ġletz ten
- -
ĠD em
tra gen
Ġent wick
ĠPar is
j ahr
we en
I I
Ġ199 9
e ver
Ġ2 7
Ġ20 20
Ġv iele
gen ommen
a uch
ĠSp ort
se e
E n
f el
on nen
lass en
D R
ge d
ĠR ich
Ġwel che
Ġf un
Ġver Ã¶ffentlich
Ġdies en
im al
ĠJu gend
z ig
Ġein ige
i am
et te
Ġph ot
iz iel
A uf
r ic
ĠD av
Ġre ally
ĠSch auspieler
tell ung
ĠD orf
S p
g aben
Ġsoll te
Ġm Ã¶glich
ĠK ont
Ġf ollow
s ych
enn t
ĠJ ose
kl Ã¤r
iv id
ies en
Ã¼ ss
g ie
ĠL a
Ġfr iend
ge ord
Ġpro fess
al ten
Ġein fach
Ġst ark
ĠP re
Ã¤ re
rip t
or ts
b et
v Ã¶lker
H rsg
ĠHer r
b y
is se
ĠHer z
Ġ2 9
ot he
ap t
Ġb oth
ĠB ut
Ġst art
Ġcomp any
gr amm
s c
ĠW ir
k on
ten s
e le
P D
de utsch
ĠS a
Sie he
ff en
ĠT ag
2 4
Ġf ast
ĠD on
s icht
Ġ ...
il ome
Ġserv ices
ar i
ĠR ei
ug ht
w est
z entr
den s
Ã¤ ll
Ġt er
us ch
iv al
ell er
sel f
tre ten
sp r
Ġb rit
igh ts
Ġst ill
rÃ¤ n
ĠgehÃ¶r t
Ġt rat
Ġp os
Ġexper ience
ĠBe g
haus en
Ġv oll
alt ung
Ġn eben
op f
a der
y er
ire d
ĠM ain
ĠF ach
Ġg ing
Ã¶ m
al es
Ġb ie
ĠG rÃ¼nd
Ġ199 8
Ġb re
ĠB ro
ograph ie
w ork
gesch ichte
Ġ *
om at
w or
Ġs l
Ġm ov
f ts
och en
af fen
.) :
Ġinclud ing
or ge
Ġspiel te
Ġfamil y
ĠP al
Ġus ing
U S
fol ge
ĠA pp
I N
Ġauf ge
Ġ <
ĠH ier
Ġpro cess
Ġs ite
ver n
Ġbet ween
m et
ĠHe im
iet y
an e
ro om
Ġg anz
is hed
p ert
ĠRe chts
Ġfe w
ĠT or
ĀĀĀĀĀĀĀĀĀĀĀĀĀĀĀĀ ĀĀĀĀĀĀĀĀĀĀĀĀĀĀĀĀ
ĠReg ion
ĠM useum
ing le
ourn al
s st
Ã¤ che
fol g
Ġch ar
lat t
imm t
Ġ '
Ġakt u
9 0
ĠH il
Ġih rem
ei den
teil ung
19 3
d ienst
Ġc lass
Ġmon th
el te
Ġfor m
ĠgroÃŁ en
Ġsch lieÃŁ
Ġzahl reich
Ġersch ien
Ġbe zeichnet
Ġsch ool
Ġerfol g
Ġin ner
ab el
w elt
Ġ199 6
Ġa ut
Ġb ring
Ġpr iv
Ġsm all
om as
t r
Ġb ook
Ġbe de
ĠH a
ĠA uss
Ġle arn
ĠJahr es
Ġzw eiten
i as
ĠD a
ind ung
cc ess
ĠFra u
Ġ :
Ã¶ t
Ġbeste ht
Ġst r
nah men
Ġo pen
g ar
ĠN ot
Ġw ei
l Ã¤nd
nah m
ĠC or
ges amt
st Ã¼tz
la u
hn en
Ġbu ild
ĠS erv
Ġper fe
ber eich
im mer
y le
Ġ4 0
Ġsupp ort
v es
icht ung
b el
Ġ198 0
Ġp at
ce ption
Ġte am
uch s
Ġ194 5
ĠgroÃŁ e
w ort
Ġh app
ĠEin wohner
2 6
av ing
Ġhe alth
Ġst ra
Ġim port
ĠFol ge
us h
tern et
ond ers
ĠFamil ien
w issenschaft
de te
ĠSch n
Ġan n
ne te
Ġ197 0
igkeit en
Ġc al
ĠT our
19 6
ĠS ol
ch te
ĠKir chen
4 8
ct ions
im a
ais er
ĠWil helm
g o
Ġkl ein
ĠT em
f ert
ap er
ĠHam burg
et ail
ĠG old
Ġk on
Ġun ser
ĠIn s
ĠF o
Ġerst mals
ĠWelt krieg
o le
ĠUS A
ig ital
en a
oc i
la ub
h m
if iz
ĠAl t
Ġp op
Ġ18 5
Ġ â
Ġd azu
oss ible
2 8
ĠMe ter
ĠC ity
Ġcomp le
ĠCount y
Ġk ommt
Ġro om
den k
Ġher aus
z ogen
Ġab ge
Ġm ember
ar te
ent al
Ġapp ro
ĠB esch
ĠR ah
Ġl ittle
l ang
sch ein
h am
Ġd an
Ã¤ mp
ut lich
th ing
ĠFor sch
ĠA g
Ġs ame
ar a
Ġpro m
wer b
ra cht
ĠA lex
Ã¤ ft
ograf ie
ĠZ entr
ĠS el
Ġw est
ĠD u
Ġmehr ere
ĠThe y
ĠPro fess
ĠGe org
Ġet was
Ġg ar
ĠS he
Ġth ree
on y
i at
Deutsch er
Ġhat ten
l ess
ĠgehÃ¶r te
Ġw ater
B er
ĠB ern
ap e
for der
Ġd uring
ĠSp e
um p
Ġc or
heit en
Ġspec ial
Ġf ull
Ġgo ing
Ġab sol
7 5
Ã¼ hl
Ġ199 4
Ġare a
ĠH ow
ĠBet rieb
is iert
ĠAmer ican
Ġc ond
P erson
ier ungs
ĠC olle
n ungen
sp rÃ¼n
Ġwe gen
ĠHein rich
ĠE ur
Ġfe el
um b
uf f
Ġer ne
schn itt
ĠB rÃ¼
Ġ199 2
Ã¤t ze
Ġf ac
ver ein
Ġincl ude
ir l
utz t
ĠMich ael
Ġsein es
uch te
Ġlook ing
ar ly
st ag
Ġge m
f il
ĠAn fang
Ġal ways
Ġ199 7
Ġch o
Ġ199 5
ĠFl ug
ĠTe xt
op e
ĠP lan
19 0
ĠS ystem
Ġbel ie
Ġ Ã¶sterreich
Ġan t
d ie
ra che
Ġex c
ver t
v ed
Ġc los
v ol
in ner
Ġsch n
ĠA ustr
ĠR ed
le tz
ĠM ay
3 5
h ip
4 9
ĠR u
Ġverw endet
ĠArch ite
it u
h Ã¤ng
an ten
ĠO p
I D
Ġqual ity
zeich nung
Ã¼s sen
Mit glied
ilome ter
Ġb ro
Ġge ht
ĠJahrhund erts
Ġall en
j a
Ġm en
de ut
ĠN r
2 9
ĠW ebsite
2 7
Ġtra d
ĠJ o
ĠIn formation
gr iff
ĠQ ual
Ġd i
Ġm ind
st r
ĠC al
ĠW ar
lie b
ĠW inter
Ġhe ut
y e
Ã¶r d
Ġw rit
ĠB ed
Ġg row
Ġdis c
Ġke ep
D ies
is m
d ruck
Ġcom e
ĠEr z
Ġper form
Ã ĸ
in ation
on es
ar z
gan gen
ĠLei p
ĠS Ã¼
b ed
Ġo per
Ġem p
z irk
ĠA ir
Ġaller dings
Ġh inter
Ġc urr
19 5
f re
Ġpro ble
Ã ¨
Ġacc ess
ch ten
ĠK at
A N
ĠTe am
ober t
. âĢĿ
it es
ĠN o
ur y
ic ally
ĠRah men
Ġg roup
au g
Ġpart ic
ĠG ott
ĠL auf
ĠG ruppe
Ġg r
ĠWor ld
ate gor
ĠF ot
Ġver m
Ġto o
o ver
ĠEin satz
ĠS eiten
Ġor gan
ĠH istor
ĠfÃ¼hr te
A d
Ã¤ h
we is
ĠB ad
Ġ est
en glisch
Ġk omp
Ġwe chsel
ur f
a at
ĠT yp
. âĢľ
ig a
Ġob ject
G ibt
Ã¤ m
och ter
Ġd re
ĠR aum
Ġg ot
Ġt Ã¤t
ĠS m
ik en
ĠVer walt
Ġn ational
ĠNe u
at ter
ost er
ĠG ed
ĠZ ahl
Ġbe h
ach en
H e
omm and
ĠD is
ten d
Ġl in
ĠL ud
ĠZ e
ĠN eben
Ġto day
id s
Ġgen annt
Ġd och
ĠGeb Ã¤ude
ĠS en
Ġv iew
ĠTh ere
Ġk urz
Ġste hen
ĠD ire
ĠG ren
Ġk ommen
sk i
es te
ĠEr st
ĠI hre
Ġd ata
ĠA kt
Ġb ig
Ġl assen
Ġb ra
ĠC om
Al s
B ei
l ungen
ĠF eld
ĠEr n
c ing
ĠK o
Ġse x
ĠEurop a
fÃ¼ g
ĠGra f
Ġre ce
Ġp ower
ĠProv inz
w and
Ã¶r per
Ġ196 0
az z
it te
amm lung
Ã¶glich keit
irt schafts
ĠP reis
ft ware
bes ondere
Ġ199 3
ĠD ienst
le hrer
ab r
ol oge
Ġwith out
Ġl ot
ĠG ar
Ġvis it
ĠC ont
Ġd ah
Ġth ings
ĠB ischof
ĠT re
ĠZ ug
ĠMart in
4 6
Ġse chs
ver b
unk te
ĠK la
4 3
ĠEin zel
) :
== ==
Ġw Ã¼r
ief ert
le ben
Ġk m
Ġd av
Ġverschieden en
ĠF er
Ġs ay
bur ger
ĠBe ispiel
ers Ã¶n
au p
ĠT ro
ĠV ater
um m
ir m
ĠMa x
pro du
Ġind ivid
Ġt ro
9 9
j oy
Ġo pp
m ark
ĠE nd
ĠSch ool
ir on
Un ter
ĠMit te
Ġs tell
ib li
Ġqu est
F ilm
ĠL uft
Ġg ame
rÃ¤s ent
Ġ199 1
k irche
ĠSp ieler
Ġval ue
w irtschaft
our s
Ġre p
Ġ198 9
i ally
Ġe vent
ĠK Ã¶l
ĠW olf
ĠZ iel
ĠTh omas
il y
ach e
Ġab le
ein ander
ĠW ald
os en
im men
schlieÃŁ end
Ã¼ gel
ĠSe e
p lan
eth ing
o x
Ġbe aut
Ã¤ ss
co unt
st Ã¼ck
ich tet
Ġm al
Ġ3 1
teil t
Ġ20 21
ganis ation
Ġis s
if ik
ĠB rand
ob ei
Ġweit eren
ĠF ar
19 7
Ġw ebsite
ĠU nd
ts teller
Ġor der
g art
Ġbe w
ĠR uss
und s
ĠW ind
Ġe qu
ro s
Ġs etz
ĠS outh
ĠSch m
ĠD ort
un ft
a he
van gel
Ġarbeit ete
h le
ĠChrist ian
on en
Ġst ate
one y
ĠSchwei zer
um an
Ġ18 0
Ġcont in
I f
Ġh ard
Ġs ince
os oph
4 7
il la
Ġloc al
Ġstud ierte
Ġp ay
s weise
Ġgen er
ĠR el
gen den
Ġg ive
Ġs ure
Ġl Ã¤
ĠSt utt
Ġinv est
L iefert
ĠGeb iet
Ġh och
ĠE he
Ġc ost
Ġ Ð
h end
ĠO l
3 3
Ġat t
A S
ĠM c
im ent
ĠE isen
ill s
ĠH of
Ġof t
Ġ x
ĠR hein
ist ischen
in c
n ame
Ġm ir
her r
Ġimport ant
Ã¤t te
Ġst or
ĠFrank reich
Ġerfolg reich
atur es
Ġg ilt
ĠtÃ¤t ig
on ist
ĠfÃ¼hr t
A T
ob il
m b
ĠD en
ain s
ier s
ĠNor th
ro ll
Ġh ol
ĠT ochter
ĠD abei
Ġt ry
Ġbet ter
/ /
ĠS itz
ge ber
Ġn ieder
z y
ig ent
ĠF all
Ġd ays
ĠFuÃŁball spieler
Ġ198 8
ĠWe g
a ÃŁ
p os
ĠS oc
Ġw obei
! !
ig inal
t es
ik el
Ġne xt
Ġjeweil s
ĠS ommer
f ord
rÃ¤ gt
ĠS ein
ĠK aiser
and s
Ġad v
Ġf act
richt ung
p iele
Ġwith in
v ille
Ġsec ond
ĠM Ã¤n
E s
Ġprodu cts
Ġin t
ĠF il
ĠEnt wicklung
Ġt re
ce pt
ĠHÃ¶ he
Ġm et
. "
Ġn Ã¶rd
Ġerfol gte
j et
ser ie
ĠP o
heit s
ĠSt at
gemein de
Ġge grÃ¼ndet
we hr
Ġhe ad
Ġwork ing
lich t
i os
Ġl ight
ĠJ apan
ĠLeip zig
b ei
Ġc r
op s
Ġle ad
d a
am b
Ġ6 0
w ie
ĠK e
uch en
Ġm ust
Ġer rich
ne ten
ĠE p
Ġex ist
d o
ĠF rÃ¼
Ġle t
8 9
ĠLud wig
E S
reib ung
Ġsom ething
Ġt rue
ĠZw eiten
Ġmus ste
ĠK ant
O b
ar l
ĠM ont
sh ip
Ġeigen en
us Ã¤tz
ein t
ĠStra ÃŁe
Ġit alien
sch er
h ere
Ġn ame
Ġc a
est s
ut s
ist ory
ĠI hr
geben en
Ġho use
ĠP ap
ĠG el
ĠD i
ĠK om
ra u
uch e
Ġmach en
Ġdav on
Ġa ir
4 4
ĠHol z
: //
ĠThe ater
Ġle g
O R
Ġwe il
ĠSt ring
i ate
tel s
rÃ¤ ge
ĠS eine
Ġeas y
if ul
Ġmus ic
y ing
ĠW o
Ã¤ fts
Ġl ist
ĠB ur
A R
ut es
ĠU l
an te
itz er
Ġmark et
ge f
h Ã¶
Ġan other
Ġ(âĢ ł
c er
ĠM il
Ġden n
ĠW Ã¤hrend
ing ton
Ã¼r z
Un ivers
Ġfolgen den
ĠB ru
sch eid
FuÃŁball spieler
Ġsh ort
lich es
Ġres earch
Ġact iv
ĠB is
att ung
E igen
wend ung
Ġperfe ct
ĠâĢ ¦
ĠRom an
ĠW ith
Ġstud ents
ĠF unktion
ĠBe vÃ¶lker
ĠR obert
ĠRe gel
Ġpra ct
ei le
O N
Å į
geb aut
ub e
ver kehr
ĠOb jekt
ig ur
ĠK Ã¼
Ġauf grund
Ġprogr am
ĠK ommun
ĠHe il
ĠNor den
ĠU hr
ort un
ĠB rit
g ruppe
Ġco ver
Ġa ff
Ġm ain
Ġse le
u el
ie gel
af Ã¼r
Ġch ange
am ent
Ġapp lic
ĠL iteratur
ic le
ag ue
M ar
Ġfin det
ĠM iss
ĠSch iff
if ied
ĠI ch
Ġl ange
8 6
ĠLe ist
Ġinner halb
gen de
Ġj ob
ĠStutt gart
3 6
rei ben
ĠKl ein
h an
ĠschlieÃŁ lich
ĠK Ã¼nstler
ĠDav id
gr ess
wa gen
ĠMann schaft
ĠUn ited
ĠâĢ ĺ
ĠFrank furt
Ġpubl ic
Ġein mal
ĠF ir
ĠE is
ett be
Ġur sprÃ¼n
Ġ198 6
ĠEr w
Ġo ld
Ġer n
iv ed
f est
ĠB ank
ĠW al
e e
ĠM os
8 5
ĠE ner
Ġde fin
Ġunter schied
ĠMal er
ĠH ann
ĠMin ister
o un
ok rat
3 9
Ġ198 4
iz ation
Ġme ist
zeit ig
lig a
c ript
ab l
id ge
ĠSte in
Ġchild ren
ran sport
ĠSta at
is ierung
Ġperson al
ka dem
ĠSchrif tsteller
ĠEr geb
ĠP ra
Ġm ar
Ġwechsel te
g lichen
ĠH en
Ġen joy
ĠMar kt
Ġ195 0
ĠP ost
it ive
Ġadd ition
ĠO per
ĠAm t
t ing
Ġt urn
f it
Ġ198 7
ĠEur o
ĠF rei
af en
am mer
Ġc ert
ĠO t
ĠDeutsch e
ĠA ward
z Ã¼
ĠH ome
ĠMet hode
ĠS w
ĠPr iv
arbeit er
Ġl arge
k o
Ġcon c
ĠD am
Ġl aw
ĠK ilometer
Ġen gl
Ġ Ã¶ff
re as
ĠSch loss
ure d
it ten
Ġfo od
Ġo ber
ĠM er
Ã¶st lich
Ã¤r en
Ġm ult
Ġne ver
em s
Ġpro ject
z ess
ail le
fahr t
f o
te chn
eit ung
ab or
b ra
Ġche ck
Ġins gesamt
l ungs
re if
ĠR est
ĠO ur
ran ken
ĠPar tei
an ien
ĠC as
o in
ich ter
Ġm ax
ĠR olle
ĠPf arr
ĠGes ellschaft
ĠCh ina
ret t
le ist
ĠOlymp ischen
iz in
3 7
ul ts
ĠRe c
ĠAl ter
te gr
Ġof fen
E N
Ġm Ã¼ssen
setz ung
Ġre f
op er
th ers
b te
ĠC omm
opp el
erk e
rÃ¼nde te
it or
Ġdire kt
ĠH igh
ĠSo zial
w Ã¤r
e x
Ġ ident
Ġim pro
fl uss
row s
ĠStra ÃŁen
v al
ĠF C
. :
g a
Ġh Ã¤uf
ĠL ang
Ġpro te
Ġbes onders
Ġn ord
ĠV ier
Ġneed s
Ġm ich
ĠF ernseh
ĠM utter
Ġsu ccess
ĠIn ternet
ag n
Ġmo der
Ġs af
ra y
ol a
Ġc all
ab ility
Ċ Ġ
i ber
ul ation
Ġkonn ten
B au
ill er
ĠSÃ¼ den
Ġb lieb
ĠReg ierung
ĠS im
Ġwor ks
or m
Ġer m
ĠZ eich
un ch
ze pt
on a
Ġh al
ĠIn n
Ġse hen
red it
ch an
F ernseh
ĠK reuz
Ġ }
Ġr un
ĠMill ionen
Ġins besondere
ĠAut or
Ġd ien
Ġ198 5
Ġm aking
Ġc ap
hl en
p end
Ġb ased
Ġcon f
4 2
Ġtrad ition
ĠÃ¼ber nahm
and id
ĠK ol
if fe
ĠH inter
ĠTe x
und er
lÃ¤ uf
os p
ĠPro zent
W elt
ult ure
Ġc reat
ĠS l
st ieg
part ment
Ġ197 2
itÃ¤ ts
Ġze igt
ach er
oc us
as k
W h
ĠBeg inn
ĠW ieder
ĠR ichtung
Ġfor t
Ġgeb oren
ĠT age
Ġ198 2
ill ion
t il
te ile
Ġas k
Ġprodu ct
18 9
ĠK al
P h
g ing
ĠGes amt
ĠProfess or
Ġl ine
ges etz
Ġges am
ĠKÃ¶l n
ĠE mp
- ,
ĠMar ia
Ġviel en
Ġal ong
Ġent fern
ĠReg ie
S o
ber ger
Ġse ver
ok ument
ĠPro ble
it i
k n
Ġgew Ã¤hlt
f an
ĠI de
deut ung
mb H
f red
Ġme isten
ibli othe
J ahr
Ġerreich te
F Ã¼r
ĠJ ust
in i
ge gen
ru ktur
Ġerne ut
am ens
Ġcommun ity
ĠN utz
eth od
a ar
v iron
I S
Ġm ight
A s
ĠW esten
ĠHeim at
ĠJ ournal
ĠA fr
is ing
ĠS am
Ġgegen Ã¼ber
Ġre du
Y ou
Ġp ict
au en
ĠBer uf
sp e
Ġ Ã¤
ĠEurop e
ĠS and
Ġm ein
ĠK ind
u h
Ġp ast
Ġn ahe
Ġl ess
ust ry
Ġze hn
zeich en
Ġcons ider
w ald
il es
ĠSt ate
Ġp ort
Ã¶r t
Ġ198 3
Ġgel ang
L and
Ġa way
om an
Ġcon ne
at Ã¼r
ge ther
ĠM ilitÃ¤r
il nehmer
Ġ197 9
ĠH all
it ze
ver band
ak ter
ho cke
ĠSchwei z
Eigen schaft
Ġt em
ĠW eit
Ġl ive
ĠS uper
Ġse arch
ĠD enk
Ġeinz el
schul lehrer
Ġkl eine
Å ¡
is ed
al z
ĠLe hr
V on
ĠIn sel
b ank
ĠF Ã¼hr
Ġz eit
Ġf ile
ĠA uÃŁer
stell en
Ex ception
' m
r or
, âĢĿ
en g
Ġs w
Ġbis her
Ver ein
6 5
ic o
ip l
hl er
Ġ197 6
ĠP ass
3 8
Ã ľ
" ,
s etzt
ĠK ur
Ġbest and
al og
Ġoff ers
Ġcour se
Ġerrich tet
A C
Ġle ben
b Ã¼
Ġ {@
Ġre l
ag o
ord ing
it ing
Ġvor hand
Ġinter est
ĠCar l
ĠS icher
zie h
Ã¼ ler
Ġp age
ĠO sten
ue ck
Ġan geb
O n
ĠGesch Ã¤fts
ium s
m el
ĠDies er
ĠCl ub
Ġre view
Ġverschieden e
h aupt
Ġan s
we ig
Ġp ut
Or t
Ġn Ã¤ch
be k
Ġbel ow
je kte
land s
Ġ197 4
te id
Ã¼r t
Ġver st
Ã¼r k
ar ian
Ġr Ã¶m
Ġal ten
Ġ197 8
Ġbeaut iful
Ġw omen
ĠS achsen
ĠColle ge
Ġ( )
Ġf lo
' re
Ġto gether
ĠSch utz
mann schaft
ĠDes ign
ge geben
ern er
St and
ĠPro jekt
ĠT ur
Ġunder stand
Ġa uth
ĠD DR
ktion en
anst alt
ĠB aum
ĠKrieg s
ĠZ ur
ĠVor s
Ġ )
ĠSt art
Ġzw eite
mal e
ĠOn line
itÃ¤ ten
ĠHerz og
Ġver kauf
Ġv ideo
b rÃ¼
ĠZw ischen
ord in
ĠGer man
Ġein gesetzt
ung sp
ĠR ot
ust rie
8 8
ĠC D
ĠâĢ Ķ
Ġ198 1
Ġre le
id ing
ob ile
Ġr uss
4 1
Ġkl einen
ĠR ang
r ist
il en
zeich nungen
Ġbie tet
Ġk ur
Ġhin aus
Ã¤us er
ir g
5 5
v oll
Ġde v
ĠP ubl
Ġf our
Ġn et
ym n
h or
ĠG mbH
ĠK lasse
ĠSt Ã¤d
Ġsie he
ĠIn stitut
con om
Ġ196 8
ĠI r
issen schaften
ĠIt alien
Ġagain st
Ġ ir
p re
Q u
Ġ196 9
p reis
is on
ra b
fer ence
ÃŁ t
ĠAuf lage
wo hl
I C
ĠH alb
ord nung
ist ische
fÃ¼hr er
ok al
Ġd afÃ¼r
ĠB eit
Ġd etail
ĠB ron
ĠR ock
Ġ197 5
Ġcont rol
Ġn atur
Ġc ity
Ġre la
Ġsow ohl
Ġbeg inn
Ġfolgen der
ib r
Ġh erv
Ġh Ã¶ch
Ġh tt
ĠM ad
ĠL es
ĠW ein
E D
ru ct
ĠSt Ã¼ck
ĠW ie
ĠK urz
d ing
ĠL o
Ġle d
Ġdevelop ment
z a
ĠD res
Ã¤ch lich
Ã¼t zen
iv ision
t ler
ĠD istr
if orn
geb Ã¤ude
stell t
b est
meister schaft
Ã¼ ter
sch lag
ĠAlb um
ck s
Ġbeste hen
Ġf av
b aut
ĠM el
ĠH ers
3 2
Ġ197 1
Ġcre ate
c le
f asst
ikan ischen
âĢľ )
iziel le
3 1
all er
id ay
ĠBe deutung
wo od
gesch lossen
Ġf ilm
ĠFl or
Ġehemal igen
Ġl ov
ag s
ze uge
hocke y
ĠBo den
ĠB ot
ĠSil ber
ĠT al
Ġst amm
S eit
T yp
Ã¶s ung
ĠlÃ¤ sst
ĠAn ton
ĠT urn
ĠkÃ¶n n
l or
Ġn ie
Ġopp ortun
le ge
E ine
Ġm aterial
Ġof ten
D F
z ir
Ġd ating
ir chen
ger ufen
ichte te
v a
amp le
V or
ab hÃ¤ng
ĠVer trag
Deutsch land
Ġgemein sam
Re g
v ier
et ter
ab ly
i ol
Ġcle an
ĠB or
rit te
Ġt reat
as es
Ġk ind
Ġfollow ing
Ġp ack
Ġpro pert
A L
Ġs en
ar f
Ġke y
aff el
7 9
b ung
ĠW irtschafts
he mat
Ġver t
row n
Ġb rand
Ġv an
ĠW eb
ĠPr ess
7 6
n am
Ġpr esent
Ġihn en
ĠM Ã¶glichkeit
ĠP rÃ¤sident
ĠMot or
Ġs og
ĠT V
Ġd ra
Ġa cht
Ġn ight
ĠN Ã¤
Ġ196 4
Ġed uc
Ġs ide
ges ellschaft
fl Ã¤che
' ve
Ġr ange
fÃ¼ ll
Ġb ar
Ġw eb
ĠJ ur
w asser
Ġm oney
Ġeff ect
me e
Ġwh y
ĠP osition
ak en
ĠJohann es
w eit
Ġall ow
s uch
Å Ĥ
Ġz usÃ¤tz
f ried
ĠHo use
ĠVerein igten
Ġ3 5
b or
Ġheut igen
ĠOrts teil
ĠK or
g n
g Ã¤n
u den
Ġ197 3
Ġdan ach
ĠSel bst
Ġer klÃ¤r
m o
Ġto t
Univers itÃ¤t
Ġs ingle
ĠII I
ĠTh ese
Ġm ot
rie f
viron ment
vern ment
an o
* *
Ġe ver
ĠAm ts
Ġjed er
Ġh aving
ĠO ne
Ġ197 7
ĠG od
ĠG ast
Ð °
ĠG Ã¶
ien s
Ġ8 0
ĠSch ule
d es
c is
Ġemp lo
Ġm aj
esten s
Ġfe atures
ĠC la
Ġen ter
weg ung
ĠfrÃ¼ her
ĠPro gramm
ĠMe hr
entr al
Ã¤ ischen
ĠAn gel
ispiel sweise
Ġm ag
r im
ĠS ant
Ġdam als
ĠJose ph
Ġv ol
ĠInformation en
h men
ĠS ub
vol ution
w ind
Ð ¾
hr te
i j
en en
it ch
ul a
ĠChe m
de ck
sp rach
Ġdah er
it chen
f ung
ch ester
ĠAn zahl
Ġdel iver
un sch
Ġp ossible
re icht
Ġsoll en
Ġind ustry
Ġt imes
ĠL u
Ġf ocus
ch ter
iv ely
ĠE ing
itz t
Ġ ung
he ther
ĠT rans
rach te
ĠS yn
Ġin sp
ol den
Ġ9 0
Ġwen ig
ist ik
ĠDe c
ob al
geb ie
Ġlie ÃŁ
Ġzahlreich e
s eite
Ġw all
ĠH or
ĠKar r
Ġ +
Ġim p
Ġentsp rechen
Ġall es
ĠF el
olit ik
arbeit en
ĠB lack
Ġh inz
ĠW hen
ian s
z i
Ġn on
k an
re ibt
ad urch
ĠS ong
ic ks
ĠRich ard
ĠE hren
A mer
Ġbe vor
ĠT op
ĠEr folg
A P
Ġ196 5
Ã¤ chen
Ġp lease
ĠK an
Ġse ason
Ġsever al
6 6
h ang
Â ²
Ġ ens
Ġin n
ĠK re
x ik
Ġac ross
ĠSt ar
ĠAr m
Ġpr ice
l as
Ġun til
ant wort
Ġzw ar
ict ion
it en
an ks
ar ing
n ach
ĠR ein
ettbe werb
Ġ Ã¤hn
Ġ196 7
ĠE t
Ġ196 2
s ide
ĠW ochen
ĠÃ¶ff ent
ĠArbeit s
ĠG eld
Ġhe i
ĠVer kehr
eh men
Ġz og
ĠV o
3 4
ĠZ Ã¼r
Ġ193 3
Ġc ase
ĠR und
ĠIn nen
Ġso cial
ĠGe f
ĠD el
ĠBahn hof
Ġcom es
Ġ(âĢ ŀ
ĠBerlin er
Ġbefin den
ge hen
ĠR os
Ġzu dem
le gte
Ġst arb
Ġ Å
Ġd ist
Ġpr es
mÃ¤ÃŁ ig
ĠhÃ¤uf ig
Ġm om
ĠBay ern
te xt
Ġst ory
z us
ĠL ou
ĠAuÃŁer dem
ĠH in
Ġj etzt
Ġso zial
a un
m on
Ġ ess
Ġl ag
Ġam er
Ġele ct
Ġeigen e
ĠVerwalt ungs
ĠMit glieder
unn ing
Ġt est
ĠS aint
id d
Ġo cc
Ġl og
ĠP sych
Ġre gel
Ġteil weise
âĢ Ķ
Ġre lat
Ġw ahr
ge fÃ¼hrt
Ġhand elt
Ġph ys
G em
Ġg irl
ĠV e
b ack
ĠA kadem
or den
ĠC enter
Ġzur ueck
Ġabsol v
Ġ7 0
Ġbec ome
asch inen
Ġsh are
read y
ĠProdu kt
ac y
Ġf ar
Ã¼r d
Ġsie ben
Ġde utlich
Ġm akes
Ġgef unden
M us
ĠB ach
je cts
Ġwel ches
k i
ĠD ruck
ĠDre h
ĠServ ice
ĠgehÃ¶r en
bar en
ĠOt to
ĠC an
Ġsich er
sch eiden
ĠW enn
Ġdire ct
Ġb ene
ab in
Ġle vel
Ġex tra
ĠEng land
o is
s burg
ĠGen er
Ġcount ry
werk e
ĠÂ »
v ious
ĠK rit
Ġdown load
ĠfranzÃ¶s ischen
br uch
an ze
sche ch
in ge
ĠI l
Ġth ough
b ol
al tet
Ġso gen
Ġschn ell
Ġer Ã¶ff
Ġdar unter
Ġinst all
Ġb it
ĠK ategor
ikan er
Ġletz te
v est
ic ro
ich en
H er
ĠHer ren
ut ions
ĠR ud
ro du
Ġbe ispielsweise
Ġwo hl
ĠG i
ift ung
I T
Ġprofess ional
p rÃ¼
Ġst re
th rows
ĠErn st
ĠA G
Ã¤nd ern
c ent
ur ity
ĠSie d
ĠLe ague
Ġbest imm
u hr
ĠP an
ĠR oy
lan zen
ĠJ ames
ĠE igen
ĠSal z
Ġl ow
il s
ak te
Ġwicht ig
ĠAn n
Ġcal led
re w
ern en
Ġ193 8
H och
sch iff
Ġet c
app en
ĠT ab
em in
co ver
or ie
ut ure
Ġmaj or
ĠB Ã¶
ring en
um er
Ġs ize
Ġme et
Ġco up
ak er
Ġ193 9
ĠBevÃ¶lker ung
B C
Ġb ody
oten t
og le
arr iere
ĠSe c
Ġ196 6
an ies
Aus wahl
7 7
u tet
ĠS omm
Ġpo int
ĠverÃ¶ffentlich t
Ġs tellt
Ġcont act
Ġqu ick
as er
Ġsom it
ĠEn gl
Ġbl og
ĠP et
an zen
Ġo p
ibliothe k
ĠI hnen
Ġj apan
Ġfriend s
ĠSp iele
Ġ194 0
ĠE ben
ĠTe le
te g
Ġmember s
b are
r ies
ĠKarr iere
f a
t ain
os sen
la w
Ġres ult
Ġs uper
kt r
v is
ĠIn stit
ĠGr Ã¶
la ger
ic y
Ġ196 3
c el
ĠRei he
r as
Ġ193 0
Ġget ting
Ġb in
ĠL aw
Ġar ch
P ar
Ġbe teil
tem berg
auf en
Ġe urop
Ġspec ific
Ġyo ung
ges ehen
ilit ies
Ġw oll
Ġn ichts
uf act
ap s
anad a
Ġwen iger
ĠM aterial
Ġbes ten
ĠgrÃ¶ÃŁ ten
leit ung
b an
s eit
Ġ( =
ĠTh at
b s
Ġ195 6
Ġn atÃ¼r
ut or
id a
Ã¤l ter
at ers
Ġto ol
Ġgen utzt
ĠA ben
ach ten
ĠAustr al
ame ister
Ġoff ic
Ġerw Ã¤hn
pla y
ag t
ĠT est
9 5
Ã §
ĠAr ten
ĠF rie
Ġle ft
wert ung
es tern
Ġf al
Ġret urn
Ġl im
Ġal ready
Ġ196 1
ĠV al
Ġprov ides
Ġ19 20
Ġth ing
Ã¤d ag
ĠAss oci
ĠCh amp
ĠSch Ã¼ler
Ġstar ted
we gen
ĠM ac
" .
ing t
ĠG ruppen
ĠHo tel
en burg
lie ben
Ġcom b
ĠCh or
Ġfol gte
m as
ik al
Ġbef and
Ġrequ ire
ier ungen
ĠM ass
ĠL age
Ġor ganis
ger icht
M et
Ġh om
Ġapp ear
ĠStud ien
Ġc amp
ĠC amp
ier ter
fahr er
Dies e
O S
ĠD om
ĠFre und
A nd
ĠS telle
ĠO s
ĠBru der
b ten
ĠK ons
ĠSp rache
etz ung
Ġlie gen
Ġst at
Ġmo dern
b ro
haf t
_ _
ĠZ um
ell s
gr en
w esen
Ġzu vor
Ġver fÃ¼
ĠEr d
og n
ĠVors itzen
it sch
Ġein igen
rie ch
Ġsp ace
Ġer k
ĠZ ust
Ġd one
ĠR en
Ge ographie
Ã¼s se
ann e
ĠB al
ze hn
Ġ194 9
Ġl at
0 5
r am
iz ei
Ġte xt
fass ung
st ant
ĠRe al
ĠJ ack
al ys
k ur
Ġge g
i od
Ġw ind
ran g
k el
ĠNach dem
ĠSe x
ĀĀĀĀĀĀĀĀĀĀĀĀĀĀĀĀĀĀĀĀĀĀĀĀĀĀĀĀĀĀĀĀ ĀĀĀĀĀĀĀĀĀĀĀĀĀĀĀĀĀĀĀĀĀĀĀĀĀĀĀĀĀĀĀĀ
Ġgen au
un e
p lat
av en
ĠB ilder
o int
ĠVer fÃ¼g
ĠSt ates
geb ung
Ġverb unden
in ts
ĠGe ist
ward s
ĠReich s
ymn as
W est
Ġk osten
aup ts
ĠGe orge
ĠGemein den
b esch
he ira
ĠMed ien
ick en
ĠHil fe
ĠBes itz
an ischen
ĠF ort
Ġcol or
ĠD own
Ġl ink
ĠWh at
ĠSer ie
la den
isten t
Ġver lie
Ġp urch
ĠAuf trag
ĠFl uss
Ġw elt
il er
Ġh Ã¶
Ġsog ar
ĠNÃ¤ he
ĠA p
ĠK raft
ĠR iver
rie ges
Ã¤t igkeit
8 4
ĠSch wer
ĠN etz
Ġbuild ing
Ã¤t zen
ish ing
E M
ĠKÃ¶nig reich
ĠWill iam
i ar
or gen
ĠN ow
Ã¤l fte
Ġm ethod
ĠG leich
p ark
och e
ĠEr sten
Ġ rad
Ġw a
Ġstell te
ĠB y
ĠF ac
p ec
ĠP lat
Ġdesign ed
Ġpriv ate
C D
fra ge
d am
Ġf alls
ast ic
Ġen er
Ġh ours
ub le
Ä į
ĠA k
ig ungs
Ġkn own
Ġgleich en
ĠVerb indung
schlieÃŁ lich
ĠG al
Ġser ies
ĠRep ublik
en er
rol le
S h
Ġk lass
. <
ĠPh ys
av a
Ġdam al
Ġw issenschaft
an lage
Ġm ass
Ġproble m
Ġer reicht
enn ung
f s
at iv
8 7
v in
w esten
Ġo thers
ĠJ azz
ĠC ommun
ĠSie g
Ġst yle
n es
at um
am in
ĠK auf
om ot
w ar
im s
Ġ194 4
Ã¼l t
5 9
le tt
Ã¶r m
te in
n ers
ĠE du
Ġ195 9
Ġz we
ide d
Ġme ans
ĠW issenschaft
ĠSomm ers
r unde
isse ur
Ġm acht
is c
Ġb lack
Ġtechn ology
Ġcustom ers
led ge
Ġinv ol
C on
ĠG est
ur ance
Ġre port
e ten
f Ã¼r
rit z
ĠP rem
ĠL og
ĠThe ma
Ġmach te
cript ion
z iert
Ġ195 8
ĠBes uch
Ġp ie
Ġ5 00
ĠStre cke
Ãľ ber
ĠK Ã¶rper
un c
ge m
A ll
Ġr icht
Ġre cht
ab y
ĠwÃ¼r de
Ġl iving
es ted
ĠMÃ¤n ner
re cher
ĠPhil ipp
ĠM ore
Ġauf genommen
Ġchar ac
Ġim age
k unft
k or
ĠArt ikel
Ġen ough
ĠHer mann
ĠFe uer
S e
Ġtra ining
ĠKomp onist
Ġf ield
ĠDres den
par te
g ent
o ught
m ost
Ġch allen
Ã¤hl en
a ul
l ad
' ll
o unt
Ġfolgen de
Ã¼ hle
ell ing
Ġbu y
Ã¼rt temberg
Ġem ail
Ġre pr
ĠK unden
ĠZÃ¼r ich
Ġtyp e
gr Ã¶
ec ts
jÃ¤hr igen
Ã¼l ler
stre cke
Ġeng ine
men te
Ġpol n
bet rieb
arbeit et
Ġt alk
Ġp ur
fol ger
ĠAlex ander
k athol
fl ug
Ġsim ple
Ġk amen
Ġcomp anies
Ġges p
ĠWerk e
g liche
U m
fe hl
re p
ĠPhil osoph
ĠR ob
ĠB aden
l ant
y a
Â °
hand lung
Ġnach dem
Ġlin ks
f ten
k ap
Ġh istory
ĠH al
Ġsetz te
Ð µ
le ment
er in
r uf
Ġm iss
ĠMit arbeiter
Ġac count
ĠD eb
er ing
Ġd eb
ĠB u
Ġentfern t
Ġm Ã¶ch
ra chen
ut zen
w in
Ġbei de
Ġw atch
ĠK ampf
Ġun ique
un ge
M an
Ġ4 5
ĠE U
Ġre por
amerikan ische
Ġent hÃ¤lt
ĠPolit ik
Ġindivid u
ot te
yn am
ww w
ĠW irk
ĠW eiter
Ġge legen
Ġver sch
Ġ195 2
ĠauÃŁer dem
ĠA v
ian a
an c
Ġ195 7
c ome
wohn ern
ide os
Ġmonth s
el ten
Ġbes uchte
Ġbede uten
Ġw on
ĠV iel
ĠMe er
o den
ĠN ik
Ð ¸
for sch
ĠZw ei
g ere
Ã¤t ten
gel Ã¶st
Ġ195 3
ress e
li ents
ge hend
Ġcomple te
ate i
) ;
Ġh uman
aler ie
Ġw alk
zeug t
Ġvar ious
h il
Ġgew esen
ra el
ĠVerfÃ¼g ung
Ġf it
Ġuns ere
ig lich
ĠW alter
ĠS in
le iter
ĠN et
ang s
Ġ195 5
ĠPar lam
Ġvoll stÃ¤nd
f rei
ran t
ges tell
Ġfr ont
ĠJ es
Ġs n
sch au
Ġ194 6
Ġdisc uss
Ã¶ hn
Ġadd ress
p ut
ĠP rÃ¤
ran ge
Ġentstand en
h inder
ĠG roup
Ġst ay
fin ale
letz t
k und
pp en
f on
ĠS u
ĠAn geb
ĠAus bildung
zentr um
Ġth ought
Ġso ur
Ġl ate
Ġne ar
rÃ¼ ck
ĠA th
Ġsch rieb
Ġevery thing
l im
us ion
Ġe arly
Gem ein
it a
as en
ĠAl bert
amer a
Ġrel ations
F rau
Ġmehr eren
so zial
itu ation
olog ische
ĠD ach
ĠVer m
Ġpop ular
ĠR and
ĠKl oster
âĢ ĺ
Ġf uture
ĠWolf gang
Ġte ach
ct ive
wie gend
f ar
ĠB ud
i w
ĠB ill
ĠBÃ¼rger meister
Ġup d
ien ces
ĠB d
g g
ĠSpiel en
Ġloc ated
ĠAkadem ie
Ġakt iv
ze ugen
et ten
.. ..
Ġres ults
e ter
ĠI D
res h
ĠUnter stÃ¼tz
S port
ĠS old
ste hen
tag s
d in
u a
Ġs ug
Ġc ent
ĠL iga
ay er
ot ball
or te
Ġer ster
ĠDies es
f Ã¤h
em b
ad a
w art
tre ter
Te ilnehmer
S tra
at ten
qu e
M ed
oll ar
age d
ed en
r al
iv il
ĠEl tern
leit et
ĠFrÃ¼ h
Ġinc re
ĠHer aus
Ġag o
ĠAr mee
in ed
ĠW ol
ĠW ash
W ir
i i
ĠT on
schrif ten
Ġle icht
ĠA c
g ten
Ġwh ite
Ġmed ia
Ġcon tent
Ġcurr ent
ĠS Ã¤nger
ĠC ent
Ġ195 4
it ar
ĠP op
W hen
k ret
le cht
ĠH Ã¤lfte
ĠI d
ĠR itter
ang es
ĠFin anz
A t
b Ã¼rger
o o
ĠM ess
ag ing
ĠUnter such
H and
A M
ĠD ay
ir c
Ġy et
Ġsoll ten
Th ere
heira tet
ens ion
ĠGra nd
8 3
Ġaus gest
meister schaften
Ġinclud es
ar th
ĠM ein
sp iele
Ġunter stÃ¼tz
Ġen vironment
nd er
ĠR unde
ren g
w irk
rich ten
il ien
Ġ194 8
ĠHann over
Ã¤ch s
p age
us st
Ġf ur
m od
Ġwei ÃŁ
Ġherv or
E T
Ġdo ing
Ġpartic ular
t d
ĠG et
Ġman agement
ĠGeb ie
T rÃ¤ger
w es
Ġge ben
. -
G es
r ig
Ġc ame
ca dem
w ill
ĠO ct
ĠAl le
i ents
Ġw onder
ĠL Ã¶
ĠBe zeichnung
c m
ĠB und
Ġf rei
Ġsch wer
we isen
an cial
Ġon ce
Ġihr es
lÃ¤ ss
I ch
Ġd ivers
ĠA st
Ġstud y
ĠS Ã¤
Ġin tegr
ungs k
f ield
ĠSt r
olog ischen
Ġs ays
te ten
ĠK ing
Ġg rÃ¼ndete
6 9
ĠT her
Ver lag
7 2
ĠBe griff
or ies
ĠO pen
ak a
Ġver d
end es
Ġread ing
ĠDam it
P S
0 9
1 00
O ber
g ien
Ġg ames
ĠGes etz
ĠIs land
Ġto ok
be zirk
v on
v ing
ĠJe an
Ġin form
ro t
Ġcert ain
ig in
Ã¤t ter
ĠĠĠĠ ĠĠĠĠ
O ur
Ã¶ ll
Ġge k
Ġperform ance
ĠEner gie
S etzt
ĠH Ã¶r
ĠB ack
Ġc ra
k ra
Ġh ig
st ud
ut her
Ġact ually
Ġfav or
ym bol
Ġpropert y
b ie
t ritt
ge hÃ¶r
Ġresp ons
ĠSchauspieler in
ĠK opf
Ã¼ ste
ĠSchl acht
ho ut
ĠPr es
Ġ193 6
he t
Fernseh serie
Ġk einen
Ġho he
Ġprofess ion
ĠMus ic
ĠStud ium
r hein
Ġl ik
Ġoff ice
Ġdid n
b ischof
Ġd oc
ien ten
ir es
Ġer ziel
Ġsel ten
Ġger ade
C hr
Ġs ett
Ġm illion
imm ung
sch uss
ĠPro f
ĠK ra
ow jet
Ġd ritten
ĠM ond
ĠD oppel
Ġ194 3
âĢ¦ ]
r is
ĠT ruppen
ĠB on
Ġpr ess
ĠBas is
ĠL Ã¼
zir ks
ent wicklung
p ol
Ġtra vel
ĠA cadem
ĠP il
ĠW and
ĠWien er
ĠA uÃŁen
ĠM as
Ġmod el
ĠursprÃ¼n glich
S er
Ġman ufact
if fen
Ġgem acht
Ġare as
0 6
ĠL os
Ġme an
ne ter
ile d
ĠH eid
ĠKÃ¶nig s
p ly
Ġde al
gew iesen
ĠT eile
ĠF le
ĠJ ac
av y
Ġide as
Ġvorhand en
Ġk itchen
ï ¿
Ġc lients
Ġrec ommen
Ġm ess
il ian
ĠSt amm
Ġeben so
ĠW ider
Ġf ert
ĠF ern
if y
ĠF uÃŁ
ĠW ort
Ġ194 2
S S
E L
ĠStre et
ï¿ ½
Ġe conom
Ġcom fort
Ġmin utes
ĠZentr um
ĠC le
Ġho hen
i est
ĠAb geord
ĠMa ÃŁ
ĠK osten
Ġc ard
b ark
l ern
Ġa ud
om et
Ġcl ick
ĠverÃ¶ffentlich te
ĠLin ie
ĠT ier
Ġentwick elt
ĠKla us
Ĥ ¬
Ġb reit
Ġ194 1
ieren den
ĠMin uten
lichkeit en
Ġin de
Ġp ersÃ¶n
Ġj a
g le
l ow
ĠM r
ĠM ult
Ġth er
ath let
ĠJun e
Ġabsolv ierte
Ġann oun
ĠSt ad
ra uch
f Ã¶rm
Ġb i
wissenschaft ler
ĠF Ã¶rder
ĠL icht
ĠSp r
bl ick
6 8
ĠL Ã¤nge
Ġge d
zie hung
ĠZeit schrift
c ol
m und
ĠR em
ab eth
Ġpre par
7 1
vent ion
ĠJose f
0 1
im ate
lie d
Ġw ent
Ġunser er
o on
ĠC am
mal er
unter nehmen
ell ow
ĠY our
ĠnÃ¤ch sten
lan gen
ĠfranzÃ¶s ischer
r ug
ĠBr un
ĠU K
Ġne un
iden ten
M S
Ġam ong
Ġst aff
ĠNach t
Ġquest ions
ĠnÃ¶rd lich
Ġz erst
Ġan schlieÃŁend
ĠErgeb nis
ic ation
ĠV an
Ġgeb aut
Ġk athol
ip ment
ĠA re
ĠK ommand
ĠUn ion
ĠA ugen
ho ben
ite te
ĠA ber
M od
il led
ĠF en
ib ility
Ã¼ss eld
ĠN S
lin ie
ĠH essen
, "
ĠsÃ¼d lich
Ġnew s
ĠSc ience
ĠG arten
ver walt
Ġse en
ĠP unkte
ĠDan ach
ur a
G B
b um
Ġb ad
Ġc ele
os ph
w al
Ġb le
ame ter
Ã³ n
m useum
ĠF und
sch t
Ġclos e
Ġf ive
Ġor iginal
Ġcomp uter
ĠKant on
f Ã¤l
Ġs il
ĠK ranken
Ã¤nd ert
ĠLe hrer
ad s
ĠRe cht
ĠA tt
an ces
Ġsp ielt
Ġ194 7
b orn
ĠRe ise
Ġgemein s
ĠL eiter
Ġle ast
k unde
ĠU p
hr t
zeit en
ifik ation
ug hout
air s
o z
z Ã¤hl
Ġ ill
ĠEx p
abr ik
de ckt
h ib
arbeit ung
T o
il det
d t
ĠK as
ĠFest ival
s ie
Â »
ch ie
ze igt
P r
e ded
z immer
ful ly
press ion
an ken
ip le
Ġ193 5
Ġcomm on
am ed
sch ei
Ġr en
ĠKategor ie
K on
Ġ17 9
ĠEisen bahn
Ġh old
Ġh ope
ent ial
Ġv ia
ĠBe k
Ġ195 1
g ers
Ġ193 7
ĠRel ig
ĠD ial
ĠSt ock
Ġauth or
ĠWash ington
p ass
af r
ĠArbeit en
Ġstamm t
Ġ Ã¼b
ict or
Ġmind estens
Ġappro ach
==== ====
a ktion
Ġ Ã¤lter
ĠH an
Ġhe ira
rÃ¤s identen
Ġd Ã¼r
Ġd ue
z og
st a
ĠComp any
F l
Ġf und
ĠZ we
6 4
Ġz ie
ĠÃ¼ber n
Ġdoes n
Ġb ath
ĠRe gen
ĠOr gel
ĠHand els
Ġhapp en
7 3
ĠEle kt
e kt
20 18
Ġbes itzt
ĠFran cis
ĠProdu ktion
Ġp sych
aus ch
Ġlat est
ĠA fter
ĠC our
ĠFir ma
Ġt aking
mus ik
Ġweiter hin
ĠL ake
Ġ3 2
ĠZu dem
ĠÃ¶sterreich ischer
Ġhal f
los e
Ġg iven
Ġj oin
h istor
mar kt
hÃ¤lt nis
7 4
A D
all ow
ĠPol en
Ġaut omat
ĠerwÃ¤hn t
o id
ĠC ons
Ġent w
ĠNach folger
ĠW ahr
l iste
Ġp otent
ĠPriv at
ĠDenk mal
Ġd istr
Ġto ur
Ġm atch
ĠGo ogle
Ġs onst
ĠD or
Ġe vangel
gr am
g al
Ġre ach
ill en
gr enz
ĠOff izielle
Ġnatur al
ĠRoy al
de ten
Ġd ate
ĠV is
Ġsch loss
ĠUm welt
Ġstr ong
ĠForsch ungs
8 2
Ġbre ak
ĠÃĸ ff
im ar
5 6
O T
ĠPro t
u hl
an lagen
ĠT urm
Ġspe ziel
Ġev ents
Ġs ong
ĠW ild
Ġal te
ah nen
ers eits
Ġcon stru
Ġum fasst
Ġiss ues
ĠBrit ish
ĠL eitung
Ġge hen
Ġso ftware
ĠEn ts
ĠSchw arz
iden ce
ĠSoc iety
f unk
Ġehemal ige
ĠLou is
d i
Ġk ont
onst ru
Ġp osition
ot a
mer k
Ġsome one
Ġver ein
ĠVer l
Ġern annt
w an
Ġam az
Ġhe art
unk ten
g as
ĠT ages
ĠL im
ĠL oc
ĠPf lanzen
ĠVers ion
Ġrest aur
ĠGrÃ¼nd ung
Ġa ge
gen cy
f Ã¤ll
ĠT it
neh m
um ents
eit her
end ung
Ã¤nd ig
P f
k y
ĠT enn
Ġge geben
ran sp
Ġt ax
x is
Ġw id
Ġw ollen
ĠSp ring
r ation
c ement
ĠG re
ell ent
Ġne ues
ĠChar les
ĠPla y
Ġl ar
Ġdar Ã¼ber
Ġ[ âĢ¦]
ĠAssoci ation
0 2
st aat
Ġp aper
ĠfÃ¼hr en
Z u
Ġw es
ĠG as
c i
erv e
richt ungen
B ahn
Ã¤ um
ĠE st
Ġc m
per atur
Ġn ull
pro chen
Ġsel ben
Ġevery one
ĠC up
ĠReg ierungs
ĠStand ard
omm ission
6 3
ad o
olog ical
us ive
et y
ĠStadt teil
Ġfin anz
Ġdetail s
at ors
ĠAn na
Ġw ww
ing ungen
ĠR Ã¶
ĠO ut
Ġ193 4
Ġeinz ige
am ing
ĠK le
Ġe her
ĠVer gleich
ich e
Ġmit tler
ĠG lo
ĠR at
ĠBe zirk
Ġs tellen
Ġem pf
ĠPol izei
ĠHow ever
u ed
Ġgo vernment
Ġass ist
z uf
Ġent halten
our ce
Ar ch
ur al
Ġwoll te
ĠI st
Ġd iff
eb ook
anst altung
or ed
re ise
ĠW as
rep ublik
af fe
Ġv eh
Ġab ove
W er
ĠH u
ĠD Ã©
Ġbil det
g round
ĠSt unden
Ã¡ n
fer enz
stell ungen
0 3
C H
Ġne g
rech end
Ġeinzel nen
Ġp ain
ĠR ennen
Ġre chts
ĠSp rach
ĠHoch schule
k reuz
rÃ¤ fte
west lich
ograph y
z ip
ĠNach bar
ĠPart ner
i ro
Ġc op
ien ste
Ġj Ã¼n
Ġw Ã¤re
ĠH art
Ġpro b
iqu es
ĠD enn
Ġst ammen
Ġat tra
Ġp ick
ĠMo unt
Ġentwick elte
Ã¤ te
Ġc la
R E
Ġen c
amil ie
ĠSte uer
ĠÂ «
Ġapplic ation
ĠS tern
ĠB ig
ĠT om
ip e
rif f
bo ard
Ġspiel en
ĠSt il
ve y
Ġener gy
( )
0 8
l ingen
rei he
ĠBl Ã¼
Ġl ater
ific ation
ĠMar ch
ĠPr inz
Ġver heiratet
ab les
Ġerreich en
ĠR a
Ã¤d chen
ĠB usiness
ĠD Ã¼sseld
ĠPh ot
Ġt it
ĠC r
Ġcom par
Ġbrit ischer
ĠC ap
Ġinternational en
Ã¼ ll
Ġwho le
Ġhtt p
ĠE ast
ĠMat hemat
s b
Ġd igital
ĠG reen
mit t
Ġnet work
ĠF ree
ann ing
Ġerh Ã¤lt
pp er
hal ts
ĠCar ol
ĠI V
Ġcre ated
ie ur
is es
ĠA ct
Ġsel f
il ar
Ġbet rÃ¤gt
N ational
ist an
Ġre d
En t
an ger
ĠVer t
ail y
ĠGra b
Ġbesch Ã¤ft
ĠK er
Ġoff iziel
Ġbelie ve
0 4
e ks
ĠW all
ĠV oll
Ã¤r k
0 7
Ġal t
ĠAmer ica
ie ÃŁ
ĠAut o
ĠfranzÃ¶s ische
Ġpartic ip
Hoch schullehrer
B o
ĠS on
spiel en
Ġt able
ĠEnt scheid
Ġke hrte
Ġcolle ction
ĠfrÃ¼ hen
Ġv o
ĠVer d
rett y
Ġvers te
Ġbil den
e ign
ĠT rad
ĠFre ib
Me ter
Ġp lat
-- --
ĠS ing
ieren de
in os
ĠD ipl
la v
et a
end orf
etz en
ĠMan agement
Ġerfol gt
b aum
ĠD isk
Ġcom mit
ĠB il
Ã¶ sen
iz ier
Ġthro ughout
ĠEin wohnern
fra u
k et
t schaft
Ġaktu ellen
ĠUnterstÃ¼tz ung
ĠC lass
ver age
techn ik
Ġreg ion
Ġben Ã¶t
Le gt
osp ital
f alen
l Ã¶sung
m ut
Ġjed en
Ġwel cher
ĠFol gen
5 3
Ġre ason
ĠEr fahr
n o
ĠIn c
istr ation
Ġfe ature
5 2
h i
ĠJ ak
hl t
Ġben annt
ar ed
au b
k au
chn et
Ä ĩ
Ġcomp et
ĠgrÃ¶ÃŁ te
Ġheira tete
l ast
p hen
Ġ Ã¼
ĠD okument
ĠP ublik
Ġent ire
Ġinn ov
g arten
Ġm em
Ã¤ ten
5 8
Ð ½
qu al
f igur
ĠW issen
ĠVerein s
ĠRad io
ĠI T
Ġknow ledge
Ġ3 00
Ġre lig
iz es
aut or
ĠRest aur
Ġh ab
Ġmark eting
w urf
Ġad min
ĠGeb urt
ĠT w
Ã¤n gen
Ġph one
Ne w
ĠB us
ĠG ut
Ġmit tel
be ck
ĠMod ell
6 7
Ġf ra
ĠR h
ist ic
Ġte le
tent ion
aug h
at o
ĠM Ã¼ller
Ġhe ld
me hr
uf e
Ã¤hl te
d y
it ts
Ġvers ion
Ñ Ģ
Ġp le
Ġbie ten
ff er
Ġw ide
Ġf ire
Ġf ace
Ġex ample
Ġ19 18
Ġper iod
Ge grÃ¼ndet
ĠDan iel
Ġsystem s
y th
ĠS und
Ġcho ose
ĠkÃ¶nn te
ĠSommers piele
ĠV ideo
iforn ia
ĠGÃ¶ tt
Ġf iel
ĠA ud
Ġg ute
g ibt
ĠP unkt
ĠJ er
s m
af t
ĠP lease
ĠAn schluss
ĠBest and
Ġens ure
Ġhei ÃŁt
ĠS ar
he ad
Ġpolit ischen
Ġcustom er
Ġcurr ently
pec ially
Ġges tellt
ĠF ass
ĠGes und
Ġra te
5 1
Ġide a
Ġquest ion
Ġdien te
re chts
ĠH ere
Ġwir k
Ġvar iety
denk mal
ĠL ied
Ġtot al
an ted
Ġb em
ĠD ivision
ĠAus gabe
Ã¤ cht
ĠT own
ĠW ass
ad y
ĠGl as
bau ten
u it
on ym
Ġw hether
ro ffen
Ġal most
ul es
ess ion
ĠD och
ĠU s
ĠA ust
yste me
Ġs ens
ĠK ern
Ġ192 9
ir th
ĠAb schluss
Ġan alys
ĠKir ch
ĠWh ite
d f
ĠMÃ¼n ster
spr uch
ĠRud olf
ymnas ium
Ġd og
orn ing
ĠS ter
Ġinter ess
Ġstand ard
Ġread y
ĠEurope an
ĠS ur
ok omot
g arn
Ġverl oren
on ie
as ure
Ġar r
Ġwrit ing
Ġled iglich
G er
im um
Ġl iter
Ġj Ã¤hr
Ġver lÃ¤
zw ischen
Ġex t
Amer ikaner
or a
we chsel
ok e
ĠOr d
ĠZu ge
ĠZeit punkt
ĠChamp ions
m ot
Ã ¢
ĠH alle
Ġ4 00
ĠAben d
Ġs ales
Ġh ot
ĠW ies
ĠAn g
gel n
ĠMar y
Ġtro tz
ig entlich
ist in
ĠSch Ã¶n
ĠNe ub
Ġ Ã¤lt
O M
ĠThe men
lie gen
ĠHerr schaft
Ġne uer
Ġopportun ity
k rit
Ġ rom
ĠSt affel
ĠSch les
Ġhapp y
Ġk rit
k omp
end ing
ĠP DF
ĠCh ic
Ġint rodu
ĠEngl ish
is ierte
Ãĸ sterreich
idd le
6 2
f its
op t
Ġse par
Ġgew orden
wind igkeit
ĠInstit ute
t ime
Ġbo x
th ough
fall en
5 7
S V
Ã¶ gen
ĠEx per
v o
ar tet
Ġqu ite
ĠT Ã¼r
E urop
Ġg re
Ġloc ation
o der
Ġ193 2
Ġfun ction
as chen
ĠM ur
hal te
Ġreg ul
Jahr hund
8 1
k le
Ġ19 19
haus es
ĠEp is
Ġa chie
ĠJ ung
Ġgesam te
k arte
Ġs or
od es
Ġany thing
Ġj Ã¼d
ĠfrÃ¼ h
w h
Ġrec ently
ĠIn vest
Ġze igen
ĠAkt iv
ĠÃ¶ffent lichen
h ab
lie fert
u age
w issenschaften
Ġgesch lossen
rat s
Ġpre uÃŁ
ĠH is
ĠVer Ã¶ffentlich
Ġne eded
Ġh ost
ian o
ĠKon z
6 1
as te
Ġz ust
ĠL ive
Ġ19 00
wÃ¤r ts
c up
ch ron
el berg
ic les
Ġcon tra
Ġf ul
Ã¼ ge
Ġm at
Pro du
h auer
Ġer z
ct ing
Ġkn app
Ġconc ern
Ġc rit
Ġbrit ischen
ig ner
Ġco ol
setz en
ĠZusammen arbeit
Ä ±
isch em
Ġz uf
ĠH y
ĠVer wendung
reich en
Ġfand en
Ġt akes
com ing
f ace
ec ted
Ġg riech
ud es
Ġco ok
s ystem
ĠK u
Ġe p
PD F
F A
teil en
Ġins ide
Ġto wn
Ġde ter
ĠSp ec
Ġsch l
ĠFin ale
ĠM em
Ġes pecially
D urch
Ġw anted
id t
ĠVol k
ĠBay er
ĠF rom
Ġ19 14
Ġsk ills
spr ung
Ã¤nd en
gew icht
ĠRec ords
Ġflo or
Ġeduc ation
Ġb lo
as c
ĠV ictor
ĠFra ge
Ġbu ilt
5 4
Ġst ore
Ġrequ ired
9 3
ĠLe icht
ĠGren ze
y ear
ĠPar te
b i
Ġun ivers
Ã¤n n
Ġerh Ã¶
h ers
leg ung
ĠFÃ¼r st
Ġprovide d
Ġw ays
Ġver z
K ultur
ĠD ann
Ġer r
ĠSp anien
parte ment
k unden
st att
ne w
Ġus er
Ġp aint
rei ber
Ġpart y
fr ast
Ġange geben
ĠGer ichts
ĠAut om
Ġfur ther
ime ter
Ġgen eral
| }
ĠB all
Ġdamal igen
Ä ģ
Ġs ale
at iven
ĠJul y
W enn
in den
is ted
ĠW el
ĠN ic
Ġsh ows
ĠCal ifornia
Ġactiv ities
r id
ie ger
un ion
ĠF irst
ĠW ebs
ĠInd ustrie
ĠAn schlieÃŁend
ĠFl Ã¤che
Ġopt ions
T V
ĠNew s
Ġch em
gemein schaft
Ġphot os
I P
u ell
ĠD amen
ren nen
ibr ary
Ĩ Ĵ
ĠJ ud
Ġtra ck
5 00
Ġd adurch
Ġh on
ĠO x
att le
sel ves
Ġnieder lÃ¤nd
ra in
end s
ĠAnd reas
ĠMo der
w here
ag d
ain ed
Ġzahlreich en
Ġt w
iz ing
p el
uch ten
Ġsign ific
forsch ung
Ġs at
Ġm ove
Ġ192 8
Ġs etzt
ĠS onder
Ġer he
Ġper cent
Ġun ver
ĠTeil nehmer
l ers
un a
Ġausge zeichnet
n itz
ĠO f
ell o
Ġpro jects
b rit
Ġs we
sch lÃ¤
em ents
ed ia
our ces
Ġgleich zeitig
ĠDown load
an i
halt ung
Ġp retty
Ġh air
ĠT at
H ol
Ġproble ms
Ñ Ĥ
ĠL ove
ain ing
W ith
ĠS ign
ĠAl ten
ĠHer bst
Ġsim ply
ĠBre men
b us
at tet
Ġk ids
ĠSt immen
Ġo ben
ic ip
Ġk aum
au te
Ġcoup le
aupts Ã¤chlich
Ġc ur
ow a
Ġro le
ĠWeit ere
Ġp oss
ĠRe ad
Ã ¸
or es
ĠS n
ĠLie be
iti ative
D es
Ġpre vious
a ders
Ġb ald
st anz
Ġan z
s erv
ĠAl ler
R uft
h Ã¤user
Ġf a
mittel t
g u
ver fahren
ĠKont akt
Ġbo oks
Ã¶ ne
Ġ192 5
Ġ Ã¶stlich
om ie
Ġim ages
med aille
Ġerm Ã¶glich
Verein igte
ĠDÃ¼sseld orf
A G
Ġd ro
Ġl on
ad el
ĠUm gebung
Ã¤d t
S C
g rad
Ġs od
ĠE vangel
Ġer setzt
ĠV en
aus t
Ġnor mal
Ġh Ã¤tte
Ġso on
Ġrec ent
Ã¼ cht
ic ult
Ã¼r n
ĠAcadem y
F C
M y
b is
Ġb esser
ĠH ard
Ġcom ing
Ġpos ted
ĠOct ober
bark eit
Ġs ing
ĠEin fluss
s or
in sel
Ġf urn
Ġest abl
ĠG ro
ĠC ast
rÃ¼nde ten
an walt
Ġin dem
Ġprodu ction
Ġm obile
Ġzu letzt
ang ing
ĠHe alth
ĠEnt wick
it ial
ho od
ĠAr n
rÃ¤n k
ĠR um
ann er
Ġsie ht
ou ver
Ġb lock
ĠO k
ĠOr ganisation
ĠBo x
verwalt ung
Ġart icle
c rib
ir ch
ul en
hockey spieler
Ġp ark
fl Ã¤chen
9 2
ĠH om
id ae
ap ie
v els
Ġrece ive
Ġamaz ing
U N
k ampf
Ġ either
ĠOr gan
Ġne hmen
ste ad
ĠhÃ¶ her
I nd
ie gen
ĠL uc
Ñ ģ
ĠLe g
opp ing
Ġcharac ter
Ġst ruct
Ġso und
hal le
n amen
ĠB onn
ĠD azu
ĠF ischer
Ġstud ent
Ġsk in
I L
w ell
Ġt aken
ik ation
Ġprov iding
ĠÂ £
Ġwest lich
Ġs ix
ĠAl fred
Ġrela ted
ger ichtet
Ġvor her
mÃ¤ ler
f unktion
ĠSt rom
Ġt rÃ¤gt
an ische
au ber
ĠTh Ã¼r
bo gen
ĠZeich en
Ġmom ent
ĠChic ago
V ers
sw Ã¼rd
k raft
Ġt old
ĠS zen
Ġm ent
heim er
Ob jekt
s a
or et
Ġlearn ing
ĠEr k
Ġcle ar
ĠAr ts
iel ten
hen s
ĠTra iner
Ġass oci
zeich nis
Ġindivid ual
ĠSicher heit
Ġs le
ol ution
om a
Ġwen ige
Ġrece ived
E C
u ary
er er
ĠM acht
Ġp an
ad es
irg in
Ġgen ommen
Ġpract ice
sch auspieler
ĠSt reit
Ġwe eks
ĠAus wahl
ĠFamilien name
S te
al a
Ġ- -
ĠZeit ung
Ġfin ancial
Ġehemal iger
schein lich
Ġn immt
Ġre pla
Ġdiff icult
Ġs ummer
ĠM aschinen
ĠI nde
ir it
Ġse em
h ing
org ung
ie fer
ĠB ul
ĠH off
pla te
Ġbeginn t
ĠGrÃ¶ ÃŁe
st Ã¤tte
ĠW erner
E is
ĠD rei
ĠD igital
reich e
Ġ192 7
Ġequ ipment
w ir
it ure
ĠA ch
p ret
Ġyour self
Ġpict ure
Ġz entr
ĠH ay
ie ÃŁen
ĠS y
ĠS atz
Ġad ded
Ġph il
ĠB ook
Ġdes halb
jÃ¤hr ige
sp er
Ġplan s
Met hode
tra iner
ĠBes te
Ġaktu elle
B ut
t itel
ĠL ife
ĠN amens
Ġst ock
ĠGott es
ĠH ei
od or
Ġso fort
ĠAngel es
ĠG reat
Ã¼r gen
Ġr unning
as ten
ct ors
ĠIm m
u elle
ut n
Ġst op
rie be
Ġdar f
ĠMed izin
Ġpar ts
ass el
Ġall gemein
Ã¤hr t
ĠSold aten
ĠK omb
ĠVerkehr s
k lasse
Ġb rachte
ĠIn str
ash ion
ifiz iert
ĠS atur
ĠInd ian
Ġge prÃ¤
Ġlead ing
ĠStÃ¤d te
Ġbeteil igt
Ġble ibt
Ċ ĠĊ
ĠN ur
ab il
ĠAn s
Ġexp ect
Ġpolit ische
at al
ĠP ier
Ã¼n ft
Ġtreat ment
W Ã¤hrend
p rÃ¤sident
ĠF ritz
ĠD ir
Ġg round
ĠN icht
ĠBe im
Ã¼hr en
Ġsec urity
Ġc as
ho use
ĠFar be
ĠI ll
ĠspÃ¤ter en
ĠRes earch
Ġk anad
at ik
Ġaus schlieÃŁlich
Ġins urance
d ar
ĠVer teid
Ġnot wend
fass te
ĠVorsitzen der
Ġh auptsÃ¤chlich
Ġwir tschaft
mit glied
ĠFra gen
Ġc ut
et ts
Ġto uch
Ġall ein
ĠMar c
Gemein de
ĠM erk
zie hen
ĠS C
allow ed
le hn
ot ion
Ġm ix
Ġwar m
ho den
ĠE th
ien en
20 17
Ġdr ive
Typ e
er es
Ġausge tragen
ĠNatur schutz
M L
un s
ĠH ir
ĠMus iker
E O
Ġm eine
Ġl angen
ĠV ize
us es
Ġzw eit
Ġreg ular
Ġhinz u
st attung
ĠSch lag
lau ben
Ġrepr esent
h och
ĠM and
om s
ed ding
ade d
ĠDire ktor
at ory
Ã¶ ss
lin ge
amerikan ischen
onst ants
Ġd at
au ern
th ur
b latt
is er
le icht
ĠB a
uden ten
I V
Ġk ennen
ĠZ uf
ink el
Ġmus sten
Ġcho ice
Ġexc ellent
unc il
ĠDar stellung
Ġtry ing
qu en
ĠBe zirks
y es
Ã¶l f
ĠBron ze
Å Ļ
ĠG ust
Ġbe legte
ĠSch la
Ġa ction
âĢ ŀ
G en
Ġb ott
ĠAd d
Ġ ut
on se
Ġgl obal
ĠS ome
ĠT Ã¤tigkeit
se hen
Ġle bt
ĠGegen satz
Ġam ount
p aper
p ossible
ĠU N
ĠSchw ar
Ġbet re
ĠQ ue
ĠRich ter
w itz
for men
ma ÃŁ
ĠIs rael
h te
ain er
Ġsc reen
ĠFac ebook
9 4
ill ing
swÃ¼rd igkeiten
K arriere
b as
ĠK enn
ĠJ os
Ġpr esen
Ġges etzt
Ġext rem
u ert
Ġt ransport
Ġm er
ĠP C
Ġbet rieben
Ġem er
W erke
Ġbeh ind
Ã¤ss er
Ġfal se
ĠW agen
ĠPap st
Ġth ird
Ġr isk
Ġ3 3
tern ative
bo x
ĠBÃ¼ cher
ĠB ob
deutsch en
Ġitalien ischer
ĠerÃ¶ff net
Ġt ell
A uch
Ġb al
Ġf all
ĠH ab
lie der
Ġro ad
rÃ¼ cken
Ġacc ording
ĠWer te
ĠM un
ĠG attung
ĠK lass
ĠVer treter
do or
ge legt
ĠM aster
ĠH D
Ġco de
ĠFl ugh
Ġ192 4
ĠPerson al
Ġdes t
ĠZ usch
Ġ3 6
Ġ193 1
stit ution
ĠPart y
ĠWind ows
Ġm orning
ĠVer kauf
Ġzun ehmen
ĠS Ã¶
ĠM Ã¤dchen
ĠD ro
asch ine
Ġsignific ant
w en
Ġt un
ĠE ss
Ġus ers
ĠQu ellen
fass ungs
Ġl ock
j or
Ã¶ p
ĠAb s
ĠD at
Ġun mittel
ĠS em
ist rat
Ġind ustr
Ġm m
ĠW irtschaft
ĠSh ow
ĠFen ster
O L
k re
ĠR Ã¤
ĠOr iginal
ĠgroÃŁ er
icher ung
i h
z o
ĠL ager
Ã¶ glichen
Ġge fÃ¼hrt
ind est
ĠDe partment
II I
ĠvollstÃ¤nd ig
Ġo il
ĠS ammlung
ĠAn lage
S T
V D
ĠW ell
ĠSo ftware
Ġm el
stÃ¤nd e
ple ment
Ġinclude d
ĠzusÃ¤tz lich
Ã¤dag og
Ġh alten
Ġc apt
ĠTex as
T ra
Ġle ader
Ġrecommen d
ĠF arb
am at
Ġ19 10
ver lag
ĠÃ¼bern ommen
Ġdurch gefÃ¼hrt
St adt
g ab
er o
Ġexp ert
g Ã¤nger
Ġw ohn
Ġn ice
ad rat
ĠDeutsch er
Ġfin al
Ġgrow th
Ġgesam ten
Ġwelt weit
v ision
ge g
ĠR oll
schaf ter
ĠErz Ã¤hl
ĠK op
ov ers
Ġin j
ig uren
Ġaus gew
Ġbesch rieben
gebie te
ĠDreh buch
g ruppen
r est
Ġpr int
Ġout side
Ġje de
Ġger ne
B undes
il a
Ġst ation
ĠBl ick
ĠF ak
ĠR enn
ĠSp Ã¤ter
ĠCh urch
ren ch
ĠInd ia
hol z
Ġs ites
un i
Ġm ilitÃ¤r
ĠSch le
ĠFe hler
ind ungen
sp ro
Ġall ows
ĠWe hr
alle l
ĠTechn ik
b ased
ĠâĢ ļ
Ġopt im
p unkte
Ġh ielt
Ġde p
ĠNational sozial
Ġsl ow
ĠArchite ktur
W Ã¼rttemberg
e ff
ĠP fer
ĠG Ã¼n
Ġhow ever
Ã ±
ĠT im
av es
Ġsaf e
a ber
ĠSt ahl
Ġme chan
ĠFr iday
ĠPres ident
Ġ1 000
Ġh or
ĠG ru
ĠE v
ĠSt ruktur
Ġany one
ĠUnternehmen s
Ġ1 20
ĠP or
Ġent lang
Ġpra kt
P olit
m acht
ĠM ach
Ġsol utions
he m
ed s
au x
ren z
Ġschw ed
Ġgra du
Ġstra teg
ic kt
ikan ische
Ġ192 6
Ġgleich nam
ha ber
Ġiss ue
re l
Ġin fl
Ġp rÃ¤sent
Ġfol gt
Ġs yn
ar es
un ts
le ger
r ick
9 8
Ġa sp
ĠG olden
sel ben
ĠServ ices
Ġinsp ir
i Äĩ
Ġw ords
ĠIs lam
Ã ´
ks am
lei ben
ĠVerwalt ung
Ġans wer
Ð¾ Ð
Ġit ems
Ġcont rib
N ame
ĠChar akter
Ġpict ures
Ġerziel te
an ischer
ens ive
Ġus ually
Ġdec or
ĠBen utz
Ġverl or
Ġcom mer
ĠBild ung
laub t
ĠForsch ung
S Ã¼d
Ġbe zeich
ĠFried hof
ur er
ĠDem okrat
anstalt ungen
h op
ĠP rom
ten ded
Ġ3 4
ĠWe ise
Ġhigh ly
N ieder
Ġl aut
Ã¶rder t
s telle
w el
Ġm aint
Ã¶st lichen
K l
or th
itt ing
Ġrele ased
I M
ĠE ll
Ġme eting
h ips
uf fer
age gen
ĠHen ry
ial s
ĠZusammen hang
Ġcare er
Ber lin
ĠJak ob
d ire
K reis
c ast
ĠM ik
Ġg anze
st all
Ġp rÃ¤
o od
t a
Ġm atter
ub s
ĠS upp
Ġin tern
Ġbe ein
ĠPort ug
Ġfavor ite
Ġb ud
eich er
Ġc redit
ĠH ill
Ġl ives
Ġst reng
Ġver lieÃŁ
ant as
aly se
u gend
ist isch
Sch wei
ĠFreib urg
Ġv e
Ġbo ard
ĠFahr zeug
Bau werk
Ġp rem
ach ts
Ġber eit
Ġ192 1
reit et
Ġh und
ne e
ĠAt lant
D a
Ġw oman
and a
Ġne cess
fer en
ĠP ers
ĠF al
Ġc ann
ĠTrad ition
g au
ch em
ĠS amm
ĠRo ad
Ġander er
ĠReg ional
Ġtra in
ĠHaupt stadt
reg ierung
Ġel se
los en
Ġwo od
Ġsim ilar
S piel
ĠE re
Ġcond itions
ouver ne
E l
ĠS icht
ĠVer fahren
D P
Ġb ere
Ã¼ gen
kt iv
ĠĊĠĊ ĠĊ
Ġdra w
Ġf resh
ut ive
Ġbring en
ĠVier tel
zieh ungs
Ġe igentlich
ĠBau ern
Ġeff ic
Ġerschien en
ĠHeil igen
kret Ã¤r
P reis
Ġsp ort
ĠS at
ĠT ok
ic ations
Ġje dem
Ġla unch
Ġwirk lich
Ġer forder
Ġste p
Ġjeweil igen
Ġbest Ã¤t
Ar t
Ġmed ical
Ġd ur
Ġc aus
ĠPro zess
Ġgeb racht
Ġch anges
l Ã¤nder
Ġ >
Ġb leiben
ĠK ult
ĠCh in
zahl en
Aus zeichnungen
Ã¼ss el
Ġcond ition
Ġc enter
ĠH imm
Ġdec ided
Ã¤uf er
Ġd unk
Ġp ers
ot ing
Ã© s
Ġwrit e
ĠSm ith
Ġdo or
Ġdis cover
Ġreg ard
umen te
aller y
Ġis n
Ġde ep
lo ud
Ġsh op
Ġpo ints
Ġverm utlich
ĠSund ay
ĠS S
ĠL Ã¤ndern
urn ier
stand s
Ġregel mÃ¤ÃŁig
h old
p ers
Ġw ritten
ĠH oll
Ġ19 12
Ġst aat
ĠNe ue
20 10
ĠNutz ung
ĠmÃ¶ch te
Ġd ed
ĠS om
ĠS owjet
Ġf uer
le b
em ble
Ġ192 3
C l
s itz
Ġbe ach
Ġlo oks
at us
ĠSt ation
Ġle bte
Ġmaterial s
I s
ir ge
ĠSchw ester
hil fe
w eite
Ġg reen
Ġver k
ĠChrist oph
Ġeas ily
Ġbede utet
Sch rif
ĠMon ate
Ġsour ce
Ġpotent ial
ĠH aut
ot ten
geb nisse
K omp
Ġw ider
Ġc oll
A ug
b a
Ġst ieg
ĠAn gaben
ĠAd olf
ĠProdu kte
nd en
ĠS ach
ue ber
U R
Ġs ah
ĠM icro
ab et
os ed
ĠAuss tellung
Z ur
Ġs al
ĠP ower
sp rache
Ġpr im
ied lung
Ġgesch rieben
Ġprom ov
ĠnatÃ¼r lich
Ã¼ st
el la
ĠÃ ī
Ġaddition al
ĠM ail
ĠR od
if ts
Ġver hinder
Ġ6 5
Ġrec ord
pl ant
pend ent
Ġverkauf t
ĠunterstÃ¼tz t
Ġd ient
Ġse ems
Ġent scheiden
reit ung
Ġexper ien
ĠL ind
ĠC ra
ib el
ĠReg isseur
Ġrelat iv
Ġc y
ul pt
ĠKr im
H ow
Ġb us
ic ated
ĠEs sen
ĠGroÃŁ en
Ġprob ably
Z eit
ĠT ransport
ĠK olle
um in
b ook
Ã ½
ĠIn form
Ġex act
Ġeurop Ã¤ischen
p ack
ĠI P
Ġ15 0
Ġhistor ischen
Ġtool s
ig ungen
Ġ( ,
minister ium
Ġpos itive
ĠS ingle
Ġincre ase
is at
ĠL ieder
ĠFo und
ck len
Ġre in
fr ont
ultur al
Ġun abhÃ¤ng
geb racht
Ġho tel
Ġâ ĨĴ
Ġcontin ue
ĠHeid elberg
Ġs qu
ĠComp uter
m and
Ġb and
ĠL et
ĠEl is
Ġsol ution
kt ions
ĠRuss land
Ġsod ass
d aten
k om
r ix
Ġf ig
ĠG Ã¼ter
ĠRe volution
ĠHome page
B l
ar ts
ĠW ettbewerb
omm ern
In ter
pf licht
Ġtyp es
Ġdarauf hin
9 6
r enn
la us
if en
ond s
ĠverlÃ¤ uft
is ation
ar kt
ĠP rÃ¼
ĠÃ¼ber wiegend
ĠSte fan
Qu ellen
ĠH it
ach im
ĠS um
em e
ĠL ig
ĠL eit
Ġver treten
Ġfor ward
Ġde g
pr ise
Ġemplo ye
t liche
ĠPro p
ĠL y
ĠN Ã¼rn
Ġa k
wer ks
wei le
ĠE ff
Ġl os
Ġsch ed
ĠLe on
Ġwork ed
ĠG rÃ¼n
ĠPe ters
Ġprogr ams
ĠGÃ¶tt ingen
S P
Ġimpro ve
ĠAustral ia
Ġd ress
Ġf irm
Ã¤ ste
ag te
Ġr ather
ĠBl ue
f ur
Ġpurch ase
Ġin tens
ĠB ol
Ġg ives
ĠGer hard
ect ive
S c
ĠD ra
Ġl Ã¤nger
we chs
gang s
ĠKinder n
Ġphot o
pp e
ĠPr im
ĠGo od
Ġaktu ell
n ummer
Ġa verage
ĠS onn
ĠB rief
ĠG alerie
ĠN ummer
Ġwer de
ĠLand schafts
F re
I A
ĠT ar
Ġer f
Ġer inn
ĠEin fÃ¼hrung
ĠNieder land
A utor
m ission
p a
ph one
ipp ing
Ġsei en
F e
ĠR ing
ĠAl so
ĠZentr al
l uss
Ġein st
ĠOr ganis
az in
Ġplay ers
utt ing
ĠH afen
Ġver pf
Ġask ed
zieh ungen
Ġsogen annten
ly ing
chn ung
amer ika
k irchen
ar ter
Ġp orn
ot es
ĠHÃ¶ hen
lÃ¤uf er
ĠO pt
Ã¤n gt
ĠerklÃ¤r t
Ġer baut
ĠGra fen
unsch weig
ĠZust and
ĠDÃ© partement
r Ã¤t
ĠD ah
Ġn omin
ik o
ĠStand ort
B A
a ign
Ġde ath
ger ichts
Ġ192 2
Ġw in
il i
Ġsch Ã¶n
ĠWill i
utn ant
ar io
ĠO ver
ei der
Ġch ines
Ġpl ant
ĠDec ember
Ġwall paper
Ġf ix
ĠW ander
ĠWe chsel
ĠErgeb nisse
ĠÃ Ĺ
ĠBer eits
ĠAuf gaben
Ġup on
ĠBrand enburg
ĠSatur day
L iste
Ã¤ ische
ĠL ong
erke hr
ĠverfÃ¼ gt
ĠÃ¼ br
d r
v ors
ĠJ ob
Ġbest immt
eh m
gy pt
N eben
Ġb ank
ĠW ach
br idge
ĠSpiel zeit
ĠParlam ent
Ġd ir
um n
ock ey
Ġerw eit
Wh at
ĠFr ont
el a
ĠL at
iv ity
ĠJu den
ĠLeist ung
ĠC y
Ġfol gten
Ġarbeit en
Ġd aily
ĠDe velop
Ġangeb oten
m esser
w Ã¼r
Ġcom ment
cklen burg
V erkehr
ĠAb teilung
Ġgesch affen
Ġrem ember
brit ann
ess el
Ġun be
ichte ten
R ad
ĠH on
vers ammlung
Ġele kt
W eit
k opf
Ġf il
Ġf air
Ã¤ her
ĠK urt
Ġl au
Ġgew innen
ĠMann schaften
m ont
s achsen
wer be
Ġdis play
fel der
ĠOp fer
ĠR og
ist ry
Ġpie ce
p ose
ĠS uche
ĠZu kunft
ĠEdu c
Ġzw Ã¶lf
je w
i ant
Ġch rist
20 14
ĠgehÃ¶r ten
ĠS ym
Ġre lease
Ġ3 8
alle y
ei ge
ĠM att
ĠP od
Ġdes cription
Ġtradition al
Ġquick ly
S ystem
ĠB ow
d essen
ĠSt iftung
ow ski
lin es
gew and
Ġpol icy
ĠKarl s
Ġc irc
and ers
Ã© e
Ġwieder um
Ġsol che
Ġide al
ĠRep ubl
gent in
stell er
res p
ĠUr s
Ġs aw
ĠMar ine
reif en
20 15
G ra
Ġs un
ik on
Ġro t
ul y
ĠsÃ¼d lichen
W ie
Ġw ord
Ġf lex
F in
g ut
ĠSt udenten
Ġle ave
Ġmehr fach
Ġgo al
H ier
Ġd omin
Ã¼ hm
ĠOrt schaft
Ġh um
ĠL ab
ÃŁ er
Ġconstru ction
Ġf lieÃŁ
Ġ7 5
ek te
ĠWei hn
ĠSpe zial
Ġstor age
b it
m ine
ĠS ab
ĠB la
sch m
19 45
Ġmy self
Ġlang uage
Ġentsp richt
ĠBeruf s
B and
U T
p erson
v ant
le is
be wegung
ĠEn ter
ĠY ear
ball spieler
ĠStud io
ĠBas el
Ġleg al
brÃ¼ cke
B esch
ĠEng ine
Ġsaf ety
ĠProble m
it ation
ĠW oche
ĠAn teil
Ġhand s
tr al
ĠStat us
d as
ĠL ib
ul s
ik i
Ġle gte
E hemal
im en
Ġver antwort
ĠVer lauf
Ġwor th
Ġlon ger
b re
Ġde f
Ġsow jet
Ġweiter er
ĠSant a
ĠBlÃ¼ ten
Ã º
Ġs ave
ĠV iew
iel le
20 12
din and
Ġplat form
Ġk or
Ġver gleich
For mat
Mus ik
ar ischen
reit en
P ol
s berg
ĠW ork
ak ers
ĠAuf t
Ġfl ow
ernse hen
Ġref le
Ġun bek
Sch w
ĠEle ment
D o
Â ®
Ġrec ogn
ĠPat ienten
ĠK ammer
Ġim m
Ġle bten
ĠArch iv
. ),
lie fer
ree k
Ġuns eren
Ġ Î
ĠE hr
ent y
ĠL Ã¤nder
Ġdes crib
Ġbet rug
I d
Å «
ill on
Ġch ance
ĠAuf stieg
Ġplay ing
Ġoffer ing
ĠBeit rag
h orn
ĠC anada
ven ue
rÃ¶ m
ĠrÃ¶m isch
xik on
ber e
i Ã¨
ĠBe zug
ĠPr ies
ek ing
Ġpubl ished
Ġh uge
ĠV irgin
Ġver lassen
Ġerst es
ĠauÃŁer halb
Ġbestimm ten
Ġanalys is
Ġinter ested
hol t
ĠProble me
k r
Ġt ar
Ġt ats
Ġn ied
ĠC ho
se x
gemein den
h agen
ĠV illa
ĠIn tern
ver trag
Ġgel ten
ĠMat th
ĠGel Ã¤nde
ĠS onnen
ĠBe ach
ĠChrist mas
ĠStre cken
ĠKn oten
ĠHinter grund
Ġfert ig
ein er
20 16
ĠMe tern
ĠHe ute
Ġpart ners
ĠBes atz
Ġcount ries
Ġw uchs
9 1
p olit
Ġbeen dete
200 8
R A
Ġd ig
em a
20 11
Ġgra ph
fan ter
West falen
in y
Ġ19 13
Ġpr ices
Ġdar in
Ã¤hn ung
Ġter ms
h io
m ond
ĠÃľ berg
ipp ed
an cy
ĠE ber
erk unft
Ġexp l
ĠMen sch
Ġapplic ations
Ġbath room
G ruppe
ĠS us
ĠS uch
ĠE very
ĠC entral
ĠZ ent
Ġschw ar
Ġatt ack
Ġhig her
Ġcommer cial
Ġj ungen
Ġch arge
ĠJan uary
por ary
ĠEd ition
M ail
Ġg lass
Ġ4 8
S G
Ġsp Ã¤t
ige m
ĠVo gel
Ġverlie hen
Ġlik ely
ĠV om
ahr en
ick et
Ġfo ot
ĠVerb and
ĠOff ice
ĠFÃ¼hr ung
in de
ch ange
Ġder zeit
Ġg alt
Ã¤ll t
ĠKla vier
O C
Ġt Ã¼rk
at alog
ĠA T
ĠW Ã¶r
ĠL aur
ĠZ immer
Ġab ility
Ġnot hing
Ġvers ucht
200 9
gef Ã¤hr
ĠKrit ik
b ul
and en
au d
ĠHo hen
Ġeffect ive
Ġin zwischen
ug s
rech te
Ġge gebenen
hand elt
ĠHistor iker
ĠD etail
Ġc ause
ĠR eb
Ġon es
ĠDie t
ĠOr te
ĠAuf grund
Ġlie fert
Ġbed room
d om
ĠB rown
ĠR ay
Ġl if
id ents
ĠGe heim
chn ik
St ud
ĠCo uncil
ĠAustr alien
Ġzerst Ã¶rt
ĠB ist
sk y
or der
ĠFran ce
eiter te
stru ktur
ĠTurn ier
Ġentsp rechend
zÃ¼ ge
z we
or ten
Ġw ish
an isch
ĠG ran
Ġsu it
Ġsug gest
gel assen
ĠFar ben
Ġimp act
M ark
f le
ĠK lin
Ġl oss
op old
glie dern
Ġtr ip
ĠBesch reibung
it ur
Ġent ry
Nach dem
por ate
ĠS V
ro id
ce p
ĠPro gram
20 13
ĠAd els
Ġinvol ved
B is
O ne
P re
iz iert
Ġpr ior
ken nen
Ġres ources
ĠAn th
em pl
Ġverw ende
ĠEre ign
k ord
Ġb ein
Ġo ption
ian ce
Ġdevelop ed
ĠErz bischof
Ġd agegen
Ġmach ine
Ġspe ed
w ide
Ã Ħ
Ġc ross
Ġ19 17
ĠJ on
Ġro und
ĠPhilosoph ie
R es
Ġe arn
forder ungen
Ġorgan ization
Ã© r
Ġsuccess ful
9 7
fin den
Ġreg ister
Ġstar tete
ĠCont in
ĠT schech
ĠK ohl
Ġne igh
leist ung
G roÃŁ
or al
Ġv ac
ĠG rÃ¼
ĠSt an
Ġfor mer
Ġjed es
eich ert
Ġ19 11
Ġl Ã¤ng
ot o
ĠAr zt
Ġat tention
so ft
Ġunmittel bar
is ieren
ĠL ux
Ġwicht ige
or ial
ĠW ed
Ġpat ients
ĠJur ist
s Ã¤tze
ĠS PD
Ġp aar
Ġbe gan
Ġaus geb
Ġj unge
Ġ3 7
ĠBl ut
akt iv
glieder t
ĠBern hard
Ġmult iple
ap el
iss ert
ĠUnivers itÃ¤ts
ĠArchite kt
Ġrequire ments
sie he
t um
al ing
ed eral
Ã £
Ġ Ä
ĠM ost
ĠG ame
ĠR is
ĠL ast
Ġ5 5
ĠKap elle
ĀĀĀĀĀĀĀĀĀĀĀĀĀĀĀĀĀĀĀĀĀĀĀĀĀĀĀĀĀĀĀĀĀĀĀĀĀĀĀĀĀĀĀĀĀĀĀĀĀĀĀĀĀĀĀĀĀĀĀĀĀĀĀĀ ĀĀĀĀĀĀĀĀĀĀĀĀĀĀĀĀĀĀĀĀĀĀĀĀĀĀĀĀĀĀĀĀĀĀĀĀĀĀĀĀĀĀĀĀĀĀĀĀĀĀĀĀĀĀĀĀĀĀĀĀĀĀĀĀ
ĠAngeb ot
ĠOb jekte
ĠGust av
ĠP orn
britann ien
m ore
ĠA C
ber eit
Ġbet rach
ĠAut oren
Ġarbeit et
ĠK och
Ġg ese
ĠV arian
Ġan im
Ġpl us
Ġaus tral
Ġdeutsch sprach
Ġexp la
denk mÃ¤ler
Ġauf gerufen
ĠThe ologe
Er baut
ĠPre uÃŁen
Ġs ent
rat es
Ġro ck
Ġbek ommen
mittel n
Ġgu ide
Ġbrit ische
ĠJes us
2 000
os ted
aus piel
van ced
ch ner
Ġo l
az ine
m l
ĠEin trag
200 7
schul en
ĠÃ¶sterreich ischen
Ġent deckt
ĠAuf gabe
Ġamer ikanischen
ĠSied lung
ĠD Ã¶r
ak s
Ġle vels
Ġpl anning
Ġdistr ib
Ġ ord
ĠS qu
ro at
ĠT ime
Ġvar i
Ġklein er
Ġâ Ĥ¬
Ġcor re
ĠMÃ¤n n
n y
n etz
rie chen
Ġheut ige
ĠFot os
Ġb irth
ĠE igent
ĠW appen
ei en
ĠAm az
Ġweek end
Ġpat tern
p olitik
Ġh it
ĠT agen
Ġim med
ĠÃĦ r
Ġgrow ing
ĠSpec ial
P er
s et
Ã¶r en
ĠWelt k
ĠGl Ã¼ck
Ġeng ag
ĠAller dings
D on
b ibliothek
o oth
Ġein gestellt
ĠK andid
Ġl ok
bl Ã¤tter
M A
ĠQual itÃ¤t
Ġ ult
Ġd auer
Ġs an
ĠA cc
ĠM Ã¶
ĠD ate
Ġbe legt
ĠO ld
ĠLauf e
r ong
Ġs ort
Ġp ath
ier n
Ġge halten
Ġpar ents
ĠPrem ier
ĠElis abeth
Ġd iv
rit e
Ġgew onnen
Ġdar an
ĠMeister schaft
d s
u ted
Ã¤ ger
ĠK ron
ĠW Ã¼rz
ĠR ath
ĠFer dinand
Ġkosten los
j i
on ial
ar ische
Ġum fang
io de
leist ungen
Ġful ly
ter e
ĠSchm idt
g ern
Ġin ternet
ĠEr de
Ġsch le
ĠHein z
G r
Ġd ry
ĠB lan
ĠD ub
ĠK ath
les en
ĠInd ustr
F ra
y ond
ĠSchul en
ĠSim on
v olle
ein d
ate ur
wer te
Ġannoun ced
F rank
O lymp
iel len
gr iffen
Ġfe ed
ĠSchrif t
Ã¤ den
ig an
unn el
ĠBra unschweig
ĠMos kau
ĠSin ne
ð Ł
Ġd ritte
Ġex tens
ĠLand wirtschaft
Ġbek annten
Ġverpf lich
Weit ere
ĠI hren
Ġmit tels
ĠBo ard
lauf en
ĠDar Ã¼ber
ĠT ore
am ous
ĠK ob
Ġg iving
ct ic
ĠĠ Ġ
Ġcreat ing
Ġwichtig sten
ĠWebs eite
Ġfurn iture
Ġ190 7
ĠTem peratur
us te
gren ze
Ġveh icle
Ġ4 2
eld ung
ĠAd min
ĠÃ¤ uÃŁer
ĠGeist licher
ĠMond ay
ĠLeicht athlet
T r
t est
Ġd om
ĠSÃ¼d westen
ĠInter esse
y ers
te uer
ge legen
ist a
aug ht
w ach
Ġle itete
ĠSie ger
ĠInter view
Ġrem ov
r d
ĠN eb
Ġmo unt
Ġsub ject
ĠFranz Ã¶s
ĠD ichter
ĠH istory
ed y
Ġver fÃ¼g
ag ne
D r
Ġs end
ĠT hr
Ġex ec
hand lungen
as ing
Ġab geschlossen
Ġhelp s
ĠBild hauer
Ġser ious
Ġcolle ge
ĠBund est
j ust
ĠK ard
ru it
hl ung
Ġtra gen
ĠÃĸ l
Ġinterest ing
ver treten
Ġex am
inn ing
ĠMed ia
vers e
ĠPfarr kirche
ĠHers teller
y t
Ġunterschied lichen
Ġarch ite
j o
ur b
ĠT anz
ra te
Ġ3 9
Ġunter s
rich ter
ĠSoc ial
ĠJac ob
k osten
ont o
rif ft
Ġerw arb
ĠgrÃ¶ÃŁ ere
ĠHam burger
ĠWo od
ĠhÃ¶ch ste
Ġbene fits
Ġrelations hip
Ġ Ã¶
se ud
ĠAuf bau
pro gramm
ĠGren z
lin ien
lan z
ĠBild ungs
Ġwahr scheinlich
Ġgese hen
ĠT Ã¼rk
ĠH ub
ĠW affen
ĠZ us
ĠY o
Ġmov ie
ĠFlor ida
M in
m ir
Ġt Ã¤
Ġf ine
el and
ov a
on isten
Ġh Ã¤lt
ĠT hen
ĠL ink
ĠAn wendung
Ġwen igen
Ġbusiness es
Ġdoc ument
Ġd ark
Ġd Ã¤n
Ġb ase
ĠEn gel
ĠGes prÃ¤
200 6
ĠSer ies
Ġinc reas
Ġcann ot
ĠB ass
Ã¤nd ler
ĠNach richten
ĠFl Ã¼gel
Ġpos it
B r
Ġf ab
ct ure
ph an
ĠÃĸff entlich
Ġpart ner
ĠBr as
ĠWh ile
arch iv
g Ã¼lt
Ġwe ight
ĠSchw eden
E P
b ilder
Ġw and
ĠK up
ru he
Ġgar den
A A
Ġg old
Ġste ts
Ġfin ish
Ã¤mp fen
Ġein gesch
ĠH orn
Ġg ift
Ġl isten
Ġsm art
ĠBas ket
Ad resse
ĠPra xis
Ġt en
ĠR osen
ist ics
ĠgeprÃ¤ gt
b aden
Ġl ost
ĠLe e
kathol ischer
er a
or fer
Ġm id
ĠAb schnitt
Ġmax imal
r ik
ar o
ĠC a
Ġr Ã¼ck
Ġ190 5
ĠTod es
ĠM ah
Ġn utzen
Ġer fÃ¼ll
ĠMar ie
ĠHoch schullehrer
ĠChar l
ĠAuss tell
E G
H L
J an
Ġd ise
ĠH und
Ġ2 50
ĠGroÃŁ e
Ġdev ice
un te
Ġl ower
ĠBe wegung
iz en
ac es
ĠSc ott
Ġenc our
F L
i rol
Ġth ous
Ġstart ing
A fter
w aren
ĠA R
ĠP ed
Ġpla ces
Ġ190 9
Ġcomple tely
ĠRhein land
ĠFir men
ĠPubl ic
ĠBeit rÃ¤ge
f amilie
as ons
Ġl ic
Ġwonder ful
B ild
f abrik
ĠK in
ĠW ater
ost on
ĠÃĦ g
ĠÃĦ nder
ĠGew inn
Ġinvest ig
Ġexperien ced
t or
ĠB art
ĠB lock
ĠH ause
Ġg ere
omm iss
Ġag re
Ġlar gest
ĠFlugh afen
B ar
Ġw edding
Ġor ient
Welt meisterschaft
Ġsen se
zip lin
n ational
ad d
ĠUn garn
Ġan aly
ĠSch iffe
pe kt
b our
g on
ĠP unkten
ra gen
Ġle er
ron ic
Ġkl ar
Ġersch eint
Ġwir kte
ĠAus druck
Ġv ideos
Ġent h
fr ist
ĠArchite kten
Ġstreng th
k ammer
ie den
Ġs and
Ġv Ã¶ll
ĠD et
ĠD iv
ĠR am
ges p
Ġher gestellt
ĠBundes republik
200 5
c ies
Ġs old
at i
Ġb ul
ol ge
Ġdo uble
itel y
Ġ190 6
zug s
p o
ĠEr satz
Ġdar gestellt
ĠMan ager
ĠAll gemein
Ã¼tz t
uck y
yd ro
Ġdirect ly
ĠBe w
rÃ¤ ume
ĠKar ten
ĠEurop ameister
Ġ190 8
ĠA f
ĠA u
ĠD ol
Ġinternational e
Ġorgan iz
ie fe
ĠL iter
ĠV ort
Ġzu gleich
Ġgo es
Ġwest lichen
ĠR icht
ĠEin heit
ĠDeutschland s
Ġdec ision
ĠhÃ¶ch sten
ĠCent re
ĠB ell
ĠW omen
ĠRe chte
ouverne ur
w ander
st uhl
Ġgen annten
Ġele ktr
ĠFot o
Ġmoder nen
Ġgirl s
Ã¤chs ischen
D A
Ġs us
Ġb aby
es h
ĠT iere
ĠH Ã¤user
ĠW estern
ĠSo und
Ġno te
ĠMet all
Ġitalien ischen
Ġgesp ielt
n ungs
ĠS un
ĠA ff
Ġp al
pp ed
bahn hof
ĠNik ol
D igital
ĠR et
Ġgroup s
ĠnÃ¶rd lichen
afr ika
Ġd ich
Ġent stehen
Ġprodu ziert
ĠHand el
Ġcl oth
Ġcost s
ĠCour t
y an
re form
ĠB Ã¤
Ġp en
ĠL aut
Ġor igin
ĠSÃ¼d osten
Ġbl ue
Ã ł
Ġge ts
Ġse ction
Ġcons ult
ĠFak ult
T A
ĠS av
ĠEr b
Ã¤r ke
ĠUnter nehmer
ĠNord osten
iw od
i ot
ul f
gem eine
issert ation
w ner
ĠI S
ic ed
Ġg uten
ze ption
ain e
âĢĿ .
Ġbek am
Ġthink ing
geord net
N ord
Ġf unktion
ĠF ert
ĠIn ner
ĠĊĊ ĠĊ
ersÃ¶n lichkeiten
Aug ust
Ġbe ob
ĠTe ams
Ġcomp lex
ĠArbeit er
Ġsom et
Ġn ature
Ġl ux
ann el
Ġrequ est
c ul
Ġp ool
Ġz eich
our ney
ĠQ uer
ĠOx ford
st ation
ĠT H
ĠF rench
ĠE ck
ib ly
Ġar g
oh le
Ġmot or
h u
p ed
ĠP lÃ¤
Ġh our
ei ÃŁ
Ã© n
ĠCol umb
Ġengl ischen
ĠG rÃ¤
ĠD Ã¤n
ĠD arm
Ġg ro
Ġan erk
ei ht
ĠS eb
Ġc abin
ĠCh ild
Ã¤hl ten
ĠNord westen
leg ten
ĠW issenschaften
ber s
Ġit self
ov en
ĠVor der
Ġinter view
ĠWeltkrieg s
Ġentw eder
ĠCarol ina
ur ts
ĠP ok
ĠEurop Ã¤ischen
ĠMark eting
ĠFrÃ¼h jahr
ĠNeub au
tell igen
ĠGe h
ĠLe opold
Ġqual ifiz
Z um
d urch
ĠIn gen
Ġpro per
ĠSp ann
Ġunter st
ĠDaten bank
eng th
Ġopportun ities
g Ã¤nge
l ings
il lage
ĠL ine
ad or
ikan ischer
Ġkomp lett
ĠUl rich
Ġrepor ted
k in
is a
Ġp df
ĠSt off
Ġeben da
ĠMor gen
r um
ĠW etter
ĠV ar
Ġt hr
Ġerst re
ĠBar bar
Ġgef Ã¤hr
Ġreview s
ĠH uman
ĠJahr zehn
Ġthem selves
ĠSchrif ten
Ġsele ction
m Ã¼hle
re u
ĠI hrer
Ġsupp l
Ġwei b
Ã¼ m
ĠF eder
ff ic
Ġtit le
s es
st he
ĠFor men
ĠBrÃ¼ cke
ĠermÃ¶glich t
sch loss
Ġdivers e
m y
ĠR ail
Ġg ingen
ĠNe uen
wahl en
ĠgrÃ¶ÃŁ eren
ĠBetrieb s
Ġgleichnam igen
f Ã¶rder
Ġp assen
ĠF isch
Ã¶ gliche
ir us
Ġde pend
Ġso uth
Ġwe ather
Ġ4 4
Ġhtt ps
Ġcamp aign
icht lich
Ġhe ll
Ã¤l de
com es
ĠGrund lage
Ġcl ient
z ub
Ġg anzen
ir n
qu enz
ĠGroÃŁ britannien
xik o
ĠS tell
ĠP ak
ĠJ Ã¼rgen
Ġk Ã¼nstler
la h
ver stÃ¤nd
auf hin
gew Ã¶hn
ÃŃ n
ĠFrancis co
us ed
ĠG reg
ip fel
ĠEle mente
Ġober en
Ġ @
Ġm other
im me
ĠW in
ĠSp rachen
Ġob wohl
fÃ¼ hl
Ġweiter es
ĠWider stand
k unst
m osph
Ġk om
ĠWei ÃŁ
ĠG irl
Ġweit gehend
Ġprodu z
stoff e
ima tely
Ġricht ig
k ont
Ġum ben
ĠChr is
Ã¤us ern
Ã¼hl en
oper ation
ĠA sp
ĠR aj
ĠN av
men s
ĠKon stru
an er
ĠW ag
Ġl es
ul i
hÃ¶r den
Ã¼t te
ĠChe ck
ĠDistr ikt
merk ungen
Ġsched ule
Å ¾
ĠVer halten
Ġhe il
ĠPol y
ĠF red
ĠJournal ist
or ing
ĠL okomot
Ã¼ck sicht
Ġerweit ert
C om
ĠDistr ict
ĠfrÃ¼her en
Ġf arm
Ġc ases
Ġk aufen
ern s
Ġunser em
ĠDeb Ã¼t
on ien
ĠM io
ing u
ĠAuf nahme
bÃ¼ cher
ĠNÃ¼rn berg
g ment
Ġ Ã¶ffentlich
ĠR ost
k lass
ĠL i
ĠFound ation
b ungen
Ġt al
re y
em p
Ġl ay
ĠEr inner
Ã¶ff nung
Ġhin gegen
pla ce
Ġ ueber
ĠN ick
ĠAm ster
ĠTeil en
ĠNord rhein
ĠLin ien
Ġactiv ity
ĠdÃ¼r fen
ĠM ig
ind ustrie
Ġsp orts
ĠEhe frau
ĠÃ¤hn lich
ĠEntscheid ung
ĠjÃ¤hr lich
Ġ il
ĠS P
al te
ĠO pp
Ġhe ar
fr iend
ĠMen ge
ĠK os
ĠGeb Ã¤
C C
en kt
Ġs on
Ġb all
ĠK urs
Ġun ten
ĠGrÃ¼nd en
ĠId ent
ĠL ord
Ġ19 15
ff ee
Ġwe g
fra gen
klÃ¤r ung
geord neter
Ġter m
Ġindividu als
ĠD rit
Ġver schw
Ġfor der
Ġmus ikal
ĠEle ct
gra f
ĠFrie den
' d
be g
ĠOr dens
bo ten
Ġbil dete
ĠTro tz
N S
ĠF lo
Ã£ o
Z w
ĠS tellen
ĠM ission
st on
ĠT isch
ĠK rieges
Ġge zeigt
Ġre ve
ste iger
Ġverantwort lich
B S
p at
ilit ary
ĠLeist ungen
Ġat tend
Ġvor gesehen
ĠÃĸffentlich keit
or ganisation
un ehmen
Ã¼ mer
ĠL ar
ĠKar te
Ġsur round
frast ruktur
Ġ ;
Ġre fer
Ġprov ider
ĠBei de
v i
z one
Ġto wards
Ġ19 16
eb e
ĠTra ining
weg s
ĠFebru ary
Ġlin ken
Ġkur ze
Ġsogen annte
Ġerhe b
C ode
k g
n ot
Ġn ov
Ġn amens
em ed
be w
Ã¤r t
ĠFor st
Ġschool s
ĠK rank
Ġz Ã¤hlt
em ark
ĠAut ob
pl Ã¤tze
Ġentsprechen den
ĠSalz burg
__ __
Ser ie
Ġment ion
L in
is ions
ahr t
ĠVer hÃ¤ltnis
ĠKon fl
Ġann ual
Ġh ar
Ġher r
Ġ190 4
Ġcomfort able
ĠAr thur
Ġ6 00
Ã¼nd et
bur y
wÃ¤r t
B es
L age
ĠF lag
Ġwe ar
teil s
mann s
) )
b il
Ð º
ill y
ĠThe odor
ĠKon gress
ĠJo achim
ĠEduc ation
p al
s ur
ol o
ĠK assel
est ra
ak i
Ġsp ent
Ġad vert
isten z
ber n
ĠC re
ub a
ke y
ĠwÃ¼r den
k rÃ¤fte
z if
Ġa p
ĠP enn
ion e
ĠU kra
Ġcon vers
fl Ã¼gel
Ġ189 0
Besch reibung
st amm
ĠP ack
Ġge mÃ¤ÃŁ
olog ies
gra ben
Ġstor ies
ĠSch auspiel
Ġwe ist
Ġbes ondere
ath on
bild ungs
Ġmen sch
Ġest ate
ĠTenn is
Ġwes entlich
eign et
l ike
ĠJ ena
qu is
ĠAl pen
ick e
uar ante
ĠHand buch
w rit
z ur
as ion
Ġg Ã¼nst
gen er
Ġe uch
ap y
ĠAfr ica
p m
Ġbeg onnen
ĠZw eit
arm on
Ġschw arz
Ġengl ischer
or dens
ĠK a
Ġg rand
ly wood
ob by
Er ster
fang s
Ġfamil ies
ĠIde e
Ġtem per
c ont
Â «
an en
ĠS up
ĠS ituation
ĠD atei
Ġer gÃ¤n
Ġzu erst
ĠÃ¼ber tragen
Ġrep air
Ġphys ical
N A
V P
ĠM ol
Ġst uff
sp rÃ¼
rie den
ĠCo de
Ġbec ame
Ġeinge fÃ¼hrt
Jahrhund ert
F unktion
I G
re a
el or
ĠNe ust
D E
ĠT sch
Ġex cl
Ġhom es
P la
at oren
Ġh a
ap ter
Ġso c
ĠFahr zeuge
S U
a dem
g ner
Ã¤n ner
ĠOr chester
ĠPf lege
ĠWirk ung
D em
f ast
ĠK en
uss ion
ĠHe ft
ĠQ uar
Ġcar ry
Ġmod els
Ġexist iert
b aus
Ġer kennen
Ġex hib
ĠTeil nahme
ident ial
200 4
Ġger ing
Ġhealth y
b u
at ic
ĠMe x
Ver b
d own
ĠL au
Ġl Ã¶
Ġen dete
gesch rieben
Be vÃ¶lker
tain ment
C omp
O P
r t
at ung
end ar
Ġlim ited
I ON
a ction
Ã¼ nde
Ġal bum
ĠBe ck
Ġresp onse
IN G
ĠIns eln
S ehen
ĠB ibliothek
ĠD omin
ro ck
ĠL en
Ġun it
ch mal
ĠS T
Ġv irt
Ġp f
ĠZ ahn
ay a
qu es
Ġplay ed
ĠDevelop ment
ĠH ockey
ĠL it
Ġus es
Ġup load
- )
ar ies
Ġf ashion
ro chen
ĠÃ¼ber geben
ĠPier re
r ast
z ul
ĠC orn
Ġtr ug
Ġsomet imes
ĠA rab
ĠP en
ĠT imes
im ed
Ġan ges
aus stellung
art ige
co very
anz er
ĠCommun ity
H aupt
h ow
i xt
r Ã©
he ute
ĠP ow
ick ets
akt or
Ġben ach
Ġbestimm te
d ate
al u
st ab
Ġsp ot
ĠAus land
St ring
Ġown ers
wor ks
ĠKom ment
Ġim plement
Ġe ye
Ġpro fit
Ġrela x
te x
ĠB ran
fol gt
ĠMod el
ennt nis
Ġlet ter
Ġunderstand ing
S a
f ile
Ġb orn
Ġbe ge
af el
ĠIn fanter
ste ht
ĠKon zept
setz ungen
zus tellen
re in
id o
ĠIn f
ĠGesund heit
K lasse
ĠK iel
Ġhe ard
Ġse ch
ĠÃľber setzung
latt form
d ach
c ia
al led
at re
ĠT Ã¼b
ho ff
itte e
st Ã¤tten
Ġapp ly
Ġeigen stÃ¤nd
j en
he bung
Ġand ers
ick er
ĠZeit en
ĠBr ig
unn y
Ġphot ograph
ĠWo iwod
ĠSl ow
Ġsat is
m ack
Ġa f
ĠA P
ĠBe ziehungen
Ã¼nd ung
ĠRund funk
Ġess ential
Pf alz
k ins
Ġm Ã¤nn
ĠM und
Ġcomp on
Ġact ive
Ġinst ru
ĠRei hen
Ġaff ord
Schrif ten
= "
t lich
Ã ¥
el f
Ġg as
ĠC op
Ġk auf
lie genden
Ġnecess ary
en ken
al om
us ing
ann a
ĠPro fil
ĠInternational en
ĠGeburt stag
te gy
ĠM id
Ã¶ z
ĠChe f
It alien
ĠPfarr er
E le
ĠAn ne
Ġgeb ildet
ĠFÃ¼r sten
ĠMain z
histor iker
Ġmittler weile
ĠB oston
ĠJ a
ĠSch ritt
ran ce
iz enz
Ġro ll
Ġvers ehen
Ġacc omp
ĠKap it
Ġnor th
ĠPries ter
ĠA le
Ġn ation
Ã¶ se
ab teilung
Ġhe im
The ater
Ġlie f
Ġges etz
Ġoffer ed
D S
le hr
ĠL as
ach ing
Ġver kehr
aus schuss
ĠWe imar
h ire
m es
it is
ĠW unsch
ĠVirgin ia
ĠReg ister
ring t
urs day
lÃ¤nd ischen
Ġpur pose
Ġs icht
Ġs ymbol
et ze
ĠZ y
Ġso ft
ĠVor gÃ¤nger
Ġber ufen
Ġmess age
ĠvÃ¶ll ig
ĠD adurch
ĠEin ige
her zog
ĠfÃ¼hr ten
ĠCon c
Ġsuch en
son sten
Ġblo od
ĠA gr
ĠF rem
ĠG h
Ġc ell
ĠC all
Ġer stellt
ab ase
ĠSch u
ĠHer bert
ĠMann schafts
Ġmov ing
ĠQual ifikation
ĠAst ron
ĠAutom obil
Ġs agte
il ing
ĠAn griff
Ġex er
Ġch urch
Ġout door
ĠBo gen
ĠMittel alter
ĠUnd er
ĠIn halt
Ġent gegen
ĠMe cklenburg
ĠEdu ard
ĠEnts te
J uni
Ä «
ĠS tellung
Ġz Ã¤hlen
ĠV el
os a
ann ter
Ġcl ub
ĠPre uÃŁ
Ġcoll abor
ĠWÃ¼rz burg
v ement
ie m
at te
ĠAd am
Ġac cept
Ġend gÃ¼lt
ĠDial og
Ġs ell
ĠAd el
Ġexp ected
Ġtrans fer
z ust
an geb
ĠS inn
Ġm il
ĠP rag
Ġan hand
Ġze igte
deutsch e
gangen en
rÃ¤sent anten
Ġverst Ã¤r
ĠWilli ams
it ness
ol is
gel d
hand el
Ġ190 3
resp ond
r ennt
Ġw ild
ach tet
ĠPa ar
Ġ190 2
k ts
Ġein gerichtet
ĠN ahr
ĠV alley
ĠRe view
Ã¶r ung
Ġsupp ly
ĠIns gesamt
ĠAbgeord neten
Ġbeein fl
C O
ĠD VD
ĠC ross
ĠBe handlung
ĠDe v
rÃ¤ gen
Ġsc ience
augh ter
A pp
D en
m ag
m Ã¶glichkeit
n icht
ĠP rÃ¤sidenten
ĠK Ã¶
ĠK ab
ĠK ey
ĠW ett
ĠL ight
kt ar
Ġst age
lin der
Ġbes itzen
Ġverb reitet
Ġfr ame
Ġdefin itely
U r
o ÃŁ
Ġcon ven
je kten
ĠEn s
ĠPf ar
Ġstell vertreten
ĠBesuch er
Ġin stead
ter t
Ġz er
ĠW es
ĠJ agd
Ġk ommun
Ġr ights
Ã¤ng nis
Ġpolit ical
ĠSa ar
Ġdeliver y
ĠÃ¶ffent liche
ĠS ho
Ġfor get
ce ed
Ġausgest attet
ĠKonz ert
or ph
ĠV aters
sp ar
hÃ¶ he
t l
u um
ĠC are
Ġge z
Ġst ates
ĠVer Ã¤nder
ath an
200 1
ĠBahn strecke
Ġm iles
ĠK ommission
Ġ4 3
ĠFilm s
Ġass ess
ĠEm il
ĠBre ite
Ġroom s
ĠSÃ¶ hne
Ġt ief
ar zt
ĠD ist
st ern
Ġl ern
Ġk ulture
Ġ8 00
Ġra ce
ĠMon at
Ġbas ic
M ich
Ġ id
ĠThe orie
ĠLeist ungs
ĠSchles wig
ac ing
ĠLand tags
Ġprogr ess
Ġruss ischen
C ont
l og
Ġ ?
Ġn umer
ĠE ich
Ġsp end
Ġbro ught
B Ã¼rger
Ġre chten
od urch
ĠHel mut
Ġv iol
werk en
ograph ische
Ġel f
ĠLauf bahn
in det
ie b
ĠB os
ell schaften
ĠBundes liga
200 3
ĠAmster dam
R ep
Ġt im
ĠK Ã¼n
Ġ4 1
ĠChr on
ĠWies baden
e ur
i ation
Ġw ife
ĠB an
ĠF ernsehen
Ġhigh est
Ġnah men
ĠForm el
Ġpass ion
Chr ist
Ġtar get
ĠAmaz on
N o
Ġd eta
ĠS ig
ĠK lassen
Ġat tem
ĠEd ward
Ġben utzt
ĠFo otball
Ġdah in
akte ur
ĠEben e
ĠbeschÃ¤ft igt
ein anders
ot yp
ĠSp itze
ĠZeit raum
ĠOrt es
Ġplay er
Ġbeginn ing
L C
re al
ing ly
ab elle
ĠGl obal
hard t
ĠApp le
ĠSowjet union
ĠÃĦg yp
Ä Ľ
Ġw rong
ĠS et
Ġc ast
Ġcons um
P olitik
ĠE vent
Ġver g
Ġhe at
Ġbeg in
krieg s
denk male
Unter nehmen
Polit iker
ĠFakult Ã¤t
Ã «
Ð »
Ġw odurch
ĠG olf
Ġc ulture
ten ance
Ġab gerufen
Ġex press
Ġ4 9
omm od
200 2
Ġland wirtschaft
ĠDire ctor
Sehen swÃ¼rdigkeiten
S eine
W erk
er weise
at ives
Ġf ight
ĠT a
ĠTex te
Ġess ay
Stra ÃŁe
ĠUn abhÃ¤ng
erk l
ail s
Ġ6 4
ĠGrund stÃ¼ck
** **
ĠBayer ischen
M on
is ierten
ĠG Ã¤ste
mer ksam
ues day
Ġinvest ment
Ġhol iday
z te
z um
Ġf em
Ã¤ ure
ĠF ire
Ġg ave
ĠMon te
Ġdire ctor
Ġclass ic
ĠM ike
ĠF ord
ĠK amer
Ġe igent
Ġvor bei
N ov
V ol
ĠC ard
Ġfe et
unter richt
ĠJuli us
Ġentsprechen de
gren zen
r ight
ĠS au
ĠB latt
ĠP ay
ĠT ax
ĠÂ §
ĠBevÃ¶lker ungs
D isk
Ġs em
Ġm aster
ĠN ap
af e
Ġes c
ĠLe xikon
20 19
co unts
Ġbest ritt
Ġpol ice
ĠSan kt
ĠErw eiter
Ġcreat ive
Ġrepor ts
ĠYo ung
Ġin itial
Ġc ards
ic ing
iz iner
ĠBl og
Ġelect ric
C ar
Ġd ynam
le m
Ġp ot
ol en
ent in
ia tely
In s
Ġ Ã¶stlichen
ĠG riechen
Ġl ots
ze p
Er folge
Ġange legt
ĠProdukt ions
nes day
Ġsle ep
Ġemploye es
B el
K urz
Â ·
ein s
ĠF igur
ĠC at
Ġge plan
ĠVer antwort
Ġj ud
sen z
ore a
ĠStra ÃŁ
ÃŃ a
ĠBron z
Ġumben annt
M ot
m aterial
ĠA ster
Ġc amera
ist ischer
min ton
Ġbek annte
ĠBes itzer
piel en
ĠDurch messer
ĠComm ittee
R L
le utnant
ĠP ast
Ã¶ nen
ers ey
Ġver ur
Ġwas n
Ġhistor ische
Ġbring t
Ġexact ly
ĠD ur
Ġh op
ĠW ay
Ġver legt
fur ter
im b
im ents
ĠIn itiative
app e
ĠFamil y
ĠBÃ¼ ro
Ġgeg rÃ¼ndeten
E d
ĠR ol
ÃŁ ig
if orm
se c
up s
ĠRÃ¼ck en
Ġsetz en
in ted
ĠM ord
gen Ã¶ss
ĠSp er
ĠAb itur
Ġgo als
Ġfe hl
Ġ189 9
Ã¤ll en
ĠKomb ination
S A
sch te
ĠW ohl
sp recher
Ġjob s
lÃ¤ss lich
fÃ¤l le
c ise
el er
Ġo wner
im p
ĠVer gangen
Ġeff ects
Me ister
ĠMuseum s
ĠB ett
ĠH ug
Ġauf gelÃ¶st
ĠVor aus
Ġback ground
Ġdien en
b ahnen
Ġf iles
Ġf amous
ĠM om
Ġp ages
ĠC ustom
ĠV iele
ĠHe ad
ĠPl us
Ġdev ices
G o
H o
b ad
ĠB lo
Ġc ru
ĠR ena
ĠC O
ĠKon zer
ĠLie fer
D ollar
c en
Ġt ritt
ĠK anz
ic on
Ġr ates
Ġsp rach
ho fen
ĠTh ursday
Ġtra de
An t
Ġverw enden
Ġprofession als
z ell
Ġp et
ous ly
ĠHers tellung
ĠChem ie
u ern
Ġde ad
ze igen
ĠMe xiko
ipp en
Ġ187 0
ĠIde en
ĠCam bridge
B i
N r
Ġv ict
Ġv ierten
ol z
ĠN omin
ĠTra in
ĠVers uch
Ġs av
ĠA achen
ĠH aw
os is
Ġst ress
th a
ĠPr esse
tem porary
ĠMag de
f Ã¤lt
Ġw ert
st ad
and t
ĠGe walt
Ġdesign s
R Ã¶m
Ġb ot
ĠM auer
ĠFrei heit
emin ar
ĠA ktion
ĠH eb
Ġge kommen
Ġber Ã¼hm
ĠArch Ã¤
ĠFahr er
ĠGew icht
ĠCD U
zÃ¤hl ung
Ġt schech
ĠBo y
Ġlov ed
ĠHeraus geber
P C
h aps
ar ia
Ġj ourney
ĠFran ken
fÃ¼hr te
ĠTechn ology
Ber g
Ġrelig i
Ġn amed
ĠW M
Ġzu geordnet
Ġsp richt
iforn ien
gestell ten
Ġeconom ic
ĠWoiwod schaft
ĠH arr
Ġfin ally
Ġed ition
Ġmax im
======== ========
ĠZ erst
ĠEin heiten
Al bum
Ġerh ielten
ĠMon aten
ĠWor ks
roll en
ĠElekt ro
ĠS yd
as ts
ro h
Ġn utz
ĠT ief
Ġl ack
Ġpro pos
ĠzurÃ¼ck ge
pf lege
Ġdr ink
ĠAnton io
ĠBarbar a
C he
D ar
Ġb oy
ĠT Ã¶ch
ĠK alk
ĠR on
ĠVer anstaltungen
bach er
ĠMicro soft
vors itzen
Ġc andid
ann i
Ġre ich
ver anstaltung
ru p
ĠAus nahme
ĠNieder sachsen
Ġfriend ly
ĠCont rol
Ġadv ice
Ġded icated
ĠÃ¼br igen
S PD
ĠL ibrary
ĠN ah
âĢĿ ,
Ġconsider ed
Ġm is
ro te
ĠR oss
ĠRe form
iz eit
ĠPro ject
Ã¤r ker
Ġdurch schnitt
ons erv
Ġstud ies
ĠGer icht
ĠMet hoden
ĠOff izier
Ġ188 0
Ġjapan ischen
Ġt Ã¶
Ġf allen
ĠG ames
Ã¶ die
ĠMÃ¶glichkeit en
y les
Ġw inter
Ġe yes
Ġex cept
iert es
plat ten
Ġgemeins amen
z iger
st ift
Ġg ren
Ġg uarante
ĠIn tegr
ĠPro te
ĠCh allen
amp les
Ã¶s ungen
Ġtr uly
Ġbeh av
arl ier
ĠÅ ł
ĠUntersuch ung
G u
ĠB res
ic ate
Ġsch eint
Ġ5 2
Ġres olution
Ġ190 1
ĠVerlag s
ĠBrÃ¼ der
Ġir gend
ĠThÃ¼r ingen
e g
g ory
s ere
Ġwel come
Ġprogr amm
H istor
i y
ĠP R
ĠU ser
ell y
Ġcon ference
stand ing
ĠSer ien
ĠSystem s
ĠÃ¶sterreich ische
Ph one
ĠJack son
ĠVerÃ¶ffentlich ung
ĠMatth ias
4 00
P latz
c z
Å Ħ
Ġb rach
ĠB aus
Ġh y
ĠT en
ĠTh anks
ĠMe yer
ĠTer min
ĠMax im
Ġunterschied liche
ĠE ach
ic ine
ad ies
ag a
Ġsh opping
arb on
ĠH aft
Ġet abl
ĠInd ien
Ġinc red
ĠAlex and
Ġadv ant
ĠNet work
sb ruck
iv als
tel n
ĠOr ient
ĠHimm el
c u
p ite
ĠSp iegel
Ġle it
ĠSc iences
ĠParlam ents
ĠChampions hip
ĠDah er
D an
w ettbewerb
it o
Ġim ag
Ġun ge
qu er
hÃ¶r de
prÃ¼ ft
Ã¤dag oge
ĠB ord
em ann
ic ious
Ġre li
se kretÃ¤r
bau er
Ġvers uchte
P art
Ġf ans
ĠGener ation
ĠTÃ¼b ingen
le hre
ĠM ak
ĠM ov
et he
ĠR ab
Ġj em
Ġ18 60
gr iffe
Digital isat
ĠSeb ast
b und
f al
Ġs uffer
ein heit
ĠA M
ĠI C
ĠSch lieÃŁ
Ã¤r m
fÃ¼hr ten
Ġturn ed
ĠErfahr ungen
ĠVergangen heit
ĠT uesday
Ġ4 6
Ġfin ished
Ġstand en
Ġ189 6
Ġsec ure
Ġwa it
k onstru
al o
Ġsp irit
ĠÃ¼ber haupt
ĠTr ump
Or ganisation
Ġbro ad
bed ingungen
bere cht
ĠWeltk rieges
f assen
w ing
ĠD auer
Ġapp re
Ġserv e
B y
o und
w is
ĠS oph
ĠF arm
ĠL ate
gel t
weil er
Ġfeel ing
Europ ameister
Ġphil osoph
Ġunterst Ã¼tzen
J e
S k
f els
l Ã¤nge
or i
Ġc ars
Ġer le
ĠAn h
ia ge
onn a
ĠKÃ¶nig in
ĠOb wohl
Ġmethod s
Ġgelegen en
ĠBek annt
de cken
ra k
af ft
aus gabe
ĠDan eben
Ġkur zen
cel ona
w all
Ġw he
Ġb ill
Ã¤ st
ol i
tet t
Ġexp and
wend ungen
ĠAward s
Ġinfl uen
h ar
es is
ĠG lauben
ĠW a
Ġg olden
Ġvor ge
ĠGe gner
icher ungs
haf te
Ġcour t
Ġpower ful
W ert
it at
Ġs agt
ĠK Ã¼nst
Ġl it
ĠEr ich
Ġpro ced
Ġber uf
ĠGra z
Ġuse ful
lei hung
Ġpress ure
ĠP ac
ĠT rÃ¤ger
ĠH ospital
ost ers
lig isten
Ġnumber s
schei det
en se
Ġf ung
Ġh Ã¤tten
ĠH av
ĠL ittle
ĠL Ã¶sung
ĠN ight
ĠV I
ĠSch on
ĠgroÃŁ es
Er st
Ġpre vent
zie ht
Ġopen ing
fÃ¤h igkeit
ĠRath aus
r iss
y ll
Ġf Ã¤llt
Ġc old
Ġc ash
ĠR ollen
ĠL td
Ġbe yond
ann en
Ġj ur
ĠrÃ¶m ischen
Ġab geb
ite ktur
Ġob tain
bl ing
ĠG ymnasium
ent ur
Ġan gesehen
we ge
ate gory
amil ien
ĠEnt fern
Ġmein er
C o
te gra
Ġin kl
ĠK athol
ĠI N
ĠL abor
ĠL iber
ĠFor ce
199 9
part ner
Ġnor weg
sc ar
Ġoffic ial
wes ome
i ben
m ie
t rue
ar in
Ġp red
Ġausge fÃ¼hrt
ĠBar on
por ation
Ġdeg ree
v ard
ĠS ir
Ġm ap
il de
ĠF air
Ã¶ pf
Ġer laubt
ial og
ĠRÃ¼ck kehr
inc ip
Ġf ant
ĠJ ar
ĠBe teil
Ġ18 48
Ġsc ient
Ġhelp ing
Ġrad io
L a
c an
k Ã¼rz
p osition
ĠF alls
zeit ung
Ġ189 8
ĠZahl en
ĠZug ang
ĠWed nesday
j an
ĠR uf
Ġr um
Ã¤hr ung
ĠSchl uss
ĠGerman y
ĠArm y
A B
E hr
or gan
ir ing
ĠAn y
ĠOber st
Ġeff ort
ĠFrie dens
Ġextrem ely
L E
k urs
is piele
Ġt ried
ĠSp orts
geb irge
rat en
ĠGesch ichts
ĠCon ne
Ġche ap
Ġm icro
ĠK ais
ĠR ub
Ġdem and
ĠJo e
ĠWeit eren
ĠBenutz er
o e
Ġs ym
Ġb lieben
ĠE ven
ĠPe ople
Ġverb ess
Ġart ist
ĠBÃ¼ hnen
kon om
Ġnahe zu
Ġoffiziel l
al ed
ĠH ell
ste uer
In stitut
fin ition
ĠÃ¤ uÃŁ
ĠNationalsozial ismus
> <
ur o
ĠBe wohner
ond eren
ack er
Th ese
ĠFunktion en
ĠnÃ¤ch ste
A F
it ude
ĠD ank
ĠW it
Ã¶ gel
ĠV iol
ĠBe ob
Ġme as
land es
ĠWe ge
fÃ¼ gt
Ġkon zentr
Ã¤m lich
Ġmot iv
P ort
h aben
Ġs agen
ĠF iguren
ĠH erkunft
ell i
or fen
ĠG ang
Ġge ist
ĠBe ziehung
ĠMich el
Ġkein er
Ġzwe imal
Ġchallen ge
T C
Ġc lin
ĠH Ã¶ch
Ġdam age
Ġeinzel ne
ĠChin ese
A ut
M useum
ĠS ak
Ġ1 10
ĠP M
ĠR oh
Ġer hoben
ĠWelt meisterschaft
Ġview s
ĠFÃ¶rder ung
Ġregard ing
renn fahrer
N ot
z in
al m
ak ei
ĠAn frage
ĠEin richtung
olog ischer
ĠPa der
leg entlich
ĠComm ission
Ġclean ing
plat te
n ow
en gl
st al
ĠSch ach
ĠAn gehÃ¶r
cl ient
ĠKl im
ĠEx empl
onen ten
W irtschaft
ĠF inn
ĠW ho
ĠRe port
ĠSte phan
Ġviel leicht
ĠParte ien
ĠB M
ĠF ind
ub il
be zogen
Ġbel g
Ġcover ed
ĠGlo cken
ĠInde x
k u
ĠJ ed
Ġro of
Ġhel fen
schn itts
Ġpar allel
ĠInn sbruck
ĠSchwer punkt
Ġerz Ã¤hlt
r in
ch ip
on i
ĠE as
ib e
ip end
me er
form ance
ĠLand schaft
eben e
let ter
Ġtats Ã¤chlich
k la
ĠDie ter
Ġdr iving
yl van
ĠjÃ¼d ischen
ziehungs weise
m iss
Ġh ers
ber eitung
ĠN och
âĢľ ).
lo y
Ġ5 1
Ġcol ors
zÃ¼ glich
u v
er ien
le te
ĠK ong
ĠL am
ry pt
burg h
gesch windigkeit
ĠFlug zeug
ĠSm art
ĠUntersuch ungen
Ġthous ands
Ġs amm
de gang
ĠGeb urts
Ġfac ilities
Ġsett ing
ch ern
Ġs ucht
re hens
ĠP ian
ach us
ug ies
ĠVer fassung
ĠEin richtungen
fÃ¼hr en
ĠGesch ichten
Ġsub mit
Ġstra ight
ĠPap ier
Ġrespons ible
w ise
ĠB le
ĠB our
ĠR io
ĠL ot
ĠN ie
Ġl ength
Ġsch ied
pr iate
Ġestabl ished
K rit
P l
Ġf ather
ĠK anada
Ġl isted
ĠSt ab
rÃ¼ cke
ĠWohn ung
Ġbene fit
s ichts
in ischen
ie fen
Ġt ips
Ġb ur
Ġm ission
ĠT el
sch uld
ĠSt ift
Ġauf gestellt
ĠIt al
Ġexp lor
ĠJuni oren
Ġ189 7
Ġeas ier
ĠMy th
Ġexist ing
ĠmÃ¶ch ten
ĠKranken haus
dire ktor
t w
Ġs ession
Ġf elt
den burg
pp ing
ĠBe am
erv ice
Ġcontin u
ĠJust iz
kur renz
ĠflieÃŁ t
Ġ ign
us ter
ro ugh
Ġge plant
ĠVer fassungs
ĠSp itzen
arbeit ete
ĠMan y
kl us
mar sch
Ġcap ital
Hol stein
Ġut il
N ow
c ar
ch o
ĠT rieb
au ten
ĠMar i
ans as
ied elt
Al le
Ġ189 5
Ġocc ur
o ben
al is
Ġl ines
lin ois
ust ain
ĠBar celona
umen ten
produ ktion
Ġmean ing
o ire
ĠT wo
ĠEr folge
Ġreg istr
aj a
Te chn
ĠCol or
Ġcomple ted
Ġmet al
Ges ellschaft
ĠOrd nung
ĠEpis ode
F ried
m ail
ĠM ath
ing ham
Ġhund red
w s
ĠK y
sp ur
iss ance
wer ben
Ġsay ing
Ġcent ury
wirk ungen
T H
t aus
st rom
ĠE ind
Ġste el
Ġmay be
reg isseur
ĠInter essen
ĠHar ry
Ġstra tegy
ungsp ro
grÃ¶ ÃŁ
b al
us band
Ġn Ã¤mlich
im in
ĠâĢ ¢
ĠEr schein
Ġsp ring
Ġzunehmen d
ĠPortug al
b on
Ġh il
ĠT able
ĠH as
Ġpro p
Ġit em
ĠEin sch
ĠFil me
Ġupd ate
ĠWeihn achts
K o
T S
ĠR ap
ĠR Ã¶m
we ist
age l
ph y
Ġte ams
ĠStra f
Ġthan ks
Ġcorre ct
D AP
k Ã¶rper
Ġ uk
us k
ir at
ĠO tt
Ġr ich
ĠAnd roid
Ġpop ul
Ġb atter
de hn
Ġbe ziehungsweise
Ġ/ >
setz te
ĠWir ken
Ġsele ct
p ool
ĠD iffer
ĠR ett
Ġer fahren
Ġne arly
Ã¤l le
stÃ¤nd en
icher heit
Ġkathol ischen
F ranz
K irchen
k ultur
ĠJ ava
ĠBer icht
ĠSÃ¤nger in
Ġinnov ative
ĠZusch auer
Ġdise ase
c are
k arten
l it
Ġw issen
ĠM esse
ĠP ots
ĠK amp
ĠC ur
Ã¼r en
Ġver geben
fÃ¼hr ungen
Ġprodu ced
let te
Ġur kund
verkehr s
ĠKommun ikation
ĠS ens
Ġf an
ĠC ro
ĠBe at
ard o
ĠOr ch
ĠFre unde
ĠBau werk
Ġsur face
ĠBen ed
Ġunterschied lich
ĠSicher heits
ĠMaÃŁ nahmen
ĠpreuÃŁ ischen
ol as
O W
Ġb row
ĠB om
ĠF inal
ss on
ĠAuf ent
anz ig
ĠSte ve
Te am
Ġbas is
ĠGar den
Ġmittel alter
ht t
ĠMin eral
Ġbesch reibt
Ġeven ing
ĠIngen ieur
ĠVer dienst
ĠSp an
Ġcon cept
ack en
iet nam
Ġeinz igen
ĠGest altung
sta aten
l le
or ted
Ġb la
Ġin f
ĠD ata
Ġp aid
ĠE conom
Ġpro ud
atur ing
Ġ4 7
Ġcont ains
199 0
Ġappro x
Ġelekt ron
Ġre icht
ste ig
Ġbes aÃŁ
cy cl
ĠRestaur ant
ĠInstr ument
ĠA qu
ĠE M
ĠR oten
ĠL etz
Ġk new
ĠO d
rÃ¤ ft
Ġbut ton
Jahr en
ĠÃ¤lt este
V al
fe ct
ĠIm p
ĠSong s
ĠInfanter ie
Ê ¿
Ġth ank
ĠAn lagen
Ġab ger
teil ungen
ĠNach richt
oren z
ĠBereich en
iate ilnehmer
l enz
as p
ĠK im
Ã© t
ĠFl ucht
urop a
ĠAs ien
wor th
ĠFer ien
on ia
Ġs in
ĠP S
Ġsh ape
gesch lagen
ĠGemein der
mus iker
Ġverschieden er
Ġchange d
Eis hockeyspieler
L ist
Ġw achsen
Ġc at
ste igen
iz ien
Ġum geben
ĠWe gen
Ġacc ommod
ĠAustral ian
Ġswe et
Ġimmed iately
J ohann
W il
er em
Ġb ag
ĠLand tag
ĠGes ang
ĠKon rad
Ġprote ction
Ġlov ely
Ġstruct ure
Ġbott om
u ver
ol es
ĠZ ivil
if er
Ġi Phone
ĠThe ologie
Ġsch ott
Ġgu ests
Ġmon itor
alb um
Ġpresen ted
ĠSonn tag
Ġa ren
al em
ĠM d
ĠM Ã¶n
ĠH Ã¤
Ġan schlieÃŁ
Ġbeg innen
Ġ187 1
Film ografie
Ġbeaut y
Ġpoln ischen
wirk ung
ĠTÃ¶ch ter
f ranzÃ¶s
or ien
ĠD ok
Ġe he
Ġge e
Ġge eignet
ĠBe weg
ĠGr amm
199 8
ĠGren zen
Ġhig hl
ĠjÃ¼n ger
achus etts
al tete
Ġin fo
ĠA N
ĠC ru
ĠN a
ce an
ĠAn spruch
Ġbet rieb
Ver Ã¶ffentlich
Ġfind ing
stre cken
haf ten
Ġbud get
m ess
n oten
r uss
esent lichen
Ġaufge fÃ¼hrt
ĠKarls ruhe
B ad
in zen
ro ad
ĠN ar
Ġim press
ild ing
Ġ5 6
Ġemplo y
ĠbenÃ¶t igt
Ġeffic ient
r amm
w uchs
Ġt ransp
Ġw ine
ĠS ud
ĠA z
ro nd
ĠT ay
Ġent steht
Ġunter en
geb nis
ipp e
ĠLin ks
ĠWahl kreis
Ġstark en
Ã¤mp fe
Ġdi agn
ĠTele fon
ĠBronz emed
k ow
ĠAl k
aka dem
ĠRelig ion
ĠTÃ¼rk ei
Ġbenach bar
m auer
ĠW aren
ĠR ou
ĠR oth
Ġer lang
ĠV Ã¶lker
ĠSie ben
Ġbes etzt
Einz el
ĠMan fred
ĠHaus es
ĠMc C
ĠDetail s
Ã Ĺ
Ġw eder
id el
oc ol
Ġste ps
ĠAktiv itÃ¤ten
Ġzust Ã¤ndig
Ġdeter min
ĠD J
ĠF un
Ġbe grenz
ac ity
Ġen glisch
ĠMar ien
Ġac adem
ĠSer ver
ĠDon au
ĠKÃ¼n ste
un Ã¤chst
Ġb ess
ies s
Ġun er
ĠAuf lÃ¶sung
ĠHe eres
ĠFl Ã¼cht
ĠMa jor
Ġget Ã¶
Ġmed izin
Ġresp ect
---- ----
Ġnomin iert
Å Ł
ut ing
est yle
ĠFl Ã¤chen
wer den
igt es
Ġinst r
rÃ¤n kt
ĠBed ingungen
unds Ã¤tz
ĠKommun al
Ġchallen ges
Ġteach ing
ĠDarm stadt
S pieler
p et
ĠW en
ĠV ie
ĠSch e
Ġun gefÃ¤hr
ĠEn glisch
Ġover all
grÃ¼nd er
folg ung
ĠGed ichte
l ar
u ellen
â Ĥ¬
Ġf lat
ĠP ie
ĠH Ã¼gel
ul in
Ġres erv
Ġinter act
Ġsol id
Ġschw ier
B ere
te am
Ġn Ã¶t
ic ul
we ich
sp ann
Ġbis lang
ĠCon ference
Ġret ail
Ġassoci ated
ĠSyd ney
? ?
F alls
st Ã¤d
ot ional
ĠKr ist
ĠEing ang
Ġbetrach tet
D I
H ein
f ree
as che
Ġfor mat
Ġde partment
Ġch air
Ã¤r n
Ġunter halb
sh ire
upp en
urf Ã¼r
! )
u an
Ġs itu
or ia
Ġm aÃŁ
ĠB ab
ĠD im
st aben
Ã¼t ze
reg ion
ĠÃ¤lter en
ĠTw itter
ĠBestand teil
ĠVictor ia
ch or
he il
om er
For m
Ġmult i
Ġerinn ert
d auer
Ġs ituation
Ġpre fer
Ġange gebenen
trag ung
Ġtechn ical
ĠSyn chron
Ġn ar
ers te
Ġdis k
ĠSchn ell
Ġmoder ne
ĠHalb finale
Ġdeutschsprach igen
F F
H Ã¶r
m eldung
Ã¼ gt
ĠA ar
ĠM Ã¤r
ro y
ĠN ation
Ġcom ments
Ġbes onderen
stra ÃŁen
Ġo st
ol ar
ies e
Ġme asure
Ã¤nd igen
Ġsozial en
Ġparticular ly
schlÃ¤ ge
ĠColumb ia
8 00
Ġs Ã¤m
lie ger
Ġzum indest
ĠAfr ika
ĠBot an
g han
st one
ĠL ist
Ã¼r zt
Ġauf gebaut
for scher
ĠMit gliedern
Ã¤mp fer
Ġexc iting
ĠWieder auf
ĠMathemat ik
u ber
Ġm iddle
ĠM P
ĠC ost
ste dt
Ã¤r ung
Ġunter sch
zen e
ĠOr der
Ġad vanced
Ġtra f
ĠmÃ¶glich st
ĠBur gen
ĠDÃ¤n emark
C ol
ĠT ony
Ġzw eiter
Ġman age
Ġprodu ce
Ġstr ug
Hand lung
o ter
v ater
Ġn Ã¤her
ĠL inz
ĠFor um
Ġber ichtet
ĠEnt wurf
Ġexper ts
ĠCas ino
Ġklass ischen
ĠRum Ã¤n
ĠImm obil
Ġerstre ckt
H aus
b rand
k ommand
Ã¼ p
ĠH ig
ĠH em
ĠL ag
la ted
ial e
Ġgew Ã¤hr
Ġev alu
Ġexpl ore
w irtschafts
ĠB ier
ĠM u
ĠM isch
ĠK am
art igen
Ġwel chem
Ġdiffer ence
ĠEigen schaften
Ġnotwend ig
e ch
ĠF Ã¤h
ĠG att
ist ant
ĠSt urm
Ġzu g
Ġsp rechen
Ġse ven
Re chts
ĠQu elle
ĠUr laub
ĠOlymp ische
ĠAfr ican
Ġcele bra
Ġneigh bor
B et
M Ã¤rz
Ġd ining
it ag
ug u
ak ed
Ġent schied
rat is
Ġget rennt
Ġland sc
stÃ¼ck e
Ġg ather
ir urg
ĠIn t
ly n
Ġ18 50
Ġho her
so ap
ator ium
ĠPat rick
Ġil leg
Ã¤ b
ĠM ap
ĠT ob
Ġal ter
ĠUn fall
stra hlung
hÃ¤lt nisse
Ġmain tenance
Ġstre et
. ).
ĠB Ã¤nde
ĠZ oll
ĠAr ray
Ġman chmal
Ġteil s
Ġnational en
Ġsele cted
f ue
y mp
z ern
ar ina
st at
Ġe ight
iel l
ungs ver
Ġreg ional
ĠTra um
gest altung
ĠBro ad
ĠDipl omat
ĠPublik um
ĠK redit
ĠC anad
ĠU fer
ĠVer st
ĠSe kunden
Ġco ffee
olog isch
ĠGem Ã¤lde
Ġdevelop ing
Ã³ w
ĠGi ov
Olymp iateilnehmer
ĠS ender
ĠM oh
Ġmit einander
id ung
Ġj ournal
ĠVor stand
In sel
Ġro b
ĠHoch zeit
ĠGed anken
Ġconne ction
ĠbestÃ¤t igt
ĠDiet rich
chip karte
R T
Ġw ants
ĠS yr
ĠA S
ĠB at
ĠF Ã¤llen
ann ed
ĠGra d
Ġserv ed
ĠMo dern
ĠQu adrat
Ġmov ed
verein s
ĠPlat ten
E lement
M ilitÃ¤r
a tely
Ġ ðŁ
is i
ĠB Ã¼r
ĠZ Ã¼ge
th aus
Ġwissenschaft lichen
mitt lung
N atur
R el
c ious
v ia
Ġh ospital
ĠAus bau
ĠFeuer wehr
it ors
ĠS endung
un ters
ĠP in
ĠAn trag
Ġsp Ã¤ten
Ġdar aus
Ġeinz ig
Ġeigen es
Ġgu ys
Ġser ver
Ġbas iert
ĠursprÃ¼n glichen
ĠFernseh serie
ĠStÃ¤d ten
Ġ !
ĠT ats
ĠE ugen
ĠL ac
ru pt
gel s
ĠAus einanders
wer ten
ĠPar ameter
Ġpe ace
Ġinstall ation
Ġgeg rÃ¼ndete
J ahre
it arr
us sen
ĠJ im
Ġre asons
ĠVer letz
ĠKÃ¼ che
ĠerklÃ¤r te
Ġerr ichtete
M ax
l ist
ar ett
Ġe at
ĠCount ry
Ġpay ment
Ġconne ct
Ġcertain ly
C onstants
Ġf ail
Ġn ames
ach ed
ĠZ o
Ã¤nd ige
Ġcan cer
stand en
Te xt
ĠGegen wart
Ġgest altet
Ġjapan ischer
Ġep is
ĠEntwick lungs
c raft
| -
or ient
ĠP os
ĠW urz
ĠO hio
qu est
Ġ5 3
Ġstand ards
Ġtechn iques
ennt nisse
ĠGrÃ¼nd ungs
ĠInn ov
Ġpie ces
k Ã¼ste
ĠK art
ĠR he
ĠZ ul
ĠVer anstaltung
Ġsch affen
ĠMar g
ĠAnd rew
ĠMark us
Ġav oid
ĠTo de
fa ult
CD U
ĠMagde burg
p asst
t yp
w ich
ĠH ot
Ġsh ot
sk a
ĠFÃ¼hr er
ĠZwe ck
Ġorganiz ations
d is
s ylvan
ĠM assen
ĠT onnen
Ġk o
ik um
ĠRe de
Ġ189 1
ĠOff ic
Ġart ists
Ġsing les
M o
ĠD issertation
ĠEr ste
ĠBundes staat
199 6
ĠAtt rib
l ein
Ġs ets
Ġh alb
ĠK un
Ġer zeugt
ap ers
ĠLe hre
Ġfre ien
ĠGrÃ¼nd er
ĠFo od
Ġruss ischer
far ben
Ġneg ative
m aschinen
w ord
eb urg
Ġman ager
Ġsh ared
Ġ8 5
ĠGesch le
Ġklein ere
ĠGraf schaft
Ġdenn och
Ġbedeuten d
O st
k es
n i
ĠM ir
ĠH um
ĠC ook
Ġsch reibt
ĠMar gar
Ġsh own
Er gebnisse
B est
S ep
k amp
ung er
ĠF ro
Ġer mittelt
Ġal ternative
Ġsh aring
Ġ189 2
ĠKal ifornien
best and
bie ter
ĠEpis oden
Schwei z
ĠS ymbol
ĠM ake
Ġver urs
Ġr ent
Ġbes onder
ĠMann heim
l ation
ĠA sh
ĠT aschen
em it
ĠV ari
ĠJ ersey
ĠĊ Ġ
end o
ĠFr ucht
ĠMark en
!! !
Ġredu ce
Ġstat us
in us
ĠP ot
ĠL ow
ad ing
ate ver
rÃ¼ st
ĠEin s
ĠDe ck
pro fess
An merkungen
Ġtr ust
ĠVerein igung
ĠKont rolle
akadem ie
K irche
d rÃ¼ck
Ġa head
sch icht
Ġcon stant
ograph ic
Ġexc ited
ĠDipl om
ĠS her
ĠP fe
ak u
Ge w
Be im
ĠJe ff
Ġstate ment
Ġren ov
M B
e v
l Ã¶
Ġn ut
ent lichen
Ġe arlier
Ġaus ger
Ġsp anischen
Ġhe avy
20 20
Ġitalien ische
ĠGef angen
H ome
P aul
a illen
Ġt ag
ĠP ul
ĠF unk
Ġc it
ent um
sen de
Ġunter scheiden
omb in
ĠSchn eider
Ġrele vant
grÃ¶ ÃŁe
H ere
N or
l ife
ĠS W
ol ogen
ĠL abel
ĠSch uld
ord net
ĠSe le
wer tet
Ġhelp ed
ird s
Ġhim self
ĠBach elor
ĠSon ne
Ġfab ric
J ose
R S
S pe
ĠB it
Ġv ision
ĠV og
men ten
Ġwh ose
ĠSh op
Ġhand le
ĠStud ies
Ġletz ter
bes itz
ĠSchriftsteller in
Wh ile
ĠÃĦgyp ten
O ff
g reif
or gt
ĠE P
ĠSch ott
Ġ5 7
fol gen
ĠGesch windigkeit
acht ung
ester day
ĠMark et
ĠRelig ions
n ing
Ã ª
ra ted
ĠMa ur
Ġtra ffic
ix el
Ġbr as
.: .:
ĠTab elle
ĠPader born
v y
Ä ĥ
Ġa ward
re uth
Ġin g
ĠC apt
Ã¶ tz
ier er
ab end
if ying
ĠSp recher
sen s
iz z
Ġbeen det
Ġacc ur
grÃ¼nd ung
Ġsur v
Ġstark e
Ġwind ow
Ġwa iting
Ġgriech ischen
F rom
d h
ĠS ei
ich ert
ĠG all
ĠG uts
am i
im er
ĠIn frastruktur
ran e
ĠFahr t
ĠMehr heit
Ġcrit ical
f alt
ĠM ang
ter m
Ġein iger
Ġh usband
ĠL ook
Ġg ran
ĠV ideos
Ġsch uf
cl ub
ĠEd el
schn itte
199 5
Ġgr und
Ġvert rat
ĠGef Ã¤ngnis
ĠSchla f
Ġf ahren
ess ions
her ren
St re
stell te
Ġprote ct
Ġachie ve
sylvan ia
r ia
Ġges ellschaft
Ġele ment
Ġ188 5
ĠLebens mittel
ĠMad rid
ĠUnabhÃ¤ng igkeit
w Ã¤l
Ġf uhr
ĠF ab
ĠC ond
Ġsel ber
ĠAug sburg
ĠSebast ian
. /
rom e
inz ip
ĠFre ien
ĠStra nd
Ġlook ed
ĠMet rop
Ġtre ffen
EM ail
al and
ĠC lin
oc al
ĠAus zeichnung
Ġsh all
ĠHe ktar
ĠFre izeit
Ġspiel ten
Ã¤nder te
Ġ187 4
ĠTer rit
jahr es
ĠGebie te
Ġrestaur ant
ĠWag ner
ĠB io
Ġthe me
ĠL uz
Ġg Ã¼lt
ĠSt ory
ĠSch aff
lie hen
ĠCh ief
In ternational
Ġruss ische
ĠSilber medaille
Vers ion
S yn
a wa
Ġf ish
ĠN Y
ĠV ill
Ġk g
ĠSp ielt
Ġexper iences
ĠRes erv
Ġpol y
ĠWei b
ĠEng agement
Ġpoln ischer
Gen eral
mÃ¶glichkeit en
an ie
ig ation
ĠK eller
ho e
Ã¤ch er
Ġbesch Ã¤d
ĠBot schafter
ĠJos Ã©
Ġein geb
Ã¼n fte
dem okrat
ĠHol lywood
Ġtechn ischen
Ġerm Ã¶glichen
Ġbestehen den
Ġgren zt
is her
as ien
ĠE arth
ra uf
ot al
Ġvor aus
bes itzer
Ġ188 8
ĠBronzemed aille
U I
p an
is tet
ĠR al
os law
Ġre form
ĠGe fahr
ĠLe arn
lo ok
Ġad vent
ĠMed ical
Ġschw eren
199 7
hol m
ĠWei ÃŁen
ĠBro ok
ĠRu h
Ġhoch wert
ĠNetz werk
Ġverur teilt
L A
re gel
und et
ĠP u
art ig
Ġ5 4
ĠWe ber
St affel
zuf Ã¼hren
ĠNeust adt
m acher
ed om
Ġst Ã¤dt
qu ent
Ġnot ice
Ġsm ooth
D atei
k Ã¼nd
m aschine
p ommern
Ġd ish
al ity
ĠB ert
ĠM ans
ĠT y
ĠI h
ed ition
ĠC ert
os ing
ĠAr men
aut hor
Ġpriv aten
Ġpropert ies
Ġsen ior
ĠSec ret
lad ung
B B
h art
fen ster
iss es
Ġcomp rehens
Ġoff izielle
Ġinter pret
ĠBes etzung
Ġverb indet
Ġcommun ication
M art
w ater
Ġc entral
Ġre ag
ĠPro jekte
An halt
M ill
Ġm ill
ĠK Ã¶r
ĠC os
Ġbig gest
ĠInstit ution
u tely
Ġa partment
Ġv en
ger Ã¤te
Ġent lassen
ĠAb d
ĠAm ateur
Ġper man
bo den
ĠBÃ¼ hne
ĠArn old
S ee
g ow
ĠG il
ĠK il
ra p
Ġon to
je kts
yn ast
Ġvis ual
Ġ186 7
Ġlo an
ĠLÃ¼ beck
Ġzie hen
Ġvo ice
D DR
Ġd rop
ar ma
ĠW Ã¼rttemberg
ĠPh ase
ĠPf alz
Ġsc en
iqu id
Ġ189 3
Ġbr ight
ĠPort rÃ¤t
Ġwicht igen
Ġfollow ed
hoch schule
ĠHug o
RÃ¶m isch
st ock
Ġn am
Ġle ather
Ġme x
ĠLe vel
aw n
Ġbu ying
Ġtop ic
Ġappro priate
ape ut
usÃ¤tz lich
ĠFel ix
Ġsn ow
D aten
â Ħ
ar p
ĠE sp
Ġbe handelt
ĠO ther
Ġvor wiegend
Ġdr amat
ĠMich igan
spe kt
Ġcompet ition
R uss
b ell
c ient
ĠD atum
ĠW ord
ĠN un
Ġzu k
ĠAn wesen
Ġqu arter
fahr zeug
stell ig
Ġkann st
ĠTr ib
Ġ188 9
Ġresp ond
ĠKant ons
ĠerÃ¶ff nete
fÃ¶rm ig
Ġa uÃŁen
ĠK rie
Ġal though
ĠSp ur
ins on
ĠInd ivid
ĠGu ide
Ġcol our
Ġcharac ters
J apan
h as
z unehmen
Ġt on
Ġg one
ow itsch
id den
ĠRe is
ĠAn erk
ĠÃ ł
Ġres idents
ĠBo oks
Ġange hÃ¶r
Ġentwick eln
Ġgr undsÃ¤tz
Ġnord westlich
Ġlim it
Ġwissenschaft liche
ĠKob lenz
fÃ¶rder ung
ĠgetÃ¶ tet
E nd
p ost
z esse
Ġd aughter
Ġn ennt
ĠH yp
uz z
akt oren
ĠStud ie
Ġ189 4
ĠTod ay
ĠSchl Ã¼ssel
ĠTor onto
verband es
Ġchines ischen
P al
e f
h Ã¤ndler
ĠB ir
om it
ent hal
ĠN on
Ġl ab
eb all
Ġzu ge
ran ch
Ġsch reiben
Ã¶r ungen
Ġsc ene
Ġrem ain
mod ell
lehn t
Ġol der
ĠE qu
isch Ã¶
lie f
ĠMit arbeit
gesch oss
Ġpl astic
iden z
ohl en
Ġplan ts
Ġcor ner
Ġincre ased
Ġprim ary
or ff
Ã¤ ÃŁ
sch wer
om y
Ġan genommen
Ġver fasste
au ert
Ġaus reich
ĠHel m
ĠAkt ien
ĠtÃ¤ glich
P lease
Ġb ow
ĠO scar
Ġr ank
ĠSp ace
auf tra
ll en
ĠKÃ¼ sten
E B
Ġt ruck
ĠN ag
Ġre chte
ĠEr Ã¶ffnung
ĠPlan ung
ĠErw achsen
ĠSpring er
ĠB ang
st ar
st il
ĠC reek
Ġbe we
ag on
ĠÃ¼ber sch
inn es
ĠsÃ¼d westlich
ĠPolitiker in
Ġt rifft
Ġw ebs
ach te
Ġer gibt
ert al
ĠÃ¼ber nehmen
Ġad ult
ĠWelt meisterschaften
199 4
Ġpres ident
prÃ¼ fung
ĠGebie ts
Ġautomat isch
Ġsepar ate
K arl
O K
ĠS ince
Ġf ear
ĠD ick
ĠP ir
Ã¶ der
ab ilities
ho u
ĠMar io
Ġseit dem
ĠNieder lage
Ġ187 9
ey er
ĠAlt stadt
ĠInform ations
M ai
T er
or row
re h
Ġf le
Ġf ill
Ġein schlieÃŁlich
ber icht
ĠU t
Th at
Ber eits
Ġant i
Ġbezeich nete
g asse
u ters
z z
an ia
ur ers
ĠK el
Ġ20 22
iz ont
ĠOr den
Ġqu ant
Ġcas ino
ĠDrehbuch autor
ĠverfÃ¼g bar
Q L
t own
un nen
ol er
Ġc atch
ab geordneter
ĠSch all
ĠSch reib
Ġen det
ĠkÃ¶n ne
bau te
Ġdr ug
199 1
ĠSam stag
Ġallow ed
Ġgemeins ame
Ġafford able
ĠS auer
re ck
Ġb aute
ĠR ose
ers dorf
ĠGe gend
olle y
vers ion
Ġsol chen
Ġpack age
Ġunbek annt
Frank reich
ĠUkra ine
ĠP red
ĠP seud
ĠW Ã¼r
ow ohl
os h
os low
ind ungs
ĠNe um
ĠGemein schaft
man agement
ĠWelt cup
Ġsec ret
Ġgra de
Ġcould n
Dies er
verb indung
ĠViel zahl
" )
k olle
l ight
p ot
v ollen
le ucht
ĠJ ones
Ġfor ms
ens is
ĠFran Ã§
Ġinter ior
Ġpo or
ĠzusÃ¤tz liche
Ġcla im
Ġnied r
Jan uar
T our
c onstants
Ġw rote
el ess
ĠF ull
ĠSt aff
Ġsch rif
mit glieder
ĠBundes ver
ĠBel gien
ĠIl linois
Ġcop y
Ġdig it
f ir
Ġf la
Ã¶r g
setz er
ĠWh y
ĠOper ation
ĠMount ain
Ġoffiziel len
Ġverhinder n
Ġsoc iety
E E
k ern
w Ã¤hnung
ĠB ade
Ġz Ã¤hlte
ĠH ess
ĠH alt
Ġse a
Ġex ter
ren ce
Ġ15 00
Ġgef ert
ĠNutz er
gestell te
G et
i ang
Î ±
ar ischer
ĠG ipfel
Ġal one
Ġre v
Ġverpflich tet
m or
as i
ĠL yr
ass ung
qu ently
ĠAl te
ob el
ace ae
ĠNational mannschaft
Ġcour ses
Ġclass es
ĠBrÃ¼ cken
produ zent
Ġtro cken
Ġrun s
ĠTab ellen
Zw ischen
S ein
re me
ĠM i
ĠK ent
ĠK abin
ĠJ enn
Ġan zu
ĠSt ol
ess in
ib l
ru der
ĠPf ad
Ġerw orben
198 9
Ġmov ement
weis ung
ĠInstitut s
ĠjÃ¼n g
ĠContin ue
n itten
ĠS af
al i
ĠB em
sch irm
em an
iv a
Ġver Ã¤ndert
Ġr ules
ph ase
ĠGo vernment
Ġsl ight
fre und
seit ig
B en
r asch
Ġge tragen
ĠO der
ĠSp itz
part ments
Ġverst orben
Ġrelations hips
Ġmittler en
Ehemal ige
ĠBist um
ĠIh rem
A kt
R o
c ause
in u
Ġa wesome
ĠF els
Ġc ategory
ĠSt unde
Ġgen ug
Sie g
Ġpl enty
ĠOff en
ĠLei den
Ġbr ings
ĠDo ug
wor ten
ĠMil ch
ĠDenkmal schutz
rond iss
F ahr
O D
ĠM ind
ĠM use
schaf fen
Ġ18 00
alt y
Ġfl u
ĠMein ung
Ñ ĥ
ie ht
Ġm Ã¼ndet
ĠA ction
ĠB aby
ut ch
ĠI ran
ĠU RL
Ġloc ations
Ġ187 5
ĠAlb recht
jÃ¤hr iger
Ġdre am
ĠEing abe
ĠPrinz ip
ĠBasket ball
us en
ĠB am
Ġh aven
ĠL or
ĠL ady
Ġr at
ĠAn gabe
ĠVerb reitung
leg ant
Ġinc ome
Ġengine ering
ã ģ
ĠB Ã¶r
el ine
st um
Ġl esen
Ġ9 5
Ġpla ced
Ã¡ s
Ġbegann en
ĠlÃ¤ uft
Ġbisher igen
Ġverst arb
Con tent
ĠRost ock
re te
Ġp ull
and e
ik as
ik ations
ag ra
ĠPro pert
Ġus w
ĠKomp osition
ĠDon ald
ĠHor st
Ġcompar ed
3 00
J ohn
b ay
un ted
le ute
Ġm ental
sch iffe
Ġg rÃ¼
ĠSch aden
be am
ĠAus gang
teil te
fol genden
Ġdort igen
ĠAnt wort
ĠmÃ¶glich erweise
Ġverkauf te
ĠErfahr ung
Ġnumer ous
Ġfant astic
W as
in ks
ph ia
Ġ5 8
ĠSchw ier
ĠRes erve
ĠGott fried
ĠEis hockeyspieler
ĠunabhÃ¤ng ig
n ab
n ight
ĠBer nd
Ġvisit ors
Ġgelegen e
ĠGesprÃ¤ ch
J ust
P eter
T od
W el
p aar
Ġ ĠĊ
Ġw ire
Ġb itte
Ġb illion
ĠAn im
19 18
Ġqu er
yste men
Ġadd ing
ĠJu an
ĠPl Ã¤tze
gor ith
Ġengl ische
Ġ Ã¶rt
Ġw under
Ġm ail
ĠC EO
Ġden k
Ġan geschlossen
Ġver teid
ĠRe fer
Ġ9 9
Ġmin ute
med izin
gra de
go ing
Ġbelie bt
Ġoper ations
mot or
Ġbras ilian
I F
t al
Ġm ilitary
ĠA L
Ġp air
Ġ( ;
ĠF ield
ist rÃ¤ger
ĠV inc
hen den
ign ed
alt ar
ĠSte phen
ĠWerk en
Ġreal ity
sw ald
prÃ¤ senz
sprÃ¼n glich
Ġinsp ired
Ġerforder lich
F ol
Ġs ter
un es
el en
ĠE arl
ĠN R
ĠN at
zeit schrift
ĠGer Ã¤te
199 3
Ġpat ient
ĠBesch Ã¤ft
iar den
ĠAth en
B u
ĠB och
ĠL isten
ĠU se
ien cy
ip es
Ġch at
Ġapp l
ĠJohn son
Ġcomb ination
ĠAre a
Sep tember
j u
an th
Ã¤ fte
ĠF ur
ĠF Ã¼nf
ĠK amera
ĠR T
Ã¶ ck
Ġk os
Ġge legentlich
ĠSe en
ĠAb out
rat ing
Ġstatt finden
Land kreis
) -
l iteratur
re ht
Ġb ayer
st ritten
ĠAr rondiss
Ã¤r ten
ĠWe il
ock en
Ġob serv
ĠFe hl
ĠRo hr
Ġsur pr
ĠInternational e
Ġcor porate
Ġsong s
Ġ( ).
ĠV it
Ġe arth
ver treter
Ġsp ect
Ġsp read
ĠTh ank
zen ten
app y
ĠHand lung
Ġfo otball
Ġkomp lex
Ġindustr ial
ĠMik ro
e ister
s ite
ĠD rag
Ġh Ã¶ren
ĠH amm
Ġer l
ĠSt ill
Ã¤t t
geb lich
out s
Ġspe zial
wor fen
Ġbra in
Ġkanad ischer
ĠK Ã¤
Ġc art
Ġc loud
rÃ¤ cht
alen der
ĠEis hockey
National mannschaft
Ġbal ance
Ġpromov iert
s dorf
ĠM ut
ier end
ĠVer tra
ger y
Ġ6 2
ĠspÃ¤ter e
Ġra in
Ġgu y
Ġval id
Ġtre ten
besch reibung
Ġspeziel l
g ler
w ith
ic us
ĠMar burg
ĠTra g
ĠFrank furter
ĠVerb esser
Ġcommun ities
Ġopen ed
Ġexist ieren
b ody
c ore
p id
in stitut
ĠD og
ĠK Ã¶n
Ġer b
ĠAn forderungen
Ġ5 9
gesch Ã¤ft
Ġknow s
Ġersch einen
ĠMag n
Ġpass ed
Ġlar ger
Ġcontra ct
ie ten
Ġs up
ĠM Ã¼hl
Ġde als
esch oss
Ġch anging
me ter
ĠAuf nahmen
ĠSk y
Ġ187 2
Ġhappen ed
Ġrom ant
y o
Â ³
Ä Ļ
Ġt aste
Ġb rief
ĠT ake
ĠG ouverneur
Ġc overs
sch ild
ĠC H
Ġal tern
ver zeichnis
Ġbet roffen
ĠkÃ¶n ig
ĠBundes wehr
Ġ188 1
Ġ186 6
Ġoper ating
Ph il
Ġbein hal
R ock
ĠM inder
lan k
Ġges prochen
ĠBo ot
ĠHo tels
Ġeinge tragen
ĠMass achusetts
Ġinde pendent
Ġgre ater
Ġmaint ain
ĠEngine ering
ĠEns emble
k op
ch a
ar isch
ĠB alt
ra f
Ġdes igner
Ġfor ce
auf trag
Ġdr iver
kn own
bÃ¼rger meister
Ġzuf olge
M aler
v as
v inz
Ġh off
ĠThe atre
ĠCh am
ĠAb t
ĠAb st
ĠsÃ¼d Ã¶stlich
ĠPre ise
Ġnational e
Ġbeh aup
Q ual
k as
Ġd ank
ie ck
Ġin nen
Ġm ut
Ġm einen
ĠG allery
ĠN az
ĠAl ters
Ġum fasste
pt on
arn o
arr iage
199 2
Ġrem ove
ĠSam uel
ĠkÃ¶nn ten
deck ung
Ġhinz uge
Ġing red
âĦ ¢
ed ig
ĠN ote
Ġse eing
ive au
ĠSie gen
ĠLe ute
Ġen able
ĠJuni or
ĠDem oc
Ġtalk ing
H inter
k Ã¶nig
ĠM iddle
ĠP av
ĠT rom
ic ans
Ġg ain
ĠVer eine
ĠSouth ern
ĠSec urity
ĠVerÃ¶ffentlich ungen
ĠGrÃ¼ nen
Ġadvant age
v ens
us se
ĠG a
and o
ik es
ĠRe f
ĠSe hen
lass ung
Ġges te
ĠEurop as
opp elt
ĠX X
Ġ188 2
ĠBi ograph
lÃ¤nd ische
ĠTour ismus
ĠCla ud
antas y
ĠKup fer
g in
r ale
Ġb on
Ġf at
ĠD ynam
Ġ( ),
Ġdie d
ult an
ĠCor poration
ĠPo int
Ġcent re
ĠAbgeord neter
l ust
ĠE xt
ĠH als
uf er
ĠN avy
end el
Ġwir ken
ĠNor mal
mÃ¤ÃŁ ige
ĠAlt ar
Ġfact ors
ĠerhÃ¤lt lich
ĠTay lor
ĠGiov anni
K an
g ot
h ops
an teil
men d
ap h
sen der
Ġ6 3
ĠRo ute
on te
ĠG ab
ĠH op
ĠO ze
ĠAb stand
ĠGroÃŁ teil
ĠSc ot
Ġinc or
Ġpop ulation
Ġwes halb
Ġveh icles
Ġve get
F amilie
H T
b Ã¼t
n ieder
eb ens
ell es
ĠBe hÃ¶rden
Ġse ctor
Ġwir kt
iz er
ĠReg ionen
imm ungen
oh ol
Ġdire ction
Ġpost s
haupt stadt
Ġdist ance
ĠPhys ik
Ġaud ience
ĠBrun o
Ġpaint ing
Nov ember
f un
u is
ĠS amen
us alem
ĠAn f
ac o
fin der
St iftung
Ġfav our
ĠFass ung
adel phia
ĠNiederland en
Ġwebs ites
n or
Ġs inn
ĠS ul
ĠF abrik
ĠH Ã¼
ĠSt imme
Ġr ub
ĠRe v
ĠEr m
ger Ã¤t
Ġent schieden
The y
Ġ6 8
ĠEl iz
ĠÃ¤lt esten
J uli
ĠW ellen
ĠV i
ĠV ietnam
Ġver n
ver teid
Ġam t
Ġum fass
ĠOr ten
Ġange zeigt
ĠGesund heits
feren ces
Ġd ein
ur ies
ĠF a
ĠI ts
ĠW ales
ĠJ ord
est ic
Ġpro file
Ġad just
ĠWelt meister
ĠEx ec
ĠGemeinde gebiet
ect or
Ġele ments
k ul
Ġab gesch
ap est
fen se
ĠNach folge
Ġ6 6
ĠUnivers itÃ¤ten
pf ul
ĠBr ian
ĠWil son
Ġ188 4
ĠEinwohner zahl
ĠMiss a
S he
Ġun its
ĠBe f
Ġcont ain
Ġbo ught
ĠDes halb
Ġ187 3
Ġkeep ing
Ġlight ing
T ube
p ra
r us
s ein
u ation
ĠA venue
Ġis lam
ĠVer zeichnis
rat h
Ġmehr erer
Ġ7 2
ital ien
Ġfl ight
ĠCl ick
Ã¼nd en
Ne u
ÅĤ aw
Ġvol unte
ĠMaterial ien
as is
ĠB ret
ĠH aupts
Ġst ick
ĠEr ic
ges ellschaften
fe uer
Ġsh ipping
ĠCo ver
Ã¼t ten
ĠOn ce
umm ern
gebie ten
Z eich
c les
g i
Ġl auf
Ġauf treten
ag ers
sp art
ĠRe isen
Ġ188 7
ĠPer formance
ĠTem plate
bed ingt
Ġview ed
Par ameter
W ill
k w
v arian
Ġa im
Ġs ample
Ġc e
ĠW Ã¤r
lich em
sp iegel
av or
ĠGes ell
ĠNor wegen
Ġac qu
ĠAs ia
kauf t
ĠAir port
ĠCanad ian
g s
Ġt rop
ĠW art
ĠR un
Ġbe ant
rÃ¼ ckt
Ġacc ident
Ġrequ ires
ĠKÃ¼ ste
ĠEber hard
c or
ĠS oll
iz ist
Ġgo vern
Ġrec ords
ĠTer r
Ġprocess es
Ġgener ally
ĠDi Ã¶z
Ġcap acity
Ġport ugies
ĠSec ond
ĠBrun nen
F il
W ien
b n
z ens
Ð ²
or chester
ĠB iele
Ġthe oret
ig ers
ĠK ost
Ġr u
ĠEr furt
ap os
ĠMark e
Ġ186 8
ĠKo ordin
kap elle
ĠSzen e
ĠLeichtathlet ik
K Ã¶nig
U L
u i
re ten
ĠM Ã©
ĠL ike
ast rop
ss el
lan ge
ĠFor mat
ĠKl ima
Ġbesch lossen
ĠNieder Ã¶sterreich
Ġpolit isch
Ġsex ual
ĠGleich zeitig
Ġupd ated
Ġeconom y
ĠerhÃ¶ ht
Ġb urn
Ġn ennen
ĠJ ungen
qu elle
ia c
Ġum ge
ĠLe o
Ġte acher
ĠBl ues
ĠHoch schul
ĠJe w
Ġfig ure
ĠCharl otte
Erster wÃ¤hnung
E W
m ans
Ġd ance
ĠM etz
ĠK urfÃ¼r
ĠL uther
od a
ĠIm per
Ġgleich e
sol ven
ĠGeschÃ¤fts fÃ¼hrer
Ġbestehen de
ĠAngeb ote
ĠSchlag zeug
ĠKard inal
Ġfem ale
K unst
M at
c omp
or ney
ĠG ot
ĠR as
ĠR acing
ĠO R
est and
ass au
ĠFran ces
ĠMÃ¼n chner
rech ung
Ġopt ional
ĠAutor in
Ġzeit weise
ĠQue en
C A
D ur
P at
k B
ĠM ix
ĠF ore
ĠW arn
ei he
Ġle ider
ĠMin ute
Ġlaw s
Ġzie ht
ĠProt est
Ġmem ory
lieder ung
ĠImmobil ien
k ov
ĠP az
ĠK ub
ĠR ie
ei ro
Ġle aders
Ġapp ar
ĠMod elle
ĠOp unt
Ġkathol ische
ĠVarian te
ĠBened ikt
U p
] ,
Ġs it
Ġf uck
ic ians
Ġyo uth
ĠAn st
tern al
ĠGem ark
ĠGesch mack
ĠUm setzung
ĠSchiff s
L o
f iel
z ert
z usch
Ġ ice
ĠV ul
Ġk Ã¤mp
hl on
Ġum fassen
Ġsh ip
ĠPr ix
ĠMus lim
Sch ule
ĠGrund lagen
ĠCl ark
Ġtrans form
aly t
ĠschlieÃŁ t
Ġwalk ing
ĠBres lau
an bul
ĠT ransp
ĠH ong
Ġvor gestellt
ile t
ĠWe ek
ma ÃŁen
ĠHil fs
Ġklein es
Ġpract ices
Ġfocus ed
bro chen
Ġdeter mine
ĠGÃ¼n ther
at ische
ach es
Ġpart ies
ĠMin i
ĠProdu zent
Ġeff orts
Ġbef Ã¶rdert
Ġtrat en
Ġlearn ed
Ġoffen en
isc ons
far be
itar re
Jahrhund erts
ĠNaturschutz gebiet
ĠMail and
A pril
F est
M P
b ein
v et
Ġt ree
ĠA ccess
ĠB alk
ĠM atch
ro ph
isch t
Ġl ernen
art ier
19 80
ungs gebiet
Ġwe isen
ĠGe werk
oz Ã¤n
Ġverste hen
ĠEntfern ung
er te
Ġver gangenen
ĠEin t
be cken
Ã¼ck en
igkeit s
Ġstor es
ĠEntste hung
innes ota
B uch
p ap
Â ´
re iter
ĠÃ¼ber w
Ġhier bei
Ge ografie
Ġ188 6
ĠGeorg ia
ĠBern ard
herr schaft
ĠpersÃ¶n lichen
Fra uen
in str
Ġc ells
amil ton
ipp s
Ġverw and
por ts
ĠKap itel
Ġclos ed
ĠDort mund
ĠKan al
Ġorganis iert
L auf
in tend
es a
Ġb auen
ĠB rad
ĠR ober
we ight
ap es
licher weise
Ch ar
ĠRu hr
Ġsw itch
Ġauth ent
ĠMun icip
Ġsus p
Ġ </
ĠM obil
ĠD al
ĠG ib
ĠNe ur
Ġbeg leitet
ĠBl Ã¤tter
ĠSÃ¼d west
Pro zent
Ġbef ind
ĠVerm Ã¶gen
Ġdunk el
ĠBras ilien
o ul
Ġa gency
re ffen
ĠG ross
Ġver anst
Ġco unter
ĠUnter richt
kehr t
ĠDorf es
ĠTem pel
Ġoper ation
Ġaccess ories
ĠZus atz
Ġcomprehens ive
H i
Ġm ist
ĠM ember
ĠF ein
od ox
ĠAr g
ĠMe chan
zeich nete
kl ar
stit ute
Ġheraus gegeben
On line
J Ã¤hr
V I
o ted
r un
w eiten
Ġs ustain
sch le
ĠH agen
ĠL ock
ic ian
ĠC A
ĠC ob
ier mark
ĠSch mer
aus bildung
ret ung
ĠUnter schied
Ġber Ã¼cksicht
ilome tern
ĠAmts zeit
ĠendgÃ¼lt ig
ĠGriechen land
o es
w Ã¼rd
Ġin stitut
ĠD ollar
st reit
ĠF ast
ĠL ED
ĠC oll
Ġl iber
Ġpro test
Ġle gend
ĠAl ph
formation en
Ġconne cted
Ġcele br
Ġsicht bar
Ġa th
ĠD y
ig i
ĠAn alyse
ĠEr richtung
ss ystem
utz ung
ĠReg iment
Ġeigen er
Ġ187 6
Ġsozial e
ĠPenn sylvania
Ġleit et
o ÃŁen
p her
r ical
or ganis
ĠP ur
âĢ ¢
ĠH ang
em burg
ĠSt ich
Ġsp ons
ĠBe fehl
Ġ18 40
me te
ac ter
Ġgel b
verein igung
ĠOl iver
ĠRol and
O G
d on
g Ã¤ng
im on
ĠH T
ĠN iger
ĠOber flÃ¤che
Ġag ree
vers icherung
Ġfac ility
Ġans Ã¤ss
ĠGebie ten
Ġadmin istrat
ĠHÃ¶ch st
k ar
er ie
Ġs hel
ĠW itten
Ġex change
Ġdo ub
Ġakt iven
Ġ186 9
Ġshow ing
ĠColle ction
Ġober halb
Wer degang
D ata
t y
Ġd inner
ig ration
ĠE mer
Ġde te
ĠAus stattung
Ġsh ower
Ġbefand en
ĠNiederland e
Ġapprox imately
F r
M ag
a ver
c os
d atum
Ġa st
Ġl ights
ik ing
lin s
ĠBe geg
lie gt
rit ts
Ġapp oint
ĠLin den
Ġrep rÃ¤sent
hers teller
ĠprÃ¤sent iert
i op
ĠS z
Ġc ore
Ġge zogen
Ġst yl
Ġsch lecht
Ġbek ommt
Ġhel pful
lex ikon
ĠMet al
ĠgrÃ¶ÃŁ er
ĠNatur al
ruct ure
ĠKais ers
Fried rich
Ġt ask
ĠS ed
he ater
Ġh ieÃŁ
Ġen han
Ġdo ors
Ġstud io
sche f
minister iums
Mus iker
Ġexpert ise
ĠAutob ahn
l s
ĠB rie
Ġg allery
ĠAn z
Ġart icles
ĠLie b
Ġmov ies
abr iel
ĠKÃ¶l ner
ĠJapan ese
Ġamer ikanische
Ġtest ing
ĠSzen en
ĠDir igent
Ġsatis f
ĠErweiter ung
tegra ted
Ġl ose
ges prochen
Ġke pt
Ġda ÃŁ
Ġspe ak
Film schauspieler
Ġzeit genÃ¶ss
ĠHit ler
M Ã¼n
l itz
ĠB urn
ĠD ich
ĠD ampf
ĠL och
ot ic
Ġge Ã¤ndert
ĠLe wis
unkt ions
gÃ¤n glich
Ġkor re
kÃ¼rz ung
w ird
Ġf rem
Ġc alls
ĠL ed
Ã¼r f
ĠIn halte
ĠVer wand
ste ine
Ġum gebaut
ail and
int age
Or ts
ĠMot iv
Ġ186 1
Ġaut om
Ġattem pt
B I
Ġd Ã¼n
ie bel
Ġs orgen
Ġc ities
ĠL izenz
ic i
Ã¶n t
ĠAm b
Ġtechn ische
ĠPla ce
ĠSchn itt
ĠCast le
Ġlern te
Ġdeta iled
an ch
ĠA cker
Ġein deut
Ġis land
ĠÃ¼ber setzt
our i
ĠTr in
ĠOb last
ĠDar aufhin
Ġend lich
Ġ186 4
Film titel
Ġcommit ted
g ung
Ġs ister
ist ance
op Ã¤d
ug oslaw
Ġsp anischer
iz ona
Ġ6 1
Ġfe aturing
ĠCo ast
Ġgeb lieben
Ġverb rachte
Ġaut o
Ġnord Ã¶stlich
Ġaud io
ĠModer ne
Ġreli able
rÃ¼st ung
K W
O p
S an
g age
ĠB ag
ĠP her
ĠG Ã¼
kt oren
ĠSch ild
Ġver tra
ĠFor ts
ingen ieur
Ġdis app
ĠFre ist
ĠBar ock
Ġinst ant
mÃ¤ÃŁ igen
Ġpract ical
Ġaff ect
Ġgeboren e
' ,
Ġf ederal
ĠA x
ĠB ah
Ġbe zieht
op her
tell ers
Ġwas te
Ġman aged
Ġfre ie
Ġstar ts
ĠDav is
Ġest im
ĠGed enk
ĠTok io
h Ã¼ter
ĠM D
am o
ĠO ster
ĠIn sp
Ġad apt
ett i
ĠMill iarden
ĠfÃ¼nf ten
Ġwei ÃŁen
Ġcond u
Ġbestand en
Ġvorhand enen
ĠEth n
ĠNikol aus
e ist
it iat
ĠM obile
am ts
ĠR ess
ĠL angen
ĠVer g
ĠEin en
ĠGe legen
ĠBes onders
Ġklein eren
ifiz ierung
Ġvisit or
Ġjapan ische
ĠAng st
ĠGÃ¼n ter
Ġpromov ierte
o ir
È Ļ
ĠS itze
re land
ste chnik
ĠGe werbe
Ġserv ing
ĠBes ter
Ġdamal ige
Ġbus y
iscons in
W E
o or
w ein
en te
ĠH ild
Ġbe comes
ĠSt reich
ĠVer n
... ]
ĠKl ub
ĠFre itag
ĠAut hor
ĠKap ital
ĠBre mer
Ġmat hemat
Ġheil igen
F o
ur ger
ĠB uck
ĠP ont
Ġh arm
og a
ĠSp Ã¤t
Ġse eking
pro jekt
ĠGra ph
Ġact ual
ĠKomp onisten
ĠBed arf
Ġzentr alen
ĠZent imeter
g roÃŁ
Ī Ĵ
gen ossen
ak on
ĠEr ster
be zeichnung
tern oon
pr int
Ġpr incip
ĠGen e
ĠGroÃŁ herzog
Ġteil nehmen
ĠBuch staben
193 3
Ġpark ing
ĠWÃ¶r ter
W or
u ben
ĠT ho
ĠK oll
ĠL okal
ab schnitt
Ġsch aff
ok er
ĠVor bild
irt y
ĠHand werk
vers orgung
Ġspec ies
Ġabsol utely
Ġprepar ed
Ġunivers ity
ĠChild ren
Ġcompon ents
A cc
B M
S E
W ird
Ġp urs
ĠT am
ĠK Z
ĠSch ne
âĢľ ),
ĠBer ge
ĠNach wuchs
rat or
ĠKl osters
Ġcre am
ĠRep rÃ¤sentanten
Ġchar akter
ĠMathemat iker
Ġfertig gestellt
Ġverwende te
ĠRena issance
P e
or ation
un sten
ĠB enn
Ġc ivil
ĠC her
per iode
Ġ7 00
Ġerreich ten
Ġev idence
ĠHa ar
ĠJer usalem
ĠHoll and
k al
n ik
ĠM Ã¼hle
ĠD E
Ġz ul
ĠR ies
ĠZ er
Ġver boten
op ter
Ġr ide
ĠSp eicher
Ġsch Ã¶ne
mal en
zw ei
Ġinst alled
ĠschlieÃŁ en
ĠAuss age
ĠMaler ei
Ġenjoy ed
stant in
Ġteach ers
ĠLoc arno
ĠRog er
C up
M en
n s
Ġd okument
or ter
ĠS yl
ĠP anzer
ĠK ul
ĠR up
ach s
ĠO m
Ġle aves
Ġvers etzt
Ġhin ein
Ġjoin ed
una tely
Schwei zer
iÃ¨ re
Ġsuit able
Ġanim als
C I
F B
on ne
Ġs elling
al ition
re ll
re pr
ĠB arn
ĠD iam
Ġein heit
ĠF our
Ġan lÃ¤sslich
Ġst Ã¤rker
Ġj o
che ck
Ġar range
Ġgew Ã¼n
ĠSil ver
Ġop in
ĠhÃ¶her en
B rite
p in
ĠB ath
Ġp ush
ĠW upp
ĠR ats
ĠSch ei
ĠVer w
imm ing
ĠAnd ers
Ġbreit en
maÃŁ nahmen
Ġextens ive
E very
R ed
d el
k at
ol ph
ĠH P
ic z
um a
ul ations
Ġre ference
lan ze
Ġdo ctor
ĠBes onder
Ġgu est
Ġworld wide
ĠOp ern
Ġexer cise
S chn
T E
Ġer geben
Ġl ibrary
ĠV ent
iz ierte
ast ik
Ġper haps
Ġlang sam
Ġdefin iert
ĠOrganis ationen
Ġconven ient
B ay
H el
Z e
es heim
Ġo d
Ġh ast
ra hlt
ĠW rit
ot ton
Ġ18 78
ungs entwicklung
Ġ8 8
ĠEurop Ã¤ische
Ġeduc ational
ĠWissenschaft ler
ĠniederlÃ¤nd ischer
D u
U nd
v ar
Ġf arb
Ġe hren
ĠCh ance
arch ie
Ġeinfach en
ĠCor ps
ĠZe hn
Ġenvironment al
ĠMex ico
/ >
} .
Ġa ware
ĠB ein
Ã¤ mm
ĠM uss
Ġc up
ĠJ am
od ge
ĠThe ir
arb y
Ġger iet
ĠSer ge
Ġeinfach e
Ġsex y
Ġrestaur ants
Ġnov el
ĠEliz abeth
E nde
Ġt ickets
ĠL yn
ach ter
ĠN am
la y
ind ing
sp latz
ĠTh or
opp ed
ĠAmer ika
Ġmed ium
Ġ188 3
ĠWahl en
deutsch land
Ġsmall er
ĠSen ior
ĠEner gy
Ġmein em
ĠKauf mann
Komp onist
ĠÄ Į
ĠArrondiss ement
Ã¼ h
Ã¤ le
Ġnach halt
ĠEin er
be hÃ¶rde
ĠEs c
Ġhand elte
ĠTer ror
ifik ations
ĠPeters burg
T ro
st ers
Ġc ry
ĠL ad
Ġer ror
Ġan fangs
if ff
men ge
Ġzum eist
Ġte en
St ar
ĠBau er
De zember
ĠKr one
Ġcontin ues
Ġdoc uments
Ġinde x
Pr iv
ĠPlÃ¤ ne
T itel
i ors
ĠB rem
ĠP ad
Ġp latz
auf nahmen
ack s
ĠFor der
Ġsol cher
Ġwicht iger
Ġwatch ing
ĠMeer es
Ġassist ance
ĠVen edig
Ġbenachbar ten
ĠBiele feld
c s
ĠS A
ĠR av
Ġst one
Ġbes etz
ĠHe er
ock et
Ġwork ers
ĠBr ust
198 7
ĠursprÃ¼n gliche
fÃ¤ll en
ĀĀĀĀĀĀĀĀĀĀĀĀĀĀĀĀĀĀĀĀĀĀĀĀĀĀĀĀĀĀĀĀĀĀĀĀĀĀĀĀĀĀĀĀĀĀĀĀĀĀĀĀĀĀĀĀĀĀĀĀĀĀĀĀĀĀĀĀĀĀĀĀĀĀĀĀĀĀĀĀĀĀĀĀĀĀĀĀĀĀĀĀĀĀĀĀĀĀĀĀĀĀĀĀĀĀĀĀĀĀĀĀĀĀĀĀĀĀĀĀĀĀĀĀĀĀĀĀ ĀĀĀĀĀĀĀĀĀĀĀĀĀĀĀĀĀĀĀĀĀĀĀĀĀĀĀĀĀĀĀĀĀĀĀĀĀĀĀĀĀĀĀĀĀĀĀĀĀĀĀĀĀĀĀĀĀĀĀĀĀĀĀĀĀĀĀĀĀĀĀĀĀĀĀĀĀĀĀĀĀĀĀĀĀĀĀĀĀĀĀĀĀĀĀĀĀĀĀĀĀĀĀĀĀĀĀĀĀĀĀĀĀĀĀĀĀĀĀĀĀĀĀĀĀĀĀĀ
zust and
Mot or
> ,
u j
im ir
ĠW y
Ġbe coming
ver lauf
Ġis ol
Ġaus gesch
use eland
Ġviel fÃ¤lt
ĠKo operation
Ġvol ume
Ġposit iv
ĠAnh Ã¤nger
S m
Ġb au
Ġf rag
Ġein s
ĠG au
ĠH amilton
ent liche
ĠL an
Ġver ab
Ġ18 15
ant on
auf t
Ġcomp l
Ġfe e
fahr ts
ĠBra un
jahr en
ĠSa al
met hode
ĠAud io
ĠKrim inal
Ġlok alen
mir al
ĠWeib chen
e en
te au
ĠH ad
ĠV f
Ġaus fÃ¼hr
Ġ18 30
In nen
Ġfre uen
ÃŃ o
ĠMag azin
chten stein
vier tel
ĠOs nab
ĠFle isch
Ġerlang te
F ran
n ern
er d
he w
ĠL ein
Ġl i
se y
ĠBe cause
Ġ3 000
19 70
Ġch amp
ens us
ph il
Ġdar stellt
stra fe
Ġra ised
ĠCon gress
ĠGal ax
ĠPots dam
H H
P lan
st yp
ĠT unnel
ĠK Ã¤rn
Ġc row
Ġge legt
ĠZ unÃ¤chst
all iga
Ġfor eign
Ġr ule
ĠAn ge
ĠAl tern
Ġunter gebracht
ĠLe h
ute te
Ã¼t ter
ĠAll en
Ġval ues
Welt meisterschaften
Ġclick ing
ĠRegen sburg
n g
ĠM B
ĠD ark
Ġein gew
ĠP el
et ima
ĠR auch
Ġl abor
ĠSp aÃŁ
Ã¤t zt
Ã¤nd ers
fahr ens
Ġthere fore
ipp er
Ġander es
ĠMinister prÃ¤sident
Y our
ĠP ic
Ġp ul
ĠK ok
ad ow
Ġum stritten
geb oren
Ã© l
gesch lecht
ĠVerb indungen
ĠCon tent
ĠRein hard
Ġsour ces
ĠPher etima
A uss
H am
od ies
Ġi P
ust on
ĠSe a
ĠVerb rauch
198 6
198 8
Ġerrich ten
telligen ce
ĠExec utive
Ã¼ mm
Ġg rÃ¼nd
os ite
Ġam b
Ġlie genden
Ġges ucht
ĠUm fang
ĠPhil adelphia
Ġdan ger
b indung
Ñ ı
ĠT oten
ĠK rÃ¤
ĠE g
ra gt
Ġr ental
ĠAus zeichnungen
ĠBr uch
Ġerw eiterte
Ġgu itar
Ar beit
Ġcr is
ĠRegel n
Ġmar ried
I R
b lock
f as
} ,
ĠS K
im ens
ĠH rsg
ĠIn g
ĠVer stÃ¤nd
ĠAn at
ĠAr gentin
Ġum s
ens es
ond e
Ġlie ÃŁen
amt es
zeug ung
Ġpar ent
Ġgu ess
ĠDo ktor
Ġbrand s
rim in
Ġspecific ally
ĠVerÃ¤nder ungen
ĠMom ent
b ut
d ung
d ner
h ai
Ġf illed
ĠP yr
ĠK ro
ĠW hether
âĢľ -
iz ens
Ġte a
ĠIm age
Ġapp e
ĠÃĸsterreich ischen
ĠPriv ate
ĠVerteid igungs
B ox
E m
h es
Ġm Ã¶glichen
il ot
ĠD M
ĠC hen
Ġk id
Ġcon temporary
ĠNe ck
Ġfe ierte
min a
ĠFr iend
Ġbef est
ikt or
ĠRechts anwalt
ĠDis ziplin
ĠDokument ation
ĠErk rank
ĠWehr macht
ĠDÃ¶r fer
ĠPremier minister
BevÃ¶lker ungsentwicklung
P ersÃ¶nlichkeiten
T R
b ase
is or
re es
ĠB ibel
Ã¤ s
ut ral
ĠN erv
Ġver teilt
ĠAl an
Ġco ast
ĠAd vent
Ġmin or
ĠKreis es
ĠFot ograf
ĠDis ney
Ġestabl ish
ĠMerk male
ĠÃĦnder ungen
ĠAllgemein en
ĠDrit tel
g ard
ĠP iet
ĠRe ut
Ġunter scheidet
Ã¶l z
Ġtr uth
Ġgleich er
ĠReich es
ĠOff iz
ĠMor itz
ĠComm on
Ġdist in
Ġwind ows
Ġmass ive
stud ium
Ġleader ship
leb nis
abet es
ĠergÃ¤n zt
Disk ografie
6 00
L ebens
in ne
st ate
ĠT ool
ĠR y
ĠJ ubil
ĠUm bau
Ġ186 2
Ġcover age
Ġverkauf en
ĠPac ific
O ktober
p es
y ard
Ġd ipl
el be
ĠP as
ion ier
Ġde fe
19 30
reis en
ĠMus ter
ĠÃĦ hn
Ġ187 7
ĠHerr n
fre ie
iller ie
ĠPass ag
ĠGest alt
Ġpan el
Ġtemper ature
ĠAnerk ennung
b ing
u ers
Ġm ort
ĠR it
ĠR af
Ã¶ he
ot ograf
ĠRe kord
ĠDie go
19 14
Ġnot es
ĠHe art
Ġsc ore
arr ier
gÃ¤n z
gebie ts
ĠhÃ¶ here
Ġfa ith
Ġlau tet
H z
K inder
N ode
g reg
w affe
ig ar
ĠF ed
ĠK affe
ber ge
ĠC ommer
ĠZ DF
ip er
elt a
old t
let scher
ĠOrt schaften
Ge org
Ġgl ob
ĠSm all
Ġtradition ellen
ĠSied lungs
ĠEnts p
ĠDenn och
Ġinj ury
ĠLokomot iven
ĠverstÃ¤r kt
Ġacadem ic
- /
P R
w inkel
er z
un fts
Ġin ne
Ã¤ sten
ĠL iv
ĠC irc
ul iert
ĠAl ternative
rit ter
ac ts
form at
amm ern
fol io
ĠMus ical
off s
fr ies
ĠMittel punkt
Ġed ge
athol ic
fort unately
ĠKat alog
ĠNorth ern
pre uÃŁen
aser ne
ĠKommand o
Ġurkund lich
Ġdisk ut
ĠgrundsÃ¤tz lich
g rÃ¤
ĠS ams
Ġf inn
ent wick
ill o
Ġme ant
ĠStud ent
ĠMill er
ĠKn ow
ĠAss istent
Ġ186 5
bereich e
forder t
fÃ¼ll t
ĠEben so
Ġhon est
ĠKolle gen
Ġsqu are
ĠRumÃ¤n ien
s ing
t i
u he
Ġ ).
Ġf unds
ĠD C
ĠD id
st ens
ĠH ave
ĠL ust
um pf
Ġaus gewiesen
Ġj u
Ġcomp la
bar er
ĠAnd erson
wend ungs
ĠHerr scher
Ġgar age
ĠWissen schafts
Ġasp ects
Ġpers p
Ġabger issen
le ide
ĠB ase
ĠI wan
ĠV iz
ĠZ usÃ¤tzlich
Ġst ir
Ġst Ã¤rk
Ġde ck
etz ungen
ĠAuf l
ĠNord amerika
Ġtechn ologies
Ġpol ic
ĠÃĸsterreich s
Ġmen u
st rÃ¤ger
ĠG oth
Ġbe auftra
gen cies
ĠBe aut
ĠMar s
ition en
pro zess
ĠBl umen
ĠÃľber nahme
schie de
Ġbo und
ĠSk ulpt
Ġsur f
scheid ung
Ġlog o
ĠAth let
Ġadvert ising
Ġexcl usive
ĠOpunt ia
on line
ĠT auch
âĢ ¯
ĠW inkel
Ġbe her
ul ate
ik te
ak et
Ġle aving
ĠPol ice
ĠMeister schaften
Ġfun ctions
Ġerfolgreich en
ĠEmp f
ordin ate
Ġprem ium
Ġlaunch ed
er ei
Ġc ultural
kt op
ess a
auf nahme
amp en
ĠGemein sam
uc le
Ã¼nd nis
Ġ186 3
r ian
x id
it age
or ch
ĠS ysteme
ĠF act
ĠE ver
ĠZ iele
Ġde ut
ĠOr igin
ĠUm gang
Ġmost ly
ĠRes te
gesetz ten
ĠVerd ienste
ĠKrank heit
m i
r ische
Ã¶ scht
Ġle hn
Ġad ults
Ġbet reibt
ĠX ML
198 5
Ġbevor zug
ĠPsych ologie
Ġappear s
ĠHir sch
Ġregister ed
B ra
l ik
Ä Ł
Ġs au
ĠB ry
ĠD inge
ig s
ĠT auf
ĠL ov
ver lÃ¤ss
igh ter
ĠReich stag
ĠCom ic
Ġmax imum
aun a
ĠVerl ust
Ġausgew Ã¤hlt
ĠlÃ¶ ste
in ische
is tern
le ts
ĠF la
ĠSt ationen
ĠSch atten
Ġpl ug
ĠRes p
ĠKrieg sende
ĠAnt i
ĠFest ung
Ġerm or
Ġmention ed
v iel
te gie
ar ks
ĠW ik
Ġan sonsten
Ġen ded
ĠMo de
ĠYou Tube
ĠBereich e
ĠVolks zÃ¤hlung
193 9
Ġtrad ing
bra un
ĠKategor ien
Ġcompet itive
ĠAtlant a
Â· Â·
H P
m os
Ġ1 15
ĠR unden
uch er
Ġdem onst
Ġpro min
our cen
ĠPar ks
gew inn
ĠSÃ¼d afrika
ĠWerk statt
Ġredu ziert
Ġzwe ier
ĠKommand eur
Ġallgemein en
Ġzuk Ã¼nft
A ss
Ġdie t
Ġk inder
ĠSp eyer
ap ed
Ġse at
Ġstatt f
ĠIr land
ĠSar ah
Ã¤dagog ik
zep te
m outh
É Ļ
ĠS or
le c
ĠA B
ĠM S
ber uf
Ġk ombin
ab len
ĠVer tre
esse e
Ġphot ography
ĠOl denburg
Ġident ify
Amer ican
Ġkont roll
Ġschl ug
V ert
e per
p ie
Ġn annte
ĠG le
ĠK ino
ĠE va
ĠI ron
ĠW ird
ĠL ok
Ġg ay
ĠN est
Ġy esterday
20 21
ĠAus bildungs
ret ch
ĠFor est
ans ion
gesch Ã¼tz
fahr ten
Ġhin ten
Ã¤nger ung
Ġsub sc
Ġsur vey
ĠTechn ischen
Ġprom ote
ĠEben falls
Ġprevious ly
Ġlux ury
K ap
R ennen
p unkten
y c
ĠD orn
Ġc ir
ĠW alk
Ġdes selben
ho fer
ĠAus schuss
Ġrec ipe
ĠKunst stoff
ĠMill ion
rim inal
ĠEt appe
ĠMult ic
ĠPfer de
ynast ie
L isten
U C
z ed
z lich
ar film
ĠS ummer
Ġm ont
Ġv s
Ġv illage
ol s
Ġz ogen
ei zer
ĠZ ell
Ġse ek
Ġ9 6
aw ay
Ġob vious
Ġsc ale
ĠTr ier
Al t
zw ungen
Ġgelang te
ktr um
ĠJes u
Ġbem erk
Ġpresen ce
ĠSupp ort
Ġaf ternoon
Ġneighbor hood
G A
V om
ĠB ald
im o
ĠR eiter
ĠSt ore
Ġst imm
Ġj ava
rÃ¤ um
me chan
ĠHam mer
Ġcontin ued
ĠunterstÃ¼tz te
Ġill ustr
ĠBesatz ungs
tl ere
vorsitzen der
D is
I E
R oman
Ã ¦
Ġt oll
Ġw inning
ĠA uge
Ġan g
ĠIn stall
Ġr ing
ob jekt
ĠAuf ruf
ile y
lag ert
Ġger inge
ata illon
Ġakt ual
Ġmach ten
Ġdel icious
Ġverl Ã¤ng
ournal ist
ĠSol o
Ġperform ed
Ġstamm te
ĠSpr int
Ġtrotz dem
ĠVerantwort ung
leucht ung
d ra
n ull
Ġt ail
Ġn ine
ĠK ai
Ġe legant
19 75
Ġ7 6
Ġany where
ĠEx press
ĠGer Ã¤t
Ġrem ains
ĠBen j
Ġhistor ical
ĠBad minton
Ġwid mete
ĠVert rieb
Ġintern al
Ġflow ers
E t
p rÃ¤sidenten
s burger
Ġv ent
ĠG abriel
ĠL em
ĠJ ay
th ese
ĠRe aktion
ĠDe leg
Ġent deck
amp e
Ġlie fer
Ġexp ensive
buch autor
Ġtele vision
ĠTown ship
Ġsor gt
ĠVerteid igung
Ġdur fte
f rÃ¼
k ette
Å Ľ
en hagen
ch i
is burg
ĠB ou
Ġ18 49
ok es
ĠMit tler
ren ner
Ġqu iet
stell erin
ĠSpiel klasse
ĠHalb insel
ĠStad ion
ĠPak istan
ĠB orn
ĠM A
Ġnach gewiesen
ult y
ĠAus gaben
ĠDr ama
pos es
Ġern annte
ĠIst anbul
K ey
S ervice
st yle
âĢ ĭ
ĠH af
et ry
ĠAn lass
Ġunter wegs
ite ten
ett ing
Ġmark ets
sw ers
ĠPort al
198 4
Ġhundred s
S ome
c lass
Î ¿
ĠG itarr
ĠE C
we et
ĠVor stands
ĠGeb rauch
ĠBr idge
Ġtr end
ĠPol icy
ĠHa wa
ĠDire kt
Ġdeliver ed
Ġintrodu ced
cycl op
Ġf lag
Ã¼ ch
ĠG on
ĠG reif
ĠJ ens
ow itz
hen de
Ã¶r dern
ĠCh air
Ã© d
man uel
ron en
ĠSta ates
Ã¡ r
ĠAll tag
Ġschw ere
Te il
ĠMat rix
Ġhapp ens
ĠQual itÃ¤ts
Ġcomb ined
ĠKu gel
Ġdat abase
bour ne
writ er
ĠTrain ings
H S
h Ã¤usern
o use
it tel
Ġs izes
Ġm Ã¤cht
ol t
ĠG anz
ĠL Ã¶sungen
Ġre volution
men ted
ĠSp uren
Ġhe ft
Ġsch eiterte
ĠEin zugs
tra ck
ĠAus fÃ¼hrung
ĠSo zi
ĠSk i
ĠÃĦ m
fre ien
Ġvisit ing
Ġlead s
Reg iment
Ġocc asion
Ġthough ts
Ġmajor ity
Ġdiscuss ion
Ġdistr ict
Ġzentr ale
Ġfil ter
Ġschwar zen
B aden
Ġw Ã¼n
us ted
st ufe
ĠP aw
ĠL eder
ĠSt one
Ġver an
sp reis
ru gen
St at
ĠSh ort
Ġ% )
leit en
198 2
ĠFel der
ĠBud apest
" :
A ustr
H A
c ard
on ischen
or um
ĠS ache
Ġm ale
ad i
la ut
Ġver haf
Ġr uh
ĠAn k
ĠEn vironment
Ġet h
bau en
ĠÃľber sicht
ĠÂ ·
Ġbef re
Ein wohner
ĠBra uer
Ġfort an
ĠverfÃ¼ gte
ĠdÃ¼r fte
ĠniederlÃ¤nd ischen
Ġcaus ed
Ġsurround ing
F S
F irst
P osted
W ei
b Ã¤
t ario
in ent
Ġk aiser
Ġge langen
ĠSch au
Ġsch Ã¼tzen
ĠMit be
ĠSe arch
br unnen
ĠKon zentr
ĠKon text
ĠChr isten
ĠMan uel
Ġind ic
ĠOn ly
forder ung
Ġallow ing
ĠpersÃ¶n lich
Ġprepar e
ĠRÃ¶ mer
Ġanerk annt
ĠNomin ierung
repr ene
z it
Ġd az
it as
ĠB arb
ĠL ern
ĠL ange
ĠL uk
ĠVer z
ĠJahr gang
ĠAl though
19 78
ĠEin kauf
ĠMar sch
ĠFl otte
port al
ather ine
Ġprocess ing
Verein igtes
mo der
Ġtot ally
ĠPfar rei
Ġbeinhal tet
B re
H alb
w affen
ch nen
on om
he ber
Ġb rown
Ġn av
ĠK G
ow ers
Ġwh atever
Ġso unds
Ġ6 9
ĠPr ior
tem peratur
Ã¶ff net
Ġange passt
ĠPl ant
Ġgener ation
ĠPrÃ¼ f
ĠTschech ien
Ġbehav ior
htt p
W asser
e ber
ar is
ĠB itte
ĠB BC
ier endes
ĠU d
Ġzu gÃ¤nglich
oh ne
off izier
Ad d
197 1
emb ly
Ġdog s
ĠHei de
ĠRÃ¤ ume
Ġflex ible
# #
n ischen
Ġ iron
in ary
Ġb ike
Ġv ieler
ra ucht
Ġk Ã¼nd
Ġver letzt
amp s
Ġar m
Ġcomp let
ĠPf licht
Deutsch e
Ġsug ar
wechs elt
Ġunters ucht
Ġproduz ierte
a ktionen
Ġt as
ĠB R
ro d
Ġst unning
Ġab hÃ¤ng
ĠOr th
Ġ9 00
Ġet hn
Ġ7 7
ĠEx c
ĠTr ip
Ġerw artet
ĠInter pret
ĠReich en
Auf grund
193 8
Ġwrit er
He ute
Ġmag azine
Ġspeziel le
ĠMÃ¤nn ern
Ġagre ement
ĠPow iat
S owjet
f angen
g ast
j ahre
t op
ĠW ester
ĠR olf
Ã¶ tt
ĠSch icks
ia e
ĠDe finition
our t
rich ts
ĠEx tra
Ġger inger
Ġmo de
ĠFahr rad
Ġshow ed
deutsch er
197 4
ĠSom it
Ġak zept
ĠSchlieÃŁ lich
O B
ã ĥ
ut y
ĠW isconsin
Ġk ick
Ġ6 7
Ġres ource
gesch icht
Ã¤hl er
ĠBl u
rol og
Pro gramm
ĠRu he
ĠFil men
ĠPers pekt
Ġbirth day
sprÃ¼ che
Ġstellvertreten der
Ġingred ients
K lass
] .
r ischen
x x
an alyse
ĠS ac
ĠM all
Ġc ute
ĠH ope
ĠDe ad
Ġex tre
ĠY es
berg s
eld ungen
glieder ung
the ater
ĠPosition en
jew itsch
ĠÃľberg ang
l Ã¶s
as ant
sch ten
Ġge le
ĠAl ben
19 25
ĠEin stellung
ĠBer atung
fe ier
Ġgen annte
Ġgew eiht
ĠAd ler
ins eln
ĠMag azine
hor st
ĠBil dern
ĠRett ungs
Tod ay
F rÃ¼
M ay
y nd
ĠB od
ĠP eking
Ġ( "
ĠG leis
Ġre pe
Ġaus gebaut
sp unkt
lieÃŁ en
ma jor
Ġmach ines
Ġown ed
ĠWer be
lam ent
fil me
ĠverfÃ¼ gen
Ġdiscover ed
Ġsowjet ischen
Ã¤ use
Ġfor mal
gr at
ite kt
entr um
ĠAnd rea
ĠHand ball
ategor ies
197 2
lÃ¤uf e
ĠEmp ire
Ġricht igen
Ġmanufact uring
Ġstrateg ies
ĠSpielt ag
O per
h ance
Ġp m
Ġc able
sch rau
ĠR ainer
Ġne ck
Ġsp ending
19 29
19 44
Ġvor der
ĠBer gen
ĠAuf tritt
ĠMar co
ĠMan chester
Ġ0 1
stit u
ific ations
Ã¨ s
Ġdescrib ed
Ġepis ode
ĠGemark ung
Ã ¯
Ġd oll
Ġs a
Ġm anner
ĠB uk
ĠM ie
ĠM innesota
ĠP age
Ġbe wohn
ĠN ationen
ĠJ etzt
Ġre aders
ĠSch Ã¼l
Ġst arten
ĠAn gelegen
Ġj ener
ĠAr izona
ĠBer ater
ĠĊĊ Ġ
ĠStud ios
Ġfest gelegt
Ġlo ans
Me hr
ĠGold medaille
ĠStÃ¼ck e
ĠBot schaft
des ign
ĠPhot o
O Exception
v ideo
sch les
ĠR au
ĠC ass
ir ts
Ġl aufen
ĠU rauf
Ġzu gelassen
Ġsp ann
19 20
ĠHe y
ĠSchw anz
Ġ7 4
ĠSpiel s
Ã¼l le
Ġval u
Ġbelie b
197 6
ĠFrei will
Ġelect ronic
ĠTher apie
ĠNS DAP
Ġbreak fast
Ġaccomp l
R C
Ä ħ
Ã¼ re
Ġm ine
ĠG n
ĠI reland
Ġto ward
och em
Ġdies mal
rÃ¤ umen
ĠGesch Ã¤ft
sk ar
197 9
Ġtem plate
Ġerk enn
ĠErinner ung
P ass
p oint
Ġm arriage
ĠA uÃŁ
ĠG rupp
ĠK upp
ĠR ick
Ġdurch aus
ĠCh ile
old ing
oth ing
ĠInd ones
ĠBet on
Ġdec ide
dienst kreuz
Ġbuild ings
Ġadv ance
Ġtre es
Ġmiss ing
ĠKandid aten
BÃ¼rger meister
L iter
S onst
S ince
b ist
b ringen
f ic
k ind
Ġw omit
te en
te ine
ĠA ur
ĠB ull
Ã¤ nen
Ġp ure
ĠE ro
ĠR ic
ot ions
sp itze
ĠRe ferenz
ru d
iz za
ĠGe fe
ĠNe ues
ĠLand gemeinde
Ġpr inted
Ġra ise
Ġfre und
Ġabsol ute
Ġrecommen ded
figur ation
Ġwirtschaft liche
Ġstaat lichen
umin ium
ĠAT P
U l
V A
b ett
k ons
in cl
Ġa u
ĠP ick
ĠJ ag
Ġk Ã¼nst
Ġzu gehÃ¶r
we ar
ĠSp irit
Ġle gen
19 50
ip edia
Ġcon text
Ġvor kommen
Ġapp lied
ĠSer b
Ġmin im
ĠHier bei
ĠGraf ik
ĠKol onial
ĠMem orial
ĠmilitÃ¤r ischen
ĠViertel finale
ĠEreign isse
ĠbeschÃ¤d igt
H C
ĠA D
ĠC urr
ĠBe h
tell ungen
Ġbes ucht
Ġvers uchen
ĠSal v
iges etzt
ĠBi ografie
ham mer
zir ke
Ġappear ance
jen igen
ĠMaxim ilian
Ġgefert igt
D atum
J o
ĠK av
ĠW iesen
Ġge h
ĠU SB
ĠSch Ã¤d
ost ol
ian ischen
Ġwor ry
erv ation
Ġgesch ieht
ĠZu cker
Ġerfol gen
Ġdr ivers
Ġsho es
Ġben annte
ĠUr ban
Ġfamil iar
Ġgl Ã¼ck
zy kl
Ġintegr iert
ĠHoff mann
liefer ung
D av
I mp
k k
w irt
Ġh yp
ĠW atch
ill es
end ungen
ru cken
ok us
ĠAr z
ĠMit tw
ĠKl ang
Ġbeste hend
film ung
ĠRu der
ĠHerzog tum
Ġpur poses
ĠpersÃ¶n liche
Ġfeature d
Mich ael
E X
ł Ģ
el ing
ĠM aschine
Ġein gebaut
Ġp ump
ĠSt att
ĠSch we
ĠIn schrift
ĠIn stanz
19 00
Ġac counts
ĠChrist us
ĠSen at
ĠLaw rence
ĠSing ap
ĠBesatz ung
ĠsÃ¤m tliche
B ek
h att
he ben
Ġb attle
ein st
ĠF ans
Ġc red
Ġl agen
19 46
par ks
lo aded
ĠzurÃ¼ck gegeben
Mit tel
Ġmonth ly
ĠKe vin
ĠKons erv
ĠProm otion
Ġverwende ten
Ġbatter y
M C
d ies
Ġp oll
Ġh ire
ĠT irol
ĠF ederal
am ik
ĠK han
ĠH ind
ĠBe cken
ĠNe uer
Ġho uses
ĠĊĠĊ ĠĊĠĊ
ĠRo om
ĠTechn ologie
ĠDis c
anc en
Ġbedeuten de
ĠMÃ¤nn chen
frist ig
beg inn
spar tei
VerÃ¶ffentlich ungen
A uÃŁer
c ers
u hren
ĠG T
um ps
Ġl anger
la f
ste t
ens wert
gel Ã¤nde
Ġro ten
fahr zeuge
Ġdar um
ende te
ble iben
ider s
ĠKomp onenten
ĠBerg bau
ĠIns besondere
ĠRos a
Ġple ased
ĠKath arina
ĠAf ghan
Ġjem and
Ġm oral
Ã¤ ts
ĠL av
Ġe ating
ĠâĢ Ļ
id ays
Ġj ump
se quen
rÃ¤ g
Ġar ts
Ġnoch mals
reat ive
ĠCar los
hel ms
ĠPra kt
Ġricht ige
ĠLeg is
Ġinspir ation
ĠAusstell ungen
ĠFrem d
Ġincred ible
ĠKÃ¼nst lern
Ġcelebra te
T rans
e z
Ġ Ã¤ndern
Ġs um
Ġf uel
ĠK Ã¼hl
ent h
Ġl abel
19 26
Ġen hance
ivers ary
ose x
man ischen
ĠMon ats
Ġfre ige
ager ung
Ġnor m
Ġ: )
196 8
Ġ185 7
ĠExp edition
cep ts
mosph Ã¤re
ĠItal ian
Ã ĥ
or ded
ĠM ul
Ġp ed
um es
Ġk Ã¼nft
gen s
eb au
ĠBau ten
ĠMon uments
Ġstatt dessen
ĠAnt rieb
Ġimport ance
Ġoffen bar
Fernseh film
Ġpresent ation
dar steller
wÃ¼r fe
Ġbeob achtet
Ġkauf te
H ar
f ers
al ia
Ã¤ hne
Ġthe ory
ĠP osten
ĠT s
Ġc utting
ĠI ss
Ã¤n zer
ĠTh ailand
ĠSe gel
ĠAb b
Ġget roffen
ĠÃĸ k
ĠPhys iker
frei heit
Ġausgest rahlt
Ġther apy
c ase
k lin
Â §
ĠS ultan
ein heiten
Ġm outh
Ã¤ fer
ĠM es
ĠD ienste
ĠN ad
ĠJ Ã¤ger
Ġk Ã¼rz
ĠSch rÃ¶
ien ne
Ġab stra
19 28
Ã¤t igkeiten
me yer
Ã¤n glich
Ġ8 3
ĠKon kurrenz
Ġtop ics
ĠParis er
ĠJugend liche
ĠErw Ã¤hnung
ĠStraÃŁen bahn
fÃ¤h ig
ĠKlin ik
ĠRail way
Ġbegrenz t
F ebru
T ER
ĠB auch
ĠM ethod
il den
Ġp utting
ĠF ellow
ent le
Ġan imal
Ġdem on
aus geber
land schaft
igh ted
Ġverb re
orge ous
qual ity
Ġbeeinfl usst
ĠNap ole
Ġa rab
ut ation
ĠH ills
ĠC ann
ir al
Ġun gewÃ¶hn
ĠPr ice
ĠAd resse
pen den
yd ra
Ġsign ed
Ġbring ing
ĠSpe ed
Ġask ing
Ġdeb Ã¼t
Gr und
Kirchen gebÃ¤ude
A ccess
f ix
h y
k anz
in yl
Ġd et
Ġs itting
ĠS ax
ĠK itchen
ĠZ one
Ġro ut
Ġ7 1
ĠFre il
Ġverb lieben
ĠMo ore
ĠVerb ands
Ġherv orge
ĠAben teuer
frast ructure
Ġinstr ument
ĠSehen swÃ¼rdigkeiten
K e
b ring
Ġth row
od ie
gend es
ilit ation
Ġbel ief
lei hen
ĠFo x
Ġhervor ra
ĠÃ¼b lich
Ġrepla cement
n isch
ein richtungen
Ġm ac
ĠM alt
ĠF an
ut ung
ĠW ende
ĠL aus
ĠL iving
ĠJ Ã¶rg
ial en
gesch ichten
ĠFre der
Ġcons istent
sport ler
ĠverÃ¶ffentlich ten
196 2
ĠTre ffen
ĠFer r
Ġsearch ing
Ġangeb racht
Ġkur zer
zus etzen
Ã¼ste t
fÃ¶rm igen
ĠÃ¤lter e
Ġausgeb ildet
ĠThr on
ĠLate in
G C
P A
b undes
Ð ´
ur i
Ġin iti
Ġh Ã¤ngt
sch ritt
ĠR E
ist ungs
ĠSt ipend
Ġre ichen
Ġwar um
hal ter
Ġher um
ĠGes icht
Er zeugt
lic ation
196 5
ĠKaiser reich
Ġperfect ly
ĠJac ques
ĠAdmin istration
Ġgee ig
Ġpolic ies
G l
ie ber
le un
ĠD unk
st Ã¤rke
ro it
ĠP y
Ġth reat
ĠSch nee
ien te
art ikel
rie t
ok ol
ĠDe kan
for ce
ac c
Ġges und
spieler in
ĠBr ut
ĠQu ell
Ġgest artet
Ġgar ant
ĠKind heit
ĠLes er
ĠMotor rad
ĠInnen stadt
Ġemer gency
Ġbege ister
S I
l ach
Ġd eine
it iv
ĠM aus
ĠP ool
ĠE gypt
ĠH at
em en
ber ry
ier bar
ab schluss
ĠZ weig
ĠUn sere
19 19
atur en
ĠKl eine
ash i
Ġmin imum
Ġdel la
196 9
ordin ary
Ġsil ver
wir ken
Ġwirtschaft lichen
ĠAnth ony
ĠHig hl
B as
D ire
ĠS aw
il st
ĠD B
ĠD ig
ĠI gn
ĠR eit
ach el
Ġmy ster
Ġbut ter
Ġapp s
ĠRes idenz
Ġcolle ct
197 7
zÃ¼ gen
Ãĸsterreich er
ĠmilitÃ¤r ische
Ġdistrib ution
ĠGebÃ¤ udes
Ġsym pt
A lex
Ġw Ã¤hlen
un sel
Ġein gest
Ġein erseits
ĠP unk
ĠW rest
Ġg rÃ¼n
ĠN ull
ĠO hr
Ġent worfen
Ġste igen
ĠAnd rÃ©
Ġander erseits
Ġbre ite
197 3
Ġhol te
Ġfit ness
ĠStock holm
ĠHei z
Ġhund ert
Fin ale
ĠKonfl ikt
Ġschaff te
ĠBenj amin
M ore
Ġin folge
Ġf ein
ĠR och
Ġbes uchen
ĠVor stellung
Ġup coming
Ġ8 4
ific ate
Ġbil deten
Ġpass iert
198 3
Ġpriv acy
Ġperfe kt
ĠLeip ziger
ĠHistor ic
eme ister
reu ung
h ome
s Ã¼d
Ġ icon
ĠSch reiben
Ġst yles
Ġne ur
Ã¤t tern
ĠCh a
198 1
ĠSpr ung
Ġaktuell es
Ġverhaf tet
B ook
D enk
F ranzÃ¶s
H ans
Ġd ritt
Ġf ach
ĠW esentlichen
ĠL aden
Ġg ern
ul ated
ĠBe ispiele
Ġcon cl
ĠTh ree
co uver
Ã¤ch te
let ten
Ġra pid
ĠVol ume
Ġtyp ically
hÃ¶ fe
ĠHin weise
ĠCamp us
ĠÃĦr zte
ĠerfÃ¼ll t
Ġdepend ing
Ġmensch lichen
ĠSoph ie
Ġdenk mal
b art
k ol
Ġ3 60
Ġen co
Ġbes ie
ime tern
pro ble
Ġwieder holt
Ġverb esser
ĠFranz osen
ĠTre ffer
Ġbew usst
ĠGrÃ¶ ÃŁen
Ġfield s
Ġinkl usive
B Ã¼
D i
L ast
h ain
i oren
m ade
x y
z ut
ï ¼
or p
or able
ĠD un
ĠF ame
sch ung
ĠL is
ĠC it
Ġan gew
ĠSch re
ĠIn v
19 27
ĠAus sch
amm lungen
Ġlie fern
ĠOber Ã¶sterreich
Ġmus ical
Ġreg istration
ĠGu ard
Ġsign s
Ġconf idence
ĠLehr stuhl
ĠIr ish
Ġvert rieben
Ġwoll ten
Ġevangel ischen
Ġschwed ischen
Ġlif estyle
Ġengag ierte
ĠMÃ¶ bel
ĠGreg or
ĠRaj on
profess or
Î ¹
ĠB row
ĠB atter
ĠG lÃ¤
ĠL az
Ġle tt
Ġ3 50
ĠPr ince
iste te
An gabe
Ġho using
ĠVers orgung
Ġcal cul
ĠMont ag
ĠClass ic
Ġrum Ã¤n
S al
a al
or o
Ġb Ã¼rger
ĠA h
ĠT ai
ĠF uchs
ĠG az
ĠH ugh
Ġpro sp
Ġpro fil
ob i
Ġqu adrat
ĠGeb irg
ĠAnd ere
ĠMo z
Ġger ingen
Ġeff ekt
Ġbekannt esten
193 2
ĠTyp s
ĠRuss ian
Ġfilm s
grenz ung
endo ktor
Ġslight ly
L P
â łĢ
ĠS ort
ĠD afÃ¼r
ĠJ r
all as
op ran
ine a
gl ing
ank a
sh ips
Ġwould n
ĠBut ton
Ġcho ices
ĠStÃ¤d t
war ded
ĠPrem iere
ĠLim ited
ĠPreuÃŁ ischen
ĠFranÃ§ ois
ĠKabin ett
K om
W ahl
m ach
z ucht
ĠL ett
ic als
ĠAl i
Ġgew Ã¶hn
ĠUm feld
Ġgesch Ã¼tzt
Ġcl imate
Ġdec ades
Ġcre ation
ĠRad rennfahrer
ommer ziel
Ġprote cted
Ġmeisten s
ĠSchwar zen
ĠOsnab rÃ¼ck
J ugend
M ain
l uft
n ur
Ġ 00
Ġa kadem
it ate
us ste
ĠG ord
Ġth us
Ġge lesen
ud ing
ĠÃ¼ber gebenen
19 10
ĠBer ger
hand els
Ġ0 9
ĠPal m
Ġ185 6
ĠProfess ional
Ġleg is
Ġged reht
Ġhost ing
ĠQue ens
Ġincreas ing
S en
c enter
z usammen
Ã ī
Ġa ges
ĠT iefe
ĠG ymnas
ĠK Ã¼r
ĠR yan
Ġk illed
Ġdes pite
Ġe gg
la de
ĠVer handlungen
sp rÃ¤sident
19 24
Ġch ron
uss y
fe hlen
rich tet
mÃ¤ cht
ĠVers icherungs
sg ruppe
ĠAt om
ĠZug riff
ament o
Ġreturn ed
Ġcook ing
ĠSym ph
ĠDoug las
k Ã¼
l alom
z ellen
Ġt at
Ġf aster
ĠE val
ut ors
ic ts
ĠN C
tel finale
ĠBr enn
ari at
ategor ie
verb Ã¤nde
ĠAust ausch
ĠGemeinder at
Mart in
b urn
c ons
w Ã¶r
Ġs ac
at ischen
ĠP ict
ĠW Ã¤l
hr ung
ah a
ver letz
ok oll
ĠAus wirkungen
Ġres idential
ĠSchw imm
ĠEx istenz
ĠJun ge
Ġpl Ã¶tz
193 7
Ġsupport ing
196 7
Ġ185 5
Ġbra ucht
Ġkind s
Ġenter tainment
kra ut
wal de
Ġproper ly
Ġtal ent
Ehr ungen
D own
G ener
Ġv ote
sch el
ĠW ars
ĠW under
ach se
ĠSch mal
ap olis
Ġher unter
St a
iker in
Ġ14 0
Ġ13 0
rÃ¤s id
ĠChrist opher
Ã¤nger in
ĠGo ethe
ĠMill imeter
ĠBed Ã¼rf
ĠSieg fried
fÃ¶rm ige
ĠZuf luss
Ġcaus es
Ġfeed back
Ġforder te
F uÃŁ
O ver
or ps
ĠS ke
ĠK ran
Ġst rip
Ġde pos
ĠAuf sichts
Ġar gentin
zeich nen
ual itÃ¤t
ĠVerb reit
Pro jekt
ĠFin ancial
Ã¤tz ung
Ġ185 4
ĠWass ers
ĠErzÃ¤hl ung
Ġdom ain
ĠPian ist
ĠBoch um
Hinter grund
I B
b in
al ters
Ġin vent
ĠB ent
ĠB og
ĠE N
ĠL aub
ĠC ant
ĠV il
ĠO berg
Ġver arbeitet
ĠAn sicht
Ġj oint
bild ungen
ĠBet racht
fel de
196 6
eten z
ĠBul gar
ĠNahr ungs
D am
P M
P ress
T it
g io
ļ Ń
Ġm Ã¶gliche
ĠB apt
ĠW itt
Ġbe it
ĠSch enk
sp h
ib ilities
19 47
cl ing
Ã¶l be
Ġpla ys
lÃ¤ uter
ĠTr ink
Ġkommen den
kan al
Ġmanufact urers
ĠDisk ussion
ĠDemokrat ischen
gewand elt
U M
c ue
d orfer
n isses
Ġa chten
Ġf er
ĠA er
ĠE cke
ĠW i
iv alen
ass te
Ġab gest
ĠZeit schriften
Ġbest immen
Ġdis count
Re zeption
other apie
rue ft
ĠHar vard
ĠTem ple
Ġair port
kn oten
ĠHin weis
ĠBu ilding
ĠbeschÃ¤ft igte
Ġcommit ment
bas is
ĠAcc ording
ĠGirl s
E A
ie u
st ances
ĠP lattform
ĠW at
ĠR ÃŃo
Ġk irch
Ġk onserv
ow o
19 22
ĠDe ath
ĠMa de
Ġgreat est
uck s
Ġ% .
Ġgest alten
196 4
rÃ¤sent ation
ĠÃ¤hn liche
ĠVe gas
lehn ung
Ġsuppl ies
ĠKomment ar
ĠRuh estand
ĠEro ber
F i
O s
g ert
Ġb at
Ġf Ã¼hl
ol id
ĠF as
ĠK ann
ĠL iver
Ġg aben
ĠN AS
Ġl yr
Ġwe aring
Ġcon fl
als o
igh ten
Ġem otional
Ġav ail
ĠBel g
ĠHar ald
Ġocc up
Ġsor gte
Ġconcern s
Ġnied rig
merksam keit
ĠSchott land
E FA
R enn
Ġs ang
Ġw al
Ġf ruit
Ã¤ ck
ĠD ance
ĠT u
ĠL ob
Ġex tend
Ã¤r bt
ian z
ĠSe g
Ġout standing
Ġlie be
Ġbesch loss
Ġeinge gliedert
Ġbro ther
Ġorgan ic
Ġequ ipped
Ġhouse hold
ĠFreund in
ĠEU R
Ġarr ived
Ġposs ibly
ĠFert ig
H il
Ġb undes
ĠF alle
Ġbe zogen
Ġst ars
ne uer
Ġr an
ĠRe par
ĠBe fest
ĠGe fÃ¼hl
ĠWe is
rach ten
ress en
ĠCon f
Ġakt ive
Ġur ban
ĠKont akte
193 4
Ġ185 9
Ġwissenschaft licher
Ã¤chs ische
ĠLÃ¶ wen
Ġzerst Ã¶r
Ġcla ims
ĠPfer d
ĠEnter tainment
ĠPast or
ĠIntegr ation
ĠWÃ¤r me
Ġath let
Acc ording
Ġvalu able
D okument
S aint
l u
Ġt ab
or ough
ĠM au
ĠG ieÃŁen
am ar
ĠR ain
Ġbe zÃ¼glich
ĠV II
Ġver p
ran ten
Ġvor ne
Ġ8 1
ĠAd l
Ġseit her
mat ik
Ġter min
Ġredu z
Ġparticip ants
waren ess
Rel ig
in fo
ĠD uring
ĠT ran
ĠG or
ĠC er
ĠO ption
ĠZ auber
Ġst Ã¤ndig
ĠVer leihung
ĠEr gÃ¤nz
olog ien
chn ungs
ĠUS D
Er stellt
ins ichtlich
Ġbo at
ĠOn tario
ĠKn ochen
iam i
ĠKirchen gemeinde
Ã¨ re
Ġkomp on
Ġ180 6
Welt meister
nehm ung
I K
g ate
ĠS G
Ġf f
Ġf ir
ra ben
ĠC ivil
Ġmit tlere
Ġj ack
ht ml
Ġex amples
ian e
co in
Ġmehr mals
ĠSte iermark
Ġother wise
bach s
Ġbo ys
Ġdire kten
Ġgu ter
Ġreal ize
ĠLie bes
spr uchs
ĠSqu are
ĠEigent Ã¼mer
Ġverbess ern
ĠGelegen heit
J azz
c as
z Ã¤n
in ations
Ġt aus
Ġw alls
st es
Ġn ative
Ġab s
Ġch ain
ens burg
ohn t
stell ungs
elle d
res te
ĠTr ust
Ġgesch lagen
ĠMon ument
stre am
Ġexec utive
Ġuk rain
ĠdebÃ¼t ierte
L og
R ec
Ġt ast
ge h
ĠH eine
em pf
Ġk ennt
Ġj un
19 60
ĠVor teil
Ġ7 3
els on
ĠGr Ã¶n
Ġhier fÃ¼r
Ġletz tlich
ĠAll gemeine
yr ight
Ġopt imal
Ã¤mp fung
ĠMiss ouri
ĠdÃ¤n ischen
ĠAlk ohol
E hren
F eld
h Ã¼tte
m lich
n ord
ar ily
Ġf ly
ĠA cht
ĠC ell
Ġdes k
Ġge laden
ĠSt imm
ver hÃ¤ltnis
ib et
19 12
Ġwe chs
Ġat mosph
Ġman ual
olit an
br onn
ĠfÃ¼hr enden
zahl ung
Ġsur gery
ĠAnt arkt
En g
Ġwei ÃŁe
gef angen
Ġappear ed
Ġspeziel len
ĠJahrzehn ten
ĠColor ado
Ġaccur ate
fir ma
h lich
Ġf oll
Ġder selben
Ġm Ã¼s
ĠB lau
ĠK inos
Ġc aught
ĠC hal
ĠC urt
Ġr are
ap ing
ĠTr io
ĠfrÃ¼ here
Ġrem ote
US A
Ġ185 2
ĠFrÃ¼ hl
ĠVort rag
âłĢ âłĢ
I l
K at
M erk
R eich
m Ã¶gen
ro hr
Ġp asst
ĠK abel
ĠH ahn
Ġbe igesetzt
Ġge he
ĠSch Ã¤den
ĠIn se
ĠRe formation
ĠHe ck
Ġgen et
Ġ7 9
Ġ16 0
Ġ0 8
ipp i
Ġbed ient
Ġfound ed
lÃ¤nd ern
Ġ185 8
190 7
ĠStat istik
oin ted
ĠHigh way
Ġstre am
Ġwichtig ste
ĠTest ament
kathol ische
Ġrespons ibility
ĠjÃ¼d ische
Ġschwar ze
ĠOrch estra
w ass
Ġ rand
ĠF usion
ĠG Ã¶r
im ension
ĠH allen
ck te
ul der
ĠIn haber
ang o
19 23
19 48
ĠSie ge
Ġfe els
Ġbeg ins
Ġpre gn
apt op
Ġbre ath
190 1
Ġschn eller
195 2
ube hÃ¶r
EN T
Ġgesp eichert
Ġupd ates
wh at
ĠKult urg
Ġcloth es
B rand
I st
f i
w id
Ġb ist
Ġm ur
il o
st het
ĠT an
sch i
et ime
and al
ĠBe frei
ĠAl ice
enn zeichnet
amm elt
uk i
hol en
Ġel imin
ĠEhe mann
komp lex
Ġpattern s
D oc
D ivision
P an
b org
r unden
Ġt ight
Ġw ies
ĠS eminar
Ġv ital
ing ers
ĠP ut
ĠP ersÃ¶nlichkeiten
ĠH aup
and in
Ġsp aces
Ġle hrte
ant i
ĠJahr buch
19 40
me ier
Ġour selves
ĠUr sprung
Ġdec isions
ĠDr amat
Ġhistor iques
stag ram
ĠText il
Ġple asure
ĠEv ents
Ġintens iv
Ġfung ierte
ĠUrauf fÃ¼hrung
k Ã¼nstler
Ã¤ ne
ĠD ass
Ġto ugh
ĠJ eder
ĠIn solven
Ġ18 43
Ġvor genommen
fl Ã¼sse
ĠSte el
bo ot
ĠBand s
Ġgel ungen
gra fen
Ġbr ill
Ġentwick elten
Ġlov es
Ġoffic ials
ĠVorsitzen de
Ġchrist lichen
ĠEind ruck
s ub
ĠF DP
ĠH ud
ĠH inz
ĠL ess
ab a
Ġ18 39
ok a
ĠHe x
own ed
ĠNord west
Ġevery day
yl on
leist ungs
ĠnatÃ¼r liche
Ġpoln ische
ĠIntern ets
gesp ielt
ĠKonstru ktion
ĠDist anz
W eiter
Ñ Į
Ġt end
ĠD oc
ĠF A
ĠF iction
ĠE li
ĠC af
Ġan gen
Ġdes ire
ĠO bst
au ben
id i
ĠAl les
Ġch arm
ĠVor bereitung
co hol
Ġad s
imm y
act ions
Ġwel chen
ĠHaupt rolle
Ge gen
uc ted
Ġcle arly
Ġkeep s
kathol ischen
ĠGlo cke
ĠSing les
ĠEvangel ischen
ĠPrÃ¼ fung
ĠKonzer te
ĠFÃ¤h igkeiten
ĠAnz eige
k rank
Ã¤ g
ig sten
ĠK h
ĠK roat
ĠH els
Ġan cient
Ġver folgt
ĠBe wertung
ign on
Ġ0 4
Ġcons umer
Ġcount y
ĠDem onst
Ġhard ware
ĠDi agn
ĠBahnhof s
ĠAc count
Bundes liga
ĠVarian ten
franzÃ¶s isch
Ġperman ent
ĠJord an
a er
f indung
w eiter
Ġs ides
ol ith
ĠG Ã¶t
et on
ĠC av
ĠRe zept
ĠÃ¼ber liefert
ho b
Ġch annel
ĠAuf merksamkeit
rei hen
ĠIt aly
ĠUm satz
hed rale
umb oldt
Ġoffen e
ĠSyn ag
Ġpres ents
Ġarch Ã¤
ĠLoc al
ĠHu bert
ĠSn ow
ĠSum me
Ġcollabor ation
Ġinfluen ce
ĠBundesver dienstkreuz
a ult
t lichen
t ums
ĠP A
ĠP ommern
ĠR ome
Ã¶ ger
Ġan swers
ĠVer leger
Ġr ise
ov iÄĩ
Ġum gewandelt
ĠNe useeland
ĠMa j
org ungs
Ġho tels
ced es
193 6
Ġ185 3
Ġprogram me
ĠWeiter hin
ĠTenn essee
Ġvac ation
ĠVerstÃ¤nd nis
M any
l t
ĠM asse
ĠR in
ĠN ich
ĠJ Ã¼n
Ġk onstru
ĠVer arbeitung
ĠAl f
Ġch osen
Ġfe hlt
ĠGesch lecht
Ġem ph
gew Ã¤ch
zahl t
Ġben utz
Ġgewann en
schein lichkeit
190 4
omet imes
ĠVerl Ã¤ngerung
Ġcabin et
ĠSpan ish
G ymnasium
L ink
Ġv ul
Ã¤ p
ĠC hl
ck ing
Ġge liefert
ĠSt aub
19 21
ĠLe er
ac ious
ph ones
ong o
Al so
ĠHistor ischen
Ġeurop Ã¤ische
ĠMarc us
Ġehren amt
Ġdemon stra
L AN
c iate
Ñ ĭ
ã Ĥ
ĠS ite
Ġo k
Ġer stellen
Ġl iquid
Ã¼r tel
Ġge fe
ĠSch um
ĠSch los
ĠEr be
Ġbei der
Ġle gt
Ġor th
erk raft
Ġinter ests
ĠBi ographie
Ġerfolg ten
ĠTem p
190 5
Ġbra un
Ġinform iert
Ġlic ense
angeb ot
ĠVerbesser ung
a ire
l och
á ¸
ĠS v
Ġf ellow
ne ys
ĠEr hebung
Ġ18 16
Ġte eth
ock e
ron ik
Ġsc re
ĠGu y
ĠDon ner
ask et
Ġleben s
Ġencour age
Ġenth us
sthe orie
ĠReihen folge
ĠKapit Ã¤n
ĠMÃ¤r chen
K ar
r ichtete
it als
ĠR app
Ġg laub
Ġge pf
ĠO S
tel ier
Ġsch Ã¶nen
19 42
Ġall gemeine
ock el
br unn
ĠFre ude
ĠArbeit geber
ĠChrist ine
ĠVers and
Ġmin i
Ġgef Ã¶rdert
ĠSk la
ĠWohn haus
ĠSa tell
ĠWochen ende
Ġfund ing
ĠExper ten
ĠÃĦnder ung
Ġgez Ã¤hlt
K ilometer
Ã¼ tt
Ġv ierte
Ġo s
ĠK lagen
em y
Ġl ived
all o
ere cht
ĠVer k
ĠAr k
Ġunter lag
ren ten
mit tag
ĠUnivers al
ellen ce
Ġtr ends
kehr en
Ġact ions
Ġgef angen
ĠAs ian
ĠFranz isk
Ġnational sozial
ĠFrei herr
gere chnet
Ġfrei will
ĠMult i
Ġeffic iency
ĠBeteil igung
Ġlandsc ape
O V
Ġs ad
ĠT ru
am as
ĠL isa
ĠV illage
ĠJ Ã¼d
Ġst abil
ok u
St ation
Ġzusammen gef
Ġinner en
ole an
Ġbro ken
ĠOl iv
ĠWahr heit
nehm ern
Ġerheb lich
Ġconsum ers
d ien
Ġs essions
Ġm obil
ĠB ucht
Ġv eter
Ġp Content
om on
ĠJ en
est on
ff e
ĠMar sh
Ã© g
Ġ9 2
Ġ9 8
Ġgew id
Ġ8 7
Ġrest lichen
ĠZeich nungen
ĠLu is
ĠIndustr ial
ĠLuz ern
L ook
R ichtung
h aut
p ear
es telle
Ġin fe
le vel
ĠB ond
st ahl
de cke
ĠF itness
ĠG ert
ĠK rÃ¼
Ġl unch
ier re
Ġy ellow
op ath
ĠRe qu
ĠDeutsch es
ink i
ser ien
ĠJan eiro
Ġshe et
Ġehemal s
the t
ival ent
bÃ¼ ro
Ġpurch ased
Ġklass ische
ĠSign al
ĠPlÃ¤ nen
S uper
W ell
f amilien
p Ã¤dagoge
nd orf
ĠB ene
ĠD Ã¼
ĠP ear
ĠT otal
ĠF ile
Ġk ing
Ġauf t
Ġ8 6
amen te
Ġrec orded
An fang
Ġgood s
ĠDr ive
omb ard
Ġkon kre
ĠHow ard
Ġdre imal
fried hof
ĠRegierungs bezirk
Ġintrodu ction
Ġguarante e
Franz ose
ĠFrances co
S ing
T enn
W A
g ies
k ommun
Ġd ates
Ġin tegrated
ĠP ersÃ¶n
iel ler
ĠFl ach
ium ph
Ġ7 8
ĠZe aland
wh ich
ĠerfÃ¼ll en
Ġfunktion iert
M al
T P
ĠD ak
ĠI OException
ĠN FL
19 49
Ġor ders
ens ation
ĠEn cyclop
Ġdar stellen
pro fit
ĠKon stantin
Ġele ction
Ġcar ried
Ġnun mehr
ĠVolks republik
wor tet
ĠRegion alliga
193 5
ias ieger
ĠTro cken
Ġerfolgreich e
Ġcall ing
ĠTur ner
Ġnie mand
ĠerklÃ¤r en
Ġmanufact urer
Ġfinanz iellen
Ġuntersch rieb
Ġfavour ite
ĠabhÃ¤ng ig
M er
S aison
c us
k irch
z ant
Ġd ent
Ġt ells
Ġm useum
ro vers
ĠF RE
Ġg estorben
Ġge fallen
Ġpro t
Ġle isten
Ġunter schieden
ĠGe or
geb Ã¤
ĠAb stieg
ĠNach kriegs
min der
pf lanzen
Ġdis pla
oph on
ĠSÃ¼d ost
ĠFe ier
Ġdire kte
Ġcomm and
Ġed itor
ĠNeu zeit
ĠRuss ia
col n
ĠThÃ¼r inger
ĠIll ustr
Ġerinn ern
ĠCorn el
Ġappoint ment
opÃ¤d ie
H ers
M ont
k ommt
y ou
Ġt a
ur st
ĠB h
ĠK orea
Ġc os
ĠH unde
Ġan grenzen
ĠVer sch
Ġwh om
Ġwill ing
Ġco ach
los igkeit
Ġag gress
Ġsupp orted
ĠMittel meer
ĠWinter spiele
ĠFlor ian
Vor pommern
Ġhei ÃŁen
qual itÃ¤t
Ġadmin istration
ĠAust in
ĠverlÃ¤ng ert
b Ã¶
p iegel
w ords
ã Ģ
Ġt utor
ĠS U
ĠE ag
ĠH us
ĠH ed
Ġbe er
ĠSt Ã¤rke
sp l
ĠSp ark
Ġum gesetzt
ob s
ĠCh i
ĠMar x
Ġ8 2
Ġpre c
Ġerw arten
ĠPer u
wissenschaft lichen
Ġstell ten
zy linder
Ġregular ly
ĠLy on
Ġexpla in
Ġgeplan ten
Ġmaxim ale
olley ball
' .
L uft
N ummer
R om
k ore
Ì Ī
Ġa gencies
Ġt ur
Ġt ests
Ġf ro
ĠM is
ĠG R
Ġre ar
Ġaus drÃ¼ck
Ġsch m
19 43
ĠNe ug
erv ers
az itÃ¤t
imm el
Ġ12 5
reg on
Sie ger
ĠUr teil
Ġspe zif
Ġverl ang
ĠZe ilen
ĠHÃ¶he punkt
Ġident ified
Ġseem ed
ĠZerst Ã¶r
Ġmittelalter lichen
u der
al teten
le ten
Ġ1 18
ig o
ĠG ur
am ann
ĠH enn
ĠH Ã¶l
Ġk Ã¶rper
if est
Ġfor um
ĠAn pass
ĠMar cel
unt ing
ĠStadt gebiet
Ġper mit
Ġdis p
ĠZw eite
stoff en
190 6
Mod ell
pass te
ĠbenÃ¶t igen
yth m
Ġanaly t
ĠBM W
u in
Ġ Ã¶st
Ġs umm
ĠW Ã¼n
and em
Ġst im
hn er
ĠÃ¼ber zeugen
Ġch ocol
hal f
iss a
gew alt
ĠMo on
ĠHoch stift
ĠCl ient
wert ungen
Ġeinge laden
ĠMag d
ĠDaten schutz
196 1
Ġgrow n
ĠFreund schaft
ĠVan couver
Ġzie mlich
ĠBundest ags
Vol ks
Fo otball
ĠWupp ertal
P rÃ¼
m utter
s inn
Ġn Ã¤chst
ra ph
Ġge be
Ġauf merksam
ĠEr klÃ¤rung
Ġj oy
Ġle ichter
ĠÃ¼ber all
rÃ¤ glich
ĠSe kretÃ¤r
ĠAut on
ĠRÃ¼ck tritt
ĠPat ri
wei ÃŁ
ĠSa arb
Ġchar ges
ĠSchm id
Ob ject
ĠnatÃ¼r lichen
Fl ug
Ġparticip ate
Ġerr ichteten
ĠDrei ÃŁig
ĠStruktur en
ĠProgram me
ĠErschein ung
Ġhil ft
K Ã¼nstler
T or
c al
in ch
ĠT ak
ĠG ol
ĠK ader
ra c
ĠL Ã¤nders
Ġg orgeous
Ġr is
ĠAn satz
ok o
ĠAr me
fin det
15 0
ĠInd iana
Nach bar
ĠStand ards
Ġser b
Ġpriv at
Ġappro ved
ĠChem iker
Ġevangel ische
ĠKop enhagen
ĠKandid at
Ġmount ain
Ġconvers ation
ĠAufent halt
Ġbewe gt
Ġeingew eiht
Ġpersp ective
W K
b els
d ale
l isten
v ents
y en
Ġ ==
or ium
Ġp apers
ĠT oy
ĠF oss
ĠF unde
ĠK rÃ¤fte
sch Ã¤d
ra ut
ĠV ene
Ġvon einander
Ġne arby
lie gende
19 13
Ġro ute
Ġ10 1
ĠSpiel ern
ĠJul ia
Ver walt
ĠÃľber blick
ĠHo uston
Ġgel ingt
Ġpolit ischer
druck t
195 7
ĠKommun ikations
ĠFel sen
Ġchallen ging
Ġmess ages
ĠFass ade
feren zen
Ġumfang reiche
ĠInner en
Lin ie
ĠGlauben s
G ed
T ime
V ier
z ing
Ï Ħ
Ġw Ã¤chst
Ġb order
us hed
Ġf Ã¤hrt
ĠP le
ĠR ied
ĠN i
ĠZ eile
aus o
19 41
Ġunter teilt
ign ment
br id
eth yl
Ġag ent
ĠGed icht
ĠBru ce
Ġconf irm
ĠMas ters
abil itÃ¤t
ĠNationalsozial isten
Ġremov ed
Ġeigent liche
Ġcandid ates
ĠPropert y
D ialog
L ud
Z wei
v ements
Ġ ..
Ġ Ã¤nderte
is pr
te ch
Ã¼ pf
st urm
ĠP s
ut a
ĠL ip
ĠC ase
and y
Ġk it
Ġst il
Ġ18 20
nen nung
Ã¼hr t
ĠFl ash
iven ess
Ġmed icine
Ġconf ir
Ġprovider s
Wil helm
ĠArgentin ien
: .
V iew
d ichte
te e
Ġb an
ĠP og
ĠG ift
ĠH ass
ĠSt ark
os c
Ġ18 13
Ġso fern
iz ieren
ho en
Ġad mit
Ġfe es
Ġfe hlen
als ieger
ogra pher
Un garn
ĠOn kel
ĠLandkreis es
ĠDu isburg
190 9
Ġimpro vement
Ġworks hop
ĠFÃ¼hr ungs
Ġsett ings
ĠKÃ¶nigs berg
SS R
ĠEuropameister schaft
Ġeigent lichen
E ben
K ur
W o
in th
Ġs la
Ġs ud
ĠA kten
ĠB utter
ĠB ush
ĠP okal
Ġp un
ĠW ettbe
ĠC B
ĠO range
qu et
ĠEx pl
ĠZw angs
ĠBar th
ĠStre ifen
195 8
ĠDienst leistungen
Ġfact or
ĠPra ct
Ġsuccess fully
Ġautomat ically
ĠAdmin istrat
ommiss ar
ĠnÃ¶t ig
T em
ĠB oth
ĠD ien
st art
ĠG allen
ra it
ber gen
Ġauf w
lin ed
Ġ18 18
ĠDe f
ond a
ĠLand s
mus ter
ĠEl s
Ġfest ge
ĠLin coln
geord neten
195 9
Ġcert ified
Ġlaw yer
Ġverlie f
Mod us
Ġreach ed
UN G
Ġproced ure
Ġausreich end
ĠLiver pool
L aut
S L
W ind
im ental
sch Ã¼tzen
ĠC art
ĠC loud
ĠV irt
Ġdem okrat
Ġaus zu
Ġ18 46
ĠSe ele
lo yd
Ġsh ares
bar ung
ron om
Ġbeg rÃ¼nd
ict ions
Ġausge prÃ¤
Ġentsp ringt
ĠPat ent
west lichen
ĠSÃ¼ ÃŁ
Ġtro uble
ĠNic ol
ĠVize prÃ¤sident
Ġscient ific
A re
p rechen
w ahr
le v
ĠB ug
Ġv ary
ĠE ichen
ĠH Ã¤nde
ĠJ oh
Ġunter stellt
du ate
fe ktur
pro fil
ĠMal ays
ĠDurch fÃ¼hrung
ĠKomp lex
Ġu pper
Ġter ror
Ġfac ing
190 8
ĠCons ult
Ġkrit isiert
Ġmix ed
Ġdest ination
ĠKurfÃ¼r st
N etz
S il
ch ar
al ben
Ġf unny
Ġc erem
ĠW id
ĠL P
ver halten
Ġfor ec
rÃ¤ der
geb ra
Ġus ual
amm ed
mann schaften
Ġber u
Sch utz
Ġcomm ission
leit ungen
room s
193 1
ĠAuss agen
ĠIns urance
fil ter
195 6
ĠDres dner
Ġhold s
Ġempf angen
ĠPublik ationen
ĠOpt im
ĠtÃ¼rk ischen
Ġcloth ing
____ ____
ĠeigenstÃ¤nd ige
ĠÃ¶rt lichen
G H
L ou
g ott
m ers
Ð ¼
Ġa id
al itÃ¤t
ĠD ess
Ġp ink
Ġge leitet
ĠSch uss
Ġst retch
ĠAn bieter
ĠBe cker
Ġ18 47
Ã¼ck t
ĠY or
ong s
ĠSpiel film
akes pear
Sp eichert
Ġ185 1
ĠForsch ungen
ĠSchm uck
Ġsecond s
ES T
ĠBÃ¶ hmen
Ġhon or
Ġprakt isch
How ever
Ġorigin ally
ĠAsp ekte
Ġwhe el
Ġbrow ser
idel ines
ĠmaÃŁ geblich
F iction
H D
o iden
v ie
Ġt ables
an cing
ĠB ody
Ġv oc
ĠM ort
Ġ1 13
ĠF Ã¼
ĠC ry
Ġauf zu
op en
ag entur
ĠRe ktor
ungs ort
ĠHaus halts
ĠDurch schnitts
Ġfest ival
Ġcare fully
190 2
iction ary
fÃ¤l ischen
Ġbere chnet
Ġverhinder t
ĠOpp osition
Ġcit izens
ydra ul
B ot
B ack
F Ã¼gt
k rÃ¤
Ġd icht
ĠS ain
he orie
as ka
ĠD ave
ro b
ten nis
Ġbe at
Ġl ayer
ĠO skar
Ġst ring
ĠAr ena
Ġme at
Ġall eine
ĠAb wehr
Ġbes ter
Ã¤hr ungs
ĠTr ennung
Ġtr ial
ps ych
klÃ¤r t
geord nete
Ġkon zip
ĠBrÃ¼ ssel
Ġresearch ers
Ġless ons
ĠVertrag s
Ġorganis ierte
ĠJob s
Ġcirc um
ĠstÃ¤dt ischen
n Ã¼tz
on c
te ger
ĠF ollow
sch reiben
ra iner
ĠH Ã¤uf
Ġauf s
ĠAn bau
ĠEr werb
Ġ18 45
par tei
lo h
Ġ5 000
ĠUnter k
ied s
ĠPr int
Ġtra il
stre ifen
verb indungen
ĠCla us
Ġinnov ation
ĠpreuÃŁ ischer
ĠDemokrat ie
ĠÃ¤uÃŁer st
Ġgeplan te
ĠVie h
ĠMultic ast
D ate
b ruder
g alerie
ĠS ay
Ġf Ã¶rdern
Ġn a
ĠK ids
ĠW lad
ĠL uf
Ġan gest
Ġge arbeitet
ĠSt or
Ġre venue
ver k
au be
ug by
qu ellen
Ġbek leide
ograph ischen
ĠVerb indungs
ĠEd in
Ġmin imal
ĠAnfang s
ĠErn est
Ġconc rete
ĠMel bourne
kur renten
hab t
ĠHoff nung
ĠInf os
Ġmeas ures
ĠFinn land
Ġbess ere
ĠOffic er
ĠSchwier igkeiten
ĠViz emeister
Ġstattf and
D C
E isen
p op
ĠS ad
Ġin frastructure
ĠG ard
ĠJ ess
ĠJ ason
Ġan f
ĠEr langen
qu ir
ĠBer at
ĠMar athon
amm ad
ake ten
rieg s
eiter ten
ator in
ĠAt mosphÃ¤re
ĠHil f
Ġcond ucted
bed arf
ĠCont act
sta ates
Bi ografie
Ġabgeb rochen
ĠEas tern
ĠMuse en
ĠNR W
ĠScot land
ucle ar
J J
L et
b ow
ie ge
ĠS achen
ĠB ibliothe
ĠM ust
ĠG P
ĠK ot
ĠH ost
Ġbe herr
ĠJ oy
Ġk onst
Ġge p
ĠSt ars
ĠO h
Ġsich ern
ĠAr bor
for mer
ĠCh rom
ph ys
Ã¤hr en
Ġout put
sh afen
ĠCon rad
Ġass ets
195 5
Ġimpro ving
ĠAdd ition
Ġpartners hip
cep ted
Ġlic ens
ĠTH E
Ġappre ciate
d ienste
n ische
Ġs itzen
ĠS E
ĠB enz
Ġn erv
Ġc raft
ic ient
Ġbe wegen
ot ische
ĠRe eder
Ġab ges
Ġ18 44
Ġvor Ã¼ber
ite e
auf lÃ¶sung
Ġwo oden
Ġqu otes
ĠPr ime
Ġvers orgt
ĠOber bÃ¼rgermeister
vor stand
arch itektur
ĠGo vern
ĠBel ast
ĠHen ri
Ġrepla ce
Ġarg ument
Ġermor det
ĠAngelegen heiten
s an
en ters
Ġd ick
Ġa w
ĠS R
Ġb ags
Ġf lav
ĠF reis
ĠG un
ĠH C
ot os
Ġre iste
Ġr asch
ĠUn ser
ac ional
Ġgen e
Ġ0 7
ĠTra de
stÃ¤nd ig
Ġinv ited
ĠWest falen
ĠSal es
ĠTo uch
Ġlo ad
Ġiss ued
Ġtre ated
ĠOper a
ĠÃ¤ gypt
Ġstaat liche
ehm igung
kr ise
Ġconstant ly
i Ã³n
or ders
ĠD ress
ig l
Ġh insichtlich
ĠK ilometern
ĠE uch
ĠW he
Ġg ifts
ĠN u
ĠN assau
Ġl as
ag an
ib us
ĠSp en
Ġres ol
ĠSte iner
Ġoff ens
ĠEl f
Ġsupp orts
ĠPart ners
Ġaufge geben
ĠPlan et
Ġatt ached
hÃ¶ hung
ĠRen ov
Ġdivers en
ĠRis iko
ĠFranzÃ¶s ischen
Ġmil k
h aven
r ent
it Ã©
he iz
ĠB ibli
ĠF ell
ĠK ohle
Ġg g
Ġk rÃ¤ft
Ġauf gel
id ad
pp t
ug ar
Ġwar n
Ġsie gte
ain less
ĠEn kel
olog in
ograf ische
Ġsim pl
Ġ180 3
Ġfood s
Ġbeteil igte
Ġbem Ã¼
Ġsignificant ly
Ã¶p fe
Ġschwed ischer
Don ald
national spieler
ĠDet roit
Ġnutz te
Ġexcept ional
ĠBam berg
g ru
es er
Ġt ub
Ġs tet
Ġs alt
an on
ĠM ob
il deten
ĠP ixel
ol in
ĠT aus
ĠF ont
lich ten
iv itÃ¤t
Ġde cl
Ġr Ã¤um
ang a
Ã¶r n
ĠTe en
hand lungs
ĠOber liga
ĠOb ama
Ġben ch
Ġfest gestellt
pec ted
ĠPrinz essin
ĠStreit krÃ¤fte
sper re
ĠÃ¶ k
Merk male
1 20
? )
A V
M ass
O f
ĠH ack
ĠR i
Ġg ros
Ġer ober
ĠJ as
Ġk reis
ver g
Ġis rael
Ġab sor
Ġ18 36
19 17
ĠLand rat
tz t
ĠFl u
ĠStadt rat
bau werk
ĠFra ktion
Ġob lig
Th omas
ĠPf ei
Mit te
Ġqual ified
ĠStaats anwalt
195 4
ĠAp othe
ĠKohl en
Ġexhib ition
D oppel
p ur
Ġ {
Ġd ental
Ġt arge
or er
ge ist
Ġf ell
ĠD amp
Ġg un
ĠV ik
Ġth ick
Ġun bedingt
ĠAn wendungen
Ġab gelÃ¶st
Ġ18 14
lo gen
Ġange ordnet
akt ions
reg ister
ĠLie chtenstein
Ġvoll er
plan ung
Ġident isch
gesetz es
Ġeffect ively
ĠStad ium
Ġsil ber
ĠIll ust
ĠBundest ag
ĠCost a
Febru ar
Ġdenkmal geschÃ¼tz
f iguren
o a
ar ium
us che
Ġf ishing
ĠM ale
am ental
ĠH im
ĠH altung
et wa
ĠJ ury
ĠSt ufe
ud a
Ġex tended
ĠNe xt
Ġsh ops
Ġ8 9
ĠRes ult
ĠTur k
fa ction
Ġcra zy
Ġill ust
Ġhold ing
Ġfiel en
Ġerf Ã¤hrt
Ġfix ed
is st
Ġs org
re chnung
ĠT hal
ot ter
we iger
ust ic
ĠAb ra
ĠWe iler
ĠZw ar
ym ph
ift i
Ġstand ing
ĠRo te
ÃŃ k
Ġimpro ved
ĠVe ter
Arch itektur
ĠSchles ien
Produ ktion
ĠUrs ache
Ġsech sten
erkl Ã¤rung
ĠJed och
Ġhinzuge fÃ¼gt
Ġtas ks
M ost
O l
ĠS iz
al in
ĠA gency
ĠK ore
ĠI F
af eln
Ġfor ced
op ol
sp rechen
qu ert
ĠAb fahrt
rat ic
ĠUnter schiede
Ġ9 1
ĠStra teg
Ã¤d te
Ġgeb unden
ĠGrund schule
pl Ã¤tzen
Ġsk ill
ĠSchul ter
ĠGeneral major
Ġaccess ible
ĠFil ter
ĠEmp fehl
ĠOk res
Ġqualifiz ierte
Ġreve aled
? âĢĿ
E p
P rÃ¤sident
i ja
in ken
an es
at isch
Ġ1 14
Ġein ger
ĠP est
ĠT un
et tet
ber gt
Ġim pl
ah m
pp el
âĢĻ ,
Ġhe ight
ĠUn it
up t
ov o
Ġme al
pt y
ude d
ende d
Ġsc ript
ĠBet reiber
Ġaufge hoben
Dies es
Ġcamp us
fÃ¤ll ig
Ð¾Ð ²
Ġengag iert
ixt ure
Ġdynam ic
Ġbedeutend sten
Ġopin ion
N C
t rieben
es ents
Ġt om
ĠS ide
ĠB anken
Ġein gemein
Ġp our
sch ers
Ġg am
ĠC R
ĠN ature
Ġl ust
ĠU EFA
Ġsp anische
Ġor ange
ĠBer ichte
Ġgen ieÃŁen
Ġgew inn
Ã¤ch ter
Ġber ichtete
ĠDies el
Ġ12 00
ĠMen gen
ĠTra vel
ĠWh ere
ĠAss istant
Auf gelÃ¶st
ĠDu ke
ĠRed akteur
195 1
Ġevent ually
sprach ige
Ġhor izont
ĠExempl are
loy ment
Ġimpress ive
ĠInnov ation
ĠBrook lyn
inu ier
ĠReut lingen
ĠInsolven z
Ġzusammengef asst
N et
N icht
d re
f ranken
m Ã¶glich
t irol
Ġa men
Ġf asc
ĠA ge
Ġg ross
Ġe cht
Ġbei ge
ĠNe uk
zeit lich
ĠGen f
ĠQu art
ĠBas il
Ġspe aking
196 3
kn Ã¼p
Ġangeb lich
ĠrÃ¶m ische
Ġmom ents
kor de
Ñģ ÑĤ
ĠSchwar zw
ĠSchÃ¼l ern
/ *
W ar
it ative
Ġw inner
al ign
ĠA y
Ġ1 16
Ġp reis
ĠH amp
ĠN OT
Ġl Ã¤nd
Ã¼r mer
ĠO hne
ĠO cean
Ġver zeichnet
ĠIn stagram
th en
Ġman chen
nis sen
ĠPar allel
bo oks
Ġtr ig
ĠCar lo
ĠAmer icans
ĠUr kunde
Ġstehen den
ĠHeimat stadt
ĠPubl ishing
Ġenter tain
alys is
ĠÃ¼bern immt
Ġevangel isch
Ġkanad ischen
Ġprint ing
Ġgradu ate
ĠLux emburg
ĠFranzÃ¶s isch
ĠStraÃŁ burg
ĠChallen ge
Ġbon us
ĠEinzugs gebiet
hatt an
I hr
K A
c am
Ġa gr
ĠS ale
ĠF ul
ĠF uss
ĠE rot
ĠC in
ĠC ome
ik at
ver arbeitung
Ġaus gerichtet
Ġj ung
ĠTe uf
Ġgesch Ã¼tz
Ġtr ib
ĠVol ker
Ġfre quently
ĠauÃŁer ord
Ġprote in
fon ie
ĠKer amik
konstru ktion
F lor
S ec
k ommission
Î ½
ĠL iss
Ġg al
ĠC P
be h
Ġunter nahm
ĠMit ch
ĠVor gang
ĠMa ÃŁe
Sch on
Ġsur prise
ĠAnt ike
ĠEm ma
rist all
ĠKrit iker
ĠFal ken
ĠWach stum
leis tet
Ġgraph ic
ĠJon athan
bereit et
ĠChallen ger
ĠGeschle chts
Ġsympt oms
k ilometer
ĠS M
ĠB B
ĠC ommand
Ġk ol
Ġon going
ru ption
ign et
haus e
ober flÃ¤che
ĠNor bert
ĠArbeit sk
bes te
Ġsol ar
Ġstar tet
sol vent
Ġel ig
En ts
ĠSen ioren
fest ival
Ġjeder zeit
Ġrepr esents
ĠPil ot
ĠAud i
Ġzuf rieden
ĠSab ine
Ġvirt ual
Ġzug unsten
verteid iger
I nde
f uÃŁ
m esse
Ġa fr
Ġm a
ĠM iami
Ġ1 17
ĠG ul
ĠK orn
sch lossen
sch reiber
Ġge zwungen
ĠZ wer
ess ed
og ramm
ĠAn walt
ĠBe fore
19 15
ome ter
ieren der
St art
ĠCo ach
ĠCo up
inter est
ange hÃ¶r
ĠBundes regierung
Ġcol umn
auch en
fÃ¼ll ung
ĠBill y
ĠAust rag
Ġcapt ure
ĠStan ley
ĠDub lin
ctic ut
ĠAstron om
Ġassess ment
Ġemploy ment
ĠOze an
ĠÃĦm ter
Ġchocol ate
M Ã¶gliche
T op
an ing
re lated
ĠB reit
Ġh all
ĠF lex
ĠW is
ĠW end
ĠV Ã¶gel
icht ig
ia de
Ġcom pr
ĠNach kommen
ĠZeit ungen
Ġsho ot
alle tt
Ġend s
ĠPart ien
ĠDo uble
onen te
Ġadv oc
ĠKe ep
Ġmass age
ĠSÃ¤ ulen
Ġregion alen
Ã¤rt ner
ĠWit we
Ġatmosph ere
gewÃ¤ch se
O ut
S et
T M
m il
Ġin tended
ĠK ings
Ġer rang
ĠN Ã¶rd
ĠSch atz
ĠÃ¼ber s
19 11
Ġnot iced
Ġad opt
Ġ9 7
Ġtra v
act ive
ĠAd ams
ĠAd vis
ĠFre unden
oth ar
ĠEl m
Ġverb inden
ĠVerein igte
ĠDes igner
schutz gebiet
Ġeng agement
ĠOst preuÃŁen
wor ld
ĠFlor a
ĠgrÃ¶ÃŁten teils
gehÃ¶r igkeit
ĠlÃ¤ng ere
ĠPed ro
================ ================
ĠÃ¤uÃŁ eren
Ġregistr iert
Parameter ID
T ag
m Ã¤r
er ten
Ġw Ã¤ren
ĠC ir
Ġer leich
ik ern
ien e
tel la
âĢĻ .
Ġtra fen
gl Ã¼ck
ett a
Ġra il
Ġknow ing
Ġpl anned
Ġcre w
Unter nehmer
Ġsuper ior
Ġpick ed
ĠGlas gow
ĠAusstell ungs
E vent
P ark
R em
S etz
v org
Ġd iam
Ġv ib
Ġp rÃ¼
ĠL ichten
Ġg rew
Ġge Ã¶ffnet
ĠSt urz
Ġaus gestellt
ahl en
ĠBundes straÃŁe
ĠJugend lichen
Ġaufge teilt
Ã¤ss ern
Ġdien ten
brÃ¼ cken
ĠKre bs
ĠĠĠĠĠĠĠĠ ĠĠĠĠ
ĠIS O
Ġinstru ctions
ĠBeweg ungs
ĠEdin burgh
C hem
M ein
W appen
w enn
ĠB C
ĠM Ã¼ndung
ĠD ag
ĠD ob
ĠG is
ĠK elly
ĠE ier
ĠW asch
ĠL ith
Ġg olf
Ġk ommerziel
ok ing
Ġch ief
teil ten
use ppe
iff s
Ġgesch ickt
ĠNational versammlung
ĠBar ry
Le icht
ĠWei h
Ġplan et
zentr ums
ĠAuss icht
Ġabge lehnt
195 3
ĠBon us
ĠHan au
ĠDro gen
Ġstrateg ic
Ġdeg rees
ĠHon or
Ġschedule d
ĠDrit ter
ĠDiÃ¶z ese
B ur
m ord
es tet
Ġt aught
re z
ein richtung
ge mÃ¤ÃŁ
ĠB att
il ation
Ġh ang
Ġh idden
ĠK ie
ĠI tem
ĠI owa
ĠR Ã¼
ĠL ub
Ġbe ziehen
la ce
ĠU we
ĠSch ienen
ure au
ĠUnter richts
Ġqu ote
mit tler
fin anz
Ġges agt
ĠPh arm
schie ÃŁen
ĠRad i
ender t
ĠTyp e
ĠZe ug
Ġattra ctive
Ġschwed ische
Ġarchite cture
ĠIdent itÃ¤t
ĠFlag ge
fal se
Ġverab schie
! âĢľ
V ideo
d ro
h Ã¤n
Ġw ander
ĠS ix
re b
Ġh osted
ĠT akt
ra hmen
ĠO ran
ad bach
ĠBe hinder
ĠHer zen
ĠSh ang
Ġvers ions
ĠPhil ip
Ġgl ad
Ob wohl
Ġident ity
Bau denkmal
Ġsicher te
ĠPop ular
BevÃ¶lker ung
ĠHarr is
irurg ie
ĠPseud onym
! "
L uther
Ġin stitution
ĠD OC
ĠC ab
and ro
ĠSch Ã¼tzen
Ġpro ven
Ġsow eit
ĠFl Ã¼ss
old s
use el
Ġfol ks
ina e
Ġsupp osed
Ġtechn ique
Ġbef Ã¼r
Ġsub t
esent liche
ĠProv inzen
lÃ¤nd ischer
Ġfal sch
Ġweib liche
ĠberÃ¼cksicht igt
ĠHild esheim
d lich
ĠS D
Ġv i
ter min
Ġp ic
ĠF eind
ĠF antasy
ĠC ock
Ġre ader
Ġr h
od ing
Ġhe aring
iz a
ens atz
amer as
ĠKon stanz
ĠAut os
Ġbo ost
Ġausge dehn
ĠSaison ende
Ġreal isiert
ĠTour isten
Ġorgan ized
ĠDire ct
189 8
Ġconsider ing
Ġreturn s
Mod el
ĠÃ¼b lichen
Ġfinanz ielle
Eis hockey
uert o
ÅĦ ski
ĠBegeg nung
L S
Ġ 000
te le
ar at
Ġp ill
ĠT Ã¤ter
Ġz it
ĠH Ã¤usern
ĠR iesen
ĠL aser
ĠL LC
ab ama
Ġaus geschlossen
Ġwar ten
be y
Ġmy th
ank ing
ĠBo ys
ott a
Ġexp os
Re ad
ĠChrist i
Ġbesch rieb
Ġland es
Ġsetz ten
ĠJust ice
brÃ¼ ck
Ġfour th
ĠEt wa
ĠSchwer in
gram me
Arch Ã¤
Ġerz ielt
Ġinj uries
ĠjÃ¼nger en
ugu ay
Ġkorre kt
ĠGord on
F ar
s i
Ã ®
on ent
us a
ĠP i
sch uhe
ĠCh annel
per rt
ĠCo oper
ĠEx il
ĠHaupt bahnhof
stein en
Ġeinz eln
jÃ¤hr ig
190 3
ĠQual ifikations
ĠBur k
Ġmain ly
Qu elle
stud ien
Ġerziel en
ĠNachbar gemeinden
ĠSy mp
Ġdat iert
Ġappre ci
Ġerle bte
ĠMitarbeit ern
ĠHawa ii
F amilien
G old
K ol
S ub
Ġin telle
le id
ĠM ei
ĠF I
ĠF Ã¤lle
Ġc ake
et ch
ĠR ent
Ġl ift
ĠV ision
Ġaus einander
Ġde fault
ran che
Ġ18 37
ĠAl p
Ã¤r ken
ian er
oc ation
Ġtra ined
lÃ¤ chen
ĠMo or
ĠMed icine
Ġmo ist
ush ing
ĠBesch luss
ĠMitte le
fÃ¤ll t
Ġcompar e
ĠCap ital
okomot iven
Ġdraw ing
ĠSat tel
Ġrecogn ized
ĠJahrzehn te
ĠWett kampf
Ġrand om
k andid
m Ã¤nn
ie de
ĠM eine
ĠF Ã¤r
ĠF inger
Ġl ib
Ġwas h
inn ers
ork ommen
ĠBand e
wohn ung
esen ted
ĠFr ame
Ġ[ ...]
ĠGew Ã¤sser
ĠRel ief
Reg ion
Ġgenau e
Ġdeb ut
Ġmat ters
C al
d an
Ġt ested
Ġt icket
ĠP ohl
ĠK ay
Ġbe geg
ĠV ic
ul ing
Ġst ated
ĠVer f
Ġr ies
Ġr iver
sp ring
esch ichte
ĠSp ar
ĠTe ch
ĠAb lauf
ĠVor name
fl ow
ĠSte ink
ĠEx port
Ġserv es
ĠNor m
ĠFe ucht
asch a
schlieÃŁ en
ĠChar lie
ĠPart ie
ĠMor gan
Ġsign al
Ġhealth care
Ġpay ing
ES CO
ĠBur schen
Ġaff ected
ĠSamm el
ĠTemperatur en
Ġwand te
ĠWiederauf bau
Ġbesonder er
Jose ph
ĠFertig stellung
Ġeingemein det
W eiÃŁ
g rÃ¼n
en ces
Ġa wareness
it able
Ġs aÃŁ
ĠS EO
Ġf emin
ĠH arb
ĠV ir
Ġth read
Ġge omet
ĠO regon
ant es
Ġent stamm
Ġent reprene
ĠLe ader
oc a
Ġcomp lic
ĠPar ad
ron ics
ĠEx ception
ĠAnd y
eich ern
Ġsol o
Ġfl ash
ĠEm ail
ĠHil de
ĠHistor ische
Ġkomp lette
ĠGast geber
ĠCent ury
Ġged acht
Ġdep th
dr ama
ĠEreign is
Kurz film
": "
Ġgewid met
F ach
T ags
a a
b ungs
j on
s Ã¤chsischen
Ġw et
ge gangen
Ġf if
ĠB usch
Ġh l
Ġal arm
Ġan x
Ġfor ces
Ġat tended
iss ions
Ġcont rast
ĠJan e
Ġac cepted
ĠMann es
fra uen
ĠWohn ungen
IN E
Ġverm utet
ĠMer cedes
ĠBaum eister
Ġsen ten
ĠMary land
ĠRon ald
ĠAuseinanders etzung
Ġverstorben en
Ġeindeut ig
? "
Z usammen
h ten
t urm
Ġt iss
Ġt iny
re ts
Ġv ast
ĠM indest
Ġ1 12
ĠD sch
ro se
ĠT ry
ĠK und
Ġbe an
ist ing
Ġer gab
ĠV as
ĠO ak
Ġwar rant
Ġso ul
Ġwe ap
ĠDe cken
ack e
ĠY am
ĠVor sprung
Ġ9 4
Ġcomp at
Ġgen auso
ĠZu vor
ript ion
Ġfac ilit
189 3
Her r
Ã´ ne
Ġaustral ischen
ĠGrÃ¤ fin
Ġdetermin ed
ĠWurz eln
Ġdoub t
Ġerkenn bar
s he
z ule
Ġm att
ĠB attle
ĠK ansas
ĠH umboldt
Ġg ast
um me
Ġbe ar
ĠN y
ĠV ide
ab on
Ġun c
ĠGes ichts
ĠPh Ã¤n
Ġexper iment
Ġmember ship
itu ationen
Ġdisc ip
ĠKat hedrale
ĠSen ator
Ġredu ced
", "
Ġinform ieren
ĠEnter prise
Ġult imate
wÃ¤rt igen
ĠNahr ung
Ġproced ures
A c
g ro
i ago
k inder
ein kommen
ĠD ion
ig u
ĠF erner
Ġz weig
ĠN ort
est adt
ver st
Ġun less
ler in
Ġch art
ĠVor schlag
wer fen
rif fe
Ġber aten
ĠStra hlen
ĠSh akespear
An y
ĠInter ess
ĠGeneral leutnant
Ġhistor ic
Ġabge leitet
ĠGar dens
Ġmag net
ĠKing dom
Ġkont inuier
Ġrelig ious
sm ith
ĠDigital isat
ĠmÃ¤nn lichen
Juni oren
Ġrechte ck
h Ã¶ch
i ÃŁ
l inger
en ten
ĠA ktionen
ĠM urs
ĠD I
Ġh ook
ĠK ond
ĠR uth
ĠC ad
ĠSt ifts
Ġre ichte
og ie
Ġch airs
Ġoff ices
Ġ0 2
Ġinvest ors
gÃ¤n gen
hers tellung
Ġtransport ation
lah oma
ĠSlow akei
ĠChron ik
Krit ik
Ġbayer ischen
C an
M el
z ure
Ġin ches
ĠB eth
ĠF aktoren
ĠH ydro
ĠC atholic
Ã¼r zen
ĠSch icht
ks hire
ac ted
ĠVor runde
Ġad j
ake te
gl as
ĠFest ivals
Ġtyp ical
ĠBra z
ĠMot to
fo und
ĠOs lo
ĠEff ekt
Ġinstitut ions
Ġdipl omat
ĠDonner stag
E U
P ap
R h
R ang
Ġp od
Ġc arbon
ab ol
Ġy es
Ġfor med
ĠIn cl
Ġex ternal
io den
entlich er
ĠMed iziner
ĠWh it
hol ung
Ġcolle cted
Ġgut es
Ġrece iving
ĠWein bau
ĠzusÃ¤tz lichen
Ġmeet ings
ĠAp ostol
Fl uss
Ġverste ht
ĠTat ort
Ġearn ed
Ġpropos ed
ĠRal ph
andin av
M Ã¤nner
W M
l ov
s endung
Ġb ab
ĠD ritten
Ġh armon
Ġbe achten
Ġan bie
eb el
sp olitik
Ġ18 10
land e
ide t
Ġres ume
sk op
Ġmus lim
ĠPol iz
Ġfre edom
ĠHel den
ĠSol id
Ġfile d
ĠKre u
Ġerk ennt
Med iziner
ĠWand el
Ġbetre ff
Ġumfang reich
ĠInstitution en
ĠSaf ety
Ham burg
P O
r isch
at sch
re kord
Ã¼ se
ĠB reis
ĠD ritt
ĠF aust
ĠK ate
ist anz
ir i
ĠJ immy
ier ra
sp lan
ĠEr mitt
ĠEr nennung
ste chn
ĠAl ber
ĠLe hen
ack t
Ġbes iedelt
ĠVor stellungen
St ate
ĠChr istent
ĠTr end
ĠHaupt ort
Ġqual ifiziert
Ġeinge zogen
ĠWer bung
Ġvis ited
Ġerreich bar
Ġbed ro
Ã¤ll ig
ĠTyp en
Ġrep utation
ĠLat in
ĠtÃ¼rk ischer
ĠDok umente
Wel come
ĠkÃ¤mp fte
ĠForts etzung
n el
Ġv intage
ĠD IN
ĠD aily
ĠT ieren
ĠT afel
ed u
ĠC C
ĠC rit
Ġer lern
ver Ã¶ffentlich
ith er
ib il
ĠSp alte
ĠAuf klÃ¤rung
ĠIm pro
ĠGesch enk
man ager
Ġnew sp
Ġdr ugs
ĠProdu kten
mar ks
Ġentstand enen
Ġheraus ra
189 5
Land es
atÃ¼r lich
ĠChem nitz
ĠKons ul
maler weise
ĠBlÃ¼ te
ĠNamens geber
ĠErzÃ¤hl ungen
ĠTschech oslow
Ġelektr ische
verstÃ¤nd lich
ĠGebÃ¤ uden
Ġclin ical
ĠAfghan istan
Ġfoll ows
P ublik
Ġw asser
ĠS Ã£o
ĠB uen
ĠD NA
st ufen
ĠF ortun
ĠL orenz
ul ous
Ġge folgt
ĠEin z
be griff
ĠSo ft
Ġind ire
Ġsm ile
Ġstand s
aur us
En gl
Ġoper ate
Ã¤m mer
Ġbra uchen
Ġleben den
ĠKriegs gefangen
Ġinstall iert
Ġexpect ations
ĠRepubl ic
wach ung
Ġhers elf
Ġsitu ations
ĠCapt ain
ĠKÃ¤rn ten
P osition
P okal
ĠS emin
ĠB in
ĠG rÃ¼nde
Ġc ro
ĠH ob
ĠL us
Ġk Ã¤mpfen
iv an
Ġre covery
Ġst ab
ĠVer teilung
igen en
ord nen
ens lalom
ĠSchw estern
unk er
fess ion
ĠLin ux
ĠSan ierung
ĠBel agerung
ĠSeit dem
Ġhistor isch
Ġcr im
Ã¼rz te
ĠErw in
Ġdefin ed
ĠIde as
Gra f
Ġphotograph s
ĠVinc ent
ĠRT L
D uring
f und
k ular
n acht
w urz
ĠB auf
ĠB ird
Ġg rad
ir aten
Ġver standen
Ġhe ating
ov es
ĠSe pt
Ġgew orfen
ĠAut omat
ĠBel ie
Ġfound ation
Ġbig ger
ĠTre ppen
bÃ¼ hne
ĠGesetz es
Ġcra ck
ĠRess ourcen
Sonst iges
ĠVerbreit ungsgebiet
Ġavail ability
Ġconfir med
h Ã¤ngt
u ine
z es
Ġin put
ĠB aut
Ġv it
ĠH appy
Ġbe hand
ist ol
la in
Ġaus gesetzt
Ġr ating
Ġunter richtete
Ġman aging
ĠHand lungs
Ġche ese
Ġdan eben
ĠForsch er
urf ten
Ġcr ime
ĠWal ther
usst sein
ĠCle mens
ĠermÃ¶glich te
Ġemploye e
Ġdurchschnitt liche
Ġmonitor ing
ĠanschlieÃŁ enden
B oden
T al
u eller
Ġa part
Ġa warded
le ton
ĠA kte
ĠT ank
ĠF avor
ĠG ibt
ĠG umm
ĠW are
ed ing
ik ts
ĠVer folgung
Ġr ene
ak ten
be fehl
sh aber
Ġbek annter
ĠÃľber setzer
ĠZw eiter
ĠMed aille
ĠSc ient
ĠIs a
Ġcons ists
ĠMittel feld
ĠClub s
ĠUN ESCO
**** ****
Ġilleg al
ĠBroad way
ĠFRE E
Ġgg f
R itter
b oy
k orea
o i
r ufen
ĠB elle
ĠM uh
ĠP ath
Ġn utzt
ĠT C
ist o
ĠN umber
Ġim per
ĠSch uh
ĠSch Ã¶ne
th al
Ġun e
Ġ18 42
19 16
Ã¤r er
ue z
18 99
iss ippi
ĠVor gehen
pro p
schl Ã¼sse
ĠVers uche
Ġtrans ition
ĠPal ast
welt meisterschaften
ĠMay er
produ kte
Ġ180 8
Ġmatch es
Ġweib lichen
HÃ¶r spiel
Ġdanger ous
Ġextre me
hoen ix
% .
7 00
R hein
f are
ch el
Ġb io
ĠB uff
Ġo h
Ġo lymp
ter y
Ġauf einander
Ġfor est
ard t
rit ion
Ġch apter
Ġro w
ĠPr ize
ĠMan hattan
Ġrec ording
ĠNord ost
ĠIs lands
ĠChar ts
ĠRechts wissenschaften
OR D
ĠTur in
Ġamer ikanischer
ĠPan el
ĠGre y
Ġconcern ed
Ġdom estic
Ġmusikal ische
uum l
ĠVog t
Ã¤p st
G leich
H ello
b rechen
h Ã¤ngen
n ommen
t age
Ġs uff
st iftung
ol ine
em er
hr ingen
ĠC ow
eb o
ĠÃ¼ber ras
Ġ4 50
Ã¼ck e
ĠAus bruch
Ġpr icing
wer fer
Ġbesch rÃ¤nkt
ĠGew inner
ĠZahl ungs
ĠMos es
ĠGet re
ĠMount ains
Tra iner
Inter ior
spart ner
I X
S D
T urn
h ost
Ġd urften
Ġb irds
Ã¤ u
ĠP ionier
ĠT ed
sch rank
et tel
Ġg od
eit h
Ġe ase
ts piel
kt ive
Ġ18 25
Ġlie ben
Ġro te
ĠGer d
ĠOber flÃ¤chen
ĠAll ianz
ĠUl m
Ġturn s
Ġtradition elle
ĠBaum w
ĠTal ent
Ġmot ion
Sh ow
ĠLog o
Ġgek ennzeichnet
Ġhappen ing
quen cy
ĠLi bert
Ġverg essen
ĠBlo od
Ġign or
ĠEins Ã¤tzen
Ġadvent ure
ĠRober ts
ĠHT ML
Ġdoll ars
b rÃ¤
b rief
c il
m ing
u ages
Ġf erner
st an
and el
Ġge ar
ĠSt ick
ver teilung
ĠVer y
ap elle
se a
Ġ18 12
ĠNe v
Ġen ger
ĠIm plement
ĠSchw ein
Ġtra cks
ĠSo ul
fall enen
Sch l
Ġbl ow
ĠFr ies
Ġrem aining
Ġant iken
Ġperform ing
Ġhol idays
Ġzweit es
Techn ische
ĠInse kten
Setz liste
A BC
B R
R und
b ass
n immt
ĠS tett
le bt
ĠM ine
ĠG reek
ĠK ast
ĠN ash
Ġe ast
ĠSt ro
ĠO ste
ĠZ ut
ard in
ĠEin sÃ¤tze
Ġex port
Ġwor aufhin
to o
ĠMed ium
ĠPla yer
Ġdre ams
ĠSl alom
ĠGesamt wertung
ĠBÃ¶ h
ĠRen Ã©
Ġinteress iert
ĠVorder grund
Val ue
Ġbrill iant
F k
R eihe
in cess
Ġd rag
ĠS ony
Ġm agn
st age
Ġp hen
ĠT alk
ĠK amm
im ore
ĠE y
Ġz entral
ent schieden
ĠW oll
ĠL ay
ĠN ob
Ġl Ã¶sen
ei p
ver gleich
sp rachen
alt itel
ĠVor teile
ĠGemein schafts
Ġpla te
pf alz
schn itten
stru ction
Ġverm eiden
Ġbew aff
ĠhÃ¤uf iger
Ġcreat es
gehen de
ĠDat abase
Ġfig ures
ĠEigent um
ĠAgr ic
Ġverbess ert
dis ziplin
ĠVerbrauch er
ĠHels inki
Ġsud den
B und
k os
k lassen
u cc
w enden
am ents
Ġc otton
ĠI an
Ġl ucky
Ġth orough
ĠSt apel
Ġauf weisen
Ġver lauf
Ġco ck
omm y
ĠFl Ã¶
Ġste igt
Ġac id
Ġgef Ã¤rbt
othe k
ĠErz bist
ĠErn Ã¤hrung
Ġorder ed
ĠSchiff es
fo ot
189 6
ĠWeb prÃ¤senz
ĠSter ne
ĠkÃ¼nstler ische
ĠGatt ungen
ĠErwachsen en
ĠkÃ¶nig lichen
Dav id
Lud wig
S tein
es c
le itete
ĠH ut
Ġge habt
ann over
ĠAl uminium
ĠLand gericht
ĠPol ize
ĠWor te
ĠauÃŁer gewÃ¶hn
Ġann iversary
Ġunser es
ĠWar schau
ĠErw art
ĠMinister ium
ĠJur a
ĠViel falt
stehen den
ĠBil den
Ġhab ilit
Ġspezial isiert
ĠJew ish
ĠBrie fe
ĠSchicks al
ĠDreiÃŁig jÃ¤hrigen
T est
p ing
Ġt all
Ã¤ ischer
ĠG ary
em ester
Ġge prÃ¼ft
Ġge kauft
ĠO il
Ġst opped
ip t
ian ischer
ĠAb hÃ¤ng
ĠMed ik
ĠVers ionen
Ġschw eizer
ĠSchrif ts
sicht lich
Ã¤m me
Ġleg it
Ġcele b
ĠTit an
ÑĢ Ð°
ĠWettbewerb s
ĠSpann ung
ĠTats ache
ischÃ¶ fe
ĠBrauer ei
" -
A ir
J a
P ierre
k ter
Ġt ube
ar mee
Ġm ath
ĠT oren
ĠF okus
ac a
oc aust
ĠEn zykl
ou v
ĠÃľber leben
ĠUr sprÃ¼nglich
ĠCl ar
Ar ten
Ch ina
ĠNeben fluss
ĠSand stein
ĠGi useppe
ĠVorsitzen den
ĠSold at
Bo ot
ĠPorn o
stad ion
Ġbeher bergt
ĠAbra ham
E F
K al
O U
v Ã¶gel
ĠB j
ĠM ilit
ĠP oten
ĠP ension
ĠF ett
ĠW esen
ass o
Ġr id
ste her
Ġ18 38
ĠÃ ©
ĠMe g
Ġpr ide
Ġgen utz
Ġfin de
ĠKon tra
Ġinter face
Ġsho oting
ĠKinder garten
ĠMot oren
anad ier
ĠDre am
Ġpos itions
str asse
Ġoft mals
ĠKÃ¶nigreich s
Ġbedeuten den
Ġchem ical
Art ikel
ĠCa es
Ġcabin ets
Ġkulture lle
ĠVoraus setzungen
K enn
c ell
p x
w ed
ĠS einen
ein trag
ĠM am
ĠP aper
ĠG itarre
Ġc ater
ĠL j
ĠL enk
ic ted
Ġge teilt
Ġso le
ungs zeit
Ġunter brochen
ĠTh rough
Ġ10 5
ĠArt illerie
schl Ã¼ssel
eid ung
Aus gabe
zent ren
ĠOrts teile
AT ION
lÃ¤uf ig
Ġentfern en
Ġoffic er
omot ive
ĠEst ate
Ġindustr ies
ĠÃľberg angs
zwe ck
ĠGesell schafts
D reh
K reuz
T O
k arriere
Ġs itzt
an ter
ĠM Ã¼ll
ĠM Ã¼hlen
ig r
ĠT ower
ĠH ain
ĠC onn
ĠC atherine
ĠN oten
ĠV III
ĠJ g
Ġal cohol
ver anstaltungen
id al
Ġj ahr
Ġ18 35
ĠGe fÃ¼
ĠAb satz
ĠBer Ã¼cksicht
ren cy
Ã¶l ten
ĠStud ents
ĠPat rim
Ã¤us ch
Ġdefin ition
fred akteur
ĠZust immung
Ġlink ed
Ġreport ing
parte ments
ĠBud dh
sta ats
ĠInvest ment
ĠniederlÃ¤nd ische
friend ly
Sa ale
Ġspirit ual
Ġgrund legen
K n
M itt
h ier
l ong
Ã °
Ġs amt
Ġf usion
ĠB lat
ĠK ick
Ġc orn
ĠH R
ĠL Ã¤ng
Ġg aming
Ġer zeugen
if ier
Ġsch lÃ¤
Ġen orm
Ġins zen
Ġem otion
Er n
ĠQu est
Ġter rit
ĠQual ity
ĠTre ff
Welt cup
Ġevangel ischer
Ġentire ly
Ġhum or
zub auen
Pla y
Ġjud ge
Ġreligi Ã¶sen
Ġschott ischen
EMail Adresse
Ġcelebr ation
check EMailAdresse
ifff ahrt
B asket
H R
Ð ¹
Ñ ĩ
Ġb ron
Ġb lau
Ġf ran
Ġh art
Ġg lo
Ġg rÃ¼ndeten
os se
ĠVer hÃ¤ltnisse
sp rech
Ġsp ark
Ġwe alth
ĠSe chs
18 86
Ġbes tellt
lieÃŁ t
ĠTra il
ĠWer ks
ĠLebens raum
ĠSol utions
Ġcho osing
Ġemp fehlen
Ġfact ory
Ġlist ing
Ġcover ing
Ġern st
Ġenter ed
Ġlink er
grÃ¶ ÃŁer
Ġprepar ation
iro ler
ĠRestaur ants
Ġfunction al
inde x
ĠLetz ter
ĠMisch ung
Listen er
M M
W olf
r s
Ġ ib
Ġa ben
Ġt iefer
Ġb ird
âĢ ³
ĠF res
ĠI ce
ĠW els
ĠN HL
ver d
aus stattung
ĠBe arbeitung
Ġme ets
be teil
Ġvor be
ĠSe ch
ĠNe apel
olog ist
Th anks
bo ards
ĠArt ik
Un sere
Ġhin weg
ĠHol y
Ġinst ance
ĠWer ft
Ġev ol
ĠMain e
irm ingham
Ġnet works
Ġzurueck gegeben
ban ken
tor hÃ¼ter
Ġcompon ent
ausschuss es
ĠWeimar er
ĠBeob acht
ĠAuseinanders etzungen
pap ier
Fk EMail
2 50
C olle
m ay
w elle
Ġw itness
ar g
ĠS ich
Ġin tr
ĠB ak
Ġv olle
ĠF ly
ĠF unktions
ĠG lass
ĠG uten
ber atung
est het
Ġre produ
Ġab zu
Ġch icken
ĠSe ver
ĠSe attle
auf gaben
rif t
Ġfin ance
ĠFre y
ĠSpiel ers
oy al
ĠEl be
ĠMo le
ĠBest immung
ĠWar ren
Ġatt orney
ĠKommun e
ĠFernseh film
ĠJournal isten
ĠBor is
ĠHu ber
ĠKult us
Ġgraph ics
Ġkulture llen
Histor ische
Tro tz
ĠMagd alen
B rit
L iga
h on
ĠM other
ĠL etter
Ġg ratis
Ã¶ hne
pp ich
Ġsp lit
ia o
iz on
for cement
Ġent decken
che f
ĠAus richtung
rich en
res ted
Ġind ischen
ĠPe er
ĠfranzÃ¶s isch
ĠDo zent
Ġzahl en
189 7
ĠHall ow
plat es
Sport veranstaltung
ĠInde pendent
ĠJos h
ĠPor sche
ĠTok yo
ĠMatt hew
ĠEuropameister schaften
ĠgÃ¼nst ig
Ġprogramm ing
izien z
F P
is ierungs
Ġt olle
Ã¼ sten
ĠD ritte
st ance
de cker
ĠT um
ĠH ert
ĠC V
Ġl ies
Ġan al
Ġan gebaut
ĠEr ziehung
Ġwh ilst
Ġle istete
Ġ18 32
ick te
ob ahn
ĠSe ction
ĠSchw Ã¤b
ĠAd miral
ystem s
ĠFilm regisseur
ĠStud iums
ĠAll ein
Ġsub stant
ĠJohn ny
ĠBay reuth
Ġweek ly
bet riebe
lÃ¤uf erin
ĠVal ent
ĠRob in
Ġmiss ed
ĠDokument arfilm
Gemeinde auflÃ¶sung
ĠBrig ade
Ġincred ibly
Hein z
Form ation
ĠNiger ia
Ġentdeck te
ĠSaarb rÃ¼cken
Leicht athlet
S R
S eite
T urnier
s ucht
Ġa wards
ĠD ame
ĠE b
ĠI ra
ĠR ow
ĠC arr
Ã¶ ner
Ġsch olar
ĠBe weis
ord neten
Ã¤nd igkeit
ĠLe v
Ã¼n eburg
Ġfe iern
Ġob s
ĠBau reihe
Er ste
Ver band
ĠSÃ¼d amerika
ĠAs yl
ĠAnt ar
Ġpolit ics
Ġeng age
ĠBre ak
Ġgem isch
ĠKrit erien
wes ens
gle is
Ġrestaur iert
ĠHimm els
Ġbeob achten
Verb reitung
Ġsuffer ing
ĠBom ben
ĠCru z
E ins
N L
k W
m Ã¶
ie hen
Ġt ank
Ġb ond
el ung
ĠM az
ĠD est
ĠT ol
ĠT ul
ĠH end
ĠH eld
ĠH arm
Ġbe qu
Ġan gewand
iv o
ĠO K
os hi
ĠSch ult
eb y
op ing
ĠIn fe
ĠIn halts
ĠEr sch
Ġj ene
ĠÃ¼ber zeugt
ĠSe ktion
ult iv
18 90
lan ke
ĠVor lage
wer ber
Ġange kÃ¼nd
ĠBet riebe
Ġequ al
Exception Constants
Ġsw imming
bÃ¼ chern
anze igen
ĠSalz burger
ĠHal te
ĠGeheim nis
Ġrefer red
Ġimag ine
Russ land
ĠErober ung
9 00
N ote
k ong
as a
le ans
Ġm Ã¼sse
ĠB org
ĠL ane
Ã¶ hm
ul us
ul ierung
Ġe ar
Ġle ichte
Ġ18 21
Ġ18 41
uss ia
ĠY outh
Ġar ray
ĠGra nde
Ġob jects
ĠHand eln
ĠNational park
leg ungen
Ġele v
Ġgest altete
Ġschn elle
ĠTex ten
ĠChamp ion
Ġlik es
Ã¤rk ung
Ġangegeben e
ĠEss ay
ĠAtlant ic
ĠMargar et
Ġumfass ende
P ost
b ald
Ï ģ
Ġd iss
is men
Ġin du
Ã¤ ule
il iate
ĠD ad
ol stadt
ĠF ashion
ĠR Ã¤um
Ġer leben
ĠSch er
ver w
ĠBe griffe
Ġ18 28
ant a
ant ik
ac on
ĠAuf stand
ĠMar in
Ġ17 90
Ġnew ly
Ġ0 5
Ġhier zu
ĠFrank lin
por ter
ĠEd itor
ĠYork er
Ġwest liche
ĠVe ktor
krit ik
Ġbedroom s
ĠElect ric
ĠKaffe e
ĠSynag oge
J ul
Z ug
k reise
is emit
ĠF itz
Ġge gliedert
la p
kt ors
ĠEr ik
Ġne ug
ĠTh read
Ġste uer
ĠBo ots
enk te
Ġra us
ĠGrund riss
ĠSal on
Ġpost ing
ĠAg ain
ĠFlug zeuge
ĠAustr ia
ĠBischof s
Ġlet ters
Ġtem por
ĠkÃ¶nn t
Ġnie mals
ĠEntscheid ungen
krit iker
rÃ¤nk ischen
Kl ein
ĠkÃ¼nstler ischen
ĠWes er
k rat
m ol
z oll
Ġd auert
an ke
at iver
Ġin k
ĠB ast
ĠB ock
Ġv end
ig ert
ĠP aint
ĠE cht
um pe
ĠN elson
ĠSt u
ik ro
ĠZ it
Ġun able
tell te
ĠEin kommen
ĠAr min
Ġum liegenden
teil ungs
ĠSte ven
ĠGra ham
Ġbeg rÃ¼
ĠMan ufact
Ġag ents
ĠĊĊ ĠĊĠĊ
Ġfre ier
Ġgra u
Ġspe ech
Ġrem ark
ĠOper ations
ĠSied lungen
ĠAnn ual
Ġerk annt
Ġindividu elle
ĠTrotz dem
Ġsatis faction
ĠSchu he
Ġsustain able
Ġverbesser te
> .
K ont
p rach
r h
Ġw Ã¤hlte
Ġh ind
ĠG len
Ġc odes
ĠW affe
Ġan alog
ah me
og ne
ĠPro tag
In halt
Ġ17 00
ĠReg istr
Ġ7 50
pro of
ĠKon ferenz
Ġbl ind
ĠUr kunden
Ġdec ade
uck er
ĠÃĦ l
ĠFest schrift
Ein ige
upp e
rÃ¤n ke
Ġbede ckt
AN D
produ kt
ĠrÃ¶m ischer
Med ien
mag azin
Cont rol
ĠMov ie
bay ern
ĠMittw och
ĠplÃ¶tz lich
S ach
in um
ĠS ib
re de
ĠT Ã¤tigkeiten
ten de
ber eiten
ĠC ott
ĠVer ordnung
Ġr ig
ĠGes etze
Ġ0 3
ĠTra ck
ĠPort land
bed ing
Ġpay ments
Ġunterschied licher
On ce
ĠVe get
Ġlik ed
Ġtw ice
Ġtats Ã¤ch
ĠLaur a
ĠAster oiden
ĠKlagen furt
Ġcrim inal
S pr
Ġ essen
Ġa er
ar us
ar ent
ur teilung
Ġf Ã¶rder
ĠG A
Ġc um
em m
et um
ĠL oren
Ġg riff
ĠJ ugoslaw
ĠVer schw
Ġr ichtete
Ġsp r
Ġcon cepts
ĠIm mer
Ġ9 3
isten ce
res erv
Ġeinz us
Deutsch es
pe z
ĠAt tra
ĠBÃ¼ chern
Ġerhalten en
ĠGraf iker
ĠKÃ¼nstler in
Ġconc ert
189 2
Ġocc as
ĠPrem ium
Ġdeb t
Ġnormal en
Ġbetre ut
Ġrefle ct
ĠSau di
ĠSak r
ĠKrie ger
schrau ber
ĠausdrÃ¼ck lich
G E
ĠE R
ra de
ĠL enn
ik ten
ste ins
Ġab gebaut
ĠSp rech
ov Ã¡
ĠPro zesse
Ġseiner zeit
ĠChr ys
Ġtr ick
Ġdown town
Ã¼nd er
ĠPhil h
ĠLei b
Ġinternational er
Ġspecial ist
ĠKÃ¼ chen
Ġpack ages
ĠBow l
ĠgefÃ¤hr det
ĠKab arett
ĠPfar re
Ġcandid ate
ĠAngehÃ¶r igen
miss ions
ĠLearn ing
Ġce iling
ĠGoth a
Ġfir ms
S im
h Ã¼gel
k asten
o be
t ur
ĠS le
he id
Ġb read
Ġm orgen
ro v
ĠF oster
sch atz
ĠR ade
ĠC rist
Ã¶ mm
Ġk unst
Ġver passte
rie ge
se le
ĠDe an
ĠDe kor
enn amen
Ġgew issen
Al ben
Re gie
Ġclos ely
ES S
ĠRegel ung
Ġbeteil igten
ĠWirk lichkeit
ĠvollstÃ¤nd ige
ĠMand at
Ġcy cle
bre ite
ĠRay mond
Ko ordinate
Ġaccommod ation
Hein rich
! âĢĿ
A tt
B ern
E ach
R aum
Ġ ~
Ġd ialog
at io
ĠT ree
ĠG ian
ĠE id
ĠC ord
Ġge heim
ei ra
sp ec
ĠSp enden
ĠÃ¼ber rasch
rÃ¤ gern
Ġunter richtet
ĠÃ ģ
Ġte ch
Ġtra g
ma x
ĠPf lanze
Ġje wel
ĠOb ject
ĠMet ro
ĠsÃ¼d liche
Ġkein em
ĠJournal istin
Ġinform ed
Ġhor se
ĠBasket ballspieler
Ġimplement ation
beam ter
A ber
B O
O h
W ein
o fen
p il
on ed
an as
Ġb ass
Ġf esten
Ġh ydro
os es
av ier
aus s
art a
ĠDe ep
Ġex ception
Ġex pression
rÃ¤ uch
lo ÃŁ
ĠVor jahr
ĠSchw ed
ĠGr on
stÃ¤nd ige
Ġeinfach er
fert igt
ĠIns zen
AT O
Ġmar ks
Ġrelat ively
Ġversch oben
ĠBud get
ĠAre al
Ġwid ely
ĠEntwick lungen
ĠNeb el
Ġinvestig ation
wander ung
ĠFeder ation
ĠErinner ungen
Ġmusikal ischen
ĠConc ert
Rep rÃ¤sentanten
Europameister schaft
Wor ld
Ġcris is
Ġdiskut iert
Ġbeauftra gt
FuÃŁ noten
C ount
D ruck
H O
N orth
P ubl
r igen
Ġd t
Ġd ust
he ide
le isten
ĠA telier
ĠB ott
Ġv illa
st Ã¤dt
ĠE arly
Ġc ategories
ĠH inder
ĠL Ã©
ĠC e
ĠC amer
Ġbe ur
Ġer fasst
ĠSt ufen
Ġver fasst
ver kauf
ern t
be zirks
ĠTh ose
ĠBer eit
ĠNach lass
ĠUnter halt
ish ers
ĠSo f
ĠGra ben
ĠSpiel zeiten
Un ser
bild ner
Ġcommun ications
Ġhistor ique
ĠnÃ¶rd liche
Ġenjoy ing
Ġcap abilities
Ġport folio
Ġverlie h
Ġpain ted
ĠverlÃ¤ sst
mot oren
Ġerhe bt
ĠVerkauf s
ĠKanz el
Ġbesetz ten
Ġcir ca
Ġgefe iert
I hre
P G
e ck
l atur
l Ã¶sen
Ġd ad
Ġs inger
ĠS urf
Ġb ild
ein satz
Ã¤ uren
ĠT Ã¤nzer
ĠK it
sch a
Ġbe arbeitet
ir kt
Ġk ill
Ġk roat
ab zeichen
ver hÃ¤ltnisse
be an
ast ral
Ġex cess
Ġcon ver
ĠGe lehr
ĠGr as
ĠPol ar
Ġdire ctions
Ġteil te
Ġ| |
Ã¤nder ung
met ter
Mar ia
Ġauth ors
kap it
Man ager
ĠÃ¼b te
Ġstruct ures
ĠspÃ¤t estens
ĠTaschen buch
ĠGlÃ¤ ub
A g
F R
M as
P oint
R ich
h ielt
l ia
p us
w il
Ġd ual
es k
ĠS ara
Ġm un
ĠD allas
ĠG riff
ĠE T
Ġc er
Ġz iv
ĠR us
ĠR ally
ĠN ut
ĠN agel
ĠN iveau
ĠJ ochen
ei de
ver folgung
Ġj en
Ġi OS
ĠSp ain
Ġnach t
Ġwe ak
ob a
ĠTe ich
je cted
ĠEn joy
Ġsh ift
fol k
Ġro ugh
ĠGesch Ã¤fte
ĠSte wart
heim ate
ĠStud y
âĢ¦ .
ĠVers icher
hol der
gar ter
ĠLuft waffe
Ġatt rib
Mar ie
Med aille
ĠAbgeord nete
Ġregion ale
ĠSter nen
Ġachie ved
wh ile
ĠMach ine
ĠAuÃŁ ens
Ġenco unter
ĠEval uation
I r
V iele
j ing
m auern
Ġt ack
ĠA ra
ĠA sk
ĠD raft
ig ter
ig ern
ĠL ack
ic ity
ĠN as
os om
ĠAn aly
Ġle istungs
iz itÃ¤t
ĠCh ancen
auf tritt
ĠPh ill
Te x
fern t
Ab solvent
zentr ale
Ġleg s
ĠSchloss es
ĠKol onie
189 1
ĠIde al
Ġannoun ce
ĠWahr scheinlichkeit
Ġserious ly
Ġsav ings
Ġhighl ight
ĠLyr ik
Ġwire less
ĠMalays ia
L ie
m ain
m achen
Ġw ra
ĠS ri
Ġm erk
ĠB L
Ġund ert
Ġp atch
Ġh am
ĠF em
ĠK ass
sch Ã¼tz
ĠZ ellen
enn ame
Ġen ables
Ġbet reiben
lÃ¤ ne
ĠÃľber tragung
Mann schaft
ĠJohann a
mittel alter
ĠAt las
Ġtyp ischen
werb ung
Wh y
akter ien
ĠDel hi
Ġelect rical
ĠUp date
Ġbrow se
ĠMd L
Ġcerem ony
ĠBreis gau
ĠBerÃ¼cksicht igung
D om
M ult
P op
f elt
i ak
p ower
à ¤
ĉ ĉ
in haber
Ġt or
Ġs Ã¤chsischen
Ġp ow
Ġer zeug
ul u
id ance
ĠAn ordnung
Ġdurch setzen
zeich ner
mit te
Ġges ichert
Th ank
ĠStra hl
Ġletz tes
Ġcl imb
Ġmark iert
ĠBas eball
Ġgra b
ĠRÃ¼ck zug
anst alter
ĠPat r
En glisch
rÃ¤n gt
ĠBro ck
Ġabsol ut
Ġfac ts
Ġgem essen
ĠFlug platz
mark en
Ġport ion
Ã§ a
Arch iv
ĠKirch spiel
Ġdescrib e
Ġlisten ing
Ġzeich net
ĠEas y
ĠArz ne
ĠHallow een
H g
H igh
R obert
h yd
k am
u y
us her
ĠD ru
ĠP un
ĠG riech
ĠG iebel
ir s
Ġl ob
est one
os er
ann els
ĠU V
Ġre fin
if ies
Ġfor g
ĠEr stellung
ĠAl arm
St atus
ĠGesch w
ek ten
li ament
Ġno ted
Ġreg ions
Ġausge geben
Ġdevelop er
ĠGegen stand
wissenschaft liche
Ġbelie ved
Ġobject ive
Ġkurz zeitig
Ġmet all
AR D
ĠBis mar
ĠWal ker
Ġtreat ments
Ġung arischer
Ġdiscuss ed
Arch itekt
ĠDenn is
Ent wicklung
Ġliter ature
gerichts hof
ĠAuft ritte
Ġarchite ct
ĠConne cticut
Mill ionen
ĠiP ad
ĠStatt dessen
Relig ion
ĠbegrÃ¼nd et
M G
t ages
er ed
re ff
ĠV ice
ĠZ ert
ĠSch af
ver lust
qu artier
be hÃ¶rden
ĠLe gende
ĠSe kund
auf lage
ĠFran co
ĠGra phen
Ġgu idelines
ĠPl Ã¤tzen
Ġrest r
ĠCla ude
ĠFinanz ierung
omet rie
ĠSamm lungen
ĠWeihn achten
Ġdauer te
ĠLein wand
AuÃŁer dem
ĠKroat ien
F ield
p rechung
Ġt ags
ĠA tem
ĠB GB
ĠF L
ĠK alender
ĠL if
ist urnier
Ġauf nehmen
ĠSch al
Ġver ring
ag anda
Ġde fense
ĠRe vol
ĠEr halt
ĠSp reng
be weg
be cker
ges prÃ¤
ĠAuf fÃ¼hrung
fahr ung
sk o
Ġgesch Ã¤tzt
ĠHaupt mann
ĠQu ad
pla in
reib ungen
ĠSpe ktrum
Ġgr ass
ĠFrÃ¼ chte
ĠKom Ã¶die
Ġworks he
ĠPhys i
maler ei
imar ily
Ġregul ations
Ġregul Ã¤ren
system s
Ġaustral ischer
ĠAgr ar
ĠZerst Ã¶rung
Ġestim ated
Ġmur der
Lou is
S el
on er
ĠB rÃ¤
Ġh ate
ĠK ein
ĠN om
ul ationen
ĠU A
pp ers
ĠVer pflicht
ĠSp ons
Ġsp acious
ĠAr sen
ĠLe x
oc ated
ĠHe irat
ĠVor les
ĠGes am
Ġprodu cing
alen ted
Ġger aten
ĠDes cription
ĠPaul o
ĠAlb ums
ĠHar z
OR E
ĠSozial demokrat
gehen den
ĠWol ff
ĠNachbar n
Ġmem ories
ĠPok alsieger
Ġvict ory
Ġdrink ing
ĠSecret ary
Ġveranst altet
ĠSams ung
ĠLuk as
B ilder
H en
W hether
h um
i ya
l ler
m aus
Â ½
Ġs oph
re f
Ġb ars
ge ister
ĠB eine
ĠB Ã¼ndnis
st oÃŁ
ĠT R
ĠL othar
ĠC ort
Ġbe heimate
Ġl augh
Ġzu verlÃ¤ss
18 89
ĠAus gra
ĠAuf fassung
ĠUnter grund
Ġlie gende
Ã¤nder ungen
Ġzahlreich er
Ġclos er
ĠBrit ain
Ġless on
Ġung arischen
ĠRead ing
ĠKenn edy
Ġbrach ten
ĠBeweg ungen
ĠPersÃ¶n lichkeit
y ter
ĠB irmingham
ĠL ug
ĠU do
Ġ18 26
ov ice
ire ktor
rat ive
iss er
ors itzen
ĠSte ine
arbeit ungs
Ġsu c
Ġjust ice
ĠTr i
ĠZusammen schluss
ĠBeg leit
Ġâ ļŃ
ĠRed aktion
ĠAir lines
ĠTurn iers
ĠPrÃ¤ fektur
ĠHÃ¶r spiel
Ġfa iled
Ã± a
Ġmedizin ischen
-------- --------
Ġschwier ig
Ġeingest uft
Ġtom orrow
D ec
D istr
R ot
T B
W inter
Y es
m ak
at on
he ast
Ġp itch
ĠR ight
ed a
ĠSt all
ĠSt uhl
aus strahlung
Ġse qu
Ġ18 33
iz it
Ġdurch ge
ĠLe hn
yp en
Ġins ight
Ġ0 6
ĠVerb rechen
Ġdire cted
ĠEd gar
ĠRo und
ĠChe v
Ġsk y
ĠHier zu
Ber uf
Ġ180 9
Ġconf ident
ĠBu y
ĠMr s
Ġcook ies
ĠerhÃ¶ hen
ĠInstr umente
ĠPor zell
ĠBeam ten
Ġverurs acht
ĠTai wan
W issenschaft
e qu
r ise
v gl
Ġb ands
ĠN utzen
ĠV es
Ġk ap
ann y
ĠSp in
ĠEin zug
Ġte x
ĠMe ier
Ġgen ehm
ĠNew ton
ĠKunst denkmÃ¤ler
ĠEd mund
ĠMark graf
FuÃŁball trainer
ĠFach werk
Ġant icip
ĠCal c
ĠLang haus
ĠOk lahoma
Ġcontrib ute
Ġzeich nete
Ġtschech ischer
Ġjo ining
C la
S cript
he ll
Ġb anks
ĠA chter
il ang
ro tt
ĠL loyd
Ġdes wegen
ĠSt rÃ¶m
Ġr ational
Ġr ichtet
qu ar
Ġnach weis
Ġ18 27
Ã¤t igung
ister s
ĠOr leans
18 88
los er
ĠMe ilen
Ġlie ber
ĠGr ill
Ġalle ged
ĠKl einen
stra hl
ĠMÃ¼n z
ĠDurch bruch
Ġbook ing
Ġcal endar
ĠSel f
ĠMc K
ĠKind es
ĠTur b
Ġverbunden en
Ġindividu ell
Stra ÃŁen
ĠProf i
ĠDisk uss
Ġhop ing
Ġsamm elte
dehn ung
Ġinteract ive
Ġmill ions
it us
Ġs aving
ĠC omb
ers e
Ġre chter
ov ed
ĠDe te
Ġcon v
ĠAb stamm
je ction
ĠVor feld
ĠCon tra
ĠÂ °
ĠSk ispr
Te chnik
ĠForm ation
Ġstar ben
ĠMag net
Ġcol ours
Ġerhalten e
rÃ¤n ken
gar de
Ġpat io
Ġerne uert
ĠRegierung schef
Ġcap able
ĠAv ailable
ĠAth leten
Ġill ness
schei de
Ġren omm
ĠDial ekt
Ġdisplay ed
Ã©n Ã©
klass igen
ĠAngehÃ¶r ige
ĠLiss abon
W ohn
Ġt elling
ĠS ten
un ivers
ur ist
Ġin it
ĠK id
ĠH az
ĠR ace
ber ichte
ĠC ape
ĠN ations
Ġk Ã¼mm
ĠZ ag
ver leihung
Ġdem nach
Ġpro of
ant o
rom an
Ġgen Ã¼
Ġbet Ã¤t
Ã¶l k
ĠAd v
gew orfen
ep ing
ux e
ĠBÃ¼rger schaft
produ ktionen
Ġmoder ner
Ġconf igur
gesetz te
Ġoffic ers
Ġarr ive
Ġkanad ische
ĠSem ester
Ġlok ale
ĠAR D
ĠInner halb
Ġobtain ed
Ġbess eren
ĠAx el
ĠFriend s
B lack
M a
U K
p it
Ġd ump
is ka
ar est
Ġb id
Ġm as
ĠM ira
Ġh alt
ĠG rant
am ic
ĠK enntnis
ĠSch ein
Ġfor ever
Ġhe aling
ĠJahr taus
ok en
be vÃ¶lker
ite es
fe kt
ĠLand wirtschafts
ett es
ĠAd vanced
ĠFre ie
oth y
stÃ¤nd igen
ĠKunst s
uge hÃ¶r
ĠWor ten
Ã¤us chen
ĠHerr schafts
kon zept
ĠSpe z
ĠKat zen
Ġgener ate
Ġens uring
Ġstre ets
Met al
ĠErd geschoss
ĠAuftrag s
ĠFluss es
ĠNik ola
Ã¤cht nis
ĠSur vey
Ġasp ect
.:.: .:.:
ĠClaud ia
Ġincor por
bÃ¼t tel
ĠInsp ir
Ġlehn te
ĠkÃ¼nd igte
A rab
N ein
e xt
f onds
f aktor
ä ¸
Ġf iber
Ġm Ã¶
Ġp in
ut age
Ġer a
ĠSt Ã¼tz
Ġr ib
Ġcon vert
18 80
Ġco unsel
ĠNach frage
sk irche
Ġrec ipes
Ġbl end
zie her
ĠPer fect
Ġret ten
sc reen
ifiz ierte
eint rÃ¤cht
ĠMiss issippi
Ġmag ic
ĠÅ ½
Ġrepla ced
Ġchines ische
ĠBekannt heit
Ġprotest ant
Ġappe al
ĠRaf ael
ĠUd SSR
D ep
P P
h essen
j ana
j Ã¤ger
v ik
} .<
on ische
at hlon
Ġf ikt
âĢ ²
sch reibung
ĠL Ã¶s
Ġer baute
ĠV at
Ġne utral
end ant
Ġ18 34
Ġsie d
Ġdeutsch es
amp a
ĠSchw ert
min ute
Ġph arm
schl iess
Ġmon at
ĠBuch en
mar ine
ĠRot ter
sprach igen
ĠÃ¤hn lichen
Ġtravel ing
Ġmechan ical
Ġimmed iate
Bild ung
Bere chnet
Bet rieb
Ġconfl ict
Ġelig ible
A K
B ras
D B
H erkunft
K ommand
N ur
w iesen
ar ben
ĠS ind
ĠB ruck
de i
ĠG uer
ĠH Ã¼tte
ĠH obby
ĠL ic
Ġto urn
ot ischen
Ġe hr
Ġzu geschrieben
Ġver grÃ¶ÃŁ
ĠAn nahme
ĠEr neuer
qu ote
Ġsch ein
rÃ¤ ts
ond o
ges ted
Ġus age
Ġwor auf
ĠIm pf
Ġres ort
ĠKon f
ĠEx change
ific ial
hol ders
Ġsub s
Ġret ire
ĠSport ler
ĠKont roll
ĠMont real
Ġturn ing
ĠKol umb
pre ise
Her ausgeber
Ġlate in
Ġ179 8
ĠStell vertreter
bil den
Ġnorweg ischen
ReprÃ¤sentanten haus
R Ã¼ck
V e
g rÃ¼
j ugend
k Ã¤mpfe
m aking
z elt
en ke
Ã¼ bt
ĠM C
ĠD Ã¼r
ĠG ent
ĠG Ã¤rten
ĠH ins
ĠL ohn
ĠV iv
ik ers
ei z
Ġver bleiben
Ġun us
ang riff
Ġle ts
erk rank
ĠSe ason
Ġwor st
uld a
Ġpr ison
Sch ach
rÃ¼nd ung
ĠMan ual
ĠInd ustry
Ġdr iven
ĠDar stellungen
23 4
ĠAg nes
ex p
Ġbisher ige
Ġinn ere
otent ial
ĠTele f
ĠWeiter entwicklung
ĠErk enntnis
Ã¶p fer
Ġincreas ingly
quis ition
ĠSper r
Ġkeiner lei
unters uch
Ġven ue
Sta ats
1 10
H in
M ess
b og
in ental
Ġd oppel
re volution
ĠT O
ĠT ipps
Ġc arr
ra ce
ra ums
ber ater
Ġ2 20
ĠJ Ã¤nner
ĠSt au
ate mal
land kreis
ĠCh ange
Ġman gel
ĠMar ion
ĠWe ich
pro vinz
ser ver
Ġcont est
ĠGrund stein
lig as
Ġpass ende
ĠRu ine
herr n
zÃ¼ g
Ġober e
189 4
Ph ys
viron ments
Ġrelat ive
Ġwid th
Ġsowjet ischer
verstÃ¤nd nis
Ġforder t
Ele kt
Ġbelg ischen
icul um
ĠKoordin aten
ĠLegis latur
ĠGeor ges
M ap
S ol
V C
c ements
d ays
Ã¼ ÃŁ
ĠB ib
ĠP for
ĠP ain
ol ia
Ġg entle
ĠC ore
den ken
ess ischen
ag u
Ġ18 31
Ġso il
ret to
Ġad van
Ġro y
Ġro ot
rif fen
St il
ikan ten
off er
Ġhand ling
ĠBet rag
Ġsho ck
Ġfl ower
ĠNieder lagen
utt le
Ġentsp rach
Ã¤uf e
Ġpersonal ity
ĠGef Ã¤hr
Ġinvol ves
Ġther ap
ĠZwe cke
Bundes staat
ĠGolden en
person en
Ġvergleich sweise
Ġelektr ischen
ĠVerdienst ordens
ĠAN D
russ isch
Bad minton
ĠZul assung
Ġprincip les
Ġbegeister t
B ank
C lass
F er
R ichter
S M
U s
Ġs olle
Ġin telligence
ro g
am an
ĠK rem
ĠE k
ĠH ip
ĠR iv
um fang
ir r
Ġan onym
Ġge fahren
ĠU ran
ĠZ en
ĠSch iffen
Ġst ake
ne ub
ĠEr finder
ĠEr lebnis
Ġle iden
Ġ18 17
ĠAl li
Ġman che
ish es
ĠCo us
oss a
gew Ã¶lbe
Ġvers at
vers uch
ĠHoch wasser
ĠProdu zenten
ĠHol ocaust
ĠProble men
AL L
Ð½ Ð¸
ĠGerichts hof
Ġposs ibility
funktion Ã¤r
ĠSus anne
ĠBist ums
Ġdiv or
ĠAster oid
Ġhy per
MÃ¼n chen
ĠFreist il
Denk mal
Sing les
bevÃ¶lker ung
A uth
S outh
W ork
m ass
ĠS id
Ġin ch
Ġf ern
de uten
Ġp or
ĠF ive
ĠG ros
ĠG UI
ĠK iss
om ing
om orph
em eter
ĠW ing
ĠR ange
ĠC ash
ĠN acional
Ġl ady
ĠV alen
ab st
Ġver legte
op y
Ġ16 00
vel and
pf el
Ġover w
ĠGen re
ĠBau werke
Ġac ts
Ġverw altet
Ġdr inks
ĠProdu cts
weil en
ĠAnt worten
ĠOlymp ic
Ex per
Ġsl ot
ĠRuss ell
Ġ180 7
Ġfra uen
tor wart
Ġsouth ern
ĠSup reme
Ġinstru ction
Max im
ĠBiograph isches
Ġbefind lichen
Ã¶nt gen
Ġnorm ally
ĠFrÃ¼hl ing
ĠSiz ilien
A v
E ss
h all
t it
w achsen
ĠS i
ĠS owohl
Ġb odies
Ġf ried
st unden
ĠP oll
Ġn one
Ġh urt
ĠF ix
ĠK iew
ra ÃŁe
ĠH ung
ĠR ache
Ġer setzen
Ġer werben
ĠN athan
Ġl uck
Ġk ar
ĠZ iegel
ĠSch iller
Ġver letz
ĠIn tens
schaf fung
ĠAn other
be zirke
age ments
ĠSie mens
ĠCh Ã¢
ian i
itz sch
bar es
Ġph ase
Ġho le
Ġger ufen
Ar ray
con ne
Ġjeweil ige
ĠPal ais
Ã¨ ne
gef unden
ĠSw iss
Ġphys ikal
ĠEigen schaft
BC I
Ġyoung er
itar ren
ĠDor othe
But ton
Ġbott le
Cl ub
umin um
Ġqualifiz ierten
Ġdeta ill
Ġattem p
Je an
ĠFlÃ¼cht linge
ĠPaz ifik
Ġstyl ish
P ack
P res
V is
k Ã¼hl
r und
r asse
Ġa ims
ĠS H
Ã¼ g
Ġm ile
Ġm eint
ĠD Ã¼n
ĠK Ã¤mpfe
ĠR ott
ĠR ights
ĠN atal
ĠSt Ã¶r
Ġnach folgenden
ant ie
ide en
18 79
Ġ17 0
Ġbeen den
ĠTr enn
ĠHaus halt
Ġtyp ische
Ġbr idge
ĠTechn ische
ĠKor ps
ĠBesitz ungen
Ġther apeut
Ġtele fon
Ġblock s
ĠOrgan ist
Ġplatform s
rup ted
Ġnar row
ĠTob ias
intend o
Ġcondu ct
ĠNeck ar
A ktiv
D M
T her
k ing
s eiten
Ġt one
ĠS ob
ge fÃ¼hl
Ġf otograf
ĠT ell
ĠK em
ĠK anten
Ġre lief
ĠVer anstalt
ĠRe z
esch e
ff ekt
se quent
ĠTh ai
ĠAb kÃ¼rzung
18 72
Ġpr imarily
heit lich
Ġbeg rÃ¼ndete
ĠGen ossen
ĠBau arbeiten
ĠTra uer
uk le
ĠEd itions
Or igin
Ġsuch te
ĠBere chnung
ĠMag ic
Ġpubl iziert
Ġchild hood
ĠKo alition
ĠFrankreich s
Ġhead s
ĠHeil bronn
Ġworks hops
ĠSchÃ¶n heit
Ġbezeich neten
ĠSym pt
bour g
Ġtal ks
ĠSauer stoff
ĠRies enslalom
Ġdokument iert
ĠGon z
ebau ung
Ġrout ine
> -
p fe
Ġb ay
ĠD irk
ĠE isk
ĠH ash
Ġl ake
ĠSt if
ran ts
Ġsp ir
ĠEin ladung
ĠNe ed
pr es
wa ppen
Ġfr isch
mÃ¤ ss
bl ings
ĠMich ail
ĠPl ug
Ġbas ket
ĠAir es
!! !!
Ġlist ings
ĠPhilipp inen
Ġindividu ellen
ĠEll en
ĠUrs ula
Ġattack s
Ġcharge d
ĠÃ¶ konom
ĠInternets eite
ĠEncyclop edia
M iss
S Ã¤nger
b ot
ĠS ierra
ĠD anzig
ĠT all
ĠG y
Ġc lock
ĠW ire
et o
ĠC hel
ĠU ll
ĠSch lange
Ġver e
ĠIn vent
ce ut
Ġsch eme
ĠCh ines
Ġman ip
18 0
ĠVor arl
Ġro se
ĠMus l
Ġno ise
Al though
ĠPe ace
Ġpar ad
Or gel
Ġvis ible
ĠMeister titel
lei h
Ġmov es
laub nis
Ġcor respond
Ġgem el
Ġlin ke
ĠZe ugen
ĠEner g
ĠZeich ner
Ġflo ors
ĠWol ken
yth mus
Ġstrength en
Ġviol ence
Meister schaft
ĠRef lex
Kan al
M ad
P N
j un
z weig
he ft
ĠD R
st ationen
Ġo vers
ĠG ou
ĠK ante
im i
Ġz Ã¤hlten
ĠR Ã¼st
um pen
ĠSt ief
ĠO ft
Ġauf geb
we alth
Ġse ats
Ġme als
ĠMar l
ĠCo le
ym met
stein er
ĠArch ive
ĠDar steller
ĠfrÃ¼ he
ĠBest immungen
ĠNatur park
ĠOp erns
ĠLuft fahrt
ox id
gien e
pol izei
Ġassist ant
Ã¼ll en
ĠTÃ¼r en
Ġumfang reichen
Ġremov al
ĠScott ish
ĠNikol ai
Ġdurchschnitt lich
Ġfail ure
Ġlauf enden
A bst
H or
O t
b ill
us ions
Ã¼ ten
ĠB ible
Ã¤ ub
ĠD iss
ĠP ant
ĠH oy
ĠL oh
ĠL amb
ĠL anc
ĠC redit
ĠZ wick
ĠAn to
ĠAn meldung
ip her
ĠPro cess
Ġen ge
Ġeinz iges
Ġben utzen
ĠWil helms
Ġdevelop ers
recht lichen
ĠApp lication
Ġerschien enen
Ġfac ulty
leben s
ĠMer c
ĠInn ere
Ġconne ctions
ĠSpr ings
wal ts
Ġgegeben e
struktur en
ĠDiffer enz
stÃ¤d ter
ĠEqu ipment
B ass
L ied
P L
k rÃ¶
n ice
o ft
t ier
er gie
Ġt we
Ġt rugen
Ġs ink
at om
Ġf as
ĠM G
ĠP Ã©
ĠG ay
sch ool
ĠL ese
ĠL ena
and ra
ul se
Ġe gal
ab ad
Ġre pl
ne z
sp or
Ġsp iegel
Ġunter e
ĠCh ap
ĠAus lands
ĠReg isse
Ġfin est
ĠCo ol
of ern
kl ang
ĠOst see
ĠVolks schule
Ġset up
ĠSen ats
ĠCont est
Ġredu ction
bor ough
ĠSant iago
ĠErd b
Ġkosten lose
flug zeug
Ġversch le
Ġauthor ities
Ġnotwend igen
ĠÃī d
Ġfair ly
Ġexpla ined
Ġbul gar
Ġcru cial
ĠberÃ¼hm ten
cu ador
ĠgrÃ¼ nen
Ġrub ber
ĠGitarr ist
ĠInterpret ation
ĠNapole on
Ġcircum stances
ĠShakespear e
D ynastie
S Ã¶hne
T able
V iel
X X
g iving
o ine
s l
s ysteme
Ä Ĺ
er ia
ĠB Ã©
ĠD ein
st atus
ĠK au
ĠW ink
ĠL af
ĠL Ã¼b
ĠC rew
ul ierte
ĠSch ieds
Ġsch ul
ĠEin fach
erk irche
ph a
ĠNach ruf
ĠFl Ã¼sse
fl Ã¼ge
Ġstud ying
ĠfÃ¼hr ende
Ġmo lec
ĠHaus halte
ĠStaats bÃ¼rger
erke ley
Ġtradition ell
So ftware
Ġgelang t
ĠDenk m
ĠPsych iat
ĠGeist es
ĠKommand ant
Ġneg ativ
Ġgriech ische
Kultur denkmal
ĠGru yter
Ġintens ive
Theater schauspieler
Ġfight ing
ĠVul kan
ĠInstall ation
ĠMitbe grÃ¼nder
. [
E mp
d amer
r idge
t im
w issen
ge tt
Ġn ights
ĠF ine
ĠF ron
Ġc am
Ġz one
ĠH Ã¤nden
ĠI hm
Ġver mittelt
th es
Ġso fa
ĠUn i
ord nungen
her it
Ã¼hr ung
ĠFl orenz
Ġqu e
mit ten
ors es
ĠUm zug
Sch lag
ĠBr istol
Ġfl ach
Ġeng ines
Ġphot ographer
ĠDu o
ĠLauf zeit
Ġresult ing
ĠHeraus gegeben
Ġwonder ing
Ġselten er
Ġdeal ing
ĠWahr nehmung
Ġsens itive
Ġsyn thet
Ġdur able
ĠInform atik
Verkehr s
ĠBÃ¤ ume
Ã¼nde te
ĠVerÃ¤nder ung
Ġbow l
ĠBalt imore
ĠSozi ologie
penden ce
Ġbekleide te
s aison
Ã¤ sche
ĠD ill
ĠP itts
ĠE V
ĠL A
Ã¶ ster
ĠV W
ck et
ĠAn gl
ĠEr ben
ĠMe hl
Ã¤l en
Ġgew isse
Ã¤ch ern
ĠKir cht
Ġvers uchten
Ġmus cle
ĠMed aillen
ĠVerb ot
Ġviel mehr
Ġed it
ĠLondon er
ĠPal Ã¤
okrat es
Sh op
ĠLuc as
Ġmer ch
ĠmÃ¤nn liche
Pl us
grÃ¶ÃŁ te
astrop he
Ġbevorzug t
Ġgewinn t
Ġexpos ure
C or
F I
L es
f lieger
g re
p df
w y
at ra
ĠD j
sch iffen
ĠH ag
ĠW alt
ĠW WE
ĠL utz
ĠC ulture
Ġst ainless
ver ordnung
Ġaus gesprochen
ĠEr ziehungs
Ġsch lossen
ĠBe eth
ĠPro gress
Ġzw anzig
ĠCh an
ĠAb bau
inz eit
zeich neten
Ġra w
Ġadd s
Ġsk illed
ĠHel p
Ġâ ĪĴ
fre unde
Ġpublic ation
ĠMaler in
ĠPubl izist
ĠLou ise
Ġcommon ly
schlÃ¤ gen
Ġagre ed
ĠGh ana
Ġphilosoph y
Ġlit au
Ġsubmit ted
Ġdiagn ost
arma ceut
ĠKent ucky
Ġerl itt
ĠKÃ¶n ige
Ġsup erv
Ġromant ic
ĠSchlagzeug er
ĠSkulpt uren
ĠVertre tern
ĠvorÃ¼ber gehend
ĠShang hai
ĠTschechoslow akei
" |
N E
w Ã¼n
ch at
ĠS QL
at ively
Ġm and
Ġm ature
Ġm aps
ĠA BC
Ġo cean
ĠT et
ĠG U
Ġc atalog
ĠC old
Ġer laub
uch i
la te
ies sen
ind lich
ĠVer pack
Ġ18 22
ial is
be ziehung
ĠAus tern
ĠAus sehen
ĠAus rÃ¼stung
fe hler
Ġar rested
hel ess
Ġmo unted
Ġze igten
Ġteil en
ĠMittel n
Ġcar pet
ĠMor ris
Ġbas ically
ĠSol ar
bra uch
All gemein
Ġaccount ing
ĠUntersuch ungs
Ġrecommend ations
Ġdauer haft
ĠVoraus setzung
Ġreag iert
ĠBapt ist
Hers teller
Ġagr ic
a o
b aid
á »
Ġt um
le ments
st rÃ¶m
Ġp ocket
ĠF urn
ĠH MS
et ooth
ĠN obel
ĠO F
og h
sp anisch
Ġsie bten
Ġvor n
ĠTh ink
auf ent
18 83
ĠAm tes
ĠFl ur
ĠGra y
gew achsen
ĠHand y
ĠDurch schnitt
Ġreal ized
Ġdav or
ifik ationen
ĠEhren mitglied
Ġpurch asing
ĠJazz musiker
ĠUs ing
Des ign
ĠLig as
ĠKÃ¶r pers
Ġscen es
ĠSchmer z
ĠSchrÃ¶ der
G ood
V ID
a ÃŁen
f ly
g ium
i ast
v illa
ge ht
Ã¤ hre
ro c
ig ne
ĠP ink
ĠT ir
ĠK uba
ĠW eing
ĠR idge
Ġbe legen
ir ges
Ġth in
Ġge gangen
ab is
if a
oc o
ĠGes and
itt y
Ġfind s
Ġass um
ĠWh ich
Ġgel Ã¶scht
ĠGl ob
ĠSchul z
ĠPaul us
ĠLebens jahr
Ġvoll kommen
ĠAg u
Ġemp ir
ĠFot ografie
Ġfocus es
ĠZusch auern
Ġrecogn ize
Ġqualifiz ieren
Ġsamm eln
Ġfla vor
Ġwunder sch
ĠVertra uen
ĠGebirg s
wÃ¶r ter
ĠCaf Ã©
ĠBundesverdienstkreuz es
ĠReeder ei
D el
T I
T schech
h ut
Ċ ĠĊĠĊ
Ġs hr
ĠM esser
Ġein heim
Ġl adies
ĠJ el
ik alen
uch ter
Ġver f
ĠAl m
geb ot
18 84
ĠAus gleich
Ġad op
Ġro ads
ald o
pf lanz
ĠGroÃŁ vater
Ġtechn isch
ĠRom ans
ĠNieder schlag
Le ague
ĠZusammen setzung
ĠAg ent
ĠDis play
ĠCont ainer
mark e
Unter es
roll ing
Ġalong side
ĠRang ers
Ġdra wn
Ġinteress ant
Ġschle chten
Ġgesellschaft lichen
Ġbrasilian ischer
ĠReprÃ¤sentanten hauses
ĠAlf ons
H of
L ang
i u
p ern
v it
in as
Ġw ann
Ġw esentliche
Ġb ranch
ĠB Ã¤r
ĠB rÃ¼n
ĠD A
ĠT rop
ĠG ate
ĠE X
sch lagen
ĠH ur
ĠW ard
ck now
ĠO z
ag ues
ĠEr forschung
ap o
ĠBe fÃ¶rderung
Ġ18 29
ĠAl abama
18 85
18 68
Ġsome where
Ġem pty
Ġgesch w
ĠMÃ¼n zen
Ġevery where
Ġcl ar
Pro vinz
Ġ24 0
Ġpriv ile
ĠMay be
ĠWinter spielen
ĠRuss ischen
ĠMos k
Ġintrodu ce
Ġassoci ation
ĠImm un
ĠbestÃ¤t igte
Ġsav ed
organis ationen
ĠAuthor ity
ĠWik ipedia
ĠBefrei ung
ĠDak ota
Ġoffens ichtlich
ĠKreu zer
L ive
M or
f licht
l is
m Ã¼n
r ike
Ã ²
ch sen
ĠS alt
ĠA V
ĠD FB
ig rant
ĠH Ã¼r
ĠW onder
ĠW Ã¤hler
ĠL ost
op fer
ag ram
Ġde kor
Ġr iding
Ġor al
ĠCh at
ade us
aw are
ĠEurop ap
ĠMin or
Ġra cing
ĠMo os
ĠAmer ikaner
ĠDo es
lÃ¤nd isch
less ly
druck s
ĠFot ogra
Ġ180 4
ĠStutt garter
Ġredu cing
ĠRÃ¶ hr
Ger man
ĠerhÃ¶ hte
Ġschle chter
ĠGeh irn
ĠLandtags wahl
ĠReichstag s
incl uding
Ġwechs eln
Ġangrenzen den
ĠArbor etum
D ienst
L Ã¤ufer
Q ue
S to
W ol
b eing
l Ã¼ck
n ischer
Å Ī
ch ild
Ġb Ã¶hm
ĠB rett
ĠT rue
ent z
ĠSt yle
ĠZ ar
ah ne
th at
ĠEin tra
Ġch ose
Ġen vironments
18 77
ail ing
Ġsol ve
Be wegung
ĠWei den
met hoden
Ġwrit ers
aun us
Ġdirect ory
rÃ¤nk ungen
ĠGottes dienst
ĠdÃ¤n ische
ĠPok er
ĠLiefer ung
Ġguarante ed
ĠAar on
Ġstrug gle
ĠVerletz ungen
ĠBesonder heit
ĠGreif swald
ĠGrÃ¶n land
ĠMarsh all
S ingle
d ig
k ers
p hal
Ġt alented
ro ff
ĠF u
ĠF lat
ĠK essel
ĠK emp
Ġer fre
ad os
Ġst amp
Ġst uck
id as
og s
Ġsch mal
be c
Ġbes eit
Ġbet ont
ĠBl as
Ġph ones
wohn ungen
Ġperson en
wei he
ĠPal ace
iat hlon
ĠCom edy
Ġcr ash
Ġsever e
spe ction
Land tags
kap ital
Ġwatch ed
ĠVis ual
Ġcommit tee
ÅĻ ÃŃ
Ġpassen den
Christ ian
ĠEconom ic
Ġausger Ã¼stet
Ġcrow d
ĠZerstÃ¶r er
h Ã¤
j ar
l ob
l enk
p he
Ġt ill
ĠS uhr
ĠB ureau
ĠP hoenix
ĠG os
ĠH eiden
ĠN ancy
Ġl aden
ul ator
ĠZ Ã¤hne
au c
ĠIn stead
Ġaus gel
Ġr ural
ran gl
ĠAl aska
ĠDe part
ĠPro gr
Ġ17 89
Ġange mel
Ġfl ights
ĠLandes regierung
Ġgu idance
Ġersch lossen
ĠWill en
ĠSchl Ã¶ss
ĠKultur en
ĠBro thers
ĠFolge zeit
Ġprom ise
Person en
Ġevent uell
Ġmir ror
ĠKre ise
serv ice
ĠPak et
ĠMio zÃ¤n
ĠAusgang spunkt
ĠVf L
Publik ationen
G el
G ott
L ondon
Z ahl
c re
f isch
g les
g ymnasium
Ġt ape
Ġs ick
at in
Ġb ibl
Ã¤ ums
Ġn ic
ĠF uture
ĠK etten
ĠH Ã¤ndler
ent urm
Ġan th
ĠSt op
ik ale
ad al
ad ion
ĠIn fl
ĠIn fo
Ġpro ceed
Ġj unger
ĠSp alten
ungs weise
ast ing
18 87
ĠUnter b
Ġgen der
iger ung
gend a
ĠOb serv
lauf bahn
ĠWerk zeug
Ġperson s
ĠDar in
ĠKn ight
Ġstehen de
Ġ180 2
verwalt ungs
Ġfund amental
Ġtax es
ĠChampions hips
Ġnotwend ige
ĠAdels geschlecht
Ġframe work
Ġsem i
Bere ich
Ġsitu ated
Gew Ã¤sser
ĠMetrop olitan
Ġster ben
Ġjun ior
Ġfasc in
S W
T wo
j ap
w ende
Ġw Ã¶ch
re aten
ĠA ps
Ġein fluss
Ġn om
Ġn eb
Ġh az
ĠW iel
ach i
ĠN ieren
ĠN ike
ĠV iktor
Ġst ren
ov on
Ġman agers
18 70
mit gliedern
fÃ¼hr ende
orn o
Ġsu ite
Ġem bra
Ġind oor
oph yll
Ġcl ubs
Ġexper imen
weil ig
utt a
Ġbef asste
ĠOrts name
ĠWohn ungs
ĠGew ichts
Ġbed ingt
vert retung
ĠThere fore
mark et
ĠStaat lichen
osp el
pre uÃŁ
Ġstat istics
Ġrespons es
Ġneg ot
ĠpreuÃŁ ische
arkt ischen
Ġrob ust
ĠPyr am
ĠJubil Ã¤um
ĠCommer cial
ĠRepar atur
Ġkonzip iert
baid sch
G ar
P rÃ¤
a ired
c ut
g ran
w ender
Ġt ile
Ġs ymp
an schluss
ĠS end
ĠB arr
ĠB renner
Ġp it
ĠT in
ĠT ap
ĠT yr
ĠF abr
ĠR Ã¶ntgen
Ġk andid
Ġdes ired
Ġge ographic
ab lo
ĠSch ar
th alter
Ġsp ots
Ġ18 19
ĠEin blick
18 78
18 81
ĠY e
ĠY oga
Ġro les
Ġverb lieb
ĠMon th
ĠVers ammlung
Ã¤nder ten
Ġpo et
fass ade
Ġev olution
ĠPla ces
rÃ¤n kte
ĠApp ro
Ġabge geben
Ġexist ierte
ĠDi abetes
ĠKreuz es
ĠAmts gericht
ĠTrans fer
ĠRob inson
Ent fernt
Des cription
Ñģ Ðº
ĠSchu bert
ĠClin ton
Ġdish es
ĠGil bert
Ġdigit ale
Ġstir bt
klin ik
Ġdepos it
ĠStett in
O pt
h ot
È Ľ
it ime
ĠS uz
us ten
sch auen
et ition
ĠR ib
ĠL ipp
ĠL ingu
Ġk lin
Ġmit hilfe
Ġst ruktur
ver mÃ¶gen
ill i
Ġr ice
dem ann
co le
chn ungen
Ġup grade
ĠStadt bezirk
ĠProdu ct
Ġdiffer ences
ĠÃĸsterreich ische
Ġpass ing
Ġclass room
Ġfac es
Ġtrad itions
ĠCas par
spe zif
Ġcharacter istics
Ġlif etime
Ġanges iedelt
ĠPfe il
Ġsurpr ising
Ġsurpr ised
JÃ¤hr ige
Ġris ks
ĠBurschen schaft
U G
Ġt ut
te or
un ken
Ġm or
ing o
Ġh its
ĠK reat
ĠE L
ten ts
em at
Ġbe ha
ĠZ ubehÃ¶r
ct ual
sp rechend
ĠÃ¼ber arbeitete
ĠEin tritt
Ġor ch
be er
ĠTe e
Ġall mÃ¤
Ġ4 000
ac ular
ĠAb tei
lo cken
ou x
Ġgew alt
iet ies
Ġget estet
ĠJahrhund erte
ĠUm frage
rad ition
Ġstud ied
ĠNor mand
Ġbel ong
Ġbo ot
ĠHaupt darsteller
Ġdesign ers
Ġlang uages
Ġperson ally
Ġsub jects
Ġgemein nÃ¼tz
ilder t
ĠSchn itts
ĠProfess ur
ĠÐ ¿
ĠMont age
ĠIhr es
ĠMad ison
ĠZÃ¼r cher
ĠSied ler
ĠAp oll
ĠCle veland
Ġful f
Ġanz ut
ĠVerteid iger
ĠLux us
Ins eln
has Access
ĠWitten berg
Ġliefer te
ĠHamp shire
ĠHins icht
C ity
Z iel
u gel
Ġb ol
ur ious
as ar
Ġf its
ĠB erkeley
ĠM ack
Ġp hr
ĠK ill
ĠW enz
Ġg rat
Ġg rant
uf Ã¼gen
Ġer setzte
Ġl ists
Ġl okal
Ġzu gewiesen
Ġ18 23
ĠAb kommen
ĠReg iments
ĠzurÃ¼ck zu
ĠGen ehmigung
Ġgeb raucht
ĠBet reuung
Ġschw ach
ĠPat ient
Ġdarauf folgenden
kon omie
ĠTag s
He im
Ob jekte
ĠBeruf ung
ĠZur Ã¼ck
seit ige
ĠKraft werk
ĠPil oten
Ġentw arf
Ġstammen de
Ġrelig ion
Ġverz ichtet
Ã¸ r
ĠYear s
ruit ment
Ġfab ulous
Ġgere cht
national mannschaft
Ġverblieben en
ĠBuen os
ĠAbstamm ung
, ...
. ;
F ind
S am
a endert
i Äį
Ġt ap
ar ie
ĠS ans
Ġb elt
Ġin halt
ĠF ig
im an
om aten
ĠH Ã¼tten
ĠI X
ĠI van
ĠN an
Ġan treten
ad Ã©
rie gen
Ġsp l
tell igent
ard i
par e
Ġwor se
los ure
fl ix
ĠPh asen
ix on
ĠgroÃŁ em
Ġverb ringen
ĠPlatz ierung
ĠFe atures
ĠCon struction
ĠAll iance
Ge ographische
Ġact or
ĠBild schirm
Ġmin ing
rech ten
Ġverl ieren
ĠFach bereich
ĠErst ausstrahlung
ĠjÃ¼n gere
Ġregard less
Ġincreas es
Ġenth ielt
Ġlandwirtschaft liche
ĠArchÃ¤ ologie
ĠMoz art
ĠGÃ¶t ter
Verwalt ungs
Ġamen ities
ĠNev ada
Leichtathlet ik
K or
P o
R est
W al
f uÃŁball
h ill
k Ã¶r
k ologie
t ax
Ġd ei
he ld
un er
Ġf eind
le e
Ġp iano
Ġh ung
ĠF R
ĠR Ã©
Ġto x
Ġto oth
ĠN ATO
ĠV all
ĠJ ama
Ã¼r me
iv ia
Ġe ignet
ĠO le
th is
aus stellungen
ĠEin stieg
ame ters
ĠSe es
Ġweit en
ĠZeit ungs
fin al
Ġnew est
ĠFre quenz
ĠCl ara
ĠFahr zeugen
ĠDar unter
Ġsur ve
ĠOlymp ia
rib e
ĠTour en
Ġdre hte
Ġbeh ielt
Ġrep airs
Ġcreat ivity
Ser ver
ĠÃ¼b licherweise
Ġkont akt
ĠBil anz
Ġcrit ic
Ġtw enty
ĠBox er
Ġflex ibility
ĠSlow en
ĠSchlaf zimmer
Ġsinn voll
varian te
ĠPerspekt ive
ĠSkla ven
ĠschlÃ¤ gt
B urg
G reat
L it
N och
b eln
d oc
d orff
n ick
w Ã¤nde
er gebnisse
in et
Ġt ip
Ġw esentlichen
Ġ( âĢľ
ĠF rÃ¶
ĠL ion
ĠL esen
Ġg ig
ĠSt orm
ann ung
ver eine
ĠIn k
ze w
Ġse ctions
Ġvor geschlagen
ĠSe hr
ĠVor kommen
Ġpr inter
Ã¶l zer
ĠNov a
Ġfind est
Be fore
Be griff
ĠEle ktr
40 6
fel den
Ġbre ast
Ġchar ity
Ġant rat
ĠUl tra
Ġenter prise
ĠBÃ¶ hm
Ġapproach es
Ġwohn te
System atik
Ġextens ion
Min ister
ĠFlo h
ĠWay ne
ĠRÃ¶m ischen
spann ung
ĠRal f
Ġvolunte ers
Ġzul Ã¤ss
ĠDiam ond
Ġausgesch ieden
Ġgarant iert
Ġinvent ory
ĠHinz u
ĠMuh ammad
ĠGetre ide
ĠRotter dam
R um
u als
ar isches
ĠS N
at ro
Ġin tent
ig ate
ĠP ause
sch ach
sch Ã¼tze
ĠI M
ĠC ec
ĠC reative
Ġl aser
ĠO ppen
Ġst ieÃŁ
ĠIn itial
ĠSp a
iz ierten
Ġunter b
ĠSe ven
Ġco ordin
ign al
Ġsh irt
ĠWe iss
Ġhas n
Ã¤l z
orf ul
aum burg
Ġtr ips
ĠPe ak
ĠKÃ¶nig lichen
ĠMed ic
Ġger man
ĠQu ant
ĠSÃ¼d seite
Ġeinz iger
ĠKunst historiker
Ġmark ed
Ġeng aged
Ġbr ut
ĠRei fe
ĠCor porate
ĠZentr alb
Ġ180 1
Ġdeliver ing
ĠArbeits gemeinschaft
ĠFrie der
ĠProt otyp
Nieder lage
Ġmaint aining
ĠMyth ologie
Ġhighl ights
Ġhochwert ige
ĠCommon wealth
ĠBulgar ien
C as
J ournalist
S oll
Z E
c amp
g ouverneur
t rans
z iele
ĠS O
un o
ĠM oney
ĠD in
ĠP ent
Ġ( +
ĠH unter
ĠH ous
ĠW right
ic um
uf akt
ier i
ab s
ab wehr
sp Ã¤ter
ĠAn ime
Ġab schloss
ap a
Ġor ganisation
ĠAb schied
rat ch
Ġar men
Ġcomp uters
ish ment
Ġrec re
fr iger
mat ch
ĠMusik pÃ¤dagoge
grÃ¼nd en
ĠPark er
Ġbre aking
Ġprom pt
He il
Ġgener ell
Ġref resh
ĠLang uage
So zial
cis es
ĠEhren bÃ¼rger
Ġbuy ers
Ġcra fts
ĠRis ik
iform es
ĠJenn ifer
ĠVermÃ¶gen s
B rig
H ey
Ġ q
an ion
ĠS ession
ĠM essen
Ġp ussy
Ġh aus
ĠF lieger
ĠG und
ĠG rem
ĠK az
ĠE D
ĠW als
ĠR ue
Ã¶ cke
ist isches
kt iven
ĠSch eit
ĠSch acht
ĠRe chnung
ell ers
Ġch annels
gr id
ian ces
zen z
Sch ul
sh ow
ĠSh are
12 3
ĠMed al
Ġbesch reiben
pl us
ĠRes ort
Ġben annten
Ġbr ush
ĠDo ctor
ĠDav on
ĠBed ien
Ġcert ification
ĠKurz film
Ġstamm ten
ĠStr als
ĠWass ert
ĠRÃ¤ umen
Ġbezeich nen
Ġconven ience
ĠtÃ¶ ten
ĠFÃ¤h igkeit
Ġton ight
ĠjÃ¼ng ste
Ġinstant ly
ĀĀĀĀĀĀĀĀĀĀĀĀĀĀĀĀĀĀĀĀĀĀĀĀĀĀĀĀĀĀĀĀĀĀĀĀĀĀĀĀĀĀĀĀĀĀĀĀĀĀĀĀĀĀĀĀĀĀĀĀĀĀĀĀĀĀĀĀĀĀĀĀĀĀĀĀĀĀĀĀĀĀĀĀĀĀĀĀĀĀĀĀĀĀĀĀĀĀĀĀĀĀĀĀĀĀĀĀĀĀĀĀĀĀĀĀĀĀĀĀĀĀĀĀĀĀĀĀĀĀĀĀĀĀĀĀĀĀĀĀĀĀĀĀĀĀĀĀĀĀĀĀĀĀĀĀĀĀĀĀĀĀĀĀĀĀĀĀĀĀĀĀĀĀĀĀĀĀĀĀĀĀĀĀĀĀĀĀĀĀĀĀĀĀĀĀĀĀĀĀĀĀĀĀĀĀĀĀĀĀĀĀĀĀĀĀĀĀĀĀĀĀĀĀĀĀĀĀĀĀĀĀĀĀĀĀĀĀĀĀĀĀĀĀĀĀĀĀĀĀĀĀĀĀĀĀ ĀĀĀĀĀĀĀĀĀĀĀĀĀĀĀĀĀĀĀĀĀĀĀĀĀĀĀĀĀĀĀĀĀĀĀĀĀĀĀĀĀĀĀĀĀĀĀĀĀĀĀĀĀĀĀĀĀĀĀĀĀĀĀĀĀĀĀĀĀĀĀĀĀĀĀĀĀĀĀĀĀĀĀĀĀĀĀĀĀĀĀĀĀĀĀĀĀĀĀĀĀĀĀĀĀĀĀĀĀĀĀĀĀĀĀĀĀĀĀĀĀĀĀĀĀĀĀĀĀĀĀĀĀĀĀĀĀĀĀĀĀĀĀĀĀĀĀĀĀĀĀĀĀĀĀĀĀĀĀĀĀĀĀĀĀĀĀĀĀĀĀĀĀĀĀĀĀĀĀĀĀĀĀĀĀĀĀĀĀĀĀĀĀĀĀĀĀĀĀĀĀĀĀĀĀĀĀĀĀĀĀĀĀĀĀĀĀĀĀĀĀĀĀĀĀĀĀĀĀĀĀĀĀĀĀĀĀĀĀĀĀĀĀĀĀĀĀĀĀĀĀĀĀĀĀĀ
Ġchamp ions
Ġnationalsozial istischen
Ġlicens ed
Ġhabilit ierte
Ġpow der
b elt
c omm
f ted
j er
m isch
r one
Å ¼
Ġa cknow
Ġs auber
ĠS ow
as tet
Ġf lying
ĠM ic
ĠD ays
Ġh ack
Ġh anging
ĠT T
ĠF ay
ĠE volution
ĠH ipp
Ġan spruchs
ĠSt rat
os k
ess piegel
Ġpro ve
Ġam oun
ĠBe grÃ¼ndung
Ġent rance
ĠAuf hebung
pr esent
pr inzip
ĠHe avy
ĠVor haben
utz utage
Ġgen auer
Ġgew Ã¤hlten
Ġges ammelt
ĠGra de
ĠAnd er
ĠSh ar
Ġsc ulpt
ĠHaupt rollen
Ġverw irk
Ġviel fach
ĠBuch es
ĠPer ry
Ã¼b ung
ĠAg entur
ĠEing angs
ĠReal itÃ¤t
Ġconcern ing
ĠlÃ¤nger en
ĠOrganis ations
fle isch
ĠAnth rop
Ġreligi Ã¶se
ĠIC E
ĠMoh ammed
ĠSchaff hausen
ĠangehÃ¶r te
Ġdistin ct
Ġbedro ht
ĠÃ¼berrasch end
ĠPorzell an
E th
G L
R D
m Ã¼ller
w ischen
à ¸
â ĪĴ
Ġd ivision
es ia
Ġs ank
Ġf ahr
ĠB allett
ĠM uch
ĠP Ã¤dagoge
Ġh Ã¶r
ĠF at
ĠE sk
sch Ã¤den
Ġg iant
ĠJ h
au ke
Ġun regel
Ġun klar
ĠAn alysis
Ġ18 24
ĠPro jekts
ho le
Ġweit e
utz er
ĠSchw anger
sk Ã½
ron omie
ĠKir k
Sch wer
ĠCar ter
leg al
ĠVers orgungs
Ġshe ll
ĠFin ance
ĠStand orte
ĠKreis stadt
ĠLie ben
ĠHar vey
ĠSa ale
Ġappro val
Ġfeel ings
ĠSicher ung
aller ie
Ġimp ossible
kur se
ĠVerl uste
ĠKonz ern
Ġsyn chron
Ehemal iges
polit ischen
Stud ien
Ġunmittelbar er
Ġesc ort
Ġelectric ity
ĠLiber al
Jose f
ĠNeum ann
Ġbetroffen en
Bek annte
ĠMittele uropa
C arl
z heim
Ġd ollar
Ġd oppelt
Ġs y
Ġs tem
ĠS hel
ĠB olog
st ark
ĠG B
sch Ã¼ler
om i
hr ten
hr ys
Ġg laubt
Ġden ken
lin er
ib ia
Ġab use
ĠGr ass
irt schaf
ĠNor weg
Be lege
Ġ% ,
Ġbef asst
link plain
ĠAss embly
Ġgl Ã¤n
ĠTor ped
Ġbede utete
Ġabge halten
ĠSchool s
ĠÃ¶ff nen
ĠRec ord
ĠhÃ¶ch st
Ġinvol ving
ĠFle cken
Ġautomat ic
ĠKrank heiten
Che ck
Krit iken
ĠCham ber
ĠImper ial
Ġcompl iance
ĠErkrank ungen
ĠOffiz iere
ĠEnvironment al
ĠDunk el
ouv elle
F G
M r
f eind
k asse
r ass
u tel
w oche
Ð ·
ĠB ark
il ia
ĠD rachen
st lich
ro de
Ġein ges
ĠP latt
ĠF eb
ĠH iro
ent ums
ĠR S
ĠC AS
Ġl aptop
Ã¼r ft
Ġmit ge
la c
ĠSch lÃ¤
Ġver me
Ġr anging
ĠAn zeigen
art z
ĠThe at
Ġbis schen
Ġunter ird
omp son
ish op
Ġbeg raben
sh ut
ĠgehÃ¶r enden
ĠBes iedlung
An other
ĠKunst geschichte
Ġdel ay
str ong
verb ot
Ġ180 5
ĠPlat te
ĠSin fonie
ĠHy per
imen te
polit iker
ĠDÃ¶r fern
ĠKron en
Ġsuppl iers
ĠQuar ter
ĠKomment are
ĠProte ction
ĠWurz el
ĠGeschle chter
Ġexter ior
ĠSingap ore
Ġlyr ics
b ane
c ro
e hemal
f ig
f rom
Ï Ĥ
Ġd ot
Ġt ie
Ġs ight
Ġs ke
re le
Ġf liegen
ĠB reiten
st anzen
Ġn ob
Ġc in
Ġl uther
Ġj ahre
ang aben
Ġ18 11
ord ination
ĠAr te
ip el
ĠDe g
ĠPro jekten
18 66
ĠAuf wand
Ġar ms
Ġnur sing
gesch Ã¤fte
Ġerst mal
ĠChrist ina
Ġdel ivers
ĠLie blings
FuÃŁball nationalspieler
ĠKat astral
Ġvorhand ene
ibr aries
Ġpack aging
ĠKra us
Ġmanufact ured
Ġverz ichtete
Ġsuggest ions
Ġattend ing
steuer ung
Ġnam entlich
Ġbefest igt
Ġprofil es
ĠQueens land
sph ase
Ents te
ArchÃ¤ ologischer
' '
H ave
S achsen
U hr
W ald
b la
g am
z ien
ĠS ED
un en
Ġin ten
ge halt
ĠA W
ĠA spekt
ĠM ilitary
ĠH unt
ĠL ars
Ġim pression
ann ers
Ġst range
ak h
ru kt
ĠBe ir
be auftrag
ĠAb bruch
ss itz
18 71
sk on
Ġges perrt
ĠÃľber rasch
Ġtrans lation
ĠBro t
Ġbeh inder
ĠKons um
Ober es
Ġprepar ing
afr ikanischen
Ġtable t
ĠjÃ¤hr liche
Ġsmart phone
ĠBÃ¶r sen
Ġislam ischen
schles ien
Down load
ĠWlad imir
ĠMitch ell
ĠPoliz isten
ĠAbhÃ¤ng igkeit
N un
f arb
l Ã¼sse
n ie
n ia
r ible
Ġt oler
Ġw ovon
as sten
ĠA j
ĠK ies
Ġc ow
ĠC L
Ġbe wertet
ĠSt immung
ĠO w
Ġre ine
ĠZ irk
ĠSch alt
ver antwort
ne um
ill ons
Ġr ar
ger ichte
lat ive
ren e
ĠGem Ã¼se
arbeit eten
wick elt
ĠGer a
ĠPf und
vent ional
ĠCon temporary
Ġdel ight
Sp iele
ĠBrit en
Ġeinzel ner
Å¡ t
ĠHerzog s
Ġlov ing
Ġerk ran
ĠFrÃ¼h stÃ¼ck
Ġhohe m
ĠTages zeitung
Ġwirtschaft lich
Ġdest roy
ĠUrs achen
ĠCustom er
stÃ¤d te
kommand o
stet ten
ĠBundestags wahl
ĠPhÃ¤n omen
D abei
T ION
W ettbewerb
c at
n utzung
in formation
Ġf este
Ġm ic
Ġm ask
Ġh es
ĠK eith
Ġc urt
ĠW ilm
ĠR ivers
ic ide
Ġg ym
Ġl ip
ĠAn liegen
ĠAn sprÃ¼che
ĠEr haltung
ste il
ĠÃ¼ber nahmen
ĠNach weis
haus er
ĠBo sch
Ġseit ens
app ing
Ġsome what
bo le
Ġexp ansion
ĠCar s
ĠIs ol
ĠRom ane
Ġfre quency
Ġpass word
ĠPark platz
ĠPlan ungen
Ġnational er
ĠFil ial
Ġcontrol led
Ġcomb ine
Ġrequire ment
ĠMass age
Sport ler
emb les
ĠOut door
Ã¼ll t
hab ilitation
Ġgeschlossen en
ĠHard ware
Ġcas ual
Ã¶p fen
Ġsah en
wechs eln
Rad io
ĠPod est
gelegen en
Ġsuppl ier
ĠMig uel
ĠKamer amann
fun ks
ĠTho ugh
ĠRup recht
ĠForder ungen
ĠArk ansas
Ġanx iety
Ġphen omen
Ġib n
ĠangekÃ¼nd igt
emeter y
. ]
B ec
G S
h au
n ic
w ider
Ï ĥ
ĠS F
ĠS ende
ĠG am
ĠG lock
ut o
Ġto ys
ĠN il
Ġk ub
ĠSch Ã¤fer
Ġpro c
Ġle ere
her z
Ġvor ange
enn etz
ĠSie b
ĠLe gal
Ġ- >
ĠReg ent
St unden
St aat
stell ten
ĠDies en
schen den
Ġtr enn
Ġmo od
Ġele gan
Ġnor malerweise
Ġhal ben
Ġbeautiful ly
ĠPrÃ¤sident schafts
ĠPet ra
hil fen
Ġinde ed
ĠCr icket
ĠFÃ¼rst entum
ĠBob by
Ġstation iert
Ġslow ly
Ġlos ing
Ġerf uhr
ped ition
Ġgesetz lichen
ĠAufent halts
Ġelektron ischen
ĠVerletz ung
ĠKomposition en
varian ten
Dam it
andem ie
useel Ã¤nd
ĠJugoslaw ien
E st
J ud
M c
N amen
s auer
z essen
Ġs enk
Ġs enden
Ġs ending
ĠT ests
ĠC arn
Ġk ons
os o
ĠIn stru
Ġle ichten
ĠBe zeichnungen
ĠAr c
Ã¤n gel
ĠTh ings
zen en
ĠMe eting
Ġges endet
ĠTeil nehmern
ott i
Ġstud ieren
ĠStra tegie
ĠFilm produzent
ĠSc reen
oph ys
ĠFol k
ĠInter ior
Ġbef reit
Ġinc ident
Ġstill gelegt
ony me
Ġhinter en
ĠKur se
ĠhÃ¤ufig sten
ĠPan or
ĠCamp bell
Ġ179 3
ĠModer nis
Ġsle e
Ġexpla ins
ĠAff airs
ĠBran chen
Ġnorth ern
Ġlandwirtschaft lichen
Ġerle bt
ĠOR F
Ġpul led
Ġmort gage
Ġsau ce
ĠWÃ¼n sche
A uÃŁen
B enz
E ner
E ven
F ue
K ommun
P et
S u
V B
h Ã¤nge
l Ã©
m essen
p ubl
t ner
w ellen
z onen
in ian
Ġo ven
ĠT U
ĠH i
Ġan gle
Ġre ward
ĠZ elle
ce ived
Ġr ief
end igung
Ġsp oke
[...]
