#version: 0.2 - Trained by `huggingface/tokenizers`
e r
e n
i n
c h
Ġ d
Ġ a
e s
n d
i s
o n
i e
i t
Ġ t
Ġ s
o r
t e
Ġ w
a n
a r
Ġ S
a l
a t
r e
h e
u n
u r
Ġ b
i ch
u nd
e in
Ġ in
a s
g e
u s
Ġ f
Ġd er
l e
Ã ¼
Ġ m
Ġ A
Ġ B
Ġ v
e l
Ã ¤
Ġ und
Ġ 1
Ġ M
i l
Ġ D
s t
Ġ o
Ġt he
un g
in g
t er
r o
i g
d e
i on
Ġ ein
Ġ P
Ġ n
Ġ p
o l
Ġ h
Ġd ie
Ġ F
Ġ G
Ġ (
Ġ T
â Ģ
a m
Ġ K
i m
Ġ E
Ġ c
t en
Ġ z
o m
r a
s ch
u t
Ġ I
e m
Ġ H
Ġ W
en t
h r
e t
Ġ R
Ġ L
is ch
Ġa nd
i c
u m
Ġ g
e d
b er
Ġo f
u f
Ġ C
Ã ¶
Ġt o
a nd
Ġ 2
Ġb e
e it
i r
is t
a ch
Ġ1 9
Ġ er
Ġ N
d en
Ġ l
Ġ V
Ġ J
Ġv on
i er
Ġa l
d er
c k
Ġ k
l ich
Ġt h
Ġd es
Ġd en
Ġa n
u l
g en
er s
Ġ im
Ã¼ r
i v
Ġ2 0
Ġ e
o t
Ġ ge
i k
ĠS t
at ion
Ġ O
a b
Ġm it
u ch
es t
o s
o w
a d
Ã Ł
an n
l a
Ġd as
Ġ âĢ
Ġ y
Ġ U
t s
Ġ re
i es
e i
k t
Ġa uf
e b
Ġ Z
i en
i f
ĠS ch
a h
al l
es s
Ġs t
Ġz u
a f
Ġv er
Ġw ur
ie l
c t
v er
o u
Ġf or
Ġ ist
Ġ is
isch en
Ġd em
Ġf Ã¼r
a u
Ġal s
o p
te l
i d
ich t
ĠI n
a y
Ġ on
c e
a hr
Ġ Ċ
n e
Ġa us
er e
t h
Ġ un
Ġwur de
m en
p p
a g
as s
b en
it h
Ġd e
ĠV er
il l
Ġein e
o g
o ur
w e
in d
er n
or t
Ġw ar
Ġ r
Ġs ich
s p
a v
0 0
Ġ20 1
z e
ĠR e
a us
Ġw ith
u g
sch af
a te
ĠA n
o d
er t
a k
el l
l in
o ch
es ch
ĠD ie
Ġ j
ĠE r
Ġs ein
) ,
Ġp ro
l y
Ġw h
r an
Ġ i
us t
Ġn e
r u
ar t
en d
i b
f f
Ġa m
ung en
Ġy ou
g er
s te
Ã¼ ber
h n
Ġth at
r ie
Ġa b
ig en
isch e
ĠS p
s e
Ġbe i
Ġ it
q u
a p
âĢ Ļ
Ġs p
an g
Ġ he
h t
Ġ le
ĠB e
ĠT he
s en
Ġs ch
Ġa uch
ur ch
ut sch
Ġ 3
o k
Ġs e
u d
Ġn ach
m er
ĠU n
Ġ1 8
u b
Ġ Ã¼ber
âĢ ľ
Ġ20 0
an t
ĠA l
tel l
ĠJ ahr
ar d
r Ã¼
ung s
l ie
Ġa s
Ġw ir
Ġa re
i a
Ġs o
Ġb is
k s
h en
âĢ ĵ
ĠA r
Ã¤ t
1 9
o v
or d
i z
ĠE in
i p
schaf t
o st
ro m
ĠâĢ ĵ
is e
Ġw e
Â ł
ĠâĢ ŀ
ol l
Ã¶ r
Ġz ur
Ġs ie
Ġ or
Ġc om
iv e
i al
m ent
Ġd ies
Ġm e
b e
u p
ĠD e
h er
h l
n en
it y
Ġz um
as t
r Ã¤
Ġe x
Ġa t
f or
a in
et z
a ge
ĠP ro
Ġw er
Ġein er
Ġ um
r it
Ġc on
Ġn icht
Ġz w
Ġ ch
m e
h o
ch en
Ġal l
p t
ic k
Ġwer den
Ġw as
Ã¤ r
Ġ ent
i ge
isch er
Ġv or
Ġun ter
Ġd urch
en s
g r
. .
l and
Ġ es
av e
n er
Ġh at
o nd
ier t
Ġy our
o b
h al
us s
Ã¤ n
Ġwir d
ar k
Ġw ie
om e
g es
ge l
Ġ19 9
te d
f er
u re
in e
D ie
en n
el t
ter n
) .
u e
Ġs ind
ĠG e
re ich
Ġo der
ĠS ie
ĠT e
or e
er k
Ġein em
Ã¶ n
i an
it e
Ġb y
i de
Ġ Ã
Ã¤ nd
Ġf rom
ge b
g t
ch e
m al
l er
ĠC h
is ter
z en
Ġth is
il d
Ã¼ n
lich en
i o
am e
f t
st en
ĠM it
ĠL e
ur g
Ã¼ hr
ĠT h
Ġh ave
Ġ 4
i re
ĠD er
ĠO r
d u
a uf
Ġein en
ĠS e
ah l
b eit
at ur
u ÃŁ
ĠN e
a c
p h
Ġm an
ad t
ĠA b
Ġ us
te t
p ar
ion s
p er
ĠB er
Ġw ill
o c
Ġw or
Ġ en
o ut
Ġc an
at z
Ã¼ ck
ic e
ul t
l o
2 0
s s
we ise
Ġ 5
a ck
ĠA uf
j e
in z
o hn
on t
ĠA us
Ġ -
f e
Ġ19 8
1 8
el n
lich e
ĠE n
ation al
Ġt e
er v
ig ht
t ra
de m
ch t
ĠL and
r y
e ar
ig n
Ġ Y
te il
f en
for m
ur n
l l
t z
om m
Ġdas s
st er
at er
re i
a il
Ġn ot
ĠM ar
Ġb es
k eit
Ġ19 7
p r
al t
o ok
i le
on e
l os
ĠH e
ĠN ach
Ġs h
Ġ( *
on g
Ã ©
re is
ar e
ĠI m
ĠW e
or en
re t
ĠV or
all y
ĠM e
r at
it ion
Ã¤ hr
iv ers
' s
it z
ĠD as
l an
o un
em ber
r en
am m
ich te
at t
l ass
I n
ier te
T he
b urg
Ġ Ġ
Ġde utsch
ol og
is s
Ġh as
Ġp r
de t
ul d
Ġi hr
il m
f ol
ab le
k e
a z
Ġa d
ber g
Ġwur den
Ġ19 6
ĠUn ter
he it
Ġa r
ein e
ation s
ing s
Ġ 6
am p
Ġ 9
im e
ro ÃŁ
ĠH er
er en
Ġs ow
Ġw o
Ġw eit
at en
Ġv om
ĠZ eit
ers on
ĠA m
h re
al e
u te
Ġh er
Ġ19 4
at h
Ġcom p
c c
Ġ1 7
ak e
eb en
ĠF l
Ġn ur
iel er
th er
Ġ "
it er
om p
Ã¤ l
W eb
Ġo ur
ab en
w er
Ġme hr
r ich
ĠF or
a ut
lin ks
Ġ up
Ġn och
l es
Ġg en
ct ion
Web links
ĠSt adt
an s
i um
as e
om men
an z
ĠDe utsch
t o
ol d
Ġd o
Ġr es
Ġg o
Ġ et
ze ich
ut z
ier en
ig er
par am
z eit
ne h
on s
os e
ĠF ran
ch n
s el
e c
m ann
ĠM a
ent s
Ġ19 5
Ġo ut
f l
us e
Ġ qu
Ġl ie
m it
Ġge w
g an
Ġf e
Ġm y
ĠG em
ol it
ah n
k en
te m
am il
f in
or s
al s
ĠP r
le ich
v e
Ġ 7
el d
kt ion
ĠRe g
D er
r if
Ġ ro
Ġb ut
nd e
ib t
f Ã¼hr
Ġ 8
ĠSch w
Ġ1 5
h Ã¶r
Ġsow ie
S t
n is
Ġb et
b ar
Ġt ra
Ã¼ d
y s
ik e
E inz
c o
ie t
y p
S B
ie d
ig h
Ġa ber
og ra
st and
Ġthe ir
ow n
Ġc o
u en
Ġm ore
la g
re e
Ġ1 6
w a
ar y
in n
an ce
g lie
it Ã¤t
ach weise
on n
Ġb est
r ing
ĠP ar
ol le
is h
Ġon e
eln achweise
is ten
Ġ19 3
Einz elnachweise
Ġp er
ah re
ĠP l
g esch
h und
ik er
ic al
ate d
Ġs te
ann t
ier ung
Ġd ar
b all
Ġ Q
el s
SB N
or n
ĠI SBN
Ġge gen
etz t
a de
oun t
c l
ĠGem ein
f ahr
Ġzw ei
Ġsein er
l d
Ġg es
am men
o ck
ig t
Ġb er
Ġ1 0
in k
s tell
p l
Ã¤ ch
Ġals o
ĠI t
o ber
g l
u er
m in
ru pp
ie der
h aus
Ġein es
ĠG r
ub l
ĠU S
.. .
el le
ĠUn ivers
Ġge t
p ro
g lich
ig keit
ĠG esch
Ġab out
Ġsein e
s k
Ġal le
re at
Ġin s
1 7
or f
Ġf in
y ste
m an
es e
am en
Ã¶ ff
Ġj ed
m p
lie ÃŁ
Ġne w
ĠJ ahre
Ġa pp
u al
Ġhat te
is sen
l ung
ge ben
Ġwie der
Ġthe y
ĠJahr hund
ĠS o
a is
Ġk ann
ÃŁ e
ur op
o h
ĠG ra
ĠS te
Ã¶ l
Ġe v
âĢ Ŀ
Ġwh ich
ik an
ĠG es
Ġ &
et t
Ġk Ã¶n
ĠG eb
b au
Ġh is
im m
ĠP h
Ġs oll
x t
r on
Ġdies er
n ah
ĠD ies
m ein
Ġbe en
ar beit
Ġy ear
00 0
ie le
ĠE s
iter atur
eit e
ĠK ar
und en
w o
ro w
ĠA d
us ammen
ab e
o f
ay s
Ġp la
ĠK on
an k
ĠK ir
t on
Ġwh o
a ct
Ġof f
Ġi hre
n et
ĠU m
v el
h m
it t
p ort
b r
Ġzw ischen
Ġ1 2
Ġf ol
ĠBer lin
ĠTe il
in ter
Ġbe g
s er
al d
ach t
Ġk n
or y
ĠF ra
D as
Ġwar en
am er
u le
at s
yste m
Ġwor k
Ġt ime
b st
ent lich
e k
re d
Ġs eit
a pp
rie d
f all
ĠK l
ĠC hr
ĠW elt
ĠM us
an ge
t t
Ġs u
ĠJahr en
u de
Ġs el
a w
ľ ber
ret urn
Ã¤ hl
w ick
is te
if f
1 0
w erk
S ch
i x
Ġo b
Ã¶ s
ir t
in der
Ġan y
Ã¤ ter
i ent
b le
Ġh aben
ck e
und es
ing en
eit en
Ġs ome
c es
ĠF re
ter s
Ġ1 4
Ġzur Ã¼ck
ent r
p f
iel t
ot t
ĠâĢ ľ
in a
ĠB l
ie w
ĠB o
1 6
m a
r es
rÃ¼ nd
au pt
rie g
hal ten
Ġcon t
lin e
Ġp art
or k
eit s
Ġo ver
Ġ1 3
Ġin ter
Ġd am
gen d
o ff
rie b
y n
1 5
Ġd is
ĠE x
o ol
ge w
Ġ em
os s
ĠJ un
Ġg roÃŁ
Ġbe k
le d
ĠJ an
schaf ten
Ġge hÃ¶r
ĠA nd
g te
id ent
ar n
ck en
ĠGemein de
la ge
ell en
ĠB es
1 2
ic t
s h
ĠNe w
at es
ĠSp iel
Ġst ud
Ġl ike
ra d
E r
am t
k te
ĠA ug
ÃŁ en
ĠF ilm
ĠB r
Ġre c
glie d
e ich
ir st
ĠSt ra
he im
ĠJ ul
ĠB au
o y
sch en
sp ieler
ĠG en
a um
st ra
c om
neh men
Ġdies e
ĠSt a
Ġk l
ver y
V er
Ġs erv
or g
Ã¤ d
T h
is m
A n
en de
ĠZ w
Ġer sten
Ġs c
ĠkÃ¶n nen
Ġpro du
ĠÃ ľber
me ister
ar b
ot h
Ġj e
Ġp re
h and
Ġwh en
et h
Ġthe m
Ã¤hr end
at ing
ĠG er
G eb
form ation
ĠEn t
Ġa cc
Ġbe im
Ġo ther
ĠJahrhund ert
ster reich
ra ch
I m
Ġd rei
Ġer st
Ġp h
ĠS h
Ġv ers
Ġ19 2
k l
f r
ĠM an
tell t
uÃŁ ball
in s
Ġp e
ĠN ov
ĠAr beit
y m
L iteratur
Ġhe l
al en
ĠO ber
sch ie
ov e
ug h
Ġpro v
ĠP f
r Ã¶
e p
u ar
o us
l Ã¤
A l
Ġj ust
7 8
f Ã¼
ou g
ier ten
ĠT r
Ġk onn
Ġdeutsch er
ĠA ut
tern ational
Ġn o
Ġjed och
Ġ 0
Ã¤l t
uch t
in t
ĠE l
ist or
ĠM en
Ġ ich
ul l
Ġin d
a ir
Ġ if
i pp
und e
un st
ar r
Ġge b
p iel
ra nd
ĠTh is
Ġw el
ĠB undes
p en
Ġm us
Ġth ere
Ġg esch
ogra ph
Ġd ann
Ġsp Ã¤ter
ĠAug ust
a x
1 4
ĠÃ ĸ
o ten
Ã¶n ig
i der
es ten
f ess
ass en
h ne
Ġre g
Ġa g
z w
Ġf Ã¼hr
Ġver b
D e
k er
Ġwh at
tem ber
rÃ¤ s
ĠN or
en e
ic es
Ġh ow
and er
Geb oren
Ġne ed
ĠH and
a ce
ĠM in
t re
ĠE urop
f ter
Ġer h
ĠB and
n ung
Ġan ge
Ġc l
ĠT ra
ic s
z er
aus e
il it
Ã¶ glich
au er
b ach
as h
ĠF amil
Ġl ook
Ġw enn
tra g
ĠI nd
ĠZ u
Ġh o
ĠC ar
Ġin to
d ay
op le
ho f
Ġit s
Ġ201 8
Ġt r
ur t
Ġg ibt
ĠM ed
en k
Ġh ad
ĠAr t
en z
Ġw ere
r ess
ĠM on
le t
z ial
ĠP ol
Ġet wa
Ã¤r z
U n
le x
Ġwo uld
ĠP e
b l
v or
ĠSe p
je kt
it el
ĠĠ ĠĠ
p e
p s
ier e
if e
Ġp l
Ġin cl
Ċ Ċ
1 3
Ã¼ t
2 00
ĠM Ã¼n
Ġth an
ig ung
u z
it al
Ġf irst
er al
je ct
ru ck
uf t
k a
io us
Ġm ost
Ġweit er
w ard
b ild
Ġf o
Ã ¡
ĠSep tember
Ġf r
pr il
ĠDeutsch land
ĠP erson
Ġbe c
ro und
ar m
ge mein
ĠJun i
r icht
ĠFran k
re it
en den
Ġb el
Ġd a
5 0
ass er
s o
eb s
Ġ ra
Ġh ier
on st
ch er
Ġh and
ĠChr ist
c ed
ĠNov ember
b o
Ġsein en
ie f
uÃŁ er
ĠG roÃŁ
ol f
ĠN ord
Ġg er
Ġun s
kt ober
Ġk e
ab ei
ĠĊ Ċ
Ġi hn
w ohn
ir k
Ġer fol
v ers
un kt
ion al
in ess
ĠSt ud
hal b
u es
M ann
lich er
Ġm ake
o der
ien st
ĠK Ã¶nig
Ġg leich
ib le
Ġ3 0
Ġth ro
at ive
ĠH aupt
R e
Ġlie gt
. )
st adt
schaf ts
he l
ĠVer ein
eit er
g ang
Ġ /
ch ts
Ġe very
Ġkn ow
schie den
ĠN ational
Ġsein em
iv er
Ġpe ople
a gen
s atz
ĠB et
2 1
a kt
ĠA pril
ĠVer b
u ten
ĠH o
ĠAl l
Ġb u
ĠM ann
M it
ult ur
we g
ar ten
rupp e
st it
ul ar
ste in
i qu
ĠPl atz
is en
a id
ĠJul i
' t
Ġver w
at or
ĠE nde
ĠGr und
ĠMa i
ĠM al
ĠB ei
f ul
sch l
ien ce
ĠO ktober
al ien
Ġz usammen
ich ts
de d
Ġaus ge
un ter
ur z
Ġer ste
Ġus e
iv en
Ġw ell
ke hr
at a
hal t
ĠV ol
el y
g est
p la
ag es
st Ã¤nd
ro l
Ġdes ign
et s
us iness
Ġh in
v en
k reis
Ġle tz
ran z
Ġb esch
Ã¶ff entlich
a i
ment s
ow er
Ġ19 0
ĠOr t
Ġfol gen
op h
i ze
w alt
al k
ing er
ĠS c
G e
p or
o de
N ach
ic a
Ġse hr
b es
Ã¼ tz
ĠQ u
oh ann
Ġb ack
Ġein z
Ġ201 7
ĠI I
ion en
w n
ĠF e
Ġ201 5
ĠP olit
ĠM Ã¤rz
Ġe igen
f te
Ġd ort
Ġz e
re g
Ġand eren
Ġdies em
Ġon ly
ran s
isch es
Ġv iel
Ã¤n g
z ahl
Ġber eits
Ġa ct
Ġf l
Ġ201 6
ĠJan uar
Ġe ben
Ġkonn te
ust r
in er
issen schaft
Ġd ire
v ent
ĠK unst
eb ru
Ġbes te
ĠB ar
m Ã¤
ĠH och
if ic
ĠO b
ĠS Ã¼d
la gen
1 1
es en
olog ie
Ġhel p
ĠI s
an y
Ġd r
z ember
Ġer w
ĠP a
m s
a den
Ġ201 0
Ġsch w
if fer
ze ug
le g
ais on
Ġk eine
gr und
ĠY ou
Ġte il
Ġv ier
= =
Ġs he
f eld
Ã¼r ger
Ġad d
Ġver y
Ġihr er
b ahn
ra g
Ġcom m
ein en
ĠV ers
Ġsu pp
Ġm ay
Ġman y
ei d
un k
Ġt wo
f ach
ĠâĢ ł
ein g
Ġbe fin
or ben
Ġ X
b uch
Ġ Â
Ġi hm
ess en
Ġex per
u c
if t
Ġyear s
it ed
Ġst and
ĠM et
f ang
Ġ201 4
Ġf ind
De utsch
es ter
3 0
Ġ18 9
Ġs m
Ġa kt
âĢ ¦
ĠB ild
as ch
ation en
as ed
ĠH aus
am s
he mal
Ġs ol
Ġund er
Ġk am
Ġsel bst
O r
ost en
an c
ĠF ebru
la uf
ĠF ried
pt ion
S ie
Ġ |
Ġhe ute
Ġas s
m at
Ã¼n st
u k
Ġs ho
Ġ201 1
Ã¤n ger
ar s
op p
ĠW erk
ĠDe zember
a ur
ĠPro du
ĠJ ohann
it s
Ġl oc
B e
Ġ201 2
w ahl
ĠF Ã¼r
um ent
ut ion
Ġ1 1
Ġcon s
Ġ201 3
r s
c ts
Ġge l
ĠK inder
Ġm ach
gan is
ĠKir che
i or
ĠO n
Ġthro ugh
Ġ2 5
ĠĊ ĠĊ
vel op
ĠF ol
Ġg u
amer ikan
Ġim mer
ĠL iste
Ġth ese
l i
ge t
s etz
in al
Ġh igh
fall s
i den
hr en
os ition
Ġd own
omm un
oug h
Ġh ome
ĠW ien
Ã¶ ch
Ġ200 8
ĠLand es
ist r
at ch
g rÃ¼nd
mit tel
ĠRe ich
sch e
af f
ĠW h
Ã¶ st
Ġ200 9
am es
Ġall er
Ġver schieden
ur s
ĠW il
ich er
Ġb l
. ,
ĠC l
A us
ĠC on
W e
ar ch
Ġg rÃ¶
is ion
Ġe le
ranz Ã¶s
ĠE d
al le
sch lieÃŁ
los s
Ġw Ã¤hrend
Ġw en
c ess
ĠE le
Ġ .
o gen
Ġp ar
ak ing
sch rif
rit t
P ro
z ug
Ġde c
Ġsch on
ges tellt
ĠMus ik
u ck
ĠV on
ebs ite
Ġ9 78
a j
Ġ ,
Ġb en
ĠIn ter
ig te
Ġst att
in nen
Ġsp ec
ĠA mer
ern se
s on
il ity
rie ben
Ġ2 4
Ġf re
ĠJ u
Ġs uch
Ġdam it
Ġb o
Ġand er
Ġer sch
um s
o te
ut h
u ge
Ġ [
ĠgrÃ¶ ÃŁ
Ġbei den
ĠGesch ichte
ĠAr ch
Ġm ed
Ġne ue
i us
b t
z ie
mal s
Ġa fter
ĠR es
ĠO ff
ĠF r
Ġp erson
Ġm in
ĠH ol
ĠD es
Ġs om
âĢľ .
ism us
Ġin v
ĠUnivers itÃ¤t
ĠW ert
Ġgo od
ĠDies e
ĠN ieder
ber t
ic an
A m
Ã¼ nd
ach sen
v iew
Ġg reat
zeich net
we il
fÃ¼hr t
Ġ200 7
Ġsp iel
kt ur
ĠPh il
y l
hr er
w ay
Ġe ff
ĠFebru ar
Ġb usiness
Ġf est
ĠAl s
Ġm on
19 9
un ktion
Ġsp e
Ġw ay
ĠR om
Ġm ark
ĠP re
al ter
h ol
it ies
Ġo hne
Ġge f
ell schaft
Ġn ow
ĠW est
Ã¤ch st
sch n
ĠÃ Ħ
ĠS aison
Ġd ay
ogra f
G esch
ĠMit glied
Ġpla y
Ġ200 6
Ġl ang
ĠB uch
he d
Ã¤ hn
ain t
Ã¼ l
tel le
r ip
ĠG l
iv es
Ġte chn
al th
te te
rupp en
A r
for e
ĠUnivers ity
l ig
ĠS k
Ġa c
neh mer
Ã Ń
ur ing
Ġs ub
Ġd el
âĢľ ,
ĠC o
ĠM ich
Ġqu al
ĠM ark
Ġar t
in es
sp iel
c y
Ġse c
ow s
ten t
ĠF ahr
Ġg ab
ĠA s
{ @
ĠUnter nehmen
le it
g abe
Ġz un
Ġwh ere
lin k
Ã¼ s
ĠVer lag
om en
Ġdes sen
ĠMit tel
ĠS er
p art
ik a
ver b
Ġd iffer
Ġa v
Ġbe f
stra ÃŁe
il t
ĠG o
ch s
Ġp o
Ġin c
Ġ1 00
ĠH am
Ã¼n f
ĠMÃ¼n chen
Ġs aid
rÃ¼ n
Ġf ree
ch sel
g leich
ut t
ra ft
T e
Ġar beit
ĠS al
Ġse e
ot her
ĠEin e
Ġ end
8 0
is piel
Ġs Ã¼d
ĠB re
ien d
ro p
ĠD urch
z u
em ent
o hl
Ġ200 5
Ġwor ld
Ġein ge
sch ule
le gt
ĠD r
Ġbec ause
ĠN amen
ĠF uÃŁball
kt or
ĠL in
ĠCh ar
w ert
p ieler
Ġex p
ĠP art
a der
ĠC he
f ra
Ġon line
L e
Ã¤ ude
it zen
co de
Ġ %
Ġbek annt
p le
glie der
in o
ig es
Ġre m
Ġ ed
w end
ĠH Ã¶
Ġne uen
Ã¤nd er
ĠJ ohn
ĠMen schen
Ġg ra
los sen
y r
g ra
ĠKar l
Ġihr en
Ġev en
Ġh ere
uf en
4 0
Ġf rÃ¼
Ġc re
Ġre ad
ĠA t
Ġerh ielt
ĠB as
ro ss
ĠSt re
Ġ u
ĠM ill
Ġe hemal
Ġth en
re cht
ĠP er
Ġs ystem
2 5
le gen
Ġw ant
at her
i ra
Ġste ht
Ġco uld
nah me
ĠW or
h in
Ġ20 00
il der
ĠU r
ĠD ar
ĠAn t
ĠL ei
Ġs ei
Ġde velop
ubl ik
Ġn ah
z ent
is k
ĠL eb
le ase
Gesch ichte
Ġp ol
all s
Ġo wn
est orben
Ġf amil
ĠSchw ei
z t
ĠK rieg
ust om
ot s
ĠMe ister
ly mp
ĠK omp
ur es
Ġf ranzÃ¶s
Ã ³
Ġin st
ro up
Ġs k
l en
k auf
Ġs ur
Ġc ar
re uz
an st
ĠK r
wick lung
ĠW er
Ġ200 4
f ern
p unkt
Ġ ur
ĠR Ã¼ck
Th is
k rieg
Ġdies es
w w
Ġder en
Ġ18 6
ĠK n
ĠF in
Ġd abei
Ġb zw
Ã¤hl t
iv ing
al b
e h
geb iet
Ġs im
wohn er
ĠH ein
ag er
Ġincl ud
stell ung
ĠBer g
ater ial
in en
y ch
Ġm ade
Ġi de
ĠPerson en
ar i
in ce
t ag
al er
all en
L eben
f ass
ĠC omp
Ġpro gr
ĠI f
ĠR o
ĠFor m
Ġdeutsch en
Ġin formation
ĠSch l
iss ion
Ġre al
an gen
ĠSch ul
pr ess
schl uss
ed er
Ġ2 2
ĠY ork
un n
Ġm uch
ĠFried rich
m ed
olog y
Ġ2 1
Ġweit ere
Ġre qu
ig ten
ĠW asser
ir che
ĠB ere
Ġ201 9
lo ad
o ge
e hen
Ġbefin det
Ġt ake
ĠOr ts
Ġv al
out h
um mer
a e
m ar
ĠS an
ĠD an
7 0
Ġd on
Ġv is
ĠB ay
ĠB est
ann te
Ġent sp
Ġer reich
Ġst ar
sp ort
isch of
u ter
ur r
u gen
in ing
az u
ie g
il le
iel d
Ġ #
Ġt yp
Ġus ed
ĠT od
Ġp ubl
an ts
ĠW ohn
ĠA uch
fahr en
Ġf Ã¼nf
w ig
G estorben
Ġ( âĢ
n a
ĠB ahn
2 2
ct or
Ã¶r der
k ommen
Ġl ife
sch utz
Ġb ook
Ġp olit
w are
Ġ18 8
it Ã¤
ĠJ e
ond er
v an
irt schaft
as on
E x
he in
Ġ $
ĠW ei
Ġp ra
ĠM ag
Ġch e
Ġ5 0
up er
Ġe as
at ure
lass e
age ment
e y
ap an
Ġ =
ĠSt and
l ing
Ã¤t z
ĠAl b
use um
ĠD aten
u pp
4 5
ar ge
Ã¤ us
h ard
Ġprov ide
E in
stit ut
g y
en ce
ide o
w ei
ĠPolit iker
rs g
ak es
Ã¶l ker
h a
ĠL ie
Ġ2 3
s ol
iqu e
omm t
Ġalle m
ĠB ra
y d
ĠF est
im es
tell er
ĠZ usammen
ĠPa ul
ernse h
aus pieler
ran k
Ġsho uld
Ġb eing
ir d
Ġso nd
Ġin ternational
ĠW ill
ich ten
ĠG u
Ġn um
Ġp lan
A b
ck t
ĠA ss
ĠP at
ĠLeb ens
ch te
ĠB en
e te
Ġd u
om in
d orf
ĠK ap
ĠSch rif
Ġr ight
re ib
u x
Ġbeg ann
ath ol
gl isch
oll ow
um e
Ġl a
sch ied
, ,
ent ly
ot or
ĠM o
- -
Ġs tell
Ġge mein
ĠDeutsch en
mÃ¤ ÃŁ
ĠS ohn
ĠM od
2 3
Ã¶ sterreich
um en
Ġc ol
Ġsond ern
it ter
Ġden en
ĠIn ternational
gen ommen
ip s
Ġof fer
Ġ199 0
ĠN atur
Ġd id
ĠO st
ru e
Ġent stand
Ġh abe
d ings
ĠL a
en det
Ġf and
ut ter
Ġbe fore
rit ten
la ck
tel y
Ġ200 3
Ġwor den
er ts
hel m
Ġ2 6
ĠFamil ie
Ġzun Ã¤chst
c a
h Ã¤lt
Ġ200 1
ĠRe p
Ã¤ uf
ur m
ĠK reis
ĠGe w
ho de
ĠW ahl
schrif t
Ġand ere
lo ck
Ġ200 2
ĠR ad
ĠGe gen
ĠT itel
en der
z iel
sch ul
Ġg l
as ter
N e
Ġl ast
Ġag ain
ĠB el
ond on
m m
es ent
rÃ¼ nde
u ally
le i
Ġp ost
Ġth ink
id es
E R
ĠD re
ĠFra uen
amp f
f ort
Ġdeutsch e
< /
ĠN ame
ess e
ĠP ort
grÃ¼nd et
Ġcomm un
Ġto p
Ġeben falls
Ġb ed
ĠFran z
nis se
ĠB Ã¼
Ġre t
Ġg est
Ġ *
ĠPar is
om b
Ġb r
se e
rip t
om mer
Ġen g
Ġe ach
ĠK ont
Ã¤n ge
le y
c on
our n
Ġ2 8
ĠP la
Ġn un
k m
ĠT er
am ent
ra um
Ġa round
ĠBere ich
Ġc ustom
ĠL eben
fÃ¼hr ung
ĠM or
a el
Ġb as
as st
k ten
ĠH ans
Ġgew ann
ĠPro v
ĠC ount
F or
ĠH ar
ĠD orf
e ct
an ad
te i
Ġre l
f urt
f ilm
Ġne u
Ġwe ek
Ġr und
ĠEn g
h af
rÃ¤ ger
Ġc le
re en
Ġwh ile
ĠGen eral
re chen
b ur
s w
Ġa uÃŁer
er st
I t
ĠS eite
Ġp ass
Ġt rans
Ġch ild
r i
6 0
Ġb il
ĠB i
r ib
F uÃŁball
Ġs er
od y
ĠS eit
Ġz ahl
ĠÃĸ sterreich
Ġm oder
Ġw icht
Ġ :
Ġk ein
Ã¤nd e
ĠD on
ik t
w ays
ck er
ear ch
Ġ el
am a
Ġl ong
Ġth ose
Ġav ail
M e
Ġl ove
Ġ Ð
lich keit
19 8
Ġsh ow
ilit Ã¤r
Ġver l
Ġje weil
ing le
Ġs l
re ad
Ġwe gen
Â Ń
Ġdiffer ent
Ġc are
Ġander em
Ġc olle
ess er
ĠM at
Ã¼ ss
st off
us ch
Ġdar auf
Ġfo und
ges etzt
Ġv iele
min ister
Ġ2 7
Ġ18 7
s am
ann ten
ĠC ol
ĠB Ã¼rger
Ġserv ice
ĠPe ter
we en
st re
ist s
itt le
Ġo pt
Ġc our
ĠE m
h ung
Ġm uss
ĠL ondon
ĠTe chn
ĠM y
gr amm
Ġr est
g or
ĠSp ort
ĠW ar
Ġm od
j Ã¤hr
den s
Ã¼nst ler
2 4
bild ung
im al
C h
uÃŁ en
ond ere
g aben
al y
E n
pl atz
Ġver Ã¶ffentlich
enn t
ch es
Ġf un
Ġ '
t he
Ġ ...
kl Ã¤r
Ġre ally
v Ã¶lker
Ġs ite
ĠS a
s ych
Ġletz ten
ĠT o
ĠD em
w as
ĠC or
Ġpla ce
Ã¼ b
Ġc ount
Ġer halten
ĠO lymp
ord s
iz ed
g ie
Ġdo es
ĠR ei
z el
and s
ĠLand kreis
l ic
Ġh istor
Ã¤ re
ff en
rÃ¤s ident
Ġm Ã¶glich
ĠB ut
ab r
en ter
Ġf ast
ĠM ain
p rÃ¤
Ġs ign
Ġ199 9
sch w
Ġfin den
ĠK ultur
anst alt
Ġh im
an a
is se
Ġdies en
Ġp os
iv id
m us
ĠVol ks
ies en
ro om
A uf
al ten
Ġein ige
ard s
ĠW ir
tell ung
Ġnah m
Ġsoll te
ĠS il
ĠT or
I N
n ess
Ġs et
e ver
ĠJ ose
tra gen
Ġn or
z ig
Ġ2 9
ge ord
Ġd i
Ġwel che
Ġent wick
d ienst
ich tet
Ġf ollow
ĠHer z
Sie he
fol ge
I I
Ã¶ t
Ġpro fess
af fen
tre ten
ĠM art
iz iel
lass en
c ial
Ġv ar
Ġpro p
m et
Ġfr iend
o le
Ġexper ience
Ġv oll
ĠJu gend
or ts
ap t
S p
Ġst ark
Ġbet ween
ur en
it ions
ten s
on nen
H rsg
j ahr
ĠH el
Ġavail able
Ġspiel te
f Ã¤
gesch ichte
om at
ĠReg ion
ĠHe im
U S
ĠR ich
ass e
ll en
Ġdis c
Ġph ot
i as
s icht
ĠSta ats
ĠPro fess
Ġt rat
ĠKir chen
Ġst ill
im mer
Ġb re
Ġauf ge
.) :
Ġa ut
ne y
c ted
Ġc lass
ĠI hre
nah m
Ġ20 20
o ver
b y
ĠBe g
ĠG rÃ¼nd
nah men
is hed
Ã¤ ft
9 0
en nen
ĠRe chts
Ġg ut
ĠB ern
rÃ¤ n
st ru
Ġn eben
Ġ4 0
ĠP ark
och en
il ome
ap er
Ġp at
st Ã¼tz
Ġsm all
haus en
amerikan ischer
b et
Ġmark et
de ut
Ġ199 8
ĠgehÃ¶r t
ĠHer r
an e
ire d
ĠWil helm
Ġfamil y
Ġnum ber
Ġst art
ĠP al
ĠT ag
Ġ <
Ġun ser
Ġein fach
Ġm ov
Ġb oth
Ġcomp any
reich e
t r
Ã ¨
Ġpro cess
z entr
v es
tern et
oll en
D F
sel f
ĠJahr es
ges amt
Ġerfol g
ourn al
Ġersch ien
f el
Ġihre m
g ar
et te
Ġt er
ĠFamil ien
de utsch
uch s
v ol
op f
Ġfe w
la ub
ĠF ach
la u
Ã¤ mp
Ġg ing
ro s
Ġpr iv
Ġ18 5
ĠgroÃŁ en
k on
al es
Ã¶ m
Ġsch ool
ber eich
den k
ĠFra u
Ġus ing
Ġin ner
Ġk ommt
ĠD av
ĠK ais
iv al
ĠB esch
Ġb ie
ell er
ĠFol ge
ĠH a
ce ption
Ġg anz
ab el
Ġst ra
icht ung
ĠEin wohner
cc ess
ĠSta aten
w or
ind ung
teil t
ra che
ĠH ier
Ġcomp le
Ġ â
Ġakt u
2 6
ge d
ĠG ott
Ġb ring
4 8
. âĢľ
an ten
3 5
ĠgehÃ¶r te
ĠH il
Ġhe alth
D R
Ġkl ein
de te
or ge
Ã¼ hl
ĠgroÃŁ e
Ġim port
hn en
el te
um p
ĠD u
Ġ199 6
y er
Ġ198 0
igkeit en
ĠK Ã¶l
av ing
Ġerst mals
sp r
Ġmon th
Ġch ar
Ġfor m
imm t
Ġinclud ing
ĠA pp
Ġo pen
ĠSch n
ograf ie
Ġserv ices
i am
ĠD o
ĠA uss
ograph ie
w ork
Ġ194 5
igh ts
re ch
e le
ei den
ĠAl t
n ungen
on es
ĠFl ug
Ġb rit
a uch
w est
Ġsch lieÃŁ
ir l
I D
ĠB urg
Ġbu ild
f ts
s st
ĠFor sch
us h
fol g
w ort
ĠT our
teil ung
ost er
Ġbeste ht
et ail
oc i
in ner
Ġro om
ĠUS A
ĠGe org
if iz
Ġte am
ĠEin satz
2 8
ct ions
Ġle arn
ĠWelt krieg
Ġw ei
ĠF ot
at ter
ĠS he
ĠR ah
app en
Ġab ge
oss ible
ar z
ver n
Ġs ame
Ã¤ che
it u
iet y
ĠS el
Ġc al
Deutsch er
h le
ĠD a
Ġhat ten
Ġ199 7
Ġmehr ere
B er
ur y
wer b
Ġd azu
Ġsupp ort
ĠJahrhund erts
ot he
at iv
ĠN ot
2 7
Ã¤t ze
Ġher aus
ĠB ro
sch ein
ĠIn s
Ġk on
2 9
z ogen
l ang
ne te
st r
f ert
for der
y le
Ġm ember
ĠS erv
l Ã¤nd
ar a
ĠS ol
Ġgo ing
Ġpro m
Ġzw eiten
heit en
b el
Ġbel ie
ĠMich ael
ĠG ren
ĠThe y
Ġg ar
Ġst r
Ġan n
Ġ197 0
Ġth ree
d ie
h am
Ġbe zeichnet
Ġm en
zeich nung
) :
o x
Ġw est
th ing
it es
ar te
Mit glied
ĠCount y
P erson
le tz
ĠAn fang
Ġk omp
ĠT em
ĠB rÃ¼
19 6
ut lich
ĠR ed
Ġge m
Ġp op
l ess
Ġan t
ĠB ed
ĠA ustr
ond ers
ĠP lan
om as
Ġl ittle
ier ungs
Ġres p
ĠHam burg
Ġper fe
Ġv iew
Ġsein es
ap e
Ġ199 4
es te
utz t
Ġlook ing
Ġapp ro
ĠSch auspieler
ar ly
uf f
ĠC ity
Ġsch n
sp rÃ¼n
ra cht
ĠR u
ach en
Ġare a
Ġfe el
Ġab sol
gr iff
Ġor der
Ġf ull
ver ein
Ġer ne
Ã¶r per
b ed
ĠAmer ican
is iert
ĠSp e
och ter
ar en
H e
ĠZ e
Ġc or
ic ally
ĠGra f
Ġbe de
ĠC al
7 5
i at
ĠA ir
Ġtra d
Ġd uring
st ag
ĠK at
ĠNe u
ĠHein rich
3 3
w issenschaft
h Ã¤ng
Ġ199 5
ĠC olle
Ġc urr
Ġqual ity
Ġch o
B ei
ĠQ ual
D ies
op e
Ġaller dings
ĠLei p
ĠIn formation
ĠBet rieb
ganis ation
c ript
lie b
on y
ĠT yp
gan gen
ig a
Ġal ways
uch te
Ġet was
ĠS en
w elt
Ġd re
Ġper form
ĠS eiten
ĠG ruppe
d ruck
ĠVer walt
ĠW ebsite
ur f
ĠF eld
ĠF er
Ġincl ude
ĠRah men
z irk
/ /
Ġf ac
Ġ199 2
Ġ est
ĠR aum
Ġw rit
Ġg ot
ĠC ont
ĠHe il
Ġke ep
ĠB ad
ĠL ud
v ed
ar l
ĠfÃ¼hr te
ĠA lex
ĠL auf
at ten
ĠR uss
um b
ĠD is
fÃ¼ g
rÃ¤s ent
ilome ter
Ġo per
ik en
omm and
en a
Ġverw endet
Ġse x
k irche
Ġst or
ig ital
Ġc los
Ġgen annt
ur o
Ġge ht
Ġpro ble
Ġhe ut
Ġ199 3
ĠJ o
Ð ¾
ĠZ entr
Ġspec ial
Ġem p
4 9
t ing
in c
ĠW ind
schn itt
A T
Ġst ate
A d
ers Ã¶n
Ġb ig
Ġor gan
Ġob ject
ĠH ow
Ġb ro
ĠN o
Ã ĸ
Ġste hen
Ġm ind
y e
Ġpart ic
Ġl and
G ibt
ĠS m
== ==
Ġwe chsel
ĠS ystem
Ã¤ m
we hr
Ġall en
ĠĠĠĠ ĠĠĠĠ
Ġ Ã¶sterreich
F ilm
Ġd an
ein ander
Ġcom e
le hrer
il es
g o
Ġc ond
in ation
f re
Ġ199 1
Ġw ater
. âĢĿ
Ġth ings
id s
ĠWor ld
Ġh inter
Ġbe h
en glisch
ch ten
Ġver m
j oy
le ben
eth ing
ĠTh ere
Ġg roup
A N
Ġd ah
ĠD ire
it or
w and
ĠS Ã¼
Ġn ational
ĠL uft
im ent
ir m
ĠGeb Ã¤ude
Ġto day
Ġk ommen
Ã¶r d
ĠG old
il la
ĠArch ite
Ġk urz
ĠChrist ian
: //
if ik
ĠM ay
ĠSp ieler
ĠTe am
our s
ĠH of
ĠZ iel
ĠE he
tell en
3 9
ĠF unktion
Ã¶glich keit
ĠO l
Ġd av
ĠF all
ĠEr n
Ġex c
ĠW inter
ĠD ienst
a at
Ġse chs
az z
3 6
ĠFrank reich
l ungen
Ġqu est
bes ondere
Ġw Ã¼r
Ġg row
ĠTe xt
ief ert
um m
Ġ20 21
4 6
Ġ196 0
ĠA kt
ĠM Ã¤n
Ġto o
ist ischen
we is
ĠD ort
ĠH istor
n ame
Ġd ata
ĠEr st
Ġl assen
ĠProv inz
3 8
ĠT re
Ġre ce
un kte
ob ei
Al s
ten d
ĠW olf
Ã¼s sen
la v
Ġis s
j a
E s
ĠSch ool
ĠB ischof
Ġl in
Ġ198 9
os oph
Ġre p
um an
amm lung
ier s
ĠN eben
ĠMe ter
au g
ĠK o
ĠC om
ĠZ ahl
Ġt Ã¤t
ft ware
ober t
ĠSte in
au p
ĠT ro
r ic
Ã¼ gel
19 0
Ġme et
Ġind ivid
4 7
i ents
19 5
Ġverschieden en
z y
ĠT ochter
Ġstud ierte
Ġg r
Ġbe w
ĠZ ug
Ġt ro
ĠN r
Ġarbeit ete
Un ivers
p lan
Ġm al
Ġg ame
Ġs ince
ĠS outh
Ġs ay
ĠM c
ĠF C
ir on
ĠM ont
h end
ĠEurop a
Ġh ard
il y
ĠD en
Ġl ot
Ġ3 1
Ġd och
Ġs ure
Ġb ra
ĠSch m
ate gor
Ġs etz
im a
ĠMa x
Ġev ent
Ġt re
ĠS itz
ver t
heit s
m ark
ĠE nd
Ġl Ã¤
st Ã¼ck
ĠfÃ¼hr t
it te
ĠGeb iet
Ġt ry
one y
ĠA g
Ġo pp
ĠThe ater
ĠP reis
ĠU nd
pe ct
am mer
ĠW ald
3 7
ĠAm t
Ġbe aut
Ġweit eren
g ruppe
ĠBe ispiel
Ġcont in
Ġh och
ĠMit te
ge ber
ĠEr z
Ġc r
bur ger
schlieÃŁ end
Ġm ir
pro du
ĠG ed
Ġab le
ĠB rand
i os
Ġw ebsite
Ð °
! !
Ġacc ess
ol oge
L iefert
ĠO p
ĠKl ein
i ally
Ġm et
s weise
Ġw obei
ĠKÃ¶l n
Ġc ost
b ei
ĠE p
ĠSch loss
Ġ x
Ġwith out
Ġad v
ĠF o
ĠS ein
reib ung
b and
on en
Ġsom ething
" ,
ig inal
sch er
un ft
Ġgen er
sk i
g art
ĠO per
irt schafts
h ip
Ġval ue
ig ent
ĠWe g
Ġof t
ĠF ar
ĠFrank furt
Ġn ame
Ġimport ant
o ung
Ġp ower
her r
Ġit alien
ĠG ar
ĠV ater
Ġat t
Ġne xt
f ord
ĠEnt wicklung
Ġe qu
w irtschaft
reich en
9 9
ĠOb jekt
ĠD abei
ĠR os
a he
rÃ¤ ge
ĠI hr
Ġk m
Ġge grÃ¼ndet
I f
und s
Ġwith in
ĠEin zel
ne ten
Ġ18 0
h ere
Ġl ight
lich es
ĠTh omas
ĠHÃ¶ he
Ġg ive
Ġbet ter
Ġn ieder
ĠâĢ ¦
ce pt
oug ht
im men
Ġg ilt
Ġjeweil s
Ġle t
4 4
19 7
Ġeigen en
att ung
gemein de
ĠU l
Ġsh ort
E S
ĠS ommer
ill s
ĠZw eiten
an ien
ĠLeip zig
la us
Ġer rich
Ġfolgen den
O N
Ġmus ste
ĠLud wig
geben en
Ð µ
Ġl ist
gen den
ĠH en
ĠK Ã¼
gr ess
ĠProfess or
ik el
ag ue
ain s
Ġsec ond
ĠKais er
ist ory
est s
O b
o in
ĠRom an
ie gel
Ġex ist
A R
ĠA ward
Ġ6 0
d a
ach e
uch e
ĠSe e
ĠSchwei zer
A S
Ġf act
ĠS l
iz in
Ġ(âĢ ł
Ġinv est
ĠNor th
Ġmus ic
Ġdav on
E N
Ġp ict
Ġprodu cts
eit ung
Ġt rue
ĠK ol
atur es
an te
Ġh ol
ĠS oc
ĠBe vÃ¶lker
a ÃŁ
ĠD i
Ã¤t te
Ġperson al
g lichen
us Ã¤tz
ge f
sh ip
Ġloc al
am b
ĠO s
Ġres earch
rÃ¤ gt
ĠtÃ¤t ig
Ġd ating
Ġm ust
ĠS eine
d o
ĠK ant
Ġ198 8
der s
ĠSt ring
ĠW Ã¤hrend
Ġerfol gte
on a
Ġer n
ĠG el
ĠRe gel
Ġmach en
igen schaft
it ing
ĠE isen
ĠSt utt
richt ung
3 4
ĠB rit
ĠR el
ĠK e
ĠRe c
Ġp ay
ĠW ith
Ġm ain
Ġch ange
ĠStra ÃŁe
ĠK ommun
Ġc a
ĠH ann
ĠF il
Ġho use
Ġd ays
ĠM useum
ĠMart in
Ġauf grund
m b
Ġeas y
zeit ig
f il
Ġm ar
Ġn Ã¶rd
FuÃŁball spieler
ser ie
Ġpubl ic
Ã¤ ss
Ġj ob
Ġse le
Ġin t
Ġwork ing
ĠK om
ub e
Ġstud ents
ob il
ĠMin ister
ic le
af Ã¼r
ĠEr w
Ġo ld
ĠGes ellschaft
if ul
ĠF rÃ¼
on ist
Ġle g
Ġen joy
ĠF ir
3 2
tel s
ĠUn ited
ka dem
ib li
ra u
Ġde fin
Ġur sprÃ¼n
Ġle ad
ts teller
ĠMit glieder
sch eid
Ġl o
Ġinner halb
. "
w ie
Un ter
z ess
ĠA fr
ĠH ome
ĠK reuz
Ġhe ad
ĠU hr
Ġins gesamt
ĠMar ia
ĠAnd re
i ate
ĠR olle
ĠIn stitut
Ġ Ã¶ff
ĠD am
Ġ198 6
Ġ195 0
ĠB ru
Ġwe il
opp el
Ġ }
Ã¼r k
ĠSt at
wa gen
gen de
Ġfin det
wend ung
Ġco ver
ĠHol z
uch en
id ge
ent al
ei le
y ing
ĠR hein
u el
op s
h Ã¶
3 1
Ġden n
arbeit er
ut es
ĠL iteratur
Ġc ert
ĠStra ÃŁen
ĠE is
ĠMann schaft
ĠP ra
ig ur
Ġpra ct
ett be
8 8
erk e
Ġwechsel te
Ġinc re
ĠschlieÃŁ lich
Ġunter schied
ĠPr iv
en g
ĠFuÃŁball spieler
Ã¤ fts
em s
ĠLe ist
Ġa ff
ol a
ĠSch iff
ĠI de
ĠPar tei
Ġm ein
ab or
ĠEr geb
ĠNor den
is ierung
ic o
ĠC omm
ĠâĢ ĺ
os p
Ġpro ject
ing ton
Ġl arge
ĠSo zial
ran sport
ĠV ier
Ġcon c
Ġadd ition
ĠB ur
itz er
9 5
b te
ĠM er
ut s
geb aut
Ġm ult
Ġse hen
ult ure
Ġche ck
Ġerreich te
v ille
ĠMar kt
rÃ¼nde te
mann schaft
ĠP ost
ĠDes ign
ĠE ner
Ġt urn
ĠMet hode
Ġm ag
Ġw omen
ach er
Ġl ange
Ġ198 7
ĠK ur
b ra
rei ben
' m
ĠO t
ĠS and
Ġne ver
ĠIt alien
lich t
fahr t
ber ger
ab l
setz ung
O R
ĠW al
Ġm ax
ĠI ch
ĠL ang
Ġme ist
Ġof fen
Ġprogr am
Ġn ord
ĠW o
ĠMill ionen
ĠO ur
Ġa ir
if ied
ĠS im
ort un
ĠÃ¼ber nahm
ter t
ĠK ilometer
iv ision
as k
ĠR est
ern er
ru ktur
ĠOlymp ischen
ĠP ap
and id
all er
au en
j et
iv ed
deut ung
Ġact iv
ĠHeim at
l ungs
Ġkonn ten
ĠJ apan
ĠAlb um
Ġan other
our ce
Ã¤r en
ĠM utter
v al
Ġm aking
zeich en
M ar
it ive
ĠReg ierung
ĠIn ternet
Ġapp lic
Ġperfe ct
Ġges am
le ist
ze pt
ĠPf arr
ok ument
Ġneed s
Ġm ight
Ġein mal
re if
ul ts
t es
Ġh al
ges etz
ĠD enk
ĠStutt gart
k o
ĠIn sel
lig a
h il
ra y
Ġbes onders
f o
ĠF rei
ok rat
Ã¼t zen
am ens
ĠâĢ Ķ
ran ken
ĠDeutsch e
ret t
l am
iz ation
Ġ198 5
Ã¶st lich
ill er
Ġf lo
Ġ194 4
itÃ¤ ts
ĠM ilitÃ¤r
ĠW ieder
Ġas k
ĠJ ust
Ġ198 4
Ġdire kt
te gr
Y ou
f it
op er
ail le
I S
Ġchild ren
c le
Ġl aw
ĠS am
ĠVor s
Ġh tt
fe hl
Ġim pro
Ã¼r z
w Ã¤r
row s
Ġgel ang
in i
Ġer m
Ġgew Ã¤hlt
Or t
ĠB ank
Ġfo od
Ġd ien
Ġ197 4
p reis
ok al
Ġm ich
Ġcon f
A s
ium s
Ġprodu ct
W elt
Ġde p
8 5
Ġb ased
Ġsu ccess
Ġgegen Ã¼ber
Ġb lieb
8 6
ĠW esten
ĠL ou
je kte
i ber
Ġt em
ĠTe x
f est
ĠC as
s etzt
- ,
und er
Ġc ap
ord ing
Ġins besondere
Ð ¸
ĠR obert
ĠPro ble
Ġp age
e x
un ch
lÃ¤ uf
Ġ ident
Ġc reat
Ex ception
il nehmer
Ġ197 2
ĠP ass
Ġbis her
Ġerne ut
ĠB eit
ĠBer uf
it ten
A C
g ing
S o
Ġh Ã¤uf
Ġcons ider
ul ation
ĠB ilder
Ġgeb oren
al z
ĠAn ton
ĠOn line
e e
t il
ĠE uro
ĠR ichtung
ill ion
Ã¶r t
Ġan s
ym n
ĠS w
Ġo ber
Ġse ver
B au
ĠPro zent
Ġs af
Ġ198 3
ll t
Ġen gl
Ġ198 2
V or
Ġv ideo
alt ung
Ġze igt
ĠW eit
ho cke
ktion en
Ġtrad ition
ge gen
Ġl ine
it i
Ġs w
ĠVer trag
ĠBeg inn
ĠPro jekt
ĠK Ã¼nstler
ord nung
eth od
st ieg
Ġcommun ity
Ġal ong
Ġme isten
u h
th ers
it ze
ĠE hren
oc us
Ã¶s ung
Ġre view
Univers itÃ¤t
P D
W h
is on
Ġent fern
8 9
Ġm Ã¼ssen
ĠJ ournal
schul lehrer
Ġcour se
Ġ( )
ver kehr
ĠM ot
Ġviel en
ge ther
te ile
ab ility
te chn
is ed
ag o
f an
Ġfor t
Ġeinz el
Ġf ile
Ċ Ġ
ĠM os
ĠKrieg s
ĠSÃ¼ den
4 2
E igenschaft
Ġwor ks
ĠDav id
ue ck
5 5
Ġpro te
St and
ĠGes amt
F Ã¼r
z Ã¼
Ġ Ã¤
f ried
ĠB is
Ġein gesetzt
ĠF ernseh
ra b
ĠH igh
L and
ung sp
ĠArbeit s
ert y
Ġa uth
fl uss
ĠHerz og
te id
ĠSt Ã¤d
v iron
ir chen
ch an
is ing
f red
ĠS icher
ĠE mp
ĠM il
r or
Ġr un
part ment
sche ch
ĠT age
Ġre f
af en
verb and
Ġp ort
ĠZw ischen
z a
ĠN utz
Ġunder stand
ĠH or
ust rie
ĠP o
Ġkl eine
Ġerrich tet
ĠH inter
ger ufen
Ġverschieden e
ĠPro gramm
c er
Ġin sp
mal e
ĠIn n
Ġver st
Ġ198 1
ĠBo den
ĠAn zahl
ĠO sten
ian s
ĠSchrif tsteller
cript ion
ĠK al
Ġk ur
e kt
r ist
ĠA uÃŁer
Ġz eit
Ġ197 8
ĠGer man
ĠEurop e
Ġl ive
ĠZ eich
stell en
ĠLe hr
zeich nungen
E D
Ġa way
as es
le ge
Ġ197 9
Å ¡
Ġed uc
' ve
h an
Ġ {@
J ahr
Ġver kauf
ak ter
Ġle ben
Ġze hn
, âĢĿ
O n
Ġl ess
ip l
Ver ein
Ġzw eite
it chen
Ġn ahe
Ġp ut
ct ure
ĠM ad
Ġinter est
Ġfolgen der
ein t
Ġn Ã¤ch
ust ry
Ġs ingle
p re
Ġc all
m on
v oll
ĠCh ina
if fe
Ã¤us er
om an
Ġagain st
' re
Ã¼ ter
ze uge
ĠAut or
Ġn ie
ĠBe deutung
ĠS uper
ĠPr ess
ĠK lasse
a ar
ĠN Ã¤
ĠZ ur
p iele
ĠDies er
Ġeff ect
Ġgemein sam
be k
Ġ197 5
Ġto gether
if orn
al og
ck s
Ġcre ate
ord in
Ġvor hand
ĠAuf lage
4 3
issen schaften
ĠCar l
Ġn atur
Ã¼ ler
ĠVer kehr
mb H
h men
i j
ab ly
Ġ ir
ist ische
fÃ¼hr er
Ġh Ã¶ch
w eit
b Ã¼
g n
Ġf ilm
ĠMal er
Ġ197 6
ĠSchwei z
olit ik
V on
ĠL o
F ernseh
ĠK re
ichte te
g a
ĠS aint
Ġle d
z ir
Ġde v
ich ter
Ġcon ne
Ġre du
ĠAm ts
Ġbest and
ĠH alb
ĠF Ã¼hr
A L
Ġan geb
Ġw all
ĠSt ate
b est
Ġ197 3
sch lag
Ġd afÃ¼r
ĠSch ule
ĠB aum
Ġ196 8
av or
land s
ĠColle ge
Ġ197 1
Ġbeaut iful
S eit
T yp
Ġ8 0
ÃŁ t
id ing
Ġ196 9
ĠS yn
Ġn et
ag n
Ġbeg inn
or a
Ġsie he
ĠSta at
Ġd etail
ĠW ie
it en
Ġver t
7 6
f asst
ol den
con om
b ank
Ġt reat
ĠP ubl
Ġp ast
Ġst amm
Ġf our
ĠG Ã¶
k an
ĠZ Ã¼r
zie h
he mat
Ġre le
geb Ã¤ude
Ġk ind
ĠJose ph
d ing
at Ã¼r
me e
ĠA p
meister schaft
ĠBahn hof
ĠAl ter
ikan ischen
ar f
Ġim p
Ġkl einen
Ġhin aus
id ay
ĠD res
Ġ197 7
ĠW ochen
Ġs og
ĠII I
E ine
an o
k n
ĠM el
Ġer klÃ¤r
Ġsow ohl
Ġcont rol
ar ing
ĠReg ie
ĠR ud
Ġoff ers
en burg
Ġ )
c ing
ab hÃ¤ng
weg ung
s uch
o is
ĠM otor
ĠT urn
Ġto t
i ol
de ck
ist ik
ĠCl ub
Q u
Ġh aving
Ġre la
h aupt
Ã¼r t
hocke y
ĠlÃ¤ sst
ĠG ast
red it
ĠV e
Ġlie ÃŁ
b aut
Ġal ten
ges ellschaft
Ġh erv
ĠGesch Ã¤fts
Ġl ov
ĠMe hr
Ġcle an
row n
Ġdevelop ment
ĠK ind
u den
ispiel sweise
ob ile
d es
h or
m el
ge geben
ĠC D
ĠM Ã¶glichkeit
w ald
at te
Ġr Ã¶m
Ġse arch
ĠSch utz
ĠT op
ir g
Ġehemal igen
Ġz we
ĠkÃ¶n n
Ġbel ow
der n
ĠD el
Ġwo hl
Ġdan ach
sp rach
ger icht
iziel le
ĠP sych
Ġar ch
ĠOrts teil
rach te
Ġbe vor
ĠH ers
ĠS ub
ĠSel bst
ul a
Ġpr ice
Re g
ĠVerwalt ungs
Ġb ody
rit te
Ġr ange
gesch lossen
ĠG ruppen
Ġb rand
Ġm oney
n am
amp le
ibli othe
ĠL es
f a
un e
Ġh inz
Ġ Ã¤hn
Ġg irl
Ġm aterial
Ġp lease
et ter
ĠVerein igten
ĠR ock
ĠInformation en
o o
ĠH in
ĠI r
ĠG mbH
Å į
Ġs en
ĠL ib
ĠSt art
or den
ge fÃ¼hrt
Ġso gen
Ġbeste hen
Ġw eb
vol ution
Ġn ight
Ġz usÃ¤tz
ak en
Ġst arb
ĠK or
id a
ĠAn gel
t ler
7 7
n ach
Ġ +
6 5
g Ã¤n
ĠverÃ¶ffentlich t
Ġin n
ĠO ne
stell t
ict ion
ĠT ur
iv il
I C
Ġb ar
ant wort
etz ung
ĠP rÃ¤sident
av en
,, ,
Ġbie tet
ĠS achsen
H och
itz t
b rÃ¼
Ġhand elt
ĠfrÃ¼ her
ĠBay ern
ar ian
itÃ¤ ten
ĠT V
ĠT rans
h ang
s ide
ĠD DR
ame ister
Ġjed er
ift ung
Ġd ist
wo od
ĠM iss
Ġemp lo
entr al
Ã¤ chen
ĠT al
Ġs ide
ĠH all
Ġof ten
fer ence
Ġke y
Ġzahl reiche
Ġfollow ing
br uch
viron ment
4 1
Ã¤ ischen
Ġall ow
Ġpr es
Ã¤ch lich
Ġc ity
ab in
ĠR ot
il s
ien s
ro ll
Ġ194 3
ĠfranzÃ¶s ischen
Ġerfolg reich
Ġdah er
ĠEle kt
un t
hr te
Ġj etzt
ob al
lan zen
Ġeigen e
ĠB Ã¶
re icht
Deutsch land
arbeit en
l ad
ĠB or
la w
b ung
r as
ĠF el
Ġdam als
Ã¼ hle
ĠA kadem
b ack
ĠSt Ã¼ck
Ġa cht
ĠB lack
Ġschn ell
Ġ7 0
ĠS ant
Ġ196 4
Ġ9 0
Ġet c
Ġopp ortun
Ġ3 5
Ġele ct
ĠI hnen
r im
ĠP osition
Ġv an
Ġzu dem
Ġbec ome
ĠSp iele
Ġle ft
id d
Ġsie ben
Ġbest imm
ĠS ong
he ther
Aus wahl
s eite
eh men
Ġvis it
mÃ¤ÃŁ ig
Ġ193 8
wo hl
ymn as
P l
Ġwh y
Ġp ossible
Ġh app
ann e
fl Ã¤che
Ġdown load
ĠRei he
Ġp ack
ĠJohann es
Ġsever al
Ġs ize
an ks
ic ks
werk e
I T
Ġb in
Ġsoll en
Ġdel iver
ĠChe m
Ġd ra
ĠW eb
9 8
ĠHo use
ch ter
ĠBevÃ¶lker ung
Ġn on
Ġso zial
A mer
) ;
Ġfe atures
Ġzw ar
ĠÃ¶ff ent
Ġbe ispielsweise
ĠGr Ã¶
ĠMÃ¤n ner
c ent
Ġdire ct
A P
Ġz og
Ġwicht ig
ĠG od
ĠLe ague
ĠK urz
ĠC enter
Ġheut igen
geb ung
ĠKar r
Ġvorhand en
ĠSie d
Ġsich er
.. ..
Ġac ross
Ġwen ig
ĠW hen
iz ei
ĠKl oster
Ġt est
ĠW irtschafts
ĠJ ack
bar en
Ġ196 7
arr iere
B C
Ġf ocus
Ġph ys
ĠAuÃŁer dem
z i
Ġt imes
ĠI l
Ã §
ĠD istr
uf act
Ġzur ueck
Ġind ustry
Ġam er
ĠReich s
ure d
ĠHer ren
ĠE ben
Ġihn en
ĠJ ur
em in
je cts
Ġf al
un sch
b ol
ak er
ettbe werb
f ten
Ġm akes
Ġr uss
ĠAr m
Ġe ver
Ġ196 6
ĠEng land
Ġwel ches
ĠÂ »
Ã¼r d
Ġde utlich
ĠAn n
rol le
ĠTe le
Ġ(âĢ ŀ
ra el
re ibt
Ã¤nd ern
Ġcom es
ĠIn nen
Ġbefin den
ĠW enn
onst ru
Ġsom it
Ã³ n
an ischen
Ġso cial
k i
Ġdar unter
oll te
th rows
ĠSp rache
ĠgehÃ¶r en
leit ung
Ġsh are
z us
ĠE ing
ĠRich ard
v a
sch eiden
Ġhe i
ĠVors itzen
Ġw ahr
Ġun til
Ġ194 0
ĠDre h
ig ungs
ĠP rÃ¤
Ġl ag
Ġre gel
ĠhÃ¤uf ig
ut ions
ĠG eld
ĠProdu kt
Ġst ory
ĠR ein
W est
Ñ Ĥ
ĠD om
f ung
Ġbe teil
Ġle vel
Ġcount ry
al tet
ĠG i
Ġc ase
ern en
Ġ193 9
ĠAustr al
ĠErn st
9 3
read y
Ġb ene
Ġb it
ad urch
ĠTh ese
Ġinst all
M us
e ten
Ġg an
pla y
" .
ĠR und
ing t
9 6
M et
Ġl og
ĠStud ien
Ġletz te
Ġentstand en
Ġabsol v
r unde
le gte
Ġall es
ur ity
esten s
F l
G em
ĠA G
il en
Ġprofess ional
ĠB ot
u tet
ĠM ass
ĠV o
co ver
Ġ ess
ie ten
Ġse ason
ik on
Ġzu vor
ĠSal z
c el
Ġs uper
âĢ Ķ
âĢľ )
hl er
asch inen
vern ment
Ġ ung
Ġpr esent
b ten
te in
ier ungen
ges ehen
ĠH al
Ġ196 1
s burg
ĠK an
v est
Ġqu ick
Ġ ens
Ġlie gen
og le
Ġ196 3
Ġentsp rechen
ĠEr folg
Ġ Å
Ġv ol
ro du
Ð ½
Ġs tellt
we gen
ikan er
* *
rie f
Ã¤l fte
anad a
Ġver fÃ¼
Ġgef unden
ĠS telle
Ġ( =
och e
Ġwen iger
Ġmoder n
ĠEr d
ĠOt to
c is
in ge
te g
ĠGen er
Ñ Ģ
ĠZ um
tem berg
Ġm aj
ĠB ron
Ġ196 5
am in
ĠVer fÃ¼g
ĠZÃ¼r ich
Ġh Ã¶
H er
ĠE t
ĠSe c
ic ro
Ġbl og
Ġo cc
sch iff
Ġoff ic
w ind
Ġ193 3
ĠSch Ã¼ler
ĠK rit
Ġpo int
Ġget ting
Ġbes ten
i od
ge hen
ĠP et
ĠGemein den
Ġ195 6
Ġf ar
Ġide as
ĠKarr iere
al ys
os en
Ġy oung
ad a
ring en
Ġ193 0
Ġc amp
b are
ĠTh at
v ious
ĠF ac
ach ten
ag s
Ġst re
Ġbu y
Ġmember s
ĠSt ar
ian a
8 7
g ere
ĠD ruck
Ġgen utzt
Ġcal led
Å Ĥ
Ġc ou
for sch
ut or
Ġex tra
os sen
ĠAss oci
ĠM ore
Ġ194 2
ĠG al
la ger
Ġges p
O S
w asser
Ġl ow
Ã¤t igkeit
Dies e
ĠD own
ze hn
or m
ĠL age
Ġfol gte
es tern
Ġdesign ed
Ġw ind
ĠT ab
Ġsp ace
Ġres ult
ish ing
ak te
Ġth ing
Ġge g
6 6
ĠR em
ac y
Ġl at
ĠServ ice
Ġl iving
ik al
Ã¤l ter
ĠRep ublik
hl en
Ġteil weise
0 5
Ġal ready
Ġspec ific
Ġbef and
ĠC amp
ĠFe uer
ungs k
fol ger
. :
ap s
Ġcont act
ĠHo tel
Ġser ies
' ll
y a
ĠA ben
Ġn ichts
Ġer Ã¶ff
ĠDe c
ĠEn gl
ww w
Ġm om
fl ug
Ġgleich en
w in
Ġverb unden
unn ing
ĠSch wer
Ġerw Ã¤hn
ĠV al
Ġe urop
amer a
Ġkn own
ĠF ort
ĠPre m
ĠZ ust
or ie
ĠB ach
Ġd one
Ġfriend s
A nd
la den
Ġ196 2
Ã¼s se
ĠBerlin er
on ne
he ira
ĠZ we
ĠFl or
w esen
ĠW eiter
ier ter
og n
Ġcomp an
b an
gr en
Ġsog ar
it a
Ã¤t zen
Ġst at
ĠK Ã¶rper
Ä ģ
re m
u hr
is c
ut ure
Ġth ough
ĠPhil ipp
ĠRe al
Ġw a
Ġp urch
Ġte xt
ĠPhil osoph
ĠgrÃ¶ÃŁ ten
Ġstell te
ĠNÃ¤ he
at ers
Ġl im
P ar
ĠAr ten
Ge ographie
p rÃ¼
g ent
Ġdam al
Ġt alk
ĠJ ames
Ġto ol
haf t
led ge
ĠG leich
ĠK auf
A ll
Ġm ass
qu e
r am
ĠK ons
Ġfolgen de
Ã¼l t
s eit
in ts
le ment
Ã ľber
ie te
ĠHer mann
k el
as er
ĠD ate
ĠMed ien
g liche
ran t
ĠFre und
ĠT est
ĠW ein
S h
ĠBes uch
Ġt ell
isten t
Â °
ĠP an
im s
ic y
Ġapp ear
Ġst yle
b esch
fin ale
ilit ies
a un
ag t
Ġent hÃ¤lt
fra ge
Ġf alls
Ġm ethod
Ġup d
ĠZw ei
Ñ ģ
Ġ195 8
Ġprov ides
f s
ang es
ĠE du
Ġw elt
ich en
ĠDres den
Ġme ans
c ome
ĠK ategor
ĠC an
ĠL u
ĠÃ ľ
Ġbuild ing
el ten
b ro
ch ester
ĠMit arbeiter
par te
letz t
W ir
E M
ĠSil ber
ĠHann over
ide os
ĠS old
ĠSt ates
Ġuns ere
v is
Ġstar ted
ĠM aterial
n es
ĠWh at
i w
Ġein igen
Ġk lass
ĠSie g
Ġh ours
es ted
ĠG est
Ġ19 20
it ch
ĠM oder
ĠK ampf
Ġd eb
Ã¤t ten
Ġen c
P h
nd er
schlieÃŁ lich
Ġmaj or
, "
. <
Ġret urn
r ies
Ġf ield
C D
Ġver lie
ĠUnter stÃ¼tz
ĠHil fe
Ġer k
ĠNach dem
z immer
rie ch
ĠBru der
an lage
ĠVerb indung
ĠEr sten
8 4
at um
Ġs ug
le iter
ĠSe x
Ġgen au
Ġver sch
end ing
ĠCh or
ĠPh ys
i ar
m od
Ġim age
Ġauf genommen
Ġcomple te
us st
ĠW issenschaft
le tt
ĠJ es
Ġrequ ire
0 1
Ġcom b
Ġw atch
ĠA th
Ġpriv ate
enn ung
ĠAuf trag
aup ts
ĠF rie
U m
Ġge legen
Ġor ganis
Ġp ie
M ed
ĠR oy
ct ive
Ġ195 9
stit ute
Ġen er
ik o
ĠSpiel en
Ġtechn ology
ĠUn ion
ĠauÃŁer dem
rÃ¼ ck
isse ur
9 2
l ant
our ces
ĠFl uss
yn am
re p
Ġne ar
Ġ195 2
ĠC ommun
ĠG arten
ĠE igen
Ġnach dem
or gen
Ã¶r m
Ġentfern t
ĠE U
Ġth ought
ick en
ra chen
ĠL og
ast ic
ĠBes itz
m ost
g g
ĠI D
ĠJ azz
ze ugen
ak a
u a
ut zen
ab y
Ġst ay
Â »
il ien
e ter
av a
Ġtyp e
Ġw issenschaft
gr Ã¶
p ec
le cht
Ġh uman
be zirk
ide d
ĠPolit ik
P S
as en
il er
ĠN etz
ien ces
Ġcol or
ĠBÃ¼rger meister
f Ã¼r
fÃ¤ h
l ow
A M
Ġh om
Ġer reicht
k ap
Ġg re
ĠAn geb
oten t
Ġo thers
arbeit et
ĠGe f
T rÃ¤ger
ĠH Ã¤lfte
men te
k ret
ĠB ud
ĠW irk
ress e
ĠR ang
Ġn atÃ¼r
ĠW alter
ĠWolf gang
ur ance
Ã¤d ag
ĠArt ikel
Te ilnehmer
Ġchar ac
er ing
ĠAkadem ie
b s
ĠB ook
ĠF en
Ġbei de
o int
Ġb lack
lie ben
ĠGe ist
zeug t
Ġproble m
H and
Ġ194 6
ste hen
Ġe arly
as ing
Ġprodu z
k et
ran g
rit z
ĠVerfÃ¼g ung
ieren den
o on
Ã¶ hn
7 9
d in
fass ung
ĠP il
sp iele
itu ation
k or
an gel
Ġl ink
Ġ195 7
k reuz
Ġw on
w ar
Ġh istory
ĠWill iam
Ã¼rt temberg
us ion
ĠT ier
ĠWerk e
Ġc ent
ĠAus bildung
er in
ĠPr es
Ġm Ã¶ch
Ġte ach
h inder
ge m
ĠB y
ĠJ ac
Ġcurr ent
p ark
Â ²
ĠV iel
aff el
r al
Ġmach te
Ġmed ia
ĠB aden
ĠK unden
it ure
k ur
ĠB u
ĠSt ad
ĠThe ma
ibliothe k
o den
p ut
ĠN ow
Ġk osten
Ġele kt
Ġcustom ers
Ġunser er
tag s
Ġdid n
ĠAlex ander
Ġdisc uss
er es
ig lich
ĠC r
ĠEx p
k und
ĠD eb
ens ion
Ġfr ont
ĠW and
Ġk amen
Ġem ail
n ers
Ã¼ ste
Ġprop erty
0 6
ang s
b Ã¼rger
Ġr icht
rie ges
Ġsim ple
d am
te xt
Ġer ster
ĠwÃ¼r de
auf en
leit et
Ġch allen
ward s
oun c
oll ar
w esten
Ġre port
s c
zentr um
Ġlin ks
Ġvoll stÃ¤nd
Ġbes uchte
ĠVer m
Ġ194 1
ig in
Ġakt iv
b um
r ug
ĠGe orge
P r
ĠG et
Ġun ique
Ġinv ol
ĠLou is
ge hend
ĠAl le
a ul
wohn ern
Ġsetz te
w ill
Ġle ader
Ġsch wer
Ã¤hl en
Ġindivid u
n ow
Ġm iss
F rau
ĠS ym
ed en
ĠR and
van gel
Ġw alk
Ġm acht
ĠR en
Ġre por
ĠJe an
r ig
ĠP op
Ġk itchen
Ġmehr eren
Ġen ough
1 00
Ġgew esen
f rei
Ġre cht
ges tell
ĠD or
ĠR ob
ĠM ess
ĠUnter such
Ver lag
ĠW ider
Ġ4 5
ent wicklung
ĠPro p
ĠG roup
ec ts
Ġge ben
ĠVer d
eb ook
Ġsch rieb
il ian
Ġto ok
ĠL iga
ĠC ent
Ġen vironment
st ant
ay er
Ġ5 00
c ol
âĢ ĺ
in ed
om et
Ġ195 3
r uf
Ġp ersÃ¶n
Ġc ame
Ġex pl
Ġho he
ĠMus ic
schrif ten
ĠK raft
C hr
I ch
ĠF Ã¶rder
Ġevery thing
ĠB al
Ġ rad
Ġo p
olog ische
Ġ194 8
Ġcomp uter
ĠStud ium
Ġvar ious
9 7
ran ge
Ġv o
ĠL eiter
ĠHer aus
t ritt
Ġle icht
Ġg rÃ¼ndete
jÃ¤hr igen
Ġgem acht
Ġadd ress
0 2
Ġmonth s
Ġact ually
ĠB ill
ĠT her
Ð¾ Ð
Ġman agement
Ġacc ount
p age
ĠM ac
ĠD oppel
av y
ĠAr mee
Ä į
ne ter
Ġcompan ies
Ġ195 5
ĠSer ie
s ie
age d
w es
Ġsoll ten
zir ks
ĠS in
gew iesen
rÃ¤ fte
ĠK opf
Gem ein
Ġme an
Ġf rei
Ġl ate
res h
ĠS u
or te
Ġunter stÃ¼tz
8 3
Ġf avor
ĠFin anz
S etzt
ca dem
9 4
ot a
E T
sch au
if y
Ġ194 9
S e
Ġcl ick
Ġj a
ĠPr inz
so zial
ĠW all
gel Ã¶st
ĠA k
Ġman ufact
Ġp ur
Ġeng ine
Ġprofess ion
ifik ation
S port
k unft
. -
ĠH eid
Ġihr es
em b
ĠCh amp
Ġstud y
c m
Ġf ur
ĠM ein
Ġpartic ular
ĠNach t
fahr er
Ġc ard
Ġ195 4
ĠK ing
ĠStre cke
Ã¼ss eld
ot o
ĠBe zeichnung
meister schaften
ĠJun e
ĠT on
ou ver
Ġho hen
Ġbede uten
ĠKÃ¶nig reich
C on
ĠL Ã¼
urn iture
ĠR itter
Ġrel ations
Ġd ivers
ĠB ack
ĠSt r
Ġtra ining
ĠGra nd
ĠC la
Ġne un
anc ial
N ational
he t
ut her
ite te
en er
ĠA v
i i
Ġz erst
rich ten
heira tet
w art
ĠDenk mal
Ġh ig
tre ter
wert ung
Ġcert ain
Ġver d
Ġresp ons
ĠI d
Ġer ziel
au d
Ġin de
ĠW ash
ĠD ach
m und
ĠK le
im ate
r hein
ile d
Ġger ade
ĠursprÃ¼n glich
Ġherv or
Ġdo ing
ĠD ay
ĠDies es
g al
à ¸
t d
ĠM ond
Ġoff ice
hand lung
olog ischen
ir c
if fen
ame ter
at ors
ren g
A t
or es
m as
E L
Ġres ults
aler ie
k athol
ĠWien er
ĠC our
G es
Ġy et
ĠSchl acht
ho ben
ĠDam it
an ger
ho ut
Ġnew s
iden ten
S er
Ġf it
Ġwh ite
ĠEner gie
end orf
Ã¤nd ert
Th ere
ĠF ern
Ġl ik
imm ung
ĠO ct
ab eth
Ġe conom
Ġpop ular
ĠFir ma
ag ing
ĠY our
c i
Ġso ftware
ĠOr gel
Ġperform ance
ĠA re
ĠL Ã¶
ĠNach folger
Ġk einen
Ġge d
rech end
w irk
iv ely
ĠK ommand
ĠJ er
Ġloc ated
ĠChar les
abr ik
b or
bl ick
Ġc m
ĠA cadem
ĠPro f
Ġ195 1
at o
0 7
g ten
Ã¤ch s
ĠA st
ĠO ut
k le
ot te
zeit en
Ġw onder
ĠVer anstalt
ĠIs land
Ġquest ions
Ġf uture
ĠBe griff
z ip
ĠP unkt
ĠW ol
Ġre pr
ĠF al
0 8
ĠR iver
ud io
lÃ¤ ss
Ġd oc
de ten
af fe
ĠsÃ¼d lich
Ġauth or
ĠArbeit en
b ischof
ie ur
Ġm ess
ou d
ĠFrÃ¼ h
M od
Ġm illion
ĠP DF
et ing
a ill
5 6
wie gend
we isen
ĠMa ÃŁ
f Ã¤l
Ġb ath
Ġsp ielt
E C
G B
ful ly
bet rieb
it ar
ĠEr fahr
Ĥ ¬
ĠS Ã¤nger
ĠT ruppen
ĠN et
l Ã¶sung
ic ation
ĠÃ¼ber n
ĠPol izei
==== ====
ĠnÃ¤ch sten
g round
Ġpro b
ĠAr n
ĠAb geord
stre cke
g ien
p ol
Ġin form
l as
ĠT eile
Ġcon tent
ĠB und
Ġaus gest
ĠPla y
ĠL aw
Ġon ce
ĠZu ge
d f
st a
Ġge hen
Ġaut omat
ĠSc ience
Ġwei ÃŁ
ĠSt amm
ĠLe hrer
S S
ch ie
Ġs ays
os ed
ĠÃĸ ff
7 2
v on
un ge
ad s
ĠGes etz
ĠA ct
Ġad min
ĠB d
-- --
ĠN ik
air s
de ckt
Ġver ein
Ġag o
ĠZu dem
ĠComp any
u he
Ġs ett
b ook
g as
Ã¼l ler
Ġh old
p el
Ã ¢
ĠL eitung
ĠVer l
ien ste
Ġam ong
ĠGra b
h i
Ġin tegr
st an
Ġle ast
Ġinclud es
W hen
rÃ¤s identen
Ġabsolv ierte
O ur
lie d
Ġentwick elt
ĠA uÃŁen
Ġto ur
Ġan schlieÃŁend
v in
ĠR Ã¤
ĠForsch ungs
ĠKant on
ĠPf lanzen
lichkeit en
ĠEl tern
Ġor iginal
ĠE st
Hoch schullehrer
r ation
or ed
Ġg ames
eit her
Ġb reit
ro t
et ten
Ġde al
bo ard
ĠKÃ¶nig s
ur a
ell ing
Ġsel ben
8 2
v ing
ĠPol en
ĠPriv at
ĠverÃ¶ffentlich te
u ed
Ġf und
ver walt
gr am
Ġread ing
Ġehemal ige
ir es
z og
e ded
Ġf il
sch uss
Ġmin utes
ĠRe ise
press ion
or ies
ĠH essen
ad o
Ġse en
18 6
neh m
hr t
Ġt able
Ġgeb aut
iden ce
ĠAl bert
ip ment
ĠÂ «
Ġg iven
ĠAn ge
Ġj apan
zie hung
it sch
ĠErgeb nis
x is
ĠF uÃŁ
ĠW ild
h istor
ã ģ
Ġd ate
Ġrec ommen
ĠMin uten
Ġm atch
ot ball
be ck
Fernseh serie
Ġ Ã¤lter
Ġb i
ĠL im
os ph
ell ow
_ _
all ow
ĠRe gen
Ġsel ten
Ġstamm t
ĠK ra
Ġk ont
p ly
ĠK as
im ar
Ã¤t ter
ĠT om
Ġex tre
A D
is es
il det
ĠL os
ĠC up
ĠLin ie
re cher
ific ation
fall en
ĠBr un
Ġw ent
ĠG Ã¼n
ĠN S
hal ts
vent ion
Ġc ra
mer k
ain ing
f ield
ĠA cc
ĠA tt
ĠF und
Ġne g
20 18
ĠSchw arz
f Ã¶rm
ĠR at
ĠZeit schrift
Ġcolle ction
ĠF ischer
ĠK ranken
Ġbes itzt
Ġgemein s
K on
te ten
Ġb le
ing les
Ġcomm on
Ġlat est
stell ungen
unk ten
l iste
Ġf ert
M an
om ot
gr enz
ĠA ber
ĠW ort
Ġam az
mal er
ĠKomp onist
ĠMÃ¼n ster
iqu es
ĠJose f
ĠD Ã©
ĠU p
ĠfÃ¼hr en
ĠDan ach
O T
r um
Ã¶ ll
ien ten
amil ie
ĠAssoci ation
0 4
ie ger
a ktion
b ark
Ġdar Ã¼ber
Ġeben so
Ġpr ess
ĠPart ner
Ġnatur al
ial og
f ar
ĠGrÃ¼nd ung
Ġn ull
Ġh ope
ĠSt il
ug hout
ain ed
Ã¤nd ig
Ġen ter
ĠReg ierungs
Ġpol n
Ġd ritten
9 1
Ġtra vel
Ġern annt
ĠV ideo
Ġum fasst
ĠMod ell
Ġ ill
ĠM use
Ã ¸
ĠL Ã¤nge
ĠMe x
Ġdoes n
Ġare as
ĠStadt teil
Ġ193 7
ĠBas is
h y
l im
Ġl ar
ĠRe cht
Ġp sych
7 1
Ġe her
Ġt aking
Ġz ie
lin ie
per atur
ĠnÃ¶rd lich
sch t
ĠC le
Ġk athol
ĠF Ã¤
end es
0 3
7 4
ĠG as
b aum
Ġ Ã¼b
Ġent halten
Ġass ist
Ġerreich en
En t
Ġs il
Ġf ive
end s
ĠT it
Ġfin anz
Ġmod el
l ern
ĠA fter
Ġv ia
Ġ194 7
Ġsome one
ĠWash ington
f on
or ing
Ġcom par
Ġst aff
W er
Ġs onst
el berg
ent ial
Ġiss ues
m o
v o
ĠUnterstÃ¼tz ung
Ġa ge
ĠW ahr
ot ion
ĠSp r
Ġvers te
Ġcom fort
rif f
Ġ193 4
Ġbre ak
Ġw ollte
ĠVerein s
Ġs ong
ĠR unde
Ġre chts
Ġj oin
arbeit ung
ĠVers ion
ĠStand ard
z uf
ĠD Ã¼sseld
ĠK osten
ĠB on
ĠF ree
Ġevery one
âĢ¦ ]
Ġhal f
Ġ| |
wissenschaft ler
an ted
ĠU N
Ġfun ction
h ib
ĠL icht
ed ia
ze igt
ĠAn schluss
af r
( )
ĠM ult
ĠF le
Ġev ents
P f
Ġth er
Ġ193 6
k unde
Ġgo vernment
Ġpre par
ograph y
ing ungen
ĠC am
Ġne ues
omm ission
k ra
ï ¿
ist an
ĠU K
Ġj Ã¼n
Ġpos ted
ĠP unkte
ĠV en
ib ility
ĠMat hemat
us ive
ĠerwÃ¤hn t
Ġhe ira
7 3
ĠW as
Ġcre ated
ymnas ium
Ġsch loss
Ġ3 2
ieren de
Ġopt ions
Ġre ach
ĠNach bar
f alen
h ers
Ġd Ã¼r
ĠS Ã¤
Ġal te
af t
we ig
Ġhe art
unter nehmen
Ġeduc ation
fer enz
i est
ur al
w al
re ise
ĠB ig
Ġge k
Ġfe ature
ĠProdu ktion
ĠVer gleich
Ã¤n gen
ĠK ern
hÃ¤lt nis
T o
ab les
S C
ro ffen
Ġab ove
h ab
m ut
Ġf ra
ĠEx per
Ġt ax
ĠA ugen
ĠRe ad
olog ical
e ign
p hen
Ġne uer
Ġweiter hin
Ġclos e
osp ital
ĠPro t
Ġ Î
in os
ĠAn na
Ġappro ach
Ġd ue
Ġr en
ĠOff izielle
Ġw id
ĠS omm
ĠD okument
Ġh appen
gen cy
Ġcom mit
ĠT urm
ra uch
Ġver ur
Ġt it
ĠRud olf
aus ch
ĠZentr um
ĠG ut
ĠO pen
Ġj Ã¤hr
Ã¡ n
ĠVol k
Ġmind estens
Ġeinzel nen
Ġp osition
Ġp aper
pp en
ran sp
ĠfranzÃ¶s ische
ĠM ount
Ġge geben
erv e
Ġp ick
ĠE vangel
ĠBe k
b orn
Ġb ad
ig entlich
Ġper iod
u it
Ġver heiratet
bau ten
Ġstell en
ĠV is
ann ing
ah nen
t schaft
Ġl ater
ĠSp rach
Ġem pf
an ken
ĠSp ring
Ġspe ziel
Ġre d
rep ublik
lan gen
Ġcl ients
ĠGo ogle
Ġbil den
Ġbil det
Ġm o
ĠR a
mus ik
ĠWe hr
Ġjed en
Ġoff iziel
Ġd iff
ĠD ivision
ĠT rad
Ġmit tler
Ġgesch lossen
Ġeinz ige
ĠFol gen
ĠSt ock
r is
lie gen
ĠOr d
Ġpartic ip
Ġev angel
Ġinternational en
Ġv eh
ir th
ĠGes und
b ie
ĠS ter
ĠNew s
com ing
Ġbesch Ã¤ft
ĠS ow
ĠS tern
Ġsel f
ĠHoch schule
ĠSch les
ĠThe men
z Ã¤hl
ip le
ath let
Ġtro tz
ï¿ ½
0 9
w h
ĠD och
ĠEisen bahn
Ġinn ov
Ġwho le
ĠSoc iety
w s
Ġre ason
Ġver z
ĠKon z
Ġbie ten
b us
ĠM as
ĠKategor ie
st aat
Ġrest aur
rat s
E urop
ĠHow ever
ĠSte uer
ĠSt unden
Ã¤d chen
Ġerh Ã¤lt
ĠL au
Ġ3 6
Ġph one
Ġc la
ĠAus gabe
ĠVer Ã¶ffentlich
richt ungen
Le gt
R E
Ġ Ã¤lt
an i
ĠUm gebung
ĠP ublik
ĠH y
ĠH ere
chn et
ĠMar ch
c ar
ie ÃŁ
Ġt w
at iven
Ġre lig
Ġentwick elte
ĠSchauspieler in
am ed
Ġc ele
los e
fra u
Ġide a
ĠRec ords
Ġdetail s
ĠW erner
etz en
Ġpolit ischen
Ġf iel
Ġp le
Ġent w
Ar ch
Ġbelie ve
ĠBrit ish
ĠRest aur
ĠM em
Ġat tra
S tra
Ġp otent
Ġverl oren
Ġpict ure
ers eits
Ge grÃ¼ndet
ail y
sch ei
Me ter
o id
Z u
Ġw es
ĠK laus
mit t
Ġme as
Ġo ben
Ġreg ion
Ġw ww
ad d
Ġd istr
Ġread y
ĠFest ival
i ro
k au
ar th
ĠG re
ĠHand els
ĠZeit punkt
Ġwel cher
ĠD enn
od es
amerikan ische
Ġbrit ischen
Ġd igital
ict or
Ġbo x
Ġsystem s
ĠfranzÃ¶s ischer
Ġs ens
st anz
ã ĥ
ĠAut o
Ġausge zeichnet
H ol
et y
ĠStre et
idd le
u age
qu al
Ġerfol gt
g ers
ĠAmer ica
Ġ3 00
O M
| }
Ġg ute
Ġaktu ellen
8 1
g arn
le icht
Ġthro ughout
ĠgrÃ¶ÃŁ te
Ġapplic ation
ĠS und
ĠFra ge
5 3
ĠA ust
iz es
aug h
forsch ung
ĠEin wohnern
rei he
w urf
Ġp ain
ĠKont akt
Ġm at
ou ble
ĠMed izin
Ġknow ledge
ĠE ast
orn ing
rett y
Ġtot al
Ġc ur
ĠC ons
Ġstr ong
Ġf ace
Ġener gy
Ġc ook
Ġbet rÃ¤gt
Pro du
Ġw ollen
Ġcurr ently
b rit
ĠGl as
Ġfand en
parte ment
p aper
à ¤
al a
ĠD ipl
ĠP lease
ĠEnt scheid
Ġw Ã¤re
Ġj Ã¼d
Ġinter ess
Ġcho ose
O ber
an lagen
he ad
Ġz ust
Ġer r
ĠIn stitute
sp e
u hl
Ġh air
Ġquest ion
f igur
ĠW ebs
iz ier
Ġcomp et
Ġze igen
istr ation
Ġa chie
Ġcon stru
Ġra te
ĠOr ganisation
on ym
denk mal
ĠGÃ¶ tt
Ġst ammen
haus es
halt ung
ĠÃ¶sterreich ischer
ĠO f
Ġvers ion
f ace
p end
il ar
k arte
ĠB usiness
ĠMar c
Ã¤r k
ĠLe g
Ġdien te
ĠS ingle
Ġc op
ĠW issen
Ġ192 9
it ts
ĠT enn
spiel en
west lich
S V
Ġs ale
ok e
ian o
Ġrel ativ
Ġb ald
Ġp aint
we chsel
pro chen
ĠBay er
ĠF rom
Ġwrit ing
me hr
alys is
k omp
Ġm em
Ġun ver
ĠAl ten
5 9
mÃ¤ ler
ĠAb schluss
Ġschw ed
Ġc rit
ĠRoy al
s ystem
Ġal most
ĠU s
ĠInd ustrie
ĠC ap
Ġst ru
ĠOr gan
Ġkn app
ĠÃ¶ffent lichen
Ġent ire
Ġben Ã¶t
isch em
ber s
Ġex ample
ĠGren ze
g ibt
Ġs ym
Ġw ide
ell ent
Ġheira tete
in den
ir ch
ul es
hl t
Ġpart y
Ġ[ âĢ¦]
ger ichts
ĠKir ch
Ã¤nd en
Ġhtt p
Ġnet work
B ahn
ĠS y
el la
Ġto wn
pla te
Ġdamal igen
F A
O C
ic ago
ell s
hal te
p ass
w itz
ĠkÃ¶nn te
Ġer he
ĠL ied
se hen
ĠBe zirk
ĠFran cis
ĠBl Ã¼
k y
Ġf ul
ic les
op t
ĠAn s
tent ion
iforn ia
" :
5 4
Ġ19 18
Ġreg ul
u ell
Ġs we
Ġhei ÃŁt
Ġwir k
Ġ Ã¼
Ġh ab
ess ion
g ruppen
Ġ193 5
ĠH art
Ġl iter
Ã¤hl te
Ġpict ures
ĠZusammen arbeit
r id
ĠH ei
Ġcle ar
ĠM and
Ġne eded
Ġins ide
Ġke hrte
fass te
Ġgesam te
Ġled iglich
G er
ĠfrÃ¼ h
spr uch
Ġz uf
hockey spieler
s m
ĠL uc
ĠSch Ã¶n
ĠPar te
mar kt
Ġhe ld
ĠIs rael
ist ic
ren nen
ĠT ages
onst ants
c up
Ġben annt
b i
ir it
teil en
Amer ikaner
d t
Ġ either
ĠUm welt
Ã ½
ct ing
k ampf
ĠK er
re chts
ĠB all
Ġver lÃ¤
ver age
ĠIn c
Ã¤d t
B o
ĠW ies
ĠEn ts
ĠB onn
anz er
Ġges tellt
Ġrec ently
pec ially
Ġde ter
ĠGrÃ¶ ÃŁe
F C
an ische
ain er
ĠHer bst
Ġany thing
Ġprovide d
t ime
Ġc as
Ã¼r n
un a
Ã¶ gen
ĠBre men
Ġproble ms
5 2
ĠT ode
ĠL ad
Ġann oun
ĠJ ung
ĠO k
ĠGeb urt
ĠGott es
ĠVorsitzen der
5 7
ĠH is
ne e
Ġso on
ĠZeit ung
ve y
ĠH an
Ġh on
Ãĸ sterreich
l ingen
ie ÃŁen
un ion
ĠI V
ĠR Ã¶
Ġmit tel
Ġerschien en
ĠFac ebook
M S
Ġw anted
ĠS ign
pp er
Ġsk ills
Ġw hether
Ġ4 00
Ġange geben
ĠEurope an
w here
Ġs ales
ĠAus wahl
Ġspiel en
e ks
th ough
ip e
ĠFre ib
Ġint rodu
ĠAndre as
ĠDown load
Ġh ost
iz ing
Ġloc ation
Ġlearn ing
Ġd og
Ã¤ ten
Ġun ivers
ĠCar ol
ĠSold aten
ĠN amens
Ġsh ows
f its
ich e
Ġse par
ĠRel ig
Ġh ot
ĠG ro
Ã¶ sen
zeich nis
Ġper cent
ĠTra iner
M y
ĠS ar
rie be
5 1
C l
ĠG attung
im um
sel ves
ĠfrÃ¼ hen
ash ion
ĠhÃ¶ her
ĠDÃ¼sseld orf
g u
ĠS ur
ĠJ ud
W ith
Ġerh Ã¶
ĠS onder
ig ner
ĠG reen
au te
ĠEr k
is ierte
ĠIn str
Ġch em
Ġ19 14
p ret
ĠR um
fr ast
P DF
T V
ie ts
ĠB a
Ġar r
Ġcustom er
Ġzu letzt
ec ted
Ġrequ ired
Ġf a
Ġal t
Ġst ore
ĠHeil igen
5 8
e ff
Ġf ire
Ã¼r gen
Ġgleich zeitig
setz en
Ġwen ige
ĠFamilien name
Ġb lock
ol ution
ĠF irst
st all
ĠK op
ĠIn vest
Ġpro jects
ĠJul y
ĠAkt iv
b is
k raft
Ä ĩ
Ġk aum
ĠSp anien
ĠNe ub
ĠIm m
Ġgew orden
wÃ¤r ts
ĠFen ster
W enn
ĠF ass
ĠW ass
ĠD ann
id t
ho den
Ġte le
Ġd ro
ĠP C
end ung
V D
ĠLie be
ĠEngl ish
ounc il
Ġsch l
Ġart icle
ĠHerr schaft
ĠT own
Ġe p
Ġp ark
âĢ ŀ
Ġass oci
wind igkeit
ĠB us
ĠV oll
Ġstand ard
fl Ã¤chen
Ġqu ite
Ġs od
ct ors
aus t
ĠAb s
in sel
is ted
he m
Ġg riech
Ġ- -
Ã¤ cht
ĠM ur
Ġim ages
Ġactiv ities
ĠFl Ã¤che
Ġverur teilt
Ġge prÃ¤
u ert
Ġk rit
Ġus ers
Ġus er
ĠGer ichts
techn ik
ĠSomm ers
f unk
y ear
st ud
ĠO x
ĠAn g
Ġrec ent
ĠT as
h auer
ĠS atur
ĠA ch
ĠH alle
ĠL ar
ĠFin ale
Ġbook s
E is
R uft
Ġer setzt
ĠSh ow
ĠInd ian
Ġdec or
rÃ¤n k
r ary
ĠT Ã¼r
g arten
Ġs or
ĠE v
ĠL ive
Ġsim ply
ĠStÃ¤d te
ĠAben d
sch lÃ¤
ĠCh urch
S te
ĠW el
ĠZ usch
ĠSchw ar
opp ing
n o
ĠVer t
ĠspÃ¤ter en
Ġens ure
Ġs ites
Ġw ays
ĠB ul
n amen
st Ã¤tte
ag d
ĠSp ec
Ġin dem
Ã¶ glichen
ĠN ic
ĠSt immen
Ġcon tra
Ġb em
Ġconc ern
Ġhapp y
D urch
em ents
ĠC lass
att le
zw ischen
Ġopportun ity
Ġfal se
B A
ĠMan agement
Ġest abl
bark eit
T ra
Ġf urniture
ĠM ail
rÃ¼nde ten
Ġindivid ual
Ob jekt
s telle
w issenschaften
Ġqual ifiz
s erv
stand s
ĠWh ite
sw Ã¼rd
verwalt ung
ar tet
Ġan z
Ġvar iety
Ġp oss
Ã¤n n
ĠDan iel
ĠVerkehr s
ĠD isk
ad el
k irchen
ĠT im
Ġ19 19
Ġfur ther
Ġb esser
Ġm ove
sp rache
lie fert
Ġpre uÃŁ
Ġ >
ĠH Ã¶r
ĠS C
Ġgen eral
gemein schaft
U N
k r
s b
ĠD azu
ĠAr ts
Ġes pecially
D es
ĠEp is
6 4
ĠSt rom
Ġco ol
Ġb us
ĠR ennen
at tet
ĠN ur
ho use
ĠFra gen
ĠA c
Ġs etzt
Ġn ice
ab il
Ġzahl reichen
Ġpract ice
ĠAcadem y
l ers
t itel
Ġ19 00
V ers
an walt
Ġsie ht
Ġvor her
schein lich
5 00
ĠS om
um er
Ġ193 2
yste me
Ġl ock
I nd
Ġs le
ĠJ ak
I s
Ġd adurch
do or
Ġ rom
ist in
ul en
Ġyour self
K arriere
Ġs at
Ġ192 5
Ġbu ilt
I P
Ã¶ ne
Ġbeginn t
gew icht
Ġdr ive
Typ e
ĠH u
ĠL ove
ad es
Ġpre vious
Ġmarket ing
Ġz entr
ĠN icht
mittel t
Ġb ud
ass el
Ġgen ommen
ade d
Ġt akes
ĠD rei
et ts
au x
Ġtra ck
ch ron
Ġs ummer
em ble
ĠFÃ¼r st
Ġpolit ische
Ġrela ted
h ing
Ġt un
iel ten
Ã© s
ĠTeil nehmer
ĠAut om
Ġpar ts
Ġt aken
Ġb lo
ud es
ĠCh icago
aut or
Ġ192 8
ill ing
Ġphot os
Ġbeteil igt
Ġdes halb
ĠL ife
ĠSt reit
ĠDire ktor
I L
w an
ar ed
le is
on se
un s
ur er
uf e
ut n
ĠAn schlieÃŁend
Ġad ded
Ġstud ent
ĠMon ate
w en
Ġa ction
Ġfin ancial
Ã¶l f
Ġpra kt
Ġamaz ing
Ġh or
ĠJ os
ĠUnternehmen s
ĠCal ifornia
Ġgesam ten
ĠH om
Ġl on
ĠL ake
Ġso fort
ime ter
icher ung
c rib
Ġin it
ger ichtet
Ġhinz u
O L
g rad
ĠVer wendung
Ġhow ever
Ġm ix
Ġdes t
uden ten
E l
um ents
od or
Ġind ustr
A G
w ir
at ory
Ã¤ te
Ġp an
Ġun mittel
Ġd at
Ġo il
am ing
ĠL ager
Ġdes cription
ann er
ĠSch Ã¤
Ġwir tschaft
K l
g Ã¤nger
on ie
Ġall gemein
mit glied
Ġprodu ction
S T
st att
ĠE th
ed ding
Ġall ein
Ġph il
ĠLe icht
or et
ic ult
Ġk ennen
ĠBe zirks
Ġro le
Ġmed ical
Ġrece ive
Met hode
l ament
ĠBes te
Ġsk in
Ġstra teg
u ary
Ġm obile
Ġ1 20
bl att
Ġerm Ã¶glich
p a
ikan ische
Ne w
Ġtry ing
Ġinsp ir
Ġer z
Ġse em
ĠG ust
Ġne hmen
Ġcom ing
Ġnieder lÃ¤nd
Jahr hund
h Ã¤user
Ġp retty
ren z
Ġsec urity
ĠWeit ere
Ġequ ipment
Ġtreat ment
Ġcharac ter
p unkte
ĠT Ã¤tigkeit
ĠI T
Ġre pla
ĠWind ows
ar ts
ĠS ome
ĠT schech
ff er
swÃ¼rd igkeiten
Ġl ib
jÃ¤hr ige
Ä ±
Ġs ix
as c
ĠBrand enburg
Ġwall paper
i h
at form
ge legt
Ġk ids
Ġus ually
ĠFl ugh
ĠEnt wick
Ġverl or
Ġt old
Ġb rachte
ik ation
sp ro
A uch
ĠP fer
Ġdo or
m l
Ġacc ording
spr ung
Ġa sp
ĠG olden
iti ative
leg ung
Ĩ Ĵ
ic kt
ĠM ik
Ġc ann
Ã¶ ss
Ġdar f
hil fe
N ame
as y
K ultur
m useum
Ġaus schlieÃŁlich
Ã¼n ft
u elle
ul pt
alle l
Ġehemal iger
er er
Ġv e
Ġso und
Ġges etzt
aupts Ã¤chlich
Ġpur p
om ie
umen te
ĠOct ober
p rÃ¤sident
ĠVer teid
ĠMar y
Ġprov iding
Ġhtt ps
allow ed
Ġ ut
b ased
ĠK u
ang ing
Ġcom ment
Verein igte
Ġdiff icult
Ð º
ĠK enn
Ġprob ably
6 8
ĠI nde
Ġsp ort
asch ine
Ġble ibt
Ġt rÃ¤gt
itt ing
lau ben
ĠPres ident
ĠÃ¼bern ommen
f unktion
es h
gel n
B ut
for men
Ġaktu elle
p ossible
ĠB ol
ĠM icro
se qu
ĠGe heim
hol z
P olit
ĠM Ã¼ller
Ġcou ple
6 3
f ur
re l
ten ded
ap ie
amerikan ischen
ĠHeid elberg
ic ip
Ġnor mal
Ġiss ue
Ã¼ ge
Ġex pect
ĠBest and
on ial
ĠBe im
Ġzw eit
ĠÃ ī
Ġsei en
y t
ind ungen
Ġ3 3
Ġger ne
ĠRes earch
ĠRad io
Ġh und
ĠWe ise
zie hen
c ast
Ġm m
ĠF ritz
In ter
Ġplan s
Ġgl obal
Ġin fl
ĠSt ruktur
Ġr isk
ĠPort ug
Ġmom ent
I M
ge g
ĠT w
Ġr unning
ien en
Ġle bt
I V
ens ive
K omp
ĠBe ck
ĠAl ler
ĠHaupt stadt
ĠSp Ã¤ter
ĠEin fluss
ĠPerson al
gy pt
W Ã¤hrend
ĠS amm
Ã¤ um
Ġins urance
ĠL ok
ver lag
schaf ter
Ġcho ice
k lasse
ĠF arb
ĠH ir
Ġver lieÃŁ
ĠAn lage
P reis
ĠAl fred
Ġ193 1
Ġsign ific
Ġwest lich
Ġfavor ite
k unden
ĠEs sen
Ġflo or
Ã¼ cht
Ġm eine
ĠH ard
Ġit ems
Ġch ines
ma ÃŁ
ĠWer te
ĠD at
org ung
lav ier
an ces
Ġco de
S Ã¼d
Ã¤ ger
om a
sch auspieler
ell o
v els
en ces
is er
Ġm ent
ĠD amen
Ġn immt
tra iner
Ġro ad
Ã¼ss el
s a
sel ben
Sch wei
ĠBl ick
W erke
ĠS zen
ĠO pt
Ġdurch gefÃ¼hrt
ĠDeutsch er
um in
Ġst op
ver fahren
hal le
ĠAuf gaben
ĠMe er
ĠzusÃ¤tz lich
ed s
Ġam ount
Ġbeh ind
Ġlead ing
ĠZeich en
g ab
ĠM Ã¤dchen
ĠR enn
ist rat
Ġeff ic
ĠPart y
st attung
uch ten
ĠCh in
Ġpr ices
Ġout side
ĠBen utz
Å Ļ
D P
Ġ Ã¶stlich
and a
Ġreg ular
ple ment
Ġwelt weit
ĠS upp
Ġg round
o z
ã Ĥ
W Ã¼rttemberg
b n
k rit
ĠW agen
ei der
Ċ ĠĊ
ĠV ize
Ġem er
Ġ1 000
ĠG rÃ¤
Ġch anges
G en
Ġs qu
ren ch
Ġpo ints
Ã¼ st
Ġl angen
ink el
Ġausge tragen
aller y
ĠChamp ions
ĠS Ã¶
ĠS ammlung
ov ers
Ġ192 7
kret Ã¤r
y es
ĠR ou
Ġje dem
at ik
m ond
Ġb ott
Ġrece ived
ĠR aj
ĠM r
ber n
ĠRuss land
ĠVier tel
j or
hen s
Ġzun ehmen
ĠS um
Ġge fÃ¼hrt
la f
Ġst ock
ĠPr ies
Ġsl ow
Ġpr im
ĠFr iday
h te
Ġf all
lei ben
ĠDÃ© partement
ĠP or
stÃ¤nd e
Ã¶st lichen
ĠHen ry
Ġgan ze
ĠP rom
ĠMus iker
Ġerziel te
v ier
Ġm orning
Ġp rÃ¤sent
ho od
Ġnot wend
Ġsol utions
Ġm atter
Ġal tern
ĠZ uf
ĠS atz
ĠD ro
ste ad
ĠJu den
Ã ±
le hn
ĠL Ã¤ndern
Ġste p
Ġexp ert
ĠAngel es
ĠunterstÃ¼tz t
g ut
ĠC ast
Ã¶ p
ĠAn gaben
ĠAd d
Ġgleich nam
Ġe igentlich
Ġbet re
ĠChrist oph
| |
Ġa ud
om s
ĠAt lant
Ã© e
Ġbest Ã¤t
ĠDem okrat
6 7
Ġth ird
ĠOr iginal
Ġans wer
ie gen
Ġt ransport
ĠF ernse
il den
ĠVer treter
Ġpr esen
laub t
Ġer forder
ĠDe partment
ĠHe alth
ĠFried hof
Ġel se
Gemein de
Ġwe eks
Ġjeweil igen
w el
Ġje de
Ġbring en
Ġwar m
ĠPro zess
ipp ing
M L
Ġb ere
ĠE ss
ĠW ander
ĠServ ices
rÃ¼ cken
Ġpr int
eich er
Ġlook s
ĠRo ad
p ers
Ġst ation
Ġwer de
Ġverkauf t
Ġs ah
ĠM ach
Ġh alten
P re
Aus zeichnungen
ĠGegen satz
Ġd et
el a
ĠZusammen hang
Ġextre m
ag te
ĠPh ot
ĠSm ith
irg in
ĠM aschinen
K reis
Ġh auptsÃ¤chlich
Ġc oun
reg ierung
ĠDreh buch
ĠerÃ¶ff net
ĠM un
Ġmus sten
ĠD arm
ĠChar akter
ĠM aster
ĠC re
Ġex act
ĠQu ellen
med aille
Z ur
Ġf resh
ĠH off
au ern
Ġinclude d
Ġm el
ĠR eb
Ġfin al
ĠSicher heit
Ġ192 4
ĠvollstÃ¤nd ig
Ġs al
ĠW oche
ks am
ĠTex as
ch em
Ġw ider
at al
Ġm ilitÃ¤r
ĠD igital
Ġde ep
ie fer
ad rat
Ġde g
ak ers
Ġsc reen
rÃ¶ m
ĠBild ung
lÃ¤uf er
reit et
aly se
ĠI P
ĠSch le
Ġh Ã¤tte
iv ity
Ġver k
Ġun abhÃ¤ng
ind est
Ġwo od
bo x
b as
Ġbe ein
Ġ19 10
Ġgra du
II I
ĠM erk
Ġaus gew
ĠĊĠĊ ĠĊ
ĠComp uter
Ġgrow th
Ġun be
Ġ3 4
w ell
Ġne cess
6 2
ĠArch iv
ĠRep ubl
ĠA T
ĠA f
Ġ19 12
Ġle ave
ier re
ĠTrad ition
un i
ul s
ĠLand schafts
G ruppe
Ä «
ot ing
Sch rif
at ic
ĠK omb
ic ated
Ġbe ach
Ġl au
ĠSch lag
ĠInd ia
Ġfor ward
ec ut
pl ant
Ġincre ase
Ġregel mÃ¤ÃŁig
B undes
m acht
Ġh inger
Ġgesch rieben
Ġw ohn
ĠSt affel
din and
D a
nd en
Ġf irm
ig uren
ĠâĢ ļ
Ġsh op
Ġ192 1
Ġtyp es
Ber lin
as te
ĠPhilosoph ie
E O
ĠN Ã¼rn
reit ung
Ġeas ily
S piel
ĠG reat
ĠL i
Ġverm utlich
Bau werk
ĠS uche
Ġm er
lin ge
ph one
Ġany one
ultur al
d aten
Ġc apt
ĠV ictor
Ã¼hr en
s or
ĠW affen
Ġsch Ã¶n
Ġho tel
Å «
ot ten
ĠSt ahl
St adt
ĠNational sozial
ĠGo od
ĠHome page
ĠS at
ĠH on
and ers
ĠFe hler
ĠDar stellung
Ġbrit ischer
is abeth
Ġs ource
Ġf uer
Ġbe zeich
ĠgroÃŁ er
h ips
ĠMen sch
t i
ĠS S
Ġver treten
Ġpl us
ĠForsch ung
C H
l or
Ġd ed
Ġp rÃ¤
Ġl ives
ne w
ĠBer eits
ĠMar ine
Ġsim ilar
erke hr
w Ã¼r
ichte ten
ĠVerwalt ung
d s
ĠB ist
Ġst reng
Ġtra in
Ã¤dag og
d as
m esser
ĠG Ã¼ter
ĠLe x
wer ks
ĠAustral ia
Ġ15 0
Ġl os
arch iv
Ġentsp rechend
brit ann
ĠK lass
ĠH D
Ã¤hr t
E hemal
V erkehr
Ġs ave
chn ung
Ġander er
re u
ĠW ell
Ġk anad
ĠBau ern
Ġla unch
Ġbede utet
sp l
Ġprom ov
Ġm aint
ĠmÃ¶ch te
6 9
Ð »
zahl en
stru ktur
ĠGren z
ĠBeit rag
d essen
ĠM acht
Ġst aat
az in
Ġt Ã¼rk
Ġb leiben
ĠA sp
age gen
s itz
Ġd ur
Ġc irc
ĠStud io
Ġbesch rieben
Ġd ress
Ġer baut
Ġl aut
Ġle bte
ĠReg ional
Ġitalien ischen
Qu ellen
Ġsogen annten
los en
ĠBo x
ĠAuss tellung
Ġaddition al
ĠT at
ĠR oll
ĠV an
ĠverlÃ¤ uft
Ġc enter
tern al
Ġrec ord
ĠPe ters
ĠBeruf s
Ġhinger ichtet
Z eit
rei ber
utn ant
6 1
t liche
er o
Ġs yn
us te
ent y
ĠL ux
20 10
Ġfol gt
Ġreg ard
gemein den
Ġsug gest
Ġs n
ar io
ĠP rÃ¼
Ġc ut
imm el
R es
Ġexper ien
Ġstor age
Ã ´
Ġent scheiden
Ġdec ided
Ġarch ite
p erson
ot es
ĠNieder s
Ġbath room
ĠS onnen
la h
Ġber eit
Ġwieder um
wei le
Ġaktu ell
Ġrele ased
h och
Ã¼ hm
Ġto uch
Ġ192 6
Ġphot o
Ġexc ellent
Ġsaf e
ĠW in
ed ule
ĠKinder n
Ġbo ard
Ġcare er
le ger
ach im
ĠRe volution
ĠRich ter
ĠFot os
h op
k ord
Ġc aus
ess el
il a
Ġbe legte
ver trag
ĠArchite ktur
zieh ungs
w ing
Ġn omin
ĠPubl ic
ĠK olle
Ġst ieg
fan ter
B l
k om
k ammer
ĠSt iftung
Ġro t
s berg
is ation
20 17
ĠGroÃŁ en
ĠOp fer
Ġpurch ase
r ick
Ġdis cover
ĠÃĦ nder
Ã¤uf er
at oren
Ġb al
ĠFreib urg
Ġp orn
Ġh ielt
ĠH aut
Ġver antwort
Ġpro f
Ġgu ide
ĠFr ont
Ġsignific ant
Ġd ient
ĠI ll
ĠEin s
pe kt
zip lin
d ire
ĠD ir
ĠH it
ĠW irtschaft
ĠVer kauf
ĠSo ftware
ron en
Ġtr ip
a ign
urn ier
Ġgeb racht
Ġcontin ue
Ġoffic ial
Ġin ternet
Ã¤ ste
ig ungen
ĠEin fÃ¼hrung
Ġup on
ĠZentr al
Ā Ā
en zen
Ġl Ã¤nger
lie der
Ġcom mer
Ġerw eit
ohl en
Ġw ords
ĠK lavier
ber e
ĠSatur day
N eben
d y
p olitik
ug ht
ue ber
Ġent ry
ĠAd olf
Ġask ed
Ġsod ass
N ieder
d ate
Ġp df
Ġwork ed
Ġ192 3
ĠKarl s
minister ium
Ġtool s
r Ã¤t
Ã Ħ
ĠP S
Ġhistor ischen
re chte
ne ur
Ġbet rieben
Ġdis play
ĠBesch reibung
Ġcond ition
ĠErgeb nisse
v ors
Ġin tens
ÃŁ er
ly ing
ĠNe ue
pf lich
ĠY ear
ree k
Ġbest immt
ĠSpiel zeit
Ġhigh ly
Ġopt im
ket ball
n itz
ĠT ransport
we chs
Ġent lang
omm ern
wer be
ĠInd ustr
ĠD Ã¶r
ib el
Ġch rist
deutsch en
Ġw oman
Ġb and
Ġf ix
Ã¤ her
ĠP ers
Ġrec ogn
ĠsÃ¼d lichen
Ġv ari
ag ne
ĠReg isseur
Ġgesch affen
ĠT iere
pp e
ĠBÃ¼ cher
ĠverfÃ¼ gt
ĠS ing
ĠF ak
em e
ĠW appen
ĠL y
Ġpl ant
denk mÃ¤ler
Ġd ir
ĠSt udenten
ĠG lo
um n
ist ry
Ġis n
k ont
v ision
ĠE ff
ĠC y
Ã¤hn ung
Ã¶rder t
Ġbed room
ĠPrem ier
or th
ĠT ar
20 11
Ġlang uage
Ġarbeit en
West falen
d r
F rank
h agen
ĠB ob
ĠT ok
ĠL ong
Ġuns eren
Ġdarauf hin
Ġwirk lich
Ġw r
ĠS icht
Ġzw Ã¶lf
Ġemplo ye
Ġin j
ied lung
Ġprogr ams
I d
ĠS ab
ru it
ĠGra fen
Wh at
ĠK ammer
ĠQ ue
Ã¤ss er
Ã £
at in
ĠOrt schaft
Ġmaterial s
B esch
Ġj ungen
A ug
ĠS em
ĠH ill
ĠU rs
Ġcont rib
ĠL ieder
ĠMann schaften
P ol
ow a
Ġr ather
gew and
v i
Ġw ord
if ts
Ġver gleich
Ġ3 8
ĠStra f
gang s
ĠProdu kte
Ġitalien ischer
ĠS V
Ġf ig
ĠP ower
ĠIn form
Ġsu it
Ã¼hl en
l uss
Ġd Ã¤n
ach ts
ĠWe chsel
vers ammlung
d ar
ĠS onn
Ã¼ gen
ĠR am
est ra
fr ont
o od
u gend
Ġp ers
ĠE re
Ġall ows
ĠSant a
r enn
ar ter
av es
ĠOr ganis
ĠHein z
ĠSpe zial
b ul
ĠS eb
ĠH ab
ist isch
if en
Ġ6 5
Ġbet rug
Ġ192 2
ĠL ig
Ġg reen
Ġ7 5
ĠAut ob
ĠEle ct
ha ber
ĠEng ine
B and
m ine
n ummer
Ġw in
ĠL aur
res p
F e
Â «
or ial
te uer
ar kt
ĠP rag
Ġres ources
ĠUnivers itÃ¤ts
tr al
ĠZust and
g yp
Ġre lease
lin ik
Ġdar in
ĠÃĸ l
ĠProble m
Ġh um
Ġre fer
br idge
Ġpos itive
le kt
Ġc oll
ĠNatur schutz
M ail
le b
Ġh uge
tell ungen
ĠAuf gabe
Ġide al
reit en
Ġpubl ished
ĠEdu c
sch m
Ġse ems
ĠÃ Ĺ
Ġpre m
ĠFer dinand
Ġein st
geb nisse
por ary
20 14
Ġbestimm ten
p ack
Ġc y
Ġer f
aus piel
Ġex pla
ĠKr im
Ġrepr esent
n y
ze igen
ĠFahr zeug
sie he
Ġd ig
eich ert
hand lungen
Ġweiter er
U R
j i
ein s
Ġsol che
ĠFo und
zieh ungen
Ġs un
ra in
geb racht
Ġbeen dete
W eit
Ġs aw
at us
ĠL ab
g au
v ant
Ġmeet ing
z o
ĠAr zt
Ġwicht ige
Ġrecommen d
ch ange
ro id
ir ge
Ġver hinder
E P
N A
For mat
ĠFlor ida
Ġpotent ial
it ation
Ġw ish
ĠC ouncil
200 9
Ġverlie hen
Ġl ok
ĠBe ach
pr ise
ĠHe ute
Ġimpro ve
gent in
S c
Ġs ort
Ã¤n gt
ĠTechn ik
F re
Ġle bten
Ġplay ing
m ission
ein er
ĠW ork
ver anstalt
Ġschw ar
b ilder
Ġd omin
ar es
ĠW ettbewerb
20 15
Ġfl ow
b re
Ã ł
iel le
ĠEin heit
Ġwor th
Ġpr ior
Ã¨ re
Ġwrit e
ĠFÃ¼hr ung
ĠR od
Ã© r
les en
Ġtradition al
Ġeurop Ã¤ischen
an ischer
il led
Ġk or
au ber
20 16
Ġgel ten
m Ã¼hle
ĠG ru
erk unft
ĠBr as
m and
at i
Ġle gte
ige m
reif en
F in
ond s
ĠLe on
Ġerst es
Ġsol ution
Ġrem ember
Ġpol icy
Ġeffect ive
ĠT isch
ĠAl so
Ġunmittel bar
A utor
ĠB rown
ei ge
ver treten
Ġgo al
ĠFar be
ĠLeist ung
Ġc ross
rat es
ĠNutz ung
w eite
ĠI S
ĠO ver
ĠGÃ¶tt ingen
Ġlon ger
Ġ Ä
Ġb ank
ĠauÃŁer halb
Ġp ool
ĠK ult
Ġlie fert
Ġinter ested
britann ien
. ),
t l
Ġg ives
Ġde f
Ġle itete
Ġ3 7
ĠGer hard
ĠEle ment
be g
ĠÃ¼ br
e hm
Ġ19 13
Ġun bek
Ġfol gten
ĠMat th
ĠnatÃ¼r lich
2 000
c ement
Ġw uchs
im me
ĠV om
ĠAuf stieg
ĠWill i
ĠD etail
Ġ19 11
ĠĠĠĠĠĠĠĠ ĠĠĠĠĠĠĠĠ
gef Ã¤hr
l Ã¤nder
Ġg alt
ĠEn gel
Ġmehr fach
ĠSund ay
t a
ĠS un
Ġg lass
ck len
Ġhig her
w ide
it ur
ĠOr dens
anc y
ĠSchrif ten
ĠGust av
ĠK urt
ber eit
ist a
ub s
Ġme chan
20 13
Ġjed es
Ġ( ,
Ġl oss
ĠÃ¼ber wiegend
ĠJak ob
ĠW ach
ick et
ĠBl ue
ĠBo ard
ĠKn oten
ĠerklÃ¤r t
ĠG ran
ĠN ummer
glieder t
H ow
ĠT agen
Ġer inn
ĠAn teil
ĠBe wegung
Ġsuccess ful
Ġquick ly
Ġc at
Ġre in
kt ions
Ġdeutsch sprach
ĠBar bar
b our
ĠL et
ĠMeister schaft
Ġâ ĨĴ
Ġd om
Ġsp Ã¤t
il i
akt iv
W ie
k rÃ¤fte
Ġo ption
ĠG rÃ¼n
op old
ĠFran ce
chn ik
Al bum
lauf en
Ġlik ely
n ungs
ĠM att
19 45
ĠPro gram
ĠBeit rÃ¤ge
Ġb ein
ĠC anada
Ġ4 8
ĠMar ie
Ġup load
ĠInter esse
ĠAngeb ot
Ġd aily
Â ®
ra gen
lie fer
Ġum fang
iss ert
ken nen
ĠSchw eden
ĠGes prÃ¤
ĠPap st
O ne
ĠT Ã¼rk
ĠL oc
Ġzu ge
Ġent deckt
Ġgew innen
ron ic
Nach dem
Ġangeb oten
Ġcann ot
em pl
Ġon es
gr iffen
ĠSchrif t
Ġpie ce
Ġa k
Ġo l
ek te
Ġpat ients
C C
M in
ĠH istory
th ur
heim er
r ik
ĠJan uary
Ġpl atform
Ġheut ige
ĠWider stand
Ġj unge
be wegung
ipp ed
ĠKap elle
ĠSow jet
G ra
ĠR ost
ĠDe velop
Ġher gestellt
ĠgehÃ¶r ten
Ġatt ack
S ystem
ĠAuf t
ĠE hr
Ġauf gerufen
so ft
Mus ik
Ġf air
ĠI st
ĠZ immer
ĠPr im
leist ung
ĠWebs eite
Ġv ideos
ĠEr inner
ian ce
ĠFot o
m ir
m ont
se x
mann s
is l
Ġdes crib
Ġan ges
Ġge gebenen
ĠOb jekte
ĠBron ze
ĠA R
uf fer
ĠSt an
por ate
ĠStand ort
f amilie
Ä Ľ
geb iete
20 12
ĠSte fan
Ġpl anning
ĠChrist mas
Ġ190 8
' d
D ate
ĠV illa
ul y
os a
ost on
Ġbek ommen
ĠGew inn
p olit
Ġt en
ĠE igent
ir us
Ġan alysis
Ġab ility
Ar t
tert ain
n ern
Ġw ritten
ĠE very
Ġaus tral
Ġde ath
ĠMed ia
Ġklein er
ann a
eiter te
ĠEd ition
Ġsaf ety
ĠHinter grund
ĠÃľ berg
Ġ ult
en kt
Ġa verage
Ġs end
el and
ik i
Ġver lassen
ĠTurn ier
Ġzerst Ã¶rt
j o
Ġder zeit
ĠD ub
ĠR ing
wer te
Ġdar an
ĠS us
Ġb irth
em a
Ġat tention
ĠKon fl
Ġcor re
Ġmult iple
ĠAd els
Sch w
ĠEl isabeth
b a
on ia
Ġb ase
im en
Ġg old
ĠCour t
b aden
ĠP unkten
ĠP ok
I A
M ark
Ã º
Ã¼ m
Ġpat tern
Ġt ar
Ã¤ ische
ĠG alerie
ĠW omen
ĠC ho
Ġex tens
ĠS uch
ĠEin trag
Ġor igin
ĠSchw ester
200 8
Ġdevelop ed
Ġfor mer
Ġpro t
cklen burg
ch ner
ĠS ach
ĠM ost
ĠUnter nehmer
eld ung
oh le
ĠElekt ro
Ġfert ig
ĠH Ã¤user
ĠL eit
Ġeng ag
ĠBern hard
R A
g ern
ab elle
ĠVer fahren
Ġnot hing
Ġenc our
L iste
Ġc redit
ĠAl pen
or fer
ĠD ol
ĠK rank
ed y
ĠIn ner
ĠAut oren
Ġpar ents
ĠHÃ¶ hen
it iv
Ġro und
Ġvers ucht
ĠOff ice
Ġcount ries
ĠgeprÃ¤ gt
ie den
an isch
Ġn ied
Ġg uten
Ġver pflich
ĠSo und
utt ing
ĠhÃ¶ch sten
b it
w ander
z we
al ing
iz iert
Ġl Ã¤ng
ĠBas el
ĠRhein land
pend ent
Ġf lex
ĠK en
be w
ĠHo hen
Ġsub ject
Ã¤mp fen
Ġ19 17
ĠNieder land
Ġimp act
Ġcommer cial
ĠC entral
ze ption
Ġch arge
Ġ190 7
Ã¤ng nis
ĠErz bischof
Ġapplic ations
R ad
pf licht
ĠS PD
Ã¼ ll
ĠB la
ĠL Ã¤nder
ĠV iew
ov a
vers e
ĠKrit ik
al om
ĠV arian
Ġver fÃ¼g
gel assen
Ġfe ed
gl as
ĠEurop ameister
Ġcomple tely
ĠAustr alien
ĠK andid
ĠI hren
au b
Ġunser em
ĠBe w
Ġse ek
Ġres pect
ĠPar lament
Ġhand s
Ġmach ine
ĠÃĸff entlich
i ant
ĠW issenschaften
ĠTh Ã¼r
Ġcond itions
ĠPra xis
Ġdirect ly
Ã£ o
Ġgew onnen
Ġarbeit et
Ġmov ie
ĠFar ben
B is
C O
ug s
ĠMe tern
Ġentsp richt
Ġbrit ische
Ġsogen annte
ĠSin ne
n ational
Ġim m
Ġaus geb
Ġ4 2
ĠAb teilung
Ġtra gen
zug s
forder ungen
Ġbe hand
ĠGe h
ĠFl Ã¼gel
ĠBes atz
mittel n
Ġd auer
Ġg rand
Ġweek end
ĠProble me
is a
Ġge halten
ad or
ill on
Ġwe ight
ĠBlÃ¼ ten
d om
Ġd agegen
Ġe uch
Ġch ance
ĠInter view
G r
in y
Ġm ot
Ġm id
Ġl ost
Ã© n
bo gen
Ġverw ende
Ġp aar
ĠIn gen
k opf
Ġan im
ĠO h
ahr en
lan z
oun ts
Ġgra ph
ĠSchul en
ĠWei hn
ĠJes us
r ix
Ã¤ ne
ĠW ag
ĠAl tern
amer ika
Ġter ms
ĠArchite kt
as ons
Ġh it
and en
Ġdoc ument
Ġconstru ction
Ġd ark
ĠD ra
ĠT H
ra te
Ġoffer ing
j ust
ĠN eb
ĠgrÃ¶ÃŁ ere
fel der
Ġgesp ielt
ĠB lock
ĠL ind
ĠJ ob
Ġle er
Ġgen annten
r d
Ġs ent
ter e
Ġhe il
Ġwir kte
rit e
Ġplay ers
ĠWei ÃŁ
Ġp ath
ĠSt off
Ġun ten
ĠRe chte
Ġunter s
ore a
ĠĊĊ ĠĊ
ĠBra unsch
ĠPat ienten
ĠSoc ial
N S
m d
Ġ Ã¶ffentlich
Ġm otor
ĠL ink
ĠThe odor
Ġveh icle
B S
ĠJ on
ĠVerb and
wahl en
Ġsele ction
leist ungen
Ġwahr scheinlich
Ġ ord
ein d
Ġl ic
Ġr Ã¼ck
sp er
ak s
ĠDec ember
ĠjÃ¤hr lich
P er
Ġv ac
ĠT ore
Ġbe gan
az ine
Ġinternational e
ĠFir men
g le
is ieren
Ġf lieÃŁ
ei ht
Ġpart ner
Ġmax imal
g on
ĠF eder
fass ungs
ĠSchm idt
ĠGel Ã¤nde
Ä ĥ
ĠG irl
ĠH ub
pf lege
klÃ¤r ung
Ġinterest ing
ĠÃ¤hn lich
B ild
or ph
Ġn ature
ĠUn garn
ĠKar ten
200 7
ĠStat us
ĠF ert
Ġc abin
Ġbe legt
Ġcomp lex
ĠTem peratur
h old
ĠR y
Er baut
ĠKon gress
ĠrÃ¶m isch
Ġwichtig sten
ĠC orn
Ġmit tels
rÃ¼ nen
io de
ac es
ĠQ uer
Ġreg ister
Ġinst ru
Ġorgan ization
v olle
Ġb all
ĠMen ge
yd ro
b ungen
hÃ¶r den
ock ey
Ġthink ing
t or
ĠK ath
Ġl ower
ap el
Ġmy self
pro gramm
ĠNord rhein
ĠFranz Ã¶s
fur ter
o oth
Ġor ient
ĠArbeit er
Ġerw arb
ier n
ĠAuf bau
Ġcreat ing
gren ze
ĠOx ford
ĠFlugh afen
Ġg ere
Ã¼ck sicht
bau er
ĠBr ig
Ad resse
Ġa f
ĠCont in
ĠUl rich
ĠAller dings
Ġl isten
ĠWh ile
Ġamer ikanischen
B r
Ġt ats
ed eral
Ġe arn
ab et
id ents
ĠVer lauf
Ġbusiness es
ĠOp ern
Ġth ous
ĠVer halten
ĠAm az
Ġstor ies
oper ation
ĠVo gel
ĠJ Ã¼rgen
Ġk om
ĠAn th
ph an
ĠSc ott
ĠgrÃ¶ÃŁ eren
ĠÃ¤ uÃŁer
ĠH uman
ĠL ast
kt iv
fl Ã¼gel
alle y
f abrik
on isten
ĠC ra
Ġer fÃ¼
rif ft
Ġpart ners
200 5
ĠSied lung
d urch
ur b
ĠT ime
ĠK och
ic ed
ĠSch auspiel
ĠNe uen
Ġgirl s
Ġful ly
al u
Ġin zwischen
Ġim med
ow ski
ei en
iel len
ct ic
Ġex am
ĠGroÃŁ britannien
uck y
ÃŃ n
ĠLauf e
ar ischen
ĠR og
Ġar g
Ġ190 5
ĠB rief
Ã¤ llt
ist ics
ran ce
Ã¶r en
inn ing
Ġste ts
O lymp
Ġt hr
ĠD iv
Ã¶ gliche
ĠOr te
Ġein gestellt
Ġn utzen
Ġg ingen
ist ischer
Ġk ommun
ce p
Ġpla ces
200 6
Ġwest lichen
Ġreview s
Ġs an
or dens
Ġf ant
Ġv Ã¶ll
ĠW ed
ath on
van ced
ĠMain z
ĠÃ¶sterreich ischen
Ġz eich
Ġge ts
Ġ5 5
ĠGrund lage
Ġstar tete
Ġwonder ful
ĠR ath
ĠAd min
Ġbene fits
ĠH orn
Ġkl ar
A fter
o ÃŁ
Å ¾
Ġp en
ĠR et
a dem
un te
Ġf unktion
Ġh Ã¤lt
ĠI hrer
ĠU kra
ĠJahr zehn
m osph
ĠB Ã¤
ers ey
ĠAb schnitt
ĠBundes republik
G roÃŁ
Ġt Ã¤
or der
ion e
ĠL ight
lin es
Ã¤r t
Ġsow jet
fin den
Ġwen igen
ĠFunktion en
Weit ere
Ġd ich
or al
ĠP anzer
ĠAn griff
ĠPol y
Ġleg al
g Ã¼lt
ĠL en
ĠThe ologe
ĠS on
ur ts
ĠA achen
Ġl if
ru he
Ġent h
Ġno te
ĠQual ifikation
Ġgrow ing
ĠCent re
Ġlar gest
k re
Ġf ashion
ĠAuf nahme
ĠMan ager
Ġcl ient
Ġgar den
Ġinvol ved
p at
Ġl ux
ĠKon stru
Ġinter view
zÃ¼ ge
U T
ah er
Ã¤nd ler
rich ter
Ġrem ov
Ġcolle ge
s ur
al m
ĠD omin
Ġag re
stit ution
ĠP od
ĠSpec ial
D A
w ach
Ġd ritte
ĠN ahr
ak ei
It alien
ig an
Ġbet rach
Ġunterschied lichen
Ġerhe b
r ische
Ġzu gleich
eng th
s et
as ten
ĠGl Ã¼ck
L in
i xt
k g
at ives
ĠVor der
bl Ã¤tter
Ġbec ame
gem eine
F ra
k osten
Ġdar gestellt
Ġdec ision
merk ungen
ecut ive
I ON
Ġ Ã¶
st amm
Ġh ous
ĠAn wendung
ĠDeutschland s
Ġproduz iert
Ġdistr ib
ĠB ass
ĠH afen
ĠW estern
Ġlie f
Ġcl oth
Ã¼t te
ven ue
Ġschw arz
ĠEurop Ã¤ischen
Ġsom et
ĠBetrieb s
ersÃ¶n lichkeiten
Ġannoun ced
Ġs on
ar in
Ġp assen
ĠEhe frau
ĠPfarr kirche
f Ã¶rder
ĠS up
st ation
ĠT Ã¼b
Ġc ause
ic ations
ho fen
gesch rieben
Ġfo ot
ĠD et
st he
Z um
he ute
ing u
ĠSt ation
ip fel
Ġent stehen
aly t
Ġwei b
Ġexperien ced
ĠEre ign
an er
am ous
The ater
or ganisation
Ġf ine
Ġh a
lin ien
Ġbek annten
unn y
ĠQual itÃ¤t
ĠwÃ¼r den
Ġrequire ments
issert ation
m ore
r t
Ġl es
pp ed
omm iss
ĠWelt k
ĠDar Ã¼ber
Ġkomp lett
ĠÃĸffentlich keit
ĠAuf grund
ĠSÃ¼d westen
T r
Ã¶r ung
ĠNach richten
ĠZeit en
fra gen
Ġstart ing
f le
Ġk Ã¼nstler
ĠZ ivil
ĠIt al
Ġgef Ã¤hr
Ã¤chs ischen
ĠDarm stadt
P la
er weise
an geb
ĠS av
Ġg ift
ĠJ ones
Ġbek am
ĠWo od
ĠSchles wig
z ur
or ten
ĠV irgin
ĠEr b
Ġab geschlossen
Ġsch le
fÃ¼ hl
ĠZ ent
ĠFilm s
Ġ190 6
ĠSalz burg
S P
ĠIn tern
ges p
ĠZu kunft
ĠErz Ã¤hl
Ġh ar
Ġgo es
Ġben ach
ĠHistor iker
j en
Ġd ise
Ġc ulture
ĠR icht
ĠLe e
Ġerst re
Ġspe ed
ĠD Ã¤n
Ġ19 15
Ġrequ est
Ġrep air
Ġinvest ig
c ia
Ġs and
Ġs old
Ġro ck
ĠPre uÃŁ
ĠJur ist
ĠWirk ung
K lasse
re form
ĠW M
ĠBe zug
rÃ¤ ume
stell er
gew Ã¶hn
fr ist
Be vÃ¶lker
S G
ĠA C
Ġh our
Ġsp ent
Ġhe ar
geord neter
ĠBrÃ¼ cke
inc ip
wÃ¤r t
Ġgan zen
ouver neur
f al
n ot
st Ã¤tten
ĠF isch
Ġunter st
Ġthem selves
Ġd iv
al em
ĠC at
ir n
ĠĠ Ġ
ĠTr ump
Ġbestimm te
at ung
Ġb ul
ĠG reg
Ġl ay
IN G
Ġcamp aign
g ner
ĠFor men
ĠWeltkrieg s
J an
is ions
ĠS tellen
Ã¼ nde
ain e
ĠEn s
Ġhel ps
Ġerweit ert
y ond
ĠZ us
Ġsch edule
ĠLe opold
ĠLand wirtschaft
Ġsm art
Ġtit le
B i
Ġw edding
ĠN av
ob ach
ĠAll gemein
ĠMet all
ifiz iert
ĠSim on
ĠJac ob
Ġkosten los
ĠMond ay
ĠC ode
ĠIs lam
Ã¤us ern
fÃ¤l le
ĠV ort
Ġweit gehend
mit glieder
hol t
Ġnah men
ĠSl ow
h orn
ĠD VD
Ġ3 9
unk el
ĠhÃ¶ch ste
l Ã¶
as ion
ent in
Ġob t
rÃ¤sent anten
ol o
itel y
Ġsupp l
Ġ189 0
ĠHers teller
frast ruktur
ert ies
ĠZw eit
fang s
ĠArchite kten
f Ã¤lt
Ã¤ nen
ro at
Ġit self
ĠVor gÃ¤nger
ĠFrÃ¼h jahr
p m
Ġs agte
ar ische
Ġâ Ĥ¬
ima tely
Welt meisterschaft
Ġrelations hip
afr ika
Ġd ouble
Ġm other
ĠP enn
ĠL iter
Ġan erk
ĠVer dienst
Ġfin ish
schul en
Ġlin ken
ĠId ent
h ow
ĠM Ã¶
ĠW etter
ind ustrie
ĠBild hauer
Ġb orn
Ġat tend
Ġengl ischen
eign et
ĠNÃ¼rn berg
Ġt im
ic ate
Ġle vels
ĠÂ £
V P
un ehmen
Ġwe ather
auf hin
Ġverantwort lich
È Ļ
Ġzu erst
ick ets
ĠBild ungs
Ġcost s
ĠnÃ¶rd lichen
Ã© t
ĠDaten bank
ennt nis
ĠRei hen
Ġgleichnam igen
Besch reibung
L a
N ord
in de
ie fe
ĠM ah
Ġne igh
Ġso uth
Ã¤n ner
ĠNord osten
ĠSeb ast
tertain ment
ĠSp rachen
Ġ190 9
Ġser ious
ĠT anz
lin der
rie chen
ĠKar te
Or ganisation
Ġlet ter
er a
ĠT hr
sch loss
ei ÃŁ
ap y
Ġeigen stÃ¤nd
ĠÃĦ r
Ġstell vertreten
gangen en
c ape
Ġs icht
ar zt
st ab
ĠT a
ĠEle mente
deutsch e
Ġ @
Ġn ov
os ted
ĠÃ¼ber geben
ĠTra ining
Ġeinge fÃ¼hrt
Ġbil dete
histor iker
is at
Ġge mÃ¤ÃŁ
aug ht
Ġdivers e
ĠSommers piele
A F
S ehen
ĠFahr zeuge
stoff e
ĠCor ps
geord net
u ted
z one
Ġ il
ate ur
St ud
ĠTer min
ĠAnton io
ĠEduc ation
on ien
re y
ĠR is
ĠC O
tell igen
Ġob wohl
Ġnum er
ĠS et
ĠR h
gen er
Ġverb reitet
p al
Î ±
al led
ĠA P
ĠM ol
Ġz Ã¤hlt
ot yp
je w
Ġdev ice
ĠProdukt ions
Ġg iving
Ġab gerufen
ĠJo achim
Ġgroup s
ĠfrÃ¼her en
ie b
den burg
ul f
Ġpro per
Ã¼tz t
Ġorgan iz
Ġweiter es
Ġcons ult
Ġersch eint
ĠPries ter
Ġg as
ers te
Ġun it
ĠFor st
ĠChar l
gra f
Ġresp onse
ĠMos kau
E d
Ġs ell
Ġg ro
Ġges ehen
ĠGeb Ã¤
Ġstreng th
L age
Ġt al
ĠS qu
us ed
Ġse ction
rom e
ont o
Ġdesign s
Ġindividu als
Schrif ten
b aus
ĠHand buch
ĠSer ies
ĠTod es
Ġsetz en
ĠDeb Ã¼t
Ġricht ig
ĠFrancis co
D em
it o
ĠS ig
ĠK ard
Ġ4 3
ÃŃ a
Ġsur round
Chr ist
f ast
Ġl Ã¶
Ġhin gegen
em p
ĠSch iffe
stra hl
ĠÃĦ gyp
u um
z ub
Ġ ueber
Ġer gÃ¤n
Ġvor gesehen
pl Ã¤tze
kathol ischer
ste ht
Ver b
Ġter m
ĠWies baden
Ġex cl
Ġverw and
Ġopportun ities
Ġmess age
ĠBraunsch weig
Ġs us
Ġat tem
ĠGes ell
ilit ary
ĠF rench
Ġe ye
St ring
ĠBl ut
Ġ190 4
Ġexist iert
ĠIde e
d i
Ġb aby
Ġm ount
st ern
ĠNeub au
E G
s ere
al te
ĠD ou
ĠF lo
ĠT hen
ĠK Ã¶
sk y
ĠMuse ums
Ġ ;
Ġ id
ĠE ck
Ġ19 16
ff ic
Aug ust
h u
k unst
ĠS ituation
Ġre chten
Ġwe ist
amp les
ĠGroÃŁ e
weg s
ĠAfr ica
c an
Ġv irt
af e
ĠAus druck
Ġber Ã¼hm
fr iend
urs day
Ġroom s
w ner
le te
Ã¼ mer
Ġsp ot
C he
v ement
w aren
re in
el er
ĠK athol
em ark
Ġges etz
Ġpre fer
ĠGrÃ¼nd en
A B
k lass
Ã¶ nen
teil s
Ã¤l de
Ġsen se
ĠJack son
fanter ie
b u
k onstru
m Ã¶glichkeit
ap ter
Ġ4 4
ĠHoch schullehrer
Ġfamil ies
ĠS ho
ĠK assel
Ġmus ikal
ues day
ĠTex te
B ar
p ed
st ock
ro chen
Ġk aufen
ĠIn halt
ĠVer Ã¤nder
Ġso c
ĠNord westen
C omp
m es
m ag
ĠC a
eb e
id o
Er ster
com es
ĠLeicht athlet
ĠermÃ¶glich t
i ot
ĠB oston
ĠM i
sch uhe
ĠO ld
je kten
200 4
H L
n icht
ĠW ett
ĠHe ft
C om
ĠKon zept
- )
le utnant
ĠL ord
ĠVer hÃ¤ltnis
Ġrepor ted
Ġ2 50
Ġfor get
Ġemplo y
Ġentw eder
I G
f els
o e
at re
min ton
bild ungs
Ġplay er
ĠDistr ikt
ĠBesuch er
c ul
ĠL ine
Ġtr ug
arm on
ĠÂ ·
Ġbl ue
ein anders
Ġein gesch
ĠW unsch
ĠL aut
gel d
ĠAd am
Ġcar ry
ĠMor gen
ĠDate i
ĠFak ult
Z w
s es
Ġer kennen
bahn hof
ĠFebru ary
ĠTÃ¼b ingen
M on
i Äĩ
Ġst ress
af el
ĠÃ¼ber tragen
Er folge
ĠOber st
ĠLeist ungen
Ġto wards
Ġim plement
ill y
ĠKap it
Ġunderstand ing
emin ar
Ġcomfort able
Ġnecess ary
c ies
g ment
Ġs ingles
ĠL it
ic on
ĠSch e
ver stÃ¤nd
isten z
ĠCon c
bÃ¼ cher
Ġexact ly
ĠP ed
kt ar
ĠReg ister
Ġ189 9
Ġcreat ive
brÃ¼ cke
ĠNieders achsen
n etz
ch mal
em en
ard o
ĠLand tags
ĠHand el
200 1
leg ten
wor ks
ĠKom ment
Ġw and
Ġ8 00
ĠPre uÃŁen
Me ister
Ġentsprechen den
ĠvÃ¶ll ig
o und
ĠS P
art ige
pla ce
ĠHam burger
Ġredu z
ĠZ ahn
Ġhe ard
Ã¶ff nung
âĢĿ .
weil er
? ?
D ollar
R O
z if
ĠK Ã¼n
Ġmen sch
B es
D on
ĠM Ã¶n
ĠK rieges
ĠW ater
Ġfor der
ly wood
Ġbes ondere
ĠHer bert
lÃ¤nd ischen
Ġref le
Ġmittler weile
t lich
te gy
Ġein gerichtet
Ġver g
ay a
se ud
Ġwe ar
Ġphys ical
D E
P olitik
Ġf arm
ĠH ell
ho ff
Ã¤hl ten
ĠPf ar
itte e
hy th
ick er
tem porary
ĠSÃ¼d osten
ĠIde en
ĠJournal ist
ĠP ak
ĠP orn
Ġk auf
sp rÃ¼
end ar
Ġche ap
Ġkur ze
Ġsomet imes
t um
ĠB ord
Ġn amens
ak ed
Ġsp orts
Ġact ive
ader s
stÃ¼ck e
b al
l ings
Ġm il
ĠT imes
Ã¼nd ung
iw od
o ire
ĠA ff
qu es
her zog
ĠSie ger
Ġw ife
ĠK amer
ĠTeil en
B el
D isk
r est
an en
Ġre ve
ib ly
erk l
Ġout door
ĠAward s
Ġlim ited
) )
ar ies
ĠB ran
Ġwe g
Ġen dete
Ġapp ly
Ġel f
Pf alz
ĠGesund heit
H aupt
ĠV iele
Ġge zeigt
ob by
Ġschool s
iforn ien
w rit
ĠS T
re al
ĠD ialog
ĠBe teil
Ġest ate
ĠBarbar a
H ier
Ã Ĺ
ĠW a
ĠJ agd
Ġd ynam
ĠB ell
il lage
ĠW it
ĠSp ann
Ġent gegen
Ġad vert
ident ial
ĠStre cken
ĠUnd er
ĠG ymnasium
Ġz er
ĠN ight
icht lich
Ġ18 70
ick e
ĠdÃ¼r fen
B est
m ie
Ã¶ die
ĠBayer ischen
b ibliothek
ĠB ibliothek
Ġp et
ĠK amp
akt or
Ġmoder nen
Ġstru cture
": "
ĠB M
st on
ĠG ames
ĠW es
Ġst ates
ĠBe ziehungen
Ġnor th
urf Ã¼r
ĠSch ach
setz ungen
Ġed ition
augh ter
ĠP ack
iz en
Ã¼nd et
ĠMich el
ĠEben e
cel ona
R ep
l ike
ĠT sch
ĠR ay
ĠC are
ĠN omin
iz eit
uss ion
ĠBei de
ĠÂ §
ĠEntscheid ung
C A
ol ge
Ġcon vers
Ġ4 9
Ġstand en
ĠBas ketball
ĠInternational en
ĠIns gesamt
ĠDistr ict
B Ã¼rger
m aterial
Ġv iol
qu is
fÃ¼hr te
ĠLeist ungs
ĠbeschÃ¤ft igt
r ennt
Ñ ĥ
Ġt schech
im p
ĠWe imar
Ġtra de
ĠBundes liga
ĠApp le
r Ã©
ĠC op
Ġsp end
iert es
Ġgeb ildet
son sten
Ġcla im
Ġw ild
ĠS inn
Ġf iles
Ġm aster
ĠF ire
ĠF lag
ĠK in
Ġl ots
ul i
ĠEr de
Ġpro fit
Ġum ben
Ġverst Ã¤r
ĠVerÃ¶ffentlich ung
ĠGeburt stag
D o
ĠR ab
um ber
ĠAus land
ĠChr on
lei hung
ĠBrÃ¼ der
Ġdien en
G u
J e
ĠB an
ro llen
ol i
Ã¼r en
co very
gra ben
C ode
ĠM ission
st uhl
ĠF ind
ĠE M
our ney
ĠTro tz
hÃ¶r de
ĠRÃ¼ck en
Sehen swÃ¼rdigkeiten
a ction
ÃŁ ig
ĠEin ige
ss on
ail s
ĠMet hoden
alb um
ĠErfahr ungen
ĠTenn is
Ġment ion
mer ksam
Ġprov ider
Ġhealth y
Ġp f
ĠG h
ĠG ame
ĠL abor
ĠOr ient
Ġber ufen
Ġange legt
ĠM ov
ĠP en
Ġse ch
Ġres olution
Ġsuch en
Ġadv ant
Ġess ential
v ard
Ġh y
Ġg Ã¼nst
Ġe igent
Ġ190 2
anc ing
ĠBre ite
", "
Ġhol iday
ĠWeit eren
Ġruss ischen
Ser ie
an zen
ĠT ax
Ġbe ge
denk male
Ġwr ong
ĠT uesday
lie genden
Ġend gÃ¼lt
resp ond
z ust
ach us
ĠAn ne
ĠTeil nahme
Ġexp ected
A pp
a ber
gen Ã¶ss
ĠSm art
d own
Î ¿
ĠB lo
el f
ro te
Ġst age
rit ter
Ġch urch
Ġ6 4
Ġfriend ly
ĠFound ation
g Ã¤nge
ch ip
Ġb ill
Ġim ag
ĠTh ursday
olog ies
Ġ6 00
uar ante
ĠH ause
Ġand ers
Ġg ave
Ġst uff
Ġit em
Ġze igte
ĠNik ol
ĠDevelop ment
m y
he bung
ste iger
Ġab geb
ht t
Polit iker
p ost
ĠA ktion
ĠO pp
ĠO bl
ĠPf lege
bur y
Ġann ual
Ġf ung
ĠP ay
âĢľ ).
Ġger ing
ĠBÃ¼ ro
ĠHeraus geber
D ar
Ġf elt
ĠSc iences
ĠEm il
aka dem
l ast
ĠC ross
k ts
Ġt ief
al ed
ĠK os
Ġhe at
ov en
Ġeben da
ĠCol umb
ĠAutom obil
S k
g ory
ĠK a
ĠIn f
ĠSp iegel
ĠfÃ¼hr ten
arl ier
ĠRos en
======== ========
D r
M ich
in det
is ierten
ĠS tellung
ro ck
Ġp ages
Ġc ru
ĠMe cklenburg
burg h
Ġsat is
H istor
l og
Å Ħ
ĠT able
am at
ĠR oss
Ġver legt
ĠSp itze
Ġex er
ĠY oung
Ġvers ehen
ĠPa ar
Ġfre qu
ĠMod el
Ġmax im
ĠCommun ity
in zen
ĠH und
app e
zus tellen
Europ ameister
ber eitung
Ġst Ã¤r
Ġsp rach
Ã¤hr ung
Ġdah in
ĠPfarr er
ĠA rab
ĠK y
ĠR uf
ĠHel mut
z ul
ð Ł
il de
aus stellung
cl ient
Ġwel come
200 3
Ġ190 1
ĠBre mer
Ġpolit ical
D en
J uni
w ettbewerb
arb on
ĠBuch st
Unter nehmen
Ġupd ate
C ont
K urz
P art
ļ Ń
ĠA u
ĠF ant
em ed
ug u
Ġle it
ĠFor ce
ĠChr is
Ġstud ies
Ġeff ort
Ġwes entlich
Ã «
Ġd ry
le hr
ĠH ig
Ġl ern
Ġhe im
ĠGe walt
ĠTe ams
ĠVor aus
Ġfin ally
Ġcons um
** **
z iger
Ġ Ã¶stlichen
ar ina
ĠD iffer
aus gabe
Ġ18 80
Ġback ground
Ġart ist
Ġtem per
ĠKonz ert
ĠSÃ¶ hne
ĠB ett
ĠAus nahme
Ġben utzt
yl van
ĠLin ien
ĠLie fer
ĠMc C
ug ies
Ġ190 3
ĠTechn ology
ĠAbgeord neten
S yn
Ġt ried
Ã¤ st
ĠK lassen
ĠN a
ze p
iz iner
erv ice
Ġher r
Ġsc ience
Ġhel fen
200 2
ĠVers uch
Ġaff ord
ĠLex ikon
ĠS tell
ĠH aft
ĠN ap
Ġk o
Ġver schw
Ġco ach
ĠArch Ã¤
Ġober en
ĠerklÃ¤r te
ĠMÃ¶glichkeit en
ĠCarol ina
Ġer stellt
ĠV iol
Ġsp irit
Ġbek annte
ĠErw eiter
Ġunterschied liche
Ġs em
ĠB lan
Ġc ases
ĠN ar
Ġl ands
ell i
Ġex press
piel en
Ġerh ielten
ĠComm ittee
Ġdeliver y
p o
w all
Ã ¥
Ġw od
Ġg olden
Ġan hand
ann el
ĠUn abhÃ¤ng
ĠCh ild
olog ischer
Ġfe hl
ĠÃľber setzung
Ġgeg rÃ¼ndeten
fÃ¤h igkeit
c u
ĠF ro
ĠK Ã¼nst
Ã¶ z
ĠV ent
id ae
Ġbro ad
Ġwa it
lÃ¤ss lich
ĠBund est
ate gory
ĠDe v
Ġbeg onnen
ĠzurÃ¼ck ge
ĠBes itzer
ĠFlug zeug
Ġdefin itely
wes ome
on i
ag a
Ġapp re
ipp e
Ã¼t ze
stÃ¤nd en
ĠWohn ung
Ġrepor ts
ĠMicro soft
Ġdeg ree
Ġbeein fl
r iss
Ê ¿
et ze
Ġk ulture
Ġver kehr
Ġus es
a iled
Ġn ation
ĠT el
ĠSch lieÃŁ
rÃ¤ gen
ĠMe yer
por ation
Ġsub mit
Ġmov ing
Ġdev ices
Ġrela x
ĠLok omot
ĠAuf lÃ¶sung
Ġplay ed
Ġbas ic
akte ur
ĠE vent
ab ase
Ġso ft
Ġex hib
ĠGe gner
Ġfr ame
ĠChe ck
ĠJe ff
ĠHers tellung
ra k
Ġvor bei
Ġ4 1
ring t
ĠMon at
Ġphot ograph
bere cht
d h
k op
Ġv ict
ĠP ast
Ġbes itzen
ĠSowjet union
T A
es is
ĠM auer
ĠK ong
et he
ph y
ĠDurch messer
Ġpurp ose
vors itzen
achus etts
S a
p osition
ĠF inal
ĠK anz
Ġzwe imal
m ail
is piele
ĠH ug
Ġge kommen
os es
men s
aus schuss
ia tely
ock en
Ver Ã¶ffentlich
ĠMark eting
ĠAlex and
ĠAst ron
F unktion
ĠDie t
ĠSp an
ĠFran ken
Ġtrans fer
Ġausgest attet
ĠFernse hen
E hr
ĠW ohl
ĠR ena
ic ine
ab teilung
Ã¤r m
Ġcomple ted
Ġwod urch
r in
Ã ª
or fen
ĠD ist
Ġc amera
ĠIn tegr
Ġr ates
Ġj ud
In s
ke y
unn el
ĠCol or
ĠD adurch
Ġp red
Ġauf gelÃ¶st
Ġverb ess
ĠMittel alter
ĠRÃ¼ck kehr
Ġoffer ed
Ġkein er
Ã¤mp fer
ĠMax im
ĠBek annt
Ġcoll abor
e ur
t rue
â Ĥ¬
or ien
Ġf ight
Ġf ather
Ġv ierten
ĠM id
ĠI N
Ġe yes
og a
Ġsh opping
anz ig
Ġfe et
ĠQ uar
ĠGes ang
Ġbeginn ing
ĠV ar
Ġal bum
Ġre ich
Ã¤r ke
ĠGemein der
Ġown ers
Ġcour t
Ġinit ial
F ranz
b ahnen
m ot
ĠL Ã¶sung
rie den
iz z
Ber g
Ġlov ed
ĠAustral ian
L ist
d ach
n i
le m
Ġer le
Ġhigh est
ĠÃ¶ffent liche
Ġemploye es
Ð ²
Ġ1 10
Ġh op
ĠF alls
Ã¶r ter
grÃ¼nd er
krieg s
upp en
gestell ten
i Ã³n
en gl
ĠT ob
part ner
ĠVeranstalt ungen
f ranzÃ¶s
z in
ein heit
Ġf abr
Ġz Ã¤hlen
Ġcon ven
ĠGott fried
ĠLauf bahn
Ġinvest ment
Ġblo od
Ġded icated
ĠFakult Ã¤t
F ried
W ert
ĠD ichter
ĠP rÃ¤sidenten
ĠVer antwort
ĠRe view
ĠBe handlung
Ġ5 2
ĠOrt es
Ġprogr ess
Ġconsider ed
iz enz
Ġcl ub
Ġsupp ly
ĠLin ks
ĠK ommission
Ġsp richt
ost ers
Ġwas n
fol gt
Ġbeg in
Ġpre vent
Ġass ess
ĠGl obal
ĠChe f
Ġhistor ische
S eine
h aps
w is
ĠB os
ĠBevÃ¶lker ungs
Ġelect ric
ĠS ir
Ġin stead
as ts
Ġde ad
In stitut
ĠBar celona
Ġprogr amm
Ġhom es
ĠV el
ann ter
ĠEr satz
Ġte ams
ĠBl og
ĠSchn eider
ĠÃ¶sterreich ische
f assen
us alem
le hre
ĠF igur
ĠR ett
ce ed
Ġro ll
ĠGra z
Ġprofession als
Ġsym bol
g han
Ġs av
Ġm Ã¤nn
os low
lie hen
Ġactiv ity
H o
w ise
ĠP ierre
ĠG olf
ĠJ ersey
ĠO tt
ĠâĢ ¢
ry pt
Ġcomp on
ĠSicher heits
Stra ÃŁe
Hol stein
Eis hockeyspieler
b rand
ĠRe form
ĠSchl uss
ĠTer rit
Ġview s
Jahrhund ert
c ise
ĠM om
ĠAuf ent
ator ium
Ġclass ic
Ġestabl ished
k Ã¶rper
ĠS yd
Ġn amed
ĠW Ã¼rz
se kretÃ¤r
hÃ¶r igen
stand en
ĠKon rad
Ġviel leicht
Ġac cept
ĠAs ien
e ch
h aben
o ben
ĠS n
Ġf em
ĠKon zer
ĠDire ctor
ĠFeuer wehr
Ġgelegen en
N o
te x
Ġin kl
ol en
ĠE ur
pl atten
Ġbring t
ĠGÃ¼n ther
C ar
it ude
Ġw ert
Ġb atter
Ġo wner
ĠBe wohner
ĠMon aten
ĠKr ist
Ġw inter
el or
ĠT ief
ic ing
ir at
ĠLand tag
ĠWelt meisterschaft
icher ungs
Ġmed izin
ĠFrie dens
ĠAmaz on
L C
ĠD auer
Ġunter sch
ĠAb itur
Ġbel g
Ġexp and
Ġhund red
Ġw he
Ġb oy
Ġn utz
ĠG Ã¤ste
th aus
werk en
lam ents
ĠÃ¤ uÃŁ
ĠFÃ¶rder ung
M A
T C
ĠDe ck
ĠPro ject
ĠFrie den
ĠRost ock
akadem ie
D an
Ġc lin
ĠV aters
Ġ4 7
rat en
ĠTra in
so ap
Ġ189 7
Ġassoci ated
Ġcorre ct
Ġtar get
Ġb rach
Ġm ap
ĠR ies
ann en
Ġev alu
ĠGeb urts
ĠGer icht
ipp en
Ġ189 5
Ġ189 6
ĠWor ks
mar sch
Ġpass ion
Ġrelig i
Ġphil osoph
us ter
ĠT Ã¶ch
Ġan gesehen
ap ers
ĠTh anks
Ġ4 6
ĠAfr ika
Ġkur zen
gren zen
P ort
Ġtr uly
Ġ186 0
W irtschaft
ĠB ab
ĠE ll
we ge
Ġvor ge
Er st
hand el
Ġpol ice
Ġfeel ing
aill en
Ġa im
ĠB ier
ĠNe ust
Ġgo als
ĠPr esse
Ġacc omp
Ġ189 8
199 9
ĠWo iwod
ĠInstr ument
F F
k ultur
n ing
is her
ĠS ak
Ġin fo
ĠH erkunft
se c
fÃ¼hr en
Ġpar allel
ĠCont rol
ĠChem ie
ĠUntersuch ungen
Ġumben annt
B ad
y les
ahr t
Ġpro ced
ĠCon ne
Ġm ill
ĠK ab
Ġserv e
ĠJuli us
Ġverw enden
hard t
veranstalt ung
N ov
ĠH oll
Ġber ichtet
Ġcontin u
p et
r ischen
Ñ ı
Ġm iddle
ĠF arm
Ġl ack
ell y
ĠThe orie
Ġland wirtschaft
d auer
ĠA ud
eb urg
sen z
ous ly
Ġmod els
Ã¤mp fe
verband es
ĠRath aus
D S
Ġs y
ĠA qu
Ġne arly
ikan ischer
ĠBl att
ĠMon te
Ġf amous
ĠF ord
ĠK ey
Ġc ash
Ġc ards
ĠH ockey
ĠL abel
ic ul
ĠU ser
Ġr ights
ĠEr folge
Ġbeh av
ĠPortug al
sp ir
Ġdurch schnitt
eben e
Ġgu ys
ĠJust iz
Ġbenach bar
Ġt ips
al i
Ġb ot
ĠR oten
Ġg ren
Ġum geben
omm od
fÃ¼ gt
Ġjob s
ĠGest altung
Ġinfl uen
ann i
ĠSystem s
Ġcent ury
ĠÃ¤lt este
Ġsle ep
L E
k ow
ĠK up
ĠE ich
ĠC ard
up s
ĠAb t
ograph ische
Ġausge fÃ¼hrt
Ġeff ects
ĠChin ese
ĠBenutz er
ĠÃ¼br igen
ĠIngen ieur
ĠF air
Ġc old
ĠW Ã¼r
Ġer hoben
Ġer laubt
Ã¤nd igen
ĠOr chester
let te
Ġstra ight
Ġir gend
Ġentsprechen de
Ġoffiziel l
Ġswe et
ĠZusch auer
it is
it tel
ĠA gr
ĠP as
ĠK anada
ĠSt ab
ĠRe port
ĠAr thur
arbeit ete
Ġstate ment
Ġturn ed
ĠSchwer punkt
chip karte
D igital
J ohann
or gan
ĠL ist
ĠV ill
Ġge plan
fÃ¼hr ten
Ġdr iving
Ġur kund
Jahr en
Ġt ritt
Ġin f
ow l
Ġsch eint
ĠÃ¼ber haupt
Ġcon cept
Ġbes aÃŁ
ĠZeit raum
lig isten
ĠZug ang
ĠFil me
ylvan ia
ol and
Ġl ength
ĠJ ed
atur ing
stand ing
Ġsc ient
ĠSan kt
ĠGerman y
= "
ess in
th a
ĠPro jekte
gr iffe
gesch lagen
ĠBundes wehr
Ġschw ier
haf te
ĠGren zen
Ã¤m lich
produ ktion
nes day
Ġeffic ient
ĠB art
ĠF inn
ĠMar ien
Ġnahe zu
ĠrÃ¶m ischen
k urs
ĠB aus
Ġre li
Ġhe ll
ĠWe ge
ĠAd el
ĠInde x
ĠMatth ias
R Ã¶m
l ist
r ast
Ġc ell
ĠGesch ichts
Ġdis p
Al le
wirk ungen
il ing
ru p
ĠSp ielt
ais er
Ġmein er
Ġb row
ol is
ĠL iber
iv als
ĠAn frage
ĠEr schein
ĠSp orts
ĠPro te
onn a
Ġber uf
ĠGrÃ¼nd er
ĠZahl en
Ġunterst Ã¼tzen
ĠSebast ian
D I
n oten
v ar
| -
ĠM ike
ĠK im
ĠE ven
ĠH Ã¼
ĠC ook
Ã¶ pf
fin ition
ĠOff izier
ĠBahn strecke
ĠCam bridge
Å Ł
re hens
Ġh us
ĠH arr
Ġzu geordnet
ĠPro fil
ĠFor um
ons erv
Ġbet rieb
ball spieler
Ġincre asing
Pl atz
ĠEdu ard
he il
ich ert
ĠG riechen
Ã¶ tet
ob acht
amil ien
let ter
ĠFrank furter
ĠBed ingungen
Ġmet al
ĠnÃ¤ch ste
Ġgemeins amen
N ot
O W
T H
c are
an ia
ĠS ud
ĠW ho
Ġer fahren
ĠJ ena
ĠO d
ĠZ erst
Ġun ge
ĠEx empl
ĠTr ib
Ġeinzel ne
C onstants
p ite
Ġl ines
ot ional
Ġge eignet
sp ar
lin ois
rÃ¤ ft
ĠCh allen
Ġbest ritt
ĠBro ok
ĠIns eln
ĠFrei heit
Ġeconom ic
ĠImm obil
Ġ ign
ro ugh
de cken
Ġh Ã¤tten
Ġc andid
be zogen
bed ingungen
Ġess ay
Ġcou p
ĠEigen schaften
e g
ĠG lauben
ĠR on
Ġcol ors
Ġpop ul
Ġbeaut y
ĠKommun ikation
U r
l it
er te
Ġn ar
Ġc ast
Ġad vent
ĠSer ver
Ġsur face
ĠComm ission
Ġdra w
ĠBron z
Ġinnov ative
ĠTÃ¼rk ei
ĠS her
Ġf Ã¤llt
Ġp ot
Ġge z
Ġge plant
Ã¤r chen
ĠMin eral
ĠJohn son
gangen heit
Ġbud get
Ġthous ands
en se
Ġw issen
ĠM ath
Ġj em
ĠÃ ł
ĠOrd nung
A ut
k arten
as ien
ĠA S
ĠM ig
Ġbe grenz
ĠEr ich
ĠKl im
ĠgroÃŁ es
Ġprodu ced
hÃ¶ he
ĠCD U
National mannschaft
r ight
ie fen
ĠE ber
ĠSch on
ĠSte phan
Ġdiffer ence
Te xt
Ġtre ffen
ĠCas ino
u ber
ĠD ur
Ġg uarante
ĠO der
Ġre icht
if er
Ġun er
ĠAus einanders
iss ance
ĠWahl kreis
ĠKont rolle
ungsp ro
Ġchallen ge
S PD
ĠR ollen
ĠN ick
ad y
Ġr um
ĠFÃ¼r sten
Ġac adem
ĠWir ken
ĠFo otball
ĠMad rid
Ġrespons ible
schei det
ĠWilli ams
ĠS yr
ĠD ank
ol ar
ĠR Ã¶m
ĠSch ritt
Ġro b
Ġbut ton
ĠGeist licher
ĠjÃ¼d ischen
schlÃ¤ ge
en ken
Ã¤ ure
ĠF iguren
ĠL ook
Ã¶ der
ĠEnt wurf
Ġbro ught
Ġsele ct
Ġzust Ã¤ndig
N r
T S
ĠP ow
ĠL at
ic ious
ĠV alley
Ġab ger
âĢĿ ,
Th ese
Ġple as
E lement
K irche
h ire
j an
o ter
am i
Ġr ent
fÃ¼hr ungen
ĠStra ÃŁ
ĠKais ers
Ġmean ing
Ġsett ing
ĠVirgin ia
4 00
P hil
R L
c ious
k Ã¼rz
n ab
Ġdire ctor
ĠMag de
W erk
Ġf an
ĠM ord
st al
ĠH immel
ĠC ustom
Ġj ourney
form ance
ĠPl us
Film ografie
Ġadv ice
p ommern
ĠE ach
om er
Ġserv ed
ĠMaÃŁ nahmen
c ont
er em
Ġdis k
schn itts
ĠEng agement
ennt nisse
O P
m eldung
Ġg ran
Ġl isted
Ġge ist
ĠLand schaft
ĠPar laments
urop a
Ġeas ier
Ġsay ing
Ġnomin iert
t yp
end o
ĠAm ster
zeit ung
Ġro of
Ġeinz ig
ĠVerlag s
ĠKap ital
ĠNationalsozial ismus
in ischen
ĠL ate
ĠAn lagen
Ġj ur
Ġex cept
Ġhelp ing
umen ten
Ġappro x
ĠGener ation
ĠUntersuch ung
M Ã¤rz
b ad
l ar
p an
ĠA N
ĠG all
os is
id ung
ĠThe ologie
ĠOr ch
ĠSong s
Ġregard ing
in ks
in ted
Ġn Ã¤mlich
ĠK iel
ĠR ub
pro fess
Ġfin ished
Ġmay be
199 0
grÃ¶ ÃŁ
. ).
H ein
l le
Ã¤ ll
ĠK urs
im ens
ap h
ĠEnt fern
ins on
Ġextrem ely
ĠÃĦgyp ten
ĠObl ast
r ia
u ern
ĠD ok
ĠH ospital
Ġver geben
ĠRe fer
Ġsp anischen
ĠLe hre
gesch windigkeit
Ġpower ful
d is
Ġm is
ĠB Ã¤nde
ĠD un
Ġh ers
im ents
ĠV it
20 19
ans as
yn ast
Ġbas is
ĠRum Ã¤n
g ot
ĠB ang
ĠD aher
ĠP M
ol es
im ension
ĠIn t
ĠVer tra
ĠAn y
ĠInd ien
zie ht
ten ance
ĠH as
Ġr ich
Ã¼n sch
Ã¤l le
grÃ¼nd ung
ĠDan eben
ĠWar en
zÃ¼ glich
Ġclean ing
H aus
W il
Ġ uk
Ã¼ gt
de gang
ol z
gel t
Ġ189 3
199 6
Ġmethod s
kur renz
k in
te gra
ar ia
ĠG ang
ĠĊ Ġ
Ġsch af
Ġmeas ure
ĠEpis ode
ĠT rÃ¤ger
oc ol
Ġen glisch
ĠEnts te
Ġzunehmen d
K rit
Î ¹
Ġb ur
ĠK urfÃ¼r
ĠL ot
Ġl it
Ġe he
Ġauf gestellt
au ten
reich er
ath an
wer den
Ġra ce
Ġuse ful
Ġret ail
B y
Ġ18 48
reg ion
ĠmÃ¶ch ten
Ġteach ing
B ook
al tete
Ġf ans
ĠN ie
ce an
sp ann
sen s
lo y
Ġthan ks
Ġinc red
ĠGew icht
esent lichen
Ġengl ischer
ĠU t
Ġunter en
ĠMan y
ĠEd ward
R el
Ġs ituation
Ġh ospital
Ġmit einander
Ġdem and
ak i
ust ain
kl us
bl ing
ĠJo e
c en
is tet
Ġw ants
an ie
ag ra
ĠAn h
Ġse ven
sk a
Ġview ed
Ġpress ure
mitt lung
Ġdeter min
dire ktor
ĠWeltk rieges
! )
O ff
c raft
Ġs agen
ĠEin richtung
land es
gest altung
ĠRaj on
ĠKomb ination
r amm
Ã¤ b
ĠE ind
ul in
ĠMa ur
Ġsec ure
Ġopen ing
ĠjÃ¼n ger
ziehungs weise
ĠKÃ¼n ste
Ġin tern
Ġm ission
ĠA M
ĠA le
ĠT rom
ĠL as
ĠL am
os ing
ĠRe de
ert al
ĠBl ues
Ġdr ink
Ġnational en
ĠHor st
M ax
S U
Ġs amm
Ġb la
Ġb ag
ĠC ost
ĠIn frastruktur
ĠQu adrat
ĠGegen wart
Ġkon zentr
ĠbestÃ¤t igt
F alls
ĠS ei
ĠL ittle
ĠV ie
ĠMit arbeit
In sel
ĠPl atten
bes itz
ĠQu elle
cy cl
lad ung
K irchen
ĠE P
Ġ15 00
ĠFamil y
Ġgu ests
ĠKomp osition
ĠTab elle
D AP
T er
V al
i y
it at
ĠP ac
im in
Hand lung
ĠMathemat ik
w uchs
ĠM assen
ĠN R
ĠVer letz
ĠDie ter
ĠKÃ¶nig in
ĠDetail s
k u
ĠD ial
me er
ĠMann schafts
ĠPrinz ip
k at
Ġw eder
Ã¶ se
ĠIn itiative
Ã¤r ung
ild ing
ĠNational mannschaft
omb in
Ġhig hl
ĠParte ien
B et
h aven
ĠI ran
ĠL etz
ĠL td
ĠV ari
ik as
ĠSt ift
Ġauf gebaut
ĠFre izeit
prÃ¼ ft
te am
ro nd
Ġh il
sch icht
Ġfor mat
we ist
Ġent steht
ĠBer icht
wer ben
ĠJuni oren
fÃ¤ ll
rÃ¤n kt
ĠJer usalem
Ġa ren
ĠEin heiten
Ġ5 1
teil ungen
Ġbesch reibt
ĠmÃ¶glich st
Schwei z
Ġpresen ted
ĠTÃ¶ch ter
> <
k ommand
m ack
s ylvania
st rom
ĠC ru
ĠMet al
ĠFer ien
ĠKarls ruhe
ĠWoiwod schaft
k Ã¼nd
Ġ !
ĠN och
Ġge e
ste uer
ĠNe um
ĠHe ad
att form
ĠGr amm
Ġinter ior
ĠAnd roid
Ġappro pr
ĠMitglieder n
ĠKal ifornien
in u
Ġf ail
ĠC all
ĠJ a
ou p
ĠAb d
Ġreg istr
Ġâ ļŃ
Ġwind ow
sta aten
ĠSpring er
zÃ¤hl ung
ĠWed nesday
z ern
ĠP red
Ġn ut
ĠU fer
ĠVer gangenheit
Ġ5 3
gesch oss
ĠStra nd
Ġw achsen
Ġf allen
Ġzu g
ĠVer st
Ġtra f
ied elt
Ġvers uchte
ĠMan fred
Ġtr ust
ĠBras ilien
b ay
f ree
al ity
ĠK amera
ĠW en
ĠBo ot
ĠOb wohl
ĠHaus es
ĠUkra ine
m iss
t aus
Ġs agt
or row
ĠR ail
ĠR ose
ĠR oh
ĠL ag
Ġbe ziehungsweise
ph ase
ile y
ĠInd ivid
Ġitalien ische
Ġexist ing
ĠWieder auf
ĠModer n
ĠBe am
ĠBes etzung
Ġachie ve
W el
Â ´
Ġt ag
ond eren
pl atte
Ġpat ient
verkehr s
ĠSÃ¤nger in
Ġzum indest
zen e
Ġover all
ĠTr ier
Ġtechn iques
Ġdi agn
Ġnumber s
Ġbene fit
Ġkathol ischen
bie ter
ĠF un
ĠV iet
Ã¶s ungen
Re chts
ĠBar on
ĠWei ÃŁen
J ahre
k es
Ġt ransp
or i
Ġer zeugt
Ġe arlier
Ġapp l
ĠBau werk
Ġaufge fÃ¼hrt
Ġstra tegy
Ġpie ces
Ġerr ichtete
h as
z te
ĠM ap
st ad
ed ikt
ĠAn spruch
ĠGe werk
ĠOr der
man agement
setz te
ĠKÃ¼ che
S pieler
m ess
u ellen
Ġs ucht
ĠB om
Ġpro ud
ip es
Ġbes onder
Ġfind ing
aj a
Ġsen ior
Ġocc ur
ĠWeihn achts
m otor
Ġ {
ĠK alk
Ġbe yond
Ġver fasste
ĠSp itzen
ial e
Ġget rennt
Ġletz ter
reg isseur
wirk ung
Ġtats Ã¤chlich
c onstants
u an
al o
Ġb ess
Ġf uck
ĠH Ã¼gel
ĠW urz
ĠSp ace
ĠVor stand
ĠGeb iets
Ġtechn ical
h ar
as chen
ĠH eb
ĠW ay
ent ur
ann ed
ĠSh op
Ġreg ional
Ġnor weg
verein s
Ġchange d
Ġcap ital
it ag
ĠS oph
el ine
ro ad
ra uf
ĠI C
Ġ18 50
ĠLe h
wer ten
An merkungen
Ġdevelop ing
Ġstark en
ĠÅ ł
Ġut il
Ġs ession
ĠH ay
ed ig
Ġverschieden er
ĠDon au
f ue
ĠT en
ĠC ur
Ã¶ d
Ġk new
stra ÃŁen
Ġ/ >
Ġerm Ã¶glichen
S ep
ĠD J
Ġan schlieÃŁ
ĠRe is
hÃ¶r ige
Ã¼t ten
ĠInter essen
Ġfac ilities
ĠFo od
Ġklass ischen
Ġmittel alter
ĠAutob ahn
f alt
ĠD issertation
Ġre asons
ĠCh am
Ġet abl
Ġco ff
fÃ¼ ll
Ġange gebenen
Ġstor es
or ient
ĠR io
art igen
ĠGesch le
Ġunterschied lich
Ġb lieben
ay lor
ate ver
ĠAl k
her ren
ĠPar ameter
!! !
Vers ion
K o
V ol
r ian
v it
or ia
ĠT rieb
ĠIn fanterie
ĠSp er
ĠAuf nahmen
hol m
ĠBereich en
haf ten
ĠStÃ¤d ten
Ġt ruck
ĠM u
ĠM isch
ist rÃ¤ger
Ġun gefÃ¤hr
Ġsch ied
ob el
ĠFl Ã¤chen
Ġ189 2
ĠMass achusetts
T our
it ors
Ġs Ã¤m
us en
Ġth ank
Ġim press
est yle
auf tra
Ġres erv
ĠGesch ichten
199 8
ĠKranken haus
Ġpoln ischen
Ġren ov
ir urg
rÃ¼ st
Ġbis lang
ĠAr ray
ĠEin richtungen
ac ity
Ġ189 4
Ġbas iert
Ġcrit ical
mÃ¶glichkeit en
i ation
l Ã¤nge
it ness
ĠP ul
Ġer lang
sp recher
Ġsp ring
Einz el
ĠGeb iete
Ġcont ains
An t
Ġ187 1
ĠDipl om
ĠbenÃ¶t igt
Ġw ire
Ġn Ã¤her
Ġzw eiter
oren z
ĠFre unde
ĠBundes staat
ĠSer ien
Te chn
ĠGraf schaft
Ġdeutschsprach igen
b und
r us
ung er
ĠV I
ĠMed ical
ĠBÃ¼ hnen
ĠOper ation
iate ilnehmer
ĠPublik um
Ġerstre ckt
m auer
st Ã¤d
ĠK am
ĠH um
ent hal
ast rop
ĠFl ucht
Ġste el
alen der
icher heit
ĠBist um
Ġs ing
ĠB ert
ĠB res
de hn
ier end
Ġsp read
act ive
wend ungen
ĠBel gien
ĠAfr ican
ĠZwe ck
H ome
g reif
as p
Ġn ames
ĠK ron
ĠH yp
ĠR ap
ĠAus zeichnung
ĠEn glisch
An halt
ĠStud ies
Ġexper iences
Ġinstall ation
ĠArn old
Ġerinn ert
Ġdise ase
Ġhus band
ĠAmster dam
p ool
Ġd ining
Ġa ward
al is
as tern
Ġein geb
ies s
art ig
Ġsp Ã¤ten
Ġsch reiben
Ġdar aus
ĠBra un
fa ult
ĠGef Ã¤ngnis
s ichts
Ï Ħ
Ġb itte
ĠB Ã¼r
ĠT wo
ĠH ot
Ġg ather
ĠBe ziehung
ungs ver
ip end
Ġcom ments
oc al
Ġklein ere
ĠFÃ¤ llen
Ġol der
ar p
Ġm aÃŁ
ĠN az
Ġcan cer
ĠHoch zeit
ĠFahr er
ĠOs car
ĠursprÃ¼n glichen
ĠErfahr ung
ĠRelig ion
sb ruck
M B
ur ers
ĠB aby
ĠM P
ter m
Ġvor aus
ĠFran Ã§
Ġsc ene
ĠPe ople
Ġvert rat
ĠEing ang
ĠMail and
Ġnumer ous
ĠS ender
ĠB our
em ann
ir ing
ĠAn trag
ĠWe gen
Ġho her
ĠUr laub
Ã¤dag oge
ĠÃ¤lter en
ĠMex iko
S A
y en
ĠG att
Ã¼r zt
os it
Ġsch reibt
gel s
Ġsol id
ĠOff ic
ĠSchl Ã¼ssel
ĠAkt ien
ĠErw achsen
deck ung
ĠAtt rib
ĠverfÃ¼g bar
ĠflieÃŁ t
Ġimmed iately
l u
or ted
ĠB R
ĠP u
ol ogen
Ġc entral
Ġcon ference
Ġch at
dem okrat
ĠLib rary
ĠHug o
in us
ĠA x
ĠP ots
ĠN ah
Ġ20 22
ĠZ y
ĠUn fall
St iftung
Ġser ver
---- ----
Ġ ?
ic ans
Ġaus ger
ste dt
Ġwel chem
Ġfest genommen
K arl
ĠK eller
ĠBe fehl
leg ant
Ġmoder ne
Ġvo ice
Ġcertain ly
Ġerz Ã¤hlt
ĠK il
Ã¼n fte
ĠNach richt
leg entlich
ĠMod elle
stre cken
ĠBrÃ¼ cken
ĠInn ov
un Ã¤chst
ĠB it
Ġn Ã¶t
ĠH ong
ĠN avy
iel l
ĠEin sch
Ġunter halb
wer tet
Ġstand ards
Ġgest altet
ĠRu h
ĠKÃ¼ sten
Ġredu ce
ĠMein ung
__ __
C ol
m or
z ell
Ġs ets
ĠZ ul
esch oss
fe uer
Ġpr incip
ĠMik ro
Ġbott om
J ohn
ĠM und
ĠF ield
ĠK rie
ĠR al
ĠL isten
Ġon to
Ġsch affen
199 7
ĠSchn ell
ĠDort mund
ĠHalb finale
Ġchallen ges
Ehemal ige
Ġdig it
M ilitÃ¤r
ch ern
ĠC onst
ĠV ideos
ĠEr ste
Ġsh ot
Ġgu id
Ġfre ien
Ġeven ing
Ġaltern ative
z um
Ø §
Ġs ter
re me
ĠM ake
Ġg Ã¼lt
Ġj ournal
geb nis
part ments
ĠKommun al
Ġdenn och
ĠPap ier
Ġrestaur ant
Date i
M ag
d ies
ol as
Ã¶ ck
eb all
Ġver Ã¤ndert
ĠAn im
inz ip
Ġsel ber
ix el
Ġcover ed
Ġconne ction
g s
l ife
Ġm ut
Ġst Ã¤dt
Ġhe avy
ĠBe weg
ord net
Ġpriv aten
Ġrele vant
ĠDÃ¤n emark
Ð ´
er ien
Ġp aid
ĠG uts
for scher
Ġgra de
ĠKÃ¼ ste
ĠRund funk
ĠAktiv itÃ¤ten
o ul
u tely
ĠM Ã¼hle
rÃ¼ cke
olog isch
ĠspÃ¤ter e
Ġclass es
Ġprote ction
Land kreis
ĠS ince
ĠC lin
ĠSt urm
ste igen
iz ien
por ts
Ġsong s
Ġprim ary
h art
ĠD E
Ġc ategory
ack en
cl ub
ĠGra d
ĠAlt ar
Ber eits
Ġatt ach
Ġstre et
Ġgre ater
Ġparticular ly
Ġgriech ischen
Ã ľ
st il
ĠT ats
ent um
ĠC reek
oll ten
tet t
Ġen h
Ġstark e
kon om
umm ern
Ges ellschaft
ĠFÃ¤ h
Î ½
Ġm iles
Ġn ennt
la ted
ĠSie ben
ĠWerk en
ĠSonn tag
8 00
B ere
N ow
u ct
el ess
ĠM ak
ĠE sp
ĠJ ord
Ġch air
Ġ5 7
Ġacc ommod
Ġnotwend ig
k Ã¶nig
te au
Ġb aute
Ġthe me
ĠBe at
ĠOr den
stell ig
bes itzer
Ġteil s
Ġlov ely
Ġpres ident
Ġgeg rÃ¼ndete
Ġmot iv
ro y
ĠT ony
ra p
Ġschw eren
ĠFernseh serie
M art
ĠS ens
ĠA L
ĠAr men
Ġbes etzt
Ġ8 5
Ġrec ords
Ġeinz igen
ĠForm el
ĠmÃ¶glich erweise
ĠBesch Ã¤ft
ĠKant ons
Ġincre ased
F r
n ight
z unehmen
Ġa partment
ĠP av
Ġe at
Ġre ag
Ġent schied
ĠJos Ã©
ĠUnabhÃ¤ng igkeit
k ern
s dorf
st at
ĠK Ã¶n
ĠH Ã¤
ite ktur
fol gen
ingen ieur
bach er
Ge w
Ġfre ie
Ġbetrach tet
k amp
w Ã¤l
Ġa head
ĠC ond
Ġzu k
ug os
Ġcomp rehens
ĠFre ien
EM ail
ĠPhys ik
ĠNetz werk
Ġverpflich tet
w Ã¤hnung
Ġw ebs
re ht
od a
Ġum fasste
Ġhand le
ĠTem pel
Ġmult i
ĠArm y
ĠViel zahl
ĠEntwick lungs
Ġbezeich nete
E nd
or ps
ĠS onne
ĠD atum
ĠK ob
ĠE ugen
isch Ã¶
schaf fen
qu est
je kts
Ġte acher
Ġinter pret
ĠRu hr
Ph one
re h
lo ok
Ġkann st
Ġverst orben
; ;
D DR
re te
ĠL inz
rat is
Ã¤nder te
Ġ188 9
Ġhim self
Ġfollow ed
ĠKÃ¶l ner
usÃ¤tz lich
CD U
stan bul
Ġcas ino
k Ã¼ste
Ġ( ),
ac ing
Ġman chmal
ĠBundes ver
ĠVerb esser
Ġass ign
Ġgu y
Ġmov ed
D aten
re gel
und et
ĠM io
sp ekt
iden z
Ġsur pr
onen ten
ĠWÃ¼rz burg
a ktionen
y c
ĠH Ã¶ch
Ġan genommen
ĠSch uhe
Ã¶r ungen
Ã¤nd ige
ĠNe ur
ĠIhre m
ĠOs nab
Ġleader s
F ahr
Ġd rop
is burg
Ġm ail
ĠC anad
men ten
av our
ĠGe fahr
Ġad vanced
stell te
ĠVerein igung
ĠDon ald
folg ung
Wh ile
ĠWag ner
Ġorganiz ations
S ein
b ing
ĠP ic
Ġn am
Ġp al
ĠEd el
ĠInn sbruck
Ġs itu
ĠF abrik
Ġre chte
ver l
ĠWelt meisterschaften
ĠGrund lagen
ĠAnt i
Ġ186 7
Ġverkauf te
Ġtalk ing
C o
E W
L auf
P eter
Ð ¼
Ñ ĭ
em burg
ĠL ow
ran e
sen de
ial s
ĠHe y
ĠSchw ier
Ġbeg innen
Ġport ugies
ĠSyd ney
Sep tember
ĠD rag
ĠP fe
ĠK ent
ĠE conom
ĠH av
ĠN ote
Ġsp rechen
ĠÃ¼ber nehmen
Ġex ter
Ġvor gestellt
ĠCh ief
Ġste ps
Ġsc en
Ġcommun ication
Ġbig gest
Ġgr und
ĠAth en
grÃ¶ ÃŁe
Ġcoff ee
F L
S pe
Ã¤ h
Ġh alb
ĠG ab
Ã¶ tz
ab geordneter
ran ch
ĠHe ktar
ĠGem Ã¤lde
Ġ188 5
Ġ188 8
Ġentwick eln
Ġresp ond
col n
Ġcompet ition
ĠM ix
ĠM Ã¼hl
ĠP ir
ol ph
be am
ĠEurop as
ĠTra um
Ġexc ited
ĠkÃ¶nn ten
far ben
s ein
Ġt rifft
Ġf uhr
ro h
Ġwh ose
ĠMar burg
iss es
Ġsm ooth
bÃ¼rger meister
Olymp iateilnehmer
O st
i op
Ġa uÃŁen
Ġw rote
Ġal though
ĠLe ute
Ġacc ur
unds Ã¤tz
ĠRestaur ant
ĠBronz emed
B en
u v
Ġd aughter
Ġw om
an ch
Ġh aven
Ġfor ms
ĠRe v
Ġsh aring
Ġele ment
Ġav oid
ape ut
Ġexpl ore
c ause
g in
g ow
Ġs uffer
Ġm icro
ĠV ul
ad ing
ĠZ o
Ġqu ant
Er gebnisse
ĠMc K
f ir
k la
ĠB em
Ġc ars
Ġ5 4
Ġprodu ce
iqu id
ĠNieder lage
gra de
ĠInternational e
ĠCount ry
bed ingt
J ose
z esse
ĠS or
lie f
oh ol
Ġseit dem
Ġange hÃ¶r
Ġsec ret
ĠLin coln
Ġkomp lex
ĠIl linois
ĠGesund heits
R uss
u i
Ġd ein
or ff
Ã¼ p
Ġr at
ĠMar i
Ġtra ffic
Ġexper ts
ĠGed anken
ĠNutz er
Ġwa iting
Ġwissenschaft lichen
ĠAbgeord neter
Ġadmin istrat
K an
ar o
ol er
men ge
ub a
ub il
Ġsh own
ĠReg ionen
bau te
ĠCon ference
Ġwissenschaft liche
Ġgemeins ame
gerichts hof
ĠOh io
I R
r asch
ĠV Ã¶lker
ov anni
ĠAus bau
Ġbes onderen
Ġpass ed
jahr es
Ġbra in
mod ell
Ġoffiziel len
ĠEngine ering
H ere
w ord
Ġf Ã¶rder
ĠP ian
fen ster
ipp s
Ã¡ s
ĠHol lywood
199 5
Ġgef ert
Ġvis itor
Ġsozial en
zuf Ã¼hren
umin ium
F rom
P al
n itten
p asst
Ġa wesome
ĠP ie
Ġ189 1
Ġtrans form
ĠMount ain
ĠpreuÃŁ ischen
ĠSchÃ¤ fer
u ters
an ze
un es
ĠM B
ĠH em
ia ge
ĠMa jor
ĠGemeinde gebiet
setz er
ĠMy th
v ater
Ġa p
Ġal ter
ĠSch laf
Ġle gend
age l
ĠLe arn
ĠHe eres
inn es
Ġoff izielle
Ġmon itor
Ġcould n
Ġcharac ters
Con tent
ĠGesprÃ¤ ch
ĠBuchst aben
ĠMagde burg
n g
ĠM ir
ĠT y
ĠJ im
ĠAr z
app y
Ġrem ain
ĠLei den
ĠWei b
Ġconne ct
ĠBot schafter
J ust
Ī Ĵ
ĠR ober
Ġg allery
ĠSt ory
ap os
elt a
Ġpe ace
verb indung
Ġprop erties
ĠDis ziplin
Frank reich
b ell
st ift
ra ted
ĠN Y
In ternational
Ġbelie bt
G o
S he
b ig
ä ¸
Ġ Ã¶rt
Ġd ish
ĠE qu
ĠJ enn
ĠNach folge
Ġsh ip
ĠLÃ¼ beck
ĠVeranstalt ung
Ġil leg
H inter
N or
e f
l ik
ĠA ction
ess ions
tel n
Ġaus reich
ĠWelt meister
kauf t
ĠAlt stadt
Ġbedeuten d
Ġrelations hips
Ġgren zt
a wa
Ġo st
ent lichen
ĠC ro
Ġus w
Ã© g
aut hor
Ġverb indet
Ġart ists
Ġtre ten
Ġpay ment
Ġsele cted
ĠMil ch
best and
Ġstat us
. /
r uss
v ens
w irtschafts
on us
Ġs inn
ĠB io
ĠP in
sch wer
ut ch
Ġk id
Ġden k
ĠVer eine
Ġr ules
Ġsch uf
Ġsch ott
ĠSte phen
Ġeigen es
ester day
ĠAnt wort
ĠHil fs
b lock
t w
re w
ĠG ot
ĠK Ã¶r
ic ians
ĠC apt
ack er
ĠSte ve
ĠAug sburg
ĠHar ry
wor th
ĠDo ktor
ĠPlan ung
ifik ations
ĠGleich zeitig
Ġjapan ischen
A cc
ie ht
ĠT i
Ġver urs
pp ing
Ġbet roffen
ograph ic
Ġneigh bor
3 00
B B
z z
Ġm einen
ĠF Ã¼nf
and e
ĠkÃ¶n ne
ĠPh ase
ĠHa ar
ĠBro ad
Ġstr ug
ĠVen edig
ĠÃ¤lt esten
T od
ro ph
ĠW end
ĠW ales
ĠR he
ĠR oth
Ġer mittelt
ĠO ther
ver teid
teil te
ital ien
ĠVerb reitung
ĠMet rop
Ġele ments
ĠEis hockeyspieler
ĠTele fon
ĠEns emble
in stitut
ist ant
ist ance
Ġ9 9
Ġinde pendent
Ġindustr ial
P aul
Ġf le
ĠD C
ĠK ost
ĠH op
ĠSt imme
ver zeichnis
pt on
Ġunter scheiden
Ġ5 6
Ġget Ã¶tet
ĠOff en
ĠCor poration
Ġrad io
Â ³
us sen
ĠB il
ĠB ir
st ar
ĠK Ã¤
Ġal one
Ġab gesch
Ġman ager
lass ung
Ġbeen det
ĠBau er
Ġlook ed
akt oren
Ġbesch Ã¤d
Ġfl at
199 2
Ġexc iting
ĠBur gen
and o
Ġre form
we ich
ĠTra g
Ġspe ct
Ġwicht igen
ĠGrÃ¼nd ungs
ĠPsych ologie
i ben
ã Ģ
ing ham
Ġp ow
ut ing
Ġsch rif
Ġcon stant
ĠHam mer
ĠD ark
ed om
ĠV og
ers dorf
Ġver n
ass au
ĠVer zeichnis
ru pt
Ġum fass
ph ia
bo den
ĠGroÃŁ teil
Ġgleich e
Ge ografie
ĠMark et
Ġhinz uge
Ġgelegen e
ĠHei de
Ġprof ile
Zw ischen
h yd
ĠB och
ig ation
Ġein schlieÃŁlich
sch irm
ĠSch ott
me ter
Ġdam age
ĠMark e
Ġprote ct
H T
m ord
Ġs elling
ĠM ans
ĠP iet
if ying
ĠIn halte
20 20
ĠMark en
ĠBi ograph
Dies er
ĠSym bol
Ġwebs ites
E B
Ġ( ;
sch le
ĠGe gend
ĠWe il
ĠMe chan
unter richt
G et
d rÃ¼ck
z usch
â Ħ
as ilian
ĠB ath
ĠZ oll
ĠSch reib
iz er
The y
gesch Ã¤ft
Ġhoch wert
Ġop in
ĠS af
ĠD iam
ĠLe vel
Ġman age
ĠWe ek
Ġob serv
Ġra p
Ġcol our
ĠPort rÃ¤t
Ġdre am
Ġzie hen
rond iss
D u
] ,
b ein
st one
ĠL av
ĠN at
ĠN ation
geb irge
ĠMar gar
vers icherung
ĠgrÃ¶ÃŁ er
ĠSec ond
iar den
Ġverhinder n
Ġbein hal
M en
o ir
w ich
or ation
im er
ĠEr furt
Ġ18 00
iz ont
Ġgew Ã¤hr
Be im
ĠEing abe
ĠBach elor
Ġsicht bar
W ill
Ġbe we
ĠMar g
Ġpl enty
vers ion
ĠCl ick
Ġspiel ten
Ġval ues
ĠlÃ¤ uft
Ġverst arb
ĠTw itter
ĠImmobil ien
I F
S ee
c ient
Ġw under
ĠB arn
ĠM d
Ġein iger
ĠK redit
ĠH rsg
ĠBer nd
sh ire
ipp er
Ġverb rachte
Ġdr iver
ĠRo om
Ġbeh aup
hers teller
A kt
z ert
ĠB le
ĠB alt
Ġst yl
ĠSe kunden
Ġspe zial
ĠMark us
hÃ¤lt nisse
Ġpost s
Ġzie ht
ĠjÃ¼n g
ĠerhÃ¤lt lich
ĠerhÃ¶ ht
Ġerforder lich
Ġpromov iert
a tely
t own
Ã¤ fte
ĠG un
Ġe ight
ĠBe hÃ¶rden
Ã¤r ten
out s
fe ct
Ġres idents
utz ung
ĠPla ce
Ġmov ies
ĠSchn itt
ĠAir port
ĠInstitut s
ĠVerÃ¶ffentlich ungen
ĠInform ations
an teil
Ġb illion
Ġf ahren
ĠF unk
ĠW upp
Ġer gibt
ab end
Ġver teid
ĠGesch windigkeit
Ġpol y
ĠTem plate
ĠBed arf
ĠSchriftsteller in
ĠzusÃ¤tz liche
itar re
ĠDipl omat
c omp
Ġs up
ĠSt ill
Ġver gangenen
ĠVer n
oun ter
ĠKl ima
ĠDes halb
ĠFahr t
Ġ188 7
198 9
Ġ187 4
ĠGeorg ia
Ġlaw s
ĠBook s
ĠPfer de
Ġmaint ain
T ube
c os
p ra
} ,
Ġb ayer
us se
ro d
Ġc it
ĠL angen
ib e
ition en
ĠNet work
Ġattem pt
m aschinen
it arr
Ġse eing
ip edia
fahr ts
ĠMich igan
Ġinc or
Te am
Ġbr ings
Ġoper ating
ĠOl denburg
ĠGef angen
Ġautomat isch
Ġep is
Ġadvant age
F amilie
g i
ĠA ccess
ĠF red
eb ens
ĠAr rondiss
Ġnot ice
ĠSal v
ĠAuss tell
ĠSec ret
Ġcele bra
ĠTas chen
o ÃŁen
al ia
re pr
Ġm ilitary
Ġc atch
ĠL ike
ĠC H
ast ik
Ġad ult
ĠUm setzung
ĠBar ock
Ġeinge tragen
ĠPat rick
kap elle
ĠGlo cken
Ġsoc iety
Ġafford able
g ung
at on
ad ies
qu elle
Ã¤t t
Ġsh all
Ġsh ape
ĠWe ber
Ġber Ã¼cksicht
Ġdire ction
Ġac qu
Ġant i
ĠunabhÃ¤ng ig
fÃ¶rder ung
ĠDou glas
Ġb ought
Ġp ush
ut re
Ġsch lecht
ĠMÃ¼n chner
ĠSc ot
ĠFe hl
Ġerw orben
sw ald
ĠSa ar
Ġbisher igen
Komp onist
ĠP ot
ĠK ohl
ĠO R
ĠSch aff
ĠOr ten
Ġsh ipping
Ġbek ommt
ĠBÃ¼ hne
wor ten
ĠAmts zeit
Ġbestehen den
Par ameter
Ġupd ated
Ġelekt ron
ĠKommand o
Ġbehand elt
u j
Ġs ample
Ġf ill
ĠH als
ĠSch all
ger y
Pro zent
Ġmin ute
199 3
ĠFot ograf
Ġpop ulation
Ġtro cken
Ġcent re
ĠEpis oden
ĠD ata
Ġein s
Ġhelp ed
ĠTor onto
Ġlight ing
renn fahrer
Ġunbek annt
c ore
h Ã¤ndler
v ollen
Ï ģ
Ġd okument
Ġer l
gen ossen
iv a
199 1
199 4
pre uÃŁen
Ġneg ative
Ġcompar ed
adel phia
Gen eral
BevÃ¶lker ungs
ĠPenn sylvania
M otor
ĠM oh
ĠG ipfel
sch uld
ĠW ord
Ã¶ gel
ĠZ iele
ĠÃ¼ber sch
ĠFl Ã¼cht
Ġdr ug
ĠCo ver
Ġinst alled
Ġrequ ires
Ġallow ed
ĠpersÃ¶n lichen
ĠDenkmal schutz
Ġmat hemat
ĠBestand teil
p aar
v as
Ġin g
ĠH ad
sp ur
aus bildung
ĠBe f
ĠAus gang
Ġges ellschaft
ĠWelt cup
Ġverb oten
trag ung
ĠStud ie
athol ic
mus iker
y ers
ĠL iss
ĠJ ava
est and
ĠAn wesen
Ġvor wiegend
Ġsol chen
ĠTod ay
Ġplan ts
ĠLebens mittel
Ġsl ight
Ġsepar ate
Ġchines ischen
Jan uar
ch a
ĠP os
Ġh Ã¶ren
Ġr ental
Ã¤r n
erk ennung
zeit schrift
ĠPf ad
Ġkeep ing
Ġzuf olge
lehn t
ĠColumb ia
Ġappropr iate
" )
M Ã¼n
f iel
ĠM iddle
Ġk g
ik ing
Ġde te
ĠAn f
ĠAl te
hen den
Ġad just
Ġ6 6
ĠBr uch
ĠPre ise
Ġmain tenance
ĠJapan ese
ĠVerm Ã¶gen
Ġengine ering
ĠSchwar zen
Digital isat
F est
P lease
ch or
Ġf ish
ĠP y
ĠG a
ĠAl ph
fen se
fol genden
Ġqu arter
Ġ188 1
besch reibung
ĠRou te
A pril
h Ã¼ter
w affe
it as
ein heiten
ĠB ou
ĠF ull
Ġz Ã¤hlte
ĠC ert
ien cy
ru d
ĠAl p
Ġsh ower
St re
ĠGen e
Ġdort igen
produ zent
ĠtÃ¤ glich
M P
o es
Ã¼ h
Ġc ir
ĠW y
âĢľ -
Ġent schieden
ĠsÃ¼d westlich
rech ung
Ġinsp ired
Ġfant astic
Ġfem ale
U p
g roÃŁ
ĠG ouverneur
ot al
id den
ĠIn stall
ĠVer fassung
ĠMin ute
ĠTechn ischen
ĠSec urity
seit ig
k ul
Ġn ennen
Ġh ieÃŁ
ĠE g
lie ger
ĠUnter schied
Ġgen ug
ĠFran ces
ĠPl Ã¤tze
uer ei
uz z
Ġpo or
ĠsÃ¼d Ã¶stlich
Ġ186 9
Ġcommun ities
Ġcour ses
Ġtrad ing
ĠKol onial
ĠSyn chron
Ġdist ance
Ġlar ger
Q ual
n ieder
Ġ ĠĊ
Ġp air
am ts
ĠK art
Ġc alls
Ġl auf
ĠO ze
ap elle
ĠIm p
Ġsur v
M ill
Ġp ull
au ert
od ox
ste ig
ĠAuf l
ĠGemein schaft
ĠUnivers itÃ¤ten
ĠKl osters
aw n
ĠBel g
Pr iv
ĠThÃ¼r ingen
b ody
Ñ Į
in ken
ch ar
Ġs hel
ĠR av
ĠEr Ã¶ffnung
ste ine
rÃ¤ cht
Ġke pt
ĠMann heim
ĠNieder Ã¶sterreich
Ġtechn ischen
Ġ186 6
mÃ¤ÃŁ ige
Ġmov ement
ĠGar den
c z
g rÃ¤
as i
Ġf at
el be
ĠD ynam
st ritten
Ġh ast
ĠH aupts
Ġg ain
ach s
Ġum fassen
Ġen det
igt es
Ġgu est
jÃ¤hr iger
F ol
M ai
f un
n ull
or gt
ĠA ar
ĠM ut
ĠD og
ĠF els
ĠW Ã¼rttemberg
ach te
os ite
ac ts
pr int
ĠFor mat
off s
ĠAnd ers
Ġhier bei
legen heit
H alb
O G
v y
el en
ĠK oll
Ġc overs
Ġl esen
ell es
Ġloc ations
Ġend lich
ĠDav is
ĠDi Ã¶z
Ġnord Ã¶stlich
ĠStad ion
ĠMex ico
ĠLad y
ĠBul gar
Erster wÃ¤hnung
I B
is p
Ġf ear
ut y
ĠN un
est ic
Ġre v
men d
ive au
ĠGeb ieten
unkt ions
ĠGrund stÃ¼ck
Ġstatt finden
Ġbegann en
Ã¨ s
ĠZe hn
ĠDis c
go ing
ĠDire kt
ĠAre a
RÃ¶m isch
w ater
Ġs now
ĠT oten
ĠV inc
ĠSch aden
ĠAn gabe
Ã¼ck en
ĠNor wegen
Ġinc ome
fÃ¤ llen
ĠTab ellen
âĦ ¢
c ap
ĠA ster
st um
ĠK Z
ul ations
Ġst ick
ang a
geb ieten
Ġqu er
Ġeconom y
Ġcop y
Ġbus y
l ight
Ġd ank
ĠM aus
ĠP R
ĠT onnen
ik es
art ier
Ġse at
ĠSe le
Ġ5 9
lan k
ĠX X
Ġval u
ĠGu ide
Ġrep rÃ¤sent
Ġlo an
iller ie
Ġmittler en
D ata
O K
l iteratur
n or
Ġv ision
ĠT aylor
ab on
Ġwir ken
ĠSe hen
Ġ5 8
Ġ9 5
Ġfe aturing
ĠGeschÃ¤fts fÃ¼hrer
ĠMehr heit
Ġvisit ors
Ġpack age
Ġspeziel l
ĠNeust adt
V A
m acher
or ney
ĠB rad
che ck
gor ith
wor fen
Ġnord westlich
gÃ¤n glich
ĠVerd ienste
ĠÄ Į
Ġleit et
ĠViet nam
BevÃ¶lkerungs entwicklung
B as
Ã ¦
ĠL eder
Ġer b
Ġam t
Ġse a
Ġent lassen
tern oon
zen ten
auf t
imm ungen
formation en
Ġpl astic
Ġbr asilian
Film schauspieler
Ġengl ische
ĠFÃ¼hr er
ĠÃĦnder ungen
Ġ ðŁ
ar ma
ĠD ick
ĠP el
Ġh off
ĠK linik
ĠC her
Ġr u
ĠAm b
Ġadd ing
ĠFr ucht
ĠSk ulpt
ĠGed enk
prÃ¼ fung
J apan
w Ã¼rd
ĠA sh
ĠB Ã¶r
st reit
ĠR ats
ak u
Ġcon temporary
Ġsh ared
ĠVor bild
ĠVor stands
Th at
Ġakt iven
ĠCon gress
Ġest im
Ġcap acity
Ġdeter mine
Ġnied r
on om
ĠL P
ĠL uther
ĠC ob
Ġbe obach
ĠSp Ã¤t
Ġwir kt
Ġdo ors
fahr zeug
ĠDorf es
Ġexist ieren
gestell te
ĠVarian te
on line
Ġb auen
ĠK abin
ĠN on
Ġaus gesch
ĠBe geg
ĠNe use
ĠHo tels
Ã³ w
Ġ187 5
fÃ¶rm ig
ĠVictor ia
Ġheil igen
Fried rich
k w
k al
ar ett
Ġm Ã¶glichen
ĠF our
Ġg one
our i
alt y
ĠGo vernment
ĠKomp onisten
Ġ188 3
Ġklein eren
sprÃ¼n glich
Ġmar ried
ĠFel ix
Wer degang
Ġlern te
k ov
ĠW atch
Ġun its
ĠVer w
Ġi Phone
ĠSp recher
geb lich
Ġfre uen
Ġ188 6
Ġoffen en
On line
Ġcommit ted
ĀĀ ĀĀ
M aler
U L
h ai
ĠL aus
Ġbe coming
Ġis ol
ĠEr richtung
ĠBe aut
ĠAr g
ĠFl u
ĠSk y
ĠRep rÃ¤sentanten
ĠSam stag
Ġhon est
K at
k as
Ġv en
ĠC EO
Ġle ider
hl on
olle y
Ġreal ity
jahr en
Ġclick ing
Ġseek ing
ĠstÃ¤r ker
Z eich
m aschine
n chen
ie ck
Ġm Ã¼ndet
uf er
alt ar
Ġserv ing
Ġbef ind
legen heiten
Ġvis ual
Ġheraus gegeben
Ġteach ers
N atur
T L
b on
k ins
r ical
z ellen
le ute
ĠN ag
Ġdes igner
Ġfor ce
ĠAn forderungen
lin s
ĠEr ster
Ġ187 9
Ġprop os
ĠGi ovanni
Ġvol unte
Ġbenachbar ten
Ġd ance
ĠB ade
ber icht
ik ipedia
ĠThe atre
Ġum ge
mal en
Ġte en
rat ing
int age
ĠAlb recht
ĠDem oc
ĠEinwohner zahl
Ġgr undsÃ¤tz
Ġans Ã¤ss
ĠerÃ¶ff nete
t y
Ġf la
st immung
Ġthe oret
ĠU se
we ight
Ġr ub
ĠÃ¼ber setzt
ges prochen
Ġ7 2
Ġgel b
Ġcor ner
Ġdefin iert
kn own
B ay
K unst
ĠS A
ĠS endung
ĠG rÃ¼nen
ĠH ess
ĠSt unde
ĠEin t
Ġeff orts
Ġerreich ten
Ġwind ows
re ck
ĠG allen
ĠG allery
ĠK un
ĠL ock
Ġk os
ien ne
ĠÃ¼ber w
ĠTh or
imm ing
ĠSchiff s
Ġzeit genÃ¶ss
Ġbal ance
Ġsuit able
b in
d on
d atum
o ted
w ith
as che
ĠL or
Ġan geschlossen
Ġbesch lossen
Ġviel fÃ¤lt
Or ts
med izin
Ġtop ic
Ġwicht iger
Ġlau tet
Ġw ine
Ġv s
ĠF a
Ġge tragen
Ġ6 2
Ġqu e
Ġra in
ĠWh y
Ġaud ience
ĠNiederland e
Ġt on
ĠK affe
ĠSp itz
qu er
Ġse ctor
ob jekt
Ġpla ced
Ġpl atz
ĠGroÃŁ herzog
ĠWil son
ĠAs ia
ĠPolitiker in
Ġopen ed
Ġcor porate
ĠBronzemed aille
ĠB Ã¼nd
ĠL uz
ĠV i
Ġver letzt
ver treter
Ã¶r g
ĠLe o
reis en
Ġper man
Ã¤ch er
ĠAd ler
kl ar
ĠRes erv
Ch ar
Ġcomb ination
ĠProt est
ĠhÃ¶her en
tl ere
Ġcomprehens ive
R ei
ĠS ul
ĠG il
ct ures
Ġch anging
ges ell
ian ischen
Ġen able
ĠUm bau
Ġdet ailed
bour ne
o use
Ġc ore
rÃ¼ ckt
ĠBr enn
ĠBern ard
Ġnational e
ĠPriv ate
Ġsozial e
Ġprot est
um ps
Ġbe ant
rÃ¼ ne
igkeit s
Ġart icles
Ġ186 4
ĠRegen sburg
Ġzentr alen
Nov ember
Q L
T ro
k ar
l ach
l itz
v ideo
w ish
Ġt ree
or um
ĠD ampf
ĠK ond
im ir
Ġc art
ĠI stanbul
Ġge Ã¤ndert
ĠSch ild
qu enz
ĠTh ank
ĠAus zeichnungen
let scher
Ġbr ight
Ġgener ally
Ġve get
ĠPeters burg
ĠPots dam
e per
re es
ĠW arn
ĠL em
ad ow
ust on
iz abeth
ĠDe p
pro jekt
ĠBr ust
Ġbef Ã¶rdert
Ġ187 3
ĠPo int
ĠAf ghan
Ġt aste
Ġs ustain
he ber
ĠB ret
ĠF ur
ĠI ts
19 80
ĠFor ts
ĠkÃ¶n ig
Ġpolit isch
prÃ¤ senz
Ġdist in
Ñģ ÑĤ
Ġexpert ise
ĠKard inal
Ġd ou
Ġf inn
ĠA z
ĠM esse
sch Ã¼tzen
ĠC A
ot ograf
ĠBe obacht
ĠKl ub
ĠBo y
ĠÃĦ hn
ilome tern
Ġoper ations
H C
K Ã¶nig
j amin
x x
ĠM uss
am ik
Ġc e
Ġbe auftra
Ġ7 00
Ġange zeigt
Ġact ual
Ġ188 4
Ġwei ÃŁen
Ġcover age
mir al
b Ã¼t
es heim
ier bar
ĠGe werbe
Ġapp e
Ġbeg leitet
irt y
Film titel
ĠAndre w
Ġamer ikanische
Ġlim it
ĠRumÃ¤n ien
b ase
v iel
Ġs ister
he ater
Ġb ird
ĠB alk
ĠSt ol
ah a
ĠAll en
Ġfl u
Ġersch einen
ĠEner gy
Ġverste hen
ĠSzen en
ĠKup fer
S E
ur i
Ġ1 14
ĠL ern
ĠJ Ã¤ger
ĠU RL
Ġ6 1
ĠBl Ã¤tter
Ġdis app
ĠVerb ands
Ġtro ub
bro chen
B uch
F ran
P C
c our
m ans
ĠG Ã¶r
ĠE arth
em it
um a
ik ations
Ġr ank
ĠAl ters
ens es
ile t
ĠBes ter
Ġfo otball
ĠDar aufhin
minister iums
Ġklein es
innes ota
R oman
g reg
r un
Ġb urn
ĠL yr
ot ic
ĠRe kord
ib l
be hÃ¶rde
ond e
lan ze
hÃ¶r igkeit
yste men
ma ÃŁen
Ġgeb lieben
Ġhand elte
schn itte
Ġoper ation
val u
ĠBrun o
Ġcontra ct
ĠItal ian
ĠPfar rei
ynast ie
en hagen
Ġt rop
Ġc ities
Ġl ab
Ġan zu
ad bach
ass ung
ĠPer formance
Ġ187 2
Ġabsol utely
Ġerrich ten
strahl ung
B re
k olle
m i
z ens
Ġl i
Ġe arth
ly n
Ġcl oud
198 4
ĠBischof s
ugos law
R C
b indung
j u
p ie
Ġein gew
Ġp our
ĠW rit
ĠC oll
uch er
la de
Ġauf treten
Ġr ide
Ã¶n t
Ġsh ap
Ġgu ess
met hode
Ġvorhanden en
Ġwes halb
ĠSpielt ag
Ġapprox imately
A ss
V ert
Ġein deut
ent wick
Ġl iber
Ġde partment
Ġ18 78
Ġ6 8
pf ul
ĠYou Tube
opp elt
Ġrem ove
ĠHerr n
Ġlearn ed
weis ung
ĠKath arina
ĠErweiter ung
rÃ¼st ung
ĠArrondiss ement
Ġing red
- /
O per
k B
s ite
á ¸
ĠD orn
Ġl ose
os h
ow e
be zeichnung
Sch ule
Ġstud io
ĠPf alz
vers orgung
Ġteil nehmen
ĠTer ror
Ġcontin ues
ĠHit ler
W ird
Ġb rief
Ġer geben
ag on
Ġme x
ĠMot iv
Ġbefand en
ĠMun icip
ĠOsnab rÃ¼ck
in tend
ar ks
ĠR ic
Ġan aly
ĠSt ich
ad i
Ġ6 3
ĠAm ateur
Ġ188 2
ĠTour ismus
Ġsex ual
Ġveh icles
S ow
T E
Z e
ĠP seud
ĠF ab
Ġge legt
Ġum s
Ġbes etz
Ġev idence
ĠMag n
198 8
forder t
ĠKo operation
ĠFal un
Ġschwed ischen
/ >
l alom
o or
z ed
Î µ
Ġf ederal
Ã¼ mm
ĠH amm
ĠL ed
Ã¶ scht
ĠIn g
ĠHe er
Ġbu ying
ĠTer r
bereich e
ĠprÃ¤sent iert
Ġlok alen
Ġm ist
ĠB ull
ĠD ollar
Ġdie d
Ġ( ).
Ġge legentlich
Ġges te
arr iage
Ġaut o
ĠRechts anwalt
ĠEis hockey
Ġpromov ierte
ĠKrank heit
Ġreli able
T ER
V I
Ã ĥ
É Ļ
ch i
ic ian
ĠU SB
Ġdem onst
op Ã¤d
ĠAus stattung
ĠVerb indungen
Ġmark ets
For m
Ġtrat en
Ġfac ility
Ġhappen ed
Ġmem ory
ĠErk rank
lieder ung
R o
ĠP ur
Ġn annte
ĠF A
ĠE va
Ġan fangs
ĠSch uld
Ġst one
geb iets
Ġapp oint
Ġsc ore
ĠHand lung
ĠReich es
ĠGal ax
hoch schule
Ġaf ternoon
Ġsatis f
ĠWeib chen
h Ã¤
l ein
ï ¼
ĠS auer
ĠG U
ĠE xt
ĠH alt
ĠL Ã¤nd
ĠSch ei
ĠSp eicher
Ġgo vern
fin der
Ġmed ium
Ġtechn ische
Ġchar akter
Ġmein em
ordin ate
Ġbestehen de
Ġpaint ing
Schwei zer
c s
y o
er z
Ġo d
ĠW itt
lie gt
Ġunter gebracht
act ions
ĠFre ist
Ġthere fore
Ã¤nger ung
Ġaut om
ĠGest alt
Ġinde x
P lan
e ist
ĠB am
Ġh yp
ĠK itchen
ĠC hen
ĠN am
Ġk onst
ĠVer z
sp art
ĠBe u
ĠAr gentin
Ã¤t igung
iz ona
ĠNach wuchs
ĠMe eres
ock et
lex ikon
ĠOn ce
Ġspe ak
ĠHel m
Ġern annte
Welt meisterschaften
ĠKonfl ikt
y ard
Ġt ask
Ġc row
ĠC er
uss y
ĠLe wis
auf nahme
Ġbeste hend
ĠBen edikt
Ġruss ische
ĠAngeb ote
ĠpersÃ¶n lich
Ġsqu are
ĠKrim inal
Fra uen
Ġstellvertreten der
Ġnov el
O ver
c ard
an th
ion ier
Ġp urs
ĠG Ã¼
ĠK rÃ¤
all iga
ant on
Ġges und
sk op
ĠUm gang
ĠFre der
ma jor
ps ych
Ġworld wide
Ġcoun ter
ĠRena issance
P at
m ach
us k
ĠK el
ĠC os
ĠV iz
ru cture
ĠSp irit
ok er
ond a
ine a
ĠMill iarden
Ġ187 6
ĠSam uel
Ġfil led
ĠHÃ¶ch st
F il
O ktober
w ird
ĠM aschine
ĠL ED
Ġbe er
Ġch amp
auf nahmen
ĠAb stand
ĠUm fang
ĠBes onder
Ġ186 5
abr iel
Ġsex y
Ġenjoy ed
Ġbevor zug
rim in
ĠOrganis ationen
r isch
w inkel
Ġs it
ĠS itze
ĠT ake
ĠW hether
ĠR ome
qu em
amm ern
gesch lecht
ĠGeb irg
ĠBÃ¶ hmen
H am
h ou
s Ã¤tze
u ben
al ition
ier er
ver lauf
ĠCo ast
Ġtem plate
Ġkur zer
W ien
g ard
in str
Ġs um
ig s
ĠG au
op her
ĠSp ur
ĠAnd erson
ĠBes onders
arb y
ĠPhil adelphia
Ġfact ors
Ġrun s
Ġorganis iert
ĠChampions hip
ĠPremier minister
Ġlux ury
ĠOrch estra
repr ene
R ed
en te
Ġd eine
Ġs ources
Ġc ultural
ĠH T
ĠSch la
Ġver anst
ĠEr ic
ste chnik
Ġex change
ogra p
anc er
Ġval id
deutsch land
gesetz ten
Mus iker
ĠLÃ¶ wen
ĠAng st
ĠPreuÃŁ ischen
Ġurkund lich
G H
Ï Ĥ
ĠK ader
ĠW Ã¤r
rat h
Ġad apt
Ġmehr erer
anc en
ĠPra kt
ĠRog er
ĠZus atz
ĠF ast
ĠF ore
ten nis
ra f
Ġper haps
Ġpart ies
Ġra ised
Ġ186 2
En g
lÃ¤nd ische
Ġruss ischer
ĠJes u
Ġwatch ing
Ġwalk ing
ĠSing ap
Ġd unkel
ar is
al and
ĠR oland
Ġan lÃ¤sslich
per iode
ret ung
ĠPa der
Ġsho es
ĠLin den
auch en
Ġpark ing
maÃŁ nahmen
ĠIndustr ial
Ġfig ure
t al
Ġa gency
ĠR ess
ĠAn alyse
ap est
rit ts
In nen
ĠMus ter
Ġany where
ĠBo gen
Pro gramm
ĠMag azin
ĠSen at
ĠStraÃŁen bahn
ĠMaterial ien
ĠNahr ungs
Ġbatter y
h ops
te gie
ĠB ry
Ġ1 15
Ġp ul
ir ts
me te
bau en
ĠOber Ã¶sterreich
dienst kreuz
fre und
Ġpract ices
Ġunivers ity
reu ung
ĠQue en
Ġkor re
htt p
D av
M at
Å Ľ
or ganis
Ġf arb
le ar
Ġm ental
ĠR E
ungs gebiet
19 18
me yer
ĠFor est
Ġcre am
ĠPort al
ĠSm all
ĠursprÃ¼n gliche
Jahrhund erts
E very
O p
R ock
S L
g Ã¤ng
te ine
ig ers
Ġc ivil
ind ungs
Ġ18 40
ĠAl ben
Ġzum eist
ac c
Ġges ucht
Ġda ÃŁ
ĠKr one
ĠschlieÃŁ t
ifiz ierung
ĠWehr macht
ĠNomin ierung
vorsitzen der
s ing
Ġd ipl
Ġs orgen
Ġbe zieht
ck ing
Ġe hren
ĠSp aÃŁ
ĠEin en
Ġum gebaut
auf trag
Ã¼nd en
ĠHalb insel
haupt stadt
vier tel
ĠAllgemein en
ĠVerÃ¤nder ungen
Disk ografie
H P
N ode
ĠH agen
Ġge zogen
ĠBe cause
St ar
licher weise
Ġshow ing
ĠPrÃ¤ fe
Ġleader ship
Ġassist ance
Ġjoin ed
P ersÃ¶nlichkeiten
b ut
p rÃ¤sidenten
Ä Ļ
it age
at om
ĠB rie
ig ration
ĠG on
ĠT oy
ach ing
kt op
ag ers
Ġde als
od ies
Ġwe isen
Ġman aged
ĠKon stant
ata illon
Ġexper iment
ĠOff iz
ĠendgÃ¼lt ig
Ġacadem ic
> ,
Ġin stitut
ĠD inge
ĠK Ã¼hl
ra ucht
ĠH ild
ass o
iz ierte
lan ge
Ġacc ident
ĠOber flÃ¤che
ĠJu an
iges etzt
wei ÃŁ
Ġperform ed
Ad d
herr schaft
ĠPass ag
ĠWissenschaft ler
Ġfabr ic
ĠEntste hung
ĠCanad ian
B I
T itel
Ġ </
Ġd inner
ĠF iction
ĠH ed
Ã¼r f
ik um
ĠZ usÃ¤tzlich
Ġunter scheidet
geb oren
ss el
ĠInter pret
Ã¶t zen
ĠComm on
Ġzeit weise
ĠAben teuer
ĠKauf mann
Ġfa ith
ĠÃľberg ang
S aint
Ġf avour
ĠL okal
ĠN iger
ĠO m
Ġzu gÃ¤nglich
Ġis land
ĠSe g
tem peratur
fre ie
Ġauth ent
ĠEben so
Ġkathol ische
Ġdisk ut
E m
Ġt om
Ġn av
ĠG ross
ik te
sp iegel
ack s
Ġapp lied
Ġhel pful
Ġknow s
opp ed
aur us
ĠKn ow
ĠMo z
Ġverl Ã¤ng
ĠKandid aten
L ebens
O D
W as
lich em
Ġle ather
Ġcomp l
Ġhin ten
Ġpol ic
ĠBrun nen
Ġprepar ed
una tely
ĠSchlag zeug
Y our
a al
g asse
as ar
Ġre ference
ĠSch nee
Ġet h
ĠAut hor
emb ly
Ġschl ug
ĠEth n
Ġasp ects
Ġa u
or ter
Ġm ale
ĠK ul
Ġl ernen
ow itsch
Ġne ut
Ġnach gewiesen
ĠUn sere
ĠCh ance
ĠOr th
Ġtrans l
ĠschlieÃŁ en
Ġgar age
ĠColle ction
Ġstamm te
Ġcele br
Ġfertig gestellt
Ġexer cise
Ġw al
at ische
he w
ĠB BC
ab ilities
Ġst Ã¤rk
Ã¤n glich
ĠBer atung
zeich nete
Al t
Ġeinfach e
Ġ185 6
Ġallgemein en
ĠBeteil igung
kÃ¼rz ung
J uli
U nd
i ors
v et
is tern
Ġin tegra
Ġk ombin
Ġy outh
ĠSch au
ret ch
ĠFre itag
ĠPol ice
Ġa udio
ĠA y
ĠM inder
ĠR ie
ic us
ot ton
Ġr uh
ger Ã¤te
Ġwas te
Ġdo ctor
ĠGer Ã¤te
Ã¡ r
ĠMittel punkt
Ġclos ed
Ġexcl usive
Ġabger issen
profess or
] .
a ver
b ist
h es
ĠS K
Ġk Ã¤mp
art ikel
ho e
Ġunter lag
az itÃ¤t
Ġgen annte
Ġeigen er
Ġlang sam
Ġpract ical
ĠDÃ¶r fer
c les
Ġ icon
Ġd Ã¼n
ĠM Ã©
ĠDe ath
ĠEn ter
ren ce
fahr ten
br onn
Ġdec isions
ĠfÃ¼nf ten
ĠWahl en
ournal ist
Ġimport ance
Ġtest ing
Ġfocus ed
ĠDokument ation
ĠSom it
M C
S m
on ischen
ĠT auf
ĠV f
ĠSch ne
ht ml
Ġle hn
ĠGem ark
Ã¼t ter
bild ungen
Ġhin ein
Ġdec ide
ĠAth let
ĠExp ed
Ġbreit en
ĠGreg or
ĠLiss abon
C up
D is
L A
R S
e ister
Ġ ice
an es
ĠA er
ĠD ance
ĠF as
ĠG ert
Ġst arten
ens us
Ġar m
Ġvers etzt
ĠReich stag
Ġander es
Ġcolle ct
Ġmen u
Ġconne cted
ĠGÃ¼n ter
ĠDiet rich
) -
U C
k os
or p
ĠS ac
ĠI ron
ĠL ust
ĠC P
Ġge le
ab len
ver g
ĠAl uminium
ĠEin er
atur en
St affel
ool s
mÃ¤ÃŁ igen
sw ers
ĠÃĸsterreich s
US A
ĠDenn och
Ġlaunch ed
Ġerlang te
v arian
ĠB atter
ĠF ein
ĠRe f
sen der
Ġso unds
Ġ8 8
ĠEx press
pen den
Ġtr uth
Ġsw itch
jen igen
ĠlÃ¶ ste
endo ktor
s ub
ar isch
ar ischer
al in
ĠM ember
ig i
ĠK ino
Ġsch Ã¶ne
ĠPl ant
rol og
Ġ186 3
Ġ186 8
Ġbrand s
Ġadvert ising
g Ã¤
Ġa st
âĢľ ),
be cken
ite ten
ĠY am
ĠUnter richt
Ġet hn
ĠJuni or
Ar beit
ĠMill er
Ġdamal ige
Ġkont roll
ĠViertel finale
Ġanim als
ĠEntfern ung
A ustr
u is
v ents
ĠS ache
Ã¶ tt
ul iert
if orm
ĠIn schrift
ant in
Ġlie fer
Sie g
Ġ186 1
ĠRo hr
198 5
He ute
eten z
isc ons
ĠContin ue
ĠColor ado
ĠG oth
ien te
Ġver ab
ind ing
Ġle aving
ian i
ĠSe en
ult y
Ġfe ierte
Ġvis iting
Ġsmall er
ĠKons erv
Ġstrateg ies
ĠTschech ien
Ġconven ient
E nde
er ie
ĠR un
ĠJ ar
Ġr ule
Ġ18 15
ac ter
old ing
ĠMill ion
Ġ187 7
Ġprom ote
Ġerm or
ĠKan al
ĠS ed
ĠS now
ĠA cker
ĠM ul
Ġein heit
ies e
19 39
ark e
co hol
Ġschw ere
Ġfre ige
Ġgl ob
Ġpriv acy
Ġeduc ational
ĠBot an
Ġproduz ierte
ĠVerteid igungs
M useum
S onst
in ne
Ġc ry
ĠH ave
ĠL ein
ĠJ am
ĠSch Ã¼l
Ġj o
etz ungen
rat or
De zember
Ġopt ional
Ġgener ation
Ġdur fte
leb nis
beg inn
D ivision
f as
h ungs
v ia
Ġ 00
Ġv i
ĠG or
Ġz ul
Ġver tra
Ġaus gebaut
ĠRe aktion
19 75
ĠCh ile
Ġ9 6
gew inn
arr ier
des ign
stud ium
spl atz
F irst
H S
J ugend
M ont
k ind
it Ã©
un ting
ĠD OC
st ens
ĠC ann
Ġbe comes
ier endes
ib r
ĠPr ice
Ġdar stellt
Ġget roffen
Ġwork ers
Ġcount y
ĠBad minton
ĠStÃ¼ck e
ĠSzen e
Ġverwende te
Ġregister ed
ĠBM W
B aden
s inn
ĠB urn
ol s
ĠT u
ĠK la
ĠK orea
ĠL iving
ĠVer wand
Ġwh atever
ĠEin kauf
ĠDe leg
ph il
ĠMag azine
Ġkomp on
Ġident ify
Ġjapan ischer
Ġill ustr
ĠÃĦnder ung
Ã ī
is or
st ate
ĠJ ury
ĠU rauf
Ġj ava
Ġi P
Ġum stritten
ian z
Ġag ree
ĠHand werk
ĠĊĊ Ġ
ĠProdu zent
Ġshow ed
Ġprocess es
ĠSied lungs
Ġwirtschaft lichen
ĠTschech oslow
ĠZent imeter
ĠLeichtathlet ik
Ġzuk Ã¼nft
E E
P e
p ap
x id
er ei
it ial
ĠB ah
Ġp m
ra gt
ĠR ow
Ġr ing
och em
ac o
Ġad ults
ĠGemein sam
ĠEl f
leit en
Ġsur f
Ġstar ts
Ġtop ics
ĠFer r
ĠSouth ern
Ġgelang te
Ġbestand en
Ġcaus ed
ĠCharl otte
ĠAnh Ã¤nger
S ome
Ġa fr
ĠH us
Ġver teilt
Ġpro min
Ġres ource
Ã¶ff net
ĠEl izabeth
ific ations
ĠÃĸsterreich ischen
bra un
ĠWass ers
ĠGriechen land
ĠArz ne
A uss
K om
c op
el ing
ĠP ad
ic i
Ġer ror
ĠSt one
ĠSt aff
ĠVer g
ho fer
ĠCh air
lo aded
Ġfe e
Ġapp ar
Ã¤hl er
ende te
198 6
ĠHerzog tum
ĠMaler ei
Ġzwe ier
Ġelect ronic
omot ive
ĠFass ung
ĠHir sch
ĠErinner ung
ĠPak istan
Ġf rag
ĠB apt
ĠE arl
Ġaus fÃ¼hr
ger Ã¤t
Ġerw eiterte
fort unately
ĠSa tell
Ġdan ger
zep te
w eiten
Ġin folge
Ġn a
ĠG ieÃŁen
ĠE C
isch t
Ġ3 50
Ġman ual
ĠAus schuss
Ġsc ale
ĠAndre a
ĠModer ne
Ġschwed ischer
N ummer
t ario
ĠA ur
ĠA uÃŁ
ĠG ymnas
am o
ĠK av
ĠK ai
Ġbe wohn
au c
oun ted
ĠGra ph
port al
ĠBr idge
ĠX ML
ĠMeister schaften
ĠFest ung
ĠFle isch
ĠergÃ¤n zt
ĠKurfÃ¼r st
cycl op
Ġbeinhal tet
B ox
W ind
ĠM obil
ĠH aw
Ġg rÃ¼n
19 70
igh ted
Ġem otional
Deutsch e
ĠĊĠĊ ĠĊĠĊ
scheid ung
ĠHon or
wechs elt
Ġschaf fte
i ang
Ä ħ
Ġt ickets
ĠD rit
ĠG anz
ĠK h
Ġc up
ĠZ Ã¼ge
Ġj u
Ġnach halt
tell ers
amp en
lieÃŁ en
ĠEx ecutive
ĠTr ip
Ein wohner
ĠParis er
forder ung
ĠS ams
ur ies
le ts
ĠB in
ĠL ip
Ġst ir
Ġar range
ĠAd resse
ĠMin i
zeug ung
ÃŃ o
Ġpo et
Te il
Ġhapp ens
writ er
Ehr ungen
ĠBres lau
f angen
v inz
or o
ĠS z
ur ger
Ġm anner
sch iffe
Ġk Ã¼nd
ĠZ unÃ¤chst
Ġfor eign
ĠVer fassungs
Ġdurch aus
igh ter
Ġste igen
ĠBl umen
Ġcont ain
ĠNor mal
kehr t
ĠRes erve
ĠSpe kt
ĠKat alog
197 4
Ġcomb ined
Ġprevious ly
ĠNikol aus
S an
w irt
al ters
Ġde ut
Ġsp ann
ok u
Ã¤t zt
ĠDe finition
ĠAus gaben
Ġsol cher
aud i
ĠSar ah
Ġanerk annt
Ġbegrenz t
ĠFranÃ§ ois
B Ã¼
D ire
H Ã¶r
Ġin ne
ĠB at
ĠM es
ĠT ransp
ĠC ommer
Ġe ating
ĠZ DF
ct ural
Ġj ump
Ġab hÃ¤ng
ĠCh a
aw ay
the ater
ĠDu isburg
Ġaff ect
ĠAutor in
Ġzentr ale
ĠNaturschutz gebiet
Ġbirth day
Ġextens ive
E hren
k Ã¤
Ġa th
Ġs a
ĠS ummer
ĠE ro
ĠW ellen
ĠR au
ĠSp uren
19 33
iz za
Ġnot es
amt es
ĠRes te
ĠhÃ¶ here
ĠPader born
Ġv ieler
st ers
ĠF la
Ġk inder
sp h
Ġ8 4
ĠChrist us
Ġben annte
apt op
ĠGed ichte
Ġober halb
Ġlog o
Ã¼ste t
Ġinspir ation
Ġlib rary
ĠverstÃ¤r kt
ĠHig hl
ĠMom ent
H el
r unden
re ll
Ġb Ã¼rger
ĠB lau
ĠG n
âĢ ĭ
ĠE mer
ra hlt
ent liche
Ġver haf
Ã© l
ĠFor der
... ]
ĠGesch Ã¤ft
zw ungen
Ġverb esser
ĠSÃ¼d west
Ġpar ent
ĠLie b
ĠBereich e
Ġerfolg reichen
ĠCom ic
ĠIr land
Ġvol ume
telligen ce
zust and
ĠSchlieÃŁ lich
J Ã¤hr
w ein
in ent
Ġd az
Ġw inning
re uth
ĠJ ungen
ĠSie gen
ĠOr igin
ĠSe a
ĠAb out
ĠHe art
Ġgew eiht
Ġges prochen
ĠPh oto
ĠKon zentr
ĠKunst stoff
Ġwrit er
Ġallow ing
rim inal
Ġdiscuss ion
ĠVerteid igung
ĠCast le
Ġgefert igt
gesell schaften
B ra
ĠM obile
ĠW iesen
Ġl ights
ĠV ide
Ġdes selben
Ġsp ons
ac ional
Ġ6 7
Ġlie ÃŁen
man ischen
ĠGer Ã¤t
Ġger iet
ĠAnt rieb
ĠBen jamin
198 2
Ġpattern s
Ġobt ain
E le
i ak
i ierten
ĠK Ã¼r
sch ild
ĠVer stÃ¤nd
ĠDie go
hen de
ĠSe arch
ail and
Ġres ume
198 3
ĠGraf ik
ĠOl iver
Ġkanad ischer
E FA
L P
z lich
an alyse
ĠR ainer
and t
Ġth us
Ġdem on
sp rÃ¤sident
ss ystem
ĠAus fÃ¼hrung
Ġcomp la
ĠCon tent
glieder ung
Ġgeboren e
Vor pommern
ĠSyn ag
Ġmass ive
Ġenvironment al
Ġmanufact uring
qual ity
ĠKolle gen
Ġjem and
iscons in
B M
L iter
n ur
Ġt oll
or ded
ĠA udio
ĠB uck
ĠL izenz
ĠV ikt
ot ions
Ġmit tlere
ok es
ĠAus bildungs
ute te
ĠUm feld
Ġcl im
ĠPol iz
Ġ: )
Ġphot ography
ĠSen ior
ĠErw Ã¤hnung
Ġfeature d
Ġinj ury
Ġpers pect
ĠGemeinder at
B rite
l at
w id
Ġa rab
un fts
sch ung
em an
ic z
ĠC reat
Ġe legant
our cen
ĠAn z
ĠThe ir
verein igung
ĠFrei will
Ġarch Ã¤
Ġdat abase
Ġhund ert
Ġunters ucht
mosph Ã¤re
ĠPac ific
el ines
ĠP okal
ĠG rupp
ĠG Ã¶t
Ġl abor
Ġge langen
ill en
Ġj ener
Ġsch eiterte
Ġme ant
Ġch ron
use ums
ĠzurÃ¼ck gegeben
ĠFr iend
Ġdel la
Ġeinfach en
ĠRuss ian
ĠS yl
re land
ĠM ode
ĠD ich
ĠT ai
ĠR up
ul ate
Ġre pe
ĠZ ell
ĠAn st
gr at
ĠHe x
ett ing
ĠMus ical
ĠfÃ¼hr enden
gef angen
ĠBilder n
Ġdeb Ã¼t
fÃ¤h ig
ĠPrinz essin
ĠCla ud
ĠLeg isl
ĠVert rieb
ĠCorn el
ĠMÃ¶ bel
Ġcompon ents
s Ã¤nger
ĠB org
ow o
ĠRe vol
ĠAl f
form at
Ġtr end
Ġbel ief
Ġgleich er
Ġed ge
ĠRu he
ĠFil men
hÃ¶ fe
ĠverfÃ¼ gen
ĠverfÃ¼ gte
Ġrecommen ded
ĠRÃ¶ mer
Ġdiscover ed
Ġtemper ature
Ġwom it
Ġa ware
ĠA D
ĠB arb
ĠI O
ĠL ange
ĠC ivil
ĠSt att
Ġis rael
we iger
rÃ¤ umen
Ġtechn ologies
Ġsur vey
ĠSa al
fre ien
hor st
Ġrom ant
Ġverbess ern
G C
a ire
b ring
à ¥
Ġs izes
Ġb au
ĠM alt
ĠI gn
Ġg rÃ¼nd
Ġk irch
Ġan sonsten
af ft
me chan
ĠKl eine
ĠBr ian
Ġgesch ieht
ĠPart ien
gÃ¤n z
Ġdoc uments
fÃ¶rm igen
VerÃ¶ffentlich ungen
franzÃ¶s isch
b org
Ġan g
sp ect
Ġcomp let
Ġ8 3
iker in
ĠChr isten
Ġakt ual
arch ie
Ġ% .
ĠDaten schutz
Ġ185 4
Ġangeb racht
ĠFel der
Ð¾Ð ²
A ccess
P P
U l
ĠS W
Ġm ine
ĠB iele
ĠM Ã¤rchen
ĠF I
ĠK orn
ĠW esentlichen
Ġg ay
and al
Ġy esterday
Ġzu gelassen
Ġde fe
ok us
19 78
ĠIm age
fol io
ĠPr ix
Ġother wise
fÃ¼ llt
Ġwould n
Ġmost ly
ĠAmer ika
Ġexp ensive
ĠGu ard
Ġpos itiv
ham mer
zir ke
ĠHin weise
ĠpersÃ¶n liche
Ġrepla cement
ĠAtlant a
Tod ay
W ei
j ahre
r ale
ĠF ox
ĠW alk
ia c
Ġcon cl
fr ies
ĠMittel meer
198 7
ĠSilber medaille
ĠtÃ¼rk ischer
H ar
Ġf uel
Ġh ook
ut ors
ach el
ĠO ster
Ġne ck
Ġ18 30
Ġex ec
Ġco ast
ĠMan chester
Ġ0 1
Ġgar ant
ĠRegel n
figur ation
Ġbem erk
Ġschwar zen
' ,
ĠM etz
ĠD ig
ro skop
ĠG ent
ĠG ord
ĠG ong
ier mark
ĠSch icks
ĠRe isen
Ġle hrte
20 21
amp s
zw ei
ace ae
Ġerfol gen
ĠDis ney
ĠMÃ¤n nchen
Ġupd ates
Ġther apy
ĠDrehbuch autor
Ġhundred s
D enk
E t
H A
h Ã¤usern
ge legen
ĠM A
ĠK Ã¤rn
ab ul
ĠSch atten
Ġhe ft
Ġ6 9
ĠGesch mack
ĠAnd ere
spieler in
Ġshe et
Ġakt ive
Ġfest gelegt
Ne u
Ġnor m
Ġcontin ued
Ġoffen bar
Ġspecific ally
ĠMult ic
Ġwid mete
ĠDokument ar
ĠAltern ative
ĠVerantwort ung
ĠVerbesser ung
K ey
ĠT an
ĠN ationen
ĠZ er
iz ens
wei he
b ringen
m Ã¶glich
Ġf ly
ĠB ag
Ġaus gewiesen
ĠBe ispiele
ĠMar s
ĠAd vent
Ġdr ivers
ĠÐ ¿
ĠHa wa
Ġtrotz dem
Ġestabl ish
n s
it ate
te en
ĠS G
ĠD id
ĠAn erkennung
Ġj en
ĠAl i
ĠGeb rauch
Ġbew usst
ĠFrei herr
ĠLes er
ĠRett ungs
Ġuntersch rieb
in fo
Ġv ul
ĠD ob
Ġo k
Ġk Ã¶rper
ill o
aus geber
19 14
Ġte a
amp e
Ġ7 7
Ġspec ies
ĠGo ethe
ĠMill imeter
Ġfamil iar
Ġinst r
Ġtot ally
Ġgesp eichert
ĠEnts p
Ġsor gt
Hinter grund
F ebru
W or
l enz
on te
ĠF usion
Ġl aufen
Ġvor der
Ġlie genden
ĠCar lo
Ġcons istent
Ġbo at
Ġsub s
ĠKrieg sende
ĠKirchen gemeinde
ĠHerr scher
196 8
Ġtradition ellen
Ġfil ter
Ġfeed back
Ġmention ed
ĠsÃ¤m tliche
A re
E A
Ġin nen
us ted
Ġm outh
ro vers
ĠG leis
Ã¶ ten
ck te
Ġk aiser
ĠAr izona
ens is
land schaft
Ġes c
ĠEn tertainment
Re zeption
Ġevery day
Ġdire kte
ĠBahnhof s
ĠSum me
ĠFant asy
K inder
P okal
n ischen
à ¹
ĠD ienste
Ġge laden
Ġsp aces
par ks
ĠVor bereitung
Ġher um
ĠEs c
ĠKl ang
ĠMon ats
Ġstatt f
ĠAss istent
film ung
AT O
Ġcompet itive
Bo ot
ĠLate in
A lex
E X
M ain
T op
ch o
ch nen
ĠG ur
et a
ĠL iv
ĠEin stellung
ĠAuf ruf
Ġqu iet
Ġcl imate
Ġger inge
Ġinst ant
Ġ185 8
Ġintrodu ced
ĠniederlÃ¤nd ischer
Ġkauf te
ĠBundesver dienstkreuz
F B
K W
M o
R ec
or ium
Ġw Ã¤hlen
Ġm ort
ĠB row
Ġl agen
Ġab s
Ġ3 000
Ġcon text
hal ter
tra ck
amil ton
ĠPr ior
igh ten
ĠSpiel film
ĠKap itel
ĠTechn ologie
ĠverÃ¶ffentlich ten
ĠBut ton
Ġsign ed
Ġbuild ings
ĠWahr heit
eme ister
Ġprem ium
ĠBesatz ungs
ĠKonstru ktion
BÃ¼rger meister
Ã¶tzen see
S im
i Ã¨
k anz
p unkten
ĠM af
ĠP ersÃ¶n
ĠG abriel
Ġc ells
ĠR och
ul ated
Ġe gg
ĠAn sicht
rie t
Ġvor ne
ide t
ett i
ĠEx istenz
sh ips
ĠOrt schaften
buch autor
ĠDr ama
Ġgewann en
Ġpass iert
Ġ185 9
ĠVertrag s
ĠEben falls
Ġmajor ity
Ġfield s
Ġricht ige
nehm ung
ĠEreign isse
A A
B u
x y
ĠM innesota
ot ische
ver k
ru cken
ĠAr me
Ġ14 0
Ge org
ĠHar vard
ĠEvangel ischen
abil itÃ¤t
ĠBrig ade
H i
e ber
ĠM all
Ġ( "
ĠW ende
ĠW inkel
ĠO S
ĠVer sch
ind s
ĠSp ark
Ġsp ir
Ġsp ending
St a
ĠBl u
ĠAll tag
Mit tel
ĠHoch schul
ĠOb ama
Auf grund
ĠVerl Ã¤ngerung
O V
Ġ Ê¿
Ã¤ s
ĠD oc
Ġthe ory
ig l
ĠE ver
ĠC irc
ĠVer tre
Ġab gest
Ġwor ry
ĠMar io
gesch Ã¼tz
ĠIt aly
Ġverb re
Ġger inger
Ġdel icious
Ġprocess ing
west lichen
Amer ican
ĠÃ¤lter e
ĠWissen schafts
ĠRelig ions
Ġsurround ing
ĠAlk ohol
B rand
L isten
b Ã¶
k ette
us es
us her
ĠA venue
ĠSch mer
ĠIn stanz
ĠAl an
ĠAl les
eld ungen
Ġvers uchen
Ġmach ten
Ġbil deten
Ġbra ucht
Ġlead s
ĠNap ole
ĠEber hard
d ner
u ers
Ġb rown
ĠW und
od ie
se y
Ġ18 49
Ġ7 6
Ġpl ug
ĠUr ban
ĠAuss age
ĠAuss tellungen
Ġfilm s
ĠRein hard
Ġspeziel le
Ġpan el
ĠIntegr ation
Ġenh ance
ĠKonstant in
c ons
f rÃ¼
Ġd ates
Ã¼ re
ĠG le
ĠR olf
ĠC ass
ver lÃ¤ss
tel finale
ĠVer handlungen
ĠAl though
Ġar ts
Ġnoch mals
hel ms
Ġrem ains
ament o
Me hr
Ġinner en
Ġvert rieben
ĠAp ost
ĠStad ium
Ġple ased
ĠMem orial
ĠZuf luss
ĠPers pekt
S ervice
m ers
Ġ iron
ĠS ax
ĠM Ã¼hlen
Ġk Ã¼nft
ĠSch Ã¼tzen
id ad
Ġch arm
Ġup coming
els on
Ġapp s
ĠPol icy
ĠBar th
esse e
ĠNorth ern
ĠKommand eur
ĠMerk male
ĠSehen swÃ¼rdigkeiten
ĠgrundsÃ¤tz lich
S chn
T it
m os
Ġm arriage
Ġv ent
Ġv ote
ĠJ etzt
we et
end ungen
ĠMit be
ĠNe uer
ron ik
ĠOber bÃ¼rgermeister
ĠFahr rad
ĠMor itz
198 1
ategor ies
deck te
ĠHin weis
Ġrestaur ants
ĠKop enhagen
ĠRy an
p oint
ĠB ibel
Ġp oll
ĠW ird
ĠC ell
Ġbe it
Ġge fallen
19 30
ĠHe ck
pro ble
ual itÃ¤t
ĠEx tra
Ġbef re
Ġur ban
ĠNS DAP
Ãĸsterreich er
Ġflow ers
ĠNiederland en
Ġvalu able
Ġpolic ies
c or
z it
Ġt aus
Ġb ike
ĠH at
ic ial
ach se
ĠJ eder
19 38
Ġgew Ã¶hn
Ġ12 5
Ġob vious
ĠAnd rÃ©
ĠSh ort
ĠInd ones
Ġ185 1
ĠNeu zeit
Ġcla ims
ĠerfÃ¼ llt
ĠMaxim ilian
Ġverhaf tet
K e
w affen
ĠB ein
im o
Ġbe igesetzt
Ġch ain
ĠBer ge
ĠUS S
rieg s
Ġind ic
ĠInd iana
ĠZu cker
Ġmin or
Ġerfolg reiche
laub e
Inter ior
Ġarchite cture
B ek
F o
L uft
m ade
z usammen
Ġt as
ĠD afÃ¼r
ĠP ont
ĠL och
Ġbei der
Ġdies mal
ĠMar sch
ĠIm per
Ã¤hr en
yp en
ĠStud ent
Ġerw artet
ĠLeip ziger
Ġkind s
Ġmanufact urer
ĠSupp ort
ĠAT P
Ġcabin ets
Ġbehav ior
ĠSchwier igkeiten
Ġinstr ument
C al
in th
it als
Ġin ternal
Ã¼ se
ĠB enn
ing ly
ĠP age
ol id
Ġbe her
Ġl abel
ĠO berg
ĠNe ck
man uel
oh ne
ĠBet on
ĠIns besondere
ĠKo ordin
ĠStÃ¤d t
gere chnet
ĠKategor ien
Ã¤rt ner
ĠKÃ¼nst lern
ĠbeschÃ¤d igt
ĠS U
Ġdie t
ĠL ov
ow itz
Ġst unning
Ġfor mal
Ġun gewÃ¶hn
Ġsp anischer
ĠLand s
Ã© d
Ġsc ript
Ġfl ight
Ġgu itar
Ġpos it
Ġmax imum
Ġask ing
ĠStock holm
Ġausgew Ã¤hlt
Ġschwar ze
sprÃ¼ che
g age
en ten
ie u
Ġp utting
ol t
am ar
ĠR app
ĠC laus
Ġle aves
ĠCh rom
als ieger
ĠPl Ã¤ne
ĠBr ut
ĠNord amerika
ĠKreis es
ĠDem onst
ĠHier bei
ush ing
ĠTre ffen
Ġleben s
ĠBud apest
ĠRÃ¤ ume
Ġpresen ce
ĠChild ren
L ook
g io
m outh
Ġ ..
or ough
Ġin iti
Ġf unds
ĠB og
ĠD NA
st ufe
ĠW art
Ġk Ã¼rz
Ġre volution
men ted
ĠMit tler
ans ion
Ġ8 7
St at
ĠUnivers al
An fang
Ġsc re
Ġbef est
Ġeinge gliedert
orge ous
ĠMÃ¤n nern
ĠJac ques
ĠdÃ¼r fte
ĠmilitÃ¤r ischen
J o
S I
c lass
È Ľ
Ì Ī
Ġc red
ĠEr klÃ¤rung
ru gen
ĠFre md
Ġ13 0
Ġmin i
Ġeff ekt
Ġbre ite
Ġprepar e
Ġencour age
Ġagre ement
merksam keit
inu ier
Ġneighbor hood
te e
ĠS eminar
ĠB itte
ĠP A
ĠP ict
ĠP osten
ĠW Ã¶rter
ĠJ ubil
ĠSt ore
Ġwar um
se a
ĠAl ice
Ã¤t tern
Ġor th
Ġex amples
berg s
ĠKon stanz
Ġbeg ins
Ġgesch lagen
Ġrem ote
Ġleg isl
leist ungs
Ġged reht
RE E
ĠjÃ¼d ische
ĠTown ship
ĠPrÃ¼ fung
Ġforder te
! âĢľ
Ã °
Ġb onus
Ã¼ ch
st rÃ¤ger
Ġh arm
ĠF alle
Ġver an
ou is
Ġvor genommen
Ġunter wegs
Ġen ded
ĠÃľber blick
Ġdire kten
Ġappear s
Ġmiss ing
Ġzerst Ã¶r
Ġclin ical
Mart in
K ar
n ik
in yl
ĠW under
ĠR ace
ĠJ ay
Ġth row
Ġan imal
19 60
ĠDe kan
lo yd
Ġmehr mals
bar er
gesch icht
Ġ0 4
ĠWerk statt
ĠVolks zÃ¤hlung
ĠProfess ional
Ġtre es
ĠLim ited
Ġparticip ants
Ġverwende ten
E lekt
L og
n isses
z uge
he ben
ĠR as
ĠR uth
ĠSt ars
Ġre aders
id ays
ĠÃ¼ber gebenen
Ġres ol
Ġ16 0
ider s
ĠCar los
ĠAll gemeine
Ġsur gery
Ġter min
ĠSol o
chten stein
197 9
Ġmag net
frei heit
ĠPrÃ¼ f
ĠTok io
Ġhous es
Ġinkl usive
ĠRuh estand
ĠdebÃ¼t ierte
F ranzÃ¶s
K lass
k k
s burger
Ġs itting
ĠB od
Ġto ward
iel ler
ok a
Ġdec ades
Ġgreat est
yl on
ĠEt appe
Ġhervor ra
ĠProm otion
wÃ¼r fe
ĠJahrzehn ten
frist ig
Ġbeobach tet
P ass
d orfer
ĠS ingles
Ġm ont
Ġv illage
ĠH ern
um es
eb au
ob i
Ġbo und
ĠSil ver
iam i
zy linder
Ġautomat ically
wh at
V ier
W asser
Ñ ĩ
ie ber
ĠF an
âĢ ¢
Ġl anger
Ġst ars
Ġst yles
ĠIn v
sp itze
19 28
Ġat mosph
Ġ7 1
ĠKon kurrenz
Er zeugt
ĠArbeit geber
Ġocc asion
ĠEigent Ã¼mer
Ġengag ierte
Ġausgeb ildet
Gr und
Ġcloth es
ĠeigenstÃ¤nd ige
ĠTrain ings
ĠWupp ertal
Ġeingew eiht
un ters
ĠN ad
Ġre ichen
all as
ĠGe fÃ¼hl
ph as
Ġ9 00
zeich nen
St ation
Ġgel ungen
yr am
rÃ¤sent ation
Ġocc up
ĠSpr int
Ġbreak fast
ĠMarc us
ĠInner en
ĠGirl s
Ġslight ly
T R
T em
Ġ ).
Ġd oll
Ġs ang
im ittel
ĠE astern
ann y
la y
ass te
ĠRe ktor
Ġle isten
erv ation
ble iben
Ġhier fÃ¼r
ĠVerb rauch
ĠBerg bau
ĠMotor rad
ĠpreuÃŁ ischer
Ġaktuell es
Ġintens iv
ĠdÃ¤n ischen
Mich ael
Ġlands cape
ĠNeuse eland
Ġingred ients
K A
ĠS ysteme
Ġf ruit
le ucht
Ġh Ã¤ngt
ĠC af
ial en
ĠMar co
ĠSo zi
ĠMo le
Ġgest artet
Ġmeas ures
hyth m
ĠBoch um
ĠDrit tel
P an
f ers
t est
â Ļ
Ġt utor
Ġm Ã¶gliche
ĠA uge
ĠF ans
ĠK ub
ĠR eit
ak et
ĠWe iler
ek ing
ey er
ĠGeneral major
ĠVerl ust
Ġdog s
Ġdescrib ed
Franz ose
ĠUrauf fÃ¼hrung
ĠEro ber
H il
c iate
m utter
un nen
ĠK inos
om on
um pf
Ã¶ ger
ab schnitt
ĠU C
Ġst rip
Ġsch Ã¼tzen
ĠUn ser
ĠEl s
let ten
Ġbo ys
Ġbring ing
Ġbro ther
ĠHen ri
Ġerr ichteten
Ġflex ible
erkl Ã¤rung
Kirchen gebÃ¤ude
P ress
b ett
Ð ·
Ġw ollten
ein richtungen
Ġp or
sch te
ĠRe par
ĠDe ad
hal f
co in
Ġseit her
Ġmin imum
Ġstell ten
deutsch er
Ġcond uc
oin ted
ĠMel bourne
fÃ¶rm ige
ĠExper ten
Ġevangel ischen
ĠDir igent
ĠGebÃ¤ udes
ĠFinn land
ĠA cht
il ation
ĠD sch
ĠK G
ĠJ r
ei ro
we ar
Ġsie gte
auf lÃ¶sung
Ġbet reibt
An gabe
schie ÃŁen
ress en
Ġbesch loss
uk i
ĠOn ly
lic ation
stag ram
ĠKind heit
ÑĢ Ð°
Ġthough ts
wh ile
bn iz
Ã¤dagog ik
Ġsowjet ischen
angeb ot
Ġfung ierte
h av
Ġt end
Ġs au
at ischen
Ġin fe
Ġm ac
ĠG itarr
ĠE cke
Ġc raft
sch ritt
and in
Ġl unch
ĠJ Ã¼d
Ġth ick
ab schluss
Ġre iste
Ġver arbeitet
ĠVer ordnung
ud ing
19 20
Ã¼n sche
Ġad mit
stell ungs
ĠFre ude
Ġfre und
Ġgest alten
ĠQual itÃ¤ts
ĠTyp s
Ġconf idence
ĠWeiter hin
ĠTher apie
liefer ung
Ġgee ig
ĠJord an
g ert
Ġs tet
ro it
Ġn Ã¤chst
ĠF reis
Ġz ogen
ut ung
ĠC in
Ġan swers
la ut
ĠIn spir
Ġen tertainment
Ġ7 8
pf lanzen
ĠSta ates
ĠÃľber nahme
Ġreg istration
ĠVerb reit
wend ungs
196 9
197 1
Ġsearch ing
ĠMiss ouri
ĠKapit Ã¤n
: .
D ur
p es
ĠS amen
ĠB ald
ĠB uff
ĠM ethod
ĠH enn
ĠL uk
ber uf
ĠSch we
ĠSie ge
ĠÃ ©
ĠNe ug
Ġbes ucht
Ġgew Ã¼nsch
ĠSchw anz
Ã¤ch te
Ġpla ys
ĠfrÃ¼ here
ĠForsch ungen
Ġkon kre
Ġcho ices
ĠText il
Ġsug ar
ĠunterstÃ¼tz te
stan ces
Ġdistr ict
ĠSign al
Ġarr ived
ĠStruktur en
Ġemer gency
Ġreduz iert
fir ma
ĠAusstell ungs
ĠBeu ys
l ov
y ll
} .
Ä Ł
ĠS i
ĠB ase
ĠM D
ĠD ak
st het
ut ation
hr ung
Ġth reat
Ġent worfen
Ġdar um
Ġgesch Ã¼tzt
197 2
197 3
ĠCamp us
ĠRegierungs bezirk
ĠMathemat iker
Ġcommit ment
Ġmix ed
Ġerheb lich
ĠAufent halt
ĠTi rol
' .
F eld
f ix
Ġc os
ĠH ope
ĠN erv
ĠU d
19 10
ĠEin kommen
ian e
ĠAb b
ĠChrist ine
ĠBra z
ĠPlan et
R eich
d ung
Ġ rand
Ġv eter
ĠE valu
ĠH ind
ĠR ent
ĠL yn
ĠL ichten
ic ient
ou x
Ġse qu
Ġro ut
stell erin
org ungs
ilit ation
Ã¤tz ung
rue ft
196 5
Ġadv ance
Ġausgest rahlt
Ġwirtschaft liche
ĠDemokrat ischen
ĠBesatz ung
Acc ording
c ase
Ġa gr
Ġf aster
ĠB ush
ĠC art
ĠJ Ã¶rg
19 34
ĠGe fe
pro zess
gend es
schie de
Ġfest ival
ĠSk la
ather ine
Ġhistor ical
ĠEmp f
Ġintegr iert
ĠÃ¼b lich
Rel ig
Ġdenk mal
Ġdemon stra
H ans
P A
Ã ¯
Ġ ==
ie bel
Ġs umm
ĠB ow
Ġdes ire
ĠAn lass
Ġj ack
Ġbes uchen
ĠVor teil
Ġgen e
Ġro ten
ĠZw angs
Ġag gress
Ġgu ter
ĠDon ner
Ġ185 7
ĠTre ffer
ĠMinister ium
Ġmanufact urers
Ġdom ain
Ġeigent lichen
Ġincred ible
ĠAfghan istan
W ell
i Ã¨re
ie m
Ġt ail
ĠP az
ĠE gypt
Ġg ern
ĠN i
Ġk onstru
ĠVer leihung
ĠAb wehr
ĠVor stellung
Ġour selves
Ġ7 3
Ã¶l be
ĠUm satz
ĠFin ancial
ĠWar schau
ĠBot schaft
ĠSym ph
ĠmilitÃ¤r ische
ĠProgram me
L o
k ore
ĠB uk
el in
Ġp ump
Ġp apers
du ate
ĠNe xt
Ġher unter
lÃ¤ uter
Al so
Ġzusammen gef
geord neten
Fl ug
far be
Ġsil ver
Ġreach ed
Ġposs ibly
ĠAdmin istration
h Ã¼tte
k orea
Ï ĥ
at sch
un sten
Ġein gest
ĠP i
ĠG az
ĠV il
Ġst Ã¤ndig
Ġle gen
Ġ3 60
Ġvor kommen
ens lalom
ĠFl otte
rich ts
ĠMa ÃŁe
Ġrec ipe
ĠJul ia
oth ing
Ġange passt
ĠAnt ike
stre am
Ġfun ctions
Ġ185 5
ĠHigh way
Ġpurch ased
Ġtele vision
ĠGrÃ¤ ber
Ġrum Ã¤n
opÃ¤d ie
P ra
ĠA kten
ĠB ird
Ġv ary
ĠD al
ĠR ue
ĠL ese
ber ge
Ġbe wegen
rÃ¤ der
ĠSe kretÃ¤r
ĠNe ues
ĠEn kel
ser ien
ĠSÃ¼d afrika
ĠWohn zimmer
Ġbr ill
druck t
onstru ction
frast ructure
ĠniederlÃ¤nd ischen
ĠSpan ish
D atum
F rÃ¼
Ġf f
st immen
ĠF ed
Ġk ick
Ġhe ight
ho b
ens wert
iss a
fahr ens
fahr zeuge
Ġber u
ank a
zahl t
Ġmin im
ĠÃĦ m
Ġgl Ã¼ck
wor tet
197 7
ĠGrÃ¶ ÃŁen
omet imes
fal se
Ġwire less
y an
Ġ à¤
Ġs in
al itÃ¤t
et on
Ġge p
if ff
ver letz
ok oll
ob s
ler in
lo gen
Ġ7 4
off izier
stra fe
eid ung
Ġmag azine
Fernseh film
ĠInnen stadt
ĠFert ig
Ġbeeinfl usst
Ġehren amt
E F
M T
O f
b undes
k Ã¼nstler
á »
us ste
le ten
ĠB oth
ĠH Ã¤ft
ĠU EFA
19 36
gel Ã¤nde
enn bar
Ġbes ie
res te
ĠTr ust
ĠVers and
Ġown ed
ari at
Ġcal cul
Ġdre imal
ĠGold medaille
Welt meister
Ġeurop Ã¤ische
Ġappear ance
Ġadmin istration
Ġfund ing
Ġfund ament
lehn ung
Ġstaat lichen
ĠKult urg
ĠEind ruck
M erk
V om
h ome
or ges
re iter
Ġb ist
Ġf lag
Ġf ishing
Ġ1 12
ber ry
ab ama
Ġr ise
ĠAn bieter
Ġle tt
19 29
ĠBer ater
ĠAuf merksamkeit
ĠAus wirkungen
los igkeit
Ġgew id
entr um
ma x
ĠMon uments
ĠHaupt rolle
Nach bar
ĠVers orgung
Ġ185 2
Ġperfect ly
ĠEmp ire
ĠFreund in
Produ ktion
Ġak zept
Ġcabin et
Ġaccomp l
H z
O s
T or
t lichen
or chester
Ġm ode
Ġv ierte
ĠM is
Ġn ine
ĠO bst
ens burg
Ġpl Ã¶tz
uck s
ĠRÃ¼ck tritt
ĠNatur al
ommer ziel
ĠDienst leistungen
Ġhard ware
ordin ary
ĠSpr ung
Ġprakt isch
ĠBremer haven
ĠLÃ¤nd ers
G l
a er
Ġa kadem
ĠS ite
Ġin tended
us hed
Ġm Ã¤cht
Ġp ink
sch el
ĠH inz
ĠC onn
ver d
Ġr an
sp unkt
rat ic
lag ert
Ã¶l z
ĠSpiel klasse
ĠMan uel
ĠTr in
ĠEd in
ĠStat istik
Ġdeliver ed
ĠKer amik
ĠStreit krÃ¤fte
Ġinfluen ce
ĠPrÃ¤fe ktur
A uÃŁer
Ġp reis
ĠK ohlen
ĠR acing
ĠL Ã¶sungen
Ġl ust
ĠZ one
ĠBe fest
19 27
Ġex tend
Ġex ecutive
Ġdis pla
zahl ung
Ġfest ge
Ġgef angen
Ġed itor
Ġcre ation
Ġehemal s
Ġwei ÃŁe
ĠOper a
ĠHÃ¶he punkt
ĠDi agn
ĠHei z
kr ise
Ġnied rig
ĠKabin ett
ĠBiele feld
F S
J azz
t op
Ġv ital
il ot
ĠP est
ĠT s
ra iner
ĠC ab
Ġr id
ĠTh ree
ult an
ĠStadt gebiet
iste te
ĠÃľber sicht
eiter ten
Sie ger
mat ik
ĠPart ners
Ġmonth ly
ĠZe aland
ĠZug riff
ĠKe vin
nehm ern
Ġkont inuier
wal de
gewand elt
ĠAnth ony
gesp ielt
Ġmensch lichen
Ġgeplan ten
ĠArgentin ien
D okument
d el
k rank
Ġf Ã¼hl
ĠB reit
ĠL isa
Ġg estorben
and el
Ġauf gel
ĠZ wer
Ġj un
ust ic
Ã¤n zer
gesch ichten
ĠEx c
ipp i
Ge gen
ĠDes cription
ĠUr teil
ias ieger
ĠgrÃ¶ÃŁten teils
Ġbedeuten de
ĠClass ic
Ġrap id
G A
b Ã¤
k ons
Ġ1 13
ĠM asse
ĠG T
ĠT au
ĠE N
ent h
Ġto ugh
Ġer ober
Ġver p
ver Ã¶ffentlich
Ġsch m
ĠAr ena
Ġent reprene
ĠLand gemeinde
ett a
ĠEurop Ã¤ische
bo ot
ĠAustr ia
Ġkommen den
ĠWochen ende
ĠVe gas
zus etzen
Ġfrei will
ĠAust in
ĠSchÃ¤ den
Ġproper ly
Ġtal ent
ĠverlÃ¤ng ert
ĠabhÃ¤ng ig
D ialog
F uÃŁ
T rans
k ol
ar ily
Ġb attle
Ġder selben
ĠM S
ĠF inger
ĠG reif
ĠW isconsin
Ġge he
Ġy ellow
ts p
ĠZ eile
ĠSch mal
ag an
19 31
Ġwe aring
geb Ã¤
ĠNe v
out ube
ĠAuf tritt
ĠEn cyclop
ĠMar athon
min der
Ver walt
Ġstatt dessen
ĠLie bes
ĠBi ografie
Ob ject
fil me
Ġfort an
Ġherv orge
ĠAcc ording
grenz ung
UN G
Ġhous ing
Ġabgeb rochen
Ġaccur ate
Ġopin ion
L ud
d ienste
t rieben
al p
de cke
ĠH ahn
ic als
ĠC it
Ġl yr
Ġge lesen
Ġpr inted
als o
ĠBau ten
ĠTr ennung
ĠAut os
ĠSÃ¼d ost
Ġsupp orts
verb Ã¤nde
Ġbekannt esten
ĠPat ri
Ġhealth care
ĠEhe mann
Ġaccess ories
Ġfact or
bÃ¼ ro
ĠKu gel
ĠLux emburg
L ast
Ġ Ã¤ndern
Ġd ritt
Ġw ies
ĠK ansas
Ġge leitet
ib et
enn zeichnet
Ã¼ck e
old t
Ġmy ster
ĠGesch lecht
ĠGes icht
ron ics
reg on
ĠUr sprung
ĠJugend liche
Ġstre am
ti rol
Ġumfang reiche
ĠSlow akei
V iew
r ichtete
Ġf ro
Ġf ellow
Ġm ic
il deten
ig ar
ĠH amilton
ĠC ott
ĠC urr
ei ra
all o
Ġde ck
19 00
ite e
ĠQu ell
ĠBi ographie
Ġopt imal
Ġimpro ved
qual itÃ¤t
Ġvac ation
ĠKomment ar
Ġappre ciate
Ġa chten
on ent
Ġt ests
Ġb an
Ġf ach
ĠP ersÃ¶nlichkeiten
ĠL uf
iv ia
ag u
Ġj oy
ant es
19 25
rei hen
Er stellt
Ġrec orded
hand elt
ĠStud ios
ĠVers icherungs
ĠHar ald
ĠKol umb
ĠSieg fried
kor de
ĠTH E
Ġconsum ers
ĠTschechoslow akei
G ymnasium
M ore
k W
n acht
Ġw asser
at ro
Ġin put
ĠN oten
ĠJ oy
Ġk rÃ¤ft
Ġge h
ver m
Ġr ene
19 50
Ġum gesetzt
Ġ9 8
Ġres idential
Ġ7 9
Ġ8 1
ring er
oh an
iven ess
Ġact ions
ĠReich en
Ġcle arly
Ġcare fully
Ġerfolg ten
Ġlo ad
ĠKre bs
ĠÃ¤hn liche
wh ich
uert o
national spieler
Lin ie
ĠIntern ets
ĠLokomot iven
ĠKonzer te
Ġbrow ser
ĠSchott land
S en
g rÃ¼n
in ations
Ġs ad
ĠH altung
ĠW itten
Ġan b
Ġauf w
ĠRe formation
Ġne arby
ĠBe hinder
19 12
geb ra
Ġ8 2
Ġbek le
Ġho tels
Ġcons umer
ĠQual ifikations
Ðµ Ð½
Ġverkauf en
sprach ige
Reg iment
S il
Ġs ud
Ġs ac
Ġf ein
ĠB auch
ĠD uring
ra ben
Ã¶ he
ach es
Ġk Ã¼nst
ĠâĢ Ļ
ĠU we
qu ert
19 26
ĠAb stieg
oc ation
fe ier
ĠMa de
rif fe
ĠSpiel s
hand els
anc ouver
Pro jekt
ĠKont akte
Ġverl ang
Ġbre ath
Ġaufge geben
ategor ie
ĠFel sen
ÅĤ aw
ĠBu ilding
ĠExper iment
ĠAust ausch
Ġeffic iency
ĠElect ric
ĠIS O
konstru ktion
g ger
ĠA ge
Ã¤ den
ĠD B
Ġp ed
ĠF ellow
ĠF ederal
ĠK ore
ĠI reland
ĠW Ã¤l
Ġbe zogen
Ġl ived
Ġdes pite
tel ier
ph ones
Ġgel ingt
ĠOn tario
ĠBed Ã¼rf
ĠKaiser reich
war ded
Ġdivers en
ĠLi bert
ĠAuseinanders etzung
D oc
l inger
al teten
Ġb at
sch rau
ĠH af
ĠR ug
gen cies
ĠSch reiben
ill es
og ramm
Ã¼ck t
ĠDeutsch es
ĠHaus halts
Ġander erseits
Ġreal ize
Ġsupport ing
ĠAnfang s
Ġhouse hold
Ġconsider ing
ĠLehr stuhl
Ġwichtig ste
waren ess
D am
P R
P rÃ¼
T ime
n ord
ĠS au
Ġf oll
le un
ĠB uen
ĠB orn
ĠB ene
Ġst imm
lin ed
Ġam b
Ã¤hr ungs
Ġfe hlen
Ġro ute
Ġmus ical
ros sen
ĠKat zen
Ġ180 3
EN T
Ġappear ed
aun a
hers tellung
ĠPublik ationen
ĠberÃ¼cksicht igt
O h
S ince
j Ã¤ger
k rÃ¤
Â ¬
in cl
ĠA hm
ĠM ilit
ig sten
Ġp Content
ol ith
ĠR unden
ĠC lan
ĠJ ens
Ġal cohol
ru der
Ġsch Ã¶nen
nen nung
ĠEn vironment
ys ik
Ġper mit
ĠKon text
ĠFra ktion
ĠAut omat
Ġletz tlich
schein lichkeit
ĠHow ard
Ġiss ued
Ġpoln ische
ĠMuse en
ĠbeschÃ¤ft igte
Ġadvent ure
ĠGemark ung
an ke
ĠM au
Ġp rÃ¼
ol y
Ġc ute
ĠR ÃŃo
ĠL aden
Ġl ift
Ġge liefert
ĠSch rÃ¶
ib ilities
Ã¤t igkeiten
Ġgood s
verb indungen
196 3
ĠHistor ic
Ġhol te
Ġoffen e
Ġconf irm
ĠPosition en
ĠAcc ount
ĠDisk ussion
wir ken
Ġstaat liche
ĠVarian ten
Ġpleas ure
ĠstÃ¤dt ischen
Ġs itzen
Ġb undes
Ġin tr
ing ers
Ġp ure
Ġan grenzen
ul der
ĠRe zept
ĠSe gel
ĠChrist opher
ĠCon f
Ġgef Ã¤r
spr uchs
Ġlic ense
ĠSqu are
ĠDist anz
Wil helm
ĠIO Exception
ĠEdin burgh
m den
Ġein ger
ĠF DP
ĠG R
ĠK ohle
ĠC av
ĠRe ferenz
erv ers
amm elt
olog ien
min a
ism ar
ĠMon ument
Ġra ise
ĠChrist i
Ġsupp orted
ĠRuss ia
ĠPubl iz
book s
Ġhold ing
Ġevangel ische
ĠFass ade
ĠDiv is
ĠNR W
n isch
ĠP ick
ĠK und
em y
ĠL ett
Ġbe ar
ĠZ auber
Ġber ichtete
sk ar
Ġac cep
ĠDurch schnitts
stre ifen
ole an
197 6
Ġdep end
ĠVe ter
Ġlov es
Mod ell
ĠWit we
ograp her
M er
U M
te ger
ĠF ell
ĠH Ã¼r
ĠC ome
Ġk onserv
Ġge be
ĠSch u
Ġab ges
Ġ18 46
Ġsow eit
ium ph
mann schaften
Un garn
ĠAs ian
rÃ¤n ke
Exception Constants
Ġklass ische
ugu ay
nd orf
Ġt or
Ġo s
ro b
Ġn ative
Ġh ire
ĠT am
ĠT ieren
ĠW ars
Ġis lam
Ġch ocol
Ġunter teilt
ĠCh i
Ġger ingen
ĠAmer icans
Ġtyp ically
Ġ180 6
ĠRel ief
ĠFrÃ¼ hl
Ġlate in
ĠIll ustr
6 00
K ilometer
h ain
as a
Ġm ur
Ġv ib
ĠK rÃ¤fte
ĠH ang
th en
ran ten
19 11
me ier
Ġent stamm
Ġwill ing
ose x
mit tag
ĠPar ks
off er
ĠRes p
yr ight
ĠBas il
ager ung
ĠWohn ungen
ĠRos a
Ġdep ending
ĠZeich nungen
Ġjapan ische
Ġpoln ischer
Ġintrodu ction
ĠMitarbeit ern
L aut
S ec
ĠB aut
ĠD ave
st oÃŁ
ĠP s
ĠC atholic
Ġk ennt
ĠVer k
qu ar
Ġ18 16
ĠLand gericht
Ġinter ests
ĠWest falen
ĠSchm uck
ES T
ask et
ĠÃ¤ gypt
Ġrespons ibility
Ġfit ness
Arch Ã¤
spar tei
ĠWÃ¤r me
# #
1 20
L S
g ru
g ott
z es
ĠM atch
Ġein gebaut
Ġein erseits
ĠH ydro
ĠSt imm
be griff
rÃ¤ um
Ġout standing
enk ung
Ġra il
Ġfl ash
ĠLandkreis es
Ġentwick elten
Ã¤mp fung
Dies es
Ġwissenschaft licher
ĠBud dh
Ġcandid ates
Ġepis ode
? âĢĿ
Ġa ges
Ġw alls
ĠF act
ĠH ills
ĠL ob
19 19
stand es
ĠArbeit sk
ĠMal ays
Ġeinz eln
Ġmin imal
Ã¼nd er
196 4
Ã¤chs ische
ĠVize prÃ¤sident
k irch
p op
s Ã¼d
en ters
ge mÃ¤ÃŁ
ĠB ast
ĠB usch
ĠP ier
ra ham
sch les
sch rank
ĠJ en
Ġan gen
ĠSch atz
Ġun bedingt
Ġhe aring
Ġwe chs
cc a
old s
Ġfe els
Re ad
Ġu pper
ĠCont act
ĠIde as
Ġpresent ation
ĠBon us
ommiss ar
Ġguarante e
P ost
m oder
o i
p ear
s he
an on
Ġin vent
ĠB omb
ĠD y
ĠF Ã¤r
ĠT unnel
Ġauf zu
ĠSch af
ĠSch los
af eln
Ġver folgt
ver halten
rit ion
ens ed
ret to
rich tet
amer as
ĠSpiel ern
ende d
ĠOst preuÃŁen
ĠKriegs gefangen
brÃ¼ cken
Ġbeteil igte
Ñģ Ðº
Ġfiel en
ĠRepubl ic
Ġbege ister
ĠViz emeister
ĠSchÃ¼l ern
Ġg aben
ĠN u
iv alen
th al
ĠSp art
ĠJahr gang
Ġum gewandelt
ĠTh ailand
ĠVor schlag
ren ner
Ġlie be
Ġwieder holt
ĠLei bniz
ĠÐ ²
ĠRegion alliga
ĠPal ast
Ġturn s
Ġhost ing
Ġconcern s
Ġcirc um
ipend ium
ĠRober ts
Ġcelebra te
F i
k ologie
w eiter
z ing
Ä Ĺ
Ð ¹
ur st
ĠM ind
ĠF ul
Ġc utting
em m
os se
Ġ18 20
Ġqu adrat
Ġfe es
ĠPl Ã¤nen
Ġste igt
ific ate
uck er
Ex am
Ġabsol ute
ES CO
Ġconc rete
lÃ¤uf e
ĠProp erty
Ġsym pt
ĠÃĦr zte
f amilien
m Ã¤nn
p rechen
ess a
end el
Ġ18 47
Ġso fern
19 37
tz t
ĠSchw estern
ock e
hol en
ĠKn ochen
ĠBra uerei
Ġdisc ount
ĠPrem iere
sta ates
Ġcook ing
ĠRis iko
. âĢĵ
F Ã¼hr
b art
i ago
l s
z ucht
Ġf er
Ġm orgen
sch reibung
ĠSt Ã¤rke
ĠIn stagram
Ġcon fl
ĠVor name
Ġverb lieben
ĠBand s
Ġselbst stÃ¤nd
Ã¼l le
Ġhistor iques
Ġchar ges
Ġbelie b
Ġappro ved
Ġorgan ic
Ġequ ipped
ĠPhys iker
ĠMult i
Ġregular ly
Ġchrist lichen
abet es
ĠVort rag
ĠThr on
F Ã¼gt
a a
Ġm oral
Ã¤ ts
ro hr
ĠK upp
ĠK ilometern
Ġl as
kt ive
Ġauf merksam
Ġaus drÃ¼ck
Ġad s
Ġout put
Ã¤d te
Ġwel chen
the t
lad imir
ĠVorsitzen de
ĠSter nen
Ġsuppl ies
Ġreve aled
ĠLeh mann
Ġhinzuge fÃ¼gt
K ont
R und
ĠD M
ĠP ut
ĠF uchs
ra ph
sch reiben
ĠR it
ot os
ĠVer arbeitung
19 32
Ġgen et
utz te
Ġacc ounts
Ġgesch ickt
zw ald
ĠArt illerie
mÃ¤ cht
ĠOn kel
ĠSk i
stoff en
196 7
Ġsecond s
ĠPubl ishing
Ġricht igen
ĠEv ents
Wel come
ĠSoph ie
B ern
G ener
M ost
es ents
Ġt ight
Ġp asst
ĠT iefe
ĠH ugh
la ce
pp t
ak on
ĠEr ik
ĠEr be
be fehl
Ġ5 000
ime tern
ĠStra teg
ĠMed icine
Ġbesch rieb
ograf ische
Ġnun mehr
ĠZe ilen
ube hÃ¶r
gram me
Fin ale
I st
f indung
Ġt ub
Ġs la
Ġw Ã¤chst
Ã¼ pf
Ġ1 18
il st
ĠF res
ĠN ull
Ġauf t
Ġaus geschlossen
Ġr are
Ġr iver
ak ten
ĠEr werb
ĠEr hebung
Ġ9 3
Ġlie fern
sk irche
ĠWer be
ĠMag net
Ġsign s
geord nete
ĠSl alom
Ġlo ans
Ġorganis ierte
Ġsett ings
Ġfinanz iellen
Ġexpla in
Ġdistrib ution
Ġhil ft
Ġbewe gt
D oppel
K Ã¼nstler
W eiter
W appen
c us
or ne
Ã¼ sten
st urz
ĠF Ã¼
ĠR ick
ĠL az
ist ungs
Ġan gew
Ġun less
ĠAn k
Ġsp anische
19 13
iz ieren
ĠMar x
Ġbest immen
pro p
ins eln
ĠHand ball
ĠTra ck
ĠKomp onenten
ĠFranz isk
bed arf
He il
Ġbew aff
Ġcr im
ĠÃ¼b lichen
Ġgradu ate
Ġkanad ischen
bereit et
ĠFranzÃ¶s isch
Ġconvers ation
Ġzug unsten
Ġzusammengef asst
R em
er d
re chnung
ĠB B
ra it
ĠW ettbe
Ġg g
Ġdes k
kt oren
Ġde cl
Ġ18 37
ov Ã¡
for ce
Ġch osen
ĠPr ince
bar ung
ced es
ĠWh ere
ĠRes ult
ĠSer b
ĠAp othe
ĠerklÃ¤r en
i oren
v org
w ahr
Ġb owl
ein richtung
Ġf unny
ĠT ank
et ime
ĠL ess
ĠC N
ĠJ ess
ĠSt ro
Ġst retch
ver hÃ¤ltnis
Ġwar rant
od s
ĠBe frei
ip er
be teil
ĠDe f
Ġvor Ã¼ber
ong s
ĠMe g
ren cy
Ġfe hlt
olit an
Ġ8 9
Ġbeg rÃ¼nd
gew alt
Ġmach ines
ĠGo vern
Ġstar tet
Ã¤m me
ĠJust ice
Ġworks hop
Ġdest ination
ĠPfer d
Ġmil k
ĠFrances co
n ÃŃ
st ahl
Ġo lymp
ĠH P
ber ater
Ġbe zÃ¼glich
ir en
Ġk illed
ĠIn se
Ġor ange
enn zeichen
gl ing
ĠEx il
arb rÃ¼cken
ĠAt mosphÃ¤re
Ġperfe kt
Ġorder s
Ġverm eiden
ĠHeimat stadt
ĠTur in
Ġhold s
Des ign
ĠAsp ekte
Ġrecogn ized
Ġfunktion iert
Ġlif estyle
Ġproced ure
ĠGeschle chts
ĠÃ¶rt lichen
Ġappoint ment
Febru ar
S ub
W ahl
y ou
Ï Ģ
ie ge
Ġs org
ĠM ust
ĠK ok
Ġc ro
ra c
Ġer stellen
ĠN C
iv itÃ¤t
ĠO ak
Ġst il
esch ichte
ff e
ĠBe cker
ia de
ĠUS D
pf alz
ief el
Mit te
stein en
Sp eichert
ĠZe ug
plan ung
ĠSchm id
ĠMinister prÃ¤sident
iction ary
ĠNamens geber
ĠĠĠĠĠĠĠĠĠĠĠĠĠĠĠĠ ĠĠĠĠĠĠĠĠĠĠĠĠĠĠĠĠ
ĠChron ik
? )
E p
L ink
r ent
w enn
ĠB ucht
ĠD I
ĠP ho
ĠP ear
ĠP ixel
Ġh l
ĠG riff
ĠR eiter
ĠN ations
Ġst abil
od ge
Ġle ichter
Ġch ief
land e
ĠHer zen
ĠFl ora
Ġsol ar
hol ung
ĠSer ge
ĠAt om
akes pear
ĠVolks gerichtshof
ĠBesch luss
Ġnational sozial
Unter nehmer
ĠEU R
Ã¶p fe
Ġmaxim ale
ĠChallen ge
ĠFÃ¤h igkeiten
Sow jet
Dav id
Ġermor det
d ra
l uft
re kord
ĠB ibliothe
Ã¤ mm
ĠD ouble
ra hmen
ic ts
ĠN ATO
Ġge Ã¶ffnet
ĠSt or
ĠSch Ã¤d
Ġwh om
ste t
19 42
Ġcon ver
fl Ã¼sse
Ġag ent
ĠCl oud
leit ungen
ĠMo on
ĠEm ail
zy kl
ĠFreund schaft
wÃ¤rt igen
Ġbess ere
D M
T P
k lassen
l isten
t Ã¤
å ½
Ġm Ã¼s
ĠL iver
Ġl Ã¤nd
Ġan f
og ne
Ġle gt
ĠÃ¼ber all
19 44
Ġall gemeine
ens atz
Ġ10 1
ĠJan e
Ġ0 8
ĠTra vel
Ab sol
196 6
190 1
Ġinnov ation
ĠSams ung
B rit
E isen
M ass
V ideo
b rechen
n el
re b
ĠF ile
ĠF ett
ĠN ich
Ġk ommerziel
ĠVer y
Ġsich ern
ud a
par tei
ivers ary
Ġ8 6
cl ing
inter est
ĠHil f
ĠTem p
Ġschn eller
ĠInstitut ionen
Ġeffect ively
pec ted
ĠÃ¼bern immt
Ġverste ht
Ġengag iert
ĠnÃ¶t ig
ĠKaffe e
D i
G ed
T enn
h lich
Ã¼ g
ĠM iami
ĠD ien
Ġp un
ĠT ran
Ġer leben
ĠN assau
Ġan alys
Ġunter schieden
ĠWe is
Ġ9 7
br id
ĠZw eite
Ġdr amat
Ġtrans ition
196 2
ĠErn Ã¤hrung
ĠGed icht
ĠKe ep
Ġrepr esents
================ ================
Ġscient ific
D C
M as
N et
h ten
h au
p iegel
w elle
Ġt ast
Ġin ches
Ã¤ ck
ter min
ĠF ont
and em
ers teller
ĠSt ationen
ĠSch um
qu ir
ĠFl ach
ĠGra ben
Sch on
ins ichtlich
Ġ0 9
ĠStud iums
Ġsub t
Ġeinge laden
ĠVolks republik
ĠJugend lichen
Ġaufge teilt
ĠWinter spiele
195 2
gesetz es
Ġreturn ed
komp lex
Ġpurp oses
Ġofficial s
ĠEuropameister schaft
tor hÃ¼ter
ĠReihen folge
Ġcollabor ation
Ġbesonder er
ĠBapt ist
B este
E U
L uther
S eite
g ast
u hren
ĠD ass
ĠH appy
ens ation
amen te
Ġoff ens
ĠGrund schule
Ġele ction
ĠDes igner
ĠGew inner
Ġbed ient
ĠStraf anstalt
ĠErinner ungen
ĠAdmin istrat
Bi ografie
Europameister schaft
ĠErschein ung
ĠVie h
Ġatmosph ere
Ġconduc ted
I X
k ommun
p ert
t im
or able
ĠS ale
ĠS achen
at iver
ĠF erner
om i
ĠH unde
ĠH aup
ĠR ain
gen s
op ran
ĠVer leger
ard t
19 21
ĠSe ele
amm lungen
Ġgen ieÃŁen
Ġ12 00
ĠPhil ip
Ġqual ified
Ġel imin
Ġrest lichen
gehen de
omet rie
Ġsor gte
ĠHoff mann
ĠRies enslalom
T urn
b og
g alerie
i ologie
Ġd icht
ĠS M
re ffen
Ã¤ le
Ġ1 17
ĠL ub
ĠV ene
ĠV II
ĠIn fe
ĠIn haber
ok en
ĠGe legenheit
ĠAb lauf
ĠBer at
sh aber
ĠSh ang
ĠTra de
Pro p
Auf gelÃ¶st
ĠChem iker
Mod us
ĠNachbar gemeinden
ĠLau b
Ġeigent liche
ĠKob lenz
D own
L et
i ÃŁ
Ġb ab
ĠM Ã¼ndung
ĠP ool
ĠI ss
ĠN ature
ĠV irt
op ath
aus o
ĠAn satz
qu ellen
ĠMar sh
imm y
ĠSchul z
ĠDre am
Ġpos itions
fÃ¤ llt
Ġclass room
Ġkomp lette
195 6
ĠErz bist
Ġempf angen
ĠLoc al
ĠInf os
Histor ische
ĠWiederauf bau
irurg ie
Ġgewid met
n Ã¼tz
v re
al on
ĠB ug
ĠD aily
ĠG ard
am ents
ĠK ann
Ġth read
Ġge pf
ĠSch uss
Ġsp r
ĠBe fore
Ġex pression
uc lear
ros se
Ġpriv at
str asse
ĠSchloss es
Ġimpro vement
Met al
ĠTest ament
stehen den
kathol ischen
Ġhor se
dis ziplin
R aum
k andid
l t
n ische
Ġw et
ĠS ain
ĠB attle
ĠD anzig
ĠG rÃ¼nde
ĠH imm
ĠL is
ĠC C
lich ten
Ġwar ten
Ġab stra
lie gende
ĠÃ ģ
ĠAb tei
ĠZeit schriften
Ġtra il
Ġtra fen
pro fil
Ġpla te
ĠPer u
Ġreal isiert
Ġvoll er
ĠBrÃ¼ ssel
ĠTyp e
Ġcert ified
Verein igtes
Ã§ a
ĠGet re
kathol ische
Ġqualifiz ierte
ĠHu bert
Ġrepla ce
ĠTisch tennis
ĠAstron om
ĠJed och
/ *
Î ·
as ka
Ġf Ã¼
ĠF unde
ĠK abel
ĠC arr
ver leihung
ou red
Ġr ies
19 24
ĠY es
ĠSchw imm
ĠPh Ã¤n
ĠKon ferenz
Ġtr ends
ĠProv inzen
190 9
ĠBrit ain
Ġhei ÃŁen
Ġspeziel len
wel ry
Ġpow der
ĠVerstÃ¤nd nis
1 10
O B
U B
y nd
Ġt arge
Ġs essions
ĠS F
ge ist
us ing
Ġf ran
Ġf lav
ĠL oth
ĠC ommand
Ġan gest
Ġr Ã¤um
Ġ18 45
Ġ18 35
19 23
ord neten
ain less
St art
co le
ĠAd v
Sch l
ĠFe ucht
Ġ185 3
ĠRu der
Ġoper ate
Ġern st
Ġmain ly
ĠSchwer in
ĠCons ult
Ġfix ed
Ġimag ine
P M
Ġ Ã¤nderte
ĠS iz
Ġf ell
ĠM am
Ġp ussy
ĠG uten
ĠH els
ĠH Ã¤usern
ĠW are
ĠL loyd
Ġg un
Ġg orgeous
ĠO ran
ab ol
ver gleich
ere cht
hn er
19 40
19 35
fl ow
nis sen
eich ern
Ġ0 7
ĠAll ianz
Ġspe zif
Le x
ĠAlb ums
Ã¼b ung
Ġland es
zwe ck
ĠÃ¤uÃŁer st
Ġassess ment
ĠMultic ast
Lud wig
E ben
P ark
z elt
an ing
ĠS ort
at isch
Ġ1 16
Ġh yd
ĠI F
ĠW he
ĠW ester
ĠSt aub
ad Ã©
Ġauf einander
ĠZ en
Ġr asch
ĠÃ¼ber liefert
ĠJahr buch
ĠHe irat
Ġar gentin
ĠGesch enk
ĠSte ine
ĠMen gen
ĠVol ume
ĠPat ent
ĠGew Ã¤sser
Ġbro ken
ĠZwe ig
ĠSold at
ĠSy mp
ĠSab ine
Ġenth us
ĠPast or
ĠÃ¤uÃŁ eren
ĠExempl are
Ġtom orrow
K ol
R I
f are
is is
Ġt icket
ĠC e
Ġaus gestellt
ste her
igen schaften
Ġbut ter
ict ions
Ġ0 2
ĠFranz osen
fest ival
Ġsw imming
ĠKÃ¶nigs berg
Ġzie m
Ġsil ber
Verkehr s
ĠerfÃ¼ llen
ĠNahr ung
ĠGlauben s
Ġmittelalter lichen
J J
M al
Z wei
c ue
Ġs ides
he id
ĠM ic
st rÃ¶m
sch Ã¤d
ĠC hl
Ã¶ te
ĠN y
Ġge arbeitet
Ġab sor
ĠAl m
ĠAb sol
ĠBer gen
ied s
ĠSte ink
ude d
ĠJohann a
Ġter ror
Ġkon zip
190 7
ĠTur ner
Med aille
ĠCent ury
Ġmess ages
Ġlok ale
ĠWach stum
Ġsus p
Ġintegra ted
ĠApost ol
R ennen
R ichtung
Ã ²
Ã ·
in ch
Ġt ab
ĠS Ã£o
Ġf asc
Ġh all
ĠK elly
ĠN BA
Ġk reis
Ġre venue
Ġdem okrat
ĠEr nennung
ok ing
ĠEin zugs
ac ious
ail able
ĠPr int
ĠGer d
rach ten
Ġknow ing
Ġschw ei
ĠCl ient
ĠEle f
ĠDurch fÃ¼hrung
onen te
Ġlist ing
Ġpres ents
Ġfal sch
Ġchallen ging
Ġschwed ische
ĠAnz eige
f iguren
k am
k ong
k ommission
o a
o be
v ements
ein satz
le vel
ĠB att
st age
ĠR ange
ĠL oh
Ġaus einander
ĠEr gÃ¤nz
19 41
Ã¤nd igkeit
ĠLe ader
ĠAus bruch
Er n
Ġtr ial
akt ions
Ġmed icine
ĠGeneral leutnant
ĠSen ator
Ġrece iving
Ġident ity
Ġzwe ig
sta ats
ĠSchles ien
Ġattra ctive
ĠHoff nung
ĠNationalsozial isten
Ġcy cle
Ġdom estic
Ġdynam ic
ĠOpp osition
Ġspirit ual
Krit ik
ĠjÃ¼nger en
K reuz
P ublik
Ġd ick
Ġf if
ĠM ort
ĠF avor
ĠK ids
sch lossen
Ġbe achten
ĠJ ason
Ġan cient
ib us
ok o
ungs ort
iz a
olog in
ĠSchw ed
Ġdar stellen
haus e
ĠCon rad
Ġsim pl
Ġcol umn
mus ter
Ġgrow n
Ġmeet ings
Ġpay ing
Ġless ons
ĠTher es
Ġparticip ate
ĠTenn essee
Ġdeg rees
ĠÃ¶ k
Ġausreich end
Ġbeauftra gt
ĠMaf ia
Merk male
P op
R om
or ders
ĠM ale
Ġp ic
ĠG lÃ¤
ĠK ro
ĠK han
ut a
ĠH arb
ist ol
Ġre covery
ne uer
for mer
ĠAuf sichts
Ġ9 2
ĠSte iermark
Ġ0 5
ĠBundes regierung
ĠRes idenz
Ġfest gestellt
ĠJohn ny
sport ler
Ġemp fehl
195 9
ĠFil ter
ĠRen Ã©
Ġged acht
ĠAust rag
Gemeinde auflÃ¶sung
Ġult imate
Ġcloth ing
bay ern
ĠAx el
Ġdipl omat
I l
f i
w ed
Ġd unk
te ch
ĠS ony
Ġf ir
ĠA la
Ã¤ hne
ĠP unk
Ġn erv
ĠF ame
ĠC hal
ĠC ry
Ġbe herr
ĠV illage
eb o
ern t
ĠAb u
own ed
elle d
Ġrec ording
ĠGrund riss
Ġsho oting
Ġtechn ique
Ġdisc ip
196 1
ĠHistor ische
195 8
Ġangeb lich
Ġinform iert
Ġerle bte
Ġtas ks
andin av
Ġchocol ate
Ġcrim inal
R itter
S aison
t age
Ġ Ñģ
en ne
ar at
ĠS emin
he orie
ĠH ipp
ĠH allen
ĠW id
ĠR af
ach tet
ĠV ancouver
ot ter
ĠAr k
ĠAuf klÃ¤rung
amm ad
Ġgew orfen
Ġges ichert
ron om
ĠJun ge
ĠBet racht
Ġschn elle
ĠEmp fehl
Ġsen ten
ĠnatÃ¼r lichen
Ġpick ed
ĠEins Ã¤tze
ĠEins Ã¤tzen
Ġemploy ment
ĠOffic er
W M
b oy
Ġw inner
ed ing
ik ern
ohn t
Ġtra cks
ĠFre il
ĠZw ar
ĠZu vor
Ġpl anned
ĠHo uston
ĠQu est
ĠVers ionen
ĠWohn haus
ĠIr ish
Ġcamp us
ĠSÃ¤ ulen
ĠCost a
verl ust
Ġconstant ly
c at
r ufen
v ik
ĠB ien
ĠB enz
st es
ĠP L
ĠF ollow
ĠE ier
om ing
em pf
ĠR ote
ĠL us
ĠV ik
Ġk ol
ĠO ra
Ġ18 18
Ġwe ap
ĠSe ch
Ġnot iced
iss ippi
uld a
ĠzurÃ¼ck kehr
pf el
ĠBo ots
Ġerw arten
Ġcons ists
grÃ¼nd en
Ġhistor ic
ĠFot ografie
Ġabge lehnt
lÃ¤nd ern
Ġbra un
ĠBru ce
atÃ¼r lich
ĠVe ktor
ĠOk res
ĠDrei ÃŁig
ĠAdd ition
Ġbere chnet
ĠErwachsen en
P osted
Ġs oph
ĠS ke
ĠA ktionen
Ġg ross
Ġl ayer
ĠJ Ã¼n
Ġge zwungen
ĠSch er
Ġall eine
Ġunter nahm
ĠSte el
Ġpre c
Ġbo ost
ĠLin ux
gra fen
ĠHil de
Ġant iken
Ġcall ing
Qu elle
Ġweib liche
Ġattach ed
ĠGon z
Ġrand om
N icht
W o
Ġd ent
Ġt iny
ĠS ib
Ã¤ ÃŁ
ĠG ol
ĠG itarre
ĠT os
Ġc able
ĠR auch
ĠC ase
Ã¼r tel
ĠO regon
ĠIn halts
Ġun c
ov o
alt itel
att an
ĠStadt rat
use ppe
Ġrec ipes
ĠGen f
ĠÃľber setzer
Ġcomm and
Ġstand s
Ġspe ech
ĠSaison ende
ender t
Ġkeep s
Ġaccess ible
ĠFÃ¼hr ungs
Ġmass age
ĠnatÃ¼r liche
Ġdat iert
Ġcaus es
Ġappre ci
Ġuk rain
Ġstattf and
f uÃŁ
h Ã¤ngen
le v
ĠB eth
um me
Ġbe at
Ġe ar
ĠO N
ab a
op en
sp rechen
sp rachen
Ġj ung
ign et
ĠVor stellungen
Ġad opt
Ġ9 4
Ġtra ined
ĠFre unden
Ġcont est
Ġeinge zogen
ĠDr ive
ĠfranzÃ¶s isch
Ġsur prise
Ġtyp ical
190 5
195 5
195 7
Ã¼rz te
fÃ¤l ischen
hab t
Tra iner
ĠlÃ¤ng ere
ĠDok umente
ĠMisch ung
E V
O l
b rief
ĠD ritten
st Ã¤rke
ĠF REE
ĠT aus
sch wei
ĠR ally
ĠC R
Ġver zeichnet
ĠAn walt
Ġj oint
Ġ18 43
19 22
rÃ¤ glich
Ġex tended
Ġch airs
ite kt
ĠSe attle
per rt
Ġco ck
eth yl
Ġstand ing
ĠPart ie
ĠAnt arkt
zentr ums
Ġstehen den
Ġsuccess fully
Ġbene f
Ġoffic er
ĠViel falt
Ġmat ters
sm ith
ixt ure
Rep rÃ¤sentanten
beam ter
Sonst iges
A BC
F er
k ommt
Ġs alt
ĠM Ã¼ll
Ġo h
ĠF unktions
ĠK it
ĠK ast
im i
ĠN ou
Ġat tended
ĠBer ichte
Ġsh ops
bau werk
Sch utz
Ġpre gn
ĠOber flÃ¤chen
Un sere
ĠWerk zeug
Ã¶st liche
Le icht
Ã¨ ne
ĠAuss agen
Ġnie mand
Ġstrateg ic
ĠGrÃ¤ fin
Ġschedule d
ĠWeimar er
ĠTob ias
Ġprincip les
Ġbayer ischen
Parameter ID
Ġperspect ive
B oden
c am
v ie
on c
Ã¤ p
ĠM ang
ĠD ame
Ġh rsg
ĠI owa
ber gen
ĠV as
Ġk it
Ġauf s
ran che
ĠDe te
Ġcon v
Ġch annel
Ġvor be
Ġunter stellt
lo h
iss ions
ĠMan ufact
Ġben ch
Ġ% )
Ġfound ation
Ġaufge hoben
195 4
Ġleg s
Ġair port
Ġsicher te
ĠVorsitzen den
Ġhor izont
Ġmount ain
K ap
M any
z ule
ur ist
Ã¼ ÃŁ
ĠB ody
ĠC rist
ĠVer schw
ĠVer folgung
Ã¶r n
rÃ¤ ts
ign y
teil ten
Ġges agt
br unn
15 0
ograph ischen
ĠMain e
ival ent
ĠFlug zeuge
Ġgem el
Ġevent ually
maler weise
Ġseem ed
ĠSat tel
person en
ĠEuropameister schaften
ctic ut
Val ue
Ġdou bt
I hr
K n
W ar
et wa
age ments
gr id
ide te
ĠTh rough
utz er
ĠChr istent
hand lungs
ĠBet reiber
Ġpolit ischer
Ġplan et
werb ung
AN D
zÃ¼ gen
Ġexpect ations
Ġerinn ern
ĠfÃ¶rder n
Ġdenkmal geschÃ¼tz
S el
b rÃ¤
ĠB C
ĠF eind
Ġc aught
ĠH ob
ĠO hr
we alth
auf tritt
ĠNe ut
ĠMar cel
ren ten
Ã¤ch se
ĠSo f
ĠSte iner
ĠStra hl
bach s
ĠStre ifen
ĠBest immung
Ġpost ing
FuÃŁball trainer
klÃ¤r t
190 8
Ġmeisten s
ĠDel hi
lah oma
Ġaustral ischen
Ġcharge d
ĠJahrzehn te
Ġnutz te
. ;
u ages
ie de
ĠS v
ĠA kte
ĠA gency
ĠD est
ĠP eking
ĠF ortun
ĠSt u
ĠO hne
Ġfor ces
sp reis
ĠNe apel
ĠNach kommen
iss er
Ġro w
ina e
ĠÃľber leben
ash i
ĠPol ize
Ġdec re
Ġend s
ĠauÃŁer gewÃ¶hn
ĠKÃ¼ chen
Ġident isch
Ġtw ice
pass te
ehm igung
Ġremov ed
Juni oren
Ġhers elf
Ġregistr iert
olley ball
ĠGord on
! "
M Ã¶gliche
h ut
m ung
m ain
es telle
ĠS ix
ĠB un
ĠD ress
ig o
de p
Ġp od
ĠF aktoren
ĠG ary
ĠK lin
ĠK roat
Ġc erem
ĠW ikipedia
ĠR ake
ĠC urt
Ġer rang
ĠN ash
Ġl iquid
ĠV at
ĠO range
Ġre ar
eb el
Ġcom pr
Ã¼n schen
ĠLand rat
Ġsh ares
ĠPar allel
gemein det
Mann schaft
Ġzahl en
Ġâ ĪĴ
ĠJournal isten
ĠUN ESCO
ĠPok alsieger
sthe orie
ĠMÃ¶n chen
ÅĦ ski
Ġcir ca
O t
h Ã¤ngt
s heim
Ã ®
Ġt ube
ar us
ĠS id
re f
Ġm obil
ĠP le
ĠZ ut
Ġde fault
ĠÃ¼ber zeugen
Ġwo oden
Ġem phas
wert ungen
Ġprop osed
Ġter rit
190 4
Ġfour th
Ġindustr ies
Ġwhe el
Jose ph
ĠDiam ond
Ġfavour ite
V C
j un
æ ľ
te le
ĠT ed
ĠT Ã¤ter
ĠE rot
ĠL Ã¼n
Ã¶ hm
Ġbe geg
ĠN OT
Ġvon einander
Ġj ahr
ib il
qu et
Ġso ul
ĠTe en
Ġus ual
Ġro te
Ġnew sp
ĠBundes straÃŁe
Ġausge dehn
reg ister
ĠEd itor
ĠHel den
ĠTre ff
190 3
Ġjeder zeit
gehen den
Med ien
Ġill ust
leis tet
ĠtÃ¼rk ischen
**** ****
ĠHarr is
Ġbedeutend sten
ĠArzne imittel
S etz
S Ã¤nger
t ages
es k
Ġt ank
us che
le e
Ġv end
ĠM iet
Ġh ind
ĠF Ã¤lle
ĠK ate
ĠK iss
ĠE k
ĠW at
et tet
Ġer zeugen
ĠN an
ĠJ ugoslaw
ah ne
ip t
ĠReg iment
Ġnew ly
ĠTr ink
Ġverb inden
ĠSal es
other apie
Ġinternational er
ĠauÃŁer ord
vÃ¶lker ung
ĠFach werk
195 3
ĠBrit en
Ġzuf rieden
ĠLaus anne
Ġziem lich
S uper
e xt
k linik
m ing
Ġt ables
ĠS ob
Ġin frastructure
ĠB j
ĠB ischÃ¶
ĠL anc
ĠL ars
Ġge fe
ĠO cean
Ġon going
ith er
19 46
oc aust
zeit lich
Ġbeg raben
Ġinv ited
ĠMag d
Ã¤us ch
ĠÐ ¸
En gl
Ġauth ors
ĠDres dner
kn Ã¼p
Ġfunction al
Ġchines ische
ĠInstall ation
Ġverab schie
ĠPersÃ¶n lichkeit
F amilien
a ult
d oc
Ġw itness
ĠS uz
Ġm otion
ĠM ei
st iftung
Ġc um
ĠW icht
ir aten
ĠN acional
la im
Ġne ur
ĠSp alte
ĠUnter grund
ober flÃ¤che
Ġinter face
ĠEx pl
An y
Ġange kÃ¼nd
aur er
ĠStand ards
Ġsl ot
Ġbew ir
ĠWal ker
Pl Ã¶tzensee
Ġinstall iert
Ġelekt rische
ĠRen ov
Ġpartners hip
ĠVoraus setzungen
Ġproced ures
ĠBiograph isches
% .
H R
R hein
k Ã¼
w ass
Ð ³
ĠS ind
ĠP ent
ĠP ension
ĠG rant
am as
ĠH ip
ste chn
tell te
Ġch icken
ĠIm pro
rich en
Ġgew inn
Ġ16 00
Sch iff
ĠWh it
Ġheraus ra
ĠBur ger
ĠMot oren
kan al
ĠrÃ¶m ische
rÃ¤nk ischen
ĠSamm el
ĠOpt im
Ġexhib ition
Hein rich
ĠInnov ation
ĠTats ache
Ġtroub le
ĠSynag oge
Ġnorm ally
F iction
c ers
l ob
en ix
is st
Ġb ags
Ġf urn
am ann
ĠI tem
et ch
Ġbe ziehen
ĠN ob
Ġy es
ĠEr ziehung
Ġwas h
ire ktor
ĠAus gleich
Ġcomp lic
ĠSte ven
ĠAd ams
Sch ach
Ġserv es
Ġgesch Ã¼tz
ĠNieder lagen
ĠChar ts
Ġcar ried
ĠBel ie
esent liche
Ġresearch ers
ĠDesign s
Reg ion
ĠFlor ian
Ġdeb ut
ĠKing dom
Ġbem Ã¼
bas is
Ġprof iles
wander ung
jew itsch
ĠLuz ern
Ġath let
Ġverbesser te
ĠSchicks al
Ġgg f
H O
I mp
h Ã¤nge
i u
p Ã¤dagoge
Ġt ur
ĠS ad
ur teilung
ge gangen
ĠP ath
ĠT akt
ĠK ings
ĠH au
ent schieden
ber atung
Ġr is
be zirks
Ġex ternal
ob ahn
ome ter
Ġman chen
Ġte x
ĠFl orenz
Ġlie ben
Th anks
ĠMed aille
ĠNord west
ĠInter ess
ĠBel ast
lÃ¤nd ischer
ĠMont ag
ĠKom Ã¶die
SS R
BevÃ¶lker ung
Ġwand te
Ġprovider s
Ġsech sten
Ġign or
Ġumfass ende
ĠPiet ro
Ġcit izens
ĠScot land
leucht ung
K E
Ġt iefer
or er
Ġw Ã¤hlte
us er
Ġm ole
ĠK ay
ĠL if
ĠC hel
ir s
Ġan alyt
ab ad
kt on
ant rieb
Ġwe ak
ite es
io den
Ġte ch
Ġ9 1
ĠBand e
Ġsol o
Ġinst ance
schutz gebiet
Ġabge leitet
ĠKommun ikations
ĠLu is
ĠDenkmal pflege
Ġlik es
Ġenter ed
ĠDet roit
ĠIdent itÃ¤t
Ġimpress ive
ĠmaÃŁ geblich
Ġkorre kt
" -
F ach
L ei
M M
T ag
u ing
ĠF isher
ĠK ill
ĠV III
Ġk ing
ĠO ste
ĠZ irk
ver w
Ġ18 32
19 48
be hÃ¶rden
Ġex port
ure au
ĠBer Ã¼cksicht
ĠMar in
ĠNach kriegs
ĠIm mer
ĠVor gang
ĠUnter richts
ĠSo ft
ĠMed iziner
ator in
ĠDo zent
itu ationen
Ġsetz ten
fred akteur
rist all
iro ler
Ġhon or
Ġorigin ally
Ġdetermin ed
ĠHild esheim
P osition
f ranken
Ġf Ã¤hrt
Ġv ast
ĠF L
ĠE igenschaft
ĠI ce
ĠH eld
ĠJ ag
Ġal ign
ĠO il
Ġfor ec
ard i
Ġ4 50
att oo
ĠMus lim
ork ommen
ĠEx ception
Ġange ordnet
ĠMo ore
Ġfound ed
Ġtre ated
ĠSand stein
fried hof
Ġerk ennbar
Ġcra zy
Ġregion alen
ĠInstr umente
ĠLaur a
Je an
E vent
z ien
Ġf usion
Ġm Ã¼sse
ĠA sk
ĠG ul
ĠK lagen
ĠE b
ĠW affe
ĠV alen
ĠSt rÃ¶m
ĠZ iegel
ĠAn wendungen
Ġ18 42
ren e
Ġ0 3
ĠChar lie
Ġsk ill
anad ier
ĠForsch er
ĠDire ct
Ġimpro ving
ĠÅ ½
ĠBu y
Arch itektur
Ġcook ies
ĠDemokrat ie
ĠTok yo
ĠQue ens
Ġverhinder t
Ġarg ument
B R
W A
p ur
Â §
Ġw Ã¤ren
le itete
ĠL Ã©
ess ed
th ese
qu ire
ov iÄĩ
pl Ã¤tzen
ĠPh ill
ĠPe er
Ġbl ow
Ġ[ ...]
ĠKat astrop
190 6
ĠKommun e
Ġbisher ige
Ġtell s
usst sein
Ġgek ennzeichnet
Ġbott le
ĠVorder grund
ĠGesell schafts
ĠkÃ¼nd igte
m ay
in ary
Ġa wareness
ar mee
ĠG ib
ĠR ight
ĠL ac
ic ultural
Ġg olf
ĠC ool
ier ra
ĠO F
Ġwar n
ĠSp enden
ang riff
ĠBe wertung
Ġ18 36
Ġ18 41
ĠDe cken
amm ed
Ġbet Ã¤t
Ġfin de
Ġoff ices
ĠSh akespear
rÃ¤s id
Ġbesch rÃ¤nkt
ĠBre ak
fra uen
ĠWohn ungs
ĠIns zen
ĠSol ar
Ġfood s
ĠWeb prÃ¤senz
Ġsuper ior
Ã¢ teau
ĠEv ans
ĠTemperatur en
ĠFranzÃ¶s ischen
ĠRon ald
Ġgez Ã¤hlt
ĠBÃ¼nd nis
ĠGebirg s
ĠLiver pool
G ar
J a
R enn
h Ã¤n
k ter
u ine
Ġb order
Ġein gemeindet
ĠG ift
ies sen
Ġfor um
sp olitik
ard in
19 43
be vÃ¶lkerung
ĠPh arm
Ġfol ks
ĠBet riebe
Ġausge prÃ¤
mittel alter
ĠHeil bronn
Ġdefin ed
Bau denkmal
ĠRestaur ants
ĠEff ekt
dar steller
loy ment
Ġrechte ck
Ġperman ent
b urn
u in
Ù Ħ
it ative
Ġv intage
ĠT otal
ĠI b
Ġfor ced
Ġ18 21
Ġcon sequ
Ġ10 5
sk on
Ġmus lim
ĠFe ier
gra b
Ġerreich bar
ĠMat rix
Ġverm utet
ĠErn est
ĠFernseh film
ĠSied lungen
ĠCla ude
ĠBist ums
Ġerf Ã¤hrt
inde x
uum l
Ġverg essen
Vol ks
verteid iger
Ġeindeut ig
B lack
Ġb id
ig r
ĠP aper
ol in
ĠT U
ĠT ipps
ĠH ut
ad ion
th is
ĠAb satz
att ach
ĠVerb indungs
Ã¤uf e
Ġdep th
ĠSw iss
fa ction
ĠMary land
Ġnormal en
Ġtransport ation
ĠMach ine
Bundes liga
How ever
ĠPian ist
ĠVinc ent
ĠHawa ii
Fo otball
ReprÃ¤sentanten haus
b em
in cess
Ġa gencies
Ġin telle
ĠB olog
ĠM az
ĠL atin
ed u
ĠC ord
ĠN AS
ĠV ision
Ġan al
Ġge ar
Ġver standen
ĠAn bau
ĠEr m
Ġbei ge
ant a
Ġdurch setzen
ĠTe uf
fin det
ĠSchw Ã¤b
pl ates
Ġph ase
Ġsk y
ĠPat rim
Ġgl ad
wor ld
ĠSol id
ĠAir es
ĠPra ct
Ġprote cted
Ġreturn s
Med iziner
ĠNic ol
ĠErzÃ¤hl ungen
Bad minton
ĠHoll and
Ġausgesch ieden
A ir
E ins
f isch
l Ã¶s
Ġ ~
on er
Ġf erner
ĠB auf
ĠD allas
ol ine
ĠSt ark
la p
th iop
qu artier
ĠAr ist
ĠTh read
Ġpr icing
ĠSchw ein
Th ank
ĠĊĊ ĠĊĠĊ
Ġdr ugs
Ġteil te
Ġpubl ish
kon zept
ĠIns urance
Ġorgan ized
ĠSÃ¼ ÃŁ
ĠEner g
Ġprote in
Ġqualifiz iert
ĠTat ort
ĠIll ust
ĠZerst Ã¶rung
Ġspezial isiert
ĠOze an
Ġdanger ous
Listen er
Ġaccep ted
å½ ±
D el
P rÃ¤sident
S ach
T ION
a ucht
d ichte
k ular
Ġa men
ĠS D
us a
Ã¤ use
ĠT alk
ĠC ock
ĠO skar
Ġy ard
ts te
ĠVer f
Ġab gelÃ¶st
Ġhe ating
Ġ18 38
erk raft
chn ungs
ĠEx port
ĠPf ei
Ġgeb unden
iner y
Ġspe aking
ĠBre m
ĠBas eball
ĠRo und
Ġdi am
wissenschaft lichen
ĠLuft waffe
ĠHistor ischen
Ġprogram me
ĠInn ere
ĠLib retto
Mod el
Ġevangel isch
Ġasp ect
ĠAuft ritte
ĠExped ition
Ġfoll ows
2 50
U hr
e ction
m Ã¼n
t ur
u der
Ġt aught
ĠD Ã¼
ĠD Ã¼r
Ġn utzt
ĠF ly
ĠG ibt
ĠE ag
ĠH Ã¤nd
ent urm
ĠL ith
ĠV iv
Ġge kauft
ĠAn at
ĠÃ¼ber le
ac on
ĠEn joy
Ġbes ter
oun ge
fahr ung
oth y
urt stag
Ġcomm ission
ĠHol y
Ġgef Ã¶rdert
ĠGu y
Ġsign al
Ġbig ger
ĠTro cken
ikal ische
Ġangegeben e
Ġkrit isiert
Ã± a
ĠAuseinanders etzungen
ĠanschlieÃŁ enden
7 00
A E
B ot
F k
d ro
k Ã¤mpfe
r ise
er gie
Ġa id
Ġm ath
ĠH ass
ĠW esen
Ã¶ ner
ck el
Ġe ast
âĢĻ .
ĠAb raham
ĠZeit ungen
rif t
ĠPar ad
ĠDies el
lÃ¤ s
li ament
Ġfre edom
ĠWei h
Ġmom ents
Ġcapt ure
Ã´ ne
Ġfig ures
ĠWes er
Ġfrequ ently
Ġmill ions
ĠWurz eln
Ġbesetz ten
L ie
W olf
e z
n ommen
s l
Ġw ander
un er
ĠD irk
ĠD ritter
Ġh osted
Ġge heim
Ġgew isse
Ġro ugh
ĠGes am
ĠAut on
ĠĠĠĠ Ġ
ĠBet reuung
por ter
ĠLandes regierung
ĠLie ben
Ġhistor ique
ĠQual ity
Ġfac ilit
umb oldt
Ġconf ir
voll stÃ¤nd
ĠAth leten
Ġwid ely
ĠEntscheid ungen
Ġord entlich
ĠSup reme
Ġweib lichen
Ġviol ence
Ã¤ll ig
ĠToy ota
K al
K ur
L ouis
S pr
k ilometer
k reise
m Ã¶
er b
Ġa w
Ġa part
st urm
de cker
ĠT afel
ĠE ichen
Ġk Ã¤mpfen
Ġth orough
Ġge omet
ĠSt reich
ĠSch al
ĠEr mitt
Ġme at
Ġqu otes
inn ers
ĠPl ug
sh ut
Ġind ire
ĠMed al
Ġmin ing
Ġsub stant
ĠUr kunde
ĠAss istant
ĠMor gan
Ġident ified
Ġgre w
ĠPop ular
Ġfinanz ielle
ĠniederlÃ¤nd ische
Ġinstru ctions
Ġphotograph s
Ġbelg ischen
ĠRess ourcen
I nde
Ġd t
ĠS audi
re lated
ĠA ra
st lichen
ĠH K
et o
ĠL an
Ġer leich
ul ing
Ġim pl
ĠSt Ã¼tz
Ġst ated
Ġ18 14
ord nen
Ã¤r er
In halt
ieren der
ĠMa j
pro fit
ĠZw eiter
IN E
Ġcho osing
Ġwrit ers
Ã¤m mer
Ġoft mals
Ã¤ss ern
Ġconc ert
Ġgenau e
ĠGeist es
ĠLaw rence
Ġconcern ed
Ġemploye e
Ġsubmit ted
ĠTrom pe
Rei he
G E
G leich
I hre
h ost
s endung
Å ¼
Ġ essen
ĠS E
Ġf esten
ĠB ible
ĠB aker
ĠG reek
ĠL ay
ĠL ohn
Ġbe an
ir r
ĠV ic
ĠJ emen
ĠZ ert
ĠZ wick
ĠSch icht
ĠVer teilung
ap olis
ĠUn it
ĠÃ¼ber rasch
be an
ĠSe ktion
ĠUnter k
Ġcomp at
ĠPr ize
ĠPf licht
ĠHaupt ort
ĠMann es
sche f
schlieÃŁ en
ĠJe wish
ĠFest schrift
Ġbede ckt
ĠRuss ell
ĠFrankreich s
hÃ¶ hung
Ġdeb t
ĠWand el
ĠBeweg ungs
ĠVul kan
ĠHT ML
Ġdoll ars
ĠErober ung
ĠausdrÃ¼ck lich
I r
N etz
á º
en cy
ar ben
le mente
ĠF at
ĠC omb
Ġer gab
ers e
Ġst im
Ġne ug
ĠSp ons
ĠUn i
ĠVor gehen
ĠFl ash
Ġqu ote
ors itzen
Ġins zen
app ing
Ġprov en
Ġtr ib
ĠCl ar
Ġele v
Ġbef Ã¼r
ĠMitte le
ĠMer cedes
Ġentire ly
Ġliter ature
Ġannoun ce
Gra f
ĠkÃ¼nstler ische
ĠBundest ags
ĠRal ph
ĠDiÃ¶z ese
ĠBulgar ien
F ield
P ap
Z usammen
Î º
Ġm att
il o
ig ger
ol stadt
ĠF lex
ĠK ass
ĠH ack
ĠR iesen
Ġg al
ber gt
ul us
ĠIn cl
Ġun e
ĠVer pflicht
ru ption
Ġso le
oy a
Ġmus cle
Ġgest altete
ĠSicher ung
Ġbedeuten den
ĠAnge legenheiten
ĠTit an
ĠRum pf
Ġgraph ic
Ġgraph ics
cep ts
ĠGebÃ¤ uden
Ġschwier ig
ĠPow iat
Ġsud den
c in
l och
r iz
Ġs ink
ĠB ott
Ġv irus
ro g
ĠK ot
ĠL A
ĠL ic
ĠL etter
Ã¶ mm
op fer
ĠÃ¼ber ras
up t
ĠGe orges
Ġsh ift
lan ke
ĠFor mal
Ġtra g
ĠPl at
ĠGra nde
Ġass ets
mar ine
Ġeng agement
ĠPlan eten
Ġclos er
Ġlet ters
ĠÃ¶ff nen
Ġunterschied licher
Ġturn ing
Ġcreat es
Ġzurueck gegeben
ĠRob in
Ġerziel en
Ġcompar e
Ã¤rk ung
Ġqualifiz ierten
mag azin
verstÃ¤nd lich
ĠBundest ag
tw och
ĠÃĦm ter
Setz liste
T schech
Ġd auert
es tet
Ġt ested
he ide
as ure
Ġv olle
st unden
ĠF aust
Ġc am
ĠH uss
ĠH Ã¤nde
ĠC ape
ist ing
Ġver lei
ĠEr forschung
rie ge
ĠPro zesse
Ġunter richtete
ob achten
ĠIm plement
br unnen
Er ste
ĠEl be
ĠLebens raum
Ġfac ing
produ kte
Ġadv oc
AR D
Ġhol idays
ĠMot to
ĠAmts gericht
Ġnet works
ĠPan el
Ġerz ielt
ĠDro gen
ĠUrs ula
Ġinvestig ation
Ġguid ance
ĠMalays ia
A tt
h aut
o iden
r igen
Ġd ental
Ġs aÃŁ
Ġf ried
Ġh insichtlich
am an
Ġc odes
Ġz one
ber eiten
ĠC S
ik ers
ĠZ ag
Ġ18 39
Ġsie d
ges ted
ĠLe er
Ġlie gende
lieÃŁ t
Ġ0 6
ĠNor bert
Ġger man
ĠAll ein
Ġret ten
ĠSa arbrÃ¼cken
laub te
Ð¾ ÑĢ
mark e
Ġinvest ors
Land es
ĠSamm lungen
ĠFeder ation
Ġhy per
ĠStraÃŁ burg
EMail Adresse
check EMailAdresse
ĠSingap ore
Leicht athlet
E mp
c as
k inder
z ure
le ans
st art
ĠG umm
ĠT ak
ĠE uch
ra ut
ĠH l
Ġg ifts
Ġto urn
ĠN elson
ob a
St ate
Ġtyp ischen
ĠZusammen schluss
ĠOst see
laub nis
ĠSen ioren
Ġaff ected
Ġelect rical
ĠErd geschoss
ĠKrit iker
ĠFinanz ierung
ĠGlas gow
ĠPhot os
ĠJon athan
M ein
M ay
S et
h Ã¶ch
Ġs amt
ĠM ob
ĠD ritt
ĠT O
âĢ ¯
ĠK enntnis
Ġc ake
Ġc arbon
ĠN est
Ġe ase
Ġre ichte
Ġr ural
ĠEr langen
ĠSp ain
Ġle ichte
Ġ18 13
Ġex cess
Ġent deckte
ĠTe atro
ĠLe gende
ĠSe ver
ĠUnter schiede
Ġmy th
ĠPl attform
acht ung
ous ine
ĠStud y
schl Ã¼sse
bes te
leg ungen
Ġgel Ã¶scht
ĠfrÃ¼ he
Ġentsp ringt
Ġbed ro
ĠHar z
Ġdien ten
ĠFal ken
Ġhappen ing
ĠEigent um
fÃ¤ll ig
ĠAuÃŁ ens
ĠBerÃ¼cksicht igung
Fk EMail
Ġa ben
ar est
ĠB utter
ĠB erke
de uten
ĠG is
ĠK amm
ic it
ir i
ĠV ice
ĠO K
ver kauf
od ing
Ġsp lit
ĠBe arbeitung
19 47
Ġme al
ac a
Ġman aging
ĠAb fahrt
vers uch
ĠUr heber
ĠDar stellungen
ĠWer ft
jÃ¤hr ig
ĠCor p
ĠRuss ischen
ĠTurn iers
ĠTrans fer
Her r
wes ens
dr ama
bour g
zub auen
Verb reitung
ĠWett kampf
Ġverbess ert
Ġverstorben en
Ġestim ated
ĠBegeg nung
ĠForts etzung
ĠEvalu ation
ĠInse kten
> .
C arl
Ġt ile
Ġs uff
he iz
Ġv oc
ic ulture
ĠC V
ĠC ant
Ġbe arbeitet
Ġan x
ĠSt ufe
zen z
auf gaben
ĠVor lage
Ġpr ide
ĠAnd y
Un ser
ĠHaupt bahnhof
ata ill
Ġletz tes
Ġgra b
ĠPla yer
ĠSeit dem
ĠTo uch
Ġperform ing
195 1
Ġmir ror
ĠIde al
Welt cup
Ġerk ennt
Ser ver
ĠGesetz es
ĠCap ital
Ġzweit es
ĠAR D
ĠkÃ¼nstler ischen
Pla y
Ġbefind lichen
Ġsustain able
ĠVerbreit ungsgebiet
ĠBuen os
Ġsympt oms
ĠGetre ide
M ot
m il
p ubl
r one
ur de
Ġb io
Ġv it
ĠM uh
Ġn ob
ĠF ive
Ġg rÃ¼ndeten
ir al
iv ier
os er
ts piel
sp anisch
ĠMit ch
ĠSe chs
Ġar ray
isten ce
ink i
Ã¤ch ter
gew Ã¤chse
ĠCo le
Le ague
Ġerhalten en
Ġextre me
Ġbetre ff
ĠDub lin
Kurz film
cu ador
Ġkulture llen
ĠSyr ien
A g
T O
W eiÃŁ
c re
Î »
ig ert
ĠH ud
Ġg ent
Ġan gewand
Ġver e
Ġver fasst
Ġaus gerichtet
Ġr ig
Ġsp ark
ĠÃ¼ber zeugt
land o
Ġte eth
ĠEx change
sh ore
ĠQu art
Ġsupp osed
ĠKinder garten
upp e
ĠRad rennfahrer
ĠDu ke
Ġ180 8
ĠUl m
ĠErw in
ĠPrem ium
kur renten
Ġrelig ious
Ger man
ĠUrs ache
ĠVerdienst ordens
ĠBrie fe
ĠAlf ons
Relig ion
b els
c al
Ġs ick
Ġw ra
ein kommen
ĠM eine
ĠP Ã©
ĠP ionier
Ġp ill
Ġh art
Ġh armon
ĠK alender
Ġc otton
ik ts
Ġfor est
op ing
ĠIn tens
ag anda
ag entur
og ie
igen en
enn ame
ac ted
ĠSpiel ers
Ġausge geben
rol ler
alle tt
ĠRed akteur
cript ions
190 2
Ġleben den
ĠzusÃ¤tz lichen
ĠSant iago
ĠVal ent
ĠZust immung
ĠUntersuch ungs
Ġneg ativ
Cl ub
Ġearn ed
Techn ische
ĠBath room
J ul
d re
ĠS ultan
st Ã¤dt
ĠT R
ĠK em
om orph
sch ach
and y
ist oire
ĠN utzen
Ġk reat
Ġk andid
ĠSt Ã¼r
ann over
ĠEr stellung
ĠAuf fassung
Ġtra v
ĠAd miral
Ġsol ve
hed rale
Ġwest liche
Ob wohl
ĠGast geber
ĠMiss issippi
kap it
ĠPil ot
Ã¸ r
ĠVerkauf s
Ġhighl ight
ĠKÃ¤rn ten
D ec
H D
S u
h all
p on
Ï ħ
Ġt ut
ĠA V
ĠT um
ĠK omm
ĠE volution
sch a
ĠH Ã¤uf
ĠW i
ĠW asch
ĠL Ã¤ng
ien e
ĠSch lÃ¤
hn s
ĠAl abama
ĠEin zug
Ġwe alth
Ġ17 90
lÃ¤ chen
ĠVerb Ã¤nde
ĠPaul o
Ġavail ability
Ġunser es
ĠAg ain
ĠSchiff es
Ġflo ors
Ġtradition elle
brÃ¼ ck
Ġdra wing
Ġinform ed
Ġinform ieren
ĠbenÃ¶t igen
Bahn hof
ĠMand at
ĠLuc as
ĠInvest ment
Ġhum or
ĠJob s
ĠgefÃ¤hr det
ĠFlag ge
ĠBlo od
ĠSak r
Ġgeplan te
ĠKent ucky
S K
T est
b ald
Ġd ialog
Ġt iss
ĠD ag
st yp
ĠP og
Ġh idden
ĠF okus
ĠT ry
ĠK rÃ¼
ĠK Ã¤mpfe
ĠH R
ĠR Ã¼st
Ġk ar
Ġan alog
Ġe cht
Ġi OS
Ġch apter
ahl en
ĠPl atte
Ġfre ier
Ġac id
ĠCo ach
ĠÐ ½
ĠPark er
Ġgr ass
Ġimp ossible
ĠSied ler
ĠHal f
ĠEt wa
Ġdiscuss ed
ĠermÃ¶glich te
Ġdauer te
Ġnar row
ĠGatt ungen
ĠSkulpt uren
Ġbevorzug t
penden ce
! âĢĿ
R ich
m esse
as ie
ĠE asy
Ġc orn
ĠH C
Ġg lo
ber to
Ã¶ ster
ab lo
Ġex ception
ĠGe fÃ¼
ĠAb hÃ¤ng
Ġwor aufhin
mit tler
ĠPr ime
br ig
Ġvers ions
Ġvers orgt
ĠTour isten
Ġredu ced
ĠGef Ã¤hr
ĠGeheim nis
veranstalt ungen
ĠArchÃ¤ ologie
Ġkeiner lei
Ġexcept ional
izien z
Ham burg
ĠKav aller
B ack
C hem
I O
T B
W E
b il
Ġ Ø
Ġd ual
Ġt olle
ein trag
ĠM ong
ĠF abr
ĠR Ã©
ĠL aser
Ġbe le
Ġre fin
ver liehen
ĠVor arl
Ġpr imar
ĠSh are
ĠOb ject
ĠHol ocaust
ĠUr sprÃ¼nglich
ĠKomp lex
ĠSen ats
ĠHeil ige
Ġmag ic
ĠWeiter entwicklung
ĠEst ate
ĠPed ro
Ġbrow se
ĠNeum ann
ĠBeam ten
Russ land
ĠVog t
spart ner
ĠgefÃ¤r bt
T her
ĠS N
ĠB ond
em ester
ic ity
and ro
ĠN Ã¶rd
ik ten
est on
est het
ver ordnung
ĠVer hÃ¤ltnisse
ia e
ĠTe ch
Ġgen auso
ĠFran co
ish i
Ġber aten
ĠTr io
ĠMed ic
ĠMed ik
halt ungs
Ġdire cted
Deutsch es
ĠAt tra
ĠBel agerung
ĠPal Ã¤st
AT ION
ĠnÃ¶rd liche
ĠProble men
ĠBaum w
ĠKor ps
ĠJur a
ĠGi useppe
ĠSalz burger
ĠZwe cke
Ġerk annt
ĠMount ains
Ġexpla ined
Christ ian
Kan al
Ġdokument iert
ĠCommon wealth
M Ã¤nner
O ut
d ale
Ġin stitution
ĠA chter
ing ung
ĠT oren
Ġz entral
ra ul
ĠI an
ĠR ights
ĠSt ifts
est adt
os c
ĠZ ellen
Ġver ring
tell igent
19 15
ack t
omp son
utz ten
ĠGra ham
ĠGes ichts
ĠBo ys
ĠÃľber wach
schl Ã¼ssel
Ġdesign ers
Ġviel fach
ĠPhil h
Ġrem aining
ĠGegen stand
Ġcolle cted
Ġflo oring
Ġtreat ments
sprach igen
ĠBill y
ĠWahr scheinlichkeit
Ġsignificant ly
Ġkulture lle
Ġprogramm ing
fÃ¼ll ung
ĠCapt ain
organis ationen
ĠBundesverdienstkreuz es
D reh
P L
n ai
ĠS ich
ĠS ou
ĠS ag
ĠA B
ĠA telier
ĠB ibli
Ġh ung
ĠI wan
Ġg rad
ĠC ir
Ġauf nehmen
âĢĻ ,
Ġsch olar
19 49
ov ed
los er
ied el
ystem s
ĠStra tegie
Ġvers p
bild ner
hel ess
Ġfact ory
On ce
Ġbeteil igten
ĠMas ters
Ġcele b
ĠBlÃ¼ te
Ġhab ilit
Ġlib y
Ġzeich net
ausschuss es
ĠLetz ter
ĠWurz el
ĠSecret ary
Ġdiskut iert
ĠTai wan
Ġbrill iant
ĠDreiÃŁig jÃ¤hrigen
C an
D ienst
L ang
T F
h Ã¤lter
l ler
o fen
w il
ä º
re z
ĠM indest
Ġo cean
ĠP ant
ĠF ashion
ĠW ink
ĠJ immy
Ġk unst
ot ischen
ĠSt apel
ĠSch acht
Ġst ring
Ġab zu
Ġfe iern
ock el
gl Ã¼ck
ĠOber liga
Ġno ted
fess ion
ĠVerb rechen
ĠMet ro
ĠBÃ¼ chern
Ġweek ly
bet riebe
Ġorder ed
Ġerne uert
ĠCal c
ĠTyp en
Ġdre ams
leben s
herr n
Ġalong side
kn oten
aun us
Ġregion ale
ĠGre y
Ġinteress iert
Ġfa iled
ĠMatt hew
Ġimplement ation
mot oren
Ġsitu ations
Ġstyl ish
ĠDokumentar film
ĠFertig stellung
M el
V iele
W ein
h ier
ie hen
ĠS L
ĠB ent
ĠM ira
ĠD A
Ġc ater
ĠI M
ic ted
ĠC B
Ġk Ã¼mm
Ġre chter
ĠAn aly
ĠEr sch
ĠGe lehr
Ġen ger
ĠNach lass
Ġob s
Ġem otion
ĠDr amat
ĠAg ent
Ġfile d
ĠUp date
Ġmem ories
ĠGolden en
ĠdÃ¤n ischer
Ġmusikal ische
;; ;;
ĠiP ad
1 12
M ap
c ular
p df
u y
Ġs itzt
ĠS ide
ĠS alt
ĠM other
Ġn one
am ic
ĠC L
ĠSt uhl
ab wehr
Ġre ader
tel la
id i
Ġaus zu
Ġr ichtete
Ġj ene
qu ote
fer enzen
ction al
Ġlie ber
ĠGem Ã¼se
St il
Ġob lig
Ġger ufen
ĠMittel feld
For sch
ĠRechts wissenschaften
kon omie
Ġfac ts
oin ts
Ġcommon ly
Ent wicklung
stud ien
ĠUt ah
ĠVerletz ungen
C ount
R ot
W hether
m auern
v enz
ch sen
Ġa er
ĠB L
ĠD elta
ĠP itts
ĠF ron
âĢ ³
Ġre produ
Ġst opped
Ġfor med
Ġ18 28
Ġ18 44
pr esent
tem pel
Ġste uer
ĠSte wart
ott a
ĠFilm regisseur
Ġind ischen
Ã¤nder ung
ĠAnt ar
anst alter
ĠRÃ¼ck zug
Ġret ire
ĠSpe z
ĠAir lines
ĠSpr ings
wal ts
ĠJos h
Ġmusikal ischen
Hein z
stad ion
Ġster ben
Ġgrund legen
E ff
T M
T urnier
Ġd rag
Ġa warded
Ġt ap
Ġb read
Ġm or
ĠD ating
ĠK ran
ĠH Ã¶l
ĠR Ã¼
ĠL ug
ĠL oren
ĠC amer
Ġl aden
ĠZ it
ĠSch re
Ġzu verlÃ¤ss
ĠAn w
Ġle ts
ĠBe cken
19 17
be il
be weg
rÃ¤ g
18 89
ĠVor teile
Ġgen ehm
man ager
ellen ce
ĠTra il
oph on
ĠProdu kten
schn itten
Ġstar ben
ĠStaats anwalt
Ġgut es
ĠLou ise
ĠberÃ¼hm ten
htt ps
ĠChallen ger
ĠEncyclop edia
ĠShang hai
D uring
M ess
ch in
Ġb ay
Ġb Ã¶hm
Ġf emin
ĠP uerto
ĠF urniture
ĠT ap
ĠL LC
Ġge teilt
Ġge gliedert
ĠVor les
Ġgen der
ĠAd rian
ĠEurop ap
ĠVers uche
Or igin
zent ren
fern t
ĠTo ul
Ġcr usher
Ðµ ÑĢ
Ġcap able
bÃ¼ hne
ĠDec or
grÃ¶ ÃŁer
Ġenter prise
ĠSter ne
Ġrelig ion
ĠBa iley
Ġbrach ten
Ġreligi Ã¶sen
H en
K or
b eben
g ymnasium
t urm
Å ĳ
at ra
ĠA j
ĠD L
ĠD amp
ĠT ol
im il
ra ums
ber ichte
ĠC ow
Ġge gangen
if ter
id as
ĠÃ¼ber arbeitete
be y
ĠSe kund
ĠNe uk
ĠAus sehen
pro of
ĠMed aillen
ĠVol ker
ĠIs lands
ĠVers icher
Ġsm ile
Be wegung
Ġabsol ut
fre unde
ĠIhr es
Ġpersonal ity
So zial
ĠPo et
ĠLo e
ĠAnn ual
aser ne
Ġtell ing
Ġremov al
Ġsuppl iers
ĠKanz el
ĠConne cticut
Ġdurchschnitt liche
ĠLearn ing
ĠplÃ¶tz lich
H g
P ubl
Y es
Ġb omb
ĠB ilden
ĠP ommern
ĠG la
ĠG lass
ĠH ins
ed a
ĠSt yle
Ġsp iegel
Ġ18 34
ĠEin ladung
ĠOr leans
je ction
ĠVor runde
ĠJan eiro
ĠgehÃ¶r enden
âĢ¦ .
zie her
ĠsÃ¼d liche
ĠAt las
Ġbook ing
Ġrep utation
Ġatt orney
Sh ow
pol izei
Ġmatch es
ĠEvangel isch
Ġregul ations
ĠErk enntnis
Ġconcern ing
Ġbedroom s
Ġcompon ent
ĠBrook lyn
ĠCru z
Ko ordinate
? "
A ber
L ied
p rechung
Ð ¿
Ġd ump
Ġa wards
is men
Ġb ond
Ġin halt
ĠD ess
ĠT un
ĠK i
ĠE i
Ġc ategories
ĠZ uch
Ġj unger
Ġpro port
19 16
ov es
ĠTh ai
heit lich
Al ben
lauf bahn
hol der
ĠLie chtenstein
ĠBro t
Ġclos ely
ĠSozial demokrat
ĠVe get
ĠChem nitz
ĠKrit erien
Ġindividu elle
ĠKirch spiel
Ġguid elines
Ġappe al
Ġneut ral
Denk mal
ĠDonner stag
ĠNev ada
9 00
G old
l Ã¶sen
ĠE R
Ġg ast
ed el
ĠC ash
Ġl ob
Ġst ab
ver teilung
Ġle istete
ĠPro cess
ĠLe hen
18 96
rat ch
olog ist
mit te
Ġro y
St atus
ĠGra phen
ĠStud ents
Ġ/ /
Ġsho ot
Ġdiffer ences
ĠSchul ter
ĠZusammen setzung
Ġel ig
Ġabge geben
gef unden
Ġinn ere
Ġversch oben
ĠPil oten
ĠAc adÃ©
ĠKrie ger
Ġportugies ischen
B ur
M oder
k arriere
m ol
m essen
es er
is emit
it ischen
Ġb ild
ĠM ick
ĠD in
ig rant
Ġbe obachten
Ġer zeug
den ken
Ġl uck
if est
Ġwh ilst
Ġle iden
her it
ue z
erk rank
ĠAus richtung
Ġbeg rÃ¼ndete
Ġob jects
sh ow
Th omas
Ġreg ions
ĠVerein igte
arch itektur
ĠMag ic
sicht lich
rÃ¤n gt
ifiz ierte
Ġmember ship
ĠRu ine
urf ten
ĠErw art
ĠLang haus
Land tags
Ġstre ets
ĠOut door
ĠAnge hÃ¶rige
ĠCle mens
Eis hockey
Ġlehn te
Ġstet ig
Publik ationen
A K
A fr
B asket
S D
e u
h um
k ers
r und
Î ¼
or ama
te or
ĠD rachen
Ġaus gesetzt
pp ich
ĠEr finder
Ġsch lossen
âĢľ :
Ġvor n
ĠMit twoch
ĠSe pt
18 95
ĠSo ul
ĠPh ant
ĠAd l
ĠPf lanze
Ġjust ice
ĠĠĠĠ ĠĠĠ
Ġfl ower
vent ional
asch a
Ġperson en
Ġdiffer enz
Ġur auf
Ġzahl reicher
ĠRed aktion
Ġmag n
gesetz te
ĠKÃ¼nstler in
ĠTal ent
ĠBÃ¶ h
spro zess
hyth mus
ĠSmart phone
Ġvict ory
Ġdurchschnitt lich
Ġcrow d
H erkunft
M a
R obert
d ivision
f onds
w Ã¤
w eb
y ter
en ke
Ġs amples
at hlon
ĠB elle
ro se
ĠF em
ĠG rif
ĠH end
ĠC rit
Ġe gal
ĠEr haltung
ia z
pt y
ĠAuf fÃ¼hrung
zeich ner
ĠGesch Ã¤fte
Ġbek annter
Re gie
ĠUr kunden
Ex per
ĠDo es
Ġkurz zeitig
Ġenc ounter
ĠKandid at
Ġimmed iate
ĠTrotz dem
Ġincor por
Ġcelebr ation
Ġliefer te
ĠLoth ar
g lo
ie ter
ar ius
ĠS O
Ġh am
ĠF ish
ut age
ĠW ard
ĠW oll
ĠW eing
ĠW edding
Ġer baute
Ġim per
Ġver me
ĠEr ziehungs
Ġnach t
Ġ18 24
ĠEin tritt
rÃ¤ uch
Ġent decken
Ġunter brochen
uss ia
ĠCh annel
18 92
ĠMe et
mp el
ĠHaupt mann
recht lichen
ĠWor ten
ender s
Ġelekt rischen
kle idung
Ġrelativ ely
Ġdro pped
Ġexpla ins
Ã¼nde te
kommand o
Ġinstitut ions
Ġeingest uft
S tein
k ok
Ġ 000
ĠS ara
Ġin ch
le ep
ĠM C
ĠT ool
ĠK ein
ĠE arly
ĠC abin
Ã¶ hne
ĠV es
ab b
kt ors
sp rechend
ĠAn alysis
ack e
dem ann
ĠLand e
fol d
wer fer
ĠTr end
Ġgeb raucht
Ġra us
Ġmark iert
Ġkein em
Ġpat io
ĠAuss icht
ĠMay be
Ġcr ime
ĠEhren bÃ¼rger
ĠvollstÃ¤nd ige
Ġmiss ed
ĠVerl uste
ĠEvangel ische
ĠHy per
system s
ĠHart mann
Ġdescrib e
Ġvirt ual
klass igen
ĠDiffer enz
Ġwunder sch
ĠBolog na
D ep
H ello
T ake
b Ã¼r
h ub
m achen
Ñ Ĩ
Ġd oppel
Ġa partments
ar ium
ĠS ri
Ġb anks
ĠF itz
eit h
ĠJ Ã¤nner
Ġge habt
all i
Ġver grÃ¶ÃŁ
ĠRe z
Ġse ats
ĠDe kor
Ġdurch ge
fl Ã¼ge
of ern
Ġhier zu
Ġdec ade
ĠWer ks
Ġhistor isch
ĠPal m
Ġans telle
Â» ,
ĠAnge hÃ¶rigen
Ã¶p fer
Pre istrÃ¤ger
Ġdisplay ed
Bild ung
ĠVertra uen
Ġprimar ily
W al
Z ug
c enter
d an
i ja
m aking
y k
Ġs hr
Ġs olle
ĠS einen
Ġm ile
ĠB rÃ¤
el i
ĠD ays
ig ern
ĠF F
ĠI ra
Ġ2 20
ĠN HL
ier i
os itions
ĠSch ein
th alter
sp lan
sp rech
Ġi bn
Ġch art
ĠAb stamm
18 88
Ġpr ison
ĠFl Ã¼ss
gl adbach
Ġverw altet
Or gel
Ġgu ard
Ġmin ister
Ġrem ark
ĠWer bung
Ġtyp ische
Ġpolit ics
Ġrel ative
ĠTechn ische
ĠOper ations
ĠOs lo
ĠKind es
ĠÃ¼b te
Ġren omm
ĠKonz ern
Ġachie ved
Ġregul Ã¤ren
ĠWettbewerb s
Sa ale
Ġfail ure
Ġaccommod ation
ĠReprÃ¤sentanten hauses
ĠPseud onym
ĠBam berg
ĠInterpret ation
AuÃŁer dem
A rab
m g
m ass
ch witz
re ts
ter y
ĠF ix
ĠG y
ĠH i
ĠH arm
Ġl ucky
la te
ess ischen
ver arbeitung
ak h
ran gl
ian ischer
ĠCh ancen
ĠAus lands
18 93
co ck
ser ver
ĠArt ik
ĠFr ame
ĠOrts teile
Ġrest r
Ġfac ulty
Ġconf ident
Fl uss
Ġens uring
Her ausgeber
ĠSym pt
Ġneg ot
ĠProt otyp
Arch iv
Ġerschienen en
ĠMov ie
Ġjud ge
ĠSaf ety
ĠkÃ¶nig lichen
Absol vent
+ +
L iga
W issenschaft
l is
v gl
Ġa ims
re de
Ġm a
ĠT uch
ĠT iger
ĠO ption
os ure
ann els
ah me
Ġst amp
ill i
ĠAn nahme
ĠSp reng
ok ol
Ġ18 10
ungs weise
Ã¶r er
be zirke
ian ces
ĠTh ose
ĠSe il
18 85
Ġgew issen
ĠReg isse
nde z
ĠMon th
ĠMÃ¼n z
Ġeinz us
ĠMeister titel
reib ungen
ĠFach bereich
Ber uf
ĠZe ugen
welt meisterschaften
Ġemp ir
Ġcond uct
ex p
schlÃ¤ gen
Ġqualifiz ieren
ĠSatell iten
ĠClaud ia
Ġmur der
ĠbegrÃ¼nd et
ĠBerke ley
' '
C la
P ierre
S al
S am
T hre
b ilden
f elt
w issen
w ende
Ġb odies
ĠB anken
ĠP ink
Ġp hr
ĠG B
im ore
gen z
Ġge folgt
end ant
Ġsch lÃ¤
rom an
ĠCh ange
Ġad op
ogra fen
wa ppen
Ġev ol
ĠMan h
ĠNor m
Ġger aten
pla in
ĠCl ark
Ġben utzen
Ein ige
ĠDu o
ĠKol onie
Ġenjoy ing
Ġnie mals
ĠAuÃŁen minister
Ġmo ist
Ġarr ive
Ġdest roy
funktion Ã¤r
ĠDat abase
ĠDub ai
ĠBÃ¤ ume
ĠErzÃ¤hl ung
Ġattem p
ĠClin ton
ĠMargar et
Ġconfir med
O U
W ohn
j er
o ft
á ¹
ç Ķ
ar ent
ĠS hel
ĠM rs
ĠD ein
ĠG am
ĠE id
ĠH ung
ĠL il
Ġg ate
ist isches
ck now
ĠSt urz
Ġauf weisen
Ġab schloss
Ġ18 31
ĠÃ¼ber s
ĠAr c
geb ot
Ġfin ance
gew orfen
ĠAnd er
ĠNov a
ĠNieder schlag
Ġmon at
ĠBere chnung
ĠInternational er
ĠSpe ed
Ġdan eben
AL L
Ġentstanden en
ĠAre al
Ġerhe bt
ĠDigital isat
Ġlay out
Ġmedizin ischen
ĠFreist il
Ġveranst altet
1 14
C or
en kte
Ġd ust
Ġb lau
ĠB reiten
Ġh ang
ĠG und
im b
ĠH Ã¤ndler
ĠL ahr
ĠL ost
Ġl ists
Ġl aptop
ĠSt ufen
Ġ18 17
ord nungen
oc a
18 99
ĠY outh
Ġbes tellt
fol k
mit ten
ĠGr as
Ġgesch Ã¤tzt
ĠHand lungs
ĠMÃ¼n zen
ĠRom ane
Te chnik
Ġed it
ĠKomp etenz
ĠYork er
ĠAss embly
Ð° Ð½
Ġlist ings
Ġcover ing
Ġdep osit
Ġport folio
Ġocc as
Ġverlie f
Ġlink er
Ġlink ed
ĠLouis iana
Ġtw enty
ĠKenn edy
ĠLy on
ĠStan ley
Ġempfehl en
F rance
P res
R Ã¼ck
h ielt
p ower
is ierungs
ĠS ay
re ten
ĠB reis
ĠF eb
ra de
Ġer a
ĠSch Ã¶ne
Ġfor th
Ġr ating
ĠThe ory
Ã¤r kte
ĠWe iss
fin anz
Ġseiner zeit
Ġcont rast
ym met
ym bol
ĠPort o
Ġevent uell
Ġleg it
Ġverbunden en
Sh op
Ġverlie h
ĠLux us
ĠSem ester
Ġsamm eln
Ġdiagn ost
Bere chnet
ĠPho enix
R h
l ong
n immt
s aison
z oll
Ð ±
ĠG P
ĠK ick
ĠH ost
ul ator
ul ationen
ien na
Ġun able
ĠAn reg
Ġ18 25
Ġ18 26
ov ice
ĠEin z
rÃ¤ gern
18 83
Ġsh ots
ĠBo eing
oy al
kreis es
cy cle
ĠWill y
ĠMo or
OR D
Mar ie
ĠGesamt wertung
Ġintens ive
Ġextens ion
ĠNeb el
Tro tz
ĠkÃ¤mp fte
1 15
A ch
G ruppen
p il
un ivers
ĠG letscher
ĠG Ã¤rtner
ĠE mm
sch i
ĠC ath
ĠJ ohan
ab i
ĠSch iffen
Ġzu geschrieben
ĠAn other
Ġle istungs
Ġ18 29
ant i
Ġum liegenden
ph is
18 98
18 94
Ġ17 00
Ġup grade
St r
Ġco at
pl us
Ġprodu cing
ĠEnt deckung
Ġhin weg
ĠSc ient
sche e
ĠWh ich
ĠÃĦ l
ĠLei b
Ã³ r
ĠPat ient
met ter
ĠTour nee
Ġdav or
ĠRegel ung
ĠJust in
eint rÃ¤cht
ĠLib yen
All gemein
ĠOk lahoma
ĠSchwar ze
sequ ent
Ġnotwend igen
Ġmer ch
Ġpassen den
ĠmÃ¤nn lichen
Ġdigit ale
MÃ¼n chen
Ġbeher bergt
H igh
al ben
ĠB ureau
Ġv illa
Ġh urt
ĠT ang
ut o
ĠI hm
ĠH Ã¤nden
ĠJ g
Ġre cover
ĠAn meldung
ick te
rat ive
bo le
ĠBet rag
schl usst
ĠPer ry
ĠCor porate
Ġvoll kommen
fert igung
iat ischen
!! !!
ĠLang uage
Ġconf igur
Ġinteress ant
Ġumfang reich
ĠInner halb
Ġsav ings
ĠBom ben
Mill ionen
Ġdistin ct
ĠSiz ilien
B und
H K
f ile
w arte
Ġd iss
at asar
Ġm ature
ĠB ock
st Ã¼r
Ġh aus
Ġbe ur
if ier
Ġab use
âĢľ ;
iz ierten
be cker
ges prÃ¤
Ġbes iedelt
Ġres istance
ĠgroÃŁ em
ĠJul ian
Ġje welry
ĠKÃ¶nig lichen
ĠVerb ot
ĠReich sk
Aus gabe
ĠTor ped
Ġerfolg los
ĠDis play
Ġstehen de
ĠMont real
Ġbra uchen
Ġatt rib
Ġequ al
Ġpublic ation
Ġworks he
ĠKre u
gÃ¤n gen
ĠGener ationen
Ġyoung er
ĠWissen s
Des cription
ĠEntwick lungen
ĠspÃ¤t estens
angeb ote
ĠStell vertreter
Ġwhe els
stÃ¤d te
ĠStol pers
ĠLein wand
Ġangrenzen den
ĠMagd alen
B ank
B ilder
S cript
U s
g leis
Ġ q
in haber
Ġt rugen
Ġs inger
Ġin du
us ten
Ġm as
Ã¤ ub
Ã¤ ischer
ĠH amp
ĠH Ã¼tten
ist urnier
Ġer lern
Ġauf bew
ĠZ oo
ide en
ĠBer ger
Ġgen Ã¼
ĠGes etze
Ġbl end
Ar ten
Ã¤nder ten
Ġbr ut
Ġcal endar
ĠLauf zeit
ĠDen ken
Ġcr ash
kap ital
Ġcommit tee
Ġful f
Ġchem ical
Theater schauspieler
Ġcandid ate
ĠKÃ¶n ige
Ġscen es
Ġprotest ant
ĠStatt dessen
ĠVerbrauch er
beteil igung
ĠHels inki
K ommun
S ol
Z eitung
h essen
u eller
er ten
Ġd urften
Ġs Ã¤chsischen
Ġf otograf
ĠB V
ĠM ater
ĠF uss
Ġc arr
ĠN ut
Ġl Ã¶sen
iv o
ĠZ ister
ĠSch alt
men gen
ert oire
ĠBe weis
ĠSe ason
Ġwor st
Ġen ge
ĠGemein schafts
ĠAnd r
ĠfÃ¼hr ende
ĠMed ium
unter nehmer
ĠFest ivals
Ġcommun ications
Ġbed s
Ġpass ing
FuÃŁball nationalspieler
He im
Ġdirect ory
ĠFluss es
Sport veranstaltung
ĠÃī d
ĠAtlant ic
struktur en
Ġcat alog
Ġsy mp
Ġausger Ã¼stet
Ġsurpr ised
Ġadministrat ive
ĠSpekt rum
Ġcircum stances
. [
W inter
Ġb ands
Ġf ahr
de hyd
Ġp hen
Ġh ydro
ĠE ye
et ra
ĠL enn
Ġer fasst
ĠU V
id al
Ġaus gesprochen
se k
auf lage
ĠBer eit
In n
to ine
ĠSchw ert
sk o
ĠSpiel zeiten
ĠGen re
Ã¡ z
ĠNational en
ĠSchl Ã¶ss
Ġvis ited
ĠPort land
Ġbas ketball
ĠVolks schule
Ġcr isis
ĠJournal istin
Ġconne ctions
ĠZÃ¼r cher
ĠRead ing
ĠAtlant ik
Ġrefer red
Ã©n Ã©
Ġserious ly
ĠVerÃ¤nder ung
ĠLandtags wahl
ĠAufent halts
Ġcontinu ing
Ġbess eren
Ġmonitor ing
ĠVermÃ¶gen s
I E
o ine
Ġf iber
Ġm useum
ĠM oney
ol ia
ĠF rÃ¶
im on
im it
ten ts
sch ool
Ġg am
ĠN umber
ĠSch ult
Ġver passte
ag ram
Ġde fense
for cement
ian er
ĠCh art
auf ent
ĠSe hr
ĠBau reihe
ĠIs a
Ġteil en
Ġcre w
23 4
zentr ale
ĠSol utions
ĠSen ate
ĠWal ther
ĠDenk m
ĠCr icket
ĠNik ola
Ġmatch ing
ĠjÃ¼n gere
Kl ein
Ġcharacter istics
Ġplatform s
ĠThÃ¼r inger
Ġenth ielt
ĠEreign is
Che ck
ĠgÃ¼nst ig
Ġsem i
miss ions
Ġilleg al
Ġjo ining
Ġvi agra
Ġbekle idete
ĠEinzugs gebiet
R ud
} .<
Ġt um
de i
Ġg la
Ġfor g
ĠRe chnung
ĠEr lebnis
ast ing
pr inzip
ĠNach ruf
Ġ17 98
Ġro les
ikan ten
Ġbeen den
ĠUm stÃ¤nden
ĠNor man
ĠHand y
ĠSÃ¼d amerika
ĠEd mund
hol ders
Ġlang uages
ĠDar in
Ġche ese
45 3
ĠDo ctor
bra uch
Ġtem por
ĠHan au
Ġcru cial
Ġschott ischen
ĠBeaut iful
ĠFriend s
ĠNapole on
FuÃŁ noten
G rÃ¼nd
K ommand
v all
å ¤
ĉ ĉ
Ġd uty
Ġs law
ĠA F
ĠB Ã©
Ġund ert
ig ter
sch ers
et isch
ĠC ad
Ġk ill
ĠSch ichten
Ġzu gewiesen
Ġdem nach
Ġab gebaut
ĠDe ep
Ġen ables
wer ber
ĠHoch stift
ĠEd gar
Ġperson ally
Ġsub jects
Ġcar pet
Ġpass ende
ĠSel f
lÃ¤nd isch
mark et
Mar ia
ĠÃ¤hn lichen
Ġrespons es
Ġlik ed
icul um
> -
S O
T able
b ow
g ium
h ot
it led
Ġt ill
Ġt ip
Ġt one
Ġw Ã¶ch
at io
he ld
Ġb ow
Ġm and
ĠD R
st yle
ra ÃŁe
sch Ã¼tz
sch lagen
ĠW Ã¤hler
ĠC atherine
Ġbe legen
ĠSt rat
ĠIn fl
ĠAn ordnung
Ġ18 33
ĠTe ich
ĠVor feld
ĠVor sprung
ĠMe ier
Ver fahren
ĠHaus halt
ĠProdu cts
gra bungen
Ġjeweil ige
ĠLondon er
ĠWar um
AT A
ĠFrÃ¼ chte
Ġdefin ition
Ġreport ing
ĠRÃ¤ um
rÃ¤nk ungen
Ġsatis faction
ĠDial ekt
ĠFerr ari
Sta ats
/ -
L ive
O pt
V e
s eiten
Ġ Ù
Ġs ight
ĠS law
ĠB GB
ĠP un
ĠH im
ĠN obel
ĠV Ã¶gel
Ġk ap
Ġan th
ul se
os te
Ġauf geb
ĠSch ienen
ver eine
ĠAn pass
Ġhe aling
ord ination
zen en
ĠY e
able d
ĠBes tellung
ĠBet Ã¤tigung
lei ÃŁ
fehl er
ĠTex ten
lÃ¤uf erin
ĠMot ors
zÃ¼ g
ĠKurz film
ĠKle idung
gal ith
Ġtele fon
ĠZusch auern
ĠEss ay
Ġanges iedelt
fle isch
Ġobt ained
ĠConc ert
Ġsav ed
marsch all
Ġincred ibly
ĠEnter prise
Ġstir bt
ĠHimm els
T al
T ags
g am
ĠS ierra
ĠD ritte
Ġz it
ĠR idge
Ġer setzen
Ġl okal
Ġal ph
Ġst ieÃŁ
ĠRe eder
Ġpro of
Ġnach weis
Ġ18 19
ant ik
be c
Ġman che
zeich neten
Ġco ordin
min ute
irt schaf
Ġho le
ĠPol ar
bo ards
wohn ung
Ġdown town
ĠArch ive
ĠÃĦ uÃŁer
Ã¤nder ungen
ĠSa ale
ĠTre ppen
ĠNeben fluss
fil men
Ġpack ages
Ġversch le
Man ager
ĠGottes dienst
Ġlisten ing
Ġsmart phone
friend ly
rup ted
ĠBesonder heit
ĠMitbe grÃ¼nder
ĠInv asion
B ass
H or
I K
L Ã¤ufer
g Ã¼ter
k Ã¼hl
t ier
Ġw ann
st atus
ĠT reib
Ġl ady
Ġden ken
ĠSt ick
ĠSch uh
Ġst ages
Ġver mittelt
ĠAl tert
ĠPro tag
Ġch ose
enn amen
Ġwor se
Ġen orm
bar es
Ġseit ens
ĠKl einen
gew Ã¶lbe
Ġdesign ing
ĠProdu ct
Ġbef asst
Te x
ĠWei den
ĠGeneral stab
Ġcor respond
ĠAmt es
Ġ180 9
Ġstat istics
parte ments
Ġcas ual
Ġinj uries
ĠSus anne
ĠAP I
ĠAN D
ĠKomposition en
ĀĀĀĀ ĀĀĀĀ
ĠJugoslaw ien
g Ã¼nst
v elle
Â ½
Ġa cknow
he ll
Ġm erk
Ġo vers
ing o
ĠT Ã¤tigkeiten
ĠH urr
ĠR i
Ġk lin
Ġy e
ct ual
ok ko
Ġ18 12
erk irche
ian ische
ĠCh ines
lo ÃŁ
teil ungs
ĠAm ate
imm ern
ott i
ĠBes iedlung
ĠMan ual
ĠAut h
stein er
Ġschw ach
Ġbed ingt
Ġret ro
ĠBro thers
ĠUl t
viron ments
Ġindividu ell
ĠDor othe
Ġrepla ced
ĠInde pendent
Ehemal iges
national mannschaft
-------- --------
ĠNiger ia
Ġdaz uge
ĠGlÃ¤ ub
atasar ay
D om
S ign
V ID
r ible
Ġb ars
ĠA W
ĠM ine
Ġp in
ĠF ulda
ĠK ell
sch reit
ĠW els
ĠN O
ĠN ort
ag ues
sp f
ak ischen
ĠTh ompson
18 90
18 86
ĠVor jahr
Ġfin est
Ġinter active
sh afen
Ġentsp rach
ĠJe de
Ġant rat
ĠMay er
Ġmar ks
ĠhÃ¤uf iger
Ġdeal ing
Ġsah en
Ġtal ks
Ġgewinn t
C P
j ap
o an
ro ff
ra cy
em eter
hr ingen
Ġe if
Ġun us
aus en
ens er
wer fen
Ġgen auer
ĠGeb irge
ĠAd vis
ĠHand eln
ĠCo oper
ĠDurch bruch
met hoden
Ġbelie ved
irm ingham
lav a
ĠKlein stadt
Ġsug gested
ĠLog istik
Ġschwer er
Ġautomat ic
ĠVis ual
ĠOrgan ist
Ġblock s
Ġbetre ut
ĠYear s
Ġumfang reichen
ĠStan ford
ĠAltern ativ
Ġbul gar
Ġreligi Ã¶se
Bet rieb
pap ier
ĠFrÃ¼hl ing
ĠangekÃ¼nd igt
H in
L ear
N ein
k ing
Å ¯
er ia
Ġs ending
ĠB ib
ĠM ack
ĠP ause
ĠF Ã¶der
ĠI L
Ġl uther
ĠJ i
os om
ĠZ ubehÃ¶r
if ies
Ġver lauf
Ġaus gel
th es
Ġr ichtet
ant ie
ĠAb schied
18 82
Ġnur sing
St unden
arbeit ungs
ĠBau werke
Ġthem es
ĠTr i
Ġno ise
Ġ% ,
ĠBay reuth
ĠCont ra
ĠCont ainer
Ġlin ke
fo ot
ĠSyn ode
ĠBÃ¶ hm
ĠUs ing
ĠKult us
Comp uter
ĠAud i
Ġsamm elte
ĠGU I
Ġpersonen bezogen
G ood
H ave
H ey
d ig
f rom
u ens
w achsen
Ñ ħ
Ġd ivision
ĠS ug
ge fÃ¼hl
ĠH air
ĠH umboldt
ĠL orenz
Ġver Ã¤ndern
Ġver bleiben
ĠBe grÃ¼ndung
ĠEin fach
Ġme ets
ĠDe part
for um
Ġcon cepts
Ġus age
fin al
ve x
Ġsc ulpt
Ġph ones
Ġvers at
kl en
ĠMin istry
ĠPlatz ierung
aid sch
Ġdevelop ers
ĠSan ierung
Sp anien
lÃ¤uf ig
ĠkÃ¶nn t
flug zeug
ĠKons ul
emb les
Ġgegeben e
Ġrestaur iert
Ġmechan ism
spann ung
ĠFI FA
B O
G reat
Z iel
p g
z weig
Î ¬
is i
Ġp itch
ĠE llen
ĠR in
ĠC ore
Ġl ip
Ġst ren
Ġun w
Ġsp l
Ã¼n scht
18 97
ĠVor schriften
Ġgew alt
Ġro ot
pe z
Ġhand eln
Ġspe aker
ĠKap azitÃ¤t
fert igt
Ġbelie ves
Ġant icip
Ġfeel ings
ĠHeil ig
Ġbeh inder
ĠLuft fahrt
ĠOl den
ĠGar nis
ĠGel b
ĠBaum eister
ĠDreh arbeiten
ĠRem ote
ĠProf i
ĠprÃ¤sent ieren
ĠdÃ¤n ische
Ġagre ed
imens ions
ĠJenn ifer
Ġfir ms
Leichtathlet ik
B urg
g ate
l ia
er ed
ge ts
ĠA mal
ĠA BC
ĠG ou
Ġc er
ĠW right
ĠR ates
ad os
ĠIn sol
Ġj ahre
ĠSp a
ĠAr min
ĠLe gend
ĠNe ver
stell ten
ĠGes and
ĠInd ustry
ĠAll iierten
Mit glieder
Ġfl ach
Ġperson s
weil en
Ar ray
Ġreal ized
Ġvis ible
ĠBra ut
ĠUl tra
ĠBur k
Ġpurch asing
ĠLog o
ĠerhÃ¶ hen
krit iker
ruit ment
Ġtats Ã¤ch
ĠGh ost
Ġdrink ing
ĠBret agne
ï¼ Į
Ġnav ig
ĠMalt a
ĠVertre tern
Ġgefe iert
ĠÃ¼berrasch end
G M
M r
S ingle
U K
e hemal
f Ã¶der
p fe
ĠB innen
ĠD ikt
ĠE X
ĠW Ã¶r
Ġl augh
Ġal b
Ġal arm
ĠO ft
Ġre lief
Ġzw anzig
Ġvor erst
omm y
Ġad j
Ġ17 80
ĠFl Ã¼sse
anz a
vel and
Al though
ĠÃĸ z
Ġexper imen
Ġass um
Ġersch lossen
ĠWor te
ĠGew ichts
Ġkein es
Ġobject ive
Ãĸ ff
ĠHerzog s
ĠZur Ã¼ck
ĠGÃ¶ tz
Ġbuy ers
ĠDate ien
ĠBud get
Ġposs ibility
ĠKenn zeichen
ĠCre w
ĠWeihn achten
Ġkom ment
verstÃ¤nd nis
ĠVoraus setzung
grÃ¶ÃŁ te
ĠZul assung
Ġsup erv
ĠShakespear e
ĠHins icht
1 13
d ays
g ia
j on
j ana
l uther
n utzung
w enden
Ċ ĠĊĠĊ
Ġt ack
ĠS urf
un en
Ġin itiative
le ments
ĠM Ã¼l
ro v
Ġh alt
ĠF itness
ĠG S
ĠG ate
ĠG PS
ĠK ie
ĠC ut
Ġl adies
Ġk at
Ġdes ired
Ġan treten
ik at
ĠSt Ã¶rungen
ĠPl astik
Sch ul
Ġover w
bl ings
ĠNational versammlung
Ġdel ight
ĠMittel alters
ĠGegen stÃ¤nde
ĠGraf iker
fo und
Ġinvol ves
emb ran
Ġauthor ities
Ġcompar ison
Ġprepar ation
ĠNachbar n
ĠRestaur ierung
add y
Ġassoci ation
ĠIndian er
ĠTÃ¼r en
Ġcontrib ute
Art ikel
Ġverwand t
Ġtag ged
ĠHey ne
Ġton ight
ĠAbstamm ung
H op
S w
j as
Ġs aving
Ã¼ ten
ĠD IN
ĠT ree
ĠH yd
ir ges
ĠN iveau
ĠJ h
Ġmit ge
ĠSch ieds
af i
aus stattung
Ã¼ber greif
ĠSp l
ĠBe griffe
Ġor ganisation
je cted
18 70
hÃ¶r en
ĠJahrhund erte
ĠPh asen
An ton
Ġwhen ever
Ġdr iven
ĠKn ight
ux e
Ġentstand ene
ĠEm ma
ĠBro ck
ĠAuftrag s
ĠJer ry
ĠDenn is
Ġpain ted
ĠCons erv
Ġunmittelbar er
sthe ater
ĠberÃ¼hm t
ĠCa es
Ġtschech ischer
ĠSalv ador
B ras
F ree
b ian
c ell
f und
l Ã©
p in
y th
ĠS tett
us ions
ĠB ak
ro th
ĠP aint
ĠF u
ĠG A
ĠG riech
ĠK ante
ĠK enntnisse
sch auen
ĠC ulture
Ġbe heim
Ġl ies
ei de
ang aben
Ġsch ul
ĠPro be
Ġvor geschlagen
ĠPl Ã¤tzen
ĠTra uer
ĠQu in
ĠInter ior
ernse hen
ÃŃ k
Ã¤us chen
Ġann ounc
ĠThere fore
vert retung
Stand ard
Ġcontrol s
ĠTele f
sc rib
ĠRand e
ĠAbgeord nete
ĠReb ellen
Min ister
Ġhop ing
Ġlit au
ĠCham ber
Ġsurpr ising
Ġlauf enden
ĠPitts burgh
E ach
G ott
S to
s Ã¤
â ĪĴ
Ġt all
or ger
ar isches
Ġb ron
Ġf ern
le z
Ġn ic
ĠF R
ĠT ests
ĠL ap
iel en
Ġr ational
sp ec
ĠSp ar
gr ammen
Ã¼hr t
ac ular
Ġ17 89
ĠUm frage
ĠFahr zeugen
ĠRÃ¼ck seite
ĠBi ber
Ġentfern en
ĠVerwaltungs sitz
Ġamer ikanischer
Ġoffic ers
ĠFern ando
ĠKommand ant
ĠFrÃ¼h stÃ¼ck
Ġcra fts
lim ited
Ġstru ctures
ĠImm un
Ġcoun sel
ĠgÃ¼lt igen
ĠEinkauf s
Ġkompon ierte
ĠKoordin aten
verm Ã¶gen
Ġgent le
f ig
j ing
ĠP oten
Ġp a
ĠT ote
ĠT rop
ĠI van
ĠH inder
ĠH onda
ĠL amp
ic ular
Ġg iant
ul ierte
ĠO le
op ter
ce ae
Ġde kor
ger ichte
ĠAr te
ame ters
18 79
Ġdeutsch es
iger ung
Ġ7 50
Ġra w
uten ant
Ġfl or
ĠKunst geschichte
mÃ¤ ss
ĠEd itions
Ġdevelop er
ĠRechts an
iat rie
ĠGed enkt
OR E
ĠMilitÃ¤r attach
Wh y
Ġvorhand ene
ĠrÃ¶m ischer
col or
stan zen
Ġsle e
But ton
System atik
Ġgesetz lichen
ĠPfar re
Ġpassion ate
ĠMyth ologie
Ġsinn voll
ĠTaschen buch
Ġbird s
ĠErkrank ungen
sph ase
Verwalt ungs
krÃ¤ ften
ArchÃ¤ ologischer
ĠElef anten
P sych
b lau
c amp
d d
w iesen
is ka
Ġin telligence
le isten
ĠA ps
ĠB eine
am atic
Ġc lock
ĠJ ama
ik alen
ĠSch enk
Ġver legte
ĠIn it
ĠEr ben
Ġhe av
ast ral
etz te
ĠAus b
fl ix
ĠPr inc
ĠFre ie
res ted
Ġange mel
Ġze igten
Ġact or
ĠKunst historiker
Ġfind s
ommun ity
weil ig
ĠAnt wer
ĠFriedrich s
Ġdarauf folgenden
ĠSport ler
spr ungs
Person en
ĠMer c
Ġeinzel ner
roll ing
.... ....
stehen de
ĠVerteid iger
ĠNÃ¼rn berger
Ġattack s
Ġfair ly
ĠScott ish
Ġzeich nete
abul ous
ebau ung
Ġconfl ict
Ġfasc in
N och
N orth
P ack
b eln
f ly
l on
s achsen
ĠB de
il ia
ĠE sch
ĠE up
ĠH obby
ĠW inn
ĠC old
Ġl aid
Ġth in
Ġdes wegen
ot z
Ġy oga
Ġst uck
ĠIn stitution
Ġun klar
Ġr ug
Ġpro ve
Ġhe t
ĠÃ¼ber ein
Ġso fa
enn ungs
ĠNe g
18 81
Ġev olution
Ġstud ying
Ġeigen em
Pro fess
ĠMittel n
ĠKont o
Ch ina
ĠPal Ã¤
Ġeinfach er
gar ter
ĠZahl ungs
Ġgelang t
Ġcreat ivity
Ġfocus es
ĠInnen raum
seit igen
Ġindividu ellen
Ent fernt
ĠSur vey
ĠBol iv
krit ik
Ġprint ing
Ġprem ier
ĠKrank heiten
Ġdauer haft
Ġrob ust
ĠAbd ul
ĠRal f
ĠEqu ipment
italien isch
Ġgesellschaft lichen
Ġberu ht
Dam it
ĠprÃ¼ fen
ĠMarsh all
ĠMÃ¶nchen gladbach
Ġbeheim ate
M ad
N ur
P N
T ur
z iert
z essen
ĠS ten
re a
Ġv ene
ĠT ru
ĠT ruck
ĠT Ã¤nzer
ĠK reat
ĠK anten
ĠR out
Ġe ignet
Ġre pl
op ol
th at
Ġpro ceed
Ġsch la
ial is
ĠHer itage
Ġweit e
Ġ17 93
Ġro se
ule tzt
ĠMus ch
ĠBr istol
Ġverb ringen
ĠPe ak
Ġadd s
gra duate
ĠWill en
ĠDav on
rech ten
Ġann iversary
ĠSchool s
Ġ180 7
AR T
ĠhÃ¶ch st
Ġkathol ischer
ĠGeh Ã¤use
ĠOpern sÃ¤nger
Ġincreasing ly
ĠSkla ven
Ġwarrant y
C L
l Ã¼ck
on ed
it ime
or men
he ast
ĠM ahl
ĠD eine
ĠD utch
Ġp ocket
ĠT hal
ĠT rue
ĠI X
os o
os tel
aus stellungen
ĠSp in
Ġle ague
ĠThe at
ĠAl ois
ick el
Ġ- >
Ġtra um
net te
pf lanz
ĠQu ad
ĠMc G
ES S
Ġport ion
Ġexpl oring
ĠLim burg
ĠerhÃ¶ hte
ĠVerhalten s
ĠSlow en
DE F
ĠRay mond
ĠViol ine
berecht igt
Ġdigit alen
Ġverurs acht
ĠHinz u
ĠSchrÃ¶ der
ĠSof ia
ĠKroat ien
Ġcerem ony
C lass
D istr
M ult
V O
Z entrum
r ons
is le
Ġw esentliche
Ġb unch
ĠP am
Ġz ivil
om o
Ġer re
eb ack
ĠSch ub
ĠSp alten
Ġnach fol
ks hire
iz on
ast ische
Ġent rance
ĠOr lando
inz eit
18 84
ĠEn zykl
uer st
Ġrec re
ĠVers orgungs
ĠEle menten
Ġbef asste
ĠComp an
Ġcolle ctions
ĠRei fen
iat hlon
Ġtrad itions
Ġfac es
ĠMot ive
ĠElekt ronen
seit ige
ĠRÃ¤ umen
verwalt ungs
maler ei
Ġill ness
ĠSow ohl
ĠSchÃ¶n heit
ĠDisk uss
ĠKomb in
Ġwohn te
Ġlic ensed
Ġframe work
Ġevalu ation
has Access
ĠTrieb wagen
ĠjÃ¼ng ste
Ġumfassen den
ĠReichstag s
ĠRug by
C ity
C olle
a endert
b les
is pr
on ic
ĠS H
ĠS EO
Ġb ass
as sten
ĠB irth
st ance
ig ne
ĠP eng
Ġp ad
ĠK ret
ĠK eine
om y
ĠH ur
Ġbe ha
ow ers
ĠIn k
Ġsp acious
Ġhe aded
ip her
.. ...
ĠTe e
18 76
ĠNach frage
ĠGer ade
Ġtr ips
stit u
ĠProdu zenten
ĠBest immungen
Ġmov es
ĠFlug platz
Ġgem isch
produ ktionen
Ġgener ate
ĠRec ord
Ġlaw yer
ĠEhren mitglied
ĠAp oll
ĠRot ter
ĠZuge hÃ¶rigkeit
Ġlau tete
ĠHub raum
Ġgere gelt
ĠSpann ung
ĠLiefer ung
Ġbetroffen en
ĠAuthor ity
gelegen en
ĠOberg eschoss
J ournalist
Ġd Ã©
re volution
ge halt
Ġn eb
Ġp oker
ĠG ay
ĠG Ã¤rten
ĠT ell
Ġk roat
Ġim pression
Ã¼r ft
ĠSt op
ĠIn fo
Ġaus z
Ġunter richtet
ĠNe ed
ac iÃ³n
ĠAuf stellung
ĠY or
ren a
Ġgegen einander
ĠGen ua
ĠTr iumph
Ġange griffen
ious ly
ĠFe atures
Ġdire ctions
ĠKunst denkmÃ¤ler
ĠÂ °
Ã¶st licher
Ġmoder ner
ĠAg entur
Ġexist ierte
ĠSin fon
ĠKÃ¶nigreich s
itar ren
Ġcra ck
Ġwid th
ĠVis it
schei be
Ġdecor ating
ĠSchwar zwald
ĠGlo cke
Ġrefle ct
Ġmedizin ische
ĠWorks hop
ĠGebiets reform
ĠMd L
Ã¼h ungen
ynd rom
Ġschwei zer
Ġgemel det
ĠAcadÃ© mie
E st
G ast
e ck
en ge
Ġs ank
or ca
ĠA hr
ĠB arr
ĠD ynastie
ĠK au
ĠW onder
ĠW Ã¼nsche
Ġg rÃ¼nen
ĠC u
ĠC el
Ġnach folgenden
ĠAr range
ĠGe fahren
ult iv
18 75
amp a
ors es
Ġbet reiben
ĠAd vanced
Sch lag
Ġany way
Ġag ents
vor stand
Ġfr isch
Ġhand ling
Ġact ress
ĠÃĸsterreich ische
ĠOlymp iasieger
ĠHel p
Ġbre ast
bereich en
ĠHa ag
Ġschn ellen
ifik ationen
ĠBeruf ung
ĠClub s
Ġgirl friend
Sport ler
National park
Ġtravel ing
ĠKonz il
Ġprakt ische
ĠschÃ¶n sten
wÃ¼r de
Ġzeich nen
quis ition
ĠKrist all
____ ____
ĠGoth a
Ġvorder en
ĠInternets eite
Ġbegeister t
Ġurauf gefÃ¼hrt
G rÃ¶
L AN
p it
v illa
y st
an ter
ĠB erk
ĠP aw
ĠC arn
Ġan gle
ĠAn merkungen
Ġle ere
ĠJahr taus
18 87
Ġsh irt
aut obahn
orn o
ĠGr Ã¶n
ĠGra ce
Im age
ĠCar ib
ĠGrund stein
Ġausge legt
ĠSÃ¼d seite
ĠSal on
ĠFolge zeit
othe k
Ġprom pt
stÃ¼ck en
Ġ180 4
pre ise
Ġstamm ten
BC I
Ġoffic ially
Ġklass ischer
spe zif
Kultur denkmal
Bundes staat
ĠGru yter
Ġstrength en
ĠangehÃ¶r te
ĠAster oiden
Ġgesund heit
A V
K K
L uc
W ald
m Ã¼nd
z ischen
Ġn ights
sch ichten
ĠL arge
ĠC F
ĠSt rÃ¤
Ġre ward
ĠBe zeichnungen
ĠThe aters
ĠAus chwitz
Ġdo ctors
Ġres ort
fÃ¼hr ende
Ġges tern
ĠMus l
Ġsu c
kl oster
ĠQu ick
ĠSÃ¼d tirol
Ġbl ind
ĠAnt worten
ĠBÃ¼rger krieg
ĠStaats bÃ¼rger
fel de
ĠCom ics
Ġsever e
Ġless on
ras ka
Ã¤cht nis
ÅĻ ÃŃ
Ġdeutschsprach ige
ĠContin ental
ĠGesell schaften
ĠKomment are
Ġforder t
ĠBroad way
ĠGÃ¶t ter
ĠCaf Ã©
Down load
Lex ikon
P O
f acht
f aktor
m de
s il
st ufen
ĠG ute
ĠK unde
ic um
uf Ã¼gen
ĠC ON
Ġto ys
Ġbe half
Ġmit hilfe
ah nd
Ġr iding
ĠAn zeigen
igen e
Ġsch Ã¤tz
Ġ18 11
ĠPro gress
ĠPro jekts
ft rainer
Ġman gel
ĠPr inzen
iet ies
Ã¶l n
Ġbeg rÃ¼
ek ten
schl iess
ĠX anten
ĠChe fredakteur
ĠDar steller
Ne ue
ĠBi ologie
ĠDienst ag
Ġopp osition
amb a
osp el
Ġhal ben
Ġtradition ell
AL OG
ban ken
Ġaddress es
Ġevangel ischer
Ġintrodu ce
sa al
Ġsyn thet
date i
ĠÃľberg angs
ĠAdels geschlecht
Meister schaft
ĠEconom ic
Ġce iling
Ġchamp ions
ĠSchlagzeug er
ĠSozi ologie
Ġrout ine
ĠInszen ierung
beweg ungen
d orff
g les
m Ã¼ller
n t
p ot
t in
Ġb ol
le ton
ĠD S
Ġein fluss
ĠP rad
Ġp Node
ĠH aving
ĠL ernen
Ġg riff
ck et
Ġk op
eb y
ĠZ ier
Ġst ainless
ne cht
ĠAn sonsten
rie gen
ĠPro jekten
Ġvor bereitet
auf bau
Ġen vironments
Ġar ms
use hen
ĠGesch w
ĠUm zug
Al b
Ġtr enn
Ġeinz iger
Ġdr inks
Ġgemein nÃ¼tz
Ġeng aged
Ġerhalten e
ĠPal ace
ĠHall owe
Ġhohe m
ĠFund ament
ĠverlÃ¤ sst
Ġchines ischer
ĠlÃ¤nger en
ĠLig as
Ġaustral ischer
ĠÃ¶ konom
imens ional
zell an
Bay ern
ĠLegisl atur
schrau ber
Ġwechs eln
ĠvorÃ¼ber gehend
A uth
E ner
H Ã¶
H ersteller
N O
N ote
S ingles
X X
o os
r idge
v ity
in stall
Ġd ollar
ĠS ession
ĠB owl
ĠM Ã¶rder
ĠD ud
ĠD FB
Ġein heim
Ġp iano
ĠT ower
ĠT SV
ĠW eid
ĠW oman
hr ten
ĠL iz
Ġbe gangen
ĠN FL
Ġan onym
Ġdem oc
ĠBe eth
ok omot
ĠGe is
Ġen tert
ĠStadt bezirk
Ġvers uchten
ĠFrank lin
ĠPa are
Ġbo ot
ograf ien
recht liche
Ġrequ ests
Ġcol ours
Ġbr idge
Ġverl ieren
Ġnor malerweise
Ġpriv ile
Ġhead s
Ġdeliver ing
ĠErd beben
mod elle
Ġgre y
ĠWol ff
gien e
Ġintegr ation
ĠAns ichten
ĠNic olas
Pre uÃŁen
Ġdet aill
bre ite
ĠAnth rop
ĠBeweg ungen
Alex ander
ĠRepar atur
ibil itÃ¤t
ĠInsol venz
D ruck
G S
R est
R ek
W ol
b om
u gel
Ø ±
an zeigen
ĠB irmingham
st ill
Ġh anging
im aurer
Ġc ouncil
ten se
Ġg ig
ist anz
ĠV all
ĠV Ã¶l
ĠJ as
iv an
ver hÃ¤ltnisse
ze k
ib ia
Ġsp ots
Ġsch ein
Ġch annels
oc ated
18 78
18 80
pr es
ron omie
ĠKon sequ
Ġsu ite
ĠÃľber reste
alen ted
ĠVerein ten
Ġevery where
Ġdr ives
Ġsuch te
lei h
Ġcommun icate
Ġphot ographer
mark en
gef Ã¤ngnis
Ġincre ases
Ġober e
Ġmanufact ured
hib ition
Ġbox es
Ġwirtschaft lich
Ġvergleich sweise
Ġgere cht
Stud ien
Ġfight ing
Ġelectric ity
ĠErschein ungs
ĠErwachsen e
ĠFÃ¤h igkeit
russ isch
ĠFlu or
Ġvolunte ers
Ġfla vor
ĠCreat ive
ĠUd SSR
Ġjun ior
incl uding
ĠErzbist um
Ot to
ĠKlagen furt
ĠKavaller ie
' )
A uÃŁen
F ind
J ames
P rÃ¤
f eind
m aster
t iere
it us
us sten
Ġf este
ĠD j
ĠD unkel
ĠG lock
sch atz
ĠW enz
Ġg rant
Ġl ake
ab sicht
Ġmit ten
th old
Ġun ex
Ġun weit
ĠAn kunft
Ġ18 22
ĠMe eting
ied ler
Ġges perrt
Ġem b
Ġzusammen ge
Ġviel mehr
ĠX V
Ġmin eral
ĠMark graf
con ne
Ġchild hood
ĠZug leich
Ġpay ments
ĠFil ial
osp itals
Ġgeschlossen en
Ġstammen de
Ġlos ing
Ġkanad ische
wechs eln
ĠBekannt heit
Ġpleas ant
grÃ¤ ber
Ġven ue
ĠManh attan
1 16
D ynastie
O k
P oint
g re
r aries
in formationen
Ġd un
Ġf oss
ĠA part
ĠD ry
Ġp atch
ĠT ir
ĠE cht
ĠH Ã¼tte
et tel
ĠR iga
Ġg rat
ĠJ av
Ġan gebaut
ul u
kt iven
Ġst ro
ver antwort
ver folgung
ahr ung
ĠVer mittlung
Ġch a
ĠCh and
18 73
ĠAm ph
Ġher ab
Ġins ight
acht al
sh ine
Ġ24 0
Sp iele
Ġgem Ã¼t
wissenschaft liche
Ðµ ÑĤ
Ġcert ification
Ġlov ing
prÃ¼ fen
ĠZwei fel
ĠFrie der
ĠÃ¼b licherweise
Ġassist ant
ĠGolden e
ĠOrganis ations
Ġmensch liche
ĠBit coin
ĠSkulpt ur
ĠDak ota
Ġdemonstra te
S che
g irl
u als
v Ã¶gel
or b
an schluss
ĠS ometimes
Ġf inger
Ġf eind
Ã¼ tt
ĠB h
ĠM ilitary
ĠP ole
Ġh ate
ĠW ang
ĠL ane
ĠN as
ĠN ancy
Ġdes ktop
os aurus
Ġver mein
ĠBe hr
ĠBe grÃ¼nder
ĠAb bau
18 91
18 71
Ġ17 0
Ã¡ ndez
ĠKÃ¶nig lich
Ġeinz iges
Ġtechn isch
utt le
Ġexp ansion
ĠWor ms
ĠOrts name
kle id
Ġsuggest ions
ĠGeh irn
ĠVerband es
Ġattend ing
ĠLokomot ive
ĠmÃ¤nn liche
ĠKÃ¶r pers
ĠFotograf ien
Qual ifikation
Wor ld
Brand enburg
L it
S Ã¶hne
Z E
t ums
w ellen
» ¿
Ġd ot
Ġd einen
Ġt ons
ĠS R
Ġz Ã¤hlten
Ġg od
ul ierung
ĠU ll
ah m
ste ins
Ġsp ont
ĠAl aska
ĠAr sen
ick ing
ĠEn th
ans k
ish es
Ġsome where
ĠEl ite
Ġcl ubs
Ġbel ong
ĠWil helms
Pro zess
verb rauch
Ġarbeit eten
ĠKr ise
En tste
ĠMos k
ĠGerman ia
bÃ¼ chern
Ġpack ed
ĠHal te
ĠVal entin
ĠjÃ¤hr liche
Ġsens itive
ĠEntwick ler
Ã¤um t
ĠGh ana
Ehr endoktor
ĠTerrit orium
Ġscre ens
Ġtourn ament
B ec
D ay
K anada
R ichter
n ie
r ike
ĠA pfel
st imm
Ġo ven
ĠT yr
ĠR TL
ĠC oup
ĠJ ochen
Ġfor ever
Ġun regel
Ġde fen
sp ace
Ġsch lagen
Ġsch eme
ian ts
Ã© rie
ĠAm y
ĠSte vens
ĠDies en
Ġ12 8
Ġem bra
vent ions
Ġdr ama
Or dens
Pro v
Ġben annten
ER S
room s
ĠHerr schafts
ĠHier zu
ĠKat hedrale
ĠAg nes
Ġlight weight
Ġcap abilities
ĠEhren zeichen
ĠStaat lichen
ĠWein bau
ĠWirk lichkeit
Ġwalk ed
Ġfinanz iert
Ġfra uen
Ġreason able
Ġrecogn ize
Italien er
Ġphilosoph y
ĠRÃ¶m ischen
ĠLeiden schaft
ĠzeitgenÃ¶ss ischen
ĠSauer stoff
Ġvul ner
Ġkaiser lichen
ĠPhÃ¤n omen
) }
a ÃŁen
k asten
r ice
Ġ ....
ch ild
Ġd ei
is co
Ġt ier
Ġ1 19
st ationen
Ġc oc
ra ys
ĠL ion
ĠC ou
Ã¶ cke
Ġk W
est ag
Ġver glichen
ĠIn spe
ĠIn stead
ze ch
Ġse ctions
ia o
ĠEin blick
Ġyour s
ĠTh om
Ġ4 000
ĠSe oul
Ġman agers
ĠVor haben
ĠMe ilen
haus er
gemein schaften
Ġbesch reiben
ĠSÃ¼d korea
Ġele gan
ĠRom a
ĠSk iz
Ġinc ident
ĠPer fect
ĠRad i
Ġhinter en
Ġmein t
So ftware
ĠGener ald
ĠPet rus
ĠGal atasaray
ĠCle veland
ĠMem phis
ĠMur ray
Ġkrit isch
serv ice
ĠPorn o
Ġscient ists
Ġnorweg ischen
Ġreag iert
ĠGab rie
Look ing
Ġnationalsozial istischen
andem ie
Ġris ks
ĠMittele uropa
ĠZag reb
C E
C S
F ar
b ane
g iving
u cc
Ġt oler
Ġb ranch
Ġf its
el Ã¤nd
ĠD iss
ĠG rem
ĠT reat
ĠW ern
um pen
Ġg ained
ach ter
ul er
Ġe hr
Ġge ographic
ĠSt all
og an
io xid
rif fen
ĠSte ck
ĠTeil nehmern
ĠÃľber rasch
ĠÃľber tragung
ĠSh ar
link plain
ĠMeister in
Ġhistor ischer
ĠApp lication
ĠErst ligisten
ĠSitz ung
Par is
Sport liche
Ġtax es
ĠCap it
Ġnetwork ing
Ġgriech ische
rÃ¤nk ung
ĠHu ber
Ġerl itt
ĠFlÃ¼cht linge
Ġkombin iert
Ġanb ieten
ĠChel sea
schlusst abelle
emeter y
ĠHallowe en
N amen
T wo
n ia
en berg
in ental
Ġf abulous
Ġm un
Ġo m
Ġh Ã¶r
ĠF ig
ĠF asch
ĠH ert
ĠC ov
Ġbe zog
ĠSt age
Ġver f
pp el
ĠAn a
ĠAn halt
qu in
Ġsp in
ĠUn s
ĠAl ger
Ġall mÃ¤
ĠAus lÃ¤nder
ĠEx am
Ġacc ord
ĠHoch schulen
Ġteil t
Ġspe akers
ĠFin ance
ĠProfess ur
Ġpat ent
ifiz ierten
Ġgem essen
Ġhol z
ĠWith out
ĠKur se
Ġworks hops
Ġcontrol led
Ġess ays
Ġresult ing
Ġstay ing
Ġanz utre
Ġslow ly
ĠbestÃ¤t igte
Ġdur able
Ġlandwirtschaft lich
Ġexter ior
ĠDisziplin en
ĠBalt imore
ĠGalax y
ĠFreder ick
ĠGitarr ist
ifff ahrt
ĠBerat ungs
Ġhabilit ierte
ĠBreis gau
D Ã¤n
R ob
T re
b eing
b ranche
p he
Ù Ĩ
er gebnisse
Ġd raft
it able
ar ab
ĠS ED
un o
un fall
Ġin neh
Ġm inder
Ġm ixture
ĠB oll
il ang
ĠP Ã¤dagog
ĠT iefen
ĠW ire
ĠW elle
et ition
ĠC onstruction
ĠU g
au e
sp eicher
ĠRe cher
Ġ18 23
Ġ18 27
ov an
iz it
iz itÃ¤t
ĠEin stieg
oll t
ick ed
ĠAb kommen
Ã¤l te
aw are
ĠPf und
Ġgesch ah
ĠOb serv
Ġbede utete
fil ter
Ġredu ction
Hand ball
ĠRob inson
Ġinde ed
Ġther apeut
Ġprior ity
ĠEhr endoktor
ĠSus an
mitglieder n
ĠÃ¼bergeben e
Ġsitu ated
Ġcompl iance
b ungs
g ler
k ranken
ĠS uf
re aten
ĠB Ã¤r
Ġh orn
Ġh its
Ġc in
ĠW arr
Ġbe deut
Ġbe quem
la uer
ĠIn vent
Ġpro spect
ĠBe ge
ĠBe hÃ¶rde
Ġse ed
Ġsie bten
Ġwor n
ĠNach weis
att i
Ġar rested
Ġ17 92
ish ment
sk Ã½
Ġalle ged
ĠBau denkmÃ¤ler
Ver band
Ġgesch m
ĠNord seite
ĠBet roffen
Ġbesch rÃ¤n
Ġfl our
ĠVers te
ĠVers ammlung
ĠX box
get riebe
ĠRes ource
ĠGl adbach
Ġgra u
Ġbas ically
Ġabge halten
ĠTem ple
ĠRed u
Å¡ t
ĠLo ire
ĠMaterial s
Ph ys
Ġfunction ality
Ġentw arf
Ġtrack ing
dehn ung
A v
G rand
K L
L abel
M or
d rucken
i ast
l ernen
w Ã¤nde
ï »¿
ch ing
Ġd os
on el
ĠS ap
ĠS ource
ĠB utt
ro gen
ro tt
ĠF uture
ĠE D
Ġz weis
ĠH arn
ĠR s
ĠR ivers
Ġg ratis
ist iken
ĠV W
ĠO z
ĠSch ritte
ne um
Ġwh oles
iz ismus
Ġvor ange
Ã¤nd iger
Ġwor auf
18 66
lan ken
ierte m
Ġweit en
Ã¤l en
Ġfe hler
ock s
Ġget estet
Ġwieder her
ĠKar os
gew achsen
Er mittelt
ĠGen ehmigung
Ġprodu cer
Geb iet
ĠCon temporary
ĠSchrif ts
haf en
ĠCol lins
ĠMont age
ĠCas tell
ĠRud olph
otent ial
Ġaccount ing
merk ung
ĠunabhÃ¤ng ige
ĠLaur ent
ĠrÃ¼ck te
Ġschle chten
ĠKathol ische
Ins gesamt
ĠKab arett
ĠVikt or
1 18
1 000
A X
c zy
i ah
p i
Â ¼
Ġa cts
le vard
il iate
Ġo verse
ion i
Ġn aked
Ġh erk
ĠK um
em at
ĠL ingu
ĠN ummern
Ġst able
Ġst range
ass istent
ĠEr neuer
Ġvor stellen
ĠY oga
pro jekte
Ġbeg ab
ĠAug uste
[...]
