#version: 0.2 - Trained by `huggingface/tokenizers`
e r
e n
Ġ Ġ
i n
c h
Ġ d
Ġ a
e s
o n
Ġ t
n d
i s
ĠĠ ĠĠ
i t
Ġ s
i e
o r
a t
Ġ w
a n
r e
a r
a l
h e
t e
Ġ S
Ġ b
u r
u n
l e
g e
Ġ f
a s
Ġ in
Ġ m
Ġ e
i ch
u nd
u s
in g
Ġ A
Ã ¼
Ġd er
Ġ o
Ġt he
Ġ v
Ġ B
e l
i l
r o
i on
s t
Ġ p
Ġ n
Ġ M
Ġ c
Ġ und
Ã ¤
Ġ D
Ġ 1
t er
Ġ h
i g
d e
Ġ (
en t
a m
un g
o l
u t
Ġ T
Ġ P
o m
i m
i c
ĠĠĠĠ ĠĠĠĠ
Ġ F
Ġe in
â Ģ
Ġ I
Ġ G
Ġd ie
Ġ E
r a
e t
e d
Ġ K
Ġa nd
Ġ z
Ġt o
Ġ W
Ġ H
Ġo f
e m
s ch
ĠĠ Ġ
t en
Ġ R
h r
Ġ g
Ġ L
u m
Ġ C
Ġb e
Ġ l
i r
is t
is ch
u f
b er
a nd
Ġt h
Ã ¶
u l
Ġ 2
d er
a ch
e it
Ġ N
c k
Ġ er
d en
Ġ V
Ġ J
i er
Ġa l
Ġ k
Ġ1 9
o t
e in
Ġv on
Ġ re
i v
c t
at ion
Ġa n
i f
a b
er s
l ich
a d
es t
o w
Ġ ge
c e
ĠS t
Ġd en
g en
Ġ im
Ġd es
Ã¼ r
o s
Ġ y
Ċ ĠĠĠĠĠĠĠĠ
Ġ O
u ch
es s
Ġ2 0
i k
ĠĠĠĠ ĠĠĠ
Ġm it
Ġs t
i d
l a
Ġf or
an n
i es
al l
Ġ is
as s
) ;
o u
Ġ U
v er
Ã Ł
Ġ âĢ
t s
t h
Ġ on
Ġa uf
p p
k t
a y
Ġz u
Ġ Z
ie l
i en
ĠS ch
e b
e w
Ġv er
it h
a f
Ġ r
a h
o ur
e i
o p
Ġ ist
ĠI n
Ġd as
l l
Ġf Ã¼r
Ġd em
a g
Ċ ĠĠĠĠĠĠĠ
at e
ich t
Ġw ur
Ġal s
er e
o d
Ġ un
Ġ {
Ġ =
isch en
a u
o g
il l
a v
n e
Ġw ith
in d
s te
u b
a hr
Ġd e
or t
q u
p t
Ġp ro
s e
er t
Ġa us
l y
en d
a k
t r
Ġw h
i b
p e
m en
z e
ĉ ĉ
Ġ j
0 0
Ġein e
Ġy ou
Ġ }
Ġs ich
Ġth at
Ġ Ċ
u g
Ġwur de
Ġ it
el l
ar t
Ġ i
ĠR e
er n
) ,
a us
Ġw ar
ĠA n
s p
in e
Ġ20 1
b en
ĠV er
o ch
w e
a p
f f
Ġs e
r an
h t
u p
o k
Ġa b
sch af
ĊĠĠĠĠĠĠĠĠ ĠĠĠ
Ġ he
Ġa s
es ch
a ge
âĢ Ļ
u e
ge t
ĠD ie
Ġc on
am e
ĠE r
g er
Ġs ein
m ent
ĠT he
Ġ le
Ġa re
m er
h n
ung en
Ã¼ ber
Ġe x
ig en
u d
Ġ or
Ġc om
Ġs ch
Ġa m
ro m
an g
f or
an t
ur n
it y
Ġbe i
g r
ar d
isch e
Ġn e
us t
iv e
Ġa uch
o st
o v
Ġ ch
i al
Ġ 3
Ġa t
Ġw e
ur ch
Ġw ir
a in
( )
i z
Ġs o
s en
Ġ Ã¼ber
r ie
ĠU n
Ġn ach
. .
l in
ĠS p
Ġm e
ut sch
ol l
k s
r u
h en
as t
Ġth is
i a
ĠA r
ĠJ ahr
ung s
i p
ĠB e
te d
âĢ ľ
Ġw as
Ġ if
Ġ1 8
Ġ20 0
u re
Ġ "
l ie
Ġd ies
av e
or d
l ic
p r
l o
h er
âĢ ĵ
Ã¤ t
Ġy our
ĠD e
Ġb is
n en
ĠâĢ ĵ
is e
1 9
Ġb y
Ġal l
h l
Ċ ĠĠĠ
f er
it e
Ġs ie
or e
t urn
o c
i de
Ġz ur
I n
ĠP ro
Ã¶ r
schaf t
Ġn ew
Ġs p
ab le
h o
om e
Ġw er
Ġn icht
i le
ul t
en s
Ġf rom
ter n
ĠâĢ ŀ
Ġ es
Ġ ent
Â ł
Ġz um
Ġ um
Ġ -
ct ion
ĠE in
ul l
j e
n er
pt ion
) .
et z
Ġein er
l ass
ch en
ar k
ĠA l
il d
Ġwer den
b e
m e
a ck
Ã¤ n
i ge
d u
Ġh ave
ic e
ĠS ie
o ut
r it
Ġv or
Ġh at
i re
er v
Ġ us
ĠT h
Ġw ie
Ġz w
h al
ĊĠĠĠĠĠĠĠĠ ĠĠĠĠĠĠĠĠ
l and
o b
Ã¼ n
Ġd urch
en n
Ã¤ r
Ġun ter
ier t
ic k
Ġwir d
Ġc an
Ċ ĉĉ
Ġs ind
Ġw ill
a re
Ã¶ n
ĠT e
Ġm an
Ġo der
on t
isch er
f t
r ing
te l
p er
i o
it ion
us s
i an
Ã¼ ck
el t
Ġ en
a c
Ġw or
ge l
Ġn ot
ig ht
ĠC h
D ie
Ġein em
ch e
Ã¤ nd
Ġ /
ge b
ĊĠĠĠĠĠĠĠĠ ĠĠĠĠĠĠĠ
Ġ 4
ig n
l at
S t
e ar
re ich
Ġr es
as e
Ġ19 9
ĠA us
m al
g es
te ll
r y
for m
g t
z en
er k
o un
ĠS e
p h
ro w
st en
lich en
Ġein en
ĠM it
im e
s s
o ok
Ġ Ã
a uf
b eit
ĠA b
is ter
e y
at ur
on g
a il
E x
ah l
Ã¼ hr
ur g
ĠD er
at h
p ar
Ġp r
all y
ĠL e
Ġa d
l er
x t
u te
Ġt e
Ġ 5
ĠO r
2 0
Ġs h
in al
' s
f e
Ċ ĉ
Ġh as
( );
om m
o de
Ġge t
Ġ Y
u ÃŁ
c c
ĠE n
m p
ĠB er
Ġa r
ul d
ad t
at er
l os
Ġcom p
o hn
ĠG e
ĠG r
ch t
ub lic
Ġre turn
ation al
ich te
t o
ĠA uf
T he
an ce
1 8
lich e
ation s
om p
Ġd ass
ĠW e
on e
Ġ up
ce ption
de m
Ġo ut
th er
Ġd o
Ġb es
je ct
R e
ak e
t z
is s
Ġn ull
ĠH e
el n
ing s
we ise
ĠP r
k eit
f en
l an
st er
in z
ĠM ar
ent s
in t
em ber
am p
Ġ19 8
or s
Ġ 0
ĠL and
t w
Ġg o
y pe
at ed
al t
Ġ &
te il
re e
Ġo ur
on d
Ġt r
Ġw o
am m
re is
Ġh er
Ġ qu
a z
ĠN ach
ĠD as
Ġ +
Ã¤ hr
ol og
l es
a ut
Ġb ut
iv ers
al s
ow n
ĠĠĠĠ Ġ
Ġ/ /
ion s
m s
at en
ol d
Ġi hr
in k
or en
b urg
h re
Ġm y
ers on
S tr
ar y
Ġ 6
ab en
a pp
Ġ19 7
os e
it z
Ex ception
re i
he it
Ġ ro
Ġg en
Ã¼ nd
c l
ĠI m
an s
ĠM e
de t
k e
Ġn ur
f ol
t ra
ĠUn ter
ro ÃŁ
ier te
Ġt ra
ol le
or y
ig h
Ġon e
Ġ 9
Ġde utsch
a ct
Ġw eit
Ġm ore
ĠV or
er en
.. .
on s
Ġthe ir
u pp
Ġn och
o ck
ik e
r i
Ġ( *
ĠH er
is h
it er
ĠZ eit
Ġp er
Ġme hr
Ġs ow
ĠF or
Ã ©
ch n
m it
te t
ier en
Ċ ĠĠĠĠĠ
us e
ĠF l
l d
Ġwur den
ber g
v el
p ro
al ue
Ã¤ l
Ġ19 6
ic al
Str ing
v e
s h
( "
Ġc o
al e
at ch
r en
y ste
am il
on der
Ġv om
an z
eb en
Ġb et
ĠA m
Ġa pp
i ent
ut z
a de
at t
Q u
ĠSt ring
ig er
at a
ie d
f l
Ġab out
g an
Ġ1 7
z eit
s er
ĠSch w
t t
ĠDe utsch
ein e
ste ll
k en
Ġals o
es e
a x
il m
Ġ 7
b le
Ġe v
y s
Ġf r
i um
iel er
Ġge w
f in
ib t
ĠN e
re at
u en
ne h
m ann
Ġb est
N ame
ĠSt adt
Ġl ie
Ġa ber
W eb
s el
Ġs te
in n
Ġ 8
Ġthe y
ĠF ran
om men
b ar
u le
Ġwh ich
ĠI t
oun t
kt ion
Ġf e
Ġcon t
d r
p ublic
le ich
Ġal le
b r
lin ks
Ġ19 4
is ten
Ġp re
ze ich
D er
ĠB r
Ġ1 5
on n
re turn
par am
el d
n is
Ġh is
et h
o f
an ge
ĠRe g
ter s
te m
or n
Ġf in
ĊĠĠĠĠĠĠĠĠĠĠĠĠĠĠĠĠ ĠĠĠ
ol it
Web links
Ġy ear
Ġin s
f Ã¼hr
en g
Ġp la
r Ã¤
Ġt ime
Ġk n
Ġbe en
D e
st and
âĢ Ŀ
c es
ie t
la g
Ġwh o
Ġ19 5
ah n
i ze
Ġsow ie
ie w
a w
Ġ1 0
Ġof f
Ã¤ ch
og ra
Ġs pe
h Ã¶r
ay s
it t
Ġb er
Ġk Ã¶n
Ġk ann
C on
Ġwor k
it Ã¤t
s et
P ro
Ġd ar
Ã¼ d
a i
ĠG em
r if
Ġo b
ĠP ar
re d
ĠI S
p ort
a ce
ah re
ir st
f ahr
w o
g lich
nd e
Ġ1 6
E n
am men
Ġan y
etz t
m in
an k
im m
at or
ĠU S
Ġre c
el s
n et
ig t
ik er
ov e
h und
ier ung
m an
ĠG esch
Ġ |
at s
T ype
le d
r es
Ġ19 3
Ġs ome
1 7
ig keit
g lie
l ine
Ġg es
00 0
y n
Ġge gen
o ol
E inz
Ġwie der
Ġo ver
Ġin ter
ann t
l ung
y p
at ing
ĠS o
g esch
et t
or k
id ent
i x
Ġj ed
b all
Ġg r
el le
o ber
ie le
Ġsein er
Ġp art
Ġs c
is sen
ess ion
Ġein es
u de
el y
Ġzw ei
yste m
a is
in ter
Ġs oll
Ġ= =
T h
und en
ar beit
ĠS te
Ġsein e
ach weise
at es
Ġh aben
u er
erv ice
Ġd is
ĠE s
Ã¶ ff
ie der
A n
Ġhat te
eln achweise
h aus
ĠUn ivers
Ġdies er
Einz elnachweise
am en
lat z
Ġe l
lie ÃŁ
at z
eit e
ĠD ies
ÃŁ e
ĠJ ahre
o le
ĠF ra
p ut
B N
ĠâĢ ľ
o h
ĠG es
ab e
I N
Ġb o
d ition
Ġ Qu
Ġ ich
1 0
Ġo ther
ĠG ra
ĠP h
ĠE x
t on
Ġl ike
ge ben
s k
a der
c om
ĠIS BN
ur op
ĠGem ein
u al
ik an
us ammen
ĠJahr hund
b st
ĠK ar
am er
ver y
Ġp e
ĠK on
A r
Ġ !
Ġ1 2
Ġin t
E R
Ġ .
ĠG eb
Ġa cc
Ġwh en
o ff
h m
Ċ ĊĠĠĠĠĠĠĠ
or f
m ein
ĠTh is
Ġi hre
ach t
in der
a ir
Ġj ust
ĠF re
Ġs el
ĠA d
le ment
ĠC hr
ir t
ou g
al d
" ,
form ation
1 6
ĠTe il
S ch
Ġ :
if f
os s
as h
Ã¶ l
n ah
o und
f all
Ġpro du
Ġth row
e k
Ġpro v
r on
ar n
Ġp h
Ã¤ hl
D as
p ert
ent lich
ot t
ent r
ĠO b
Ġf ol
iel d
Ġp ar
Ġe tw
ic t
o us
le g
E r
Ġbe g
w er
i der
Ġst ud
ĠK ir
Ġn o
c ial
Ġin d
Ġs eit
ĠkÃ¶n nen
Ġ ra
Ġth ere
ot h
ĠU m
Ġzw ischen
ĠJahr en
in s
qu est
ro ug
Ġhe l
ĠÃ ľ
ĠB o
our ce
Ġwar en
hal ten
Ġa g
Ã¤ s
- -
iter atur
Ġ1 4
U n
) )
ĠM us
() .
1 5
f r
Ġne ed
p en
Ġd am
ing en
ĠA nd
Ġthe m
ĠW elt
u es
eit en
ic s
p l
un k
f ter
Ġh ow
Ġre g
Ġg roÃŁ
Ġun s
c o
R es
Ġwh at
um ent
ĠBer lin
ĠN ew
Ġ <
ĠB es
Ġb u
in a
g s
m a
is te
Ġzur Ã¼ck
eit s
ic es
ge w
Ġv ers
Ġf irst
Ġl ook
aus e
Ġit s
o id
l i
Ġdies e
y m
en de
ĠSp iel
io us
ĠT ra
I d
e p
Ã¶ s
tr y
le t
gen d
b au
v ent
ĠM an
if e
la ge
op le
ran s
c re
ĠS h
Ġin to
1 2
en e
' t
Ġ1 3
st ra
au pt
Ã¤ ter
Ġbe k
il der
und es
ro up
Ġw ere
en er
h and
de d
Ġin cl
ur r
if ic
d ay
b o
Ġth an
c ted
at ic
c ed
w erk
Ġh ad
ell en
sch en
or g
ĊĠĠĠĠĠĠĠĠĠĠĠĠĠĠĠĠ ĠĠĠĠĠĠĠĠ
a um
f ul
I m
schaf ten
Ġm ost
Ġd r
Ġf inal
Ġm ake
ro und
a gen
c ess
le in
en z
ĠAr beit
p iel
Ġwo uld
Ã¤ d
he im
" );
Ġhel p
Ġh and
Ġd ann
ra nd
() )
ÃŁ en
Ġer sten
O N
neh men
ag es
o y
ra y
ĠSt a
ĠJ un
ĠA ll
Ġbe c
ut ion
en ce
Ġbe im
ow er
ub l
ĠG er
ib le
Ġm on
ĠÃľ ber
Ġkn ow
is m
A l
sch ie
uch t
Ġus e
l Ã¤
ĠJ an
iv er
re am
Ġin st
f Ã¼
ar b
Ġge hÃ¶r
V er
t es
ĠT r
Ġs ho
en den
g l
ĠA ug
Ġel se
Ġpe ople
ĠP f
tell t
w ard
Ġw el
it ies
in ess
en k
Ġh o
Ġm us
ĠB l
Ġth roug
Ġer st
ĠN ov
ĠZ w
Ġ )
ĠA ut
tern ational
Ġon ly
it al
ĠF r
Ġb el
1 3
Ġe very
Ġw enn
Ġd rei
am es
ul ar
at ive
Ġ201 8
Ã¤hr end
ra g
fol g
c y
p la
ru ck
Ġ! =
ĠJ ul
eb s
glie d
1 4
h ne
v ers
Ġh ier
c on
und e
Ġg ibt
al k
Ġs he
Ġf ind
Ċĉĉ ĉ
ar m
Ġl oc
() );
Ã¶ glich
ĠM en
ad d
ra ch
Ġs et
ĠM in
Ġb ack
Ġw ell
ĠI nd
ĠB au
ĠH and
ĠC on
le x
Ġ19 2
ĠN or
ĠJahrhund ert
rie b
Ġg esch
ier ten
Ġk onn
L ist
it s
ĠSt ud
ogra ph
p on
p f
un st
ist or
Ġm ay
ĠM on
Ġa ct
Ġge b
C h
al en
ur t
r ich
P ar
Ġdeutsch er
ĠAr t
Ġcom m
Ġver y
urr ent
ĠM ed
Ġ *
Ġdes ign
am t
ĠC ar
Ġd own
am s
ist r
u ck
ĠO ber
ster reich
us iness
ien ce
f ig
ĠChr ist
ĠE l
me ister
ĠGemein de
Ġjed och
a id
5 0
Ġ '
O b
os ition
Ġas s
Ã¶n ig
il s
L iteratur
w n
m at
lo ck
i pp
Ġcon s
lo ad
k l
G eb
Ġd a
Ġs upp
ĠF amil
p s
ĠÃ ĸ
ru pp
au er
iel t
7 8
Ġer h
Ġsp Ã¤ter
Ġg u
Ġc re
Ġg er
Ġp l
Ġt wo
o od
em ent
and er
ate g
ĠE urop
sp ieler
Ġan ge
Ġd ire
Ġb re
O r
z w
Ġse hr
ĠB undes
sp r
âĢ ¦
b ild
Ġc l
Ġf Ã¼hr
Ġv iel
Ġst r
2 00
Ġweit er
z er
ĠB and
ĠSt ra
o der
Ġman y
Ġz e
sch e
te xt
ass er
eng th
Ġver b
z ial
Ġyear s
ĠP e
ch er
ĠH o
ĠY ou
ĠDeutsch land
s o
Ġ X
/ /
ĠAug ust
ab ei
ĠF ilm
i or
re m
Ã¼ t
ĠP erson
ĠP ol
F or
Ġv oid
Ġs m
iv en
v or
( ),
an y
u k
Ġm in
ar r
Ġund er
a kt
ar ten
a j
uÃŁ ball
Ġi hn
as ed
Ġt ry
ro l
if fer
eth od
f o
Ġth ese
um ber
for e
Ã¤l t
ct or
it ed
il ity
i qu
V alue
ir k
B e
n ung
vel op
Ġs ub
ew e
Ġetw a
et s
schie den
un ter
Ġh ome
Ġex per
oug h
ar s
b ach
ass en
ig ung
ĠFran k
p or
Ġthroug h
Ċ Ġ
Ġre m
ag er
hal b
Ġh igh
tem ber
f ach
o te
Ġin v
re g
ut h
Ġ3 0
eit er
gr Ã¼nd
ĠB et
ol f
Ġg leich
ff e
ĠNov ember
uÃŁ er
ĠN ational
1 1
lich er
Geb oren
S e
r at
ie f
je kt
= =
ĠS c
u z
Ġre ad
Ġde c
ĠM al
Ġ [
Ġsein en
ow s
Ġgo od
Ċĉĉ ĉĉ
Ġs ol
ier e
Ġp ublic
ich er
v en
Ġs uch
ment s
g est
ak ing
k te
ĠGr und
un kt
ct s
a ul
ge mein
as k
Ċ Ċ
ĠM Ã¼n
Ġsein em
Ġf l
o int
ĠP latz
schaf ts
Ġh in
Ġs erv
ur z
ĠK Ã¶nig
l ing
Ġf ree
hal t
A T
ĠO n
ost en
ur s
u ge
Ġ end
Ġch e
pr il
at ure
Ġa fter
ĠB ei
ĠM ann
I D
Ġn ow
ĠF rie
Ġz usammen
re ad
Ġ Â
ra d
ĠVer b
k er
Ġdies em
ĠG roÃŁ
e x
ĠSe p
ho f
ĠN ord
Ġm ach
re ib
M it
Ġim mer
Ġlie gt
st it
c a
ch ts
s on
Ã¤r z
W e
op h
Ġw ay
ĠR es
is en
ĠW h
is ion
ĠJan u
ten s
ĠI s
ĠF e
Ġber eits
ien st
Ġver w
ke hr
Ġand eren
Ġpla y
ĠE nde
Ġst and
Ġm ark
Ġg reat
ĠH aupt
Ġse e
) );
ĠVer ein
. )
Ġein z
Ġb l
Ġp erson
Ġle tz
pon se
Ġe igen
Ġs om
v iew
Ã¶ ÃŁ
he l
al le
in er
st Ã¤nd
C lass
ess en
ĊĠĠĠĠĠĠĠĠĠĠĠĠĠĠĠĠ ĠĠĠĠĠĠĠ
ing er
lic k
ĠSep tember
a den
ur ing
ich ts
Ġ201 7
ĠV ers
ar ch
ĠA s
Ġpro f
Ã¼n st
an ts
us tr
st adt
if t
Ġb esch
ze ug
ĠK l
al ien
ot her
E N
Ġer ste
b es
ess age
ĠV ol
T e
ult ur
Ġk eine
ar i
Ġsch on
Ġwh ere
Ġer w
ĠI I
Ġd ay
g ang
al th
uf t
ĠB ild
la gen
ĠK inder
Ã¶ ch
2 1
sch l
M ann
ĠA pril
k reis
iz ed
es en
ck en
Ã¶ff entlich
ĠPro du
Ġa v
kt ober
ebs ite
3 0
ĠH och
Ġon line
al ity
S T
ste in
iv es
Ġm ed
it el
Ġv alue
Ġl ong
Ġ ,
ĠH aus
Ġth en
Ġbes te
af f
Ã¼ tz
z ahl
ĠK unst
Ġa kt
Ġb usiness
a ur
f inal
Ġc ol
N ach
Ġ201 6
Ġihr er
s atz
Ġd ort
as ch
w ick
es ter
Ġh ere
Ġar t
L e
er b
Ġsel bst
ais on
iv ate
m Ã¤
r or
ĠM et
ust om
Ġfol gen
le ct
ic a
[ ]
Ġev en
st ru
c ri
Ġsch w
Ġ19 0
o ver
n ew
ĠM ai
p art
Ġwh ile
ĠS Ã¼d
ĠG ew
Ã¤n g
Ġhe ute
im p
ĠF Ã¼r
ĠJun i
Ġkonn te
o in
al if
Ġv ier
ction s
R E
ĠD es
l ang
gr und
ĠI f
Ġw ant
Ġ201 5
isch es
ien d
Ġf un
Ġk e
Ġd iffer
Ġi hm
ĠA mer
Ġv is
c ode
Ġwor ld
Ġ2 5
Ġ1 1
A t
e c
f ang
ĠP olit
oh ann
ĠJul i
he d
issen schaft
le ase
r icht
la uf
ĠĊ Ċ
Th is
in o
ĠO ktober
Ġco uld
ation en
pert y
re t
Ġbec ause
b ahn
ĠD r
Ġte chn
Ġ201 4
Ġ %
olog ie
in es
Ġch ar
Ġ& &
tr ib
ĠB ar
T o
f eld
mit tel
f ra
ĠIn ter
Ġa c
st r
w ay
er y
Ġd el
m ar
e ich
in nen
Ġs k
re it
Ġall er
up er
eb ru
Ġst atic
Ġver schieden
om en
Ġ201 3
stell ung
Ġ201 2
Ã¤n ger
omp on
Ġb en
Ġde velop
G e
ole an
Ġe m
iss ion
Ġl ast
Ġse c
Ġf re
omm un
f te
A R
amer ikan
Ġo wn
b uch
k a
Ã¼ s
Ġsho uld
Ġm od
Ġw en
A N
Ġbe fin
ran z
Ġc ase
Ã ¡
Ġdam it
ĠA t
ĠU r
o ten
ck e
Ã¼r ger
ess e
Ġs aid
S ie
ut en
Ġaus ge
ĠJanu ar
Ġpro gr
Ġ201 0
Ġe ben
ĠM Ã¤rz
hr en
he mal
od y
s g
v al
Ġp ass
Ġm ade
Ġm uch
or ben
Ġbe fore
in ce
Ġi de
Ġk ein
ain t
Ġs ur
h ol
Ġin formation
Ġc ar
Ġst art
Ġo hne
Ġd on
ĠOr t
o gen
ur es
ĠH ol
Ġf amil
Ġb ook
alt ung
gan is
Ġus ed
Ġk am
Ġ2 4
Ġne ue
Ġ ur
ĠG ener
Ġ201 1
ĠC he
fall s
il t
ĠW erk
w ahl
ot s
Ġincl ud
rie g
um s
A us
t ag
il it
al ter
ĠF ol
z ie
ĠĠĠĠĠĠĠĠ ĠĠĠĠĠĠĠĠ
Ġl ang
Ġer folg
ĠS pe
Ġc lass
z ember
iv ing
Ġt ake
Ġ #
ĠM ark
ber t
ro ss
ĠL iste
H e
Ġtr ue
ĠDies e
ĠF ebru
at her
ĠCh ar
w ohn
Ġg ra
Ġres ult
z ug
ater ial
ĠC l
Ã¼ h
cc ess
Ġk lein
De utsch
zeich net
sch lieÃŁ
ra ft
K ey
Ġ1 00
ĠKir che
al se
w are
e te
hr er
ĠLand es
Ġn ame
olog y
ĠJ ohann
Ġto p
Ġ200 8
19 9
ic an
ou ble
Ġs u
Ġp ol
Ġbei den
Ġch ild
ro p
Ob ject
ut t
ing le
ĠS er
rif t
Ġw Ã¤hrend
ĠO ff
Ġs ervice
le te
ĠAr ch
w w
Ġr ight
u ter
Ġ200 9
ach sen
Ġst ar
ĠJ u
l ig
Ġst att
ĠMus ik
ed er
Ġgr Ã¶ÃŁ
Ã¶ st
Ġt rans
ĠS k
Ġ| |
ill ion
D ata
ĠB uch
Ġge f
Ġ18 9
z ent
ie b
ĠPro f
ĠD o
č ĊĠĠĠĠĠĠĠ
Ġ >
ear ch
Ã¤ hn
Ġl ife
as on
Ġand er
kt ur
ĠF ahr
ist s
Ġte il
ak es
mal s
en der
m ed
ig te
Ġsp iel
un n
O R
Ġer sch
qu ire
ĠDe zember
i us
ĠW est
Ġf ound
im es
le it
A L
ĠUnivers ity
ĠM ich
Ġs er
es ent
oll ow
Ã¤ch st
tra g
A m
ĠGesch ichte
ĠP art
Ġj e
Ġe as
Ġd ata
Ġp lan
. ,
sch n
Ġs ite
om an
Ġp ost
ĠPh il
ĠV on
Ġprov ide
ĠW or
b and
sp iel
2 5
Ġbe ing
Ġ200 7
s etz
l en
f a
ĠRe ich
Ġgen er
is k
ĠAl s
Ġ $
Ġne uen
ĠUnter nehmen
ail able
ĠC o
ide o
ip s
z u
ĠW ert
Ġdo es
o hl
in ing
as ter
ell schaft
ĠUnivers itÃ¤t
ĠMen schen
ĠV ert
ĠE ine
Ġc atch
ĠC omp
ĠW ien
ĠĊ ĠĊ
Ġe t
âĢľ ,
Ġag ain
il le
fÃ¼hr t
la ck
Ġf est
re cht
w end
Ġc urrent
ĠS al
ĠD urch
ĠS aison
ĠK r
Ġe ach
los s
Ġc le
ĠB ay
ĠZ u
b y
Ġd u
ig es
all s
p os
ern se
ism us
4 0
u ally
Ġd id
Ġ u
id es
y l
M ap
ĠM ag
la ub
im mer
Ġdies es
ĠKar l
Ġad d
ĠMit tel
Ġd abei
k auf
ap er
Ġz un
Ġcre ate
stra ÃŁe
a ar
ach e
sh all
out h
age ment
ĠÃ Ħ
Ġc olle
Ġre al
c i
ĠH Ã¶
sch ule
ĠH am
n ame
Ġ9 78
f ass
Ġc oun
g leich
ĠMit glied
ichte t
Ġsh ow
Ġe ing
Re quest
L E
Ġg ab
ĠN ieder
Ġihr en
h af
is piel
Ġ x
Ã¤nd er
ogra f
ik a
Ã¤t z
Ġc ustom
Ġste ht
Ġb ed
ten d
ĠD an
neh mer
b t
ĠP er
ĠP at
Ġpro cess
v an
lin k
ĠL eb
ranz Ã¶s
Ġh abe
âĢľ .
ch sel
y r
um e
Ġk ey
sp ort
ch s
p ieler
Ġof fer
Ġ200 6
nah me
ĠG rupp
ĠN amen
le kt
t re
ĠE d
Ġe mp
ĠâĢ ł
in en
ol v
Ġa round
Ã¼n f
um mer
Ġcomm un
ĠW ohn
rie d
Ġth ink
ir d
Â Ń
g abe
le gen
Ġdiffer ent
Ġ ...
Ġ5 0
ĠVer lag
le gt
omm t
ĠD ar
2 2
Ġthrow s
ĠB est
Ġl ar
8 0
ĠJ ohn
B y
Ġn umber
ge d
Ġar beit
Ġs ign
G esch
y le
ĠSch ul
es ten
l ength
at us
c ing
ĠP l
we en
Ġth ose
Ġen g
it zen
al b
ĠEn tw
6 0
ĠMÃ¼n chen
ĠK n
T ra
ges tellt
Ġl ove
Ġpla ce
Ġun ser
ĠFebru ar
Ġwe ek
uf en
ard s
Ã¤ ude
th is
ĠIn tern
ĠReg ion
om mer
az u
ap an
Ġc are
ĠW il
Ġre ally
M ar
O ver
ĠW asser
itt le
al er
ĠD aten
Ġdes sen
r ite
s w
ĠB ere
Ġp os
uf fer
ĠFor m
op e
us h
w ays
ĠW er
F ile
ĠA ss
a e
los e
en ter
ĠB ut
ĠN atur
Ġl ist
Ġs Ã¼d
ĠT o
k ommen
Ġweit ere
iqu e
Ġl og
Ġb zw
ĠM od
dr ich
Ġbek annt
S et
Ġw rit
u gen
n ess
p unkt
c lass
grÃ¼nd et
rie ben
A s
ĠW ill
Ġp ra
f ern
ct ive
los sen
u x
Ġche ck
ain s
ĠFra uen
N ode
Ġ200 5
t il
Ġs ystem
ĠEn t
ord s
ĠW ei
Ġg ut
Ġm ar
Ġerh ielt
Ġbe f
Ġav ailable
h in
Ġr est
ĠG u
ĠR Ã¼ck
Ġe hemal
an st
Ġh im
an gen
sch utz
Ġb r
iv id
ro om
ĠSt and
Ġph ot
ly mp
Ġbes onder
f ort
ĊĠĠĠĠĠĠĠĠ Ġ
A b
Ġ20 00
Ġc al
ab el
fahr en
use um
Ġalle m
de x
ubl ik
i den
un ktion
de ut
ĠSt re
ĠG l
S S
Ġbu ild
Ġpro ject
Ġc our
t he
Ġein ge
ĠT od
is hed
Ġ2 2
r ic
Ġp at
Ġder en
g ra
ĠA pp
ĠA uch
e ver
ir l
glie der
Ġb ring
Ġg est
et ing
ĠY ork
Ġfin den
ĠPerson en
Ġm ov
Ġs onder
Ã¤hl t
all en
nde x
ĠL ei
ĠR ad
Ġbet ween
Ġs l
it Ã¤
sp re
ĠS an
ig ten
ir che
ĠI hre
nis se
I t
I T
ĠSchw ei
ich ten
Ġn ah
-- --
Ã¶r der
Ġv ar
kt or
Ġin ternational
ĠB Ã¼
ĠF est
schl uss
Ġein fach
ĠW ir
ann te
am ent
Ġus ing
Ġo pen
uf f
ie g
ran k
Ġf ew
sch ied
Ġf ollow
Ã Ń
st off
A d
m m
it ter
Ġor der
Ġn or
Ġf alse
Ġsonder n
r ide
tell en
Ġer reich
C ont
Ġst ill
ĠB re
Ġ2 1
E in
b ew
Ġb oth
il es
Ġn un
ĠZ usammen
it or
ĠSch l
Ġ2 3
Ġv iele
7 0
ĠM ot
Ġob ject
al y
ĠB ra
č Ċĉ
ch te
Ġg roup
z iel
Ġ â
im al
ĠL in
Ġne xt
ĠLeb ens
Ã¤ us
N e
Ġand ere
ĠP aul
a un
er m
k on
Ġw icht
d ate
ĠF uÃŁball
oll en
E D
om in
P ath
ĠB as
Ã¼ ss
Ġm uss
Ġp olit
a el
Ġdeutsch en
geb iet
Ġv iew
et ail
Ġb as
ĠR o
irt schaft
Ġfr iend
Ġ200 4
ur y
re en
app end
or ts
w ig
sel f
Gesch ichte
om b
Ġm oder
Ġan n
Ġcomp any
m et
A C
ath ol
he in
a ÃŁ
p re
Ġsch ool
d ings
aus pieler
ra gen
Ġf ile
Ġb ie
lass en
y ch
Ġsm all
Ġs ame
Ġf Ã¼nf
ĠC olle
Ġfor m
re uz
4 5
Ġ201 9
ut es
Ġmon th
it es
Ġf ranzÃ¶s
ĠFrie drich
ĠS eite
Ġl o
av ing
ĠP re
oc i
ame ter
ĠW ahl
Ġa ut
Ġexper ience
Ġab s
isch of
Ġfamil y
Ġv al
ess er
ro ll
ĠB el
tell er
mÃ¤ ÃŁ
lass e
Ġbefin det
ĠC ol
ond on
ĠBere ich
Ã¤s ident
Ġge mein
ĠBer g
hn en
ĠK ap
e h
n a
ĠT ag
Ġt ype
Ã¤ uf
de ck
ĠTe chn
Ġd uring
Ã¼ hl
2 3
Ġ18 8
k ten
able d
M od
Ġdis c
Ġim port
igh ts
G est
A M
ĠP ort
and s
f urt
Ġg anz
al es
o ge
ĠF il
Over ride
Ġden en
ch es
Ġc or
Ġserv ices
Ġinclud ing
h ard
L eben
Ġd i
Ã¤nd e
2 4
er g
an ad
our n
Ġc a
ar z
Ġwor den
ĠM y
ĠIn ternational
av a
Ġh app
w ork
o ot
w ert
sch ul
ĠEn g
M an
in ation
ĠFamil ie
I f
Ġch o
Ġper fe
Ġf ull
ĠMe ister
ĠG o
ĠL eben
h Ã¤lt
Ã¤n ge
ĠAl b
Ġre quire
7 5
Ġf ast
fer ence
amp f
Ġro om
ĠS ohn
as st
Ġsupp ort
Ã ³
ĠD on
U R
Gest orben
dr ess
ĠFl ug
pr ess
j Ã¤hr
ĠC ont
gr amm
ent en
sch w
Ġbo olean
Ġle arn
Ġev ent
Ġo per
Ġm Ã¶glich
ĠEin wohn
b ack
Ġl ittle
g ung
Ġm ember
B u
ut ter
Ġm ein
Ã¶l ker
Ġzun Ã¤chst
Ġp oss
Ġbre ak
Ġer halten
b l
le y
Ġhe alth
ĠM at
ol ution
Ġent stand
c le
ig inal
ĠL a
C l
ir on
Ã¶ m
Ġim p
Ġz ahl
h a
fig ur
Ġr und
ĠDeutsch en
Ġre quest
ra um
Ġincl ude
r sg
ĠThe y
th ing
Ġper form
Ġprof ession
ĠK ont
ĠOr ts
den s
Ġg ar
Ġf and
lo b
Ġspe c
Ġ2 6
ĠB ahn
ĠPro v
en nen
ĠPolit iker
bild ung
Ġdies en
Ġgo ing
ĠK reis
ĠOb ject
t ing
ĠS he
hel m
Ġat t
Ġth ree
ĠW ar
ĠH ein
er st
ĠM o
Ġbeg ann
ĠN ame
St ream
Ġk on
ĠL ist
Ġp op
ĠT itel
Ġapp ro
Ġ( âĢ
Ġh al
Ġcont in
Ġex p
lo y
Ġj ewe
k m
d o
Ġ2 8
Ġte am
ĠHer z
O n
Ġf act
Ġm et
Ã¤ re
ĠIn s
M e
A ll
Ġeben falls
g aben
ĠIn stit
ĠE m
gr upp
Ġsoll te
iv al
ĠGe gen
enn t
Ġke ep
Ġb ig
I I
ess or
ĠEntw ick
te te
er ts
ĠR ich
ĠL ie
um p
Ġm ust
fÃ¼hr ung
Ġs ei
ur m
Ġse x
E lement
lich keit
m us
h ung
ar ly
cri ption
ĠP la
ĠL ondon
uÃŁ en
l ess
Ã¤ ll
I S
an a
ĠO st
Ġo ption
W ith
id s
iet y
Ġd ating
Ġspe cial
U S
en det
ĠVer w
ount y
ĠB en
I C
Ġlook ing
ĠP ark
ne y
Ġdar auf
Ġw ater
we g
Ġe ffe
Ġdeutsch e
Ġst ate
ann ten
rit t
Ġ199 0
ernse h
du c
Ã¼nst ler
am a
Ġs imp
ĠWelt k
ĠM or
Ġ200 3
sch rift
Ġa uÃŁer
Ġc all
Ġal ways
st ag
Ġk ommt
Ã¼ b
Ġto o
Ġo ld
Ġg ame
Ġex c
Ġ200 2
ent ial
Ġ18 6
Ġloc al
im at
ĠSp ort
ĠN ot
ĠGr Ã¼nd
Ġ200 1
Ġetw as
ĠS il
f ts
Ġsch n
Ġg ot
č Ċ
atur es
um en
och en
Ġfe el
Ġf ield
Ġm ethod
s am
ĠJ e
i at
Ġare a
Ġm ax
Ġh istor
j ahr
rie gs
iz ation
Ġm en
Ċ ĊĠĠĠĠĠĠĠĠĠĠĠ
Ġb il
ĠD u
Ã¶ sterreich
19 8
ĠF in
ĠS ystem
an e
Ġ2 7
ĠH el
us ch
on es
ass e
Ġpro ble
Ġne u
g te
b ed
ĠH ier
Ġ4 0
M essage
ĠSta ats
Ġs w
Ġqu ality
Ã¼ l
D R
p latz
Ġm ir
ei den
M et
o x
Ġre t
ar get
tt p
em p
pr ession
it u
it te
A uf
ĠS eit
e qu
ho de
I ndex
P r
ĠF ot
Ġent wick
Ġs ince
ig ital
Ġre ce
Ġwel che
Ġver Ã¶ffentlich
ro s
s icht
ĠPe ter
um n
ĠLand kreis
< /
ĠH ow
ĠN o
ell er
ff en
Ġc r
ĠH ar
Ġpart ic
ĠT er
ĠFran z
kl Ã¤r
Ġst or
or ge
ĠTh ere
A S
ĠB i
Ġpro m
at ter
ĠF ach
Ġcom e
ur o
our s
Ġein ige
Ġin ner
D es
v es
Ġind ivid
+ +
ĠH ans
Ġth ings
Ġakt u
ĠÃĸ sterreich
are d
ot he
ft ware
imm t
Ġ199 9
ĠD orf
In fo
Ġs ize
ik t
F ield
ĠPar is
a uch
or ie
Ġwith out
H and
ĠD em
Res ponse
c r
s ych
Ġh ard
Ġge ht
ĠJu gend
Ġf lo
um m
ĠH il
Ġle vel
Ġletz ten
Ġst ark
ĠW ind
ĠO lymp
ĠD re
Ġg row
sch ein
9 0
Ġver l
ĠgroÃŁ e
Ġander em
Ġor gan
č ĊĠĠĠĠĠĠĠĠĠĠĠ
Ġgew ann
ĠIn formation
IN G
Ġw ebsite
ur en
reich e
E T
et te
is se
ĠM ay
Ġt yp
Ġs ure
Ġm al
an c
ĠgroÃŁ en
Ġb ra
Ġe qu
Ġre lat
ĠT or
z entr
Ġj ob
ce pt
Ġsec ond
b ook
min ister
Ġs ay
on nen
Ġl ot
2 8
j oy
Ġin c
z el
te gr
h ip
Ġbe aut
Ġ est
b et
for der
f ilm
Ċ ĊĠĠĠ
Ġis s
te i
op f
amerikan ischer
. "
z ig
Ã¤ che
i am
ĠC or
ĠM art
Ġto day
eth ing
Ġge m
Ġn eben
D E
Ġw ei
Ġv oll
ent ly
ier s
ies en
ĠC ity
: //
ĠJahr es
Ġd och
Ġch ange
a it
ber eich
Ġle t
3 3
Ã¶ t
fa ult
gen ommen
i as
ourn al
Ġge l
ei le
ĠHer r
Ã¼ck e
ĠB Ã¼rger
pe ct
2 6
ĠS el
il y
ĠAus tr
Ġd azu
T ime
ĠM ain
et en
iz iel
oc ol
ĠFra u
Ġr un
um b
au g
P D
ĠB ed
ĠBe g
Ġer r
e le
m ut
ĠU nd
Ġw all
ĠKir chen
Ġbet ter
gesch ichte
ur ger
Ġihre m
Ġm ind
Ġc ost
ĠAmer ican
d ruck
Ġ ?
Ġl assen
S p
Ġ2 9
g o
ĠVol ks
En abled
il ter
ĠI hr
ĠTe am
ver t
ĊĠĠĠĠĠĠĠĠĠĠĠĠĠĠĠĠĠĠĠĠĠĠĠĠ ĠĠĠ
Ġcon ne
se e
Ġ Q
ĠD av
ĠUS A
Ġinter est
uch s
Ċ Ċĉ
equ als
ĠWor ld
Ġfr Ã¼
! !
v Ã¶lker
d orf
it ive
ind ung
2 9
S ervice
O f
Bu ilder
Ġwith in
ĠFamil ien
4 8
ĠG old
ĠSch n
on y
Ġo pp
in ner
Ġeing es
Ġm ain
ĠK ultur
ill s
ĠgehÃ¶r t
Con text
Ġg ive
ĠRe chts
Ġbe h
ul ts
em s
Ġauf ge
st re
Ġnah m
st Ã¼tz
ges amt
ĠD a
3 5
Ġhat ten
ĠSt r
Ġapp lic
ĠB esch
Ġ20 20
ĠP lan
z ogen
Ġqu est
Ġh ol
af fen
ĠG en
Ġhe ad
Ã¤ h
. âĢĿ
ĠJ ose
I ON
el te
il ome
rit er
Ġp ay
nah men
Ġl ink
Ġad v
Ã¤ ft
ist ory
ĠS eiten
pr ivate
ub e
Ġd ays
h am
le tz
y d
Ã¤ m
Ã¶r per
in c
g ument
iv ed
ĠSch rif
d ing
Ġg ing
ĠFor sch
ab r
ra cht
ĠFol ge
Ġh och
Ġab le
ĠMich ael
f re
ar a
ĠP reis
ĠTe xt
ĠSta aten
Ã¼s sen
ck er
ĠR ed
m ark
c ont
Ġm ich
H rsg
Ġimport ant
lat t
Ġsom ething
9 9
am b
k ey
n ot
Ġp ower
Ġlar ge
Ġt ro
Ġco ver
im ent
Ġall en
ge ord
ĠT our
D ies
Ġb rit
rit ten
Ġde fin
ĠB urg
ĠK ais
le i
w or
Ġ @
v alue
ĠD is
Ġw omen
if ied
o ung
.) :
m l
trib ute
ĠR u
Re g
ĠW ith
w est
ĠU hr
F uÃŁball
Ġd an
um an
Ġle ad
Ġher aus
ĠB ro
Ġ18 7
le ine
Ã¶glich keit
v iron
Ġbeste ht
Ġf ac
ĠD ire
rÃ¤ ger
omm and
ĠA ir
Ġp ut
de te
if ul
ĠP al
oug ht
icht ung
ĠAn t
Ġl ine
Ar ray
Ġstud ents
il en
igkeit en
ĠSch auspieler
gan gen
teil ung
fol ge
ĠS ol
ĠI ch
um er
ĠM Ã¤n
Ġ199 8
t ime
ner g
ĠS m
our ces
Ġersch ien
ah men
Ġre f
ĠWil helm
Ġinv est
ile d
Ġab ge
g n
Ġwork ing
f ert
w ar
Ġprodu cts
ĠZ e
ne te
ĠB ern
ĠC ounty
P erson
ers Ã¶n
ĠGener al
ĠM ax
d ienst
2 7
eng l
ic le
Ġzw eiten
Ġbe zeichnet
Y ou
Ġ( !
Ã¤t ze
ograph ie
A P
ic ally
ik en
ur f
Ġho use
ĠC om
W h
Sie he
z t
A nd
der s
ĠâĢ ¦
== ==
Ġvis it
Ġp age
Ġres earch
Ġerst mals
uch te
ĠAn fang
entr al
Ġad dition
ĠR ei
č Ċĉĉ
Ġspiel te
Ġl and
ĠAl t
heit en
Ġf ood
ach en
pert ies
uch en
Ġa ir
C O
Ġc ert
sh ip
Ġaller dings
E s
Ġt er
Ġste hen
w elt
Ġk urz
Ġcomp lete
es h
Ġw Ã¼r
Ġdown load
Ġsch lieÃŁ
ch ten
Ġeas y
ĠW ebsite
ĠSch ool
O Exception
En try
Ġan other
Ġn ational
it ch
' m
o pp
ĠR aum
ĠEin satz
uch e
Ã¤ mp
Ġl ight
Ġge grÃ¼ndet
Ġs ingle
Ġpro te
Ġacc ess
ĠG ott
Ġk ommen
Ġex ist
Ġmehr ere
Ġchild ren
Ġsh ort
de utsch
Ġm ult
Ġt urn
Ġw est
th row
ĠGe org
Ġ6 0
b el
ab ility
ilit Ã¤r
Ġin it
ĠZ ahl
ut ure
Ġt re
ĉĉ ĉĉ
Ġne ver
Ġe d
Ġcon f
ĠBet rieb
ograf ie
ĠL u
B ei
Ã¤s ent
Ġh inter
h Ã¤ng
Ġ198 0
Ġwe gen
l Ã¤nd
ĠChrist ian
ĠB ad
op s
ĠHam burg
Ġ199 6
d ie
om as
ĠI l
ge ther
ĠJahrhund erts
ĠK at
Ġt est
ack age
) :
Ġl a
lie b
Ġm aking
ier ungs
p lan
> >
Ġin cre
ig a
Ġen joy
ĠĠĠĠ ĠĠ
Ġ194 5
Ġmach en
C ol
for d
S h
Ġp ict
Ġb ro
yste ms
ĠS outh
gr ess
an ten
il la
ĠgehÃ¶r te
N ot
C H
is iert
Ġg l
Ġ18 5
Ġact iv
p ublik
den k
ĠK la
ra che
ĠNor th
3 8
ver ein
Ġre l
Ġre view
ĠA lex
Ġsein es
amp le
ĠR ahmen
Ġse arch
onder e
. âĢľ
k irche
Ġa uth
ir m
om at
Ġ ident
R O
os en
Ġmark et
ĠR el
e hen
Ġprogr am
utz t
ra w
L oc
te ger
le ben
ĠâĢ ĺ
Ġd av
Ġden n
Ġm ight
if y
ik el
Ġperfe ct
spr Ã¼n
ĠArch ite
Ġd ah
ic y
Ġe ff
Ġs uper
viron ment
Ġhe ut
Ġ199 4
3 6
ĠL auf
Ġl at
Ġd ouble
Ġw eb
Ġer ne
Ġpra ct
ĠE nd
ĠL ud
Ġverschieden en
schn itt
ver b
ĠC lass
Ġof t
ion al
ĠM ont
tel le
as es
reich en
Ġneed s
G roup
ĠE uro
Deutsch er
Ã¼ ll
w ort
en a
amm lung
Ġbu y
az z
ĠI de
Ġcons ider
ober t
and id
Ġ197 0
ĠEinwohn er
E S
nah m
ĠR uss
ct ure
ost er
Ġv ideo
Ġg irl
In ter
Ġm ag
Ġmus ic
3 9
Ġim age
p end
ĠG ed
n ungen
ver n
tel s
ĠSch m
Ġk omp
ort un
19 6
Ġc ap
t ocol
ĠP ap
Ġ199 7
aj or
4 9
l og
ĠEr z
ĠF ar
oc us
ĠS oc
an te
ĠW inter
ĠH ome
a pe
haus en
f el
Ġ3 1
ĠGrupp e
ĠZ iel
heit s
Mit glied
ar l
Ġsu ccess
in ks
ĠNe u
ut s
Ġan t
Ġk m
ĠSp ieler
Ġent spre
ĠIntern et
3 2
ĠGra f
ĠA kt
ain er
read y
4 6
Ġs af
gr iff
pla y
Ġim pro
Ġto t
unk te
ĠLei p
Ġverw endet
g ar
z y
och ter
ilome ter
Ġb ased
Ġtr at
m b
ĠGeb Ã¤ude
ĠE nerg
Ġen gl
af Ã¼r
il igen
ein ander
pt y
ĠF all
4 7
ĠN eben
ĠO ur
Ġpr es
Ġeigen en
{ @
ward s
st ant
tre ten
Ġ Ð
er in
Ġp ort
ĠUn ited
Ġl ess
lich es
w issenschaft
Ġperson al
v ious
Ġc reat
ĠDes ign
ĠT re
ĠWe g
ĠO l
Ġl aw
os p
L O
w and
l ungen
a at
ĠEr st
ac ter
Ġprodu ct
Ġb le
ĠBe ispiel
Ġas k
i ol
un ft
ĠV ater
us Ã¤tz
Ġ199 5
ĠS en
op er
z irk
ab l
Ġm atch
ĠMit te
ĠB ew
os oph
Ġinst ance
Ġ199 2
ĠC omm
ĠE he
tr Ã¤
ar te
ab or
ĠD at
Ġ( (
ĠG ar
Ġal ong
Ġbe w
Ã¼ gel
ĠA g
Ġse ver
alt ungs
red it
bes ondere
ul ation
ĠPr Ã¤sident
Ã ĸ
irt schafts
ĠS ommer
et work
b aut
al ten
Ġse chs
ĠOn line
Ã¶r d
Ã¤ ss
Ġte xt
j a
Ġb ody
" .
at Ã¼r
etail s
ĠK o
Ġs tell
ĠE is
19 0
ĠE p
i ate
ar ing
st ance
Ã¤ fts
ĠD ienst
Ġse hen
ĠT yp
ĠR oman
Ġt able
ĠHol z
th ers
Ġwor ks
' re
ĠD i
we is
ĠFrank furt
ĠM illion
Ġex tra
Ã¤s st
zeich nung
Ġ199 3
ent al
ganis ation
Ġde v
Ġcon c
Ġcommun ity
ĠK Ã¶l
U N
ord ing
ĠH of
Ġs etz
ĠB y
Ã ¨
ĠfÃ¼hr te
Ġtra dition
ĠM c
Ġp ath
Ġall ow
' ve
ĠB rand
Ġein mal
ĠD ort
b re
s ize
Ġunter schied
ĠT ro
ĠW olf
le hrer
Ġ ess
ĠS ervice
ĠH istor
ĠEr n
ĠHein rich
ĠEntwick lung
ific ation
ĠI hnen
Ġto gether
ĠW ald
* *
Ġres p
ym b
ĠEurop a
Ġst at
ĠEr w
ĠHÃ¶ he
Ġre p
reib ung
ĠD en
ĠG el
ĠâĢ Ķ
ĠC as
Ġl ive
Ġweit eren
ĠJ o
Ġ _
ĠEn gl
ur ity
ib r
Ġwe chsel
Ġ18 0
Ġg ilt
grupp e
ĠS ein
Ġo pt
w h
Ġb it
is ed
ab ly
ĠRe c
Ã¤t te
ĠLe ist
Ġ Ã¶sterreich
ĠZ ug
ĠP ost
3 7
ĠW eb
is ing
ĠMe ter
Ġwe il
u el
part ment
ĠF er
m od
ĠB ilder
V ers
ge f
oc ument
ent ion
ĠN r
E m
Ġn on
l ow
Ġt Ã¤t
Ġr ange
g art
A G
Ġle g
Ġbeaut iful
Ġf our
ire d
ĠSe e
ig ent
Ġl ange
ĠEr geb
ut ions
St ate
Al s
S er
ok en
Ġk ind
ĠS Ã¼
mer ikan
G ibt
teil t
ett bew
5 5
Ġver fÃ¼
ob il
Ġfin det
b ei
ib li
Ġa way
ob ei
l le
ĠfÃ¼hr t
l am
Ġ Ã¤l
ĠD abei
Ġgen annt
ĠF ir
S o
g ing
ĠF eld
Ġ196 0
Ġpr esent
< ?
h end
s weise
leg al
ĠEin zel
Ġfe atures
ĠM useum
Ġcont ent
ik ation
Ġpro perty
ĠFrank reich
4 4
Ġle ft
Ġdav on
Ġdire kt
i od
k n
v ille
sk i
s b
ĠB ischof
Ġunder stand
ak en
Ġt em
id ge
ĠRe gel
3 1
figur ation
il er
ĠK Ã¼
ie ve
ch an
stell en
Ġjewe ils
P h
V al
Ġal ready
Ġagain st
us try
schlieÃŁ end
ran sport
Res ource
ou p
Ġcle an
Ġmus ste
Ġm Ã¼ssen
ĠF unktion
ĠP ra
ĠSte in
id ing
tern al
Ġbel ow
Ġinner halb
og le
ĠT ochter
Ġdire ct
Ġbesonder s
Un ivers
op y
Ġre du
und s
Ġcont rol
h an
Ġf av
Ġ20 21
i ber
Ġen ter
19 7
Ġcour se
st ants
Ġdevelop ment
Ġ199 1
att ung
Pro perty
ro du
Ġj etzt
] ;
pr Ã¤
con om
ĠSt utt
le v
ge ber
es ted
ief ert
v ed
Ġviel en
Ġm aterial
Ġh aving
Ġwh y
lob al
ĠLud wig
ĠK lein
g lichen
it chen
Ã¼r z
Ġn ight
ĠL ang
ĠJ apan
act ory
f est
Ġs ide
ĠSt ate
ĠBer uf
Ġit alien
is on
Ġb in
Ġre pr
Ġof fen
au en
sche id
ĠTh omas
c ent
f s
am mer
Ġp ast
ult ure
au p
engl isch
c er
, âĢĿ
ĠM ore
ĠAnd re
Ġd ist
Ġcon dition
ĠMit arbeit
ĠK rieg
ĠGeb iet
a ction
ĠS am
Ġc ity
Ġw obei
B er
ist ischen
w irtschaft
ĠJ ust
Ġt imes
her r
ĠT rans
Ġoff ers
O T
ĠS itz
ing ton
Ġposs ible
ĠPro ble
Ġmon ey
P re
Ġp oint
Ġo cc
Ġp ubl
E M
Ġl ov
F ilm
E C
ĠR est
L og
ag ue
zeit ig
F rom
Cl ient
ĠK e
ĠS w
Ġfolgen den
Ã¼ck en
ĠProv inz
A D
Ġk leine
C ode
ĠV e
A B
ĠR om
Ġall es
M ethod
ĠK om
Ġun til
Ġres ponse
ĠStra ÃŁe
ĠB rit
ĠMart in
ĠA fr
ĠMar ia
Ġn atur
gen den
ĠArbeit s
ĠH igh
ĠU l
Ġe ver
3 4
ĠH ann
ĠO per
pro du
ĠLeip zig
o o
iz in
Ġte ach
Ġl im
ors itzen
if en
or m
sch er
Ġf ar
ca dem
ĠB ank
pp er
Ġan geb
ader s
al og
id ay
ĠMin ister
Ġges am
ie gel
Ġe duc
ktion en
f ace
Ġme et
Ġme isten
i os
ĠW Ã¤hrend
lich t
Res ult
I G
ĠK omp
w ie
Ġw ind
S c
Ġ198 9
ĠK ommun
ok ument
ĠÂ »
ra b
iv ely
Ġarbeit ete
Ġbie tet
u h
Ġstud ierte
Ġm ot
ian s
ĠT est
ĠT Ã¼r
ĠZw eiten
Ġer n
ill er
ĠTh ese
S ize
ene f
a he
n ull
ĠB eit
ĠKais er
gemein de
Ġs on
ĠC r
ĠTe x
Ã¼ ler
Un ter
cr ib
Ġins gesamt
unn ing
- ,
ĠK ompon
_ _
ĠR hein
ĠW hen
ĠN utz
L iefert
ĠOb jekt
Ġuns ere
Ġ Ã¶ff
Ġn ieder
ure d
v oll
Ġcont act
Ġt reat
ĠW al
ub s
ĠkÃ¶n n
w ei
ĠO ne
to String
und er
ĠR obert
ĠBe vÃ¶lker
T r
Ġauf grund
ĠS icher
richt ung
8 9
Ġjed er
Ġst yle
Ġd afÃ¼r
ol oge
ĠM er
wend ung
ĠS eine
ĠM ap
ts teller
l ungs
ĠD am
Ġbec ome
Ġso cial
Ġze igt
A pp
in i
Ġz we
ĠAm t
ĠEurop e
f ield
tell ung
Ġpr ice
Ġw he
ĠF C
ĠO p
ĠGes ellschaft
te chn
ser ie
qu e
Ġp ot
ĠD own
ka dem
ĠSchwei zer
ĠtÃ¤t ig
s ide
Ġy oung
Ġopp ortun
Ġn Ã¶rd
geben en
Ġ ens
Ġqu ick
E L
Ġkonn ten
Ġc los
Ġen c
Ã¼t zen
Ġf ocus
ab les
Ġ ir
ĠB ru
iv ision
Ġe lement
Ġth ing
ĠBes itz
ĠCh ina
U t
h Ã¶
ĠT urn
Ġm akes
ĠK ur
m Ã¶
ĠMar kt
Ġfollow ing
N ull
Ġb rand
le ge
im a
Ġac ross
s erv
ich ter
Ġsh are
Ġbeg inn
Man ager
O ut
ob ile
ĠMann schaft
cri pt
Par ameter
ion en
Ġ198 8
ĠGesch Ã¤fts
Ġerfolg te
ĠK ind
Ġof ten
s c
ompon ent
ag s
U T
ver kehr
ĠE isen
Ġsever al
sp ir
Ġ( )
eit ung
ĠThe ater
Ã¤r en
gen de
hl en
Ġprofession al
ĠInformation en
Ã ľ
reib en
im men
Ġur sprÃ¼n
w Ã¤r
ĠStra ÃŁen
" )
it ten
č ĊĠĠĠ
ĠBay ern
Ġin dex
z Ã¼
Ġet c
ĠB ur
ĠM a
ĠSo zial
n ov
etz ung
ut or
land s
isten er
Ġstar ted
et ter
19 5
Ġcal led
put Stream
8 8
Ġst ory
ĠBeg inn
ĠMillion en
d es
p aper
la u
D F
is ierung
Ġs im
ze pt
m on
Ġ195 0
Ġp osition
te ile
le ist
ip l
ĠP ass
.. ..
ĠS and
ĠI OException
Ġklein en
F Ã¼r
ĠR olle
ĠM il
ĠWeltk rieg
h men
y er
Ġh Ã¤uf
Ġcoun try
t ain
ĠHe imat
EN T
ĠDav id
Ġp lease
Ġd one
ĠL og
ul a
ord in
ĠM utter
ĠC al
Ġl ow
Ġde ut
we hr
Ġan s
Ġme ist
ym n
Ġb ar
ĠW ie
ĠStutt gart
Ġth ough
ĠSe x
mb H
Ġfor t
ĠH all
shall er
pr int
Ġget ting
id d
Ġschn ell
I M
k o
h aupt
ĠH inter
Ġinst all
Ġc lick
ĠK Ã¼nstler
yn ch
Ġind ustry
Ġn Ã¤ch
6 5
an ien
og n
ĠĠĠĠ ĉ
al itÃ¤t
Ġl Ã¤sst
Ġdel iver
Ġpr ivate
Ã¼ f
uf act
Ġcom es
Con fig
Ã¶s ung
z immer
ĠL uft
Ġar ch
Ġb lieb
Ġcom b
ang es
ĠPro zent
age d
ĠDe c
4 3
Ġent ry
fl uss
Ġh om
Ġide as
ĠT age
itÃ¤ ts
Ġ id
ĠE mp
ag o
rif ten
E igen
Ġs og
4 2
lig a
ber ger
ĠPf arr
Ġm Ã¶ch
Ġg re
ĠSch loss
ĠW enn
in ed
ĠKÃ¶l n
Ġk osten
ac y
Ġgegen Ã¼ber
ĠM Ã¶glichkeit
ĠschlieÃŁ lich
v is
ĠMÃ¤n ner
ĠV ier
Ġgeb oren
ir at
ict ion
alif orn
ĠMit glieder
Ġsich er
ĠLe hr
ĠK ilometer
Ġin tegr
wo od
ĠInd ustr
ag n
Ġbl og
ĠB lack
a pt
Ġeinz el
Ġent fern
ĠDies er
Ġgo vern
en zen
um ents
ĠT op
' ll
9 5
L A
F l
Ġbis her
ĠPro jekt
F A
ĠG et
Ġle d
an ks
Ġme ans
Mar shaller
ĠIt alien
Ġe lect
ver band
Ġsp ace
ĠReg ierung
Ġm ajor
ast ic
Ġstud y
Ġs pr
Ġw atch
Ġre port
Ġemp loy
ĠDeutsch e
Ġ198 7
ĠOlymp ischen
For mat
Ġc amp
Ġcomp an
geb aut
fahr t
on a
Ã¶r t
j et
ck s
Ġmod el
ĠK reuz
Ġkn own
E vent
ĠTh at
Ġoff ic
h or
Ġverschieden e
ĠHo tel
pla ce
Ġn am
b urger
n am
Ġz usÃ¤tz
ĠH en
ĠT V
ab in
ra u
d a
ran ken
ak ter
v ier
ĠD el
ĠW issen
ĠZ eich
ge gen
ĠK le
ĠBo den
Te xt
Ġ Ã¤
ĠW ochen
erk e
ĠProf essor
ĠK ant
Ġerreich te
Ġk ur
Ġzw eite
En t
ĠGer man
Ġn ie
Ġsow ohl
Ġb lack
ĠG od
ĠAl ter
Ġ198 4
Ġwo hl
Ġj oin
ymb ol
Ġd re
ĠAr ray
co ver
ĠSch iff
ĠR ock
Ġge lang
v a
as tr
em a
ho ck
t ype
in dex
or ed
Ġb enef
ĠM el
Ġser ies
Ġspec ific
L and
Ġse le
Ġins besondere
tocol Marshaller
ĠL ou
S pe
r Ã¤n
Ġv ol
ol den
Ġen vironment
f an
Ġm om
Ġph ys
Con ne
Ġwicht ig
Ġwall paper
ern er
ann el
zie h
Ġo ber
ann ot
ĠSt art
ĠMe hr
ĠNor den
b est
is c
ĠG mbH
Ġze hn
ich en
ell ing
Ġcomp uter
led ge
ĊĠĠĠĠĠĠĠĠĠĠĠĠĠĠĠĠĠĠĠĠĠĠĠĠ ĠĠĠĠĠĠĠĠĠĠĠĠĠĠĠĠ
je kte
Ġwechsel te
Ġh erv
pe cted
ĠColle ge
Ġz eit
sch lag
ĠSt at
ĠK ol
ĠRich ard
G r
ĠA p
ĠS uper
Ġse ason
V or
z a
ĠA uÃŁer
ĠO t
ĠS im
Ġ8 0
C omp
ĠF rei
p iele
Ġc la
ur ance
âĢ Ķ
ĠD enk
deut ung
om et
ĠR ichtung
Ġus er
ĠPr iv
ci ally
ĠW ieder
ĠFl or
es te
m el
Ġn atÃ¼r
k r
W ir
l as
ĠF ile
Ġmember s
Ġh Ã¶ch
ĠH alb
Ġfriend s
Ġr icht
ĠMet hode
Ġunser er
c m
ir chen
w eit
ap s
St and
Ġver st
Ġs n
ĠK riegs
ĠL iteratur
zeich en
al ys
Ġ198 6
Ã¶st lich
h as
Ġt alk
ic o
Ġto ol
Ġbes ten
Ġd est
Ġ3 5
Ġ198 5
ĠSel bst
Ġp ie
ord nung
b ank
Ġproble m
Ġn ord
ĠÃ¼ber nahm
8 6
C E
Ġ9 0
ok e
ide os
ibli othe
Ġd at
ĠHerz og
em in
ĠSch ule
pl ate
c ol
Ġad dress
Ġ(âĢ ł
ic ro
ĠC oun
Ġacc ount
b u
Ġc ent
ern en
Ġprov ides
Ĥ ¬
te mp
ĠI r
T yp
ĠW eit
O S
Ġun ique
ch ter
Ġgew Ã¤hlt
F e
ium s
Ġindivid u
ĠPro gramm
ide d
be k
Ġres ource
row n
ĠZw ischen
ar en
ail le
ĠII I
itÃ¤ ten
Ġrel ations
ent wick
ĠC enter
---- ----
Ġp o
Ġp urch
av en
fÃ¼ ll
Ġmoder n
ĠWh at
ĠF Ã¼hr
ÃŁ t
or ing
Ġwen ig
ĠSchrif tsteller
W elt
Ġerne ut
id el
Ġle ben
8 5
J ahr
Ġbuild ing
F actory
c el
Ð ¾
Ġw rite
der n
ĠZ we
( (
In stance
ĠM os
Ġm essage
Ġa ff
ĠC D
Ġle b
ĠG eld
Ġver kauf
Ġne ar
mann schaft
ĠL es
stell ungen
od es
s burg
Ġvor hand
Ar gument
ĠD DR
de b
fra ge
ĠIn nen
4 1
ay er
Ġdesign ed
ĠAlb um
ag t
bar en
Ġhin aus
U r
auf en
lan zen
ak er
it ze
FuÃŁball spieler
Ġst amm
Ġgemein sam
Å ¡
Ġer klÃ¤r
g a
il ities
, "
Ġh ours
at is
Ã¤us er
Å į
Ġs en
ens ion
a iled
m ost
Ġon ce
ze uge
ĠAn geb
sp rach
rie f
ĠH in
ĠJ ournal
ĠSt ar
B au
c ome
Ġl iving
ettbew erb
Ġor iginal
ĠIn sel
g in
ĠAut or
il nehmer
Ġgen au
Ġc lose
s etzt
asch inen
Ġdah er
Ġg an
O L
form at
y e
in ge
te id
Ġd ate
Ġex ec
an ces
ww w
Ġihn en
Ġd eb
oci ation
ĠMot or
le f
Ġn ahe
ĠPr ess
lÃ¤ uf
it ing
Ġs ug
Ġh istory
ra uch
Ġzw ar
Ġres ults
ges etz
le b
ĠR ot
Ð °
Ġ197 2
l ast
Ġw onder
Ġsimp le
Ġc ode
ĠChe m
S eit
schul lehrer
7 7
Ġw id
Ġm acht
ab hÃ¤ng
at ors
Ġvers ion
E ine
un sch
Ġ196 8
C all
o on
ĠN Ã¤
ĠPar tei
yn am
b s
z ir
ĠIl legal
U L
ĠM ad
Ã¤nd ern
zeich nungen
hock ey
L o
ĠAn ton
Ġal ten
ab y
ĠZ um
ĠSch utz
ĠSta at
ĠverÃ¶ffentlich t
Ġhe i
Ã¼ ter
ic ks
++ )
s uch
ĠH ers
ĠC la
Vers ion
Ġr ule
Ġ197 5
Ġs ource
Ġ7 0
Or t
ĠS achsen
an o
Ġl ik
ĠZ entr
ok al
Ġtechn ology
ach ten
id a
arbeit en
I ch
I P
Ut ils
ynch ron
Ġp ur
ĠSt Ã¤d
ran t
ĠB ook
if fe
ge geben
ĠK lasse
Ġbe vor
it en
Ġ198 3
or ies
ĠSchwei z
Ġt arget
Ġs ett
ĠJun e
c ase
s pe
en burg
f asst
ĠB u
Ġy et
l ad
Ã¶ ÃŁe
ad urch
ar ian
Ġh ttp
ĠP osition
Ġerr ichtet
ĠB aum
oin ts
T rans
Ġw on
ĠD ruck
ateg orie
ĠS ant
ĠSÃ¼ den
Ġf ur
as ing
Ġth ought
Eigen schaft
O ption
ĠK urz
ĠProdu kt
v olution
ĠP an
6 4
v est
ein en
z z
ĠB is
ue ck
Ġ197 4
ĠM iss
ĠR em
ĠVer kehr
es tern
st ieg
Ġn ichts
Ġc ard
ĠAn zahl
Ġmonth s
ĠF ernseh
Ġen ough
Ġtra ining
Univers itÃ¤t
Ã¤ch lich
z ess
un t
Ġm at
Ġ{ @
es tens
Ġerfolg reich
end s
la den
Ġstr ateg
Ġj a
Ġbest and
ut zen
Ġ197 9
pp el
Ġr en
re ibt
he mat
im ate
ĠEng land
e ded
ĠW irtschafts
sch eiden
ĠBe deutung
olit ik
fÃ¼hr er
air s
Ġad min
i j
ĠM aterial
ĠBes uch
V on
Ġm iss
ĠK unden
Ġzahl reiche
Ġw alk
ĠD istr
get ragen
ĠSt ates
ĠSch Ã¼ler
op t
ĠSp iele
I V
ĠG roup
I tem
p reis
Ġf ilm
Ġfe ature
im s
ger ufen
ĠT al
mal e
r ist
ĠFuÃŁball spieler
f ried
r am
un e
Ġso gen
ĠCar l
b an
och e
Ġcompan ies
il led
ĠF inal
fl Ã¤che
ymn as
Ġevery thing
Ġbeste hen
app en
Ġfr ont
M L
anad a
Ġw oll
re icht
Ġm ass
Ġact ually
Ġoption s
Ġf uture
Ġc ur
b Ã¼
or gen
Ġc oup
Ġtra vel
ĠR os
ant wort
geb Ã¤ude
en ze
ĠAustr al
or den
ĠN ow
ĠMal er
Ġa cht
Ã¼r t
hl er
w ald
st Ã¼ck
Ġme an
ish ing
ic ation
Ġst ra
Ġeng ine
w agen
Ġe arly
ichte te
Ġeigen e
Ġgr Ã¼nd
Ġvar ious
al z
Ġdam als
ag ing
Er ror
Ġw ahr
ĠG re
ute t
Ġ198 2
c ond
Ġc m
ad s
un ction
pp ing
ell s
wo hl
rach te
Ġo thers
ĠK re
Ġst ru
fl ug
Ã¼s se
ã ģ
ame ters
ĠE lekt
Ġbest imm
Ġb lock
ĠS erv
tr itt
I mp
Ġag o
rich ten
ĠI mp
cre ate
Ġeinges etzt
t ler
ĠReg ie
Ġem ail
geb ung
meister schaft
E nd
ib ility
fin ition
ĠfrÃ¼ her
ien s
U p
ist ische
ĠZ ur
Ġwel ches
ĠB or
end ing
20 18
Ġ198 1
Ġhand elt
9 6
Ã¤ ischen
ĠH a
ĠThe ma
iz iert
M S
Ġto ok
Ġ197 8
Ch ar
Ġpop ular
Ġ Ã¤hn
itz t
ri x
Ġlie ÃŁ
ĊĠĠĠĠĠĠĠĠĠĠĠĠĠĠĠĠĠĠĠĠĠĠĠĠ ĠĠĠĠĠĠĠĠ
Ġtot al
Ġsog ar
Ġcon stru
Ġdisc uss
it ure
ĠT em
iziel le
Ġc ame
al tet
Ġh uman
Ġg ames
c urrent
Ġr Ã¶m
ĠBr on
Ġehemal igen
ist ik
Ġdo ing
Ġsoll en
Ġra d
Ġpartic ular
ou d
ein t
A A
Ġt w
ĠJ ames
Ġ196 9
la w
Ġentspre chen
ĠB ach
ĠB ot
ungs k
Ġdid n
B o
f red
g Ã¤n
ir c
ul es
ĠE ing
itu ation
ol a
ip le
ful ly
Ġwh ite
Ġre por
Ġmed ia
Ġh ig
get Name
Ġcert ain
Ġheut igen
ĠY our
Ver ein
Ġfolgen der
ch ar
amer a
ĠR ud
ĠC an
g ent
Ġ197 6
Ġinstance of
ĠH or
Ġso zial
b are
Ġrequire d
Ġbe ispiel
Th ere
Ġdeut lich
7 6
g round
Ġcomm on
C he
is es
Ġw elt
ĠAn n
ĠAm ts
yn c
ĠHo use
z us
Ġ197 1
en en
ĠT ab
Ġa ud
ĠRe ad
Ġpr iv
ĠAuÃŁer dem
g g
Ġin tern
h ang
w asser
Ġk itchen
Ġst ay
fol gt
mÃ¤ÃŁ ig
Ġdan ach
ĠG ast
Ġh old
throw s
B uffer
Ġcolle ction
Ġh ost
ĠK Ã¶rper
ĠB ewe
ĠAn gel
i ents
ĠVerein igten
M us
ĠA kadem
Ġl ag
ste lle
n ach
ĠB Ã¶
Cont ent
Ġperform ance
Ġsie ben
Ġpro b
ĠHil fe
ĠS ong
Ġre gel
ĠO ct
le men
č ĊĠĠĠĠĠĠĠĠĠĠĠĠĠĠĠ
Ġf it
ĠW el
ĠO sten
Ġam ong
D ate
he b
ĠK or
Ġp ack
leit ung
Ġ ung
ĠAuf lage
ĠArt ikel
Ã §
ĠN etz
Ġwen iger
ĠCl ub
Ġo p
im um
Ġle ast
C ount
l ar
leg te
W hen
ĠK auf
ĠR ein
ith er
Ġbefin den
Ġs ing
ĠhÃ¤uf ig
9 8
Ġen erg
ĠR und
ann e
Ġsie he
Ġfav or
Ġsom it
ĠD om
ĠL age
. :
sche ch
ĠC ommun
ĠVer fÃ¼
Ġcustom ers
Ġl inks
Ġdoes n
i ar
Ġf urn
ran ge
ĠPr es
C omponent
k an
ie ten
ĠS ub
l v
ĠF ort
ges ellschaft
P ackage
g re
n ers
Ġge ben
Ġfun ction
ck t
ĠG i
ĠStud ien
e ign
Ġd ien
ĠE hren
Ġman ufact
S ystem
ge fÃ¼hrt
Em pty
p age
m as
N ew
ĠE igen
ist ry
ĠV al
u age
ho ut
gesch lossen
Ġ197 3
0 5
Ġgef unden
ĠS et
ĠA G
ĠM ac
Ġver m
Ã¤hl en
Ġb ath
ut il
it a
Ġv e
ain ing
Ġman agement
Ġloc ated
Â °
Con stants
Ġmin utes
> ();
ĠB ack
stell t
Ġpos ted
at ers
Ġm em
ĠW esten
ĠW eiter
I L
Ġre cht
Ġst arb
ĠM oder
Ġh inz
Ġr ate
Ġ197 7
w ind
anst alt
ĠZ ust
Ġre d
iz er
D at
ĠL o
B C
as er
Ġh Ã¶
ĠJ ack
Ġdar unter
val id
setz ung
s ub
tt y
ver w
rÃ¤ ge
Ġf ace
as ure
Ġse en
ring en
Ġapp ear
p ark
che ck
s eite
Ġv an
ip ment
M ed
ĠgehÃ¶r en
d in
ĠwÃ¼r de
ĠJ ur
Ġlie gen
Ġcol or
an cial
Ġexper ien
ĠVerw altungs
Ġoff ice
ĠI D
e e
F ernseh
Ġp ersÃ¶n
Ġde al
F F
ot a
it le
ĠR iver
ge hen
ĠV iel
we gen
Ġer k
Ġapplic ation
ĠJose ph
g ment
Ã¤ chen
0 1
ĠP et
ĠW alter
Ġor ganis
ĠD res
St atus
ĠRei he
k or
ĠM ass
Ġpro tocolMarshaller
Ġz og
Ġev ents
ĠA fter
k i
âĢ¦ ]
Ġp ick
ĠC amp
ĠDown load
Ġg iven
u ed
ient en
ir es
ach er
Ġt aking
Ġbeispiel sweise
Ġin put
Ġre ason
ĠGe f
T able
Ġ(âĢ ŀ
sp ro
Ġs tellt
Ġauth or
b or
ĠW ein
t est
ĠE ben
ĠFre und
k el
s eit
IN D
ĠJ es
hand lung
Ġb ad
ĠA ward
ĠS aint
Ġso ftware
Ġqu alif
Ġs il
Ã¼r d
ift ung
ĠÃ¶ff ent
H och
ĠW and
Ġam az
Mod el
Ġcontin ue
p ol
us ive
ĠP sych
Ġzu dem
end es
Ġinv olv
am in
Ġnew s
er ing
as te
ĠFl uss
werk e
ĠG al
Ġ196 5
hr te
f Ã¤h
Ġp aper
ĠF el
ĠLe ague
P S
x is
end ar
Ġare as
on en
ĠS u
Ġre ach
ĠBevÃ¶lker ung
for sch
Ġper iod
Ġcre ated
Ġw ent
ĠM ult
ĠG est
ĠG arten
ĠO ut
ĠSil ber
ĠK raft
Ġread ing
Ġst ore
ne xt
At tribute
ĠDre h
ĠW irk
ial og
1 00
P E
ĠK ing
b esch
ge m
ĠM ill
Ġ193 9
0 6
ak te
ĠG Ã¶
ist ic
Tra ce
Ġwrit ing
Ġd istr
Ġin form
f ile
ĠNÃ¤ he
Ġinclud es
v in
Ġger ade
Ġhapp en
Ġ19 20
Ã¤t zen
cre t
Ġd ue
Dies e
P ol
Ġw ait
h ing
Ð µ
Ġm illion
ĠOrts teil
lie ben
Ġl ock
Ġsome one
ĠKar r
ier ungen
Ġh ope
ĠV o
br uch
Ġnatur al
ĠA ber
ze hn
ok rat
ĠSie g
ĠEr folg
ĠgrÃ¶ÃŁ ten
ĠMitarbeit er
as il
ĠG leich
Ġup date
9 3
Ġ196 7
Deutsch land
Ġe conom
Ġr uss
ĠMed ien
Ġerw Ã¤hn
f rei
iz ei
ele br
h il
Ġv ia
ĠW ash
Ġnor mal
Ġd etails
ĠSal z
Ġhal f
Ġein igen
Ġex pl
Ġass ist
ĠP rem
lÃ¤ ss
ian a
y a
Ġf und
ĠH af
Ġpre vious
ĠPh ys
Ġreg ion
Ġresp ons
ĠD ay
Hand ler
ĠEnerg ie
aff el
Ġiss ues
or es
ct ors
schlieÃŁ lich
f Ã¼r
r unde
Ġer Ã¶ff
or ted
Ġf alls
l im
ĠGrupp en
Ġbe de
8 7
O ur
Ġc ook
us ion
em ents
Ġk lass
ĠO pen
c il
an lage
Ġlat est
l ant
Ġpr ess
Ġcomp et
ik on
B r
final e
Ġbie ten
letz t
ell ow
istr ation
ĠFe uer
ges etzt
ĠAr m
Ġ193 3
ibliothe k
S te
g liche
ann ing
ĠVerb indung
Ġa ction
ĠT her
c omp
d f
la ger
k le
te cted
ier ter
Ġhe art
Ġex t
rol le
Ð ¸
at iv
ĠL ink
Ġho he
i w
Ġe urop
G ener
Å Ĥ
Ġh on
Ġ193 8
h ib
ab ase
Ã¤l fte
S E
ĠS telle
ĠSer ie
H er
ch ester
ĠGe ist
Ġd iff
ick en
pe cially
ĠAl le
Ġletz te
ĠR ang
ĠT on
Ġab ove
Ġqu ite
Ġd ivers
ĠR ob
Ġcon text
Ġc as
ĠSt ock
Ġgem acht
Ġver sch
ĠSpiel en
c ement
Ġd igital
ĠW o
S C
s m
Ġe lekt
Ġherv or
en ces
deck t
ik o
lie d
ĠHe il
Ġabs olv
ĠM ilitÃ¤r
Ġevery one
Ġloc ation
In t
haf t
vent ion
Ġstr ong
O G
ĠAus bildung
ĠGo ogle
ĠOt to
Ġs ays
ĠK osten
ĠJohann es
Ġw ollen
Ġa ge
Ġle icht
C om
ĠC ent
ĠEl tern
Ġwei ÃŁ
av y
ĠEr fahr
Ġat tra
ĠCh amp
ie te
Ġf ive
Ġzu vor
ĠWill iam
Ġfin ally
AM E
ĠSp rache
tem berg
Ġbo x
ĠErn st
ĠVerfÃ¼ gung
Ġ194 0
arbeit et
T Y
or a
ĠA cc
ĠM r
Ġer reicht
ĠU p
Ġgovern ment
Ġann oun
ste hen
me e
Ġad ded
Ġup load
Ċĉĉĉĉ ĉ
Ã¼l t
Ãľ ber
Ġzur ueck
Ġgleich en
ĠD eb
ĠAr ten
Ġ196 2
Ġ196 4
Ġide a
fass ung
A ccess
Ġ[ âĢ¦]
W est
ĠGe orge
ad a
âĢľ )
li ents
Ġverb unden
ame ister
ĠWind ows
ĠA k
Ġne g
Ġ4 5
Ġwho le
Ġkein en
L ine
Ġteil weise
Ġquest ions
G em
ĠZ Ã¼r
Ġnach dem
ĠGemein den
= "
k ap
n es
gen cy
O C
Ġ Å
Ġp an
Ġex ample
ĠIs land
Ġs ong
ĠI d
Ġm ap
ĠF ree
Ġ196 3
Ã¤d ag
Ġre le
ĠO f
Ġh air
9 4
Ġgen utzt
9 7
Ġge hen
I s
ĠPhil ipp
Ġn etwork
U m
v ey
al a
ges ehen
ĠB ud
ĠHow ever
O ff
Ġcho ose
Aus wahl
Â ²
Ġfol gte
t c
os ph
Ġ193 0
Ġread y
ĠfranzÃ¶s ischen
Ġh ot
ĠZ immer
w rite
ĠS on
ĠP o
gr am
imm ung
ĠRe publik
0 8
w esen
Ġs ystems
. <
ĠS a
ra in
ĠL aw
Ã¶ ll
St art
u a
ĠR oy
Ġl ater
Ne xt
P er
ik al
rit te
u c
Ġd ir
ar f
Ġf ire
ich e
ter m
enn ung
us st
ed ule
Ġj apan
Ġsoll ten
Ã¤t ten
hal ts
Ġpr im
O per
iz es
ĠMe er
ĠBerlin er
fe hl
Ġstell te
em b
V iew
c is
n o
ĠGes amt
Ġchar acter
K on
Ġne ues
ail y
ade d
x y
Ġentfern t
ĠFin anz
ĠKarr iere
Ġp lat
ĠW issenschaft
B ut
or der
ĠFr Ã¼h
ĠVert rag
ĠL ong
Ġl ength
ĠSt ad
Ġcle ar
Ġ5 00
Ġsch wer
Ċ ĊĠĠĠĠĠĠĠĠĠĠĠĠĠĠĠ
Ġst aff
Ġknow ledge
ger icht
il ar
ang s
Ã¤t igkeit
jÃ¤hr igen
ĠPla y
sch iff
g y
st ud
Ġ196 1
C D
ĠT ier
ĠL at
w es
i ra
Ġn ode
ĠUn ion
as chen
Ġh ab
Ġch allen
0 4
ĠF en
ĠV orsitzen
Ġcom mit
ĠSc ience
entwick lung
ĠEr d
Ġ196 6
arr iere
Ġappro ach
g ere
ĠF ig
ra chen
bo ard
it i
ro t
Ġf rei
tr ue
ĠA v
ĠD ach
Ġde fault
Re c
Ġthroug hout
f ix
Ġcom fort
ĠBru der
ed en
ition s
Ġdam al
Ã¶ hn
Ġauf genommen
oll ar
ĠD enn
est s
Ġ3 2
ask et
Ġenerg y
6 6
un ge
ĠV ideo
ĠSie d
ĠNach dem
E X
f ar
an ted
as en
Ġk amen
Ġabs ol
Ġal t
Ġsel f
Ġph one
ĠB aden
Ġc ra
ze ugen
ĠRe ise
iden ce
osp ital
ot o
Ġbei de
Ġs ale
ĠM ess
Ġz ie
ĠC our
9 2
ĠR and
ĠA st
bed ing
iv il
ou ver
ĠBahn hof
Ġver lie
ren g
Ġto ur
ĠAn ge
Ġar r
Ġ195 6
Qu ery
A ss
ĠR a
com ing
Ġpre tty
ĠAkadem ie
ĠB ig
Ġent hÃ¤lt
Ġmach te
t d
ĠP lease
ieren den
rupp en
ĠArray List
Ġf oot
ĠRe gen
Ġt ax
itz er
Ġpartic ip
Ġens ure
Ġ( =
os sen
deb ug
Ġb ase
Ġpart y
arbeit ung
ĠKÃ¶nig reich
Ġc annot
ĠUnter stÃ¼tz
0 9
sp iele
Ġbef and
he ad
ĠA re
ĠA cadem
ĠO s
ges tell
Ġwo od
An y
Ġwhe ther
l ot
lic ation
ĠK an
olog ical
is ted
Ã¼ st
ĠT ur
an ken
ĠN am
orn ing
Ġbook s
ur al
Ġbe teil
Ġa ch
net en
ĠWash ington
Ġ ill
ar th
ĠK ampf
zeit en
Ġfr Ã¼h
s ie
¿ ½
Ã¼h le
Argument Exception
Ġf ul
Ġwir k
ĠA uÃŁen
ell ent
Ġne eded
Ġ194 4
ĠPart ner
> (
r ess
ĠNew s
get S
ĠReich s
ig ungs
ĠPhil osoph
Ġim ages
ĠEr sten
ig entlich
ra el
ten ded
Ġgew esen
ĠWerk e
ĠF le
ĠH is
ĠR Ã¤
Ġit ems
H ol
T oken
ĠB on
ĠL Ã¶
ĠJ azz
Ġcurrent ly
Ġt aken
ĠT om
Ġal most
ĠHer mann
Ä į
Ã¼ss eld
ĠD och
ĠDies es
âĢ ĺ
Ġpr int
leit et
us ter
ĠM aÃŁ
ac es
U til
ut her
we isen
Ã¤nd ert
Ge ographie
b um
Ġcom ment
Ġsimp ly
u it
Ġv eh
ï ¿½
Ġw issenschaft
Ġentwick elt
0 7
Ġe p
iz ing
ĠSp ring
h i
ĠH al
ĠHer ren
Ġakt iv
van gel
Â »
ĠB usiness
F r
Ġentstand en
0 3
ent ry
Ġent ire
b Ã¼rger
aler ie
] .
th ough
ig r
Ġg ute
ge hend
ig lich
ĠE lement
Ġfolgen de
8 4
Ġmark eting
z iert
et y
Ġany thing
ĠH ere
olog ische
ĠauÃŁer dem
Ġf ert
Ġ195 8
Ġer m
Ġco ol
zentr um
# #
le iter
Ġse par
Ġaut om
0 2
f ten
ĠU K
ĠMus ic
ĠF und
ĠG reen
Ġer ziel
Ġ195 2
ash ion
ĠIn n
Ġhe ld
5 6
e ks
p ass
do or
aup ts
k und
ĠP lat
ĠW as
ĠW all
Ġbel ieve
Ġins ide
ĠL iga
O M
Ġproble ms
g al
ĠK opf
In ner
ĠFrie d
Ġe ither
st all
st ate
ĠJ ac
Ġtra ck
tag s
ain ed
Ġcl ient
ĠL icht
ran g
g or
ĠM ein
ĠMar ch
w ord
Ġint rodu
ch end
Ġspiel en
Ġb i
ĠV oll
p oint
ĠA ct
Ġo il
I nd
sch riften
ĠMin uten
le tt
lo c
Ġrec ord
Ġp aint
ĠW ol
ĠAmer ica
alys is
Ġfur ther
ĠP op
ĠF Ã¶rder
Ġv o
r uf
Ġw Ã¤re
Ġunter stÃ¼tz
ĠB al
Ġvoll stÃ¤nd
Ġsetz te
Ã¼rt temberg
it ts
Ex pression
Ã¼ss el
isse ur
Ġeduc ation
Q L
an gel
ap ter
Ġt akes
Ġprovide d
Ġw ide
ĠH Ã¤lfte
ĠVers ion
Ġrest aur
ĠH D
Ġer ster
Ġpar ts
Ġdec or
7 2
C hr
C olle
W enn
ĠnÃ¤ch sten
le icht
ir th
Ġbes uchte
Ġ195 9
Ġart icle
Ġs le
ĠKl oster
ĠJe an
ĠDam it
ter e
ĠSt Ã¼ck
ĠAlex ander
ĠT im
Ġvar iety
ĠAss ociation
ĠLou is
. -
d ata
Ġc lients
ĠC ons
ver age
Ġex ception
Ġ- -
v o
" ;
Ġsh ows
Ġho hen
ĠChar les
==== ====
it sch
ĠM ond
ĠÃ¼ber n
ho use
Ġtry ing
N o
rie ges
h inder
ĠS in
Ġp le
Ġup d
st a
Ġby te
ĠFra gen
olog ischen
Ġins urance
ĠGes und
Ġquest ion
ĠRel ig
d am
w ill
ĠRe al
ĠHann over
Ġd Ã¼r
ĠGes etz
T rÃ¤ger
u he
ĠF ace
tr ies
Ġpict ures
idd le
P age
Ġc elebr
ĠI ll
Ġbu ilt
zeug t
Conne ction
l ist
Ġs tellen
ĠL os
Ar ch
Ġa merikan
ĠNach t
Ã¤ch s
ĠPolit ik
an ischen
Ġp ark
U E
fol ger
ĠUnter such
Ġw ww
ĠW ider
Ġconc ern
he t
Ġphot os
Ã³ n
L istener
T R
ĠS Ã¤
Ġm ove
af r
7 9
Ġe her
ĠThe men
Ġm eine
Ġaus gest
S V
it ar
Ġde p
Ġs ites
nd er
ĠE t
In teger
ire ct
Ġmehr eren
le cht
zir ks
i pe
ĠW ild
if ier
ĠAb s
Ġpat tern
8 2
aus ch
N umber
ĠR en
Ġrec ently
f amil
ĠL oc
Ġjed en
l iste
w irk
ĠPf lanzen
st ring
ed ding
ĠPr inz
an w
ĠU s
pp en
Ġgemein s
if fen
b ra
Ġstand ard
per atur
zie hung
Ġtyp es
em e
N ames
Pro du
S D
ĠF irst
Ã¼ ste
ak a
aun ch
F I
f il
Ġs ens
ich ert
ĠHer aus
ĠKont akt
ie ÃŁ
Ġes pecially
ĠAl bert
E d
ar tet
ĠT w
Ġto wn
ĠS ing
Ġv ari
lan gen
ĠkÃ¶nn te
p lat
Te ilnehmer
Ġeben so
ibr ary
Ġp ain
ĠSte uer
Ã¼ll er
b ro
g ten
ĠB d
Ġst re
Ġaus gew
Ġreg ister
Ġin nov
ĠA uss
Ġk ids
Ġsch rieb
pr Ã¤sident
m und
Ġs ales
Ġhapp y
ograph y
ann er
so zial
ĠEngl ish
S ON
h y
et ten
iv ity
Ġe le
ist ent
res ult
Ġinter ess
k athol
De finition
Ġfurn iture
ig ner
ĠB ill
ĠRe cht
omm ission
8 3
ĠS Ã¤nger
Ġm er
u hr
ĠB und
ir ate
gel Ã¶st
b ie
Ġn ice
Ġerreich en
an ger
ĠGra b
ĠK ons
ĠÃĸ ff
Ġgener al
k ret
z uf
in fo
ste ad
Ġ194 9
An not
ĠA th
ĠDo ppel
stre cke
Ġopportun ity
ĠIllegal ArgumentException
le ted
be zirk
b ark
af fe
hal te
Ġkosten los
Ġcom mer
Ġam ount
ĠS at
mar shall
ĠErgeb nis
ĠSt unden
ĊĠĠĠĠĠĠĠĠĠĠĠĠĠĠĠĠĠĠĠĠĠĠĠĠ ĠĠĠĠĠĠĠ
Ġeffe ct
ĊĠĠĠĠĠĠĠĠ ĠĠĠĠĠ
y ear
P art
u hl
me hr
ĠZÃ¼r ich
Ġf all
ze igt
ĠZw ei
re quest
ĠStre cke
Ġwoll te
Ġinit ial
ho ben
pro tected
Ġcustom er
ĠCh or
ĠDres den
in den
Ġd og
Ġindivid ual
ĠA f
Ġ194 1
ĠWolf gang
w issen
Ġp sych
ĠZ uge
Ġ194 6
ĠR at
all ow
ĠLe hrer
Ġihr es
R el
ca pe
ĠBas is
Ġd ritten
ic ate
ĠF rom
ĠW ebs
Ġl on
Ġcon tra
G es
ĠC up
Ã¶r m
ĠfÃ¼hr en
Ġson st
Ġc ount
Ġl iter
ad y
Ġge legen
ĠStand ard
b lick
pp ed
Ġp ool
Ġdar Ã¼ber
B IND
ĠB all
Ġger ne
Le vel
ĠSoc iety
Ġ194 3
ĠC ap
Ġj ava
Ġ194 8
S ource
Ġt c
un s
Ġ195 5
Ġben Ã¶t
Ġest abl
v on
Ġs ave
el ten
Ġrec ent
Ġsel ten
ĠStud ium
ĠPriv at
ĠK ey
ĠC re
Ġbe deut
Ã¤nd ig
i est
Ġs ix
Ġfor mat
all ery
M A
Ġs we
ĠMan agement
ĠD okument
Ġan schlieÃŁend
Ġtro tz
Ġpict ure
Ġ );
he irat
Ġex tend
ĠD Ã¼sseld
bet rieb
ĠL eiter
bo x
Ġsub ject
n y
Ġso on
ist an
fahr er
F rau
M y
Ġst ock
Ġcoup le
F ilter
par te
Ġze igen
ĠFir ma
6 7
ĠT eile
ĠR unde
i ally
ĠArbeit en
Ġw anted
ĠI st
Ġ195 7
meister schaften
om s
ĠU N
mit t
oss ible
Ġequ ipment
BIND ING
O P
ĠV is
Ġlead ing
Ġw ays
ĠT ages
Ġne un
neh m
Ġproject s
Ġs ent
ic ult
Ġk athol
icher ung
Ġrelat ed
Ġd et
ĠA c
Ġso und
Ġphot o
ĠBrit ish
ĠursprÃ¼n glich
z Ã¤hl
ct ing
Ġent halten
ĠBe griff
p ath
ad o
ĠKompon ist
T ag
h ere
Ġs end
Ġsk ills
lichkeit en
G B
Ġp orn
Ġcom ing
Ġamaz ing
ĠF uÃŁ
ĠV ir
mar kt
Ġrece ived
5 7
H el
Ġz erst
Ġb ott
op en
ran sp
ĠMe x
iqu es
Ġstamm t
ĠK rit
Ġpre p
ĠGra nd
w art
ch ange
ĠG as
a ktion
ĠSp r
Ã¤n gen
Ġspe ziel
f Ã¤ll
or te
ic les
Ġro le
Ġit em
L ength
S port
Ġc redit
Ġres ources
ĠFra ge
se qu
Ġbet rÃ¤
ĠEx per
Ġvers te
Ver lag
b i
ĠA ugen
ĠC am
Ġal te
Ã¤d chen
aliforn ia
d i
z we
z ip
Ġsign ific
d ien
re ten
ĠHe alth
Ġb us
Ġne hmen
Ġgeb aut
un ch
ĠJul y
ĠGl as
Ġaktu ellen
Ġs ummer
Ġfin anz
rit z
g as
ie ÃŁen
Ġplan s
Ġlearn ing
ne ter
U ser
k reuz
Ġne cess
l ern
Ġin spir
Ġ194 2
Ġcho ice
sch t
rie ch
d own
ĠW ort
Ġval ues
T H
Ġse em
Ġstud ent
Ġp oints
ĠI T
Ġex act
ĠOct ober
Gem ein
at ely
Ġeinzel nen
i i
O D
sch ei
ab eth
rupp e
ĠVer gleich
ĠAut o
ĠP ublik
be ck
ĠAus wahl
rÃ¤ fte
w esten
Ġste p
ĠForsch ungs
ay out
Ġmom ent
ymnas ium
Ġvorhand en
Ġprob ably
ĠP il
Ġst op
anst altung
Ġactiv ities
Ġdiff icult
b ischof
l Ã¶sung
o den
omm end
ĠAuf trag
ĠKla us
er ror
Ġmind estens
ĠW ell
Ã¤nd en
c ul
Ġch em
Ġyour self
Ġ195 3
z og
Ġr unning
hÃ¤lt nis
9 1
ĠD ivision
Ġper cent
P os
Ġdis play
ĠnatÃ¼r lich
Ġus ually
il det
ĠOr iginal
wie gend
r hein
ĠT emp
lie gen
Ġweiter hin
âĢ ŀ
Ġde f
Ġt old
st art
Ã¶ sen
Ġk ont
Ġre chts
ĠIn teger
ĠComp any
Ġb ud
Ġto uch
sch uss
ĠNach bar
Ġreg ul
Ġg lobal
Ġk ennen
ang ing
Ġ3 00
ĠEnt scheid
Ġt un
au ber
ĠAn na
ĠEn ts
l it
ĠN ik
Ġacc ording
S P
W er
ĠH ei
ĠGrÃ¼nd ung
ĠBÃ¼rger meister
Ġt ell
Ġc enter
Ġj Ã¼n
Ġb esser
Ġprodu ction
Ġprov iding
6 8
de ten
ĠK as
Ġrepr esent
M ax
Ġ Ã¼b
ĠSt amm
ite te
ĠA ud
Ġc ut
ib en
Ġpar ent
ĠD ann
Ġch anges
Ġsec urity
mus ik
ig in
M in
gen er
St at
Ġfin ancial
ĠWien er
aug h
ĠL ove
ill ing
Con figuration
ĠE U
Ġge geben
ĠDan ach
o z
Ġsch Ã¶
ĠPr Ã¤
Ġerh Ã¤lt
ĠInstit ut
d t
Ġs b
ĠE ast
ĠPol en
ĠZentr um
L ink
Ã¤ te
Ġth ird
Ã¤l le
ix ed
Ġsk in
ĠAb end
ĠS old
ĠS onder
sch au
Ġun ivers
asket ball
Ġw ord
ĠP unkt
ĠVer Ã¶ffentlich
ĠAut om
h ers
or ia
ĠSt il
Ġbel ieb
Ġout side
Ġhow ever
ĠS und
ot ion
ĠSch Ã¶n
ĠProdu ktion
Ċ ĠĠĠĠ
ĠP ower
Ġbes itzt
at iven
st ar
ĠSo ftware
heirat et
ĠSch les
dr esse
unk ten
ĠP DF
cl ient
ĠA ch
ĠB onn
ĠM ount
Ġre lig
ĠPol izei
ĠverÃ¶ffentlich te
ĠFace book
B A
M on
Z u
Ġuns eren
ĠInstit ute
pe kt
ĠQu alif
Ġdr ive
ro ffen
ĠI P
ist ics
ĠSchw er
Ġreg ular
Ġfor ward
Ġus ers
Ex ec
ĠStre et
Ġb lo
ĠF ern
ĠL ive
ĠSchw arz
C C
in os
on ie
ĠZu dem
Col umn
S upp
ĠRest aur
at ory
ĠS upp
ĠLin ie
Ġwel cher
Ġd raw
Ġf il
ĠM ath
G ra
ĠM as
ĠIm m
id th
Ġ Ã¼
Ġ195 4
k unde
mer k
ĠUm welt
7 4
Ġ row
Ġm aint
Ġm orning
Ġsaf e
g u
ĠE v
ed s
Ġsch Ã¶n
Ġ193 6
Ġwe eks
ĠmÃ¶ch te
ĠR am
amerikan ische
S etzt
ĠIn vest
ĠEx ception
or ten
Ġver ein
rem ove
Ġiss ue
ĠBe zeichnung
Pro v
Ġpract ice
Ġw ords
Ġer ror
Ġ3 6
teil en
Ġehemal ige
ĠJose f
G et
ĠI N
ĠSt ru
Ñ Ģ
Ġdes cription
Ġ rom
is Empty
ot es
Ent ity
h ab
Ġpro perties
Ġval id
O ne
ur ren
ho od
Ġans wer
e hm
s ystem
Ġj Ã¤hr
la v
Ġsie ht
Ġfavor ite
Ã¤ cht
ĠH essen
Ġun ver
7 1
tr ie
re l
ĠE vangel
ess el
5 2
ĠK ranken
Ġapp ly
S I
Ð ½
fer enz
alle l
Ġgirl s
m ap
fall en
techn ik
ĠUnterstÃ¼tz ung
az on
ĠQ ue
irate te
ĠS ome
ĠK al
Ġev angel
Ġflo or
Ġp ers
la f
ĠG ut
ĠK ern
ad ata
Ġex pert
Ġex tens
Ġum fasst
ĠVert re
\ "
Ġo ben
ĠÂ «
N ational
r ig
Ġf ig
ĠFest ival
Ã¤t ter
lin ie
pro chen
ĠMod ell
Ġm obile
ĠP unkte
ĠerwÃ¤hn t
im ed
ĠL Ã¤nge
Ġinternational en
ill en
ĠGeb urt
7 3
ĠS yn
tr at
ud es
Ġsp ielt
ian o
abr ik
ĠS ar
Ġst ream
get C
Ġme eting
Ġ193 7
" ))
B E
Ġern annt
te ten
ĠP C
Ġaddition al
k y
Ġis n
ter ator
Ġge k
Ġeinz ige
5 3
ĠS tern
Ġal tern
se hen
ĠAb geord
ieren de
l ers
ic ago
ĠIn c
Ã¼hr en
ĠSchl acht
Ġlook s
r c
y es
ĠS omm
Ġm atter
gr enz
ĠAl so
m ission
ĠH art
Ġl ives
ĠOff izielle
Ċ ĊĠĠĠĠĠ
ĠC ms
Ġr isk
Ġrem ove
Ġverl oren
Ġpr ior
Ġdr ess
ĠInd ia
unter nehmen
Ġbesch Ã¤ft
trib utes
Ġopt im
ĠDenk mal
A cc
T ree
Ġmit tler
Ġpol n
ĠJ er
Ġre lease
end ung
ug h
rei ber
piel t
ĠgrÃ¼nd ete
ĠK ategorie
ĠLie be
ĠS n
Ġe igentlich
cont ains
k arte
te in
Ã¼r n
ĠUm gebung
Ġwirk lich
c ast
u ell
ĠB lick
etz en
Ġstor age
l ong
Ġrece ive
Ġb ald
Ġin fl
Ġdes crib
we chsel
Ġrec ogn
ĠSh ow
P ort
ĠMat hemat
Ġble ibt
Ġs ession
spiel en
ĠSchauspieler in
L ong
ĠKon z
Ġdec ided
fra u
Ġgra ph
Ġt ask
Ã ¸
Ġde ep
Ġex pect
Ġg round
ĠJ ung
ph one
Ġtr Ã¤
M P
f alen
Ġc opy
Ġ+ =
Ġhei ÃŁt
att le
c ies
t itel
ĠOr gan
ur a
ov ers
Ġass oci
N AME
ĠD igital
ĠK ommand
ĠWh ite
Ġe mer
ĠL ife
Ġne uer
Ġbeh ind
Ġb al
forsch ung
c as
ĠW ahr
Ġsc reen
Ġausge zeichnet
Ġinclude d
w ith
Ñ Ĥ
Ġz uf
ĠH an
Ġum fass
Ġext rem
A uch
Ġb em
Ġth er
erv e
gel n
ĠsÃ¼d lich
Ġwar m
on ym
ĠCar ol
d k
Ġw es
ĠC alifornia
Ġind ustr
i ro
ĠS ingle
Ġm o
ĠI hren
ĠH y
ir it
Ġk aum
ren ch
f unk
er o
Ġfl ow
Ġoffic ial
w ner
ĠK enn
Ġer folgt
Ġmed ical
Ġprogr ams
D r
app ing
Ġfr esh
Ċĉĉĉĉ ĉĉ
c urity
č Ċĉĉĉ
Ġsel ben
ie ur
Ġre fer
Ġup on
pp e
ĠFran cis
Ġexc ellent
Ġm m
ĠM use
Ġan z
Ġzu letzt
Ġoff iziel
Ã¤d t
ĠAcadem y
re ise
ĠT ime
ĠN ur
Ġabsolv ierte
Ġw oman
ĠS ow
ĠD ipl
ĠR itter
Ġkn app
Ġpra kt
if iz
Ġpr Ã¤sent
Ġrem ov
ĠL eitung
ĠBay er
Ġwrit ten
T V
ĠS l
ick et
ĠAb schluss
Ġbed room
Ġ1 000
au b
Ġbath room
at ten
Ġso fort
5 4
Ġf ra
im in
Ġ194 7
Ġerh Ã¶
ĠAndre as
Ġc aus
ĠNach folger
ĠZeit schrift
5 8
5 1
ĠS ign
Ġbe ach
Ġsignific ant
st aat
ĠDe partment
ĠChe ck
Ġsim ilar
P oint
j ust
Ġt erm
Ġm el
Ġc rit
Ġro und
Ã¼f ung
ĠPres ident
Ġd ur
ĠJ ob
ĠAr mee
ĠBe k
Ġreg ard
ĠServ ices
ĠAn g
hl t
halt ung
5 00
Ã ¢
ĠH u
um in
ĠDan iel
Ġre qu
Tra cing
ĠI hrer
b orn
Ġd adurch
ic ient
ĠL im
Ġst ammen
Ġeas ily
Ġsug gest
in ts
Ġin de
Ġg old
ĠGr Ã¶ÃŁe
ateg ory
p ose
st att
Ġdo or
Ġunser em
ĠnÃ¶rd lich
ĠB us
ĠD ate
Ġst reng
Ġro ad
Fernseh serie
eh men
ĠbetrÃ¤ gt
Ġall ows
ĠgrÃ¶ÃŁ te
Ġbil den
Ġtreat ment
6 2
Ġbe ein
Ġ195 1
Ġ> =
ĠFen ster
Ġd ed
Ġs od
Ġs ort
ĠH Ã¶r
Ġfor get
Ġdis cover
Ur l
P e
Ġd ocument
Ġw in
Ġ4 00
h ips
t schaft
ĠD or
ĠW ass
spr uch
ri pt
Ġpol icy
a ign
te x
Ġnot hing
<? >
b ased
er r
ĠEurope an
P f
or ien
Ġl aunch
mut lich
ond s
Ġgew orden
Ġges tellt
inc ip
Ġh or
ĠKir ch
ĠAn schluss
ĠForsch ung
Ġse lect
Ġany one
ad es
Ġmit tel
ind ing
ĠL OG
vers ion
ĠInd ian
p ed
ĠReg ierungs
gew icht
8 1
ĠSp rach
ĠFr iday
Ġgrow th
Ġs al
ĠKant on
Imp l
ĠAkt iv
Ġmaterial s
Ġt ransport
ĠL Ã¼
uf e
af e
Ġd ro
ers eits
itt ing
Ġrem ember
ĠD isk
Ġle ader
Ġbo ard
Ã¤ ten
ens ive
ĠfranzÃ¶s ischer
ĠIndustr ie
5 9
vers e
ĠL ied
Ġme chan
Ġho tel
E O
Ġc oll
ĠZeit punkt
ĠZusammen arbeit
q l
ĠF ass
ĠF eder
atur day
ic ated
Ġsch loss
ĠBes te
Ġgu ide
Ġquick ly
6 9
re ct
setz en
f ur
ĠH om
ĠHand els
Ġbil det
b ase
ess ages
richt ungen
ĠEr k
ĠHoch schule
f Ã¶rm
im inal
ĠV en
chn et
ĠBr un
Ġch rist
Hoch schullehrer
l n
u ted
an i
ĠMar y
Ġmach ine
Ġgesam te
ĠDÃ¼sseld orf
Ġl os
ht t
zw ischen
ĠI V
ĠV iew
Ġ193 4
ĠRoy al
l ingen
Ġd om
av es
Ġhigh ly
v ing
ro id
ĠN icht
astr u
ĠT at
Ġintern et
H ow
p osition
Ġm Ã¶
jÃ¤hr ige
ĠAngeb ot
bark eit
ĠS ur
Ġz ust
od ing
Ġvor her
Ġprov ider
imp le
M ark
w a
Ċ ĠĠ
Ġ ;
Ġconne ction
Ġpubl ished
Ġw r
fr astru
Ch ild
ĠRec ords
F irst
ic ip
Ġcomp on
Ġje dem
p ack
Ġge d
ĠLe g
ĠHer bst
Ar t
ipp ing
schein lich
id t
get Value
Ġzu ge
qu are
ĠVerein s
Ġaktu elle
ĠEisen bahn
C ms
at tet
ed y
Ġâ Ĥ¬
ĠRud olf
d om
ĠD azu
ĠH ash
Ġle ave
ist in
Ġbeginn t
U M
Ġg lass
Ã¤n gt
Ġph il
i ation
Ġl ate
ĠBl Ã¼
Typ es
is ode
Ġse ems
get Message
ĠBe zirk
Ġâ Ĩ
Ġask ed
n ing
Ġd ig
Ã¤r k
C ache
Ġc irc
ĠK lass
ĠV an
Ġide al
6 1
D urch
m atch
ar io
hr t
ĠU R
ĠZ uk
utt ing
Ġer forder
Ġpot ential
ĠV ict
oun ts
haf en
Ġn immt
ĠD Ã©
Ġh Ã¤tte
ot or
ĠSch le
Ġdar f
C o
P osition
Ġd iv
Ġin fo
ĠK olle
ĠStadt teil
ĠRes earch
Me ter
d s
Ã¤ um
Ġwe ight
St ra
grupp en
ut ive
as c
Ġtra in
ĠFol gen
bu ild
ent y
ĠHe im
. ");
Ġex pla
Ġc ause
yste me
Ġmar shall
ĠSicher heit
ĠhÃ¶ her
ĠVer l
Ġcon fig
Ġemp f
Ġcare er
l ament
Ã¶ ss
M ail
ĠM em
Ġh uge
ug s
Ġben annt
Ġgesam ten
Ġhe iratete
Ġpl ant
Wh at
Ġl ower
ĠJ ak
Ġgleich zeitig
g ien
m useum
ĠS uche
Ġ19 00
hen s
Ã¤hl te
A fter
ĠS un
Ġin dem
Ġj Ã¼d
Ġhe ar
ass el
Ã¼n ft
ĠBo x
ĠzusÃ¤tz lich
f unktion
Ġr ather
Ġex pected
Ġimp act
E l
as y
as ten
ĠFre ib
Ġgesch lossen
K E
h istor
on om
Ġser ver
wissenschaft ler
ib ly
Ġpre m
B lock
Ġgar den
Ċ Ċĉĉ
er c
Ġs etzt
ĠComp uter
g le
ĠO k
aus t
wÃ¤r ts
Ġd aily
ĠT own
ĠTra iner
Ġsol ution
D is
b aum
ĠJ ud
Ġtr ip
ĠfrÃ¼ hen
Ġimpro ve
Ġbe ge
Ġentwick elte
Ġled iglich
ĠF arb
Ġinter ested
pend ent
g ibt
Ġf ilter
pr ise
Ġpr ices
Ġgra du
r is
ĠM icro
ĠG reat
ah nen
Ġzahl reichen
ĠT ype
Ġje de
A ction
A merikan
h Ã¤user
ĠS ter
ĠR et
ultur al
J ob
Ġc y
ĠCh icago
ĠPerson al
AT ION
g arten
Â ®
ar ge
ĠM aster
ĠW in
ĠW ies
asch ine
Ġ193 5
Ġlik ely
Ġhig her
ab il
ĠAr ts
As ync
Ġsw itch
ĠTeil nehmer
Ġke hrte
Ġbring en
Annot ation
Ġc ross
sch lÃ¤
mittel t
Ġh und
au te
ial e
ĠErgeb nisse
6 3
ĠW ork
Ġsp ort
Re ference
ĠGott es
E is
Ġver heiratet
aug ht
str ument
F C
S ub
Ġdes halb
Pro perties
ĠMon ate
Ġsu it
Ġbrit ischen
Ġb ank
Ġf iel
ma ÃŁ
Ġ1 20
ĠU ms
Ġpl us
Ġv ideos
Ġcondition s
p unkte
ĠN ic
ĠHe idel
ock et
hol z
u elle
on str
re publik
ĠE dition
ind est
ĠL ake
Ġer z
ak ers
Ġsol utions
Ġincre ase
rÃ¤ s
Ġdev ice
ĠOr d
ĠEinwohn ern
ĠÃ¶ffent lichen
č ĊĠĠĠĠĠ
ad el
ĠOr ganisation
ĠChamp ions
Ġlon ger
n s
ĠM Ã¤dchen
Ġhal ten
st Ã¤tte
ĠP ers
Re ad
ĠPar te
Ġcol umn
Ġt hr
Ġl oss
ĠO ption
Le gt
Ġsl ow
id ents
20 17
Ġplat form
al u
ĠM ail
ĠTra dition
ĠTex as
Ġt ag
ĠT urm
ul en
Ã¼r gen
Ġne igh
heim er
m o
r al
ell o
Ad dress
Ġpie ce
b ody
ie ger
uch ten
ĠBe ach
denk mal
k ampf
Ġg ives
Ġpurch ase
D a
ach ts
Ġ- >
He ader
ĠFinal e
b us
Ġs aw
Ã¼ ge
ĠP rom
ach ed
ck ing
ce p
Ġsch edule
Ġplay ers
Ġh um
im ar
ĠE ss
over n
ĠfranzÃ¶s ische
R A
Ġc at
ĠL ok
ĠAn s
Ġpos itive
re chts
ĠAus gabe
ĠPart y
Ġfand en
Ã¤ss er
g ers
Ġs un
ĠK ra
ap ie
l or
Ġw ish
ĠS C
Ġ3 3
Ñ ģ
isch em
Ġfe ed
pos it
h auer
is er
ĠW erner
ĠWe ise
Ġhand le
b rit
in y
Ġb and
Ġz entr
Ã¶ p
Ġ19 19
la y
ĠÃ¤l tes
Ġre pla
ĠK er
ĠH alle
ĠBest and
wissen schaften
Ġd ra
ĠSp anien
chn ung
west lich
k unden
Ġse ek
ĠCh in
ĠWei hn
Loc al
i Ä
Ġl aut
Ġar g
()) );
Ġf iles
p ret
ĠS aturday
Ġgen ommen
ĠJanu ary
By te
b is
at o
ar ter
Ġf ail
amp les
ã ĥ
Ġh ous
ĠT ruppen
Ġber eit
zie hen
ic on
Ġres olution
Ġrec ommend
Ġpolit ischen
imm el
Ġlo ad
Ġeffe ctive
Ġbede utet
ĠC le
ĠSt rom
Ġst ation
ĠEin fluss
ĠMen sch
ĠB ul
ĠG ro
ĠH aut
Ġl isten
Ġ193 2
Ġplay ing
Ġrele ased
ĠR enn
Ġim m
ĠR Ã¶
end orf
ĠAl ten
Ġpar ents
Ġconstru ction
st attung
ter min
Ġwork ed
T ER
W riter
ĠL ux
ĠAus stellung
ĠOr gel
Ġful ly
ian ce
Ge grÃ¼ndet
Ġmov ie
ĠCh urch
Ġca pt
ĠSomm ers
os h
ĠY ear
or th
Ġf a
ĠH ard
Ġge ts
kt iv
ĠMed izin
Ã¼ cht
au x
qu ence
verw altung
ul y
Ġsch l
Ġ192 8
in sel
ĠC y
and a
ĠGÃ¶ tt
p hen
Ã¤n n
inn ing
Ġwen ige
Ġdien te
ath let
Be an
gemein schaft
Ġimp lement
Ġwelt weit
S G
ĠS onnen
ĠE th
Ġlang uage
Ġarch ite
ĠtrÃ¤ gt
s a
re u
Ġf ant
ĠA ust
ĠKÃ¶nig s
we ig
Ġapplic ations
ĠÃ¶sterreich ischer
ie gen
ĠS y
g ree
k au
Ġim med
Ġse ction
Ġdamal igen
om a
Ġl if
tt ps
r ug
Ġent scheiden
leg ung
ĠWeit ere
C ase
an lagen
Ġb row
ĠgroÃŁ er
ĠIntern al
ĠL et
ĠJ ag
ĠVol k
Ġdevelop ed
ĠUnternehmen s
ĠFot o
Ġreview s
Ġd ich
ĊĠĠĠĠĠĠĠĠ ĠĠĠĠĉ
ĠGr enze
ĠProdu kte
T ask
Ġw edding
ĠW oche
ien ces
ks am
ĠFot os
Ġrelations hip
H E
P C
er weise
is Any
Ġbeg in
Ġange geben
F amil
Ġw ohn
ĠMed ia
Tracing Enabled
ĠBe im
ĠGer ichts
k lasse
Ġa verage
ur er
un ion
ĠT it
ĠP ublic
Ġex am
Ġalle in
ĠMÃ¼n ster
m ont
ĠZ uf
ll en
ĠspÃ¤ter en
Ġinterest ing
cript or
Ġgan ze
in it
Ġd oc
Ġf air
ĠR oll
Ġall gemein
ĠVerkehr s
Ġcommer cial
Ġa ffe
ĠD ir
Ġg reen
n amen
Ġst ring
ch em
ib el
an cy
Ġout put
ĠBes onder
ĠBild ung
ĠBre men
Service Response
ĠBeit rag
Ġtool s
Ġw ider
Ġm id
ime ter
Ġqu ery
ĠBÃ¼ cher
Ð¾ Ð
ĠAngel es
ĠM aschinen
iel ten
Ġt im
Ġon es
ĠVer wendung
lie fert
alle y
ĠProble m
lemen te
ĠT enn
Ġsh op
Ġgroup s
ĠÃ¤l ter
ĠAustral ia
isAny TracingEnabled
O ber
ĠS zen
ĠO x
ĠPort ug
ĠDec ember
Ġwonder ful
hockey spieler
H T
Ġd ream
st anz
mÃ¤ ler
P at
w en
ĠEs sen
ikan ischen
umen te
hen sw
eld ung
Ġ192 9
ĠRad io
ĠSund ay
Ġe uch
ĠD ata
ĠF ound
ra ct
rei he
tra gen
Ġpre uÃŁ
ch ner
m ax
Ġfor mer
Ġbu ilder
Ġb uffer
ĠP fer
ĠG olden
ĠZeit ung
| }
ĠS onn
ĠM Ã¶
Ġpla ces
Ġs ag
ĠD rei
ĠK u
Ġver k
Ġun mittel
ĠChrist mas
Ġwor th
ĠNe ub
Ġfin ish
ĠFÃ¼r st
van ced
Ġwrit er
k irchen
ĠM ur
ĠW ettbewerb
ĠR un
ĠL ab
ĠO ver
Ġse ien
Ġnot wend
Ãĸ sterreich
d at
Re ader
Ġextend s
as ons
Ġorgan ization
y ing
aly se
Ġmult iple
Ġp aar
() ))
20 16
ĠVertre ter
ĠDe v
j ava
Ã¤ ste
ot ing
Ġge prÃ¤
Ġpro p
E urop
ĠG ood
ĠN Ã¼rn
pr Ã¼
ĠS uch
ĠZ usch
Ġun it
ne e
Ġex cl
Ġbrit ischer
ĠG attung
ĠR ennen
por ate
Ġaus schlieÃŁlich
Ġklein er
ĠM ost
In s
PD F
ar es
stÃ¤nd e
Ġjewe iligen
Ġsaf ety
ĠNutz ung
UL T
Ġin tens
o oth
is ierte
Ã¤hr t
Ġerm Ã¶glich
C T
ĠM Ã¼ller
for men
lef on
D eb
or gt
ĠM and
zeich nis
ĠPat r
ĠM ach
Ġc abin
Ġg riech
Ġlet ter
ĠBeruf s
h le
at oren
Ġgo es
c up
Ġt itle
Ġe arn
Ġv ac
Ã¤ u
ĠR ou
schaf ter
ĠStÃ¤d te
ack s
und le
ĠH on
ber eit
ho den
ĠTÃ¼r k
ĠZeich en
R ule
en te
Ġ19 18
Ġno te
By tes
Ġweek end
Ġsuccess ful
Ġzw eit
Ġmy self
gew iesen
mÃ¶ gen
ff er
ĠBen utz
' d
Ġble iben
Ġf ashion
ĠM ik
ĠSch lag
ĠBe zirks
Ġbek ommen
Ġter ms
Ġwir tschaft
pro f
fl Ã¤chen
Ġarbeit en
d y
Ġk aufen
ound s
so ft
Ġpass ed
l ike
Ġh ttps
um Ã¤n
St ore
Ġmus sten
Ġ* /
Ġabsol ute
ã Ĥ
ĠC ast
Ġan im
ĠFl Ã¤che
ab et
Ã¶l f
laub t
la x
Ġout door
k raft
ĠS ammlung
Ġer setzt
Ġk rit
Ġpro per
ĠMet all
lÃ¤nd ischen
ĠArchite ktur
ze igen
g rad
Ã¼r k
Ġent w
Ġro ll
res p
ĠWill i
Ġbenef its
om ot
ĠL ager
ir ch
ver fahren
ĠAll er
G er
g arn
Ġm ention
Ġn utzen
Ġer baut
id ung
Ġinst ru
Ġsom et
] ,
ĠB ol
Ġh our
ĠMar c
Ġstart ing
roll er
ĠSoc ial
Ã¤ her
Ġdurch gefÃ¼hrt
ĠWh ile
ĠFamilien name
er be
ind ungen
hil fe
it ation
Ġre in
Ġver d
ĠStud io
al ing
Ġb rachte
Ġh it
ĠP ubl
Ġst atus
ĠAn gaben
Ġ3 8
lin ge
Ġgo al
Ob jekt
ĠB ob
Ġn ames
ĠE re
tr ieb
Ġspe ed
ĠIs rael
d aten
Ġt en
Ġe inger
Ġch ance
les en
ĠQu alitÃ¤t
Ġdefin it
ĠCoun cil
u ert
or et
re chen
em ble
ĠSch e
O W
ĠW ed
ĠSt affel
Ġ192 5
Ġin j
Ġl ic
Ġ19 14
Ġwer de
haus es
org ung
parte ment
T P
k ra
an ische
ĠMag az
ic kt
Ġpl anning
D o
G ruppe
p erson
ĠD et
ĠT ransport
ĠK omb
ĠL Ã¤ndern
ĠBr Ã¼
Ġcoun tries
Ġricht ig
Ã £
ĠAn tw
b ul
ĠDe velop
Ġact ive
wind igkeit
A uth
Ġb irth
Ã¼ gen
Ġdistr ib
i h
ĠHe iligen
Ġdec ision
Ã¤ll t
b as
ĠM erk
and en
Ġ} );
par ator
Ġser ious
Ġtradition al
M ode
R em
Ġgesch rieben
Ġitalien ischer
Ġs an
Ġb ere
spr ung
Ġlevel s
p at
ie fer
ĠJes us
ĠS ib
ut n
Ġleg al
Amerikan er
R uft
o e
oper ation
hensw Ã¼rd
W ie
zahl en
h agen
ĠAn lage
ac ity
aut or
Jahr hund
Ġinvolv ed
anw alt
E hemal
M atch
ĠT Ã¤tigkeit
w eile
Ġs ynchron
au ern
ipp ed
ĠWer te
ĠS om
ĠS icht
ĠP ier
ĠC anada
Ġde ath
fr iend
Ġhand s
ĠMann schaften
Ġehemal iger
Ġhinz u
Ġveh icle
ol ve
Ġso uth
aw a
Ġerziel te
Ġv irt
ĠM acht
Ġinter view
Ġstat ement
Ġo l
ĠL i
Ġth ous
Ġlar gest
Ġangeb oten
j o
ĠW ood
ĠMus iker
Ġcomplete ly
ĠNam ens
ĠE very
Ġar ray
ree k
ink el
ĠPh ot
ĠEng ine
ĠPap st
ĠMar ine
ĠFar be
amerikan ischen
ha ber
V D
ĠD amen
w ir
ran ch
ĠRo ad
Ġatt ention
ĠHerr schaft
Ġs ah
Ġc andid
Ġro t
ĠVor g
ĠChrist oph
Ġf irm
el a
ĠH off
lin es
ick ets
ĠTechn ik
Ġrequire ments
Ġsele ction
ĠBron ze
ist ance
ahr en
Ġstreng th
m ore
ĠR ing
Ġ3 4
aut en
Ġges etzt
W Ã¤hrend
Ġan alysis
Ġver z
pr Ã¤sent
hal le
Ġcomp lex
ĠStru ktur
f ast
lan k
mit glied
rif f
Ġcolle ge
ĠunterstÃ¼tz t
C ON
Ġd ark
ĠF ernse
Ġl ost
ĠAuf gaben
fr ont
wh ere
ĠS amm
Ġbest Ã¤t
ĠBau ern
Ġdirect ly
ĠC O
ĠUn s
Ã¤dag og
allow ed
in put
Ġ15 0
roug ht
ĠZusammen hang
ĠKla vier
Ġtem per
B l
S A
ĠS ho
Ġn ature
ĠC all
Ġsing les
ĠF ak
Ġbe legte
Ġab ility
Ġle bt
ms el
print ln
V ER
W Ã¼rttemberg
Â «
ar ies
Ġf lex
ed ia
Ġche ap
F re
P reis
ĠF ischer
ĠE duc
ĠFahr zeug
Lo ader
Ã¤ ger
St ud
Ġthink ing
Ġcreat ing
Ser ver
b ilder
w al
ig ungen
ĠG ust
if ts
Ġver mutlich
Ġpat ients
ĠLeist ung
t i
ĠC entral
Ġl angen
Ġob tain
Ġ192 7
ĠVier tel
n itz
ð Ł
ĠPra xis
w in
am ous
TY PE
Ġnecess ary
Ġm ount
ĠH ir
Un it
Im age
W ork
i ant
l ings
os ed
Ġpart ners
b our
Ġschw ed
Ġpolit ische
ĠÃ¼bern ommen
p ers
un te
ul s
ad rat
20 13
oh ol
ĠDar stellung
p a
st ream
ĠP or
ĠHaupt stadt
w ell
Ġun abhÃ¤ng
ĠPro gram
I F
Ġf ine
ge legt
od or
Val id
p i
ĠR aj
ver lag
ĠK os
ige m
reit et
ĠColle ction
S erv
V AL
Ġd unk
ĠAn schlieÃŁend
we chs
iz ier
Ġbet re
ie ts
Ġ4 8
II I
ĠCour t
ĠE st
Ġinvest ig
ĠVorsitzen der
ĠvollstÃ¤nd ig
V ari
Ġpro pos
Ġstru cture
Ġregel mÃ¤ÃŁig
te uer
ĠP ok
Ġcl oth
d ar
v olle
ĠWe hr
Par am
Ġsupp l
esen ted
B S
d ouble
ot al
Ġpre d
ĠUr s
ĠGl Ã¼ck
Ġwicht ige
Ġexist ing
Ã¼ hm
Ġn ov
ĠT ar
res ource
M at
ĠS S
Ġn et
Ġenc our
Ġd ry
an zen
al led
ĠS Ã¶
Pro cess
Ġprogr ess
ĠHen ry
T E
r id
Ġd omin
Ġb aby
Ġf ab
Ġg uten
Ġbe gan
ĠBo ard
ĠKinder n
aupts Ã¤chlich
S piel
il a
Ġit self
Colle ction
Ġsod ass
henswÃ¼rd igkeiten
L ast
Ġb all
ĠH ill
b it
ĠL ieder
20 12
ĠNational sozial
Ġaktu ell
rÃ¤s ident
Ċ ĠĊ
č ĊĠĠĠĠĠĠĠĠĠĠĠĠĠĠĠĠĠĠĠ
ĠS ach
ĠSpe zial
Ġt emp
Ġsogen annten
anstalt ungen
Ġsle ep
ar kt
AT E
Des cription
ĠÃ¼ br
P RO
is ation
ĠF ritz
ĠC at
Ġander er
Ġfun ktion
ĠAt lant
p m
Ġst age
Verein igte
s ervice
t a
ĠG ran
sp rache
cle ar
ĠverfÃ¼ gt
msel ves
ĠD E
Ġl Ã¤nger
th ur
ru it
ĠFir men
b ewe
Ġjed es
T hre
is ions
eb e
20 14
Ġ192 4
ĠOff ice
ĠFried hof
D ir
I A
Ã¼ m
ĠN et
Ġpart ner
ĠPe ters
Ġin stead
ĠSt atus
ĠAr n
iss ions
Ġbec ame
Ġgeb racht
Ġdesign s
Ġoffer ing
Ã¶rder t
H ttp
ĠVer kauf
Ġrep air
Ġcamp aign
P l
ĠT hen
ĠGegen satz
f le
ĠâĢ ¢
Ġwest lich
S U
Ġthe mselves
ĠW irtschaft
ik i
Ġsuch en
U s
Ġt Ã¤
an geb
ĠK ohl
ate ur
age gen
20 11
Met hode
ĠS um
ĠS atz
ĠP orn
ĠW omen
Ġg iving
ĠL ig
ul pt
ĠEn ter
Par ameters
Ġsub s
Ġc ases
Ġl ux
Ġum fang
ĠMar g
fol gen
Ġaut omat
ĠHinter grund
L abel
h old
Ġs old
Ġh y
la us
Ġch urch
ĠLe icht
Ã© e
Ġsm art
Ġgrow ing
K ultur
m acht
Ġt al
Ġm ix
Ġe th
ĠD ub
ĠSt off
ĠO ld
Ġver treten
lo at
Ã© s
Ġactiv ity
Ġess ay
Ġbet rieben
Ġgew innen
pl ant
Ġsol che
ĠZuk unft
b latt
Ġ ign
Ġk lar
tr al
Ġbl ue
Ġindividu als
ĠSant a
ĠâĨ Ĵ
ĠG overn
ĠW ander
ĠBl og
w ide
Ġd ise
Ġm other
ly ing
Ġpre fer
Id ent
ĠerÃ¶ff net
Ġexact ly
r t
y ond
Ġ Ã¶stlich
ĠG lock
pen den
trÃ¤ ge
N A
d as
k omp
m osph
Ġb orn
ĠÃĸ l
ĠZust and
iÄ ĩ
Ġd ient
âĢĿ .
Ġinst it
ĠVerw altung
d is
r est
is tet
ĠB a
ĠM att
ĠT agen
De fault
ĠD ro
Ġan aly
ak s
ĠTh Ã¼r
cre en
Ġac cept
ĠIde en
h ow
ic ed
ach ing
ĠSt reit
Ġch ines
ĠSt ation
ĠBer eits
Ã¡ n
ĠG irl
ra p
Ġm il
ĠL ast
ĠGew inn
z i
at ives
sch auspieler
all er
Ġver lieÃŁ
Ġj unge
par se
UR L
ĠCont in
p ossible
r d
ĠS V
20 10
mann s
Ġfol gt
ei ge
ĠGr Ã¼n
ĠSte fan
Ġt ats
ĠT ri
ĠRe v
ĠHome page
z if
Ġder zeit
am ing
Ġst ieg
Ġcon trib
low ak
H ier
u id
w an
Ġs yn
us ed
ff ic
Ġexperien ced
N eben
il i
Ġbeteil igt
un i
ĠD ah
ĠKar ten
Val ues
( '
sel ben
Ġag re
ĠNatur schutz
ĠW agen
Ġ19 10
Ġent lang
ar ante
stell er
zeich nete
lÃ¤ uft
Ġverl or
P A
ĠE vent
kt ions
Ġ6 5
Ġrelat iv
ĠHeidel berg
Ġsomet imes
Ã£ o
I R
Ġw ild
il lage
Ġp et
ĠF rench
ĠE hr
ei der
ĠTem peratur
B ar
Ġ( "
ag ra
Ġcon du
20 15
r um
Ġk or
r ats
im er
ne ur
Ġsen se
n ummer
r ight
ĠT schech
im me
ĠGe h
ĠWe chsel
Ġhelp s
Ġgleich nam
ĠSpe cial
Ġbas ic
Ġn umer
Ġde pend
ĠPat ienten
Ġs and
ach st
Ġge fÃ¼hrt
ĠSm ith
ĠZ entral
Z ur
g roup
Ġs ell
Ġer inn
ĠChar akter
oot ball
Ã ´
ber e
pf lich
imat ely
Ġgel ten
Ġv iol
Ġp ages
Ġg ro
ock ey
Ġsub mit
Ġelement s
ĠFlor ida
us te
sch m
Ġor d
Aus zeichnungen
Ġmot or
R ad
f rom
ĠA tt
Ġan ges
Ġst aat
ĠIn t
ĠBrand enburg
Ġw ife
Ġe b
Ġapp e
stit ut
g ab
il ing
ĠJ SON
In putStream
Ġ192 1
Che ck
i xt
le hn
if er
ĠVer teid
Ġor igin
geb nisse
D A
h och
er al
re al
ĠH ause
Ġj ungen
oun ter
ĠSchw ar
De c
ident ial
Or der
forder ungen
ĠFar ben
o ÃŁ
Ġd ein
ĠS up
le ger
Ġh auptsÃ¤chlich
Ġ192 6
Ġbesch rieben
B ase
he m
Ġh ielt
ab s
ĠEin fÃ¼hrung
Gemein de
Ġs us
ĠHe ute
ĠP a
Ġwieder um
2 000
Ġn ied
ĠStud enten
ĠPol y
ro at
Ġto wards
ĠR is
Ġ19 12
ĠIn tegr
ĠAm azon
ific ate
med aille
Ġlim it
P olit
S ession
T op
Ġt ree
Ġn omin
ĠM ission
ĠG laub
Ġro ck
ĠInter esse
Ã¼hl en
kret Ã¤r
ĠS us
geb racht
wer ks
spr icht
av ig
Ġtra gen
Ġ7 5
gew and
ĠSc ott
zieh ungen
B ahn
C re
Ġf arm
ĠK ammer
Ġver gleich
Ġver antwort
com es
fÃ¼ hl
Ġmein er
ĠRuss land
ĠWebs eite
B and
ĠSp Ã¤ter
mittel n
Ġhom es
ow a
ĠO h
Ġste ts
Ġoff set
ron ic
k g
r ies
iel le
ĠRe p
Ġbusiness es
Ġstor ies
Ġweiter er
ĠDire ktor
Trace Component
g ner
Ġp df
ist isch
Ġerw eit
Ġsur round
Ġcost s
Ġst uff
bo gen
Ġbestimm ten
sie he
or al
Ġer f
ĠmÃ¶ch ten
Ġwichtig sten
Ġverkauf t
Ġannoun ced
S Ã¼d
Ġc ell
ig an
ĠâĢ ļ
P O
ĠB lock
ĠD ouble
Ġdar an
" :
B undes
Ġf uck
ot te
ĠPro ject
Ġsp ot
ĠTe le
l Ã¤nder
Ä ±
ĠB rief
ĠG Ã¼n
Ġgan zen
s itz
Ġs up
ĠM un
and ers
ĠVer fahren
Ġ193 1
reit ung
ĠFebru ary
ĠFreib urg
ess ions
Ġver hinder
Ġex hib
ĠTe ams
ĠDeutsch er
ĠQu ellen
hand elt
ĠBl ut
Ġnor th
ĠerklÃ¤r t
gang s
by te
Ġunterschied lichen
l uss
ĠH it
ert ung
ĠGroÃŁ en
Ġhistor ischen
utn ant
Z W
it ude
ie fe
ĠR E
Ġk anad
ĠSt an
stand s
at ung
ken nen
Ġcont ains
ĠFr ont
c ause
p al
ar g
im ension
ien en
sp er
Ġev alu
fra gen
ĠApp le
Up date
R et
ĠS em
ĠT ok
ĠC ode
ĠN ummer
Ġwe ather
ĠMed ic
ĠAustr alien
ĠDreh buch
ĠMond ay
Ġge halten
Ġunter st
D irect
St adt
Bau werk
ĠSer ver
Ġeing esch
W erke
Ã Ħ
Ġp en
ĠKon gress
ĠMan ager
Ġplay er
zieh ungs
D on
ber s
our ney
ĠRegion al
Mus ik
d ire
ub en
ĠRich ter
H L
R ow
ur b
Ġl au
ac ters
minister ium
AB LE
C al
w s
Ġc ulture
ĠH istory
ĠNe ue
F ol
k ord
Ġs atis
urs day
ĠHÃ¶ hen
-------- --------
s achsen
Ġs av
or ial
Ġroom s
Ġfert ig
A dresse
el ine
Ġver t
ont o
uck y
ĠEl is
200 9
Ġcar ry
as che
Ġhe ard
Ġlie fert
ĠWei ÃŁ
Ġerschien en
Ġb ul
Ber lin
ĠTurn ier
sub string
ĠA R
Ġo wner
ĠSch rift
Ã¤uf er
iat ely
er er
Te chn
K arriere
k om
il den
Ġun ten
Ã¼ck t
Ã© r
Ġcons um
Ġschool s
Spe c
Ġf uer
Ġg rand
Ã¤nd ler
gangen en
ĠProble me
brit ann
c an
k lass
Ġm aster
Ġre ve
Ġzw Ã¶lf
Ġnam ed
ĠWissen schaften
ĠSt ahl
fin den
ĠTra ining
ĠBl ue
Ġcons ult
T em
Ã¼ nen
ĠIn f
ĠSchw ester
temp or
h orn
** **
ĠFÃ¼hr ung
W eit
Ġg ift
Ġlog ger
Ġa k
ĠL aur
Ġch air
Ġbest immt
Ġopportun ities
ĠJak ob
I E
ĠH ab
rie chen
ĠÃ ī
Ã¶st lichen
A ut
Ġ ult
os ite
ver stÃ¤nd
geb iete
ĠFran ce
el la
ĠV ort
ik ations
Ġstr ess
ĠKom ment
nd en
Ġs ymbol
ĠLe x
ĠBeit rÃ¤ge
D S
ĠAn th
ĠFl Ã¼gel
lauf en
Ġcor rect
Ġclick ing
Ġphys ical
gor ith
b ung
m y
Ġt ips
ĠB ist
ĠE igent
Ġav oid
Nach dem
Ġview ed
c ia
el f
ĠG alerie
Ġco ffe
ĠÂ £
deutsch en
Ġunmittel bar
L S
O p
â Ĥ¬
Ġv Ã¶ll
se x
Ġsp end
Ġsp Ã¤t
Ġar gument
tra iner
ĠBild ungs
Ġfre qu
ĠCol or
Ġleb te
c lose
r up
ĠS T
ol es
Ġl ots
tem pt
Ġbo y
Ġart ist
ĠCas ino
gef Ã¤hr
htt p
? ?
w ander
y les
ie den
Ã¼ che
ĠT able
ze ption
ĠPro p
ry pt
Ġentspre chend
u gend
il ien
ĠR h
ĠSp an
Cont ainer
Ġpolit ical
Ġconsider ed
Rec ord
m esser
p olitik
Ġ Ã¶
ak ed
lie der
Ġent h
ĠAl fred
Ġus es
ĠCommun ity
Z eit
o is
ies ter
ĠAn teil
ĠG Ã¼ter
ĠR og
Ġver lassen
Ġaus getragen
ĠReg isseur
reit en
p ace
Ġh ar
ĠK ult
Re f
pro gramm
Ġ192 2
Ã¤hn ung
Ġpos it
Ġ( ,
ber n
ĠZ us
ĠAd min
Ġschw ar
leist ung
fur ter
s es
ĠE lect
lo ok
ĠÃ Ĺ
Ġvers ucht
Ġess ential
Ġlim ited
ĠSold aten
trie ben
K reis
S k
Ġg Ã¼nst
ow ski
Ġeurop Ã¤ischen
Ġun bek
Ġhe at
Deb ug
B esch
ĠV om
ers ey
ĠPro zess
ĠAuf bau
Ġbeh av
ĠSchm idt
Ġrepor ted
is Entry
ĠL ieb
ĠU t
iz ations
ĠOr ganis
akt iv
Ġfamil ies
ilit ary
ĠKarl s
isEntry Enabled
l s
Ġat tend
ĠString Builder
Ġeffe cts
k rit
Ġe dition
ĠCon ne
ĠÃ¤ uÃŁer
L ock
f Ã¤lt
at i
Ġacc omp
Ġprom ov
ĠBed ing
eign et
Z X
h op
Ġ Î
ĠG ame
ĠZeit en
Ġfol gten
Ġadv ant
Off set
ĠH uman
ce ed
Ġ192 3
ĠSchul en
kn own
Ġwahr scheinlich
Ġdivers e
ĠSt iftung
ĠGe heim
Ġmethod s
it ness
Ġw inter
St ar
Ġcomp leted
ĠĊĠĊ ĠĊ
ĊĠĠĠĠĠĠĠĠ ĠĠĠĠĠĠ
ĠBe zug
Ġback ground
Par ams
Ġcl ub
Ġvis itor
Ġown ers
ĠFlug hafen
Ġe ye
Ġein st
Ġre lax
Ġcreat ive
Ġw issen
Ġ2 50
ĠU ser
Ġit er
gel d
Ġbut ton
Ġmod els
Ġmov ing
Ġann ual
ĠBesch reibung
lin ik
Ġpur pose
ĠJac ob
b a
n ational
Ġk om
ĠAuf gabe
Ġaff ord
Ġsett ing
din and
West falen
famil ie
k osten
Ġin zwischen
ĠW etter
Ġg ere
ĊĠĠĠĠĠĠĠĠ ĠĠĠĠ
wer te
ĠB rown
ĠLe on
IN E
Ġwen igen
Ġand ers
Ġad vert
Ġtra de
N ieder
ĠF ield
au d
A ug
D ouble
T arget
g ern
re chte
Ġg as
Ġex press
ĠGer hard
er te
Ġh Ã¤lt
ĠW estern
ĠSt immen
Ġ{ }
Ġor ient
lan z
200 8
ĠÃĦ nder
g ut
Ġmit tels
in ary
ĠF al
Ġst ates
ĠEn gel
pf licht
reg ierung
r Ã¤t
Ġp ackage
Ġstra ight
Ġverlie hen
m d
ĠP ak
ĠR y
Ġob serv
hol t
z one
ĠD ank
ĠF ind
Ġle gte
St ack
st uhl
ĠL y
ĠC are
ĠErz bischof
Ġf em
Ġf elt
ĠD Ã¶r
ol o
ew ork
Ġdem onstr
In put
Ġres pect
ĠGr Ã¤
Ġdar in
ĠPar lament
Ġexp and
Ġinvest ment
Ġdefinit ely
N on
or fer
ach im
stit ution
Ġwind ow
Ġhigh est
ĠGrund lage
ĠFe hler
Ġest ate
Ġsag te
Ã¤ ische
ĠT iere
ĠW ater
ĠMe tern
ĠMod el
Ġc ards
ĠP ot
ĠL ook
Ġso ft
mal er
ĠSchw eden
ĠPf lege
ĠWohn ung
Ġd auer
ĠD arm
Ġl ines
Ġste el
vers ammlung
ĠMen ge
h te
as ion
ĠH aw
Ġde gree
Ġkomp lett
ĠW he
we gs
200 7
ustr ie
ĠAller dings
Ġm ilitÃ¤r
ĠM om
Ġpre c
amer ika
Ġbesonder e
ĠErz Ã¤hl
Ġsele cted
Ġs em
ĠR ost
Ġ4 2
ues day
ĠDistr ict
ĠDÃ© partement
t y
| |
Ġd ynam
Ġf ight
gr iffen
Ġ3 7
Ġmehr fach
ĠSchrif ten
erke hr
Ġcoffe e
Ġin sp
stoff e
leist ungen
M en
Ã ½
ĠB it
Ġwe ar
Sch w
roug h
Ġhealth y
V erkehr
m and
Ã¼ mer
ĠI ndex
ĠR od
Ġde ad
Ġsc ient
uck er
ĠJu den
yd ro
p olit
at al
Ã¼ck sicht
w eite
Ġm ill
ĠK rank
ĠW Ã¼rz
Ġl ok
ĠAn k
ĠBr asil
ym pt
ĠSpiel zeit
Ġarbeit et
ĠsÃ¼d lichen
Ġheut ige
Ġdeliver y
ĠWirk ung
Ġbott om
F unction
Ġl ands
icht lich
ĠVer halten
ĠCh ild
200 6
ĠOrt schaft
gy pt
ĠPhilosoph ie
ĠdÃ¼r fen
Ġwr ong
p ost
Ġhe ll
ĠPrem ier
Ġver pflich
ĠÃ¼ber wiegend
ĠGes pr
ĠCol umb
ĠP fe
ĠVer lauf
ĠId ent
Ġcomfort able
ĠGÃ¶tt ingen
C P
] );
f ree
us er
ro te
ap y
ichte ten
Qu ellen
Ġtrans fer
ĠKap elle
Ġeff ort
augh ter
ĠTÃ¼rk ei
j i
ĠT isch
ĠC ook
Ġ3 9
los en
Ġass ess
Thre ad
B ox
Ġer fÃ¼ll
ĠRe volution
Ġent deckt
f alse
z ub
ĠD Ã¤n
ĠK ron
Ġre v
Ġro ot
unsch weig
Ġelekt r
Oper ation
W arn
n ungs
st ation
erk unft
oren z
ĠSm art
ir us
Ã¶r en
ĠLeist ungen
Ġsp ent
ĠTh ursday
ĠOr te
ĠNach richten
Ġgew onnen
arb on
Ġerst es
Ġeng ag
ĠWilli ams
c ap
Ġf ix
Ġp ush
ten ance
ĠÃĦ r
Ġunderstand ing
Ġcoll abor
ĠEduc ation
ĠM ake
Ġunter s
ĠAb st
ĠOb serv
Ġdat abase
ĠS aar
Ġc amera
ue ber
iss ert
ied lung
Ġassoci ated
ĠEre ign
F ound
ĠG olf
Ġl es
Des criptor
ĠKrit ik
T A
t or
ĠS PD
ĠA ff
ĠL ord
Ġpro ced
Ġdar gestellt
ĠArch iv
ĠgrÃ¶ÃŁ ere
britann ien
F rank
I terator
c s
d urch
e es
ĠTh anks
Ġfin ished
wes ome
\ \
Ċ ĊĠĠĠĠĠĠĠĠĠĠĠĠĠĠĠĠĠĠĠ
Ġt ried
Ġf lat
sp ar
ennt nis
el and
ĠL ight
ĠV illa
ot ten
lie fer
Ġbeginn ing
Ġin f
Ġp al
Ġal bum
fr ist
ĠVert ra
ĠSin ne
M ill
Ġb rought
ĠA P
ann a
Ġaus tral
ĠIde e
A utor
m aterial
ĠW M
ĠO pt
ĠEr de
ĠAll gemein
ĠVerb and
ĠCent re
og a
ĠAl tern
olog ies
De f
Ġjob s
LO G
D B
Å «
Ġe yes
ĠE xt
ĠDire ctor
Ġv ict
ĠL eit
ĠLe op
ĠGes am
tain ment
Prov ider
F in
m ethod
st ern
ĠM ov
rie den
ign ed
ous ly
ĠDem okrat
ĠOp fer
B is
P ool
ļ Ń
Ġex erc
Ġwe g
Ã¼nd ung
ĠChr on
Sch wei
ĠIs lam
ĠB Ã¤
ist a
Ġpre vent
Ġlink en
Col or
Å Ļ
ĠW affen
ĠMar ie
ĠLand schafts
ese hen
ĠMain z
ĠS ab
ol ar
ly wood
ock en
Ġm iddle
ĠHe er
ĠDeutschland s
schul en
Ġzerst Ã¶rt
ĠNÃ¼rn berg
ĠM i
ĠD omin
ĠBesuch er
En g
Ġsc ience
arm on
L C
n ern
Ġw ants
Ã¤ den
ĠP aar
act ive
Ġob wohl
ĠAd d
Ġplay ed
ĠUr laub
ĠGust av
Ġd agegen
ĠW unsch
Ġr ights
Ġch at
Ġme asure
ore a
Loc ation
Ġc ru
ĠT hr
ĠV arian
ĠVor der
Ġze ich
Ġur l
Ġill ustr
p o
Ġn ation
ĠSch laf
eiter te
gemein den
ĠInter view
Ġchange d
ĠFer dinand
ĠÃĸff entlich
G V
on ial
ĠC a
ier n
gr Ã¶ÃŁ
Ġinternational e
al ed
ro ck
em ark
Ġver lÃ¤uft
qu is
Ġbet rach
Ġviel leicht
Z um
e v
re ci
Ġver g
Ġkann st
ĠK el
ph an
ĠgehÃ¶r ten
Ġcent ury
b aden
ĠV alley
Ġsp orts
stand ing
ĠÃľ berg
Ġgu ys
Ġadv ice
ĠAfr ica
Option s
ĠGesund heit
O K
Ġ il
us band
up s
ĠStand ort
A X
ion e
id den
Ġsh ape
Ġ8 00
F L
et ts
ĠZ ahn
ze p
Ġle er
ĠAd olf
ĠHers teller
tempor ary
t l
Ġc ast
ĠC ard
ĠJahr zehn
Ġmay be
200 5
stru ktur
lÃ¤uf er
D P
m ag
ĠAuf ent
ĠSo und
ĠOb jekte
Ġprof it
m ond
ĠN eb
Ġent stehen
tell igen
ĠIt al
br idge
Ġthan ks
ĠauÃŁer halb
ĠBetrieb s
Ġleb ten
nes day
ĠS tellen
ĠEin s
Ġ4 4
ĠS eb
ĠR ay
Ġpol ice
ĠElekt ro
Ġded icated
ĠvÃ¶ll ig
D I
h ost
Ġar gs
Ġro b
Ġgu arante
Ġbeaut y
Bo olean
Ġcas ino
W idth
Ġp f
bild ungs
ĠBÃ¼ ro
arl ier
la h
get Class
For m
S B
w ise
Ġto ken
anz er
ĠNe uen
ĠAut oren
ĠwÃ¼r den
ĠhÃ¶ch sten
ĠEntscheid ung
i ot
it ur
ic ations
ĠE ll
ĠJ on
Ġne arly
Ġ5 5
ohn er
Ġbet rug
Ġappro x
Ġbrit ische
Client Exception
crib e
Z E
h aps
n ow
Ġd etail
Ġ19 13
Ġdem and
ĠBe handlung
ign ment
Ġbek am
Ġ190 5
war en
ĠÃ¶sterreich ischen
x x
Ġa cadem
ut ing
Ġg alt
ĠIn ner
ven ue
fass ungs
ĠR ath
ĠL ind
tr ans
Ġcon ven
ĠThe ologe
ĠUnivers itÃ¤ts
Ġchar ge
ĠNieder land
ĠjÃ¤hr lich
D ocument
ch mal
ĠA C
ĠL iter
Ġge tr
Ġauf gerufen
In valid
Ġher r
ren nen
Ġhel fen
Ġgesch affen
Ġoffer ed
Ġoper ation
Ġhol iday
ĠGel Ã¤nde
- )
Ġ util
Ġbeen dete
Ġsur face
Ġcour t
itte e
denk mÃ¤ler
FA ULT
ĠrÃ¶m isch
Ġrepor ts
ĠF un
ĠG ames
ĠH T
ĠC ra
Ġ19 17
ĠAn y
âĢĿ ,
ĠSer ies
Ġdarauf hin
ĠVir gin
ĠSow jet
ĠD ra
Ġ< =
ĠverfÃ¼ g
emin ar
Ġeconom ic
ĠS ituation
am ed
Ġer heb
ĠAn wendung
iti ative
Ã¤chs ischen
Ġinfl uen
en se
19 45
Ã¼tz t
Ġcol ors
glieder t
ĠLauf e
Ġpie ces
gent in
ĠUR L
ĠG Ã¤ste
Ġan erk
iel len
pe cts
Ġpr Ã¤
kon om
Ġsogen annte
Ġs icht
Ġz Ã¤hlt
ĠH ub
Ġwas n
Par ent
ĠLin ks
Ġeinges tellt
ĠBern hard
ĠÃ¤hn lich
ĠElis abeth
k ont
Ġa f
es is
al te
ĠV ize
Ġme as
ĠGr enz
Ġtr uly
Ġinc red
Ġprim ary
ĠK urs
ĠL Ã¤nder
ad or
ĠRe chte
ĠgeprÃ¤ gt
Ġw and
Ġg ave
Ġbek annten
ĠBild hauer
Ġview s
Ġh op
ĠSch uhe
Ġent spricht
Ġbre it
ĠgrÃ¶ÃŁ eren
Ġnumber s
ĠMeister schaft
ĠMat th
zip lin
' )
t liche
Ġs at
Ġw uchs
ĠK urt
ĠC ross
ck len
ap ers
ĠPfarr kirche
Ġblo od
re c
Ġsch le
< >();
ĠE ach
ĠW appen
iz en
Ġitalien ischen
Weit ere
e lement
rie be
Ġturn ed
gem eine
Ġthous ands
L iste
c ons
g Ã¼lt
k opf
ĠT imes
ĠF ert
Ġth read
Ġim ag
Ġj ud
ĠAuf nahme
ĠPr im
ĠBes atz
Ġconne ct
Ġextrem ely
G ER
m ail
ĠG reg
ĠL ine
pf lege
Ġsupp ly
ĠMicro soft
ur i
el er
ĠP os
gr enze
io de
unn el
Ġbro ad
B ild
ĠB la
ĠAuf grund
afr ika
m Ã¶glichkeit
v m
ĠH ospital
iz ierte
ĠKar te
Ġsho pping
Ġwel come
Ġsetz en
ĠBlÃ¼ ten
Q ue
n ode
Ġf amous
ro y
ick er
Ġverw ende
Ġprogr amm
fan ter
k in
ĠT uesday
ic ing
ĠJ Ã¼rgen
Ġserv e
ommer ce
Ġsynchron ized
M ult
P AR
T ION
Ã ¥
Ġf lieÃŁ
et ch
ĠEr b
ĠDar Ã¼ber
Ġmet al
G E
Ġd ritte
ĠVer Ã¤nder
Ġcon cept
gew Ã¶hn
Ġdr iving
Ġchallen ge
D isk
an u
ĠS dk
ĠC ustom
elt a
pro cess
Ġtem plate
ĠL au
ĠL aut
Ġbe legt
ĠN ode
Ġ19 11
ĠIn strument
Ġ6 4
ĠMon at
ĠEurop Ã¤ischen
ĠFrÃ¼h jahr
k ammer
Ġb ill
ĠF air
Ġl isted
ann ung
Ã¶r ter
ĠOr dens
Ġerw arb
Ġclass es
ĠStr ateg
Ġelect ric
B es
Ä ģ
Ġin kl
Ġc ash
Ġge gebenen
grÃ¼nd ete
Ġflo at
ĠĠĠĠĠĠ ĉĉĉĉ
ĠDevelop ment
Ġw ert
Ġbe ob
Ġzu gleich
omm od
Ġpower ful
ĠhÃ¶ch ste
ĠFound ation
ĠA N
art ige
Ġcom par
ĠAb teilung
omm ern
ĠGra fen
Ġbas is
ill on
Ġover all
Ġs agt
ĠP ay
ĠK andid
ei ÃŁ
ĠEin trag
Ġschw arz
Ġclass ic
Ġopen ing
UR I
Ġengl ischen
st on
ste ht
Ġfe et
ĠAd els
Ã¤hl ten
ĠBewe gung
Ġsp irit
ĠTeil en
hand lungen
Ġbel ie
part ner
Ġfeel ing
Hel per
w Ã¼r
Ġs ituation
ĠD iv
Ġgen annten
Ã¤l de
Ã¤ll en
Ġdev ices
ĠBu ild
> ,
f ind
n t
Ġg olden
ir ge
ĠSdk ClientException
an ischer
ĠM aur
lin ien
ĠAr zt
Ġpar se
Ġ190 8
Ġpass ion
D en
b ibliothek
z ul
Ġh a
Ġg ingen
ĠVer d
ĠKon k
con ne
E Class
is ieren
ĠH und
Ġre li
ap el
Ġges etz
ĠKon stru
Ġhelp ing
Ġchar acters
Ġcontin u
ĠArchite kten
zÃ¼ ge
ĠErfahr ungen
Ġbud get
cklen burg
H ash
ĠF ire
Ġlov ed
D C
Ã ±
Ġm is
ĠA wards
ĠW ohl
Ġdeutsch sprach
leg ten
zug s
ĠIhre m
ĠSied lung
Ġswe et
R un
h u
Ġc lin
Ġk Ã¼nstler
ug in
Ġab geschlossen
app er
Ġact ual
Ġdiffer ence
ĠM ethod
Ġre ference
Ġaus geb
Ġges pielt
I OException
ĠC ert
isten z
Ġprodu ce
wert ung
++ ;
Ġamerikan ischen
Ġestabl ished
Ġl Ã¤
ver trag
cl ude
br Ã¼cke
rÃ¤ ume
wÃ¤r t
Ġentsprechen den
Ġw ebs
ich ern
ol i
ĠP enn
ĠP unkten
ĠL Ã¶sung
Ġer gÃ¤n
Ġzu erst
ĠHand el
ĠFak ult
m ir
Ġm iles
ĠK ath
ĠV iele
Ġr ich
ĠLand wirtschaft
Ġdr ink
ĠHo hen
Ġwest lichen
ĠTro tz
ĠMÃ¶glichkeit en
G roÃŁ
Ġt ief
Ġb itte
ing u
ĠT ore
ĠF ord
ĠG ene
ĠC H
Ġso c
form ations
leg ant
Er baut
ĠHein z
ĠLeist ungs
D ER
d essen
Ġf ather
ĠB an
ĠE ven
Ġre ich
ĠIn halt
Ġstud ies
ĠArchite kt
ĠSicher heits
V ar
is a
ur l
Ch ange
klÃ¤r ung
Ġdist ance
f Ã¶rder
en kt
Ġc old
Ġpol y
Ġphot ograph
ĠFrancis co
Ġimmed iately
ro chen
ĠnÃ¶rd lichen
ĠKonz ert
ar ily
de cken
ol z
Ġge zeigt
Ġr ules
are t
Ġher gestellt
Ġapp reci
ĠAd am
ĠNord rhein
Ġse ven
Ġfr ame
ĠF isch
ĠH ell
aus piel
Ġcon ference
ĠEr inner
Ġallow ed
ĠÃ¼ber haupt
Ġ6 00
Ġinter ior
Ġstar tete
Ġpop ul
Ġkur ze
ĠWider stand
I B
le hr
end a
ĠTra in
ĠBar bar
Fe ature
Ġd Ã¤n
Ġg esehen
ger ichts
ĠFahr zeuge
fass te
ĠBas el
ĠJur ist
ouver neur
v ement
or row
Ġf ill
ĠK assel
pe ctive
Ġsch eint
ĠTeil nahme
Ġgef Ã¤hr
Ġincre asing
ĠRhein land
ĊĠĠĠĠĠĠĠĠĠĠĠĠĠĠĠĠĠĠĠĠĠĠĠĠĠĠĠĠĠĠĠĠ ĠĠĠ
Ġach ie
ĠermÃ¶glich t
f abrik
is Debug
Ġer kennen
af ft
int on
lev ant
ĠP ack
ĠR osen
ĠFor st
ĠFor um
Ġuse ful
Ġ190 6
fel der
Out put
term ine
Ġupd ated
Ġl Ã¶
Ġl ack
tens ion
Ġret ail
Ġhund red
ĠÃĸffentlich keit
l ation
ĠT anz
Ġra ce
ĠGroÃŁ britannien
Ġmoder nen
ĠDat ei
Ġteach ing
Ġspr ing
M E
P ER
S ett
Ġj ourney
Ġersch eint
gra f
ĠWed nesday
f ung
r as
Ġs agen
ĠKon fl
Sch ema
let ter
ĠNik ol
ĠWeihn achts
r ik
Ġ Ä
ic ul
ĠR icht
be g
arch iv
Ġregard ing
. ),
im ens
Ġbe yond
ei ht
ste uer
app e
Ġsow jet
Ġ190 7
Met a
ĠMos kau
Ġmean ing
or age
ar ray
Ġtop ic
baut en
V is
ag ne
Ġdire ctor
son sten
!! !
Ġc ars
ug u
ĠReg ister
Ġber Ã¼hm
Ġprodu ced
ĠMark eting
st Ã¼cke
ĠR eb
ĠL ib
Ġl Ã¤ng
qu es
Ã¤r t
bie ter
Ã «
ar ischen
Ġc op
ber eitung
ĠN S
ip es
Ġset s
Ġfriend ly
latt form
ĠHistor iker
c raft
ĠL ar
ĠC ho
se ud
ĠRe view
ran ce
Ġgo als
ĠComm ittee
fÃ¤h igkeit
Ġunterst Ã¼tzen
D em
P an
st at
ĠK Ã¼n
Ġth ank
Ġprodu z
Ã¼t te
ĠFlug zeug
B et
onn a
R ed
p ite
s ol
w riter
ar p
ĠP en
ĠPap ier
c are
Ġ uk
it ag
ĠP red
ĠK amer
ĠL abor
ov en
co very
aj a
ĠĊĊ ĠĊ
Ġocc ur
ĠGeburt stag
: .
B ack
Ġ q
ent um
ahr t
Ġpr incip
por ts
ĠGrÃ¼nd en
Ġhoch wert
Ġprote ction
Ġentw eder
issert ation
l ife
Ġer fahren
Ġ/ *
Par ser
ĠKap it
Ġt ransp
ĠB M
Ġk Ã¤mp
Ġre chten
Ġim press
ĠBra unschweig
l u
Ġs itu
ĠD ol
os is
get Key
Met adata
f ilter
m ess
Ã º
ĠB asketball
ic ious
ĠL ear
ĠC orn
ĠRe public
ick e
ond ition
ĠMor gen
ĠVo gel
ĠMuse ums
N ov
b lock
ĠH oll
Ġun be
Ġwir kte
sh aus
wahl en
Ġcap ital
: :
l Ã¶
p ool
urn ier
Ġdam age
akt or
ĠHoch schullehrer
ĠFil ms
ĠQualif ikation
isDebug Enabled
Ġw ine
ach s
ver ter
get Type
oh le
omb in
čĊ čĊĠĠĠĠĠĠĠ
bÃ¼ cher
dien ste
Ġc ategory
Ġh usband
ĠP S
Ġge mÃ¤ÃŁ
ob by
ĠWeltk riegs
Ġfield s
c or
ĠN ick
pr iate
Ġweit gehend
Ġtechn ical
Ġâ ļŃ
ĠSommers piele
C A
G u
V ol
m t
ul f
ĠZ ent
ser ver
Ġcoun ter
Group Name
ĠEhe frau
ĠUl rich
Welt meisterschaft
O lymp
g reg
ĠM auer
Ã¶ der
atur ing
ersÃ¶n lichkeiten
Ġverantwort lich
f Ã¤lle
g on
ĠK och
Ġal ter
be zogen
Ġhin gegen
ĠSim on
b ad
c u
g au
ill y
r un
w el
it o
re in
ĠG lobal
ĠJ os
Ġent gegen
Ġpre par
Ġprodu ziert
p an
ĠB ibliothek
ĠM ike
Ġh Ã¤tten
ĠR oh
Ġl esen
ĠEr schein
ĠÃ¼ber tragen
Ġverb reitet
ĠDaten bank
Ġstrateg y
C ons
el or
ĠK en
ab elle
Ġde termin
ĠEx ec
ffe kt
ĠRÃ¼ck en
m ie
re form
ĠG riechen
ĠW alk
ĠR ub
Ġcon stant
ĠMan y
Ġdr iver
unter richt
ĠLie fer
Ġmittler weile
Ġ Ã¶ffentlich
ĠS ig
Ġf Ã¤llt
ent hal
ĠH ttp
Ġr ates
ĠAl pen
Ġprofession als
Ġmax imal
ĠT a
Ġver schw
Ġkn ew
Ġpe ace
Ġacc ur
ĠAnd roid
Al le
Ġmen sch
Ġwei b
en ken
ol er
ial izer
hÃ¶r den
Ġdis k
Ġbring t
Call back
Ġhig hl
V e
un ehmen
sch loss
lie genden
Ċĉ ĠĠĠ
ĠEben e
F ra
S he
ĠF alls
ĠÃ¼ber geben
Ġent sp
ĠHe ft
fl ow
fl Ã¼gel
Ġfind ing
ĠPl us
B ad
B est
an er
ĠP age
ĠE lemente
ĠV iol
mer ksam
iert es
Ġsh ared
bo ten
ĠFranz Ã¶s
urf Ã¼r
ĠfrÃ¼her en
B i
or gan
ĠG ymnasium
Ã¶ pf
ĠN etwork
iv als
ost on
con text
Ġmult i
heb ung
Exec ution
Ġf al
Ġj em
ell i
ĠVerÃ¶ffentlich ung
n etz
ĠP ed
ĠAus land
Ġze igte
Ġb ow
ĠH ot
ĠN ahr
ein s
ste chn
Ġaus ger
Ġle itete
Ã¶ff nung
Ġeas ier
Ph one
B B
H ost
e ch
ĠB ass
ĠD ien
Ġre asons
ĠEin heit
ĠSie ger
Ã¼n sch
Ġverw enden
R oot
ĠB ow
ĠEr satz
Ġent ity
Ġbenef it
Ã¼st ung
ĠSonn tag
z te
ĠM ey
ol en
ĠP rag
ĠL ot
ĠBr Ã¼cke
frastru ktur
Ġgleichnam igen
ann ter
Ġman ager
ath on
arbeit er
Ġpar allel
ĠMon aten
Ġlov ely
g ie
k rÃ¤fte
on ien
ĠB ett
Ġn ut
ĠY oung
Ġmon itor
gra de
u um
Ã¶ ne
ĠSchles wig
Ġt Ã¼rk
ur ts
ĠL ibrary
ind ustrie
Ġshe l
Ġmov ed
umm ary
Ġunterschied liche
Ġh il
Ġfor ce
Ġvers ehen
Ver b
haf te
beding ungen
ĠM ah
Ġse cret
Ġob j
ĠBy te
Ġcertain ly
is her
ĠS inn
ĠM id
ĠG le
Ġg ather
ĠIn gen
rom e
lic e
uss ion
Ġsol id
ĠTod es
zus tellen
c opy
ĠD rit
ĠK ard
ĠW ay
Ġde lete
lat ed
Ġres idents
Ġqu e
sk y
Ã¤us ern
ĠHaf en
H o
j en
Ġs um
ĠBe ziehungen
Ġgu y
ĠBei de
M ay
or ganisation
ĠB ab
il ian
Ġp aid
ĠTex te
kathol ischer
ĠWÃ¼rz burg
ĠK ommission
ĠL Ã¶s
Ġl ern
ĠZ oll
ĠOr der
Ġbel g
merk ungen
ĠChin ese
at re
ĠW ho
du ard
Ġ4 3
Ġres erv
ĠChr is
ĠSh op
Ġerst re
ĠH ig
ad ies
ĠEin ige
ĠWe imar
Ġfollow ed
" ).
N O
on ia
Ġh ers
ĠI ran
ra k
ĠR uf
est ra
lin der
Ġger ing
Ġkein er
Ġausgest attet
Ġb ag
ĠM und
Ġg allery
ann ed
ĠU se
ru he
ĠNord osten
Ġredu ce
igr ation
N E
Z w
Ã¶r ung
Ġ4 9
20 19
Ġ190 9
Ġnam ens
ĠOx ford
V P
t um
re f
ĠA rab
ĠT Ã¼b
ĠĠĠĠĠĠĠĠ ĠĠĠ
Ġcom ments
ix el
Ġbek annte
Ġmus ikal
200 4
ĠStra ÃŁ
Ġart ists
Ġsec ure
ĠChe f
lÃ¤ss lich
ĠErfahr ung
er em
Ġm ission
ĠP od
ĠO ther
Ã¤r ke
200 3
ĠÂ §
Ġsay ing
Ġerweit ert
den burg
ĠJ ones
ĠFre unde
a ctions
ate ver
Ġsel ber
reg ister
Ġben ach
Ġmein en
ĠPrÃ¤sident en
ĊĠĠĠĠĠĠĠĠĠĠĠĠĠĠĠĠĠĠĠĠĠĠĠĠĠĠĠĠĠĠĠĠĠĠĠĠĠĠĠĠ ĠĠĠĠĠĠĠĠĠĠĠĠĠĠĠĠ
iw od
Ġautom atic
b ungen
ra ys
Ġte ams
cre te
Ġinst r
Ġweiter es
Ġtechn iques
Ġtrans form
Ġeinge fÃ¼hrt
Ġverst Ã¤r
Ġwait ing
J son
or b
at te
ĠD adurch
ite ktur
ĠÃ¼br igen
ĠN ap
ust ain
Ġte en
mit glieder
Un s
ĠFamil y
B ook
Ġf ans
ĠP ac
ĠL iber
if ik
Ġhe ight
ĠPr iester
Ġsm ooth
o or
Ġb atter
ĠE ck
Ġad vent
ĠOr ient
Pro ject
ĠAut ob
wor ks
ĠCarol ina
Ġwebs ites
y c
Ġa wesome
Ġt ritt
it ors
ĠD ur
ĠG ang
ĠW es
ip fel
Ġtr ust
ĠFunktion en
Ġexec ute
ĠSalz burg
ĠAst ron
T S
ar ische
ĠH as
ĠH Ã¤user
Ġj ournal
ĠSp re
Ġsp read
gesch rieben
Ġexper ts
lad ung
ĠH immel
Ġbil dete
L a
Ð º
ĠS of
ĠA M
ver treten
Ġch annel
ĠBe ziehung
teil s
Ġfe hl
Ġmem ory
ĠGeist licher
s ing
Ġwh ose
Ġhe avy
Ġeven ing
K lasse
z ur
Ð »
ug os
ru pt
ac ing
c en
Ġa ward
ur ers
ĠM P
ĠD auer
ĠT ax
ĠF ood
ĠN ote
Ġk auf
Ġk ommun
Ġge eignet
Ġat tempt
Ġpar ameters
Ã¤m lich
ĠnÃ¤ch ste
ĠSib Tr
k ts
is piele
he ute
ĠFor men
Sch riften
ĠPe ople
Field s
Ġe arlier
est yle
ĠSp rachen
Ġad vanced
ĠKn oten
Ġin ternal
Ġm icro
Ġe at
ro ad
ĠW ag
Ġge kommen
up date
ĠEn s
ĠAuf stieg
ĠVor aus
ĠJournal ist
Ġcompet ition
Ġbeein fl
A re
G en
ĠA ktion
Ġre ader
F inal
W el
b aus
ir n
Ġ4 1
Ġ4 7
row able
ĠLe e
omm iss
Ġtra ding
Ġerh ielten
Ġgra de
Ġbestimm te
im it
th a
ho fen
Ã¤n ner
set s
J ul
M ember
m es
Ġm ode
ĠSch ritt
ĠSp orts
ph y
ri age
Ġeff icient
Ġsen ior
ĠHaf t
ĠD VD
ann en
ĠRe port
ĠWies baden
z in
Ġ ðŁ
Ġa head
at om
ĠS ince
je kten
Th ese
Ġben utzt
Ġinc or
Ġrelations hips
u ern
ir ing
ĠBe ge
ail s
Ġcont ain
lam ents
d ach
re hens
Ġf ish
ct ic
ĠRe fer
Ã© n
Ġatt ack
geord net
ĠComm ission
ĠOper ation
Ġpress ure
P ass
ĠS av
us her
ĠB art
ce an
Ġpro ud
je ction
Al bum
im b
ĠF inn
Ġz Ã¤hlen
Ġst opp
Ġr ank
Ġber uf
ĠIns gesamt
Ġclos ed
N ow
ĠHe ad
hand el
Ġ190 4
ĠFil me
arz t
AG E
Ġemploy ees
Ġchallen ges
======== ========
c ore
in zen
em ann
ĠHoch zeit
RE S
Ġgre ater
ĠLeop old
ĠK in
ĠL am
Ġal though
ĠEurop ameister
Ġexc iting
ĠRei hen
wh ile
ĠChem ie
> <
B el
U ID
s l
Ġd rop
Ġb la
ĠH orn
Ġbes itzen
ĠMed ical
ĠBundes republik
Ġend gÃ¼lt
ĠGerman y
Ġtats Ã¤chlich
Besch reibung
ĠD ichter
Ġh ospital
ĠF lo
ein anders
ĠAb schnitt
ĠIm age
Ġel f
Ġserv ed
ÃŃ n
roll en
Stra ÃŁe
c al
on i
ĠS P
gel t
Ġverb ess
ĠGener ation
ĠPer form
bl Ã¤tter
Ġeinger ichtet
is at
Ġh aven
ĠAus druck
Ġpr esented
Ġsh ot
Ġpar ams
Ch annel
ĠGroÃŁ e
ĠArch Ã¤
Ġmov ies
Ġwes entlich
Ġol der
D an
H aupt
as ts
Ã¤ b
ĠP oint
âĢ ¢
ste iger
Ġgu ests
ĠfÃ¼hr ten
ĠTechn ology
Ġcover ed
Ġunterschied lich
F unktion
ĠD OC
ĠW Ã¤r
Ã¶ ÃŁen
ĠBe ck
ĠLe vel
Ġste ps
ĠBre ite
sc ar
Ġrespons ible
Ġdise ase
d b
t arget
w all
Ġw rote
ĠS oph
Ġst Ã¤r
ĠAn frage
ho ff
ĠPr esse
ĠTr ump
ĠDeb Ã¼t
D igital
F uture
Ä Ľ
ĠS tell
Ġf an
Ġm Ã¼nd
ĠF ro
ĠV aters
ĠJ ed
ay a
ĠSch on
iz z
ĠDe ck
Ġlie f
alen der
Ġvo ice
K irche
m Ã¼hle
ĠL it
ach tet
Ã¼t ze
ĠFrank furter
ĠVorg Ã¤nger
L iter
N ord
or dens
st Ã¤tten
ĠN ight
Ġr ent
auf trag
Ã¤hr ung
Ġgeb ildet
Se quence
Ġstand ards
Ġeigen stÃ¤nd
Ġspr icht
ĠFakult Ã¤t
c ard
p et
t ok
w itz
an en
ic ial
ĠF ootball
ĠThe odor
fe ct
ĠHer bert
ennt nisse
C ar
N r
Ġh ast
ĠE qu
Ġbe an
ĠN omin
Ġvor bei
ĠQu elle
wend ungen
Ġcommun ication
Ġexc ited
Tem plate
k unst
em ed
ste dt
tel n
Ġdo ors
ĠUnter nehmer
pl Ã¤tze
ĠZw eit
Ġhim self
ĠInternational en
Ġach ieve
C omm
Ġs amm
ĠD ialog
im ents
ĠK athol
af el
Ġle it
Ġsh own
Ġqu al
Er st
bo olean
ĠSÃ¼d westen
bahn hof
lei hung
value Of
Ġinstall ation
ĠPfarr er
Ġinnov ative
Ġ ueber
Ġa p
ĠM obil
ĠE ich
ĠR ose
Ġal one
ĠPro te
auf hin
ĠFer ien
ĠProdukt ions
posit ory
ĠF ant
Ġk l
Ġcon vers
Ġsh aring
sh ire
Ġsc ene
ĠPf ar
Ġschw ier
Ġoper ations
geord neter
Ġprote ct
P la
c ount
at ik
ĠK op
Ġen dete
isten ce
Ġsc ore
let te
ĠRÃ¼ck kehr
ĠErw eiter
mÃ¶ glichen
Ġexpl ore
ĠFig ur
kra ine
N S
Ġc ock
ĠP ast
Ġ19 15
os a
Ġcan cer
kl us
ĠJuli us
ĠNieder sachsen
ĠHel mut
Ġdenn och
Ġs ample
Ġb on
ĠT wo
ĠW ord
Ar g
ĠbeschÃ¤ft igt
H ere
il de
Ġn Ã¤mlich
Ġde termine
Ġeinz ig
ĠPre uÃŁen
Ġmein em
k ins
Ġf la
ere ien
ex it
ĠWh y
ĠKl ost
ĠMittel alter
Ġnah men
Ġcor ner
Ġmax im
Ġincre ased
ĠBayer ischen
Ġphil osoph
ĠK art
ĠVer hÃ¤ltnis
ĠThe ologie
ĠUn garn
Ġber ufen
val u
ĠEnts te
Ġnumer ous
t op
ĠS af
ĠO tt
Ġ4 6
ĠCon ference
200 2
Ġmot iv
Ġtalk ing
or ient
ĠC ost
ĠJ ew
ub a
enn fahrer
stra hl
It alien
ĠF ore
ĠK anada
Ġge z
ĠAn griff
iz enz
The ater
res h
Ġcomm and
ĠKÃ¼ che
ĠUntersuch ungen
Ġcrit ical
P L
z iger
st he
ĠH ug
her zog
ĠMar ien
bre ak
A ct
v i
Ġs org
Ġw al
ĠB lo
Ġp air
ĠD etails
ent in
Ġwe ist
fang s
ĠZahl en
ĠAfr ican
Ġin g
ĠE ind
ĠK y
ĠV ideos
ĠO R
Ġse ch
Ġprof ile
ĠBuch st
Ġprote cted
' ,
H ome
z ell
us sen
ĠR on
Ġl ab
erk l
hol m
Ġstar ts
kon stru
Ġober en
Chr ist
Aug ust
Ġ ut
Ġe igent
ov a
ast ian
ungs ver
ais er
ĠGes ell
Ġpat ient
gra ben
Ġbig gest
I ST
Ġb ess
Ġhe im
ĠAl ters
ĠSchl uss
time Exception
ĠMax im
ĠSam stag
Ġparticular ly
wirk ungen
4 00
z ust
Ġl abel
Ã¶ z
Ġon to
gr enzen
Ġacc ommod
ĠgroÃŁ es
Ġ190 3
Ġrad io
ĠSchwer punkt
ĠImm obil
M ich
m inton
it ial
ĠM Ã¶n
Ġg ran
ĠSch auspiel
ran che
ĠWor ks
U I
k arten
it em
al tete
ĠS ir
Ġb ot
ĠM ir
ĠF ull
ĠK ab
Ġj ew
ĠAn w
ĠBe teil
ĠMet hoden
ĠGew icht
Ġexist iert
W ind
Ġc it
Ġc entral
ig ger
ĠW ett
ĠAr thur
Ġlook ed
Ġclean ing
ĠPublik um
ä ¸
Ġd ining
ĠS ystems
ĠR ab
Ġg laub
Ġan hand
Ġsc r
ĠVers uch
ĠFahr er
ĠGest altung
akte ur
F il
Ġs y
ĠSch lieÃŁ
Ġman aged
Ġaut o
Ġd ish
ĠT H
ĠJ ava
Ã¼r en
ak i
Ġab gerufen
Ġle ider
hÃ¶r de
Ġmaint ain
Ġrequ ires
ĠKomb ination
ĠVirgin ia
L age
c la
Ġm Ã¤nn
ol is
ĠK iel
Ġad ult
Ġsc en
ĠMon te
por ation
Ġsur vey
Ġgemeins amen
Warn ings
D own
c ert
Ġc ore
ĠK a
Ġg ren
Ġar en
ĠGra d
ron en
stÃ¤nd en
Ġcap acity
Ġren ov
ĠRath aus
G o
m eldung
ĠA u
ĠD iffer
ĠK rieges
ĠÃ¼ber w
ath an
Er ster
con fig
Ġange legt
setz ungen
p id
or ph
ĠB ang
ist ant
ĠZ erst
ĠPro perty
ĠArbeit er
ĠSan kt
ĠJo achim
ĠSon ne
plat te
ĠPortug al
J ust
h ar
o ben
ĠB aby
et ze
ĠL ew
Ã¶ tz
Ġqu ant
ĠÃľber setzung
ĠBen ed
Ġexperien ces
Ġsong s
ĠFig uren
S ign
t able
Ã ł
in det
Ġs uffer
as ks
ĠB aus
aus stellung
Ġnot ice
utz ung
stand en
Ġpar ameter
ĠzurÃ¼ck ge
Ad d
Wh ile
c ar
d d
Ġe ight
Ġp m
Ġ19 16
ĠVer antwort
ĠVer anstaltung
iz eit
200 1
Supp ress
8 00
U P
Ġd aughter
ĠE M
ĠE ur
ĠC lick
Ġdurch schnitt
Ġstr ug
ĠHam burger
Ġbra in
lÃ¤nd ische
ĠbenÃ¶t igt
prÃ¤sent anten
s ource
ra pper
kt ar
ew ay
ap h
ĠUn abhÃ¤ng
Ġ5 2
iter ator
T C
m ack
ĊĠĠĠĠĠĠĠĠĠĠĠĠĠĠĠĠ Ġ
ĠDah er
B Ã¼rger
B erg
ĠC av
ot ional
ag ers
uss y
... )
Ġstand en
Ġ189 0
Out putStream
Ġprep ared
Ġm ut
ĠA ccess
ĠE duard
ĠRe is
Ġdire ction
ĠDÃ¤n emark
e vent
w arn
ĠB oston
ĠF ein
ĠW it
ĠIn halte
hÃ¶r igen
Con stra
Ġregister ed
H z
h aben
k ur
â Ħ
ĠS tellung
ĠA ction
Ġn um
ĠWe ge
ĠPar ameter
Be vÃ¶lker
Ġdi agn
ĠJo e
Ġzwe imal
aliforn ien
Ġin n
Ġer laubt
ĠV ar
Ġver gangenen
Ġum ben
ĠKon rad
kauf t
ĠHers tellung
Ġdien en
Ġpan el
Ġfab ric
L ook
d h
Ã¼ ne
Ġer b
Ġman age
ĠOr chester
fÃ¼hr en
ĠÂ ·
lig isten
Ġorgan izations
Trans action
## ##
sta aten
KE Y
Pat tern
bere cht
Ġf at
Ã¼ mm
Ġre levant
ĠEx em
Ġfact ors
Ġwid th
Ġf allen
um a
Ġge ist
Ġvor gesehen
ĠNe ust
ĠBr ig
ĠKon zer
App lication
Ġkur zen
Ġstre et
r ates
Ġf ein
ĠA gr
ĠL td
Ġer stellt
ĠSp itze
Ġsh all
En um
Ġsc ale
Ġbeg onnen
cy cl
ograph ische
ĠSc iences
Ġop in
b ell
k ul
un a
ĠL en
ĠTr ib
ĠEm il
P olitik
k re
ch ild
Ġis land
Ġtr ug
Ġdevelop ing
ĠKommun ikation
ĠWo iwod
B ody
D oc
P lan
Ġv ierten
st al
ĠK alk
ĠLand schaft
ĠKl im
ĠCont ent
Ġident ify
hÃ¶ he
ĠGesund heits
G ew
W as
st rom
st ock
ĠFran ken
Ġreg istr
Ġpl astic
Ġsee ing
Ġtre ffen
ĠFernse hen
ĠTÃ¼b ingen
M em
č Ċĉĉĉĉ
Ġf rag
Ġfor der
art igen
ĠUn fall
ĠX ML
ĠNord westen
ĠFÃ¼r sten
Me ister
Ġed ge
rup ted
D ollar
le m
Ġm ail
Ġbe in
Ġl it
ĠN ah
ĠSp iegel
Id s
ĠLauf bahn
Polit iker
! )
L ayout
P R
P lease
ch o
Ġp ull
Ġc overs
ĠK lassen
ĠH aar
ĠSe curity
ĠEd el
Ġcommun ities
ĠErw achsen
Ġentsprechen de
ĠMaÃŁ nahmen
hy th
W erk
ar in
sen s
ĠLe ute
Ġmed izin
Ġfre uen
Ġir gend
ĠBesitz er
Eis hockeyspieler
S a
p ot
ĠK Ã¼nst
ĠC ru
ĠSt ory
ĠFrie den
Ġpay ment
e f
k rieg
de burg
Ser ie
F O
e ur
w ettbewerb
Ġs ter
ie fen
Ġf ung
ol ogen
Ġge plan
ĠPro z
ex ec
Inter ior
ĠZug ang
rÃ¤n k
j ob
In ternal
tra gs
Ġrec ords
ĠKon zept
ĠmÃ¶glich st
ĠRelig ions
Ġn Ã¶t
ĠE conom
ĠC ur
if ft
ess ed
Ġad just
ĠMag n
Ġinit i
ĠNetz werk
E hr
m auer
x ml
ed om
ad ow
stell ungs
ĠInd ivid
Ġrem ote
ĠProdu zent
quire d
ĠDurch messer
yl van
Ġfac ilities
ĠTw itter
e ing
n icht
v ar
v ol
or fen
Ġb ird
ĠE ber
ĠK eller
ĠJ ersey
ĠAn spruch
Ġqu arter
ession al
Ġmain tenance
ĠFrei heit
prÃ¼ ft
H istor
ĠS QL
ĠAus nahme
ink en
Ġtra ffic
Ġmed ic
Ġpost s
âĦ ¢
Ġg one
ot yp
eb all
() ).
Ġges pe
ĠGra z
Ġsur pr
Ġc alls
ĠI ts
Ġge plant
ĠIn fanter
ĠSe cret
ĠOr tes
Ġletz ter
stru ction
Ġvisit ors
ordin ate
d el
Ġt ruck
Ġc ache
os ing
Ġle aders
Ġhelp ed
ĠFe hl
ĠHar ry
wor th
Ġcla im
char At
A v
C la
ĠT el
ĠH em
ĠO ster
Ġex pos
Ġsp rach
ĠQu er
ĠMinister prÃ¤sident
ĠHash Map
S ingle
k Ã¶rper
v ollen
ĠP ow
ĠL abel
Ã¤r ung
Se le
zÃ¼ glich
A mer
T O
re y
ĠS ens
Ġv en
Ġ1 10
ĠF arm
ĠC A
aus gabe
ĠFre itag
ĠFr Ã¼
Ġmin ute
Ġprocess ing
ÃŃ a
Ġappro priate
plat ten
r ical
it is
re tt
ĠF Ã¤llen
ĠL ow
Ġsch reibt
Ġsh ower
ĠVerlag s
Ġsl ight
ĠTer min
U B
Ġw under
ĠR oss
Ġl en
Ġfor ms
ĠBr es
ĠPar laments
reg ion
Ġverw and
Ġet abl
beding t
M ag
M essages
t yp
ĠM B
Ġc e
ĠK up
Ġk ulture
ĠO pp
ĠQu al
Ġra nd
ĠWelt meisterschaft
At om
Ġmax imum
Ġfoot ball
Ġn utz
id ae
ĠEin richtung
ans as
oin ted
ĠChar lot
Ġauth ent
k riegs
Ã¤ st
Ġmit einander
ĠZeit raum
Ġpop ulation
lÃ¤nd ischer
Ġwind ows
Direct ory
Ġadvant age
Ġafford able
m aschinen
Ġc ities
ĠP lÃ¤
ĠN on
ĠIn stall
Th at
ĠHo tels
ĠFeuer wehr
ĠBund est
Pf alz
ĠSÃ¶ hne
J uni
in us
ĠN och
ĠV ari
Ġr Ã¼ck
app y
fÃ¼hr te
Ġda ÃŁ
ĠPre ise
resp ond
Ã Ĺ
st ab
Ġ18 48
ĠAuf lÃ¶sung
Ġrem ain
aly t
Ġdah in
D u
us ted
ĠA S
ĠA ben
ĠB os
ĠD B
Ġh ook
Ġer hoben
ĠV iet
aus schuss
we ge
Ġent steht
ack en
Ġte le
ster dam
Pro zent
ĠStra f
Se gment
ĠSÃ¼d osten
ino is
Ġ189 9
ĠTod ay
lev ision
Ġindustr ial
H A
Ġm ilitary
Ġthe me
ĠSch reib
ĠVer anstaltungen
ĠAb itur
Ġlar ger
ĠBahn strecke
ĠUnd er
gangen heit
Inter face
b und
f it
s ur
s ite
ĠM inn
ĠK ong
ist ischer
Ġcon vert
fÃ¼hr ten
ĠGew alt
Ġsur v
Ġant i
Stat ement
ĠLex ikon
is ierten
Ġf ailed
Ġn Ã¤her
ent ur
ĠT Ã¶ch
Ã¶ die
ab ilities
Ġber ichtet
Ġcomb ination
mitt lung
J e
N or
n i
s berg
Ġc row
ern s
ĠVer mÃ¶gen
Ġse a
ĠPro jekte
ĠSe cond
ĠEd ward
Unter nehmen
ĠBevÃ¶lker ungs
ĠÃ¶ffent liche
Ġrestaur ant
ĠRestaur ant
Ġaltern ative
ĠDarm stadt
Ġv s
ĠW ales
ĠIn nov
Ġro of
piel en
alb um
M O
P ost
e g
Ã¶ se
ab teilung
Ġi Phone
Ġsch affen
Ġ18 70
Ġsh ipping
Ġind ic
Ġvers uchte
Ġdist in
ĠBrÃ¼ der
w ater
ĠS au
Ġb rach
Ġb illion
ĠM ode
ĠL as
ĠSch ott
Ã¤nd igen
burg h
Or ganisation
ex p
ĠMich el
Dies er
Jahrhund ert
ch ern
Ġb ur
ung er
ach te
ĠV ern
od urch
ok er
for mer
ĠTh read
ĠOn ce
IT Y
ĠBarbar a
ot ic
ct ures
ĠSch iffe
ob ject
Ġbek ommt
Ġbesonder en
Ġopen ed
ĠAnton io
D ar
p ap
ĠH arr
Ġhe ader
ĠEr ste
Ġby tes
pl ib
ĠHand buch
Te am
lowak ei
l ight
r iss
ĠB le
ĠC over
ĠN un
ĠV ors
ein heit
av or
Ġbuy ing
Ġdet ailed
Ġcompon ent
plib Package
k Ã¼rz
Ġt it
ĠB R
Ã¤ ure
ĠN ull
iz ien
ĠLand tag
stra ct
Ġstell vertreten
aka dem
Suppress Warnings
Ġe he
ĠCh ief
ĠBau werk
ĠStud ie
gest altung
Ġstor es
Vari able
ĠObserv able
m ot
le bt
ĠB io
Ġr ing
Ġex change
Ġen h
ĠBo olean
fÃ¼ gt
ateg orien
199 9
Ġnahe zu
ĠNationalsozial ismus
ĠS ud
ĠB ell
ĠT sch
ĠL ED
ĠC anad
ĠSt ore
Ġab geb
ĠTh ank
zeit ung
ST R
ĠForm el
cel ona
Ġfig ure
Ġneigh bor
g yp
Â ·
Ġa partment
ĠD rag
ĠH um
ier end
if iziert
ann i
Ġauf gebaut
tr ast
ĠOber st
Ġ190 1
ĠEngl isch
Ġpo or
Ġfant astic
S ep
ch or
Ġw odurch
ĠR ena
ĠSt rand
ĠGr enzen
Ġbet rieb
ĠGer icht
part ments
ĠBereich en
ĠJe ff
ĠEp isode
Fl uss
Ġruss ischen
far ben
ĠRelig ion
est amp
ĠAn lagen
ph ase
Ġur kund
ĠHalb finale
has Next
ĠschÃ¶ ne
ĠTenn is
k urs
Ġs rc
Ġb ayer
ĠP ath
ĠN a
ĠJ Ã¤ger
ĠEr ich
imm ing
res ponse
irt y
Ġgener ally
legen heit
P o
st one
Ġmed ium
Ġadd ing
ĠIns eln
ĠZimmer mann
Ġsepar ate
ĠjÃ¼n ger
ĠRou te
ĠLeicht athlet
ĠColumb ia
Ġing red
im o
ĠR ail
ĠC ro
ĠAn ne
ĠTe lefon
upp en
", "
ĠBo ot
Ġoper ating
Ġhistor ische
But ton
SD AP
Ġrelig i
ĠverfÃ¼g bar
Ġf le
ĠD J
ĠH ockey
gen Ã¶ss
ĠO S
ess in
Ġunter sch
ĠInd ien
ĠVers icher
ĠMich igan
Ġneg ative
ĠFÃ¶rder ung
Ġoffiziel l
as p
ĠW urz
Ġan c
Ġauf gelÃ¶st
ĠVer letz
The y
grÃ¼nd er
Ġ189 8
" ));
D el
u ters
Ġf illed
ĠR io
ÃŁ ig
Ġj u
ĠrÃ¶m ischen
mÃ¶glichkeit en
b on
Ġf ahren
am i
ĠW atch
ĠH ey
ĠL A
Ġbis lang
Ġcol our
Ġzun ehm
Ġstark en
Ġsn ow
Ġaud ience
ĠÃ¤lter en
ĠPier re
Ġd eine
Ġa uÃŁen
af t
ER R
ĠMann schafts
re w
Ġre icht
Ġzu k
Ġman chmal
Ã¤nd ige
wer den
Un able
Ġausge fÃ¼hrt
olv ed
Ġpres ident
Ġeinzel ne
ĠBook s
bewe gung
Ġfem ale
) {
D ur
x id
ĠF Ã¤h
Ã¼r f
Ġcomp ared
ĠNach richt
Ġ< <
199 6
Ġmov ement
Ġsex y
Ġwatch ing
schlÃ¤ ge
b al
Å ¾
ar ia
Ġf lag
ĠF lag
ĠK urfÃ¼r
ĠJ a
ĠBe at
Se henswÃ¼rdigkeiten
ester day
At tributes
ĠerklÃ¤r te
histor iker
ĠJag d
j u
Ġt on
is lat
ĠH eb
igh ted
man agement
deck ung
Ġtest ing
Ġcontra ct
Ġabsolute ly
ĠS her
ĠM isch
ĠT ats
Ġra re
ĠDan eben
Ġtro ub
ĠBew ohner
omet ry
ĠBrasil ien
r aten
in u
ĠT y
ĠR ollen
ĠLe hre
ĠBundes liga
Ġ190 2
Ġplan ts
Ġhappen ed
Ġb urn
ut ch
im en
ĠN umber
Ġ8 5
Ġcont ainer
Ġ15 00
ĠGesch le
yn ast
Ver Ã¶ffentlich
AN D
Key s
Ã¶m isch
ĠtÃ¤ glich
r ics
Å Ħ
Ġzum indest
Ġpr in
Ġ5 1
aut hor
Ġspe ct
Er folge
ipp s
Ã¼nst ige
ĠBro ok
deutsch e
ĠÃ¤ uÃŁ
ĠModer n
Ġautomat isch
V E
Ġm sg
el ess
Ġl i
ub il
lo aded
ĠMe cklenburg
ator ium
Ġag ree
ateg ories
so ap
ĠRo om
ĠGrÃ¼nd er
Ġzunehm end
M ore
U nd
b n
d auer
Ġt aste
Ġe arth
ig s
est ic
Ġfor eign
ver anstaltung
we ist
Ġsch ott
ĠSp aÃŁ
ĠCh allen
iss ance
ĠFor mat
wer ten
ĠSer ien
Ġbr ight
ĠLin ien
LO W
ĠMc C
ĠCam bridge
Ġd ank
ĠT en
ĠK anz
Ġver kehr
ĠIn v
Ġun er
Ġ18 80
Ġgew Ã¤hr
R ange
b ahnen
p asst
or ation
el se
ĠT ief
ic ien
Ġauf gestellt
Ġinter pret
Ġpl enty
Ġtem por
ĠZusch auer
Ġsatis f
H aus
ĠT ay
ĠW en
Ġr u
ĠGr amm
fen ster
red ential
bau er
ĠDistr ikt
ĠAustral ian
ĠSong s
Ġumben annt
ylvan ia
Ã¼ gt
ĠW a
ĠU kraine
gesch lagen
Ġbo und
Ġmag az
gestell ten
ĠAf plibPackage
Ġinde pendent
Ġf eder
em it
ik es
geb nis
ĠWe ek
ms g
ĠGesch ichten
Ġmoder ne
athol ic
fre und
Ġdest ination
f alt
Ġs qu
as is
ro h
um pf
ĠDie ter
ĠLand tags
ĠFor ce
Ġinc ome
ĠGar den
Pre fix
zuf Ã¼hren
ĠBenutz er
Ġp ul
ĠD iam
Ġy outh
Ġse at
ph a
Ġkeep ing
Ġcover age
ĠWoiwod schaft
E P
c at
w uchs
as ien
ĠB ade
Ġh off
ad ing
Ġver geben
ĠRe form
we il
Ġex ter
Ġsch reiben
ĠBer icht
upp er
ĠAm b
ĠQu adrat
urop a
AR T
ĠHol lywood
ĠMil ch
t ml
Ġ ice
ĠE le
Ã¶ gel
olog ischer
ĠJust iz
verkehr s
UL L
zÃ¤hl ung
ugos law
D om
M ain
S QL
g i
k es
r amm
Ġs ucht
Ġv ision
ĠM atch
Ġver Ã¤ndert
Ġr ub
lin s
... ]
Ġvis ual
Ġcould n
Ġengl ischer
schei det
ĠH erkunft
Ã¼ck lich
gesch oss
Ġinst ant
log ger
Ã¨ re
Ġkathol ischen
J ohann
if iers
Ġde als
ĠKÃ¶nig in
Ġbus y
Ġseek ing
Ġsoc iety
k ultur
o ted
| -
Ġs ources
ĠA L
ĠT ob
ĠF ast
ĠL uf
ĠSt imme
we ight
iz iner
ĠBe am
rÃ¤ ft
Ġdr am
ĠOrd nung
Que ue
us en
ĠL ittle
ag a
qu ery
old ing
ĠSte phan
ĠBeding ungen
N um
d on
v orsitzen
Ġt Ã¶
Ġw a
ĠS earch
ĠC lin
Ġver ur
ograph ic
icher heit
Ġshow ing
ĠPre uÃŁ
ĠTab elle
Ġaud io
Ges ellschaft
ch ip
us al
ĠH av
Ġan gesehen
Ġ18 50
ĠSte ve
Ġknow s
Ġke pt
Ġverschieden er
AN CE
schn itts
ĠkÃ¶nn ten
Cre ate
u i
Ġw achsen
ĠB ert
Ġloc ations
Ġart icles
Ã¤ng nis
ĠKr ist
ĠPlan ung
Ġve get
ĠpersÃ¶n lichen
rehens ive
W il
g ot
k la
m essage
w urf
Ġb ought
Ġer mÃ¶glichen
Ġun its
Ġj ur
ĠVer dienst
ĠVer gangenheit
get reten
Ġus w
ĠAir port
Ġinsp ired
w ich
Ġd ance
on st
ĠA T
Ġbe ant
Ġre place
ĠSchl Ã¼ssel
W E
r Ã¼ck
Ġr at
Ġex pression
me er
reich er
ĠKomp osition
ĠBron z
Ġexpert ise
Ġt ickets
ĠT i
Ġl ay
ĠSch u
ant ic
gr iffe
Ġpla ced
ĠEnt fern
ĠgegrÃ¼ndet en
Hol stein
p her
st ift
sch uld
ĠR ett
art ig
ĠEr folge
Ġch anging
Ġso unds
Ġbeg innen
Ġra in
Ġdr ug
Ġcal cul
ĠmÃ¶glich erweise
ar o
Ã¼ p
ĠL ein
Ġzu geordnet
ste igen
Ġde partment
iz ieren
pro p
go ing
ĠÃ¶sterreich ische
ĠUntersuch ung
b ut
g han
Ġb lieben
ĠB at
ĠM ord
ĠEin heiten
bo den
Ġbring s
Ġlearn ed
ĠEing ang
ĠGal ax
F OR
Ã¤ udes
de hn
Ġle gend
Ġpart ies
ĠCont rol
Ġfact ory
Ġrun s
C ert
S ET
s ylvania
ĠS ak
id o
Ġwas te
Ġper man
Ġfe aturing
Ġcons umer
Ġcour ses
ape ut
ĠWeit eren
ĠArm y
Ġjapan ischer
I gn
M B
is oden
Ġs Ã¤m
Ġs quare
ĠSt ream
ommen ded
ĠAug sburg
bes itz
Ġem pty
ĠMod elle
Ġjoin ed
ĠLoc al
ĠprÃ¤sent iert
Ġcompon ents
b ury
ĠH ong
ĠN ak
Ġst ick
ĠSp itzen
ĠGe fahr
Ã© t
br Ã¼cken
ym met
unds Ã¤tz
__ __
LA SS
Ġbedeut end
Ġtemper ature
J ose
n g
Â ´
Ġt schech
us es
Ġo k
ĠH Ã¶ch
ab end
iz ont
int age
Ġspe ak
uz z
Ġend lich
ĠMein ung
Ġgemeins ame
ĠAktiv itÃ¤ten
Ġdom ain
Ġmention ed
VAL UE
R S
f irst
k Ã¤mp
ĠO der
teil ungen
Ġdar aus
ĠChampions hip
akadem ie
L ang
b m
he dr
ĠT ake
ier er
iv a
kt op
ĠVer st
ĠTra um
ĠMark e
T od
r asch
t own
al and
ĠT erm
ĠK Ã¶n
Ġan schlieÃŁ
Ġsh ap
ĠAs ien
ret ch
open hagen
Ġnotwend ig
3 00
O B
j ew
Ġm aÃŁ
ĠH yp
ĠRe f
ĠGemein der
ĠEng agement
ĠPatr ick
Ġs elling
Ġch amp
ial s
Ġ189 6
ĠEntw urf
Ġengl isch
Ġfocus ed
Ġvol unte
Ġzie hen
ĠDipl om
ĠLok omot
i agra
an es
ar ina
ĠP in
ĠK ent
Ġse ctor
Ġsol chen
denk male
Ber eits
Ġenvironment al
Ġapprox imately
l Ã¤nge
ĠS ymbol
On line
ĠGed anken
EM ail
Ġadmin istr
Ġpriv aten
ĠThÃ¼r ingen
. ).
r ate
Ġs au
un Ã¤chst
Ġein iger
ĠK amera
ĠC reek
ĠSch ne
Ġch ain
pr Ã¼fung
be an
St yle
zie ht
ĠgrÃ¶ÃŁ er
Ġspec ies
verein s
S eine
W irtschaft
} ,
st ances
ĠL ady
ach us
Ġdes igner
Ġ5 4
ĠMot iv
Ġcor porate
ĠMatth ias
ĠlÃ¤ uft
t lich
Ġs ister
Ġs inn
ol t
ĠJ ena
ĠZ y
qu enz
Ġvor aus
ĠGeb urts
rich ter
ĠStre cken
Ġkon zentr
B ere
n or
n ight
an ze
Ġl ernen
ĠZ ivil
Ġpar am
Ġexper iment
Ġ189 5
ĠCoun try
ĠHeraus geber
Ehemal ige
M M
de gang
ĠK im
ĠC op
ĊĠĠĠĠĠĠĠĠ ĊĠĠĠĠĠĠĠ
tr ich
ib e
Ġar m
ific ations
199 5
Element s
ĠÅ ł
ĠMÃ¶ bel
ĠNeub au
ĠbestÃ¤t igt
O UR
W or
m i
v ater
ĠB em
Ã¤ fer
Ġdie t
ĠK am
ĠK Ã¶
Ġl iber
ĠIn itiative
Ġco ach
ĠStud ies
ĠMag deburg
Ab sol
Ġnomin iert
ĠRost ock
P latz
or i
Ġk id
Ġver legt
ym ph
haf ten
Ġwicht igen
loy ment
On ly
Ġconne cted
Ġeff orts
te ms
ĠB ord
In nen
ĠAus einanders
Ġ5 7
olog isch
ĠFran ces
Ġinst alled
Ġho her
Ġass ert
Ġsupp orted
He ight
ĠJapan ese
Ġteach ers
ĠÃ¤ltes te
F alls
P res
a ill
r in
Ġo st
ĠJ im
if orm
ht ml
ian ischen
ĠOb wohl
bach er
fort un
mus iker
Ġland wirtschaft
Ġklass ischen
ĠIll ustr
Ġmittel alter
Ġbenach bar
h av
m aschine
Ġ Ã¶stlichen
ter y
ers te
Ġun ge
az in
Ġgen ug
Ġob vious
Ġlo an
ĠWeltk rieges
Ġassist ance
Ġbirth day
p le
v ice
Ġb rief
Ġc up
ĠK affe
ĠR oten
ĠThe orie
ĠAl i
vers icherung
Ġfre ien
Ġ189 7
Ġnor weg
EX T
ĠBek annt
ĠContin ue
Ġf ear
Ġl ose
Ġunter en
arbeit ete
ĠBesch Ã¤ft
ĠSeb astian
] [
k at
Ä «
Ġg ain
ber icht
Ġk o
iel l
ĠGe gner
ĠRes ult
ĠSchn itt
Ġnational en
ĠComm on
ĠĠĠĠĉ ĠĠĠ
Ġcent re
Ġsozial en
Ġbal ance
Ġnied r
u v
Ġt oll
Ġb auen
ing ham
ĠM ajor
ĠD ynam
ĠP M
ĠV el
Ġat tribute
ĠBe aut
iss es
ĠMark et
jahr es
wirk ung
Sett ings
le vel
ĠE arth
Ġbe coming
sp ace
Ġeinz igen
anc er
Ġlaw s
ĠBewe g
Ġeb enda
ĠSowjet union
u an
em burg
Ġer zeugt
Ġ5 6
ĠAm sterdam
ĠFre izeit
ĠAd el
ĠBar on
Ġcolle ct
mod el
Gra ph
Serv let
K urz
O pen
c ur
z um
Ġw eder
ĠS E
ĠJ enn
Ġpro test
Ġsp rechen
Ġsh ip
ĠProf il
esent lichen
Ã¤dag oge
ĠBestand teil
C R
v ens
Ġ iron
Ġa gency
Ġw ire
ĠO scar
ĠU fer
sen z
lie f
ĠGer Ã¤te
Be im
Ġentwick eln
K r
W S
Ġa im
st Ã¤d
ĠD un
ĠF a
ĠN az
ĠAn f
Ġas pects
Ġange gebenen
ĠBar celona
199 8
ĠMy th
ĠDat um
Ġteach er
ĠAngeb ote
Ġinspir ation
ĠQue en
Ġacadem ic
L en
a illen
ã Ģ
ĠB ase
ĠM ut
Ġc ream
ol ge
ĠWe gen
ĠFl Ã¼cht
199 0
ĠEigen schaften
ĠTÃ¶ch ter
' );
N ON
c os
ĠInstit ution
Ġitalien ische
ĠKÃ¼n ste
f ir
Ġg ay
Ġre pe
Ġst Ã¤dt
land es
ĠAut hor
ling t
199 4
spre cher
Ġstark e
ĠPlat ten
Ġprep are
Ġverpflich tet
y ball
ĠT rÃ¤ger
Ġk g
ver tre
end o
ĠEin sch
reat ive
ĠRes ource
ĠHaus es
Ġfav our
. /
al o
ĠB our
st il
ĠD ich
ol as
et he
ĠL ock
ĠL eder
Ġre ag
ard o
In sel
ied elt
ĠKl ima
Ġsex ual
ĠSchn ell
Ġerforder lich
Ġcabin et
K irchen
g Ã¤nge
n um
s ichts
Ġt ables
al m
Ġb uf
Ġf Ã¶rder
ĠB rie
Ġp ow
ent ially
ĠPla ce
ĠGrÃ¼nd ungs
Ġenjoy ed
ĠBot schafter
Ġsuit able
Ġfa ith
Ġbetrach tet
ol and
ĠL ipp
au ert
âĢľ ).
Ġsur f
ĠWieder auf
Ġmiss ing
ĠHor st
check ed
F S
b uffer
c ious
it at
ĠM io
ĠD oug
om er
ir urg
Ġde fe
Ġwir kt
Ġum geben
Ġunter halb
ask a
199 2
J vm
ch ung
Ġs orgen
ĠA D
st ers
ĠG allery
ĠK ob
Ġl ibrary
ĠN at
Ã¤n k
Ġad ults
alt y
ĠVor stand
sche f
Ġpract ical
ĠRund funk
ziehungs weise
ĠF ur
Ġer lang
ik ing
Ã¼n fte
ring t
arb y
ĠBÃ¼ hne
ĠKap ital
ĠjÃ¼d ischen
ĠBesonder s
Ġexerc ise
C urrent
S m
re ck
ĠS oll
ĠB itte
st ad
ĠD og
Ġh alb
Ġein schlieÃŁlich
ĠG it
ĠN ie
IN T
mar sch
ĠGegen wart
ĠEnerg y
ĠNutz er
Ġcomb ined
achus etts
K ategorie
c les
h ai
ĠA dr
sp latz
lic it
ĠAb b
En c
val ues
sb ruck
Ġgelegen en
ĠMex iko
Ġsicht bar
K ompon
h Ã¤ndler
s ein
ĠM ak
ĠT oten
ĠL etz
ist ing
ck et
se c
ĠAn h
Ġne ck
Ġ/ >
cl ub
Ġbest ritt
sk a
Ġseit dem
co in
Ġcl oud
ĠMet al
Ġtop ics
ĠZwe ck
ĠParte ien
u ellen
Ġs it
ic er
ĠH ay
Ġg Ã¼lt
ap os
Ġad apt
anz ig
ĠAm ateur
ins on
ĠJuni oren
ĠDes halb
ĠWahl kreis
Ġpract ices
ĠursprÃ¼n glichen
ĠJack son
J ahre
Ġdie d
ĠL ange
ver teid
Ġab ger
oun ted
ss on
Ġapp lied
hÃ¶r ige
Ġeigen es
Ġgener ate
Ġest im
ĠA qu
ĠSt urm
Ġr an
Ġwh atever
In ternational
Ġvor ge
Ġviel fÃ¤lt
ĠAs ia
Ġbesch reibt
ĠMet rop
Jahr en
Ġextens ive
ĠViet nam
e ff
n itten
o ul
Ġa ware
el ing
ĠM Ã¤r
Ġl auf
ir ts
Ã¶ ck
ies e
Ġun gefÃ¤hr
Ġent schied
Ġapp oint
Ġacc essor
Ġfac ility
star ts
Ġlaunch ed
V A
e xt
as tern
ĠB ir
if el
schaf fen
Ġle aving
Ġrec ipe
ĠBo gen
)) );
grÃ¼nd ung
Ġklein ere
ĠGi ov
Ġrepla cement
ĠArn old
D ialog
S cript
h ire
o use
ï ¼
in tend
ic ies
ĠF ac
ĠW erb
ĠN iger
lic ken
ĠEin kauf
Ġzw eiter
ph abet
fin der
ĠAntw ort
ĠGespr Ã¤ch
ĠB latt
ent lichen
ĠC apt
ĠV Ã¶lker
ĠkÃ¶n ne
ĠWir ken
Ġposs ibly
iar den
kap elle
Acc ount
Ġremov ed
Ġdoc uments
A bst
Y our
p c
r Ã©
s ession
Ġt rop
an th
le hre
Ġin nen
ĠM ang
ĠE N
sch irm
gesch windigkeit
Ġgest altet
ĠKont rolle
Not Null
ĠTab ellen
ĠMik ro
Ġnov el
ĠKard inal
C or
Ġs ustain
ra ucht
Ġk ombin
Ġre chte
ob el
fol genden
Ġ9 5
Ġmin imum
ĠPl Ã¤tze
ĠBÃ¼ hnen
Ph il
produ ktion
Pol icy
Ġspeziel l
D aten
ver l
ah m
Ġsch ied
Ġwel chem
199 7
ĠEntwick lungs
Film ografie
ĠzusÃ¤tz liche
ĠFernseh serie
ĠMount ain
Ġerinn ert
H i
M apping
ĠB row
ĠIn fe
pt on
ĠBe ob
her ren
Ã¤t t
ĠMar i
Ġaufge fÃ¼hrt
ĠAlex and
ĠAfr ika
Ġwalk ing
AA AA
Ġerz Ã¤hlt
L in
T ube
k u
ĠP ian
ĠK rie
ĠK rÃ¤
Ġbe handelt
aus end
ĠAn forderungen
sp rÃ¤sident
Ġ18 60
erv ation
zen e
ĠÃ ł
Ġbet roffen
Ġwork ers
Me hr
Ġtot ally
Sc ope
ĠIngen ieur
m otor
y t
te am
ic ians
sch le
age l
ger Ã¤t
gr Ã¤
Ġapp l
fÃ¼hr ungen
ĠTer r
Ġ187 1
ĠRegen sburg
ped ition
F ahr
h s
Ġ ..
er ung
we ich
ĠAr r
ĠAb t
Ġgener ation
Ġnor m
Cont rol
rÃ¤n kt
Ġzust Ã¤ndig
ĠOh io
K arl
W R
j an
ĠS A
ĠC EO
Ġbe ziehungsweise
ĠN Y
Ġdes k
Ġcon temporary
Ã¤r m
Ġper haps
sw ers
gre if
ĠViel zahl
Ġbehav ior
Ġreli able
ĠA z
ĠK amp
Ġre ality
ov ed
In formation
iden z
ĠLei den
ĠPort al
Ġerr ichtete
leb nis
ĠGovern ment
Cal endar
ĠMom ent
D DR
F ranz
i y
k unft
ĠK Ã¼hl
ul ations
ĠN E
ĠV I
eben e
imm ungen
iqu id
Ġtre es
ĠStÃ¤d ten
< >(
es ota
om it
sch icht
ĠL ike
Ġbe comes
Ġk os
ass au
Ġver f
ĠIn formations
Ġent schieden
ĠAl k
Ġco ast
Ġdirect ory
Ġeconom y
Ġprevious ly
ĠImmobil ien
ĠE ugen
ed ig
ĠK alifornien
ĠSt ift
ĠSch ild
ĠSch aden
Ġver urs
sp art
Ġsch rift
je kts
Ġtr uth
Ġev idence
ĠGem Ã¤lde
Ġlight ing
c z
p aar
Ġe legant
ĠP ie
ĠK han
ĠJ etzt
Ã¼r zt
tr an
ĠSe kunden
zeich nen
Ġfre ie
ĠTor onto
Ġdan ger
seit ig
R uss
W ert
v y
z usch
z unehmen
Ñ ĥ
ĠB rad
Ġp ray
ĠP ir
ĠV it
ĠJ ungen
ĠVer fassung
ens es
are tt
Ġtr ifft
ĠSc ot
He aders
usÃ¤tz lich
Ġvol ume
ĠUms etzung
ĠBul gar
Europ ameister
es k
ĠB om
ĠG ab
Ġaus ges
ĠAn trag
ph ia
Ġbas iert
Ġhapp ens
Ġprom ote
T ags
Ð ²
ĠS ender
Ġc ivil
ĠD inge
Ġl abor
ov o
ĠNe um
ikan ische
folg ung
Ã¼t ten
as i
ĠD ist
ĠF ab
pt op
Ġen det
reg isseur
Ġgleich e
Ġklein es
ĠGu ide
Ġcontin ues
ĠDem oc
ĠKommun al
Ġhon est
S yn
it age
re place
ĠS yd
Ġm ist
ĠM oh
ĠN av
Ġan genommen
Ġst yl
ĠEin richtungen
ĠMe chan
setz te
hard t
ĠRu h
ĠSam uel
hers teller
J ohn
d est
Ġ icon
Ġd oll
Ġd inner
Ġp un
ĠE UR
ĠR umÃ¤n
get Id
ĠÃ¼ber sch
par ent
Ġber Ã¼cksicht
acht ung
Ġhelp ful
ils on
ĠBundes staat
ĠInter essen
Ġerstre ckt
c omm
he ben
ĠM ans
ĠThe ir
ĠBe cause
Ġte ils
Ġar range
Ġdec ide
Ġmark ets
ĠMark en
Ġtre ten
Ġcandid ates
ĠKarls ruhe
Ġrand om
' :
S u
er ei
ĠB ier
ĠC os
ĠV il
Ġwir ken
Ġtra f
mit ted
Ġbesch Ã¤d
Ġlog o
mod ell
Ġdiscuss ion
ĠGef angen
M Ã¤rz
s ort
z ens
Ġs izes
al ia
ra uf
ach ung
Ġden k
Ġaus gesch
Ġj ump
Ġne ut
ĠGesch ichts
trag ung
Ġmar ried
AC E
Ġsmall er
ĠTer rit
verband es
ĠMaterial ien
ĠSÃ¤nger in
ĠjÃ¼n g
Mat rix
ĠBened ikt
o om
re me
ĠB Ã¤nde
Ã¤ ne
ĠK redit
for scher
iz ierten
lat es
fen se
AR L
Ġperform ed
Ġcaus ed
ĠVict oria
N OT
ĠT aschen
ver zeichnis
uck s
Ġexp ensive
Ġresp ond
ĠBach elor
ĠKranken haus
Ġconven ient
Ġt ail
Ġver n
Qu alif
Ġgu itar
med izin
ĠDon ald
umm ern
ĠCD U
ĠUns ere
Ġgetr ennt
chip karte
. _
T im
Ä ĥ
an on
il ige
im ir
ĠIn frastruktur
Ġgr undsÃ¤tz
An halt
Ġgu est
199 1
Ġengine ering
ĠPrinz ip
adel phia
ĠChild ren
Ġ Ã¶rt
in th
ĠSt ol
ult y
ĠWe il
Ġstrateg ies
Ġzie ht
ĠerhÃ¶ ht
C ommerce
k amp
ĠV ie
ĠSp ace
Ġsp ons
rit ing
Ġtr end
ĠSchw ier
com mer
Ġerw orben
199 3
ĠJohn son
opt ion
Ġwissenschaft lichen
ĠIll inois
ĠMathemat ik
ĠDipl omat
S PD
v ents
ĠB alk
ĠP anzer
Ġl ayer
all as
Ġcon figuration
Ã¤r ten
ĠMar burg
Ġ9 9
ĠAre a
w as
Ġf arb
us k
Ġp assen
ĠSt unde
Ġr ide
ĠRe quest
Ġex amples
Ġunter r
leg entlich
hÃ¤lt nisse
> )
B ay
t x
Ġb ist
ing t
get B
ĠBer atung
Ġges ellschaft
Ġstud io
Ġreg ional
ĠDaten schutz
orge ous
icien cy
v as
Å Ł
is tern
ĠL Ã¤nd
Ġman ual
ĠPr int
ons erv
sh ot
ĠMin i
ĠLu c
emb ly
ĠInn sbruck
Ġanim als
( _
B M
B O
S earch
Ġd ou
Ġd ipl
ĠN OT
od ox
Ġle ather
Ġreg istration
Ġmost ly
ĠNor mal
Ġann ot
> ()
l ik
z ern
Ġf ot
ĠH ope
sch rank
ĠR al
ĠAl though
ĠPol ice
Ġ189 3
Ġhost ing
ĠEngine ering
b rand
t oken
it ro
ĠB il
ĠP ul
Ġein geb
ĠG all
ĠC oll
ik as
Ġst one
th aus
ger Ã¤te
Ġle aves
hen de
ĠAus gang
Ġ5 3
Ġtra ce
Ġ: )
ĠBes etzung
stra ÃŁen
Ġ189 4
ĠKn ow
ĠWar en
Ġsett ings
ĠTemp el
O st
o ire
ol s
ul ate
esch oss
ĠAr men
ob j
gel s
ĠBau er
akt oren
Ġtrans action
ĠSchn eider
Ġkind s
Ġverst orben
ĠMad rid
ĠVerÃ¶ffentlich ungen
ĠAng st
ĠVict or
D ire
n oten
r us
v ia
Ġt ab
ĠM essage
ĠL or
ĠL ad
ĠN ation
Ġde te
cy cle
ĠHand ball
ĠHil fs
Ġpaint ing
Ġleader ship
e per
p ra
ĠB Ã¼r
st atus
Ġp urs
Ġh os
ĠT ool
Ġer mittelt
ct ural
eb urg
ste ine
An merkungen
Ġra ised
ĠVerb esser
ĠRegion en
Ġmar riage
ĠTem plate
Ġappear s
ĠAbgeord neten
Ġverhinder n
ĠItal ian
S uper
j or
Ġ ^
Ġf unds
ĠB ath
ĠR av
ack er
ĠOr ch
ĠFl Ã¤chen
ĠGra ph
off set
Ġsho es
AT A
ĠKais ers
index Of
Ġestabl ish
Ġflow ers
ĠPerform ance
ĠCanad ian
) -
k ern
ch i
Ġb rown
ĠM u
Ġ( ;
ĠK lagen
Ġbe grenz
Ġde ck
ĠĊ Ġ
lie gt
be am
fahr ts
Ġverb rachte
Ġfl ight
ĠVers and
fra gt
ĠBra un
Ġcommit ted
ĠerhÃ¤lt lich
Pe ter
ĠS ynchron
de fault
ĠF our
Ġth us
Ġwor ry
ĠBer nd
ĠAlb recht
ĠCor ps
Ġdefin ed
ĠGraf schaft
zep te
ĠGriechen land
B en
ĠE ff
ĠR ug
ĠJ ord
ow e
ver lÃ¤ss
sen de
ĠFre ist
Ġimport ance
ĠFil ter
Ġvisit ing
Ġveh icles
umin ium
a ver
ar ks
st amm
ĠD issertation
ĠR ess
ĠO d
St iftung
Ġcomp rehensive
Ġbes aÃŁ
old s
En tw
Ġother wise
ĠHel m
riter ia
A pril
Ġt end
Ġf rem
el be
Ġn u
Ġn ennt
Ġc ute
sch wer
inz ip
Ġschw eren
AL L
Ġprocess es
far be
S uch
or ough
te en
le ts
ĠB och
ĠT un
Ġein getragen
la ut
ĠZ ul
Ġver trat
Ġcomp are
ĠGes ang
Ġra w
Ġperfe kt
Hand lung
anc en
Ġpres ence
Dat ei
Ġintrodu ced
Ġexcl usive
ĠunabhÃ¤ng ig
C ommand
is burg
Ġis ol
ĠEr m
Ġdo ctor
aw n
Ġserv ing
h es
in yl
or ter
an isch
ĠS endung
Ġc os
Ġc ry
Ġre form
ag on
Ġsp Ã¤ten
ĠWe ber
Pro f
ĠFre ien
ĠMan fred
ĠVerb reitung
Ġgar ant
ĠAlt ar
Ġbisher igen
Famil ie
Ġlux ury
- /
Ġa w
Ġs orgt
re land
ĠT rieb
ist rÃ¤ger
Ġre aders
Ġge grÃ¼ndete
ive au
ip end
20 20
Ġbes etzt
Ġ6 6
stell te
Ġgu ess
ĠDire kt
trÃ¤ ger
Ġrestaur ants
Ġtrotz dem
Ġhous ing
Ġchines ischen
Eng ine
Ġingred ients
P aul
v ard
ĠL ust
ĠL inz
Ġbe zeichnete
ĠV og
ĠSch ei
Ġaus reich
ĠAn wesen
Ġme ant
ĠBe f
Ġum ge
ner stag
Ġcomp la
Ġbo at
Al t
ĠAs ian
wohn er
Ġspiel ten
Ġbra ucht
Ġoffen en
ĠMex ico
C S
w irtschafts
al i
ĠA achen
ĠD ark
ĠK il
ĠK itchen
ĠW Ã¼r
Ġver anst
ĠVer anst
Ġunter scheiden
Ġ6 2
ĠEx p
ĠWelt meister
Ġhier bei
ĠVerb rauch
Ġoption al
ĠSupp ort
achst um
dire ktor
E G
J anu
P G
X ml
a ktionen
k w
Ġa ctions
ĠS ac
le ute
Ã¼ ÃŁ
ĠL ag
qu elle
Ġaus fÃ¼hr
Ġnach halt
Ġrec o
Ġfamil iar
ĠNieder lage
ĠMitglieder n
ĠMehr heit
Ġpark ing
Ġkathol ische
National mannschaft
Ġw inning
ĠB lan
Ġc ir
ĠD ollar
ĠF F
gr Ã¶ÃŁe
ĠFl ucht
Ġspe zial
Ġthere fore
bereich e
ĠRu hr
gorith m
g ow
l Ã¶s
or r
ĠS auer
Ġzu g
ĠCh am
sel ves
ĠNational mannschaft
Ã³ w
Ġcontin ued
EC T
Ġmanufact uring
Ġelekt ron
urren z
K rit
ch a
on line
or ry
Ġm outh
ĠW ik
ĠSch ach
ug ies
Ġvor gestellt
Ã¤ch er
Ġange hÃ¶r
ĠGrund stÃ¼ck
ieb el
iate ilnehmer
K o
Ġw Ã¤hlen
ĠSch all
ĠAn bieter
ĠVer eine
Ġab gesch
lass ung
St affel
Ġlang sam
Ġkey s
ĠBel gien
A kt
I O
re ht
Ġm ine
ĠA ster
ĠB am
ĠW y
Ġl ayout
ass ung
ly n
Ġi P
ĠRe de
teil te
yste men
inter est
Ġdis app
irt ual
EN D
ĠGleich zeitig
Com parator
reu ung
Ġgriech ischen
ĠHug o
Ġfeder al
or ney
ĠÃ¼ber nehmen
ail ability
ĠÃĦ gyp
jÃ¤hr iger
ĠInstit uts
ĠDis ney
ĠAlt stadt
Ġpattern s
Pan el
ĠTay lor
A pi
F ailed
an bul
ĠP ots
Ã¶ nen
ran e
iz ens
tern oon
ĠNe ur
Ġbeen det
ĠWelt meisterschaften
hel ms
Ġ188 8
gestell te
ĠpreuÃŁ ischen
ĠBuchst aben
H ein
T our
p atch
Ġv illage
ĠM iddle
Ġz er
ĠW ars
ĠN ar
Ġreturn ed
ĠSh ort
setz er
Ġsl ot
ĠFil mp
ĠEp isoden
Ġbestehen den
Nov ember
J Ã¤hr
h ou
n ieder
or ded
Ġm ale
ing ly
Ġv oc
ak on
Ġapp s
ĠOn ly
ĠWei ÃŁen
Not Found
ĠAutom obil
Ġ 00
Ġa th
ĠA le
ĠB ag
ol ph
ĠT ode
ĠG Ã¼
ĠV alue
ip her
ĠOr den
cl ar
Ġerw artet
ĠSk y
Ġshow ed
Ġspecific ally
Ġverst arb
Ġverkauf te
Ġdig it
ĠUnabhÃ¤ng igkeit
S pieler
o es
w Ã¼rd
Ġf uhr
ĠM ol
ic ian
ad r
ĠSt ill
Ġfor mal
Ġoff izielle
ĠUS B
ikan er
unkt ions
ĠFrie dens
ĠDon au
stre cken
ĠKolle gen
Ġproper ly
Ġdeutschsprach igen
H S
P RE
ĠF la
ĠRe isen
ĠSie ben
ĠAb out
Ġ7 2
Ar beit
ĠGeb rauch
Ġ188 5
Ġcho ices
stant in
Ret urn
ĠflieÃŁ t
ie ht
Ġm ort
Ġ( ),
ĠH op
Ġer l
Ġam b
ĠAr k
erk ennung
Ġqu iet
Reg ion
Sep tember
ĠBronz emed
R ock
S ome
T er
b ein
h art
Ġa st
Ġs ink
Ġm essages
ĠD ok
ĠK ost
ĠH als
and e
Ġk ick
ĠAus stattung
reis en
Ġher unter
pro perty
Ġrec ommended
Ġange zeigt
Ġgef ert
Ġwicht iger
ĠOl denburg
ĠKÃ¼ ste
ĠAndre w
Ã§ ois
E very
È Ļ
Ġc utting
ĠT ower
ĠI nde
Ã¶r ungen
out s
alt ar
werk en
ĠFr iend
ĠFÃ¼hr er
Ġoffiziel len
Ident ifier
ĠPenn sylvania
b ett
f ranzÃ¶s
p ie
an ie
Ġm ental
Ġver tra
Ġwar um
ip edia
ord net
Er gebnisse
ĠEl iz
Ġworld wide
Ad apter
Ġref le
Ġpoln ischen
Ġdescrib ed
ĠBist um
ĠJos Ã©
N atur
i Ã³n
Ã ª
Ġs uff
Ġn ennen
Ġh Ã¶ren
ĠP el
ĠK ul
hen den
ia c
Ġnot es
Re chts
Ġ0 1
Ġro ute
fahr zeug
IN ST
oth ing
ĠBo y
Loc ale
ĠHei z
F iles
H inter
ĠS yr
Ġn ine
ĠM Ã¼hl
ĠC hen
me ter
Ġfun ctions
ĠProf ess
Ġbuild ings
ĠLebens mittel
riter ien
ĠMult i
C ap
k ar
u ber
ĠS ort
ĠM A
ĠR he
Ġer gibt
od ies
Ġor g
geb lich
Ġmy ster
Ġkomp lex
ĠDi Ã¶z
Ġthough ts
besch reibung
ĠMill iarden
Ġupd ates
as ant
Ġthe oret
ĠN avy
we iler
ile t
Ġstatt finden
Ġval u
ĠDort mund
Ġsozial e
ĠpersÃ¶n lich
ĠMail and
ĠExec utive
at ische
an ia
st ufe
Ġc aught
isch Ã¶
ĠN R
ĠO ze
ĠEr Ã¶ffnung
Ġsp ann
Ġlie be
Ġges te
ĠWei b
ĠEing abe
Ġreco very
M ilitÃ¤r
er a
ĠM ember
ĠP ur
ĠE arl
um ps
ap est
Ġ18 00
ĠAl te
ĠAus zeichnung
ges ell
Ġsc ript
Ġander es
Ġphot ography
Ġengl ische
Ġreach ed
Digital isat
h Ã¼ter
re gel
re ffen
ĠS ummer
ur ies
ic ans
Ġadv ance
ĠBur gen
ĠMey er
Ġaccessor ies
B uch
E E
R oman
al ition
Ġe ar
Ġc ells
sch uhe
est and
ĠSp ann
Ġsp lit
fol io
igh ter
ĠUm bau
ĠCl ient
fÃ¶rder ung
ĠTrain ings
W ill
a ult
Ġp ump
ĠV inc
In stitut
ho e
ĠOr ten
hÃ¶r igkeit
ĠPh ase
ĠGroÃŁ teil
Ġsom ew
ĠBre mer
Ġricht igen
Ġappear ance
ĠHit ler
Ġthe ory
ĠB Ã¼nd
ĠD ating
ĠG ot
um es
ak et
ile y
ĠHe ktar
Ġqu otes
fin ed
Ġverb indet
ĠOff izier
OR T
Ġsign ed
cont ent
ĠAkt ien
ĠPhys ik
ĠLink ed
ĠRaj on
K l
r s
r uss
Ġa u
Ġb aute
ro g
st op
Ġp latz
ĠK Ã¤mp
ĠAn im
Ġsch lecht
Ġsp anischen
Ġget ragen
ĠGeb iete
ĠMark us
Ġlat ein
Ġconc entr
n ischen
z ert
Ġt mp
ter t
Ġh arm
Ġver teid
ph il
stell ig
Ġpla ys
Ġbo ys
AC K
ĠGeorg ia
ĠSen ior
Land kreis
Zw ischen
I X
S ein
Ġp oll
ĠC ass
Ġl ived
Ġauf treten
get Property
ail and
ma ÃŁen
Ġrem ains
Ġersch einen
Ġocc up
Ġeduc ational
Ġumfass te
ĠZus atz
ĠWhe ther
telligen ce
ĠWag ner
P al
w Ã¤hnung
ch nen
Ġs in
he il
Ġe ating
Ã¤ fte
ĠPr ivate
ett ing
Th rowable
jahr en
Ġcr is
ĠRu he
ĠModer ne
Ġunivers ity
ĠVerÃ¤nder ungen
J ava
Ī Ĵ
Ġd ut
on ne
ĠT ony
ĠR auch
ber uf
ĠThe atre
ĠPro test
ĠAuf nahmen
ĠCo ast
Ġsecond s
forder ung
opp el
ĠRuss ian
Ġadvert ising
Olymp iateilnehmer
Ġd ates
et ime
Ġge Ã¤ndert
Ġst yles
Ġ5 9
Ġ7 00
Ġany where
ĠPolitiker in
With ServiceResponse
Pr im
Ġjapan ischen
mosph Ã¤re
Ġaccomp l
usal em
WithServiceResponse Async
A F
S ince
w ords
ĠM ie
Ġ20 22
od a
ĠBe hÃ¶rden
Ġ6 3
ĠAt om
Ġsur ger
ĠIde as
Ġfeature d
Ign ore
S L
T L
h ops
un ting
us hed
ak u
sp ur
Ġcomp l
Ġ6 1
ĠUnter richt
Ġgr id
ĠOber flÃ¤che
ĠBundes ver
Le ft
Ġtechn ologies
fre ie
ĠAcc ount
cep ted
Ġagre ement
Ġincred ible
fortun ately
starts With
C L
Ġs ympt
ĠG anz
ĠEx press
ĠFre der
ĠBes ter
ĠTra g
bau te
ĠPf ad
con stants
ubs cription
Ġricht ige
col umn
ĠpersÃ¶n liche
ĠFle isch
Ġemer gency
bour ne
J apan
ĠD ick
im i
ĠL ern
ĠDie go
Ġho tels
ĠMÃ¼n chner
ocol ate
Ġwissenschaft liche
Ġverste hen
maÃŁ nahmen
Ġbrow ser
Ġneighbor hood
k Ã¼ste
m issions
Ġt arge
or able
ĠG ipfel
Ġl ights
Ġk inder
Ġst ars
Ġunter wegs
ĠBr enn
ĠBl ues
Ġdort igen
ĠFot ograf
ĠGed ichte
lehn t
Ġjem and
Î ±
Ġp il
Ġein deut
ĠG ouverneur
ĠH Ã¼gel
id i
Ġver fasste
ĠBr ian
add All
ĠDire ct
Ġpresent ation
Ġep isode
ĠSchlag zeug
Ġbein hal
F rie
k Ã¼nd
n el
p in
Ġg lob
Ġne arby
ĊĠĠĠĠĠĠĠĠĠĠĠĠĠĠĠĠ ĠĠĠĠ
Pro xy
Ġben ch
Ã¤nder te
stag ram
ĠGed enk
Ġallow ing
Ġbrand s
ĠMagaz ine
Ġst unning
Ã¶r g
ĠKon zentr
ĠTr ier
ĠYou Tube
ĠX X
Ġbesch lossen
Ġcal endar
Ġ188 2
ĠKo operation
K at
f Ã¤l
ĠB uck
Ġh all
Ġj ack
Ġsp ending
Ġen ded
ĠPr Ã¼f
Se e
ĠKÃ¼ sten
Ġrepr Ã¤sent
isc ons
ĠMass achusetts
Ġlau tet
Ã ĥ
ĠD ampf
ĠF els
ĠR ap
ĠV ide
Ġr uh
Ġun tern
ok es
ud ing
Ġinter face
Ġrem aining
ĠFel ix
ĠCre ate
ĠPak istan
Ġdisk ut
ĠHÃ¶ch st
B it
T est
i ang
ĠA sh
ĠB iele
am ework
ĠF Ã¼nf
Ġein s
et enz
ĠSt aff
ĠAn alyse
ĠCh ance
fe ature
ĠMar s
Ġcl imate
Ġgreat est
ĠGew erbe
aun a
Ġconcern s
ĠRun timeException
z lich
Ġf ach
ers dorf
Ġst ack
ĠAn gabe
Ġch osen
Ġsc ope
Ġgeb lieben
Ġcre ation
Ġocc asion
D ig
V I
Ġin tr
Ġp reis
Ġp utting
Ġc ultural
ĠK Ã¶r
ĠV ent
ĠEn vironment
ĠUnter schied
ĠGeb iets
Ġdel icious
Ġhistor ical
ĠBed Ã¼rf
Reg istry
State Exception
Ġinj ury
h Ã¤
o ir
Ġf aster
ĠW end
ĠH ave
ĠV ill
ĠEr ster
Ġex ternal
ĠSe a
ohn t
lan ge
Ġges und
kl ar
ret ung
Ġbring ing
Ġmen u
ĠDav is
ĠAbgeord neter
Ġzuf olge
Ġhous es
Ġkor re
K Ã¶nig
M T
b ound
m lich
Ġf uel
Ġn annte
ĠM d
ĠP av
Ġl istener
ĠZ DF
Ġ3 000
Ġdies mal
ens us
ĠÃľber sicht
ĠOff en
Ġ189 2
ĠKr iminal
ĠSchriftsteller in
ĠSzen e
Mill is
ĠWÃ¤r me
ĠCharlot te
P ers
R est
u is
Ġw alls
us se
Ġan lÃ¤sslich
eb ens
ĠSe en
los ed
Ġacc ident
Ġ187 4
gÃ¤n glich
B re
h aven
i able
l itz
ĠA x
ĠM assen
ĠI reland
ĠJ am
ot ton
Ġst ir
ĠZ iele
our cen
ell es
ap i
get Instance
Ġsch uf
ĠAus bildungs
Ġste igen
ucht ung
Be fore
ĠVerein igung
unn y
Ġextens ion
Ġenh ance
ĠP ader
Ġan imal
Ġge legt
ĠSt ach
ĠSt ab
bar er
ĠQu art
Ġag ent
ĠsÃ¼d westlich
Ġgest alten
ĠMo z
ĠBilder n
Ġcla ims
Ġmass ive
Ġdep th
ĠKup fer
w eb
Ġf ellow
ro st
ro ph
ĠG ru
ĠG att
âĢľ -
En gl
ĠAll en
ĠAs pe
Ġ187 9
Ġnational e
ĠJes u
ĠerÃ¶ff nete
cep ts
ĠÃĦnder ungen
ĠPac ific
I H
M iss
W rapper
Ġ upper
ĠB ull
Ã¤ ÃŁ
ĠT ai
ĠK abin
if act
ik um
tr im
ern ame
ĠLe h
amm ern
Ġbeg leitet
Ġur ban
Ġpo et
Ġmanufact urers
Ġqualif ied
M any
X ML
a ine
Ġm ess
Ġv ote
ig ers
ĠSch we
for ce
ahl en
ĠGemein schaft
Ġ188 9
Ġbegann en
198 9
ĠSm all
ĠLat ein
ĠPers pekt
Non Null
S ARL
a al
m ans
ĠS imple
Ġf oll
ĠD C
ĠP y
ul ated
ĠV ene
sp l
pr ene
ĠGe gend
ĠBr ust
ĠPol icy
Ġmin or
Ġklein eren
ĠSing ap
ĠErk rank
Ġprem ium
Ġposit iv
Frank reich
K unst
k ind
k olle
ĠP seud
ĠG un
Ġr ental
ei he
aus bildung
Ġsch m
los ure
ĠVor bild
Ġdeliver ed
ĠÃ¤ltes ten
ĠGiov anni
S ow
W A
h at
i op
Ġm anner
ro ot
ĠT ransp
ĠH ild
ĠOb last
ĠVerb indungen
ĠRes erv
ĠIntern ets
Ġexist ieren
Ġask ing
ĠRog er
G C
o ÃŁen
er ten
Ġc ounty
Ġdes ire
be cken
ĠNor wegen
rich ts
ĠWerk en
Ġerfolg reichen
ĠEis hockey
Ġelect ronic
IV E
ĠVen edig
Ġsurround ing
ĠSyd ney
b ay
or ff
he w
Ġm ent
ĠE mer
ĠR oth
Ġan geschlossen
men te
ust on
ĠAus bau
ĠAll tag
ĠEurop as
ĠGrund lagen
Ġfl u
iam i
DE FAULT
Ġbeh aup
Ġsearch ing
Ġscient ific
Z eich
Ġt at
ĠB arn
ĠF A
ĠL och
ĠL iving
op her
Ġres idential
ĠHand werk
Ġmin i
ĠBro ad
ĠCla ud
Ġpromov iert
Ġslight ly
/ *
F est
M ai
U ri
k Ã¶nig
m ade
p ommern
z ellen
Ġt utor
ĠF ox
ind ungs
ĠSp ur
auf nahme
Ġdar um
stru ctor
leit en
Ġeinfach e
mÃ¤ÃŁ igen
vier tel
commer ce
Ġro ut
br id
ĠUm gang
tes ten
Ġdefin ition
Ġmat hemat
R Ã¶misch
g age
und et
ĠB uffer
ĠD al
ĠK linik
Ġbe er
Ġan zu
Ġge zogen
we et
ok ing
Ġsch aff
ast rop
ĠEin en
me te
ĠCh air
Ġtr aten
ĠAnd ers
Ġfact or
Ġed itor
Ġfund ing
Ġther apy
Auth or
Ġaf ternoon
Tod ay
U C
V ert
o ter
p es
w idth
ar isch
Ġf ly
ĠR Ã¶m
and t
Ġ5 8
ans ion
gesch Ã¤ft
ĠFre ude
ĠGer Ã¤t
rol og
ĠGew erk
Data Type
ĠPeters burg
K inder
it able
Ġb at
ra f
ĠSch mer
tr itte
Ġex tre
be hÃ¶rde
ĠUp date
Ġleit et
ĠErweiter ung
H P
s he
in formation
is or
ĠA er
ĠL ed
id ays
lic ations
ĠPr ior
ivers ary
olle yball
pro v
ĠUnivers itÃ¤ten
ĠCon gress
Ġdec isions
He ute
Ġ189 1
Ġ188 7
Ġ186 6
Ġbro ken
Ġcompet itive
urren cy
ĠSar ah
r ische
Â ½
Ġs ac
un fts
ĠB uff
Ġh ieÃŁ
ĠP R
Ġy esterday
ĠUn ser
19 80
ens burg
Ġget Ã¶
Ġup coming
ĠspÃ¤ter e
Ġcall ing
ĠSouth ern
ĠCast le
ĠBronzemed aille
re ifen
our i
Ġ18 75
Ġcomp let
Ġra pid
ube hÃ¶r
Ġmajor ity
ĠBon us
ĠstÃ¤r ker
D i
W ell
ĠH ess
all iga
Ġsp aces
Ġges ucht
Ġtechn ischen
ĠAss oci
forder t
Ġlead s
contains Key
Ġlands cape
ĠMinn esota
NotFound Exception
K W
an teil
ĠM obile
ĠD ream
ĠK orea
sch iffe
Ġge langen
ĠIn g
Str u
Ã¤l der
ĠStud ent
Ġakt iven
Ġbreak fast
Ġ187 2
best and
stud ium
ĠLÃ¶ wen
ĠAth en
fÃ¤ll en
Ġexpla in
B I
B ra
c ohol
ĠB ein
ĠH rsg
ĠV iz
Ġex tended
Ġam t
Ġdr ivers
ĠsÃ¼d Ã¶stlich
Ġ188 1
ĠAmts zeit
gre es
ĠWissenschaft ler
ĠschÃ¶ nen
Ġfil ms
Ġmittler en
dat um
ĠIntegr ation
ĠKrank heit
A gent
Q U
f els
y ard
us ing
st ore
Ġp ink
ol ver
ĠT ree
ĠF ans
ĠW ilson
ĠH aupts
ok us
igt es
legen heiten
Sp ace
war ded
ĠZe hn
ĠGott fried
Ġbro ther
ĠOl iver
Ġmatch es
Ġopt imal
Ġans Ã¤ss
Ġgeboren e
Ġhundred s
D ay
Ġv ent
ĠG T
Ġg orgeous
ĠC P
ĠN erv
Ġsie b
ph ones
ĠNach folge
Schwei z
Ġconvers ation
E ach
z ing
at eway
Ġw Ã¼n
ĠS ite
ĠK Ã¤r
Ġz Ã¤hlte
Ġab ges
Ġdurch aus
Ġour selves
str umente
Ġ188 6
ynast ie
B as
st yle
Ġst Ã¤ndig
ru ption
ĠDe f
fer ences
ĠBl umen
Ġhin ten
ĠMann heim
ĠJer usalem
Ġarchite cture
in de
ĠM S
ĠK leine
get String
Ġres ume
app ed
ĠMus ter
ĠPhil adelphia
ĠNatur al
ĠAllgemein en
ĠEntste hung
Ġmagaz ine
iscons in
Q UE
t ax
Ġd okument
Ġt om
ĠS eminar
ĠG ard
ĠE uch
ĠW arn
se y
lie ger
lo be
tw och
Ġher um
Ġ8 8
ĠKohl en
hoch schule
ĠOrganis ationen
at ible
Ġm ac
Ġge e
ert al
Ġvor wiegend
Ġfe e
Ã¤hl er
RE E
Ġown ed
Ġteil nehmen
ĠWohn zimmer
ĠHerr n
ĠIr land
fÃ¤h ig
Fr ame
Ġdunk el
ĠHaw ai
ERR OR
Ġzuk Ã¼nft
Ġn ar
la uch
Ġver ab
up le
Ġad j
Ġte levision
ĠY es
Ġ7 6
man ager
amer as
Ġ14 0
Ġmus ical
Sie g
ĠColle ctions
wor fen
iction ary
ĠhÃ¶her en
ĠKomment ar
strahl ung
Ġsurger y
n isch
Ã ¦
Ġw et
ĠS ams
Ġb ike
Ġv ital
Ġn ative
ĠW ellen
ĠL uther
ingen ieur
ĠJun ior
Ġshe et
Ġsign s
ĠPort rÃ¤t
Array List
Ã¨ s
wh ich
Ġdog s
Ġallgemein en
ĠKlost ers
Ġverur teilt
I LE
h ome
ĠS ache
ĠB oth
st ritten
ĠF unk
ĠSch uld
ĠIn spir
geb ieten
port al
fÃ¼ll t
Ġadmin istration
ĠDenn och
ĠGirl s
ĠNiederland e
S ymbol
u ine
Ġa gr
re uth
ĠI terator
ĠN u
ow o
gen cies
sp h
ĠVer stÃ¤nd
Ġgen ieÃŁen
ĠTra vel
ĠMin ute
ĠHoch schul
ĠWahl en
Ġcr usher
Ġzentr ale
Ġunbek annt
a a
ie ck
or o
Ġf ixed
Ġf ruit
ĠD ein
ĠH alt
ĠR ats
ad i
ĠEr richtung
Ġen able
zahl ung
Ġheraus gegeben
sprÃ¼n glich
Null able
Ġorganis iert
Ġdistr ict
Ġvac ation
Ġt iny
or ganis
ic us
ĠL yr
Ġth ick
Ġan swers
Ã¶ff net
Se lect
Ġhin ein
ĠAnt i
verb indung
Ġsil ver
Ġbatter y
I ter
L auf
T erm
W ien
f ot
Ġp ure
Ġh ire
am o
ut ors
ĠK ategorien
ĠL iv
Ġre put
iz za
Ġ" /
Ġar ts
Ġmag net
Ġdamal ige
itar re
Ġwes halb
ĠInf os
Erster wÃ¤hnung
ĠInfanter ie
P rÃ¤sident
r Ã¼stung
t ario
ĠĠ Ċ
Ġs ud
ĠE P
em an
ab geordneter
Ġj son
ĠAn st
ast ik
geb irge
Ġout standing
amil ton
ĠBr uch
Ġrec over
bes itzer
ĠMittel punkt
sw ald
Ġbef ind
Ġbef Ã¶rdert
ĠfÃ¼nf ten
ĠCor poration
Ġproced ure
Amer ican
' .
l ate
y o
Ġd b
Ġc urr
ĠD uring
ĠP u
ĠP ool
ĠV ul
qu em
ĠNe use
li as
Ġpick ed
Ġprovider s
waren ess
H alb
Ġt ile
or er
ĠS ten
Ġb order
ĠG ord
ĠK openhagen
ank a
Ġlo ans
ĠFass ung
Ġzentr alen
Ġlic ense
Ġopin ion
c our
l isten
n chen
Â ³
Ġ Ã¤ndern
Ġin vent
ĠF ed
Ġto ward
Ġver teilt
Ġaus dr
Ġ" ,
Einz el
lex ikon
Ã¤tz t
yr ight
Ġlo op
ĠMeister schaften
Ġ186 7
ĠGeschÃ¤fts fÃ¼hrer
Ġvorhand enen
Ġarr ived
Ġs itting
ar ent
ar gs
un checked
el en
ro it
Ġp ussy
ĠR au
ĠC irc
la red
ĠZ auber
Ġum gebaut
me chan
Ġbes uchen
Ġel imin
Sch ule
Ġser ial
abr Ã¼ck
Ġperfect ly
Ġsuccess fully
Ġcla zz
CD U
ĠAud io
C an
b Ã¶
Ċ Ċĉĉĉ
ĠS qu
Ġv ieler
Ã¤ ck
isch t
Ġre volution
lich em
lie hen
off s
Ġgu ter
Ġakt ual
Ġappro ved
ĠStraÃŁen bahn
Ġdur fte
Ġdiscover ed
ĠPremier minister
Ġinfluen ce
M art
b indung
m acher
Î ¿
in ations
Ġd Ã¼n
re h
ĠD id
ĠP ict
Ġg ern
ach ter
ĠSt Ã¼cke
ĠPar ks
An t
ĠKon f
Al so
ĠKl ang
ĠSk ulpt
Ġ186 1
Ġfit ness
ĠTher apie
Ġfeed back
Ġflex ible
B ag
f loat
n abrÃ¼ck
r ischen
Ã ¯
Ġe ast
ĠG n
ĠC ase
Ġun bedingt
Ġcon crete
sen der
ĠSp itz
oc ation
Ġgew Ã¼nsch
arr ier
ĠGraf ik
ĠSpring er
Ġamerikan ische
ĠIst anbul
Wer degang
Acc ording
ĠOption al
Ġencour age
F lag
Ġt ast
ĠM ind
ĠM uss
ĠG h
ĠH amm
Ġbe ar
Ġr ender
Ġab gest
Ġch airs
ĠPr Ã¼fung
Ġfe els
Ġbeg ins
Ġra ise
Ġeigen er
Ġtechn ische
deck te
minister iums
Ġwei ÃŁen
leb te
Ġbege ister
Ġlern te
K A
T emp
V u
] )
a ber
i ors
ur st
Ġ1 15
Ġst arten
olog ien
Ġtro cken
ĠClass ic
ĠWehr macht
Ġlok alen
ĠAben teuer
p th
ĠF alle
ĠVer g
Ġso fa
ĠSp Ã¤t
Ġvers etzt
por ter
urs or
Ġmach ines
mÃ¤ÃŁ ige
Ġ188 4
ĠVe gas
Ġzeit weise
Ġcelebr ate
Ġvirt ual
ĠNeust adt
Ġgespe ichert
A c
B oot
ĠB Ã¶r
Ġh yp
Ġbe at
ib ilities
ĠVer fassungs
Ġch ron
Re p
Ġwo oden
Ġwould n
Or iginal
Ġchar akter
Ġfre und
Ġobject s
ĠSil ver
ĠDis ziplin
Ġfour th
Ġcook ing
ĠmÃ¼nd et
ĠPfar rei
ĠBres lau
/ >
D istr
S w
all eng
ĠAn lass
etz ungen
par ks
ĠNach wuchs
ĠFor der
aw ay
ma jor
bild ungen
ĠRo hr
atÃ¼r lich
weis ung
Ġpur pos
Ġfunktion iert
ĠAstron om
it as
ĠB atter
il st
st ens
de lete
sch ung
amp s
Ġpre gn
ĠBr idge
ĠDorf es
Ġconf idence
Ġzie mlich
Ġgelegen e
MA X
Ġverbess ern
P M
T itel
c enter
f ue
m or
Ġd t
Ġb an
le ep
Ġf inn
Ġin fe
ĠF u
ĠF an
ul in
Ġge h
men ge
ĠAn z
get X
ain less
ĠNe xt
ole c
Ġ[ ...]
fre ien
Ġwhe el
des ign
Ġruss ischer
ĠLÃ¼ beck
ĠAnth ony
G H
O ktober
Ġ ).
Ã¼ re
ĠM ade
ĠP A
ed ing
ĠC her
uch er
Ġst retch
Ġr ise
Ġwe aring
iz ona
Ġad s
Ġins ert
haus e
ĠKr one
ĠHam mer
ĠInternational e
anc ouver
Log ger
Ġmanufact urer
Ġcommit ment
ĠMagaz in
ĠVarian te
( ...)
t al
an alyse
ar ischer
il ation
ĠG il
out ube
Ġ6 8
ĠGesch windigkeit
ĠGemein sam
Ġevery day
ĠÃĸ k
ĠInter ess
Ã¡ s
Ġhold s
ĠgewÃ¤hr le
ĠEliz abeth
O F
en ters
ĠM aschine
ĠR ow
Ġge legentlich
ann els
th en
ĠZ ell
Ex p
Ex tension
act or
Ġph arm
bau en
198 1
ĠZe aland
Ġconf lic
ĠGef Ã¤ngnis
Ġfund ament
ĠAcc ording
Ġdistrib ution
ĠGÃ¼n ther
ĠAltern ative
ĠEns emble
A tt
H R
M aler
N ote
st atic
Ġp asst
ent liche
ĠK ay
ĠK ino
ĠH ind
sch ild
ul ing
Ġk Ã¶rper
qu alitÃ¤t
ĠEr ic
ĠIt aly
ĠUm fang
schie de
ĠBundes wehr
Ġgood s
ĠGroÃŁ herzog
Ġ188 3
ilen ame
Ġpurch ased
Ġbestehen de
Abst ract
C up
j amin
le ft
ĠB ald
ĠB anken
ĠG ur
ĠN SDAP
Ġer geben
Ġk aiser
ĠSt one
ang o
ĠSp irit
Ġent lassen
az itÃ¤t
Ġbel ief
the ater
Ġ186 9
ros se
Ġ187 6
ĠWissen schafts
Pos ted
ĠP ut
ĠH agen
ot ions
ts eite
ust ic
ungs gebiet
ĠTe en
ogra pher
ĠMon ats
ĠBed arf
Ġsug ar
ĠmÃ¶ glichen
Jul i
G ET
M er
Ġb atch
Ġm Ã¼s
Ã¤ mm
ent h
ĠV f
if est
Ġpro min
ĠFor est
Ġra il
fr ies
ĠBl u
ĠKunst stoff
Ġtrans ition
ĠCom ic
ĠCamp us
Ġrecogn ized
ĠSpre cher
" ),
n ames
Ġt ight
Ġv ary
Ġp apers
ĠD unk
ĠC ond
Ġk ing
Ġme x
ark e
Ġunter gebracht
ĠOr th
ĠHe art
Ġgen annte
ĠGeb ieten
Ġpol icies
ĠKÃ¶l ner
ĠPfer de
Ġcandid ate
Entw ick
ĠÃĦgyp ten
INST ANCE
b b
ĠM esse
th al
ĠAb d
ĠGesch mack
ĠUm feld
Ġerreich ten
ĠNorth ern
omet imes
Ġhold ing
bÃ¼rger meister
Ġclin ical
ĠendgÃ¼lt ig
ĠgrundsÃ¤tz lich
gesell schaften
c all
v ideo
in v
Ġs essions
re iter
ĠS ul
ĠT ry
Ġex port
ĠEin er
AC T
ĠMat rix
AS E
Ġverl Ã¤ng
ĠhÃ¶ here
ĠRena issance
ĠS ed
ĠB h
ĠT R
ĠE g
ĠH at
Ġat mosph
etz ten
Ġ+ +
Ġ6 9
use ums
pro ble
br onn
Ġfin de
ĠPh oto
ĠBl Ã¤tter
iven ess
ĠDes igner
book s
angeb ot
D est
D enk
M useum
R o
u ers
Ġb ond
Ġn avig
ĠT oy
ĠR ober
Ġl ust
ĠO m
ĠÃ¼ber setzt
lin ed
ĠBe ispiele
Ġacc ounts
Or ts
kehr t
ĠSÃ¼d afrika
ush ing
Ġbr ill
ĠJugend liche
Ġnord Ã¶stlich
Gener al
ĠStock holm
Ġconsum ers
Ġdynam ic
S H
p op
ĠL angen
Ġsh ut
ĠBer ge
zeug ung
ragen de
Ġref lect
Ġimpro ved
herr schaft
Ġzeit genÃ¶ss
Ġhinz uge
ixt ure
Ġinstr ument
kÃ¼rz ung
E qu
F OL
j ournal
w eiter
Ì Ī
it ate
ĠS z
ig ran
ĠK oll
ĠW Ã¼rttemberg
and al
Ġver boten
ide t
ĠPro t
Ġbes ucht
lan ze
Ã¼nd en
sh ips
zeit schrift
Ġ< /
ĠAll es
Ġpass word
Ġcle arly
ĠEm ail
ĠPlan et
ĠKat alog
ĠWochen ende
Ġkur zer
ĠBot an
frei heit
Ġple asure
ĠHei de
Ġcaus es
Ġschwed ischen
M ost
or p
âĢ ĭ
ĠK Z
Ġl unch
Ġdes pite
ver g
Ġr iver
ĠIn stagram
Ġex cept
ĠBe fehl
hal ter
ĠLe o
Ġ6 7
ĠGesch w
Ã¤nger ung
Ġbr asil
198 8
Ġorgan ic
Ġtyp ically
ĠHin weise
Ġcloth es
ĠBuild ing
ĠgetÃ¶ tet
{ }
ĠT HE
ĠE sp
ĠC R
Ġk la
Ġun w
Ġwar ten
Ġvor der
Ġhand elte
Ġmod ische
ĠJu an
ĠBi ograph
Ġbew usst
Ġnord westlich
frastru cture
ĠSzen en
ĠColor ado
Ġguarante e
P erm
c olle
en cy
Ġf ing
Ġin tended
ĠW art
ĠSt ich
Ġzu gÃ¤nglich
ste ig
Ġj oint
ok u
ĠEr furt
In itial
ĠSie gen
Ġtr ial
Ġmehr erer
tem peratur
Ã¤ch te
Ġgr und
ĠSte phen
ĠAd vent
Ġgleich er
ĠFahr t
schn itte
ĠBern ard
ĠKe vin
ĠInnen stadt
ĠIllegal StateException
ĠergÃ¤n zt
stechn ik
vertre ter
k ommand
he ber
Ġan g
Ġan gen
Ġse gment
ĠWe is
eld ungen
ĠFahr rad
ĠschlieÃŁ t
ĠÃ¤l tere
Mus iker
Ġmeas ures
M Ã¼n
Ġm ur
ĠT rom
ĠT auf
ĠF itness
ste t
Ġhe iligen
Ġle ichter
etz te
ĠGe fÃ¼hl
Ã© l
ek te
Ġ) ?
ĠSÃ¼d west
ĠVert rieb
ĠTer ror
Ġangeb racht
Ġofficial s
Ġimplement ation
lieder ung
ĠEntfern ung
ĠBiele feld
K omp
S ocket
t age
Ġs ad
Ã¼ ft
ĠP ic
ĠAr z
ĠDe ad
19 18
Res ources
ĠTour ismus
Dies es
vis it
Gener ator
exec ute
ĠPots dam
ĠPader born
g roÃŁ
w ird
z ed
al is
Ġb attle
ĠD ig
ĠSch Ã¼l
rie t
ĠTh ree
mit tag
ĠInd ones
ival ent
Ġ186 8
Sh ort
ĠMont ag
Ġbem erk
Ġschedule d
ĠHT ML
ugu ay
Janu ar
K e
R ight
k as
o a
es ents
ĠB ou
ĠT onnen
ĠG ymnas
Ġl yr
ĠN C
ĠVer dienste
Ġle gen
ungs s
ĠPro perties
per iode
fe uer
Ġlie ÃŁen
igkeit s
Ġsk ip
ĠRechts anwalt
hÃ¤ng ig
ĠKe ep
Ġrespons ibility
ĠSn ow
ĠKonfl ikt
ĠLew is
. '
A ustr
D av
p unkten
re chnung
st reit
de cke
ĠP unk
la p
Ġde grees
ĠDie trich
ĠAus fÃ¼hrung
ĠAb stract
sh ow
vers orgung
Ġfun ny
Ġem ph
ĠDar aufhin
Ġeinfach en
ĠdÃ¼r fte
Ġseem ed
Ġautomatic ally
M ath
i pt
k anz
ĠE va
ĠH ut
ĠL em
Ġver letzt
Ġr id
sp lit
gr at
ĠAl ben
ĠAus zeichnungen
mp el
ĠSchw anz
Ġrec orded
ikan ischer
gew inn
pf lanzen
Ġbre ath
Ġsol cher
code d
Ge ografie
Ġmonth ly
ĠBereich e
Ġatt ached
ĠMun icip
ĠBM W
Ġconstant ly
Ġmedic ine
c ers
v et
on ic
it als
ĠG ieÃŁen
ĠSch icks
fe hlen
ĠAuf tritt
ĠGes icht
ron ik
ĠWelt cup
co der
ĠFr ucht
ĠChrist us
Ġmin im
ĠProf essional
Ġfest ival
Ġunser es
Ġdefin iert
ĠSol ar
ĠRegel n
Ġjeder zeit
ĠPass ag
ĠSchiff s
Ġbevor zug
bereit et
ĠNikol aus
alleng ing
k B
ĠR ainer
ĠL okal
Ġl aufen
Ã¶ scht
Ġan sonsten
Ġ} ;
Ġget roffen
Ġ0 5
ĠHaus halts
Ġhouse hold
Film schauspieler
Ed ge
Ġmount ain
Ġenth us
Constra ints
I l
R ender
S M
b ringen
Ġd ick
Ġt ur
Ġe hren
im age
ĠG a
ĠL orenz
Ġbe we
Ġk irch
od ge
Ġcon ver
ĠTh ailand
tra cking
Ġgar age
Film titel
Ġattra ctive
ĠSing les
Ġgraph ics
V ideo
Ġa id
il iate
ĠF iction
ĠK un
ach es
kt oren
ah a
Ġj oy
ens ed
geb oren
ĠMar io
Ġ0 4
ital ien
ĠKommand o
ĠViertel finale
ĠSpan ish
Ve ctor
Ġurkund lich
ĠTi rol
ĠDoug las
j ahre
s rc
Ã¤ ts
ic als
ĠI C
ĠW ird
Ġer stellen
Ġfor med
Ġwe isen
ac o
auf nahmen
Ġ9 8
Pro gramm
spieler in
Class Name
ĠÃĦ hn
198 4
ĠEinwohner zahl
ĠProm otion
ĠNomin ierung
O h
S an
f angen
Ã¼ ch
Ġc raft
ĠF lieÃŁ
ĠW under
ĠH ang
ier mark
ĠRe kord
ĠVer arbeitung
ĠVer zeichnis
ĠAr gentin
De lete
ĠzurÃ¼ck gegeben
ĠÃľber blick
lÃ¤ uter
ĠFr Ã¼hl
Ġvis ited
tag on
Pr ess
Ġequ ipped
ĠEv ents
Ã¤u den
ĠSom it
Ġinstit ution
Ġdepend ing
Ġappreci ate
Ġbeinhal tet
H Ã¶r
N C
W ird
i oren
or um
Ġein heit
Ġz ul
Ġg olf
Ġbe her
ĠJ ar
Ġy ellow
ĠZ usÃ¤tzlich
ĠRe aktion
ens is
igh ten
licher weise
met hode
Ġ186 5
Ġ187 3
ĠEis hockeyspieler
prÃ¤ senz
Ġwid mete
ĠMathemat iker
ĠWass ers
fÃ¶rm ig
ĠNaturschutz gebiet
ĠÃľberg ang
zust and
Ġprin ted
e ister
w eiten
Ġm ont
ĠA dresse
ĠK ann
ĠR oland
ow itsch
aus o
Ġsch Ã¼tzen
Ġch arm
ĠPro cess
ob jekt
ĠAb stand
ond iss
ĠPf alz
ĠDo zent
198 7
Ġhard ware
SI ZE
J SON
Ġf o
ĠB BC
ĠM inder
ĠG abr
ĠK h
Ġto ugh
ĠC ott
kt ive
ei ro
qu ir
par atur
Ġsh ift
gesch Ã¼tz
ict ions
ider s
Ġdec ades
ĠReich es
Ġzun ehmen
Ġorder s
ĠIns besondere
Pr iv
Ġober halb
ĠPsych ologie
ĠExper ten
beg inn
rupted Exception
Ġpurpos es
n ic
s d
Ġt ube
al om
Ã¼ se
Ġre ichen
Ġde cre
In v
ong s
Ġte a
Ġ0 9
gl ing
Ġger inge
Ġmin imal
ĠVerb ands
wend ungs
Ġlov es
EL D
ĠBud apest
ĠDokument ation
Ġprakt isch
Ġlif estyle
Ġhil ft
Arg uments
Ġbenachbar ten
H C
ĠF abrik
Ġk illed
art ikel
Ġat tributes
ĠDe fault
19 70
ĠCh annel
ĠOb ama
ĠHand lung
ex pected
Ġem otional
Ġpass iert
ĠDo ktor
ĠTechn ischen
Ġsupport ing
Ġfood s
Ġenter tainment
Ġrepr esents
Ġpriv acy
Dat um
Ġeffect ively
ĠEind ruck
es heim
le uchtung
Ã¼ pf
ĠB enn
ĠN ationen
ĠSch enk
ĠDe leg
als o
Ġapp end
ĠWerk statt
Ġschn eller
Ġair port
Ġport ugies
ĠFreund in
ĠEreign isse
ĠlÃ¶ ste
merksam keit
Kompon ist
Frie drich
ĠB ibel
ĠP ad
ĠI ron
ber ry
Ġan sch
ĠO ran
ĠSch au
ial en
Ġwill ing
upp orted
Ġ7 7
hand lungs
Ġgesch Ã¼tzt
Ġdisc ount
ĠMor itz
Ġ186 2
Ġgel b
ĠKompon isten
Ġid x
ifiz ierung
ĠKapit Ã¤n
a ire
ĠM es
Ã¤ sten
ent ity
ĠP as
and o
Ġres olve
old t
bo ot
Ġpl Ã¶tz
Te il
Ġclass room
ĠCl oud
198 6
dienst kreuz
Ġident ified
ĠErw Ã¤hnung
ĠverfÃ¼ gen
sb urger
Ġgraph ic
ĠÄ Į
ĠLÃ¶s ungen
Uns ere
ĠSchott land
ĠKurfÃ¼r st
d ung
m iss
on te
ĠP i
ĠK Ã¼r
ĠZ ucker
Ġch allenging
Ġsh ares
Ġhas h
ĠHe x
Ġbut ter
upp e
let scher
Ġbre iten
spr uchs
hol der
Ġmain ly
ĠRÃ¤ ume
Ġkont roll
Ġmil k
Ġappe ared
ĠDÃ¶r fer
L ebens
v iel
or ders
an ing
ĠD afÃ¼r
ic ultural
sch Ã¼tzen
uf er
ĠJ son
ĠJ ubil
Ġfor ec
sp iegel
ĠVer z
ĠGe legenheit
Ġtra il
pro ject
Ã¼t ter
Ġmod ule
hol ung
ilome tern
ham mer
Ġident ity
Ġexec utive
Ġbefand en
ĠOs nabrÃ¼ck
Jahrhund erts
Ġ{} ",
ĠKandid aten
? )
P air
e ist
t im
he ater
le utnant
st age
ĠM iami
Ġc art
Ġst imm
id x
Ġr ies
ĠIn se
ag ram
pr esent
are l
ĠIm per
ĠVor stellung
Ġvers uchen
ĠCon f
spr Ã¼che
hol en
Mod ule
deutsch land
ĠKo ordin
ĠVal id
Ġparticip ate
Ġzuf rieden
Ġsuppl ies
ĠGlock en
k al
ĠF red
Ġk ompon
od ie
iz ist
âĢľ ),
los igkeit
ĠFor ts
fahr ens
Se curity
Ġstand ing
ĠLie bes
Ġcur ren
Ġhon or
ĠDenkmal schutz
Ġdescrib e
ĠAutob ahn
R ou
y an
Ġa rab
ĠA ge
Ġp ed
ĠE tw
op Ã¤d
Ġun less
sp olitik
Ġme at
Ġunter lag
Ġte x
ĠVor bereitung
Ġlie fer
Ġlie fern
wer tet
Ġinterest s
Ġoffen bar
IM E
Ġintegr iert
ĠHalb insel
ĠLes er
Med ia
entry Set
onom ie
ĠEigent Ã¼mer
ĠverstÃ¤r kt
S n
W rite
y ou
Ġf f
Ġf Ã¼hl
ĠK ub
ul der
ĠN O
ann y
own ed
Ġgew eiht
Ġpre fix
Ġpl ate
ĠRes ponse
Ġbeste hend
ĠBra z
ĠTechn ologie
ĠGo ethe
ĠFer r
sm ith
OD O
C LASS
L ab
S onst
r atic
s end
Ġs ides
ĠD ocument
ĠP ho
Ġer folgen
Ġst Ã¤rk
sp reis
Ġne ur
ĠSp uren
ens wert
ĠEin stellung
Ġus ual
St ation
Ġ9 00
Ġdel la
ĠDu isburg
ĠÃ¼bern immt
Ġexhib ition
Ġinkl usive
ĠHig hl
M otor
f ill
č ĊĠĠĠĠĠĠĠĠ
er am
Ġh Ã¤ngt
Ġein gew
ĠR ie
ĠL isten
ĠC it
ĠJ ens
ier endes
Ġr is
Ġ18 15
Ġ18 30
19 75
Ġent f
ĠTh or
amm elt
Str ateg
Ġgen et
ĠÃľber w
Ġreal ize
ĠNieder Ã¶sterreich
ommer ziel
ĠGu ard
Cont roller
ĠCont act
ĠFin ancial
Ġwoll ten
Ġunters ucht
ĠSchlaf zimmer
Ġbon us
ĠKlagen furt
ĠB ran
st rÃ¤ger
ĠV illage
ver letz
ĠZ unÃ¤chst
af Ã©
ĠAn erkennung
Ġqu er
ĠVor teil
Ġ12 5
ĠMus ical
ĠHin weis
V om
f ers
er ed
Ġa fr
un nen
Ġf ir
Ã¼ chte
ĠT unnel
ĠF as
Ġy es
Ġnew sp
Ġ0 8
Ġgen e
ĠChr isten
ĠRes te
ĠSk i
Ġpolit isch
Ġaccess ible
ĠBad minton
gef angen
ĠPra kt
ĠKant ons
ĠAp othe
ĠMaler ei
Ġspeziel le
ĠLOG GER
ĠGÃ¼n ter
ĠExt ra
ĠRumÃ¤n ien
clar ation
6 00
B R
E nde
H il
p red
Ñ ı
Ġc erem
ĠR olf
Ġer leben
Ġan fangs
ĠSt att
ap shot
hal f
Ã¶n t
Ġges agt
Ġsupp orts
Ġtechn ique
ĠAt mosphÃ¤re
Ġcar ried
Ġsw imming
Ġtest s
Ġimpro vement
Ġcloth ing
ĠDien ste
H ar
l iteratur
un ks
Ġm ature
ĠT ank
Ġg un
Ġbe zieht
ein heiten
Ġge fallen
we ar
Ġsp ir
Ġsh ops
ĠGr iff
Ġfe es
ĠFre il
ĠAd ler
Ġstand s
Ġschw ere
ĠBel g
ĠschlieÃŁ en
Ġconf ir
Ġmot ion
Ġdeb t
tl ere
ĠAufent halt
imens ions
Ġfoll ows
F ind
Ġw omit
ĠJ eder
Ġk Ã¼rz
ein st
ĉĉ ĉ
pro jekt
ĠNe uer
ĠNe ues
Ġ8 7
ĠQu ery
ĠSpiel s
ĠMin eral
Ġmin ing
Ġend s
Ġrelat ive
Ġlink ed
Ġpres ents
Ġgelang te
Ġparticip ants
Ġple ased
bra un
Ġschwar zen
ĠVertra gs
k ommun
s Ã¤tze
y ll
on ed
Ġs alt
an al
Ġv ul
ĠG ross
all o
ĠSch nee
Ġ3 50
Ġ0 7
Ġtr ends
cl uding
Ġsow eit
Ġ16 0
ĠRes erve
Ġerfolg reiche
Ġ187 7
ĊĠĠĠĠĠĠĠĠĠĠĠĠĠĠĠĠĠĠĠĠĠĠĠĠĠĠĠĠĠĠĠĠĠĠĠĠĠĠĠĠ ĠĠĠĠĠĠĠĠ
bu ilder
idel ines
Ġpers pective
Ġassess ment
ĠNap ole
Ġgren zt
BevÃ¶lker ungs
c am
Ġd az
Ġt olle
ĠP ick
ĠH inz
ĠC ell
Ġer richten
Ġwh om
ĠDe kor
Ġzum eist
stit ute
pre chen
Ġ186 4
Ġbestand en
Ġschl ug
Ġperman ent
ĠArr ondiss
F ollow
U se
h Ã¤usern
p ur
t ask
w irt
Ġa chten
af en
Ġ18 40
gesch ichten
bo y
mat ik
Ġerw arten
Ġfre edom
Ġvoll er
ĠAth let
ĠAc ad
Ġinstru ctions
jen igen
H am
N etwork
P T
Ð ´
an cing
ĠB alt
ol id
ĠH enn
ĠH amilton
ĠR och
ĠL ov
ir r
ist ungs
Ġk ennt
ĠO hne
ĠZ o
Ġat tended
ĠAl an
20 21
Ã¼nd e
cl ing
att an
ĠFre md
Se cond
arch ie
ĠPl ant
Ġgrow n
ĠKauf mann
ĠFort sch
ĠEben so
ĠAtlant a
Ġtal ent
Ignore Case
H O
S chn
Ġa wareness
Ġt asks
un ters
Ġo h
ĠD allas
ĠW Ã¶rter
ĠC ob
ĠSch atten
sp lan
Ġreturn s
iss a
Ġges prochen
Ġdire kte
Ġletz tlich
ĠPart ners
ĠSal es
Ġpat io
Ġhistor ic
Ġeff iciency
197 6
ĠAutor in
ĠZuf luss
ĠProgram me
Ġimpress ive
prÃ¤sentanten haus
Ġappoint ment
B U
C lick
Ġa ges
ĠS end
ĠB arb
Ġ( :
ĠR up
ĠL av
ien ne
ib ution
Ġle isten
ĠEin kommen
Ġvor ne
ipp i
ĠSpe icher
stoff en
Ne u
verein igung
Ġworks he
Ġverkauf en
ĠFeder al
ĠEnter tainment
ĠJahrzehn ten
K n
Ġo s
ĠE C
ra hmen
ul er
ach ment
Ġk Ã¼nd
och em
ĠAus wirkungen
ĠNe ck
Ġges p
other lv
ĠPaul us
ĠKap itel
Ġiss ued
ĠDis c
ĠPrinz essin
ĠUms atz
ĠInternal SARL
Ġaccur ate
B Ã¼
L et
M al
S ER
ĠA ar
Ġ( ).
Ġ18 49
ĠHer zen
Ġ% .
ĠBar ock
iges etzt
Ġdisc ip
Ġkommen den
ĠBew ertung
ĠTyp s
ĠRein hard
ĠCons ult
ĠAust ausch
Ã¤dagog ik
ĠMedic ine
Stack Trace
Ġcollabor ation
ĠZent imeter
ĠDrit tel
pap ier
endo ktor
c ell
k ing
ĠM iller
ĠN ag
Ġver an
ĠPro tocolMarshaller
Ġum stritten
ĠMit tler
ĠGr Ã¶ÃŁen
Ġ13 0
ĠGemeinde gebiet
arch itektur
Ġerw eiterte
ĠWer be
Ġgel ungen
Ġsil ber
ĠLux emburg
Ġpromov ierte
Ġanerk annt
ĠGreg or
ĠKath arina
Ġvalu able
(...) ");
E p
G S
Z e
in ent
ut able
im on
ĠH ed
ĠH ills
ĠN y
Ġan al
ĠAn sicht
Ġhe aring
ian er
geb iets
Ġfe hlen
Ġdr ugs
Ġ' "
Ġange passt
ex ception
ĠHier bei
Ġturn s
Ġposition s
ĠHeer es
G l
b ist
k ow
Ġm ob
ĠT u
ĠK ids
Ã¼r tel
ĠSh ang
ĠBut ton
ĠVerw and
198 3
Ġtyp ical
LO C
Ġtradition ellen
Ġzwe ier
Ġintegr ated
abil itÃ¤t
Ġbrow se
ĠDir igent
ZX J
Ġadvent ure
ĠWeib chen
j ar
ĠS ale
ĠD ak
ĠL ob
ĠL aden
Ġfor um
ĠSch aff
Ġhe ft
Ġle hn
ĠSe henswÃ¼rdigkeiten
rÃ¤ gen
oh ne
Ġbef est
Time out
ĠKirchen gemeinde
Ġstat istics
Welt meisterschaften
Ġleben s
ĠsÃ¤m tliche
Ġgefert igt
K ap
R l
Ġd rit
ĠB urn
Ġp in
ol ine
ĠK und
ĠW isconsin
Ġg al
ĠL izenz
ĠV ision
Ġver arbeitet
ĠAn meldung
Ġum s
ĠSe g
Ġtra ined
Ġ7 1
Ġ7 4
ĠkÃ¶n ig
ace ae
ĠGeb Ã¤udes
Ġger iet
ĠWh ere
Ġcolle cted
ĠFil men
ĠHar vard
druck t
scheid ung
Ġstamm te
Ġintrodu ction
ĠAuss age
ĠLeg islat
Ġcabin ets
ĠRis iko
Ġreve aled
ĠJord an
F R
J oin
i u
v arian
ĠP le
ĠH Ã¤
ĠC ore
Ġl agen
ul ous
Ġaus gebaut
fahr ten
ĠSpiel tag
Ġhand ler
ĠÃľber nahme
Ġac cepted
Ġfre ige
IT E
ĠMo on
ĠursprÃ¼n gliche
Ġmass age
C ustom
Ġd ialog
Ġch icken
ĠÃ¼ber all
ĠCh ile
Ġ8 2
Ver w
Ġmach ten
ĠUr ban
pre uÃŁen
ĠRec ord
Ġrequ ested
Ġkanad ischer
ĠSchlieÃŁ lich
ĠQual itÃ¤ts
Z one
b Ã¤
d ner
f unction
re lated
ĠB ry
Ġre ar
ĠAn trieb
ĠVer k
Ġle gs
ip eline
ss ystem
ook ie
Ġwel chen
ĠSpe kt
Ġcert ified
Ġfail ure
ĠDrehbuch autor
ĠÃ¤uÃŁer st
ĠAnh Ã¤nger
P AT
Ġin ne
ĠF I
ĠG uts
Ġk it
gel Ã¤nde
auf gaben
rÃ¤ umen
Ġger inger
Ġrece iving
ĠRy an
Final e
Ġsympt oms
( @
F ree
P N
c ue
d ro
k ov
Ġ ~
ĠB ird
Ġh idden
ĠG oth
ĠE cke
et on
ib l
ĠAuf merksamkeit
Ġ9 6
ble ib
lieÃŁ en
ĠMal ays
Ġfound ed
ĠÃĦ m
Ġevent ually
198 5
Ġ185 8
ĠDat abase
Ġredu ziert
ĠOp ern
ĠjÃ¼d ische
ĠSchwar zen
ĠAdmin istration
Ġkauf te
r Ã¼
w inkel
Ġt aught
ĠF ollow
ĠW i
ĠV ikt
Ġle tt
mal en
ĠBer ater
Ġqu ote
Ġalle ine
ĠBr ut
gesch lecht
Ġgr Ã¼n
ĠPh arm
ĠEx istenz
Ã¤tz ung
ĠGu y
ĠÃĸsterreich ischen
Sh ow
Ġconsider ing
ĠSa al
Ass ign
mir al
erkl Ã¤rung
? "
B undle
D okument
L AN
M Ã¶
ro vers
Ã¶ ger
ul ator
Ġge laden
gen ossen
ĠEr wer
ĠAr ena
ac ious
pl us
Ġgest orben
ĠDon nerstag
back tracking
Ġflo oring
ĠHerr scher
Ġpubl ish
Ste p
ĠTschech ien
F B
Ġ å
ch ens
Ġd ental
te e
ĠM az
ĠD ance
Ġz ero
ĠC atholic
ĠJ r
Ġge he
enn zeichnet
Ġen han
ĠAus gaben
ĠLand s
Ġber u
ĠEl f
Ġcons ists
[] )
Ġben annte
Ġless ons
ĠKrieg sende
Ġern annte
ĠIndustr ial
ĠerklÃ¤r en
bro chen
ti rol
Ġpropos al
Process or
ĠSum me
Ġerlang te
T ro
w ing
Ġt ells
Ġm s
ĠT am
ĠG au
ĠC ann
Ġl anger
ere cht
Ġj ener
ant in
lic ated
19 33
Ġent re
tell ers
Ġbo ost
leg ate
zahl t
Ġac id
Ġperform ing
ĠAndre a
Gr und
Dat abase
Ġanc ient
J o
K Ã¼nstler
r Ã¶
Ġe g
ĠM aj
Ġc and
Ġc ategories
Ġan alys
men s
Ġes c
Ã¤n glich
Ã© d
ĠAd dition
gew Ã¤sser
ĠInd iana
Ge org
Ġsur prise
Ġ186 3
Ġequ al
film ung
CO L
ĠTre ffen
bre chen
Ġenc ounter
Fl ug
ĠBu y
Ġklass ische
ĠEvangel ischen
ĠMem orial
ie gs
ar film
Ã¼ ÃŁe
ĠB ody
ĠP RO
ĠR ange
ab len
eb au
ĠEr klÃ¤rung
ĠAl uminium
tel finale
fe ktur
ĠPr ix
Ġlie ben
Ġber aten
Ġdire kten
ĠVers orgung
Ġur i
Ġcreat es
ĠSen at
197 9
ĠWal ther
Ġlik es
Ġvari able
Ġregular ly
ĠBrun o
ĠAlk ohol
ĠP osten
Ġbe wegen
ĠZ one
se kretÃ¤r
sp ring
Ġsch eiterte
Ġ3 60
ĠÃ¼ber zeugen
19 39
Ġunter scheidet
Ġnoch mals
ĠQu ell
ĠMan uel
ĠOn tario
ĠDr am
Ġgef angen
ĠTest ament
ĠEmp fehl
Ġwirtschaft lichen
wechs elt
ĠVerteid igung
ĠAdmin istr
ĠerfÃ¼ll t
ĠNeuse eland
L INE
W ar
f uÃŁ
č ĊĠĠĠĠĠĠĠĠĠĠĠĠĠĠĠĠĠĠĠĠĠĠĠ
ĠP az
ĠF reis
ĠW Ã¼n
sch te
Ġer laub
pp elt
op ing
ĠAr izona
ĠBe fore
fol gs
Ġdar stellen
Ġdar stellt
ĠEx c
Ġknow ing
ĠTr end
âĢ¦ .
Ġbl ow
Ġfest gelegt
Ġcare fully
Ġconf irm
gress ive
Ġcra zy
Child ren
Ġerheb lich
Ġm Ã¤cht
ĠB auch
Ġc um
ĠE ver
ver lauf
ĠAus stellungen
dem okrat
(" \
ĠGesch Ã¤ft
Th anks
ĠGeb ir
let ten
Ã¼t tel
Ã¡ r
ĠSer ge
loc ation
ĠAf ghan
**** ****
frist ig
ĠGesam tw
Ġprincip les
Ġstopp ed
valu ation
b uf
d ies
f ound
Ġp ic
ĠM aus
Ġc able
ĠD etail
ĠF ellow
ĠH ain
ĠL uk
Ġk Ã¼nft
qu art
ĠAl f
fe ier
tra ce
Ġtra cks
Ã¤l te
ĠSta ates
ĠAll gemeine
ewe gung
iner y
Ġdel ay
Ġ> >>
Ġbra uchen
ĠKompon enten
Ġjapan ische
Ġausgest ra
Disk ografie
FOL LOW
B und
B ig
ĠS low
ĠS ysteme
Ġm orgen
Ã¼ ten
ĠF ame
ĠH altung
ĠN assau
la de
ho fer
row s
Ġlie genden
Ġspe zif
Ã¶l be
ĠBen jamin
Not ification
Ġmatch ing
Ġcirc um
Ġhund ert
Ġintens iv
ĠDub lin
Ġproced ures
ĠM Ã¼hle
Ġ1 14
Ġg ifts
Ġbe it
ĠV II
ĠJ oh
hl on
ĠWe iler
Ġgesch lagen
ĠMon ument
Ob j
Ġsupp osed
Ġinv ited
ĠPra ct
famil ien
Ġevangel ischen
Ċĉĉĉĉĉĉ ĉ
ĠKu gel
wir ken
Ġfavour ite
BevÃ¶lkerungs entwicklung
A uÃŁer
h Ã¤l
p g
an ch
as sten
Ġc arbon
ĠP lattform
ĠF ont
ĠR eit
ĠR ain
Ġg rad
ab schluss
ok omot
Ġex ists
ant on
lic a
ĠMan chester
ĠTr ust
ĠKl ub
ĠAmer ika
ĠAt trib
Ġorder ed
ĠLin ux
Ġdi am
ĠIhr es
Ġhol te
Ġverm eiden
ĠMult ic
Ġinform iert
ĠMeer es
Ġerm or
ĠWahr heit
Ġorigin ally
ĠGlaub ens
ĠgÃ¼nst ig
ĠbeschÃ¤d igt
W ei
t ree
Ġb undes
Ġm ic
el ry
st ahl
Ã¤ p
ĠW at
Ġbe quem
ĠJ Ã¶rg
Ġch ief
ĠSe ver
Ġ8 3
ER S
ĠTra de
Ġcomm ission
Ġsol o
pre c
Ġorgan ized
yd ra
ĠKomp lex
ĠRegierung schef
ĠDisk ussion
Ġpropos ed
Ġcondu cted
Ġstellvertreten der
Ġtroub le
Ġhos ted
F ull
h d
l ach
l ier
l enz
n isses
z ut
Ġa part
ĠA cker
Ġn erv
Ã¤ hne
ĠD ass
ĠP iet
om on
ĠW ach
ĠO il
Ġun gewÃ¶hn
Ġspe ech
Ġfol ks
Ġset up
ĠfÃ¼hr enden
reg on
grÃ¼nd en
ĠHow ard
Ġprogram me
ĠLeip ziger
Ġredu z
Ġdeb Ã¼t
Ġausgew Ã¤hlt
Schwei zer
ĠInner en
shaus en
M ENT
m utter
on de
ge legen
ĠA uge
ĠB lau
ĠT iefe
ĠW ester
os c
ik te
pp ers
urn iture
Ġum f
ĠSe gel
iss ippi
pla re
ĠStud ios
Ġpost ing
ĠMay be
ĠAustr ia
Ġtw ice
Ġinform ieren
loc al
ĠbenÃ¶t igen
Ġak zept
Ġverwende ten
ĠĠĠĠĠĠĉĉĉĉ ĉĉĉĉ
Ġnut rit
Ġbess ere
Ġcit izens
, '
m os
v ements
z uge
Ġs oph
ĠT an
ĠG ert
Ġal cohol
Ġge lesen
Ġst abil
ĠâĢ Ļ
Ġ18 78
Ġum gesetzt
Ġnot iced
ĠCh a
ĠChrist ine
ĠAss istent
Ġoper ate
Ġspec ified
Ġredu ced
Ġchem ical
Ġgradu ate
ĠRÃ¶ mer
ĠDet roit
ĠMerk male
Ġcompar ison
ĠErinner ung
ĠHoll and
ĠLein wand
d oc
g asse
m Ã¶glich
Ā Ā
Ġf asc
ĠW inkel
ĠH unde
Ġer e
ier re
qu et
Ġpro xy
Ġor ange
Ġnach gewiesen
19 20
ian ischer
St a
Ġgew Ã¶hn
De zember
Pro p
entr um
Ġhier fÃ¼r
Ġverb lieben
Ġfl ash
ĠParis er
ĠEben falls
Ġged reht
Ġabger issen
A lex
u ages
in ne
ĠM all
ĠK ore
Ġbe wohn
Ġth orough
Ġfor ces
Ġab hÃ¤ngig
Ġat om
je cted
Ġph ase
wer ben
ced es
fa ction
Ġsign ature
Ġkeep s
198 2
Auf grund
lÃ¤uf e
ĠSieg fried
Ġumfang reiche
ĠMarg are
Ġstaat lichen
C ost
b te
f and
Ġs erb
al ters
Ġe cht
ĠB ug
ĠM D
am tes
ĠP ersÃ¶n
ĠG lass
id met
iel en
op ran
Ġvor genommen
Ex tra
ĠAuf ruf
ĠFl orenz
ĠKon text
ĠAnd ere
ĠChrist i
ĠTre ffer
ĠBru ce
sequ ent
Ġinstit utions
Ġbeeinfl usst
K ind
Ã¼ ÃŁen
Ġh alt
ĠP ersÃ¶nlichkeiten
ĠI gn
ĠJ ay
ver hÃ¤ltnis
ĠAn wendungen
sp unkt
gr Ã¼n
Ã© g
Ġfe ierte
Ġvers ions
Ġbre ite
esse e
Ġbig ger
cont ainer
ĠBrun nen
Ġaffe ct
ĠÃĦr zte
Ġverwende te
redential s
Ġath let
H igh
P ay
V O
he iz
ĠS ide
ĠS ession
ĠD est
ĠG umm
Ġbe achten
Ġth reat
Ã¶ he
Ġk r
Ġme al
19 30
Ġent ries
Ġ0 2
gend es
Ġverb esser
AT O
Ġsk ill
ĠRegion alliga
Ein wohner
Ġcover ing
Ġfac ing
Ġed it
ĠDi agn
zir ke
Ġele ction
ĠKommand eur
Ġfertig gestellt
! "
P op
e ber
g ments
k ette
Ġv intage
Ġc ro
ĠD I
ĠD orn
ĠF res
Ã¶ tt
ess ing
ĠZ Ã¼ge
af ter
âĢĻ ,
ĠSe ele
ĠEn joy
Ġ7 9
li ess
uk i
ĠBet on
Ġgl ad
haupt stadt
Ġrule Jvm
ĠSilber medaille
penden cy
Ġincor por
ĠRett ungs
ĠVerbesser ung
J ugend
Ġa gencies
Ġf ishing
ĠB enz
Ġp ill
ĠE R
ĠIn schrift
Ġat temp
out put
ĠPr ime
berg s
inn ers
Ġpl anned
ari at
sport ler
Ġlet ters
196 8
ĠSen ioren
ĠEmp ire
rÃ¤n ke
zus etzen
ĠSpr ung
Ġsav ed
ĠGabr iel
2 50
F i
P ersÃ¶nlichkeiten
W eiter
Ġt ub
Ġc red
Ã¤ g
ra ut
ess a
Ġst il
Ġj un
amp a
Ġro ugh
Pro jekt
esh old
Ġstru ctures
ĠmÃ¶ gliche
Ġproduz ierte
fir ma
ĠBundesver dienstkreuz
% .
T F
r ennfahrer
Ġ( _
sch les
ĠR ome
Ġan grenzen
Ġso ul
ome ter
Ã¤n zer
land schaft
ign et
ike a
Con verter
ĠFre unden
Un ser
ĠDr ive
ĠReich stag
Ġgener ated
ĊĠĠĠĠĠĠĠĠĠĠĠĠĠĠĠĠĠĠĠĠĠĠĠĠĠĠĠĠĠĠĠĠ ĠĠĠĠĠĠĠ
ĠKer am
ĠHoff mann
ĠLear n
Fra uen
Mich ael
! âĢľ
I tems
M ont
x i
ĠA cht
ĠM ix
ĠD aily
sp itze
ĠVer y
Ġle gt
Ġwas h
ren ner
onn ull
ek ing
Ġfound ation
Ġmember ship
ĠStat istik
ĠBot schaft
FI LE
ĊĠĠĠĠĠĠĠĠĠĠĠĠĉ ĠĠĠ
ĠÃĦnder ung
Ġdetermin ed
J es
h ent
k rÃ¤
r unden
ie ber
Ġge lingt
qu ote
Ġ5 000
Ġfe hlt
ĠGesch enk
iff s
Ġgesch ieht
ĠAmer icans
ĠKn ochen
Ġgest artet
Ġextra ct
PAR AM
ĠNahr ungs
Ġdou bt
B rand
N LS
Ġf ell
ĠM ort
ĠP ont
ĠE ier
ĠK orn
Ġz one
ĠV ancouver
ĠJ en
if ikation
ĠSt ars
aus chen
res te
ĠEx pedition
ĠGold medaille
196 5
ĠEhe mann
ĠDec or
Ġwid ely
Option al
ĠKan al
ĠPop ular
ĠunterstÃ¼tz te
nehm ung
nehm ern
Ã¶p fe
ĠNiederland en
ĠVerantwort ung
ĠAspe kte
M o
T ok
b in
c ut
j son
ĠS ix
Ġp or
ĠM etz
Ġc lock
ĠF unction
ul iert
ou is
th at
Ġ" '
du ate
ĠFl Ã¼sse
ĠNe ug
ĠIS O
ĠOff icer
ĠMÃ¤n nern
lÃ¤nd ern
Ġworks hop
iller ie
ĠKind heit
Ġemploy ee
Ġblock s
ĠSyn ag
ĠVerl ust
national spieler
ĠGit arr
ĠBoch um
I st
S imple
ĠS erb
Ã¼ chen
ĠB auten
Ġc ake
ĠP ear
ĠF inger
Ġr um
pe ction
ĠDie t
Ġor th
ang le
ute te
ĠFran Ã§ois
Ġgr atis
ĠQu ality
Mit tel
ĠWh it
ĠInter pret
Ã¼l le
wor ld
Ġwichtig ste
Ġresource GroupName
ĠUs ing
verstÃ¤nd lich
Ġschwar ze
Down load
ĠSchu bert
Hinter grund
Ġschaff te
ĠVerstÃ¤nd nis
ĠArrondiss ement
) ).
D am
D etails
S aison
b art
k ol
k ommt
m ember
al teten
Ġb ab
Ġm ixed
us ste
ĠA ur
ĠM ul
ĠI owa
ĠL ith
ĠL uz
Ġzu verlÃ¤ss
ne uer
ĠCh ange
ĠMar in
ond a
Ã¤hr en
ĠVor stands
Ġ7 3
min der
ĠOber liga
Ġchar ges
Ġzahl en
Met ric
kr ise
ĠÃ¼b lich
ĠJob s
ĠFass ade
Ġaktuell es
Wel come
D ivision
b ur
w ass
à ¸
Ġd iss
ra it
Ġz ogen
Ġl ady
iv ia
ĠSt ick
ik eln
Ġis lam
ĠU C
Ġcon v
oun ge
Ã¤hr ungs
ott a
Ch ain
Ġsupp lement
Ġsign al
the t
Ġfile d
ĠKreis es
ĠfrÃ¼h ere
ĠFert ig
cycl op
Po inter
ĠKaffe e
ĠRuh estand
O ther
b ring
d l
z o
en ix
Ġt all
Ġw ies
Ġn Ã¤chst
ĠD NA
ure au
reat iv
aw s
)) )
ĠAnd erson
ĠArbeit geber
ĠCon c
fa iled
ĠMittel meer
mus ter
ĠMitarbeit ern
Ġruss ische
Ġfrei will
ĠJac ques
ĠTown ship
ĠstÃ¤dt ischen
ĠRug by
F ebru
G L
U l
l abel
p ay
er ie
ĠA y
ĠP s
ĠF uture
ĠK ai
ĠR Ã¼
ein richtungen
ill o
qu ality
ĠVer sch
ĠUn it
ia e
19 78
Ġbes tellen
Re port
ĠPr ince
Ġro ten
Ġsub stant
ĠWohn haus
ament o
ĠSol o
Ġcap able
How ever
ĠEth n
ĠAnz eige
N onnull
h au
ĠS ri
ĠB orn
ĠK ader
ĠR ent
ĠN BA
Ġst im
Ġr umÃ¤n
ip ts
ĠSie ge
ĠPr ice
ĠVor les
Ġmehr mals
Ġspe aking
ound ing
Ã¤nger in
Ġkon stru
Ġcr ime
ĠKÃ¼ chen
Ġmeet ings
ĠCap ital
ĠRep ubl
Ġbeob achtet
Dom ain
Cert ificate
L uther
c n
es tet
is st
ge mÃ¤ÃŁ
Ġm oral
ĠM indest
Ã¤ nen
ĠT ask
ĠG ent
Ġk ommerziel
Ġauf w
ĠSch re
Ġwar n
âĢĻ .
19 60
ĠUnter richts
ĠVor teile
pro zess
Ġbest immen
lag ert
ual itÃ¤t
ĠEurop Ã¤ische
ĠSal v
Ġauth ors
ify ing
Ġnieder lÃ¤ndischen
Ġclos ely
ĠHu bert
ĠpreuÃŁ ischer
ĠPfer d
Ġtal ks
Ġprogramm ing
ĠdebÃ¼t ierte
B rite
K ar
Ġw ra
Ġc riteria
de f
ĠH Ã¤nde
ĠR ic
ĠN i
Ġwar rant
Ġch art
ĠDe finition
19 14
par ameter
Ġad van
ĠGe or
Ġ8 1
ĠBr Ã¼cken
Ġrec ipes
Th ank
ĠSte el
ĠUr teil
Ġbef re
ĠCont ainer
Ġkon k
Ġerr ors
Ġhol z
Ġmag ic
Ġmeisten s
Ġindividu ellen
Ġmat ters
ĠEt appe
ĠKenn edy
Ġaffe cted
clude d
ĠOrch estra
P ack
Ġw asser
ĠS ax
Ġb ranch
Ġf if
ro d
ĠM ob
ĠT reib
Ġein gebaut
ĠI ss
ĠH arb
ĠH umb
ĠR eiter
Ġse quence
ĠTe uf
ĠAb lauf
ĠBer gen
ĠReg iment
Ġel ig
ĠCar los
Ġsol ar
ĠVolks zÃ¤hlung
Ġ185 1
ĠZug riff
ĠChem iker
Ġmo ist
---------------- ----------------
ĠBesatz ungs
Ġausgesch ieden
Ġatmosph ere
K om
L isten
d ir
r ufen
Î ¹
Ġs hr
ĠK G
ier bar
ot ive
ÃŁ er
ĠIn format
icht ig
Ġj ung
Ġent worfen
cl usive
nis sen
ĠEx pl
Ġnun mehr
Ġconne ctions
Ġenter tain
Ġgre w
Ġfra uen
ĠHir sch
inu ier
Enc oding
. ",
B aden
F ran
S eite
u hren
in ity
in stitut
at sch
at ischen
Ġe c
ĠG az
ĠK Ã¤
ĠC ommand
ĠN oten
Ġge Ã¶ffnet
Ġmit tlere
id ance
Ġver haf
Ġvor be
Ã¼hr t
Ġte eth
ĠAuf l
ĠMan ufact
ĠHo uston
ĠBas il
roll ing
itu ationen
ĠFlor a
lad imir
Ġinnov ation
Ġvalid ate
ĠMach ine
ĠEber hard
ĠPlÃ¤ ne
ĠLeichtathlet ik
ĠGeschle chts
ĠChallen ge
ĠBuffer ed
p iegel
Ġa wards
Ġs ang
Ġw inner
ĠS amen
ion ier
st s
Ġth erm
Ġge kauft
ĠSt yle
pp t
Ġver p
ag an
Ġsich ern
ĠVer leihung
Ġhe ating
Ċĉĉ Ċĉ
ĠTe lef
ĠY oga
ĠBer ger
tra ck
An fang
IN TER
Res ults
ĠSpiel klasse
ĠBand s
Ġzusammen gef
Ġcr iminal
auch en
ĠHÃ¶he punkt
ĠPrem iere
TR AN
Ã¼ste t
Ġhor se
Ġcat alog
Ġwirtschaft liche
Ġmill ions
ĠMaxim ilian
ĠBrie fe
A ud
S R
Ġt ank
Ġs itzen
ĠS achen
un ken
le un
Ġn a
ĠT ipps
ĠK ein
ĠR ies
ĠN ations
est het
ĠO ak
ĠO bst
ĠZ ubehÃ¶r
ĠSch atz
ĠSch Ã¤den
qu ar
Ġse qu
ant a
Ġwe alth
ail ure
Ġtr ib
bar ung
Ġhand ling
ipp er
Ġnieder lÃ¤ndischer
Ġren ew
IL L
comp are
Ġerziel en
Ġbedeut ende
ĠHash Set
Ġviol ence
Ġnorm ally
M I
f indung
ĠA B
Ġv end
ĠB eth
ig i
ĠC ock
Ġdes selben
ĠO cean
Ã¤t tern
Ġoff ens
ĠQu est
Ġseit her
zw ungen
ĠLin den
Ġpay ing
197 3
Ġelect rical
ĠÃ¶ k
Ġspirit ual
C le
V C
m aster
Ä Ł
on ischen
Ġs ql
Ġin ches
ĠA gency
ĠG rant
ĠN AS
ei de
ĠRe zept
ial is
Ġwe ap
ager ung
Ġem otion
Ġgef Ã¶rdert
west lichen
UN D
zÃ¼ gen
Ġdest roy
ÅĤ aw
Ġdom estic
ĠSoph ie
Ehr ungen
ĠÃ¶rt lichen
D uring
K S
g io
s ingle
s ql
as ted
Ġe ase
ĠB B
st het
ĠF REE
if ff
19 38
me ier
Ġgen auso
els on
ron ics
ĠCon rad
ĠBet racht
ĠDurch fÃ¼hrung
ĠIns urance
verb Ã¤nde
ĠnatÃ¼r lichen
Ġve ter
Ġconcern ed
Ġsud den
ĠverlÃ¤ng ert
c ms
p fe
Ġf lav
Ġin frastructure
Ġn arr
ĠF L
ĠF avor
ĠH imm
ĠR acing
Ġge pf
Ġver lei
ĠSp ar
ĠJahr buch
ĠMar sch
Ġro se
ĠJun ge
ĠBet reiber
Ġcho osing
ros sen
Ġhei ÃŁen
Ġneg ot
Ġprint ing
ĠSchles ien
angeb ote
ĠerfÃ¼ll en
ĠAP I
Wil helm
F E
O s
S al
Ġt icket
he ll
te ch
ĠB ah
ĠB reit
ĠG on
ĠK inos
ĠR unden
ĠO hr
Ġauf s
af eln
ru gen
ite kt
auf lÃ¶sung
Ex pr
to o
ĠNord amerika
ĠWil helms
Ġrest r
ĠSchm uck
UN G
Ġenter prise
flug zeug
Ġerk enn
spro zess
fil me
Ġsignificant ly
Ġdanger ous
Ġdenk mal
H ans
K lass
P lay
or chester
he ast
ĠM O
ĠM ust
ot ische
Ġan b
la ce
ĠSch reiben
Ġver lang
op ol
ĠRe ck
Ġ7 8
eng ers
gesch icht
ĠJul ia
ĠChrist opher
Ġentwick elten
Ġsuper ior
Ġcook ies
ĠVerl Ã¤ngerung
ĠInternal X
Ġerinn ern
Ġsubmit ted
ĠKonstru ktion
Ġbelg ischer
Ġbayer ischen
Ġextre me
Ġentre prene
D b
N et
R ole
m g
te ine
Ġso fern
ian e
amm ar
ri um
hel ess
ĠApp lication
Ġbil deten
ĠKat zen
197 2
ĠHigh way
ĠLehr stuhl
Ġpriv at
Ġrelig ious
grenz ung
Ġbege g
Ġnet works
Dec imal
liefer ung
Ġverg essen
ĠBeteil igung
N odes
T M
d ig
n acht
Ġb lank
ĠB ret
Ġh aus
ĠF usion
ĠJ osh
ce ived
ĠIn putStream
ĠIn haber
Ġsch eme
ĠDe ath
Ã¶r te
tz t
Ġerfolg ten
Ġlist ing
Ġtre ated
197 7
ĠRen ov
ĠPast or
ĠfÃ¶rder n
: "
S en
ĠS yl
ĠS itze
Ġp atch
Ġfor ced
qu alif
ine a
Ġex cess
gr id
ast ung
Ġnew ly
ĠStadt gebiet
ĠAd ams
Ġra us
Ġger ingen
alle utnant
ĠUr sprung
ĠSpe ed
ĠÃĦ l
Ġx ml
Ġla ptop
Ġengag ierte
ĠBesatz ung
Ġhers elf
Ġwunder sch
ĠSchwier igkeiten
1 20
g ert
} .
Ñ ĭ
ĠS M
Ġh armon
ĠP okal
ĠK ro
ĠK av
ĠW ende
ĠW achstum
ĠC ole
Ġst ainless
ĠZ it
Ġver grÃ¶ÃŁ
og ramm
aus geber
Ġas sets
lo gen
Ġres istance
Ex press
Ġbes ter
Re zeption
ole k
ĠEx pression
ĠAut os
Ġpl ug
Ġche ese
If c
ĠJugend lichen
Ġgewann en
ĠAnt arkt
Ġter ror
Ġprote in
ĠTemperatur en
Ġphotograph s
Kirchen gebÃ¤ude
z it
Ã ī
at isch
ĠS ony
le e
ĠG Ã¼nstige
Ġg od
Ġbe igesetzt
ĠO F
Ġfor est
ire ment
cc a
Ġsc re
lÃ¤ ub
tes te
urt stag
eiter ten
Ġfl ower
Ġeinge laden
equals IgnoreCase
fest ival
ĠVe ctor
Ġemploy ment
ĠMel bourne
ĠRead ing
Ġchrist lichen
prof it
Ġimag ine
Ġmensch lichen
Ġconfir med
B ounds
L ex
S il
m aking
al id
Ġe lev
ĠB uk
ĠG utsch
et tet
em pf
ĠC ON
Ã¶ mm
ult an
Ġ0 3
Ġtr igger
Ġper mit
ĠFl ach
ĠFl otte
ĠPar allel
min a
Ġprov en
ĠPol ize
ĠFe ier
ilit ation
Ġfact s
ĠBi ografie
Ġoffen e
Ġreport ing
Ġjoin ing
Ġindividu elle
ĠVal ent
ĠCent ury
Ġliter ature
Ġdraw ing
ĠQue ens
Ġexpect ations
Eis hockey
ĠVarian ten
Ġgeplan ten
vorsitzen der
Wor ld
Ġstyl ish
P ubl
Y ear
Ġa men
ar us
Ġb ags
ĠM asse
ĠF ashion
ra ph
ĠW itt
ĠW esentlichen
ĠH ass
ĠH appy
and em
ĠU d
Ġse ats
age ments
get Attribute
par tei
Ġob lig
Ġfol der
ĠSpiel ern
ĠSpiel film
Ġass ociation
Ġdire cted
Ġsol ve
Ġpublic ation
ĠGrund schule
Ġakt ive
mÃ¤ cht
ĠGew inner
Deutsch e
Ġplan et
ĠPat ri
By Comparator
ĠverÃ¶ffentlich ten
ĠAnfang s
ĠIr ish
ĠKre bs
ĠGest alt
Ġexception al
ĠGlaub en
ĠThr on
hyth m
ĠDok umente
z ure
Ġ Âł
or ium
Ġf er
ĠB og
Ã¤ le
Ġz ip
ĠH ugh
ĠC omb
ber gen
qu er
ĠRe formation
sp f
Ġso le
19 10
ian ische
ĠAus sch
chn ungs
Ġbo ot
Ġbre ast
AR D
Ġstar tet
Des ign
Ġflo ors
ĠSol utions
Ġkosten lose
lemen s
Ġentire ly
Ġremov al
Ġlisten ing
ĠHon or
gewand elt
B Y
v ision
Ġ ikea
ĠS EO
Ġf Ã¤hrt
Ġh ole
ĠK ok
ĠR uth
ĠL etter
ĠC ab
ĠSch Ã¼tzen
ĠRe paratur
ap olis
Ġ" );
19 26
Ġvor kommen
sk ar
ĠKon stantin
ott om
ende te
ĠTr ennung
Ġgesch ickt
Ġsub t
figur en
IC E
197 4
ĠVe ter
ĠLim ited
Ġtransport ation
Ġrepla ced
ĠWettbewerb s
ĠInstall ation
1 10
f are
g f
Ġt or
Ġt ested
ĠS creen
ĠD ave
ĠT ap
ĠP ension
ra gs
ed u
ĠW id
ĠW Ã¶r
ĠN est
ĠN ature
Ġ" .
tet t
fahr zeuge
imm y
ĠFre m
Ġprof iles
ĠPhil ip
sw ert
ĠProv inzen
Ġhol idays
ĠMÃ¤n nchen
197 1
UT F
ĠPrem ium
fÃ¶rm igen
Ġobtain ed
ĠKÃ¼nst lern
Ġfung ierte
ĠnÃ¶t ig
O k
P ane
m Ã¤r
ar ma
as et
Ġo d
ĠK it
ĠW S
and el
ĠO N
ĠÃ¼ber gebenen
Ã¤t igkeiten
19 28
ĠTe ch
St orage
ĠSchw imm
Ġoff ices
ins ichtlich
ON E
Ġdesign ers
fo ot
ĠIs lands
Ġinner en
Ġcamp us
ĠFrei will
Fernseh film
gere chnet
fÃ¶rm ige
ĠTschech os
Ġfrequ ently
ĠVize prÃ¤sident
Ġsitu ations
ĠFÃ¤h igkeiten
ĠGord on
B ek
S ing
n ten
r ia
s ucht
Ġt ags
ĠS ind
ol stadt
ĠE ro
ĠW asch
Ġg ross
ĠL is
ist o
ber atung
ach el
Ġi OS
Ġcon sequ
Ġle ts
Ġwe ak
Ġwe chs
19 27
Ġall gemeine
ĠEin ladung
be zeichnung
me yer
ĠSe attle
ĠBer at
Er n
ĠAnd rÃ©
Ver tex
Ġsho ot
ĠCo oper
Ġemp fehlen
Ġbr idge
spre chen
On ce
Ġsw ing
ĠLandkreis es
wor tet
ĠDienst ag
Ġarch Ã¤
Ġdeb ut
ĠRos a
ĠWeiter hin
Ġcas ual
ĠTok io
tok oll
Ġausreich end
ĠKabin ett
W atch
m outh
er ben
Ġt ip
Ġs ick
Ġs amples
ĠB auf
ĠK ings
em y
em pty
ĠJ ugoslaw
qu ellen
Ġsch ema
geb ra
ĠMit twoch
ĠLe ader
Ġ8 4
iste te
Ġcl uster
Class Loader
Ġ> >
ĠHil f
ĠKol umb
ĠFel der
dar steller
Ġsowjet ischen
ĠPreuÃŁ ischen
rauf fÃ¼hrung
ĠRess ourcen
C ounter
H ello
L D
M erk
Ġt iss
ĠS Ã£o
ĠA TP
Ġv ir
Ġv ast
Ġv ierte
Ġp od
ĠM eine
ĠG ul
ĠH ahn
ĠR af
and in
ck te
ĠJ Ã¼n
os k
get T
ĠEr hebung
Ġsp l
Ġes cape
ĠAb wehr
ĠCo ach
ĠĊĠĊ ĠĊĠĊ
lei h
ĠHen ri
Ġmiss ed
ĠOpt im
ĠKonzer te
a o
c ache
Ġw Ã¤chst
ĠS ource
ĠA V
ĠB C
ĠM au
Ġc am
Ġund ert
ol ith
ĠL az
ĠC urt
Ġl ift
Ġge le
ag entur
ĠSe kretÃ¤r
ĠMar co
ĠIm mer
Con f
15 0
ĠPart ien
Ġhealth care
Gr id
ĠFrei herr
ĠPan el
prof essor
Ġign ore
Ġult imate
ĠDemokrat ischen
Ã¤rt ner
Ġbow l
ĠReihen folge
VerÃ¶ffentlich ungen
ĠberÃ¼cksicht igt
Ġ ),
in ternal
ĠS i
ĠS emin
Ġin ch
st Ã¤rke
am ents
ol ia
Ġg ent
Ġbe zÃ¼glich
ĠU E
ver kauf
ĠIn fo
ill es
Ġat tr
19 29
Ġgew idmet
Ġrec ording
ĠKon dens
ateg or
Ġrequest s
ĠLie ber
Ġter rit
ĠHistor ic
ĠMill imeter
ĠSied lungs
ĠKons erv
Ġevangel ische
CON T
Ġanaly t
Ġbegrenz t
F ach
J a
Ġt ap
Ġv it
ĠC ry
ck now
Ġan f
ok ol
ĠAr g
ip er
Ġsie gte
Ġte ch
Ġ// $
stell erin
Ġ10 1
ĠQu ick
Ġ12 00
ĠMin er
ling er
schl Ã¼ssel
str ateg
ĠWest falen
Ġeing est
Ġ185 9
ĠzusÃ¤tz lichen
Ġausgew iesen
ĠRet urn
Men u
ĠAN D
ĠdÃ¤n ischen
BÃ¼rger meister
ĠBam berg
ĠSchÃ¼l ern
N icht
T I
b ow
b urn
j ack
s dorf
z usammen
ie ge
Ã¼ he
ro b
st es
Ġp our
ĠK us
ĠH ost
Ġl ucky
ier ra
ĠO regon
ĠIn tens
Ġme ets
ĠAus schuss
ges ted
ĠGr Ã¼nen
Ġ0 6
rÃ¤ der
ĠPh Ã¤n
ĠArbeit sk
Ġserv es
ĠBra ut
ĠTrans fer
Ġfort an
Char acter
Ġconcern ing
Ġdoll ars
P red
W o
ĠB E
ĠF okus
sch Ã¤d
hr ase
ĠC in
Ġbe herr
Ġim per
ĠSchw ed
Ġwieder holt
add ing
ĠOrt schaften
ĠEd in
Ġbekannt esten
ĠCol lins
Ġrel ation
leist ungs
Stand ard
ĠMiss ouri
ĠAud i
Ġnied rig
Ġster ben
ĠShang hai
ydra ul
d ated
Ġd ivision
Ġh ind
ĠE b
Ġbe gr
Ġk Ã¼nst
ĠSp ark
ĠDe kan
Ã¶r er
pro of
ĠGem ark
ĠPart ie
ĠPhil h
Mod ell
go ogle
ĠKaiser reich
ĠPosition en
End point
Pol y
Ġinvestig ation
Ġbedeutend sten
Ġausgestra hlt
J J
M sg
R ot
U ST
e ter
Ġs la
ĠS K
le ton
ĠA tel
ĠE ffe
ĠW ettbew
ĠR out
ĠL aus
ĠN HL
Ġst ated
Ġun known
ĠSe ktion
ĠBr Ã¼ssel
ober haupt
Er zeugt
12 5
Ġrem ark
Ġperson en
Ġander erseits
ĠWohn ungen
ĠMot to
Cl uster
deutsch er
Ġconf ident
ĠAp i
ĠSÃ¤ ulen
Ġstre ets
kathol ische
Ġpartners hip
Ġles b
Ġnar row
P okal
W he
c p
e ck
k lassen
r ick
or ks
Ġin folge
ĠA sk
Ġh ang
ĠF ortun
ĠE k
ĠR ied
ak ten
sp ann
Ġ18 18
19 19
Ġman chen
ĠCh at
Ġup grade
ock el
Ġfr ustr
Ġlie ber
Ġchar ged
Ġstatt dessen
Ġstor ed
ĠÃĸsterreich s
ĠGeneral major
Ã¼ll en
196 9
ĠgrÃ¶ÃŁten teils
Ġbede uten
eme ister
ĊĠĠĠĠ ĊĠĠĠ
ĠExem plare
ĠVerbrauch er
ĠInse kten
" -
( !
S ION
T or
y ers
le ans
Ġm apping
ĠA lo
Ġc orn
ĠH C
ĠC er
ĠJ ury
Ġge ar
se ction
ĠRe ferenz
ĠAr me
ĠSe le
fol k
mann schaften
Ġste igt
Ġsm ile
buch autor
hol ders
Ġfest ge
Ġeinge gliedert
ĠRu der
Reg iment
bÃ¼ ro
Ġkont inuier
Ġpoln ische
iro ler
Ãĸsterreich er
Ġsuppl iers
Ġil legal
Vol ks
Ġreput ation
l uft
Ð ¼
Ġs aving
Ġv olle
om y
ĠE astern
Ġl ists
ach se
ĠV ik
Ġk rÃ¤ft
Ġge liefert
ver k
ag u
pe te
oun try
ĠHe ck
Ġ8 9
yp en
Sch on
ĠzurÃ¼ck kehr
pla ys
ĠChar ts
ĠMag d
yr am
gra fen
ĠBi ographie
Ġbra un
Ġinvest ors
Ġenter ed
ĠJust ice
wei ÃŁ
Ġrule X
ĠLat in
Ġgek ennzeichnet
Ġdistin ct
B lack
L P
g nung
i ologie
w enn
or ne
ĠS G
ĠM is
ĠF uchs
Ġl iquid
ver teilung
Ġauf merksam
ĠIn tel
Ġaus gestellt
Ġch annels
Ġent decken
Ġbek le
ĠZw angs
Ġgeb raucht
Ġcons ist
ĠÂ °
ĠHaupt rolle
ĠBar th
Ġbed ient
ĠTo uch
Pr ice
Ġfac ilit
Ġoft mals
hÃ¶ fe
fried hof
lemen ted
Hol der
ĠSign al
ĠSy mp
Jose ph
ĠFrances co
Z wei
d ale
d ays
m ain
u tel
v org
Ġd ent
nd orf
as ie
ĠA sp
ĠA gn
ĠM ine
Ġh ack
ĠE ag
ĠW itten
ĠH P
ĠR as
ĠC B
ĠC ommer
ĠZ eile
ĠSch la
ĠRe ktor
Ġcon trast
Ġcom pr
ĠÃ¼ber zeugt
lie gende
Ġus age
ian z
ren ce
ĠTr ink
fra uen
ÃŃ o
ĠHeimat stadt
ĠÃ¤hn liche
gÃ¤n z
kor de
ĠmilitÃ¤r ischen
Ġuntersch rieb
? âĢĿ
A V
D O
F ont
F uÃŁ
J ournal
M G
n ur
s um
Ġw Ã¤ren
Ġc odes
ĠD y
sch i
ĠL aub
ĠN ad
os er
ud a
ĠEin zugs
Ġen orm
oph on
ĠFach werk
Des c
ĠRuss ia
Ġport ion
<? <?
Ġclos er
Ġpoln ischer
ĠplÃ¶tz lich
g Ã¤nger
s u
Ġd rag
it ative
re de
ĠT ran
ĠI F
ĠR ight
ĠN ich
ver gleich
ei zer
19 44
enn zeichen
Ġ9 1
Ġpass enden
olv enz
Ġerreich bar
ĠBre ak
ĠWar schau
Ġgem el
Ġter min
ĠNeu zeit
hor st
Vor pommern
Ġaddress es
ĠbeschÃ¤ft igte
Ġserious ly
ĠGemeinder at
ĠLÃ¤nd ers
Ġbrill iant
A gg
Ġm aps
Ġh ydro
ĠI ce
ĠK ate
ĠK riterien
Ã¶ te
ĠSt Ã¤rke
th alter
ĠSch alt
get Field
19 12
ac ted
olog ist
Ġcont est
ett i
ĠSte iermark
An gabe
Ċĉĉĉĉ ĉĉĉĉ
yl on
Ġann iversary
ĠKont akte
Ġschn elle
ĠHar ald
ĠZe ilen
196 7
produ kte
ĠBÃ¶ hmen
Ġfunction al
Ġdivers en
Ġhy per
icul um
ĠeigenstÃ¤nd ige
Ġtom orrow
Ġverhaf tet
E ben
g irl
p il
Ġ1 18
Ġ1 13
ĠT iger
ĠE ichen
Ġl ib
ĠN ut
Ġge fe
ver halten
ĠSch um
ĠSch los
ĠAn satz
ial ize
ĠBe frei
stÃ¤nd ig
Ge gen
Ġ185 7
trÃ¤ glich
ĠDel hi
Ġtw enty
ĠPhys iker
ĠStad ion
ĠVorsitzen de
Ġcy cle
ĠPok er
ĠErzÃ¤hl ungen
Ġelektr ische
Ġausgeb ildet
ĠHild esheim
Bag Constraints
ĠArgentin ien
Ġzusammengef asst
W asser
a er
d ater
l on
t akt
Ġa warded
Ġw itness
Ġp oker
ĠE rot
ĠK rÃ¤fte
ĠH ung
hr ung
ab schnitt
ĠĊ ĊĠ
ok a
ĠEr lebnis
amp en
Ġtr ick
Ġtra fen
pro b
Ġbet reibt
man uel
ĠProdu cts
Ġgut es
Arch itektur
Ġimmed iate
lehn ung
ĠSmart phone
Ġvict ory
Cons umer
ĠScot land
ĠiP ad
Sow jet
' '
; ;
r ors
Ġm ood
ĠA uÃŁ
st oÃŁ
ĠD ob
ĠL P
Ġer leich
ĠSt ationen
ĠZ ert
tr ess
Ġcon tribute
Ġ18 46
Ġ18 47
Ġum gewandelt
tell te
ĠSe ction
ĠBer ichte
Ġ9 2
Ġfin ance
Ġber ichtete
ĠKon ferenz
Ar gs
Ġpass ende
geord nete
Ġfac es
Ġmult ip
Ġturn ing
akter ien
ĠBaum w
ĠSpr int
Fol der
Ġcerem ony
F low
S ummary
Ġb odies
Ġder selben
ent ums
am ts
ĠH i
ĠN ATO
Ġre iste
Ġy ard
Ġon going
ap a
io xid
ĠSe pt
ett a
stit u
Ġsk y
ĠMag net
Ġwrit ers
glieder ung
ĠPla yer
ĠCom ments
196 4
ĠErn Ã¤hrung
Ġindividu ell
Ġzuge lassen
match er
Ġempf angen
Famil ien
Ġsitu ated
Lang uage
E hren
G ed
Ġt um
Ġb ay
ĠM ig
ĠM alt
Ġein erseits
ra h
Ġth re
Ġre venue
Ġan gew
ad bach
Ġge leitet
id ad
Ġauf gel
Ġver zeichnet
ĠBe cker
Ġ" +
ian ces
ĠZeit schriften
uer ei
ĠHand y
Ġbed s
Ġadv oc
Ġoffic er
Ġdeal ing
ĠKing dom
Ġfinanz iellen
hab t
Ġindustr ies
Ġdream s
ĠPorn o
ĠSup reme
Ġhighl ight
ĠVersicher ungs
C ondition
T urn
f Ã¤nger
u ing
Ġd ust
he ader
Ġo lymp
Ġv irus
ĠT alk
ĠE arly
ĠH R
ĠC ou
ĠC ome
ĠC reative
ĠV as
ow itz
ĠSt aub
ĠIn valid
od el
end el
Ġor din
St re
Ġfr isch
Ġfin est
Ġmon at
ĠJan e
Ġcre w
Ġverb inden
Ġ185 6
ĠÃ¶ff nen
ĠkÃ¶nn t
Ġaff iliate
ĠStÃ¤d t
ĠPublik ationen
ĠÃ¼b lichen
ĠSter ne
ĠKonk urrenz
Ġmonitor ing
Ġcrow d
ĠjÃ¼nger en
ĠLuf tw
ĠEdin burgh
B atch
h Ã¼tte
z ule
il deten
ĠD amp
ĠC ir
Ġbe auf
Ġl Ã¤nd
Ġan x
Ġver ring
get Resource
Re al
ĠPr in
ĠMar cel
Ġev olution
Type Reference
ellen ce
by tes
ĠFest ung
Ġmet adata
ĠBed ien
ĠZeich nungen
Ġcelebr ation
Ġmer ch
Ġprior ity
Ġhor izont
ĠCost a
Ġdram atic
L ive
M C
U RE
W ahl
d ichte
n ische
ar ently
ĠA lice
st unden
ĠT otal
ĠF lex
em en
ĠL ichten
ĠN avig
Ġge arbeitet
ĠEr langen
19 13
Ġsp an
ĠEin fach
ĠTh rough
per rt
amm ad
Ġ9 4
ock er
ri or
Ġcons istent
schl Ã¼sse
OR D
ĠHel p
Ã¤mp fer
ĠMer cedes
ĠKol onial
ĠHerzog tum
Ġstrateg ic
Ġinteress ant
ĠSingap ore
Dav id
. ;
9 00
f aces
g ro
us ten
Ġo vers
ĠP ius
ic z
ĠL isa
ĠC ivil
Ġbe zogen
Ġl ake
Ġun able
Ġpro of
end ish
ib et
ern t
ue ft
ru der
19 32
Ã¤r er
Ġ8 6
man ischen
ĠDies el
bach s
Ġprom ise
Ġfac ulty
ĠMa ÃŁe
ĠViel falt
ĠBud get
ĠAbs ol
ĠSat tel
resource GroupName
Ġjud ge
ĠSecret ary
ĠTats ache
ĠEro ber
L ud
M ass
c atch
m oder
t ail
ĠB ibliothe
ĠR iv
ĠL anc
ab ol
iel ler
ĠSch Ã¤d
ag d
se Exception
ĠSp alte
Ġad op
ĠGr imm
cl udes
imm ern
ĠUm zug
ĠVerb reit
Bu ild
Ġter r
Ġmag n
Ġkomp lette
Ġ180 6
Ġern st
ĠMiss issippi
ĠRem ote
Ġeurop Ã¤ische
Ġfinanz ielle
Ġrefer red
incip al
ĠLaur a
Ġincred ibly
ĠFinn land
ĠFant asy
ĠDiÃ¶z ese
M el
S pr
T wo
w ein
z esse
an ke
us che
ro hr
ent schieden
Ġbe ziehen
ist ol
ĠN utzen
Ġan gle
ĠO berg
ver arbeitung
Ġr ating
Ġdem okrat
Ġsch olar
Ġch ocolate
Ġ18 43
19 24
ho b
Ã¤l dern
Ġpre v
Ġag ents
ps on
Ġbook ing
Ġsu c
ĠEd itor
Ġweek ly
Ġgest altete
mut able
Ã¤m mer
Welt meister
kle idung
Ġrecogn ition
friend ly
penden ce
Ġagre ed
Mult i
b ol
m Ã¤nn
n ik
Ġa er
es a
Ġs tet
ĠA venue
Ġv illa
ĠB att
Ġp a
Ġ1 17
ĠC oc
Ġk ill
Ġk Ã¼mm
Ġis rael
ou red
ĠZ ut
Ġver folgt
Ġso il
ĠBe arbeitung
19 25
ler in
Ġar tw
Ġgo ogle
Ġmy th
sh ut
ys ik
Ġges tern
con f
ĠBet reuung
Ġdec ade
ĠDr ama
ĠStre ifen
ĠFranz osen
ĠGed icht
Ġpack ages
Ġpan els
Ġged acht
Ġschwier ig
Ġannot ation
R hein
b ing
Ġb Ã¼rger
Ġf inger
ĠB usch
ĠD IN
Ġh art
ĠE ffekt
tr ang
ĠVer ordnung
ac on
ĠEn kel
amm lungen
als ieger
ĠGesch lecht
gend a
Ġhier zu
ĠNational park
Ġcol ours
ĠSk la
esent liche
ĠMo ore
ĠDienst leistungen
Ġocc as
IG HT
ĠHall owe
ĠCla us
Ġabsol ut
ĠMas ters
Ġbedroom s
Ġchamp ions
Ġpow der
G A
M ET
O l
T ool
m V
ie u
Ġw ave
ro se
ĠD R
ĠG Ã¶r
ĠG Ã¶t
et a
ĠR ick
ĠSt imm
Ġden ken
Ġpro ps
ac ular
ĠAuf sichts
Ġbes tellt
Ġ9 7
Ġco ordin
ser ien
amen te
Ġno ted
Ġdr iven
Ġgu idance
schlieÃŁ en
ĠBut ter
SS R
ĠGrÃ¼nd e
klÃ¤r t
Ġhol der
fel de
kan al
gram me
Ã¤chs ische
Ġerz ielt
Ġprepar ation
Ġfal sch
Ġsau ce
L aut
s or
z k
z ucht
Ġd einen
ĠS ich
Ã¤ use
ĠP ixel
ĠF erner
ĠG or
Ġto urn
ib us
Ġle hrte
ĠSo ft
bo ards
Ġperson ally
At tr
Ġmet all
ĠauÃŁer gewÃ¶hn
Ġaufge teilt
Reg ie
ĠZe ug
Wh y
CH AN
Ġherv orge
ĠNic ol
ĠAust in
Ġcondu ct
ĠMov ie
Meta Data
Ġeigent lichen
ĠErwachsen en
ĠSams ung
Ġ ul
Ġs ew
al ts
Ġe gal
ro ke
pp ich
ien te
sp rachen
Ġbei der
ost ol
ĠPr Ã¤sent
Ġro les
Ġtra v
Ġinter active
ĠStud y
Ġbesch loss
loy d
bed ded
Ġcr ash
ibr aries
ĠKle ink
Ġdre imal
ĠKriegs gefangen
Ġprim arily
Ġcharacter istics
ĠGesetz es
ĠSamm lungen
ĠVermÃ¶gen s
Ġabgeb rochen
R ennen
m Ã¼n
Ä Ļ
Ġ iv
Ġa kadem
Ġt ear
Ġt elling
re b
ĠS W
Ġb ron
ing o
ĠM ale
ĠE gypt
if ter
ĠSch uss
Ġab use
ĠEr ror
19 23
ĠOr leans
ĠUnter schiede
br Ã¤
sk op
gl as
ĠOber Ã¶sterreich
Ġperson ality
ĠVol ume
ĠauÃŁer ord
Ġimpro ving
Ġmom ents
spro gramm
Ġpain ted
kathol ischen
ĠGrÃ¤ fin
ĠSaf ety
hedr ale
ĠmaÃŁ geblich
Ġmur der
G ymnasium
k ore
k ommission
ĠA hm
Ġn ack
ĠG uten
ra ben
qu ert
19 00
ens ation
Ġpr icing
ĠVor stellungen
utz te
fl Ã¼sse
ĠNe v
Ġgr ass
Ġno ise
ĠPat ient
Ġeng agement
figur ations
ĠMo os
less ly
ĠMor gan
schein lichkeit
Ġwei ÃŁe
Ġverste ht
Ġcapt ure
ĠNationalsozial isten
wander ung
ĠDist anz
opÃ¤d ie
ebau ung
Ã¤p st
L ife
N ummer
R ich
X X
b undes
f ranken
k andid
z es
er ber
ĠS F
ĠS ke
Ġm ath
Ġo ven
ic ted
ĠEr stellung
Ġch apter
Ġ18 13
lo ÃŁ
19 22
Ġsp ark
iker in
-- ;
org ungs
ĠTr ip
Ġpl ot
ĠVol ker
stein en
uff ix
Ã¤mp fung
ES CO
190 2
ĠAnn ual
ĠPrÃ¤ fektur
wÃ¤rt igen
Ġeigent liche
Ġbird s
Ġcurren cy
F k
k Ã¼hl
Ġ ib
Ġd icht
Ġv ib
Ġv ollen
ĠD ame
ĠP L
ĠR ak
ĠC ount
Ġk onserv
ein richtung
op ter
Ġen ables
Ġwor se
ges pr
ĠNach kommen
olit an
Pro gress
hand els
Ġinv alid
ari us
Ġdevelop ers
ĠBuch en
Ġrecogn ize
ĠInternets eite
Entwick lung
Ġehren amt
O U
h Ã¤nge
ch el
Ġw ann
ĠS ob
Ġin tel
am ann
om aten
Ġz z
ĠL iss
ĠL aser
ver Ã¶ffentlich
Ġzu ges
iz able
Ã¼nd er
Ġ9 3
sh op
fin det
ĠUS D
ps ych
Ġgu idelines
ĠVers ionen
Ġausge prÃ¤
unn able
Ġcommun ications
ĠStand ards
war f
Ġresearch ers
leben s
hÃ¶ hung
Ġregion alen
Ġcommer ce
fÃ¤ll t
fÃ¤ll ig
ĠStruktur en
Ġengag iert
Ġeindeut ig
Ġbewe gt
Ġdenkmal geschÃ¼tz
7 00
M as
S el
k ons
ch annel
Ġt ut
Ġm and
ig o
ĠT ed
ĠT um
ĠF R
ĠE X
ĠK alender
ĠL yn
Ġbe hand
ĠJ ess
Ġver trieben
op ath
Ġle ichte
Ã¤t igung
ĠTh ose
ĠLe v
eth yl
Sch utz
ĠZw eite
alen ted
Ġass ign
ĠChar lie
Ġgef Ã¤r
Ġehemal s
plan ung
ĠDesign s
190 7
Ġlik ed
Ġcommon ly
Ġsatis faction
ĠKult urg
ĠElect ric
Ġsem i
Ġuk rain
konstru ktion
ĠExem pl
ĠInnov ation
A ber
g ott
in stance
ĠS O
Ġb are
un es
ro tt
ĠD eine
ĠP aint
Ġbe grÃ¼ndet
Ġk ost
ow ers
ou x
ĠSch r
19 50
fer red
form ed
zeit lich
ĠNe apel
fahr ung
Ġsc ored
ĠAd vis
ĠWor te
Ġfest gestellt
Ġcheck ing
Ġstor m
ĠWand el
Ġinform ed
Ġannoun ce
ĠInvest ment
umin um
Ġcru cial
ĠVinc ent
ĠStach ys
andin av
B ern
L ower
S l
U UID
f ire
s Ã¼d
it led
ĠS ah
Ġb anks
un sten
ol in
ĠC onn
ĠC amer
Ġst amp
ĠU k
Ġpro spe
ĠEr be
ĠAr rays
ĠBe fest
19 40
19 43
ition en
ĠGe lehr
Ġreg ions
ĠMann es
ĠProdu kten
ĠMet ro
ĠAt tribute
Ġgra b
ĠJohann a
Ġsu ite
ograf ische
ĠForsch ungen
ĠTour isten
196 6
Ġstell ten
ĠKind es
ĠWeihn achten
ĠCorn el
ommiss ar
================ ================
ĠCav endish
Ġforder te
A g
C lose
E lekt
c us
ĠB apt
ĠG P
sch lossen
ĠC abin
Ġge gangen
ock e
(" /
Ġcont ained
ĠKon stanz
Sie ger
DE F
stre ifen
CO DE
Ġident isch
Ġless on
190 5
Ġsim pl
ĠFel sen
Ġarr ive
Ġinteress iert
Ġspeziel len
Ġexpla ins
ĠMarc us
Ġbetre ff
komp lex
oles ale
Ġfight ing
tor hÃ¼ter
Hash Map
ĠNahr ung
Ġsorg te
ĠDiam ond
ĠWerb ung
ĠVeranst altungs
Ġdut y
M ac
T ex
h h
k rank
Ċ ĊĠĠĠĠĠĠĠĠĠĠĠĠĠĠĠĠĠĠĠĠĠĠĠ
er gebnisse
Ġa mer
Ġb its
ro ff
Ġp hen
ĠM Ã¼hlen
ĠE state
ĠK ansas
ĠH allen
Ġge heim
ĠIn stanz
Ġ18 16
Ġpr ison
ose x
Ġsc an
ĠZw ar
Ġbl ind
ĠDo es
ĠPer u
ĠBest immung
Ġspecial ist
kn Ã¼p
ĠRob in
FI ELD
htt ps
Â· Â·
ĠMalays ia
V ier
l ies
Ġ 000
Ġs ending
Ġb io
ĠB reis
ĠM Hz
ĠW inn
ĠR it
den ken
Ġan gest
if ies
Ġge g
Ġwh ilst
ĠVer handlungen
Ġas pect
19 36
Ġsp anischer
mit te
ĠNor bert
ipp e
por ted
Ġav ailability
Ġvis ible
zu geben
ohl en
laub nis
Ġadd s
ĠEnt ity
Ġbesonder er
Ġenjoy ing
verb rauch
verb indungen
ĠKo alition
190 8
ĠSw iss
zÃ¼ g
Ġmem ories
Ġwissenschaft licher
Ġbott le
ĠmilitÃ¤r ische
inv oke
% ,
C B
F eld
M IN
T B
V iele
Ä ħ
Ġt ill
ar is
ĠS D
ĠS R
ĠS ymph
Ġf t
ĠB ush
Ġc otton
ĠD ess
ĠG ol
ĠK abel
ĠW alt
Ġg aming
ĠJ oin
Ġdes ired
ĠO range
Ġauf nehmen
ert ungen
ĠDe te
Ġbis schen
ĠY am
rif tsteller
Ġother lv
Un garn
stra fe
Ġgeb unden
ĠAss istant
room s
Hand le
CO MP
Ġstehen den
Ġleg it
Ġfig ures
ĠprÃ¤sent ieren
Ġsup erv
ĠWalk er
ĠÃ¤uÃŁ eren
! =
A ctive
d raw
at iver
le ten
Ġf emin
Ã¼ sten
ĠB attle
Ġ1 16
ĠF Ã¤lle
ĠW arm
sch el
Ġg aben
eit her
est on
ĠO K
Ġhe av
ĠEr ik
Ġman aging
ĠCh i
ĠString Buffer
ash i
ĠBo ys
ĠCar lo
Ġmin ister
ĠDurch schnitts
Ġbas ically
ragen den
Ġaufge geben
Ġ185 2
ĠVe get
Ġhum or
Ġearn ed
Ġsustain able
ipend ium
Ġermor det
prec ated
ĠHallowe en
H D
M AT
o be
Ġa ims
Ġs inger
Ġm p
Ġm ixture
Ġp Content
ĠT ol
ĠE cht
ra c
Ġg gf
ber ge
Ġsp anische
Ġent stamm
ime tern
Ġcomp osition
Ġqu adrat
ism ar
Ġfind s
ĠMen gen
spre ch
ias ieger
ĠZe ugen
ĠnatÃ¼r liche
ĠGre y
Ġhappen ing
ĠBlÃ¼ te
ĠPubl ishing
Ġappe al
ĠBit coin
Mart in
A K
A ir
F ot
M aster
k ong
æ ľ
Ġd auert
Ġb undle
Ġh l
ĠP ent
ĠG R
ĠR um
ĠN an
ĠIn halts
iz ers
Ġvor Ã¼ber
erv ers
Ġwor st
Ġres ort
ĠAus stellungs
rei hen
rif fe
ator in
ĠEx port
ĠEx change
Er stellt
Ġag greg
Ġ) *
ĠCon struction
Ġbre ad
ĠSaison ende
ĠErn est
Ġregul ations
Ġplatform s
ĠDro gen
ĠChron ik
ĠVorder grund
ĠKel ly
Ġbelie ved
ĠGle is
Ġjew elry
Absol ute
verteid iger
Ġfir ms
Ġpersonen bezogen
C at
G R
b org
m ode
n ord
s inn
Ġw und
ĠS ara
ĠB uen
ĠT au
ĠF ly
ir i
ĠN ash
ow ed
Ġdes ktop
ib il
ĠAn bau
ĠVer leger
ĠAb stieg
ĠGr as
Ġfr amework
Con stant
ĠGra ham
Ã¶l z
pf alz
ĠVers uche
Ġben utzen
Ġpolit ischer
čĊ čĊĉ
Inter val
Ġlaw yer
Ġalong side
Ġzwe ig
zub auen
lah oma
Ġrout ine
ĠPho enix
K or
R obert
m il
u als
v ie
v ari
Ġin du
ĠM ong
Ã¤ sche
ig ern
ic ulture
ĠK roat
Ġg rant
and ra
ĠSt ief
19 37
ĠCh art
ĠVor lage
Ġcont aining
ĠHand lungs
Ġstr ict
ĠVerb indungs
str asse
ather ine
SS ION
ĠErz bist
ĠWinter spiele
ĠUl m
Ġbox es
stehen den
usst sein
ĠVis ual
Ġdisplay ed
Ġrom antic
": "
ĠConne ction
ĠAufent halts
ĠLear ning
verl ust
Tim estamp
Ġdiskut iert
Denk mal
ĠUE FA
b els
i our
j ap
s Ã¤chsischen
Ġd up
Ġa cknow
at ile
ar ded
ĠB un
ol utions
ĠE asy
if l
ĠSt Ã¼r
se arch
Ġse ed
Ġse ctions
Ġcon cepts
ant o
Ġch ose
19 35
In halt
Ġunter schieden
ac cess
Ã¼hr ung
ĠY outh
Ġass um
ĠSc ient
AR N
ĠAt las
Ġteil en
Ġobject ive
Ġrelat ively
zentr ums
Ġerr ichteten
Ã¨ res
Ġyoung er
Ã¤um t
OW N
ĠHoff nung
ĠVoraus setzungen
Ġfla vor
ĠJew ish
ĠMisch ung
Ġdipl omat
Ġkorre kt
ĠKeram ik
D isc
R und
g alerie
h on
t ums
Ġd ot
Ġs auber
at tribute
re ff
ĠS ad
ge ist
ĠB ible
ĠB lei
ĠG ift
ĠH Ã¼
sch reiben
sch reiber
ĠR ote
ĠC ow
ĠN aum
Ġun f
Ġpro ceed
ĠBe cken
Ġ18 42
Ġsp ots
ober flÃ¤che
Ġdiffer ences
ĠLin col
Mod ified
ĠLang uage
Ġiter ator
conne ction
Ġhochwert ige
ĠFranzÃ¶s isch
ĠWik ipedia
Ġeingew eiht
L EN
M s
S am
U g
h ten
w t
Ï Ħ
ĠS ug
ge ts
Ġm as
il o
Ġp it
ĠW ings
ĠH ack
ĠC ape
Ġfor th
Ġver mittelt
Ġaus einander
19 11
19 31
ian i
ac cept
ĠWe iss
Ġ7 50
Ġrec re
Ġprodu cing
ins ert
ious ly
iver y
ĠMin istry
ĠCon fig
ĠGener alleutnant
Ġeinfach er
ĠLu is
trÃ¤ gen
So ftware
AB C
produ zent
ĠTex ten
sc ale
ĠGre if
ĠImp ro
Names pace
Ġexpla ined
Ð¾Ð ²
ĠUrs ache
ĠStrateg ie
Comm on
ĠOpp osition
ĠWiederauf bau
ĠNiger ia
G old
J ECT
h igh
k am
u in
Ï ģ
en ke
re ll
ĠI ter
ĠG ibt
ĠR ally
Ġer ober
ĠJ Ã¼d
Ġal arm
Ġre q
ver leihung
Ġle istungs
ru le
Ġ18 20
ĠY e
ĠGr ill
Ġbut t
inn t
br unnen
Ġint ent
schie ÃŁen
ĠJan eiro
Ġevery where
Ġhin weg
Ġmark ed
ĠBas ic
ĠFot ografie
Ġnie mand
ĠZwe cke
Ġverm utet
ĠErd geschoss
ĠOs lo
pass te
ĠEntscheid ungen
Ġevangel isch
ĠMuse en
Ġdro pped
ĠMatt hew
Ġevalu ate
Aut o
Ġzeich net
Ġhop ing
Ġachie ved
Ġaccommod ation
ĠWurz eln
Ġmittelalter lichen
Ġbegeister t
ĠMultic ast
W ohn
h Ã¤ngt
k ter
k Ã¼nstler
u der
w ait
en ne
ge wer
Ġm a
Ġn one
Ġn ights
ĠM ei
Ġc ater
ic i
ĠF ett
ĠI tem
ĠK lin
ĠL if
Ġl uck
Ġer a
Ġvon einander
la in
ĠZ er
se a
Ġab gelÃ¶st
ang a
ĠMe et
Qu elle
ĠEs c
Ġjust ice
Ġind oor
ĠArbeit nehmer
ĠPf licht
Ġpass ing
ĠHol y
ĠSel f
ĠAir lines
Ġnational sozial
Ġ185 4
zy kl
ĠverfÃ¼ gte
ĠKle id
Ġdat iert
spe c
ĠJur a
Ġerk ennt
ĠMount ains
ĠEvangel isch
Ġstaat liche
Ġsav ings
Ġoccur red
Ġce iling
ĠLokomot iven
ĠPian ist
Franz ose
B al
I hr
S pl
U LE
d ates
h lich
i ierten
ĠH els
Ġver standen
ag ues
Ġaus geschlossen
lic ate
nen nung
19 41
Ġcan cel
ĠSchw estern
Ġrec y
off izier
ĠSh are
Ġsho oting
Ġshe ll
alen a
ex ists
ĠAt tra
Ġreal ized
schutz gebiet
Ã¤ll ig
Ġgem Ã¼t
Ġ185 3
ĠTre ff
gesetz es
ĠZust immung
abet es
Ġinstru ction
Ġlic ensed
Ġord entlich
ĠVerteid igungs
ĠAuseinanders etzung
ĠInstitution en
ĠKob lenz
Ġkombin iert
Ġris ks
Ġfasc in
D M
R oll
S F
s uper
Ġt v
ĠB ucht
Ġer zeugen
ĠV ice
Ġst ab
ĠSch icht
op es
Ġ18 45
ac c
ĠCh rom
ĠGe fÃ¼
Ġout fit
Ġher o
ĠSte ine
add y
ĠMed aille
ĠHoch stift
Ġeng age
Ġrest lichen
ĠPaul o
ĠEntwick lungen
sicht lich
urf ten
Ġ185 5
ĠEis ler
Ġess ays
ĠBrit ain
ĠOper a
ĠMa ine
Ġoffic ers
ĠCla ude
Ġkont akt
ĠKomment are
Ġmaxim ale
ĠRon ald
Ġexpos ure
Ġexter ior
ĠCapt ain
Ġdigit ale
ĠNR W
ĠAfghan istan
B ot
G lobal
L ear
P ark
c ure
m ach
re ide
ĠS H
ĠS quare
Ġb omb
Ġv iagra
Ġp ics
ĠG B
ĠV iv
Ġre ception
Ġst ake
19 46
19 34
ĠAl p
ĠTh ink
ĠLe hn
ĠDeutsch es
ĠNe ut
ĠBes ten
ĠSÃ¼d ost
RE AD
ĠOff iz
sw itch
ĠIde al
iol oge
ĠDres dner
Ġintrodu ce
sta ates
Produ ktion
Ġprefer red
ctic ut
Liter al
ĠMÃ¤r chen
E B
K ur
T ab
Y es
s n
in stall
Ġw ander
ĠA kte
ig ade
ĠG reek
ra ham
ĠW are
ĠC lemens
Ġk ar
enn is
ĠLand gemeinde
ĠAd vanced
Ġperson s
ĠGew Ã¤sser
wohn ung
Ġimp ossible
Group s
195 8
Ġinstall iert
ĠZwe ig
ĠGef Ã¤hr
ĠEvangel ische
ĠSQL Exception
Lin ie
spart ner
Ġcris is
J azz
L iga
l och
m ass
Ġd ump
le itete
ĠB ibli
Ġh insichtlich
ĠT s
ĠT oken
ĠI M
et o
ĠH aup
ĠRe chnung
ĠAn other
lic ke
19 21
ĠLand rat
Ġnur sing
ish ment
ĠSte p
Ġloc ale
ĠCar r
ĠStra hl
ĠOn kel
Ġeinz eln
Ġmov es
Ġprom pt
Ġgirl friend
Ġpurch asing
ĠUN ESCO
ĠMary land
Ġdiv or
ĠLux us
ĠDub ai
ĠVort rag
ĠAff airs
ĠkÃ¤mp fen
ĠProz esse
Ġven ue
ĠFreist il
Ġuntern ahm
ĠViz emeister
ĠLincol n
. [
B rit
V ID
d og
k orea
n Ã¼tz
Ġt iefer
an ced
Ġm ask
Ġc ou
Ġc enters
Ġh urt
ĠE volution
ĠH ydro
ĠL LC
ĠC art
ĠV in
Ġre lief
est r
ĠAn aly
ard in
ĠSp annung
ĠBe hinder
19 47
ring s
ĠZw eiter
ĠStud ents
Ġger aten
ĠPat ent
ÃŃ k
amb ling
Ġbin ary
ĠGast geber
Date Time
spar tei
Mem ory
Ġeg gs
B us
B ro
L imit
M oder
N ULL
T en
f ein
Å Ľ
Ġt ack
Ġw estern
ur laub
le id
ĠH Ã¤nden
Ġth in
Ġre produ
Ġan alog
Ġr ig
ĠUn i
ite e
Ġunter teilt
ĠAus gra
ĠVor feld
pl Ã¤tzen
Ġcl imb
ĠPer fect
Ġhead s
ĠDis play
ĠAg ain
ĠHistor ischen
ĠFlor ian
Ġorganis ierte
ĠGlas gow
Ġinde ed
Ġverstorben en
Ġgrund legen
F ar
S y
T ABLE
U hr
t our
t mp
he bt
ĠS U
Ġb asketball
Ġh ung
Ã¶ ten
Ġer fasst
ĠSt op
ik ern
Ġfor ever
ĠAn alyt
get Path
ĠSp ain
Ġnew est
Ġad mit
ied s
ĠMon ey
Ġdown town
Ġbl end
Ġrequire ment
ĠStaats oberhaupt
zy linder
Ġsicher te
ĠBud dh
Arch Ã¤
rel ation
Ġverhinder t
ĠTok yo
mag azin
ĠFun c
Ġsurpr ised
ĠDrag on
franzÃ¶s isch
D ienst
Ġd urften
an zeigen
al ben
ĠA ktionen
Ġo cean
Ġv inyl
ĠP ant
ed el
ĠH ad
ĠL iver
ĠC urrent
Ġl Ã¶sen
Ġan onym
ab a
Ġge ile
19 55
ĠMar x
ĠNach frage
Ġ10 5
Ġrec on
ĠUnivers al
ER E
Ġph ones
Ã¤s se
Ġem b
Ġausge dehn
Ġbef Ã¼r
Ġrest ore
ĠFest ivals
Ġdan eben
ĠAg ent
ĠMr s
ĠLoc ation
ĠAuss agen
Dis play
Ġneigh b
ĠStan ley
ĠWit we
Ġregistr iert
ĠFilmp rodu
1 12
F Ã¼gt
H ers
b ald
m ers
p ower
s ed
Ê ¿
at ively
al in
ĠS ay
Ã¼ g
ĠB in
ĠB Ã¤r
ĠF ell
ĠE mm
ir aten
ia de
pr im
Ġvor n
ob i
tell igent
sk on
ograph ischen
ux e
ĠIns olvenz
Ġconc ert
Ġredu ction
ĠMotor rad
Ġdiscuss ed
Verein igtes
ĠRestaur ants
Ġslow ly
Ġarg uments
Techn ische
ĠStraÃŁ burg
Ġgez Ã¤hlt
Act ivity
ĠCru z
izien z
F ranzÃ¶s
P I
Z usammen
p rach
u ous
Ġt alented
he ld
Ġm ounted
ĠA kten
Ġh its
ent z
ic ts
ĠF Ã¤r
ĠH Ã¤uf
Ġbe aring
Ġl adies
ab ama
ĠSt ifts
aus s
ĠÃ¼ber rasch
Ġ18 39
ob s
ick el
ĠSe il
ieren der
ĠSte ink
ener gie
Ã¤d te
Ġsho ck
aul ts
akes pe
ĠPat tern
Cl ub
Ġcra ck
Ġsens itive
Ġlos ing
ĠSur vey
Ġbeob achten
Ġsamm eln
ĠÃĦm ter
ĠHumb oldt
C opy
f i
o iden
r ise
w alk
Ġb ild
ĠB od
ro de
ĠK upp
ĠL ack
ĠO skar
ĠSch af
Ġr iding
ĠEr gÃ¤nz
Ġor ig
Ġ18 44
Ġ" ";
Ġen abled
ĠMit ch
ĠNach lass
Ġtra g
ĠSte iner
ĠEx il
ader n
ĠFre y
ĠAnd y
oy a
rag ung
ĠRes ort
Ġletz tes
Ġlang uages
Ġatt orney
ĠDu ke
195 6
col or
check EMail
ĠStad ium
ĠErinner ungen
Ġtempor ary
ĠSak r
Ã¤nk ischen
checkEMail Adresse
I Z
L B
g iving
k ers
k ens
l Ã¶sen
Ġb ars
as a
Ġn utzt
ĠH Ã¼tten
ĠL ey
ber gt
id get
ĠIn stead
get Parent
ĠSp enden
be teil
ick ed
ign y
ĠAus sehen
ĠGr en
iss er
ĠMon uments
urrent en
Ġbesch rÃ¤nkt
ĠKl ar
Ġ% )
leit ungen
Ġaufge hoben
ĠRÃ¤ um
ĠPil ot
ĠTenn essee
uert o
Ġbere chnet
Pl us
ĠDemokrat ie
ĠberÃ¼hm ten
ĠErschein ung
Ġspezial isiert
1 000
A U
Ġt oler
ĠS v
ĠB irth
ig nete
ĠP att
ĠW edding
ĠR ib
ab on
aus ende
we alth
ok o
ok raten
ĠSp ons
Ġ18 35
ĠBer Ã¼cksicht
ĠNach kriegs
cl usion
ĠMe ilen
Ġges ichert
Ġbek annter
ĠÃľber setzer
Ġgu ard
alle tt
jÃ¤hr ig
AS K
!! !!
ĠRel ief
trÃ¤ cht
Ġunterschied licher
ĠCr icket
Ġgenau e
ĠTal ent
Ġrespons es
kle id
ĠSchÃ¶n heit
Ġsubs cription
ĠErzÃ¤hl ung
Ġpul led
ĠBedÃ¼rf nisse
Fk EMail
D oppel
M ein
O wner
h ungs
Ġe ignet
ĠM E
ĠF eb
ĠF unde
ĠR ÃŃo
ir kt
ul ating
ĠN Ã¶rd
ĠV i
Ġauf einander
Ġun us
ste p
get R
ĠTh ai
Ġman ip
br Ã¼ck
Ġrec ip
ĠInd ustry
Ġbesch rieb
ĠCor porate
ĠText il
geord neten
Ġtreat ments
Lo ad
Ġgarant iert
Ġausdr Ã¼cklich
Sonst iges
ĠHimm els
L uft
R eihe
T AG
d orfer
e u
ĠA mp
ĠF at
ĠF lat
Ġk reis
ver folgung
ts piel
for cement
fr iger
ina e
Ġdr inks
Ġatt acks
Ġmethod Name
Ġmir ror
Ġport folio
ĠMc K
gef unden
195 4
195 9
ordin ary
Ġcomb ine
Ġerk annt
Co uld
ĠSter nen
Ġpassion ate
ĠJed och
ĠBeam ten
Pres ent
ĠBom ben
ĠPersÃ¶n lichkeit
G F
I hre
K ilometer
t ages
Ä Ĺ
Ñ ĩ
er d
Ġd ual
Ġb ass
st Ã¤dt
ĠG ib
Ġto ys
ĠH im
Ġre ct
est one
Ġde posit
ĠRe z
ord nen
Ġent rance
Ġdurch ge
Ġsh ots
Ġcomp act
ĠVor schlag
Ġgew orfen
Ġste uer
Ġfe iern
cre ts
Ġmus cle
rag ment
Ġgesch Ã¼tz
Ġprof essor
Ġphot ographer
ĠMot oren
ĠBerg bau
ĠTag s
ĠAlb ums
Ġexp ansion
umm y
fert igt
Ġcert ificate
ĠZahl ungs
Ġenc oding
ĠCal endar
gehen de
Ġnormal en
Ġtag ged
Ġbetre ut
ĠMedic i
Ġdrink ing
Ġverab schie
C ur
C ell
D T
H ave
L Y
M apper
T urnier
Ġt x
Ġs amt
Ġf as
Ġm g
ĠB ocken
ĠM C
ĠD A
ĠH Ã¶l
ĠL ic
ĠJ oy
ĠSt ufen
Ġj ene
Ġme als
los er
Ġgen Ã¼
ĠVor gang
ĠGra nde
ĠBundes land
ĠWh ich
arch y
Deutsch es
Ġcap abilities
ĠErw art
195 3
sta ats
Ã¤cht nis
ĠRegierungs bezirk
Ġlif etime
ĠWeimar er
ĠEqu ipment
Wind ow
Ġgeplan te
Ġnutz te
ĠInfe ktionen
Su ccess
Ġveranst altet
ĠHawai i
ĠSynag oge
? !
B ew
W olf
h Ã¶ch
k W
k inder
z elt
Ġs ummary
at in
re z
Ġh orn
ĠT ieren
ĠP aper
Ġl ies
ber eiten
ein kommen
ell ite
19 42
ĠAl lein
ĊĠĠĠĠĠĠĠĠĠĠĠĠĠĠĠĠ ĠĠĠĠĉĠĠĠ
Ġstud ied
rach ten
Ġdesign ing
Ġdel ight
ĠStaats bÃ¼rger
Hand ball
Ġfocus es
ĠKÃ¼nstler in
omet rie
Ġaccount ing
cond ition
stud ien
Rel ig
Ġcrit ic
Ġsuggest ions
Ġprem ier
ĠVerkauf s
ĠEins Ã¤tze
ĠJon athan
cu ador
Are a
Ġscr atch
Ġneut ral
Whe ther
W M
k Ã¼nfte
u den
Ġ ]
Ġf ro
ĠB elle
Ġl ob
gen s
ĠDe ep
Ã¤nd igkeit
cc i
ĠHe id
ĠLand gericht
Ġact or
ĠMed ium
ĠInter ior
Ġmod ified
Ġposs ibility
US A
othe k
ĠMitte le
Ġ180 8
ĠFrÃ¼h stÃ¼ck
Ġdef ine
Ñģ ÑĤ
PRO PER
Ġobserv ed
ĠPlÃ¤ nen
ï¼ Į
N un
g it
g ate
Ġn aked
ĠF aktoren
ĠG ay
ra iner
ĠW ille
ĠH ast
ĠR ound
ĠC C
ck el
ĠO ste
Ġr ug
av ed
Ġsch lÃ¤
ov iÄĩ
erv ed
Ġcomp ute
ĠGe fe
Ġges ammelt
ĠGemein schafts
Ver band
Ġass ume
Ġange kÃ¼nd
Class es
Ġbr ut
ĠMont real
196 1
EC ON
Ġangeb lich
ĠKommun ikations
ĠWol ff
Ġsubject s
ÑĢ Ð°
Ġumfass ende
Ġdur able
Ġzweit es
ĠLi bert
Ġguarante ed
Ġinstr uments
F loat
G reat
O t
R ichtung
m ay
v Ã¶gel
Ġs itzt
ĠS lot
ge fÃ¼hl
Ġm erk
ĠF unktions
âĢ İ
ten se
ĠL ese
iv ation
th ese
we ilen
ĠÃ ©
Ġpr ide
ĠMar athon
ĠNe ed
ĠAd v
oth y
ĠMag ic
ĠRuss ell
ĠErw in
ĠProble men
ĠCal c
ĠImp lement
ĠAntw orten
ĠSab ine
Ġscen es
ĠErwachsen e
ĠProt otyp
g ard
l t
n on
n umber
p Ã¤dagoge
Î ½
an ol
Ã¤ ule
Ġh am
Ġh rsg
ut ung
ĠT SV
ĠK enntnis
ĠW iesen
ĠN atÃ¼rlich
ĠV irtual
kt iven
ĠZ ellen
ĠEr folgs
Ġle iden
Ġex haus
ord ination
land e
ĠEn cyclop
Ġgen auer
Er ste
ins eln
Ġvers orgt
Ġmus lim
ling hausen
RE D
Object s
ĠReich en
Tra iner
Mar ia
Ġcal c
ĠEm ma
bed arf
Ġbuy ers
Ġant iken
190 1
Ã¨ ne
ĠKomp etenz
ĠBÃ¶ h
Ġpack aging
Ġnetwork ing
Ġverlie f
ĠKrit iker
Supp ort
ĠKos ovo
VAL ID
Ġign or
Ġevalu ation
ĠIdent itÃ¤t
ĠCustom er
Ġsech sten
ĠZerst Ã¶rung
ĠBeweg ungs
ĠOze an
ĠSchicks al
Rou te
hÃ¤l ter
Ġelig ible
C amp
H g
b sp
i ago
j Ã¤ger
o fen
w atch
Â §
an ter
re kord
ĠB ent
ĠB rem
Ġc ul
am ar
ĠP Ã©
ĠF aust
Ġto x
ĠC and
Ġl aser
ĠN om
Ġer lebte
ot ter
Ġge dr
ik ro
for um
iz on
.. ...
ĠPro tagon
Ġsh arp
li ament
enk ung
Ġange ordnet
ĠNord west
Le icht
mar ine
Ġresult ing
ĠDo ctor
Ġkon zip
cept or
Spe ichert
sprach ige
Ġexec ution
gesetz ten
ĠChem nitz
gre ifen
ĠSus anne
Ġgere cht
ĠBege gnung
C ategory
M ot
N ur
Ñ Į
ie hen
ĠK iew
ĠL il
ĠL uck
ĠJ as
Ġre ward
ĠSt uhl
os es
au e
be griff
ĠCh ines
Ġbes ieg
Ġro te
onder s
utz ten
Ġgew issen
ĠNe uk
Ġ16 00
Ġinter act
lÃ¤ ser
ĠKinder garten
ĠPl ate
Ġerhalten e
ĠOst preuÃŁen
Ġabge lehnt
Ġincre ases
ĠSen ator
ĠTyp en
Ġens uring
ĠJournal isten
Ġsug gested
Ġreason able
Ġinvolv es
Per iod
Ġdur ation
Ġdra wn
Ġfair ly
Ġcontrib ution
AX B
ĠJahrzehn te
ĠBeaut iful
Ġestim ated
Ġjun ior
= \"
G etter
k reise
m art
r isch
Ġ Ã¤nderte
Ġd ritt
ĠS ometimes
ĠT ul
ĠT reat
ĠP latt
ĠG itarre
ra gend
ĠW rest
ĠH us
Ġbe arbeitet
ber ater
ĠSt ro
Ã¼r zen
Ġmit ten
ĠSch ult
Ġpro s
ĠAn pass
sp annung
ant es
pr Ã¼f
her it
Ġte lefon
br unn
ĠPh ill
ĠOber bÃ¼rgermeister
Ġsk i
Ġbed ro
Ġeinge zogen
spre chend
Ġinternational er
ha pe
ĠDu o
druck s
ĠPal m
Ġlov ing
print StackTrace
Fe atures
fred akteur
ĠBewe is
ĠExper iment
ĠTat ort
Ã¤rk ung
Ġhum ans
Ġfab ulous
Ġprepar ing
Ġbess eren
ĠAnw alt
#### ####
Histor ische
Ġconflic t
H y
n ote
es er
Ġs ight
Ġb acter
ĠM uh
ĠD ritten
Ġh ate
ĠT auch
ĠI ra
ĠI wan
ĠH ob
sch ema
Ġg iant
ĠN iveau
ĠJ ason
ĠJ immy
Ġge habt
id al
Ġr ichtet
aus stattung
Ġle ague
Ġsch afft
lo h
ĊĠĠĠĠĠĠĠĠĠĠĠĠĠĠĠĠ ĠĠĠĠĉ
auf tritt
Ġro y
fin anz
Ġins ight
Ob wohl
AT ED
str Ã¶m
Ġdevelop er
Ġcheck ed
ĠSan ierung
ĠWar um
ĠVolks republik
wissenschaft lichen
190 4
190 9
Ġenter ing
Method s
Ġmaint ained
ĠWass erk
ĠkÃ¼nstler ische
Ġbrach ten
Ġzug unsten
ĠBÃ¼nd nis
W ord
k k
ĠS ain
Ġm olec
ro le
ĠD ritte
ĠW oll
ĠL O
ct u
Ġr asch
Ġpro tocol
tr as
ĠAb schied
Ex per
pro fil
ĠFra ktion
ĠPh ant
ĠTr io
aj ew
fo hlen
ĠMÃ¼n z
ĠVerein igte
Ġcolle ctions
ĠWohn ungs
Ġmar ks
Ġsl ots
Ġlink er
ĠBro t
Ġsever e
190 6
Ġcontrol s
Ġauthor ity
ĠNachbar gemeinden
Ġrow s
Bundes liga
Ġkanad ischen
ĠtÃ¼rk ischen
Ġauthent ic
ĠKent ucky
MÃ¶ gliche
ĠAtel ier
E ins
H ey
h ash
t lichen
Ġf ried
Ġe gg
ĠM iet
ĠM Ã¼ndung
ĠD sch
ĠK ohle
ber ichte
ann over
19 48
ob ahn
En tries
arbeit ungs
vers icher
ĠBundes regierung
ĠRes idenz
Ġstatt fand
ĠNieder lagen
Mod us
Ġsecond ary
190 3
ĠLou ise
fÃ¼ll ung
hers tellung
ĠDrei ÃŁig
Rem ote
ĠAR D
Ġausger ichtet
ĠðŁ ĺ
Ġinn ere
ĠGalax y
Ġrechte ck
ĠRal ph
Ġinvent ory
Merk male
I g
P ublic
T otal
c omponent
k linik
m ord
t as
â Ĩ
Ġt we
ĠS uz
Ġb reat
ĠM ick
ĠI R
ĠI an
et tel
et wa
ĠH Ã¤usern
ĠC u
Ġre chter
Ġdes c
Ġst uck
ver mÃ¶gen
eb el
Ġde cl
00 00
ĠÃ¼ber liefert
gel as
ĠCh ancen
ĠSe ch
ĠAuf klÃ¤rung
18 90
ĠWe ing
param s
ĠPar ad
Ġind ia
ĠBo ots
ĠFe ucht
ĠKr ise
erg ie
Ġoper ated
196 3
Ġ180 3
ĠKommun e
Bo den
Ġqualif izierte
ĠErk enntnis
Ġstrength en
ĠAtlant ic
ruit ment
ĠSchwar zw
ĠPow iat
ĠÂł ĠÂł
G ood
r im
Ã¼ bt
st iegs
Ã¤ ischer
ĠD in
am an
sch ers
ĠC redit
ĠN ort
Ġan gewand
ik ts
Ġauf weisen
tr itts
ĠSp er
ĠJahr gang
Ã¶r n
Ġman agers
St atic
Ã¤l en
of ern
aw t
Ġwhen ever
Sch l
arm onie
ĠStud iums
ĠMed ik
ĠHaus halt
ĠWerk zeug
ĠCom edy
Ġant icip
Ġstay ing
Ġpack ed
Ġversch oben
ĠSho uld
parse Int
typ es
ĠFrÃ¼hl ing
ĠGemark ung
B ank
D rag
D ynastie
S aint
k opp
l ernen
s an
ch at
he id
st Ã¼cken
Ġn ude
ĠM Ã¼ll
ĠF ron
ĠH aving
um me
Ġl ip
Ġl aden
ĠZ wer
Ġun ion
iz itÃ¤t
19 49
ide te
ens atz
Ġen ger
tell ten
omm y
Ġar ms
ĠHe irat
Ġper mission
Ã¤l z
Pro tocol
ĠGem Ã¼se
rif ft
En ts
ĠBo eing
pla in
ĠSc ript
reib ungen
imp ly
AN T
ĠGener ationen
med ia
OR Y
ĠRad rennfahrer
ĠFest schrift
ĠTechn ische
ox id
anc el
ĠRed akteur
ĠTro cken
Ġstudy ing
Ġassist ant
ĠschÃ¶n sten
Ġfiel en
Ġumfang reich
Ġweib liche
Sa ale
ĠHarr is
E st
E mp
R ob
R ows
T it
T hr
l ov
m achen
Å ¼
Ġt a
Ġw Ã¶ch
al p
Ġc rypt
ĠF ine
ĠE valuation
Ġto oth
ĠR ade
Ġer fre
ĠV III
Ġy oga
Ġver ify
ub b
ant ie
ite es
ink i
Ġany way
lock en
Ġcl ubs
ĠGrund riss
other apie
Ġlist ings
Ġret irement
ĠSol id
.... ....
Ġapproach es
ĠDisk uss
bas is
Don ald
Ġaustral ischen
ĠmÃ¤nn lichen
B ER
h our
ĠS urf
un ivers
Ã¼ ben
ĠM am
ig ter
ĠK iss
ĠW upp
ĠL ip
lich ten
ĠO v
ĠSch mal
ei ra
Ġent deckte
ĠAus lands
auf ent
vel and
unk er
Ġ[ ]
Ġperform ances
Ser ializer
Unter nehmer
195 2
ĠStat thalter
ĠWeiter entwicklung
ĠFreund schaft
Ġfil ters
ĠerhÃ¶ hen
Ġinj uries
Ġschwed ischer
Ġbelie ves
ĠlÃ¤ng ere
Ġvolunte ers
ĠAuseinanders etzungen
sph ase
Ġfundament al
Ġhinzuge fÃ¼gt
ĠFlieÃŁ gewÃ¤sser
ĠFertig stellung
F T
L ie
W eiÃŁ
m isch
Ġt ran
Ġp ocket
ĠM esser
ĠI B
ĠW Ã¤hler
ten nis
Ġst ations
Ġcon n
enn te
io den
ĠMe g
ish es
ĠFl Ã¼ss
Ġhand eln
ĠMon ster
ipp en
ĠHaupt bahnhof
Nach bar
Ã¶st liche
Ġeng aged
ĠBas eball
Ġcor respond
Ġcall back
ĠVe ktor
ĠFÃ¼hr ungs
valid ate
ĠVorsitzen den
ĠAuss icht
imple Name
Gemeinde auflÃ¶sung
ĠFal ken
ĠTrotz dem
ĠDrit ter
ĠBundest ag
ĠForts etzung
O pt
t ier
ie de
Ġb b
Ġf iber
ĠB omb
om i
om o
ĠF ive
ĠH ous
Ġg ig
ĠL oth
Ġ2 20
ĠV iagra
Ġal ive
ĠO ft
Ġver dien
Ġr ural
Ġun expected
end ant
ĠVer teilung
ap elle
ok ed
hn er
Ġ18 14
Ġ" ."
19 16
ĠAl aska
ĠAm tes
Ar ten
Al though
Ġze igten
Aus gabe
Ġgener ic
ĠNo Such
Ġinc ident
ĠForsch er
ĠAir es
ĠAnt ike
Sh op
ĠHistor ische
ĠRom a
ĠTurn iers
Ġcra fts
ĠUrs ula
Ġumfang reichen
Ġchines ische
ĠScott ish
Ġmusikal ische
Ġphilosoph y
ĠTob ias
nor mal
Ġamen ities
F P
T ax
f onds
j ing
o en
p ons
w Ã¶rter
in ch
ur teilung
Ġf icken
Ġm ile
Ã¼ fen
ĠD M
ĠH ud
ĠR ac
ĠR ights
ĠC ut
ik ers
we iger
Ġle af
igen en
() ),
ĠAr te
Ġ18 25
Ġ18 41
ĠPro gr
ho le
ĠAus richtung
ĠSchw Ã¤b
Ch unk
Ġteil te
ĠSal on
Ġreal isiert
ĠSchul ter
Ġperfe kte
ĠPlan eten
ĠDen ver
ĠFund ament
Ġsouth ern
Ġdiagn ost
ĠanschlieÃŁ enden
ĠBeaut y
ĠFriend s
ĠwÃ¼n schen
ĠBran chen
ĠHinz u
Ġgemel det
L ei
s ign
Î µ
ĠS ize
el ly
Ġh anging
ĠP est
ĠW esen
ĠL ac
ber to
ĠV at
Ġan th
ĠU rauffÃ¼hrung
Ġdem ands
og ne
av ax
Ġsch la
rom an
ide en
utz er
ĠSchw ein
Ġlie gende
Ġalle ged
De vice
Ġra cing
ĠBes tellung
vent ional
Ġ% ,
ĠUr kunde
Ġtrans lation
Mar ie
met ter
ĠHel en
ĠGen f
mark e
viron ments
Ġabge leitet
Ġtext ure
Ġredu cing
ĠSalz burger
FI X
Mon itor
Ã¸ r
ĠSamm el
ĠFF DC
ĠEtw a
Ġworkshe ets
Ġerkenn bar
Ġgefe iert
ĠBreis gau
A fr
G O
U uid
p n
Ġs Ã¤chsischen
Ġe hr
ĠM ic
Ġ1 12
ut age
ĠP eking
ĠH K
ĠH au
ĠL ane
Ġre action
ĠZ iegel
Ġver e
Ġde fense
ĠAn alysis
ĠVer f
Ġcon version
ĠUnter halt
ĠVor runde
Ġdire ctions
Ġfeel ings
ĠFranz isk
ĠRegel ung
Land es
ĠAnge hÃ¶rigen
gor od
ĠWol ken
ĠBill y
Ġporn o
Ġpercent age
Ġcarry ing
ĠEigent um
ĠspÃ¤t estens
Ġwand te
Ġcontinu ing
Ġweib lichen
ĠWett kampf
ÅĦ ski
f aktor
v ik
Ġd ad
te or
ĠS ymb
ĠS ierra
Ġb lau
ĠD od
ĠT O
ĠP ause
âĢ ²
ĠK ick
ĠH IV
ver anstaltungen
ĠIn fl
Ġex it
ĠAr mut
atur en
Ġpr ize
rÃ¤ um
iet ies
akt ions
gemein det
ĠFe ature
ĠChar acter
press ed
bl og
Ġret ten
196 2
bre ite
Parameter ID
Ġpaint ings
trie be
ĠHard ware
Ġsuppl ier
Ġsy mp
Ġiniti ative
Dur ation
irurg ie
ĠAlf ons
> .
B ound
D ruck
N och
S im
b ig
f al
k asten
p it
p are
Ġw is
ar ium
Ġm useum
ich s
Ġp ad
Ġp iano
ĠM other
ĠD utch
Ġh ide
ig aret
ĠK unde
ĠL enn
ĠV ic
Ġj en
ov es
Ġ18 37
Ġsp ont
ĠAb tei
Ġsh irt
18 0
ĠVor gehen
ĠFl ur
ĠGes ichts
ĠGeb Ã¤uden
Ġ: :
Ġind ischen
Ġdam aged
bau werk
Mann schaft
asch a
Ġcar pet
aun en
ĠSchool s
ĠTÃ¼r en
ogn ition
Ġcook ie
ĠStad trat
Exec utor
Top ic
Ġerf Ã¤hrt
ĠLy on
Ġlok ale
Ġil leg
zell an
ĠTschechos lowakei
ĠBerÃ¼cksicht igung
M AN
R aum
z antin
ĠB j
Ġp itch
ut a
âĢ ³
ĠK ilometern
ĠH obby
ĠL an
ĠC ash
and ro
Ġer gab
la ps
ĠZ oo
Ġr ib
Ġaus gesetzt
men ted
ĠRe ife
sp an
ĠSe lect
ĠAuf tritte
omp son
Ġtr im
amm ed
ĠNe ver
ĠGesch Ã¤fte
Ġover w
Ġprodu cer
gew alt
ĠTra il
ĠTra ck
ĠSh akespe
ĠDurch schnitt
ĠsÃ¼d afr
Ġevent uell
Ġexp lan
Auf gelÃ¶st
ĠStr ess
gÃ¤n gen
Ġregion ale
Ġsmart phone
cla zz
Ġdurchschnitt lich
Ġsurpr ising
Strateg y
B asketball
S N
W al
Ġs aÃŁ
ur ist
Ġf esten
Ġn ob
ig ert
ig rant
ĠP ommern
ĠH E
ĠC hl
ĠC ool
Ġl uther
ĠN FL
ĠSt ark
Ġy e
eb y
Ġwar ning
Ġ18 36
ĠVor name
Ġgew isse
ĠJahrhund erte
Ġgesch Ã¤tzt
ĠWor ten
pre chung
ĠStaats anwalt
ĠSeit dem
Ġverl ieren
wissenschaft liche
ĠGar de
Ġsetz ten
Ġnatur ally
195 1
ĠhÃ¤uf iger
Ġhohe m
ĠBahnhof s
Produ ct
verstÃ¤nd nis
Ġrob ust
uum l
ĠQuadrat k
P ap
b ilden
c ements
m ol
p oints
t urm
v oid
~ ~
is i
ĠS ympt
Ġin halt
Ã¤ hre
ĠT Y
im ation
ĠF OR
ĠK app
ĠK enntnisse
Ġl aid
Ġan spruchs
ĠO w
Ġfor g
ien e
ue z
ĠEr mitt
Ġsch ed
19 15
Ġwor n
ĠHer itage
Ġtime out
Con structor
ĠNor m
Ġact s
ĠBet riebe
ĠHaupt mann
ĠDr ess
Ġsk illed
ĠMark graf
Ġlo aded
Ġdav or
Ġoffic ially
ĠHeil bronn
ĠFinanz ierung
eme tery
ĠUR I
Ġlands cap
Ġkeiner lei
Ġdish es
BevÃ¶lker ung
ĠProduzent en
ĠFÃ¤h igkeit
Ġcir ca
Ham burg
ĠJugoslaw ien
Lud wig
F ootball
H as
I r
K reuz
L ondon
P lat
g Ã¤ng
h ot
h Ã¤ngen
j as
Ġb oss
Ġf ut
Ġm Ã¼sse
ĠM ahl
Ġc arr
ĠT akt
ĠF resh
ĠL iz
ĠC ant
Ġre ichte
ĠSt all
ann ers
Ġde kor
Ġne ug
ĠSp ir
Ġsp oke
ac ional
fe kt
amm ung
ĠZeit ungen
Pro file
ĠStud ierenden
ĠArch ive
ĠMittel feld
olv ing
Met al
Ġvoll kommen
ĠBesch luss
ĠLog o
ĠPo et
ĠKÃ¶nigreich s
Gra f
Ġmaint aining
ĠOk res
klass igen
Ġboy friend
ischÃ¶ fe
! âĢĿ
H istory
N etz
N orth
i ÃŁ
m ult
r ath
in f
Ġf ern
Ġf erner
Ġm un
il og
ĠD Ã¼r
am azon
ĠT ickets
ĠG am
ra ce
ĠK ot
ĠK ell
em ester
ĠL ett
Ġer rang
ĠU V
ĠEr halt
iz it
Ġ18 38
Ġsp aren
ĠEin zug
be zirks
Ġkn ock
ĠEl be
ĠFrank lin
ender t
ĠDar stellungen
ĠPl Ã¤tzen
Ġopp osite
ĠhÃ¶ch st
aser ne
istic ated
getS impleName
Ġsuggest s
ĠVertra uen
ĠEins Ã¤tzen
ĠDak ota
Ġartw ork
S O
S ach
in cluding
Ġw Ã¤hlte
Ġin telligence
ĠB ond
st isch
ĠR Ã¼st
ĠC ad
Ġk unst
ĠSt ufe
ĠIn strumente
get Node
ĠEr ziehung
ĠEr nennung
ĠAr c
ungs ort
In tern
Ġen ge
ĠSe hr
ĠEn try
Re prÃ¤sentantenhaus
Ġthem es
ĠgroÃŁ em
Ġfind est
ĠCar ib
ĠWei h
Ad min
wor ten
ĠNeben fluss
Ġrep airs
ĠKle idung
Bau denkmal
Ġop ens
Med iziner
Ġdescrib es
aller ies
Ã´ ne
ĠConne cticut
ĠLeiden schaft
Krit ik
M aterial
R h
Ġt one
Ġs olle
at on
ĠS ultan
ge x
Ġm v
ĠT ODO
ĠH inder
sch mer
ĠR iesen
Ġg lobe
ĠL ug
ĠL ohn
ĠC row
ĠC OM
Ġbe weg
ĠN elson
Ġst range
ĠSch al
ĠSch ienen
Ġver fasst
ste ins
aus cht
ĠAr sen
ac le
ake te
sh ine
ata illon
zeich ner
ĠSo ul
Ġind ire
Id x
ĠNor weg
ĠGew ichts
He ad
ĠComp lete
Ġcoun sel
Ġhistor iques
ĠFin ance
Ġtradition s
Ġcontrol led
IG N
Ġpriv ile
lim it
lim ited
Ð½ Ð¸
Ġregard less
ĠFeder ation
Ġchrist ian
Ġstrug gle
ĠEconom ic
Ġtele phone
ĠBrow ser
B este
P ierre
T ile
b rief
h ier
ĠS id
ĠS lowakei
ge gangen
ĠA BC
ĠB ast
ĠB aut
ĠT afel
ĠF em
ĠW oman
Ġal ias
ab st
kt on
ĠSch ema
ak o
Ġcon stra
Ġsch ein
ĠDe cken
Ġsp acious
Ġman che
Ġreturn ing
Ġdo ctors
Ġtr ips
Ġcons erv
Ġpl ugin
Ġviel fach
ĠFe atures
new Instance
ĠUr sprÃ¼nglich
ĠKn ight
Ġcare ful
ĠEnt deckung
andid ate
Ġstat ements
Ġgre y
Ġface book
ĠGeist es
Ġdecor ating
ĠBist ums
Ġprincip al
Ġque ue
ĠBlo od
ĠCommon wealth
AAAA AAAA
ĠBulgar ien
ĠInde pendent
uis ine
ĠSkulpt uren
ĠKolumb ien
R om
n ius
Ġw aters
ĠS hel
ĠS MS
Ġf ran
ĠE llen
ĠK ast
Ġbe deckt
ul u
Ġer lern
Ġer baute
Ġst able
au c
get Default
Ġcon d
ord neten
19 17
ĠMit be
18 96
ace ut
res ted
ĠGes etze
Ġstr ip
Ġverw altet
ĠSÃ¼d tirol
Ã¤nder ungen
Ġform ula
ĠCor p
Ã¤m me
ĠAnt ar
ĠRel ations
Ġtradition elle
kn Ã¼pf
Ġleb end
Ġtravel ing
ĠgrÃ¼nd eten
Oper ator
Ġill ness
Ġfall ing
ĠQualif ikations
Ġsus p
Ġelektr ischen
ĠCert ificate
Bet rieb
Ġshel f
Ġton ight
Ġrub ber
ĠNeum ann
Ġmort gage
G EN
M R
R itter
U pper
x ff
en ted
Ġb ands
Ġf etch
us ions
ĠF utter
Ġl as
Ġk lin
ad dress
ag ger
qu in
Ġcon vey
Ġ18 34
be y
ĠBer eit
Ġob s
ork ommen
Ġseiner zeit
ĠAd l
ĠÃĸ konom
bes te
utt ons
ĠRÃ¼ck tritt
Ã¤uf e
Ġequ ivalent
Ġclos ing
Ġwalk ed
ĠHa are
Ġbeteil igten
Ġbeach es
iale kt
Ġnotwend igen
ĠVort rÃ¤ge
Ġscient ists
quis ition
Ġelectric ity
Ġverbess ert
ĠProte ction
Go ogle
Ġcircum stances
ĠJoh an
E isen
M r
S onder
S lot
T her
f ish
o i
t otal
Ã °
Ġd imensions
at io
Ġn ic
ig ation
ig sten
ĠF urniture
ĠG y
hr ingen
ein satz
ab is
ce iver
ver eine
ĠSch ra
ib m
ĠBe an
Ġvor stellen
auf lage
cl ip
Ġtra um
ym us
enk te
Ġfre ier
Ġpay ments
ĠÐ ¿
ĠKlein en
Med ien
zwe ck
Ġregul Ã¤ren
ĠSold at
Ġkrit isiert
ĠBÃ¤ ume
Ġincreasing ly
ME SS
ĠBrook lyn
Ġwire less
ĠVie h
AuÃŁer dem
ĠEinzugs gebiet
h aut
h ielt
k os
t iere
at ra
ar ts
Ã¼ tt
ĠB ased
Ġc ult
ĠG ary
ĠH ert
ĠH amp
sch ool
ĠC afÃ©
Ġth esis
ul us
Ġdes wegen
tr es
oc al
ĠAb raham
Ex t
Ġgen der
bar es
Ġinter action
off er
rich en
Ġger ufen
Mit te
Ġeinz us
part y
Ġclass Name
Ġchild hood
Ġâ ĪĴ
Ġoper ator
Client Execution
Ġwatch ed
Her r
Ġdigital en
Ġapply ing
Ġmechan ical
Ġcirc uit
Ġcolumn s
wal de
ĠGene hm
ĠEuropameister schaften
Ġschott ischen
Absol vent
ĠAuthor ity
intend o
ĠRober ts
ĠBraz il
ĠBuen os
C ast
W appen
s aison
w il
re quire
Ġf usion
Ġm or
Ã¼ hen
ĠG row
ĠK em
ĠK id
ĠH Ã¼r
ĠC ommerce
ĠN as
Ġr ated
Ġj ahr
ĠAn c
Ġhe aded
Ġor al
ant ische
ĠUn fortunately
ĠLe er
olog in
app ly
Ġgen ehm
Ġtra iler
mit ten
dr ama
De claration
Ġacc ord
ĠAll ianz
ĠGer ade
pf el
âĢ¦ )
ĠHo ppe
Ã¤nder ung
ĠRad i
IT H
gar ter
osoph ie
Ġbeautiful ly
ĠMinister ium
Ġlow est
gehen den
Ġneg ativ
Ġbelieb t
ĠCarol ine
Ġbeein druck
Ġrecommend ations
ĠCle veland
Ġintens ive
maler ei
ĠVerÃ¤nder ung
Ġshap ed
ĠTerr asse
ĠDemoc ratic
Ġgesund heit
ĠKÃ¤r nten
ĠKore an
Ġanb ieten
& #
K lein
g ymnasium
h um
k arriere
} );
» ¿
Ð ¹
ch sen
es i
Ġs uck
ar at
ur d
Ġf ahr
ĠA tem
ul se
ul ierung
ĠSt ories
ĠU we
Ġver lauf
Ġch ances
Ġum liegenden
be ing
Ġunter stellt
Ġman gel
Ġ4 50
ĠPr ize
fl Ã¼ge
Ġcont ents
Ã¤ch se
Al ben
Al tern
ĠMed aillen
ommun ity
Ġkein em
ĠSpe c
ĠLebens raum
Ġentstand enen
Ã¼b ung
Ġest imate
Ġgem essen
welt meisterschaften
azz o
ĠOl iv
Ġnie mals
Ġauthor ities
Ġinvolv ing
stud io
ĠSied lungen
Äį ak
ĠDokument arfilm
ĠEdition s
Ġdise ases
ĠKÃ¶n ige
Ġverbesser te
E ven
G leich
H tml
N N
b il
Ã ĩ
ï »¿
ĠB ureau
Ġc ush
ĠT ell
ĠT Ã¤ter
ĠC V
ĠN agel
ĠV amp
ĠV Ã¶gel
ĠRe prÃ¤sentanten
Ġnach weis
Ġ18 32
Ġ" )
Ġsp ray
erk rank
teil ten
Ġtr usted
pro perties
ĠSchw ert
stand es
sk irche
urr ican
Ġdr ama
lÃ¤ chen
Ġact ress
ĠOber flÃ¤chen
ĠBundes straÃŁe
ĠInter ruptedException
ĠCl ark
Ġpolit ics
Ġdi y
Ġhistor isch
bereich en
Ġconsider ation
Ġsicher lich
ĠOut door
ĠLaw rence
Serv ices
Ġhop es
Ġtarge ted
Ġnewsp aper
A lias
H in
P P
c ole
p fer
s endung
Ċ ĠĠĠĠĠĠ
Ġa esthet
Ġf its
Ġm ad
ro v
Ġein gemeindet
ĠK ies
Ġz it
Ã¶ hne
Ġge zwungen
ver ordnung
ah me
Ġdem nach
Ġpro ve
ĠEr forschung
ĠÃ¼ber s
Ġ18 33
Ġsp in
ĊĠĠĠĠĠĠĠĠĠĠĠĠĠĠĠĠ ĠĠĠĠĠĠ
ĠSe ason
Ġcl ar
Ġverb ringen
Ġdel ivers
ĠMitglied s
Ġcommun icate
ĠWer ks
ĠBÃ¼ chern
pre ise
anad ier
Ġhol en
ĠRed aktion
ĠAp ostol
ĠWel come
kap ital
ĠTur k
Ġdet aill
ĠHy per
ĠPor sche
ĠSus an
ĠLook ing
rec ord
Ġobvious ly
ĠFur ther
pie ce
ĠClaud ia
Perm ission
ĠkÃ¼nd igte
Febru ar
ĠCommer cial
ĠLiss abon
B inding
W ol
f ted
j oin
u eller
w inning
es c
al on
ĠS or
Ġf ru
ĠD ial
ĠH unter
ĠL ub
um per
Ġbe halten
ĠSch Ã¶ne
Ġdem oc
ĠVer hÃ¤ltnisse
Ġ18 28
fer enzen
ĠAl m
ĠTe ich
ĠAb satz
ĠLe uch
ĠVor jahr
Ġgew alt
Ġgr at
ĠAd miral
ĠMan ual
Ġbefore ClientExecution
OR DER
deck er
Ġjewe ilige
ĠSchm id
Ġintegr ation
ĠPriv ile
Ġwonder ing
Ġren omm
ĠNamens geber
ĠEnter prise
Ġdepend s
ĠGeheim nis
Ġkulture lle
Ġsinn voll
Ġverurs acht
Dest ination
Ġbeher bergt
T itle
v illa
w enden
Ï Ĥ
Ġt ape
Ġt rugen
is lation
ĠB eine
ĠT Ã¤tigkeiten
ĠC hal
ĠC ancer
Ġge fragt
ĠO ra
ik at
ĠZ en
Ġr ational
op ed
ĠAn leitung
Ġas set
Ġyour s
ĠEin stellungen
ail ing
Ġpr est
Ġpr ime
ĠLe gende
ĠOr n
Ġcomp atible
Ġlie b
Ġspe akers
ĠPe ace
ift y
utt a
ĠDar in
ĠLei b
ĠMo or
Ġgel Ã¶scht
Ġlink e
Ġerschien enen
ĠSen ate
ĠnÃ¶rd liche
ĠSchÃ¼ler innen
Ġfunction ality
Ġhon ey
hib ition
ĠSa ale
ĠTur in
Ġple asant
Arch iv
person en
Ident ity
ĠThÃ¼r inger
ĠSem ester
Ġmedizin ischen
ĠGab rie
Ġsomew here
Ġangrenzen den
L at
L inks
f as
m ill
w oche
er gebnis
he orie
Ġf lying
st iftung
Ġc urt
ed a
Ġto y
ĠH eld
ĠH air
sch atz
Ġg ap
ĠL ess
ĠL enk
ĠC ous
Ġbe ur
ĠN ike
ĠV W
Ġge prÃ¼ft
la yer
ĠVer pack
Ġch a
pr es
ĠTh ough
Ġdurch setzen
ĠAus flug
ĠSchw erin
Ġspe aker
Ġsc ores
ĠMus lim
ĠHand werks
Ġplan e
Ġcheck s
Ġcal m
ĠApp s
AC H
Ġmein t
Ġbro ke
ĠTre ppen
Ġzwe if
Ġbisher ige
Ġphys ikal
verw altungs
Ġqualif izierten
ĠWirk lichkeit
Ġexpl oring
ĠEv ans
ĠKÃ¶nigs berg
Ġschwed ische
Ġdemonstr ate
Ġdauer te
ĠWay ne
ĠGesell schafts
Ġforec ast
Assign able
Dam it
m ung
in strument
at ar
ĠF erg
ĠC E
ĠV olleyball
ot ischen
ĠSt immung
Ġ18 10
Ġres et
Ġres idence
Ġget estet
to Array
ĠReg istr
Ġbel ong
Ġfind ings
ĠMÃ¼n zen
ĠHaupt ort
Ġ24 0
ĠCl ar
ĠDo pp
ĠComp et
kon zept
ĠIns pe
Ġprom otion
Ġtyp ischen
ĠBur schen
Ġsle e
Ġliter ally
Dr iver
Ġprakt ische
ĠDor othe
ĠEss ay
ĠYear s
ĠGolden en
ĠAnth rop
ĠkÃ¼nstler ischen
ĠBundest ags
ĠInspir ation
Tro tz
Ġbeauf tra
W ieder
e ffe
r ent
y th
Ġd rain
ĠA ra
ĠM ent
Ġh ors
am ine
ĠF ul
ĠG ute
ĠK ill
ĠH os
em er
ot ype
ĠIn itial
get E
ant ischen
Ġnach folgenden
ac a
ĠCh Ã¢
St il
min ute
Ġpar ad
ĠBand e
stÃ¤nd ige
ĠJohn ny
Ġhistor ique
ĠThere fore
ĠStr Ã¶m
Comp uter
opt ions
Ġnorth ern
ĠSaar brÃ¼cken
conne ct
rupt cy
ĠArchÃ¤ ologie
Ġdurchschnitt liche
Av ailable
Juni oren
Ġunterr ichtete
ĠSauer stoff
ĠAx el
Ġumf assen
ĠReck linghausen
B ud
P ublik
S ol
w affen
Ġ ï¿½
Ġd ienten
Ġb elt
Ġn odes
ĠK amm
sch rau
ĠL E
Ġim pression
id as
ĠSp a
ĠSp ie
Ġ" ,"
oc aust
ĠTh ompson
enn amen
Ġar gentin
18 99
teil ungs
fall enen
ĠPf lanze
ĠSÃ¼d amerika
Ġcustom ized
ĠWer ft
ĠsÃ¼d liche
deck ten
ĠSÃ¼ ÃŁ
Ġleben den
cond itions
Ġrad i
Med aille
Ġzurueck gegeben
ĠAnge legenheiten
ĠHeraus forderung
Ġbedeut enden
Ġrelig ion
imed ia
Ã¶ss er
Ġangegeben e
Ġpred ict
Ġfrequ ent
Ġadvant ages
ĠEreign is
ĠkÃ¤mp fte
Ġlauf enden
Ġtourn ament
D D
N a
S K
b og
e z
h ub
er pen
Ġs enden
ĠD oc
ĠD ays
ĠF o
ĠC lan
ĠC oup
ĠV u
ĠJ Ã¤nner
Ġr ising
ĠAn reg
esch ichte
esch ool
Ġapp ointed
ĠGra y
ĠCon text
Ch ina
uk a
ST ART
ĠBar ry
Ġemp ower
Ġmoder ner
ĠKultur en
Ã¤ss ern
ĠSein en
ĠSand stein
mel den
ĠHal f
ĠWell ness
Ġrepresent ative
Ġprakt ischen
Ġtemper atures
Ġvergleich sweise
Ġattend ing
ĠPot ential
Ġgesetz lichen
Ġhil f
ĠMagn us
Ġreligi Ã¶sen
Ġsatisf ied
tran sport
Ġfot ograf
Ġnu clear
Jes u
Ġoffens ichtlich
C ity
S ite
c amp
er z
Ġt ier
Ġb att
Ġin k
ĠM ason
ĠD ou
ĠD iss
de i
ĠT rop
ĠK az
ĠK opp
ten burg
ĠC arm
eit h
Ġst ages
Ġver Ã¤ndern
ug ger
for ward
Ã¶r ten
geb ot
Ġbet Ã¤t
Ġbo ards
Ġacc eler
ĠBl itz
13 5
ender s
ĠNieder schlag
Ġprocess ed
ĠJe de
Met rics
Sp an
ĠfrÃ¼ he
vÃ¶lker ung
ĠWith out
Ġclos et
Ġentfern en
Ġbeteil igte
Ġrepresent ation
Column s
ĠLieb lings
Ġkom ment
Ġentsp ringt
Christ ian
Ġausges prochen
ĠAster oiden
Ġscre ens
ĠLiver pool
Ġbeauftra gt
, ,
B ur
g ast
p el
s i
t v
un er
Ġv ene
ĠB oss
ĠB innen
Ġp ace
Ġh ess
ĠH Ã¼tte
Ġg la
ĠL ion
Ġer setzen
Ġver mitteln
Ġr anging
Ġor ganisation
ard i
Ġwe iss
ĠDe an
Ġvor bereitet
geb ir
Ġcomp licated
Ġins pection
min ded
For mal
Ġbas eball
Ġzahl reicher
ĠSil v
++ ]
ĠKom Ã¶die
Ġpot entially
spe kt
Ġcoup les
ĠCamp bell
ĠWebs eiten
ĠAbgeord nete
Ġther ap
Ger man
penden cies
Change d
ĠRepublic an
Bi ografie
Ġsamm elte
Ġspect acular
ĠEinkauf s
Ġlyr ics
K ont
L it
N ein
V M
h aar
m ine
Ġd imension
Ġa de
Ġa partments
Ġw ed
ĠP iano
ĠF uss
ĠJ av
Ġre friger
Ġge omet
ĠSt reich
ĠSp in
lo hn
Ġen v
ĠAus bruch
Ġhas n
lieÃŁ t
ĠFre ie
ende d
Ġcl ip
Ġbesonder es
Ġview ing
Ġerhalten en
do ors
ĠEntwick ler
Ġhead ing
ĠRed u
Reg ister
ĠWeb prÃ¤senz
kn oten
Ġdeal ers
ĠFluss es
Ġattra ct
Ġhab t
Ã¶p fer
Pl ugin
ĠBade zimmer
Ġveget ables
ĠFerr ari
/ {
B ased
I AL
h aw
h attan
i ja
Ġd st
is emit
ie ch
ĠA pos
ĠB ib
ĠT et
ĠK etten
[...]
