#version: 0.2 - Trained by `huggingface/tokenizers`
e r
e n
i n
c h
Ġ d
Ġ a
e s
n d
i s
o n
i t
i e
Ġ t
Ġ s
o r
Ġ w
a n
t e
a r
Ġ S
h e
a l
a t
r e
Ġ b
u r
u n
Ġ in
u nd
i ch
a s
e in
Ġ f
e l
u s
Ġ m
Ġd er
Ġ A
Ã ¼
l e
g e
Ġ B
Ġ v
Ġ 1
Ġ o
Ã ¤
Ġ und
Ġ M
i l
Ġt he
Ġ D
s t
in g
r o
un g
t er
Ġ p
i g
i on
d e
Ġ h
Ġ c
Ġ n
o l
Ġ P
Ġ T
Ġ (
Ġ ein
â Ģ
Ġ F
a m
Ġ G
i m
Ġd ie
Ġ K
u t
Ġ E
en t
o m
s ch
r a
Ġ z
Ġ I
e m
Ġ H
Ġ W
e t
Ġa nd
h r
Ġ R
Ġ L
i c
t en
is ch
Ġo f
Ġ g
Ġt o
e d
u m
Ġ C
b er
a nd
Ġ 2
u f
Ġb e
Ã ¶
is t
i r
e it
Ġ1 9
a ch
Ġ l
Ġ er
Ġ N
Ġ V
Ġ J
d en
Ġv on
i er
Ġt h
Ġa l
d er
c k
Ġ k
u l
Ġa n
Ġd es
l ich
Ġd en
er s
i v
Ġ im
o t
g en
Ġ2 0
Ã¼ r
at ion
Ġ e
o w
ĠS t
i k
Ġ O
a b
es t
o s
a d
Ġm it
u ch
Ġ y
Ġ ge
an n
l a
Ġ re
Ã Ł
t s
Ġ U
Ġd as
Ġ âĢ
i es
i f
e b
al l
Ġs t
Ġy o
Ġa uf
k t
es s
c t
e i
Ġf or
Ġ Z
Ġ is
a f
a h
v er
ĠS ch
i en
Ġz u
ie l
Ġw ur
Ġv er
Ġ on
i d
a y
isch en
o p
Ġd em
Ġ ist
u p
Ġal s
Ġf Ã¼r
c e
te l
ĠI n
t h
Ġ Ċ
a hr
ich t
it h
u g
er e
a g
Ġwur de
Ġa us
il l
Ġ un
n e
o g
Ġd e
as s
b en
m en
Ġ r
w e
or t
in d
a v
ĠV er
Ġein e
Ġw ith
er n
0 0
Ġw ar
Ġs ich
a te
Ġ20 1
s p
a p
o d
a k
a u
ĠR e
el l
sch af
Ġw h
l y
z e
er t
a us
Ġp ro
ĠA n
l in
Ġyo u
an g
Ġth at
ĠE r
Ġ j
o ch
ĠD ie
es ch
Ġn e
) ,
us t
Ġs ein
ar t
i b
en d
Ġ i
Ġ it
f f
Ġa b
s te
r an
h n
Ġa m
âĢ Ļ
q u
ung en
Ã¼ ber
r ie
isch e
u d
ĠT he
i p
ĠS p
ig en
Ġ he
Ġbe i
Ġs p
s e
h t
u b
g er
ut sch
Ġ le
o k
Ġ 3
g r
Ġa s
Ġa re
an t
s en
Ġs e
ur ch
Ġ1 8
ĠB e
Ġ20 0
âĢ ĵ
Ġa uch
Ġs o
Ġs ch
ar d
m er
ĠJ ahr
Ġn ach
ĠA l
Ġ Ã¼ber
ĠU n
Ġ or
1 9
l er
k s
âĢ ľ
o v
Ġc om
i a
Ġb is
ung s
ro m
o st
l ie
Â ł
Ġw ir
Ġw e
schaf t
i z
h en
or d
ĠA r
iv e
i al
m ent
ĠE in
is e
Ġe x
it y
Ġa t
Ġm e
ĠâĢ ĵ
Ã¤ t
ĠD e
as t
Ġs ie
Ã¶ r
Ġz ur
h er
ol l
a in
Ġc on
f or
Ġd ies
b e
ĠâĢ ŀ
Ġ ch
tel l
r u
n en
a ge
Ġz um
h o
Ġw as
r Ã¤
ĠP ro
r it
et z
h l
av e
Ġein er
ic k
Ġw er
Ġyo ur
r Ã¼
. .
Ġz w
ch en
Ġ um
m e
te d
o ur
l and
en s
Ġn icht
Ġ ent
Ġwer den
o nd
u re
isch er
om e
Ġun ter
Ã¤ r
ar k
Ġv or
i ge
Ġd urch
o b
Ġb y
in e
Ġ es
us s
f er
g el
Ġ19 9
n er
ier t
Ġwir d
Ġh at
or e
Ġf rom
h al
g es
u e
Ġth is
) .
Ã¤ n
Ġw ie
el t
it e
i de
en n
Ġal l
ter n
D ie
i an
Ġh ave
am e
re ich
Ġs ind
ur g
il d
ĠT h
i re
Ġo der
i o
p e
ĠG e
Ã¤ nd
Ã¶ n
ĠC h
er k
Ġein em
ĠL e
p er
ĠT e
ge b
m al
ĠS ie
Ġ Ã
Ġ us
ĠM it
Ã¼ n
g t
at ur
a c
is ter
d u
f t
st en
Ġc an
p l
ch e
p ar
ĠD er
lich en
Ġ 4
ĠO r
ĠS e
Ġw ill
ion s
o c
a uf
Ã¼ hr
o ut
Ġw or
Ġm an
ad t
p h
Ġ en
ic e
b eit
ĠA b
2 0
z en
Ġein en
u ÃŁ
ĠN e
ah l
ul t
at z
s s
o hn
ich te
Ã¼ ck
ĠB er
ig ht
Ġ 5
p t
1 8
a ck
Ġc o
j e
er v
we ise
on t
in z
ation al
Ġ19 8
r y
el n
el e
ig n
Ġn ot
l o
ĠA uf
for m
t ra
ĠA us
ur n
Ġ -
Ġ Y
ĠE n
ĠM ar
f e
de m
ĠL and
Ġt e
a il
lich e
Ġs h
st er
l l
ch t
all y
at er
ĠG r
on e
p r
o ok
t z
Ġ19 7
e ar
i le
' s
ar e
om m
te il
re is
ĠH e
Ġh as
on g
Ġb es
k eit
re i
Ġdas s
ĠW e
or en
re t
ĠI m
ab le
ĠN ach
al t
l os
ul d
it ion
f en
b urg
Ġa r
Ġp r
T he
Ġa d
iv ers
it z
p en
u te
em ber
Ã¤ hr
Ã ©
ĠM e
is s
ier te
Ġde utsch
l ass
ation s
at t
ĠV or
im e
c o
I n
a ut
ol og
ĠD as
am m
r at
Ġ( *
a z
il m
ing s
Ġd o
de t
k e
an s
ers on
th er
Ġ19 6
ak e
f l
Ġi hr
f ol
Ġ up
Ġw o
ber g
Ġ 6
Ġ 9
al e
Ġwur den
Ġ1 7
ent s
Ġo ur
he it
Ġg ro
Ġcom p
Ġg o
ĠA m
Ġh er
p p
eb en
Ġr es
Ġs ow
ct ion
it er
ein e
ĠF l
ĠZ eit
as e
at h
W eb
ĠUn ter
te t
ĠDe utsch
Ġo ut
ug h
Ġw eit
er en
os e
o u
Ġ "
lin ks
iel er
Ġi h
un t
at en
an z
Ġ19 4
am p
ĠP l
ĠH er
ĠSt adt
ut z
ol d
Ġv om
ĠF or
Web links
Ġg en
Ġn ur
Ã¤ l
Ġm y
w er
Ġb ut
Ġf e
t o
Ġ qu
on s
par am
ig er
c c
Ġ ro
or s
ch n
i um
us e
ow n
re e
ab en
Ġme hr
s el
om p
Ġ et
ĠM a
Ġ19 5
ah n
Ġn och
ig h
z eit
ĠF ran
r en
ze ich
m it
v e
al s
l es
ik e
Ġ 7
m ann
Ġm ore
am il
Ġon e
Ġthe ir
Ġt ra
g an
Ġge w
p ort
Ġl ie
in k
om men
an ce
ĠRe g
ĠP r
ier en
ĠSch w
ne h
Ġb et
ar y
D er
is h
f in
ÃŁ e
te m
ÃŁ en
ĠG em
Ã¼ d
ol it
ic al
ate d
Ġ1 5
ie d
el d
Ġp er
r if
ie t
y s
E inz
ib t
S t
Ġb est
ĠI S
el s
Ġ19 3
ol le
Ġ 8
og ra
Ġsow ie
st and
le ich
kt ion
g lie
h Ã¶r
r ich
u en
c l
f Ã¼hr
ach weise
Ġab out
h und
n is
an k
in n
eln achweise
Ġa ber
on n
Einz elnachweise
Ġ1 6
Ġals o
ik er
Ġ Ġ
l d
o ck
es e
ĠP ar
b all
a de
esch ichte
b ar
Ġ Q
ĠI t
ah re
B N
it Ã¤t
Ġs te
la g
or n
r ing
re at
Ã¼ nd
e c
ĠIS BN
1 7
w a
Ġge t
Ġthe y
ann t
n et
a up
Ġsein er
ĠU S
o y
Ġne w
Ġwh ich
ub l
p ro
Ġe v
am men
f ahr
Ġf in
ie der
ier ung
ĠUn ivers
o ber
Ġd ar
.. .
Ġge gen
Ġin s
etz t
Ġ1 0
Ã¤ ch
Ġh is
y ste
ĠGem ein
s k
h aus
u al
ig t
Ġb er
Ġbe en
Ġp l
a is
Ġzw ei
ĠC o
ig keit
v el
Ġy ear
Ġcon t
ĠS o
ĠJahr hund
is sen
m in
00 0
âĢ Ŀ
Ã¶ ff
Ġein es
ur op
Ġp la
w o
ĠS te
m an
ay s
Ġal le
l ung
ĠJ ahre
Ġsein e
u er
ĠG ra
i ent
Ġhat te
o h
or f
Ġwh o
g l
a ct
el le
et t
m p
Ġ &
x t
g lich
im m
am en
ĠP h
Ġt ime
ge ben
Ġg es
ĠG es
iter atur
Ġwor k
nd e
Ġof f
s tell
ĠB r
is ten
ĠK ar
Ġj ed
Ġwie der
Ġk ann
or y
k en
Ġk n
o f
n ah
m s
an ge
ĠA d
Ġdies er
al d
ĠG eb
it t
ĠD ies
Ã¶ l
ie le
ar beit
Ġs oll
m ein
ik an
eit e
us ammen
ĠC hr
Ġzw ischen
Ġk Ã¶n
t on
ĠK l
1 6
id ent
Ġs ome
u le
ĠE s
ĠF re
Ġan y
ĠK ir
Ġ1 2
ck e
in ter
und en
Ġf ol
ĠTe il
in der
e k
Ġo b
Ġs eit
at s
am er
ĠW elt
a w
ĠK on
ĠG ro
ent lich
c es
ĠJahr en
Ġih re
u de
1 0
el b
ĠB l
ĠF ra
ret urn
t t
ter s
b r
1 5
Ġo ver
ĠM us
ĠBer lin
D as
ir t
i x
Ġp art
rie d
ie w
ľ ber
Ġin ter
ent r
if f
Ġp re
s er
und es
f all
is te
Ġ1 4
w ick
ĠâĢ ľ
Ġwar en
ab e
Ġd is
Ġbe g
S ch
ing en
ach t
ic t
Ġl ike
Ġzur Ã¼ck
lie ÃŁ
ir st
iel t
in a
T h
lin e
w erk
Ã¤ ter
os s
Ã¤ hl
le d
ĠA nd
or k
Ġst ud
ot t
Ġ em
ĠT r
eit en
Ã¶ s
y p
ĠE x
ĠU m
Ġre c
schaf ten
Ġs erv
g esch
at ing
at es
Ġthe m
Ġd am
Ġwh en
Ġ ra
r on
m a
Ġo ther
s h
glie d
en z
rie g
rie b
o ol
ver y
re d
Ġ1 3
y n
aup t
ĠNe w
ĠJ an
eit s
ĠA ug
b au
ar n
la ge
hal ten
Ġs c
Ġh aben
ĠSt a
ot h
r es
Ġpro du
Ġpro v
Ġp e
ĠS h
Ġj ust
g te
Ġhe l
ĠJ un
he im
ĠSp iel
w n
Ġge hÃ¶r
Ġh o
c om
Ġp h
1 2
ov e
am t
ĠG en
form ation
ge w
ck en
gen d
E r
et h
Ġbe k
ĠB es
in t
un k
Ġ19 2
ĠTh is
ĠB o
ĠT ra
A n
a ir
ĠF ilm
G eb
ĠJahrhund ert
is m
sch en
Ġ if
e p
ra nd
ar b
ĠM an
V er
ĠÃ ľber
Ġer sten
sp ieler
in s
ell en
Ġn o
L iteratur
Ġth ere
p f
I m
1 4
a um
or g
ĠGemein de
Ã¤ d
ĠJ ul
ĠG er
Ġk l
Ġs up
h and
ĠZ w
Ã¤hr end
ĠN ov
f r
Ġdies e
Ġin d
Ġh ow
ra ch
Ġdeutsch er
me ister
Ġwh at
en de
ĠEn t
y m
o ff
Ġbe im
Ġa g
Ġit s
ist or
ĠAr beit
al en
yste m
7 8
f ter
uÃŁ ball
ster reich
u ar
Ġ 0
st ra
Ġl ook
tern ational
Ġge b
ĠE l
Ġd rei
Ġre g
Ġg r
Ġer st
ĠN or
ĠkÃ¶n nen
Ġv ers
ogra ph
Ã¶n ig
b le
neh men
Ġw ere
ic es
ĠO ber
Ġne ed
ul l
sch ie
ĠB undes
ĠB and
a x
A l
uch t
ar r
1 3
p iel
Ġj e
Ġf o
ĠA ut
en e
D e
z er
le x
i der
tell t
l Ã¤
un st
ĠB au
Ġt r
Ġin cl
Ġw el
Ġin to
d ay
op le
Ġh ad
e ich
Ġm us
Ã¤l t
Ġk onn
as h
if e
Geb oren
Ġf irst
o us
el y
ĠSt ra
a ce
Ġth an
Ġc l
ĠE urop
ier ten
Ġjed och
en k
Ġth ro
f ess
ĠH and
Ċ Ċ
ĠSt ud
io us
ic s
ass en
Ġsp Ã¤ter
und e
Ġm ost
k l
ĠÃ ĸ
rÃ¤ s
and er
es ten
Ġwo uld
z w
ĠChr ist
al k
in er
ar s
aus e
Ġf r
Ġf Ã¼hr
ĠM en
2 00
Ġ201 8
Ġg esch
Ġm ake
t re
ĠAug ust
Ġer h
Ġa pp
c ed
ĠM ed
Ġd ann
je ct
f Ã¼
au er
ĠI nd
Ġg el
Ġa cc
ie f
h ne
ĠZ u
ĠDeutsch land
w ard
p or
ĠAr t
Ġver b
n ung
Ġa c
tem ber
Ġb u
z ial
ĠF amil
Ġk e
ĠN ord
il it
gr Ã¼nd
ĠP erson
elb st
r ess
tra g
ĠC ar
un ter
U n
Ġet wa
b ach
Ġhel p
ol f
Ġb el
ĠM Ã¼n
he l
it al
ur t
je kt
Ġbe c
eb s
Ġkn ow
ow er
Ġd a
Ġg ibt
le t
ĠPl atz
ib le
ĠP ol
Ġh and
pr il
b l
f ul
ĠP e
st it
' t
in ess
ru ck
Ġw enn
ar m
Ã¶ glich
ĠSe p
Ġpe ople
de d
w ohn
ĠN ational
Ġe very
ĠNov ember
b ild
ĠK Ã¶nig
Ã¼ t
ul ar
M ann
5 0
Ġa p
ĠG esch
Ã¤r z
v or
R e
ch er
ion al
Ġw ell
s o
re it
up pe
ho f
Ġ ich
d ition
r icht
ĠM ann
iv er
schaf ts
ĠĊ Ċ
Ġver y
u es
ĠFran k
Ġus e
ien ce
Ġi hn
ir k
ĠVer ein
a den
ge mein
lich er
uÃŁ er
et s
a id
ĠM on
i ze
ĠM al
ĠSep tember
ĠAl l
Ġon ly
ĠJun i
Ġweit er
ier e
b o
ĠM o
i qu
v en
at or
v ers
ab ei
Ġsein em
st adt
ĠH o
uf t
ĠM in
Ã ¡
Ġlie gt
Ġm ay
Ġ3 0
en den
kt ober
ag es
Ġsein en
u z
. )
Ġf l
ĠA pril
2 1
at ive
Ġdes ign
ur z
Ġer fol
p la
M it
us iness
ĠQ u
Ġh ier
er al
ig ung
a kt
g est
if ic
hal b
eit er
Ġ19 0
ĠB ei
ĠS c
un kt
schie den
Ġg leich
ult ur
is en
Ġg er
Ġa ct
ĠH aupt
an y
k er
sch l
Ã¶ ÃŁ
ein g
ke hr
ĠV ol
ste in
oh ann
k a
u c
ro l
ais on
Ġm o
op h
Ġb ack
k reis
e h
ĠS Ã¼d
ĠVer b
at a
Ã¶ff entlich
Ġz usammen
Ġcom m
ĠGr und
issen schaft
ĠB et
am s
iv en
ass er
Ġt wo
Ġ201 7
Ġb o
ĠMa i
it el
ĠE nde
hal t
on st
ran s
Ġan ge
ĠO b
a gen
ro und
g ang
ch ts
es en
Ġer ste
ĠP f
ĠO ktober
G e
es ter
ment s
der n
ien st
w alt
ra d
Ġ201 6
an c
um ent
ar ten
we g
Ġd ire
Ġs ho
Ġyear s
p s
Ġas s
ĠJul i
Ġd r
Ġb esch
v ent
b es
Ġman y
1 1
as ed
ĠY ou
ess en
it ed
Ġcon s
Ġd own
ĠK unst
Ġs he
Ġle tz
Ġf ind
Ġ /
af f
if t
ĠOr t
N ach
Ġund er
Ġfol gen
st Ã¤nd
ut ion
ro w
Ġver w
if fer
ic a
isch es
De utsch
Ġl oc
Ġun s
Ġex per
Ġs m
a ul
Ġd ort
Ġh in
Ã¼ tz
u k
ĠH och
it s
Ġein z
ap p
ĠI I
Ġ201 5
Ġ X
ran z
Ġs ol
Ġand eren
at ch
ĠP olit
Ġ201 1
ust r
Ġer w
Ġz e
b ahn
vel op
Ġthro ugh
u ck
ĠI s
Ġth ese
Ġber eits
al ien
l i
Ġse hr
ist r
Ġe igen
Ġkonn te
Ġb l
re g
Ġh igh
c ts
ich ts
Ġdies em
Ġe ben
m Ã¤
ĠJan uar
b uch
o ten
ĠM Ã¤rz
or ben
Ġ201 0
ost en
em ent
z ahl
ĠK inder
ĠW h
Ġv iel
eb ru
ze ug
Ġihr er
Ġih m
Ġst and
i or
olog ie
k te
ge t
ĠJ ohann
Ã¤n g
Ġg u
a i
ĠO n
r s
Ġ201 4
am es
z ember
Ã¼r ger
Ġbes te
Ġv ier
la gen
c ess
gr und
s atz
Ġsp ec
Ġh ome
Ġbe fin
S ie
Ġ201 3
ei d
pt ion
ein en
ĠM et
Ġ201 2
Ġte il
il ity
Ġgo od
ĠV ers
= =
o ugh
ĠLand es
Ġ Â
f ang
a ur
ation en
Ġin v
ĠB ar
he mal
f eld
ĠH aus
âĢ ¦
ĠF Ã¼r
ut h
3 0
ak ing
m at
ig a
ĠĊ ĠĊ
ra g
gan is
Ġhe ute
Ġk eine
Ġa fter
ing er
Ġp ar
Ġ18 9
ĠF ried
Ġ .
Ġp erson
is ion
Ġm ach
ĠB ild
f ach
Ã¼n st
ĠL iste
Ġg reat
Ġsch w
Ġa kt
Ġaus ge
ĠF ebru
Ġk am
Ġn ow
Ġ1 1
ich er
Ġar t
it ies
ĠPro du
ar ch
w ay
in al
Ġpla y
ĠâĢ ł
zeich net
ĠA mer
ur s
W e
ĠC l
Ġm on
Ġde c
in nen
ĠW il
ber t
Ġs uch
ĠDe zember
Ã¤n ger
Ġw ay
Ã¶ st
sch e
ĠR es
Ġf ree
O r
los s
f te
Ġm in
Ġ200 8
ebs ite
ĠS aison
Ġ200 9
an gen
Ġm ark
for e
Ġ2 5
um s
ip p
os ition
op p
Ġs elbst
ĠGro ÃŁ
Ġm ed
A us
v iew
ĠKir che
19 9
la uf
ic an
w ahl
ĠW erk
Ġl ang
ĠPh il
ĠF ol
Ġer sch
omm un
amer ikan
o gen
ĠAr ch
ion en
ĠH Ã¶
ow s
fall s
ĠJ u
rit t
ern se
ĠC on
Ġb en
al th
mit tel
sch rif
ĠG eschichte
ell schaft
ur ing
B e
Ġsp iel
y l
s on
Ġ9 78
ĠV on
Ġs ub
ĠR o
ĠIn ter
ĠRe ich
Ġwh ere
Ġw Ã¤hrend
i us
Ġb usiness
ĠW est
ĠUnivers itÃ¤t
ĠA s
Ġse c
ot her
ĠS k
ĠMit glied
ĠMus ik
Ġand er
P ro
Ġte chn
h re
Ġ %
ĠG o
Ġ200 7
Ġver schieden
Ġim mer
Ġs om
Ġse e
Ġd ay
ranz Ã¶s
as ch
ig te
Ġa v
Ġin c
Ġal ler
c y
ĠE le
ĠF r
al ter
in es
ĠR om
z ie
he d
z ug
hr en
Ġe ff
ĠSt re
Ġw en
iv es
Ġsp e
an ts
ism us
ĠN ieder
ĠW ert
Ġst att
Ġgr Ã¶ÃŁ
ĠH ol
ĠM ich
rie ben
Ġre l
Ġdam it
up pen
Ġp o
om en
Ġge f
ut t
h ol
Ġ [
tel ler
ut en
sch n
Ã¼ l
Ġf re
ĠUnivers ity
ĠO ff
ĠF e
Ã Ń
Ġ2 4
. ,
hr er
ĠAl s
g ra
a der
a j
ien d
mal s
Ã¤ch st
ĠW ien
Ġev en
ĠG l
ĠD es
ĠP re
kt ur
Ġon line
Ġqu al
er ie
Ġbei den
ges tellt
A m
ach sen
sp iel
Ġco uld
Ġd el
z ent
Ġwor ld
ain t
Ġ ele
Ġc re
ĠC he
ĠĠ ĠĠ
ĠDies e
te te
{ @
s etz
Ġ1 00
lo ad
Ġw ant
Ġth en
A r
ro p
Ġ18 8
ĠG rÃ¼
ĠMÃ¼n chen
Ġd iffer
fÃ¼hr t
ĠVer lag
Ġ200 6
âĢľ .
Ã¤ hn
Ġre m
ĠD r
ĠF ahr
ĠB ay
Ġs aid
Ġo hne
ĠH am
Ġg ra
we il
lin k
Th is
Ġz un
il le
ĠFebru ar
Ġo wn
u ge
ogra f
ĠMit tel
o te
tel le
rÃ¤s ident
Ġne ue
Ġsch on
f ra
Ġde velop
T e
ĠM ark
Ġre ad
Ġincl ud
ĠCh ar
Ġh ere
Ã¤nd er
neh mer
ĠB uch
ly mp
sch ule
âĢľ ,
p ert
ĠD urch
r ip
Ġ end
Ġ ed
Ã¶ ch
Ġs im
en ce
Ġv is
grÃ¼nd et
b and
ĠSchw ei
ĠB as
ĠW or
Ġbec ause
Ġre qu
Ġs k
Ġ200 5
ĠS al
ra ft
Ġdes sen
y r
Ã¼n f
Ġ ,
w ert
at her
Ġ |
iv ing
Ġin st
ĠJ ohn
Ġs ur
Ġf amil
Ġb ook
un ktion
kt or
i ra
ĠF uÃŁball
ĠEin e
Ġin formation
ĠSch l
Ġg ab
Ġ el
Ġv al
ĠH al
ĠL ei
b t
ik a
il t
ot s
Ġm ade
g abe
ur es
ĠKar l
ichte t
co de
2 5
ch sel
ĠN amen
p ieler
w end
is piel
ĠK r
ĠAn t
e te
o hl
Ġm uch
Ã¼ s
ust om
ĠÃ Ħ
Ġihr en
Ġerh ielt
Ġar beit
Ġf est
ĠI f
nah me
Ġs el
Ġd on
ĠK n
4 0
Ġc ar
c ted
Ġre al
in o
Ġp ol
in ce
ie g
iss ion
est orben
Ġbek annt
Ġe hemal
ar i
all s
Ġt ake
ĠL eb
Ġbe f
ĠM ill
Ġs Ã¼d
ch s
is k
ur r
Ġi de
ĠMen schen
Ġc ol
um ber
un n
in ing
Ġpro gr
ĠM ag
ĠE d
Ġ20 00
Ã¤ ude
ĠD ar
Ġf rÃ¼
Ġus ed
ĠU r
G eschichte
Ġp ubl
ĠMe ister
uf en
L e
Ġste ht
6 0
iel d
ĠB ahn
ig es
le ase
Ã¤hl t
de ut
Ġprov ide
ĠF in
sch lieÃŁ
g leich
he in
Ġn ah
Ġne uen
k auf
pr ess
ĠUnter nehmen
los sen
Ġ200 4
re cht
z u
Ġ #
as on
um mer
Ġst ar
ĠEin wohn
m ed
Ġl ife
sch utz
Ġb zw
h in
Ġdeutsch en
it zen
ĠA t
Ġ u
k rieg
ak es
Ġb eing
ĠP art
olog y
ernse h
Ġder en
ent ly
w are
Ġsho uld
m ar
ag er
L eben
Ġf ranzÃ¶s
ĠSch ul
le y
o ge
Ġd abei
wick lung
ĠT od
ubl ik
ar ge
ct or
Ġdies es
Ġch e
geb iet
ĠD an
stell ung
ĠK omp
ap an
f ern
ir d
a e
ĠK rieg
ug ht
isch of
ĠB est
Ġ201 9
ide o
p unkt
im es
u ter
ĠN atur
Ġp ra
ater ial
w ig
ol v
ĠY ork
at ure
ĠW ill
t ag
ran k
Ġof fer
Ġ $
ĠC omp
it Ã¤
Ġe as
ĠP er
u x
p le
ĠB re
G estorben
Ġer reich
ĠSch rif
Ġ5 0
fahr en
ĠOr ts
z t
stra ÃŁe
2 2
Ġbefin det
Ã ³
ĠPerson en
ĠB ra
ĠW er
7 0
la ck
iqu e
oll ow
ĠE m
Ġ ur
Ġbe fore
ĠL in
8 0
age ment
schl uss
g y
ro ss
f ass
Ġr ight
sp ort
Ġweit ere
ĠFor m
ĠH ein
y ch
l en
l ing
ĠB ere
ĠR Ã¼ck
all en
um e
ĠFried rich
use um
Ġalle m
irt schaft
A b
ĠJ e
tel y
Ġs ei
Ġl ast
h ard
Ġs u
Ġad d
Ġf Ã¼nf
ond er
E in
ĠK reis
Ġent sp
id es
b um
gel e
ig ten
Ã¶ m
o de
w w
Ġen g
i den
k m
Ġb r
ĠBer g
Ġag ain
e y
an st
ann te
ip s
ĠR ad
Ġg l
Ġto p
u ally
Ġb ed
rit ten
ĠD o
ĠS an
ĠP at
ĠG u
Ġ =
rs g
Ġ2 3
Ġth ink
Ġc olle
lass e
Ġre t
Ġein ge
Ġ2 1
4 5
Ġd id
ĠA uch
ĠA ss
u gen
ĠF est
ed er
Ġ2 2
ĠS ohn
Ġcomm un
as ter
r ib
re ib
ĠCo unt
Ġsh ow
re uz
ĠDeutsch en
Ġ( âĢ
ĠZ usammen
Ġwe ek
ĠB ro
Ġp olit
ĠK ap
re en
ir che
ĠPolit iker
a el
an ad
Ġs er
Ġl a
ail able
Ġwh ile
< /
Ã¤ uf
re ad
Ġch ild
az u
Ġbeg ann
Ġe ach
Ġa round
ik t
out h
am ent
ĠSt and
ĠFra uen
ĠLeb ens
es ent
Ã¶l ker
Ġin ternational
Ġ200 3
ru e
Ġ200 2
ath ol
ĠM ot
aus pieler
gl isch
Ġth ose
I t
k ommen
Ġl ong
Ġ200 1
ĠIn ternational
ch te
ĠL ie
Ġfo und
ĠB en
f ilm
b in
Ġc le
sch ul
Ġl ove
ĠW ohn
ĠW asser
ck t
st re
E x
itt le
ĠO st
ut ter
om in
p art
od y
sch ied
hel m
ĠP aul
our n
Ġdeutsch e
ur m
e ct
F or
Ġre ally
ĠD aten
ist s
Ġzun Ã¤chst
Ġb as
Ġc ustom
Ġp ost
w ays
ĠW ei
2 3
Ġc are
ho de
ĠGe w
n a
ich ten
Ġgew ann
iz ed
a ar
f ort
Ġdo es
Ġent stand
ĠP ort
an a
Ġc our
ond on
an e
ĠP la
er ts
b ur
ear ch
Ġs ite
Ã¤ us
omm t
Ġden en
ĠL a
Ġ :
ĠB Ã¼
it ter
Ã¤t z
Ġ199 0
mÃ¤ ÃŁ
d orf
Ġge mein
Ġt rans
E R
Ġ18 6
d ings
en det
Ġf and
z iel
ĠB el
ĠN ame
ĠT itel
in en
c ial
om mer
ent en
Ã¶r der
Ġdiffer ent
Ġs ign
il der
Ġserv ice
Ġs l
ĠFamil ie
N e
Ġr est
Ġm od
glie der
schrif t
lo ck
ĠFran z
Ã¶ sterreich
nis se
Ġco unt
we en
h Ã¤lt
s w
ĠS up
Ġh im
Ġd u
stit ut
nd ern
ord s
ĠPro v
Ġpla ce
c on
ĠO lymp
ĠM or
le it
19 8
Ġ2 6
Ġn umber
tell en
ap er
ang el
Ġ2 8
ĠL eben
r ic
ing le
g ung
ess e
Ġwor den
ĠW ahl
Ġb il
ĠGe gen
Ġer r
h af
sch w
Ġeben falls
Ġo pt
ĠB i
g or
Ã¤n ge
C h
ĠBere ich
r i
c a
en der
Ġm ov
ĠEn g
ĠPar is
le i
Ġp ass
Ġs et
Ġav ailable
ĠGen eral
er st
ĠH ans
ĠM od
ĠD re
Ġp os
ĠLand kreis
ard s
Ã¤nd e
en ter
ĠS er
Ġb oth
Ġso ndern
pl atz
ĠT o
p os
ĠÃĸ sterreich
e ver
ost er
Ġander em
Ã¼nst ler
Ġf un
ĠC ol
Ġ2 7
rÃ¤ ger
Ġf ollow
Ġver Ã¶ffentlich
Ġand ere
h ung
lich keit
ch es
ĠS eit
ĠD orf
M e
Ġab s
Ġz ahl
t he
Ġ18 7
al y
ot he
j Ã¤hr
Ã¼ ss
Ġn or
Ġph ot
Ġ ...
Ġb re
Ġv ar
Ġmark et
Ġ20 20
pl ic
Ġg est
ire d
ann ten
Ġne u
i am
Ġbet ween
ĠM at
ĠL ondon
te i
y pe
ĠM y
Ġpro cess
g ar
as st
Ġje weil
k ten
Ġst r
ĠHe im
n ess
Ġfr iend
ĠT er
ĠPe ter
Ġver l
ĠB urg
fÃ¼hr ung
al es
F uÃŁball
ĠH ar
Ġw icht
Ġcomp any
ĠSp ort
Ã¤ h
Ġh istor
ra um
ĠS eite
ck er
iv id
s c
Ġexper ience
Ġsm all
ĠB Ã¼rger
z ig
Ġ199 9
f urt
ap t
Ġk ein
ĠB ut
s ych
ĠW ar
Ġdar auf
Ġh al
sp rÃ¼
Ġat t
Ġst art
ĠK ont
st r
am a
Ġserv ices
Ġst ill
Ġpro fess
Ġa uÃŁer
amp f
Ġnah m
ver n
2 4
y d
it ions
is hed
sel f
Â Ń
ĠRe p
Ġinclud ing
Ġmon th
ro om
re chen
ir l
Ġspiel te
is se
ond ere
Ġst ark
Ġ â
Ġt er
Ġfe w
ĠM ain
Ġus ing
Ġc lass
igh ts
Ġs ystem
I I
h a
i as
e hen
ges etzt
Ġad v
Ġsch ool
ĠTe chn
gen ommen
Ġfin den
p rÃ¤
ĠS il
Ã¼ b
ge d
s am
ess er
bild ung
ĠE v
iet y
Ġfamil y
Ġr und
Sie he
ct ions
w as
ĠS ol
H rsg
rip t
och en
Ġl and
Ġer halten
ĠM art
Ġp at
us ch
Ġdies en
ĠK om
se e
ief ert
j ahr
Ġbu ild
ĠJ ose
Ġch ar
ff en
w ei
enn t
Ġv iele
im al
den s
de utsch
Ġl o
Ġh abe
ĠR ich
Ġb ro
.) :
Ġa ut
Ġm uss
ĠVol ks
9 0
E n
Ġ '
ĠK ultur
on nen
g aben
ĠT ag
iz iel
v Ã¶lker
Ġwel che
en nen
ourn al
ĠJu gend
Ġm Ã¶glich
Ġletz ten
uÃŁ en
Ġf ast
st off
et te
iv al
tra gen
Ġo pen
m us
Ġein ige
D R
Ġent wick
ograph ie
b y
st ru
us h
ĠP ark
Ġt rat
av ing
an zen
ĠP al
2 8
min ister
ĠReg ion
ĠSta ats
um en
Ġ199 8
et en
Ġ <
ĠD on
gr amm
ge ord
Ġim port
Ġro om
3 5
ĠA lex
Ġn un
P D
ĠD av
Ġg ut
c i
Ġc al
ĠKir chen
om at
fol ge
ĠHer z
el te
Ġapp ro
cc ess
or ge
ĠgehÃ¶r t
Ġ2 9
ĠD em
tre ten
A uf
il ome
at ter
t r
ass e
ĠW ir
Ġhe alth
haus en
ĠSta aten
Ġ4 0
ce ption
ell er
ĠH el
tern et
Ġst ra
y le
I N
Ġs ame
nah men
ĠB rÃ¼
w ork
Ġn eben
g ie
ĠS erv
Ġsoll te
Ġgro ÃŁ
ĠCount y
Ġcomp le
af fen
Ġb ring
Ġare a
ur en
Ġle arn
f ts
Ġc or
Ã¼ h
Ġersch ien
ll en
Deutsch er
an ten
ĠT or
uf f
tell ung
ĠF ach
ne y
2 6
Ã ¨
ies en
ten s
Ġ18 5
Ġl ittle
uch s
Ġb ig
z el
b et
ĠF o
de te
ĠC ont
U S
Ġd uring
Ġsup port
ĠUS A
ĠPro fess
ap pen
nah m
Ġfor m
Ġw rit
ar ly
Ġm en
Ġth ree
Ġbe zeichnet
ĠThe y
ĠFra u
kl Ã¤r
Ġan n
h am
oll en
oss ible
w est
anst alt
Ġp op
ĠJahr es
ilit Ã¤r
z entr
den k
la v
ges amt
2 7
Ġg ing
ĠWil helm
ĠC ity
Ġor der
rÃ¤ n
ĠEinwohn er
Ġte am
ĠGrÃ¼ nd
Ġper fe
s icht
th ing
Ġge grÃ¼ndet
Ġgo ing
Ġ198 0
l Ã¤nd
op e
reich e
Ġpr iv
Ġd i
ĠIn s
ĠGe org
Ġgro ÃŁen
Mit glied
l ess
ber eich
ĠFor sch
or ts
igkeit en
op f
ĠMich ael
Ã¤ re
ĠFamil ien
amerikan ischer
ĠLei p
ei den
Ġpro m
ĠWelt krieg
Ġf ull
Ġf ac
wer b
Ġc ond
ĠS he
ne te
y er
um p
oc i
ĠHer r
ĠN ot
I D
ĠB esch
o le
Ã¤ che
n ungen
Ġspec ial
m et
Ġerfol g
st Ã¼tz
Ġgro ÃŁe
ĠAmer ican
ĠHam burg
k on
ĠH ow
Ġein fach
Ġal ways
- -
Ġlook ing
Ġincl ude
Ġfe el
4 8
ra che
m m
ĠRe chts
ap e
ĠFol ge
Ġvis it
Ġm ember
ĠC om
ĠTh ere
Ġ199 6
Ġch o
ĠK ais
teil ung
ĠH il
ĠD ire
Ġihre m
Ġakt u
im mer
ic ally
ĠC or
ver ein
it es
Ġin ner
et ail
ĠD a
Ġth ings
icht ung
ond ers
g al
v es
d ing
g eschichte
at iv
Ġzw eiten
um b
lass en
Ġke ep
entr al
Ġ199 7
ĠBe g
on es
ĠC olle
imm t
w or
Ġqual ity
ograf ie
g o
Ġv iew
ĠgehÃ¶r te
19 7
Ġto o
l ang
ol ution
Ġbel ie
b el
ĠJ o
Ġo per
la ub
uch te
d ienst
Ġkl ein
P erson
az z
la u
ĠT our
Ġc urr
ab el
ar a
Ġ197 0
Ġdis c
ĠH ier
Ġgro up
an te
Ġg ame
Ġauf ge
Ġ199 4
Ġpart ic
Ġk ommt
2 9
ĠC al
o ver
Ġb ie
Ġcom e
ĠJahrhund erts
Ġres p
w issenschaft
id s
Ġper form
Ġw ater
ind ung
Ġc los
w ort
ĠL ud
och ter
Ġ194 5
Ġb rit
ĠR ah
Ġerst mals
Ġse x
sp r
ĠD u
ur y
Ġ est
Ã¤ mp
it u
s st
re ch
ĠA ustr
Ġex c
ar l
om as
Ġpro ble
ĠFl ug
ĠAl t
ĠHein rich
Ã¤ ft
Ġbeste ht
Ġme et
ĠA ir
ĠAn fang
Ġwe gen
i at
Ġg ot
ĠWor ld
Ġc r
ĠI hre
Ġg anz
hn en
utz t
ĠN o
ĠW inter
9 9
w elt
z ogen
Ġmehr ere
Ġd ating
B er
3 6
Ġob ject
Ã¼ hl
on y
j oy
Ġis s
ĠVer walt
w ar
ĠB ern
Ġl ot
Ġc a
Ġab le
Ġan t
ver t
) :
e e
Ġw est
ĠR uss
ĠR ed
ib li
Ġc ost
ier ungs
ĠTe am
ĠChrist ian
Ġt ry
Ġd re
im a
ĠBet rieb
f re
in ner
Ġto day
a uch
ĠA uss
Ġ *
ĠR ei
3 8
ĠM ay
gr iff
Ġst or
lie b
eth ing
Ġd azu
Ġer ne
Ġher aus
Ġw ei
f el
Ġ199 2
ĠSch n
heit en
es te
ut lich
ent al
ĠW olf
ĠfÃ¼hr te
Ġd ata
le tz
Ġre ce
sch ein
one y
Ġs ure
Ġt yp
. âĢĿ
our s
ilome ter
Ã¶ t
Ġ199 5
19 0
ĠH istor
d ie
Ġwith out
Ġbe aut
Ġbe h
ĠSch auspieler
ober t
Ġm ind
Ġhat ten
Ġv oll
if iz
Ġs ay
i ents
A d
G ibt
ĠR u
Ġgen er
h Ã¤ng
re as
und s
Ġor gan
ĠV al
Ġst ate
ĠB ischof
Ġin t
ĠT em
Ġe qu
Ġ199 3
Ã¶ h
Ġk on
ĠMa x
bur ger
Ġh ard
Ġsein es
ur o
z irk
le hrer
Ġn ational
ĠP o
for der
ft ware
h ip
Ġg ar
Ã¶r per
um an
il y
f il
pe ct
st ag
ĠHe il
ĠB ed
ĠK at
ĠW ebsite
b aut
Ġgen annt
Ġw ebsite
ĠK ur
ig ital
is iert
Ġaller dings
4 4
H e
a at
in c
Ġ18 0
ĠB rand
zeich nung
Ġun ser
ĠEr n
ĠG old
ĠNor th
Ġp ay
Ġge ht
Ġsch n
ik en
ĠRah men
ain s
ĠN r
ol oge
ganis ation
ra cht
Ġs ince
Ġcont in
D ies
d ruck
Ġind ivid
gr uppe
Ġet was
3 3
F ilm
os en
Ã¶r d
Ġacc ess
ĠN eben
lieÃŁ lich
Ġver m
sprÃ¼ n
b ed
Ġ6 0
ĠEin satz
ĠT ro
Ġqu est
ĠIn formation
ĠK o
Ġn ame
ers Ã¶n
Ġev ent
== ==
d o
ate gor
Ġk urz
ĠEr z
Ġt Ã¤t
Ġp ower
ĠT ochter
Ã¤t ze
ĠNe u
l iga
ĠA p
il la
Ġval ue
ĠG ott
schn itt
ĠGr uppe
amm lung
ĠL auf
Ġg ive
ĠArch ite
Ġwe chsel
ab r
ĠK Ã¶l
Ġ3 1
Ġre p
ĠF er
Ġ Ã¶sterreich
Ġt ro
ĠZ e
sk i
Ġne xt
sh ip
en glisch
ir on
ĠO l
Ġd ays
ĠD is
ĠProv inz
ub e
g art
Ġgro w
ĠF eld
ĠW ind
Ġge m
ĠTe xt
ĠS m
ĠMe ter
Ġg rÃ¼
Ġinter est
Ġ196 0
fol g
Ġverw endet
3 7
ĠB ad
Ġh inter
ĠSp e
ĠFrank reich
19 6
ch ten
ĠLeip zig
B ei
Ġall en
ĠSchwei zer
ĠS Ã¼
Ġ20 21
heit s
ĠGra f
ĠG ed
Ġhe ut
ĠQ ual
ist ory
Ġ199 1
Ġinv est
w and
Ġimport ant
ĠE nd
ir m
Un ivers
Ġbet ter
Ġstud ents
Ġho use
ĠS outh
ob ei
ĠSt utt
S p
! !
" ,
n ame
bes ondere
Ġsom ething
Ġo pp
Ġste hen
Ġwith in
Ã¤ m
4 7
Ã¼ gel
ĠD ort
ĠF C
Ã ĸ
ĠZ iel
Ġstud ierte
ĠEr st
atur es
ĠZ ug
Ġg ele
ĠSch ool
ĠP rÃ¤sident
ts teller
/ /
j a
ser ie
ĠW ald
A N
ill s
ĠP reis
schlieÃŁ end
A T
ĠR hein
ĠF ot
ig ent
um m
L iefert
ent ial
Ġm ust
os oph
ĠSch loss
Ġwork ing
4 9
ĠS eiten
ĠA g
ĠU nd
Ġarbeit ete
Ġloc al
Ġs tell
3 9
ĠS en
ĠGeb Ã¤ude
Al s
ĠG al
ach en
gan gen
en a
ĠMit te
if ik
co unt
Ġf act
Ġperson al
Ġl ist
yste ms
Ġd ah
ĠH of
and s
ĠEurop a
. âĢľ
m ark
Ġle t
Ġw omen
Ġk ommen
ce pt
if ul
Ġl assen
Ġd av
Ã¼s sen
ĠE he
ier s
we is
ar z
as k
ĠSp ieler
irt schafts
Ġle ad
ar te
Ġch ange
pro du
ĠLud wig
Ġd och
Ġsec ond
Ġk m
gen den
Ġof t
ĠD en
ĠZ ahl
ĠR aum
reich en
f ord
Ġ x
it te
Ġb ra
ge f
pl oy
reib ung
ĠV ater
Ġres earch
w h
ein ander
Ġse chs
Ġpl an
Ġpubl ic
Ġl ight
Ġw obei
ĠE isen
ist ischen
G r
I f
unk te
Ã¤ ss
Ġn ieder
k irche
iz in
rÃ¤s ent
s weise
ĠS oc
ig inal
ĠC omm
ĠW ith
Ġj ob
t ing
her r
Ġb ele
ĠG ar
l ungen
ĠBe ispiel
ver b
Ġen joy
w irtschaft
ic le
Ġweit eren
ĠfÃ¼hr t
: //
19 5
Ġprodu cts
Ġm et
Ġo ld
Ġcon c
ĠThe ater
ĠFrank furt
ĠGeb iet
am b
ĠS itz
ĠGes ellschaft
Ġt re
Ġ198 9
A S
ach e
Ã¶glich keit
ĠZw eiten
Ġm ain
sch er
ĠOb jekt
Ġpra ct
E S
der s
ĠT re
Ġbe w
Ġex ist
te gr
ĠA kt
ag ue
Ġa ff
Ġs ele
Ġan other
ĠM ont
at ten
Ġk omp
Ġad dition
Ġs etz
ĠR el
ĠtÃ¤t ig
y ing
il es
ĠRe c
Ġt rue
Ġverschieden en
Ġh ol
Ġs w
iv ed
ĠE is
O b
ĠSte in
ge geben
ge ber
ĠTh omas
4 6
rÃ¤ ge
gen de
Ġ198 8
Ġt urn
Ġhe ad
Ġp ict
ĠD ienst
ĠAm t
Ġh och
teil t
Ġeas y
ĠWe g
Ġm al
Ġl arge
o x
ĠH a
em s
ĠKais er
Ġact iv
ie gel
ĠKl ein
att ung
ĠO p
ĠE p
geb aut
ĠStutt gart
un ft
ka dem
ĠS ommer
O N
z y
ĠS ein
a he
ut es
ĠSe e
ĠU l
ĠH en
ĠSt ring
7 5
le ben
ĠMar ia
i os
ĠEnt wicklung
Ġne ver
p end
ĠOlymp ischen
ĠD abei
ĠF rÃ¼
Ã¼r k
Ġ195 0
Ġg ilt
Ġchild ren
ĠMart in
Ġw Ã¼r
Ġl Ã¤
if ied
Ġa ir
ĠL ang
Ġc ert
on ist
Ġco ver
ĠMann schaft
sch eid
ĠLe ist
ĠS a
ĠPl an
Ġmus ic
Ġche ck
Ġjeweil s
' m
op s
u el
st Ã¼ck
Ġfo od
E s
ĠHÃ¶ he
h end
ĠS eine
p ly
ĠF all
t il
ĠS im
ĠH ann
W h
ĠF unktion
ĠâĢ ĺ
ĠUn ited
am mer
Ġfolgen den
ĠO ur
8 9
Ġm ight
ĠEr w
ĠHeim at
im ent
ĠW Ã¤hrend
ĠS l
ĠK omm
Y ou
ĠS ant
t y
ĠL uft
ĠRom an
E igen
Ġperfe ct
f it
ut s
Ġde fin
Ġm aking
Ġn Ã¶rd
ĠM c
la us
f Ã¼r
Ġeigen en
d a
g ten
o in
ĠSch m
ett be
Ġc all
A R
ĠB ank
ĠSt at
v ille
ĠM useum
. "
st ieg
Ġmus ste
ure d
Ġ198 7
ĠKl oster
ĠK e
Ġv ideo
ĠM Ã¤n
oc us
os p
ag n
Ġd an
ĠJ ust
tel s
Ġm ir
ill ion
ĠL iteratur
ĠEin zel
ra b
w ie
ort un
ab l
ĠJ apan
iz ation
ik el
ok ument
s burg
ĠF ar
ĠA ward
gr ess
ĠDeutsch e
Ġb ased
3 2
m b
Ġc ap
Ġauf grund
Ġap plic
i ol
Ã¤ fts
st Ã¤t
Ġcons ider
3 4
a ÃŁ
Ġprogr am
3 1
af en
Ġpro te
ĠR obert
th ers
o un
Ġl ink
Ġim pro
Ġpro ject
Ġf lo
ĠBe vÃ¶lker
ab ility
rÃ¤ gt
Ġsh ort
Ġre view
Ġwe il
ĠMar kt
al ten
id ge
Ġerfol gte
Ġ ident
Ġsch lieÃŁlich
ĠSchrif tsteller
lich es
ĠP ra
ob il
ĠNor den
ge ther
richt ung
est s
ĠK ommun
Ġse ver
Ġwor ks
itz er
Ġal ong
ho cke
8 6
Ġw all
Ġh Ã¤uf
ĠO per
un ch
Ġc reat
FuÃŁball spieler
Ġm ax
ibli othe
Ġerreich te
f an
Ġins gesamt
Ġdav on
en burg
Ġm ult
lich t
fl uss
ul ation
ten d
c ript
ĠK ant
ĠStra ÃŁe
we hr
ing ton
j et
ĠD i
Ġer n
ĠK Ã¼nstler
A s
Ġme ist
ĠD am
Ġ197 2
b ei
ĠReg ie
ĠZ eich
ĠRe gel
ĠM utter
it ive
Ġl ange
ĠA pp
Ġsu ccess
af Ã¼r
wend ung
Ġver fÃ¼
ĠK Ã¼
ult ure
Ã¶st lich
ĠProfess or
ges etz
Ġcon f
ro s
us Ã¤tz
l am
.. ..
itÃ¤ ts
in ks
Ġm ar
ĠI hr
ĠâĢ Ķ
S o
ĠR olle
Un ter
Ġinner halb
l ungs
ĠT yp
Ġneed s
ig ur
Ġp age
Ġas k
ĠK ilometer
Ġwechsel te
it chen
eit ung
F ra
F ernseh
Ġb lieb
ein t
Ġp ort
ĠSo zial
Ġk ind
ar ing
ĠEurop e
e x
ab or
ĠMal er
8 5
Ġ(âĢ ł
is ierung
deut ung
ĠDav id
E N
im men
s etzt
Ã¼r z
ĠKÃ¶l n
is on
rei ben
Ġl aw
ran sport
ĠAl ter
ĠB rit
ĠS ystem
Ġ198 6
it or
ic o
ĠW al
Ġ198 5
ĠH igh
ok al
ian s
Ġ198 4
Ġr un
ĠMet hode
ĠFuÃŁball spieler
ĠO t
ord ing
Ġdown load
ĠB ru
uch en
ul ts
Ġap pe
Ã¤ ll
zeit ig
b te
ra y
op er
om an
il nehmer
ĠD enk
ĠI de
Ġto gether
ĠEr geb
it ing
f o
Ġse arch
Ġ Ã¶ff
Ġs af
Ġgeb oren
ĠMin ister
row s
we ig
Ġfin det
ĠW o
ei le
Ġbes onders
t es
z ess
f le
g a
Ġt em
Ġl ess
c ing
ĠF ernseh
is ed
Ġf ilm
ĠMill ionen
gemein de
M ar
iv ision
g lichen
uch e
id ing
arbeit er
Ġunter schied
ĠIn ternet
ĠHol z
ĠÃ¼ber nahm
ĠTe x
Ġcommun ity
. :
w Ã¤r
Ġn ord
ber ger
an ien
Ġa uth
mann schaft
ĠA uÃŁer
ĠG od
it i
ĠPr iv
b ank
ĠM er
ĠF ir
w ald
on a
4 2
ĠF il
Ġprodu ct
ver kehr
schul lehrer
J ahr
ĠA fr
Ġbeaut iful
c le
ĠM ad
Ã¼ ter
ĠT al
land s
ru ktur
ust ry
Ġ }
ĠE uro
Ġex p
ĠDes ign
Ġof fen
ĠH ome
and id
Ġden n
ach er
Ġtra dition
f est
ĠS w
Ġins besondere
is ing
wa gen
ĠP ap
Ġg irl
ĠStra ÃŁen
Ġmach en
in i
ĠIn sel
ern er
Ã¼ ler
Ġd ra
Ã¶r t
Ġit alien
ĠM os
ĠAl bum
an o
ver band
ĠM il
Ġcour se
Ġa way
eth od
I S
Ġgew Ã¤hlt
it ten
Ġp ast
Ġn atur
Ex ception
u h
lie ÃŁen
ĠArbeit s
ĠColle ge
ĠK al
9 5
Ã¤r en
ĠB ur
Ġp ut
ĠP ass
Ġ198 3
Ġur sprÃ¼n
if en
Ġde v
ĠAn ton
Or t
ĠJ ournal
Ġc ity
Ġ( )
ĠSta at
am ens
ĠG el
Ġbel ow
Ġunder stand
O R
ĠSch iff
Ġcre ate
Ġgel ang
ium s
Ġs ingle
f ert
ĠH all
i ate
Ġse hen
ĠAn gel
ab ly
Å ¡
Ġ198 2
Ġl ine
Eigen schaft
k o
v iron
or m
Ġv ol
ĠK ol
Ġan s
hocke y
P h
as es
ĠD istr
Ġl ive
Ġle ben
geben en
ĠU hr
ĠâĢ ¦
p iele
sp e
Ġf our
- ,
i ber
ĠB is
ip l
Ġcon ne
ĠGer man
ĠIn n
Ġ197 9
Univers itÃ¤t
al og
Ġme isten
ĠP ost
ok rat
fahr t
Ġh aving
A L
Ġo ber
ĠSchwei z
ĠSÃ¼ den
, âĢĿ
ĠK ind
Ġdire kt
Ġl ov
ze pt
zeich nungen
Ġdevelop ment
Ġ197 8
en zen
ĠS am
al le
issen schaften
' ve
en g
ĠBeg inn
Ġt reat
ich ter
' re
Ċ Ġ
Ġh tt
ĠW ieder
Ġze hn
c er
Ġfor t
Ġen gl
Ġagain st
Ġf av
ĠSup er
Ġgegen Ã¼ber
Ġre du
Ġto t
Ġ198 1
Ġed uc
ĠO sten
Ġges am
4 3
Ġerne ut
B au
Ġ {@
Ġb ody
ord nung
amp le
Ġein mal
ail le
en ze
hl en
ktion en
Ġs ize
un sch
etz ung
ĠPf arr
ĠAut or
ch an
7 6
Ġoff ers
Ġent fern
L and
ĠB eit
ĠC as
ĠV e
ĠIt alien
St and
r ist
gele gt
Ġm oney
Ġn ight
Ġviel en
Ġ197 4
wo od
ent ion
O n
ĠR est
ue ck
Ã¼r t
ĠBay ern
Ġb rand
ĠK reuz
8 8
ĠR ock
ĠPro zent
Ġen ter
Ġle d
Ġex pl
ĠPar tei
Ġze igt
ĠI ch
ĠW esten
Ġer m
ĠZw ischen
ger ufen
h Ã¶
ĠW ochen
ĠOn line
p reis
ĠE ner
Ġpro pert
fer ence
ĠDies er
ym n
ĠCar l
Ġfolgen der
Ġeinz el
E D
ĠSch utz
Ġm ag
te chn
de ck
ĠBe deutung
ĠVor s
z a
und er
Ġr ange
Ġwh y
Ġre le
Ġof ten
Ġcont rol
Ġm aterial
ĠPro jekt
Ġre la
Ġcle an
ĠVer trag
ob ile
Ġzw eite
Ġ197 6
m el
W elt
ist ische
Ġ197 5
ĠN utz
ib r
ge gen
A C
z Ã¼
Ġc ase
et ter
ĠIn stitut
g ing
erk e
ĠSt ate
ĠR ichtung
ab in
Ġfollow ing
Ġkonn ten
ran ken
ĠPro ble
ol a
ĠH inter
ĠV ier
ru ct
I C
Re g
te ile
ĠS and
ĠCh ina
je kte
con om
Ġun til
Ġver kauf
re m
ag o
Ġ197 1
id ay
ĠW eb
v al
Ġd etail
Ġf ocus
Ġp ack
ĠLe hr
Ġ Ã¤
Ġmo der
A P
Ġ196 9
ic ks
ĠB aum
b est
ĠP ubl
fÃ¼hr er
Ġerr ichtet
red it
Ġv an
Ġm ot
ĠD DR
ĠGesch Ã¤fts
lÃ¤ uf
Ġz eit
opp el
Ġim age
Ġfe atures
Ġverschieden e
ĠChe m
Ġ197 3
ĠReg ierung
d es
Ġw eb
Ġm aj
Ġn on
Ver ein
ĠF rei
Ġbest and
Ġsever al
Ġk ur
d in
ĠW eit
be k
ĠL ou
Ġe ver
5 5
ak en
4 1
v ed
it ze
ĠTh ese
Ġn et
ĠH or
Ġpr ice
P l
Ġm akes
Ġsow ohl
sche ch
if fe
ĠT ur
Ã¼t zen
Ġeff ect
Q u
Ġs ide
Ġm Ã¼ssen
le ist
Ġn ahe
Ġ196 8
Ġb ar
Ġp ot
ĠII I
ĠOrts teil
Ġein gesetzt
co ver
Ġyo ung
Ġele ct
Ġso cial
ĠBer uf
ĠS icher
Ġar ch
ĠT age
Ġver st
on en
ĠKrieg s
if orn
ord in
f s
vern ment
Ġ )
ak ter
Ġ ir
he mat
ĠO ne
ĠAl b
ĠAuf lage
ak er
je cts
Ġkl eine
Ġdire ct
ges ellschaft
Ġst re
Ġvor hand
Ġan geb
Ġsh are
Ġ8 0
Ġbis her
ĠGes amt
S eit
ĠSt r
g n
b Ã¼
rit te
ĠZ ur
V on
Ġsie he
Ġac ross
mb H
hr te
l as
o o
Ġopp ortun
Ġf ar
Ġbeg inn
ĠCl ub
itÃ¤ ten
ĠVer kehr
ĠC D
viron ment
b rÃ¼
o is
un e
zeich en
ĠW hen
ĠT op
Ġo cc
ĠF Ã¼hr
ĠSch ule
alt ung
F Ã¼r
an ks
mal e
ĠSt Ã¤d
Ġcol or
h or
ir g
Ġb it
ĠVerwalt ungs
n ach
Ġr uss
ĠPr ess
ĠR ud
ĠB or
ĠJose ph
6 5
Ġd ist
an ze
ĠD own
ĠL es
Ġm om
Ġn Ã¤ch
ĠRe v
Ġd afÃ¼r
meister schaft
Ġh Ã¶ch
Ġst amm
Ġall ow
ĠK lasse
Ġke y
Ġm ich
Ġp ossible
iziel le
w eit
Ġp lease
Ġkl einen
ĠAn zahl
sch lag
ien s
Ġind ustry
ĠW ie
ispiel sweise
he ther
Ġt imes
âĢľ )
ck s
Ġle ft
zie h
Ġdan ach
Ġf ile
up p
geb Ã¤ude
ĠFl or
Ġcount ry
Ã¶s ung
m o
ĠSt Ã¼ck
all er
ob al
Ġs og
at Ã¼r
Ġqu ick
f asst
ĠGen er
Ġb ene
Ġst arb
ĠMot or
ĠA kadem
Ġpr es
Ġhin aus
z ir
Ġpr esent
Ġ197 7
Ġth ough
rach te
c is
ĠhÃ¤uf ig
9 8
E ine
ĠG i
anad a
n am
Ġin sp
uf act
Ġver t
ĠB u
s ide
Ġt est
Ġsie ben
ĠBo den
ĠAuÃŁer dem
ĠT ab
h aupt
Ġse ason
ĠE hren
stell en
ist ik
ĠJohann es
Ġm ein
b ack
Ġ ess
Ġth ing
ĠSt art
read y
ibliothe k
Ġem ploy
f red
ur ity
ĠR ang
Ġgemein sam
H och
ĠverÃ¶ffentlich t
Ġehemal igen
ir chen
ap s
Ġlie ÃŁ
h an
ro ll
Ġget ting
Å į
Ġmaj or
ĠD om
Ġcont act
Ġb lack
ĠP sych
ĠE mp
Ġbe vor
Ġcomp an
Ġ7 0
Ġin n
7 7
ĠT rans
urop Ã¤
ĠZ entr
v ious
re w
Ġh app
id d
Deutsch land
k n
ar ian
Ġcom es
ichte te
ĠK urz
ĠRich ard
Ġr Ã¶m
Ġbec ome
ĠT V
ĠP osition
ĠVerein igten
ĠC enter
ut ions
Ġd ien
ĠSp iele
ĠS aint
ĠHerz og
Ġzahl reiche
Ġle vel
f ried
al z
sp rach
M us
Ä į
Ġst ory
ĠAr m
t ain
ol den
ar en
Ġet c
ict ion
ĠT urn
ĠG ast
Ġ3 5
ĠPro gramm
tem berg
Ġh erv
ĠLe ague
ettbe werb
A mer
ĠS elbst
ab hÃ¤ng
ac y
ĠS ub
am in
ĠI r
ĠSe c
Ġdel iver
V or
ĠG Ã¶
au en
Ġex tra
Ġ194 0
Ã §
ĠlÃ¤ sst
ĠD el
unn ing
ute t
Ġres ult
Ġbeste hen
Ã¤us er
ame ister
ĠAm ts
Ġpo int
arbeit en
Ġdam als
Ġerfolg reich
ĠDre h
ur f
Ġprofess ional
ch ester
ĠJ ames
Ġim p
ĠZ Ã¼r
ust rie
Ġl ow
fl Ã¤che
ĠErn st
re icht
Ġ9 0
wo hl
c el
t ler
Ġkn own
Ġ ens
ik on
Ġso gen
h ang
ro du
ĠTh at
Ġz we
ĠBahn hof
Ġcal led
ĠW irtschafts
ĠR ot
c ent
ge fÃ¼hrt
ch ter
Ġ193 3
stell t
olit ik
Ã¤ch lich
ĠfrÃ¼ her
il en
ĠSch Ã¼ler
ĠKar r
ĠEr folg
ĠJ ur
Ġbl og
Ġfriend s
l ig
Ġst yle
Ġzu dem
y e
ĠS yn
v oll
i od
ĠM ore
ze uge
Ġl iving
Ġ(âĢ ŀ
ich en
ĠM ilitÃ¤r
ĠHo use
Â ²
ĠB lack
b ung
s eite
v est
ĠG re
z i
Ġso zial
pl an
itz t
Ġal ten
p re
r or
Ã¶ ÃŁe
Ġzur ueck
ĠGemein den
ĠO s
Aus wahl
O S
b ol
Ġw ind
Ġto ol
iz ei
ĠH in
ĠMit glieder
Ġ( =
Ġbe de
ĠJ es
ge m
aff el
Ġbie tet
ilit ies
ĠEng land
ell ing
Ġrequ ire
Ġf ield
ĠMe hr
ĠS ong
Ġco up
ĠW ein
Ġl ag
ĠN Ã¤
Ġh inz
ĠK rit
Ġ196 7
ĠM ac
Ġme ans
ĠG mbH
' ll
Ġte xt
ift ung
em in
Ġbu y
Ġl im
ikan ischen
0 5
we gen
ĠkÃ¶n n
Ġser ies
en en
ĠE ing
Ġ +
Ġoff ic
it ch
âĢ Ķ
Ã¼r d
ĠEn gl
gesch lossen
ent in
s uch
Ġchar ac
om b
Ġ196 6
ab y
ĠZ um
9 6
ĠM iss
ut ure
ĠÃ¶ff ent
Ġ193 9
Ġabs olv
g Ã¤n
r im
or den
Ġheut igen
ur ance
rich ten
* *
k i
te id
Ġph ys
Ġhand elt
il s
ĠIn nen
Ġa cht
Ġwicht ig
ĠS achsen
ĠK re
Ġwo hl
ĠAlex ander
ymn as
Ã¤ chen
ĠP et
Ġal ready
f ung
ĠIn stit
Ġz usÃ¤tz
Ġfol gte
Ġ Ã¤hn
th rows
Ġl at
Ġc amp
ĠI l
ĠW ol
D F
b st
f a
Ġw a
fl anzen
Ġspec ific
sch eiden
Ġn ie
Ġz og
ĠR ein
Ġbe ispielsweise
Ġbest imm
ĠJ azz
ĠInformation en
ĠGr uppen
ĠK or
Ġihn en
Ġinst all
es ted
ic ro
Ġstar ted
mÃ¤ÃŁ ig
Ġd one
Ġo thers
ĠSp rache
Ġw atch
ic y
ĠSt ar
ĠWh at
H er
al ys
ĠRei he
Ġwel ches
ĠB aden
Ġ196 4
Ġ196 5
i j
Ġl og
geb ie
ĠRe al
Ġdah er
G em
Ġsp ace
Ġ193 8
9 3
Ġ ung
k an
ĠStud ien
al er
og le
Ġdar unter
ĠServ ice
ĠE t
Ġer klÃ¤r
Ġen er
ĠBr on
ĠB y
Ġjed er
Ġp urch
Ġer Ã¶ff
ÃŁ t
ĠReich s
Ġeigen e
B C
Ġide as
Ã¤nd ern
F l
eh men
weg ung
m on
setz ung
Ġt ype
sch ung
te in
as il
Ġgen utzt
ĠR os
Ġ193 0
Ġgef unden
haf t
Ġt alk
Ġf al
um er
Ġret urn
M et
bar en
Ġwen ig
Ġh istory
ĠB ook
ĠP il
Ġzw ar
ĠM Ã¶glichkeit
ag s
rie f
ĠKarr iere
Ġbuild ing
ĠR und
ier ungen
Ġcl ick
l ad
Ġw issenschaft
Ġprov ides
ĠEle kt
at te
fl ug
ĠF el
me e
ul a
S h
Ġsup er
ĠOt to
w art
Ġh ours
Ġ196 2
werk e
arr iere
ĠgrÃ¶ÃŁ ten
b ro
al tet
ĠBevÃ¶lker ung
ĠAn n
Ġsoll en
o unt
" .
ĠG eld
m ost
at ers
ra el
r unde
ĠW enn
ĠSie d
pla y
Ġeng ine
ĠGe f
s eit
la w
Ġw ahr
part ment
ar ed
Ġlie gen
in ts
Ġre gel
ĠHo tel
ĠB ach
Ġo p
Ġs en
ĠSt ates
Ġ196 1
led ge
Ġletz te
Ġbefin den
o ught
Ġmember s
Ġcompan ies
ĠP an
ĠEr d
Ge ographie
ĠStre cke
Ġde utlich
el ten
Ġm ethod
em ents
av en
ĠK auf
ĠF ac
d am
ĠProdu kt
it en
ĠSie g
ĠfranzÃ¶s ischen
6 6
oll te
Ġentsp rechen
ĠK ategor
ish ing
stre cke
ĠT est
ut or
ĠFl uss
Ġor ganis
ĠL u
Ġsich er
ĠD ate
ĠH ers
Ġ19 20
leit ung
Ġmo dern
ĠSal z
br uch
Ġerw Ã¤hn
Ġne ar
Ġ194 4
Ġtechn ology
Ġup d
r ies
te g
8 7
Ã¼rt temberg
ent wicklung
Ġschn ell
b ten
Ġdesign ed
re ibt
ad urch
A nd
ĠD res
ikan er
Ġinc re
ang es
ast ic
ĠB ot
esten s
es tern
W est
ĠR oy
ĠWill iam
og n
Ġh om
Ġ194 6
la im
Ġso ur
u hr
ĠE igen
id a
rie ch
ant wort
ang er
ĠA k
ĠPre m
ĠgehÃ¶r en
Ġsom it
Ġall es
Ġp ur
Ġ196 3
Ġen ough
Ġ Å
Ġmonth s
ĠL o
net en
ĠÂ »
ĠVors itzen
Ġrel ations
Ġp ie
ĠGe orge
Ã¼l ler
fra ge
m as
Ġd eb
Ġteil weise
Ġk lass
o int
geb ung
E M
Ġver sch
ĠMus ic
Ġs ug
Ġe arly
ann e
Ġbes ten
ĠĠĠĠ ĠĠĠĠ
yn am
P ar
ide d
Ġb in
Ġun ique
Ã¤l fte
re p
c ome
w asser
ĠW issenschaft
Ġdam al
Ġbe teil
enn ung
Ġein igen
ĠDe c
par te
ges ehen
I T
Ã¤d ag
an lage
ĠE ben
9 7
isse ur
he ira
ach ten
ze hn
b s
n es
ĠZ ust
Ġl ate
Ġwen iger
ĠFre und
por ts
ĠK an
ungs k
ward s
Dies e
g g
ĠK Ã¶rper
ĠAss oci
ĠA G
ĠL iga
Ġproble m
z us
0 6
Ġn ichts
ĠB ilder
ĠC ommun
Ġsim ple
Ġdisc uss
w esen
ern en
Ġh uman
ub le
ian a
ĠAustr al
ide os
b are
Ġst at
Ġhe i
Ġme an
Ġs tellt
ĠD ruck
Ã¤l ter
w ind
Ġverb unden
ik al
Ġst ay
Ġ195 6
amer a
ĠE du
ĠH essen
qu e
ĠA st
Ġzu vor
Ġw elt
Ġwh ite
Ġth ought
Ġcomple te
ĠNach dem
ĠAkadem ie
v an
ier ter
B o
er ing
ĠS telle
fin ale
Ġadd ress
8 4
g re
ĠT ele
Ġmach te
Te ilnehmer
Ġf alls
ĠL age
ĠEr sten
un a
ĠF ort
Ġ195 2
el eb
os sen
ĠCh amp
Ġw alk
as en
. <
il er
Th ere
Ġam er
air s
) ;
b ra
on ne
ag ing
ge hen
Ġer reicht
A ll
auf en
ĠPhil osoph
sp l
ĠZÃ¼r ich
it a
Ġre port
ĠVer fÃ¼
tre ter
Ġon ce
Ġcomp uter
Ã ľber
av y
g le
p rÃ¼
Ġg ames
ĠBes itz
un ge
b or
sp ro
C hr
ĠZ we
Ġtra vel
ĠA ben
ĠC an
Ġer k
Ġj etzt
age d
9 2
ĠSpiel en
Ã¼s se
ĠG leich
Ġ5 00
Ġoff ice
T rÃ¤ger
ring en
Ġevery thing
Ġsog ar
Ġs n
ut her
ient en
res h
ĠHal b
aup ts
Ġl ar
ik o
ct ive
em b
ĠGra nd
ig in
k el
ĠGe ist
rol le
Ġpriv ate
Ġm iss
ĠB al
Ġc ent
ĠÃ ľ
Ġresp ons
an ischen
Ġ195 9
n ers
ĠL Ã¼
Ġbes uchte
Ġvar ious
ĠW eiter
Ġc ame
ien ces
Ġk itchen
Ġam ong
ang s
w esten
or ie
ĠP rÃ¤
ĠMit arbeiter
ĠGra b
Ġtra ining
Ġra d
ĠJe an
Ġnach dem
ger icht
ĠPh ys
ĠK ons
ĠRep ublik
anc ial
Ġcurr ent
ĠBru der
ĠF le
ir c
ell s
rie ges
itu ation
is c
Ġm illion
Ġl ik
ĠSil ber
Ġfav or
ing t
Ġ4 5
ge hend
Ġto ok
ĠD eb
im ate
r am
ĠA c
ĠAr ten
ĠM el
st ant
ĠT her
Ġag o
Ġele kt
Ġgleich en
Ġloc ated
ĠFin anz
Ġpartic ular
Ġpop ular
ĠC amp
Ġstell te
p ut
Ġre pr
s ie
Ġem ail
Ġfr ont
ĠNÃ¤ he
Ġ195 8
k ap
ĠC le
Ġbef and
onst ru
an ces
Ġstud y
Ġch allen
Ġact ually
Ã¼ss eld
at um
ĠEl tern
y a
Ġh ig
Ġprodu z
ĠVerb indung
ĠB d
ag t
e ter
Å Ĥ
ĠI hnen
Ġk amen
ĠUn ion
fol ger
Ġauf genommen
ip ment
u a
ĠS in
ĠF rie
ran ge
fahr er
Ġdid n
ĠSe x
ile d
p aper
us ion
ĠN ow
M ed
ĠF und
Ġver lie
ell ow
ĠBerlin er
Ġman agement
Ġ194 3
Ġn atÃ¼r
ĠK le
ed en
ĠAl bert
ĠBÃ¼rger meister
Ġ194 9
schrif ten
sp iele
hand lung
wert ung
9 4
nd er
ĠN etz
ĠBe griff
ĠHil fe
ĠK raft
ĠI D
ĠMed ien
Ġac count
Ġw onder
ay er
Ġen vironment
Ã¼l t
lie d
Ġ194 8
ĠArt ikel
if y
Ġcert ain
ill er
Ġdo ing
Fra u
ĠM ass
0 7
Ġm ess
ĠJ ack
Ġinv olv
ot ball
Ġcustom ers
Ġpropert y
en er
Ġle ader
us st
olog ische
on ie
Ġbei de
ĠWerk e
or gen
ĠK ing
ĠR iver
schlieÃŁ lich
. -
H and
w in
ĠI d
ĠHer mann
Ġm ass
Ġl inks
ad a
Ã¤t zen
Ġgele gen
b esch
it ure
av a
ick en
Ġres ults
so zial
ak te
och e
ens ion
r ation
ĠW ash
fe hl
arbeit et
ĠW irk
jÃ¤hr igen
sch iff
ĠThe ma
m od
ĠW alter
Ġentfern t
ec ts
h inder
ĠD ay
p ark
Ġw on
Ġte ach
st ud
h men
ra in
letz t
Ġsch rieb
Ġ195 3
Ġindivid u
ĠJ ac
Ġgeb aut
0 3
f ten
f Ã¤h
Ġf ur
Ġam az
b Ã¼rger
ĠHann over
i i
k ret
Ġ195 7
ĠGro up
g liche
ĠO ct
ĠKÃ¶nig s
Ġfolgen de
9 1
he t
ran t
cript ion
ig lich
om ot
Ġf it
ĠY our
W hen
ĠC r
Ġy et
i ar
ĠAus bildung
tag s
ĠR em
Ġde al
Ġf il
ĠC am
Ġcolle ction
ĠH Ã¤lfte
ĠBes uch
lie ben
Gem ein
ĠSch wer
Ġ195 5
Ġt able
Ġb ath
ĠRe gen
S port
Ġiss ues
r al
ĠA fter
ww w
Ġs ays
ĠD ach
Ġmod el
olog ischen
ĠPr inz
t d
oll ar
Ġgen au
g ere
ad s
Ġinclud es
te xt
ĠR en
Ġdoes n
G es
af r
ĠVer m
ho ut
ĠAuf trag
Ġcomp et
p rÃ¤sident
g round
at ors
Ġent hÃ¤lt
ĠWolf gang
Ġman ufact
as er
Ġc ard
ĠG est
Ġg re
asch inen
Ġauth or
f rei
rÃ¼ ck
Ġmin utes
ĠA v
fass ung
ĠG et
be zirk
Ã¼h le
k und
Ġs ett
ĠR ob
ĠAl le
Ġcont ent
Ġpre par
Ġrec ommen
Ġf uture
eit et
Ġunter stÃ¼tz
un c
Ä ģ
ab eth
ĠMÃ¤n ner
6 7
Ġd oc
ĠA tt
Ã¶r m
S e
t ritt
Ġnew s
ĠLou is
0 2
ig ungs
ann ing
0 1
f ield
or ies
Ġe conom
P r
Ġf ive
Ã¼ ste
Ġsch wer
gel Ã¶st
Ver lag
ĠSc ience
O ur
e ign
i ro
M S
Ġh ope
Ġcomm on
ĠM aterial
ï ¿
Ġmed ia
Ġentstand en
Ġsetz te
ĠB ack
b ook
un s
Ġh old
Ġ194 2
ï¿ ½
Ġin form
rit z
Ã³ n
Ġare as
om et
Ġar r
iv il
r hein
mal er
urn iture
zentr um
ĠJun e
ĠverÃ¶ffentlich te
Ġb i
Ġle g
ir es
ĠHer ren
ĠfrÃ¼ h
ĠF Ã¶rder
Ġk osten
Ġmehr eren
8 3
ĠS erie
Ġann oun
Fernseh serie
0 4
ĠB ill
ĠauÃŁer dem
U m
Ġcom par
k athol
w es
ĠM ond
ĠFe uer
o id
Ġm atch
Ġ193 6
ĠA th
ĠF ree
Ġ193 7
C D
ĠPhil ipp
ca dem
ĠFrÃ¼ h
Ġd ate
or a
ĠS u
et ten
Ã¤hl en
Ġpos ted
Ġer ziel
ĠVerfÃ¼ gung
S etzt
v is
ĠChar les
h ib
ĠK ampf
w irk
Ġab ge
vent ion
Ġvoll stÃ¤nd
heira tet
Ġ194 1
ĠPr es
Ġass ist
ĠSt amm
ges tell
eit her
7 9
Ġh Ã¤t
Ġle ast
stell ungen
iden ce
ĠN et
gen cy
meister schaften
ĠPolit ik
ĠP op
eb ook
v in
or ed
iv ely
ĠAn geb
ĠN ik
Ġd ue
ĠL eiter
Ġer ster
ho ben
ress e
ĠDenk mal
k reuz
Ġre cht
ne ter
Ġcom fort
Ġnatur al
ĠU p
Ã¤t igkeit
ra chen
Ġw ent
Ġakt iv
Ġj apan
h il
or te
ĠMe er
as te
r ig
ĠL og
Ġto ur
wie gend
Ġt aking
ich e
le iter
ste hen
A t
o on
ĠM ein
Ġp ick
im ar
ĠSt il
la ger
Ġwall paper
l ow
it sch
de ckt
Ġbre ak
Ġperform ance
ze ugen
end es
Ġle icht
ame ter
ĠUnter stÃ¼tz
ĠSchl acht
Ġquest ions
0 8
a dem
Ġa ud
Ġin de
ĠE U
Ġho he
sch t
bet rieb
k unft
ĠS ym
ĠStud ium
Ġf und
ut zen
ĠForsch ungs
r up
Ġab ove
ĠBay er
Ġsel ten
Ġs ong
de ten
Ġe uropÃ¤
ĠB ud
ĠEisen bahn
ĠCh or
P S
b an
l iste
w ill
Â °
Ġc ra
ĠC ent
Ã¶ hn
Ġ195 4
ĠDam it
Ġev angel
ch ie
Ġd ritten
ĠW and
ĠGeb ie
ic ation
ĠHer aus
zeug t
Ġre ason
Ġprofess ion
an ted
ot te
Ġ ill
ĠV is
Ġst aff
Ġpr ess
ful ly
Ġaus gest
Ġp ersÃ¶n
Ġg iven
Ġw id
, "
E T
ĠKÃ¶nig reich
ĠKomp onist
i w
Ġre ach
ĠS Ã¤nger
Ġad min
ĠEinwohn ern
ĠD Ã¼sseld
ĠL Ã¶
Ġ195 1
nde te
T o
Ġsome one
Ġbe deut
Ġj oin
Ġstr ong
ci ally
ĠA cadem
Ġappro ach
1 00
Ġb ad
Ġse en
ĠV iel
Ġa ge
Ġd iff
ĠVer anstalt
ĠNach t
Ġger ade
Ġd ivers
ĠR itter
ĠT ier
ĠV og
ĠDres den
ĠA re
Ġz erst
ĠUnter such
ĠStadt teil
ĠPla y
Ġge d
Ġgew esen
ĠZu ge
ĠIs land
ĠHow ever
is es
lÃ¤ ss
ifik ation
ĠL aw
be ck
ĠMa ÃŁ
Ġh ot
imm ung
ĠC up
ug hout
Ġ194 7
0 9
ĠT own
Ġor iginal
ĠK unden
Ġp aper
Ġgo vernment
ĠgrÃ¼ ndete
z og
k or
ĠD okument
ial og
Ġev ents
we isen
gr am
Ġabsolv ierte
ĠZeit schrift
u ed
ĠT om
ĠLe hrer
ict or
Ġf ert
Ġdetail s
Ġm acht
ĠB und
Ġr icht
Ġper iod
Ġfin anz
i est
p age
ur al
zir ks
ĠM ess
Ġh appen
ib ility
il det
ĠW ild
Ġp sych
Ġan schlieÃŁend
Ġhe art
Ġsp ielt
Ġuns ere
ĠL icht
Ġs il
ail y
ĠWash ington
c m
zie hung
ĠSoc iety
ur a
Ġf rei
por ted
d t
Ġin tegr
ĠH eid
Ġm Ã¶ch
Ġph one
Hoch schullehrer
p ol
ar th
Ġsoll ten
Ġihr es
Ġener gy
Ã¤ch s
Ġge ben
ĠDies es
b ischof
Ġt it
Ġhe ira
Ġtra in
ĠsÃ¼d lich
==== ====
Ġth er
Ġv ia
le ge
ĠV ideo
r uf
ver walt
Ġsel f
âĢ ĺ
ret ty
Ġra te
ĠR and
ĠBe zeichnung
ĠPol izei
Ġl ater
ĠGes etz
ĠS omm
7 2
x is
ieren den
bl ick
Ġlat est
e ded
Ġre d
Ġre f
ĠSp rach
olog ical
Ġherv or
n itz
ĠT on
l im
Ġb le
ing les
ĠT eile
ĠSp r
Ġopt ions
ĠW all
ĠW ort
Ġho hen
Ġsel ben
Ġgemein s
ĠR at
ĠU s
ren g
Ġso ftware
Ġaut omat
Ġne un
ĠDan ach
ĠO pen
Ġex tre
N ational
Ġc op
all ow
e ks
ple ment
Ġrest aur
Ġhal f
in ge
ĠComp any
ĠLin ie
Ġk athol
Ġver d
Ġwrit ing
b ark
com ing
v on
ĠG arten
Ġide a
Ġflo or
ĠL uc
ĠRe ad
Ġclos e
l ern
ĠU K
M an
Ġres our
Ġehemal ige
iz es
ĠMe x
wohn er
ĠBas is
5 6
k r
at o
ĠH ere
Ġqu ite
Ġreg ion
is ted
ĠEurop Ã¤
Ġcre ated
ĠM Ã¼ller
ĠD ivision
ĠW ider
Ġwho le
ĠursprÃ¼n glich
ĠK osten
ĠN S
Ã ¸
Ġd istr
hÃ¤lt nis
ĠS old
ĠFran cis
Ġstamm t
M od
hr t
Ġ Ã¤lter
Ġz ie
ĠAr mee
E L
ip le
iqu es
ĠwÃ¼r de
ĠC la
ĠPol en
Ġcl ients
ĠD or
ĠF en
ĠK opf
ĠStre et
ĠWien er
S S
Ã¤nd ert
Ġread ing
g ien
ĠB ig
if fen
sch uss
ĠL im
Ġpartic ip
ar f
ĠC ons
ĠAn na
v a
ĠAb s
20 19
um ents
ist ic
ĠSt ock
Ġcom mit
Ġex ample
mar kt
st a
Ġwei ÃŁ
le cht
per atur
ĠRud olf
Ġn ull
ĠArbeit en
ĠAmer ica
8 2
Ġsch loss
Ġcho ose
ĠH is
A D
as ten
ĠL os
ĠÃ¼ber n
k au
re cher
Ġv o
ir th
ĠRe ise
Ġcon stru
wissenschaft ler
ĠnÃ¶rd lich
Ġp le
ĠKategor ie
20 18
g ers
Ġc eleb
ĠI st
or es
Ġpro b
ĠL Ã¤nge
ĠC our
ĠAb geord
Ġhtt p
ĠM ult
ĠO f
Ġfe ature
Ġke hrte
ĠDown load
s erv
ĠVer l
ĠUm welt
ĠE ast
ĠSt ad
gr enz
ĠHal le
Ġ193 4
h istor
ĠRec ords
Â »
Ġh air
spiel en
Ġvorhand en
et y
ific ation
lichkeit en
ĠKant on
ĠH an
ze igt
Ġrequ ired
ĠerwÃ¤hn t
ĠG reen
ĠE st
Ġvar iety
ĠA ct
b ie
it ar
Ġt ax
Ġh Ã¶
Ġal most
th ough
Ġ3 2
mer k
f ar
ad o
ĠS Ã¤
Ġp osition
gew iesen
Ġs ym
Ġs ystems
Ġbelie ve
il ar
Ġj a
Ġs ale
ĠF uÃŁ
ĠNach bar
Ġbes itzt
amil ie
Ar ch
l Ã¶sung
ow jet
ĠPro f
5 7
A M
ĠD Ã©
am ed
ĠNach folger
ĠVers ion
Ġ Ð
ĠA uÃŁen
zeit en
I ch
unk ten
W ir
p hen
ĠB a
ĠB on
st aat
ra uch
ĠBe k
ĠB onn
ess ion
end ing
ĠJose f
Ġen c
ĠCar ol
denk mal
k y
ĠÃĸ ff
ĠErgeb nis
ĠS ur
ĠP flanzen
Ġto wn
ĠGes und
Ġr en
Ġevery one
Ġbo x
ĠfranzÃ¶s ischer
b us
ĠRe cht
neh m
Ġtot al
ab les
ĠVer Ã¶ffentlich
ĠAr n
ĠVerein s
ĠOff izielle
f Ã¤l
ĠReg ierungs
ro t
Ġge hen
rÃ¤ fte
ĠNew s
ĠGrÃ¼nd ung
bin ation
Ġgem acht
Ġc ur
Ġ193 5
âĢ¦ ]
ra te
Ã¤hl te
h i
lin ie
Ġat tra
ian o
osp ital
hal ts
Ġj Ã¼n
press ion
ĠFest ival
ul es
pe cially
Ġeduc ation
w al
Ġf ace
ell ent
K on
ĠZu dem
ĠKomm and
ĠW ahr
mit t
ot a
rei he
Ġk om
m ut
ĠG as
et ing
ĠMo unt
ĠS ter
he ad
sch ei
ĠnÃ¤ch sten
o den
Ġt w
Ġ Ã¼b
Ġk einen
Ġne g
Ġknow ledge
Ġentwick elt
Ġamaz ing
Ġw es
ĠT im
ĠPro t
ĠMin uten
z ip
ite te
ĠÃ¶sterreich ischer
6 3
b aum
f alen
ĠP ublik
Ġme as
ĠEx per
c ol
ĠO ut
ĠZentr um
Ġb reit
ĠF ern
ĠZw ei
Ġf ul
Me ter
Ġeinzel nen
Ġinn ov
Ġ Ã¤lt
ĠS S
Ġal te
Ġwel cher
ĠProdu ktion
west lich
ĠEngl ish
Ã¶ ll
Ġver z
Ġ3 00
ĠVer d
Ġerreich en
l ant
ip e
Ġbil det
ĠMat hemat
( )
ĠJ er
Ġunser er
ĠGo ogle
Ġpol n
Ġs onst
ĠC ap
Ġs ens
ĠEr fahr
Ġapplic ation
ĠAssoci ation
ĠMar ch
6 4
Ġh ost
mus ik
ĠBrit ish
et a
u age
z immer
aus ch
Ġbesch Ã¤ft
ĠR unde
Ġthro ughout
Ġcurr ently
ĠA ber
ĠB usiness
orn ing
Ġern annt
bo ard
Ã¤nd ig
rep ublik
Ġm em
Ġentwick elte
5 2
6 1
os ph
Ġent halten
Ġw ide
Ġeben so
ĠEr k
Ġsim ply
6 8
E C
ĠK ra
Ġrec ent
Ġ19 18
ve y
ĠSte uer
ĠRoy al
ĠH Ã¶r
Ġar g
Ġquest ion
s m
ĠS C
am ing
Ġst ore
fra u
ĠStand ard
T V
ĠR Ã¤
Ġj Ã¤hr
ĠFÃ¼r st
Ġim ages
Ġco ok
7 1
p el
p ielt
in os
Ġp an
gemein schaft
7 4
z uf
fÃ¼ ll
ro ffen
Ġc rit
Ġvers ion
ĠfranzÃ¶s ische
ĠFir ma
ich ert
ĠL au
Ġst ock
Le gt
ymnas ium
Ġ19 14
G B
Ġp ain
Ġj Ã¼d
k unde
ot o
Ġprovide d
ĠD ipl
ĠFre ib
En t
k et
lav ier
b i
ĠIn vest
idd le
ie ur
Ġw ww
Ġh on
Ġpart y
unter nehmen
E le
c rib
f ace
f Ã¶rm
Ġe her
alys is
Ġw anted
ĠP lease
Ġread y
5 3
ien ste
Ġver heiratet
los e
Ġf ra
ĠH art
Ġsch l
Ġcharac ter
Ġver ein
ĠDire ktor
an lagen
ct ing
Ġum fasst
ograph y
r ug
Ġsh ows
rech end
Ġheira tete
e kt
h m
Ġc m
Ġc as
ĠL eitung
Ã¶ gen
6 2
ĠGÃ¶ tt
istr ation
ĠPriv at
ĠInstit ute
te ten
Ġens ure
Ġk ids
Ġde ter
abr ik
Å Ļ
Ġ19 19
ele g
Ġoff iziel
Ġinternational en
Ġw hether
as chen
ĠD oppel
af t
ren ch
Ġa chie
Ġp aint
Ġp retty
ad y
E is
Ġs ales
Ġv eh
ĠT it
ĠAnd reas
pla te
ĠHand els
ĠEv angel
ĠAut o
p ass
sel ves
ĠEner gie
Ġs we
Ġw ollte
ĠSomm ers
Ġt aken
ers eits
ank en
Ġart icle
Ġconc ern
O T
ĠHe alth
ĠgrÃ¶ÃŁ te
at iven
sch au
ĠPerson al
ĠHoch schule
Ġproble ms
ĠH y
Ġmit tler
Ġbook s
Ne w
Ġbil den
5 4
ĠA ust
end s
ĠThe men
Ġco ol
Ge grÃ¼ndet
Ġverl oren
5 8
a ktion
ĠMar y
ĠG ut
ĠIn c
ĠRel ig
arbeit ung
ĠFol gen
Ġ either
ĠD enn
Ġins urance
Ġnet work
Ġfur ther
ĠH u
Ġge geben
Ġad ded
7 3
Ġn ice
for schung
Ġem pf
Ġausge zeichnet
Ġpict ures
Ġspe ziel
Ġre chts
Ġrel ig
Ġequ ipment
Ġt akes
Ġrec ently
Ġint rodu
C l
Ã ¢
us ive
ĠM r
ist an
ĠV an
Ġhe ld
Ġent ire
ĠKir ch
Ġphot os
W ith
Ġeinz ige
Ġpict ure
ic les
Ġloc ation
Jahr hund
om a
ĠBe zirk
iforn ia
h ab
re ise
ĠM em
pro chen
ĠMed izin
ĠEurope an
im um
Ġ4 00
Ġfin ancial
parte ment
ĠK ranken
ic ago
Ġes pecially
fer enz
ĠOr gan
ĠOr ganisation
lieÃŁ t
F A
h ing
Ġge k
ok e
Ġfun ction
Ġf ire
ĠF irst
Ġgen eral
ĠGeb urt
Ġindivid ual
ĠP unkt
ĠT enn
Ġmind estens
hockey spieler
Ġs ites
ĠGr enze
Ġweiter hin
ĠEp is
t schaft
ĠVer gleich
Ġany thing
Ġactiv ities
ĠTr uppen
Ġopportun ity
ĠL ied
Ġd og
Ġf a
Ġm at
Ġer z
ill en
ĠÂ «
Ġh ab
ĠO k
g as
Ġtra ck
Ġgesch lossen
W er
Ã¶ ss
hl t
eh ler
m ot
ĠM use
ver age
Ġso on
ĠZeit punkt
Ġtry ing
Ġtro tz
H ol
I P
ĠK laus
chn et
Ã¡ n
Ã¶ sen
Ġcom ing
Ġben annt
o der
Ġt ell
at is
ic ult
ĠV en
Ġk ont
ĠNatur schutz
Ġwe eks
Ġl iter
Ġal t
ade d
w en
it ts
y es
z ert
Ġd Ã¼r
Ġpro jects
ĠE th
ain ed
Ġsec urity
f its
op t
ell o
ĠP unkte
Ġne eded
ĠEn ts
Ġe p
Ġcon tra
ĠAb schluss
ĠTra iner
ĠfÃ¼hr en
5 9
8 1
t ime
on ym
Ġcustom er
O M
Ĥ ¬
C ont
ĠAr g
Ġ192 8
m und
al a
af fe
ain ing
richt ungen
s b
ĠI nde
Ġper cent
ĠBr un
ĠFin ale
y th
ĠOr gel
ĠL ive
Ġbet rÃ¤gt
Ġdien te
ĠEnt scheid
opp ing
Ġpl ans
u it
ie ger
id t
ĠZusammen arbeit
Ġsign ific
y ear
ĠF rom
iz ing
ash ion
c up
Ġspiel en
ĠÃ¶ffent lichen
ĠDÃ¼sseld orf
Ġse par
amerikan ische
Ġrel ativ
Ġabs ol
Ġ ut
all el
Z u
Ġne ues
Ġam ount
Ã¤n gen
ĠWh ite
PD F
wh ere
S pe
ho use
O C
Ġp oss
ath let
Ġpre vious
Ġ192 9
Ġo il
qu al
Ġdar Ã¼ber
Ã¤r k
Ġdiff icult
Ġl ock
Ġso und
etz en
rat s
Ġins ide
i ally
Ġ rom
Ġst ruct
Ġstand ard
g arten
ĠT urm
ang ing
ĠDan iel
ĠB us
ig ner
gr uppen
lie gen
on se
al u
iz ier
Ġben Ã¶t
ĠPart ner
Ġcom ment
Ã¤t ter
ĠSt affel
ĠFl ugh
mÃ¤ ler
Ġdra w
ĠUnterstÃ¼tz ung
ĠAn schluss
hal te
S tra
h ers
Ġp ark
Ġmit tel
Ġit ems
ren nen
Amer ikaner
Ã¤nd en
k ur
k arte
ing ungen
Ġled iglich
ĠV ictor
ap ie
Ġ193 2
ant as
ĠOr d
F C
ĠJ ak
5 00
ĠMan agement
ĠVol k
ĠLie be
r is
ne w
Ġdamal igen
Ġaktu ellen
Ġpolit ischen
Ġt old
Ġb ud
ĠSt unden
f igur
le gt
ĠSchw arz
Ġbrit ischen
el berg
ĠK lavier
ĠW ebs
ĠAn s
Ġass oci
ĠGl as
Ġest abl
Ġcoup le
ĠSch Ã¶n
ĠfrÃ¼ hen
h auer
Ġs le
Ġerh Ã¤lt
Ãĸ sterreich
p ose
Ġb lock
Ġtreat ment
ĠK as
ĠJ ud
att le
O ber
u ary
M L
Ġs ix
ĠI V
Ġch em
Ġlead ing
Ġw ays
Ġ19 00
Ġvers te
ĠInd ia
ĠRest aur
as c
pe cted
Ġm obile
ĠAl ten
f unk
ĠFl Ã¤che
Ġ[ âĢ¦]
zw ischen
g ibt
Ġf iel
Ġg riech
au d
Ġus ers
Ġwo od
Ġbu ilt
Ġrece ive
ir it
ieren de
onst ants
ĠSch les
k om
ĠInd ian
Ġsk ills
Ġpract ice
Ġmom ent
ĠAus gabe
Ġprodu ction
ĠSh ow
techn ik
Ä ±
ĠS und
at ik
un ion
Ġm ove
Ġyour self
T ra
c ement
Ġer he
ĠP ower
Ġst ammen
Ġver lÃ¤
Ã¤d chen
Ġerfol gt
Ġnieder lÃ¤nd
er o
nd en
ĠA ud
ĠC lass
ne e
Ġse em
ĠBre men
Ġrela ted
a un
b orn
Ġc laim
men te
Ġze igen
stÃ¤t te
D es
Ġne uer
ĠSchauspieler in
j or
Ġ Ã¼
Ġun ver
ĠVer t
5 1
Ġjed en
Ġcle ar
ĠhÃ¶ her
is ierte
at in
Ġpar ts
Ġrece ived
_ _
s a
Ġge pl
Pro du
ĠForsch ung
Ġhapp y
ĠB il
ed s
fass te
b is
u hl
Ġbie ten
ĠAcadem y
Ġo ben
Ġre pla
B l
aus t
fr ast
Ġfand en
Ġgesam te
ĠC ast
ran sp
Ġro le
B ahn
R E
ĠS tern
Ġv e
ot es
ĠPar te
sw Ã¼rd
ĠMod ell
Ġmarket ing
Ob jekt
R uft
Ġs ummer
str ument
haus es
lÃ¤uf er
Ġs tellen
ĠL ake
Ġd ro
ĠR h
ste ad
Ġreg ul
U N
Ġ Ã¶stlich
at form
aut or
ĠMÃ¼n ster
Ġst op
Ã¤ ten
ĠT w
ad es
ĠU N
g ro
Ġg ute
ed ding
um Ã¤n
Ġus ually
Ġfavor ite
d y
ar ts
zeich nis
Ġlearn ing
A G
ĠD och
st anz
Ġsk in
v els
ad el
Ġun ivers
Ġacc ording
ibr ary
it ial
ĠS ingle
Ġc y
ĠSp ring
ĠIm m
ĠMo der
ĠkÃ¶nn te
d r
ĠG attung
uf e
Ġr unning
Ġstud ent
Ġex pect
Ġange geben
ĠCal ifornia
le tt
Ġz ust
do or
g arn
en ces
ĠVer treter
ĠLe g
B r
Ġd igital
me hr
Ġco de
Ġprov iding
Ġreg ular
ĠAkt iv
ĠK op
verwalt ung
S C
Ġb us
Ġus er
k ra
w an
Ġt ele
ĠZeit ung
ut n
W Ã¼rttemberg
t itel
Ġf urniture
u ell
erv e
E urop
S V
ĠI T
ĠW el
ĠO x
ĠVerkehr s
hen s
Ġvor her
ime ter
st att
ĠJ ung
Ġlook s
6 9
Ã¤n n
ĠNe ub
end orf
Ġpre uÃŁ
ĠBo x
P f
ĠS ome
ĠW ell
Ġgew orden
ĠFamilien name
m useum
Ġb lo
ed ia
Ġan z
Ð °
ct ors
ĠCh urch
ĠOct ober
ĠB ul
Ġr isk
k le
ho od
Ċ ĠĊ
ĠA ugen
ĠT ages
Ã¤d t
Ġmeet ing
ĠR a
ĠR ennen
k omm
ill ing
ĠEin fluss
Ġ192 7
ĠR Ã¶
ĠN ic
ot ion
Ġzu letzt
ĠK ern
Ġk rit
Ġbele gte
ĠHerr schaft
ĠAus wahl
Ġkn app
p ret
ig entlich
ĠT Ã¼r
Ġth ird
ĠKont akt
W enn
ĠS ign
isch em
Ġne hmen
ĠCh icago
ĠInd ustrie
G er
V ers
o z
ist in
ĠUm gebung
ĠT at
ĠH om
ĠW erner
Ġw ollen
Ã¤ te
Ġl on
bark eit
l ament
ie ÃŁ
ar tet
ur er
ah nen
rÃ¤n k
Ġhei ÃŁt
w issenschaften
Ġer setzt
we chsel
od es
ĠSp ec
icher ung
ĠAn schlieÃŁend
Ġdo or
I M
Ġa ction
ir ch
ver fahren
ĠAut om
ĠBra unsch
Ġc enter
ov ers
Ġschw ed
Ġzahl reichen
-- --
T ype
ann er
ien en
Ġpr im
ĠQ ue
wÃ¤r ts
ĠFac ebook
ĠZ usch
ĠHer bst
S te
ĠN amens
ĠDeutsch er
setz en
ie fer
ĠS ar
Ġbeh ind
ĠChamp ions
Ġne cess
ĠMar c
Ġehemal iger
es h
ĠP C
end ung
Ġfal se
Ã ½
Ġm atter
ber s
re l
ĠWind ows
ĠG reat
ĠK er
Ġiss ue
B A
Ġw Ã¤re
Ġz uf
ĠL ab
Ġro ad
ĠG ust
ĠEnt wick
Ġdec or
Ġincre ase
g u
ub s
swÃ¼rd igkeiten
ĠS atur
ten ded
ist ent
Ġf all
ĠM as
Ġdr ive
ĠS n
Ġk aum
uch ten
Ġphot o
fan ter
Ġ1 20
ĠBe im
Ġem er
halt ung
Ġmed ical
aller y
I s
b rit
Ã¤ll t
ĠW issen
ĠSt reit
Ġup load
Ġout side
K l
Ġc ann
ĠW ies
au te
ĠIs rael
ĠEle ment
G ro
g rad
v ing
teil en
l or
Ġin fl
ĠW ass
Ã¼r n
Ġgleich zeitig
Ġs etzt
ĠP rÃ¼
Ġpr int
fl Ã¤chen
Ġdis cover
ĠEl is
ĠHeil igen
Met hode
I L
Ġd ress
ĠH off
Ġzw eit
I V
f unktion
ĠJ os
sp rache
ĠSp anien
Ġph il
D urch
ch ron
Ã¤ cht
Ġex am
ĠF ischer
ĠV oll
gew icht
Ġsignific ant
| }
ro id
ĠT Ã¼rk
Ġpra kt
Ġnor mal
lau ben
Ġin dem
k lasse
or ing
re chts
Ġb em
ĠW as
ĠL ok
Ġp ers
Ġwen ige
Ġs od
ĠD ann
yste me
Ġinter ess
ĠspÃ¤ter en
K arriere
Ġal tern
In ter
Ġges tellt
Ġany one
Ġgl obal
el a
Ġc ut
Gemein de
allow ed
lin ge
d s
ĠFra gen
p ossible
Ġs qu
ĠS atz
Ġwar m
ĠAn lage
mit glied
Ġaddition al
Ġf resh
Ġbe ach
Ġsc reen
ĠRes earch
Ġwest lich
Ġb ald
Ġm orning
Ġre fer
ud es
Ġpl ant
Ã¼ cht
ĠM and
Ġto uch
Ġhow ever
ik ation
se qu
Ġex pert
l ers
Ġc apt
Ġdes t
Ġge prÃ¤
Ġcont rib
Ġsol utions
an walt
Ã¼r gen
ĠU rs
Ġch ines
ĠBl Ã¼
ĠGer ichts
Ġb al
um in
ĠRad io
A uch
n amen
Ġa sp
Ã¼ ge
fall en
en te
Ġ3 6
ĠF ass
Ġ- -
ĠSchw ar
Ġinclude d
Verein igte
Ġoffic ial
r um
ĠA ch
Ġup on
ĠBrand enburg
t a
ĠP fer
ĠL aur
ron om
Ġsim ilar
Ġb esser
Ġm aint
Ġ1 000
Ġre v
ens ive
ma ÃŁ
W erke
Ġc irc
ĠH ill
ĠH ard
ĠSo ftware
Ġbed room
ver lag
Ġcho ice
ie gen
Ã¶ glichen
Ġle ave
ĠTeil nehmer
K ultur
Ġm ix
Ġsl ow
Ġsaf e
Ġs or
at ory
Ã¶ p
ĠDe partment
ĠZeich en
b ased
Ġb ott
im s
iel ten
Ġwir k
Ġwrit e
Ġbeginn t
Ġsp ort
ĠWer te
Ġinsp ir
M y
Ġv ari
Ġall ows
ĠFra ge
Ġs ent
ĠD rei
ĠMen sch
c ast
or th
if ts
ĠK enn
Ġch anges
stÃ¤nd e
Ġstra teg
B ut
ĠS um
Ġf ig
E O
ag d
ĠVorsitzen der
Ġwork ed
ĠD isk
sch auspieler
zen e
ĠMar ie
Ġpr esen
ĠPort ug
ĠGr Ã¶ÃŁe
Ġd adurch
ĠAr ts
Ġ193 1
Ġprob ably
st attung
Ġgleich nam
wind igkeit
Ġm er
pl es
ĠBen utz
av es
for men
Ġ192 5
ĠUnternehmen s
ĠGott es
ĠWeit ere
K reis
ĠChrist oph
e ff
r id
Ġc redit
Ġun mittel
ĠBest and
Gr uppe
h och
ist ry
Ġl ives
ĠMon ate
P reis
Ġb rachte
Ġst ation
Ġexc ellent
Ġmaterial s
Ġbath room
Ã¤ llen
Ġreg ard
Ġrepr esent
I nd
l Ã¤nder
ĠM ail
ĠU ms
ass el
ond s
ĠEs sen
ĠBes te
Ġgrow th
ĠL ove
Ġent ry
k ampf
u elle
Ġf ix
ĠM aster
ĠDar stellung
ĠMeister schaft
Ġsour ce
ĠM ur
ger ichtet
Aus zeichnungen
ĠM un
ain er
Ã¶l f
Ġind ustr
Ġap art
jÃ¤hr ige
Ġcond ition
Ġaktu elle
Ġfor ward
ĠAngel es
unc il
k omp
ĠB all
ĠF al
Ġ3 3
heim er
b a
Ġs ave
ĠD at
ĠH D
ic ip
Ġex act
n o
p erson
ĠV ize
th ur
amerikan ischen
p unkte
le gung
Ġfin al
ĠerÃ¶ff net
r as
r est
s telle
Ġd at
Ġp ool
Ġel se
ĠFreib urg
S T
l ingen
p ed
w el
ge hÃ¶r
Ġk ennen
Ġans wer
Ġhinz u
Ġbeteil igt
mittel t
Ġide al
ĠRuss land
Ġtyp es
i h
ĠT Ã¤tigkeit
ĠI P
Ġbet re
ĠFried hof
Ġh und
Ġis n
Ġme chan
Ã¼hr en
f on
w ir
Ġde ep
er er
ĠVer wendung
Ġqual ifiz
Ġp orn
Ġer baut
Ġgra du
w ell
Ġst ieg
ar io
Ġo ption
Ġdes halb
tra iner
pend ent
ĠL ife
Ġ192 6
K omp
ow a
Ġste p
ĠHen ry
Ġble ibt
z Ã¤hl
Ġ >
an ische
ĠS ing
at tet
sch lÃ¤
Ġsie ht
Ġextre m
ĠS el
Ġl aut
ĠAl ler
ĠÃ¼bern ommen
O L
g ab
ĠD igital
Ġ15 0
stand s
N ame
Ġl oss
au ber
zie hen
at us
ĠJul y
bl att
h ips
Ġw ohn
ĠD ro
ĠH ei
od or
ĠHaupt stadt
Ġcontin ue
ĠA sp
ĠNational sozial
Ġeas ily
spr uch
schein lich
ĠJes us
z we
an i
ĠD azu
oc al
Ġapp ly
Ġd ed
Ġc oll
Ġsh op
Ġfl ow
Ã¤ss er
aupts Ã¤chlich
om s
Ġcom mer
Ġdurch gefÃ¼hrt
ipp ing
S Ã¼d
o od
ie ÃŁen
Ġpr ices
Ġwir tschaft
Ġerziel te
B undes
ĠS ammlung
Ġd aily
Ġc aus
ĠK lass
Ġ192 4
ĠKinder n
Ġrecommen d
h agen
Ġs yn
lei ben
ĠZ uf
au ern
pr ise
din and
Ġw ords
Ġbo ard
ĠVerwalt ung
Ġ19 10
ĠN ur
ĠS ach
Ġpurch ase
Ġh or
Ġappe ar
Ġerm Ã¶glich
ĠN icht
Ġst reng
ĠBe zirks
ho den
ĠLand schafts
anc y
Ġpolit ische
el la
Bau werk
P olit
u ert
Ġt Ã¼rk
ĠSt rom
Ġle bt
Ġstor age
Ĩ Ĵ
ĠS V
ul en
au x
ĠAn g
Ġzun ehmen
in den
ĠF ritz
zeich nete
d ire
Ġtr ip
ent y
ĠRo ad
ĠvollstÃ¤nd ig
Ġge fÃ¼hrt
Sch wei
Ġw ritten
Ġf irm
Ã¼ ll
ĠB ist
Ġjeweil igen
Ġdes crib
N ieder
ĠSp Ã¤ter
pos ed
ĠgroÃŁ er
S piel
Sch rif
kret Ã¤r
k unden
Ġw oman
Ã¤ um
ĠP DF
Ġaus schlieÃŁlich
Ġle bte
Ġverb reit
Ġask ed
Ã¤dag og
ĠPres ident
ĠS onder
rie be
ĠTra dition
utn ant
st all
Ġz entr
Ġ192 3
ĠStÃ¤d te
ĠK olle
ic kt
ot ing
Ġex pla
Ð ¾
ĠH ir
Ġfor mer
Ġeff ic
Ġt rÃ¤gt
un ts
Ġn immt
ĠE ss
ĠZ entral
ick et
Ġgu ide
s achsen
ĠB ol
il led
ĠI ll
ou ver
ĠG olden
reit ung
ĠGÃ¶tt ingen
G en
ĠS amm
Ã© s
Ġcare er
ĠL Ã¤ndern
ĠLe x
ĠMann schaften
bo x
hol z
Ġtool s
ar p
ist rat
Ġinter ested
ĠFo und
ĠAn th
Ġmach ine
Ġpubl ished
d aten
ĠP rom
ĠT ransport
Ã¤hr t
ĠServ ices
u ber
ind ungen
Ġch rist
ĠGr enz
ĠTex as
Ġarch ite
Ġ192 1
Ġdec ided
deutsch en
ĠDreh buch
or ten
us es
ig uren
v o
Ġro und
Ġges etzt
Ġrec ogn
Ġw in
ĠP ier
zahl en
ĠS y
Ġin ternet
ĠM ach
se hen
Ġso fort
ĠLe icht
Ã© e
ĠZusammen hang
umen te
w urf
le g
ach im
Ġim m
ĠSt ruktur
Ġaus gew
ĠJu den
II I
Ġwelt weit
Ġt un
ĠF arb
ĠWe hr
az in
ĠSicher heit
Ġsu it
D P
ĠL ux
in ation
Ġr ather
Ġent w
Ġrem ember
ĠKr im
Ġrele ased
Ã ´
ĠVor g
ĠDÃ© partement
W Ã¤hrend
he m
ab il
ren z
ĠFahr zeug
Ġimpro ve
it ation
ĠOr iginal
ĠBau ern
ar es
Ġl os
ĠPro zess
irg in
ĠBraunsch weig
Ġb leiben
ĠW irtschaft
Ġgesam ten
ĠG Ã¼ter
ĠAuf gaben
ĠSant a
Ġpot ential
le gen
org ung
Ġla unch
Ġs al
Ġh ielt
Ġrec ord
Ġhigh ly
ĠFr iday
F in
ĠL ager
ĠSchw ester
ĠPart y
E P
at al
Ġm el
ĠDe velop
ue ber
ĠHÃ¶ hen
ĠLeist ung
ĠAben d
Ġt ransport
ĠP a
Ġk anad
Ġall gemein
ret t
ĠFen ster
d f
ĠM acht
Ġre lease
w ach
at ic
ĠF ehler
rÃ¼ cken
ĠWe ise
itt ing
ĠGo od
w ander
ĠG Ã¼n
ĠL ong
Ġmus sten
Ġpo ints
Ġbring en
h Ã¤user
s itz
ĠH on
ed ule
wer ks
ĠReg isseur
Ġem p
Ġho tel
Ġprogr ams
ĠBl ick
Ġje de
Ġmov ie
Ä ĩ
ge g
Ġall ein
sel ben
ul pt
ĠÃ ī
rei ber
Ġgen ommen
Ġbesch rieben
ĠĊĠĊ ĠĊ
Ġprom ov
Ġin tens
ĠE ff
Ġbe ein
kt iv
Ġwe ight
hal le
ĠBild ung
Ġbrit ischer
Ġd ig
Ġnot hing
Ġpl anning
ĠAug sburg
Ġbede utet
Ġ Î
Ġb irth
Ġv ac
and a
Ã¼n ft
Ġsogen annten
ĠB ob
Ã¶ ne
ultur al
Wh at
Ġf uer
ĠQu ellen
Ã¼ss el
ĠzusÃ¤tz lich
ist a
or fer
il a
age gen
Ġgra ph
s es
rif f
ĠBeit rag
Ġd ur
Ġb and
le icht
ug s
St adt
ĠPubl ic
ar get
ĠM Ã¤dchen
Ġ19 11
w Ã¼r
Ġw ider
Ġ3 4
ĠAuf stieg
Ġverl or
y t
iv ity
Ġgro und
ĠMus iker
ĠP ers
ĠW issenschaften
ĠL ord
ist isch
20 12
ĠSc ott
Ġexper ien
schaf ter
lo ud
Ġbet rieben
iti ative
u ted
ar ter
ut ive
em e
ĠH ab
Ġausge tragen
ĠSold aten
Ġg ives
ĠAl so
Ġplay ing
ĠEng ine
ĠD ir
Ġdar f
Ġdis play
spr ung
Ġgirl s
ĠCh in
Ġfe ed
Ġh auptsÃ¤chlich
ĠFer dinand
ĠunterstÃ¼tz t
ĠT ok
Ġwor th
E l
T r
ĠS Ã¶
Ġcons ult
Ġhig her
20 10
Ġregel mÃ¤ÃŁig
ket ball
v ier
ĠT schech
20 13
ĠStud io
ven ue
Ġin j
ĠSt iftung
k rit
Ġb ank
ĠM erk
H ow
b ul
k raft
ĠA cc
Ġh uge
Ġan alysis
gew and
Â ®
ĠA T
ĠAm az
Ġpl atform
Ġlang uage
Ġsug gest
ĠverlÃ¤ uft
N eben
ff ee
br idge
Ġter ms
erke hr
hil fe
ĠS av
ic ated
inn ing
Ġpl us
Ġfol gt
h op
ĠL ind
ĠChrist mas
g ut
w eite
Ġv ideos
Ġn omin
lin ik
Ġpr ior
Ã¶rder t
v i
Ġm m
ks am
Ġverm utlich
ĠEdu c
V erkehr
Ġs ah
Ġver treten
Ġse ems
20 17
Ġnot wend
Ġcond itions
b as
em pl
la p
Ġresour ces
E hemal
n ummer
ĠS om
Ġan im
vers ammlung
Ġpos itive
ĠNutz ung
Ġw ord
Ġver hinder
tern al
Ã¤hn ung
ĠGegen satz
Ġd om
or et
Ġh a
ĠReg ional
ĠElis abeth
v ant
v ors
ĠEin fÃ¼hrung
Ġquick ly
ĠM icro
il i
ĠD V
Ġw ish
ir ge
aus piel
Z ur
Ã ±
ĠAl fred
ĠAd olf
ĠRep ubl
S c
Ġs end
chn ung
ĠKap elle
gebie te
Ġo l
Ġc at
um n
Ġver k
Ġbeen dete
Ġpie ce
f ur
Ã £
Ġd ient
âĢ ŀ
pf lich
Ġgesch rieben
Ġpar ents
ĠAt lant
Ġhal ten
ĠVier tel
ig ungen
em a
lie der
20 16
los en
b ibliothek
k re
or ial
ĠOr ganis
ĠJan uary
Ġweiter er
b u
at oren
ĠK rank
ĠC anada
imm el
Ġgesch affen
ĠJak ob
brit ann
ĠS icht
ĠK ult
Ġplay ers
Ġhistor ischen
Ġfinanz iel
ĠS onn
ct ure
ĠGro ÃŁen
Ġcor re
d as
as ons
Ġch arge
Ġbest Ã¤t
Ġpre m
ĠSm ith
Ġb ere
le b
Ġer f
ink el
por ate
Ġlik ely
ch em
ĠUnivers itÃ¤ts
Ġser ious
ph one
Ġander er
D o
ĠD Ã¶r
ĠVer kauf
Ġfol gten
ĠGal erie
ĠErgeb nisse
m ission
Ġd ise
Ġp ath
ĠBl ue
Ġ192 2
ĠFlugh afen
r ang
Ġd Ã¤n
ĠG lo
ĠH aut
Ġl angen
Ġent scheiden
n ungs
em ble
Ġerw eit
ĠBÃ¼ cher
laub t
Ġverkauf t
and en
uf fer
Ġun abhÃ¤ng
ĠArch iv
ĠS at
le ger
Ġc ross
ĠBe ach
Ġch ance
Ġinterest ing
ĠV illa
re ign
ĠR am
ĠC entral
ad rat
la h
ĠSpiel zeit
Ġpat ients
A ug
ĠW ettbewerb
urn ier
ĠKarl s
Ġopt im
sie he
Ä Ľ
ð Ł
ĠM ik
Ġh um
ĠSt immen
Ġtradition al
Ġ7 5
", "
un i
im me
ĠV iol
Ġge ts
ĠIn fanter
Ġde f
ree k
utt ing
Ġp rÃ¤sent
ĠL Ã¤nder
ĠNe uen
m esser
ĠR og
Ġ19 12
ĠO ver
ĠIn form
20 11
pf licht
in ed
ĠSch le
ĠComp uter
Ġconstru ction
i ant
t liche
Ġg anze
ce p
ĠLe on
Ġsub ject
ĠArchite ktur
ĠIn tegr
Ġon es
Ġle gal
Ġent deckt
az ine
Ã¼h m
ĠD iss
ĠÃ¼ber wiegend
denk mÃ¤ler
Mus ik
O ne
ĠS em
Ġer inn
ian ce
200 7
vers e
m acht
t or
ĠF ak
ĠSte fan
Ġatt ack
ĠRich ter
Qu ellen
t i
ĠWh ile
Te chn
Ġapplic ations
w itz
Ġd iv
ĠG rÃ¤
ĠW in
Ġde ath
ĠY ear
Ġpat tern
ĠM ost
ig an
ĠN Ã¼rn
20 15
ĠBer eits
Ã¶st lichen
Ġgrow ing
z o
on ial
ĠR osen
Ġex tens
ipp ed
ĠBesch reibung
ĠSatur day
F rank
h le
ĠSch lag
Ġsol ution
Ġdevelop ed
ĠAuss tellung
N A
ied lung
Ġbest immt
For mat
ĠMat th
Ġcommer cial
Ġan aly
kt ions
Ġse ek
Ġger ne
brÃ¼ cke
ĠHeid elberg
a ign
Ġf air
ĠE very
ow ski
ib el
ĠWe chsel
ĠK ammer
Ġg lass
ei der
ĠDem okrat
West falen
Ġsod ass
F re
ĠPro p
Ġhand s
ĠChar akter
Ġeffect ive
ĠAn gaben
ĠverfÃ¼ gt
M ail
ĠKrit ik
Ġzerst Ã¶rt
Ġlon ger
Ġwonder ful
. ),
er in
Ġ6 5
ĠGer hard
ars teller
ĠFr ont
Ġweek end
Ġerschien en
ĠGust av
ĠL et
Ġl Ã¤nger
Ġcount ries
Ġdarauf hin
ĠZ immer
ed eral
Ġer forder
Ġsp Ã¤t
Ġent lang
C on
L iste
Ġg reen
Ġgo al
200 8
Ġinvolv ed
Ġd unk
ar kt
ĠB lock
ĠSt ation
ind est
ikan ische
ĠKn oten
Ber lin
m ine
ul s
Ġst aat
Ġgew innen
ouver ne
h old
ess el
ont o
Ã© r
Ġwieder um
ĠF rench
ĠG le
ed y
wei le
ĠSund ay
ĠH istory
ĠL ieder
ĠNe ue
P re
k ord
r Ã¤t
ĠD arm
ĠH afen
Ġpol icy
U R
m ond
as ing
ĠV o
ĠO h
ĠStud enten
Ġd ir
ul y
Ġgo es
ĠEle ct
Ġaktu ell
ĠK urt
ĠL eit
Ġe arn
Ġcann ot
G ra
P ol
Ġj unge
Ġ3 8
Ġful ly
b re
d ate
ĠS onnen
Ġor igin
ĠeuropÃ¤ ischen
Ġa verage
is ation
ĠW ander
ĠL i
amer ika
ĠWill i
Ġatt ention
ĠTem peratur
Ġw uchs
ĠS us
Ġp rÃ¤
ĠW ork
w ide
ver anstalt
ĠCo uncil
ĠgehÃ¶r ten
Ġs aw
Ġse ction
ĠKar ten
Ġinvest ig
ĠDistr ict
Ġimp act
d essen
Ã º
ĠA R
ĠM aschinen
Ġgeb racht
Ġreg ister
Ġje dem
Ġbestimm ten
T yp
Ġpro t
Ġsuccess ful
ĠHome page
Ġd ark
ĠL ig
Ġs ort
ĠW agen
Ġg ift
Ã© n
Ġinc reas
I d
g ree
h ow
al ing
re chte
erk unft
Ġcomp lex
Ġcolle ge
stru ktur
Ã Ĺ
ĠN ummer
ige m
Er baut
Ġoffer ing
c ul
is er
ĠS on
ĠR ing
ot ten
Ġsch Ã¶n
ĠAr zt
ĠNieder land
am ous
Ġan sch
Ġgew onnen
ĠGes prÃ¤
ron ic
Ġag re
por ary
Ġsei en
an ischer
ĠC y
la f
ĠAn teil
Ã¶r ter
ĠOb jekte
ĠÂ £
j i
Ġ ult
Ġm eine
ĠP or
Ġzw Ã¶lf
ĠInd ustr
asch ine
ch ange
ĠR enn
ĠJ on
Ġun be
ĠPh ot
Ġreview s
Z eit
il ien
gemein den
hol t
ĠBas el
at i
Ġre fle
id ents
ĠR is
sp er
Ġso uth
Ġres pect
fr ont
ĠZust and
Ġh it
Ġab ility
rat es
Ġjed es
med aille
ĠBrÃ¼ cke
Ġrelations hip
m l
Ġe igentlich
ate ur
Ġj ungen
ĠY o
Ġpart ners
res p
D ate
n ational
at r
ĠSt an
uck y
ĠhÃ¤t te
Ġfor get
Ġmy self
Nach dem
O lymp
ĠJ ob
ĠLe op
ha ber
ĠAustral ia
k g
ĠS owjet
ĠR et
Ġim med
Ġle vels
geb nisse
Ġpro per
20 14
britann ien
D a
ĠT ore
Ġ( ,
Ã¤ her
ĠM att
Ġ19 13
ĠPro gram
k irchen
ĠR od
Ġl if
ab et
ies ter
Ġauf gerufen
our ce
Ġarbeit en
ĠTechn ik
zieh ungs
ei ge
Ġun bek
Ġex ec
ĠPr im
ĠW omen
Ġle er
Ġle bten
ĠSchw eden
Ġdar in
or der
Ġb aby
ĠFl Ã¼gel
Ġdesign s
ĠSchrif t
Ġorgan ization
Ġrequire ments
A utor
el and
ĠT ime
we chs
19 45
s et
ĠE igent
et ts
iz iert
St ud
ĠBahn strecke
omm ern
Ġro t
ĠOff ice
2 000
ĠW ach
ic ed
Ġk or
Ġch urch
ĠmÃ¶ch te
i Ã¨
ĠBe ck
tr al
Ġtit le
p ers
ĠL ink
ru it
mann s
ĠUl rich
Ġin zwischen
Ġle gte
Ã¤n gt
ĠAb teilung
ĠHo hen
Ġgef Ã¤hr
ĠHinter grund
m ont
Ġf ine
Ġlie fert
ĠÃĸ l
Ġlar gest
Ġd omin
Ġl ower
Ġgel ten
ÃŃ n
Ġein gel
ĠVerb and
ĠPra xis
Ġsaf ety
ĠV iew
Ġ4 8
ima tely
ĠBeit rÃ¤ge
Ã¤ ste
zieh ungen
Ġf ab
ĠEn ter
ĠAut oren
ĠDec ember
' d
m ie
Ã¼ gen
ĠH orn
Ġre in
ĠVer lauf
200 9
ĠSoc ial
Ġ uk
Ġt al
geb racht
eh m
ĠSim on
ĠT y
ck len
ĠThe ologe
ĠEin s
ĠPe ters
B esch
k opf
ch ner
ĠT ie
gr Ã¶ÃŁ
ock ey
Ã¼hl en
ĠÃ¼ br
ĠCh ild
rup t
Ġb all
ĠD ra
Ġstart ing
ĠSied lung
it ur
je w
wer be
Ġmehr fach
aly se
Ġver pflich
ak ers
ĠPol y
ĠHistor iker
Ã£ o
R es
Ã¼ m
Ġc ases
ĠH uman
ver trag
200 6
Ġc ause
Ġth ous
ost on
Ġthem selves
f ast
m ore
ĠC ra
ist ics
ĠSpe zial
ĠOp fer
H L
Ġn ature
ĠG ran
ĠI C
ber e
Ġl ost
ff er
Ġwer de
ĠBl ut
ĠPat ienten
A fter
ĠW oche
ak s
B and
P C
ĠV om
ĠVer teid
ov a
ĠRev olution
B S
c ies
Ġbe hand
Ġum fang
aut en
ĠTurn ier
ĠFar be
ĠFÃ¼hr ung
r d
ĠA C
ĠPar lament
gang s
reg ierung
Ġwicht ige
Ġit self
Ġsow jet
zug s
g au
l uss
Ġs an
ĠC at
Ġver lieÃŁ
Ġunmittel bar
ĠBo ard
ĠBundes liga
Ġerw arb
Ġwichtig sten
Ġannoun ced
p olit
Ġc abin
io de
ĠErz bischof
r enn
Ġ Ä
Ġt en
Ġn ied
eb e
hn t
200 5
stit ution
Ġdoc ument
Ġfert ig
U T
lin es
ĠDaten bank
Ġsele ction
ĠPhilosoph ie
ĠWebs eite
ĠD ub
Ġl ic
Ġl au
Ġver lassen
Ġver antwort
ĠBron ze
ĠL ast
ĠC O
gra f
d om
ĠSchrif ten
R ad
ĠR oll
Ġg alt
Ġg iving
ĠSt ahl
ĠÃ Ĺ
Ġentsp rechend
ĠPrem ier
Ġd agegen
on om
la y
Ġsom et
Ġveh icle
t um
Ġa k
Ġm ilitÃ¤r
ĠD ol
ĠMar ine
ĠFor st
ĠT Ã¼b
ph an
r ong
Ġd ry
ĠS uch
ro at
ap pe
ac es
Ġcomple tely
gef Ã¤hr
is tet
it ely
us te
ĠD ah
ĠOr te
ĠBro wn
ĠStat us
ĠProble m
Ã¼ st
ĠT anz
Ġein st
ĠF ire
ĠDeutschland s
Ġcreat ing
ĠÃ¤ uÃŁer
g ner
Ġv irt
ĠC a
Ġfo ot
minister ium
Ġbe gan
ĠLe e
Ġfin ish
ohl en
ĠFot os
s ystem
or dens
ĠOr dens
Ġsol che
ĠBild hauer
Ġrequ est
ĠRhein land
ĠS eb
ĠVer fahren
se x
sk y
arch iv
Ġrem ov
Ġverlie hen
z ern
ĠD ichter
ĠC ho
ain e
ĠâĢ ļ
ore a
Ġverw ende
ĠSchm idt
Ġmult iple
Ġ3 9
Ġv iol
em ark
if er
ĠDistr ikt
Ġbene fits
ĠnatÃ¼r lich
m ir
Ġder zeit
ĠA ff
Ġp ages
Ġein gestellt
ĠL y
ĠEn gel
Ġerst es
Ġbec ame
Ġ190 9
Ġsup pl
Ġdec ision
ĠhÃ¶ch sten
ĠP unkten
ĠE dition
ĠHein z
W eit
ĠMe tern
Ġres olution
gele gen
ĠMain z
ĠPap st
Ġm id
ĠP ok
and ers
Ġge gebenen
ib ly
ĠFran ce
Ã¼t te
Ġklein er
Ġstor ies
afr ika
at ives
Ġn ov
ĠL am
ag te
Ġs on
Ġs old
Ã¤ ne
ĠL ib
ver treten
Ġne igh
Ġor d
Ġex hib
Ġno te
eiter te
Ġbl ue
Ġorgan iz
oper ation
Ġstreng th
I A
Ġf lex
Ġm other
rit e
ichte ten
Ġbusiness es
Ġthink ing
Ã¤uf er
Ġenc our
te uer
ĠS ab
ĠD etail
ĠR ol
Ġver gleich
ak a
n ot
or al
ĠI N
Ġl ay
ĠSch auspiel
ĠAuf nahme
Ġad j
Ġpla ces
is ions
Ġw edding
Ġg old
ĠAuf t
ĠChar l
i xt
Ġb ase
Ġf ashion
ĠB la
ach ts
gr enze
ĠGrÃ¼ n
forder ungen
Ġangeb oten
Ġl isten
ĠEin trag
ĠGe heim
ĠBundes republik
ĠauÃŁer halb
st on
ct ic
ag ne
ek te
ĠStand ort
v ol
ĠT sch
ĠW affen
ĠO pt
wer te
Ġdev ice
ĠA f
ĠP rag
Ġmo unt
Ġarbeit et
is at
ein er
ĠInter view
leist ung
ĠAngeb ot
Ġdistr ib
h orn
ĠM iner
Ġp en
ĠT a
arm on
Ġ190 5
Ġhtt ps
ĠJac ob
B is
u den
ĠP S
Ġeng ag
ĠerklÃ¤r t
ĠMond ay
n y
Ġge halten
ĠHe ute
ĠBes atz
ĠHam burger
Ġb ein
ĠD Ã¤n
ĠK andid
ei en
ahr en
Ġaus geb
fr iend
Ġcl ient
Ġfamil ies
ĠGel Ã¤nde
? ?
ar o
ĠP od
ĠF eder
Ġentsp richt
ĠSommers piele
Ġd ritte
Ã¤ ger
Ġâ ĨĴ
Ġcost s
ĠÃľ berg
B es
d urch
Ġd auer
ĠE reign
Ġ2 50
Ġdeutsch sprach
ĠNord rhein
Ġhelp s
Ar t
ĠG irl
Ã¶ nen
Ġpart ner
Ġ190 8
zip lin
k rieges
ĠAuf gabe
Ġdo uble
Ġinternational e
Ġdirect ly
k lass
t l
Ġb ul
Å «
ĠS uche
Ġl ux
grÃ¼nd ete
schul en
in y
an ced
ĠVer halten
bild ungs
Ġnor th
Ġitalien ischer
ĠBeruf s
cklen burg
K lasse
Ġ190 7
ĠsÃ¼d lichen
ĠWei hn
Ġnecess ary
ĠB ibliothek
ĠL ine
la den
Ġbet rug
Ġprov ider
ĠEurop ameister
mittel n
ĠBern hard
g ern
ĠMÃ¤n n
Ġ Ã¶
ĠGroÃŁ britannien
as ion
ĠM Ã¤r
ter e
Ġinter view
Ġstar tete
ĠrÃ¶m isch
ĠjÃ¤hr lich
F e
ĠB ass
Ġde pend
Ġwe ather
Ġgroup s
Ġproduz iert
y ond
ar ischen
ĠB Ã¶h
qu es
tell ungen
Ġschw ar
d own
re form
ei ht
Ġle itete
ĠAd am
I ON
ĠG ele
ĠMan ager
ĠCol umb
Ġbrit ische
Ġpur pose
Ð ¸
us ed
ĠSp an
th a
Ġ3 7
Ġor ient
ĠNach richten
ĠKon fl
glieder t
w ner
im il
ĠV arian
ĠV irgin
ik i
ĠSin ne
M ark
Ġt ats
ze ption
ĠĊĊ ĠĊ
ĠÃĸff entlich
Ġs un
ein d
ĠW ed
ert ation
be wegung
Ġent h
Ġunter s
ĠOrt schaft
ĠStre cken
Ġwen igen
ĠB rief
ĠM ah
ĠW etter
glie dern
Sch w
ennt nis
Ġwirk lich
an er
ar ies
Ġl ots
Ġcl oth
ĠGrund lage
ĠSalz burg
ĠgeprÃ¤ gt
l ike
ĠT H
ĠAl pen
pe kt
A F
P er
ĠS un
Ġb orn
ĠR ail
ap el
Ġvers ucht
ĠInter esse
gra ben
Ġplay er
ĠArchite kt
u gend
ĠK ron
Ġl Ã¤ng
ĠO ld
Ã Ħ
Ġ ;
un te
Ġaus tral
ill on
sc ar
e es
m y
Ġt hr
Ġspe ed
ĠGl Ã¼ck
Ġmax imal
ĠF ind
Ġ19 15
ĠNord osten
ĠSpec ial
Ġc ulture
ab elle
Ġun ten
ĠTe ams
Ġfin ally
ken nen
Ġh our
ĠRe chte
ru he
ick ets
co very
Ġbeg in
hand lungen
gy pt
fel der
ĠFrancis co
ĠOx ford
ra ted
ĠL aut
Ġde p
Ġges pielt
bahn hof
ĠMet all
ĠP ed
ĠE hr
Ġg ere
Ġsch edule
ĠAd els
ĠUnd er
ĠK a
ĠV ar
ell schaften
gesch rieben
ĠSÃ¼d westen
ĠHoch schullehrer
Ġ Ã¶ffentlich
Ġm ention
ĠEr b
ĠAuf grund
pp ed
ĠAut ob
ĠKomp on
eng th
ĠF isch
ul f
akt or
r ick
ĠD amen
ĠG ame
ĠZ ent
ĠHe er
ĠFebru ary
Ġgar den
Ġmess age
ill y
Ġab gerufen
rie chen
akt iv
ĠÃĦ nder
ĠSchul en
ĠFlor ida
S ystem
ĠM ission
ĠH it
Ã¶ d
Ġat tem
rÃ¤ ume
ĠLand wirtschaft
ĠProble me
is l
ie den
ĠS PD
os ted
ĠJahr zehn
Ġweit gehend
ĠEduc ation
C om
ĠL ar
Ã¶ se
Ġst uff
Ġwir kte
be hÃ¶r
ĠAb schnitt
ader s
ĠWeltkrieg s
Ġrep air
Ġlim ited
E G
Ġw and
ĠM ol
Ã¶r en
gel n
Ġindividu als
ļ Ń
ĠW estern
Ġan ges
Ġob tain
ernse hen
It alien
ĠFranz Ã¶s
ĠCont in
ĠAller dings
Ġr Ã¼ck
com es
Ã¤mp fen
Ġ id
ĠGra fen
baut en
Ġitalien ischen
p al
Ġs us
Ġf arm
ell i
Ġber eit
Ġersch eint
ein s
ĠV il
Ġcom b
eld ung
ĠAll gemein
ĠDar Ã¼ber
Ġengl ischen
ĠL iter
ĠJur ist
ĠCent re
b it
f amilie
g Ã¼lt
k osten
Ġl es
ĠgrÃ¶ÃŁ ere
ĠMos kau
Ġsogen annte
gem eine
ĠTÃ¼rk ei
Ġgleichnam igen
Ġs ingles
ĠK in
Ġ19 17
Ġdes cription
ĠEr de
ĠSie ger
Ġbas ic
kon om
ĠFrÃ¼h jahr
frast ruktur
Ġt im
re u
ĠK iel
Ġhe ar
Ġso ft
Ad resse
Â «
ĠT iere
lin ien
ĠLauf e
Ġbele gt
Ġcomfort able
k rÃ¤fte
p olitik
te gy
Ã¶ gliche
ĠTod es
ĠLeop old
al led
ĠP enn
Ġg ese
Ġl ok
ĠAn wendung
ĠHe ft
Al bum
unn y
Ġst age
fin den
ĠÃ¶sterreich ischen
wÃ¤r t
ĠDevelop ment
Z um
v ision
Ġmit tels
ĠBr asil
ĠZu kunft
Ġresp onse
O P
k ont
o oth
ĠC all
ĠMed ia
Ġp assen
ĠP aar
os a
Ġwe ar
ĠFound ation
ĠB ab
ing u
ans as
Ġher gestellt
ĠIs lam
g ment
ov en
Ġste ts
ĠMor gen
Ġbil dete
Ġexperien ced
ar ische
ur ts
ĠW ater
ĠSt off
Ã¼ck sicht
Ġdar an
ĠKl im
fass ungs
Ġest ate
ĠBetrieb s
Ġelekt r
T A
ĠA S
ĠF ert
Ġ19 16
Ġe ye
Ġre ported
Ġ190 6
ĠSl ow
ad or
Ã¤l de
Ġerst re
Ġuns eren
Ġw ife
ĠK och
Ġe yes
Ġzu gleich
ger ichts
ĠNik ol
ĠT ar
Ġess ential
ff ic
ip pe
ub a
gr iffen
Ġ5 5
ugh ter
Ġro ck
ĠAd min
Ġaff ord
ĠTÃ¼b ingen
Ġmus ikal
ĠÃĦ r
ĠArchite kten
Ġt Ã¤
gen er
ĠArbeit er
reit en
er c
Ġs and
Ġs ell
ĠE ll
ĠKar te
ĠLeist ungen
f ile
w all
ro ck
ĠT agen
ĠIn ner
ob l
Ġsm art
inc ip
Ġheut ige
ĠnÃ¶rd lichen
Ġmot or
Ġwahr scheinlich
m d
Ġ4 2
Ġbek annten
ĠProdu kte
Ġhealth y
Ġm il
ion e
Ġst ress
ĠFir men
Ġsomet imes
d i
Ġc ash
Ġsch le
Ġsur round
Ġcamp aign
m Ã¼hle
Ġin stead
ĠVor der
ĠZw eit
Ġcreat ive
ĠWirk ung
D r
S ehen
Ġg as
Ġan erk
up s
Ġbek am
Ġsup ply
Ġart ist
ĠWo od
Ġunterschied lichen
ĠD et
Ġp aar
ĠZ us
ĠBe wegung
Ã¶r ung
pro gramm
ues day
ĠBar bar
ĠJo achim
Ġphys ical
ann i
men s
au b
qu is
Ġro ll
ĠWei ÃŁ
W ie
a ction
es k
Ġw ild
st amm
Ġk Ã¼nstler
âĢĿ .
Ġob wohl
yd ro
ĠEhe frau
Chr ist
r ik
Ġex cl
Ġschool s
en kt
ĠK ab
ĠK ath
se ud
ĠÃ¼ber tragen
ke y
Ġsub mit
Ġinst ru
ĠCour t
ĠInfanter ie
or ganisation
re al
ĠB oy
Ġz Ã¤hlt
ĠH ub
ĠW Ã¼rz
ĠBe w
Ã¼nd ung
ĠKon gress
C omp
ĠS ho
Ġm Ã¼nd
Ġp et
ĠL ight
Er ster
Ġann ual
ĠGesund heit
Weit ere
) )
Ġz eich
ĠH Ã¤user
ĠCo de
Ġ190 4
ĠGew inn
ar is
ĠR ath
ĠZ ahn
Ġgen annten
Ġbek ommen
Ã ¥
ĠB ell
ĠK ey
ĠIn strument
auf hin
ĠSo und
ĠNieder sachsen
Ġerhe b
ĠÃĸffentlich keit
al te
st he
ĠHer bert
200 4
m and
Ġg uten
olog ies
Ã¤chs ischen
ĠCarol ina
ĠI hren
ĠC re
est ra
ĠEr inner
fr ist
ersÃ¶n lichkeiten
ĠAfr ica
Ġ ueber
in de
Ġ6 4
geord neter
ĠAmaz on
em ed
Ġsp end
ĠAus druck
uar ante
200 2
ilit ary
ĠgrÃ¶ÃŁ eren
Ġtrans fer
Ġter m
ĠAustr alien
Ġsen se
p o
ĠW a
ĠC orn
Ġim plement
id ae
ĠAuf bau
ĠWe imar
Ġout door
ĠNord westen
b aden
ĠL ange
ier n
icht lich
Ġcomp on
ĠUnter nehmer
Ġbet rach
urs day
deutsch e
Jahrhund ert
Ġs atis
ĠIn tern
ĠGe h
rich ter
ĠArch Ã¤
ĠWider stand
Ã¼ mer
le m
Ġpre d
merk ungen
ĠBlÃ¼ ten
b ungen
ar zt
Ġhe il
ĠAl tern
be w
ĠfrÃ¼her en
ĠÃ¤hn lich
B i
re ci
Ġto wards
ĠEin heit
Ġent stehen
Ã¼tz t
ĠGeburt stag
D on
k ammer
is ieren
ĠS af
rif ft
Ġkl ar
Ġ190 3
Ġcons um
Ġeigen stÃ¤nd
ĠLeist ungs
Ġerweit ert
ic ing
ĠBe zug
Ġche ap
v olle
w ing
ĠD omin
Ġc ru
ĠP fe
ĠK en
ent um
ĠH ell
ĠTeil nahme
piel en
Ġact ive
ĠLauf bahn
itte e
stÃ¤t ten
an en
ĠB oston
ĠP ak
ĠC op
Ġcar ry
klÃ¤r ung
T C
ĠD ialog
ous ly
er ien
he ute
re y
ran ce
ĠSÃ¼d osten
H aupt
c ia
p a
al m
ul i
ĠTh Ã¼r
Ġco ffee
Ġeinge fÃ¼hrt
ĠKap it
Ġwest lichen
ĠErz Ã¤hl
bÃ¼ cher
ĠJ ones
Ã¤h ler
Ġopportun ities
Ġd ich
el er
Ġh Ã¤lt
ĠF a
ia tely
Ġpre fer
Ġplay ed
ĠChe ck
ĠEuropÃ¤ ischen
B ild
h aps
z iger
ĠA P
ĠC ross
Ġconsider ed
omot ive
ĠBayer ischen
ĠG reg
ĠAd d
ĠGrÃ¼nd en
fÃ¼r st
t lich
ĠR aj
Ġfr ame
ĠEle mente
zÃ¼ ge
Schrif ten
sch m
ay a
Ġfre qu
war en
Ġelect ric
g ory
Ġn amens
ĠJ Ã¼rgen
Ġus es
Ġdar gestellt
ĠSer ies
ĠW ag
Ġg anzen
Ġtra de
ĠAnton io
ĠCommun ity
c ont
n icht
Ġf iles
Ġh ar
ĠR oss
anz er
Ġtra gen
ĠDire ctor
Ã¤ b
ĠD iv
ĠThe odor
Ġcon vers
ĠOr chester
Ġexact ly
j o
Ð µ
Ġpro fit
Ġit em
Ġgeb ildet
Ġ190 2
fang s
wahl en
Ġprogr ess
ifiz iert
Ġlink en
ĠId ent
The ater
Ġlov ed
a ug
ra k
ĠR y
Ġhe ard
ĠFor men
Be vÃ¶lker
ĠS tellen
st ab
ĠT el
ĠT hen
Ġre ve
Ġwas n
Ġ4 4
Ġrela x
Ġ @
Ġt schech
Ã¤ den
Ġge mÃ¤ÃŁ
our ney
ĠFar ben
ĠElekt ro
ĠNÃ¼rn berg
Ġg ave
ly wood
ĠÂ §
ĠBild ungs
ĠDeb Ã¼t
Ġwes entlich
ouverne ur
is a
on ien
ĠR ost
Ġl ack
so ft
ĠKom ment
ug el
ÃŃ a
ĠKomm ission
C H
l ings
ĠA gr
ĠW appen
ir n
Ġl isted
Ġco ach
Ġsc ience
ĠInternational en
Ġcoll abor
S P
ann el
Ġab geschlossen
Ã© t
Ġmov ing
Ġown ers
ĠJournal ist
Ġamer ikanischen
resp ond
p ack
Ġn umer
ĠIn gen
Ġes c
ail s
Ġpos it
ĠTro tz
Ġactiv ity
ĠK alk
ip fel
Ġwei b
ĠQual ifikation
Ġverbreit et
ĠYo ung
Ġgese hen
F L
ĠW unsch
lie fer
Ġex pected
Besch reibung
f Ã¶rder
Ġge zeigt
ĠfÃ¼hr ten
ĠCol or
b aus
ĠQ uar
ĠJohn son
ĠSan kt
Ġhol iday
ĠIde en
tain ment
el or
ĠB Ã¤
il ing
Ġg rand
ĠVer hÃ¤ltnis
ĠIt al
ĠKon stru
ĠPre uÃŁen
V P
il den
st ation
ro chen
ĠP en
ĠK anada
ĠR eb
ic on
Ã¤hl ten
ĠBei de
Ġback ground
Ã¤us ern
at ung
ĠM id
Ġg ingen
Ġcont ains
L age
on i
Ġf amous
us ing
ĠV ort
ĠUn garn
gel d
ĠTeil en
anc ing
ĠGl obal
Ġsym bol
m es
ic ine
ĠSch iffe
ĠBr ig
isten z
ĠMittel alter
C ode
ĠF inal
Ġsp ot
Ġbestimm te
O D
k ultur
Å ¾
ĠN ight
Ġsp orts
ry pt
ĠHand el
Ġerh Ã¶
Ġhin gegen
N ord
le utnant
ic ate
ĠSp iegel
Ġad vert
stand ing
Ġoffer ed
Ġtem per
ĠTex te
ĠFak ult
z ust
Ġf em
ber n
ĠN omin
Ġunter st
Ġen dete
ĠFilm s
Ġ190 1
i ation
k unst
l ar
and o
ers ey
ran ch
Ġac cept
ĠVerlag s
ĠBas ketball
ĠQual itÃ¤t
z ub
er weise
ĠC ro
Ã¶ der
ĠVer Ã¤nder
Ġch at
ĠMod el
IN G
Aug ust
B ar
p osition
Ġc lin
ĠEr Ã¶ff
Ġber Ã¼hm
Ġmean ing
o ÃŁ
st uhl
ate gory
Ã¤n ner
ster dam
ĠChr on
ident ial
ograph ische
ĠHand buch
Ġger ing
arl ier
Ġm aster
ĠL en
ab teilung
ĠAnd roid
weg s
ĠwÃ¼r den
p m
ol is
ce ed
Ġch air
Ġpolit ical
ĠGeist licher
antas y
Sehen swÃ¼rdigkeiten
M in
R L
ĠD rit
ol o
ann a
Ġweiter es
ĠhÃ¶ch ste
ĠDate i
Pf alz
ĠK Ã¼n
je kten
200 3
Ġ189 0
fra gen
Ġadv ant
Ġexist iert
kathol ischer
ĠS ig
ĠI hrer
ĠH as
af el
Ġcon ven
ĠQ uer
Ġinvest ment
ro te
Ġn utzen
Ġr ights
ĠBe handlung
ĠChr is
ĠVerÃ¶ffentlich ung
ĠSchles wig
u ver
im ents
ĠKon zer
geord net
Ġjob s
Ġbud get
f Ã¤lt
ĠK rieges
ĠÃ¼ber geben
Ġstud ies
Ġwa it
m ag
as ts
ĠC ard
Ġun it
ho ff
Ġass ess
Ġdefin itely
histor iker
m osph
ĠF alls
ap y
Ã¤nd ler
Ġgu ys
unn el
Ġlet ter
onn a
let ter
ĠLin ien
Ġroom s
Ġmen sch
wes ome
M on
k ts
Ġt ips
or ph
Ġf elt
Ġh y
Ġdem and
ak ei
ant astic
iz en
Ġges etz
Ġâ Ĥ¬
ĠPfarr kirche
Ġhom es
D em
N o
r Ã©
z ur
Ġt arget
Ġv Ã¶ll
Ġge eign
stoff e
Ġo wner
ol i
ĠT uesday
ĠW it
art ige
tem porary
ĠLex ikon
ĠH und
Ġex press
ĠOr ient
St ring
Ġber ufen
Ġhigh est
Ġeff ort
Ġeff ects
lÃ¤nd ischen
z if
ĠB ett
Ġk auf
iz iner
Ġsh opping
Ġben ach
ĠVal ley
h u
Ġm iles
Ġde gree
Ġapp reci
ĠProdukt ions
S G
st ern
ĠG ames
et ze
Ġe uch
Ġse ch
ĠTh ursday
fl Ã¼gel
o e
ĠS oph
ĠK anz
Ġge z
Ġsc ient
ĠOber st
ĠEntscheid ung
b ilder
Ġc ards
ĠF lo
ĠChe f
Ber g
Ġcorre ct
w ise
Ã ł
an geb
ĠAn ne
Ġsp ent
Ġcl ub
fÃ¼ hl
bo gen
Ġdire ctor
lei hung
Ġappro x
Ġv ict
Ġzu erst
ak ed
her zog
Ġbeg onnen
gew Ã¶hn
hard t
ĠComm ittee
Ġin itial
Ġso c
lie genden
200 1
ĠInde x
Ġverantwort lich
ch mal
Ġb oy
ĠK assel
Ã¶ die
Ġre ports
ĠZeit en
Er folge
Ġinc red
Ġs av
ĠR on
Ġer gÃ¤n
ap ter
urop a
Europ ameister
Ġbeein fl
i op
Ġr ates
ĠSp ann
ick er
zen en
ĠBre ite
P olitik
Ġn ation
ĠL it
ly ing
Ġher r
Ġmethod s
ĠMuse ums
ad d
ĠGeb Ã¤
Ġunser em
D igital
r ast
et he
ob by
Ġpol ice
Ġstell vertreten
Ġs em
Ġf ight
ĠP ack
ĠR ena
ĠTra ining
Ġmed izin
ĠPre uÃŁ
ur b
ĠG ru
ab ase
Ġre chten
ĠProdu zent
Ġdah in
ĠCam bridge
r t
ra gen
ei ÃŁ
bl Ã¤tter
Ġ189 9
ĠermÃ¶glich t
D ollar
f abrik
ĠM ov
Ġk ommun
Ġmod els
ĠN av
Ġ4 3
ĠRÃ¼ck kehr
ĠGi ov
B el
L a
m Ã¶glichkeit
Ġw he
re a
ir us
ĠV aters
Ġauf gelÃ¶st
ĠDie t
Ġvor gesehen
pla ce
Ġschw arz
ĠEm il
M ich
at re
Ã¤ nen
ĠR ap
Ġst ates
Ġhe im
ick e
gel assen
stra hl
eich er
ĠFahr zeuge
Ġdivers e
A A
ĠS ituation
ĠM ig
tell igen
ĠTh anks
ĠVog el
Ġs ituation
w ischen
ic ations
ste ht
Ġwe g
Ġkur ze
Ġblo od
u um
ar ia
ĠG ymnasium
ĠG lauben
ĠE ck
gen Ã¶ss
ad ies
Ġwe ist
Ġex cept
Ġob serv
Ġtr ug
ĠOp ern
Welt meisterschaft
leist ungen
Ġricht ig
ĠWilli ams
J an
ing ly
lin der
Ġbes ondere
oh le
Ġbeg leit
son sten
Ġclass ic
ĠIde e
Ġein gesch
am at
Ġl ern
ĠV iele
Ġver schw
ug o
ĠAr thur
Ġ8 00
ĠBl og
Ġserv e
pf lege
ĠHers teller
ĠVeranstalt ungen
Ġtr uly
Ġbro ught
Ġunderstand ing
Ġbene fit
ch ip
Ġbek annte
ĠbeschÃ¤ft igt
w ettbewerb
Ġw rong
ĠS qu
ĠM i
ol ge
ĠIns gesamt
emin ar
ĠEin ige
Ġeben da
ĠBÃ¼ ro
Ġstra ight
Ġmoder nen
Ġruss ischen
ĠEben e
ĠTenn is
ĠS ystems
ĠL ibrary
ip end
ĠPr iester
Ġnah men
Ġfriend ly
Ġcap ital
K urz
sch loss
Ġg uarante
ahr t
se c
ĠKon zert
D an
H ier
Ġd eta
Ġa f
ĠA M
ow l
Ġfor der
Ġfeel ing
lÃ¤ss lich
Ġf uck
ĠT imes
Ġre li
ĠIn f
Ġent gegen
cl ient
ĠÃľber setz
ĠSer ver
wor ks
ĠJo e
Ġmax im
Ġkosten los
Eis hockeyspieler
ĠdÃ¼r fen
Ġn amed
Ġe igent
teil s
Ġdeliver y
H o
Ġd ining
ĠS P
Ġbe ob
Ver b
Ġnumber s
Ġsle ep
Ġt ried
ĠT hr
Ġl Ã¶
ĠPr esse
rÃ¤sent anten
asil ian
Ġc amera
Ġz Ã¤hlen
ag ra
Ġum ben
Me ister
zus tellen
un ehmen
ver stÃ¤nd
Ġde ad
Ġr ich
Ġle it
Ġ4 7
ĠOrt es
Ġcol ors
Ġâ ļŃ
ĠBund est
Ġentw eder
er te
ĠRe view
Ġne arly
ste dt
Ġsp irit
ia ge
ĠOr der
ĠWelt meisterschaft
Ġredu z
ĠBron z
ĠF igur
ĠE ven
ĠU ser
es is
ĠB lo
st ad
ĠSp rachen
Ġ18 70
oc ol
ĠAward s
ĠEdu ard
I G
r us
Ġa im
ĠP ay
ĠW M
ĠW ohl
aus stellung
Ġsp rach
Ġev alu
Ġpre c
ĠEx empl
ĠTer min
er a
ĠB ang
ĠL iz
ĠDe v
In s
ĠKon zept
Ġthan ks
Or ganisation
Ġkomp lett
ĠHeraus geber
Ġple as
ĠP orn
ĠK athol
ĠR ay
ĠBes itzer
ĠApp le
te hung
Ġf ung
ĠM Ã¶
ĠP R
ĠK amer
ĠW ho
Ã¶ pf
ĠIn halt
Ġhe ll
Ġsp ring
Ġfe et
Ġel f
bur y
Ġstruct ure
ĠK os
ĠR oh
ĠN ick
ĠO bl
ell y
ĠMann schafts
ĠFo otball
Ġview s
T S
on ia
Ġf unktion
ĠF inn
ĠH aft
ĠU fer
ĠBe ziehungen
Ã¤r m
ĠDan eben
Ġbeginn ing
c en
u ay
al ed
ĠW es
Ġhe at
ĠEn s
ĠEd ward
======== ========
Ġut il
Ġdise ase
k onstru
ĠE ach
ste chn
ĠAm sterdam
ikan ischer
Ġpar allel
gangen en
ĠS ir
ĠA rab
Ġl ines
Ġim ag
ĠMe yer
Ġsett ing
Ġinfl uen
ĠSeb ast
I R
he bung
Ġopen ing
Ġeconom ic
sb ruck
ĠDarm stadt
H istor
W erk
Ġw ants
Ġm iddle
ĠM Ã¶n
Ġg Ã¼nst
Ġan gelegt
ho fen
Ġdr ink
Ġend gÃ¼lt
Ġober en
D AP
R ep
S k
S eine
ĠH ockey
ĠC are
Ġal bum
ĠRe is
erk l
ĠBar on
ĠWor ks
Ġâ Ī
Ġadv ice
ĠAutom obil
Ġregard ing
n ing
p ite
it o
ĠR icht
ĠL ook
ĠÃľber setzung
ĠVorg Ã¤nger
ĠSowjet union
ĠT able
ost ers
ĠSc iences
C ar
Ġm ission
ĠT Ã¶ch
ĠC ook
uss ion
Ġbas is
fÃ¤h igkeit
A B
W il
ĠE as
ĠJ agd
ĠSch ach
ze p
Ġpro ced
ĠThe ologie
ĠAb itur
Ġbest ritt
Ġentsprechen den
ĠNationalsozial ismus
D isk
b al
ĠM om
be g
Ġ4 1
ĠMar ien
Ġhelp ing
Ġpass ion
ĠFot o
Ġsetz en
ĠBevÃ¶lker ungs
Ġm icro
ĠReg ister
S U
ĠW alk
ĠRe fer
ĠBe teil
Ġbeh av
lig isten
Ġded icated
Polit iker
E hr
Ġ ĠĊ
ar in
ĠP ast
ĠK up
Ġz er
ĠO d
ĠO ther
Ġfor mat
Ġ188 0
ĠPfarr er
kra ine
i ot
w uchs
it is
Ġs icht
Ġab geb
ip per
ĠBen ed
Ġcour t
ĠSm art
B Ã¼rger
J uni
p pe
w s
Ġt ief
ĠN ie
co unts
ath an
Ġverst Ã¤r
** **
j an
s ur
ap ers
gr enzen
Ġ4 9
Ġ6 00
Ġturn ed
al bum
ĠL or
and e
ĠAus land
utz te
stÃ¤nd en
ĠFlug zeug
w rit
os is
iert es
ĠPf lege
Ġsele ct
Ġdev ices
Ġprofession als
fur ter
F unktion
ĠA qu
ĠM ike
ĠD ur
ĠN eb
Ġste el
ĠBau werk
Ġart ists
Ġcomple ted
ĠPortug al
H z
c raft
j en
l ast
ĠRe form
ĠLei den
ein heit
Ġm is
ro y
ĠR uf
ĠR oten
aus schuss
Ġcom ments
n etz
Ġd ynam
Ġb row
ĠK lassen
ĠH ay
rie den
ĠPro ject
ĠZeit raum
ĠRei hen
Ġmot iv
ĠBenutz er
ĠLeicht athlet
Ġb rach
us ter
ĠE M
Ġer kennen
ĠO scar
Ġac adem
Ġexp and
ĠWÃ¼rz burg
b on
Ġc ell
Ġvers ehen
ĠCon c
ĠDurch messer
Ġret ail
Ñ Ģ
Ġt a
Ġc andid
ĠG ang
Ġer l
kt ar
Ġaus gel
ĠEr ich
ĠJuni oren
Ġess ay
Ġrespons ible
Gro ÃŁ
k ins
v ement
re hens
Ġh op
ĠT isch
Ġan hand
ĠSp itze
Ġfe hl
ĠPrÃ¤sident en
L C
Ġs ession
Ġm Ã¤nn
ĠD auer
ĠW ett
den burg
mer ksam
ĠFÃ¶rder ung
Ġmittler weile
u he
ĠEr satz
199 9
r ennt
it ude
an ia
ic ul
Ġ189 6
Ġbring t
Ġview ed
G u
en se
st al
and t
ĠN ap
iz z
ĠMed ical
let scher
ĠMon at
Ġsur face
Å Ħ
Ġs hel
ĠE ugen
Ġj ud
omm od
Ġbro ad
ĠLÃ¼ beck
ĠFakult Ã¤t
Ġm ap
ĠW ay
ĠBe wohner
sh ire
ĠAlex and
nes day
obl enz
f al
l an
Ġein gerichtet
ĠR ab
ĠC ustom
ĠO tt
sp ar
ĠPro fil
ĠgegrÃ¼ndet en
ĠSicher heits
Ġupd ate
ĠUntersuch ungen
- )
D en
J e
ro llen
Ġlie f
ĠArm y
fÃ¼ll t
ĠD ata
ĠIn t
ĠNe um
Ġappro pr
ĠBesuch er
v ard
ĠS T
ĠM isch
ach tet
Ġpre vent
Ġmay be
Ġrelig i
Hol stein
Ġm ill
ĠG h
ste igen
iforn ien
Ġemploy ees
ĠDV D
G o
l Ã¶
m aterial
t rue
z one
in zen
Ġb ag
Ġf ather
ĠH ot
Ġre ich
Ġdurch schnitt
Ġstand en
ĠComm ission
fÃ¤l le
ĠÃ¤lt este
C o
V al
h te
u ben
ĠL ate
Ġre asons
Ġben utzt
S erie
d ach
ĠA L
ĠK ong
Ġ189 8
Ġcontin u
Ġmeas ure
ĠÃ¼br igen
ĠSchl uss
Ġextrem ely
Ġthous ands
g on
al b
ung er
wer den
Ġprim ary
Ġhund red
ĠS et
ĠN a
ons erv
Ġdam age
An t
in ted
ĠS inn
ĠB an
ĠF lag
sch te
ind ustrie
ss on
por ation
Ġdiffer ence
Ġphot ograph
Ġentsprechen de
ĠPier re
C he
Ġw inter
ol ar
Ã¶ ÃŁen
Ã¤r ke
amil ien
Ġwel come
ĠBro ok
Ġbeaut y
ĠjÃ¼d ischen
ĠF air
Ġg olden
Ġl ength
Ġ4 6
Th ese
Ġprodu ce
Ġprodu ced
ĠHel mut
> <
S a
el f
Ġbe yond
ir ing
se kretÃ¤r
anz ig
ĠGro ÃŁe
grÃ¼nd er
Ġuse ful
= "
E d
J ohann
Ġw ert
ap os
ĠMen ge
yl van
Ã¶m isch
hÃ¶ he
ĠS tellung
Ġb atter
Ġin f
Ġv ierten
Ã¶ z
ĠLand tags
ĠMan y
hol m
ĠGew icht
Ġpower ful
ĠGerman y
ĠVirgin ia
Ġs itu
ĠP os
ĠW Ã¼r
ĠDie ter
Ġte ams
ĠBl att
Ġover all
ĠMet hoden
ĠWohn ung
k arten
n ow
u ct
in ischen
ĠM ath
ĠH ospital
ak i
ĠSp orts
Ġbet rieb
ĠFunktion en
Ġassoci ated
B y
Ġf ans
Ġk aufen
ĠTechn ology
vors itzen
Ġt ag
an ch
id el
ste iger
Ġinter ior
Ġhel fen
ĠPf ar
ĠWies baden
r iss
ĠA le
ĠT wo
ĠAn y
ĠFor um
bes itz
Ġ189 7
Ġimmed iately
A ut
M ot
m iss
p pen
Ġt ritt
te gra
ĠL ittle
ĠAuf lÃ¶sung
ism ar
Ġerh ielten
Ġze igte
mar sch
Ġfac ilities
ĠInn sbruck
Ġdien en
ĠÃ¶ffent liche
Ġausgest attet
f assen
s or
it ness
ĠRe port
aus gabe
ĠEr folge
ĠUn abhÃ¤ng
ĠOr ch
arb on
schn itts
krieg s
ĠFrie den
wirk ungen
te x
ĠB os
ĠD adurch
iv als
be am
zeit ung
ĠGesch ichts
ĠCon ne
ĠMich el
Ġed ition
stÃ¼ck e
schei det
p at
ĠP ots
ĠG riechen
ĠK Ã¤
ĠN ahr
end el
Ġro of
bau er
Ġocc ur
s berg
en ken
Ġth ank
ĠCh allen
ĠMag de
Ġhistor ische
ĠWeit eren
Ġgelegen en
or fen
ĠV el
ug ies
ĠFÃ¼r sten
Ġnational en
gestell ten
k in
r ight
Ġex ter
Ġlo an
ĠgroÃŁ es
Ġchallen ge
Ġb ot
Ġf Ã¤llt
ĠM und
ĠH ig
Ġer stellt
Ġcan cer
ball spieler
ĠKon rad
Ġserv ed
Ġra p
ĠKÃ¶nig in
Ġnor weg
Ġhig hl
ĠMatth ias
veranstalt ung
ĠBarbar a
Ġt ree
ist ischer
id o
sen z
ator ium
zie ht
ĠWir ken
Ġgemeins amen
Ġdeter min
ĠSÃ¶ hne
bere cht
we ge
ĠBe hÃ¶r
Ver Ã¶ffentlich
ĠBÃ¼ hnen
ĠRegen sburg
ĠBek annt
ĠvÃ¶ll ig
h ire
ĠB am
ĠE ber
ĠH erkunft
ĠL as
Ġver ur
ĠVor aus
Ġbut ton
Ġgu ests
199 0
L E
t w
ĠK y
Ġcon cept
iss ance
ĠZug ang
Ġmet al
Ġim press
ste uer
Ġber uf
ĠGer icht
Ġcover ed
M Ã¤rz
ĠB Ã¶
Ġp aid
ĠC ost
Ġl it
ĠPro te
reg isseur
ĠVers uch
ĠKr ist
iw od
w is
ĠB M
ro ad
ĠP ac
ent ur
ed om
ĠGeb urts
ĠPe ople
Ġsec ure
f Ã¤ll
Ġb ur
ĠN ag
Ġk new
ĠSp ielt
ĠMar i
ĠLand tag
Ã¼t ze
so ap
Ġprogr amm
ĠRÃ¼ck en
Ð¾ Ð
Ä «
ein anders
ĠL oc
ĠL angen
od urch
ĠBe ziehung
Ã¤hr ung
ĠAd el
ĠTr ump
icher ungs
Film ografie
Ġb ill
Ġ1 10
ĠP ot
im ens
ĠH arr
um a
ber eitung
Ġ18 60
oren z
Al le
Ġoffiziel l
y les
z ell
ĠEr schein
ĠLe vel
Ġdr iving
ĠMil ch
ĠDÃ¤n emark
chip karte
il de
st rom
ĠH ause
Ġe arlier
Ġ5 2
sk a
fÃ¼ gt
ĠAs ien
Unter nehmen
Ġestabl ished
he il
ĠL td
ann ter
Ġver g
hn ung
Ġsch ied
our g
ild ing
ĠNational mannschaft
Ġmov ies
Jahr en
ĠA N
st ock
Ġhe avy
Ġgo als
âĢĿ ,
Er st
ĠMark eting
Ġstra tegy
ĠverfÃ¼ g
ĠErfahr ungen
g ot
us band
ĠF un
ĠR ollen
ten ance
Ġbe ge
Ġclick ing
Ġcertain ly
ĠEpis ode
M ax
N ov
o ire
p an
ĠBe am
fol gt
Ġra ce
Ġcour ses
Ġwind ow
S PD
al o
eb urg
ĠVor stand
Ġfin ished
ĠGesch ichten
Ġtechn ical
Ġser ver
denk male
ĠIns eln
D E
c z
y nd
er em
Ġs amm
Ġw odurch
ĠF ro
ĠK ost
um pf
ĠInd ien
N ot
ĠG all
ĠL etz
Ġg ren
ĠSt ift
est yle
ĠVer dienst
ĠBundes staat
199 6
Ġeas ier
Ġstate ment
Ġexist ing
Ges ellschaft
; &
ĠE ich
ĠL abel
ann ed
Ġcon ference
Ġprote ction
ĠT rieb
rÃ¤ gen
olog ischer
ĠJuli us
S er
Ġf an
ĠB Ã¤nde
ĠB aby
ing ham
ro ugh
Ġp df
ic ious
Ġe he
end o
eben e
Ġres erv
c are
ĠD og
ĠK urs
ĠL iber
Ġver kehr
Ġvers uchte
ĠErw eiter
Ġswe et
Ġphil osoph
Ġbott om
P art
z te
z ul
ĠL at
Ġer hoben
ĠO R
ial s
Ġcon stant
ĠWe ge
ath on
ĠWelt krieges
ĠMon aten
Ã¤dag oge
ĠHalb finale
de cken
Ġc ast
ol as
ĠR io
Ġauf gebaut
ust ain
ĠMar gar
Ġsuch en
199 7
Ġunterschied liche
f ree
al em
re in
ĠM ord
im b
Ġwh ose
Ġfind ing
ĠJe ff
ĠGener ation
g ant
is piele
Ġc entral
ol ph
ĠH oll
ĠR ose
ĠNe ust
ĠAnd rew
ĠnÃ¤ch ste
ĠrÃ¶m ischen
zÃ¤hl ung
N r
S yn
ĠM auer
ĠL abor
Ġco unter
Ġsol id
Ġcol our
C onstants
o und
Ġ5 1
ĠFor ce
fin ition
Ġlov ely
F ried
V ol
d auer
ĠB ac
hand el
Ġeven ing
Pl atz
akte ur
Ġumben annt
R A
Ġ Ã¶stlichen
ĠP in
ĠE vent
ĠÃ¼ber haupt
Ġreg istr
Ġstark en
Ġbig gest
Ġsay ing
Ġf ail
ĠB ord
Ã¤ ure
Ġthe me
st Ã¤d
ĠC anad
ze igen
Ġrad io
Ġgriech ischen
Ġin fo
ĠE ur
ĠW en
ĠĊ Ġ
gr iffe
ĠAus nahme
Ġsh ape
Ġredu ce
Ġclean ing
ĠMaÃŁ nahmen
ĠRath aus
ĠS tell
ĠM P
ĠE arl
Ġk ulture
Ġsp richt
olog isch
iate ilnehmer
ĠAtt rib
ĠEntwick lungs
b und
w ith
ĠZ oll
ĠSp er
iz eit
ph y
Ġkathol ischen
ĠDah er
R el
a illen
ĠD J
Ġp al
Ġc ars
Ġj ourney
Ġab gel
ste ig
ĠMe cklenburg
Ġstand ards
haf te
ĠFernseh serie
Ġwissenschaft lichen
ĠWed nesday
s ere
ĠD iffer
de gang
Ã¶ tz
ĠThe orie
Ġse ven
Ġste ps
ĠStra f
Ġtechn iques
Ġeinzel ne
ĠSong s
Ġsen ior
Ġcent ury
l le
land es
ĠLand schaft
Ġad vent
Ġdis k
Ġem ot
reg ion
ĠOff izier
J ahre
O W
s dorf
ĠK ard
ĠH av
ĠBer icht
ĠHe ad
Ġdr iver
Ġ189 5
wend ungen
Ã¤mp fer
Ġwa iting
Ġklass ischen
ĠNetz werk
Ġinnov ative
ĠS ender
ĠF ernsehen
Ġand ers
ĠTra in
Ġacc ommod
ĠCon ference
ennt nisse
Ġpie ces
ber eit
Ġverb ess
Ġhand le
bl ing
Ġur kund
Ġpop ul
Ġchange d
ĠCD U
; ;
k Ã¶rper
l ist
m auer
Ġf at
sp ann
ĠBe ob
ĠKom bination
lam ents
F ranz
U r
W irtschaft
k as
Ã «
in det
or ia
Ġc old
Ġzu geordnet
Ġpro p
In stitut
Ġw issen
ĠC ond
qu enz
igkeit s
kl us
Ġinst r
Ġprote ct
ĠHers tellung
Ġpress ure
Ele ment
Ġg ran
be zogen
atur ing
ĠNor wegen
ĠDon au
ĠTÃ¶ch ter
L ist
W ert
b ell
p fl
ol en
ĠF arm
em burg
Ġat tend
Ġho her
Ġgu y
ĠJos Ã©
ĠDiss ertation
4 00
m ail
Ġ ?
Ġ ðŁ
Ġs agte
ol es
tel n
Ġ18 50
pl Ã¤tze
Ġen glisch
fÃ¼hr ten
Ã¤ng nis
Ġhim self
ĠEinwohner zahl
ĠKommun ikation
Ġparticular ly
ie b
Ġin iti
ĠK im
Ġver fasste
id ung
ĠVer antwort
199 8
Ġpat ient
ĠBrÃ¼ der
bed ingungen
ĠMc C
Ġmult i
ĠÅ ł
ĠZusch auer
ylvan ia
D S
J ohn
Ġ !
in us
Ġh ers
ĠK Ã¼nst
ess in
ĠFran ken
ĠFamil y
Ġ/ >
Ġvisit or
Ġnomin iert
Ġorganiz ations
i Äĩ
ĠM ap
Ġn ar
ĠK amera
Ġal though
ĠWo iwod
H aus
ied elt
Ġpe ace
Ġtr ust
Ġzwe imal
ĠEpis oden
Ġpresen ted
Ġfab ric
D I
u v
Ġ ign
ĠA ktion
ĠF iguren
ĠH Ã¼
ĠU t
Ġver legt
Ġexper iences
ĠFo od
Ġdi agn
ĠParte ien
Ã¤ ÃŁ
ĠM ake
ro nd
ra p
Ġge kommen
iz er
ign ed
Ġbes itzen
Ġro b
Ġges pe
obil ien
ĠRund funk
M ilitÃ¤r
f ranzÃ¶s
al is
ĠT ax
ent lichen
ĠH immel
arbeit ete
Ġspiel ten
ĠMÃ¶glichkeit en
b ahnen
k at
ir urg
af ft
ĠAn frage
ĠAr men
our ne
ĠGes ang
Ġverw enden
Ġverschieden er
Ġsele cted
Ġincre ased
Å Ł
Ġh ospital
ĠG Ã¤ste
ĠC ru
Ġge ist
stand en
ĠDo ug
ĠHar ry
ĠjÃ¼n ger
Ġachie ve
Ġol der
Ġs uffer
or ien
ĠB em
ĠT ay
Ġer le
ĠN avy
os low
ĠEr ste
Ġ15 00
Ġland wirtschaft
Ġzunehmen d
ĠMicro soft
S pieler
b rand
Ġg ather
ĠC apt
ĠSch on
ce an
ĠAn h
Ġacc ur
ĠQu elle
Ġviel leicht
ĠMich igan
ĠTab elle
G esch
K rit
K irchen
P ort
c ient
k Ã¼nd
o ter
Ġe at
ak adem
ĠAb t
Ġtra f
ĠSte phan
zÃ¼ glich
Ġinstall ation
ol z
em ann
ĠC hen
Ġan gesehen
ers dorf
os h
Ġman age
ĠAuf ent
min ton
ĠBuch st
ĠForm el
prÃ¼ ft
Ġerz Ã¤hlt
ĠMail and
Ġdig it
h ar
Ġa ward
Ã¼ gt
ĠM ir
Ġh aven
la ted
rat en
ĠFre der
setz te
ĠGiov anni
B est
k Ã¼rz
it ors
Ġw achsen
ĠD ist
ĠC lin
ĠâĢ ¢
Ġr ent
Ġj ur
rom e
Ġen h
fÃ¼hr te
ĠTr ier
Ġexc iting
Ġrele vant
ĠÃ¤ uÃŁ
Ġir gend
ĠChin ese
ĠSonn tag
C O
al tete
ĠH um
ir at
ow e
ag a
fol gung
ĠFre unde
part ner
ĠAustral ian
ĠArn old
ĠColumb ia
D ar
ĠK ent
ess ions
ĠGr enzen
ĠzurÃ¼ck ge
cy cl
Ġel ements
ĠTor onto
T er
k ul
an isch
le hre
ĠO pp
Ġst Ã¤r
end ar
ĠMa jor
as p
st at
im in
ĠI ran
ed ig
ĠV f
Ġal ter
ĠSt imme
ess ischen
ard o
att form
ring t
Ġbel g
stre cken
Ġvo ice
N or
Ġt ruck
Ġw rote
ĠB ert
st ift
ut ch
isch Ã¶
Ġcommun ication
m ess
ĠP ow
ĠR ie
ĠN ah
ĠJ ersey
Ã¤r t
ĠGe gner
ĠLe hre
Ġeinz igen
ĠPer form
Olymp iateilnehmer
g yp
v ater
Ġd rop
ĠS ince
al ity
Ġb ayer
Ġf antastic
ĠF ore
ĠEnt fern
ĠStud ies
ĠQu adrat
Ġ187 1
ĠhÃ¤t ten
Ġmittel alter
n oten
ĠT en
Ġmit einander
ĠEin richtung
utz ung
Ge w
Ġcommun ities
ĠGegen wart
dire ktor
u ters
z z
ĠP ian
ĠT rom
ĠL ock
ĠEin heiten
Ġum geben
ond eren
erv ice
Ġlook ed
Ġbu ying
Ġexper ts
ĠJu an
Ġmov ed
ĠCont rol
ĠBook s
Ġunterst Ã¼tzen
Ġd ish
us her
Ġap pl
ĠLie fer
ĠAfr ican
ĠSchwer punkt
ĠbenÃ¶t igt
Ġbenach bar
M B
T H
Ġw ebs
un Ã¤chst
ol ogen
ĠL em
Ġer laubt
ĠAn trag
lin ois
sen de
Ġent schied
lo ok
ĠGr amm
ĠPar ameter
gesch lagen
Sie g
Ġexc ited
B ad
O st
en gl
ut ing
ĠAr ray
Ã¤nd igen
pro fess
ĠNeub au
I F
ur ers
Ã¶ gel
ate ver
Ġzw eiter
Ġvor bei
Ġsh ared
burg h
ĠSh op
ĠStra ÃŁ
ĠAss ist
ĠTer rit
g ow
ĠH aup
ite ktur
wer ten
Ġinter act
gesch oss
Ġgra de
Ġatt ach
Ġcharac ters
ĠPublik um
z in
Ġa head
ĠS ak
ĠK rie
ĠJ a
Ġcom pl
ĠHol lywood
Ġstr ug
ĠJust iz
Stra ÃŁe
ĠBronz emed
. ).
H ere
P e
l og
ĠL ag
ĠSch ott
Ġj ournal
wer ben
Ġletz ter
ĠOn ce
N ow
y ers
y mp
ĠS aar
ĠE ind
Ġk id
Ġr ules
Ġsc en
Ġange gebenen
Ġbr asilian
produ ktion
Ġaltern ative
o ben
s ol
u ern
Ġs ing
or gan
ĠS yd
Ġm aÃŁ
ĠH eb
men d
Ġsch eint
Ġbes etzt
unter richt
Ġsec ret
ĠRelig ion
! )
N S
ĠS ens
ĠD ynam
ĠH ugo
je kts
Ġsh aring
teil ungen
ĠMet rop
Ġverkauf te
Ġeffic ient
Ġfor ms
ĠAn griff
Ġadv anced
ĠWieder auf
Ġwissenschaft liche
Ġteach ing
c u
p et
s ylvania
Ġj em
Ġunter sch
ĠFl Ã¼cht
Ġhelp ed
Ġav oid
Ġgeeign et
h aben
Ġ ille
ĠS ele
Ġf ish
Ġc ategory
ĠSp itzen
Ġbet roffen
ĠBl ues
kauf t
gangen heit
ĠKommun al
Ġconne ction
Ġerinn ert
M A
k urs
r uss
ĠN Y
me er
Ġbeg innen
ĠHoch zeit
ĠChem ie
ĠM ak
ĠK u
ik as
ass au
ĠPl atten
Ġac qu
ĠCl ick
ĠKomp osition
Ġstark e
C C
h as
m or
ĠM assen
Ġpro ud
qu er
sen s
ĠMar burg
Ġsh own
Ġbesch reibt
Ġausge fÃ¼hrt
Ġstre et
ĠTw itter
E W
c onstants
ar ina
ĠW urz
Ġver geben
Ġ18 48
ĠGra z
Re chts
ĠTod ay
Ġkein er
Ġcompet ition
D A
le ment
Ġh usband
Ġn ames
âĢ ¢
hn te
Ġsp read
ĠPar laments
Ġ189 4
produ zent
F rom
w Ã¤l
Ġc it
ĠN och
if ying
ĠSch ritt
Ġse eing
ĠDe ck
Ġschw ier
ĠEng agement
Ġmein er
ĠDipl omat
ĠQue en
p ot
Ġbe grenz
ĠV Ã¶lker
iel le
Ġet abl
ĠGemein der
ĠSte phen
ĠFahr er
Wh ile
Ġpropert ies
Ġnahe zu
W el
f ue
i y
or row
Ġein geb
ĠG olf
ĠEr l
Ġte en
In ternational
ĠMo dern
Ġdevelop ing
ĠmÃ¶glich st
Ġpay ment
Ġsong s
Ġgemeins ame
ĠMex iko
ĠKarls ruhe
S he
Ñ ģ
if el
alen der
Ġreg ional
Ġcould n
Ġ188 9
Ġcompar ed
kur renz
F alls
l ife
ĠB it
ĠU kraine
ĠRe de
gr Ã¶ÃŁe
ĠOb wohl
199 4
verkehr s
k ern
Ġent steht
ĠBer nd
Ġcomp rehens
ĠMag n
Ġkur zen
Ġrelations hips
National mannschaft
k es
an ie
ĠT ief
im en
Ġer fahren
ub il
fÃ¼hr en
ix el
Ġda ughter
ĠWahl kreis
ĠBereich en
mot or
Ġsepar ate
Ġb la
Ġin tern
ĠL ist
ĠL ady
ad ing
ĠCh ief
199 5
Ġclass es
ĠZahl en
Ġconne ct
Ġbedeut end
Schwei z
a tely
f els
Ġs ets
Ġf ill
Ġc overs
ic ians
ĠSe a
grÃ¼nd ung
Ġsur v
Ġel ement
rÃ¤n kt
Ġunterschied lich
Ġep is
Vers ion
Digital isat
b chen
Ã¼ p
ĠB aus
ĠZ erst
ĠMon te
ĠSchn eider
spe kt
ĠNet work
ĠGebie ts
mitt lung
Ġtats Ã¤chlich
k amp
ĠP M
Ã¼r en
fe ct
In sel
aj a
ĠWol ff
ĠFrie dens
d is
ĠB le
ĠD ank
om er
ĠR ub
eb all
Ġcom bin
rÃ¤ ft
Ġad ult
ĠPl us
Ġsc ene
Ġsl ight
ĠStÃ¤d ten
ĠDipl om
ĠOh io
ĠBrasil ien
8 00
h Ã¼ter
u is
Ġun er
Ġab ger
rÃ¼ cke
g red
i rol
Î ±
Ġa wesome
ĠA ster
im p
Ġre icht
ĠGe walt
Ġber ichtet
bin sel
ĠFil me
ĠMad rid
Ġexpl ore
ĠÃ¤lter en
ĠChampions hip
z esse
Ã ª
Ġg one
ĠJ ava
ĠNach richt
Ġpr incip
ĠWelt cup
ĠOff ic
Ġland sc
verein s
Ġtre ffen
ĠVictor ia
Ġerstre ckt
is ierten
Ġs ister
at on
ĠK amp
ĠR umÃ¤n
Ġal one
af e
ĠVer letz
ly n
ĠEin richtungen
Ġqu ant
ĠĠ Ġ
Ġcop y
Ġafford able
K o
S A
ĠB art
Ġunter halb
Ã¤nd ige
Ġbes aÃŁ
ĠFl ucht
let te
ĠMet al
ĠHaus es
lauf en
Ġ188 5
Ġrequ ires
l it
ies s
Ġsch uf
alt y
Ġart icles
Ġchallen ges
Ġnumer ous
ĠKÃ¼n ste
Ġsoc iety
it at
Ġn Ã¤her
ĠIn frastruktur
âĢľ ).
her ren
ĠAm b
ĠMa ur
Ġtra ding
stra ÃŁen
Ġpop ulation
Ġengine ering
Hand lung
ĠBist um
K arl
Ġs ter
Ġf le
Ġer lang
ĠAn lagen
Ġ5 4
ais er
ĠSte ve
ĠLin ks
ĠRu h
Ġkon zentr
ĠÃ¶sterreich ische
ĠKal ifornien
Ġsozial en
ĠUntersuch ung
ĠIngen ieur
B et
b ad
h ler
l Ã¤nge
o ul
ĠP red
im ension
Ġsch reiben
Ġman ager
cel ona
ĠMount ain
ĠErfahr ung
ĠD rag
ist rÃ¤ger
ĠJ ed
ht t
Ġdre am
!! !
ĠHor st
Ġtalk ing
ĠH yp
Ġk o
ĠGesch le
ester day
Ġpack age
ĠJack son
Ġgepl ant
K irche
u tely
ĠI ts
ĠH Ã¼gel
ĠL Ã¶sung
Ġinter pret
Ġteil s
Ġcre am
Ġbas iert
Ġengl ischer
ĠSÃ¤nger in
Ġansch lieÃŁen
ĠSebast ian
akadem ie
e ch
p aar
u ine
Ġf lieÃŁt
Ġg allery
ph ys
fen ster
ĠInter essen
Ġ188 8
Ġsur pr
ape ut
Ġvert rat
Ġupd ated
ĠGesprÃ¤ ch
Date i
3 00
Ġf allen
us sen
we ist
ib e
ib l
ĠUn fall
20 20
dem okrat
ĠFl Ã¤chen
Ġqu arter
Ġ189 3
id den
ĠAl k
Ġsh all
ĠWe gen
rat ing
ĠInd ivid
ĠSer ien
ĠJapan ese
w ord
Ġw ine
ĠP ir
Ã¼r zt
fol gen
ĠWelt meisterschaften
ĠMÃ¼n chner
Ġaufge fÃ¼hrt
fa ult
ĠerklÃ¤r te
Ġrestaur ant
ĠOrd nung
ĠDetail s
ĠWeihn achts
Ġappropr iate
Ġsch ott
for scher
reich er
ĠLe arn
wer tet
fÃ¼hr ungen
Ġbr ings
Ġstor es
ĠSec ret
EM ail
F ahr
r in
ĠA achen
st one
em it
Ġunter en
ĠMit arbeit
Ġsm ooth
Ġve get
M en
S up
or um
or ff
ĠB R
ĠD iam
ĠK am
ach us
Ġon to
qu est
ac ity
Ġres ist
Ġseit dem
ĠWh y
Ber eits
ĠSchn ell
ĠAfr ika
ĠWoiwod schaft
B ere
n i
w ich
w ater
ar ma
el ess
ĠF Ã¤h
Ġl ab
ap h
Ġi Ph
mit glieder
Ġeigen es
Te xt
ĠBre mer
Ġerm Ã¶glichen
C ol
H T
te au
Ġp air
Ġdes k
Ġst Ã¤dt
Ġsh ip
stell ig
ĠFrank furter
ĠSc ot
Te am
ĠGest altung
ĠAbgeord neten
Ġren ov
ĠAktiv itÃ¤ten
B ook
al om
ĠE P
ĠL ike
ĠZ ivil
yn ast
ĠTra um
Ġval id
ĠSchriftsteller in
ĠSec ond
Ġelekt ron
F amilie
Î ¿
Ġc atch
ent hal
ĠÃ¼ber setzt
imm ing
gest altung
Ġresp ond
Ġdenn och
ĠVerÃ¶ffentlich ungen
Ġzust Ã¤ndig
m eldung
ĠS ud
un ters
as che
us k
ĠU se
ĠVer gangenheit
out s
Ã¤l le
ĠGem Ã¤lde
ĠAnd ers
ĠVerb reitung
Ã¤m lich
erc ise
s ichts
ĠM inn
Ġbe zeichnete
Ġe ight
sp recher
Ġcom bination
geb irge
ĠCount ry
ĠErw achsen
w Ã¤hnung
Ð ½
an th
Ġo st
Ġbis lang
ĠMit gliedern
ĠmÃ¶glich erweise
Ehemal ige
or ient
ĠD atum
ĠL ot
ĠV ill
ver zeichnis
arr iage
ĠVerein igung
For m
Ġerr ichtete
Ġgre ater
wirk ung
ĠRestaur ant
Ġverhinder n
ziehungs weise
L in
u ellen
x x
re te
Ġer zeugt
ĠN ar
ĠSt ill
Ġun gefÃ¤hr
rÃ¼ st
Ã¤r ung
Ġus w
ĠGrÃ¼nd ungs
N atur
ig ation
ĠK Ã¶r
ĠE conom
Ġun ge
Ġdo ors
ĠKl ima
Ġbo ught
Ġ188 4
Ġleader s
ĠErk rank
Ġcrit ical
S E
S ep
re me
us en
Ġde partment
Ġpro file
Ġnot ice
Ġte acher
man agement
Ġ189 1
Ġvisit ors
verband es
ĠGesund heits
a ver
Ā Ā
ĠT ats
Ġauf gestellt
ink en
199 2
Ġwebs ites
Ġb lieben
Ġf ahren
ĠJ ord
ver l
Ġde te
ĠVer eine
oll ten
erk ennung
ĠSie ben
Ġcomp os
esent lichen
ĠAir port
it ag
Ġb ess
Ġn ut
ĠV ie
Ġden k
Ġe arth
ies e
Ġse a
ĠSchw ier
icher heit
Ġmon itor
Ġant i
Ġapart ment
Ġverpflich tet
ĠPots dam
J ust
f ers
z il
en hagen
ĠS yr
Ġb illion
ĠM B
ĠM ang
all iga
ĠIn itiative
ĠgrÃ¶ÃŁ er
Ġtop ic
ĠKais ers
ĠInstitut s
ĠbestÃ¤t igt
Ġdeutschsprach igen
Ġn am
ol er
ĠF our
ĠF reis
St re
198 9
ush ing
Ġneigh bor
Ġ Ã¶rt
is her
ĠS her
ĠT ob
ĠT aschen
ĠSt ab
ĠAn im
ĠAn spruch
ĠSp itz
ĠCh am
ĠEn glisch
Ġbes onder
ĠAm ateur
ĠÂ ·
Ġpo or
Ġbelie bt
Ġbus y
mÃ¶glichkeit en
Ġf uhr
ges ellschaften
ĠOr ten
Ġ5 3
Ġ5 6
An merkungen
Ġpol y
ĠMot iv
Ġcor ner
Ġheraus gegeben
ĠObl ast
Ġp ull
ĠT ot
ĠC A
Ġbe auf
aut hor
Pro zent
Ġaut om
Ġcor porate
ĠCas ino
or i
ĠF Ã¤llen
ĠL yr
Ã¶ tet
Ġwel chem
ĠGeschÃ¤fts fÃ¼hrer
ĠEigen schaften
Ġattem pt
H ome
k Ã¼ste
Ġs agt
ĠÃ ł
ack en
Ġlo ans
unds Ã¤tz
ĠBed ingungen
ĠOper ation
lad ung
Ġop in
ĠZwe ck
D aten
ĠG a
ĠG il
ĠR ett
ĠR Ã¶m
ic us
Ġver n
Ġr ank
Ġsh ot
ĠBo ot
Ġgener ally
ĠInn ov
best and
Ġdist ance
T od
f iel
k Ã¶nig
ĠB om
st il
ow itsch
ĠAn gehÃ¶r
An halt
ĠAs ia
ĠGrÃ¼nd er
Ġlar ger
ĠÃ¤lt esten
f ir
r amm
ĠV iet
ĠSt ory
zeich nen
bau te
iqu id
weil er
ĠPat rick
Ġopen ed
ĠChem nitz
Ġpoln ischen
Ġapprox imately
F B
g han
ter m
ĠC ur
Ġge grÃ¼ndete
ĠWe ber
ĠMan fred
Ã¼t ten
Ġsol chen
ĠBar celona
Ġjapan ischen
ĠmÃ¶ch ten
Ġcas ino
Ġmaint ain
ĠBened ikt
te am
re h
ĠSt rand
ug os
19 18
Ġunter scheiden
Ġman chmal
fe uer
olle y
Ġeinz ig
Ġinc or
Ġrem ain
ĠMex ico
Ġm ut
Ġbe ziehungsweise
ik ing
Th at
ĠsÃ¼d westlich
ĠAustr ia
spl atz
;& #
i ors
Ã ľ
Ġm ilitary
ĠB ir
ĠM d
alt ar
Ġpl enty
Ġoff izielle
Ġverb rachte
akt oren
Ġreal ity
ĠKap ital
Ġklein ere
Ġadvant age
achus etts
er ei
ĠC reek
ann en
ĠMark et
Ã³ w
Ġfollow ed
ĠJes u
zuf Ã¼hren
adel ph
J ose
K om
O ff
g ent
Ġs agen
Ġc ro
art igen
Ġsch rif
Ġres idents
ĠEurop as
Ġmed ium
Ġval ues
ĠInternational e
ĠKo ordin
bÃ¼rger meister
Cont ent
B en
n or
p ool
ĠAb d
tet t
ron en
hel ms
Ġinc ome
hÃ¤lt nisse
ĠMor itz
ĠWar en
Ph il
Ġzie hen
ĠInform ations
n ab
p ost
t own
ch ern
ĠM io
ĠM Ã¼hl
st reit
am i
am ts
ik ations
acht ung
199 1
Ġnotwend ig
n ight
r ix
in u
us se
ĠW W
ĠN R
ĠN iger
we ich
ĠVer tra
iss es
lass ung
Ġtra ffic
Ã¶s ungen
Ġmov ement
Ġbehand elt
v ar
w ish
w irtschafts
Ġm ail
Ġv ision
ach te
ĠZ y
gr Ã¤
ĠGra d
ĠGar den
ĠTab ellen
ĠerÃ¶ff nete
Frank reich
ĠMagde burg
rond iss
ĠBronzemed aille
ĠH ong
schaf fen
Ġfo otball
Ġoper ations
Ġsn ow
M art
l ight
el en
ĠD ial
Ġn Ã¤mlich
ĠP ur
ĠT ode
ĠF ab
ĠG uts
ĠK eller
sch uld
ot yp
ien cy
Ġsch affen
Ã© l
Ġdo ub
Ġrec ords
Ġfl at
Ġange hÃ¶r
Ġeff orts
ĠBÃ¼ hne
Ġwicht igen
ĠVerm Ã¶gen
D DR
ĠB Ã¼r
ĠV ari
Ġfre ien
ĠEis hockeyspieler
ĠBach elor
sta aten
ĠSyd ney
f un
Â ³
Ġs Ã¤m
ĠW Ã¤r
ĠR oth
Ã¶r ungen
ĠFeuer wehr
ĠAre a
Ġpromov iert
ĠRost ock
in sel
ch a
at om
re pr
Ġc alls
im ir
ĠZ o
ran che
ob el
gel t
ĠBes etzung
bach er
Ġbesch lossen
Ġmoder ne
Ġallow ed
Ġadj ust
d ar
h art
ĠR av
Ġun its
Ġunter r
Ġar en
Ġper man
ĠStud ie
ĠFe hl
ĠAbgeord neter
an bul
Ġf ear
ĠL ow
ul in
ĠVer st
ast rop
Ġgo vern
trag ung
Ġshow ing
haf ten
Ġsex ual
Ġtest ing
Ġgelegen e
omot iven
Ġinde pendent
ĠVen edig
. /
ĠH op
ĠN az
iv a
fahr zeug
Ã¤nder te
Ġpass ed
Ġtro cken
Ġmain tenance
ĠPlan ung
Ġpark ing
b ay
m i
o es
Ġt ie
ĠD ark
Ġc ore
ĠE arth
Ġr at
me ter
ac ing
Ġbes onderen
Ġengl ische
renn fahrer
T our
k ow
Ġw eder
Ã¤ st
ĠSch reib
ĠVer w
ip es
ens us
Ġ8 5
ĠTr ib
Ġdire ction
Ġfig ure
M P
d h
o ir
ĠS ed
Ġp ul
ĠP u
ic ans
Ġbe coming
lie f
Ã¼n fte
gesch windigkeit
ĠBra un
Ġruss ischer
T ube
j u
k B
Ġt on
Ġin kl
ĠB rie
Ġan genommen
ĠZ ul
sp ur
fol genden
Ġfac ility
ĠAlt ar
ĠEing ang
re ht
st um
ĠPro pert
Ġstud io
ĠEx pl
Ġknow s
ĠAst ronom
ĠtÃ¤ glich
Ġfem ale
A pril
m acher
v ens
Ġ ice
ie ht
ĠH aupts
ĠSch laf
pl atte
ack er
Ġpl ants
ĠFre ien
pf ul
199 3
Ġeinge tragen
Ġentwick eln
Ġfil led
ĠjÃ¼n g
G et
o ted
ĠP ul
ik es
Ġvor aus
ĠHe y
ĠBundes ver
ĠHÃ¶ ch
med izin
ĠHel m
ĠGef angen
Ġnied r
s se
ĠM inder
Ġl ose
ĠJ im
est ic
sp rÃ¤sident
ap es
Ġse ctor
St iftung
stell te
Ġ189 2
Ġfact ors
Ġlight ing
ĠMathemat ik
Ġbetrach tet
E A
L auf
M ag
Q L
Ġs elling
or ation
Ġin gred
ĠA venue
ĠM ut
ĠT ake
ĠSch e
aus end
Ã¤mp fe
Ġlim it
ĠPhys ik
Ġassist ance
ĠCo ver
Ġspe ct
mus iker
Ġoper ating
Ġnord westlich
ĠCharl otte
adelph ia
R o
c ause
Ä ĥ
Ġt ransp
an ke
Ġb rief
Ġc art
em p
Ġ20 22
Ġver Ã¤ndert
ord net
ĠPh ase
Ġ186 7
Ġverst arb
Ġdeter mine
O G
S ein
ĠG att
ĠG allery
ind ing
ĠSp recher
ĠAl te
ĠAl ters
ĠAus einanders
The y
Ġra in
Ġ188 6
ĠUr laub
Ġ187 4
ĠPo int
ĠGed ichte
Land kreis
Ġstat us
far ben
ĠKranken haus
ĠpreuÃŁ ischen
or b
ĠG n
ĠR un
Ġer mittelt
ver treter
Ġsh ower
Ġget rennt
Be im
Ġ188 1
Ġoper ation
ĠGraf schaft
Ġsour ces
ped ition
Komp onist
F il
L A
â Ĥ¬
Ġt ask
Ġein iger
ĠW ales
Ġsp Ã¤ten
ĠAr rondiss
pl atten
ĠWelt meister
Ġtrans form
ĠTem plate
ĠKÃ¼ ste
ĠBur gen
ĠpersÃ¶n lichen
ĠBestand teil
K Ã¶nig
P lease
P eter
] ,
ĠK il
ĠK art
Ġsp anischen
les en
Ġdar aus
Ġthere fore
ĠEis hockey
ĠIl linois
Ġgren zt
A pp
ĠK oblenz
ĠE sp
ĠAus zeichnung
Ġpost s
Ġpriv aten
Ġverst orben
Ġpres ident
in stitut
Ġc ities
Ġdie d
ic ian
ĠMar s
uck s
ĠGo vernment
jahr en
ĠEing abe
ĠSym bol
ĠBul gar
hoch schule
K an
p asst
Ġd ank
Ġs ucht
Ġn Ã¶t
ĠW ord
Ġre ference
ĠÃ¼ber nehmen
ĠMann heim
Ġschw eren
ĠGu ide
Ġgest altet
ĠMein ung
ĠWag ner
ĠTay lor
E nd
J apan
n itten
Ġ </
as ien
us alem
Ġh il
ĠF ull
Ġre form
th aus
ĠNach wuchs
Ġ7 4
ĠReg ionen
ĠUnivers itÃ¤ten
ĠCon gress
Ġoffiziel len
Ġmat hemat
c ar
Ñ Ĥ
Ġa uÃŁen
ĠS onne
ĠV ideos
ĠAn wesen
ĠPro jekte
pt on
ma jor
Ġ188 2
Ġ188 7
ĠMark us
Ġinst ant
ĠFer ien
usÃ¤tz lich
Ġwalk ing
ĠDenkmal schutz
ĠGebie te
ĠVeranstalt ung
Ġhappen ed
ĠKrank heit
ĠIntegr ation
ĠmÃ¼nd et
M ill
Ġb on
el be
ab ilities
Ġzu k
ĠEr ster
ĠGe werk
ĠAuf nahmen
ĠNach folge
ĠFre izeit
Ġbr ight
gre if
z ens
ĠF ord
ĠE qu
ass ung
ip ps
geb nis
Ġest im
Ġcontin ues
ĠAkt ien
Ġprepar ed
Ġsqu are
U p
m ack
o use
ĠF ur
ĠV I
Ġre chte
ĠAb st
zeit schrift
ĠAnd erson
ĠWerk en
deck ung
Ġhinz uge
ĠInstit ution
---- ----
schlÃ¤ ge
F irst
a wa
e v
et on
Ġst yl
Ġde ck
od ies
ial e
inz ip
Ġper haps
ĠRo om
ĠNieder lage
Mus iker
Ġwind ows
ĠTown ship
ĠErÃ¶ff nung
Ġp ow
ĠK linik
Ġsp rechen
ĠAl p
ĠKont rolle
ĠFÃ¼hr er
M aler
r asch
Ġz Ã¤hlte
ĠJ ar
Ġaus ges
ĠEin sch
ĠCh air
teil te
ĠkÃ¶n ne
Ġke pt
ĠHo tels
Ġstar ts
ĠAlb recht
Ġdist in
Ġwatch ing
kap elle
Ġbal ance
B B
an es
ĠS ul
Ġb ird
ĠP as
ent wick
ĠJ enn
ot ic
ĠFran Ã§
Ġ187 9
ĠEth n
ĠÄ Į
W or
g s
Ġst ick
Ġum fass
ĠPolitiker in
ĠPap ier
Ġmem ory
ĠCast le
ter t
ĠG ab
ĠK Z
Ġum fasste
ret ung
Ġkann st
ĠGesch windigkeit
vers icherung
ĠGroÃŁ teil
Ġsw itch
ĠKrim inal
T L
s burger
un ted
Ġm ental
ĠA ction
ĠW Ã¼rttemberg
ĠJ ena
ien ne
Ġaus reich
Ġsch reibt
iz ien
off s
ĠMinister prÃ¤sident
Erster wÃ¤hnung
z um
it arr
Ġb urn
Ġo d
ĠG ot
ap est
ĠAn gabe
Ġpart ies
ĠEx press
Ġcontra ct
behÃ¶r de
H ein
H inter
c ore
le te
Ġn ennt
ĠR al
Ġg Ã¼lt
ĠO ze
ĠSp ace
ĠAl ph
ĠTh ank
Er gebnisse
ograph ic
ĠGroÃŁ herzog
Ġspe zial
Ġ186 8
Ġneg ative
C up
p ommern
el ine
ĠM u
Ġc e
ĠV it
Ġtem plate
Jahrhund erts
d rÃ¼ck
ĠSt urm
ĠOr den
Ġ7 2
vers ion
ĠVerb esser
gra de
Ġadd ing
Dies er
Ġtre ten
Ġeconom y
ĠPenn sylvania
Ġsatis f
Sep tember
r ale
ĠA ccess
ĠB rad
ad ow
Ġis ol
ĠIn v
ger y
ungs ver
uss y
ock en
ĠKÃ¼ sten
Ġzie ht
Ġmittler en
Ġfa ith
Gen eral
ĠMik ro
M useum
l itz
ĠB och
Ġver urs
St affel
Ġbeen det
Ġserv ing
ĠspÃ¤ter e
ĠlÃ¤ uft
ĠKÃ¼ che
Par ameter
Ġcomprehens ive
f alt
Ġt aste
al and
ro h
Ġc ivil
Ã¶ ck
Ã¤r n
ĠGe fahr
Ġinst alled
ĠSchl Ã¼ssel
ĠDorf es
ĠiPh one
Ġa gency
ĠL isten
esch oss
ĠPl Ã¤tze
Ġgew Ã¤hr
Ġber Ã¼cksicht
Ġpla ced
Ġmark ets
ĠsÃ¼d Ã¶stlich
__ __
ar ks
al i
ĠA D
ĠA u
le ute
ĠL uther
ei he
ĠSch uld
ĠBe geg
me te
ĠWe ek
igt es
Ġbesch Ã¤d
Ġgef ert
ĠOff en
ĠBel gien
ĠMy th
Ġvol unte
ĠPrinz ip
und le
Ġc loud
ĠR och
ĠN ote
op her
Ġsch aff
Ġ9 5
formation en
ĠMin i
Ġvis ual
ĠursprÃ¼n glichen
ĠFel ix
Ġautomat isch
c s
ĠB ade
Ġein schlieÃŁlich
ĠL Ã¤nd
Ġfor eign
ĠSch nee
Ġzu g
art ig
Ġse qu
ĠBe aut
ĠLe o
ss el
ĠIm p
ĠBr ust
hers teller
ĠVarian te
R uss
p her
ĠF Ã¼nf
ĠG ipfel
Ã¤r ten
Ġkeep ing
ĠSyn chron
ĠSpielt ag
: .
k urr
re gel
as i
ÃŁ ig
ĠEin t
Ġsh ipping
Ġaut o
Ġclos ed
ĠGal ax
ĠSec urity
Ġindustr ial
e f
k ov
r ia
ra uf
ĠSp Ã¤t
iz ont
ĠAb out
Ã¼ck en
Ġmin ute
Ġport ugies
Ġfocus ed
Ġbisher igen
Ġcent re
Ġaud ience
Ġschwed ischen
Ġexpert ise
Ġsuit able
Ġverur teilt
e ur
Ġw ire
Ġl ights
ĠZ Ã¼ge
ĠAn f
Ġwas te
Ġvor wiegend
ĠSe kunden
ĠNe ur
ĠFran ces
werk en
ĠViel zahl
ĠImm obilien
Ġbein hal
M ai
or ney
ĠB Ã¶r
Ġv en
ond e
Ġ187 5
ĠHil fs
go ing
Ġadmin istrat
Ġbirth day
Ġnov el
Ġdeta iled
R Ã¶misch
Z wischen
g Ã¤nge
Ġt rifft
und et
ĠT rÃ¤ger
ut y
Ġl i
Ġis land
ĠEr ic
art ier
Ġpl astic
Ġges ellschaft
ĠKl osters
sw ald
jÃ¤hr iger
Ġbestehen den
Ġteach ers
" )
C A
b n
s ein
v inz
ur ies
ĠB io
ĠM iddle
ĠVer zeichnis
och em
ĠGe gend
fen se
fahr ts
Ġverb indet
bes itzer
Ġlaw s
ĠChild ren
Ġreli able
P la
Ġf ederal
ĠK el
ĠN un
ĠSch ne
Ġj o
Ġab gesch
Ġum gebaut
aw n
Ġgleich e
ĠPf ad
Ġspec ies
ĠBi ograph
Ġhoch wert
Ġbrand s
Ġzeit genÃ¶ss
Ġcompon ents
i Ã³n
r ian
ch or
Ġf la
ĠA sh
ĠT oten
ĠR ober
ĠC ert
est and
og a
ff e
ĠSe hen
ĠBes ter
onst ant
Ġdort igen
Ġbegann en
ĠBrÃ¼ cken
Ġsex y
ĠFrei heit
ĠGef Ã¤ngnis
seit ig
Ġpan el
Ġd ance
ĠP av
ĠC H
ach s
ach ing
geb lich
Ġen det
Ġ5 9
Einz el
Ġhel pful
ĠPort rÃ¤t
ĠTer ror
Ġdefin iert
Ġitalien ische
E m
c les
u an
re ffen
ĠF els
Ġst one
ap ed
ran e
ĠEx p
Ġind ic
ĠEl iz
Ġpaint ing
ĠPrÃ¼ f
Ġseek ing
F ol
G rÃ¼
z unehmen
Ġd inner
Ġa ware
ĠW y
ĠC EO
Ġent schieden
Ġrem ove
Ġ186 6
besch reibung
b lock
ĠC ob
Ġch anging
bo den
ĠX X
Ġtechn ischen
ĠGed enk
Ġpract ical
Ġmar ried
Fernseh film
ĠunabhÃ¤ng ig
ĠH amm
Ġl iber
os ing
Ġfl ight
Ġocc asion
kn own
ĠAmts zeit
ĠEngine ering
Ġextens ive
R ock
l iteratur
re ck
ber icht
ĠV ent
ark e
ett a
amt es
ĠAs ian
str umente
ĠkÃ¶nn ten
Ġerforder lich
P aul
l u
ĠO S
ver teid
iel len
Ã¡ s
app y
Ġerw orben
Ġworld wide
ĠWei ÃŁen
Ã¨ s
wor ten
ĠNutz er
Ġleader ship
mod ell
ĠhÃ¶her en
ĠCanad ian
Ġs ustain
ĠB alt
Ġbe comes
Ġer gibt
Ġan lÃ¤sslich
Ġaus ger
ĠVer wand
ĠBro ad
ĠPla ce
ĠIhre m
sprÃ¼n glich
ĠKant ons
Ġgeboren e
Ġrestaur ants
B M
F F
o or
Ġb aute
ĠG abr
ĠE mer
Ã¶ ten
Ġer b
Ġle gend
Ġvor gestellt
cl ub
ĠGemein schaft
ĠGrund stÃ¼ck
ĠCor ps
Film schauspieler
Ġconne cted
} ,
ĠF antasy
ĠO ster
ĠU RL
Ġcon temporary
Ġen able
ĠHe ktar
Ġtr end
Ġenjoy ed
ĠSam stag
gestell te
p ra
v y
es heim
ing ers
sch irm
ĠH agen
Ġj u
ho u
ĠBr uch
Ġfre ie
ĠFahr t
jahr es
Ġgener ation
ĠLÃ¶ wen
ĠS zenen
re land
ĠH rsg
ĠSt aff
ip pen
Ġspe ak
Ch ar
Ġvol ume
Wer degang
d itions
Ġs ample
un er
ĠH ave
ĠVer fassung
19 80
ive au
rÃ¤ cht
Ġdo ctor
Ġgu est
ĠFr ucht
ĠPort al
ot ton
ĠSt unde
if orm
ens es
Ġcolle ct
ĠEv a
Ġaff ect
Ġfav our
Ġestabl ish
Ġchines ischen
ĠerhÃ¶ ht
c an
ie hen
Ġin stitut
Ġf unds
Ġn annte
ak on
ok us
Ġed ge
ĠMill er
Ġpract ices
Ġruss ische
ĠzusÃ¤tz liche
Ġagre ement
B ay
B aden
R S
ĠS auer
Ġver anst
ste ine
Ġqu er
Ġakt iven
ĠgrÃ¼ nd
Ġgele g
Ġjoin ed
Ġspeziel l
strahl ung
A cc
k ar
ĠW hether
Ġre ag
Ġex ercise
Ġch amp
mal en
Ġcont ain
ĠSte wart
Ġra ised
Ġdr ug
ĠRu hr
Ġinsp ired
ĠRog er
H am
Q ual
U I
g in
ĠA ar
st ritten
ĠF abrik
ĠK ul
Ġl auf
ĠN ationen
Ġ18 00
Ġso unds
Ġman aged
Ã¤ch er
ĠCo ast
Ġloc ations
ĠPhil adelphia
ĠAnt i
ĠDar aufhin
fre und
ĠSouth ern
Ġcover age
ĠArrondiss ement
t te
Ġa th
ĠB alk
ĠM ix
Ġn ennen
ĠH T
Ġzu ge
au ert
qu elle
lie gt
ob jekt
Ġ6 2
ĠFor mat
Ġpl atz
lex ikon
Ġsel ber
Ġ: )
Ġprocess es
ĠCor poration
Ġinde x
d atum
Ġc ultural
ab geordneter
ĠVer n
ans ion
ĠEnt wurf
Ġap par
ĠÃĦ gyp
Ġbef Ã¶rdert
ĠBesch Ã¤ft
.: .:
Ġorganis iert
ĠRelig ions
Nov ember
E FA
F r
O K
v ollen
Ġw under
ĠB ath
ĠH em
ĠW ik
ow ohl
eb ens
sp h
Ġ18 40
Ġapp lied
aly t
Ġtre es
Ġrun s
ĠPfer de
ĠUms etzung
Ġflow ers
Ġzentr alen
ĠNikol aus
Ġleit et
Ġacadem ic
b ody
Ġs it
or gt
Ġh ook
ag ers
ĠAn forderungen
Ġle aves
Ġfe aturing
ĠKl ub
ĠBau er
Ge ografie
ĠPre ise
ĠAnt wort
Ġprocess ing
Ġexist ieren
ĠEns emble
n ieder
Ġw inning
re ten
Ġg elb
Ġdes igner
Ġne ck
ĠThe ir
ĠWe il
ĠFre d
Ġgr undsÃ¤tz
Ġacc ident
Ġpol ic
ĠLeip ziger
rech ung
ĠGott fried
Ġbra in
Ġoffen en
Ġans Ã¤ss
ĠKauf mann
ĠGleich zeitig
vier tel
k anz
r ical
t al
ĠG ouverneur
ĠN ation
kt op
Ġr ide
Ġj ack
ant on
Ġgen ug
ĠMan chester
Ġange zeigt
uk i
abin ett
ĠJer usalem
tl ere
ĠAllgemein en
E X
Z eich
Ġd ein
ĠS A
as is
Ġh arm
ĠP seud
ĠF ield
ĠH Ã¤
Ġl esen
ier end
Ġam t
ĠkÃ¶n ig
ingen ieur
Ġgu ess
Ġsozial e
gÃ¤n glich
Ġlux ury
fÃ¶rder ung
J Ã¤hr
c ard
m aschinen
ĠC reat
Ġ18 78
ac ts
Ġfe e
ĠBr es
ĠBr ut
ĠAng st
BevÃ¶lker ungs
Ġconven ient
A kt
K inder
g reg
Ġm ist
Ġm arriage
Ã¤ fte
st ers
Ġp urs
ĠH aw
ĠL uz
Ġk Ã¤mp
gr Ã¼
ĠAl though
Ġex change
iden z
ĠKo operation
umm ern
Ġprot est
b ase
Ġt rop
ĠP ict
ir ts
ĠTh or
ĠNieder Ã¶sterreich
ĠÃĸsterreich ischen
ĠDon ald
Ġkathol ische
ĠVerÃ¤nder ungen
B rand
F est
ig r
ĠH aar
ĠL iving
Ġfor ce
Ġzum indest
igh ter
Ġev idence
Ġmen u
.... ....
Ġeduc ational
gebie ten
Ġpers pect
U L
h ops
ĠB ier
Ġthe oret
Ġde als
Ġr ub
ak u
ell es
Ġar range
ĠFre ist
ĠBes onder
Ġacc om
Ġersch einen
Ġhapp ens
bie ter
P al
or ganis
Ġb itte
ĠT u
ind ungs
auf t
Ġ9 9
opp ed
ĠMark e
Ġregister ed
ĠAutob ahn
W ill
Ġv il
ĠD C
ig ar
ĠP ie
sch icht
sch wer
Ġl abor
tern oon
ĠAus bau
ĠVor bild
rat is
ĠSk y
Ġvisit ing
ĠBern ard
On line
Ġabsol utely
Ġle ather
ile y
Ġ8 8
yste men
Ġob vious
Ġlearn ed
wor fen
ĠOs nab
ĠGriechen land
S ee
s ite
w Ã¼rd
Ġc up
Ġbe we
lich em
gen ossen
Ġge Ã¤ndert
Ġum fassen
ĠPr ix
Ġ186 1
ĠBot schafter
Ġenvironment al
k olle
n g
Ġs am
ĠB at
ĠR ess
ĠR up
Ġk os
ĠOber liga
Ġstatt finden
setz ungen
Ġopt ional
ĠTour ismus
ĠMass achusetts
Ġill ustr
maÃŁ nahmen
ĠBuchst aben
repr ene
O ktober
er d
Ġs inn
ol t
Ġdie t
ĠV ikt
ĠSch ild
sp ect
aus bildung
ĠBe f
lie ger
be zeichnung
ret ch
ĠMe chan
Ġgew Ã¼n
ĠGes ell
ĠLie b
Ġpriv acy
Ã¶h ere
ĠEner gy
ĠMehr heit
r un
Ġh Ã¶ren
ĠG Ã¼
ĠK un
sch le
we ight
Ġwor ry
Ġ6 6
ĠVerb ands
pos it
Ġ187 3
Ġcal cul
Ġcommit ted
mir al
A p
a al
z usch
ch o
Ġd oll
is p
Ġf inn
ig ration
Ġein deut
ĠK ub
ĠJ ungen
19 20
ost ol
che ck
Ã¤nger ung
Ġerreich ten
Ġmag net
Ġsicht bar
K at
l ein
er b
on line
Ġm ort
Ġv s
ab end
od ox
Ġ3 000
iz ona
fol io
oh ol
Ġwork ers
Ġ188 3
pos es
Ġverl Ã¤ng
Ġtrat en
Ġtot ally
ĠKop enhagen
ĠGle is
ĠÃĦnder ungen
a ber
d on
e per
ĠD ick
om it
ĠO der
Ġver gangenen
iz ierte
rit ts
ĠSe en
ĠAus gang
ĠAus stattung
ĠHe art
Ġhier bei
ifik ations
Ġnord Ã¶stlich
Ġdamal ige
Ġwes halb
Ġhon est
Ġunbek annt
H S
Ġo k
ĠE xt
ag on
Ġ5 8
Ġsho es
schn itte
Te il
Ġdiscuss ion
ĠRena issance
h ere
ĠB ag
ĠG T
Ġg ain
Ġaus gesch
Ġr u
iz ist
our i
ĠLe ute
ĠAus zeichnungen
ĠJan e
ĠGrund lagen
Ġverw and
Ġmin or
Ġnational e
Ġmention ed
Â ´
ig s
ĠP el
ĠF unk
hr ten
ĠÃ¼ber w
Ġme x
Ġent lassen
Ġ5 7
Ġ6 3
int age
gor ith
Ġhal b
ĠDire kt
Film titel
Ġlern te
ĠverfÃ¼g bar
M Ã¼n
m ord
w ird
Ġd okument
Ġbe zieht
ens is
Ġtechn ologies
Ġval u
Ġcount y
ĠGeorg ia
ĠMax imil
Ġauth ent
Ġlog o
Ġdoc uments
ĠOrganis ationen
Ġheil igen
zust and
T ER
c ious
Ä Ł
es ota
ĠL ern
ĠBe fehl
elt a
ĠThÃ¼r ingen
] .
f ic
m ans
Ġ( ;
Ġan zu
men ted
se y
rÃ¼ ckt
Ġges te
Ġag ree
Ġmost ly
anc en
ĠDes halb
Ġkomp lex
Amer ican
bro chen
ĠNaturschutz gebiet
ĠNiederland e
ĠKompon isten
B uch
s l
or p
ĠB uck
ĠM ember
ĠAn st
iz ens
ĠBr ian
198 8
wor th
Ġcap acity
Ġident ify
lieder ung
ĠNiederland en
ĠItal ian
ĠâĪ ŀ
ĠKup fer
BevÃ¶lkerungs entwicklung
n ern
it age
Ġh ieÃŁ
ĠL okal
ah a
Ġaus gebaut
iz za
hen den
use ums
ĠAll en
zeug ung
Ġperform ed
ĠSchn itt
ĠStock holm
ĠTschech ien
ĠColor ado
Ġ iron
ĠM az
Ġein s
ĠK oll
ot ograf
Ġauf treten
ĠZ iele
Ġr ing
av or
ĠÃ¼ber sch
ĠEin en
ĠMan uel
ĠX ML
Ġsign ed
Ġzeit weise
ĠWissenschaft ler
H Ã¶r
K unst
he ber
ĠP iet
ĠK ansas
ĠL ED
od a
ĠGem ark
ĠPol icy
unkt ions
ĠKn ow
Ġbef ind
bed ingt
Reg iment
CD U
Schwei zer
b il
d arsteller
h Ã¤ndler
k ind
ĠF as
ĠF ast
sp ir
ĠThe atre
Ġsch lieÃŁen
ia c
Ġwir ken
Ġcon cl
old t
Ġbek ommt
ĠMag azine
Ġbeh aup
Ġappe ars
Ġfield s
ĠCla ud
ĠStad ion
st ar
ĠP anzer
ĠK ohl
ĠE C
ĠL ad
ik te
ĠSch we
Ġver ab
Ġj ump
ult y
Ġeigen er
ĠDo ktor
deutsch land
ĠSam uel
ĠBehÃ¶r den
D ata
h aven
Ġt ickets
ĠP ic
ad i
ĠEin z
ĠLe h
ins on
ĠWei bchen
Ġcontin ued
Ġfilm s
Ġzuf olge
ĠNeust adt
Ġgeleg entlich
n ischen
t ten
ĠB enn
Ġ1 15
ĠG ord
ĠC oll
ĠSch ei
ph il
ĠBer gen
ĠAut hor
Ġact ual
ĠRo hr
ĠEd el
P rÃ¤sident
or ough
Ġ( ).
irt y
ĠMin ute
Ġ| |
Ġ187 6
prÃ¤ senz
Ġimport ance
ĠKÃ¶l ner
stud ium
Ġmanufact uring
Ġpromov ierte
ĠB ele
im er
ĠL ein
Ġge tragen
ĠZ unÃ¤chst
ail and
Ġges prochen
ĠAd ler
ĠBo gen
ĠJuni or
ĠTher apie
ĠAth en
Ġaud io
ĠKommand o
ĠVize prÃ¤sident
ĠGlo cken
E nde
O V
p es
w eiter
ĠA x
ĠN i
pen den
kl ar
Ġapp oint
Ġviel fÃ¤lt
ĠBar ock
Ġfun ctions
Ġcond uc
met hode
B ra
k op
Ã ¦
an teil
ĠA er
Ġc ir
ĠR ies
ĠV iz
be cken
our cen
utz ten
athol ic
ĠDav is
ategor ies
Ġelect ronic
Ġanim als
u i
Ġin tegra
ĠB atter
ĠD ance
ĠT onnen
ĠR he
ill es
Ġam b
ĠKon stant
Ġtr uth
ĠÃĦ hn
ari at
Ġklein es
Ġrep rÃ¤sent
ĠPass ag
Ġrom ant
Jan uar
> ,
e ist
ĠS W
Ġm einen
Ġe ating
th iop
ĠAn erkennung
ĠBes onders
Ġerh Ã¶h
ilit ation
ĠWahl en
ĠNorth ern
verb indung
prÃ¼ fung
/ >
W ien
t op
x y
z ed
am ar
ĠL ed
ĠL inz
Ġwir kt
Ġen ded
Ġmehr erer
Ġra nd
Ġexp ensive
ĠSchiff s
Ġprevious ly
ĠPerform ance
Ġcombin ed
E very
F o
u j
Ð º
ĠSch aden
19 14
auf nahmen
ĠPr ice
gesch Ã¼tz
gesch Ã¤ft
Ġchar akter
ĠNomin ierung
g age
s ing
Ġa st
ie ten
ĠW atch
ĠW itten
Ġg ay
Ġwh atever
ĠGen e
ĠRes te
Ġmin imum
lÃ¤nd ische
Ġmass ive
ĠSar ah
ĠDir igent
ĠZent imeter
Fried rich
r ischen
Î ¹
Ġs um
Ġm Ã¶glichen
ĠK orea
ĠV inc
Ġver teid
Ġse at
ĠAr k
Ġunter gebracht
ĠMar g
Ġvers etzt
ĠYou Tube
ĠKrieg sende
Ġgl ob
dienst kreuz
ĠDu ke
una tely
ĠDokument ar
ĠDenn och
ĠModer ne
Ġasp ects
Ġbeauf tra
m ischen
is or
he w
ĠB ald
Ġein gew
ĠL ob
ĠSt one
Ġre aders
ĠBe weg
ĠIm per
amp s
Ġfe ierte
ock et
ĠMag azin
Ġadv ance
ĠGed anken
gesetz ten
ĠGÃ¼n ter
d orfer
t ario
Ġp ump
Ġn av
ĠH ild
and em
uf er
ĠN on
ĠRe f
ac o
Ġman ual
Ã© d
Ġ7 6
ĠEs c
ĠVerb indungen
ĠRo ute
sw ers
ĠSen ior
weis ung
ĠMaler ei
ĠKan al
ĠMaterial ien
b indung
f Ã¤llen
r ische
at ische
ĠB Ã¼nd
ĠM oh
Ġh ast
ĠR olf
ĠN am
ul ate
ĠHe x
Ġ186 3
ĠDis ziplin
ĠKÃ¶nigs berg
ĠerhÃ¤lt lich
kÃ¼rz ung
ĠGabr iel
È Ļ
Ġs a
Ġf rag
ĠE ver
ĠH alt
ĠSch all
âĢľ ),
ma ÃŁen
Ġtrans l
Ġklein eren
ĠFle isch
Ġinspir ation
ĠUnabhÃ¤ng igkeit
ugos law
D enk
v iel
Ġc ry
ĠC ott
ul ations
Ġan geschlossen
we ar
Ġch airs
geb oren
ĠGra ph
Ġsc ore
minister iums
ĠRuss ian
ĠDi Ã¶z
Welt meisterschaften
Ġunivers ity
Ġcaus ed
Ã¤dagog ik
Ġlau tet
ĠDiet rich
Ġurkund lich
B I
E V
T itel
Ġd iss
ĠL ug
Ġl ernen
ill erie
ĠSe arch
br onn
Ġ186 2
ĠBel g
ĠGest alt
far be
ĠEnts tehung
ĠSing ap
ĠprÃ¤sent iert
ĠSoph ie
c ons
p oint
ol ve
ĠT ho
ĠC it
ĠU C
op Ã¤d
Ġste igen
arb y
ĠStud ent
Ġfl u
Ġbo ys
Ġpar ent
ĠOl denburg
g Ã¤
ĠS endung
el em
Ġc red
ĠF ein
men ge
ĠRe isen
ok er
ph ase
Ġad apt
ĠBl umen
ĠGer Ã¤te
arr ier
fÃ¼ llen
198 6
Ġbro wn
bereich e
forder t
Ġvorhand enen
Ġprepar e
ĠTok io
J uli
on te
le ar
ĠF iction
sch ten
Ġl in
ĠSt ich
Ġi P
Ġle aving
br id
Ġtop ics
198 7
Ġmax imum
ĠJac ques
Ġjapan ischer
ĠMathemat iker
ĠSpring er
Ġuk rain
rÃ¼st ung
er z
ĠM atch
ĠH at
ĠL av
ĠL ov
gen cies
ei ro
19 70
ĠAb stand
ĠUS S
ĠGro ss
Ġho uses
Ġverb oten
Ġsur vey
mÃ¤ÃŁ ige
ĠAlt stadt
Ġthough ts
Bo ot
ĠLate in
Ġbenachbar ten
S m
b ein
ĠD ollar
ig ers
am o
ĠSp eicher
ok u
Ġet hn
Ġteil nehmen
Ġpo et
ĠIst anbul
ĠniederlÃ¤nd ischen
Ġdom ain
K omm
M o
N ode
h ai
ĠM uss
Ġr ental
Ġzum eist
Ġget Ã¶tet
Ġany where
ĠzurÃ¼ck gegeben
ĠpreuÃŁ ischer
Disk ografie
endo ktor
W ird
a ktionen
i ben
Ġs izes
te en
ĠB our
st ate
ĠC er
ĠC os
Ġsp ending
Ġar m
Ġ6 8
iger on
ĠX V
Ġdec ide
ĠWil son
ĠGo ethe
ournal ist
ĠFrei herr
itar re
ĠDrehbuch autor
Ġpattern s
Ġaf ternoon
Ġslight ly
R oman
c os
ĠS G
ĠG au
ĠG anz
ĠW arn
sp iegel
20 21
ĠUm bau
ital ien
licher weise
198 5
ĠMod elle
Ġwrit er
Ġrecommen ded
Ġemer gency
h ain
ĠS z
ĠM Ã¼hle
Ġh Ã¶here
ĠR ent
Ġsch lecht
ungs gebiet
ĠNe use
Ġ6 7
igh ted
verein igung
Ġtyp ically
Ġzentr ale
ĠGÃ¼n ther
ĠDÃ¶r fer
O p
f rÃ¼
v arian
un es
ĠM etz
Ġp m
ul ated
ik um
Sch ule
yl on
ĠfÃ¼nf ten
orge ous
ĠFot ograf
gef angen
Ġbestehen de
Ġfil ter
Ġbreak fast
ĠBil dern
K ap
e ber
ĠK Ã¶n
Ã¼r f
Ġne ut
rit ter
old ing
St ar
ĠTra g
Ġsub sc
Ġgar age
ĠPriv ate
rim in
rim inal
emb ly
Ġwid mete
Ġincred ible
Ġaccom pl
A K
c omp
ĠS end
ĠM ind
Ġc row
ĠG on
ra hlt
ow itz
Ġme ant
form at
Ġ6 9
ĠBundes wehr
ĠMittel punkt
ĠColle ction
deck te
ĠBrun o
ĠPac ific
ĠViet nam
T R
Ġa rab
sch iffe
sch Ã¼tzen
ĠR ats
Ã¶ tt
sp art
19 33
ho e
our t
ĠUnter schied
ĠMus ter
ĠPol ice
ĠSk ulpt
Ġsmall er
ĠSm all
ĠHigh way
Ġkur zer
ĠunterstÃ¼tz te
ĠNS DAP
Ġkom bin
Ġintrodu ced
ĠArg entin
P ersÃ¶nlichkeiten
g ert
p ie
v as
Ġd ipl
Ġin ne
Ġf oll
Ġbe ant
ĠSch aff
Ġver tra
ĠVer stÃ¤nd
00 1
ĠOr igin
ĠBer atung
reis en
ĠZw angs
stra te
Ġrem ains
Ġown ed
Ġsur f
ĠKr one
ĠSant os
ĠKol onial
iar den
Ġdistr ict
Ġclaim s
ĠHon or
Ġingred ients
Ħ ¢
ĠB ene
ĠD inge
st rÃ¤ger
isch t
ĠIn halte
ĠSp irit
Ġgreat est
ĠRes erv
Ġappear ance
ĠPers pekt
Ġbatter y
B rite
H P
it ate
Ġf ein
ĠM es
ut ation
ach ter
ĠN in
Ġy esterday
Ġyo uth
ip edia
ĠAl ben
ian ischen
Ġqu iet
ĠBr idge
ĠAd v
Ġele gant
ĠKur fÃ¼rst
Pr iv
ĠAnth ony
Ġkor re
Ġverwende te
Ġclin ical
ĠDoug las
ĠRumÃ¤n ien
un sten
ĠM S
ĠD id
ĠR ou
Ġbe her
Ġl abel
Ġdem onst
ĠCh ance
rat or
ĠStadt gebiet
Ġro ut
Ġet h
imm ungen
Ġgeb lieben
anc er
ĠRes erve
Ġ186 4
Ġstre am
Ġbefand en
Ġproduz ierte
umin ium
Ġlok alen
- /
H i
b ut
it als
or ps
ĠS we
ĠS ac
ĠD ich
ĠT ool
ĠW ester
Ġunter scheidet
iss ar
ĠGemein sam
ĠĊĠĊ ĠĊĠĊ
Ġfre uen
Ġperfect ly
Ġspecific ally
ĠBud apest
Ġbegleit et
ĠErweiter ung
ĠEntfern ung
o ÃŁen
ch i
ĠP fl
op ath
auf trag
ĠAb stieg
Ġco ast
ĠAus bildungs
rat h
ĠUnter richt
Ġander es
Ġdel la
Ġ186 5
ĠBereich e
197 9
Ġresour ce
fÃ¶rm ig
ĠKolle gen
Ġdur fte
w eiten
Ġf ruit
Ġn ine
Ã¶ te
Ġk ick
Ġe hren
ver lauf
au c
ĠAl f
ĠSpiel klasse
ĠNor mal
Ġshow ed
Ġ187 2
Ġdog s
ĠniederlÃ¤nd ischer
Ġdiscover ed
ĠPremier minister
c in
v et
ĠM obile
ĠSt ore
ĠZ er
ĠEr richtung
ger Ã¤te
ĠIm age
aw ay
Ġwould n
ĠNord amerika
ĠFest ung
Ġwicht iger
ĠPeters burg
ynast ie
E E
y o
ĠS zene
Ġan fangs
ĠBe at
ac ter
Ġ7 00
Ġpla ys
ĠChr isten
Ã¡ r
Or ts
ĠLie bes
ruct ure
Ġschl ug
Ġveh icles
Ġlaunch ed
B ox
P R
S onst
Z e
nd orf
al ia
ĠB oth
Ġr umÃ¤n
pp ing
amil ton
ett ing
ĠHand lung
ĠZu cker
opp elt
Ġlead s
ĠErw Ã¤hnung
ĠTele fon
ĠBrun nen
Ġpresen ce
ĠLux emburg
Ġexcl usive
Ġdisk ut
? )
h y
v ideo
Ġt ail
ĠA z
ĠM aus
ĠD ig
Ġn a
Ġzu gÃ¤nglich
Ġsp ons
Ġgew eiht
Ã¼t ter
Ġ187 7
197 6
ĠtÃ¼rk ischen
h att
ĠP ion
ĠK redit
sch ild
um es
Ġer richten
Ġk g
ĠSch Ã¼l
ĠBe cause
âĢľ -
Ġnot es
ĠSo zi
198 1
ĠHir sch
ĠProm otion
Ġdenk mal
ĠHÃ¶ch st
B u
U l
V ert
in fo
ĠB apt
Ġp utting
ĠP A
ĠT irol
um ps
ĠJ ens
Ġdes ire
Ġr ule
Ġ18 15
ĠMo z
Ġger iet
Ġben annte
ĠDort mund
grenz ung
ĠSchlag zeug
Ġincreas ing
Ġm outh
ĠB ibel
ĠL P
Ġst rip
rÃ¤ umen
atur en
Ġar ts
Ġcl imate
198 4
Ġnor m
herr schaft
ĠAngeb ote
Ġsil ver
ĠMÃ¤nn chen
ĠZus atz
6 00
T ro
b ist
â Ħ¢
Ġw Ã¼n
as sten
il ot
ĠP ut
ĠF ans
ĠC ann
ow o
Ġy ellow
Ġup coming
Ġreg istration
zw ald
por ter
ĠRegion alliga
ĠDem oc
Ġsearch ing
ĠEuropÃ¤ ische
Ãĸsterreich er
J o
ĠB iele
ĠG ymnas
ĠI reland
Ã¶ scht
ĠSt ol
Ġge zogen
ĠIn g
ak et
ĠEr igeron
hl on
Ġad ults
mit ted
ucht ung
ĠHoch schul
haupt stadt
ĠSpr int
Ġfertig gestellt
rÃ¤sentanten haus
Ġneighbor hood
Ġw alls
ĠB ou
ĠK ader
Ġst ars
Ġauf gel
ĠRe kord
aus geber
Ġj ava
Ġsp anischer
ger Ã¤t
19 19
Ã¶r g
ĠLe wis
ĠBer ge
uz z
ĠMeister schaften
fort unately
ĠGeneral major
gebie ts
ĠKons erv
ĠDokument ation
ĠVerd ienste
wach ung
D okument
Y our
j amin
ĠD ampf
ĠH als
Ġe gg
uch er
ĠIn stall
th al
ust on
ĠNe uer
Ã¼nd en
Al t
ider s
Ġsol ar
198 2
the ater
Ġkomp on
Fra uen
Ġdescrib ed
Ã¶rter buch
ĠDrit tel
ĠLiz enz
ĠOrch estra
VerÃ¶ffentlich ungen
H el
e ister
r asse
Ġd ates
or ded
ein heiten
Ã¤ fer
ĠH els
et enz
ill o
Ġsch lieÃŁt
els on
ĠFre itag
entr um
ĠEx ec
ĠUm fang
De zember
ĠMon ument
Ġtechn ische
ÃŃ o
iges etzt
ĠSyn ag
ĠRol and
ĠMiner al
ĠKandid aten
ĠergÃ¤n zt
D u
en ters
us ted
ĠD al
ĠT auf
ic i
ren ce
fin der
ĠBl Ã¤tter
Ġapp s
Ġcons ist
198 3
Ġprom ote
Ġober halb
Ġsug ar
ĠGele gen
A uss
L ebens
U C
k w
Ġge e
Ġpro min
sen der
Ġum ge
ĠCh ap
igh ten
ĠGemeinde gebiet
Ġbevor zug
Ġdat abase
Ġcabin et
d ale
Ġa u
Ġs umm
ĠS ummer
Ġm anner
ĠB aker
ĠK ann
ĠC irc
Ġmit tlere
og el
ĠVer fassungs
Ã¤t zt
ute te
gesch lecht
Ġhand elte
ĠSÃ¼d afrika
ai wan
Ġmonth ly
ilome tern
ĠRechts anwalt
ĠInnen stadt
Ġconcern s
ĠEliz abeth
n s
n ull
ĠM ans
ĠR ainer
ĠV ul
ĠO ste
ĠVer g
Ġ18 30
auf nahme
amm ern
ific ate
ĠFahr rad
esse e
Ġerr or
Ġeinfach e
pre uÃŁen
ĠRegierungs bezirk
Ġvac ation
ĠEreign isse
Ġtemper ature
ĠendgÃ¼lt ig
Ġrap id
Ġb auen
Ġb attle
un fts
ĠW rit
19 39
ĠEin kauf
Ġges und
ĠSÃ¼d west
Pro gramm
ĠGrÃ¼ nen
ĠLebens mittel
Ġsign s
Ġdeliver ed
ĠBot an
Ġcompet itive
Ġcommit ment
Inter ior
Ġinj ury
ĠstÃ¤r ker
ĠB urn
ĠD uring
ĠE g
ĠVerb rauch
Ġcr usher
ĠBed arf
des ign
Ġstrateg ies
ĠWehr macht
ĠF ed
ĠC ommer
Ġbe wohn
Ġst ir
Ġj un
Ġunter lag
ĠFor ts
... ]
oh ne
ĠSal v
ĠProfess ional
Ġaccess ories
scheid ung
omet imes
S ome
as ks
Ġm ine
ĠP osten
Ġan cient
ĠSp aÃŁ
ĠEin stellung
Ġum s
Ġum stritten
lo aded
ĠAus schuss
Ġ6 1
bau en
ĠAmer ika
ĠMark en
ĠÃĸsterreich s
197 5
Ġgele gt
Ġkind s
ĠAben teuer
ĠMem orial
Ġ ..
ĠK affe
Ġl unch
ĠZ DF
up pert
Ġbes etz
man ischen
ĠGeb rauch
Ġrec ipe
spieler in
ĠRes ult
Ġlang sam
ĠInter pret
Ġdel icious
Ġtradition ellen
Ġocc up
K ey
Ġd et
Ġt utor
ĠD un
ĠP age
ĠP ersÃ¶n
Ġre pe
ĠSp uren
ĠEin er
pl ant
Ġbes ucht
hÃ¶r igkeit
ĠGeb irg
ĠÃľber nahme
Ġbo und
ĠHerr n
Ġmag azine
wechs elt
ĠPak istan
Ġbehav ior
Ġpolic ies
O per
h es
it as
ĠT ony
Ġein heit
ĠG ard
ĠK Ã¼hl
Ġz ul
ĠH enn
Ġwe isen
Ġcomp la
Ġcomp let
St at
Ġger inger
ĠReich stag
fre ie
ĠFer r
oin ted
ĠAutor in
Ġemot ional
n ik
ĠD unk
ĠL ocal
Ġk ing
Ġan sonsten
Ġver letzt
ĠSie gen
rol og
Ġmajor ity
ĠGebie ten
Ġposs ibly
leb nis
E v
R T
Ġab hÃ¤ng
ĠAuf ruf
Ġqu otes
ec ted
Ġdar stellt
amer as
Ġho using
Ġur ban
Ġbelie b
Ġallow ing
Ġmein em
ĠMult ic
ĠAnh Ã¤nger
b Ã¼t
m ade
Ġl ibrary
Ġres ume
pro jekt
Ġhin ein
Ġgu itar
Ġschw ere
Ġfamil iar
mÃ¤ÃŁ igen
ĠDis c
Ġarr ived
ĠAud io
Fin ale
Ġproper ly
ĠÃľberg ang
zep te
E B
E t
Ï Ħ
Ġ icon
Ġc ute
ent le
Ġk Ã¼nd
ud ing
ĠAnd rÃ©
Ġsc ale
Ġca ught
Ġdeb Ã¼t
ĠPrinz essin
ĠAth let
Ġausgew Ã¤hlt
iÃ¨ re
Ġflex ible
Kirchen gebÃ¤ude
ĠJord an
Ġschaff te
lie fert
ĠVor stands
Ġ0 5
ĠOber flÃ¤che
Ġakt ual
Ġ186 9
ĠSup port
ĠSil ver
Ġwei ÃŁen
Ġstamm te
ĠStÃ¼ck e
ĠÃ¤lter e
sm ith
Ġverste hen
Ġstellvertreten der
' .
c ase
is tern
Ġf arb
ĠF ederal
Ġst Ã¤rk
Ġde fe
ition en
Ġges ucht
ĠAnd rea
zw ungen
ĠFr iend
Ġ185 7
Ġrepla cement
Ġwirtschaft lichen
ipend ium
ĠBundesver dienstkreuz
Ġvil lage
b undes
w irt
Ġv ent
ĠM all
ĠM aschine
ĠD eleg
ĠF A
ĠR ele
ĠL yn
ĠSt u
ab schluss
ei zer
sp unkt
ob s
ĠAuf l
cl ing
vers orgung
Ġgood s
ĠUr ban
ĠHistor ic
ĠIr land
Ġevangel ischen
Ġhund ert
ĠViertel finale
Ġprem ium
ĠBesatz ungs
ĠRon ald
Rel ig
ĠÃĦgyp ten
A lex
Ġd anger
Ġs au
ĠB arn
ĠK ino
ĠChrist us
Ġ% .
Ġfest gelegt
apt op
Ġ185 8
ifiz ierung
Ġbew usst
h Ã¤usern
r Ã¶
s Ã¤nger
Ġs orgen
or r
he ben
Ġm ont
Ġp ure
ĠV ision
ĠSch lieÃŁlich
Ġpro pos
Ġ8 2
ĠBr enn
Ġerw eiterte
ĠReich es
Ġbef re
sprÃ¼ che
ĠFass ung
W as
b ing
Ġs ang
ĠM ul
ĠT s
ĠJ oh
ier er
Ã¼r tel
ĠGe or
ĠMit tler
chn ungs
Ġlie ÃŁen
ĠMus ical
ĠNatur al
Ein wohner
Ġhistor ical
Ġeinfach en
ĠProt est
ĠIndustr ial
ĠverstÃ¤r kt
Ġhundred s
Ġabger issen
ĠLÃ¤nd ers
H ans
d ra
m aschine
w inkel
Ġd Ã¼n
an alyse
un nen
el ing
Ġm ale
ĠB ret
ĠT ransp
am ik
ent ially
ÃŁ er
Ġhe ight
ĠY am
Ar beit
ĠKn ochen
gele hnt
ĠRein hard
Ġtele vision
ĠMom ent
Ġzuk Ã¼nft
L ook
L isten
R ed
ur ger
el ement
ĠB ah
ĠW art
ĠSt att
Ġzu gehÃ¶r
Ġaus fÃ¼hr
Ġch osen
ĠSe ele
Ġco ordin
port al
ĠOrt schaften
ĠBi ografie
ĠCont ent
book s
Ġexam ples
Ġarchite cture
ĠlÃ¶ ste
ĠNap ole
Ġconduc ted
A ss
V om
g ler
w affe
Ġin fe
Ġf ellow
ĠN C
ĠJ r
id i
19 30
ĠUS B
fahr ten
Ġsc re
Deutsch e
Ã¨ re
ĠAuss age
forder ung
ĠKat alog
ĠQual itÃ¤ts
wh at
ĠDi agn
ĠBu ilding
ĠTest ament
ĠPreuÃŁ ischen
Ġerlang te
Ġbeinhal tet
S L
ĠB ush
im o
ers te
ĠZ usÃ¤tzlich
ĠEr furt
ĠAl les
etz ungen
ĠNe ug
Ġmin i
Ġlo ad
197 3
ĠTH E
Ġappreci ate
ĠverlÃ¤ng ert
O Exception
l s
Ġd ritt
ĠS ain
al ters
re iter
ĠP az
ĠP okal
Ġ( ),
ĠH ope
ĠL iv
Ġer geben
19 78
Ġch ocol
ĠMar sch
ĠFor der
ank a
Ġerfol gen
Ġbuild ings
197 4
ĠSied lungs
Ġmanufact urer
ĠVerl ust
abet es
Tod ay
ĠKonstant in
p iegel
s Ã¤tze
it iat
ĠT Ã¤ter
ĠL ess
ĠC laus
ĠZ ell
od ge
tell ers
ĠSchw anz
stra ct
Ġbo at
ÃŃ k
ĠRegel n
Ġenter tainment
zir ke
ĠSpan ish
ĠOsnab rÃ¼ck
A ccess
c lass
i ang
ĠS ache
Ã¼ re
Ġein gest
ĠF alle
ra f
ĠW end
and in
ĠAn alyse
Ġcon text
ĠAuf tritt
Ġqu e
ĠFre md
Ġgesch ieht
Ġhin ten
buch autor
ĠPsych ologie
ĠEmp ire
Ġupd ates
Ġkont roll
cep ts
H C
M ain
is burg
ĠK ugel
Ġlie genden
Ġ16 0
Sch l
Ġother wise
ific ations
ĠRes p
Ġgewann en
fil me
ĠPrem iere
Ġlate in
beg inn
ĠSehen swÃ¼rdigkeiten
R C
on c
ĠS K
ier mark
Ġst imm
op ran
ib ilities
Ġsch Ã¼tzen
tell ungs
ĠIt aly
Ġend lich
ĠSom it
lah oma
Ġadvert ising
Ġinstr ument
Ġan imal
Ġpro fil
Ġnach gewiesen
ĠAr izona
Ġco ck
ĠAus fÃ¼hrung
ĠKl eine
ĠKon zentr
Ġsup ported
Ġpresent ation
Ġbreit en
figur ation
Ġfeed back
Mich ael
Ġinfluen ce
j ahre
Ġt end
te e
ĠD B
ro d
ĠG letscher
Ġdes selben
ĠVer z
ĠCh a
ĠNe ck
Ġpr inted
Ġgen annte
wend ungs
ĠÃĦ m
Ġbro ther
ĠVolks zÃ¤hlung
ĠMeer es
W ell
| -
Ġin nen
Ġf f
Ã¼ ch
ĠM obil
Ġh ire
ĠK ond
ent liche
em y
Ġan f
Ġst unning
sp reis
ĠSp ur
ok oll
iz ieren
ĠStud ios
Ġgleich er
Ġphot ography
ĠCom ic
197 2
Ġple ased
Ġbegrenz t
ĠMaximil ian
D C
z ing
or chester
ar ett
ĠM A
Ġh yd
ĠR ome
Ġfor mal
ĠZ weig
Ġr ise
19 25
Ġen co
ĠJul ia
Ġerw artet
Ġbeste hend
ĠHal binsel
Ġhol te
ĠContin ue
ĠÃĦr zte
waren ess
ĠLeichtathlet ik
G C
l Ã¼ck
Ġw al
re uth
ĠM Ã©
Ġto ugh
Ġver haf
Ġab ges
enn zeichnet
ĠGe fe
Ġfe es
rich ts
ĠĊĊ Ġ
Auf grund
Ġoffen bar
ĠSym ph
ĠLim ited
ĠVerl Ã¤ngerung
Ġinnov ation
ĠVert rieb
Ġexpla in
Ġposit iv
Acc ording
m ach
p unkten
in ne
ĠV i
Ġzu gelassen
iel l
ĠAn k
ĠÃ¼ber gebenen
Ġwe aring
Ġex amin
Ġunter wegs
ĠHand werk
ĠCar los
ĠOn tario
ĠMill ion
Ne u
Ġ185 9
Ġerfolg reichen
ĠursprÃ¼n gliche
Ġfeature d
Ġscient ific
ĠB ein
Ġv i
il st
ĠK av
ĠR ain
ĠC her
Ġdem on
Ġle ider
ack s
pr int
Ġ9 6
Ġ7 7
ĠCo up
Ġmo de
Ġbekannt esten
Ġcho ices
He ute
isc ons
Ġhold ing
ĠSum me
Ġkanad ischer
Ġverwende ten
ĠPfar rei
ĠEber hard
Ġenh ance
D ire
Ġd os
ie ck
Ġf aster
Ġthe ory
ĠD M
ol s
hr ung
Ġbe ar
ip er
ru gen
ond a
fr ies
iam i
Ġ185 6
ĠTem pel
gÃ¤n z
ĠSilber medaille
Ġther apy
ĠKommand eur
ĠMun icip
h yth
y pen
Ä Ļ
Ġt ab
Ġs ink
ar ily
ro v
Ġp ed
ut ors
Ġg orgeous
ĠO m
Ġr uh
ĠDie go
Ġsch eiterte
Ġdies mal
ĠMit be
ĠEx c
gew inn
ĠParis er
ĠTechn ischen
ĠZe aland
ĠPrÃ¼ fung
ĠAtlant a
ĠKonfl ikt
M ore
n isch
Ġt om
ur i
ĠA cker
Ġv ieler
ĠD oc
Ġc ells
ĠK rÃ¤
Ġz entral
ĠW Ã¤l
Ġl ived
Ġk it
ĠâĢ Ļ
Ġis rael
ĠIn stanz
lin s
19 38
hen de
Ġch ron
Ġmus ical
Re zeption
Ġmin im
ommer ziel
Ġbring ing
ĠWinter spiele
ĠTre ffer
Ġern annte
Ġbestand en
Ehr ungen
ĠKÃ¼nst lern
L P
S an
g ard
k la
x id
Ġa kadem
Ġs ad
ĠD ienste
ĠK ro
ĠH ills
ĠC P
ĠSt ars
if ff
ĠEn vironment
In nen
Ġ7 1
man uel
Ġ0 4
ĠpersÃ¶n liche
Ġsym pt
Ġspeziel le
ĠClass ic
Ġtal ent
Ġdepend ing
Ġsurround ing
P at
un en
us ste
ĠD OC
ĠF ellow
im it
ber uf
Ġk Ã¼
id ays
Ġr an
Ġle hrte
ov ice
Er zeugt
Ġverb lieben
ĠOn ly
Ġconf idence
Ġzwe ier
ĠEben falls
Ġengag ierte
profess or
ĠRuh estand
D is
p per
z ant
Ġa gr
Ġf unny
ĠA uÃŁ
ĠP s
ĠG ieÃŁen
ĠL eder
Ġto ward
ĠN at
ul iert
Ġde ut
ia de
Ġsh ares
fÃ¶rm ige
Mart in
B re
K W
Ġin ternal
le gte
Ġv ary
ro vers
ĠK Ã¤rn
sch reibung
Ġst ain
ĠSch atten
ran Ã§
ud a
Ġ3 50
ĠJahr buch
Ge org
ĠPart ien
Ġpolit isch
ament o
Ġcle arly
ĠSa al
Ġpres ents
fried hof
ĠBahnhof s
Ġged reht
Ġallgemein en
Ġfinanziel len
D av
F S
P okal
Ġ 00
in yl
Ġs essions
Ġin vent
ĠT unnel
am ents
ĠG lÃ¤
ĠDe finition
Ġte eth
ĠWe iler
Ġ8 7
An fang
ĠSk i
Ġav ail
ĠGu ard
ĠSer ge
ĠSol ar
ĠBaum w
Ġautomat ically
ĠMinn esota
Ġrand om
Ġt ight
ĠS ite
ĠE ro
ĠGe werbe
per iode
co hol
Ġgen et
ĠTr ip
bild ungen
hed rale
Ġbef est
ĠVe gas
Ġmiss ing
Mot or
ĠVerantwort ung
ĠdebÃ¼t ierte
L ast
S ince
g i
he ater
ĠB itte
kt oren
Ġver teilt
Ġj ener
Ġch ain
ĠWe is
Ġout standing
ĠPr ior
ett i
Ġpre gn
ĠUm gang
ĠMon ats
Ġdec isions
ĠSk la
ĠWohn haus
ĠSol o
geord nete
ĠComm on
ĠKe vin
Ġgelang te
Ġwissenschaft licher
Ġausgest rahlt
ĠAust ausch
qual ity
Ġanerk annt
ĠgrundsÃ¤tz lich
G ener
L ud
Ġa ges
ĠB od
ĠT ran
ĠF res
ĠL ac
ic ient
od ie
19 26
Ġlie fer
ĠfÃ¼hr enden
kehr t
Ġcre ation
197 1
ĠHei z
Ġexec utive
Ġforder te
Ġpleas ure
Ġgespe ichert
' ,
) -
p ap
ĠP le
Ġ( "
ĠJ Ã¤ger
ien te
Ġsp aces
19 29
ĠTh ailand
gre es
nehm ung
Ġsuppl ies
ĠKapit Ã¤n
liefer ung
T P
z ucht
in ary
Ġd eine
Ġs at
or ch
ĠA ur
ĠA ge
Ġp ink
ĠP ad
ĠW ird
ic z
Ġk irch
Ġan swers
gen s
Ġ8 4
Ġ12 5
ende te
Ġdec ades
gra fen
ĠRu he
lad imir
Ġintens iv
Wil helm
G ymnasium
R ennen
er ten
ĠB ow
ĠM ie
Ġp apers
Ġc os
ĠK G
ĠK ai
sch rank
ĠL aus
ĠN ad
ĠRe aktion
Ġch arm
rÃ¤ um
ens burg
ian e
ĠDeutsch es
ĠPl ant
fahr ens
Ġ14 0
ĠPol ize
Ġsol cher
ĠChar ts
fre ien
Ġsw imming
Ġangeb racht
Ġparticip ants
ĠErinner ung
W ei
Ġm ac
le ide
ĠB uk
ro it
Ġbe at
ach el
ĠO ption
ĠSch icks
Ġsch Ã¶ne
bar er
Ġho tels
ĠGen f
Ġ185 5
ĠPosition en
Ġbede uten
ĠjÃ¼d ische
Ġlic ense
ĠAf ghan
cycl op
Ġepis ode
F ranzÃ¶s
H A
Ġa fr
Ġs ud
ĠF la
ĠG ert
ĠI gn
ĠL och
ĠJ ubil
Ġra ise
sh ips
ĠMed icine
ĠMo de
197 7
ĠOl iver
Ġtrotz dem
reu ung
Hinter grund
Ġgefert igt
D ivision
M erk
b org
d ung
y k
Ð »
Ġf uel
Ġf ishing
ĠW under
ver lÃ¤ss
ĠTr ust
Ġehemal s
ĠMag d
Ġ185 4
ĠForsch ungen
Ġevent ually
ĠAc count
Ġausgeb ildet
ĠJahrzehn ten
htt p
I K
O s
Ġp oll
Ġh l
ĠK h
Ġbe it
Ġst Ã¤ndig
af Ã©
ĠSch um
Ġ18 20
Ġdurch aus
az itÃ¤t
ĠFor est
Ġber u
act ions
ĠAll gemeine
sport ler
Ġbil deten
wei ÃŁ
ĠZe hn
mo der
Ġceleb rate
ĠLeg isl
ĠHei de
Ġbeeinfl usst
stechn ik
Ġconstant ly
ĠKard inal
Ġw ollten
ĠA V
ent ums
ĠI owa
ĠL ust
ier endes
ĠBer ater
Ġour selves
pro zess
ual itÃ¤t
min der
ĠUm feld
ĠSpiel film
Ġakt ive
ĠBen jamin
ĠTyp s
Ġarch Ã¤
Ġamer ikanische
Ġhon or
ĠLaur a
cep ted
A ustr
ĠP ader
ĠT an
ĠK Ã¶
Ġz ogen
ĠW at
ĠAn lass
elb ourne
off izier
ĠChrist opher
ata illon
Ġlang er
ĠMill iarden
ĠFo x
onstru ction
fÃ¤h ig
Ã¸ r
ĠCons erv
ĠEigent Ã¼mer
ĠKonzer te
Ġopin ion
J azz
K lass
L og
S chn
c ers
h Ã¼tte
Ġf ro
Ġf lav
ĠW ars
Ġle gen
ĠDe ath
Ġch annel
Ġvor kommen
berg s
Ġher um
Ã¶ff net
Ġtr ends
Ġevery day
sche f
film ung
Ġ180 6
ĠGraf ik
ĠSchwar zen
Ġwhe el
W ind
g ast
m os
ĠS ams
Ġp fle
ĠK orn
em an
ĠC hl
Ġver p
Ġab gest
ss ystem
Ġbut ter
stit ute
Ġstatt dessen
ĠBot schaft
ĠKult urg
Ġsowjet ischen
Ġak zept
ĠEas tern
ĠHig hl
E p
ĠM ort
Ġc raft
op en
sp itze
Ġnach halt
Ã¶r dern
ob i
ĠAus gaben
Ġdr ivers
deutsch er
Ġinterest s
ĠverfÃ¼ gen
Ġlif estyle
ĠRail way
vorsitzen der
iscons in
K e
O h
Ġ ).
ĠS M
ein st
ĠB ibliothe
Ġh all
ĠH ad
ĠC urr
ĠN erv
ab len
all as
qu ote
Ã¤hr en
ĠVor bereitung
ĠKl ang
Ġra il
zy kl
Ġrespons ibility
Ġmeas ures
ĠHoff mann
ĠGirl s
Ġprovider s
frist ig
S ervice
T E
h Ã¤
ĠA la
ĠK inos
Ġl ift
Ġth ick
Ġr iver
Ġ18 49
tra ck
als ieger
ĠAd resse
Ġem ph
Ġ13 0
unk er
ĠPf alz
ĠWh ere
ĠAnt rieb
Ġbre ite
ĠAnfang s
wh ile
ĠHin weise
ĠdÃ¤n ischen
U nd
d ies
s sen
t im
ĠB ast
Ġv ul
Ġv ital
ĠF an
ĠR ic
ten ding
Ġbe igesetzt
ĠJ Ã¼d
Ġdes pite
Ġre ichen
ver hÃ¤ltnis
Ġwh om
Ġhe ft
ĠAd vent
ĠAnd ere
ĠÃľber sicht
Ġgel angen
ĠAll tag
Ġact ions
app ing
Ġmach ines
ĠBi ographie
Ġhouse hold
ĠStat istik
Welt meister
Ġfix ed
telligen ce
ĠBiele feld
S aint
in th
ch ar
ch nen
Ġb owl
as a
ĠD ating
ig i
Ġc and
Ġc utting
ĠP y
ĠP ho
ra gende
ĠH ang
ĠR ÃŃo
Ġg estorben
Ġk aiser
19 27
ĠDe kan
St a
Ġpl anned
An gabe
arb rÃ¼cken
ĠHÃ¶ hlen
ĠDes igner
ĠEv ents
ĠHil f
Ġverkauf en
ĠRÃ¤ ume
rupt ion
ĠAdmin istration
Ġin folge
Ġg aben
ĠC art
Ã¶ ger
Ġst arten
old s
ĠUS D
Ġgesch lagen
ĠJohann a
gele gten
Me hr
ĠNeu zeit
ĠFel der
ĠWeiter hin
Ġfund ing
gewand elt
Ġkauf te
jen igen
Ġvalu able
b ringen
p rechen
Ġd az
Ġf er
ĠB ibli
Ġp ic
ĠF I
ĠN assau
ab schnitt
fe ktur
Ġ9 8
Ġbeg ins
ĠHand ball
rue ft
ĠHÃ¶he punkt
Ġmanufact urers
Ġrev olution
ĠMÃ¤r chen
ĠBam berg
F rÃ¼
P ress
U M
k ol
Ï Ĥ
Ġb an
ĠB orn
ĠB BC
ĠD ave
Ġp ush
ĠF ont
ĠL Ã©
ĠN ich
ĠJ am
Ġver grÃ¶ÃŁ
ĠAn z
Ġsp r
Ġbes ie
Ġad s
Ġdis p
Ġ% )
ĠKreis es
Ġimpro ved
ĠStÃ¤d t
Ġparticip ate
Ġsor gt
ĠGemark ung
Ġs ac
al ition
ĠB erk
ĠB ird
ĠD afÃ¼r
ĠRe formation
19 28
ĠDe f
Ã¤ch te
ĠEl s
Ġbesch loss
ĠLin den
Ġkon kre
ĠTre ffen
ĠHen ri
Ġpurch ased
Ã¼ste t
Ġreach ed
Ġfrei will
ĠAT P
Ġinstru ctions
Ġconsum ers
ĠGreg or
Ġaccur ate
a ire
in ent
Ġs in
ar us
le ts
ĠB ase
ĠP ont
ĠG itarr
om ing
ĠH amilton
ver m
ĠSch enk
Ġor th
me ier
me yer
hal ter
ĠSie ge
ĠMar sh
tem peratur
ĠPar allel
Ġpl ug
res te
ĠArbeit sk
ĠHar vard
Ġcall ing
ĠEt appe
ĠRaj on
merksam keit
ĠExec utive
E hren
O f
O ver
S im
m ung
u ers
ie u
Ġv eter
st ances
ĠT Ã¤n
ĠJahr gang
Ġvor der
ĠTh ree
ĠHe ck
ĠGra nde
Ġag ent
ble iben
Ġda ÃŁ
bo ot
ĠFranz isk
lÃ¤nd ern
ĠSpe ed
ĠSieg fried
ĠEben so
ĠWissen schafts
Ġwirtschaft liche
eme ister
ĠKath arina
ĠWÃ¤r me
g asse
z ellen
Ġd ental
Ġf urn
ĠB ull
Ġv ote
ĠG oth
ĠW ende
ĠL iss
la ce
ĠSch la
ok es
ĠBe ispiele
ĠOr th
Ġwieder holt
ĠOber bÃ¼rgermeister
ĠSÃ¼d ost
ĠBet on
glieder ung
umb oldt
Ġkommen den
ask et
Ġlik es
het or
ĠUms atz
Ġcloth es
ĠKomment ar
angeb ot
writ er
ĠBac ch
ĠGord on
L ie
ĠM ine
ĠV II
ann y
Ġne arby
be griff
Ġum gesetzt
geb ra
co uver
Ġfe els
ĠKunst stoff
reg on
ĠRom a
ĠDo zent
ĠLandkreis es
ĠZug riff
hÃ¶ fe
Ġjapan ische
Ġbedeut ende
ĠRÃ¶ mer
ĠIll ustr
BÃ¼rger meister
spar tei
D V
Ġt ur
ĠK itchen
ĠR ug
Ġg olf
lin ed
ast ik
be c
hal f
Ġ5 000
ĠMus lim
Ġass ign
Ġstatt f
ĠbeschÃ¤ft igte
ĠProgram me
Franz ose
Ġt ast
or er
ĠS Ã£o
Ġin tended
Ġv ib
ig ran
ĠH ind
os ite
la de
Ġre ar
Ġst retch
ĠSch Ã¤d
Ġwar um
19 24
ĠDe ad
Ã¶r te
Ġ0 9
Ġdire kten
ĠverÃ¶ffentlich ten
ĠKind heit
Ġfort an
Ġexhib ition
ĠExempl are
D ur
D ialog
F ebru
ĠB arb
ĠP ixel
ĠK Ã¼r
ĠL uk
ĠV ide
ier re
Ġk Ã¶rper
ĠZ auber
tel ier
ass te
ok a
ok umente
ĠAl ber
ĠMar cel
Ġmy ster
Ġfe hlen
ict ions
Ġed itor
Ġreal ize
Ġsupport ing
ĠHerr scher
Ġpur poses
ĠAcc ording
ĠBesatz ung
ĠFert ig
ĠTrain ings
A re
Ġd ent
Ġw et
ur st
st art
ĠP i
ra it
la ut
ĠSch reiben
be y
Ã¤n glich
Ġwill ing
rÃ¤s id
Ġgel aden
ĠIns besondere
Ġintegr iert
ĠPublik ationen
ĠHeer es
S M
S owjet
a ult
m il
Ġf ell
el in
ĠD I
st ufe
ent h
ĠH imm
ĠW ais
ic ts
ĠV irt
ĠO ak
Ġab sch
Ġwe chs
ĠPl Ã¤ne
Ġ7 8
inn ers
ock e
ĠVers icherungs
ĠVe ter
hor st
ĠGre if
ĠDemokrat ischen
ĠMÃ¤nn ern
ĠBeteil igung
b Ã¤
k W
k ette
p flanzen
} .
is is
ar isch
Ġh Ã¤ngt
ĠP unk
sch ritt
ien e
Ġsch Ã¶nen
Ã¼nd e
ipp i
ĠPat ri
ĠDaten schutz
Ġkeep s
Ġgar ant
ĠKat zen
ĠFlor ian
ĠEmp f
ĠpersÃ¶n lich
Ġpoln ischer
tor hÃ¼ter
Ġstaat lichen
ĠFranzÃ¶s isch
ĠNahr ungs
ĠChallen ge
Ġbayer ischen
ĠFranÃ§ ois
B Ã¼
b ett
y ard
Ã ī
un sel
Ġf ly
le ten
ĠB ran
ĠH inz
ĠW Ã¼n
ĠV ic
Ġe ast
ens ed
ĠAus wirkungen
ĠVor teil
amm elt
Ġget roffen
ĠEx tra
Ver walt
ĠWil helms
Ġconc rete
Ġlov es
Ġerm or
ĠFrei will
Ġreturn ed
kathol ische
fÃ¶rm igen
ĠAltern ative
Ġlandsc ape
ĠabhÃ¤ng ig
F i
m Ã¶glich
p ur
Ġa id
Ġa gencies
ĠC ab
Ġbe zogen
Ġst abil
ĠSch mer
gr at
ĠSe kretÃ¤r
Ġ8 9
Ġgesch Ã¼tz
Ġverb esser
ĠMon uments
Mit tel
other apie
Pro jekt
Ġter min
Ġappro ved
196 8
ĠEhe mann
ĠKategor ien
Ġeffic iency
Ġaktuell es
ĠRis iko
ĠAufent halt
Ġdenkmal geschÃ¼tz
H al
J J
L o
k al
n el
Ġt ests
an on
ein trag
Ġm Ã¶gliche
ĠM esse
ĠM ethod
ĠF act
ĠU d
Ġfor ces
tel finale
Ġbei der
Ġ7 9
Ġrec orded
ĠSh ort
Ġgesch Ã¼tzt
Ġmach ten
Ġander erseits
war ded
ĠAp othe
ĠDis ney
ĠKaiser reich
ĠAk k
ĠCamp us
ĠExper ten
ĠPfer d
Ġencour age
Ġuntersch rieb
N ummer
s Ã¼d
ĠA y
ĠB ry
ĠB row
im ental
ug uay
ele kt
ĠZeit schriften
ĠAss istent
ĠTechn ologie
Ġ185 1
ham mer
Ġask ing
ĠMotor rad
ĠÃ¼b lich
ĠEvangel ischen
Ġkanad ischen
Ġvirt ual
Ġverhaf tet
ĠEro ber
L iter
m outh
z lich
Ġ ==
Ġp reis
Ġst yles
ver letz
ĠSch re
Ġr id
qu ar
qu et
Ġ18 18
Ġ18 47
ĠBe frei
ĠAl an
19 44
Ã¶n t
auf lÃ¶sung
ĠVor stellung
unt ing
ays ia
ĠEl f
Ġtr ial
Re gie
Ġhier fÃ¼r
yr ight
plic ation
ĠGold medaille
ategor ie
Ġmess ages
Ġbem erk
ĠeigenstÃ¤nd ige
fir ma
ĠVerbesser ung
o a
er ung
or ter
ĠB ody
Ġv ierte
Ġp un
Ġk omm
Ġk inder
19 10
ult an
ong s
Ġres idential
Ġbet reibt
pro ble
Ġseit her
gesch icht
ĠSta ates
eth yl
ĠAuss tellungen
Ġappe ared
Ġcook ing
ĠHit ler
ĠGebÃ¤ udes
ĠSqu are
Ġfavour ite
A uÃŁer
T rans
V iew
i u
ĠS v
Ġp Content
ĠG az
Ġk Ã¼rz
Ġfor ec
Ġcon fl
ĠMar x
ĠMa de
Ġ8 1
Ġ0 8
ĠHaus halts
Ġbra ucht
frei heit
Ġtrain ed
ĠTenn essee
I st
z uge
ĠS ort
ĠH ed
ĠR E
ĠL aden
ĠJ Ã¼n
sp olitik
ht ml
ĠUn ser
own ed
Ġmehr mals
ek ing
stit u
ĠWest falen
ole an
ĠPlan et
Reg ion
Pl an
ĠeuropÃ¤ ische
Ġintrodu ction
Ġseem ed
Ġschwar zen
ĠBoch um
opÃ¤d ie
t ums
or ium
Ġb ike
ĠB auten
ĠE N
ĠH ack
ĠN ash
ver k
Ġver arbeitet
ĠVer tre
ĠVer leger
Ġj oy
19 40
ĠMar io
als o
Ġdis count
ĠSpiel s
Ġstand ing
ĠWerk statt
Ġgest alten
ĠAp oll
ĠZeich nungen
ĠWochen ende
Ġleg isl
ĠBox er
Ġcirc um
Ġunters ucht
Fo otball
Ġfoll ows
G al
R om
s ub
Ġw omit
st Ã¤rke
Ġein erseits
ĠF ame
ĠK abinett
sch el
Ġan gel
ĠZ it
Ġis lam
19 12
19 13
ru cken
Ġum gewandelt
Ġvor genommen
ph ones
ĠSte el
15 0
Ġsc ript
stra fe
ĠÃĸ k
Ġfl ower
Ġcare fully
Ġentwick elten
Ġ185 3
Ġiss ued
Ġimpro vement
EN T
Ġfit ness
Ġfund ament
Ġabsol ute
ĠVil lage
Ġcollabor ation
Ġgez Ã¤hlt
Ġguarante e
D am
D oc
c al
n isses
y ll
st ens
ĠT ype
ĠI F
ĠW i
ĠC in
ĠC ass
ĠC ase
ĠIn schrift
Ġde part
Ġde grees
Ġne ur
Ġor ange
19 22
ĠAr z
Ġcon v
ĠSe ktion
ĠAuf merksamkeit
olog ien
gesch ichten
hand lungs
ps ych
Ġshe et
arch ie
ĠKirchen gemeinde
190 1
Ġsecond s
Verein igtes
Ġherv orge
ĠPhys iker
Ġevangel ische
Ġcaus es
national spieler
ĠGlauben s
ĠSchwier igkeiten
K ar
Ġw Ã¤hlen
ĠS eminar
Ġf ach
Ġder selben
ĠB usch
ĠW he
ic als
Ġg laub
ber ry
Ġk illed
ĠSt imm
ĠEr werb
ĠBe h
Ġent worfen
pe te
Ġnot iced
Ġte a
ose x
stell ungs
Ġcomm and
Ġben ch
ĠSal es
ey er
Ġbro ken
Ã¶h le
Ġnational sozial
Ġ180 3
ĠSpe kt
Ko ordin
ĠScot land
T it
k rank
l isten
w affen
Ä ħ
Ġs ides
Ġs itting
te ger
at ischen
le un
Ġo lymp
ĠK ot
Ġun gewÃ¶hn
ĠRe ktor
Ġj ung
19 11
nis sen
Ġdar um
min a
ron ik
lÃ¤ uter
Ġac counts
ĠHaupt rolle
Ġspe aking
Ġbr ill
ĠBad minton
ĠFrÃ¼ hl
Ġdistrib ution
Ġath let
I X
b urn
k orea
m utter
u ing
Î ½
ĠS ingles
ĠB og
Ġh yp
ĠL ith
Ġver an
Ġhe aring
Ġle tt
nen nung
Ġgew id
ogra pher
Ġletz tlich
Ġgu ter
Ġinv ited
Ġsur gery
plic ations
Ġclass room
196 9
Ġerk enn
Produ ktion
komm ission
Ġreduz iert
Ġcandid ates
Ġperspect ive
l ov
ĠS or
ĠS ide
Ġf lag
ĠP ick
Ġein gebaut
ĠV ene
eb au
we iger
au ben
Ġ3 60
19 36
ĠKon text
ĠTr in
ĠGer Ã¤t
ax oph
ĠVers orgung
olv enz
auch en
Ġmot ion
Ġrepla ce
ĠGemeinder at
L uft
R eich
m lich
ĠB ismar
ĠH ess
Ġbe zÃ¼glich
Ġre iste
ĠZ iegel
ĠEin zugs
ĠNe xt
Ġro w
Ġnoch mals
schie de
Ġwel chen
ĠChrist ine
ĠQu ell
Ġange passt
ĠEv alu
Gr und
ĠWahr heit
Ġdraw ing
Ġregular ly
ĠMÃ¶ bel
M any
d ner
g io
w ass
z ut
ar ischer
ĠS ysteme
Ġm a
Ġm ent
sch ungs
ĠW esentlichen
and al
ĠN AS
ul der
ĠU A
Ġun less
ĠAl ice
Ġvor Ã¼ber
ĠCar lo
Ġdire kte
Ġsk ill
ĠUr sprung
Ġturn s
Ġemploy ee
plan ung
Arch Ã¤
wÃ¼r fe
ĠMerk male
ĠCost a
F eld
L S
M at
S aison
n ord
Ġd ick
te ine
Ġm Ã¤cht
ĠB att
ĠH ass
ĠR ight
Ġto urn
Ġk onserv
th en
Ġr are
ĠTe uf
ele y
ĠPar ks
sh ow
hand elt
Ġbel ief
ĠGesch lecht
Ġsol o
ĠÃĦ l
Ġgl ad
stre am
En g
Ġ185 2
ĠDire ct
ĠKommun ikations
ĠFil men
ĠVorsitzen de
Mod us
pass te
UN G
ĠDub lin
ĠSchott land
ĠsÃ¤m tliche
Ġbon us
l at
n ur
r ations
y an
Ġc orn
ĠG ur
ĠG Ã¶r
ĠG rant
Ġg g
Ġl aufen
ier bar
Ġan grenzen
Ġj oint
ĠVor name
Ġqu ote
eld ungen
iste te
Sch utz
Ġgel iefert
Ġmin ing
Ġmin imal
Ġwichtig ste
Ġverbess ern
andin av
ĠBacch aris
L ou
O B
W ar
Ġb at
ein richtungen
le hnung
ĠB uen
ĠP ool
ĠG ol
ĠK roat
ĠE cke
ĠC arr
Ġl agen
ĠSt ifts
Ġaus gewiesen
Ġsp ann
19 21
ian z
Ã¶l be
Er stellt
Ġsup ports
ĠVol ume
ĠDurch fÃ¼hrung
Ġcar ried
Ġfound ed
Ġbre ath
Ġter ror
Ã¤mp fung
rÃ¤sent ation
bÃ¼ ro
Ġdest ination
ĠAnth rop
ĠWeimar er
Ġdoub t
ĠVerstÃ¤nd nis
Ġchocol ate
H il
R ec
Ġs uff
al in
re c
Ġc able
ent schieden
Ġge fallen
ĠIn se
âĢĻ .
Ġle gt
19 23
Ġent reprene
ĠCh ile
Ġher unter
Ġro ute
ĠGes icht
ĠMan ufact
Ġgr undle
Un garn
Ġfac ing
190 4
wh ich
ĠHeimat stadt
leist ungs
Ġemploy ment
ĠQue ens
ĠAsp ekte
wander ung
Kurz film
ĠFinn land
D own
J ugend
L ink
ĠS ay
Ġf Ã¼hl
ĠW ellen
ĠW iesen
ĠC av
Ã¶ ner
ĠN est
ĠJ ay
Ġth reat
iv ia
Ġver zeichnet
19 34
Ġat mosph
Ġad opt
Ġ8 3
Ġ8 6
ĠFre il
ĠKon stanz
ser ien
ĠEx istenz
ĠBuch en
Ġsur prise
Ġpass iert
ĠHier bei
Ġair port
ĠZuf luss
Ġeingew eiht
S ec
l ach
v ia
ĠT am
ĠF ul
ĠF usion
ĠW ettbe
ĠR Ã©
Ġg un
ĠC R
for ce
me chan
gel Ã¤nde
oc ation
ĠMa j
Ġ7 3
Ġob jects
ĠBut ton
Ġchar ges
ĠJugend liche
Ġschn eller
verb Ã¤nde
Ġmain ly
ĠMont ag
Ġworks hop
sprach ige
Bundes liga
Ġcit izens
Ġperman ent
ĠgewÃ¤hr le
P an
T or
f iguren
Ġ Ã¤ndern
at sch
ĠL uf
kt on
od ing
hn er
ĠNe ues
ĠMar co
ude d
ĠBl u
ĠArbeit geber
ĠOber Ã¶sterreich
ĠOb ama
ĠBar th
ĠKap itel
the t
ĠRuss ia
Ġequ ipped
Ob ject
ĠMult i
Ġchrist lichen
ĠJon athan
Ġreve aled
ĠEind ruck
F uÃŁ
f are
k k
k Ã¼
ie bel
ol ith
Ġein heim
ĠI OException
ĠR it
os ed
og ramm
Ġvor ber
ac ional
Ã¼hr t
Ġpr ison
fl ow
inter est
Ġdis pla
ĠInd ones
Ġger ingen
ĠKomp lex
Ad d
ĠHerzog tum
Ġabgeb rochen
ĠNeum ann
C al
P ass
t lichen
il deten
ig o
Ġth us
Ġk ommerziel
Ġr ene
ĠRe ferenz
Ġ18 46
ĠVerb reit
ĠCon f
ĠRÃ¼ck tritt
Ġgl Ã¼ck
ĠCont act
Ġdisc ip
ĠMiss ouri
ĠCap ital
ĠTie fe
Ġumfang reiche
ĠThr on
ĠstÃ¤dt ischen
ĠPropert y
w id
y ou
re z
ut ung
ĠH ugh
ĠW itt
ĠR ick
ers e
Ġver f
par ks
ink i
ĠPr ince
Ġpla te
Ġcons ists
Ġtechn ique
ĠFin ancial
Vor pommern
ĠIntern ets
P A
P rÃ¼
P osted
ĠH us
ĠN u
19 60
ĠSe ver
uld a
ĠPr ime
uer ei
Ġass ets
ĠWar schau
Ġcr im
Ġprote cted
ĠPra kt
ĠMary land
qual itÃ¤t
wir ken
ĠMach ine
Ġorigin ally
Ġconvers ation
ĠRy an
mosph Ã¤re
M al
i oren
p fe
ĠM elbourne
ol id
ĠK ate
ĠW rest
and el
Ġre venue
ĠU rauf
19 00
ĠY es
fe ier
Ġpl Ã¶tz
ĠKon kurrenz
gend es
ĠGesch mack
gemein det
ĠSaison ende
Ġeff ekt
ĠHam mer
ĠAnt ike
Ġfound ation
ĠHar ald
Ġerfolg ten
ĠErn est
Ġless ons
lÃ¤uf e
ĠIr ish
Fl ug
wal de
ĠHu bert
frast ructure
Ġeigent lichen
Ġfung ierte
idel ines
ĠFrances co
E F
H ar
f i
Ġm agn
ol ine
ra gt
ra hmen
et ime
Ġbe er
ĠJ etzt
ĠU EFA
ĠBe fest
Ġsie gte
land schaft
Ġvor ne
ĠPh oto
oth ing
Ġ0 1
Ġfest ival
ĠDar stellungen
Ġhistor ic
Ġtre ated
ĠHa wa
Ġconf irm
ĠLehr stuhl
spro zess
ĠfrÃ¼h ere
gram me
Ġeingel aden
Ġnied rig
Ġbrow ser
ĠberÃ¼cksicht igt
ĠbeschÃ¤d igt
e g
Ġt arge
or o
or able
ĠS yl
Ġf ir
Ġm ur
ĠB ible
ra h
Ġg ern
ĠC ry
ĠJ ury
ab on
od s
ov o
ĠTh ink
ivers ary
fl Ã¼sse
Ġro ten
ren cy
Ġcont rast
ĠTra ck
hand els
grÃ¼nd en
190 5
stag ram
Ġconsider ing
Ġprote in
gere chnet
Ġdivers en
Ġgek ennzeichnet
ĠTat ort
b art
k ommun
ein kommen
ĠM Ã¼ndung
Ġn ative
ĠK elly
sch ra
sch uhe
ĠR af
Ġe ar
Ġge he
Ġre covery
ens ation
Ġgen e
ĠPr int
ĠChrist i
akt ions
hol en
Ã¼l le
ĠDr ama
ias ieger
Ġbig ger
fÃ¼r sten
So zial
ÅĤ aw
Ġsett ings
ĠEU R
Ġricht igen
ĠHoff nung
ĠSlow akei
Ġproced ure
Ġinkl usive
T ime
Â §
on omen
Ġw Ã¤chst
Ġb undes
Ġin ch
as ka
le vel
st es
ĠI ron
ĠW uppert
et ch
ap olis
qu ert
Ġex t
ho fer
ĠÃ ©
ĠLand rat
Ġ9 2
olit an
Ġ10 1
ĠzurÃ¼ck kehr
ĠTr ennung
Ġcons erv
Ġgef angen
Ġel imin
onen te
ĠFreund in
ĠOk lahoma
ĠEnts p
aud i
Ġprakt isch
F Ã¼gt
z it
es a
Ġ1 16
ĠM D
ĠE b
Ġbe an
Ġth orough
af eln
ĠVer arbeitung
ĠVer handlungen
ĠEr klÃ¤rung
qu ir
Ġ18 45
19 50
Ġus ual
amm lungen
ĠMed iziner
bach s
Ġstand s
Ġerfolg reiche
Ġhard ware
ĠGed icht
Exception Constants
ĠÃ¤hn liche
ĠĠĠĠĠĠĠĠ ĠĠĠĠĠĠĠĠ
ĠRen Ã©
ĠNachbar gemeinden
ĠEuropameister schaft
Ġerheb lich
ĠSaf ety
B ek
K rieg
M ost
c io
k ommt
m isch
ĠA gency
Ġ1 17
ĠI ra
ĠC ivil
ist ungs
ver w
ĠVer leihung
19 35
19 37
Ġro ugh
Ġlie be
imm y
Ġfre und
ĠMittel meer
Ġcol umn
fel de
Ġvert rieben
ĠBu y
Ġchallen ging
Ġpick ed
Ġill ust
Ġschwar ze
ĠBres lau
d el
m den
Ġa wareness
Ġt icket
Ġt asks
Ġw ies
Ġb ab
Ġb Ã¼rger
ge tragen
ĠM iami
Ġp ussy
ĠT alk
ed ing
ĠAn sicht
ĠCo ach
ep ing
Ġac id
ĠOb st
ĠHÃ¶ hle
Ġgef Ã¶rdert
Ar g
ĠBra zil
Ġperform ing
190 9
Ġorgan ized
ĠBed Ã¼rf
Ġident ified
ĠStraÃŁen bahn
Ġenter ed
ĠMarc us
Ġrecogn ized
ĠFÃ¤h igkeiten
K ilometer
d ichte
re v
el i
Ã¤ ck
ir al
Ġauf w
ess ed
ĠUn sere
Ġunter teilt
ĠSe gel
ĠGr Ã¶ÃŁen
iss a
Ġup per
Ġfe hlt
Ġserv es
Ġcons umer
Ġerw arten
Sie ger
ĠInter ess
ĠJe wish
Ġprogram me
gle is
ĠDisk ussion
ĠFal ken
ĠGrÃ¤ fin
franzÃ¶s isch
ĠjÃ¼nger en
f ix
re ifen
Ã¤ mm
ĠF unde
ĠF DP
ĠE gypt
ra iner
Ġer stellen
Ġer fÃ¼llen
ust ic
ib ir
du ate
Ġ9 1
ĠIS O
ĠSo ul
ĠAd ams
ĠMo or
ĠGo vern
Ġgef Ã¤r
ĠMill imeter
ĠVertrag s
kn Ã¼p
Ġofficial s
Ġarchite ct
ctic ut
Ġmensch lichen
B ern
k irch
re chnung
Ġb ist
ĠB lau
Ã¶ he
Ġl as
Ġk Ã¼nst
Ġan gew
ver leihung
Ġ18 16
Ġso fern
ĠÃ¼ber zeugen
ĠAb tei
Ġbes uchen
Ġ9 7
Ġgro wn
pro fit
Al so
Ġgel eitet
Ġac cepted
zahl t
Ġeinge gliedert
Ġgest artet
Ġter rit
Ġorder s
ĠHistor ischen
ĠverfÃ¼ gte
ĠFreund schaft
Ġerinn ern
Ġille gal
Wel come
ĠSynag oge
E ben
f onie
Ġ1 13
Ã¤ le
ĠF uchs
ĠK ore
Ġer fÃ¼llt
Ġge fe
if th
ĠAl i
for mer
ohn t
ĠReg iment
ced es
uck er
ĠReich en
ĠMag net
ĠWer be
Ġcolle cted
ĠDem onst
ĠLes er
ĠEmp fehl
Ġcompar e
Ġregion alen
Spe ichert
Ġintegra ted
hatt an
Lud wig
v org
us hed
Ġp rÃ¼
ig sten
ĠF ollow
ber gen
Ġwar n
au be
ĠEr ik
Ġ18 44
lie gende
io den
oy en
Ġnew sp
ĠFre ude
Th anks
ĠSpiel ern
Ġgel esen
ĠGesch Ã¤ft
Ġsho ot
ĠComp et
Ġaufge hoben
Ġcert ified
Ġmeisten s
Ġhost ing
ĠLau b
ĠAust in
ĠRepubl ic
ĠPast or
ĠmaÃŁ geblich
ĠPader born
F amilien
c at
h ome
Ġb ond
Ġb order
ĠB aut
ĠK ohlen
ra ucht
ach se
art ikel
se a
ĠBe fore
19 32
Ġcom pr
ial en
mit tag
Ġbest immen
Ġbesch rieb
Nach bar
Unter nehmer
Ġoffen e
Ġfour th
ĠKre bs
Ġarg entin
How ever
Ġinvestig ation
ĠAR D
Ġpartners hip
ĠEnter tainment
Ġmount ain
Bi ografie
ĠInf os
Ã¤rt ner
ĠArgentin ien
Ġw inner
Ġf asc
ĠA cht
ĠA kten
ĠB auch
Ġn Ã¤chst
ĠF erner
sch Ã¤d
ĠR iv
Ġg am
ĠJ en
ĠJ ag
ei p
ĠVer folgung
19 46
ite e
lo gen
ĠUnivers al
ĠÃľber blick
ace ae
Ġpos itions
Ġperfe kt
spr uchs
Ġsuccess fully
ĠSand stein
ĠnatÃ¼r lichen
Ġgraph ic
Ġcloth ing
ĠErzÃ¤hl ung
ĠTrieb wagen
ĠÃ¶rt lichen
olley ball
ĠGelegen heit
T M
w ein
z usammen
ie ber
an ing
ĠS ix
le c
ĠB C
ĠB uff
Ġv it
Ġ1 18
ĠO F
os c
gr Ã¼n
Ġat tended
Ġent stamm
Ġunter schieden
Ġvor be
ĠNach lass
iker in
ĠFre unden
Er n
Ġacc omp
Ġinst ance
Ab sol
Ġhistor iques
ĠauÃŁer ord
mus ter
Ġdre imal
ĠTur k
ĠgrÃ¶ÃŁten teils
Ġmix ed
ti rol
Ġfrequ ently
Merk male
1 20
D i
S en
es ents
te le
ge mÃ¤ÃŁ
ĠM is
ĠM Ã¼ll
Ġc um
ĠR eit
Ġg ifts
Ġbe grÃ¼ndet
ĠO regon
Ġge arbeitet
Ġ18 43
ĠBe werb
ho b
Ġlie fern
act ive
ĠDr ive
ĠAnt arkt
ĠBel ager
Ġerr ichteten
str asse
ĠPal ast
ĠHin weis
ĠMount ains
ĠDro gen
ĠÃĦnder ung
Ġbege ister
ĠPian ist
b oy
ĠD orn
Ġn utzte
ĠW inkel
Ġl ayer
op ing
ĠAl uminium
land e
par tei
ĠLand gemeinde
los igkeit
ĠTra de
ĠFe ucht
Ġrem ote
geord neten
ĠIns urance
ĠZe ilen
Ġstell ten
gef asst
ĠSa arbrÃ¼cken
ĠKriegs gefangen
Ġprint ing
Ġgraph ics
Ġenth us
wÃ¤rt igen
ĠRett ungs
! âĢľ
K ur
K Ã¼nstler
W eiter
b ian
g Ã¤ng
t Ã¤
v ements
y c
it Ã©
re f
re lated
ĠA kte
Ã¤ ts
ĠD ak
ĠF ile
ĠC N
Ġan g
Ġan alys
âĢĻ ,
Ġme at
ac ious
ĠSchw ed
Ġvers ions
let ten
Ġqual ified
ĠBas il
ĠGu y
Ġwei ÃŁe
druck t
Ġfood s
gesetz es
Ġeffect ively
zus etzen
ĠMuse en
ĠBist ums
ĠmilitÃ¤r ische
ĠBÃ¶h men
Ġdep th
ĠInner en
ĠÃľbersetz er
Ġhinzuge fÃ¼gt
ĠRober ts
ĠSchÃ¼l ern
G A
u hren
Ã °
te ch
ic ted
ĠN ature
ĠN OT
Ġme al
ĠMed aille
ĠPla yer
Ġoper ate
fel den
ĠVal entin
Ġresearch ers
Ã¤chs ische
ĠLuc as
komp lex
Ġgradu ate
ĠTschech oslow
ĠKompon enten
Ġsech sten
Ġadvent ure
j ust
u der
ĠD NA
ĠF okus
ĠH af
19 41
ĠEn kel
ĠNach kommen
Ġber ichtete
org ungs
Ġvers uchen
fess ion
ĠCl ient
Ġmed icine
ĠPhil ip
ĠEd gar
196 6
Ġenjoy ing
ĠMad ag
Ġevangel isch
ĠErl angen
A ir
M ont
t est
ĠS ad
ĠS itze
ĠP ersÃ¶nlichkeiten
ĠH allen
Ġg al
ĠC loud
Ġl iquid
ĠO il
ĠZ eile
ĠEr hebung
ard in
Ġall eine
ĠUr teil
kathol ischen
nehm ern
Ġqualifiz ierte
Ġanaly t
ixt ure
Ġeigent liche
Ġproced ures
ĠMargar et
R hein
u bert
Ġt ells
ein richtung
Ġm iner
ĠK ings
ĠI ss
ĠR ak
iv itÃ¤t
ang o
Ġ18 35
19 17
Ã¤t igkeiten
ĠNe v
Ġbes ter
stand es
Ġem igr
schie ÃŁen
Ġel ig
Ġrest lichen
Ġinvest ors
ĠdÃ¼r fte
ĠSn ow
ĠLok omotiven
ĠVerteid igung
ĠDrag on
K K
S ach
V ideo
V ID
ĠA uge
ĠD aily
ro se
ĠN HL
Ġauf t
Ġpro of
ĠAn other
ĠAn gelegen
ĠGr iff
ellen ce
ĠStra teg
schutz gebiet
ĠIde as
Ġangeb lich
Tra iner
ĠWach stum
ĠÃ¶ k
Ġlok ale
ĠCorn el
Ġmaxim ale
Ġimpress ive
Ġappoint ment
! "
B as
s Ã¤chsischen
er ia
ĠS ei
Ġv ast
ro hr
ig ra
Ġein gemeindet
em pf
ĠH ut
Ġl yr
Ġth read
ĠSt reich
ĠU we
ĠAn bau
ĠGe fÃ¼hl
ĠCh i
ĠPl Ã¤nen
Ġtra il
ĠNord west
Ge gen
ĠGrÃ¼ nde
verb indungen
Ġworks he
Ġcamp us
ĠVan couver
Ġmat ters
Ġremov ed
Ġassess ment
konstru ktion
ĠOffic er
ĠViz emeister
ĠNeuse eland
P lay
a o
à ²
al teten
Ġm oral
st urm
ter min
Ġc am
ĠT ak
ĠW isconsin
Ġk ennt
Ġk Ã¼nft
ik ten
kt ive
ĠZ wer
ĠRe par
Ġsch m
ia e
ĠAr me
Ġch ief
ĠGr upp
iss ippi
Ġ9 3
mann schaften
ron ics
ĠJun ge
ĠTra vel
Ġpolit ischer
ĠPal m
ĠBrÃ¼ ssel
ĠSen at
Ġbew aff
Ġvol ler
Ġrepr esents
ĠnatÃ¼r liche
iro ler
Ġerziel en
ĠHild esheim
ĠHels inki
O ut
W olf
j Ã¤ger
k rÃ¤
r unden
ĠM ust
ĠF Ã¤lle
sch les
ĠR acing
ĠN elson
ad bach
ĠEr be
ĠSp ark
iss ions
ĠVor schlag
ĠSo f
ĠFilm fest
Ã¤d te
Re ad
Ġ% ,
ĠGew Ã¤sser
ĠVolks republik
190 3
ĠRel ief
Ġleg s
ĠDor othe
Ġexpect ations
ĠSel f
Ġspirit ual
================ ================
ĠLuz ern
T em
y ter
Ġd t
on ent
ĠB ucht
ĠT oy
ĠC ir
ist o
la te
ens wert
ry l
fe hlen
Ġgr ass
ograph ischen
ĠOn kel
stre ifen
ĠHow ard
Ġaccess ible
ĠgrÃ¼ n
ĠSant i
ĠMc K
Ġricht ige
ĠUrs ache
irurg ie
Ġbedeutend sten
Ġbess ere
ĠMultic ast
D atum
M ay
k itchen
ĠB ischÃ¶
ig ger
ĠL is
ber gt
ĠN ull
Ġal cohol
all o
Ġst im
ver Ã¶ffentlich
ĠSch Ã¼tzen
qu ellen
ĠSp ar
ok ing
Ġwe ap
ĠLand gericht
rat ic
sk ar
Ġaufge teilt
ĠDu isburg
ĠPan el
Ġdeb ut
Ġbeteil igte
ĠOk res
ĠDet roit
beam ter
Vol ks
verl ust
elem ente
ĠPersÃ¶n lichkeit
/ *
A g
L iga
R enn
k lassen
w ed
Ġm ature
ĠM rs
de i
ĠK ids
ĠL atin
og ne
ĠBe hinder
ĠUn it
Ġor din
Ġwe alth
ĠEin kommen
Ġch icken
ure au
ĠAd dition
bau werk
mÃ¤ cht
ĠCon rad
ĠDurch schnitts
ĠRad rennfahrer
ĠRu der
Ġcra zy
Cl ub
g ate
k inder
Ġa chten
it able
re ll
ĠK la
ĠE ichen
Ġer for
Ġer ober
ĠV ik
ĠSt ationen
if l
Ġwar ten
ok o
19 42
rÃ¤ glich
oc aust
ĠFl orenz
ĠInd iana
Ġange kÃ¼nd
ĠSa tell
Ġmiss ed
Ġschwed ischer
ĠVerteid igungs
Ġausreich end
b rechen
en ix
Ġa men
ten nis
ow eit
id ance
ĠIn fe
ĠIn haber
Ġun c
Ġall gemeine
amen te
ĠTr ink
ĠÃľber leben
wohn ern
ĠKn ight
war f
ĠSchloss es
Ġarg ument
Eis hockey
ĠGlas gow
ĠWass ers
Ġstrateg ic
ĠStruktur en
ĠAgr ar
Ġehren amt
ĠAfghan istan
S ub
m Ã¤nn
or ders
Ã¼ pf
ĠB ock
Ġp our
ig l
de cke
Ġn erv
ĠW icht
ĠC V
ĠC ell
Ġvon einander
ab ama
Ġde cl
ĠVer k
ĠRe zept
ĠAn satz
ĠEr gÃ¤nz
ib us
ĠBe wertung
19 43
ĠAb fahrt
Ġste igt
ins ichtlich
Ġknow ing
ĠHo uston
eiter ten
mittel alter
Ġsub t
ather ine
ĠPart ners
Ġsign al
Ġopt imal
ĠKont akte
stoff en
ĠErz bist
Ġmom ents
ĠerklÃ¤r en
Ġklass ische
ĠCle mens
ĠÃ¼b lichen
Ġengag iert
ĠErzÃ¤hl ungen
Ġbeob achtet
Ġdoll ars
W ahl
b ele
z ule
on ed
Ġb ags
Ġin put
ĠD ien
ĠR out
ĠN ations
Ġpro posed
19 47
Ġtra cks
ĠGra ham
ĠSh ang
ĠZw eite
ĠBundes straÃŁe
Ġnun mehr
schein lichkeit
ĠErw art
ĠMer c
Verkehr s
ĠElect ric
Ġbrow se
ĠHoll and
ĠAlk ohol
l ler
z es
Ġ Ã¤nderte
Ġa w
Ġt ube
Ġm Ã¼s
le hr
Ã¤ sten
ĠD ress
Ġh osted
Ġc erem
ĠK alender
Ġg rad
ĠO berg
aus o
ĠÃ ģ
Mann schaft
ĠVers and
Ġspe zif
Ġerreich bar
lÃ¤nd ischer
ĠHistor ische
Ġaff ected
ĠNapole on
Ġgg f
Ġcrim inal
K reuz
R eihe
V ier
d ienste
f amilien
Ġin telle
Ġp asst
Ġz weig
ĠL Ã¶sungen
ber ge
Ġaus geschlossen
ang a
ĠEr nennung
Ġle ichter
Ġ18 13
Ġso ul
Ġout put
cl uding
Sch war
ĠCl ar
Ġele v
Ġzahl en
Ġpay ing
195 2
ĠJust ice
ĠOper a
ĠOs lo
Ġinform iert
Arch itektur
Europameister schaft
Sonst iges
S Ã¤nger
W E
h Ã¤ngt
z ien
Ġd ele
Ġt iny
ĠA B
Ġv illa
ro ph
Ġp in
Ġbe wegen
ĠJ eder
os ion
ĠLand s
Ġwo oden
wer ber
ma x
ator in
âĢ¦ .
Ġreal isiert
ĠLin ux
190 7
195 7
ES T
ĠPubl ishing
fa ction
Ġadmin istration
ĠRh yth
Ġzweit es
ĠSchwar zwald
Ġdat iert
pfl anz
ĠInstitution en
A tt
ge k
ĠB B
st het
ĠN FL
Ġfor est
19 31
ĠAb hÃ¤ng
ĠUnter richts
fahr zeuge
Ġdr amat
zentr ums
ĠHeil bronn
ĠTur ner
ĠGesetz es
ĠSpr ung
ĠCons ult
Ġneigh b
ĠStu art
W asser
Ġd icht
ĠS emin
Ġb read
Ġf ikt
ĠB eth
Ġ1 14
ig rant
Ġh idden
ĠG y
om on
ul ing
ĠVer y
be cker
ĠBer ichte
alt itel
Ġres ort
ĠPart ie
Auf gelÃ¶st
ĠPra ct
Ġzie mlich
SS R
Ġfa iled
Ġgepl anten
Ġviol ence
fal se
Ham burg
F ind
ĠS ind
ĠS ara
Ã¤ p
st oÃŁ
ĠT akt
ĠF ortun
ĠL ay
Ġan gest
ĠSch r
Ġde fault
ste iner
Ġ18 12
ĠGra ben
Ġ12 00
ĠMann es
Ġcomm ission
iven ess
Ġbed ient
190 2
Ġverm eiden
Ġauth ors
Qu elle
ĠRen ov
Ġged acht
ĠKer amik
Ġsignificant ly
ehm igung
ĠWit we
Ġsitu ations
ĠBeam ten
Ġregistr iert
Ġattach ed
ĠBrie fe
ĠÃĦm ter
Ġsympt oms
Ġavail ability
L aut
u cc
v ik
Ġt ables
ĠS uz
ĠB ug
ĠM ale
ĠF L
um me
Ġbe herr
ium ph
use ppe
ĠAd vis
Sch on
ĠAmer icans
ĠGeneral leutnant
klÃ¤r t
Ġrece iving
ĠEt wa
Ġwid ely
ĠBon us
Ġattra ctive
Ġtw ice
Ġkrit isiert
ĠBM W
ĠGeschle chts
ĠLug ano
Ġgewid met
S I
S il
o iden
Ġh armon
ĠP ension
ĠT um
ĠH amp
ĠL il
Ġk reis
ul ous
Ġy es
Ġst il
Ġst ring
Ġauf s
ĠEr sch
enn is
erk raft
ĠLe v
Ġte x
Ġsup posed
Ġfl ash
Ġsho ck
stÃ¤nd ig
ĠChar lie
Ġvis ited
Ġerr ang
Ġconf ir
Ġredu ced
Ġreturn s
Ġcy cle
ĠStan ley
ĠKonstru ktion
ĠReihen folge
Ġdipl omat
r ud
il ation
ĠT R
ĠH umboldt
ĠC urt
Ġan al
est on
ĠSch atz
Ġzu ges
ĠEn cyclop
ĠFl otte
Ġinter face
Ġdis app
ĠMed ium
por ters
uc lear
Ġbl ow
zahl ung
ĠRes idenz
ĠPat ient
ĠFranz osen
Ġcho osing
Ġaufge geben
Ġdre ams
196 7
ĠMitte le
Ġfact ory
ĠFluss es
ĠmilitÃ¤r ischen
ĠÃ¤uÃŁer st
ĠVarian ten
Ġta ught
fÃ¤ll ig
h ut
k am
Ġw ander
Ã¤ hne
ĠM ei
Ġp od
Ġc otton
ĠR Ã¼
Ġl Ã¤nd
ann els
Ġre ader
tz t
ile t
ĠCo oper
iner y
Ġdr ugs
Ġausge prÃ¤
ĠCl ark
Ġend s
ĠFach werk
ĠIns olvenz
ĠHil de
wor ld
ĠKat hedrale
Ġcreat es
ĠÅ ½
inde x
Ġdetermin ed
Ġjem and
ĠMitarbeit ern
ĠBegeg nung
ĠHT ML
M C
M Ã¶gliche
t rieben
ĠS D
ĠD ame
ĠT ank
Ġein ges
ĠG reek
ĠL ett
ĠL ichten
ĠSch Ã¤den
op ol
ĠIn stagram
ag an
sp rachen
ip t
Ġpr icing
ĠStadt rat
Ġro ot
ĠSchw imm
entlich er
Th ank
ott a
halt ungs
Ġcre w
Ã¤tz ung
ĠDre am
190 8
Dies es
Ġverm utet
Ġrep utation
Ġlist ing
195 6
ĠKing dom
Ġchines ische
Ġdom estic
ĠTemperatur en
ĠKent ucky
D uring
Ġt oll
ĠB arr
de cker
ĠG un
ĠE ier
ed es
ĠC ock
ĠJ Ã¶rg
ĠSch los
Ġle isten
Ġex port
rit ion
Ġunter stellt
Ġsh ops
ĠZw eiter
Ġ0 7
ĠBand s
ĠBet reiber
ĠWh it
Ġfre edom
olv ed
ĠBerg bau
ender t
US A
Ġinner en
Ġtro uble
196 1
Ġfile d
ĠJur a
ĠFel sen
Med ien
kr ise
Ġcabin ets
ĠAdmin istrat
Ġabgel eitet
ĠRess ourcen
k ons
n Ã¼tz
u ages
Ġ1 12
Ġo h
ĠG P
ĠH arb
Ġg rew
ĠO range
ĠEr mitt
Ġ18 41
Ġsh ift
Ġar ray
ime tern
Ġsow eit
ĠFl Ã¼ss
br unnen
Ġgesch ickt
ĠRuss ell
Ġident ity
Ġport folio
van ced
stud ien
ĠAust rag
RE E
dr ama
ĠSign al
Ġult imate
Ġwand te
Ġign or
ĠkÃ¤mp fte
Ġverab schie
B ot
S al
f indung
k linik
Ã ®
ĠB j
Ġc ake
am an
ĠG am
em er
ĠL etter
ĠSt Ã¼r
Ġauf merksam
kt ors
ith er
ag ert
ial is
ĠAuf sichts
co in
Ġ9 00
Ġgew Ã¶hn
gl ing
Ġph ase
Ġmus lim
Ġausge de
Ã¶st liche
ĠAir es
Ġimpro ving
Ġorganis ierte
ĠPop ular
Ġerf Ã¤hrt
ĠlÃ¤ng ere
Ġimag ine
Parameter ID
verteid iger
N icht
Ġf Ã¶rdern
ĠB ent
ro b
ĠG Ã¶t
ĠE ag
ĠH P
Ġy ard
ĠVer ordnung
ant a
ĠMa ÃŁe
ĠGemein schafts
uer ung
Ġges p
ĠKon ferenz
ĠEx pedition
Ġbo ost
Ġexper iment
hol ung
Ġgra b
ograf ische
ĠPer u
Ġeinge zogen
Ġant iken
Ġtyp ical
Ġyoung er
kan al
ĠPil ot
Med iziner
Mod ell
sta ates
ĠStreit krÃ¤fte
ĠgefÃ¤hr det
Ġsubmit ted
inu ier
ĠForts etzung
A c
E vent
L uther
P N
T ag
p Ã¤dagoge
u in
ĠB omb
ĠD ritten
st yle
ĠH ahn
ĠH Ã¶l
ĠL oren
ĠJ ason
ĠSt ief
Ġfor ced
ver halten
ĠAn bieter
ĠEr ziehung
Ġsch olar
Ġex tended
Ġex ternal
ĠAuf klÃ¤rung
Ġte ch
Ġrec ording
ash i
Ġverb inden
schl Ã¼sse
Ġele ction
Ã¶m m
ĠWohn ungen
Ã¨ ne
west lichen
Ġhold s
maler ei
ĠWalk er
ÅĦ ski
kurr enten
Febru ar
k ular
Å ¯
Ġt ap
Ġs alt
ĠS au
at isch
Ġo s
ĠH Ã¤uf
ck te
ah ne
ag ram
Ġr ig
aus chen
ĠÃ¼ber liefert
ĠTe en
ĠCo le
ĠKar p
Ġbek leide
ĠGer d
ĠBau reihe
ĠMo on
ĠRes ume
Ġcr ime
190 6
ĠAp ostol
ĠTre ff
ĠKind es
ĠStad ium
Ġbere chnet
sthe orie
mag azin
Ġbewe gt
1 10
D oppel
S K
a er
Ġs hr
ĠS amen
ĠA BC
ĠM Hz
ĠF inger
ĠE k
ĠI wan
ĠW inn
ĠL ub
Ġk onstru
ab ol
os te
ess a
Ġfor um
ens atz
fer enzen
ĠAus bruch
sk irche
Ġprov en
Ġgel ungen
Ġentsp ringt
Ġverl ang
ĠZe ug
zÃ¼ gen
ĠLou ise
ĠPrÃ¤ fektur
Ġhappen ing
Ġrelig ious
ĠEff ekt
Ġexter ior
ĠJed och
Lin ie
F R
N et
g ig
re kord
ĠF itness
ĠI tem
ĠH i
ĠH altung
Ġk rÃ¤ft
Ġfor med
ĠSp ons
ult iv
ĠIm pro
ĠVor stellungen
St ation
Ver band
Deutsch es
anad ier
ĠTo uch
En gl
bet riebe
Ġsor gte
Ġearn ed
ĠJob s
ĠGon z
M er
O U
k ter
w enn
Ġt ub
ĠA pos
ĠP yr
ĠK ick
ier ra
ĠO cean
sp rechen
Ġ18 32
Ġex tend
ru der
hel ess
Mit te
ĠRo und
ĠBesch luss
196 4
ploy ment
ĠSchm uck
ĠKrit iker
Ġcas ual
Ġstaat liche
Ġtal ks
Krit ik
ĠErkrank ung
Ġinstitut ions
Ġeindeut ig
c or
s he
Ð ²
in strument
Ġw itness
ĠS ale
Ġin tr
ĠF ell
ĠH ud
ĠR eiter
ĠR ights
ĠR auch
ĠN oten
Ġge ar
Ġge Ã¶ffnet
ĠAn walt
Ġ18 42
Ġcon sequ
ĠGr Ã¶n
rei hen
Ġdar stellen
ĠHaupt bahnhof
stein en
ĠĠĠĠ Ġ
gele gte
jÃ¤hr ig
Ġbre ast
ĠJugend lichen
Ġmember ship
Ġstehen den
ĠAlb ums
abil itÃ¤t
ĠErwachsen en
Ġnorm ally
L AN
M ap
R obert
h ost
i ÃŁ
m ol
Ġb io
ĠB Ã¤r
ĠD opp
ĠG allen
ĠK ay
ot ische
ĠZ one
Ġon going
Ġaus gerichtet
Ġun able
ĠÃ¼ber all
ĠTh rough
ĠLe er
ĠAb lauf
utz er
ĠWill y
Ġlet ters
spl an
Ġbedeut enden
Des cription
Ġzuf rieden
Ġserious ly
ĠSat tel
behÃ¶r den
Ġveranst altet
H ello
R und
l uft
Ã ¯
Ġs itzen
ĠA ra
ig ert
Ġc arbon
ĠP ath
ĠK rÃ¼
ra ut
ĠL az
ĠN umber
Ġre cover
ĠStud ents
Ġzusammen gefasst
ĠEd in
ĠOst preuÃŁen
Ġhealth care
ĠZe ugen
ĠSen ioren
ES CO
ĠBrit ain
ĠRos a
Ġmedizin ischen
Val ue
Ġmittelalter lichen
ĠAssist ant
ĠTob ias
A V
U s
t sch
it iv
Ġaus drÃ¼ck
Ġab gegeben
Ġ18 38
Ġex pression
ob a
geb Ã¤
ĠAb b
ĠBer at
18 90
ren ner
fin anz
Ġ16 00
ĠPar ad
ork ommen
ĠGrund schule
bes te
Ġrem ark
ĠAt om
Ġfac ts
Ġident isch
ĠVorsitzen den
ĠErk enntnis
Ġchem ical
ĠFass ade
Ġbedroom s
ĠTy pen
ĠBrook lyn
ĠAlf ons
ĠLiss abon
I B
J ul
S D
h armon
t ur
en cy
it ative
Ġt iefer
Ġb odies
Ġv intage
ĠM ick
ĠD ritt
ĠH ert
ĠW id
op ter
ĠAn wendungen
rie t
ĠLe ader
ĠSe g
Ã¼ck t
pro fil
ĠAd miral
ĠEx ception
ĠMan hattan
Ġag gress
Ġbesch rÃ¤nkt
wert ungen
En ts
ĠMay be
196 3
Ġstre ets
Ġrefer red
ĠSamm lungen
Ã´ ne
ĠNR W
2 50
R em
k ilometer
it iert
Ġt we
Ġw Ã¤hlte
he iz
ĠM alt
ra ben
et tet
ir i
Ġl uck
ĠJ Ã¤nner
ere cht
ĠSp ain
ov Ã¡
Ã¤ch se
ĠSte iermark
Ġfest gestellt
ĠMeister titel
ĠAir lines
hÃ¶ hung
ĠNamens geber
Ġdunk el
Ġexcept ional
kanz ler
Ġstain less
B ro
K ont
W o
f uÃŁ
v ie
us a
Ġv olle
ig ne
ĠG R
ĠC ome
Ġer leben
ĠN y
est adt
Ġst opped
art a
ĠPro zesse
Ġgel ingt
wor tet
Ġkon zip
ĠPo e
Ġenter tain
ĠChem iker
ĠGet re
Ġneg ativ
Ġverste ht
ĠEuropameister schaften
ĠPed ro
Ġmusikal ischen
ĠGru yter
;; ;;
ĠVf B
Ġatmosph ere
1 14
G H
H ers
P M
ĠS U
Ġf Ã¤hrt
ĠM asse
ĠP Ã©
ĠF aktoren
ĠG ift
ĠI an
Ġl ucky
Ġe ase
ĠZ en
ĠSp alte
Ġ18 14
Ġex cess
Ġent deckte
Ġunter nahm
ieren der
ĠZw ar
ĠVerb indungs
ĠGew inner
Ġfact or
Bau denkmal
Ġnet works
Ġpoln ische
bas is
Ġverhinder t
Ġpow der
ĠGeor ges
ĠAnz eige
ĠUrauf fÃ¼hrung
H D
c enter
g Ã¤nger
k ers
k Ã¼nstler
p in
z oll
Ġt all
Ġs oph
ĠB ond
st age
ĠT ry
ĠW etz
ĠC B
ĠC ars
Ġab gelehnt
enn zeichen
Ġseiner zeit
Ġ0 3
ĠNor m
ĠSÃ¼d amerika
Ġsm ile
fil ter
Ã¤ss ern
Ġhol idays
Wh y
ĠJournal isten
Fl uss
Ġfal sch
Ġhor izont
ĠdÃ¤n ischer
ĠEigent um
Ġmil k
Histor ische
Ġbrasilian ischer
ĠSecret ary
Ġunterr ichtete
Ġbeauftra gt
l ong
n acht
Ġa ben
Ġm obil
ĠA h
le e
ĠB reit
ĠM Ã¼hlen
ĠT ree
Ġk Ã¤mpfen
if est
Ġver folgt
Ġr asch
ant es
19 16
pl ates
ĠVor lage
zeit lich
fin det
sk op
Ġoff ens
isten ce
An y
ĠHand lungs
Ġdesign ers
eid ung
Ġspe ech
ĠOff iz
ĠWer ft
ĠDo uble
ER S
Ġ180 8
196 5
Ġleben den
Ġoffic er
usst sein
Ġconcern ed
ĠInde pendent
ĠNic ol
Ġindustr ies
ĠMatt hew
uum l
c am
j on
l on
or ne
ich i
ing o
ĠH C
ĠH Ã¤usern
ĠW Ã¤hler
ĠC onn
id al
ak ten
art z
19 15
ite es
elle d
Ġtr ib
Ġmin ister
Ġdel ay
ĠHel den
chten stein
ĠMont real
Ġcap able
Ġcolor ing
ĠZusch auern
ĠNationalsozial isten
Verb reitung
ĠErschein ung
Denk mal
C hem
H O
T ION
W M
a a
k ore
ĠP aper
ĠH im
ĠH ydro
ĠR an
ĠC C
Ġbe ziehen
Ġth in
ĠSch ult
ok en
Ġ18 31
ĠBe cker
ov ed
rÃ¤ der
our ces
ges ted
Ġman chen
ĠVor les
St art
ĠSte ine
ĠEx il
ĠStud iums
Ġsho oting
ĠKom Ã¶die
ival ent
ĠVal ent
Ġpay ments
195 5
ĠFÃ¼hr ungs
Ġengine er
Med aille
ĠHart mann
Ġprogramm ing
ĠBuen os
? âĢĿ
F ach
i ja
m Ã¤r
Ġd uty
ur ist
ĠF Ã¼
ĠIn spir
Ġi OS
Ġsp anische
ign y
Ã¤hr ungs
Ġcomp at
Ġtra fen
Ġlie ben
Ġfol ks
ĠEx port
Ġprodu cing
Ġho le
Ġind ire
ĠQu est
ĠWh ich
Ġpubl ish
Ġcond uct
Ġorgan ic
Ġunser es
AT O
Ġdefin ition
Ġmir ror
flug zeug
Ġarr ive
Ġevangel ischer
kor de
Ġdescrib e
Ġtransport ation
Ġfinanziel le
Ġremov al
ĠJahrzehn te
Ġelektr ische
ĠÃ¤uÃŁ eren
Ġsud den
B ack
F k
P op
S etz
T her
Ġs org
re b
ge gangen
ĠB in
ĠP ommern
am ic
ĠG umm
sch reiben
ĠH appy
ĠC ant
ĠN Ã¶rd
Ġdem okrat
ind s
ĠBe griffe
19 48
Ġex pos
ĠCh rom
je ction
ĠIm plement
ied s
Ġper mit
St ate
ĠSte ven
ĠNord ost
ĠLin col
ĠRuss ischen
196 2
195 1
Ġdefin ed
ĠPsych iat
spro gramm
pol izei
ĠUs ing
fÃ¤l ischen
Ã¶p fe
Ġincred ibly
ĠCapt ain
ĠkÃ¶nig lichen
P ublik
R ichtung
f ranken
k andid
p ower
Ġs ick
Ġs tet
te or
he ast
ol in
ĠT aiwan
ĠK han
sch i
em en
ĠL Ã¤ng
Ġbe geg
Ġth re
Ġan gen
Ġge zwungen
lo h
teil ten
Ġmy th
ĠĊĊ ĠĊĠĊ
ĠQu ick
ĠBet racht
Ġbed ro
Ã¤uf e
ĠTour isten
ĠTro cken
ĠQual ifikations
ĠEner g
ĠSter ne
ĠDrei ÃŁig
BevÃ¶lker ung
ĠChron ik
Jose ph
E st
Ä Ĺ
Ġa wards
ĠK rÃ¤fte
ĠW esen
ĠV es
Ġk ar
Ġre produ
ĠVer sch
Ġsich ern
Ã¤t tern
ĠEn joy
ĠUnter b
Ġges agt
Ġob lig
Ġrem aining
ĠAnt ar
ĠLebens raum
ĠSeit dem
lav a
ĠMay er
Ġturn ing
ĠFil ter
ĠGi useppe
Met al
ĠInvest ment
uert o
erkl Ã¤rung
**** ****
Ġprincip les
Ġhil ft
L et
M ac
T al
l ik
r und
y st
Ġt ested
ĠS ich
us in
ĠP ear
ĠE arly
ra ul
ĠL isa
ic ulture
ab ad
Ġge kauft
ann over
av ier
Ġab gelÃ¶st
ste her
Ġ18 28
ĠDe ep
ĠAus gra
ĠVor gang
ĠSo ft
ins eln
ĠHall owe
ĠIll ust
ĠScott ish
klass igen
ĠnÃ¶t ig
sph ase
S et
k arriere
at ra
Ġm orgen
Ġn utzt
âĢ ĭ
ĠR unden
ĠV Ã¶l
Ġver passte
ide t
per rt
St atus
iff s
ĠStud y
Ġbl end
Ġgu ard
gra ph
Ġbed s
ĠStand ards
ĠPaul o
ĠErn Ã¤hrung
ĠSÃ¼ ÃŁ
Ġtradition elle
Ġsicher te
lern te
ĠÃ¼bern immt
rÃ¤nk ischen
Ġfig ures
sper re
ĠVort rag
ĠInnov ation
Listen er
ĠLincol n
I nde
R itter
T op
m aking
Å Ľ
ĠK ast
ul u
ĠSt ick
ĠO N
Ġge omet
Ġle ts
Ġ18 10
Ġwas h
uss ia
ĠNach kriegs
ĠFl ach
gemein schaften
Ġmo ist
Ġviel fach
ĠEm den
Ġspecial ist
ĠAuss tellungs
zy linder
Arch iv
Ġspeziel len
Gemeinde auflÃ¶sung
Ġcapt ure
ĠEnter prise
icul um
Ġrechte ck
ĠiP ad
ĠVerbrauch er
. [
G ed
T urn
p op
Ġm and
Ġm ile
ge ist
ĠF u
ĠF ashion
ĠG ibt
ra c
ĠH Ã¤nde
ĠR ange
Ġl okal
ĠJ ess
Ġk ol
Ġun w
Ġex ception
ĠDe te
ĠDe part
be teil
Ġen ables
Ã¼ck e
Ġbet Ã¤t
Ġsc ulpt
asch a
Ġatt rib
Ã¼b ung
Ġgut es
ĠZust immung
ĠRead ing
Ġfunktion iert
Ġhighl ight
ĠCru z
Ġenco unter
A BC
H alb
O O
h ier
at io
Ġin frastructure
ut a
Ġan x
iv o
ĠSt or
ĠSt ories
Ġun e
ĠEr forschung
Ġnach weis
tell te
18 93
ign et
Ġlie gende
ĠSchw Ã¤b
haus e
ĠKon zern
Ġ0 6
Ġvers orgt
Ġgu idance
aur us
Ġsub stant
Ġ[ ...]
ĠDon ner
atÃ¼r lich
Ġzurueck gegeben
ĠMiss issippi
ĠGef Ã¤hr
Mod el
Ġcrit ic
Ġfiel en
Ġexpla ined
ĠAuft ritte
Ġcompon ent
Ġbrach ten
Ġbeher bergt
ĠBismar ck
H g
O l
Ġd ialog
on isten
ig el
Ġein ger
ĠF ulda
ĠK it
ĠE sch
Ġer fasst
ies sen
Ġr is
Ġ18 21
ord nen
Ġ9 4
Ġsup erv
Ġdec ade
Le x
Ġland es
Ġfac ilit
ĠRechts wissenschaften
Ġgener ate
Ġpublic ation
Ġconc ert
Ġern st
ĠKrit erien
Ġsuper ior
ĠLu is
gre ifen
Ġrespons es
ĠSchwer in
Ġinform ed
Ġcra ck
Ġsil ber
Ġbetre ff
Ġschedule d
Ġdynam ic
ĠOze an
Ġzug unsten
Ġeingest uft
Absol vent
G E
P osition
Y es
m ing
r ufen
as ters
Ġf usion
Ġc lock
ĠV as
Ġr Ã¤um
qu ire
Ġ18 36
Ġ18 37
iz a
ĠSe pt
18 79
Ġco at
ĠFl ur
ĠBand e
Ġrel ative
ĠFe ier
ĠDr amat
Le icht
akes pe
Ġsl ot
wissenschaft lichen
ĠQual ity
ĠhÃ¤uf iger
Ġconf ident
ĠMinister ium
Ġerk annt
aser ne
imar ily
ĠSpr ings
jew itsch
ĠPok alsieger
Ġnorweg ischen
ĠanschlieÃŁen den
ĠBulgar ien
ĠEdin burgh
â Ī
is st
ĠS ony
at iver
Ġc ategories
ĠG uten
ĠG riech
et wa
ĠC hel
ĠC atholic
Ġbe achten
ĠSt ark
ĠSch ienen
ĠVer teilung
aus stellungen
elb ach
ĠSh are
schl Ã¼ssel
ĠKunst denkmÃ¤ler
Ġeinz eln
ĠMet ro
Ġperson s
Ã¤nder ung
Ġerschien enen
Ġcr ash
Ġoft mals
ĠrÃ¶m ische
Ġdeal ing
Ã¢ teau
Ġhab ilit
Ġkont inuier
Ġrelativ ely
person en
leg ungen
Ġaccommod ation
ĠgrÃ¼nd eten
MÃ¼n chen
Ġkorre kt
ĠHallowe en
E U
K n
h ungs
Ï ĥ
Ġs ed
al itÃ¤t
Ã¤ use
ĠM ira
ĠP eking
ra ums
ver kauf
ĠSp enden
Ġ18 39
pt y
lo be
ĠDies el
ĠMin istry
ĠHol ocaust
ĠMag ic
Ġstar tet
Ġche ese
Ġweek ly
Ġtrans ition
lei hen
Ġadv oc
Ob wohl
Ġdan eben
Ã¼rz te
Ġdirect ory
ĠDel hi
Ġstay ing
ĠSter nen
hers tellung
ĠberÃ¼hm ten
ĠDrit ter
ĠBundest ag
ĠZerst Ã¶rung
EMail Adresse
Ġbesonder er
check EMailAdresse
ĠkÃ¼nd igte
% .
B ele
i ierten
y en
Ġd rag
es er
ge zogen
ĠM au
ĠD FB
Ġh insichtlich
im ore
ĠH ob
Ġl ob
ĠSch uss
Ã¤t te
Ġcon vert
rÃ¤ uch
ob ahn
ĠAb schied
ĠAb wehr
ĠVor teile
ĠVor runde
amp a
Ġqu adrat
pf alz
bo ards
ĠVers ionen
ĠStre ifen
ĠNieder lagen
fra uen
ĠSal on
Ġeng age
ĠZusammen schluss
ĠBel ast
ĠTex ten
ĠFinanz ierung
ĠRob in
Ġprepar ation
ĠCent ury
Ġstyl ish
ĠFertig stellung
> .
D reh
G l
K al
h Ã¤n
ĠS EO
Ã¼ se
st unden
ĠT afel
ĠF unktions
sch Ã¼tz
Ġl uther
ĠJ g
ĠO hne
ĠTe ich
ĠOr din
auf lage
18 99
erv ers
ĠHer zen
ober flÃ¤che
Ġges ichert
ĠStra hl
Ġfl ach
ĠMor gan
Ġgest altete
ĠMain e
Ġorder ed
195 4
ĠSw iss
Ġempf angen
ĠLi bert
ĠVie h
Ġestim ated
Fk EMail
B rit
T F
T est
i ologie
Ġ q
Ġ {
es tet
ĠS ri
ĠS ultan
ĠB org
ĠB utter
ĠD ass
ĠV Ã¶gel
ik ern
Ġst ated
sp f
ĠÃ¼ber le
Ġcon cepts
Ġdurch setzen
Ġman aging
ĠPh Ã¤n
ĠPh arm
ĠSpiel ers
ĠArt illerie
ĠMal aysia
schn itten
ĠDurch bruch
ĠWor te
ript ion
Ġequ al
Ã¤m me
ĠKÃ¼nstler in
Ġerz ielt
ĠSchles ien
ĠBundest ags
ĠVinc ent
P O
Z wei
o ft
re de
ĠA ktionen
ĠA telier
ol ia
ĠT all
ĠR as
ĠL LC
Ġl ady
ab a
eb t
id ad
Ġ18 34
Ġen ger
Ġro se
Ġgew orfen
ĠTr end
Ġind ischen
ĠMen gen
ĠYork er
Ġadd s
ĠAuss agen
ĠBischof s
ĠRec ord
leben s
Ġunterschied licher
On ce
Ġdeb t
ĠZust Ã¤nd
maler weise
ĠWand el
sta ats
Ġliter ature
veranstalt ungen
ĠEins Ã¤tze
Ġsav ings
Ġphotograph s
ĠConne cticut
Ġhers elf
ĠWitten berg
ĠDokumentar film
Dav id
F iction
H R
h ielt
Ġt ack
ĠS id
ĠS einen
Ġb ars
ĠM indest
il og
Ġp ics
Ġh Ã¶l
ĠF aust
Ġfor ever
ĠSch uh
Ġver standen
ĠIn halts
Ġr ies
ap ing
ĠTh om
ĠCh ancen
ĠSe ch
ahl en
Ġ17 00
ĠUnter k
Ġgen auso
ĠEl be
ĠAll ianz
ĠHol y
fra gt
Ġrest r
Ġobject ive
ĠRed akteur
Ġplan et
Ġsetz ten
ĠIde al
Ġenter prise
Her r
Bo den
gehen de
ĠVog t
ĠEst ate
Ġneg ot
Ġpan els
ĠEntscheid ungen
Ġerhe bt
Gra f
ĠBrig ade
Rep rÃ¤sentantenhaus
Ġmill ions
ĠUt ah
ĠDist anz
ĠStraÃŁ burg
ĠAuseinanders etzung
Ġumfass ende
B lack
F ield
G ar
N orth
R aum
T schech
Z usammen
i ak
l alom
m ain
Ġb ay
Ġin du
Ġin ches
ĠM ack
ĠE uch
Ġto oth
ĠC oc
Ġbe arbeitet
Ġun bedingt
ib et
ide en
ĠGr as
ĠIm mer
ĠMe et
Ġnew ly
pro vinz
Ġoff ices
ĠEx am
Ġ0 2
arm onie
Ġ180 9
ube hÃ¶r
AT ION
ĠVe get
Ġdiscuss ed
Ġschwed ische
Ġimplement ation
ĠWurz eln
dis ziplin
ĠJoh an
Ġtom orrow
Ġstattf and
ĠShang hai
F ree
d ays
r ise
s em
t urm
Ġin stitution
ĠF itz
sch a
ĠW ink
ĠC ulture
Ġauf zu
ver gleich
Ġzu geschrieben
ĠTe e
ĠSe attle
ĠMar ok
Ġ17 98
wer fer
gew alt
ĠPe ace
ĠUr sprÃ¼nglich
ĠMat rix
ĠWal ther
Ġleben s
ĠKurz film
Ġversch oben
Ġinform ieren
ĠSym pt
ÅĻ ÃŃ
Ġconcern ing
Ġinj uries
ĠArchÃ¤ ologie
ĠMisch ung
ĠFlag ge
ĠNiger ia
organis ationen
g ue
k reise
an as
Ġm Ã¼sse
st Ã¼r
ĠT U
ĠF R
ĠG itarre
hr ingen
ĠR ied
Ġer gab
Ġan alog
ĠSch au
Ġsp l
teil ungs
ĠPl attform
sk on
ĠSte iner
ĠFre y
Ġrec ipes
Ġno ted
ĠHaupt mann
Ġteil te
aur er
ĠProdu cts
Aus gabe
ĠMittel feld
Ġpolit ics
ĠSol utions
Ġmeet ings
Ġtyp ischen
ĠbenÃ¶t igen
ĠRestaur ants
ĠDat abase
friend ly
Ġobtain ed
Ġhy per
Ġreligi Ã¶sen
Ġerle bte
ĠDiam ond
ĀĀ ĀĀ
Ġsustain able
ĠKÃ¤rn ten
" :
g ott
l Ã©
r iz
Ġb ron
Ġm aps
ĠG M
ĠK lin
ĠNe apel
In halt
ĠSchw estern
sk o
Ġreg ions
ĠPe er
ĠEm ail
Ġeng agement
Ġ180 4
195 3
Ġflo ors
ĠFernseh film
ĠMer cedes
Ele kt
ĠUN ESCO
ĠUrs ula
Ġwohn te
Techn ische
ĠOpt im
ĠMov ie
ĠKrie ger
ĠInse kten
H en
S ol
t yp
Ġs aÃŁ
Ġan th
Ġge folgt
Ġde fense
Ġnach t
iz ismus
Ġch ose
ite kt
erk rank
omm y
olog ist
Ġgen ieÃŁen
ĠSchw ert
Ġgeb unden
ĠOb ject
ĠVers uche
ĠGegen stand
Ġhistor ique
Ġcover ing
ĠSozial demokrat
Ġlaw yer
Ġelect rical
Ġverbunden en
Ġreport ing
ĠniederlÃ¤nd ische
ĠJos h
Ġattem p
Ġcru cial
ĠOpp osition
Setz liste
B asket
C olle
O t
n ische
v all
Ã ĥ
Ġd ad
ar est
Ġf esten
ĠB elle
Ġo cean
ĠM iet
Ġh rsg
ĠT ed
ĠG or
ent z
ĠL ip
ĠL amp
ĠL ane
ĠJ h
ĠSt Ã¼tz
ts piel
Ġsch lÃ¤
Ġsie d
Ġins zen
Un sere
ĠMo ore
ĠSc ient
ĠHaupt ort
ĠRo te
Ġcol ours
ĠfranzÃ¶s isch
Ġpost ing
Ã¼h ler
ĠNeben fluss
Ġstat istics
Ġhei ÃŁen
Ġangegeben e
wel ry
ĠFreis ing
ĠKaffe e
? "
P ierre
b ot
b els
ĠD est
ig nete
ĠK ohle
Ġg ast
Ã¶ hne
ĠV alen
lich ten
os se
ad ion
Ġre lief
Ġ18 26
Ġch annels
oc arp
18 84
reis gau
ĠWe iss
Ġ7 50
Ġdire cted
ĠProdu ct
arch itektur
Ġstar ben
reib ungen
ĠMot oren
ĠMot to
plic ated
Ġatt orney
str Ã¶m
195 9
wal ts
Ġcook ies
ĠErinner ungen
Ġsatis faction
Juni oren
ĠNahr ung
Ġverbess ert
Ġincor por
Ġjo ining
ĠGlÃ¤ ub
Ġerkenn bar
f eind
m Ã¼n
t ages
Ï ģ
Ġ ib
ĠS aw
ĠT oren
ĠK amm
ĠL an
ĠC ape
ir kt
Ġe urop
if ier
Ġaus gestellt
rom an
ian er
Ġar ms
bar ung
ina e
ĠBo ys
ĠBundes regierung
Ġange ordnet
icher ten
Ġsk y
ĠAt mosphÃ¤re
ĠText il
Ġkomp lette
Ġmag ic
umin um
ĠSy mp
Ġattack s
Ġlay out
zub auen
ĠAqu ar
ĠTschechoslow akei
d ro
k asten
l och
m ers
s inn
Ġa warded
ĠF ly
ĠE id
sch ool
ĠI ce
ĠJ immy
Ġan gebaut
if ies
ĠSch af
sp ec
ĠBe cken
Ġwe ak
18 97
olog in
gew Ã¤chse
ĠMÃ¼n zen
pla in
ĠIs lands
Ġperson ally
ĠUr kunde
Ġla ugh
ĠRep rÃ¤sentanten
Ġclos ely
ĠKol umb
Ph ys
Ġinvolv es
Man ager
ĠOrganis ations
Ġrefle ct
Ġdauer te
miss ions
Sup er
Ġce iling
D ienst
W appen
c us
d re
n immt
Ġw asser
ĠS E
at ile
ĠB attle
ĠM ob
il o
ĠD anzig
ĠF em
ĠF Ã¤r
ĠR au
Ġg entle
ĠN iveau
ck el
ot os
tel la
aus s
hn s
ant ik
Ã¼hr ung
cc a
ĠZu vor
ĠPf licht
ĠPer fect
ĠStaats anwalt
Ġcr isis
welt meisterschaften
ĠSen ator
ĠFrÃ¼ chte
ĠKÃ¼ chen
ĠAnn ual
ĠZwe cke
ĠtÃ¼rk ischer
Ġtag ged
Ġverg essen
Ġscen es
Ġspezial isiert
ĠPion ier
Relig ion
C P
m ische
on is
ĠS F
he id
ĠT hal
ĠF at
am ann
ĠG ul
Ġl aptop
ot ter
ĠSt aub
Ġauf einander
ĠZ ellen
ĠSch ra
Ġver lauf
Ġj en
19 49
ĠEin zug
Ġch art
Ġunter brochen
Ã¤r er
je cted
lo yd
Ġev olution
Ġfin est
ĠTr io
ĠFilm regisseur
ĠOber flÃ¤chen
ĠMed aillen
ĠBet riebe
Ġdown town
ĠFest ivals
produ ktionen
gef unden
ĠDienst leistungen
ĠKe ep
Ġlik ed
Ġgenau e
ĠAth leten
Ġrecogn ize
Ġhum or
Ġextens ion
ĠSpann ung
Ġcandid ate
Ġverstorben en
C omm
E isen
a ise
t age
Ì Ī
Ġm att
ĠD amp
ĠG ou
ĠK ilometern
ĠE rot
ĠH ost
ĠH oy
ĠH Ã¤nden
ĠC e
ĠEr ne
ĠEin ladung
Ġch apter
18 89
tra cht
ĠGr en
ĠReg isse
ĠĠ ĠĊ
enz el
Ġmus cle
ĠMed ik
Ġbo ot
vent ional
Ġdiffer ences
ĠEd itor
ĠSchul z
ĠWer bung
Ġfac es
195 8
ĠMarkt platz
ĠEss ay
ĠLy on
ĠGebÃ¤ uden
ĠHarr is
ĠPow iat
ĠErober ung
Koordin ate
ĠMadag ask
s ysteme
z elt
Ê ¿
Ġd ual
Ġt ank
Ġw Ã¤ren
ĠS ED
Ġb anks
Ġm un
Ġm ad
ĠA chter
Ã¼ ten
Ġv oc
Ġh ind
Ġc er
ĠK enntnis
Ã¶ ster
ir en
Ġl ake
ĠSt ufe
Ġge heim
ĠZ ister
ag entur
Ġj ene
Ġhe aling
Ġ18 17
ĠBer Ã¼cksicht
Ġbes tellt
los ure
Ġro te
Sch ach
Ġem otion
ĠNor bert
ĠNational park
Ġger inge
ĠauÃŁer gewÃ¶hn
Ġschn elle
Ġcompar ison
Ġcommit tee
Ġcharge d
Don ald
Ġschott ischen
ĠFreist il
ĠStatt dessen
C an
N ote
S tein
b ungs
l t
ĉ ĉ
Ġ essen
en ien
in cess
Ġd ump
ein satz
ĠA sk
Ġh art
Ġh ydro
Ġc in
ĠP est
ĠT un
ĠK ok
ĠH eiden
Ġl ists
ĠJ oy
Ġfor th
ah o
ĠIn strumente
ell and
Ġne ug
rie ge
ĠDe an
ong o
Ġpr imarily
ĠUnter schiede
rach ten
Ġmark ed
ĠEv ans
IN E
ĠBru ce
Welt cup
ĠBill y
Ġextre me
ĠHy per
sequ ent
Ġhor se
Ġbul gar
Ġdiskut iert
ebau ung
ĠEinzugs gebiet
. ;
B ur
P res
S to
W A
k rat
is emit
al ben
re if
Ġh ang
ĠG lass
ĠK ie
ĠH unde
ĠH yd
ĠH Ã¼tte
ĠN ort
ĠSch mal
Ġver me
ĠBe weis
Ġum liegenden
pe z
18 91
ĠMar in
Ġgen der
ĠFra ktion
br unn
eich ern
ĠÃĸ konom
Ġhand eln
esen ted
ĠOrts teile
ĠSer b
ĠSport ler
ĠZeich ner
fred akteur
Ġpain ted
Ġregul ations
Ġbott le
Ġweib lichen
Ġdurchschnitt lich
ĠTats ache
ĠPiet ro
ĠSingap ore
ĠPho enix
V A
Ġa er
le ans
Ġp atch
ĠF uture
ĠF eind
ĠH ung
ĠL orenz
ten se
Ġan gewand
ik ers
ĠO skar
ag ues
Ġaus einander
Ġun us
Ġab use
Ġab zu
Ġle ichte
ard i
ĠÃ¼ber rasch
Ġsh irt
Ġthro w
ĠFr ame
40 6
ĠDo ctor
gal erie
ĠBrand t
Ġkurz zeitig
Ġcap abilities
Ġfocus es
Ġannoun ce
ĠSÃ¤ ulen
Techn ik
ĠDemokrat ie
ĠVorder grund
ĠCustom er
Ġdurchschnitt liche
ĠWik ipedia
Ġermor det
E ins
P ost
b w
h um
k os
Ġt or
Ġf ried
Ġf erner
ĠD Ã¼
ĠD irk
ĠD iction
am as
ra ham
ĠV ice
ik eln
Ġver ring
ug ar
igen en
ĠAl abama
iz enz
enn ame
pl Ã¤tzen
ĠEn zykl
Th omas
Ġag ents
Ġdire ctions
Ġreal ized
Ġentstand enen
ĠPort land
Ġerhalten en
laub nis
ĠPo es
ĠVe ktor
ĠzusÃ¤tz lichen
Ġasp ect
ĠKrank heiten
Ġagre ed
ĠVerhalten s
Ġauthent ic
Ġbevorzug t
C ount
H erkunft
P ark
h Ã¤ngen
Ġt ip
st an
ĠF uss
sch ers
ĠR ow
ĠC hal
ik ts
ver d
Ã¼n eburg
auf gaben
18 92
ĠMar athon
Ġhin weg
ĠArch ive
ĠLie ben
ĠProv inzen
Ġclos er
Ġpersonal ity
Ġlink ed
ĠKommun e
Ã¤ll ig
ĠFlor a
Ġleg it
Kl ein
Ġdest roy
Ġweib liche
Ġhop ing
ĠTot al
Ġfla vor
Brand enburg
ĠSanti ago
J a
T B
h aut
h yd
u tel
Ġ 000
es c
it led
ie bt
Ġb id
ĠM ilit
ĠD okumente
ĠF lex
ra genden
ĠI M
ĠC ash
and ro
ĠO K
Ġge p
og an
aus stattung
Ġle istete
ire ktor
ĠSe ason
rat ive
ors itzen
oth ar
ĠInd ustry
ĠQu art
Ġpass ing
ĠAuss icht
Ġmet all
gesetz te
lig as
ĠChamp ion
Ġcontrib ute
ĠermÃ¶glich te
ĠkÃ¼nstler ische
Bild ung
Ġneut ral
ĠMagd alen
ĠEvalu ation
Ġconfir med
S cript
Ġd ivision
ĠS hel
Ġb ass
ig ern
ĠT ieren
Ġl ust
Ġwh ilst
ĠAn w
ĠEr stellung
ĠTe ch
ĠLand e
Ġ17 90
Ġgro ss
ĠAnd y
anc a
ĠStre pt
Ġcar pet
esent liche
Ġerne uert
ĠRel ations
ĠBank en
Ġtreat ments
Land es
ĠTab ak
ĠPrem ium
Ġlos ing
ĠCO VID
Ġlisten ing
Christ ian
ĠOR F
ĠBiograph isches
Ġausgesch ieden
ĠWais en
Ġconfl ict
Ã¤p st
f isch
r isch
ĠS R
ĠS achen
le v
Ġo verse
ĠH eld
ĠL iver
ĠC amer
Ġdes ired
Ġde posit
ib il
qu artier
ĠUn i
ungs ort
ĠAr c
Ã¤t t
ges prÃ¤
rat ch
ĠZeit ungen
St il
ock el
Ã¤ch ter
ĠSte ink
ĠGra u
ĠGra ce
Ġover w
bild ner
ĠVol ker
Ġfind s
reg ister
ĠReich sk
ĠÃĦ thiop
ĠPat rim
Ġpat io
ĠPal ace
ĠAg ent
osp el
ĠJust in
Sh ow
ĠDres dner
Ġarr ival
stehen den
ĠCarol ine
Stra ÃŁen
Ġsle e
ĠLaur ent
ĠKult us
Ġincreas ingly
Ġmusikal ische
ĠerhÃ¶ hen
Ġguarante ed
Ġresist ance
bay ern
ĠLein wand
ĠBundesverdienstkreuz es
ĠWuppert al
Ġt ran
ĠK und
ĠK em
ĠN ut
ĠSt rat
Ġzu verlÃ¤ss
ĠPro cess
erk irche
auf tritt
Ġwor aufhin
18 85
ĠY outh
pro of
gl Ã¼ck
ĠHoch stift
Or igin
setz er
ĠKomp etenz
ĠWinter spielen
vert retung
ĠLang uage
Ġful f
Ġzeich net
Ġerl itt
ĠWiederauf bau
Ġdanger ous
ĠgefÃ¤r bt
B R
D el
I hre
U K
h essen
l uther
w ords
ĠS MS
ĠB innen
Ã¤ ule
Ġp ad
Ġp ill
Ġh orn
ĠW are
Ġg iant
Ġl aid
est het
ver ordnung
Ġse ctions
ĠAl ois
ĠAr ena
ĠEin fach
for cement
ĠGe is
lo ÃŁ
ction al
Ġgew isse
ĠSchw ein
Ġcont est
ĠJahrhund erte
yp ern
Ġger ufen
ĠVol umen
Ġsub s
Ġinc ident
ĠSan ierung
ĠHar z
ĠCont est
bereich en
ĠFlug platz
ĠFlug zeuge
Ġant icip
ĠExper ience
Des ign
ĠPor sche
Ġnar row
ĠFlÃ¼cht linge
ĠVermÃ¶gen s
ĠVikt or
ĠDiÃ¶z ese
ĠSkla ven
ĠSchicks al
7 00
K ommun
S ingle
m t
p ubl
v Ã¶gel
Î µ
ĠS ometimes
al p
Ġin halt
ĠB ak
ĠB olog
ĠD allas
Ġc ater
im i
ĠK az
ĠC and
ĠSt ro
Ġge h
ei ra
ver teilung
ord neten
Ġwor auf
ĠAus sch
Ġsh ots
co le
fr iger
ĠEnt deckung
Ġgesch Ã¤tzt
ĠKr ise
He im
produ kte
Mar ia
ĠSalz burger
gien e
ĠAud i
Ġqualifiz ierten
Ġintens ive
Ġsuppl iers
ĠFeder ation
ĠEas y
ĠVoraus setzungen
ĠBom ben
Ġprofil es
ĠMarsh all
Ġtourn ament
ĠVerbreit ungsgebiet
1 13
P P
g h
g ge
ĠB enz
Ġund ert
ĠM oney
il ia
ĠD ag
ĠK iew
ĠW edding
Ġbe qu
ĠAn nahme
iz it
Ġcon ver
ĠCh ange
auf ent
18 96
ĠHand eln
Ġgu idelines
ĠReich weite
ĠPat ent
ĠBeg leit
itu ationen
ifiz ierte
ĠTem p
ĠLuft waffe
ĠnÃ¶rd liche
Mar ie
ĠDesign s
Land tags
ĠTrans fer
Sport veranstaltung
Ġmatch es
ĠAbgeord nete
zwe ck
stad ion
Ġmonitor ing
ĠPict ures
Ġrout ine
K or
u ous
Ñ ĥ
Ġd ienten
Ġt iss
ĠS iz
ĠS ob
ĠS ession
he orie
Ġb lau
ĠA tem
Ã¼ sten
ĠM eine
ĠM other
Ġh am
Ġc arr
ĠT Ã¤tigkeiten
ĠK iss
ĠH unt
Ġan bie
ĠSt Ã¤rke
Ġre chter
Ġaus gesetzt
Ġab gebaut
Ġ18 25
ĠBe arbeitung
Ã¶r n
be fehl
Ġ4 50
Ġco unsel
fe kt
Ġbes iedelt
ĠBet rag
Ġbl ank
ĠRom ans
Ġdevelop ers
ĠWor ten
recht lichen
ĠAt las
ĠBre ak
!! !!
ĠWein bau
Ġentire ly
rÃ¤nk ungen
Ġdise ases
Ġsitu ated
ĠVerdienst ordens
Ġbrill iant
ĠBelager ung
> -
L ive
P ap
U ID
Z eitung
f und
f aktor
k ing
p fer
u y
ch el
ĠB auf
ĠT et
ĠT ower
ĠG la
ĠG ib
ĠH ash
ĠL aser
Ġan gle
ik at
ĠIn cl
Ġsp lit
Ġso il
ĠAl aska
ian ces
ĠMit tw
18 88
ĠY or
ĠMe g
sk Ã½
gl as
ĠKl einen
ĠQu ad
Ġschw eizer
Ġfre ier
ĠsÃ¼d liche
ĠKat astrop
Ġlist ings
ĠTur in
Ġjeder zeit
Ġverlie f
Ġmass age
wes ens
ĠSold at
ĠEvangel ische
ĠArg ument
ĠUrs achen
Ġfail ure
Ġinteract ive
Bere chnet
ĠBroad way
Lou is
ĠKroat ien
ĠAngelegen heiten
B este
m aus
Ġb elt
us er
ĠD sch
Ġc odes
ĠG ary
ĠR iesen
ĠC redit
ĠJ ugoslaw
ĠO ran
ĠIn tens
ĠIn spe
Ġ18 22
ĠTh ose
ĠGe fÃ¼
ac ular
fall enen
ĠJan eiro
lÃ¤ chen
rol ler
Ġass um
Ġcons istent
Ġletz tes
ĠCl ara
ĠFest schrift
Ġcommun ications
met ter
ĠPo et
Ger man
ĠEins Ã¤tzen
ĠAff airs
ĠAP I
ĠProduzent en
russ isch
Ġsurpr ised
ĠGesell schafts
Ġgefe iert
ĠDorothe a
ĠangekÃ¼nd igt
âĪ Ĵ
b ourg
e z
j ar
is ka
Ġf lie
ĠT ipps
ĠF ine
ĠF avor
ĠH ur
ĠH unter
ĠL oh
ĠC rit
Ġre ichte
ĠZ ut
op fer
Ġr um
sp ring
Ġsp ir
Ġus age
ĠGr imm
Ġro les
Ġgew issen
Ġber aten
ĠAd vanced
ĠTr i
mat ik
Ġspe aker
zent ren
Ar ten
ĠGegen stÃ¤nde
Ġhistor isch
Ġwrit ers
bed arf
Ġbele gen
brÃ¼ cken
ĠGast geber
urf ten
ĠErd geschoss
Ġill ness
ĠViel falt
Ġrestaur iert
Ġmem ories
ĠOrgan ist
ĠEntwick lungen
Ġbeob achten
Ġrob ust
Ġbelg ischen
Bet rieb
ĠTaschen buch
Hein rich
Ġcir ca
" -
H ave
M ess
S pr
b sp
ĠS alt
Ġv end
ĠD A
ĠD ays
ut age
om i
ĠH ag
ĠW Ã¶r
ĠW oman
Ġk ill
Ġge pf
eb y
Ġver fasst
th ese
Ġr ice
Ġr ichtet
ĠVer schw
ĠVer hÃ¤ltnisse
ĠÃ¼ber s
ov es
ĠPro gress
ian i
ĠSe kund
Ġwor se
18 95
18 98
able d
inn t
Ġprodu cer
ĠQu ant
Ġlang uages
fern t
wissenschaft liche
ĠErw in
AL L
rup ted
ĠHÃ¶r spiel
Ġrepla ced
grÃ¶ÃŁ te
Ġumfang reichen
ĠPok er
Ġjud ge
izien z
ĠPseud onym
ĠGebirg s
ĠSams ung
AuÃŁer dem
FuÃŁ noten
Ġemigr ierte
M r
N etz
z ahn
en ke
Ġt oler
ĠB aup
il iate
ĠD Ã¼r
Ġp hen
Ġp itch
ĠP am
ĠT ol
ĠK ante
ĠV III
ad Ã©
up e
gr id
ant ast
Ġ18 27
ĠY e
Ġad op
zeich ner
Ġtra v
uer te
eite te
Ġsc ored
gew orfen
ĠGesch enk
Ġact or
ĠKreis stadt
Ġret ten
ĠOl iv
ĠStr Ã¶m
Ġpurch asing
Ġreason able
Ã¶p fer
ĠVerkauf s
Ġstrength en
ĠGeheim nis
ĠMÃ¶n ch
Je an
Ser ver
andem ie
I E
T urnier
c ue
w ur
Ġt elling
Ġm ath
le z
ĠB ureau
ĠC ore
ber ater
ir aten
Ġer baute
ul us
Ġan onym
ĠU k
ĠAn aly
her it
18 86
dem ann
ĠGra v
ĠSh akespe
Ġph ones
Ġbef Ã¼r
ĠUr spr
ĠThere fore
Ġocc as
parte ments
Ġerk ennt
kap it
hab t
mot oren
Ġmer ch
Ġbetre ut
Ġfight ing
Ġdigit alen
ĠAster oid
Ġverbesser te
ĠHawa ii
F er
G M
b rÃ¤
b ald
i Äį
Ġt rugen
Ġf its
Ġc enters
ĠR aw
Ã¶ cke
ĠV at
Ġfor g
ĠVer f
ern t
Ġsch eme
ĠÃ¼ber zeugt
ast ing
pro p
ĠAd l
ĠGesch Ã¤fte
ĠVerein igte
ĠSchrif ts
Ġbr ush
room s
ĠFrankreich s
rist all
Ġess ays
ĠSied lungen
ĠGeist es
ĠCla ude
Ġachie ved
Ġcat alog
Ġverk Ã¼nd
ĠEreign is
ausschuss es
ĠmÃ¤nn lichen
Sa ale
ĠLetz ter
ĠInterpret ation
Leicht athlet
M as
h all
s aison
Ġd iam
Ġs inger
Ġb ow
un ken
ĠD ess
ĠR ade
ot ions
os om
Ġge teilt
Ġauf weisen
ĠZ ert
Ġwar ran
ĠRe chnung
be zirks
geb ot
Er ste
Ġbek annter
Al ben
vÃ¶lker ung
Ġappe al
ĠTal ent
brÃ¼ ck
Ġsug gested
Ġceleb ration
Ġstruct ures
ĠtÃ¼rk ische
spann ung
ĠFreder ick
Ġaccompl ish
Ġcerem ony
A uth
o be
p rechung
ĠA mal
st ahl
ĠP iano
ĠH ip
ĠN an
ĠV W
Ġle iden
Ġor al
ĠDe cken
rÃ¤ g
ĠAus richtung
heit lich
iger ung
Ġtra g
fahr ung
ĠGes am
ĠGes etze
sh aber
ĠBo ots
Ġausge geben
Ġkein em
ĠAg ain
ĠHen ne
kn oten
sprach igen
ĠPet ro
ĠLaw rence
Ġbox es
Ġcharacter istics
Ġplatform s
ĠContin ental
ĠErschein ungs
ynd rom
Ġphilosoph y
ĠWurz el
Ġbesetz ten
Ġfir ms
D istr
b og
g igen
h Ã¼gel
ar isches
ĠB L
Ġn one
Ġn ights
ol stadt
ĠP ink
ĠI hm
ĠH end
ĠL Ã¼b
ĠN acional
Ġst uck
Ġ18 19
ĠDe kor
ĠTh read
ĠLe gende
ac ted
ĠMe ier
ĠPr ize
ĠGes ichts
aid sch
ĠSÃ¼d seite
Ġsol ve
mÃ¤ h
Ġmon at
Ġbas ketball
ĠgroÃŁ em
rÃ¤n ke
Ġauthor ities
Ġwid th
ĠSchÃ¶n heit
ĠdÃ¤n ische
ĠSak r
ĠClaud ia
Ġscre ens
ĠkÃ¼ mm
ĠplÃ¶tz lich
W eiÃŁ
n ommen
Ġd urften
on ic
Ġs ight
Ġs amt
Ġf otograf
st yp
ĠP oll
ĠT ap
ĠF F
ĠK ies
ĠK abel
eit h
ĠN ob
ul ator
Ġim per
ant rieb
rÃ¤ ts
18 80
18 94
ĠPl ug
els berg
Ġ10 5
alen ted
Ġtr ick
ĠPol ar
Ġdr iven
ĠProdu kten
ĠSchul den
Ã¤us chen
ĠTechn ische
Ġpriv at
herr n
Ġhead s
ĠProble men
ĠRot ter
Her ausgeber
emb les
ĠAbs ol
Ġmedizin ische
Ġsamm eln
Ġbetroffen en
ĠBeaut iful
A fr
C la
G old
H igh
R ud
z ure
Ġs aving
ĠB reiten
ĠD utch
ent urm
Ġ2 20
ist ol
ot ischen
Ġge g
Ġ18 29
ele ct
Ġres idence
ĠPl atte
bar es
Ġevery where
ĠGesch w
bo und
ĠHaupt darsteller
Ġdec re
ĠPhil ippe
ĠBra uerei
Ġeng aged
ĠOlymp ia
gar ter
ĠStaats bÃ¼rger
ĠHel p
ĠComm and
ĠHa ag
ĠBur k
alle tt
ĠWeb prÃ¤senz
Ġbene fic
Ġpres erv
bra un
All gemein
ĠKle idung
Ġindividu ell
Ġdro pped
Ġinteress iert
ĠDigital isat
ĠWettbewerb s
gelegen en
Ġsem i
ĠCreat ive
Ġcrow d
ĠPerspekt ive
ĠEinkauf s
Ġfasc in
ĠDreiÃŁig jÃ¤hrigen
P ubl
R ich
f ly
l Ã¶sen
Ġd auert
re ts
Ġb omb
ĠD E
st atus
Ġp hr
ĠF eb
ĠC ad
ĠC rist
ĠAn pass
Ġsp acious
ord nungen
Ġme ets
be zirke
.. ...
Ġzw anzig
Ġra us
ym ph
ĠAut os
ĠQu in
Be griff
ĠAs yl
Ġbr idge
Ġser b
Ã¤us ch
ĠPal Ã¤
Ġprom ise
Ġfac ulty
Ġ180 1
Ġcert ificate
gehen den
ĠAv ailable
Ġcommon ly
Ġnormal en
ĠSus anne
iÃ¨ res
ĠKandid at
ĠIdent itÃ¤t
ĠWett kampf
ĠFerr ari
Ġberu ht
Ġelig ible
I hr
M ass
h Ã¶ch
Â ·
Å ¼
es telle
Ġt ile
Ġf lying
ĠD amm
ĠT Ã¤
sch lossen
ĠI X
ĠR uth
ach es
Ġer zeug
ĠSt ufen
ĠO P
ab s
ver folgung
Ġr ug
qu in
Ġso fa
ĠPro gr
ĠTh ai
ĠNe g
ĠAus lands
Ġnur sing
Ġfin ance
ĠFre ie
ĠBl as
oth y
ĠMan ual
ĠMÃ¼n z
wohn ung
ĠHoch schulen
Or dens
ĠBest immung
ĠWill en
Ġdarauf folgenden
ĠCor p
Ber uf
Ġevent uell
Ġsever e
Ġexp ansion
ĠGener ationen
gÃ¤n gen
ĠWeiter entwicklung
ĠSur vey
fÃ¼ll ung
Ġimmed iate
Ġenth ielt
Ġtschech ischer
Ġsav ed
Ġdrink ing
Ġille g
Ġdokument iert
ĠAx el
ĠAuÃŁ ens
Ġcircum stances
9 00
C ity
b ilden
f angen
j er
o an
p it
u eller
w il
Ġein fluss
âĢ ³
ĠH R
ĠW als
ĠL anc
Ġk andid
os serie
sp rech
aus cht
ĠAl m
Ã¤t igung
ĠNe ed
Ġro y
rif fe
ĠGra phen
Ġsome where
ĠAug sburger
ĠSh ar
Ġhand ling
ĠKinder garten
Ġperson en
Ġdel ight
Ġed it
ĠfrÃ¼ he
Ġret ro
ĠBro t
ĠWei h
Ġerhalten e
Ġprom pt
Ġlov ing
roll ing
ĠAtlant ic
ĠkÃ¼nstler ischen
ĠFore ign
ĠAster oiden
ĠLearn ing
ĠEqu ipment
ĠHimm els
ArchÃ¤ ologischer
ĠApos tel
! âĢĿ
M el
Z ug
c as
k ong
is pr
ar mee
Ġf Ã¼
ĠK au
et o
Ġer a
ĠJ ochen
ck et
Ġk reat
ess piegel
Ġme als
Ġsie bten
Ġdies el
sk l
vel and
man ager
ĠSh in
Ġno ise
ĠPol iz
Le ague
Ġcor respond
Ġ180 5
Ġrep airs
ĠSchiff es
ĠCas tell
ibr aries
ĠClub s
ĠDreh arbeiten
Ġregion ale
wander er
ĠPhot os
Theater schauspieler
ĠLyr ik
Ġjun ior
Ġt one
ĠM am
ĠD ichtung
st Ã¤dt
ĠF oss
ĠF REE
ĠG ent
Ġauf nehmen
ĠZ oo
Ġr ural
ĠEr ziehungs
tell igent
enn ungs
ian ische
ĠCh at
ĠAb stamm
ĠAus lÃ¤nder
ĠVor arl
ĠVor gehen
ĠPr inc
ĠAd olph
arbeit ungs
Ġhier zu
stÃ¤nd ige
lauf bahn
Ġcolle ctions
Ġfound er
Ġwest liche
ĠTre ppen
Ġconsider ation
Ġconf igur
ĠKol onie
Ġther apeut
ĠBa ug
ĠZimmer mann
ĠPod est
ĠBlo od
ĠLandtags wahl
Ġcompl iance
ĠRal ph
gÃ¤ u
ocarp us
C or
D ec
T ur
T ags
b ow
s eiten
ĠP itts
ĠF ive
ĠH Ã¼tten
ĠR um
ic ultural
Ġbe grÃ¼ndete
ist urnier
ck now
ul ationen
Ġmit ten
ov iÄĩ
age ments
Ġout fit
ĠFre edom
ress en
ĠFrank lin
ĠBas eball
ikt ion
ĠForsch er
ĠAg nes
Ġair craft
ĠTurn iers
Ġinstall iert
Ġaccount ing
Ġtax es
Ġgegeben e
Ġregul Ã¤ren
Kultur denkmal
Ġframe work
ĠAN D
Ġdiagn ost
Ġdish es
ĠDynam o
ĠGatt ungen
Ġwire less
Ġsam ples
L es
P oint
f rom
g Ã¼ter
m ass
p rach
r igen
Ġ ~
re ff
Ġf ern
Ã¼ ÃŁ
ĠB ott
ĠD IN
st anzen
ĠI L
ĠC ord
Ġl adies
Ġst ake
th at
ĠEr m
ĠEr lebnis
Ġ18 24
ĠOr leans
ake te
Ġfe iern
ĠPh ill
Al though
enk te
ĠVerein ten
Ġvis ible
ĠDo es
Ġprom otion
ĠSen ats
AR D
Ġtem por
ĠLu ise
Ġgepl ante
bre ite
quis ition
Ġsamm elte
Ġton ight
ĠBesonder heit
Ġbekleide te
ĠBerÃ¼cksicht igung
M M
R Ã¼ck
Z ent
b ane
É Ļ
Ġ á
Ġf emin
Ġm angel
ĠB reisgau
Ġn ic
ĠF ig
ĠK ran
Ġl aser
Ġer leich
ĠN atal
Ġan treten
ĠBe eth
be h
ĠLe hen
ĠSe chs
ĠAb u
Ġcomp act
ren e
ĠAut omat
ĠHaus halte
ĠFin ance
haf en
ender s
ĠVolks schule
Ġeinfach er
Ġant rat
Ġdra wn
Ġexpl oring
Ġpack aging
ĠTele f
spl ant
ĠSin fonie
Ġindividu elle
ĠDÃ¼sseld orfer
Ġfunction al
Ġfair ly
Ġincreas es
ĠSab ine
ĠWay ne
ĠHav el
ĠRal f
Ġbedeuten der
ĠWÃ¼n sche
ĠvorÃ¼ber gehend
B ank
k urz
w alk
} .<
ie m
Ġt um
ĠS ap
ĠD ad
ĠT reib
sch uh
ĠH Ã¼r
ĠR Ã¼st
ĠR hetor
ĠN utzen
if ter
ĠSch uhe
th is
Ġpro spect
ĠTh ird
ĠAus flug
Ġpr ide
rif t
ĠEx change
Al b
ĠNational en
Ġinternational er
ĠHistor ical
Ã¤m mer
Ġrele v
bÃ¼ hne
Ġtalk ed
Ġbeteil igten
Ġcra fts
Ġchines ischer
Ġmechan ical
krit iker
ĠTie fen
Ġdauer haft
Ġnorth ern
Ġcomb ine
Comp uter
Ġvict ory
Ġshel f
Ġdistin ct
Ġbird s
Wor ld
B ass
m ay
Ġt Ã¶d
Ġw ra
st iftung
ĠT ir
ĠG B
ĠH ain
ĠH ear
ĠL us
ir s
Ġal ign
ver eine
Ġver e
sp rechend
ĠPro tag
Ġar men
ett es
imm ern
sh afen
Ġacc ord
hol ders
ĠRad i
ĠKom bin
Ġcal endar
ĠHerr schafts
ĠHeil ige
Ġbuy ers
omet rie
ĠRÃ¤ um
ĠKanz el
ĠangehÃ¶r te
ĠCompet ition
L ang
W issenschaft
n atur
o i
w ende
ĠD R
st s
ĠP ent
ĠK ein
ĠH MS
ber atung
Ġk ap
eb o
all erie
op y
Ġaus zu
Ġhe ating
Ã¶r er
18 83
Ġup grade
ĠPl at
ĠSpiel zeiten
ĠMed al
ĠGroÃŁ vater
Ġsk illed
Ġbook ing
ĠBre m
ĠGew ichts
con ne
ĠOlymp ic
FuÃŁball trainer
ĠPark er
lÃ¤nd isch
Ġ180 2
ĠUl m
So ftware
Pre istrÃ¤ger
ĠAuseinanders etzungen
ĠBÃ¼nd nis
ĠTÃ¤n zer
Ġangrenzen den
K ol
L ied
S eite
j ord
m Ã¼nd
m auern
p il
Ċ ĠĊĠĊ
on enten
Ġs ymp
ĠS ten
at ro
Ã¼ tt
ĠB ased
ĠF urniture
ĠG PS
ĠH inder
ĠR ott
ver hÃ¤ltnisse
ak ischen
Ġpro ceed
be vÃ¶lkerung
ame ters
ĠSie gel
out ube
Ġen orm
ĠFl u
Ġro ads
Ġnew est
Ġpl ot
ĠBo sch
ĠSc reen
ĠNieder schlag
Ġgra u
leit ungen
Ġann iversary
ĠDu o
ĠStaat lichen
Ġbede ckt
Ġnie mals
ĠPil oten
Ġren omm
schlÃ¤ gen
Ġrecommend ations
Ġdisplay ed
Ġlic ensed
Ġtats Ã¤ch
imens ions
stÃ¤d ter
ĠFreder ik
Ġschwier ig
Russ land
ĠerhÃ¶h te
Sta ats
verm Ã¶gen
Verwalt ungs
ĠDak ota
ĠGetre ide
/ -
H in
I r
in as
Ġb oss
ur teilung
ĠM Ã¶r
ig ate
Ġc oc
ĠK lagen
Ġz iv
ĠL A
ĠL j
ĠC L
ĠC old
and ra
Ġr ating
Ġr hyth
ap okal
Ġpro port
her z
ĠPro jekts
Ġwor st
18 78
Ġsh aped
pr esent
ĠHe irat
Ġges ammelt
ton a
ĠGrund riss
Te x
Ex per
Ġbelie ved
mark et
ĠBeruf ung
Ġimp ossible
ĠLouis iana
ĠVis it
Ġposs ibility
lÃ¤ufer in
funktion Ã¤r
Ġemp fehlen
ĠAbhÃ¤ng igkeit
S outh
k ologie
s wert
Ġs itzt
te gie
ĠS QL
Ġin itiative
ge halten
ĠD ob
ĠC afÃ©
Ġbe zog
Ġge gangen
ei z
ĠIn stead
Ġr ib
esch e
ste il
Ġsp ark
enn amen
Ġ4 000
Ã© es
ĠVor feld
omp son
iet ies
Ġsc rew
ĠTra il
Ġbo ots
ĠEm ma
Ġprofess or
Ġoffic ers
ĠDate ien
ikal ische
Ġtravel ing
Ġverlie h
ĠÃ¼b te
Ent wicklung
Ġqualifiz iert
ĠGolden en
ĠChallen ger
ĠZul assung
ĠjÃ¼ng ste
ĠMittw och
D ruck
W ohn
c amp
h ill
s up
u ens
v id
Ġt ags
Ġs uc
Ġw estern
ĠD ritte
ro ff
ĠW asch
ĠR ally
ĠL ohn
ĠL amb
os es
Ġver schl
ĠVer pflicht
Ġse gment
Ġsch lossen
ĠAl ess
iz ierten
ĠAb satz
ĠAb raham
ĠAuf stand
ĠGr ill
ke pt
Ġ17 0
Ġins ight
Ġbeen den
ĠFre quenz
Ġover view
ĠZusammen setzung
ĠSup reme
ĠProfess ur
kon zept
Ġfeel ings
irm ingham
Ġmar ks
Ġbisher ige
ĠGesamt wertung
Ġens uring
BC I
ĠSommers pielen
hab ilitation
Ġblock s
Ġsuggest ions
Ġaustral ischen
Ġzeich nete
ĠWes er
ĠStell vertreter
Ġbefind lichen
Ġpropos al
B L
G leich
M Ã¤nner
N amen
O der
m aker
n t
z weig
Ġa ims
ĠM C
ĠT reat
ĠK letter
ĠH essischen
ĠW elle
ĠL ingu
Ġbe ur
rÃ¤ gern
Ġvor geschlagen
oy al
Ġrec re
ĠBundes land
Ġtr ips
ĠMittel alters
Ġsim pl
ĠDar in
Ġsu ite
ĠTour nee
ĠLang haus
eint rÃ¤cht
Ġir re
Ġnie mand
laim ed
Ġgre y
Ġult imately
onom ie
ĠVerÃ¤nder ung
ĠMaur ice
Ġster ben
Ġvolunte ers
ĠBalt imore
ĠMoz art
ĠHud son
F ar
w enden
Ġd raft
an schluss
ar ius
Ġm ic
ĠB eing
Ã¤ hre
ĠM s
Ġh its
ĠH Ã¤ft
Ġer setzte
Ġge prÃ¼ft
Ġr ichtete
ak h
ĠAn atom
ĠAr te
ĠAr range
ine a
Ġman che
ĠAb bey
ĠHer itage
Ġlie ber
min ute
Ġalle ged
ĠBr is
Ġem b
ĠÃľber setzt
Ġeinz us
li ament
ĠHal te
sc reen
Ġappro val
rÃ¤n gt
gal ith
Ġoper ated
ĠRu ine
Ġpack ed
ĠEhren bÃ¼rger
Ġzwe if
Ġwalk ed
Ġanz ut
ronom ie
Ġdescrib es
Italien er
Ġelektr ischen
Ġcontinu ing
ĠPfar re
Ġkulture lle
Kan al
Down load
ĠHamp shire
D M
e u
k ok
Â ½
Ġs Ã¤chsischen
Ġb ranch
Ġf inger
Ġf liegen
el Ã¤nd
ĠB ish
Ġ1 19
Ġh ate
ĠF alk
ĠI rak
ĠH l
ĠC ow
Ġl ies
ĠZ ag
ver arbeitung
ĠSch al
iel ler
Ġj ahr
Ġnach folgenden
Ġen ge
18 82
ĠMar ion
ĠNach ruf
mit tler
Ġtra ditions
vel le
Ġstud ied
Ġjust ice
ĠBau werke
bl og
ĠMo le
ĠBere chnung
ĠOper ations
deck ten
Ġpack ages
ĠAst ron
ĠUp date
Ġexpla ins
Ġdur able
Ġumfang reich
Ġelectric ity
Ġdigit ale
ĠVerletz ung
ĠBefrei ung
Ġmur der
ĠNev ada
E ach
O k
W ein
e xt
in ental
Ġw Ã¶ch
Ġc rypt
âĢ İ
ĠG ate
ĠH ous
ĠW onder
Ġg od
Ġg aming
ĠC onstruction
ĠSch iffen
Ġver letz
Ġr iding
Ġle hnte
Ġ18 33
ĠBe zeichnungen
ome ter
ors es
fin al
acht al
Ġdesign ing
Ġger aten
Ġshe ll
ĠMark graf
ĠComp an
ĠWohn ungs
Ġmov es
ĠÃ¶ff nen
Ġober e
Ġresult ing
ĠÃ¤hn lichen
Ġwatch ed
Ġmaint aining
ĠLig as
ĠConc ert
Ġkulture llen
ĠCham ber
ĠWW F
ĠMitbe grÃ¼nder
ĠMarok ko
ĠBolog na
C lass
L eip
O F
R h
S Ã¶hne
u als
ĠD ining
Ġn ob
ĠP oten
ĠT SV
ĠW affe
ĠR uns
ĠL ese
Ġal ph
Ġk roat
ul ierung
ct ual
th es
ĠRe ifen
ĠAn to
ste tten
ast atur
Ġcon ce
be an
ick te
ĠLe uch
ĠNe ver
ĠAuf fassung
ĠNach weis
amm ed
Ġbut t
ĠGeb irge
Ġpre v
ious ly
ĠMed ic
Ġben utzen
Ġsub sp
Ġfre ige
rib e
ĠEnd spiel
ĠApp ro
Ġapproach es
ĠRÃ¤ umen
Ġintrodu ce
Ġslow ly
Ã± a
Ġvict im
Ġlauf enden
Ġkompon ierte
ĠInternets eite
rev olution
ĠLiver pool
G S
M ein
V iele
j un
s ammlung
nd ung
is le
Ġb ild
und eten
el ung
Ġm ixture
le itete
ge ts
st ill
ĠF ett
ĠF aktor
ĠG UI
ĠC rew
Ġbe wertet
ir ges
ĠN ou
Ġre ward
Ġst ren
up t
pl ung
oc ated
Ġdeutsch es
Ġher o
Ġem bra
Ġra w
ĠHand y
ĠQu Ã©
zie her
Ã¤nder ungen
ĠAnt worten
ĠGeneral stab
Ġadv is
ĠCor porate
Ġdre hte
fre unde
Ġbeh inder
Ġport ion
ĠFund platz
Ġselten er
ĠÃ¤uÃŁer te
ĠWeihn achten
Ġfarm ers
ĠVerletz ungen
Ġveget ables
ĠGreif swald
ĠUrspr ungs
. âĢĻ
E ff
V e
m Ã¶
w iesen
à ¤
ch ild
Ġm g
ro u
sch atz
ra ÃŁe
ĠH its
ĠW ard
ic ia
ĠN om
ĠSt age
ah me
og o
Ġle istungs
ungs mittel
Ġch ances
Ġent f
ĠBer ger
rich en
ĠGes ellschaften
of ern
Ġcl ar
Ġgel Ã¶scht
Ġbu ilder
bo le
kreis es
ĠBet reuung
Ġexper imen
ĠAt tra
Ch ina
ĠCont ra
laub e
lau tern
ĠErst aus
mark e
Ġsw ing
Ġalong side
Ġconne ctions
bor ough
Ã¤rk ung
ĠspÃ¤t estens
Ġaccur acy
ĠArk ansas
ĠIra q
Ġamen ities
Bele ge
B urg
N ur
W ol
b rief
j ana
m g
r ine
w elle
Ġd ust
ie ge
ar ent
at ol
Ġb ol
Ġb old
Ġf ru
Ġp ant
ig ste
ĠK id
Ġor ganisation
ia z
ser ver
Ġthem es
ĠArt ist
ĠPlatz ierung
Ġdr inks
Ġbesch reiben
weil en
rip ts
Ġbef asst
ĠWar ren
En glisch
ĠCont ainer
ĠGed enkt
Ġbra uchen
fo ot
Ġnatur ally
ĠVerwaltungs sitz
ĠGre y
ĠEnts te
Is rael
Ã¤cht nis
ĠBlÃ¼ te
Ġqualifiz ieren
Ġhum ans
Ġanges iedelt
Ġpleas ant
Ġprotest ant
Publik ationen
B O
H F
W inter
g les
Ġb ibl
Ġf as
ĠD arsteller
ro skop
ĠF abr
ĠE X
ĠH unger
ĠC M
ĠV R
if i
Ġdem ent
ag anda
ill i
ap o
ĠAn ordnung
ĠSp a
Ġvor n
che f
ock s
ser b
ĠGen re
ĠVerb rechen
Ar ray
Ġbef asste
ĠBÃ¼ chern
Ġset up
wh ite
Ġlink er
Ġworks hops
Ġgirl friend
ĠCamp bell
ĠWirk lichkeit
ĠWahr scheinlichkeit
ĠBil den
ĠAsp halt
Ġconsult ation
Ġevalu ation
Ins eln
marsch all
cu ador
grÃ¤ ber
B ig
ĠS i
ĠS tem
un z
ra de
Ġg ratis
Ġl Ã¶sen
den ken
Ġy e
ĠSch Ã¤fer
ste ins
Ġsp iegel
Ġse ats
Ġvor gegeben
iss er
ĠAm y
ĠReg istr
orf ul
ĠGes and
ĠHoch wasser
ĠRes ort
Ġur auf
Ġbr ut
ĠWohn zimmer
Ġgemein nÃ¼tz
Ġpass ende
Ġ180 7
do ors
ĠGraf iker
ĠArbeits gemeinschaft
Ġentfern en
ĠCle veland
ĠjÃ¼n gere
komm and
Ġsah en
ĠThÃ¼r inger
Ġmensch liche
ĠBos n
ĠBeob acht
Ġsuffer ing
Ġvi agra
B und
M ult
S am
T able
V is
c abin
m aster
p he
s endung
ĠS uf
ro gen
Ġp Node
ĠP Ã¤dagoge
ĠW Ã¶rter
ĠL ater
Ġg ained
ĠC onstant
ber ichte
Ã¶ konom
Ġer zeugen
ĠU eber
ĠSch ein
ĠIn fo
aus ende
ĠEin nahmen
ĠAus gleich
ail ing
ret to
Ġpr est
Ġsome what
heim ate
ĠKunst geschichte
ĠIs a
Ġschw ach
Ġret ire
45 3
ĠMot ive
Ch arts
ĠSol id
ony me
Ġbeh ielt
ĠMaler in
Ġless on
Ġgelang t
âĢĶ âĢĶ
ĠKre u
ĠPil ger
Ġmatch ing
Ġgeschlossen en
Ġtele fon
Ehemal iges
ĠSem ester
ĠFranzÃ¶s ischen
ĠVort rÃ¤ge
ĠMÃ¶n chen
ĠVoraus setzung
DE F
Ġstrug gle
ĠBenedikt iner
ĠBir ken
ĠGab rie
Ġverurs acht
ĠCott bus
spart ner
Ġsumm ary
ĠStrept ocarpus
E K
E mp
F rance
c ell
d orff
j ing
k Ã¤mpfe
t rans
ĠS oci
ge halt
Ã¤ s
st ance
ro g
Ġh es
ĠR ivers
ĠC F
ĠV a
ard t
ho ur
Ġyour s
ĠTh ings
Ġen han
att oo
amm ad
fl Ã¼ge
Ġgen Ã¼
wer pen
Ġbet reiben
ade us
Ġcont aining
Ġbeg raben
Sch lag
Ġstud ying
Ġmake up
Ġmed ic
link plain
Ġchild hood
Ġstr ict
Ġdi abetes
amb a
ĠSchm id
ĠAngel a
Ġans telle
ĠBaum eister
Ġop ens
ĠRob inson
Ġautomat ic
Ġassoci ation
ĠSav oyen
national mannschaft
Art ikel
ĠÃ¶ konom
Ġobserv ed
ĠProte ction
imens ional
ĠKomposition en
ĠSkulpt uren
ĠHinz u
ĠWrest ling
D ynastie
I l
b rem
e ck
r ible
r idge
t ier
Ġm s
Ġm ask
ĠB Ã©
ĠP rad
ĠP aint
ĠT ell
ĠF resh
im on
ĠK PD
om o
ĠH obby
ĠW els
ĠW eing
Ġk unst
ĠSt apel
Ġst ab
Ġsp oke
ĠBer eit
ĠAus sehen
ock er
Ġany more
Ġac ts
Pro fess
ĠUr kunden
23 4
gar de
Ġperfe kte
ĠSl alom
ĠFle cken
Ã¶ss er
ĠWel come
Ġsouth ern
verstÃ¤nd nis
Ġsurpr ising
Form ation
ĠHey ne
JÃ¤hr ige
Tro tz
ĠNeck ar
W hether
c ut
i ast
l inger
ch sen
Ġa cknow
ĠS ave
Ġin spe
ĠB isch
ĠB ibl
ĠD io
ĠD Ã¼n
ter y
Ġp a
Ġc ameras
ĠT iger
ĠG ay
im aurer
ĠL othar
um fang
ĠN ott
ĠN ATO
ier i
Ġim pl
ien na
ag uay
Ġab schloss
ĠJahr t
fer ences
ĠMar ÃŃa
ĠLand wirtschafts
old ungs
gend a
anc ement
weil ig
uge hÃ¶r
Ġpubl iziert
recht liche
Ġbas ically
ĠPla ces
ĠLondon er
FuÃŁball nationalspieler
wei he
ativ ely
Ã¤m ter
Ãĸ ff
Ġung arischen
Ġversch le
Ġaddress es
ĠUs ers
serv ice
Ġsens itive
Ġrecogn ition
Ġdepend s
ĠKron en
ĠKÃ¶r pers
ĠBeaut y
ĠLuk as
ĠWetz lar
Ġris ks
Ġunus ual
ĠAbstamm ung
H K
I O
P ack
c ur
e hemal
z essen
in cluding
Ġh anging
ĠF ather
ĠF Ã¶der
ĠE y
ĠR TL
Ã¶ den
Ġdes ktop
est ag
ad os
Ġre ception
ĠU g
Ġst ieÃŁ
ap elle
Ġj aw
Ġor ch
ĠEin tritt
ĠCh annel
ĠUnter grund
fin ed
ikan ten
ĠUm zug
ograph ien
ĠKÃ¶nig lichen
Ġange mel
ĠKunst historiker
ĠBar ry
ograf ien
Ġsur ve
ĠUr heber
ĠOst see
Ã¼h ungen
Ġcheck ing
oun ts
ĠRegel ung
fo und
ĠPubl izist
ĠEigen schaft
ĠErk enntnisse
Ent fernt
Ġkanad ische
ĠLook ing
fun ks
Ġportugies ischen
Ġchamp ions
ĠFI FA
Ġwechs eln
A v
B all
C R
H ay
I mp
J ac
K anada
b zw
g ige
Ġt ut
ĠS ierra
Ġm useum
ĠM essen
Ġp it
Ġp ace
ĠC arn
Ġbe heimate
Ġl ip
eb el
ĠAn alysis
ens er
ĠMit ch
ĠVor sprung
fol k
haus er
16 0
ins icht
Ġcl ubs
Re al
ata ill
Be fore
ĠRom ane
hol der
ĠFahr zeugen
Ġentsp rach
lei h
Ġjeweil ige
Ġkein es
ĠWar ner
Ġpriv ile
ĠKur fÃ¼rsten
ĠErst ligisten
Ġdav or
ĠStat ue
Ġinn ere
Ġdeliver ing
Ġtext ure
Ġdeb ate
ĠPower PC
ĠDisk uss
Ġsowjet ische
polit iker
Ġscient ists
ĠRay mond
stÃ¤d te
Ġsatisf ied
ĠEint rÃ¤ge
Ġromant ic
ĠImper ial
Ġverblieben en
Ġinvent ory
ĠUd SSR
l ok
on el
he ll
Ġf illing
Ġh urt
Ġh ielten
im ente
em eter
Ġe cht
Ġst ruktur
Ġse ed
ĠCh art
pl us
Ġman agers
ĠAus b
ĠZeit ungs
Ġfin de
ĠCar ter
vor stand
reit et
Ġbl ind
Ġ24 0
Ġele gan
mar ine
Ġpass word
ĠFolge zeit
ĠJo in
ĠWith out
ĠStein bach
Stand ard
bÃ¼ chern
Ġinde ed
ĠBud get
person al
Ehr endoktor
ĠLeiden schaft
has Access
ĠMd L
Mill ionen
penden ce
Jo achim
J ournalist
M or
S R
T O
a endert
f ig
j ob
Å Ī
Î »
er gie
Ġd eleg
un ivers
ĠF ron
ĠF onds
Ġg ate
Ġg lobe
ĠV in
ĠV all
ĠSch affen
ĠSch Ã¶ne
Ġun ex
ĠRe z
ang ers
ens lalom
inz eit
ĠVor kommen
ou x
Ġcont ained
gew Ã¤sser
Ġbel ong
ĠPe ak
schl usst
Ġze igten
Ġverl ieren
ĠKont roll
Ġgem essen
ĠFot ografie
ĠIhr es
spe zif
ĠInn ere
ĠDec or
ĠAst ro
Ġapply ing
Ġsuggest s
Ġprem ier
Ġthous and
ĠBÃ¤ ume
ĠKanz ler
ĠFlo h
angeb ote
ĠClin ton
ĠErkrank ungen
Ġworkshe ets
1 12
W ald
W ork
X X
c re
o fen
Ġ !!
in tend
Ġw ed
ĠS r
ĠA part
Ġv ene
st immen
Ġp uts
Ġp ocket
Ġn om
ĠF ut
ĠF lieger
ĠK i
sch lagen
ra ce
Ġz one
Ġz Ã¤hlten
ĠR ace
ĠL ords
ĠN as
ĠSt op
Ġst able
Ġyo ga
ĠAn kunft
Ġhe aded
Ġsp ont
land o
Ġvor erst
Ġdurch ge
ian ischer
pl o
Ġman ip
ĠAb bau
Ġ17 89
ĠPr inzen
Sch ul
Ġverw altet
app ed
ĠFr isch
Ein ige
ĠHel en
azz o
AN D
ES S
ĠZeich entr
Ġtradition ell
Ġpot ent
akter ien
Ġruss isch
Ġlow est
Ġpercent age
lap pen
Ġpassion ate
ĠEconom ic
ĠAngehÃ¶r igen
ĠKonzentr ations
ĠGitarr ist
ĠRug by
Ġhabilit ierte
G O
L ondon
W al
m achen
s an
is i
Ġt ill
he ft
Ġ( +
ut o
ĠW DR
ĠL ost
Ġge gliedert
ĠU ll
ĠRe chnungs
ĠBe ge
ĠEin blick
ĠHe avy
fen ce
Ġgen ehm
wer fen
ĠSchw aben
Ġ10 6
ĠBr ight
ĠTra uer
Un ser
ĠHol iday
ĠKr as
gebiet es
ĠPer iode
leit en
Ġphot ographer
fert igung
Ġcontrol s
ĠÃ¤ gypt
ĠZur Ã¼ck
Ġrequire ment
Ġpaint ings
Ġtrack ing
ĠKenn edy
ĠRet ro
Ġfab ulous
Ġprefer red
Ġmort gage
ĠBeweg ungs
Ġegg s
ĠausdrÃ¼ck lich
1 15
È Ľ
Ġw ann
Ġf Ã¶rder
le is
Ġc ultur
ĠF ish
ĠG is
ĠE cht
ĠW arm
ĠW ladimir
ĠL ion
ĠC any
ĠC abin
ist isches
ul ierte
ĠSt yle
ĠSt orm
os hi
Ġst ations
Ġst range
Ġver bleiben
ze k
Ã¶r ten
tell ten
Ġent decken
ĠAb bildung
lieÃŁ ung
ĠBild schirm
Ġtechn isch
ĠWor ms
ĠEd itions
ĠKomp onente
less ly
ĠAp plication
Ġleben d
Ġredu ction
ĠKreuz es
ĠVors itz
ĠNutz ungs
Ġlate inischen
Ġinvolv ing
ĠvollstÃ¤nd ige
Ġassist ant
lim ited
ĠGrÃ¤ ber
Ġcorrect ly
ĠSmart phone
Ġhighl ights
ĠðŁ ĺ
ĠNam ib
Ġnationalsozial istischen
B enz
M a
S B
V O
b ig
b eln
g ger
g iving
l Ã¼sse
n utzung
r ass
w y
Ġ ï¿½
ĠS audi
ĠH K
ĠW oll
ĠW arr
Ġer setzen
ĠN BA
ĠSt uck
th y
aus en
ĠEr ben
iz on
ĠNe ut
18 76
ĠY oga
Ġpr ize
Ġad mit
ĠPl Ã¤tzen
aup l
Ġgegen einander
Ġges endet
Sch m
Ġtr enn
ĠNational versammlung
mÃ¤ ss
Ġmark iert
utt a
Ġwant ing
Ã³ r
ĠEv olution
Ġgem el
ĠPra ger
ĠDenk m
ĠJournal istin
ĠRev ol
pre uÃŁ
ĠOs man
Ġbede utete
ĠKre ise
seit ige
emb ran
ĠCr icket
ĠDenkmal pflege
Ġtele phone
ĠNic olas
ĠYear s
Pol en
ĠRis ik
Ġunmittelbar er
ĠberÃ¼hm t
ĠMig uel
Ġunterr ichtet
.:.: .:.:
ĠTho ugh
Ġgesund heit
Ġsau ce
ĠReprÃ¤sentanten hauses
N ein
V arian
h ot
j ap
en ge
is ierungs
Ġw ave
Ġb rows
und ry
us che
Ġm erk
Ġo vers
ĠP end
ĠT asten
âĢ ¯
ĠL ars
Ġto w
Ġbe aring
ĠN ina
ĠZ ar
Ġun klar
Ġwar e
ĠEr haltung
ĠSp alten
Ġch er
lo cken
mit te
ĠCo ol
ek ten
Ġrec ip
Ġwhen ever
ĠgehÃ¶r enden
Ġho ff
ific ial
Ġass igned
ĠPaul us
ĠÃĸsterreich ische
sicht lich
ĠIns zen
Ġgener ated
osp itals
ordin ary
upp el
ĠWol ken
Ġther ap
ĠjÃ¤hr liche
Ġmaint ained
Nieder lage
ĠLux us
Ġdiv or
Ġpred ict
ĠðŁ Ļ
Bad minton
Jose f
ĠFur ther
Ġadministrat ive
Ġpromin ent
ĠGoth a
ĠErzbist um
M ad
P ersÃ¶n
P rem
P andemie
r ike
s i
w inning
in ch
in formationen
Ġd ot
it us
it ischen
Ġt at
Ġf iction
Ġm or
ĠM Ã¼l
Ġh alt
Ġh az
ĠC el
id as
ĠIn fl
Ġr ar
ĠAn merkungen
Ġj unger
be ziehung
Ġent rance
Ġen de
Ġsh arp
Ġ17 93
ĠPl att
Ġ12 8
ĠGen ehmigung
ĠNor man
Ġke ys
Ġbo ards
ĠJohn ny
mar ks
ĠAss embly
umb ing
ĠMax im
Ġnational er
Pl us
ĠPet rus
Ġamer ikanischer
ĠProf i
ĠPak et
ĠKoordin aten
ĠSchlagzeug er
Stat istik
ifff ahrt
ĠFrÃ¼hl ing
D B
F ollow
S ingles
b eben
g ier
ĠS ah
he ld
at ius
ĠB A
ĠD in
ĠK anten
ent scheid
sch reiber
ĠR ib
ĠL er
Ġto x
ĠV iv
Ġmit hilfe
Ġzu gewiesen
Ġver mitteln
ne k
Ġr anging
ĠAn ger
ang aben
Ġ18 23
Ġum gest
ĠTh ompson
ĠSe es
18 87
ĠFl ash
Ġgew alt
res ted
Ġgr id
ĠAll an
Ġact ing
ĠGrund stein
olv ing
ĠSohn es
ĠLebens jahr
Ġsign ature
zentr ale
Ġfocus ing
ĠkÃ¶nn t
Ġkom ment
ĠÃ¼b licherweise
ĠEvangel isch
ĠWell ness
Ġmount ains
System atik
ĠDiffer enz
Ġinstant ly
Ġkombin iert
ĠBapt ist
ĠBerk eley
ĠÃ¼berrasch end
G ood
L ear
s u
Î º
Ġt alented
Ġb unch
Ġf oss
ĠB ib
Ġ1 11
ĠL enn
Ġge be
ĠIn stru
Ġj ahre
Ġsp ots
ĠÃ¼ber arbeitete
Ġent itled
Ġvor lÃ¤uf
ĠIm ages
los ed
ĠVor lÃ¤ufer
In itial
Ġgo ogle
ĠGra y
itt y
aw are
ĠAnd re
tre cht
gra b
ĠDurch schnitt
ĠBÃ¼rger krieg
Ġerfolg los
ĠBed ien
osoph ie
ĠAmt es
ĠAngel o
ĠSchÃ¼ler innen
Ġut ility
Ġlock smith
Ġemp ir
ĠAdels geschlecht
ĠOrient al
ĠAnim ation
Ġwunder sch
ĠPfl anze
ĠInstall ation
ĠSpekt rum
Ern st
D ep
Ġf ranÃ§
Ã¼ bt
le ep
Ġc ab
im an
ĠH insicht
Ġdes wegen
aus wahl
ĠEr finder
ip el
ĠGe iger
ĠSe hr
sk Ã¤mpfer
Ġra ck
Ġra cing
Ġverb re
Ġverb lieb
stÃ¤nd igen
ĠVers te
Ġeng aging
ĠPal Ã¤st
ĠJo an
dienst es
ĠStutt garter
ĠLang er
Ġvorhand ene
Sport liche
ĠUntersuch ungs
Ġref resh
Ġtw enty
ĠFern ando
ĠElement en
tor wart
Schw eden
ĠKomment are
ĠNav al
Ġforder t
Ġmittelalter liche
phys ik
ĠDial ekt
ĠSauer stoff
Qual ifikation
Leichtathlet ik
A ct
F ue
d an
o os
in haber
ĠS owohl
Ġf ranch
ĠB rom
ĠD y
ĠD uc
Ġc ord
ĠG Ã¤rten
ĠK od
ĠH air
ĠL ic
ten e
Ġg riff
ĠN em
ul er
Ġe gal
ann ers
if te
Ġst ability
we alth
sp ace
ip her
gr en
Ġvor nehm
18 81
Ġout s
utz utage
Ġro ots
ĠJul ian
ym bol
vers uch
Ge ographische
ĠÂ °
schlieÃŁ t
ĠBro thers
Ġenter ing
Ġklass isch
ĠAre al
Ġrelig ion
ĠRepubl ican
Ġesc ape
Ġconven ience
Ġoccur red
Ġvolunte er
ĠGalax y
Ġausger Ã¼stet
Alex ander
ĠLegisl atur
ĠDonner stag
ĠMadagask ar
A rab
E ven
O pt
P G
l ia
w Ã¤
Ġt ired
ur ities
Ġf ifth
ge ht
ĠB irmingham
ĠG os
ĠK reat
om orph
ĠL enk
Ġg rant
ĠC ut
ĠSch aum
ĠSch metter
Ġver mein
ben ennung
ĠUn entschieden
âĢľ ;
be weg
ĠSe ction
ĠNe uk
18 0
ign al
fe hler
Ġweit e
Ã¤ch ern
An other
ĠfÃ¼hr ende
schl iess
Ġgreat ly
Ġersch lossen
ĠCon vention
schn ell
ĠMittel n
Ã¤nder ten
pert oire
yr er
ĠHar old
Ġbew al
Ob jekte
Ġexp enses
Ġprepar ing
ĠBayer ische
ĠHan au
Ġattra ct
ĠArg ent
aun us
ĠMas ters
ĠTok yo
krit ik
Ġnotwend igen
ĠDub ai
ĠTar if
Ġwhe els
Ġkeiner lei
ĠMagn us
H op
L uc
V C
c il
v gl
Ġd ei
Ġs auber
ĠS age
Ġin tense
ĠB ark
ĠB owl
Ã¤ ums
Ġh ung
Ġn aked
ĠK f
sch ne
ĠH Ã¤ndler
ĠH onda
ĠR oc
ĠL inn
ĠL esen
Ġal arm
Ã¼r ft
op ro
ĠSp en
ĠPro jekten
rÃ¼ der
Ġpr ime
ĠAd rian
off er
Ġcl imb
Ġfl ights
ĠVerb Ã¤nde
Ã¶st licher
sche e
Aus bildung
ĠSchl ange
ĠLei b
ĠTo ul
FuÃŁball torhÃ¼ter
ĠSol ms
ĠRechts an
iat hlon
Ġschn ellen
bed ing
Ġconc ent
Ġhol en
ĠhÃ¤ufig sten
ĠEmp fangs
ĠrÃ¶m ischer
Ġoffic ially
kap ital
ĠPhilipp inen
verwalt ungs
Ġcrit eria
Ġnetwork ing
Ġabsol ut
Ġposs ess
But ton
ĠbestÃ¤t igte
Ġlif etime
Ġpassen den
ĠDiv is
ĠÃ¼bergeben e
Ġreligi Ã¶se
Ġpul led
Ġausges prochen
ĠEnvironment al
ĠVertre tern
Ġexpos ure
B ilder
H y
S low
c ity
f onds
r Ã¶m
s il
ĠS umm
Ġf lieÃŁen
il dete
ĠP uerto
ĠE i
ĠE ye
Ġz ip
ĠJ as
ĠJ ama
ĠO den
ĠO ft
ab wehr
Ġge fahren
we hren
Ġle ere
Ġse asons
rÃ¤ te
ack e
In n
Ġgen auer
Ġev il
ĠBl itz
gew Ã¶lbe
ĠFilm produzent
ĠHaus halt
ĠsÃ¼d afr
anst alter
Ġbas eball
ĠDav on
Ġtyp ische
Ġpower ed
Ġstehen de
Ġcert ification
AR T
Ġredu cing
Ġexpl an
Ġcoup les
ĠKor respond
Ġsuper b
Ġengine ers
Ġstrong ly
Ġcop per
schei be
ĠMand at
ĠInner halb
Ġbess eren
Bay ern
Ġdispla ys
J ames
f ish
h us
m essen
he ide
Ġin k
Ġin neh
ĠA K
ĠP ole
ĠF M
ow ers
ab i
Ġab stra
ĠSp rech
ĠSp eyer
Ġle ichten
Ġsch lagen
urg ical
Ġ17 91
Ã¶ff nung
ĠÃľber tragung
Ġje welry
Ġac res
ĠKÃ¶nig lich
Ġdevelop er
Ġhistor ischer
ĠBÃ¼rger schaft
ĠMain zer
ĠPo ul
Gr uppen
ĠZÃ¼r cher
ĠKons ul
ĠFrie der
Ġschwer er
ĠHeraus gegeben
Ġfloor ing
date i
Ġschle chten
ĠErÃ¶ff nungs
Ġvict ims
-------- --------
ĠGroÃŁherzog tum
Ġgesellschaft lichen
ĠVul kan
ĠWrit ing
Ġexamin ation
Ġvul ner
Ġbesie gte
krÃ¤ ften
ĠMittele uropa
ĠschlÃ¤ gt
emeter y
> </
C E
N O
W ettbewerb
j ournal
r ors
ï ¼
er gebnisse
Ġt v
Ġp upp
Ġn ad
ten do
ed a
ce ut
ĠVer mittlung
ĠRe quest
Ġex posed
Ġunter ird
ĠLe gend
ĠOr n
ĠWe ich
ĠVor jahr
Ġcomp uters
fÃ¼hr ende
Ġges perrt
ĠBl an
Ġra ted
com mer
ps is
Ġperson als
ogen e
utt le
ĠDes cription
ĠNot re
ĠCom edy
Ġbeautiful ly
ĠBor is
Ġindividu ellen
ĠProt otyp
Ġgriech ische
Ġstammen de
ĠTÃ¼r en
Ġstation iert
ĠEvery thing
struktur en
ĠKonfl ikten
gerichts hof
Ġacqu ire
ĠGebiets reform
ĠSyr ien
ĠAngehÃ¶r ige
ĠVertra uen
ĠReichstag s
Ġpersonen bezogen
. ]
S w
T wo
Z E
b eing
m ill
w issen
Ġs olle
ĠS uhr
Ġin haft
ĠM ilitary
ĠD j
ĠD raft
ĠK ass
ĠK oh
om ed
ĠR umpf
ĠL uck
ic um
Ġbe grÃ¼
Ġbe half
Ġst amp
ĠAn ten
hn ten
Ġle ague
Ġ18 11
ks hire
ĠSe oul
ĠAb riss
ss itz
18 73
ĠMar qu
ĠMe ilen
ĠAug uste
oth urn
fr am
Ġart istic
Ġrequ ested
ĠAss istenz
Ġcommun icate
Ġcurr iculum
umm y
Ġbra un
verband s
ĠhÃ¶ch st
ĠEhren mitglied
ĠSied ler
Ġorganis ations
Ãľber setzer
Ġauthor ity
stehen de
ĠBud dh
ĠVis ual
ĠKommand ant
ĠverlÃ¤ sst
ĠKolle g
ĠInform atik
ĠSus an
ingu ished
Min ister
Ġhop es
ĠEncyclop edia
ĠLoren zo
) }
D Ã¤n
E ss
d ated
g ne
g Ã¼nst
s ame
w ski
Å ĳ
Ġt win
Ġs ank
Ġw aters
Ġb Ã¶h
ge fÃ¼hl
ĠB Ã¤ren
Ġo ven
ĠT O
ĠT reas
am ine
ĠW ire
Ġg ap
Ġer lernte
ul se
rie gen
Ġsp in
lie be
ĠEin tracht
Ġall mÃ¤h
pe ter
ĠGe fahren
18 72
ĠY ellow
Ġpr inter
Ġdo ctors
Ġges ungen
ĠOb serv
Ġviel mehr
Be wegung
Ġsub jects
Ġspe akers
Ġrel ation
recht ler
zu ela
ĠRad sport
Ġstor ed
produ kt
ĠSitz ung
Ġerfolgreich sten
Bundes staat
Ġprior ity
Ġsowjet ischer
ĠZweit ligisten
Ġinstr uments
ĠFÃ¤h igkeit
Ġelektron ischen
ĠKaisers lautern
ĠAuthor ity
ĠDunk el
Ġliefer te
ĠBuk arest
Ġbegeister t
g irl
j ournalist
n n
v ester
on er
ĠS ize
Ġm inder
st ufen
Ġp iano
ĠT ests
ĠK unde
ĠK rypt
Ġz us
ĠW ing
ĠL utz
ĠL Ã¶s
ĠL anka
Ġto ys
ĠC ov
ĠV amp
Ġre ine
ĠAn sonsten
ov on
ĠDe h
ick el
ick ing
par e
Ġsh ut
ĠGem Ã¼se
Ġpl ane
Ã¶ff entlichen
Ġfol der
ĠAnd er
ĠGer ald
Ġeinz iger
ĠEd mund
fil men
Ġcheck ed
ĠNik ola
Ġtour ist
ĠFÃ¼rst entum
Ġscreen ing
Ġapart ments
Ġsyn thet
ĠEss ays
Ġunbek annten
ĠVerband es
Ġcarry ing
Europameister schaften
Ġdeta ill
ĠRÃ¶m ischen
Hein z
[...]
