#version: 0.2 - Trained by `huggingface/tokenizers`
e r
e n
Ġ Ġ
i n
c h
Ġ d
Ġ a
e s
o n
Ġ t
n d
i s
i t
ĠĠ ĠĠ
Ġ s
i e
o r
a t
Ġ w
a n
r e
a r
a l
h e
Ġ S
t e
Ġ b
u r
u n
l e
Ġ f
g e
a s
Ġ in
Ġ m
Ġ e
i ch
u s
u nd
in g
Ġ A
Ġ o
Ã ¼
Ġt he
Ġd er
Ġ v
Ġ B
e l
r o
i l
i on
Ġ p
Ġ c
s t
Ġ n
Ġ M
Ġ und
Ã ¤
Ġ D
t er
Ġ 1
Ġ h
i g
d e
en t
Ġ (
a m
un g
o l
u t
Ġ T
o m
Ġ P
i m
i c
â Ģ
Ġ F
Ġe in
Ġ I
Ġ G
Ġd ie
r a
e t
ĠĠĠĠ ĠĠĠĠ
Ġa nd
Ġ E
e d
Ġ K
Ġt o
Ġ z
Ġo f
Ġ W
Ġ H
e m
ĠĠ Ġ
s ch
Ġ g
h r
t en
Ġ R
Ġ L
u m
Ġ C
Ġb e
Ġ l
i r
is t
u f
b er
is ch
a nd
Ġt h
Ġ 2
u l
d er
Ã ¶
a ch
e it
Ġ N
c k
Ġ er
Ġ V
d en
Ġ J
Ġa l
i er
Ġ k
e in
Ġ re
o t
Ġ1 9
Ġv on
i v
c t
at ion
Ġa n
i f
a b
er s
o w
l ich
a d
es t
c e
Ġ ge
ĠS t
Ġd en
Ġ y
g en
Ġ im
o s
Ã¼ r
Ġd es
Ġ O
Ċ ĠĠĠĠĠĠĠĠ
Ġ2 0
es s
u ch
ĠĠĠĠ ĠĠĠ
Ġs t
i k
Ġm it
l a
Ġf or
i d
Ġ is
o u
al l
i es
an n
) ;
as s
v er
Ġ U
Ġ âĢ
Ã Ł
t s
Ġ on
t h
p p
a y
Ġa uf
k t
ie l
Ġ Z
Ġz u
e b
it h
e w
Ġv er
i en
o ur
Ġ r
ĠS ch
a h
Ġ ist
a f
o p
e i
l l
Ġd as
Ċ ĠĠĠĠĠĠĠ
Ġf Ã¼r
ĠI n
at e
Ġd em
a g
ich t
Ġal s
er e
Ġw ur
Ġ un
Ġ =
o d
il l
Ġ {
u b
o g
a v
isch en
Ġw ith
or t
n e
in d
p t
q u
a u
a hr
s te
Ġp ro
s e
Ġd e
t r
l y
en d
Ġa us
Ġw h
a k
er t
i b
Ġ j
Ġy ou
m en
z e
0 0
Ġth at
p e
Ġein e
Ġ Ċ
Ġ }
el l
Ġ it
Ġs ich
ar t
u g
Ġ i
a us
Ġwur de
ĉ ĉ
er n
ĠR e
Ġ20 1
ĠA n
in e
Ġw ar
) ,
w e
ĠV er
s p
b en
âĢ Ļ
o ch
Ġs e
f f
h t
a p
r an
u p
Ġ he
Ġa b
Ġa s
u e
Ġc on
a ge
ĊĠĠĠĠĠĠĠĠ ĠĠĠ
g er
am e
o k
ge t
es ch
sch af
Ġa re
m ent
Ġ le
ĠT he
ĠE r
ĠD ie
Ġa m
ung en
Ġs ein
Ġ or
Ġe x
ro m
h n
Ġc om
Ġs ch
Ã¼ ber
f or
ig en
an g
ur n
it y
u d
an t
m er
ar d
Ġbe i
Ġn e
g r
us t
o st
o v
iv e
Ġ ch
Ġa uch
Ġw e
Ġa t
i al
Ġ 3
isch e
Ġw ir
a in
Ġs o
i z
ur ch
s en
. .
( )
ĠS p
l in
Ġm e
ĠU n
ol l
Ġ Ã¼ber
k s
Ġth is
i a
Ġn ach
r ie
h en
âĢ ľ
as t
i p
r u
ung s
ĠA r
ĠB e
ĠJ ahr
te d
ut sch
Ġ20 0
av e
Ġw as
l o
u re
Ġy our
Ġ "
Ġ if
or d
Ġs p
l ic
h er
n en
l ie
Ġd ies
ĠâĢ ĵ
is e
Ċ ĠĠĠ
Ġal l
Ã¤ t
o c
or e
Ġ1 8
Ġb y
ĠD e
r it
Ġb is
ĠP ro
f er
h l
i de
Ġs ie
t urn
I n
p r
ab le
Ġn ew
h o
Ġw er
Ã¶ r
Ġf rom
om e
ĠâĢ ŀ
Ġz ur
Ġn icht
ul t
i le
schaf t
1 9
Ġ -
en s
Ġ es
pt ion
âĢ ĵ
Ġz um
ct ion
Ġ ent
j e
et z
Ġ um
Â ł
) .
ter n
Ġwer den
d u
ul l
ch en
a ck
ĠE in
Ġein er
Ġh ave
l ass
ar k
o ut
i re
ic e
n er
ĠA l
il d
m e
Ġ us
er v
b e
ĠS ie
ĠT h
it e
Ã¤ n
i ge
Ġh at
l and
Ġw ie
o b
Ġv or
h al
Ġz w
Ġc an
r Ã¼
r ing
Ġo der
Ġwir d
ier t
Ġun ter
Ġs ind
ic k
Ã¤ r
a re
Ġw ill
Ġm an
i o
on t
en n
Ġd urch
f t
i an
it ion
Ċ ĉĉ
ĠT e
Ã¶ n
a c
p er
Ġ en
ĊĠĠĠĠĠĠĠĠ ĠĠĠĠĠĠĠĠ
us s
el t
ĠC h
ig ht
Ġw or
Ġn ot
te l
ig n
Ġ /
ch e
D ie
ge l
isch er
e ar
for m
o un
Ġr es
Ġein em
as e
S t
l at
r y
m al
ge b
Ġ 4
im e
er k
p h
g t
e y
s s
ro w
on g
ĊĠĠĠĠĠĠĠĠ ĠĠĠĠĠĠĠ
te ll
Ġ19 9
Ã¤ nd
re ich
ĠA us
ĠS e
a il
g es
z en
at ur
Ġein en
b eit
Ã¼ n
Ġ Ã
o ok
lich en
a uf
all y
st en
ĠA b
x t
Ġp r
at h
ur g
p ar
ĠM it
Ġa d
ĠL e
Ã¼ hr
is ter
Ġt e
Ġs h
in al
ĠD er
u te
ĠO r
E x
ah l
Ġ 5
l er
Ġh as
om m
' s
Ġ Y
Ġge t
2 0
( );
o de
f e
Ġa r
c c
ul d
Ċ ĉ
l os
at er
u ÃŁ
ĠE n
m p
Ã¼ ck
Ġcom p
t o
ĠB er
ad t
ub lic
an ce
Ġre turn
o hn
ĠW e
T he
on e
ation al
lich e
ation s
ĠA uf
ĠG e
Ġ up
ce ption
om p
ch t
ich te
a de
Ġo ut
Ġd o
ak e
Ġd ass
th er
R e
is s
ĠH e
we ise
je ct
Ġb es
1 8
el n
ing s
ent s
k eit
t z
f en
em ber
Ġn ull
in z
Ġ +
at ed
ĠM ar
ĠL and
in t
l an
Ġg o
or s
am p
re e
Ġo ur
m s
r Ã¤
st er
Ġ19 8
Ġ &
Ġ 0
te il
t w
a z
Ġh er
Ġw o
al t
r en
Ġ qu
a ut
r i
l es
re is
Ġm y
Ã¤ hr
ĠD as
ĠĠĠĠ Ġ
on d
ĠN ach
Ġb ut
ow n
ol og
iv ers
am m
al s
S tr
ion s
at en
Ġ ro
y pe
Ġ/ /
a pp
ar y
Ġi hr
os e
an s
Ġ 6
ers on
Ex ception
h re
b urg
or en
in k
c l
ig h
Ġm ore
Ġg en
ab en
ĠI m
it z
Ġt r
Ġ 9
.. .
Ġn ur
a ct
Ġon e
k e
he it
de t
re i
u pp
on s
ĠM e
or y
Ġ19 7
s er
f ol
Ġthe ir
it er
t ra
us e
Ġc o
ol le
ik e
ol d
ier te
Ġw eit
Ġt ra
ĠUn ter
is h
ĠV or
Ã ©
ro ÃŁ
v e
Ġp er
s h
Ċ ĠĠĠĠĠ
m it
te t
ĠZ eit
ĠF or
Ġs ow
Ġn och
( "
p ro
ch n
ĠH er
al ue
ier en
Ġme hr
ber g
Str ing
ut z
al e
v el
de m
ĠSt ring
eb en
Ġa pp
ic al
i ent
l d
r es
y ste
Ġb et
an z
on der
at ch
ĠA m
Ã¤ l
Ġ19 6
o ck
il m
Ġwur den
am il
ig er
Ġab out
ĠF l
ie d
g an
Ġv om
Ġde utsch
f l
nd e
ĠSch w
t t
Ġals o
z eit
er en
at t
ein e
b le
ne h
es e
N ame
oun t
Ġ1 7
re at
ste ll
ĠDe utsch
Q u
Ġe v
a x
ib t
Ġb est
Ġ 7
ĠN e
W eb
Ġthe y
at a
y s
Ġs te
Ġ( *
Ġl ie
k en
ze ich
Ġwh ich
iel er
el d
Ġa ber
om men
s el
Ġcon t
Ġge w
ĠSt adt
Ġf e
i um
in n
is ten
ĠI t
lin ks
kt ion
par am
b ar
f in
Ġp re
p ublic
et h
Ġy ear
te m
Ġ 8
u en
Ġh is
ĠF ran
Ġt ime
D er
or n
âĢ Ŀ
Ġ19 4
re turn
ah n
Web links
Ġal le
a w
le ich
C on
Ġbe en
c es
ĠRe g
Ġf in
en g
ĠG r
og ra
st and
an ge
Ġs pe
o f
Ġk ann
Ġ1 5
Ġwh o
P ro
ay s
la g
Ġof f
it t
ter s
Ġk n
u le
f Ã¼hr
n is
Ġsow ie
D e
Ġwor k
m ann
Ġp la
ie t
i ze
Ġ19 5
Ġin s
Ã¤ ch
a ce
Ġk Ã¶n
on n
r ess
ol it
re d
h Ã¶r
ĠP ar
Ġo b
Ġan y
ĠG em
p ort
it Ã¤t
etz t
ĊĠĠĠĠĠĠĠĠĠĠĠĠĠĠĠĠ ĠĠĠ
a i
g lich
ie w
- -
Ġb er
et t
Ġre c
Ġ1 0
Ġd ar
m an
ir st
Ã¼ d
n et
r if
an k
ov e
l ine
Ġ1 6
Ġg es
f ahr
Ġs ome
ĠU S
ĠI S
w o
im m
E n
m in
s k
s et
ig t
at ing
ier ung
y p
ĠS o
le d
ann t
Ġo ver
o ol
Ġin ter
E inz
ah re
am men
or k
Ġ19 3
h und
Ġs erv
Ġp art
00 0
ĠG esch
at or
ĠS te
ig keit
r ich
Ġj ed
Ġge gen
g lie
el s
ĠâĢ ľ
g esch
l ung
d ition
Ġd is
Ġein es
T h
Ġ ich
Ġs oll
b all
el le
y n
Ġs c
i x
ach weise
p ut
at s
el y
Ġwie der
Ġzw ei
eln achweise
ĠP h
ik er
u de
und en
ĠA d
Einz elnachweise
ess ion
Ã¶ ff
b r
ar beit
B N
A n
Ġh aben
h aus
I N
ĠUn ivers
Ġ= =
at z
in der
yste m
o ber
Ġl ike
Ġsein er
ĠG ra
ie der
Ġb o
Ġsein e
u al
ie le
ab e
is sen
r on
ĠG es
Ġo ther
in ter
ĠIS BN
t on
at es
o le
o h
u er
Ġe l
T ype
lie ÃŁ
ĠE s
ĠE x
c om
id ent
a der
lat z
ur op
Ċ ĊĠĠĠĠĠĠĠ
eit e
Ġdies er
Ã¼ nd
ĠD ies
1 0
Ġp e
ÃŁ e
Ġn o
ĠGem ein
Ġin t
am en
Ġwh en
ge ben
Ġhat te
Ġa cc
ver y
a is
b st
Ġs el
ĠJ ahre
ĠTh is
m ein
ĠG eb
as h
p ert
Ġ Qu
Ġj ust
ĠF ra
1 7
ou g
us ammen
o und
ĠJahr hund
le ment
ir t
A r
ic t
a ir
D as
Ġ1 2
S ch
os s
e k
or f
aus e
Ġp ar
ar n
E R
form ation
Ġi hre
ĠK on
o ff
ach t
Ġpro v
ing en
w er
Ã¶ l
Ġth row
Ġth ere
if f
ĠC hr
c ial
ik an
Ġpro du
Ġp h
al d
Ġst ud
o us
n ah
ĠK ar
f all
ĠkÃ¶n nen
qu est
iel d
in s
h m
Ġ ra
) )
ent lich
Ġ *
Ġf ol
Ġhe l
ĠF re
i der
ĠO b
ĠTe il
ot t
E r
our ce
ent r
Ã¤ hl
ĠM us
ĠÃ ľ
Ġ |
ot h
" ,
iter atur
Ġbe g
am er
in a
Ġne ed
Ġs eit
Ġe tw
Ġa g
Ġ !
Ġb u
ĠJahr en
le g
ĠB o
p en
Ġzw ischen
ĠN ew
Ġh ow
Ġin d
Ġ :
ro ug
Ġre g
Ġthe m
f ter
ĠK ir
u es
c re
ic es
R es
m a
ĠU m
U n
v ent
I d
io us
Ġin to
Ġwh at
ĠP r
rie d
Ġv ers
gen d
Ġl ook
ĠW elt
Ġ .
Ġd am
um ent
ĠA nd
op le
Ġf r
ro up
Ġit s
1 2
c o
il der
le t
d ay
at ic
Ġg roÃŁ
hal ten
o id
Ġg r
() .
l i
e p
un k
Ġ <
b au
l Ã¤
ĠS h
ĠBer lin
g s
en de
Ġwar en
" );
ĠM an
if e
Ġf irst
f r
Ġdies e
tr y
ĠSp iel
ĠT ra
Ġth an
en e
Ġ1 4
ran s
Ġh ad
ĠB es
is te
eit en
ĠG er
b o
Ġbe k
I m
ro und
Ġzur Ã¼ck
if ic
Ġw ere
Ġin cl
ĠĠĠĠĠĠĠĠ ĠĠĠĠĠĠĠĠ
Ġbe c
eit s
Ã¶ s
ck en
w erk
st ra
la ge
Ġf inal
c ed
und es
p l
' t
Ġm ake
p iel
ell en
1 5
c ted
c ess
Ġm ost
a gen
Ã¤ ter
Ġhel p
or g
y m
ag es
ur r
Ġin st
de d
neh men
1 6
ic s
a um
h and
ge w
V er
f ul
Ġwo uld
O N
au pt
le in
Ġh and
ĠAr beit
sch en
Ġ1 3
o y
iv er
ĠB r
Ġun s
en er
A l
Ġm on
re am
ĠT r
Ġs ho
ut ion
() )
ib le
uch t
Ġus e
ĠJ an
ĠÃľ ber
ra nd
is m
Ġpe ople
t es
Ġbe im
Ġd ann
f Ã¼
ra y
Ã¤ d
Ġkn ow
ow er
ÃŁ en
Ġ201 8
ad d
it ies
ĠJ un
ĠA ll
ĠA ut
v ers
he im
ĠA ug
ĠB l
w ard
ĠC ar
in ess
sch ie
ĠN or
Ġer sten
Ġm us
Ġge hÃ¶r
tell t
ĠN ov
ĠSt a
Ġon ly
Ġh o
ul ar
Ġw el
ĠM en
Ġf ind
Ġw enn
f ig
ub l
schaf ten
Ġb el
at ive
Ġw ell
p la
Ċ Ġ
Ġb ack
Ġel se
Ġe very
en ce
Ġth roug
c y
Ġg ibt
Ã¶ glich
Ġer st
ra ch
am es
Ċĉĉ ĉ
le x
ogra ph
g l
Ġl oc
ĠJ ul
Ġ! =
C h
Ã¤hr end
en k
tern ational
h ne
i pp
al k
Ġs he
en den
Ġa ct
ĠZ w
ra g
c on
eb s
ar b
() );
al en
Ġd rei
glie d
ĠH and
Ġh ier
ĠP f
fol g
Ġm ay
Ġs et
ĠM in
ier ten
Ġver y
Ġge b
ĠJahrhund ert
Ġ19 2
ĠC on
un st
und e
s on
ĠM on
Ġdes ign
Ġc l
p f
L ist
ĠB au
p on
Ġg esch
ĠI nd
us iness
it s
z w
w n
ru ck
Ġcom m
7 8
ĠZ u
ĠE l
ĠGemein de
ĠO ber
1 4
G eb
en z
Ġs upp
ien ce
ĠAr t
em ent
Ġcon s
/ /
ist or
ĠM ed
k l
Ġd a
ĠH o
am t
Ġg u
Ġp l
Ġk onn
1 3
Ġjed och
âĢ ¦
it al
L iteratur
ĠSt ra
Ġd ire
ar m
ck e
and er
lo ad
ĠP e
O b
os ition
ĠE urop
P ar
eng th
me ister
z er
urr ent
Ġd r
Ġman y
a id
Ġd own
Ġb re
ĠF ilm
s o
o der
ĠY ou
ist r
sch e
ĠSt ud
rie b
Ġg er
sp ieler
Ġf Ã¼hr
. )
Ġyear s
iel t
te xt
O r
uÃŁ ball
um ber
b ild
ch er
5 0
Ã¼ t
ster reich
ĠF amil
p s
ĠChr ist
ĠÃ ĸ
Ġc re
as ed
o od
z ial
v or
Ġan ge
an y
ur t
n ung
ĠAug ust
Ġer h
ĠS c
ru pp
m at
ĠB undes
Ġsp Ã¤ter
Ġse hr
Ġs m
Ġweit er
ĠP ol
ĠB and
Ġas s
ro l
Ġ Â
Ġv iel
Ġver b
ar r
Ġt wo
Ġ X
F or
ĠDeutsch land
( ),
ate g
et s
au er
e c
ab ei
ew e
2 00
Ġv oid
Ġin v
i qu
il ity
Ġth ese
Ġh igh
am s
je kt
eth od
Ġund er
it ed
Ġs ub
if fer
f o
1 1
ass er
re g
ĠP erson
Ġ [
Ġz e
Ġex per
Ġm in
oug h
a kt
Ã¤l t
ass en
ut h
Ã¶n ig
vel op
Ġre m
for e
V alue
Ġi hn
Ġre ad
f ach
ment s
re m
k te
r icht
il s
u ck
o te
iv en
tem ber
Ġt ry
Ġh ome
b ach
Ġs ol
a j
ar s
Ġf l
Ġb l
ĠB et
Geb oren
Ġ '
Ġn ow
ĠNov ember
Ġetw a
Ġad d
ig ung
schie den
ĠO n
ar ten
Ġthroug h
Ġf ree
hal b
ct or
Ġ end
v en
lich er
Ġp ublic
Ġ3 0
Ġgo od
ff e
ing er
ol f
i or
eit er
Ġa fter
ier e
Ċĉĉ ĉĉ
uÃŁ er
Ġst r
Ġg leich
o int
un ter
A T
u z
un kt
lo ck
pr il
ie f
I D
k er
B e
ct s
ult ur
Ġ )
ich er
W e
ĠM al
ge mein
erv ice
g est
Ġde c
ĠR es
p or
Ċ Ċ
ho f
ak ing
re ad
Ġlie gt
Ġsein en
ĠVer b
schaf ts
2 1
hal t
ĠM Ã¼n
a ur
Ġsein em
ĠSe p
ch ts
ĠN ational
Ġver w
Ġse e
Ġp erson
ost en
ra d
ĠGr und
Ġh in
ĠW h
ur z
r at
Ġ201 7
M it
ow s
Ġg reat
Ġs uch
ĠK l
ĠPro du
a ul
Ġm ach
ĠK inder
ĠV ol
Ġdies em
ĠN ord
st Ã¤nd
Ġm ark
ten s
Ġz usammen
Ġdeutsch er
ĠB ei
Ġand eren
ĠIn st
Ġch e
ien st
ĠJan u
ĠFran k
if t
Ġpla y
Ġd ay
Ġw rit
an ts
ĠH aupt
ur s
u k
ĠSep tember
ĠM ann
Ġim mer
c ri
pon se
e x
ir k
Ġw ay
Ġs om
re ib
it el
at ure
ĠVer ein
as k
Ã¶ ÃŁ
is en
Ġl ong
Ġv is
ag er
Ġv alue
Ã¤r z
C lass
Ġst and
Ġbec ause
ĠF e
ich ts
Ġa c
uf t
ĠE nde
ĠI s
Ġm ed
op h
b es
Ġon line
R E
Ġwh ere
Ġein z
al th
Ġar t
Ġe igen
g ang
Ġer ste
ĠA pril
ĠH aus
Ġsch on
M ann
Ġer w
Ġk eine
Ġber eits
he l
ke hr
us tr
he d
in er
ĠA s
Ġb usiness
ĠP latz
Ġle tz
l ing
Ã¤ s
ĠG roÃŁ
Ġsch w
v iew
le ct
ess age
lic k
Ġc ol
Ã¶ff entlich
w ick
ĠV ers
) );
Ġpro f
ĠK Ã¶nig
al ity
3 0
T e
Ġa v
ĊĠĠĠĠĠĠĠĠĠĠĠĠĠĠĠĠ ĠĠĠĠĠĠĠ
= =
r or
Ġa kt
o ver
ic a
Ġth en
ar i
im p
ar ch
Ã¼ tz
sch l
up er
ien d
ur ing
z ahl
Ġwh ile
ot her
Ã¤n g
Ġb esch
iz ed
st adt
iv es
Ġsel bst
Ġ201 6
N ach
al le
Ġh ere
ĠK unst
es en
ust om
Ġ201 5
Ġd ort
Ã¶ ch
a den
iv ate
ess en
Ġev en
L e
m Ã¤
la gen
pert y
Ġhe ute
Ġbes te
ze ug
as ch
Ġs k
ĠI f
w ay
ebs ite
af f
Ġ ,
S T
Ġihr er
f inal
ĠM et
f eld
ction s
Ġco uld
kt ober
Ġte chn
s atz
b ahn
Ġun ser
Ġk e
es ter
le ase
p art
isch es
Ġwor ld
ĠI I
Ġ201 4
Ġfol gen
Ġf un
ĠD es
omm un
m ar
[ ]
Ġd iffer
eb ru
Ġ19 0
ation en
Ġd el
ĠM ai
ĠS Ã¼d
gr Ã¼nd
in es
in ce
Ġw ant
ĠB ar
Ġc ar
gr und
Ã ¡
la uf
ĠĊ Ċ
k reis
Ġst atic
st ru
re t
ĠF Ã¼r
o in
Â Ń
Ġch ar
ĠH och
ste in
Ġ201 0
Ġ2 5
ĠA mer
Ã¼n st
Ġo wn
oh ann
Th is
al ien
c ode
at her
f ang
ĠJul i
Ġse c
Ġsho uld
Ġres ult
ĠJun i
s w
ĠJ u
Ġe m
Ã¤n ger
ĠC l
A t
issen schaft
Ġc ase
ĠIn ter
tr ib
S ie
Ġkonn te
om en
Ġf re
mit tel
n ew
K ey
omp on
v al
Ġm uch
ĠB ild
l ang
ais on
Ġv ier
S e
hr en
Ġde velop
Ġ201 2
Ġ1 1
Ġm ade
Ġver schieden
ĠO ktober
Ġi hm
Ġ %
-- --
Ġ& &
use um
Ġg ra
Ġ201 3
in nen
Ġi de
ĠA t
in o
ĠG ew
is ion
e ich
E N
Ġe ben
ie b
al if
od y
Ġf amil
ĠF ebru
s g
t ag
Ġd on
ran z
en der
ĠF r
Ġl ast
Ġus ed
Ġ201 1
or ben
ur es
Ã¼r ger
Ġp ass
stell ung
er y
Ġst art
Ġpro gr
Ġl ang
A d
gan is
Ġs ur
A us
Ġb en
f te
Ġincl ud
ĠS er
ĠS pe
Ġt ake
ole an
ĠD r
Ġin formation
A R
Ġbe fin
Ġc lass
olog ie
fall s
Ġw en
re it
ain t
ro ss
Ġdam it
Ġo hne
zeich net
ĠJanu ar
Ġ ur
ot s
b uch
T o
Ġs aid
ĠH ol
Ġbe fore
ĠU r
he mal
Ġge f
ĠM Ã¤rz
Ġne ue
w alt
il it
De utsch
ro p
o gen
qu ire
o ten
Ġserv ice
Ġ2 4
Ġall er
Ġl ife
Ã¼ s
Ġ1 00
z ember
Ġb ook
ĠOr t
G e
ra ft
ĠF ol
Ġch ild
cc ess
Ġn ame
ĠW erk
ing le
w ohn
al se
il t
ĠLand es
ut en
u ge
ĠP olit
sch lieÃŁ
Ġt rans
ater ial
z ie
iv ing
Ġaus ge
ĠC he
Ġs u
âĢľ ,
ach sen
Ġk am
č ĊĠĠĠĠĠĠĠ
ou ble
le it
iss ion
Ġm od
ĠM ark
Ġk ein
Ġk lein
olog y
Ġs er
rie g
Ġw Ã¤hrend
ĠS k
Ġbe ing
Ġr ight
ĠPh il
oll ow
Ġto p
w w
Ġ200 9
A L
Ġ200 8
ern se
z ug
ed er
ic an
Ġtr ue
Ġp ol
ĠO ff
Ġand er
ĠW est
ĠG ener
ill ion
ĠKir che
ĠF ried
w are
A N
Ġer folg
hr er
ĠL iste
Ġer sch
Ġprov ide
is k
Ġsp iel
as on
ak es
ĠF ahr
rif t
Ġe as
tra g
Ġp lan
amer ikan
ĠW or
A m
ĠUnivers ity
f ra
Ġgr Ã¶ÃŁ
u ter
Ġf ound
. ,
Ob ject
Ġ $
ĠJ ohann
Ġst att
ĠDies e
Ġ #
im es
O R
kt ur
ĠPro f
h ol
H e
ĠCh ar
y l
2 2
Ġ9 78
ĠDe zember
le te
Ġ18 9
l ig
ut t
Ġst ar
ip s
ear ch
ĠMus ik
los s
ade m
Ġc le
ber t
sch n
b and
ĠAr ch
un n
Ġbei den
sh all
w end
Ġ200 7
Ġte il
la ck
ĠâĢ ł
ĠV on
ĠĊ ĠĊ
o pp
Ġj e
mal s
om an
ist s
ig te
n ame
ĠUnter nehmen
ĠC omp
Ġgen er
Ġa round
ĠB uch
Ġ >
ail able
er b
ide o
l en
ĠW ert
Ã¶ st
ĠM ich
al ter
ĠMen schen
Ġs ite
Ġpr es
m ed
age ment
u ally
Re quest
is piel
Ã¤ch st
ĠD urch
f a
Ġp ost
id es
b y
y le
il le
Ġf est
ĠS al
Ġof fer
at us
ge d
ĠN ieder
Ġe ach
in ing
ĠAl s
a e
Ġe t
Ġag ain
ĠE ine
i us
z ent
Ġdo es
ĠGesch ichte
ĠP art
z u
Ġc oun
sp iel
ach e
2 5
all s
ogra f
ĊĠĠĠĠĠĠĠĠĠĠĠĠĠĠĠĠ ĠĠĠĠĠĠĠĠ
lin k
Ġd id
sch utz
Ã¤ hn
Ġd ata
w ahl
Ġne uen
Ġc ustom
ig es
Ġre al
out h
app end
Ġk ey
Ġste ht
s etz
Ġn umber
Ġc atch
ism us
ĠRe ich
as ter
Ġpro cess
ĠH am
Ġihr en
ten d
Ġ200 6
Ġd u
ĠD aten
Ġsh ow
Ġc urrent
neh mer
ĠC o
ĠG rÃ¼
fÃ¼hr t
Ġthrow s
o hl
Ġe ing
Ġd abei
p os
a ar
t re
âĢľ .
ol v
Ġ u
ch sel
ch s
Ġ x
k auf
ap er
Ġe mp
Ġwe ek
19 9
B y
h af
Ġen g
ĠFebru ar
le gen
ell schaft
um e
en ter
Ġdies es
ranz Ã¶s
Ġs ign
Ġdiffer ent
we en
es ten
Ġth ose
Ġc are
Ġc olle
ĠD ar
ap an
Ġ ...
Ġar beit
Ġth ink
Ġb ed
ĠJ ohn
g abe
nah me
Ġh abe
g leich
Ġz un
ĠP er
Ġ5 0
ĠW ir
Ġb zw
l ength
8 0
st r
Ġl ove
M ap
itt le
Ã¤t z
Ġre ally
f ort
Ġm ar
b um
ĠReg ion
ain s
c i
ĠK r
al er
uf fer
ĠS aison
ĠE d
ĠK n
ĠMit glied
Ġg ab
ĠUnivers itÃ¤t
ĠG rupp
Ã¼n f
ĠG u
le gt
Ã ³
G esch
Ġbek annt
ĠVer lag
ĠP l
Ġl ar
Ġcomm un
n ess
t he
ĠL eb
la ub
sch ule
Ġf ile
b t
v an
um mer
in en
uf en
de ut
4 0
sp ort
6 0
Ã Ń
f ern
ĠMÃ¼n chen
ĠW ien
c ing
ĠG l
ĠSch ul
Ġcre ate
ĠN amen
iqu e
Ġr est
w ays
ichte t
om mer
az u
ĠMit tel
M ar
Ġf rÃ¼
ĠÃ Ħ
los sen
Ġ200 5
re cht
O ver
Ġpla ce
ab el
ĠH Ã¶
an st
T ra
Ġf ollow
ĠW il
y r
ges tellt
Ġdes sen
A s
ĠS an
Ġc al
p unkt
Ġpro ject
it zen
ĠB ere
ĠA ss
Ġp ra
fahr en
ĠB ut
us h
Ġm ov
Ġweit ere
ĠL a
Ġbe f
ĠEn tw
ĠY ork
omm t
Ġl ist
Ġb ring
Ġein fach
ord s
ĠB est
t il
Ġl o
le kt
ĠD an
ĠFor m
Ġc our
ĠW asser
ĠSchw ei
ik a
b in
k ommen
ĠM ag
Ġg ut
Ġbu ild
stra ÃŁe
ĠB ay
ĠL in
Ġfr iend
an gen
u x
op e
Ġfin den
Ã¤nd er
c a
Ġav ailable
th is
Ġe hemal
p ieler
Ġbet ween
e ver
ct ive
ĠP at
D ata
h in
Ġder en
ĠW er
u gen
Ġ â
ĠI hre
Ġche ck
grÃ¼nd et
S S
Ġn or
Ã¶r der
Ġs onder
ĠT o
ĠT od
Ġph ot
ĠN atur
he in
Ġh im
los e
Ġerh ielt
Ġg roup
ĠF est
Ã¤ ude
Ġs l
Ġp at
ĠP rÃ¤
E in
N ode
iv id
Ġst ill
Ġp os
i den
glie der
ĠB re
A b
uf f
Ġb r
ĠM od
ly mp
ĠKar l
Ġent sp
Ġbes onder
Ġ20 00
L E
ĊĠĠĠĠĠĠĠĠ Ġ
ĠA uch
Ġus ing
Ġa ut
ran k
ir d
Ġf ew
all en
Ã¤hl t
ĠW ohn
ĠB Ã¼
Ġsonder n
is hed
Ġg est
ard s
f ass
N e
ĠW ei
g ra
ĠEn t
ĠW ill
Ġt er
m m
ĠSt re
Ġm uss
et ing
ĠB as
Ġl og
un ktion
ĠSt and
I t
tell en
Ġm oder
Ġmon th
Ġsch ool
cri ption
ur y
r ic
P ath
Ġb oth
C ont
il es
Ġv ar
Ġalle m
re en
c lass
ie g
ĠF uÃŁball
Ġ2 2
Ġdeutsch en
I T
Ġsm all
Ġan n
igh ts
it Ã¤
F ile
rie ben
Ġ2 1
Ġor der
geb iet
sel f
Ġs ystem
om in
im al
ĠA pp
Ã¼ ss
ĠR ad
p re
Ġ201 9
Ġf alse
ĠV ert
ro ll
Ġv al
ich ten
Ġin ternational
it es
ĠIn tern
irt schaft
ĠB ra
ĠR o
sch ied
Ġn ah
Ġb ie
Ġexper ience
Ġein ge
schl uss
it ter
h a
oll en
ĠM ot
ĠC ol
Ġfamil y
Ġs Ã¼d
d ate
ig inal
et ail
Ġserv ices
ubl ik
pr ess
z iel
Ġand ere
Ġob ject
Ġ200 4
č Ċĉ
Ġg anz
U R
hn en
Ġcomp any
Ġd ating
Ġfor m
B u
ch te
Ġo pen
S et
Ġ2 3
Ġab s
r ide
Ġdis c
ig ten
Ġer reich
av ing
fig ur
Ġt ype
e h
kt or
Ã¤ uf
Ġl a
mÃ¤ ÃŁ
Ġh al
Ġn un
Ġre quire
ĠBer g
ar z
ro om
ĠSch l
ĠLeb ens
Ġp olit
nde x
ck er
7 0
Ġne xt
al y
Gesch ichte
ĠPerson en
or ts
Ġc a
ut es
Ġge mein
im mer
Ġim port
ĠP re
ĠR Ã¼ck
our n
ĠT ag
a ÃŁ
re uz
A M
Ã¤ us
C l
Ġf Ã¼nf
h ard
ĠZ usammen
lass en
Ġbefin det
de x
it u
g ung
ĠP ort
um s
ck t
Ġm ember
ra gen
ess er
it or
Ġf ull
n a
Ġv iew
L eben
Ġro om
Ġv iele
lo y
ir l
am ent
ĠC olle
ame ter
Ġw icht
Ġc or
ann te
able d
ĠM y
lass e
Ġb as
gr upp
nis se
ĠL ei
ĠEn g
ch es
and s
ĠW ar
Ġinclud ing
k ten
Ġs ame
ĠB el
2 3
G est
w ork
Ġh app
Ġapp ro
ĠFra uen
b ew
ernse h
Ġf ranzÃ¶s
ĠOr ts
ĠC ont
Ġat t
Ġd i
ĠP aul
k on
ĠBere ich
Ġm ein
al es
ĠTe chn
lo b
b ack
l ess
Ġle arn
Ġg ar
ĠS eite
Ġo per
Ġcont in
I f
ĠT er
A C
ĠH ow
ath ol
le y
ond on
ĠF il
as st
Over ride
E D
A ll
ĠN ame
Ġspe c
ĠThe y
st off
ol ution
o ot
Ġf ast
Ġse x
ĠEin wohn
ĠMe ister
4 5
Ġhe alth
ĠC an
Ġev ent
b l
ĠB ahn
am a
Ġl ittle
ĠM at
Gest orben
ount y
ut ter
d ings
Ġspe cial
ĠFried rich
ir on
Ġgo ing
ĠM o
Ġch o
th ing
ĠIn ternational
Ġsupp ort
ĠL eben
a el
Ġc all
Ġs imp
Ġre quest
g y
St ream
Ġp op
D F
Ġm en
Ġ2 6
ĠPro v
ĠD on
h Ã¤lt
ub e
Ġm ir
Ġw ater
Ġincl ude
Ġden en
ĠG o
m et
Ġd uring
S p
ĠSp ort
Ġ( âĢ
ir che
Ġbo olean
ĠK ont
Ġf act
Ã¤nd e
ĠT itel
du c
Ġke ep
+ +
Ã¶l ker
Ġare a
w ig
Ġ18 8
Ġim p
Ġper fe
ĠL ist
Ġz ahl
en det
im at
aus pieler
oc i
Ġeben falls
r sg
ĠK reis
c le
ĠB en
Ġdies en
Ġm Ã¶glich
ĠD u
Ġper form
tell er
och en
tt p
Ġj ewe
ĠFamil ie
y ch
Ġ200 3
bild ung
ce pt
m us
j Ã¤hr
Ġzun Ã¤chst
o ge
Ġprof ession
Ġp oss
Ã¤n ge
Ġ2 8
Ġbre ak
ĠDeutsch en
ĠP la
ĠGe gen
ĠS he
Ġto o
ĠH ein
an a
ra um
Ġex p
Ġfe el
Ġr und
U S
o x
Ġsh ort
* *
ĠN o
Ġth ings
iv al
fÃ¼hr ung
sch rift
2 4
Ġth ree
isch of
ne y
ĠJu gend
ĠS ohn
Ġb ig
Ġlook ing
Ġal ways
ĠE m
Ã¶ m
M e
lich keit
um n
ĠK om
Ġer halten
sch w
Ġg ot
rit t
Ġm et
ĠFran z
Ġsoll te
we g
on es
ĠFl ug
M an
t ing
ĠH al
Ġ200 2
ĠIn s
ass e
Ġwor den
ĠO st
er st
um en
Ġpro ble
Ġent stand
ĠA k
Ġm ust
ĠPar is
Ġo ld
h ung
Ġsch n
Ġ200 1
Ġre t
E lement
I C
sch ul
s am
Ġm ax
Ġe ar
Ã¤ re
Ġloc al
Ġs ince
ĠTh ere
ur m
id s
Ġo ption
iet y
ess e
Ġbeg ann
iz ation
ent en
ff en
ĠS ystem
ho de
O n
ĠN ot
ann ten
ĠInst it
w ert
Ġf and
ĠM or
enn t
are d
our s
g aben
ĠPe ter
Ġk on
Ġex c
ĠH el
Ġwel che
W ith
Ġ2 7
ĠHer z
Ġpart ic
it te
um p
Ġacc ess
p latz
ĊĠĠĠĠĠĠĠĠĠĠĠĠĠĠĠĠ ĠĠĠĠĠĠĠĠĠĠĠĠĠĠĠĠ
Ġm ethod
Ġte am
Ġe ffe
Ġto day
č ĊĠĠĠĠĠĠĠĠĠĠĠ
f ts
ĠL ondon
M od
an e
h ip
i at
ĠOb ject
te te
ĠK ultur
Ã¤ ll
gr amm
Ġwith out
Ġb il
A uf
Ġent wick
F ield
ĠEntw ick
b ed
er ts
Ġst or
en nen
ell er
for der
ĠWelt k
Ċ ĊĠĠĠĠĠĠĠĠĠĠĠ
ĠS eit
ent ial
Ġa uÃŁer
Ġdar auf
g te
av a
Ġ4 0
Ġander em
Ġh istor
Ġge ht
Ġcom e
ent ly
Ġst ate
ĠK ap
Ġc r
Ġt yp
fer ence
Ġs ei
atur es
f ilm
j ahr
Ġm al
ad a
ver t
Ġein ige
oc ol
Ġqu ality
ĠF in
Ġs w
ĠH ier
hel m
M essage
Ġind ivid
sp rÃ¼
Ġetw as
Bu ilder
um m
Ġg row
b ook
Ġf lo
em p
Ġver Ã¶ffentlich
Ã¤ che
e qu
IN G
or ge
Ġakt u
ro s
Ġ199 0
Ã¼nst ler
< /
H and
Ġs ure
Ġf ield
Ġpro m
anst alt
Ġl ot
Ġre lat
a uch
ĠB Ã¼rger
Ġletz ten
ĠL ie
ourn al
Ġb ra
ĠF ach
Ġs ay
Ġw ei
ar get
us ch
ĠH ar
Ġk ommt
ĠÃĸ sterreich
kl Ã¤r
Ġp ay
ĠW ahl
y d
Ġor gan
o or
ĠJ e
ĠP ark
D R
In fo
Ã¼ b
ĠF ot
Ġ18 6
Ã¼ l
ĠU nd
amp f
et en
i am
hl en
re chen
M et
op f
z entr
eth ing
ĠB i
Ġne u
in ner
at ter
j oy
ĠLand kreis
v es
Ġre ce
imm t
ĠM art
ĠH ans
ft ware
Ġj ob
et te
ĠgroÃŁ e
Ġin c
f urt
ĠBe g
Ġn eben
il y
Ġdeutsch e
Ġh ard
s icht
ĠS il
den s
ĠIn formation
I I
Ġle vel
is se
w ei
ĠO lymp
ĠR ich
rie gs
ĠFra u
Ġis s
7 5
Ġle t
uÃŁ en
ĠC om
ĠSch n
ĠD re
Ġ @
ĠPolit iker
fa ult
ĠC ity
pe ct
D es
gen ommen
I ndex
ĠJahr es
Con text
te gr
F uÃŁball
Res ponse
Ġ ?
Ġs ize
Ġcon ne
ot he
Ġo pp
Ġv oll
Ġst ark
Ġbe aut
3 3
Ġe qu
i as
Ġqu est
h am
ik t
c r
k m
ĠH il
rit er
! !
on nen
ĠD em
ĠD av
Ġbe h
reich e
uch s
se e
Ġw ebsite
Ġin ner
our ces
ur ger
Ġm ich
ĠC or
Ġ199 9
D ies
ĠB esch
ĠHer r
Ġ2 9
ul ts
Ġsec ond
č Ċ
Ã¶ sterreich
Ġ| |
Ġd azu
Ġch ange
b et
: //
Ġge l
ĠVol ks
Ġc ost
g o
Ġinter est
pr ession
Ġeing es
O f
e te
te i
ĠD a
ĠgroÃŁ en
Ġge m
z t
Ġ est
e le
Ġd ays
em s
Ġgew ann
it ing
m ut
sch ein
Ġg ive
Re g
Ġm ind
ĠâĢ ¦
Ġbe zeichnet
A S
ĠD orf
um b
ei den
ĠB ro
if ied
Ġbet ter
il ter
ĠRe chts
Ġapp lic
ur o
ber eich
iz iel
k ey
Ã¶glich keit
Ã¶ t
D E
m ark
sp r
T ime
ĠM useum
ĠD o
Ġl assen
Ã¤ ft
S ervice
Ġco ver
ĠWor ld
ind ung
Ġp ower
z el
ies en
I ON
ig ital
ill s
ĠI ch
ĠB urg
pr ivate
ier s
9 0
. "
2 8
Ġw all
Ġimport ant
ic le
ĠG en
am b
Ġg ame
. âĢĿ
ĠC ounty
omm and
Ġf ac
ĠgehÃ¶r t
Ġad v
Ġd an
ĠP al
W h
Ġm ain
nah men
ĠFamil ien
En abled
v Ã¶lker
af fen
Ċ ĊĠĠĠ
Ġab le
Ġl ine
Ġp age
ĠTe xt
ĠT or
ist ory
ar a
min ister
z ogen
Ã¼s sen
19 8
ĠSch ool
2 6
Ġauf ge
Ġp ut
ĠS el
Ġad dition
Ġd och
ver ein
ĠI hr
Ġsom ething
st ag
ĠD is
G roup
ĠB ed
ĠS m
H rsg
s ident
Ġs uper
igkeit en
Ġho use
Ġall en
Ġ20 20
ĠT our
Ġihre m
Ġwith in
Ġw omen
trib ute
Ġer r
iv ed
Ġh och
ĠR ed
Ġspiel te
teil ung
Ġs ingle
au g
Ċ Ċĉ
gesch ichte
v alue
Ġ Q
ĠAmer ican
Ġpro te
equ als
3 5
ĠM ain
d orf
Ġhe ad
Ġver l
st Ã¼tz
c ont
ĠW ith
d ruck
Ġersch ien
il ome
9 9
Ġin cre
Ġwork ing
E s
o ung
ĠJ ose
k a
g ument
ĠB rÃ¼
Ġlar ge
ges amt
O Exception
tr Ã¤
ĠM ay
ograph ie
Sie he
Ġnah m
it ive
entr al
g n
ĠUS A
op s
ĠK Ã¼
Ġher aus
I S
ic ally
d ing
Ġe ff
Ġc ert
ĠMich ael
Ġt ro
ĠS ol
.) :
Ġle ad
if ul
Ġan other
Ġinv est
pert ies
w ar
ĠGrÃ¼ nd
w or
ĠA lex
ateg or
im ent
h le
ra w
Ġ199 8
it ch
Ġg ing
Ġex ist
Ġl ight
el te
Ġprodu cts
m l
ĠD ire
rit e
yste ms
oug ht
Ġstud ents
4 8
B er
Ġr un
s ych
th row
Ġbeste ht
ach en
Ġh ol
w elt
amerikan ischer
ra cht
on y
c er
ĠKir chen
rit ten
ĠSta ats
om as
ch ten
st re
Ġk ommen
ĠAn t
Ġa uth
Ġl ink
Ġab ge
ur en
zeich nung
f ert
ir m
Y ou
Ã¶r per
ĠR ah
ess or
ĠAus tr
icht ung
Ġl and
an te
In st
fol ge
ĠFol ge
il en
ge ther
Ġd ouble
Ġt re
d ie
E T
um an
ion al
Ġne ver
ĠFor sch
ĠNor th
Ġde fin
ab ility
Ġt urn
w est
Ġre f
lat t
A P
Ġste hen
uch en
um er
v iron
Ġact iv
Ġinst ance
ut ure
f re
ĠO p
ost er
Ġ( !
ĠU hr
Ġchild ren
h Ã¤ng
2 9
rÃ¤ ger
Ġm ight
eng l
A nd
ĠP reis
Ġen joy
. âĢľ
d ienst
ers Ã¶n
un t
Ġbu y
Ġeas y
ĠT V
oc us
Ġk m
Ġw Ã¼r
ne te
Ã¤ m
ver b
Ġmus ic
Ġmach en
ĠGener al
ĠZ e
Ġa ir
P erson
u h
as es
ĠE nd
Ġsch lieÃŁ
sh ip
t ocol
le ine
ĠHam burg
z y
la v
ĠBet rieb
Ġp ict
ĠTe am
Ġn ational
ĠN eben
de utsch
ĠSta aten
ge ord
Ġ199 7
2 7
Ar ray
L oc
ĠAn fang
utz t
Ġ199 6
Ġmehr ere
Ġm ult
In ter
Ġpra ct
ĠF ar
den k
ĠB ew
at al
ĠSch rif
ĠAl t
ĠP lan
gan gen
z ig
w and
Ã¤ h
ĠEin satz
ograf ie
ĠâĢ ĺ
ĠGe org
ĠS outh
ilit Ã¤r
Ġcomp lete
B ei
pla y
Ġden n
Ġwe gen
ĠW ebsite
os en
aj or
le tz
un ch
Ġg l
heit en
Ġhat ten
Ġ194 5
Ġmark et
p end
amp le
le i
ĠR ei
ĠR uss
ĠB ad
Ġre l
Ġb ro
S h
f el
ĠSt r
Ġprogr am
ĊĠĠĠĠĠĠĠĠĠĠĠĠĠĠĠĠĠĠĠĠĠĠĠĠ ĠĠĠ
ra che
uch e
sk i
le ben
Ġt est
Ġv ideo
uch te
ĠO l
' m
ort un
ĠS eiten
ik el
Ġc reat
de te
Ġk urz
Ġge grÃ¼ndet
ĠL u
ile d
Ġzw eiten
Ġf ood
an ten
ĠR aum
R O
Ġ198 0
ĠT yp
if y
Ġcons ider
Ġcon f
il la
Ġdown load
der s
Ġw est
ĠT re
Ġerst mals
ĠD i
Ã¤t ze
ĠOn line
Ġl at
3 6
ah er
En try
n ot
Deutsch er
ĠBe ispiel
Ġp ort
Ġne ar
Ġverw endet
Ġm aking
ĠW inter
az z
Ġim pro
Ġres earch
Ġan t
ĠA ir
ĠZ ahl
tel le
i ol
Ġc ap
) :
Ġse arch
== ==
n ungen
ĠR ober
reich en
Ġsu ccess
ĠG ott
C O
C ol
Ġb rit
ĠI l
m b
7 6
lie b
Ã¼ ll
ĠRah men
Ã¤ mp
in c
pt y
ĠEinwohn er
Ġof t
ais er
figur ation
ur f
Ġwor ks
ic y
onder e
Ġin it
ik en
ĠB ern
is iert
Ã ¨
ier ungs
ĠF er
Ġe d
Ġhe ut
E S
Ġer ne
ĠWil helm
schn itt
v ious
ur ity
Ġl ess
l og
Ġm ag
om at
Ġg rÃ¼
Ġim age
read y
th ers
Ġ197 0
Ġneed s
ĠW ind
Ġd av
Ġb ased
ĠC lass
Ġsein es
Ġre p
Ġse ver
for d
{ @
w ort
en a
ĠW olf
gr iff
ire d
ver n
7 9
Ġh inter
ĠWe g
Ġ6 0
et work
ĠJahrhund erts
ĠD ienst
ĠJ o
etail s
Ġs af
č Ċĉĉ
Ġ199 4
Ġaller dings
viron ment
Ġperfe ct
e hen
Ġ3 1
Ġperson al
ĠgehÃ¶r te
ĠS ommer
Ġ ident
le v
ĠG old
ĠC omm
ĠSch auspieler
ĠZ ug
ĠChrist ian
ĠZ iel
Ġas k
ĠDes ign
ĠA kt
Ġo pt
ĠIntern et
ĠEr n
ward s
Ġl aw
Ġ199 5
at Ã¼r
---- ----
ord ing
ĠO ur
grupp e
s ize
ĠI de
och ter
4 9
Ã ĸ
ĠS en
ĠK Ã¶l
Ġk omp
ĠF all
ĠGrupp e
Ġto gether
N ot
5 5
af Ã¼r
Ġgen annt
te ger
ĠI hnen
3 2
ĠL auf
nah m
ct ure
] ;
P h
st Ã¼ck
Ġverschieden en
sprÃ¼ n
ĠD ort
ab r
ĠK o
ĠG ar
haus en
b aut
ĠâĢ Ķ
ĠG ed
ar te
ĠVer walt
ĠS Ã¼
un ft
Ġtra dition
Ġal ong
ib li
al ten
ĠD at
Ġres p
ĠG ren
amm lung
lich es
g al
Ġre view
Mit glied
h ere
Ġp ack
Ġb ody
Ġ ess
ganis ation
in ks
> >
Ġw eb
we is
part ment
Ġte xt
Ġcommun ity
ein ander
st a
st ants
p lan
Ġse hen
is ed
ĠM ax
ab ly
ou p
Ġde v
b el
ĠT ro
ilome ter
Ġc ity
ĠD en
Ġall ow
ĠS ein
op er
ĠfÃ¼hr te
Å Ĥ
i ate
Ġcon c
ĠP ress
g ar
ĠHo tel
Ġtr at
l ungen
il er
g ie
ĠNe u
Res ource
w issenschaft
ĠRe c
Ġb le
Ġein mal
ĠB y
gr ess
Ġs etz
4 4
Ã¤ fts
ĠH ome
tre ten
ĠGeb Ã¤ude
ut s
reib ung
Ġbe w
ab or
ĠÂ »
lob al
Ġbel ow
v ille
ĠSp ieler
Ġen gl
Ġdire ct
Ġb it
ĠM Ã¤n
Ġs tell
ent al
L O
3 8
or m
Ġm atch
il igen
St ate
g ing
f s
ge ber
us Ã¤tz
" .
' re
S o
Ġ199 2
Ġpro perty
ut ions
' ve
Pro perty
Ġprodu ct
l Ã¤nd
Ã¤ ss
Ġcle an
ĠW ald
ar ing
ser ie
3 9
ĠS ervice
ain er
ĠR oman
Al s
ĠM ont
Ġl ange
ĠĠĠĠ ĠĠ
Ġk ind
an c
is ing
bes ondere
p ublik
Ã¤t te
Ġr ange
ĠK an
ĠL ud
E m
Ġp ast
Ġeigen en
Ġto t
ib r
Ġn on
ĠArch ite
0 1
ĠR hein
ĠA g
in ation
ie ve
ific ation
Ã¶r d
Ġver fÃ¼
ob ei
Ġdire kt
b ei
ĠR el
ul ation
pr Ã¤s
Ġcont rol
ĠM illion
Ġse chs
Ġp ath
j a
ĠSte in
ĠB rand
Ġcour se
ĠUn ited
Ġweit eren
7 4
ĠE uro
ĠN r
ĠW eb
19 6
ig a
Ġwe il
Ġt able
os p
Ġl ive
Ġle ft
S er
Ġ196 0
P r
Ġst at
Ġg ilt
ĠEntwick lung
F ilm
oc ument
Ġunter schied
Ġb in
Ġvis it
ĠS w
ab l
ĠEurop a
ĠH igh
Ġal ready
ĠTh omas
ig ent
ĠJ apan
ĠGra f
red it
Ġunder stand
A G
b urger
s weise
Ġa way
re ch
ĠF ir
ĠC as
id ge
Ġex tra
G ibt
ing ton
ĠF eld
ĠEr z
ro du
Ġcon dition
Ġh aving
her r
ac ter
ĠLe ist
ĠE ner
ent ion
ĠV ater
ag ue
ĠSch m
ĠD abei
Ġbeaut iful
a pe
u el
heit s
schlieÃŁ end
lich t
Ġbesonder s
Ġm Ã¼ssen
ĠEr st
Ġfollow ing
ĠfÃ¼hr t
ge f
M ethod
au p
ult ure
Ġg irl
ist ischen
ĠHein rich
ĠS oc
Ġd ist
Ġt Ã¤t
C H
Ġwe chsel
l ow
ĠMit te
ĠS itz
Ġ199 3
ĠSe e
le hrer
3 4
ĠM c
Ġin tern
leg al
ĠB ilder
unk te
qu e
ĠStra ÃŁe
ĠA c
ĠO per
es ent
Ġjewe ils
ĠE p
and id
Ġf our
Ġfin det
ob ile
ĠF rÃ¼
Ġmon ey
Ġall es
Ġo cc
Ġj etzt
Ġen ter
Ġbl og
Ġagain st
Ġre du
teil t
h Ã¶
Ġdav on
ĠH istor
us try
os oph
Ġof ten
Ġe duc
re if
Ġoff ers
wend ung
S c
Ġf ar
ĠG el
Ġ20 21
b ol
ĠP ap
d es
it chen
Ġ198 9
g lichen
Ġw ind
und er
irt schafts
ief ert
ik ation
ĠK ommun
Ġte ach
ĠTe x
ĠT ochter
Ġt reat
v ed
Ġf av
ĠH ann
Ġn ight
ĠE he
ĠProv inz
ian s
l le
la us
pro du
id ing
ure d
w irtschaft
ĠR est
Ġl ov
iv ely
Ġwh y
iz in
Ġme et
ĠHÃ¶ he
7 7
k n
A D
5 9
ĠPro ble
st ant
Cl ient
Ġdevelop ment
Ġ( (
ĠEr geb
ĠLei p
ĠEurop e
P re
ĠF unktion
V al
Ġ Ã¤l
Ġw obei
Ġp oint
f ace
h end
Un ivers
Ġcont ent
Ġbie tet
id ay
ch an
es ted
isten er
Ġ _
ill er
Ġp lease
Ġof fen
ompon ent
Ġl im
ie gel
Ġs ide
engl isch
stell en
ĠHol z
Ã¼ gel
pp er
ĠArbeit s
Ġm aterial
ĠH of
ran sport
Ġfe atures
Ġt imes
ĠI OException
og le
z irk
g art
4 6
E L
ĠW hen
5 6
ĠRe gel
ĠP ra
ri x
Ġf ocus
V ers
ĠJ ust
ĠThe ater
und s
tell ung
ett bew
k irche
ĠM ore
a it
ĠAl bum
og n
am mer
Ġviel en
Ġn a
ĠU l
er in
E M
ĠEn gl
Ġopp ortun
c ent
it ten
i ber
ĠEin zel
Ġe ver
Un ter
ĠA fr
ĠEr w
geb aut
, âĢĿ
ĠK e
f ield
E C
pr Ã¤
Ġp ubl
ĠRober t
T r
Ġst yle
Ġun til
Ġn atur
ĠFrank reich
Ġo p
ok en
Ġres ponse
m od
l ungs
ĠGer man
ĠSt utt
Ġposs ible
Ġinner halb
ĠT rans
ĠOb jekt
ĠMar kt
w ie
ĠAnd re
act ory
ĠPrÃ¤ sident
ĠB rit
to String
Ġpres ent
Ġstud ierte
Ġ ir
Ġ Ã¶sterreich
Ġsever al
0 2
au en
i os
ok ument
Ġarbeit ete
a ction
sche id
C ode
c ol
z Ã¼
op y
Ġ199 1
con om
L og
ĠK lein
et ter
ĠC al
ĠBer uf
n ov
le ge
ĠN utz
o o
ĠM iss
ck s
Ġfolgen den
Ġm akes
ene f
ĠB ischof
gemein de
U T
Ġs on
ĠMe ter
mb H
t ain
Ġdel iver
i od
Ġw he
Ġuns ere
is ierung
L iefert
on a
Ġh om
Ġ( )
ĠS am
Ġme isten
ei le
O T
f est
5 8
Ġp ot
Ġy oung
ĠSch loss
ze pt
Ġsp ace
unn ing
Ġjed er
Ġso cial
shall er
ak en
richt ung
ĠM a
Ġme ist
Ġen c
ĠM er
ĠK le
Ġmus ste
Ġlie gen
ĠSt ate
Ġm om
Ġinst all
ĠR om
b an
ĠGeb iet
in i
hl er
zeit ig
em pl
Ġk leine
ĠT urn
Ã¼r z
ĠCh ina
att ung
Ġpr ice
ĠHe imat
put Stream
Ġl ow
Ġcont act
ĠK ur
Ġe lect
ut or
nde te
ĠL og
ĠSe x
Ã¤s st
ĠMit arbeit
Ġb rand
ĠPro jekt
ĠD am
0 6
ĠP ost
Ġget ting
Ġv ol
ors itzen
Ġer n
ĠkÃ¶n n
r Ã¤n
ĠM Ã¶glichkeit
ĠGes ellschaft
ĠR u
ĠFrank furt
3 1
Ġb ar
ĠB eit
Ġc los
ĠB ank
ĠK rieg
eit ung
ĠF C
ens ion
geben en
F rom
h or
ĠL uft
ap s
b ank
d f
Ġth ing
Ġbec ome
ĠS eine
Ġm ot
ĠSchwei zer
rÃ¤ gt
S ize
ĠH all
8 9
U N
Ġe lement
ĠV e
ĠBe vÃ¶lker
Ġemp loy
O ut
ĠO ne
od es
ĠDav id
0 5
al itÃ¤t
Ġ Ã¶ff
ub s
Ġm ajor
ĠK aiser
Ã¤r en
ĠMit glieder
Ġd one
ĠR olle
b u
b est
Ġn Ã¤ch
we hr
ĠGesch Ã¤fts
ĠInformation en
sch er
ĠO s
ell ing
ĠS uper
Ġsh are
ĠTh ese
te ile
ĠL iteratur
m on
ur ance
Ġth ough
3 7
E igen
im men
Ġschn ell
lie gen
Ġqu ick
Ġbeg inn
Ġac ross
Ġcal led
il ien
ir at
N ull
Ġd ate
ader s
Ġze igt
Ġcol or
Ġfriend s
ac y
Ġd afÃ¼r
is on
Ġre port
ĠZw eiten
ĠBes itz
Ġklein en
Ġide as
ag n
ĠSo zial
Ã¼t zen
Ġent ry
ĠMin ister
Mar shaller
ĠStra ÃŁen
Ġverschieden e
cr ib
Ġb lack
Ġer m
ĠDeutsch e
Ġh Ã¤uf
ĠMart in
v oll
Ġan s
Ġar ch
Ġ198 8
Ġges am
ĠP ass
ĠW ochen
ĠtÃ¤t ig
Ã ľ
Ġspec ific
FuÃŁball spieler
ra b
ver band
Con fig
ag s
ktion en
ran ken
ĠG mbH
Ġet c
Ġs im
Ġp osition
ĠT op
ĠE isen
Ġcom es
Ġm Ã¶ch
ĠD own
le ist
Ġauf grund
Ġle d
n ull
im a
Ġd est
cri pt
- ,
adem ie
I M
ĠV ier
Ġser ies
lig a
ĠM utter
ĠW al
Ġent fern
Ġus er
Ġn ieder
sp ir
ĠM os
ĠLud wig
Ġit alien
Res ult
ang es
ĠW Ã¤hrend
Ġst ory
Par ameter
Ġins gesamt
Ġcoun try
an o
ord in
j et
Ġkn own
Ġl Ã¤sst
ĠMillion en
. :
ĠE is
age d
form at
a pt
ĠK Ã¼nstler
ab les
Ġde ut
Ġor iginal
Ġme ans
il ities
row n
č ĊĠĠĠ
ĠPro zent
s ide
ic o
ĠW ie
ĠG et
ann el
Ġz we
ĠKÃ¶l n
Te xt
Ġfor t
A pp
ĠK ind
ĠT age
ĠWeltk rieg
E vent
la u
te chn
U r
ĠFl or
yn ch
ĠColle ge
h men
ĠC D
Ġto ol
Ġgo vern
Ġn Ã¶rd
Ġadd ress
W ir
Ġph ys
ĠK ompon
reib en
l am
ĠNor den
tocol Marshaller
le b
Ġmember s
ĠBe deut
fl uss
0 8
b re
Ġc la
ĠDe c
itÃ¤ ts
Ġin tegr
id d
co ver
For mat
Ġ ens
Ġoff ic
ĠD enk
ĠK omp
Ġerfolg te
pr int
ĠL ou
etz ung
fahr t
Ġeinz el
U t
ent wick
Ġind ustry
ĠC oun
ĠAr ray
ĠAm t
Ġstar ted
Ġsich er
Ġstud y
Ġ195 0
w Ã¤r
Ġn atÃ¼r
ĠK ol
F Ã¼r
ĠK reuz
Ġ198 6
a un
w agen
ĠB ru
Ġs og
um ents
ver kehr
r ist
Ġsimp le
ĠE mp
Ġc amp
Ġc ard
k o
land s
rif ten
g in
ĠPf arr
Ġprofession al
ĠschlieÃŁ lich
as tr
ic ro
Ġw atch
ĠSt Ã¼ck
' ll
Ġn ie
Ã¼ ler
res h
y er
an ks
ĠD om
ĠZ eich
ĠProdu kt
ĠAn geb
pla ce
Ġ198 7
p aper
Ġur sprÃ¼n
ĠM ap
ĠMar ia
" )
id a
ĠSp an
ĠH en
ict ion
Ġkonn ten
ĠL es
ĠL ang
an ces
ĠB lack
ide os
Ġmoder n
ber ger
Ġbis her
uf act
alt ung
7 1
F A
ĠB ur
ak ter
O ption
led ge
Ġwrit e
wo od
erk e
ĠStutt gart
ts teller
Ã¶r t
S pe
Ġres ults
Ġpr ivate
E ine
g a
Å į
ar ian
ĠK at
Ġgegen Ã¼ber
Ġle b
Ġwo hl
< ?
Ġinstance of
Ġgemein sam
V or
m el
Ġ id
Ġcomp an
ĠLe hr
ĠLeip zig
ĠJ ournal
Ã¶s ung
Ġp urch
ĠMet hode
ne ction
P D
ra u
Ġj oin
Ġb enef
ĠO t
Ġprov ides
ab y
0 9
ĠBeg inn
Ġse ason
0 4
Ġg re
m ost
Ġc lick
ab in
ag ing
ĠReg ie
ĠA uÃŁer
Ġh ours
ir chen
Ġbes ten
ĠK ilometer
je kte
b s
l ar
ÃŁ t
I ch
O S
ip l
ĠS icher
ge gen
Ġunser er
Ġproble m
ĠC enter
8 6
Ġan geb
auf en
Ġgeb oren
ibli othe
Ġb lieb
ĠN Ã¤
c el
Ġt alk
ĠDies er
Ġse le
te mp
s etzt
z z
Ġk ur
Ġr icht
Ġmod el
.. ..
Ġsow ohl
7 2
ĠSt art
5 4
I mp
Ġs ource
ĠSchwei z
Ġc ent
ĠR ein
c ome
Ġz eit
ĠR ock
w eit
ho ck
de b
if fe
ci ally
ĠF ile
is c
ide d
stell ungen
ym bol
St and
Ġo ber
ĠW issen
ann ot
ĠProf essor
lÃ¤ uf
ĠM el
pe cted
ĠTh at
zeich en
Ġbuild ing
Ġm ass
al z
im s
ĠG eld
ast ic
Ġk osten
ĠAl ter
Ġeng ine
b or
f an
Ġwicht ig
ĠM il
Ġrel ations
am ens
ĠK ant
ern en
Ġindivid u
C E
Ġen ough
Ġcomp uter
L A
Ã¼r t
ĠMe hr
ĠI r
alif orn
ĠF rei
Ġex ec
ĠP res
ĠÃ¼ber nahm
ĠHo use
ĠH or
it a
B C
ich ter
Ġerreich te
l as
it ze
ĠSch ule
ĠSch iff
Ġdesign ed
ĠInd ustr
Ġstr ateg
Ġins besondere
Ġs ett
or ed
Ġp ie
ĠWh at
h an
es te
Ġwechsel te
ĠH inter
b Ã¼
ul a
Ã¶st lich
ĠMann schaft
v is
Ġj a
Ġhe i
arbeit en
Ġin dex
ĠW enn
Ad d
p iele
ic ks
ĠW ieder
ĠOlymp ischen
Ġcle ar
b rÃ¼
be k
Ġen vironment
Ġz usÃ¤tz
Ġo thers
Ġs ing
av en
Ġm essage
ĠK unden
ich en
sch lag
Ġun ique
ĠSt Ã¤d
tel s
ĠW eit
z ess
Ġw alk
ĠS and
Ġg an
pp ing
Ġvers ion
p reis
Ġd eb
ĠSta at
Ġrequire d
de ck
++ )
C omponent
zeich nungen
Ġre pr
Ġmed ia
Ġtechn ology
ist ische
L and
s erv
Ġ(âĢ ł
Ġwall paper
Ġan al
ĠR iver
em per
Ġl iving
ran t
ĠT est
ish ing
ĠBo den
un e
č ĊĠĠĠĠĠĠĠĠĠĠĠĠĠĠĠ
ĠSÃ¼ den
ĠPhil ipp
Ġs en
ok al
ar l
ium s
b ie
J ahr
zie h
Man ager
r am
ag o
Er ror
ĠD el
em a
ĠB ewe
ĠT Ã¼r
Ġhin aus
Ġna he
iv at
Ġ Ã¤
fl Ã¤che
ĠF ernseh
ĠBedeut ung
Ġm iss
ok e
Ġ197 2
Ġver kauf
Ġd aher
Ġ198 4
ab hÃ¤ng
ĠB or
ou d
ĠAn ton
Ġf ilm
F ernseh
ĠZ we
ern er
get Name
ĠH a
Ġn ord
Ġwen ig
Ġd re
Ã¶ ÃŁe
Ġvor hand
M us
Ġs ug
Ġdes cription
itÃ¤ ten
7 3
end s
M L
in dex
as ing
Ġer klÃ¤r
ol oge
ĠK urz
ĠM aterial
Or t
Ġ Ð
Ġal ten
Ġ198 5
opp el
Ġw onder
Ġver st
c is
Ġh erv
Ġf ur
t ime
st it
ad s
Ġzw eite
le f
f red
ĠS a
ĠP DF
er ing
Ġerne ut
z immer
ĠF Ã¼hr
em in
EN T
Ġh Ã¶ch
ww w
ĠR ichtung
ĠPro gramm
Ġmonth s
Ġvar ious
Ġs n
e ded
Ġge lang
f ung
ĠH ers
ĠVer fÃ¼
ĠZ ur
ell s
Ã¤ch lich
Ver ein
cre ate
6 4
ĠAut or
ger ufen
re ibt
ĠReg ierung
Ġacc ount
F actory
h as
Ġc oup
ges etz
Con stants
mann schaft
v olution
ĠSch utz
ar ts
ĠS im
Ġres ource
Ġn ichts
Ġact ually
g round
im ate
L o
Th ere
ĠB u
ĠB is
ĠO ut
En t
fol gt
ĠSel bst
D ate
ĠT al
Ġl ik
Ar gument
ĠII I
Ġdisc uss
l ast
Ġm acht
Ġ{ @
bar en
ĠD ruck
we gen
8 8
Ġh istory
ĠVer kehr
tr itt
Ġgew Ã¤hlt
fÃ¼ ll
Ġze hn
Ġihn en
Ġnor mal
la den
ĠSt at
air s
Ġfr ont
Eigen schaft
Ġzw ar
Ġen er
m as
st ieg
Ġerfolg reich
ĠA p
ion en
Ġle ben
B uffer
ĠAn zahl
F e
ĠW eiter
ord nung
or den
Ġm at
ĠP an
Ġc ode
Ġbe vor
id el
Ġy et
ĠIn nen
St atus
0 3
ĠP osition
s pe
in ge
ge geben
T yp
ĠG od
( (
ĠS ub
ĠIn sel
ĠB aum
ant wort
Ġme an
en burg
ĠK re
ĠS ong
Ġc lose
der n
leit ung
ĠS erv
Ġcert ain
ĠAn n
Ġman agement
hock ey
ic ation
Ġf uture
op t
I P
ĠIt alien
ak er
E nd
wo hl
Ut ils
ag t
un sch
amer a
Ġag o
Ġw on
ĠThe ma
Ġem ail
ĠfrÃ¼ her
B au
Ġst ra
Ġc ur
Ġhand elt
ispiel sweise
ĠJ ack
Ġoption s
re icht
ĠPar tei
Ġauth or
ĠIl legal
a iled
iv ision
Univers itÃ¤t
C omp
or gen
Ã¤nd ern
it en
Ġf it
Ġbest imm
ettbew erb
gr am
Ġgen au
Ġh ost
ol den
ein en
or ies
âĢ Ķ
Ġra d
S eit
ist ik
Ġre gel
it ure
ĠR os
Ġehemal igen
il nehmer
n ers
5 2
ym n
om et
ĠZw ischen
ul es
ĠCar l
Ġeinges etzt
ĠF inal
I tem
Ġre por
yn am
Ġv e
Inst ance
4 2
T able
Ġh inz
Ġsoll en
Ġcomm on
Ġtra vel
ful ly
5 7
ch ter
Ġwh ite
Ġear ly
throw s
i j
Ġr ate
Ġle ast
s ub
ĠM ac
ĠJun e
ĠCl ub
es tens
Ġp ur
Ġst amm
Ġr en
rie f
ĠD istr
Ġcompan ies
Ġ198 2
Ġt w
Ġw oll
Ġth ought
W elt
f asst
ach ten
h aupt
ar en
Ġb lock
ĠM ass
ĠverÃ¶ffentlich t
Ġon ce
ĠZ um
ĠMot or
g Ã¤n
ue ck
V on
z us
get ragen
Ġam er
, "
ut zen
Ġm em
fra ge
schul lehrer
Ġcustom ers
d a
Ġto ok
ĠZ Ã¼r
Ġfe ature
uch er
Ġzahl reiche
t ype
Ġzu dem
es tern
ĠR em
n am
Ġs tellt
Ġf il
geb ung
Ġh uman
app en
itu ation
Ġpop ular
0 7
Ġd at
ir c
ran ge
Ġread ing
g ent
ĠO sten
Ġh ttp
ist ry
Ġst ay
ak te
Ġdo ing
fÃ¼hr er
ĠSchrif tsteller
oin ts
M S
P er
Ġc m
ĠSt ates
ith er
werk e
Ġa ff
Ġe y
id th
h ang
ra chen
ĠI mp
Ġevery thing
at is
mÃ¤ÃŁ ig
at ors
ĠV al
Ġ8 0
Ġfolgen der
ĠK riegs
Ã¤us er
s uch
ze uge
och e
sche ch
ift ung
ĠFuÃŁball spieler
ĠRe ad
Ġcon stru
Ġeigen e
w rite
ad urch
olit ik
Ġdid n
ĠH in
ĠAm ts
ĠS on
ro t
Ġf urn
Ġst ru
v est
sp rach
Ġresp ons
N ew
Ġoff ice
ynch ron
Ġw ahr
am in
ĠR ot
i ents
o on
Ġam ong
Em pty
ĠM ad
gesch lossen
Å ¡
im um
v a
ip le
ikan ischen
ĠE igen
Ġad min
Ġdan ach
stell t
Ġloc ated
an cial
Ġh ig
ĠAuf lage
ĠK Ã¶rper
Ġbest and
Ġcontin ue
Ġg iven
ĠMed ien
pr Ã¼
Ġsog ar
rach te
z a
Ġa cht
4 7
Â »
en en
Ã¤ ischen
le men
yn c
al tet
tem berg
us ter
ib ility
Ġbeste hen
ĠS ant
ĠC ommun
Ġexper ien
ĠBay ern
5 3
ein t
Ġtra ining
Ġ198 3
ĠMal er
ĠhÃ¤uf ig
Ġ197 3
i ra
Dies e
f ried
Ġpro b
h inder
ail le
Ġdoes n
Ġperform ance
C he
Ġwrit ing
ĠW esten
Ġso gen
T rans
ĠA G
ol a
d o
it le
ĠF ort
iz iert
Ġwel ches
Ġheut igen
Ġt arget
ĠEng land
Ġpartic ular
I G
Ġg ames
ĠRich ard
u age
Ġc ame
ĠK lasse
Ġa ud
ste lle
5 1
U L
At tribute
t ler
Ġk itchen
end ing
Ġdar unter
20 18
Ġ197 8
un ction
Ġso zial
ĠS et
Ġin form
Ġ197 1
ĠW el
ĠC r
ĠAuÃŁer dem
ĠK ategor
Ġ(âĢ ŀ
U p
ĠE ben
Ġerr ichtet
Ã¤hl en
Ã¼ss eld
ĠK or
sch eiden
ute t
ichte te
Ġbo x
w ind
Ġ Ã¤hn
Ġ196 8
ungs k
b are
Ã¼ ter
Ã¼r d
Ġst ore
Ġpro tocolMarshaller
ĠLe ague
ĠB ook
ĠT on
ĠFre und
ĠN ow
18 9
Ġam az
Ġ197 4
Ã¤ chen
ĠArt ikel
asch inen
Ġ197 9
i ar
at ers
ann e
Ġnew s
rich ten
Ġlie ÃŁ
] .
Ġbe ispielsweise
iziel le
e ign
Ġ ung
ĠSal z
le iter
ĠS achsen
ho ut
C all
Ġfav or
ĠO pen
ĠG roup
lan zen
Ġinclud es
Ġdeut lich
ain ing
Ġdam als
n ach
ĠS aint
B o
F l
W hen
Ġsie ben
4 3
4 1
ge fÃ¼hrt
la ger
ay er
Ġsie he
> ();
as er
ĠgehÃ¶r en
Ġfun ction
ĠHerz og
b ra
ung sp
ĠJ ames
Deutsch land
Tra ce
ir es
ist ic
ĠB ot
Ġapp ear
ĠSp iele
ien en
empl ate
I L
ian a
ĠVerfÃ¼ gung
ĠR und
ĠV o
ĠE lekt
ĠW ein
ĠS u
S ystem
itz t
Ġentsp rechen
Ġinv olv
or ted
ĠVerwalt ungs
IN D
Ġd iff
or es
Ġde al
meister schaft
ĠAustr al
ĠE ing
ĠCh amp
Ġm illion
Ġre ach
ĠAn gel
O L
n s
Ĥ ¬
ĠR oy
Ġcre ated
y a
ĠF el
ĠH af
ĠL o
âĢ¦ ]
Ġwen iger
Ġqu alif
c m
k an
ĠC amp
Ġso ftware
ĠO ct
ĠA ber
Ġge ben
Ġe urop
H er
Ġw elt
Ġh old
Ġor ganis
ĠG Ã¶
Ġ9 0
ĠL age
l im
Ġre d
Ġex pl
H och
ĠSt ad
Ġ198 1
Ġev ents
s m
Ġsom it
Ġv an
Ġ197 6
Ġmin utes
ne xt
ĠW as
ĠSch Ã¼ler
ĠG ast
ĠK auf
âĢľ )
ele br
ĠA ward
Ċĉĉĉĉ ĉ
oci ation
Ġp ick
Ġb ath
ĠW irtschafts
z ir
ĠZ entr
Ġgef unden
Ġh ope
Ġpre vious
Ġd etails
il ar
Ġcolle ction
ĠGrupp en
m ie
ĠB ach
ĠM oder
Ġpr im
Ġpr ess
Â ²
Ġd ue
Ġ197 5
Ġre le
hl t
ĠD ay
Ġh Ã¶
hr te
haf t
ĠA fter
Ġw ent
ient en
Ġ196 4
ĠDre h
w asser
ĠD res
Ġab ove
tt y
Ġse en
Hand ler
Ġapplic ation
ĠÃ¶ff ent
O ur
w ald
Ġs ays
ĠKar r
ĠErn st
B ut
ĠN etz
ĠV iel
S te
val id
s burg
Ġa ge
Ġman ufact
Ġr uss
ĠVer anstalt
I V
ĠU p
Ġquest ions
ge hen
Ġst arb
ien s
tern al
ĠJ azz
Ġcomp et
Ġ7 0
Ã §
Ġsome one
Ġcl ient
Ġf ace
Ġp ersÃ¶n
Ġl ock
fin ition
ĠwÃ¼r de
us ion
p age
at iv
geb Ã¤ude
ra el
ct ors
ĠGe f
k i
ĠI D
A mer
ame ters
W est
Ġtot al
C ount
O G
or ing
ik al
Ġex t
k unft
ĠSt ar
Ġreg ion
ĠD DR
ĠJose ph
ĠMÃ¤n ner
Vers ion
_ _
ch ester
Ġe conom
Ġr Ã¶m
ĠY our
P ol
te id
us ive
u ed
ann ing
rol le
denk mal
em ents
Ġar r
leg te
c omp
ĠNÃ¤ he
ach er
Ġcon text
ĠEr folg
Ġger ade
Ġwei ÃŁ
ĠK raft
Ġver sch
Ġl inks
s eite
Ġbe de
ĠT ab
ges ellschaft
Ġ193 3
Ġz og
n o
Ġl ag
Ġhe art
Ġann oun
M ed
Ġhapp en
g liche
p ol
ial og
Ġf ive
ĠG i
setz ung
ĠEr d
c il
schlieÃŁ lich
Ġare as
F F
L ine
Ġle icht
Cont ent
f il
on en
ĠHil fe
ĠVerein igten
Ġbefin den
6 6
che ck
Ġ5 00
e e
ge m
Ġ196 9
li ents
Ġer Ã¶ff
geb ie
ĠFl uss
Ġsel f
Ġ196 7
istr ation
P ack
Ġs ystems
he b
Ġm m
Ġer k
Ġc ook
Ġt aking
ier ungen
for sch
Ġlat est
C om
C hr
Ġp aper
Aus wahl
ĠZ ust
lÃ¤ ss
ell ow
Ġd istr
ĠM ill
os sen
Ġgen utzt
cre t
ĠJohann es
Ġre ason
Ã¤t zen
Ġb ad
ĠB ack
O ff
P S
ĠS telle
iz ei
ip ment
Ġerw Ã¤hn
Ġne g
end ar
ĠBevÃ¶lker ung
f ile
he mat
ĠP et
la w
ĠE hren
Ġcom fort
ĠHal b
al a
Ġby te
ress e
Ġbie ten
ibliothe k
or a
Ġa ction
Ġl ength
Ã¼s se
ĠOrts teil
g ment
w h
ĠM ilitÃ¤r
oll ar
Ġass ist
g ere
Ġd ivers
Ã¼ hle
n es
ĠK ing
ier ter
iv il
ik on
ĠAr m
Ġ197 7
gen cy
iden ce
an ger
Ġh on
Ġl ater
end es
ĠNew s
Ġnatur al
U m
ĠR ud
com ing
entwick lung
he ad
Ġf alls
Ġn ode
an ted
Ġqu ite
l ad
ĠB ud
Ġzu vor
Ġcom mit
Ġpos ted
Ã¶ hn
Ġst aff
Ġhal f
w es
Ġin put
ĠI d
lie d
Ġstr ong
ĠW ash
Ġiss ues
d in
ur al
Ġsoll ten
Ġge hen
ĠWill iam
u a
ĠHow ever
Ġre cht
ĠBahn hof
is es
Ġabs olv
Ġper iod
g g
l ant
ĠGe orge
ĠF ree
ze hn
ĠAl le
G r
ĠP o
ĠW and
ĠMus ic
ĠB al
ĠSie d
Ã¼rt temberg
c ement
ĠJ ur
aler ie
v in
x is
Ġs il
ĠK osten
pe cially
ges etzt
hand lung
ĠF le
Ġer reicht
ĠReich s
t c
ĠRei he
ger icht
ob il
= "
s eit
¿ ½
Ġe lekt
ĠP lat
Ã¤d ag
ĠR ob
In t
Ġp an
Ġ( =
Ġbe teil
aff el
ĠKarr iere
b esch
f ten
Ãľ ber
k r
Ġt ax
Ġtra ck
" ;
ĠfranzÃ¶s ischen
Ġ3 5
Ġph one
Ġletz te
Ġs ale
rit te
ĠJ es
get S
Ġpartic ip
ĠDown load
ĠD Ã¼sseld
ï ¿½
Ċ ĠĠ
gen de
ang s
ra in
ring en
ĠgrÃ¶ÃŁ ten
G em
ir th
Ġne ues
Ġ196 5
te cted
Ġv ia
iz er
itz er
arbeit et
t d
gr en
Ġsp an
av y
Ġzur ueck
Ġwho le
Ġgem acht
iz es
br uch
k el
ĠSer ie
Ġ193 9
f Ã¤h
âĢ ĺ
ot o
e ks
as ure
Ġabs ol
D at
K on
f rei
Ġevery one
Ġbei de
ĠMitarbeit er
Ġp lat
Ġto ur
Ġup date
zentr um
ĠR a
ste hen
deb ug
Ġs ong
w ord
us st
ĠD eb
Ġ196 6
Ġp ain
ĠG est
Ġfin ally
ĠZÃ¼r ich
Ġa ch
Ġc ra
ed en
gr Ã¼
8 5
ĠS in
ail y
Ġ193 8
6 5
Ġn etwork
G ener
ame ister
ĠEl tern
AM E
Ġappro ach
ĠGo ogle
rÃ¼ ck
Ġsch wer
as en
est s
ik o
iz ing
Ch ar
Ġ[ âĢ¦]
1 00
Ĩ Ĵ
Ġver d
Ġat tra
ĠL ong
ĠAus bildung
ĠVerb indung
Ġgovern ment
N umber
ymn as
ĠB Ã¶
Ġloc ation
Ġaut om
Ġh ab
G B
Ġm ap
Ġk lass
Ġjed en
Ġz ie
it i
Ġde ter
L istener
Ġ ill
Ġ193 0
leit et
ĠC ent
Ġf ire
Ġde fault
s c
un ge
Ġp df
Ġcom ment
an lage
ĠM r
Ġein igen
ĠGes und
Ġteil weise
Ġf und
lie ben
ĠR and
Ġal most
i w
et ten
ĠL aw
aup ts
. <
Ġup load
Ġcho ose
fl ug
ĠArray List
S C
f ar
h ing
ĠM ult
Ã¤t ten
ĠSie g
ĠD ach
Ġwir k
ann er
tr ue
Ġpr int
ĠG arten
ick en
rupp en
Ġ194 0
Ã¼l t
ut il
k or
ĠAlex ander
M A
ĠE lement
ĠSp rache
ĠOt to
ĠK opf
Ġj apan
Ġins urance
bo x
ĠF irst
ver age
ien te
Ã¤l fte
ĠW irk
as te
ĠC la
f ix
v ey
ĠB on
ĠM ond
ren g
Ġentfern t
k le
ĠF ace
Ġart icle
Ġf oot
ys is
h ib
Ġh air
et y
ikan er
Ne xt
A ccess
Ġs ites
final e
rÃ¤ ge
rit z
ograph y
ĠM ount
Ġauf genommen
ĠHe il
g or
vent ion
Ġbel ieve
ĠStud ien
# #
ĠEr fahr
ition s
Ġakt iv
el ten
Ġ196 1
C D
c urrent
ĠW all
Ã¤ch s
Ġho he
arr iere
Ġread y
Ã¤t igkeit
f Ã¼r
w art
Ġf ul
Ġex ample
Ġfol gte
Ġh ot
ĠVert rag
Ġcurrent ly
nd er
Ġne eded
Ġv eh
ĠT ier
ab ase
Ġnach dem
ges ehen
en ces
Ġgleich en
O per
U til
Con nection
Ã³ n
Ġchar acter
u it
Ġch allen
ig ungs
ĠP op
ĠMin uten
ĠFin anz
Ġin nov
ĠF Ã¶rder
Ġbe deut
Ġim ages
am ed
olog ical
Ġth er
Ġle g
ĠC ons
p ark
z iert
Ġ196 3
is ted
o e
Ġd ir
Ġd igital
ot a
Ġthroug hout
Ġrest aur
Ġw ollen
ĠSe c
Ġany thing
hal te
r unde
ĠAmer ica
Ġstell te
ch ar
ĠG leich
Ġ19 20
ĠGemein den
Q L
Ġc ount
ĠL at
Ġverb unden
Qu ery
ĠKl oster
P E
k und
Ġp le
ĠP rem
m useum
ĠT her
tr ies
ĠBerlin er
S E
ĠT ur
ĠAk ademie
letz t
ten ded
ĠUn ion
Ġe ither
ĠHann over
Ġwhe ther
h il
Ġ196 2
es h
ĠR ang
sp iele
imm ung
ĠLou is
Ġe p
Ġ3 2
Ġknow ledge
Ġphot os
it ts
enn ung
ĠGes amt
Ġver lie
Ġrec ord
ĠFrÃ¼ h
S ON
r uf
Ġs we
Ġentwick elt
Ġquest ion
w esen
Ġf rei
Ġer ster
Ġk ids
ad o
me e
ĠB ill
Ġc lients
Ġ194 4
T oken
ar tet
ĠA cc
Ġger ne
Ð ¾
jÃ¤hr igen
Argument Exception
Ġp aint
Ġc annot
St art
Ġproble ms
ĠU s
Ġfolgen de
ĠPart ner
H ol
ĠG reen
ĠW issenschaft
st ring
Ġaus gest
ade d
bed ing
Ġener gy
Ġse par
s ie
Ġent ire
P art
ĠHer aus
Ġc elebr
. -
ĠP sych
ab eth
Ġide a
Ġsimp ly
ĠAr ten
Ġ195 8
d oor
p ass
Ġw issenschaft
ĠB ig
Ġc as
Ã¶ ll
ĠN S
ig lich
ĠH ere
fol ger
Ġmach te
ĠM ein
ĠP lease
ist ent
ĠV ideo
idd le
A B
Ġf ert
Ġm er
ĠA v
ĠG al
ĠGes etz
ĠSil ber
T Y
em e
ĠL ink
Ġver m
atal og
Ġherv or
ĠCh or
Ġpart y
sch iff
ĠGra nd
ay out
Ġent hÃ¤lt
Ġins ide
it ar
zeit en
Ġpre tty
d r
ĠR en
he irat
ĠH D
Ġad ded
ze ugen
ĠNach dem
Ġ195 6
ĠF ig
Ġprovide d
I s
ĠV orsitzen
as chen
Ġit ems
Ġkein en
u c
Ġs ens
ĠC am
we isen
Ġint rodu
ĠM ess
Ġg ute
ĊĠĠĠĠĠĠĠĠ ĠĠĠĠ
ic les
Pro du
ĠÂ «
pp en
ĉĉ ĉĉ
ĠSchw er
orn ing
Ġbu ilt
ĠK ons
ĠSpiel en
W enn
os ph
Ge ographie
d am
ap ter
iv ity
Ġw ww
arbeit ung
Ġb ase
th ough
Con figuration
ĠHer ren
Ġsec urity
Ġopportun ity
ich e
ĠD enn
Ġhapp y
Ġm ove
ĠU K
Ġsh ows
Ġho hen
Ġtyp es
i pe
ĠSt ock
ĠWash ington
b ro
c al
Ġe le
ĠPla y
ĠNach t
Ġv o
ok rat
Ġpr iv
Ġrec ent
ĠB aden
ĠWolf gang
Ġeduc ation
ĠS l
S ource
Ġ Å
ĠPh ys
le icht
ĠT om
Ġunter stÃ¼tz
T H
he t
ĠMar ch
ĠUnter such
Ġrec ently
Ġfur ther
Ġs le
Ġso on
ĠFe uer
C C
Ġm obile
ĠM aÃŁ
Ġm eine
st ud
Ġwo od
Ġspe ziel
an gel
Ġto wn
ĠO f
ĠEner gie
st ate
Ġtra in
m ission
le ted
Ġproject s
ĠBÃ¼rger meister
le cht
ĠSp ring
An y
8 4
z ip
Ġb i
Ġgew esen
ĠnÃ¤ch sten
ĠBru der
m und
or te
ter e
Ġdam al
Ġactiv ities
Ġens ure
Ġde f
fe hl
Ġstand ard
ĠBas is
ĠDam it
ich ert
ste ad
Mod el
Ġl iter
Ġd og
E X
Ġt c
Ġbef and
neh m
bo ard
mar shall
ĠD och
ĠL oc
ĠIs land
l iste
Ġup d
Ġpict ures
Ġw ide
ain ed
Ġ- -
bin ation
u hr
ell ent
ĠAn ge
ar f
Ġp o
Ġk amen
ĠWerk e
> (
ĠP il
Ġmark eting
ĠPhil osoph
t est
Ġpar ts
Ġam ount
Ġco ol
Ġt aken
ĠT w
ĠC our
lic ation
Ġgeb aut
Ġvoll stÃ¤nd
ĠB ron
ĠF und
ĠDies es
ĠauÃŁer dem
sch riften
ĠL Ã¼
ĠRe al
Ġ195 9
ĠFol gen
Ġamaz ing
ac es
ĠAb s
Ġb lo
Ġk ont
ĠEr sten
ic ult
tr ieb
Ġbook s
ĠB usiness
Ġ194 6
P age
T V
Ã¤n gen
so zial
ĠÃ¼ber n
ĠPolit ik
c ul
Ġ );
Ġes pecially
Re c
ĠJe an
Â °
Ð °
or ie
ĠH is
all ow
Ġde p
Ġ195 7
Ġinter ess
Ġtry ing
ĠF rom
ĠW alter
In ner
Ġsetz te
ĠFir ma
Ġcustom er
L ength
Ġt akes
ĠA ct
ĠM ath
d ata
ges tell
le tt
B IND
r al
Ġw anted
il ian
ĠF uÃŁ
ĠU N
g as
Ġit em
ĠRe gen
net en
ĠH y
Ġl on
ĠA re
Ġmehr eren
Ġsk ills
l it
or der
ĠAut o
Ġfurn iture
ĠS at
Ġge legen
Ġres ources
Ġstud ent
Ġeben so
O P
ĠGe ist
isse ur
Ġvar iety
Ġlead ing
hal ts
ĠMe er
p oint
Ġer ziel
ĠHe alth
ĠH Ã¤lfte
olog ische
ĠEx per
BIND ING
ge hend
Ġst re
ĠRe publik
ĠMe x
A ss
Ġs ales
ĠA th
Ġcon tra
Ġson st
T R
b i
Ġk om
if fen
ĠFra gen
Ġreg ister
ed ding
n y
z we
ran g
ĠErgeb nis
ĠDenk mal
ig entlich
ic ate
ĠUnter stÃ¼tz
Ã¼ll er
l ist
ĠR Ã¤
zeug t
Ġs tellen
Ġro le
zie hung
Ġplan s
U ser
ĠE t
ĠJ ac
Ġw ays
ĠA uss
Ċ ĠĠĠĠ
Ġd Ã¼r
ĠF en
ĠLin ie
C olle
em b
Ġg lobal
ĠRe ise
p lat
ent ry
tr ie
Ġspiel en
Ġdiff icult
M y
N ames
Ġsub ject
h ab
fass ung
heirat et
osp ital
Ġal t
Ġâ ĨĴ
ĠK ranken
Ġex ception
ieren den
Ġrelat ed
z i
ĠA st
ĠI ll
ĠfÃ¼hr en
N o
ĠB und
aus ch
Ġwe eks
S port
Ġe her
ĠC ap
Ġentstand en
Ġindivid ual
ĠKÃ¶nig reich
Ġpict ure
ĠDres den
h i
Ġs end
Ġz erst
ut her
Ġhe ld
Ġihr es
ĠL icht
ĠSt unden
rie ges
ĠAc adem
Ġcoup le
an ken
ou ver
6 9
ad y
ĠGeb urt
l ier
Ġn ice
ed ule
Ur l
Ġde g
Ġfin ancial
Ġex tend
ho ben
Ġ4 5
pro tected
Ġunser en
Ġsign ific
Ġ195 2
ĠA ugen
Ġp ark
Ġsch rieb
Ġsk in
ibr ary
b ark
Ġus ers
Ġste p
oss ible
Ġb esser
Ġlearn ing
ĠL os
E d
Ġs ave
fol gen
Ġst ock
Ġst ream
ur ren
ĠCar ol
ĠComp any
r ig
ĠV ir
Ġge k
ĠL Ã¶
==== ====
b orn
w irk
w esten
st art
ĠEngl ish
Ġs ix
re quest
ĠD okument
omm end
Ar ch
Ġc enter
Ġge d
Ġconc ern
Ġp orn
tag s
Ã¼ ste
Ġaus gew
w ill
Ġw ord
ĠA uÃŁen
ĠDÃ¼sseld orf
k ret
ĠkÃ¶nn te
ĠL iga
Ġse em
Ã¤nd ig
Ġbes uchte
ig r
ĠC ms
Ġ194 8
Ġrece ived
v on
on ie
ix ed
V iew
ch ange
** **
Ġaktu ellen
Fernseh serie
ĠFace book
ir ate
Ġfor mat
Ġze igen
Ġmom ent
ash ion
Ġdec or
i i
van gel
mit t
ĠW ider
Ġsch Ã¶
ĠW ol
ct ing
Ġyour self
ĠKont akt
ĠBrit ish
T rÃ¤ger
g ten
de ckt
ĠSc ience
Ġerreich en
ĠRest aur
Ġst op
ĠProdu ktion
ĠK al
Ġne cess
Ġus ually
in fo
Ġd ig
ĠS Ã¤nger
ĠT ages
Ġval ues
ĠIllegal ArgumentException
Ġ195 3
Ġeffe ct
Ġt ell
ĠW o
Ã¤nd ert
Ġb ud
er ror
ĠI T
ĠW ell
ĠVer gleich
cl ient
Ċ ĊĠĠĠĠĠĠĠĠĠĠĠĠĠĠĠ
ĠD ate
Ġvers te
Ġpat tern
i ally
Ġ Ã¼b
ĠC re
ot es
Ġgemein s
Ġpract ice
a at
f Ã¤l
ĠJ er
ĠHer mann
ĠAuf trag
Ġdar Ã¼ber
Ġf all
ug h
Ġcom ing
ĠR unde
Ġw Ã¤re
ĠS und
ĠG re
par te
Ġerh Ã¤lt
Ġne hmen
Ġ195 4
unter nehmen
ĊĠĠĠĠĠĠĠĠĠĠĠĠĠĠĠĠĠĠĠĠĠĠĠĠ ĠĠĠĠĠĠĠ
Ġest abl
d i
ĠT own
ĠW ort
ĠH om
Ġcom mer
olog ischen
f amil
z uf
ot te
r hein
ĠT im
ĠBe griff
Ġprob ably
G es
b lick
Ġb ott
ĠK ampf
Ġper cent
ĠFra ge
Ġwoll te
Ġo il
Ġsel ten
ĠMan agement
ow a
icher ung
ĠFest ival
Ġtro tz
Ġal te
ĠGra b
l ern
ĠU R
ask et
ĠJul y
F ilter
W er
ĠK ey
ĠBe zeichnung
Pro v
ĠVers ion
Ġ row
ĠOr iginal
ĠUm welt
Ġtreat ment
ĠS ing
Ġapp ly
b us
Ġ194 9
Ġcho ice
ĠA ud
ĠLe g
ĠOct ober
c ast
Ġd raw
ĠD oppel
Ġ194 2
hr t
ĠThe men
F rau
ĠR at
ĠL eiter
Ġr unning
b Ã¼rger
sch t
ze igt
ĠArbeit en
k ap
ĠZw ei
ĠP ublik
ang ing
Ġdis play
Ġs ession
ĠH ei
Ġan schlieÃŁend
az on
ĠStre et
in ts
it sch
ĠAn g
ĠW ild
Ġd ocument
Ġs ummer
Ġv ari
Ġbel ieb
q l
Ġc ut
ver walt
Ġex act
ĠZu dem
Ġc redit
ĠEurope an
9 5
Ġs ent
ig ner
ĠH Ã¶r
ĠN ik
all ery
ĠSte uer
Ġf ra
Ã¶r m
ĠStadt teil
R el
ĠD ann
p ack
ĠW ahr
ond s
Ver lag
Col umn
ĠB us
Ã¤ te
ĠE v
hÃ¤lt nis
er o
ire ct
Ġpre p
ĠSc ott
Ġrem ove
Ġinit ial
y ear
om s
Te ilnehmer
ĠS onder
Ġben Ã¶t
M on
ĠW ebs
Ġgener al
Gem ein
P ort
Ġ1 000
bet rieb
6 8
S V
ist an
Ġp sych
af fe
ho use
Ex ec
Ġfl ow
ĠGl as
d t
Ġd ritten
ĠT eile
c ar
rie ch
Ġmind estens
P os
lichkeit en
wie gend
g ien
pro chen
in os
ĠI hren
ĠC up
Ġsp ielt
Ġpar ent
Ġeinzel nen
ĠT emp
Ġent halten
Ġhow ever
x y
ĠS ign
Ġd et
ĠSt il
Ġreg ular
Le vel
Ġrepr esent
Ġt old
if en
Ġver ein
Ġch anges
ĠAut om
iqu es
Ġb al
Ã¼ hl
Ġfor ward
ĠEn ts
Ġex pect
ĠPr inz
ĠStud ium
ĠB all
Ġacc ording
ĠPol izei
m ap
Ġt un
ĠS old
ĠF ern
Ġre chts
ĠAn na
Ġdo or
mar kt
ĠS ingle
Ġin spir
Ġal tern
U E
I nd
k unde
ĠÃĸ ff
lan gen
ĠgrÃ¼ ndete
ĠursprÃ¼n glich
Add ress
Ġf ig
ic ient
ill ing
Ġ195 5
ict or
n ow
Ġne un
Ġso und
ĠmÃ¶ch te
a ktion
In teger
ĠKategor ie
i est
ĠG as
k reuz
pe kt
Ġsie ht
be zirk
ĠLe hrer
ĠEx ception
piel t
C ms
S etzt
rÃ¤ fte
Ġinclude d
O D
Ġth ird
ĠRe cht
ite te
ĠGeb ie
ĠL im
Ġwe ight
Imp l
O M
ĠverÃ¶ffentlich te
Ġvorhand en
L S
Ġex tens
ĠE ast
Im age
ig in
im ar
Ġg round
Ġval id
Ġans wer
f Ã¤ll
Ġb us
is Empty
Ġo ben
ĠMod ell
l Ã¶sung
rit ik
Ġhei ÃŁt
F I
at ely
ĠZeit schrift
Ġ194 3
Ġgra ph
Ġflo or
G ra
ĠV is
ĠIn teger
Ġsch Ã¶n
rie den
ĠZu ge
Ġfavor ite
Ġis n
ĠAss ociation
k athol
ĠS yn
ĠSt ru
re ten
Ġrece ive
ĠForsch ungs
Ar t
prÃ¤s ent
er r
Pack age
ĠT ime
Ġr ule
Ġrec ogn
mus ik
ĠI st
Ġer folgt
ot ion
ub en
Ġlook s
Ġpl ant
ĠerwÃ¤hn t
se qu
ib en
il det
ĠP C
ĠPf lanzen
ĠInd ia
grupp en
l ers
o den
Ġw ords
ĠS ome
Ġk ennen
gen er
G et
T ag
h ers
pp ed
" :
ran sp
Ġ3 00
ĠAl bert
Ġunser em
ĠS ow
ĠV oll
ĠFran cis
P f
ĠB d
c ase
Ġer z
ĠSt amm
ht t
ĠBe k
Ġbeh ind
U M
w a
is ode
aliforn ia
p ath
Ġun ivers
Ġaddition al
Ġc ause
Ġcon fig
St at
Ġcor re
ĠInstit ute
de ten
Ġme eting
gel Ã¶st
Ġfin anz
stre cke
Ġw id
Ġf resh
ĠSt rom
u hl
Ġw oman
ed s
ir it
Ġiss ue
i ro
ro ffen
ĠChe ck
Ä į
Ġp ers
au ber
Ġj Ã¤hr
Ġ3 6
ĠNach bar
om b
l ong
ĠCh urch
Ġ194 1
ĠKon z
Ġcare er
Ġequ ipment
ĠSoc iety
Ġsim ilar
8 3
g u
sch uss
if ier
Ã¤d chen
Ġwirk lich
ĠSp rach
ho od
Ġ193 6
ĠPr ivat
ĠNach folger
Ġprodu ction
Ġreg ard
t itel
Ġdis cover
Ġweiter hin
. ");
H E
sch ei
halt ung
Â ®
ĠnatÃ¼r lich
Ġstamm t
ĠOr gan
ieren de
ĠTeil nehmer
ĠKompon ist
ĠgrÃ¶ÃŁ te
ĠL ied
Ġ ;
ĠL ake
chn et
u ell
ĠM as
Ġre fer
se hen
Ġext rem
Ġcomp on
richt ungen
prÃ¤s ident
Ġsignific ant
c ies
Ã¤ cht
res ult
Ġbesch Ã¤ft
ĠStand ard
Ġopt im
ĠV en
g le
Ġw a
or ten
mer k
Ġwel cher
ĠWh ite
ĠI N
ed ia
ĠAl so
8 7
r is
Ġ Ã¼
ĠAus wahl
Ġsel ben
ĠK lass
lin ie
Ġpr Ã¤s
ĠS Ã¤
Ġ194 7
Ġter m
be ck
ĠUm gebung
Ġmed ical
A cc
ĠIn c
qu are
Ġso fort
ĠSo ftware
zir ks
O ne
Ġre lig
ĠChar les
5 00
k arte
Ġide al
ĠRoy al
e hm
cont ains
9 3
ĠSch Ã¶n
ie ÃŁ
Ġj ava
ud es
erv e
Ġabsolv ierte
Ġge geben
Ġbes itzt
ar ter
ur a
Ã¶ sen
Ġ193 4
Ġeas ily
ĠInstit ut
te ten
un s
ĠIm m
Ġprov iding
Ġ* /
Ġde ep
aus t
vers ion
spr uch
âĢ ŀ
ad es
Ġreg ul
b ased
Ġd om
ca pe
Ð µ
ĠS S
Ġk athol
Ġto uch
Z u
v o
Ã¼r n
ren ch
Ġbo ard
at iven
Ġsc reen
Ġconne ction
st Ã¤tte
Ġ> =
M ark
ĠP unkt
Ġ193 7
Ġp oints
Ġc irc
av es
Ġbet rÃ¤gt
k y
Ċ ĊĠĠĠĠĠ
we chsel
aug h
ĠL OG
Ġall ows
Ġbil den
d own
Ġmit tler
fall en
gr enz
ĠGr Ã¶ÃŁe
E O
Ġm atter
ell o
Ġex pert
Ġoff iziel
ĠVol k
Ġwrit ten
" ))
b ischof
te x
Ġm orning
eh men
ĠLie be
8 2
Ġum fasst
Ġpr ior
Ġout side
ĠRad io
ĠsÃ¼d lich
Ġstor age
Ġsaf e
J ob
P at
ĠE U
ĠStre cke
end ung
Ġle ave
Ġphot o
Ġincre ase
M in
w issen
ne ter
f alen
ĠVerein s
S upp
Ġ rom
Ġc rit
h ips
Ã¤t ter
P oint
m Ã¶
ĠR itter
les en
Ġehemal ige
ĠServ ices
S P
Ã ¢
Ġd ress
ĠI hrer
ĠK as
ab s
Ġpro perties
fahr er
ĠChamp ions
Ġro ad
Ġrem ov
Ã¼ss el
ĠG ut
ĠSch la
ĊĠĠĠĠĠĠĠĠĠĠĠĠĠĠĠĠĠĠĠĠĠĠĠĠĠĠĠĠĠĠĠĠ ĠĠĠĠĠĠĠĠĠĠĠĠĠĠĠĠ
u elle
Ġse lect
bu ild
Ġbe ein
irate te
ĠS ter
Ġj Ã¼n
etz en
r c
De finition
M ax
j ust
as y
h y
w ner
Ġa k
ind ing
M ail
Ġany one
ĠZentr um
ĠprÃ¤s ent
ĠK ommand
ĠAb schluss
Pro perties
F C
at ory
ĠB lick
Ġwar m
ĠDe partment
ĠInst r
unk ten
ĠInd ian
ĠO ption
ĠL Ã¤nge
Ġdes crib
L ong
on ym
ĠS upp
Ġk aum
Ġdec ided
Ġw ohn
Ã¤ ten
Ġausge zeichnet
on om
ic ated
Ġver heiratet
vers e
Ġsing les
Ġoffic ial
Ġgra du
Ġexc ellent
Ġr isk
ĠSchw arz
l ingen
6 7
ra p
alle l
ĠWien er
ĠL ife
Ġl ate
Ġse ems
ĠEx p
ĠRec ords
l n
Ġn immt
ĠN ur
Ġgu ide
astr u
ĠOr gel
ĠBre men
ĠA ust
Ġre qu
ĠVer d
Ġble ibt
H T
z og
ot ing
rem ove
ĠEnt scheid
Ġc oll
Ġch em
ĠAl b
Ġpr ices
ĠAngeb ot
d om
Ġc y
Ġl oss
imm el
ĠS ar
Ġw es
ĠOff izielle
Hoch schullehrer
an ad
Ã¶ ss
ap ie
att le
fr astru
Ġsol ution
ĠDan ach
F irst
Ġm aint
ĠEr k
Ġpre m
Ġass oci
Ġh uge
ĠO k
Ġout put
teil en
zw ischen
mut lich
H el
Ġin de
Ġh or
Ġind ustr
Ġer ror
yste me
Ġ195 1
ĠJose f
in den
Ġun ver
Ġbe ge
get Value
Ã¤r k
ĠPol en
-------- --------
ĠReg ierungs
ĠPerson al
Ġintern et
a ill
Ġst reng
ov ers
Ġpurch ase
N ational
Ġd iv
Ġdes halb
meister schaften
H ow
ĠS omm
Ġin fl
Ġz uf
Ġ+ =
Ġev angel
Ġmov ie
forsch ung
ĠM icro
ĠPres ident
at ten
Ġb ald
Ġne uer
app ing
Ġv ideos
ĠE dition
Ġd ur
ĠL eitung
in st
ic ip
ed y
Ġst ation
Ġges tellt
Ġpubl ished
O C
Ġnot hing
Ġup on
g ers
v ing
Ġin dem
Ġsp ort
itt ing
n ing
Ġp ool
ĠL ive
ĠAb end
Ġerh Ã¶
hen s
ian o
ateg ory
Ġimp act
a ign
d k
Ġfor get
ĠFr iday
k om
ĠD or
ĠK ern
Ġz ust
Ġum fass
UR L
trÃ¤ ge
Ä ±
Ġs od
Ġj Ã¼d
ĠZeit punkt
ĠBes te
G er
ra uch
ĠNe ub
c as
ĠT at
ie ur
tr at
get C
atur day
Ã¤d t
Ġpot ential
trib utes
sta at
ĠnÃ¶rd lich
b ase
Ch ild
ipp ing
9 6
au te
Ġprogr ams
Ġmar shall
Ã¤nd en
Ġgew orden
Ġtr ip
Ġsol utions
ĠQ ue
N AME
r ug
st att
Ġl os
ĠFre ib
Ġe mer
ĠSh ow
T ree
m ot
ĠH art
Ġpra kt
ĠVer Ã¶ffentlich
Ġc aus
ess ages
ah nen
ph one
rei ber
ĠBay er
ĠRes earch
end orf
ĠAb geord
ĠOr d
ri pt
Ġeinz ige
pend ent
Ġern annt
f unk
p ose
Ġl ives
Ġan z
ĠMar y
techn ik
ĠH an
Ġre lease
Ġje de
Ġg lass
ad ata
Ġpar ents
Ġkosten los
r im
t schaft
Ġr ather
fer enz
Ġrem ember
Ġgirl s
P e
ĠSchl acht
ĠM em
Ġle ader
Ġdr ive
9 8
D is
ro id
9 4
D urch
Ġs al
ĠU ms
omm ission
amerikan ische
abr ik
g arten
Ġbil det
C ase
Ġt im
al ing
ĠK er
ĠL ove
ĠE th
ĠC alifornia
pr ise
Ġsug gest
re cher
Ġla unch
Ġw r
ĠC le
ĠBl Ã¼
Ġinternational en
B S
ĠH u
ĠAn schluss
Ã¤hl te
Ġpol n
Ġs aw
ĠI P
ĠG Ã¤
Ġsch loss
Ġbed room
B r
ĠBo x
pen den
Ġprov ider
ĠUnterstÃ¼tz ung
Ð ¸
Ġt ransport
if iz
T ask
Ġm Ã¶
ic ago
ag te
ĠH aut
Ã¤n n
Ġlo ad
ĠF eder
ĠG reat
ĠK laus
ĠIn vest
ĠAr ts
Ġhigh ly
m ine
Ġw in
ut ive
em ble
<? >
Ġbe ach
Ġled iglich
Ġrele ased
b it
ie ÃŁen
Ġm el
ĠKÃ¶nig s
Ġser ver
Ġc opy
Ġst ring
spiel en
ĠGrÃ¼nd ung
k au
Ġd aily
ent y
Ġsh op
Ġdar f
Ġzahl reichen
ĠJ ob
ĠBe ach
Ġlon ger
č ĊĠĠĠĠĠ
un ion
Ġe uch
ĠP unkte
ĠI V
ien ste
Ġpl us
ĠEisen bahn
Â «
Ã £
ĠH essen
Ġsl ow
at tet
Ġask ed
Ġa verage
ĠD ipl
sch au
Ġentwick elte
S I
ers eits
Ġzu ge
Ġd ro
Ġ- >
utt ing
Ġpos itive
K E
Ġs ort
Ġs etzt
Ġin fo
Ġ193 5
Ġplat form
S ub
ĠH ard
Wh at
Ġverl oren
By tes
A A
Ġd adurch
re u
om a
Ġl aut
Ċĉĉĉĉ ĉĉ
Ġw ish
Ġer forder
ĊĠĠĠĠĠĠĠĠ ĠĠĠĠĠ
u he
at o
Ġb ank
ĠP rÃ¼
ĠG ood
um in
ce p
id t
Ġf ail
b aum
Ġh und
ĠAr mee
Ġmaterial s
Ġd ed
Ġb and
an i
ĠD azu
Ġh ous
ĠT it
Ġmit tel
Ġse ction
Ã¼hr en
amp les
ĠIs rael
on str
ind est
Ġ4 00
Ġa ffe
ĠEinwohn ern
g ibt
Ġvor her
setz en
B A
ĠOr ganisation
ar ge
Ġgrow th
ĠN icht
fra u
ĠDan iel
Ġpie ce
D r
Ġt ask
ĠS ur
ĠP ower
ĠTex as
Ġlik ely
k lasse
Ġf air
Ġwer de
Ġgleich zeitig
A uch
Ã¼ ge
ĠMed izin
ĠW ork
cre en
Ġhig her
od ing
ime ter
rupp e
Ġimpro ve
Ġbath room
A fter
ĠKant on
ĠR et
Ġcondition s
ĠÃ¶ffent lichen
Ã¼ gen
ĠE vangel
Ġd ream
Ġs un
ĠS T
ĠA ch
ĠJ ung
ock et
Ġplay ing
D a
w al
ic on
af r
ĠPar te
Ġhand le
ĠProdu kte
ĠFinal e
Ġf iel
isch em
ĠCh in
Ġje dem
Ġapplic ations
L ink
ĠW oche
ĠBe im
Ġtool s
asket ball
it able
ĠB a
ĠH ash
ess el
Ġex pla
Ġwork ed
Ġinter ested
An not
Ġho tel
ĠB onn
Ġrec ommend
ĠEs sen
ĠTra iner
Ġlang uage
ĠChe m
ĠAcadem y
Ġro ll
tra gen
Ġkn app
Ġke hrte
6 3
il led
ĠTra dition
Ġpol icy
sp ro
ĠWe ise
jÃ¤hr ige
Ġb em
zen e
8 1
C T
P DF
V D
k unden
Ġro und
Ġeffe ctive
Ġbeginn t
Ġgesam te
ĠD igital
ĠVerkehr s
t a
il i
Ġn ames
Ġbring en
Le gt
ĠF ass
ul s
ug s
over n
Ġb irth
Ġl ower
ĠJ ud
rech end
E is
ĠJanu ary
Ġaktu elle
Ġg reen
Ġhe ll
AT ION
d at
Ġe igentlich
Ġch rist
ĠF ischer
ĠVer wendung
aw a
ĠWind ows
ĠW ood
ach ed
Ġfor mer
Ġle gal
ĠUnternehmen s
lemen te
ymnas ium
Ġd ra
as ons
ĠG ro
ak ers
Ġcol umn
ĠfranzÃ¶s ische
ĠSund ay
ĠT ruppen
oun ts
As ync
Ġgar den
B ahn
f Ã¶rm
č Ċĉĉĉ
Ġhe iratete
Ġgesch lossen
Ġinterest ing
f unktion
ĠS uche
uf e
Ġex cl
ens ive
Ġgroup s
ĠAndre as
wÃ¤r ts
Ġc ross
Ex pression
Ġber eit
Ġtradition al
ĠhÃ¶ her
bark eit
Ã ¸
ĠT enn
ib el
Ġres olution
ĠJu den
z Ã¤hl
get Message
6 1
ĠT urm
hen sw
D eb
ĠD isk
Ġg ives
Ġde ath
ĠVer l
ĠAkt iv
re ise
ĠNieder s
ĠZusammen arbeit
E l
ĠS tern
ĠH on
ĠBen utz
ĠK u
inn ing
Ġca pt
ĠGÃ¶ tt
\ "
ĠJ ak
ick et
ĠVert re
ĠGott es
ĠPro gram
ĠAus gabe
h istor
ian ce
Ġerm Ã¶glich
y ing
me hr
Ġwor th
pos it
ver fahren
ib ly
ound s
Ġquick ly
ie ger
or gt
ĠS ho
uch ten
we ig
ĠZeit ung
ĠQu alif
ĠF ound
ĠZ immer
ĠHoch schule
ĠE st
Ã¤hr t
ĠHer bst
m ax
an lagen
Ġp aar
ĠM Ã¼ller
lin ge
ĠAll er
ĠfrÃ¼ hen
umen te
p ret
ĠS onn
Ġv ac
ĠK olle
if est
Ã¼n ft
ĠP ers
ĠC y
() ))
rei he
Ã¤ um
ĠIndustr ie
Ġh it
Ġon es
ĠMat hemat
in y
ĠSp r
Ge grÃ¼ndet
R em
Ġschw ed
Re ad
ĠFot os
ĠSchauspieler in
Ġd ich
ĠA tt
C ache
h op
Ent ity
b ody
at ung
ĠH off
Ġex pected
ĠY ear
Ġcoun tries
Tra cing
k ra
is er
Ġwrit er
By te
Ġwelt weit
te in
gel n
Ġpart ners
Ġsw itch
Ġful ly
ĠD ivision
if ts
Ġst ammen
u ert
ĠM ail
id ung
Ġmy self
fl Ã¤chen
sch lÃ¤
ĠBl og
Ġange geben
Loc al
ĠDec ember
ur er
ĠMen sch
gemein schaft
wissenschaft ler
d s
ĠV ictor
ill on
ĠEng ine
Ġarch ite
it ation
Ġb row
ĠAuf gaben
Ġpat ients
Ġter ms
ĠCol or
o oth
ar io
mal e
Ġfe ed
Ġdevelop ed
af e
org ung
ĠM ur
ĠN ic
ĠÃ¤l tes
ist in
Ġro t
ĠChrist mas
Ġgan ze
ĠP ublic
Ġarbeit en
Ġjewe iligen
pp e
Ġzu letzt
B lock
d y
Ċ Ċĉĉ
ie gen
Ġm id
Ġst atus
Ġsch l
Ġan im
Ġent w
an walt
Ġfand en
Ġlet ter
ĠzusÃ¤tz lich
S ession
ze igen
Ġbek ommen
Ġrelations hip
b as
al u
ĠM aster
ĠS aturday
ĠW ass
ĠWe chsel
p hen
re l
id ents
verwalt ung
ĠSt ahl
Ġpla ces
ĠA f
Ġin j
f ind
| }
re publik
kt iv
ma ÃŁ
Ã£ o
Ġt en
ak s
Ġm o
lo c
heim er
Ġcl oth
ĠComp uter
Ġd oc
Ġ19 19
ĠSt affel
Ġaus schlieÃŁlich
ĠWeit ere
ĠHe idel
ĠPh ot
Ġ192 9
alle y
Ġdev ice
Amer ikaner
N A
W ork
W riter
r um
Ġo l
ĠMon ate
AT E
Ġmult iple
Ġl isten
Ġse ek
ran ch
K ultur
Ġt hr
ĠD Ã©
op en
Ġbrit ischen
6 2
E urop
Ġf irm
ber eit
Ġ19 18
ĠZ uf
20 17
Ġwen ige
van ced
ĠCoun cil
Ġanal ysis
und le
ĠK enn
ĠV iew
Ġver k
Ġcreat ing
t i
ĠC ast
ultur al
zie hen
ĠfrÃ¼ h
ð Ł
ist ics
Ġun it
Ġme chan
schein lich
ĠFar be
ĠL ager
ul en
Ġab ility
Ġmach ine
ĠgroÃŁ er
Ġpl anning
Jahr hund
er al
ĠL et
asch ine
Ġt ag
ĠJ os
Ġ15 0
Ġpolit ischen
9 7
P osition
Ġ3 3
Ġâ Ĥ¬
u ted
ul y
se c
Ġorgan ization
m atch
Ġh Ã¤tte
ber e
lie fert
ĠPol y
mittel t
ĠAngel es
ĠE very
ĠKir ch
b ewe
Ġim m
zeich nis
Ġ192 8
Me ter
Ġess ay
ĠProble m
m ont
it ial
ter ator
Ġver lÃ¤
Ġweek end
aly se
ĠBeruf s
Ġf ant
ĠAn s
ĠStÃ¤d te
Ġextend s
d aten
Ã© e
mÃ¤ ler
ĠPort ug
Ġp en
Ã¤ u
ĠN et
laub t
k omp
Ġb ere
oh ol
Ã¤dag og
hensw Ã¼rd
ĠMar g
stand s
C o
st attung
ĠZ usch
Ġob tain
Ob jekt
Ġe arn
d is
Ġf iles
Ã¼ cht
Ġgo al
Ġph il
west lich
ĠSomm ers
T ER
W Ã¼rttemberg
b rit
Ġt itle
ĠD ata
os ed
ne e
re chts
Ġz entr
Ġne igh
ĠW ach
Ġ19 14
Ġro ck
Ġbu ilder
haus es
Ġbede utet
S erv
V ol
Ġben annt
ĠStru ktur
9 2
Ġf a
ach ts
ad el
la y
ks am
pro f
hol z
wind igkeit
ie fer
or th
Ġsaf ety
Ġdistr ib
D S
Ġv irt
ig ation
am ous
ĠR Ã¶
ĠC all
ien ces
ĠVer kauf
Ġsuccess ful
Ġgesam ten
Ġwonder ful
Ġin tens
Ġk lar
Ġimp lement
forder ungen
in ed
Ġre pla
Ġge ts
ĠFl Ã¤che
b ilder
Ã ±
he m
Ġim med
ĠWer te
Service Response
D ir
l or
ur l
ĠM un
ab et
Ġpass ed
ĠGren ze
ĠFen ster
ĠM Ã¤dchen
Ġ1 20
ĠW ander
Ġatt ack
ĠRud olf
Ġcommer cial
w ir
ĠCh icago
()) );
He ader
ĠfranzÃ¶s ischer
A uth
Ġun mittel
au x
Ġhinz u
Ġd ark
Ġm ount
ĠK ra
ir ch
Ġhelp s
ĠspÃ¤ter en
P l
p a
Ġhal ten
ĠSicher heit
Tracing Enabled
m ore
ĠS amm
ĠE duc
ĠDe velop
haf en
r id
ĠS ym
ĠD rei
Ġch ance
ĠWh ile
Ġser ious
ĠS us
el ine
ĠH ill
for men
Ġall gemein
chn ung
Ġth ous
rif f
Ġno te
ĠBr un
Ġatt ention
ĠFot o
V AL
u id
is Any
Ġb uffer
il a
ĠW ies
Ã¼r k
Ġgo es
Ġinst ru
Ġbeg in
an zen
ĠS om
Ġgen ommen
Lo ader
g arn
h old
ĠO ver
Ġd ise
ren nen
ron ic
Ġdirect ly
isAny TracingEnabled
p osition
Ġd iente
ĠF arb
ĠSch les
ĠSchw ar
Ġstart ing
Ãĸ sterreich
Ġregel mÃ¤ÃŁig
Ġw edding
Ġble iben
Ġconstru ction
er weise
ĠE ss
Ġso uth
ĠUn s
fr iend
Ġplay ers
Ġc ell
ig ungen
ass el
Ġges etzt
ĠKinder n
unt ime
Ċ ĠĊ
ĠG alerie
ĠBest and
m eld
ĠN Ã¼rn
we chs
R uft
Ġn et
xt ra
Ġabsol ute
v ier
ĠM erk
Ġg riech
Ġnecess ary
ge legt
Ġc abin
ĠHe im
oper ation
ĠQu alitÃ¤t
ĠFamilien name
Ġ( ,
ĠW erner
c up
k ont
m o
ial e
lef on
aupts Ã¤chlich
ĠA T
ink el
ĠBes uch
ĠGer ichts
V ari
ĠS ammlung
im inal
ĠâĢ ļ
ĠAn gaben
ĠFÃ¼r st
ĠWei hn
' d
ĠS y
ĠH alle
Ġdamal igen
ĠR ing
ho den
ĠOff ice
Ġrequire ments
Ã¶ p
ĠAn schlieÃŁend
leg ung
aug ht
print ln
B ase
b is
nd en
Ġl ost
b a
w ith
as c
ĠE vent
ĠR am
ige m
Ġdurch gefÃ¼hrt
ĠBes onder
Be an
stÃ¤nd e
ĠB ob
ĠAr n
Ser ver
hockey spieler
p x
Ġbe gan
gew icht
l ament
w here
Ġc ases
ĠMed ia
ĠBÃ¼ cher
k raft
st ream
ĠL ux
Ġpro per
rÃ¼ cken
ath let
Ġag re
UL T
ĠT ransport
C ON
Ġreview s
Ġf lex
ol ve
ĠT ar
Ġre in
ĠNutz ung
ĠZeich en
henswÃ¼rd igkeiten
ĠT ype
imp le
i ation
Ġcomp lex
n ern
Ġh um
au ern
res ource
ĠFlor ida
Ġs b
Ġb orn
ĠF ernse
ĠZ entral
ĠAl ten
tt ps
Ġstreng th
un te
ĠP orn
ĠW ettbewerb
ĠSt reit
ĠMag az
Ġbeteil igt
Ã º
Ġm ix
lav ier
P A
b our
p erson
Ġl ic
Ġent lang
Ġgrow ing
ĠBeit rag
n amen
ĠS um
us ed
ab il
ei der
ĠFahr zeug
ĠApp le
Ġbenef its
l ings
Ġb rachte
Ġg ift
Ġdesign s
d as
w in
ch em
ĠS icht
Ġch urch
Ġinvolv ed
h auer
Ð ½
Ġf ilter
ha ber
Ġdefin it
Val id
trie ben
Ġent scheiden
Ġcar ry
Ġricht ig
ar ies
ag d
St ra
ipp ed
ĠNatur schutz
Ġ ign
ĠS atz
ĠO x
Ã¶l f
M atch
Ġzw eit
w ide
at i
Ġw ider
ĠN amens
Ġan aly
ĠMar c
Ġfin ish
S U
as ten
ĠSch le
Ġit self
ĠunterstÃ¼tz t
ĠÃ¼bern ommen
R A
ĠAn tw
ĠAd d
roug ht
Ġb aby
Ġn ov
ĠW ed
Ġehemal iger
reif en
W ie
i ant
Ġwir tschaft
ru it
fr ont
ĠPart y
Ġveh icle
is ierte
an cy
ĠS ach
ic kt
ul pt
od or
ut n
so ft
Ġac cept
ĠFebru ary
Ġsele ction
H ttp
Met hode
ĠM ost
Ġg iving
j o
ĠR ou
gew iesen
S piel
Ġt emp
ahr en
ĠHerr schaft
k irchen
ar es
by te
p unkte
r t
ac ity
mittel n
ĠÃ¶sterreich ischer
hil fe
A ction
ĠL Ã¤ndern
ĠFe hler
ĠGl Ã¼ck
Ġnor th
Ã¤ss er
ĠErgeb nisse
cript or
U s
Ġs an
ĠT emper
im ension
N eben
Ġt rÃ¤gt
Ġnot wend
esen ted
Ġfun ktion
Ġklein er
Ġaktu ell
ĠS C
ĠB ol
Ġer setzt
ff ic
por ate
ĠMÃ¼n ster
R ule
ĠS Ã¶
ĠA ff
Ġge prÃ¤
ĠRe p
hal le
Ġin stead
Ġe dition
Ġex am
Ġch at
ĠDar stellung
Ġw ait
am ing
Ġal bum
Ġun abhÃ¤ng
ĠRo ad
F r
lan k
ĠBl ue
Ã¤uf er
ĠFar ben
v olle
Ġv iol
Ġ193 2
Typ es
allow ed
j i
ĠM and
ly ing
Ġhand s
ĠJ SON
ei ge
Ġsom et
Ã¡ n
ĠCont in
Ġindividu als
wissen schaften
f ur
ĠP ier
ĠP ubl
Ã¤n gt
ick er
pl ant
imat ely
ĠUR L
Z ur
Ġer baut
Ġpre d
temp or
y e
Ġs ah
ĠM ach
Ġde pend
aut or
Ġalle in
is abeth
ĠT Ã¤tigkeit
Ġer inn
Ġk aufen
Ã¼ hlen
Ġh our
and a
inc ip
ĠP rom
ĠO h
Ġ192 5
cle ar
gor ith
p ers
ik ations
M at
P olit
Ġf ine
ĠLe x
ĠCan ada
Ġd ry
Ġg old
mit glied
Ġrep air
N S
ĠSch lag
ĠBe zirk
Ã¶rder t
wei le
ĠM aschinen
Ġver mutlich
Ġverb reit
Mus ik
p at
ĠL ieder
iz ier
ĠAt lant
Ġoffer ing
Ġstat ement
ĠW irtschaft
Ã¼r gen
la x
Ġle bt
Ġcom b
ĠEin fluss
ĠLe icht
Ġlevel s
Ġcomplete ly
is ation
Ġlar gest
Ã¤ll t
ĠLeist ung
ĠGesund heit
ĠR ennen
Ġbusiness es
P RO
ĠL ast
Ġthink ing
ĠOp fer
ĠvollstÃ¤nd ig
Ġ q
ic ed
R ad
ĠH ttp
ow ski
Pro cess
ĠNational sozial
Ġver z
Re ader
Ġgeb racht
Ġsod ass
D I
m esser
w en
il den
ĠD ro
Ġge fÃ¼hrt
Ġsch edule
ĠÃ¤l ter
ĠMond ay
D A
ĠB la
ĠE re
Ġver hinder
Ġor d
ĠBr as
Ġ192 7
W Ã¤hrend
le ger
Ġn utzen
ĠE ll
ĠSt iftung
ĠStud io
ĠRegion al
Ġangeb oten
g ab
l ike
ĠS ib
ĠS onnen
w ell
Ġg uten
qu ence
ĠPro ject
Ġpre fer
Ġjed es
wer ks
ĠHo hen
htt p
ms el
Ġgesch rieben
Ġstor ies
. ),
z if
ĠJes us
H ier
Ġenc our
l ies
m t
r est
Ġs ynchron
ĠM ik
Ġh auptsÃ¤chlich
ĠR oll
ĠMus iker
Ġbec ame
zahl en
] ,
Ġd omin
ĠD ir
lo at
Ġhom es
In s
ĠAus stellung
Ġl Ã¤nger
Ġaut omat
Ġerziel te
n itz
ĠB rown
Ġl angen
Ġcon du
ĠAl fred
Ġt Ã¤
Ġn ature
ĠEn ter
Ġ192 1
Ġexist ing
il lage
ĠSt atus
Ġout door
Ġbet re
ĠAustral ia
L ast
Ġ Ã¶stlich
Ġb all
ick ets
anz er
Ġbest Ã¤t
ĠBo ard
g rad
p ossible
ĠC entral
ĠWe hr
Ġ6 5
Ġstru cture
9 1
Ġb ul
Ġ19 00
Or der
ĠColle ction
k ord
or et
eb e
par ator
Ġschw ar
Ġm aster
il ing
ĠH ause
Ġj unge
Trace Component
ĠerÃ¶ff net
parte ment
Ã¶r en
D P
ur b
Ġpolit ische
D o
O W
P reis
al m
ĠW in
ĠW omen
Ġbe legte
sp rache
ree k
Ġprogr ess
Ġmethod s
en te
ĠA R
ĠV an
ĠLe on
ĠverfÃ¼ gt
Ġannoun ced
? ?
en se
Ġad vert
Ġur l
ĠForsch ung
p m
ĠT able
Ġpre uÃŁ
ĠRel ig
ĠVier tel
M ode
h Ã¤user
Ġd ein
tr ans
Ġ} );
Ġwe ather
ĠHand els
Aus zeichnungen
v ol
Ġst age
schaf ter
M ill
s a
Ġs us
20 16
Ġqu ery
Ġhealth y
ĠVor g
ĠZu kunft
ĠSm ith
Ġactiv ity
ch ner
Ġg rand
ĠSt off
ĠÃ ī
Cont ainer
ĠFir men
s ystem
Ġn omin
Ġl ux
ĠAm azon
ĠZusammen hang
Colle ction
ĠM acht
ot ten
Ġact ive
Ġgleich nam
k g
Ġer f
Ġor igin
Ġlog ger
Ġbas ic
spr ung
Ġexperien ced
F amil
ĠS V
ĠBau ern
ĠerklÃ¤r t
T E
Ġs old
ĠT hen
ĠG olden
Ġg as
ver lag
Ġver antwort
Ġ< =
C al
an geb
ĠBl ut
Ġphys ical
Ġc ulture
ĠL eit
sub string
Ġt ats
Ġthe msel
ĠB ul
ĠMar ine
Ġ193 1
ĠS un
ĠMan ager
at ives
ĠG ust
ĠL y
Ġ19 10
se x
Ġverl or
ĠSpan ien
d ouble
h te
sch auspieler
iel le
ff er
ar ante
ĠS uch
ĠC O
Ġbe hand
ers ey
ĠL aur
ĠHe iligen
c an
Ġt al
Ġback ground
pf licht
ĠÃĸ l
Ġdec ision
W erke
c la
Ġse ien
Ġcont ains
Ġspe ed
Ġs ell
or ial
Ġe inger
Ã¤ her
Ġapp e
Ġroom s
F re
K arriere
Ġf ab
Ġander er
Ġrelat iv
Ġthemsel ves
A ug
S Ã¼d
Ġsm art
Ġbl ue
ĠHome page
g on
p i
Ġf ashion
ist isch
âĢĿ .
( '
B undes
in put
ĠP fer
ĠG overn
ĠSt immen
ĠFreib urg
ĠVertre ter
ĠW etter
Ġun ten
par se
Re ference
ĠGegen satz
d ar
h u
ĠF ritz
St ack
Ġ4 8
ĠDire ktor
Ġp ages
ĠDe v
m y
Ġs agte
Ã¼ hm
Ġwe ar
ĠPat ienten
Ġwest lich
Ġcamp aign
ĠVorsitzen der
g ut
er c
ĠE ar
Ġst uff
Ġum fang
20 15
ĠLand schafts
Ġ192 4
ĠZust and
Ġl ots
ber n
ĠHen ry
Deb ug
Ġn ied
ĠG irl
Ġk rit
ĠQu ellen
Ġsogen annten
Ġder zeit
and en
Ġown ers
ak a
ĠAn lage
Verein igte
f ast
ĠP or
Ġinter view
ĠHinter grund
zieh ungs
ĠH ir
all er
Ġcons ult
Ad resse
ĠSer ver
Ġemp f
ĠErz Ã¤hl
Ġlim ited
Ġfert ig
im me
ĠâĢ ¢
Ġinst it
ĠChar akter
e es
ĠC ode
ger ichts
ĠSpe zial
b latt
p ace
s es
Ġ( "
ĠL ig
Ġre ve
20 10
Ġmein er
Ġd ient
Ġc ards
Ġh ar
ĠT a
ies ter
Ġch ines
Ġbet rieben
stru ktur
ĠM att
Ġh ttps
res p
Ġpart ner
ustr ie
Ġgan zen
Ġann ual
Ġwicht ige
R et
V ER
er be
te uer
Ġ3 4
Ġsp ot
Ġsen se
m ond
um Ã¤n
ph an
com es
ĠĊĠĊ ĠĊ
S k
r ats
Ġ3 8
St ore
ific ate
ĠBesch reibung
Ġver lieÃŁ
ĠChrist oph
n ungs
ĠL i
iel ten
ĠBas el
II I
M P
m iss
Ġs yn
ĠG attung
ĠPro zess
20 12
Par am
ĠD amen
ĠR enn
our ney
ok er
In putStream
A X
b ung
y ond
or al
ĠM Ã¶
Ġat tend
20 14
L abel
Z eit
is tet
ĠSpe cial
Ġbrit ischer
Ġlim it
s ervice
w an
Ġd unk
Ġm ention
Ġ7 5
Ġsub mit
T arget
Ġver gleich
lin es
A ut
g roup
r ies
Ġsp ring
ĠÃ¼ br
Å Ļ
Ġh ielt
ĊĠĠĠĠĠĠĠĠ ĠĠĠĠĠĠ
ĠSp Ã¤ter
Ġunter st
br idge
Ġwind ow
Ġbestimm ten
ĠGeburt stag
ind ungen
Ġhe ar
ry pt
fin den
ĠSold aten
Ġl ands
ĠGe heim
ikan ische
ĠHand el
ĠRuss land
ĠTechn ik
ĠmÃ¶ch ten
l ation
Ġ ult
Ġhe ard
ĠString Builder
Ġsuch en
ĠProble me
Ġelement s
sie he
St adt
Ġar gument
Ġco ach
ĠBild ung
Ġsur round
B l
f le
Ġe th
ĠÃ Ĺ
los en
ĠWe imar
ĠFried hof
ĠKom ment
Val ues
ĠCommun ity
Ġeurop Ã¤ischen
f rom
Ġcreat ive
or fer
Ġf arm
Ġe b
ĠBe zug
ese hen
Ġgew innen
Ġsub s
y les
Ñ Ģ
Ġd ah
ĠB lock
oren z
Ġoff set
roll er
Ġopportun ities
ĠDreh buch
Ġexact ly
ĠWebs eite
g ner
au d
ĊĠĠĠĠĠĠĠĠĠĠĠĠĠĠĠĠĠĠĠĠĠĠĠĠĠĠĠĠĠĠĠĠ ĠĠĠĠĠĠĠĠ
Ġdeliver y
m acht
m osph
Ġt emper
if er
lin ien
St ud
aut en
sel ben
Ġfol gt
Ġfamil ies
Ġst aat
Ġsp ent
Ġmus sten
Ġplay er
lÃ¤nd ischen
n ational
Ġs av
tr al
F unction
m es
an ischen
Ġ192 6
ĠSer ies
Ġcla im
us er
ĠL ieb
ĠBe zirks
ĠDeutsch er
urs day
ver stÃ¤nd
low ak
Ġo wner
Ġwieder um
Ġge eign
gel d
Ġar g
r ick
Ġs ymbol
ay a
Ġj ungen
lie der
ĠPra xis
N ieder
ĠR od
ign ed
B ar
F ol
is ions
De fault
Ġgel ten
ĠArchite ktur
b on
Ġan ges
Ġdar in
ĠAb teilung
20 11
reit ung
Ġcolle ge
ĠVerwalt ung
Ġt ips
ĠM ey
ĠF ak
Ġerw eit
S ec
r d
u gend
ĠV om
Ġverkauf t
O K
im er
ber s
Ġweiter er
it ude
kt ions
Ġpro p
Ġor ient
Ġso ft
Sch w
Option s
Ġsle ep
kret Ã¤r
el a
ĠF ield
ĠVer fahren
Ġsp end
ĠBer eits
Ġgesch affen
Ġk or
Ġver t
ĠRe volution
ĠAn th
ĠAuf gabe
ĠEl isabeth
ĠInter esse
Gemein de
and ers
amerikan ischen
Spe c
Ġcomfort able
Prov ider
f alse
Ġt ree
geb racht
tem pt
Ġmod els
war en
Ġleb te
t l
ĠAd min
Ġsol che
ĠBeit rÃ¤ge
ĠTemper atur
w s
re ci
ĠC ost
ken nen
zeich nete
ĠUr s
ĠRhein land
ĠK lavier
ĠW he
ĠH it
Ġst ieg
ate ur
Ġent deckt
n ummer
ĠM aur
ĠG ran
ĠE hr
Ġver pf
Ġex press
ĠSoc ial
I F
ĠG lo
ĠN av
Ġlie fert
Te chn
ĠWei ÃŁ
ar kt
ĠD E
Ġver treten
Ġar ray
stell er
Ġexp and
et ch
Ġsc ience
Ġhigh est
h aps
ĠE lect
ĠNe ue
gef Ã¤hr
age gen
ail s
Ã© s
ĠHaupt stadt
Ġwichtig sten
v i
ik i
ard inal
Ġhistor ischen
ĠBewe gung
h ow
Ä ĩ
Ã¼ m
Ġc andid
ĠP ack
ĠP ri
ess ions
Ġcomp leted
ĠMen ge
Ġess ential
Ġcorre ct
r ight
Ġl ack
ĠV arian
ver anstalt
ues day
ĠBed ing
Ġerschien en
Ber lin
leist ung
G ER
ĠB ist
ĠT schech
Ġst ress
Ġcons um
Ã¼t te
ĠÂ £
Ġfre qu
Ġmov ing
Ġcost s
lÃ¤uf er
Ġsomet imes
ic ing
ĠG Ã¼ter
Ġschw arz
Ġav oid
yd ro
ĠSm art
W eit
ĠIn f
ĠVo gel
i xt
an el
ig an
Ġg Ã¼nst
ĠCh ild
ĠKarl s
Ġto wards
Ġste ts
Off set
tempor ary
w eite
le hn
stit ution
ĠSant a
H ost
b ul
Ġin zwischen
om ot
Ġl ines
Ġex hib
ĠÃĦ r
wes ome
ĠSow jet
ann a
Ġpro pos
ĠFran ce
Ġplay ed
Ġclass es
p olitik
Ġc ash
ug in
gew and
kn own
gebie te
Ġblo od
c ia
en zen
Ġg ro
Ġco ffe
uck y
ĠIde en
Ġrepor ted
TY PE
Ġw issen
ĠD ouble
ĠC ho
ĠHe ute
Ġtra gen
K reis
T hre
ĠB ett
Ġp et
gang s
Ġbesch rieben
ĠMod el
iat ely
Ġleb ten
c lose
ĠG laub
get Class
ign ment
ĠKar te
ĠVerb and
k ampf
Ġ Ã¶
ie fe
Ġm other
ĠStand ort
O ber
el and
Ġn umer
ĠT agen
ĠP aar
Ġus es
ĠPe ters
bild ungs
Ġdarauf hin
ĠBrand enburg
Che ck
Ġein st
ĠO ld
ĠTh anks
Ġzw Ã¶lf
Ġro ot
Ġdar an
ĠPf lege
akt iv
ilit ary
Ġeff ort
leist ungen
Ġdivers e
ĠH ub
Ġg ere
ran ce
lan z
E hemal
ĠH istory
iz ations
ĠEin s
iss ert
ĠKar ten
ĠÂ §
ĠGew inn
ĠDistr ict
up s
rie be
Ġsho pping
fÃ¼ hl
Ġpos it
ĠG ame
ĠG Ã¼n
ĠTh Ã¼r
Ġd ynam
ĠB rief
ĠGroÃŁ en
F rank
h ost
ĠHeidel berg
ĠU ser
ĠIn tegr
gemein den
lauf en
tain ment
Ġmot or
Ġwr ong
Ġdefinit ely
Ã¼ st
Ġdem onstr
20 13
sk y
ĠCour t
Ġf uer
Ġm is
Ġwe g
Ġbo y
Ġconsider ed
West falen
ĠEre ign
b ad
s l
v m
ĠA P
Ġc ru
ĠT ri
geb nisse
Ph one
Bau werk
ĠP ay
ist ance
ĠTe le
Ġ192 2
ĠWill i
Ġf amous
as ion
ohn er
Ġbeginn ing
ĠSchw ester
pf lege
Ġcour t
Ġsele cted
Ã¤ ische
Ġschool s
utn ant
f ilter
Ġh arm
ĠF ind
Ġl au
ĠSte fan
ĠTurn ier
un i
ro te
ĠZ us
ne ct
Ġso c
Ġcl ub
ĠHÃ¶ hen
B ack
ach im
ĠEin fÃ¼hrung
tra iner
200 8
reg ierung
zieh ungen
Ġprim ary
ĠCent re
ad rat
ĠSo und
Ġ192 3
Ġarbeit et
ĠGÃ¤ ste
us te
ĠF rench
mal er
ock ey
ĠÃ¤ uÃŁer
ĠNieders achsen
n ode
Ġw ild
re in
Ġh Ã¤lt
ĠW ater
ĠIn n
Ġsp Ã¤t
ĠTra ining
Ã¤ den
et ts
ĠR ail
Ġtrans fer
ĠVir gin
I A
d ire
g ern
h agen
l uss
er er
re chte
ce ed
Ġfol gten
ĠBetrieb s
brÃ¼ cke
Ġunmittel bar
V erke
as che
ĠW estern
ĠSt ation
ert ung
ond ition
Ġeing esch
w ach
Ġ{ }
ĠMat th
E G
ĠN ummer
ĠEn gel
zÃ¼ ge
Verke hr
d urch
Ġver g
Ġbest immt
Ġbring t
Ġunderstand ing
ĠverlÃ¤ uft
Ġin sp
Ġh op
ĠJ on
ĠZ ent
ĠSch aus
In put
C re
ĠR og
est ra
ac ters
Ġpre vent
vers ammlung
V is
m ir
Ġm ilitÃ¤r
ĠF isch
ĠC ross
ill y
we gs
200 7
Nach dem
AG E
] [
f Ã¤lt
Ġk anad
ĠAn wendung
oun ter
ĠOr ganis
Sch wei
ouver ne
H L
y an
Ġg esehen
ze ption
ĠGes pr
Ġoffer ed
Ġbeh av
ĠGÃ¶tt ingen
B and
Ġd auer
Ġh y
Ġaus getragen
âĢĿ ,
ic ine
an u
Ġm iddle
ĠW agen
Ġ19 12
Ġcon ven
ĠMet all
ĠT ok
let ter
Up date
R ed
ĠK ohl
ĠReg isseur
Loc ation
im in
sp er
Ġsupp ly
Ġentsp rechend
unsch weig
m aterial
Ġd ritte
ĠS em
ann ien
Ġent h
fr ist
ĠSpiel zeit
Ġcoffe e
Ġf ight
ro at
ĠAn y
ĠAn teil
Ġserv e
ĠId ent
Rec ord
k in
ch mal
ĠP a
ĠL ight
ei ÃŁ
Ġhe at
ĠOr te
ĠSchw eden
200 9
ĠFr ont
ļ Ń
Ġf lat
ra pper
qu is
ĠNieder land
Ð¾ Ð
Ġge halten
Ġsp orts
ĠTh ursday
ĠBÃ¼ ro
Ġunterschied lichen
Ġs ituation
ĠS P
ĠL ok
Ġpre c
ĠDire ctor
ĠSim on
ĠJak ob
Ã ½
it ness
ĠF un
ĠL ab
Ġer fÃ¼ll
ier n
ĠGrund lage
Des cription
ĠAfr ica
ĠMÃ¶glichkeit en
ĠAller dings
k osten
m and
ĠE igent
ag ram
Ġapp reci
Ġgew onnen
Ġra ce
baut en
d essen
ol es
ĠL ord
Ġun bek
Ġpro ced
ĠBr ig
Ġprom ov
ĠEduc ation
Ã Ħ
ĠF ire
ĠK ammer
Ġsetz en
Ġsett ing
Ġre lax
os a
Ġsol id
minister ium
p al
Ġ uk
ing u
Ġl ok
Ġl Ã¤ng
Ġtra de
IN E
Ġadv ant
G ruppe
\ \
id den
ĠÃ¼ber wiegend
ident ial
Ġpol ice
Ġeng ag
ĠFound ation
L a
Z um
Ġs atis
th ur
Ġfe et
ous ly
Ġerst es
Ġview s
N on
Ġw ife
ue ber
gr Ã¶ÃŁ
gr iffen
Ġacc omp
ĠBes ucher
200 6
Ġappro x
Ġpur pose
F ound
Ã ł
er es
it ur
ĠB ell
Ġde ad
ichte ten
Ġill ustr
T ION
ont o
hol t
Ġinc red
Ġey es
Ġs and
us band
ze p
ĠAr zt
ĠPro p
Ġev alu
ĠIt al
Call back
Ġdeg ree
an ien
iel len
Ġr ich
isten z
Ġche ap
Ġitalien ischer
zip lin
ra ct
lie fer
omm ern
Ġar gs
Ġviel leicht
Ã¼tz t
Client Exception
Annot ation
c or
in ary
ten ance
ul f
stand ing
ĠTr ib
gangen en
Ġswe et
B ox
Ġmehr fach
Ġvers ucht
med aille
ĠauÃŁer halb
Ġs em
Ġelect ric
ĠermÃ¶glich t
C ar
T op
c ap
h och
ĠP od
Ġ/ *
olog ies
ett ings
Ġappro pr
fan ter
Ġrepor ts
Ġn ation
ĠP ak
ĠC are
rÃ¤ sident
Ġbet rug
oot ball
A F
ĠA N
Ġver lassen
Ġle gte
ĠMor gen
D B
z ub
ĠH uman
Ġ5 5
Ġ6 4
Ġchange d
ĠT isch
Ġwas n
ĠMan y
stru ktion
Ġret ail
Ġest ate
ĠInstr ument
A utor
ol ar
ĠT uesday
ein s
Ġr ates
ip es
Ġstrateg y
ĠTÃ¼r k
Ġd rop
re al
ro ck
ĠRe chte
Ġgu arante
iti ative
2 000
L iste
r ik
w ise
ĠL or
ag ne
oh le
Ġpass ion
m d
ĠD ra
ĠP enn
ĠV ize
Ġst ates
ĠEr de
ĠSie ger
Ġtr uly
ĠVert ra
r Ã¤t
ĠV illa
th a
ĠSp rachen
ĠDar Ã¼ber
ĠdÃ¼r fen
ĠM om
ĠL ook
ot al
ost on
elt a
Un it
Ġart ist
ĠGrÃ¼ n
Oper ation
Ã ´
ĠM ov
ĠH T
ĠNach richten
Ġges etz
Id ent
denk mÃ¤ler
lo ok
es is
al ed
ow l
Ġges pielt
ĠAd am
ĠTod es
Ġemploy ees
ĠWissen schaften
B esch
h orn
Ġin kl
lin ik
Ã© r
Ġmet al
Ġadv ice
ĠHers teller
Ġey e
Ñ ģ
ĠS inn
el er
ĠT anz
ĠK ore
icht lich
Ã¼ck sicht
Ġbut ton
fl ow
fel der
ĠSin ne
ĠCarol ina
Ġauf gerufen
ĠIn t
ĠEin heit
Ġpr Ã¤
Con stra
con fig
ĠÃĦ nder
Ġentsp richt
Ġpolit ical
ĠHow ard
Ġconne ct
Ġwahr scheinlich
Ġverlie hen
ĠPhilosoph ie
L ayout
Ġb ill
Ġm il
Ġm iles
ĠL ind
ĠverfÃ¼ g
w ander
Ġv Ã¶ll
Ġ4 4
ied lung
ĠDeutschland s
ĠRich ter
Ġincre asing
Å «
Ġprodu ce
stoff e
deutsch en
Ġclick ing
Ã¤chs ischen
Ä ģ
č ĊĠĠĠĠĠĠĠĠĠĠĠĠĠĠĠĠĠĠĠ
ĠG lobal
qu es
ĠAl tern
erk unft
act ive
Ġwen igen
lev ant
L ock
Ġb rought
Ġthous ands
B ild
l Ã¤nder
o ÃŁ
ĠB ass
cl ude
ĠGra fen
gew Ã¶hn
Par ent
ĠSchm idt
t op
Ġcon trib
Ã¤r t
Ġcontin u
Ġbeaut y
on ial
Ġcol ors
ĠDaten bank
ĠBrÃ¼ cke
ĠGel Ã¤nde
is a
if ik
ĠO pt
ĠgehÃ¶r ten
Ġinfl uen
ut ing
ĠR ay
Ġcoll abor
ter m
Ġr ights
pro gramm
Qu ellen
Ġverw ende
Ġeinges tellt
O p
Ġd etail
Ġv ict
ĠH und
ĠAut oren
ĠHein z
ĠFÃ¼hr ung
Ġregard ing
o is
ĠT iere
Ġsp irit
Ġthan ks
ven ue
Ġnumber s
Ġbud get
b ibliothek
Ġs ample
ĠS tellen
Ġf ix
ic ious
Ġbe an
ĠN etwork
Ġit er
Ġgu ys
ommer ce
Ġprote ction
Ġheut ige
Ñ Ĥ
Ġ il
Ġf ather
Ġand ers
ĠE ven
af t
ĠEr inner
ĠGer hard
Ġ190 7
Ġfriend ly
LO G
ĠPap st
Weit ere
r up
v ement
Ġw and
Ġl Ã¤
ĠSt an
ak ed
In valid
ĠArch Ã¤
famil ie
Ġassoci ated
st uhl
ĠG rÃ¤
ĠVer lauf
Ġent stehen
Ġ4 2
Ġkann st
Ġhelp ing
Ġeffe cts
bie ter
Ġamer ikanischen
n etz
ĠG ames
ĠK os
ĠW es
ist a
Ã¶ der
Ġ3 9
ĠGe h
bo ten
Ġmay be
ĠPe ople
ĠCol umb
Ġfeel ing
Ġpack age
Ġlov ed
C omm
ĠS n
Ġc at
ĠD ol
Ġme as
Ġdiffer ence
ennt nis
] );
m Ã¶glichkeit
is her
Ġs ym
gren ze
ĠDevelop ment
ĠK ritik
la h
Ġr Ã¼ck
ĠMar ie
Ġ6 00
Ġmus ikal
Ġsur face
C P
N ON
ro y
ĠD omin
Ġ19 13
ĠAd olf
ĠUnivers itÃ¤ts
Ġclass ic
ĠMeister schaft
ĠGust av
ĠP en
Ġre li
ak i
Pat tern
M en
ĠS dk
ĠV iol
ĠV alley
fass ungs
Ġverpf lich
D en
ĠM ake
ĠR icht
ĠC a
Ġge gebenen
Ġmit tels
ĠLand tag
ĠCas ino
ĠBe handlung
ĠAuf bau
Ġste el
Ġaff ord
g Ã¼lt
Ġ ðŁ
is Debug
Ġs agen
Ġan erk
Ġj ud
app er
Ã¶st lichen
- )
v ar
Ġf lieÃŁ
Ġm ill
ĠK urt
Ġ2 50
ĠInter view
ĠBild ungs
Ġf em
el f
ck len
Ġwel come
Ġbro ad
Ġcent ury
ĠSied lung
ĠNÃ¼rn berg
C R
is Entry
ĠTechn ology
Ġdev ices
brit annien
isEntry Enabled
ĠF air
ag ra
ly wood
rom e
eiter te
Ġhol iday
ĠLauf e
Ġg ave
iz en
Ġunter s
Ġgo als
itte e
Ġocc ur
D ouble
k ts
Ġt ried
ĠM ir
ew ork
Ġ3 7
Ġdeutsch sprach
Ġze ich
fra gen
ĠLeist ungen
Ġentw eder
D irect
T S
ĠE ach
og a
ind ustrie
ĠOb serv
FA ULT
Ġzerst Ã¶rt
o z
ĠL aut
Ġsch le
Ġbet rach
ĠB Ã¤
ĠT imes
ĠL ib
Par ameters
ĠWohn ung
Ġqualif iz
Ġach ie
Ġb itte
ĠM ol
Ġth ank
Ġdem and
ob by
For m
Ġphot ograph
ĠSdk ClientException
I R
Ġim ag
ĠZeit en
ĠKon k
aj a
Ġac adem
ĠgrÃ¶ÃŁ ere
ĠSchul en
Ġhund red
ĠI ndex
ĠR h
ck ing
ĠSch rift
se ud
wor ks
ĠjÃ¤hr lich
f ree
m ack
ĠJ ew
tell igen
Ġpar se
roug h
ĠD ank
Ġj em
rÃ¤ ume
Ġsc ient
ĠgrÃ¶ÃŁ eren
ĠIde e
Ġelekt r
< >();
z ur
ĠF ert
Ġaus geb
ĠAuf grund
Ġob wohl
ĠBern hard
S he
T A
k lass
Ġc lin
ĠM ission
ĠP S
ĠN a
Ġman ager
Ġher r
Ġhel fen
Ġbek annten
Ã¤hn ung
ĠK rank
erk l
Ġstud ies
Ġjob s
Ġdise ase
ap y
atur ing
Ġgen annten
Ġlo an
issert ation
Ġ util
Ġw ine
ĠD VD
ĠF rie
ĠSch e
ĠChr is
Ġeff icient
ĠwÃ¼r den
ĠFer ien
grÃ¼ ndete
t y
er m
Ġaus tral
Ġfin ished
Ġserv ed
Ġbek am
Ġextrem ely
Ġded icated
ĠS PD
io de
Ġchar ge
Ġcover ed
Ġchallen ge
isDebug Enabled
Ã Ĺ
ĠG olf
ĠZ ahn
Ġprodu ziert
Ġdam age
Ġ190 8
ĠPl us
Ġoper ation
Ġbott om
meld ung
f Ã¶rder
al te
Ġn amed
ĠT hr
Ġz Ã¤hlt
Ġersch eint
gy pt
ĠLie fer
emin ar
gent in
ĠDÃ© partement
stell ungs
Ġvis itor
Ġtop ic
Chr ist
Ġw inter
ĠS ituation
Ġf elt
art ige
ĠFrancis co
augh ter
Ġs agt
or row
el la
ĠK en
C ons
F ra
Ġw uchs
ur ts
Ġin f
ĠN ote
Ġgef Ã¤hr
ĠTex te
ĠUl rich
P ER
j ava
ĠLe e
wer te
bo gen
ĠChe f
Ġeas ier
ĠGren z
s itz
is ieren
ar ischen
ĠA wards
ĠW appen
ĠH as
Ġover all
ĠChr on
Ġcertain ly
Ġstra ight
Ġpress ure
e lement
st ation
ĠV ar
Ġk ommun
ov a
Ġass ess
Ġallow ed
din and
G roÃŁ
al led
Ġer fahren
Ġre v
Ġge tr
Ġdr ink
Ġgra de
Ġitalien ischen
ĠÃ¤hn lich
A re
D C
t liche
x x
Ġc amera
ĠW ohl
em por
Ġ19 17
reit en
Ġinternational e
Ġdist ance
Ġob serv
ĠMon at
Ġerw arb
ĠMicro soft
i h
z one
Ġf ill
Ġc op
ĠK iel
ĠMe tern
Ġdar gestellt
Ch ange
Des criptor
ĠL ar
Ġre ference
ĠIn ner
ĠEin trag
Ġprodu z
ĠTr ump
arch iv
ĠTro tz
Ã¼ mer
Ġher gestellt
Ġob j
ĠStud enten
Ġchar acters
Ġstar tete
Ġkomp lett
ĠhÃ¶ch sten
ĠVeranstalt ungen
nes day
Ġdeter min
Ġverantwort lich
I B
p ite
ĠP ast
ĠC ook
ĠN eb
je kten
ĠÃľ berg
Ġdire ctor
Ġflo at
Ġbe yond
ĠOr dens
ĠBes atz
val u
ĠFil ms
umm ary
Ġclean ing
ĠBlÃ¼ ten
m ethod
Ġs at
Ġe at
ad or
Ġi Phone
ĠAut ob
Ġbre it
ĠJac ob
Ġa im
on ia
Ġh il
ĠV iele
ĠJahr zehn
ĠErfahr ungen
D on
M E
ĠM ethod
ĠD et
ĠR oss
Ġl es
ĠOr der
Ġbesonder e
ĠhÃ¶ch ste
cklen burg
D em
c ause
r as
Ġd agegen
sch loss
lic e
form ations
Ġinter ior
ĠMain z
ĠG ene
Ġr ules
ap el
Ġâ ļŃ
UR I
ar ily
ĠB lo
Ġer gÃ¤n
Ġj ourney
Ġab geschlossen
Ġwir kte
ĠAb st
Ġbeen dete
ĠT ore
ic ations
ĠF al
ĠK och
ĠL iter
Ã¶ ne
ver trag
ste ht
ĠRe view
ĠGes am
Ġfind ing
ĠProdukt ions
g au
Ġw ebs
ĠE lemente
Ġmax imal
ĠSchrif ten
Ġnear ly
Ġle er
Ġact ual
ĠLin ien
Ġbenef it
ĠHaf en
H ash
m ail
Ġf ans
ĠL ine
pro cess
ĠPar lament
ĠEurop Ã¤ischen
b al
b lock
Ã ĥ
ĠW unsch
ĠR ub
H aus
ĠS eb
Ġp f
ĠT el
ra ys
ĠR ost
ir us
os is
ann ung
ĠVer halten
ĠEr schein
Ġprogr amm
ĠIhre m
ĠNik ol
Aug ust
Ġc ars
ĠR is
Ġzu erst
ĠOb jekte
part ner
W arn
re hens
ic ul
ĠW M
ĠW ho
Ġzu gleich
ĠVer teid
leg ant
200 5
ĠBar bar
Ġhoch wert
s ol
re f
19 45
hand lungen
Ġs itu
Ġw ert
Ġp aid
ĠP fe
ĠVor der
ĠAll gemein
ĠMos kau
Ġeconom ic
gem eine
O lymp
at oren
de cken
im it
lin der
P lan
t or
u an
ĠK ult
ĠĊĊ ĠĊ
Ġcoun ter
zus tellen
ĠKonz ert
ĠChin ese
B est
c are
e ch
st he
ĠP rag
Ã¶ ÃŁen
Ġ19 11
Al bum
icher ungs
Ġaut o
Ġpop ul
Ġwei b
ĠSchla f
W E
Ġ Ã¶ffentlich
ĠL ot
ĠÃ¼ber tragen
ĠOrt schaft
ĠFlug hafen
čĊ čĊĠĠĠĠĠĠĠ
U ID
Ġs um
ion e
st Ã¤tten
Ġcon stant
ĠAuf nahme
ĠMark eting
Ġmoder nen
re form
Ġres pect
Ġbas is
Ġturn ed
fur ter
D isk
U I
ĠH ig
Ġge mÃ¤ÃŁ
ĠAus druck
ĠBra unschweig
Ġmax im
klÃ¤r ung
Ġestabl ished
frastru ktur
Ġb ag
Ġf an
ĠC ra
Ver Ã¶ffentlich
lev ision
Ġunterst Ã¼tzen
j ob
at re
ĠF ein
ap ers
Ġuse ful
ĠChar l
ĠArch iv
Ġprote cted
Ġf uck
Ġc ast
st ern
be zogen
Re f
ĠKon zer
Un s
Ġmean ing
Bo olean
ĠElekt ro
ĠgeprÃ¤ gt
re ck
ĠH aw
Ġbe legt
ir ge
ber eitung
ph y
ĠFor men
Ġverw enden
ĠMann schaften
ĠBro ok
Ġmult i
v ents
ĠVor aus
akt or
Ġview ed
Ġinvest ment
ĠN ode
pe ctive
p olit
in u
ĠC orn
ĠWor ks
ĠComm ittee
But ton
Ġautom atic
ĠÃĸff entlich
Ġd Ã¤n
ĠB ab
Ġcon cept
glieder t
Ġaus ger
Ġpre par
Ġmov ies
ĠnÃ¤ch ste
F L
ĠW affen
ĠC ard
end a
sp ar
Ġtr ust
ĠHaf t
M ult
Ġh usband
ĠK ath
ĠJ ava
ob ach
ĠComm ission
ĠPap ier
ĠGerman y
as ts
ĠB aus
ĠD ub
ĠLand wirtschaft
ĠTeil en
ĠUnd er
ĠDem okrat
crib e
Ġpie ces
B es
D oc
P ass
ent in
Ġl isted
ĠAd els
Ġfr ame
Ġbel ie
Ġpay ment
ĠLeist ungs
Thre ad
ĠSchaus piel
w el
w riter
Ġw ants
ĠR ap
ov en
Ġsow jet
ĠNord rhein
ĠAustr alien
c ert
ĠB it
Ġp air
ĠD Ã¶r
ĠK andid
be g
Ġsogen annte
Ġ Ä
re y
ĠD arm
ĠL abor
urn ier
ĠAl pen
Ġsh ared
H o
k rÃ¤fte
ĠG reg
ĠR ath
ĠRe port
Ã¤nd ler
Ġdr iver
Ġopen ing
Ġdig it
at te
ĠS up
Ġim press
ver ter
uss ion
Ã¶s ungen
Ġunterschied liche
W ind
ĠR io
ĠV ort
omm od
leg ten
Ġear lier
L C
Ġs y
ĠF ull
pe cts
Ġle itete
ĠWirk ung
fÃ¤l le
hy th
ĠEntscheid ung
ĠOx ford
N ord
ĠF ood
ei ht
ĠBe ge
Ġad vanced
Par ser
200 4
Ġmein en
Ġpower ful
bÃ¼ cher
Ġupd ated
Ġol der
ĠvÃ¶ll ig
Ġg ran
mit glieder
Ġentsprechen den
R ow
j an
Ġf al
Ã¶ff nung
Ġweiter es
bahn hof
Ġfield s
ĠBy te
ĠFrÃ¼h jahr
G en
I OException
l u
ann ed
Ġ8 00
AR T
Ġinnov ative
c en
ĠP age
mer ksam
ser ver
Ġpar ameters
Er baut
Ġstre et
Ġimmed iately
k opf
Ġn ut
Ġg olden
ann en
op old
ĠTe ams
Met adata
Ġsynchron ized
ĠS av
Ã¼r en
Ã¤r ung
amer ika
ĠSh op
ĠEp isode
Ġinstall ation
Ġs icht
ĠL ittle
Sch ema
Ġ190 6
Ġprofession als
ĠDat ei
Out put
Ġgeeign et
ed ition
ĠbeschÃ¤ft igt
Ã ¥
or ganisation
Ġb atter
st at
ĠM ike
Ã¤ b
Ġprodu ced
ĠArbeit er
ĠMon aten
Ġmittler weile
l v
p et
Ġd ining
ie den
ĠK in
ĠW ord
Ġer kennen
Ġse ven
Th ese
ĠKon zept
gra de
Ġincre ased
m Ã¼hle
Ã¤ ger
ĠH ab
ĠC ustom
zug s
c ount
e an
Ġa head
Ġk Ã¼nstler
ĠKap elle
Ġredu ce
i y
m ess
ĠS ir
ĠB ibliothek
ĠIn gen
ĠEin ige
Ã© n
Ġ190 5
Ġdat abase
Ġrespons ible
lÃ¤ss lich
mÃ¶ gen
ĠNe uen
200 3
ĠUr laub
Ġad vent
Ġkein er
ĠMarg are
ĠS oph
ĠP unkten
mann s
Ġdi agn
ĠÃ¶sterreich ischen
Ġmem ory
Ġausgest attet
S ign
p ool
un ehmen
Ġf rag
Ġthe me
Ġc ategory
Ġz Ã¤hlen
os ite
ĠIn halt
ru he
ĠBei de
en kt
Ġa p
Ġp ush
ĠP ed
iert es
Ã¤l de
Ġste ps
ĠKon fl
ĠFamil y
Ġstand en
Ġprote ct
ĠFer dinand
Ġverst Ã¤r
ĠK y
ĠC A
ĠsÃ¼d lichen
Ġlink en
ĠSalz burg
B i
Z w
Ġg ingen
Ġl abel
ĠStr ateg
Ã¤mp fen
H ome
an en
ĠH immel
Ġg ather
ĠAb schnitt
sh aus
Pro ject
Ġber Ã¼hm
B et
M ot
N O
P ool
ar ray
ĠR osen
ce an
iz enz
Ã¤n ner
wert ung
Ã¤ll en
ĠWed nesday
V P
w arn
Ġbe in
ck et
ĠÃ¼ber geben
Ġ4 3
Ġfac ilities
untime Exception
â Ĥ¬
on i
Ġh a
Ġg ren
Ġth read
ĠN omin
Ġsh ape
ĠSÃ¼d westen
beding ungen
ĠS tell
Ġm ode
ĠK el
ĠH oll
lat ed
ĠMag de
Wh ile
Ġre asons
ĠIns gesamt
Ġl esen
Ġcom par
Ġme asure
Ġdr iving
tens ion
ĠGroÃŁ britannien
Ġ ut
ol z
Ġpro ud
Ġsp read
Ġcan cer
ĠLe vel
ĠFor um
Ġpol y
B is
c z
le hr
ĠD auer
Ġsp rach
Ġpr esented
Ġhin gegen
ĠFranz Ã¶s
Ġsay ing
G ew
it ag
ĠF alls
ad ies
Ã¶r ung
por ation
Ġtechn ical
ĠKÃ¼ che
Ġm ission
ĠA M
ol o
ĠK art
Ġl it
Ġshe l
ĠBundes liga
por ts
ic ien
ĠR eb
ĠN Y
id ae
ĠBe ck
Ġmon itor
Pf alz
s ing
z ul
ĠS of
Ã¼n sch
int on
Ġacc ur
Ġart ists
Ã¤us ern
Ġbrit ische
Q ue
c s
Ġc old
ĠH Ã¤user
ĠL Ã¤nder
ad ian
Ġsh own
Ġtrans form
pre ch
schul en
!! !
B el
ĠM ah
ol er
ĠR ena
Ġst Ã¤r
ho ff
gesch rieben
ĠQu al
Ġcomm and
ĠStra f
Ġprof ile
Ġbestimm te
Ġhig hl
kra ine
er te
Ġa ward
at ik
ĠA ktion
ĠH ell
Ġre ader
ste iger
Ġcom ments
Ġro b
ĠWeltk riegs
latt form
ersÃ¶n lichkeiten
Ġa f
Ġw under
ar ische
ate ver
app e
ix el
posit ory
b aden
n t
ch or
Ġa wesome
ĠA ccess
ĠW alk
Ġg alt
ĠL ear
ĠPro perty
ĠPar ameter
kl us
Ġben ach
Col or
Ġkur ze
ĠSib Tr
u um
ĠP ac
id o
En g
Ġmov ed
Ġgleichnam igen
R oot
Ġb la
ĠW Ã¼rz
ĠU t
Ġat tempt
Ġman age
ĠArchite kten
ĠBu ild
Ġach ieve
Ġrequ ires
k u
l Ã¶
an er
ĠS ystems
Ġn amens
ĠAn frage
ost ers
Ġgu y
Ġcap ital
## ##
ĠWeihn achts
Ġverbreit et
Z E
g reg
Ġc ore
Ġh ospital
ĠHe ad
ĠHistor iker
e vent
er em
ĠB oston
Ġge zeigt
Ġfor ce
ĠU se
hÃ¶r den
cre te
arz t
W idth
ĠS ince
ĠC over
ĠN iger
ĠSch ach
ĠSch ritt
Ã¶r ter
Ġexc ited
Ġtats Ã¤chlich
> ,
Ġs up
ĠIn halte
Ġcon vers
ĠThe odor
Ġro of
Ġsec ure
unn el
ĠPer form
Ber g
ĠVerÃ¶ffentlich ung
B ody
C A
Å Ħ
ĠK op
Ġal one
Ġre ich
ĠAuf stieg
ĠFor st
ĠEx ec
Ã¼nd ung
ĠrÃ¶m isch
Ġbeein fl
W el
Ġt ransp
ĠP ader
ag az
Ġse cret
ĠFl Ã¼gel
ĠAnd roid
Ġappropr iate
K lasse
Ġs uffer
ĠH orn
Ġge z
ĠOr ch
kon om
ĠGrÃ¼nd en
Ġlov ely
c raft
w itz
ĠR aj
Ġer stellt
ĠUn garn
ru pt
ho fen
erv ation
set s
Ġdis k
Ġtechn iques
D ollar
S A
Ġ Î
Ġt emplate
ug u
ĠAn al
Ver b
Group Name
Ġc entral
ĠK Ã¼nst
ĠR E
ĠPro te
The ater
Ġtalk ing
or ph
ĠF ant
ra k
ĠJ Ã¼rgen
Ġr ent
ard o
Ġent gegen
ĠAus land
hÃ¶ he
fÃ¤h igkeit
ĠSonn tag
B ook
P lease
j en
ie m
ur st
Ġm Ã¤nn
Ã¤ st
ĠT Ã¼b
Ġl ab
ir ing
Ġkn ew
Ġ190 9
Ġwest lichen
ĠErz bischof
Ġwebs ites
ar in
Ġb ot
Ġsch eint
ĠEn s
Ġqu al
Ġsc r
ĠHam burger
k arten
Ġt ief
ĠS her
ip fel
Ġ5 1
Ġvo ice
t able
ĠC at
Ġl Ã¶
Ġver schw
af ft
Ġqu e
Ġexper ts
Ġmen sch
J ohann
it o
Ġh ers
ĠP oint
sch m
ĠR ab
if ft
ĠSch iffe
iz eit
ĠSp iegel
ĊĠĠĠĠĠĠĠĠĠĠĠĠĠĠĠĠ Ġ
ĠFlug zeug
Ġexist iert
D an
M B
k ultur
or dens
he ute
ĠL en
if el
ĠO tt
Ġfor ms
ĠKon gress
Ã¤hl ten
son sten
ĠEurop ameister
wÃ¤r t
ĠDeb Ã¼t
ĠSchles wig
ro chen
ĠD rit
", "
Ġeven ing
ĠInternational en
plat te
F in
ĠB ade
ĠW ag
Ġal ter
Ġal though
Ġwh ose
fe ct
hand el
heb ung
ĠFak ult
ĠÃĸffentlich keit
e ff
Ġs ucht
ĠS ab
ĠB aby
ver treten
Ġhe ader
Ġhe avy
ĠEr b
ĠSp orts
Ġsh aring
Ġdo ors
ans as
let te
ĠIntern al
Unter nehmen
: .
Ġt it
Ġm ail
ĠK ong
ĠL Ã¶sung
Id s
ĠKommun ikation
Ä Ľ
Ġf lag
ad ow
ri age
ĠTeil nahme
Ġben utzt
ĠMount ain
Ġcas ino
N ov
k es
ĠR oh
ĠN ight
os ing
ĠO ther
sen s
Ġweit gehend
Ġsm ooth
Ġpan el
ĠVirgin ia
c os
ar ia
ĠD etails
Ġh aven
ĠL am
Ã¶ die
stra hl
wend ungen
ĠFil me
ĠKap it
Ġexperien ces
Ġaltern ative
F O
n um
as ks
ĠJ ones
get Type
Ġcompet ition
ĠPrem ier
Exec ution
Ġw rote
Ġp ull
ĠH ot
Ã¶ d
ow e
omm iss
Ġend gÃ¼lt
Ġir gend
T P
d b
Ġf Ã¤llt
ĠM ang
ĠE ur
ste chn
k rieg
v as
Ġt ritt
ĠA ction
st yle
ĠH aar
auf trag
ath an
ĠKon rad
reg ion
ĠHers tellung
ĠfrÃ¼her en
Ġparticular ly
Ġwa iting
t um
it is
it ors
ĠGes ell
fang s
ĠPfarr er
" ));
b aus
Ġf at
ĠD Ã¤n
ĠK ub
ĠL ipp
Ã¶ pf
ĠFahr zeuge
ĠEben e
ĠBron ze
a ub
ĠY oung
ĠStre cken
ĠJack son
ouverne ur
Ġd ish
al bum
em ark
Ġde lete
ĠVer hÃ¤ltnis
Ġ4 9
De f
Par ams
roll en
n or
Ġt Ã¼rk
Ġf ish
ĠA u
ĠK assel
Ġer heb
ere ien
Ġab gerufen
sh ire
Ġfact ory
M ich
P R
Ġle ider
wh ile
ĠTw itter
. /
ĠL ibrary
ĠOr chester
Ġgeb ildet
ĠNord osten
ĠZahl en
ĠErfahr ung
igr ation
Ġerweit ert
P la
en ken
ĠP ot
sp ace
Ġch air
iz z
rie chen
ĠBe ziehungen
co very
ĠTra in
ex ec
ĠLin ks
Ġop in
merk ungen
G u
is piele
ĠB an
ĠF red
Ġl ern
ir n
ĠN ick
Ġst opp
ĠRe public
St yle
Ġsc ene
Ġeinz ig
yl van
ĠMuseum s
erc ise
D own
H al
ur i
ic ial
ĠK ab
ĠL au
Ġj ournal
ĠVer Ã¤nder
Ġcon ference
Ġ5 2
Be vÃ¶lker
Ġfre uen
Ġbig gest
Ġunterschied lich
ĠnÃ¶rd lichen
Ġrelations hips
ĠA rab
ol en
Ġr ank
Ġle it
teil s
Ġze igte
Ġinvest ig
ĠJo e
ĠArchite kt
ĠFig ur
W as
z te
ĠF inn
get Key
ĠEr satz
Ch annel
ĠTod ay
Ġexpl ore
ĠSec urity
k unst
t ten
st ock
ĠD iv
pl Ã¤tze
Ġeigen stÃ¤nd
quire d
stÃ¼ck e
Ġcompon ent
ĠW it
Ġg allery
ot ional
Ġte le
tra gs
Ġger ing
Ġengl ischen
Ġteach ing
ĠSon ne
' )
ĠL ew
ab teilung
Ġun be
ĠWe ge
ĠSte ve
Ġpe ace
Ġacc ommod
Ġprof it
ĠEhe frau
prÃ¼ ft
4 00
ol i
Ġre levant
up date
ust ain
Ġres idents
ĠReg ister
V e
Ġ ueber
ĠB ran
ĠJ a
ĠAn ne
Ġhe im
Ã¤hr ung
ER R
Ġset s
Ġ190 2
ĠBild hauer
hard t
ĠVeranstalt ung
Ġchallen ges
r in
at om
ann ter
gel t
Ġsc ale
cy cl
Ġfollow ed
Inter face
ĠWider stand
ĠWilli ams
u ern
Ġe igent
ĠB asketball
st rom
ĠD adurch
ĠR ose
ĠJ ersey
Ġk auf
Ġvor bei
Ġ4 1
ĠGra d
Er ster
Ġstr ug
Serv let
Vari able
F inal
on ien
ĠD ialog
for mer
onn a
bl Ã¤tter
ĠJo achim
ĠAfr ican
Ġdest ination
M useum
t ok
ĠB art
ig ger
Ġon to
Ġad ult
Ġverb ess
ĠFÃ¶rder ung
ĠSchwer punkt
ĠBenutz er
N ow
n g
w Ã¼r
ĠK ron
burg h
Ġvers ehen
Ġinst r
Al le
Ġsur v
Ġexc iting
Ġsen ior
a ctions
c ore
ĠB ang
est ic
Ġwe ist
H S
am i
Ġan c
af el
we ight
Ġse ch
======== ========
Jahrhund ert
D ur
ĠF ur
ĠE ind
ĠC lick
tr ast
Ġad just
Ġcont ain
Ġbeg onnen
ipp s
ĠBundes republik
ĠHoch zeit
setz ungen
ĠMaÃŁ nahmen
f abrik
Ä Ļ
ĠK urs
Ġge kommen
ĠUn abhÃ¤ng
res ponse
Ġ189 0
Field s
C S
J son
w all
it em
ro ad
ĠL td
ug ies
Ġum ben
ĠPr im
Ġverw and
Ġexec ute
Besch reibung
! )
h ar
Ġm icro
Ġp al
Ġg laub
Ġcom bin
auf hin
ĠFran ken
Ġoper ations
ĠPfarr kirche
Ġrestaur ant
Polit iker
b ungen
ĠD aher
ĠL as
Ġwes entlich
ĠSommers piele
ĠÃ¼br igen
M ore
ã ģ
or gan
el ess
ĠP lÃ¤
ĠK Ã¼n
ĠW ay
um a
Ġl ose
ick e
rich ter
Sch riften
ĠgroÃŁ es
Ġcommun ication
ĠSchl uss
ĠOp ern
s ource
ĠB os
In ternal
fl Ã¼gel
ĠPublik um
Hel per
Ġw ire
ĠB ord
ach ing
irt y
ĠSÃ¼d osten
ĠmÃ¶glich st
ĠP in
ĠIm age
Ġlook ed
Ġgu ests
haf te
Ġstor es
Ġtre ffen
z in
Ġd ienen
ing ham
Ġpar ameter
Ġmov ement
o ul
is ierten
Ġp ow
ĠE ich
Ġer laubt
ĠRe is
Ġbo und
ĠZw eit
ĠOber st
ĠKn oten
ĠRÃ¼ck en
ĠErw eiter
Ġmot iv
E W
F uture
el or
ĠF F
ĠK rieges
iv als
Ġge plant
aus stellung
olv ed
Me ister
liegen den
H ere
U B
ĠP as
ĠC H
ag ers
ĠfÃ¼hr ten
ĠMet al
Ġdeter mine
z ust
Ġn um
Ġto ken
Ġte ams
Ġlie f
alen der
Ġsur vey
value Of
Ġkur zen
Ġruss ischen
M ain
Ġt ruck
st ar
ĠV ern
ab elle
be zeichnung
Ġber uf
ĠDaten schutz
gra f
b ruck
Ġer b
ot ic
Ġcon vert
arbeit er
Ġsee ing
Ã¨ re
Ġrad io
ĠPortug al
H aupt
N or
ĠV ari
ĠV aters
ahr t
Ġcap acity
Ġteach er
zÃ¼ glich
Ġvol unte
bere cht
bewe gung
F unktion
ĠI ts
ĠL it
ĠÃ¼ber haupt
Ġnot ice
hÃ¶r de
Ġpar ams
ĠPr iester
Ġpat ient
ĠRei hen
Ġident ify
I terator
U nd
ĠE du
ĠK athol
est ag
ag a
Ġsch reibt
stand en
Ã¼nd et
Ġsel ber
ĠFÃ¼r sten
ĠEd ward
ĠKom bination
Ser ie
Ġwind ows
ĠBarbar a
A ct
D ocument
ĠS QL
ĠK amer
ĠJ ed
ab ilities
Ġex change
sen z
It alien
Ġneg ative
ĠVorg Ã¤nger
Ġ iron
ĠA S
ĠR ett
Ġan hand
Ġrec ords
ins on
bo olean
part ments
Ġnah men
Ġsoc iety
B O
f it
re c
ĠE qu
ste uer
ĠAn griff
iz ien
Ã¤r ke
row able
Ġpar allel
Ġra p
con text
Ġauth ent
ĠAnton io
Fe ature
Eis hockeyspieler
ĠC ert
ĠThe ologe
ĠPro z
20 19
Ġcomp ared
Ġsc en
Ġbek annte
Ġcol our
Ġcould n
Ġsur pr
Ã¤m lich
Out putStream
č Ċĉĉĉĉ
Ġh Ã¤tten
ent um
ĠH ospital
Ġ19 16
Ġhelp ed
++ ;
ĠLe opold
ĠUnter nehmer
Ġcal cul
Ġhim self
Ġober en
J ul
Ġg one
ĠHer bert
ĠPr iv
Ġadd ing
Ġmax imum
ĠAlex and
lei hung
ĠCoun try
Ġgre ater
Ġsong s
k ammer
r ate
Ġs rc
ĠP ow
ĠI ran
ĠH ug
ĠC lin
aus schuss
ĠSp aÃŁ
Ġ4 7
ett ing
ĠGesch ichten
bau er
reg ister
ĠVers uch
Ġinc ome
ĠRestaur ant
) {
ĠA gr
ĠM ie
gr iffe
ast ian
je ction
Ġel f
Er folge
ĠGener ation
Ġbil dete
Dies er
ĠSicher heits
D AP
k ul
in det
Ġs amm
ĠT ay
ĠK anz
ĠW atch
ĠBe ziehung
Ġbes itzen
ĠQu elle
Ġpl enty
Ġdevelop ing
wirk ungen
al em
ĠS af
Ã¤ ÃŁ
Ġh ast
ent ur
âĢ ¢
Ġl ay
ĠHe ft
N LS
ĠF lag
Ġby tes
ob ilien
Ġsh ot
Ġcomp rehens
ĠLand schaft
iter ator
stÃ¤nd en
ĠCont ent
Met a
ĠPress e
Ġerm Ã¶
ĠJournal ist
ĠBras ilien
Ġ ..
or ation
ĠL ock
ĠGr amm
fÃ¼hr en
Ġpl astic
ĠX ML
Ġrem ote
Ġant i
ĠZug ang
' ,
c opy
Â ´
ĠS au
Ġf le
ĠB ier
Ġent ity
upp er
ĠBre ite
Ġinc or
ĠSam stag
G E
P AR
s ent
ch ild
ar o
ĠV ideos
Ġfor der
ĠVer antwort
Ġ18 80
200 1
Ġgener ally
Ġeinge fÃ¼hrt
ĠFunktion en
Ġnumer ous
Ġapprox imately
mÃ¶glichkeit en
b ing
Ġt schech
Ġs org
Ġp oor
st on
ĠM id
Ġ19 15
ĠU kraine
Ġtra ffic
Ġsc ore
Ġstand ards
Ġpost s
Ġentsprechen de
ĠJur ist
ĠFernse hen
t yp
Ġb uf
le m
Ġf allen
ĠF arm
Ġange legt
ĠMet hoden
Ġpres ident
cel ona
gren zen
Direct ory
W erk
l s
ĠB M
ĠM atch
Ġman chmal
utz te
ĠMed ical
ennt nisse
ĠAst ron
s ur
is at
Ġf la
Ġun its
Ġman ual
ĠAuf ent
... )
Ġfe hl
mitt lung
Ġcrit ical
Ħ ¢
el se
ĠT en
ĠT sch
ĠL iber
ĠRe v
Ġmed ium
Ġlar ger
Ġsl ight
Ġmein em
Ġorgan izations
Ġed ge
l ife
as ilian
ĠT wo
ĠN R
Ġtr ial
ĠPf ar
ĠMon te
ĠIs lam
Ġmain tenance
ĠBew ohner
ĠOper ation
ĠContin ue
ylvan ia
N r
t te
un a
Ġre chten
ite ktur
ession al
Se henswÃ¼rdigkeiten
ĠDurch messer
ĠPre ise
ĠChampions hip
Ġdah in
L age
k ern
ĠK la
ĠN ar
kt ar
ĠAus nahme
Ġber ufen
man agement
ĠSer ien
Ġmag az
T ags
U P
ch ip
il de
ĠP os
ĠP red
ĠW Ã¼r
ĠR uf
ĠL abel
Ã¶ tz
Ġch annel
Ġdurch schnitt
ĠHand buch
OR T
ungsp ro
Ġmaint ain
B Ã¼rger
ĠS ig
Ġc it
ĠD ur
ol is
ĠN ation
ĠSt rand
Ġen h
Ġpop ulation
Ġear th
ĠermÃ¶ glichen
P O
P olitik
R ange
k ur
Ġt on
te hung
ĠA ben
Ġv ierten
Ġbe wer
Ġver kehr
iss ance
Ġqu ant
ĠCam bridge
Ġneigh bor
J ust
Ġc overs
ĠP u
ĠP ath
ĠCh allen
Ġte en
De c
Ġag ree
go ing
Ġvisit ors
bre ak
ĠZwe ck
L iter
b ury
Ì Ī
or ient
Ġ1 10
ĠR ollen
Ġge ist
ĠOr ient
En c
ĠNord westen
Supp ress
D ar
E E
Ġs ources
ar p
ĠS aar
Ġis land
eb all
ĠSp itze
ĠAl ters
Ġges pe
En um
Ġra nd
": "
Stat ement
S QL
in zen
ĠS ak
ĠA L
ĠN un
ill en
ac ing
ath on
Ġinst ant
ĠGew icht
ĠPre uÃŁen
Ġdenn och
Ġintern al
ĠBayer ischen
P res
ĠS ens
Ã¤ ure
ĠE ck
Ġhe ight
Ġvor gesehen
Ġra in
Ġ190 3
ĠSong s
Ċ ĊĠĠĠĠĠĠĠĠĠĠĠĠĠĠĠĠĠĠĠ
an ische
ĠT ax
ms g
ĠTÃ¼b ingen
B as
M ember
k re
re ckt
Ġm ilitary
us ted
ĠD B
ĠN ahr
ĠAm ster
oin ted
akte ur
d h
k Ã¼nd
Ġc ities
ĠM esse
ĠH yp
() ).
sk a
200 2
Ġbuy ing
ĠOl iver
urf Ã¼r
ĠBek annt
L in
ĠH ockey
ĠC ru
fÃ¼hr te
ĠPrÃ¤sident en
KE Y
ĠEngine ering
ĠSowjet union
Ġf ahren
ĠB ir
ĠF reis
Ġ// $
Ġbek ommt
sw ers
ĠMark e
athol ic
" ).
G o
P C
b ell
r un
v y
Ġn Ã¶t
Ġj ur
ĠBer atung
ĠBo ot
Un able
stra ct
Ġart icles
Ġmoder ne
p ost
Ġs quare
an ze
Ġf ein
Ġk ulture
Ġmit einander
Ġde partment
Ġab geb
Ã¤nd igen
ĠFor ce
ĠGer icht
Be im
ĠErw achsen
ĠLex ikon
D u
S G
ĠS tellung
Ġv s
ĠBesitz er
ĠWeit eren
Ã¼ p
Ġc alls
Ġn Ã¤mlich
ĠPro jekte
Ġpr in
Or ganisation
gra ben
Ġfact ors
Ġgemeins amen
Ġprep ared
ĠSÃ¶ hne
it at
Ġf ung
ĠG le
ĠG ang
ĠR Ã¶m
Ġre icht
od urch
Ġman aged
Ġen dete
icher heit
ĠMittel alter
Ġcor ner
Ġeinzel ne
Ġjapan ischen
kathol ischer
Ġinsp ired
' :
h Ã¤nger
et ze
ĠL ED
ĠSch lieÃŁ
Ġse a
ĠNe um
uz z
ĠProdu zent
ĠCont rol
Ġn Ã¤her
ĠM ut
ĠF ro
ĠN ap
ll en
Ġcon figuration
bo den
lam ents
ĠpersÃ¶n lichen
schei det
u i
} ,
Ġw achsen
Ġm ut
us en
ĠD ichter
ĠK ost
ĠSch on
ĠEin richtung
enn fahrer
rÃ¤ ft
co in
ĠÃľber setzung
ĠÂ ·
ĠJohn son
ĠBÃ¼ hnen
Ġsepar ate
ĠHash Map
Ġfab ric
Warn ings
F il
H A
b und
s berg
u ellen
â Ħ¢
Ġa partment
ĠN och
ĠIn fanter
ĠAn spruch
Ġ15 00
ĠFre unde
Ġkeep ing
C ommand
p asst
Ġb rach
ĠRÃ¼ck kehr
I ST
Ā Ā
Ī Ĵ
or age
ĠM ode
Ġer hoben
ĠZ oll
ĠEin richtungen
ĠAuf lÃ¶sung
Ġspe ct
Er st
ĠHoch schullehrer
ĠKan ada
Ġnahe zu
Ġoffiziel l
c ons
w ater
Ġb illion
ĠA qu
den burg
ĠTh ank
The y
Ġtra ding
zeit ung
fÃ¼ gt
Ġlo ans
ĠMot iv
Ġeff orts
ĠUntersuch ung
ĠBeding ungen
ĠF ore
ester day
ĠD J
ĠF Ã¤llen
ĠN on
ein anders
tel n
ograph ische
ĠMark en
ĠMark et
Ã¤tz lich
Ġbesonder en
ĠBevÃ¶lker ungs
ĠGest altung
icien cy
C urrent
c u
Ġe ight
ĠM Ã¶n
Th at
ĠCD U
ĠAngeb ote
Welt meisterschaft
ĠNetz werk
ĠHeraus geber
ĠbenÃ¶t igt
Ġfig ure
Ġw odurch
um pf
ist ant
Ġst ick
Ġex ter
Ġsp rechen
ĠTe lefon
Ġ4 6
Ġtr ug
Ġvis ual
IT Y
ĊĠĠĠĠĠĠĠĠĠĠĠĠ ĉ
Ġcompon ents
ĠtÃ¤ glich
I gn
N OT
v orsitzen
w ettbewerb
Ġr at
Ġsp richt
isten ce
deutsch e
**** ****
H istor
ch o
Ġt aste
ĠV el
ot yp
ĠRe fer
Ġcom bination
ĠNor wegen
Ġmed izin
Ġzwe imal
ĠArm y
Ġregister ed
ĠM Ã¤r
ĠNach richt
imm ing
geord neter
ĠMax im
ĠDistr ikt
Ġelekt ron
K an
or fen
Ġse at
Ġex pression
ĠMar ien
Ġvis ion
ĠUntersuch ungen
afr ika
> <
T od
b ut
d d
h aben
Ġv oc
Ġdie t
ĠK amera
ĠO m
Ġsh ip
Ġar en
fÃ¼hr ten
Ġdire ction
ĠSc iences
Ã¤ng nis
ĠPre uÃŁ
loy ment
Ġsex y
lowak ei
ĠTÃ¼rk ei
Ġb urn
ĠK amp
(" \
Ġbring s
Ġcover age
geord net
Ġsn ow
ĠAustral ian
h art
s ylvania
Ġh Ã¶ren
ĠF lo
Ġex pos
aut hor
ikan ischer
ĠÃ¶ffent liche
Ġbus y
ĠMagde burg
Ġs elling
ed ig
if act
art igen
Ġreg istr
Pol icy
n icht
Å ¾
ĠB uck
ĠM ak
ach te
land es
ĠKl im
Ġ190 1
Ġcolle ct
fort un
ĊĠĠĠĠĠĠĠĠĠĠĠĠĠĠĠĠĠĠĠĠĠĠĠĠĠĠĠĠĠĠĠĠ ĠĠĠ
3 00
V ar
k riegs
ĠG ymnasium
ĠO der
Ġde als
iz iner
Ġsh all
erb ung
verein s
p o
ĠM io
ĠM use
ĠE ber
ĠK ob
ĠW a
ĠV it
av ax
Ġsch affen
ĠAus zeichnung
ĠBo olean
ĠJuli us
ĠHar ry
E hr
c ard
m inton
le vel
ĠC apt
ĠV I
ĠSt ory
ĠO R
ĠZeit raum
Ġopen ed
Ġcent re
Ġumben annt
Ġn av
ĠP M
ĠW ett
ĠAb itur
Ġqu arter
Ġvers uchte
schn itts
Ġmen u
Ġclos ed
Ġcontra ct
ĠT ief
Ġaus d
ĠSe cret
Ġpart ies
Ġke pt
ĠIll ustr
Ġb ought
ĠK Ã¶
ib e
Ġzum indest
Ã¼n fte
At tributes
Ġcor porate
ĠZusch auer
ĠM und
ĠD rag
ĠK lassen
ct ures
ĠRe quest
we iler
ĠBe teil
Ġsh ower
Ġschw ier
Ġem pty
ĠEnt fern
ĠInstit ution
Ġhistor ische
rÃ¤n k
aliforn ien
Ġsett ings
Ġdr ug
ĠBereich en
8 00
Ġc ache
we ge
ĠSp itzen
ss on
ĠBer icht
wahl en
ĠKr ist
ĠJe ff
Ġfant astic
d on
Ġd aughter
if iziert
Ġsch reiben
ĠBar on
Ġ189 5
Ġstell vertreten
Ġpaint ing
B ad
n ight
v ollen
us sen
Ġc ivil
gen Ã¶ss
ew ay
ry st
ĠWh y
Ġ190 4
P latz
S earch
l ight
Ġb ess
ĠB ase
im en
ĠE ffe
ĠBe aut
In nen
ĠLe ute
olog ischer
ink en
piel en
ĠNor mal
Ġbra in
Ġve get
Ġbirth day
ĠPader born
p her
t own
t arget
u ters
ĠD iffer
im ation
ĠK ardinal
ĠW Ã¤r
Ġl ernen
th aus
Ġch ain
Ġgew Ã¤hr
Ġ189 9
Ġkon zentr
ĠÃ¤ uÃŁ
Ġeinger ichtet
Ġadvant age
g ot
k Ã¼rz
r iss
s ite
ent lichen
ĠIn nov
Ġres erv
Ġtest ing
Ġzie hen
Suppress Warnings
K urz
j ew
Ġr ing
Ġr ub
iz ont
Ġfe aturing
ator ium
far ben
Ġexpert ise
ĠNeub au
Ġphil osoph
P L
T ube
r aten
ĠA achen
ĠH arr
Ġver ur
Ġpr incip
ata illon
Ġstud io
zie ht
Ġengine ering
Ġnomin iert
r ical
Ð º
ĠP ie
ĠJ agd
qu ery
je kts
arb on
ex it
Ġsex ual
ĠModer n
ĠColumb ia
m essage
Ġd eine
ĠS ymbol
ĠO pp
ell i
Te am
ĠBar celona
legen heit
ĠDan eben
u v
ĠH ay
ist ischer
Ġzu k
ĠEr folge
Ġ18 70
Ġent steht
ĠQu er
Ġ189 6
ĠHotel s
ĠRath aus
f alt
g ow
h s
ĠL ady
Ġtr uth
Ġber ichtet
ategor ies
Ġsozial en
Ġerinn ert
rup ted
t ml
ĠC ur
Ġfor eign
Ġloc ations
ĠEng agement
Ġinit i
lÃ¤nd ische
denkmal e
ĠObserv able
ĠFakult Ã¤t
ĠW y
ste dt
Ġknow s
sw ahl
ĠerklÃ¤r te
ĠArn old
Mill is
D aten
o ted
or ia
ĠL ein
Ġmin ute
Key s
ÃŃ a
Ġflow ers
ĠParte ien
ã ĥ
al tete
ĠT rÃ¤ger
im ens
ĠF ac
ik ing
ĠU fer
Ġle ather
alt y
ĠFahr er
Ġwalk ing
ĠMex ico
r Ã©
in tend
ĠK a
ĠK am
ĠFor mat
anz ig
Ġra re
ĠGroÃŁ e
ĠGed anken
prÃ¤sent anten
Ġnov el
p le
Ġex ercise
her zog
Ġsh ipping
Ġtr ifft
ĠSte phan
so ap
199 9
Hol stein
ĠFeuer wehr
ĠNationalsozial ismus
Ġnied r
A V
O UR
P anel
z iger
Ġd ance
Ġs in
us es
ĠT Ã¶ch
ĠF Ã¤h
ĠF ootball
ĠL angen
Ġre ality
Ġj ew
ĠRe de
âĢľ ).
ĠMe chan
wer den
ĠOb wohl
ĠCon ference
lig isten
ÃŃ n
Ġbr ight
Ġoper ating
Ġerz Ã¤hlt
ĠLeicht athlet
v ice
Ġd ou
Ġb on
ur ers
ic us
em it
ĠVer st
ĠInd ivid
stru ction
ĠEntw urf
ĠFrei heit
ĠEigen schaften
ĠGesund heits
gestell ten
zÃ¤hl ung
ĠWies baden
Ġacadem ic
W irtschaft
k urs
m aschinen
p ot
Ġin g
ra c
ĠE le
ĠVer gangen
ĠAd el
ĠGra ph
Ġho her
ĠRund funk
veranstalt ung
F alls
I O
Ã ª
le bt
ĠM P
ĠĠĠĠĠĠĠĠ ĠĠĠ
ĠK ent
ĠC EO
ul ate
Ġre place
Ġde te
lic ken
ĠDe ck
Ġinter pret
ĠBÃ¼ hne
ifest yle
an ie
ĠB ert
ĠM ord
ĠL etz
aus gabe
ĠOr tes
Ġbeg innen
Ġsupp orted
Ġtro ub
Ġdist in
Ġeduc ational
rÃ¤n kt
Ġwatch ing
Ġren ov
iw od
ĠOrd nung
T emplate
Ġv en
Ġc e
Ġbe coming
Ġl i
Ġver gangenen
Ġle aves
ĠZu cker
ĠInst all
Ġbal ance
ĠTenn is
ĠverfÃ¼g bar
Ã «
ĠB row
Ġc ream
kt op
rÃ¼ cke
Ġper haps
Ġet abl
Ġstark en
Ġengl ischer
Ġseek ing
D ialog
w uchs
ie fen
Ġw idth
al and
Ġle aders
ĠEr ich
Ġch anging
Ġunter sch
Ġ5 6
app y
Ġbet rieb
ĠGeb urts
Ġdr am
Ġrem ain
ĠBen ed
n i
Ġs Ã¤m
ung er
ĠE arl
ĠR ol
ein heit
ĠAn lagen
Ġmark ets
Se quence
ĠMad rid
Ġaud io
ĠKranken haus
ĠAmster dam
w idth
ĠS ender
Ġin n
sch uhe
ĠIn itiative
ub il
ĠAm b
ĠStud ie
ĠX X
ĠMet rop
fre und
f ir
Ġs inn
st ad
ĠK ommission
ĠL uf
ĠSt ore
ĠKl ima
Ġeigen es
ĠSchl Ã¼ssel
Ġfocus ed
Ġjoin ed
ziehungs weise
Ġbenach bar
P o
s b
ĠB io
st anz
ĠSt imme
ĠVer dienst
ĠEin heiten
upp en
ĠCan adian
Ġentwick eln
ĠBro ad
ĠBrÃ¼ der
Ġland wirtschaft
ĠGeist licher
Ġdoc uments
Ġf eder
ĠM ember
ĠL ike
ack en
ĠAl k
Ġgen ug
En gl
ĠHel mut
ĠGren zen
ĠFig uren
ĠprÃ¤sent iert
g ungen
h ou
st Ã¤d
ĠF ab
ĠSt ream
ĠAr r
St ar
ĠSe kunden
Ġ9 9
gesch lagen
ĠFre izeit
ĠFrank furter
Ġcour ses
ĠComm on
ĠJapan ese
ĠOs car
App lication
Ġindustr ial
J uni
Ġh ook
em ed
Ġan schlieÃŁ
ĠAn f
Ġbest ritt
Ġgener ate
ĠkÃ¶nn ten
Stra ÃŁe
o ben
z um
ar ina
as i
ĠG it
ĠZ y
ĠAn forderungen
Ġbis lang
ph a
reich er
Ġ5 4
AN D
ĠTer min
has Next
Ġinde pendent
Ġerforder lich
histor iker
resp ond
Ġd inner
Ġp ul
ach us
we il
ĠOr ten
Ġverschieden er
R S
b uffer
x ml
Ã¼ gt
Ġh off
ĠT ats
ĠP anzer
ĠW en
Ã¼r zt
Ġun er
ĠÃ¼ber w
Ġvor aus
ĠWe ek
hÃ¶r igen
Ġcl oud
ĠSan kt
ĠLauf bahn
Ġprep are
ĠUns ere
C an
W rapper
ĠM ajor
ĠK im
ĠFre itag
ĠRes ult
ĠMich igan
ĠGegen wart
ĠAntw ort
B ere
in it
Ġw al
ĠT aschen
ĠP ok
ad ing
est amp
Ġle gend
ĠÃ¼ber sch
Ġspe ak
Ġgener ation
Ġcontin ues
ĠNutz er
ĠschÃ¶ ne
e ur
i ot
Ġf ailed
ĠM isch
ter y
Ġl en
Ġan gesehen
Ġcon temporary
Ġhelp ful
Ġvis iting
beding t
Ġgemeins ame
ĠWÃ¼rz burg
R T
t x
Ġm ist
ol ogen
ĠF a
Ġst one
Ġr u
ĠCh ief
Ġsu it
Ġshow ing
Ġcommun ities
ĠFernseh serie
h es
k la
ch ern
ol s
ĠF ord
Ġun gefÃ¤hr
ĠVer letz
iss es
ĠGu ide
Pre fix
ordin ate
ĠTab elle
VAL UE
Constra ints
S ettings
es k
ĠS yd
Ġc red
Ġsp lit
Ġqu otes
fÃ¼hr ungen
At om
EM ail
Ġt oll
Ġg ay
ĠL orenz
zen en
ĠMe cklenburg
Ġpla ced
ĠSc ot
Inter ior
Ġengl isch
Ġteach ers
Ġsatis f
K ompon
Ġw eder
st ab
ĠE N
ach s
ĠJ im
Ġun ge
Ġev idence
ommen ded
ĠzurÃ¼ck ge
Ġgu ess
ĠInter essen
Ġdiscuss ion
R Ã¶m
S cript
re w
Ġm sg
ĠA C
we ist
vers icherung
gest altung
ĠDon au
ĠEm il
Trans action
ĠrÃ¶m ischen
Ġkathol ischen
M M
e f
Ġo st
Ã¶ z
os h
Ġapp lied
Inst it
M apping
ĠB och
ĠK ais
ĠH um
Ġinst alled
Ġwel chem
ĠLei den
ĠSchn itt
Ġfil led
ĠDipl om
d el
al o
ĠGe gner
mar sch
ĠSchn eider
ĠFle isch
Ġgelegen en
E Class
is lat
Ġm essages
ĠT H
im ents
ver tre
Ġr ide
Ex p
zeich nen
ĠGes ang
grÃ¼nd ung
leb nis
Ġmiss ing
is oden
Ġb rief
ĠH erkunft
um ps
ĠSch reib
ĠSp ace
ĠOn ce
S eine
a al
ĠR on
ĠStud ies
Ġnational en
Ġautomat isch
ich ern
ed om
ĠW urz
Ġauf gelÃ¶st
ĠSch ei
ĠAr thur
ose x
ĠMathemat ik
ĠMey er
w urf
Ġb ird
Ġbe ziehungsweise
ĠV ors
Ġst Ã¤dt
Ġauf gestellt
ied elt
yn ast
Ġmin imum
Ġ189 8
Ġprocess ing
ĠForm el
ĠStÃ¤d ten
Ġmittel alter
ĠGovern ment
* (
F ranz
p an
r uss
re es
Ġe he
ap h
ĠVor stand
ĠMin i
ĠHol lywood
Ġausge fÃ¼hrt
Ġplan ts
ĠjÃ¼d ischen
ĠQualif ikation
ĠVictor ia
ĠlÃ¤ uft
Ġfem ale
A v
F ailed
l Ã¤nge
st one
ic ies
ik es
ĠIn frastruktur
Ã¤nd ige
olog isch
ock en
ĠWelt meisterschaft
let ten
ĠAs ia
Ġnor weg
log ger
ĠMein ung
schlÃ¤ ge
Ġafford able
S l
ĠK affe
ĠL eder
Ã¶ gel
ert al
Ġj son
Ġwas te
Ġdo pp
teil ungen
AT A
ĠSk y
ĠProf il
ĠBahn strecke
Ġtre es
Ph il
Ġdet ailed
b ahnen
ĠA le
Ġk o
ĠSt unde
ĊĠĠĠĠĠĠĠĠ ĊĠĠĠĠĠĠĠ
ay ern
Ġus w
uss y
Ġmar ried
ĠgegrÃ¼ndet en
Ġfoot ball
ĠVergangen heit
D ay
S ep
Ġs orgen
ĠM i
ĠH eb
em ann
Ġbe ant
ct ural
ial izer
Ã© t
Ar g
ino is
AL L
Ġann ot
usÃ¤tz lich
AB LE
ĠÃ¤ltes te
T O
v ens
Ġt empor
Ġl ights
Ã¼r f
th en
Ġse ctor
ĊĠĠĠĠĠĠĠĠĠĠĠĠĠĠĠĠ ĠĠĠĠ
ret ch
Ġstar ts
ĠVerlag s
Ġconne cted
st um
ig s
sch le
ĠC op
ste igen
ungs ver
Ġsp ons
her ren
ĠCh am
ĠAb t
ĠAug sburg
ĠStra ÃŁ
Ġur kund
plat ten
D igital
ĠB om
ĠG riechen
ĠN umber
Ġne ck
Ġpar am
ĠInd ien
Ġklein ere
AC K
Ġpark ing
ĠKÃ¼n ste
B en
D ire
u u
Ġd ank
ĠV Ã¶lker
ĠAn trag
ĠFl ucht
ĠGra z
ĠBo y
Ġdec ide
ĠAs ien
Ġlearn ed
ĠSchn ell
Ġzust Ã¤ndig
ĠGespr Ã¤ch
chip karte
achus etts
. ).
E P
w as
Ġb lieben
Ġauf gebaut
ĠThe orie
In formation
Re chts
ĠMÃ¼n chner
ĠDes halb
Ġtop ics
ĠSm all
ape ut
ĠWieder auf
ĠPier re
ĠOh io
Ġcomprehens ive
w ich
Ġa gency
st il
ĠM S
ĠD og
Ġk id
ĠGesch le
IN T
urop a
ograph ic
Ġfac ility
verkehr s
Ġprevious ly
ĠHalb finale
ĠbestÃ¤t igt
K l
Ġs ister
ĠP el
ĠH amm
ĠL ow
Ġl ibrary
be an
ob j
eben e
Ġange gebenen
ĠDort mund
lÃ¤nd ischer
Ġhappen ed
O st
Ġm ess
ĠG all
ĠK itchen
eb urg
Ġde fe
Ã¤n k
Ġind ic
ĠWar en
ĠFil mp
esent lichen
Ġfav our
P al
W il
g yp
k ins
Ġf ear
ly n
Ġdo ctor
ask a
ling t
Ġbesch reibt
Ġdirect ory
Film ografie
ĠSec ond
Ġreli able
c ious
h ops
ĠJ enn
Ġver urs
ip end
Ã¤t t
Ġsh ap
Ġother wise
iqu id
ĠMann schafts
ĠChe mie
Ġlaw s
ĠAfr ika
Ġm aÃŁ
Ġp assen
ĠIn ns
ant ic
ĠHaus es
Ġveh icles
zuf Ã¼hren
mot or
ĠEar th
ĠRost ock
L ook
M essages
f els
ut ch
Ġk g
la ut
Ġr ental
od a
schaf fen
ĠMar i
val ues
Ġgest altet
Cont rol
Ġcommit ted
ĠLoc al
Ġabsolute ly
ĠCost a
T our
g reif
or i
st ers
ĠL Ã¤nd
ĠMich el
Null able
R uss
Ġb ist
Ġdie d
sch uld
ab end
grÃ¼nd er
med izin
Loc ale
emb ly
Ġverhinder n
ĠMatth ias
L en
Ġs ter
or ney
Ã¶ se
Ġver legt
ĠIn formations
ĠBe am
par ent
werk en
ĠEl iz
Ġpract ical
Ġklass ischen
Acc ount
a ktionen
r asch
Ġ ice
le ts
Ġp latz
st atus
de gang
ic ians
Ġum geben
ĠNe ust
ool s
akt oren
Ġbedeut end
ĠSÃ¤nger in
ĠWo iwod
Gra ph
Europ ameister
Ġbehand elt
P RE
X ml
or ien
Ġo k
ĠB itte
Ġbe comes
ĠEin kauf
ĠPar laments
Ġreg ional
uck s
unn y
199 7
haf ten
Jahr en
Ġappear s
ĠEing ang
or b
re place
Ġp m
ĠGew alt
Ġvol ume
Ġeb enda
K irchen
a ver
o ter
ĠS ud
ĠH em
Ġer zeugt
ann i
ĠIn v
Ġtr end
Ġspe zial
An halt
leg entlich
ĠPr int
ific ations
Ġletz ter
Ġinspir ation
Ġf ot
âĢ ĭ
Ġent schied
fen ster
ons erv
ĠQu adrat
ĠFre ien
Ã¼t ze
ĠRo om
ĠTer rit
cont ent
gorith m
F OR
ĠS endung
Ġc row
ĠT ob
ĠK eller
Ġk l
Ġge plan
Ġar range
Ġtra f
fin der
arbeit ete
kauf t
Ġgar age
ĠKomp osition
ĠjÃ¼n ger
N um
y ball
ĠB latt
Ġc os
ĠF ast
Ġver f
qu enz
ĠAr men
ord net
Ġen able
ĠGe fahr
... ]
pro p
Ġend lich
Ġsom ew
Ġzun ehm
ĠRegion en
Ġpract ices
ĠDat um
Ġenvironment al
Ġpriv aten
c les
Ġd oll
Ġl auf
ah a
ell es
art ig
Ġ18 48
Ġ8 5
Ġ: )
Se le
Se gment
Ã³ w
fass te
ĠTer r
ĠLu c
ĠGar den
Ġaud ience
Ġspan ischen
Ġdom ain
ĠTÃ¶ch ter
F ahr
W or
o ire
ĠC ro
ak on
ger Ã¤te
lo aded
ring t
ĠWe ber
ex p
ĠCl ient
Ġfre ien
riter ia
check ed
B re
ĠI nde
ĠE M
Ġunter en
ĠKÃ¶nig in
ĠWeltk rieges
ĠViel zahl
Ġassist ance
A kt
C ap
H P
j u
y t
ĠS earch
ĠB Ã¼r
Ġc ells
Ġer lang
Ġsc ript
Ġsu itable
ĠBuch st
urren z
Ġcombin ed
Ġzunehm end
D om
J apan
k amp
s ession
v ater
ic ian
ĠF rieden
Ġein schlieÃŁlich
ĠH ave
Ġj u
ĠBe cause
reu ung
ar ks
Ġc up
ĠT ake
ĠK Z
ĠJust iz
ĠTay lor
V I
f ranzÃ¶s
s ichts
ĠR oten
Ġbet roffen
Ġbas iert
ĠGrÃ¼nd ungs
Ġrun s
S m
e per
r ics
Ġs qu
as tern
ĠK Ã¶r
ĠH ey
Ġver geben
Ġj ack
igh ted
Ġper man
ĠGer Ã¤te
ĠWir ken
Ġnotwend ig
o es
s st
is tern
ĠB le
ro h
ĠM aus
ĠD issertation
ra uf
Ġre pe
if orm
ĠZ erst
Ġle aving
ĠÃ¼ber nehmen
Ġgu est
Ġenjoy ed
> )
C or
T C
p ie
Ġs it
st arts
ic er
ĠG allery
ĠE ff
ĠK G
ĠK Ã¤
ĠL ag
get Id
Ġso unds
ĠBe at
int age
Ġexper iment
Ġklein es
199 8
ĠPort al
Hand lung
ĠDem oc
ĠItal ian
Ġrand om
C ert
Ġ icon
Ġw inning
ber icht
ĠThe ologie
Ġad ults
Ã¤l le
LA SS
penden cy
ĠAktiv itÃ¤ten
on st
Ġb ur
ĠD un
ol as
ĠE ugen
Ġzu g
Ġaus ges
Ġ18 60
ĠTh read
Einz el
Ġcons umer
Ġverb indet
ĠMann heim
ĠMod elle
Ġhapp ens
Reg istry
J ahre
S uch
m aschine
r amm
ĠS ul
un Ã¤chst
Ġf Ã¶rder
ĠN ie
Ġis ol
ĠSch ott
ĠRe form
me ter
ĠGe gend
Ġthere fore
ĠMin ute
Ã¼t ten
Ġerh ielten
Ġadv ance
Ġverpflich tet
C la
e v
n itten
s ein
ĠĠ Ċ
an es
ĠD ist
ul ated
iel l
imm ungen
bes itz
Ġschw eren
hol m
ĠKont rolle
Ã¤mp fer
ĠKarls ruhe
Ġbetrach tet
Ġbein hal
T im
m or
z ell
it age
te am
ĠB our
ĠB lan
Ġp ray
ent ially
ĠK up
Ġg ain
ier end
Ġk os
ess in
ĠÃ ł
Ġgr unds
Ġeinz igen
ĠPlan ung
ĠG anz
ĠH Ã¼
ir ts
Ġre form
ot ton
Ġab ger
ĠEin sch
lat es
gesch windigkeit
ole c
ĠSh ort
ĠVerb esser
Ġ189 7
ĠHerr n
ĠBrÃ¼ cken
Ġfa ith
ĠÃ¤lter en
miss ions
Ġt ickets
an th
Ġf ruit
ĠH ong
Ġ20 22
ver lÃ¤ss
ens es
Ġrem aining
Ġtechn ischen
Ġzie ht
ĠUms etzung
ĠHug o
z ern
ã Ĥ
ä ¸
Ġe legant
ro ph
Ġc ultural
ĠD oug
om er
qu er
ĠOr den
Ã¼ck en
ĠFl Ã¤chen
ĠFl Ã¼cht
Ġob vious
Ġra w
Ġfre und
Ġval u
ĠHil fs
Ġing red
: :
W ill
d ach
is or
get reten
lin s
utz ung
ĠUS S
ĠBl ues
Ġerst reckt
Ab sol
Ġeconom y
l ik
ĠS ort
Ġn ennen
ĠM auer
ĠF ox
Ġan swers
ĠSt ill
Ġent schieden
Ġget ragen
stra ÃŁen
Se e
Ġoffen en
ĠPac ific
M em
a ult
m acher
Ġwor ry
Ġreturn ed
ĠWe gen
ĠEd el
.: .:
Ġadmin istr
Ġintrodu ced
Ġspeziel l
ĠImm obilien
J ohn
i ors
o use
r us
le hre
Ġf uel
ĠB Ã¶r
Ġein iger
um es
av or
we et
Ġunter wegs
Ġ5 3
Ġrec ipe
gesch oss
ĠPr ince
ĠGu ard
Ġsmall er
Ã¤dag oge
Ġpriv acy
Mat rix
Ä ĥ
ĠS E
ter t
de hn
ĠH ack
Ġbe grenz
ĠV ie
id i
au ert
end o
Ġat tribute
ĠGemein der
Ġfl ight
Ġworld wide
Ġtrans action
Ġwicht igen
iam i
Ġbrand s
Ġrestaur ants
R est
d auer
ĠW ales
lich em
Ġwh atever
ĠLe hre
inn es
Ġerw artet
Ber eits
ĠGeorg ia
ĠEngl isch
Ġmajor ity
ĠMex iko
Ġextens ive
Ġchines ischen
ĠEdu ard
p aar
in us
Ġa ware
Ġs orgt
ing t
Ġc ir
ĠV iet
Ġaus reich
Ġaus gesch
ak ademie
Ġ/ >
Ġserv ing
ĠGesch ichts
Reg ion
mod ell
ĠPlat ten
wirk ung
ĠVen edig
ĠWhe ther
F ried
Ġb rown
Ġin nen
ol ge
ĠT emplate
ĠR uh
ies e
ĠYou Tube
ĠCo ast
Element s
ĠzusÃ¤tz liche
ĠBook s
Ġhon est
ĠschÃ¶ nen
Ġexcl usive
Ġconven ient
f ers
Â ½
or ry
ĠĊ Ġ
ger Ã¤t
ang le
Ġch amp
ens us
ss ystem
Ġapp oint
ĠGesch mack
ĠGemein schaft
acht ung
Ġseit dem
Ġbel g
Ġfun ctions
Ġsign ed
trÃ¤ ger
ĠEner gy
prÃ¼ fung
Ġanim als
m i
us alem
de fault
Ġan genommen
ap os
Ġcomp are
Ġdar aus
Ġinter face
RE E
Ġspec ies
index Of
P aul
S ingle
ĠS oll
Ã¤ udes
Ġre chte
ĠZ ul
tr ich
ĠAn aly
rit ing
Ã¼nd en
Ġass ert
On ly
Ġlight ing
ĠAnt i
Ġconc entr
ĠGal ax
adel ph
Ġmention ed
ĠSeb astian
U ri
b ein
k ow
st amm
pt on
ĠRe f
me er
Ġstark e
produ ktion
Ġhous es
ĠIngen ieur
z ellen
Ġt ail
re h
Ġb ayer
Ġm ort
Ġc art
ĠM assen
ĠK rie
Ġex amples
Ġwir kt
rit iker
Ġunter halb
fen se
ĠInternational e
ĠInns bruck
ul ations
aus end
Ã¶r ungen
Ġzw eiter
ĠRes ource
B I
C ommerce
D ig
K irche
Å Ł
Ġr uh
ĠSch uld
ĠHe ktar
sh ot
ĠGer Ã¤t
ĠAut hor
Ġdeutschsprach igen
M art
ĠB oth
ĠC reek
zeit schrift
Ġbeen det
Ġges ucht
arb y
ĠBundes staat
Ġbr asilian
ĠGrÃ¼nd er
iar den
D ER
M O
h ire
Ġe ating
Ġp ump
Ġl abor
ĠZ o
ĠSch ne
gel s
ph ones
yste men
ĠAm ateur
ĠSchw ier
Ġmar riage
ĠBesch Ã¤ft
Cre ate
Ign ore
H O
Ġb auen
ur ies
ĠK urfÃ¼r
Ġzu geordnet
ĠMar burg
cl ub
b rand
f aces
h at
Ġ Ã¶stlichen
ĠB rad
ber ry
Ġst yles
ast rop
Ã¤r ten
igt es
Ġra ised
bach er
Ġnor m
ĠAir port
ĠTab ellen
Ġwissenschaft liche
S ome
f irst
i Äĩ
Ġ upper
re ht
as p
Ġin tr
gr Ã¶ÃŁe
Ġme ant
Ã¤r m
ail and
fol io
ĠRuss ian
Ġestabl ish
bour ne
Ret urn
Ġbehav ior
fortun ately
k ar
Ã ¯
ĠT y
ir urg
est and
ĠVer stÃ¤nd
sp recher
get Instance
aw n
ĠGeb rauch
Ġperform ed
ĠSouth ern
ĠKo operation
iate ilnehmer
Ġmass ive
omet ry
Ġagre ement
Ġadvert ising
Ġtemper ature
ĠThÃ¼r ingen
D el
E very
K o
P ress
m ach
z ert
z unehmen
on line
ĠP ots
we ich
ĠDie ter
lie ger
In ternational
act or
ĠStud ent
ĠJuni oren
wohn er
ocol ate
ĠCor poration
ĠTor onto
ĠAng st
Ġinj ury
ĠRou te
Ġlux ury
ĠPerform ance
I X
J anu
d est
ch a
Ġs ustain
an isch
un es
ĠA sh
il ige
ĠG ot
ĠK alk
ht ml
ĠCh air
oun ted
geb nis
Ġges ellschaft
ĠOn ly
ret ung
Ġ189 3
Ã¤mp fe
Ġthough ts
Ġstrateg ies
ĠGef angen
ĠWoiwod schaft
C L
F S
ĠA x
ĠM B
ĠR untimeException
Ġbe zeichnete
Ġy outh
ĠEr ste
ult y
ĠBr uch
ĠMin eral
Ġbra ucht
K W
te en
ĠM iddle
Ġsch rift
erk ennung
con stants
RE S
orben en
Ġjem and
ĠS yr
Ġver Ã¤ndert
ĠRe z
get Property
Ġdis app
Ġshe et
unter richt
mus iker
ĠPla ce
Ġelect ronic
; "
S u
i Ã³n
ĠW Ã¼rttemberg
ĠN at
ĠN avy
Ġvor gestellt
Ġad apt
ĠAuf nahmen
Ġrec ommended
Ġacc ident
Ġreg istration
Ġange zeigt
isc ons
ĠerhÃ¤lt lich
ĠunabhÃ¤ng ig
( _
J Ã¤hr
u ber
w Ã¤l
z usch
ĠM all
ĠD ollar
et he
ĠL ern
Ġl ayout
ĠN ah
ĠJ ord
Ġver n
lic ations
Pro f
ĠmÃ¶glich erweise
Ġaccess ories
Ġocc asion
urren cy
ĠflieÃŁ t
F iles
b n
y ard
in formation
Ġs izes
Ġv illage
ĠT ree
ĠE UR
ĠR al
ĠN az
ĠJ ungen
ĠSch ild
out s
ĠKunst stoff
trag ung
Ġaufge fÃ¼hrt
ĠMinister prÃ¤sident
Ġwissenschaft lichen
ĠLOG GER
ti rol
agaz in
B ag
c omm
r ia
ĠB in
ĠE conom
St iftung
Ġhier bei
Ġcre ation
He ight
199 0
stre cken
ĠMitglieder n
verband es
National mannschaft
ĠerhÃ¶ ht
ĠUnabhÃ¤ng igkeit
B undle
] )
el ing
st ore
ĠK rÃ¤
Ġr an
og ie
Ġbes aÃŁ
Ġ9 5
mit ted
Ġber Ã¼cksicht
Ġviel fÃ¤lt
jahr es
riter ien
sta aten
best and
opt ion
fÃ¶rder ung
ĠDÃ¤n emark
h av
ĠD ig
ĠK alifornien
ĠR he
ĠV ill
Ġst ack
Ġst yl
ĠZ ivil
Ġ" ,
Ġunter scheiden
ĠSe a
ĠTra um
ĠKÃ¼ sten
Ġport ugies
EC T
ĠÃ¶sterreich ische
ĠColor ado
Zw ischen
l iance
on ic
re tt
as ien
ĠF ans
ger y
ĠSp recher
ual itÃ¤t
ĠAll tag
ĠCon gress
Ġcl imate
Ġgu itar
unkt ions
Ġgreat est
Ġ188 5
Y our
k w
ie ht
ĠM ade
Ġdes igner
ĠEr ic
etz ten
rÃ¼ st
ĠWe il
Ġapp s
Pro zent
setz te
h arm
re land
Ġm ine
ĠD inge
Ġas pects
ph ase
Ġda ÃŁ
ĠBre mer
Ġtot ally
ĠAndre w
Ġtrotz dem
< >(
R o
ĠA D
ent hal
ĠT i
ic ans
ĠH Ã¼gel
ĠCh ance
Ġimport ance
ĠAlt ar
ĠKÃ¶l ner
Ġhinz uge
ĠBach elor
itar re
Ġextens ion
Frank reich
ĠPenn sylvania
Ã¤ fte
Ġdes k
art ier
ĠAn gabe
ob ject
irt ual
ĠBau werk
ĠIns eln
Ġcr is
ĠDis ney
ĠSen ior
ĠQue en
A bst
O pen
a a
ĠB il
ĠB res
ĠN u
Ġan imal
ĠSch aden
Ġsp ann
In itial
Ġ5 8
igh ter
// //
Ġdel icious
ĠKn ow
S ein
k Ã¶rper
Ġ Ã¶rt
Ġp urs
ĠM obile
ĠW ik
em burg
20 20
ans ion
Ġbeg leitet
bin sel
Ġcompet itive
Ġdistr ict
ĠHei de
K om
ĠM obil
Ġein getragen
ĠK Ã¶n
Ġto ward
sch irm
ĠSt ift
00 00
Ġsp Ã¤ten
atur en
Ġfe e
ĠMan fred
ĠBes etzung
Ġander es
199 6
Ġerr ichtete
Ġrelig i
ĠDarm stadt
adelph ia
t im
ĠD C
om it
ĠL A
Ã¶ ten
Ġer mittelt
Ġcon crete
arr ier
ĠRo hr
ĠEntwick lungs
ĠCor ps
Ġkind s
ĠKommun al
ĠMehr heit
deck ung
seit ig
c ohol
in stit
le ute
od ies
age l
Ġor g
are tt
ĠAus einanders
Ã¼n sche
Ġ5 7
Ġag ent
Ġgr id
Ġbro ther
Not Null
Dat ei
ĠOrch estra
T L
ĠD ynam
Ġein geb
Ã¶ tet
Ã¶r g
Ġte ils
Ġcont ainer
gesch Ã¤ft
Ġmost ly
mÃ¤ÃŁ ige
Ġkom bin
Ġverste hen
Ġcabin et
ĠMik ro
or ff
re ffen
Ġm ale
Ġp utting
Ġc urr
ĠK il
ĠH alt
Ġg Ã¼lt
ver zeichnis
ob el
ĠEurop as
Ġbuild ings
wor th
Pe ter
Cal endar
ĠMom ent
Ġhundred s
Ð »
ĠG il
ĠH Ã¶ch
ĠBe hinder
reg isseur
Ġgar ant
Ġtre ten
hers teller
Ġlaunch ed
Ġincred ible
' );
F est
H i
P ost
re me
te ms
Ġf unds
ĠB at
ĠR oth
Ġk Ã¼
Ġre ag
Re p
Ġ0 1
ĠAt om
Ġpres ence
orge ous
Ġsecond s
Ġref le
ĠRu hr
zep te
us se
ĠV alue
ov ed
Ġmin or
Ġprom ote
Ġverkauf te
onom ie
Ġcaus ed
Ġdistrib ution
Ġrepla cement
Auth or
ĠWag ner
S uper
S ince
p ommern
Ġn ennt
ĠT HE
Ġein s
lie f
oc ation
ĠCh annel
sel ves
Ġphot ography
Ġbisher igen
ĠZus atz
Tod ay
A pril
h Ã¤
Å Ľ
Ġa uÃŁen
ro g
Ġc ounty
ĠM Ã¼hle
ĠK ul
ĠAn alyse
Ġam b
inz ip
ĠJu an
ĠLebens mittel
ĠFil ter
Ġexp ensive
Ġkomp lex
Ġitalien ische
ĠpersÃ¶n lich
ĠerÃ¶ff nete
Ġpoln ischen
B M
k ore
ĠM ig
ĠP ian
ĠV ent
sp ur
Ġco ast
ĠUnter schied
ĠNational mannschaft
Ġdog s
Ġpo et
X ML
r ates
Ġn am
ĠN OT
la p
ver teid
ĠAb out
Ġange hÃ¶r
ĠRegen sburg
Ġoffiziel len
Ġleader ship
Ġaccomp l
n chen
ĠM essage
ĠD ich
all as
iz ens
sen de
Ġ18 0
ĠAb ra
ĠAs ian
cept or
aun a
char At
Ġep isode
ĠSyd ney
iscons in
b ound
Ġd ates
Ġj ump
Ġte a
ĠGem Ã¤lde
Ġges te
let ion
199 4
Sp ace
Ġhous ing
ĠBestand teil
ĠVarian te
Ġm ac
ĠB ag
Ġ( ;
ĠG abr
Ã¶ ck
ĠV i
Ġver anst
ug os
tern oon
ĠBer nd
Ġallow ing
ĠMil ch
Ġunivers ity
umin ium
S pieler
W ert
ĠS zene
ĠB alk
ĠD ick
Ã¶ nen
aus bildung
esch oss
iz za
ĠUn fall
ens is
Ġnot es
Ġrem ains
Ġstatt finden
Ġdiscover ed
Ġdescrib ed
ĠChild ren
J ose
Ġf ach
sch icht
od ox
Ġde ck
Ġwar um
Ġres ume
Ġlat ein
Ġworks he
Ġfil ms
ĠBesonder s
ĠG ab
isch Ã¶
Ġsch lecht
ĠAl te
An merkungen
Ġsho es
tes ten
uck er
Ġgest alten
Ġbreak fast
ĠgrÃ¼ nd
Ġdep th
ĠPrÃ¼ f
Nov ember
K arl
n oten
Ġg ern
ĠR un
Ġer gibt
Ġan lÃ¤sslich
Ġge grÃ¼ndete
ĠAn wesen
Ġsch uf
Ġoff izielle
Ġges prochen
ieb el
Ġpass word
Ġcho ices
ĠEp isoden
Ġmanufact uring
ĠAre a
ĠAutom obil
Ġprem ium
r s
ĠD ok
ĠH aupts
ĠN ull
if iers
Ġfor mal
Ġqu iet
Ġlie be
ĠBau er
ĠKl osters
ĠGew erk
AN CE
aill en
- /
A k
D DR
H inter
m auer
r ian
Ġm ent
ĠB ull
ĠE P
ĠV og
Ġden k
Ġr ise
for scher
ia c
Ġwork ers
ĠTr ier
ĠspÃ¤ter e
ST R
Ġprocess es
Ġcla ims
Ġricht igen
ĠMaterial ien
Ġreach ed
ĠJer usalem
Ġremov ed
ĠJos Ã©
Ġgetr ennt
k at
t lich
he ben
Ġf rem
Ġthe ory
st ift
ic z
ĠCl oud
He ute
folgen den
Ehemal ige
B B
D est
V E
Ġs au
Ġf ixed
ste ig
ĠEr Ã¶ffnung
ĠSp ann
Ġvor ge
Ġro ut
fahr zeug
Ġspiel ten
Ġeinfach e
ĠMiss a
Ġricht ige
ĠHei z
B ra
S an
ĠD iam
ĠG Ã¼
ant on
Ġcomp la
Ġbes etzt
Ġgeb ra
Ġsol chen
ĠVerb reitung
Ġgef ert
Ġcal endar
Ġobject s
ĠDon ald
Ġlead s
Ġspecific ally
ERR OR
A pi
K unst
L ang
Ġf aster
op her
Ġen ded
bau te
u ine
Ġb order
Ġthe oret
ĠH op
ĠR umÃ¤n
ib ilities
ĠAn bieter
Ġmy ster
ĠPat rick
Ġposs ibly
ĠHor st
Ġappear ance
Ġupd ates
Olymp iateilnehmer
g age
ing ly
Ġk inder
iv a
os ted
Ġauf treten
ĠVer wand
hÃ¶r ige
Er gebnisse
Or iginal
Ġcontin ued
Ġ188 8
Ġresp ond
ĠHig hl
ĠEliz abeth
N atur
m ans
w irtschafts
ĠB em
ĠL ad
ĠN y
ĠJ etzt
ver l
Ġver tra
Ġsch ott
ip her
Ġar m
teil te
Ġcl im
ĠWei b
ĠGraf schaft
ĠLes er
lad ung
ĠPrinz ip
ĠAbgeord neten
Ġgriech ischen
Ġflex ible
Ġsicht bar
B E
b ett
c at
Â ³
Ġa th
Ġa ctions
ar row
Ġb aute
ĠK redit
and e
Ġy ellow
Ġst ars
Ġver ab
Ġpro test
pr ene
Ġ8 8
licher weise
ĠMark us
ĠMat rix
leb te
ĠKategor ien
besch reibung
ĠLÃ¼ beck
ĠS ite
Ġm anner
ĠT ode
Ġein deut
ĠG a
hen den
ĠPf ad
Ġtechn ologies
AC E
Ġcla zz
ĠStÃ¼ck e
ĠSyn ag
Ġvac ation
J vm
ĠM u
ĠT s
tr an
hal ter
ĠAus gang
hel ms
ĠWahl kreis
ĠursprÃ¼n glichen
Pos ted
. _
ĠD ating
ol ver
ĠP ul
ĠH at
ĠSt urm
Ġwir ken
Ġar ts
ĠMar s
stell ig
ĠGesch windigkeit
ĠDav is
ĠOption al
Ġbatter y
Ġfeder al
ol id
Ġto ugh
Ġr ender
ĠY es
Str u
Ġ6 6
Ġfe es
ĠPl Ã¤tze
jÃ¤hr iger
Ġnational e
g han
l ate
it ro
he il
Ġm outh
ĠW i
ÃŁ ig
our i
Ġ18 50
ĠAus stattung
Ġevery day
Ġfamil iar
On line
Ġest im
EX T
Ġemer gency
cep ts
J ava
M ath
e g
ĠT onnen
Ġer l
Ġum ge
pro perty
Ġpla ys
ĠSte phen
ĠEx press
ĠWerk en
iden z
forder ung
fre ie
Not Found
o ir
p ra
z ing
Ġa st
ol ph
ut ors
ĠT oten
ĠE mer
Ġg lob
Ġl istener
isch t
Ġab gesch
ĠUn ser
ges ell
auf nahme
Ċĉ ĠĠĠ
ĠHe er
Ġany where
Ġges und
sw ald
With ServiceResponse
Ġbeh aup
State Exception
Sc ope
ĠjÃ¼n g
Ġvirt ual
WithServiceResponse Async
B oot
P ers
Ġt at
ra f
ĠC oll
qu em
inter est
folg ung
Ġersch einen
Ġbring ing
ĠBel gien
Ġfeature d
R ock
j or
k Ã¼ste
w Ã¼rd
or ganis
Ġst unning
Ġver fasste
od ge
ern ame
ĠVer arbeitung
Ġsp ending
bo y
ĠRes erv
Ã¤nder te
ĠBra un
bu ilder
wh ich
ĠAud io
ĠErk rank
ĠGirl s
erkl Ã¤rung
ĠFrie dens
valu ation
B it
W S
c our
h aven
Ġt ile
ĠF unk
ĠR ess
ist ing
Ġge Ã¤ndert
Ġi P
sp art
Ġnach halt
ph as
ĠPh ase
Ġperfe kt
Ġdan ger
ĠEis hockey
R oman
S a
ĠS ynchron
as ant
ĠH av
sch rank
Ġl ayer
Ġ5 9
com mer
ĠMus ter
Ġgleich e
por ter
ĠFe hl
ĠSk ulpt
ĠMo z
ĠFot ograf
Time out
ĠBot schafter
ĠCla ud
ĠPak istan
b indung
p atch
Ġd ut
Ġin tended
Ġp reis
ĠP ir
ĠR y
Ġver boten
ĠIn g
sp lit
urs or
hÃ¤lt nisse
stant in
Land kreis
starts With
i op
r ale
Ġt om
re gel
un ks
st itu
ĠD I
ĠP seud
ĠJ ar
Ġan gen
tr im
ĠThe ir
lic it
Ġbes uchen
tem per
Res ources
wend ungs
Ġwicht iger
ĠDire ct
Ġbestehen den
Ġpattern s
ĠGebie ts
Ġproper ly
Ġkor re
Ġslight ly
V A
u is
Ġd okument
Ġa u
ĠD ream
ĠF Ã¼nf
ĠH un
uf er
and al
Ġsch ied
Ġwe aring
Ġ6 2
ĠJun ior
ĠGroÃŁ teil
Ġexist ieren
Ġcur ren
far be
ĠCre ate
Ġsym pt
Ġautomatic ally
Que ue
innes ota
c ers
ĠO ster
Ġver trat
sen der
ip edia
Ġte levision
ĠAkt ien
telligen ce
y c
Ġt end
Ġm ental
ĠT rieb
ĠR ie
Ġk ick
ik as
up le
ok us
lan ze
ĠNe ck
Ã¤ch er
ĠUm gang
ĠArbeit geber
ĠBr ian
ĠFr iend
ĠOff izier
ĠGed enk
ĠElekt ron
l isten
un fts
ĠG ru
ĠE uch
ĠH Ã¤
Ġl unch
Ġre aders
Ġy esterday
ĠO S
ĠLe o
)) );
Ġ189 2
Ġsl ot
forder t
ĠUp date
Ġarr ived
H ein
V O
Ä Ł
or able
und et
ĠB Ã¤nde
Ġc utting
ers dorf
ag on
âĢľ ),
lass ung
Ġsc ope
add All
Ġbel ief
ĠHand ball
kl ar
Ġlang sam
Ġkey s
ĠHel m
Ġdefin ed
ĠBilder n
abin ett
ĠDenkmal schutz
---------------- ----------------
Ġprovider s
dire ktor
ĠG ipfel
Ġge legt
amp s
Ġgen et
stell te
Ġbo at
Ġeinfach en
ĠKÃ¼ ste
ĠGeschÃ¤fts fÃ¼hrer
ĠEns emble
p op
al om
ĠA ar
ĠB R
ig ers
ĠW art
ass ung
pt op
ĠÃ¼ber setzt
In sel
amil ton
ĠAd vent
ĠOb ama
ma ÃŁen
Ġakt iven
Ġmod ule
ĠIntern ets
Ġask ing
Acc ording
Ġbrow ser
Ġcloth ing
ĠKomment ar
ĠInf os
Ġunbek annt
Ġguarante e
ĠQual itÃ¤ts
Ġopin ion
G H
Ġf ly
Ġf arb
Ġf uhr
ĠT ai
ĠSie ben
Ġen det
Ġad s
fin ed
ube hÃ¶r
ĠAlt stadt
ĠPhys ik
M any
M Ã¤rz
ho e
ĠVerein igung
Ġdort igen
Ad apter
Ġmonth ly
ĠInstit uts
Ġeff iciency
ĠBron z
waren ess
ĠÃĦnder ungen
S ow
or ded
le ft
ĠC her
Ġth us
ho en
ĠAl though
rÃ¼ ckt
ac o
geb lich
reat ive
ĠOber flÃ¤che
Ġhal b
Ġsupport ing
Ġ188 9
ĠSupp ort
i able
Ġt rop
Ġf oll
ĠM A
ĠD ark
ĠG un
ĠW itten
ĠV f
ĠVer eine
ĠEin en
Ġ7 2
ĠFahr t
Ġimpro vement
ĠBaum w
ĠMass achusetts
Ġbeinhal tet
n ur
p ap
Ġt ables
Ġp ure
ĠD id
ĠF A
ĠL ust
ĠC ommand
ner stag
be am
ĠSe en
Ġup coming
igh ten
Ġverb rachte
ĠKan al
mosph Ã¤re
ĠAutob ahn
x id
in yl
Ġa w
al i
ĠT ransp
ĠP ict
ĠJ ena
ĠVer trieb
Ġcon ver
let scher
vers orgung
ĠCar los
He aders
Ġ189 1
des ign
Ġlic ense
Ġlau tet
Ġaf ternoon
G C
n ab
s ort
in str
or ter
ĠT ank
sch iffe
ist rÃ¤ger
Ġ" /
Ġ18 75
Ġdec isions
Ġverur teilt
E ach
is burg
ĠS ache
Ġb ike
ĠT rom
Ġbe er
Ġre volution
ver k
ĠDe f
Ġdr ivers
Ġpol icies
ĠWei ÃŁen
ĠBur gen
ĠEing abe
cep ted
Sep tember
ĠS Ã£o
Ġc ute
ĠG att
sp latz
ĠSp itz
Ġres olve
ond iss
bau en
ĠĠĠĠĠĠĠĠĠĠĠĠĠĠĠĠ ĠĠĠĠĠĠĠĠĠĠĠĠĠĠĠĠ
Ġwould n
Sie g
Ġshow ed
Ġoption al
Ġsearch ing
weis ung
ĠRu he
ĠMill iarden
ĠCharl otte
R C
m ade
z lich
ĠM oh
ĠK linik
Ġk it
tr itte
ivers ary
Ġeigen er
ĠVers and
199 3
ĠBel g
wor fen
verb indung
col umn
ĠVe gas
Ġcelebr ate
Ġzuk Ã¼nft
M Ã¼n
k Ã¶nig
m os
p in
ch i
Ġs uff
Ġin vent
ĠF our
Ġge e
du ate
Ġpr ivat
ĠFre m
Ġsol ar
UL L
gestell te
Ġbege ister
ĠPrÃ¼ fung
Famil ie
Ġenh ance
M aler
l enz
Ġw alls
ĠD afÃ¼r
ĠL okal
ĠN ag
Ġan geschlossen
ann els
Ġle gen
los ure
alt ar
tra ck
Ġrec over
Ġbesch lossen
ĠGleich zeitig
ĠTher apie
Ġsurround ing
B uch
O F
p th
al ition
ĠS auer
Ġj oint
ap i
reis en
mit tag
Ã¤hl er
Ġcall ing
Ġarchite cture
Ġt utor
st atic
Ġn ative
ĠD uring
ĠH ope
Ġl aufen
gen ossen
Ġch osen
ĠSp ark
Ġ18 71
Pro xy
war ded
ĠFÃ¼hr er
ĠGi ov
ĠmÃ¶ glichen
maÃŁ nahmen
ĠCast le
Ġdepend ing
S w
ï ¼
er a
or ough
ĠP ur
ĠE g
ik um
ĠCh i
fe uer
Ġ7 00
Ġgew Ã¼nsch
Th rowable
ober t
Al so
Mod ule
ĠMont ag
Ġocc up
ĠTemp el
Ġzuf olge
ĠPers pekt
Ã¤u den
ĠErweiter ung
H C
K omp
M iss
b te
f loat
z ed
ĠB enn
Ġme at
Ġout standing
bar er
ĠGr Ã¶ÃŁen
Ġhin ten
Ġown ed
sw ing
ĠAss oci
ĠFranz isk
atÃ¼r lich
Ġbew usst
Ġexec utive
Ġumfass te
ĠKolle gen
ĠÃ¤ltes ten
M ilitÃ¤r
on te
Ġt mp
Ġv ote
ĠK h
ĠL ip
fe hlen
ĠAs pe
Ġbesch Ã¤d
ĠNorth ern
Ġopt imal
bÃ¼rger meister
ĠpreuÃŁ ischen
f angen
ĠS W
ĠA z
ĠG au
ĠL aus
ĠL Ã¶sungen
Ġl if
Ã¡ s
pos es
Cl uster
ĠWochen ende
Ġorganis iert
Com parator
dat um
p c
he ber
ĠB alt
ĠH als
ĠC P
ĠZ usÃ¤tzlich
Ġch ron
ĠAus bildungs
ĠFre ude
leit en
Ġorder s
DE FAULT
Ġheraus gegeben
contains Key
Ġappreci ate
ĠBened ikt
Z one
ĠD ance
Ġour selves
ond a
An t
ĠGrund lagen
Ġreal ize
199 1
199 5
Ġhistor ical
Ġmag net
anc en
ĠExper ten
Ġmittler en
Ident ifier
ĠendgÃ¼lt ig
Ġt ast
Ġb attle
us hed
Ġp asst
ub a
ast ik
En tw
ĠBr idge
ĠÃľber sicht
add ing
Ġtechn ische
Ġur ban
legen heiten
Ġclear ly
Ġlands cape
Ġleit et
w Ã¤hnung
te e
Ġc raft
ĠE sp
Ġz er
ĠW end
ĠL iving
ĠC os
Ġer geben
la f
Ġ3 000
ild es
ail ability
off s
ĠWelt meister
ĠAnd ers
ĠPol icy
pre chen
deutsch land
Ġwhe el
Ġsug ar
Ġspeziel le
vier tel
ĠBist um
Ġmagaz ine
Ċ Ċĉĉĉ
Ġd Ã¼n
Ġn u
ĠT R
ĠR ow
ĠV iz
ĠZ iele
ĠAn z
ack s
br id
ĠOb last
Al t
ĠInter ess
ĠPhil adelphia
ĠKr iminal
mÃ¤ÃŁ igen
ĠKore a
Ġingred ients
T ro
on ne
or ch
ĠB uffer
ĠC ob
Ġk ing
Ġdes ire
Ġst ir
Ġst Ã¤ndig
ive au
Ġbeg ins
fr ies
Ġbre ath
IG HT
h Ã¤ndler
v et
at ische
Ġh ieÃŁ
ĠP ic
Ġaus fÃ¼hr
Ġch airs
ĠUnter richt
ĠIde as
Ġjeder zeit
ĠLew is
> ()
G rÃ¼
T itel
us ing
ĠP ad
ĠO N
qu elle
Ġhe aring
ĠAus bau
lan ge
ĠKon zentr
oth ing
ĠBes ter
ĠBr ust
Ġtyp ically
MA X
Ġple asure
Ges ellschaft
ĠEth n
J SON
S chn
t al
v iel
Ġv ital
st op
ĠE xtra
ĠW under
Ġge legentlich
th al
Ġne ut
ĠEn vironment
ĠkÃ¶n ne
Ġmin i
ĠGrund stÃ¼ck
Ġsur gery
Ġwei ÃŁen
ĠSpring er
Ġcloth es
Schwei z
A c
T er
a ber
ĠR av
pp ers
ok ing
Ġch arm
lie gt
Ġrec o
ĠUS B
ĠBo gen
Ġem otional
ĠÃĦ gyp
umm ern
ĠKÃ¼ hl
Ġdeliver ed
Mus iker
ĠMaler ei
ĠAbgeord neter
Ġschwar zen
ĠNiederland e
ĠKrank heit
Ġneighbor hood
Ã ¦
ĠB urn
ĠP R
ĠL uther
ei ro
Ġvor wiegend
Ġad j
Ġho tels
ĠPf alz
ĠCl ark
Ġerreich ten
Ignore Case
F i
k ind
ĠA lo
Ġz ul
Ġbe obach
Ġth reat
ess ed
ĠIn spir
ĠEr m
Ġro ute
ĠPr ice
ĠTra g
Ġadmin istration
ĠWahr heit
ĠAlb recht
ĠZent imeter
Ġpromov iert
Ġgren zt
S PD
it ate
ĠB am
ĠD S
ĠL em
ĠSt ab
ĠBe f
Ġ18 79
Str ateg
ĠNe ur
Ġbo ys
ĠUm bau
ĠRes ponse
Ġhouse hold
ĠRelig ion
Kompon ist
b Ã¶
k ommun
v ia
Ġh ire
Ġre prÃ¤sent
men ge
get R
tw och
Ġ< <
ĠMon ats
ĠWil son
Ġspec ified
Ġfunktion iert
Ġposit iv
Non Null
M C
Ġs itting
ĠT an
ĠZ auber
ĠSp irit
ru cken
ĠAll en
Ġmus ical
Ġsupp lies
ĠVers icherungs
ĠBar ock
ĠEinwohner zahl
ĠGed ichte
Film schauspieler
ĠFreund in
Ġzie m
fÃ¤ll en
ĠNaturschutz gebiet
Ġrap id
ĠgewÃ¤hr le
al ia
ĠS ac
Ġp ink
ot ions
Ġ3 50
ĠNach folge
ĠFor est
Ġteil nehmen
ĠColle ctions
book s
Ġengl ische
Ġcommit ment
kap elle
L auf
en ters
ĠB ald
ĠDe fault
ĠTh or
mp el
ĠHe x
ĠPr ivate
atic s
bild ungen
Ġorgan ic
Ġmatch es
Ġans Ã¤ss
Ġverst arb
Ġsozial e
Ġeth n
ĠExec utive
Ġanc ient
g Ã¤nge
k as
m ain
ĠE ver
Ġk ennt
ĠSt aff
gen cies
get String
âĢľ -
Ġdies mal
rÃ¤ umen
Ã¼t ter
ather ine
Ġappro ved
ĠBed Ã¼rf
ĠMagaz in
lehn t
ĠGabr iel
NotFound Exception
Ġw Ã¤hlen
ĠS ummer
ĠB arn
Ġp ed
Ġp oll
Ġn annte
ĠK oll
ĠC ass
ĠO ak
Ġex cept
ĠBe hÃ¶rden
ĠAus fÃ¼hrung
gesch lecht
li as
ĠMag n
ĠsÃ¼d Ã¶stlich
Ġenter tainment
ĠLink ed
wechs elt
Ġ ).
um st
Ġl ived
Ġan g
our cen
od ie
ĠAn st
ĠAn hÃ¤nger
for ce
mal en
amm ern
ĠUnivers itÃ¤ten
Ġben ch
ilen ame
Ġref lect
ĠBern ard
Ġident ity
hÃ¶ fe
ĠSam uel
Ġmanufact urer
D i
M ai
i oren
n ames
or er
Ã¤ le
ĠI C
Ġver teid
Ġaus gebaut
ĠVer zeichnis
ĠVer fassungs
ud ing
Ġum gebaut
ĠHe art
ĠVor bild
ĠWelt meisterschaften
Ġfound ation
sprÃ¼n glich
Ġzeit weise
gebie ten
ĠIll inois
ĠArr ondiss
d ale
v ideo
y o
in sel
Ġa fr
an bul
ĠS A
ĠI reland
ĠK ino
ĠSt one
ap est
pro v
Ġfe els
Ġfin de
Ġdar um
wer ten
ĠTr ink
bereich e
ĠDire kt
IV E
ĠGebie ten
frastru cture
ĠMagaz ine
ĠAllgemein en
F R
O B
n ieder
Ä ħ
he w
Ġm Ã¼ndet
ĠB ow
ent h
ĠP y
ĠI ron
ĠO ze
ak et
ip eline
be cken
Ġ6 8
Qu alif
ĠGesch w
ĠGes icht
ĠBundes ver
Ġerw orben
EN D
ĠSa al
ĠMult i
Ġgelegen e
ĠUms atz
Ġgrunds Ã¤tzlich
M er
Q U
T est
Z eich
w eiter
Ġm ur
Ġc aught
Ġg orgeous
Ġde cl
Ġj oy
sh ips
oph on
bes itzer
Ġerfolg reichen
Ġ188 3
Ġ186 8
ĠGebie te
ĠMun icip
kÃ¼rz ung
/ *
g i
{ }
Ġs ac
ĠA ster
Ġn ine
ĠF L
Ġpro min
Ġ18 00
Ġes c
ĠAuf tritt
Ġ0 4
ĠNach wuchs
amm elt
upp orted
pro ble
ĠEx istenz
ĠHand werk
Ġgeb lieben
Ġ[ ...]
ĠVerb ands
Ġdefin ition
LO W
ĠGef Ã¤ngnis
Wer degang
ĠVerÃ¶ffentlich ungen
Ġdunk el
Ġinfluen ce
Janu ar
c enter
k B
in ch
Ġs essions
un checked
ĠB Ã¼nd
st reit
Ġh yp
and o
id ays
ĠSch all
ĠTh ailand
ss el
Ġher unter
ĠHand lung
Ġhin ein
Ġakt ual
Ġ189 4
schn itte
ĠTechn ologie
jahr en
gÃ¤n glich
W ell
he ater
us her
ĠE rot
em an
Ġr iver
art ikel
ĠThe atre
Ġher um
app ed
ĠNe use
ĠBl umen
Ġpurch ased
sm ith
ĠDipl omat
Ġschl ug
Ġinkl usive
BevÃ¶lker ungs
cycl op
Ġbenachbar ten
B ound
K inder
f ill
p es
Ġ 00
Ġs ad
Ġb at
Ġin fe
ĠF Ã¼
ĠJ son
Ġam t
ust on
iz ierte
ĠBe fehl
je cted
be hÃ¶rde
Ġpre gn
ĠUm fang
ĠPol ice
ĠAt trib
ĠgrÃ¶ÃŁ er
pre c
Dies es
ĠDis ziplin
__ __
Ġele ction
Ġproced ure
ĠRett ungs
izien z
K Ã¶nig
M I
Ø §
â ĪĴ
Ġp ill
Ã¤ ck
ent liche
ĠP ut
ĠL ed
Ġth ick
Ġge zogen
Ġab hÃ¤ng
Ġ3 60
ile y
Ġgen ieÃŁen
ĠWelt cup
ĠÃľber nahme
Ġvis ited
Ġsuccess fully
Ġvorhand enen
haupt stadt
Ġqualif ied
ĠInfanter ie
ĠViet nam
c ur
v ard
ĠS now
Ġv ent
ĠVer g
ĠVer mÃ¶gen
Ġres idential
Ġ0 9
Ġqu ote
Ġbef Ã¶rdert
ĠNatur al
Array List
Option al
ĠVal id
ĠAcc ount
Ġexpla in
exec ute
Ġprin ted
Ġreco very
er ei
Ġt ab
Ġf inn
ĠT ony
ĠG ouverneur
Ġl iber
ĠO d
ik te
ĠVer fassung
Ġex tre
iz ieren
out ube
ĠAb stand
los ed
code d
ĠGl ad
ĠMittel punkt
Film titel
IM E
Ġkur zer
Ġhold ing
ĠEv ents
Ġinstit ution
Ġhil ft
ĠstÃ¤r ker
strahl ung
commer ce
( ...)
l itz
t ario
Ġm ont
ĠA cht
ĠB ou
ĠM uss
ĠM ans
ĠD ein
sch wer
ĠR ent
ĠZ Ã¼ge
ĠSch mer
ĠGe or
Ġbes ucht
ĠFor der
Te il
Ġfact or
ĠRuss ia
Ġsil ver
ĠWissenschaft ler
Ġrecogn ized
Ġconvers ation
ĠVerÃ¤nder ungen
ĠEntfern ung
Ġvalu able
f rÃ¼
g roÃŁ
ar isch
Ġ1 15
ĠP ont
ĠL ange
ĠC irc
ĠN ationen
ien ne
ĠVer w
hen de
ĠGe fÃ¼hl
Ġvers uchen
ĠTra vel
ĠBl u
ĠNieder lage
ush ing
Ġbr ill
ĠPaul o
omet imes
CD U
ĠAcc ording
ĠPri or
Bag Constraints
' .
A gent
U C
b ringen
w ird
Ġt ri
Ġt arge
ĠT u
ra gt
Ġl ifestyle
Ġst retch
ste ine
sp iegel
ain less
iz ona
Ġ" );
utz ten
Ġmach ines
Ġfre ie
ĠTre ffen
ĠGott fried
prÃ¤ senz
ĠMem orial
RÃ¶m isch
ĠPots dam
W ar
Ġs ides
Ġf ellow
im age
ĠW isconsin
Ã¶ scht
Ġdes pite
Ġse gment
In v
Ġent lassen
ĠMus ical
zahl ung
ĠGew erbe
the t
ĠFer r
Ġnord westlich
Ġple ased
ĠBund estag
ĠD al
ĠR ome
Ġun tern
Ġunter r
ict ions
Ġmed icine
ĠHam mer
Ne u
Ġ188 4
ĠverfÃ¼ gen
ĠAmts zeit
OD O
Ġscient ific
Uns ere
ĠNomin ierung
Ġgespe ichert
vertre ter
l iteratur
o ÃŁen
Ġa id
Ġa ges
an ing
ĠM O
Ġh all
Ġ( ),
ĠF u
ĠE xt
Ġg rad
ĠAn k
ĠAb d
ĠKl ub
ĠInst agram
Ġpass iert
ĠMy th
Ġbegann en
Ġmass age
abet es
ĠergÃ¤n zt
merksam keit
P ay
ar ent
ar gs
ĠS imple
le ucht
ĠAn erkennung
ĠEr richtung
oh ne
Ġsupp lement
Ġdisc ount
auch en
ĠWissen schafts
Ġrespons ibility
Ġfertig gestellt
Ġdisk ut
R un
ĠS achen
Ġf o
Ġf lav
ĠA cker
ĠB ah
ĠB atter
el be
ic als
ĠF abrik
ĠE y
ĠK un
ĠK Ã¤r
Ġre ar
Ġst arten
sp itze
Ġne arby
ru ption
St affel
Ġ6 3
aw ay
Ġzun ehmen
ential s
Ġkommen den
ĠDi Ã¶z
ĠNikol aus
w eiten
w ords
Ġw et
Ġz one
la ce
ĠSch we
Ġab gest
lic t
hal f
ĠNe xt
br onn
Ar beit
Ġ14 0
ĠRechts anwalt
Ġgeboren e
ĠEben so
Ġfund ing
Ġfeed back
Ġallgemein en
F ran
a ine
Ġd ipl
ro ot
ĠL uk
ul in
Ã¶ te
ĠZ ell
ĠRe isen
ĠDe ad
ph abet
Ġ6 7
Ġ6 9
port al
ĠVerb indungen
ĠSil ver
ĠOl denburg
ĠÃ¤l tere
Ġencour age
C ell
M o
s end
de cke
et enz
ĠL inz
ah m
Ġ} ;
sp l
sp rÃ¤sident
ĠEr furt
gr at
ĠSp Ã¤t
Ġsp aces
lie hen
ong o
ĠAus zeichnungen
Ġ6 1
Ġra il
org ungs
ex pected
tag on
ĠBi ograph
Ġhard ware
Ġequ ipped
Ġturn s
ĠDenn och
Ġinstru ctions
p om
r ische
r ennfahrer
an ia
Ġb owl
ig sten
ĠF an
ĠI terator
Ġbe ar
ĠSch uhe
qu alitÃ¤t
etz te
Ġste igen
ogra pher
Un ser
Ġend s
Ġtro cken
ĠJes u
Ġdom estic
tl ere
ĠRena issance
BevÃ¶lkerungs entwicklung
ch nen
Ġm ob
ĠA ge
ĠB ody
ed ing
ĠSt ol
Ġsch aff
gr Ã¤
ĠUn it
Ġpre fix
hÃ¶r igkeit
gew inn
lex ikon
Ġchar ges
ĠschlieÃŁ en
Ġperfect ly
Ġpresent ation
fÃ¼ll t
Ġhon or
stud ium
Ġgraph ics
Ġzentr alen
ĠM etz
ĠP ool
ĠI M
et on
ber atung
Ġan sch
Ġan zu
ow itsch
Ġy es
19 18
Ã¤nger ung
ĠMÃ¤n nern
Ġlov es
col or
ĠSpan ish
Ġjapan ische
Ġaccur ate
Ġziem lich
H Ã¶r
W ord
Ġs ang
re uth
ĠH rsg
ĠH amilton
Ġwill ing
ond itions
ĠNe ues
Ch ain
ĠsÃ¼d westlich
Ġfit ness
ĠhÃ¶ here
Ġeffect ively
Ġschwed ischen
H am
S yn
W ird
Ġ( ).
Ġer folgen
ind ungs
ang a
pro jekt
ĠKon stru
ingen ieur
ĠFr ucht
Ã³ r
Ġlog o
Ġdefin iert
Ġpubl ish
Ġintegr ated
Ġpur poses
ĠAth let
Ġwes halb
Ġlok alen
Erster wÃ¤hnung
M ost
c am
ie ck
ĠB auch
il st
ĠG h
ul er
ĠAb stract
iele feld
Ġklein eren
Ġsign s
ĠDis c
ĠTour ismus
ĠClass ic
Ġfund ament
Ġkont roll
ĠMail and
G ET
L eb
n ik
in th
Ġd az
ĠK it
ĠR och
ĠV ide
Ġal cohol
Ġge h
ĠAr k
Ġ18 78
Ġ18 76
ĠSchw anz
ĠPh oto
Ġacc ounts
off set
cy cle
Ġmin im
Ġchar akter
ĠProf essional
ĠPort rÃ¤t
Ġschn eller
ĠGraf ik
format ik
Ġparticip ate
ĠSar ah
Ã¤dagog ik
Ġmount ain
Ġconsum ers
ĠLok omot
Å ¼
in v
Ã¼ re
Ã¼ se
ĠE tw
ĠK und
os k
aus o
out put
ohn t
Ġwo oden
ĠIt aly
ace ae
Ġges agt
Ġra ise
Be fore
zahl t
Ge ografie
yr ight
ĠCont act
Ġpick ed
Ġreve aled
ĠRail way
ĠAben teuer
ĠBuchst aben
M ay
c all
Ġd rag
Ã¼ h
ĠD unk
ĠP A
et ime
ĠK ro
ĠH ess
Ġk Ã¤mp
Ġk irch
ĠBe ispiele
auf nahmen
ĠAd ler
ĠBl Ã¤tter
ĠCon f
199 2
ĠMo on
Me hr
Ġimpro ved
Ġofficial s
Ġlern te
A ustr
N odes
S ummary
f ot
f ue
ie ten
at ible
il ot
Ġc am
ĠN am
Ġk Ã¶rper
ĠPro cess
fahr ts
Or ts
reg on
ĠBet on
ĠUr ban
ĠIns urance
Ġequ al
ĠEnter tainment
Ġcandid ate
č ĊĠĠĠĠĠĠĠĠ
es a
al is
le ep
ĠM iami
ĠL izenz
ĠV illage
ei he
ĠSp ur
Ġvor ne
ĠGe legenheit
Ġco ck
Ã¶ff net
Ġunser es
Ġkeep s
Ġ186 6
Ġconf irm
Ġconf idence
Ġparticip ants
ĠNS DAP
Ġdescrib e
ĠEreign isse
gesell schaften
. ",
F B
K e
c ell
Ġt asks
ĠD est
Ġh yd
ct ic
ĠO g
Le ft
Ġtrans ition
Ġinterest s
Ġverl Ã¤ng
Ġgl Ã¼ck
Ġed itor
Ġther apy
U l
u ages
an cing
un en
Ġv ary
ĠD ampf
ĠG T
Ġan fangs
men te
ĠRe kord
Ġ188 2
spr uchs
Ġzeit genÃ¶ss
ĠMeer es
Ġconcern s
ĠEnts tehung
angeb ot
ĠMÃ¶ bel
Ġinstr ument
ĠAbra ham
/ >
D av
t ree
us k
el en
ĠH ills
ĠC ount
and t
kt ive
urn iture
ĠCh at
Ġ9 00
els on
Ġel imin
ĠOff en
met hode
Ġrelat ive
Ġgel b
minister iums
Ġnord Ã¶stlich
ĠhÃ¶her en
ĠIntegr ation
Ġmeas ures
ing ers
ĠB ry
ĠF uture
Ġein gew
ĠC ell
Ġk Ã¼nd
Ġver letzt
af Ã©
Ġun w
ĠEr wer
cl ing
olle yball
Ġbet reibt
ĠPh ill
Ġgood s
Ġfun ny
ĠSol ar
ĠKirchen gemeinde
ĠRegel n
Jahrhund erts
E nde
V ert
s dorf
or p
ĠB rie
Ġc able
ter min
Ġbe zieht
all eng
ok es
ial s
ĠFran Ã§
ider s
Ġvers etzt
schie de
ĠGemeinde gebiet
ĠWh ere
Ġfest ival
Ġ188 6
Ġ186 7
ĠZe aland
Ġfood s
Ġconf ir
Ġfail ure
ĠverstÃ¤r kt
Ġfavour ite
ugos law
B ig
N etwork
ib l
ĠPro test
ĠBer gen
Ġ+ +
Ġtr aten
Ġschw ere
ĠCom ic
O h
Z e
b ten
s he
Ġt ight
ĠM inder
ĠL isten
Ġbe wohn
ĠN erv
Ġre ichen
os c
ĠGr iff
ER S
ĠProf ess
ĠDorf es
equals IgnoreCase
ĠschlieÃŁ t
ĠFrÃ¼ hl
ĠIllegal StateException
ĠHin weise
ĠFel ix
gebie ts
ĠKons erv
ĠÅ ł
ĠFass ung
Ġtal ent
Ġcandid ates
ĠPast or
k olle
Ġv ieler
ol t
ĠF itness
Ġein gebaut
Ġg olf
ach es
Ġge he
Ġge lesen
ĠSt ich
Ġat mosph
ĠGemein sam
ĠUm feld
Ġgr und
ital ien
ĠBed arf
deck te
ĠBot an
Gener ator
Ġintrodu ction
rÃ¼st ung
L ex
ĠS yl
am ework
ÃŁ er
me te
lieÃŁ en
Ġiss ued
ĠIhr es
fil me
ĠSym ph
ĠHit ler
ĠAltern ative
ĠAlk ohol
J ournal
Ġ Ã¤ndern
on ischen
Ġb an
le utnant
Ġp un
Ġc and
ĠC ivil
Ġins ert
fahr ten
ek te
ĠMon ument
Ġgu ter
ĠfÃ¼hr enden
ĠSal es
Ġlo op
ĠKap ital
ĠLie bes
ĠHigh way
Ġcook ing
B ounds
j amin
Ġa chten
Ġs ink
st ens
ĠD ocument
ĠD NA
ĠE X
ĠK ann
ĠW upp
ĠC it
Ġj ener
19 33
ĠVor teil
Ġrec orded
Ġ< /
ĠZw angs
ĠKl ang
Ġur i
ĠKr one
ĠÃĸsterreich ischen
ilome tern
ÅĤ aw
ĠAust ausch
Ġexhib ition
mir al
ĠDrit tel
B aden
L ower
P op
S ocket
e ing
es ents
an alyse
ĠS imp
Ġe hren
ĠP RO
ĠL uz
ab geordneter
Ġver teilt
Ġwe chs
AR D
Ġcare fully
ĠfÃ¼nf ten
sprÃ¼ che
ĠDat abase
ĠKant ons
ĠFrei herr
ĠStad ion
Ġmanufact urers
K n
L AN
S im
b ist
Ġd t
Ġf Ã¼
ro vers
ĠV inc
ak u
own ed
Ġspe aking
Pro p
put ation
ĠBereich e
Ġ186 1
mut able
mod el
Ġposition s
Ġanal ys
ĠLat ein
bereit et
Ġzentr ale
ĠErinner ung
ĠKais ers
ynast ie
Ġdoll ars
) -
F ar
G A
G S
y ll
de lete
ĠE va
ĠL iv
ĠC ase
ĠN C
ĠAr z
Ġent re
Ġsh ift
Ġsupp orts
setz er
ĠKe ep
ĠAdmin istration
Ġadvent ure
ĠSoph ie
Ġwunder sch
Ġverbess ern
L isten
v ements
or o
an teil
al og
Ġf ir
ĠB ibel
ĠR olf
Ġex tended
amp en
ma jor
Ġ13 0
Ġsw imming
ĠHier bei
Ġtest s
ĠBu y
ĠpersÃ¶n liche
Ġattra ctive
nehm ern
Ġappe ared
ĠPfer de
ĠRog er
Ġverwende te
Eng ine
ĠAstron om
? )
h Ã¼tte
w inkel
or ders
ro hr
Ġge langen
ĠDe ath
Ġlie fer
Ġges p
ĠAmer ika
the ater
ĠÃĦ hn
Ġtyp ical
Ġ186 4
Ġ186 9
ĠRein hard
Ġinnov ation
Ġdamal ige
Ġnet works
ĠGÃ¼n ter
ĠPfar rei
ĠBoch um
Abst ract
r ufen
ĠM iller
Ã¤ mm
Ġer stellen
Ġk illed
oc aust
ĠTe lef
ĠBer ge
ĠFor ts
Ġsow eit
stell erin
Ġ7 3
Ġlie ÃŁen
ĠAd dition
ĠÃľber blick
ĠSta ub
Ġsol o
Ġbro ken
Log ger
Gener al
Ġdynam ic
N onn
b ot
s um
ie gs
ĠB apt
ĠF REE
ĠW ars
ĠJ r
ll i
Ġsch Ã¼tzen
ens ed
ob jekt
Ġsh ops
ĠFran ces
man ager
ĠSk i
ĠEm ail
ĠEben falls
Ġzuf rieden
Instit ut
A uÃŁer
V om
W ien
d ays
g ments
h ai
j ahre
Ġb ond
Ġf ell
ĠG uts
ra it
ĠL P
Ġbe at
ĠJ Ã¶rg
ass au
ĠDie go
geb oren
Ġapp end
Ġlie fern
inn ers
De cl
Ġdar stellt
ĠAll es
ĠStud ios
uk i
ĠLin den
Ġwoll ten
gÃ¤n z
ĠDokument ar
ĠVerl ust
ĠBrig ade
ĠArrondiss ement
I l
N C
h ome
Ġt ags
Ġs ud
Ġf asc
st age
ĠM aj
ĠP av
ĠP az
ĠG ross
ĠC hen
Ġwh om
get Field
ĠEin stellung
oun ge
old ing
ĠVor stands
gesch Ã¼tz
Ġbel ong
kehr t
ĠPl ant
ĠPra kt
ĠOs nab
Ġhost ing
ĠSing ap
ĠerfÃ¼ll t
Jul i
(...) ");
g ungs
j son
ĠF els
ĠH ad
Ġk la
rit ter
ĠPro tocolMarshaller
fer ences
Ġus ual
ĠLand s
ett a
ĠEs c
Ġpl Ã¶tz
Ġhistor ic
Ġgrow n
Ġ186 3
Sh ort
Amer ican
Gr und
Dis play
ĠBuild ing
Ñ ĥ
Ġt ube
or um
Ġe ast
ĠN i
Ġer leben
Ġun bedingt
ĠBe ob
are l
Ã¼n schen
ĠAuf merksamkeit
De lete
ĠUnivers al
Ġmin imal
Ġfl ower
Ġsur prise
Ġbef est
Ġbef ind
Ġ188 7
scheid ung
ĠnatÃ¼r lichen
Ġcook ies
Ġdur fte
lieder ung
ĠGlo cken
ĠGlaub ens
ĠOrganis ationen
ĠNiederland en
Ġimpress ive
Ġurkund lich
d ro
Ġa gr
Ġm Ã¼s
Ġv it
im ir
Ġk Ã¼nft
pp ich
qu ir
lic ated
ĠSe henswÃ¼rdigkeiten
ĠSpiel tag
Ġcl uster
Ġsk ip
Ġter ror
Ġatt ached
198 6
ĠZug riff
Ġmat ters
ĠKommand o
Ġhor se
Ġaffe ct
jen igen
H all
P rÃ¤sident
R ender
g io
l iers
r ors
Ġw inner
us ste
ion ier
Ġp od
Ġz Ã¤hlte
ĠR an
ul ing
Ġwar ten
St ation
Ġget roffen
ĠFre der
ĠGrÃ¼ nen
Ã¤tz t
ĠIns besondere
Ġpay ing
Ġredu ziert
Ġintegr iert
ĠKauf mann
ifiz ierung
Ġintens iv
ĠSchlag zeug
hoch schule
Digital isat
ĠGiov anni
Nonn ull
j ournal
in ity
Ġd ick
ĠS z
le ten
Ġin ches
ĠA y
ĠP i
ĠH ind
ĠL yr
ĠJ ubil
Ġde cre
ap elle
ap shot
ust ic
Ġ18 74
ho fer
olog ien
Ġtr ends
Ġmehr erer
Ġ16 0
ĠBut ton
Ġbevor zug
Ġrelig ious
SI ZE
Ġstopp ed
hoen ix
E p
M al
S pl
b ran
z ut
Ċ ĠĠĠĠĠĠ
ĠS ession
ĠF ellow
ĠG on
ĠK atalog
ĠL aden
Ġbe we
if th
af en
we ar
Ġle isten
Ġex ternal
Ġso fern
ĠAr gentin
me chan
ĠEx c
Ġfest gelegt
ĠFin ancial
ĠWahl en
Ġvoll er
ubs cription
Ġzerst Ã¶r
Ġregular ly
Ġkathol ische
er ie
Ġa wareness
ĠM ind
ĠR ats
ĠSt ark
Ġex port
Ġsh ares
ĠAnd erson
bo ot
ĠJugend liche
ĠDi agn
Ġtradition ellen
Pr im
ĠMc C
Ġhold s
ĠRÃ¤ ume
ĠSom it
ĠTrain ings
ĠNeust adt
! "
k Ã¼
Ġo s
Ġfor ec
ou red
ĠSch Ã¼l
Ġun less
ok ol
Ġle ichter
Ġor ange
lin ed
Ġwas h
ure au
ĠDe leg
Ġdurch aus
fe ature
ĠBer at
sh ow
haus e
ĠRes erve
ĠParis er
Ġmain ly
Ġrepr esents
ĠjÃ¼d ische
ĠBul gar
ĠTschech ien
Mot or
( @
l ach
p unkten
w ing
Ġs ql
Ġb atch
ĠB BC
ĠM ix
ĠJ ens
ĠJ Ã¼n
aus geber
Ġum f
Ġrec ipes
ĠEurop Ã¤ische
AC T
ĠKap itel
ĠIr ish
Ġseem ed
Ġcaus es
ĠBrun o
Ġenth us
Wel come
ĠDoug las
A tt
D etails
F ind
Ġt ells
st ufe
ĠH arz
ier er
qu et
Ġle af
lo cal
ĠAl ben
att an
Pro gramm
ĠCon nect
Ġger inge
ĠHaus halts
iges etzt
haf tet
ĠDar aufhin
Ġgel ungen
Ġconsider ing
Ġworks hop
ĠSchm uck
Ġtw ice
Ġamer ikanische
Ġbefand en
ĠDokument ation
Ġpow der
Ġsympt oms
P ersÃ¶nlichkeiten
h Ã¼ter
È Ļ
Ġt olle
le e
Ġf ishing
ĠM innesota
ĠT ry
ĠI gn
ra ucher
Ġab ges
Ġex ists
ĠChr isten
wor tet
ĠEner g
ĠJac ques
Ġpers pective
ĠFeder al
Ġcabin ets
ĠSchlieÃŁ lich
ĠWÃ¤r me
Ġappoint ment
u ers
v arian
ch annel
Ġm Ã¤cht
ĠB ein
ĠT ipps
ĠN ations
Ġge fallen
ĠSch au
cc a
ren ce
ĠDr am
ÃŃ k
ĠTre ffer
ĠRec ord
Ġfour th
Ġbestand en
Ġgradu ate
Ġpartners hip
Ġconstant ly
Ġdou bt
ĠsÃ¤m tliche
P AT
b at
k ommand
ĠS eminar
Ġb ab
ĠF I
ĠF alle
ĠR ound
Ġr id
Ġwar rant
ip er
19 20
ĠTh ree
Ġunter scheidet
geb irge
tell ers
igkeit s
Ġgesch Ã¼tzt
Ġfl u
Ġgleich er
Ã¡ r
esse e
Ġflo oring
ĠPass ag
Ġruss ischer
Ġspeziel len
ĠBrun nen
Schwei zer
Ġproced ures
Fra uen
P M
T urn
V C
s ign
} .
it als
ar g
ĠS zenen
Ġc erem
Ġh idden
Ġ( _
ĠK ids
Ġan sonsten
se y
Ġat tended
Ġqu er
Ġtra il
tet t
ĠFl ash
uer ei
ĠAnd ere
Ġknow ing
zw ungen
Ġfre ige
ify ing
ĠIndustr ial
ĠdÃ¼r fte
ĠWehr macht
Stack Trace
r ischen
en ne
Ġm ixed
im ed
ĠG n
ĠH ost
ĠH inz
ĠV ikt
gr id
Ġspe ech
ett y
Ġ12 5
gend es
Ġwel chen
ĠÃĸ k
Ġser ial
Ġzwe ier
ĠKu gel
ĠHÃ¶ch st
Ġm a
Ġg g
ĠR ange
ĠC atholic
Ġst ated
Ġsch olar
iven ess
Ġdec ades
ĠGroÃŁ herzog
ĠVers orgung
ĠWerk statt
Auf grund
Ġemploy ee
ĠIr land
Ġve ter
ĠSied lungs
Ġviol ence
Ġschedule d
national spieler
! âĢľ
% .
c olle
ĠB ath
Ġc atalog
ĠM Ã©
ĠM Ã¼hl
ĠR up
Ġfor ces
qu ality
sp rech
Ġ18 40
ĠDe finition
ĠCh ile
Ġfe hlt
De zember
ĠIS O
ĠAd resse
IN ST
Ġph arm
co der
Ġinv ited
Ġmach ten
Class es
zeug ung
ilit ation
Ġcho osing
Ġober halb
Ġruss ische
Ġorigin ally
Ġpropos ed
ĠKup fer
d ies
Ġin ch
om aten
ĠF ont
ĠC ann
Ġbe wegen
Ġj avax
Ġex cess
Ġch ocolate
ĠBe fore
19 39
Ex tension
ĠHe ck
Ġgen annte
Ġ7 4
Ġ7 6
ĠSte wart
Ġfound ed
Ġfac ing
Ġtre ated
ĠKrieg sende
Ġausgew Ã¤hlt
zust and
ĠGriechen land
C ustom
D am
h Ã¤usern
r atic
is st
ĠS creen
ĠM d
ig o
ĠSch Ã¼tzen
men s
Ã¤n glich
land schaft
ac ious
ĠAus stellungen
Con ne
Ġrec ording
ĠMan chester
Ġpl ate
ĠDo ktor
fre ien
Ã¨ s
Ġyoung er
hor st
Ġren ew
Ġbem erk
ĠPeters burg
Ġanerk annt
ĠGreg or
Ġfoll ows
A lex
d ir
Ġt iny
Ġf ro
Ġp apers
ĠW arn
Ġg ifts
ĠV es
ĠSt ars
Ġfor um
Ġver arbeitet
Ġhe iligen
Ġwe isen
ĠTr end
ĠMed icine
ĠNieder Ã¶sterreich
198 9
Ġerm or
arts eite
ĠBot schaft
ĠModer ne
ĠAuss age
ĠLÃ¶ wen
B rite
Ġa rab
Ġt all
ĠC er
ĠV ision
ĠJ eder
Ġk Ã¼rz
Ġzu gÃ¤nglich
ĠEin kommen
Ġnot iced
ĠOr th
Ġro ten
Con f
ĠPh arm
Ġgesch ieht
Ġbre ad
ĠAmer icans
Ġdisc ip
ĠMor itz
Ġbra uchen
ĠStraÃŁen bahn
ĠProm otion
Ġcondu cted
verstÃ¤nd lich
Ġpromov ierte
inu ier
alleng ing
c in
d oc
k ette
n el
s Ã¤tze
w ein
Ġm orgen
st rÃ¤ger
ul der
Ġan bie
Ġzu verlÃ¤ss
Ġsp l
Ġent f
per iode
to o
Ġbut ter
verein igung
ĠSchiff s
Ġlik es
Ġtrain ed
Ġschwar ze
ĠEind ruck
rupted Exception
Ġtroub le
Ġerlang te
H ello
t age
ie u
Ġc ake
Ġc orn
ic i
ach el
ĠZ unÃ¤chst
se kretÃ¤r
ant in
Ġat om
Sch ule
ipp i
Ġcolle cted
Ġbef re
Ġ188 1
Ġcr ime
LO C
UN D
ĠMel bourne
ĠInnen stadt
Ġstamm te
Ġbestehen de
comp are
ĠGest alt
Ġjapan ischer
Ġdeg rees
How ever
Process or
ĠAN D
Disk ografie
VerÃ¶ffentlich ungen
ĠWeib chen
? âĢĿ
B Ã¼
F lag
J ugend
M sg
R ich
S ET
e ist
l Ã¼ck
Ġn erv
ĠM aschine
Ġh Ã¤ngt
ĠF ell
ra hlt
em y
sch ritt
ĠL och
ĠSt u
ĠZ ut
ĠMar sch
Ġ9 6
gesch icht
Ġcar ried
ĠSpe ed
ĠApp lication
iction ary
Ġcra zy
Ġged reht
ĠAust in
ĠViertel finale
ĠKath arina
S ER
U se
g ard
h ent
Ġs alt
re lated
ĠS ed
ĠL ov
ver lauf
Ã¤t igkeiten
Ġunter gebracht
gel Ã¤nde
geb ra
ph il
res ources
ĠSchw imm
ĠPr ime
Ġstand ing
Ġpolit isch
iro ler
frist ig
ĠBronz emed
B lack
W ei
y ou
z o
he iz
ĠS end
Ġb ags
Ġf u
ĠA uge
Ġg un
Ġbe achten
and el
ĠN O
ag u
Ġ18 77
ĠCh a
Mit tel
ĠSÃ¼d tirol
Ġem phas
ĠReich es
ĠFil men
gress ive
ugu ay
ĠRumÃ¤n ien
h Ã¤ngen
Ġo h
st ahl
ĠM eld
ĠT oy
Ġg ent
ĠL is
Ġbe her
ĠN ich
sp ann
ang o
Ġme al
ron ics
Ġange passt
Ġeinge laden
Ġoper ate
ĠKo ordin
herr schaft
frei heit
Ġimplement ation
Ġ{} ",
ĠEigent Ã¼mer
Ġunters ucht
Ġausd rÃ¼ck
ryst al
H ans
W rite
s Ã¤nger
â ĸ
at ischen
ĠB ielefeld
ro d
ĠP rix
ĠG ord
ag an
Ġcon sequ
Ġpl anned
Ġerw arten
stoff en
Des c
ĠKÃ¼ chen
CO L
Ġmom ents
Ã¤chs ische
ĠMathemat iker
Ġobtain ed
ĠKob lenz
d ner
Ġa part
ĠS K
ge legen
ĠE k
Ġl anger
Ġver grÃ¶ÃŁ
Ġ18 73
Ġnew sp
ack er
ĠAuf ruf
ĠMe et
ĠHer zen
Ġserv es
Th ank
ĠSpiel s
fo ot
wei ÃŁ
Ġerr ors
ĠFel der
fÃ¤h ig
Mich ael
N ote
S D
n isses
Ġv ir
am ik
ein st
ĠRe zept
ĠAn sicht
Ġor th
Ġnach gewiesen
Ġum st
ĠLe h
ĠY am
hel ess
Ġsk y
ĠSpe kt
ĠWir d
Ġaccess ible
Ġcap able
Ġident ified
ĠHen ri
Ġinform ieren
bro chen
ĠAth en
ĠLim ited
Ċĉĉĉĉĉĉ ĉ
clude d
Enc oding
B rand
C lick
as ted
il ation
ĠM indest
im o
ĠI ra
ra ut
ide t
enn is
old s
pro of
ett i
ĠGesch Ã¤ft
Ġhand elte
Ġben annte
Ge org
ĠPart ners
ĠPolitiker in
ĠOl iv
ĠKompon isten
ĠursprÃ¼n gliche
ĠSchriftsteller in
Ġanaly t
) ).
I ter
V ideo
ĠM eine
Ã¤ fer
ist ungs
ver hÃ¤ltnis
Ġ9 8
lÃ¤ uter
ĠChrist us
ĠDes igner
ĠAt mosphÃ¤re
ĠFahr rad
hol der
Ġcr iminal
Ã¼ste t
ĠbenÃ¶t igen
open hagen
Ġign ore
Ġfrequ ently
ĠHT ML
Ġath let
Ġs amples
at eway
Ġe c
Ġe cht
ĠA ur
ber uf
all iga
ĠPro perties
ĠVor bereitung
olit an
ĠQu ery
lÃ¤ ub
Ġdel ay
ĠSpe icher
yr am
ragen de
ĠDon nerstag
Ġdeb t
Ġclin ical
hyth m
B U
B ER
F ree
J o
t oken
Ġt icket
Ġm ature
ĠE C
pp t
Ġver an
ĠSie gen
ĠAus sch
old t
Ġsol cher
Ġpres ents
Ein wohner
loy d
ĠKreis es
198 8
Ġless ons
Dat um
ĠIst anbul
Ġsitu ations
ĠKonzer te
Entw ick
c ue
l uft
er ten
ĠS i
Ġb undes
ĠM ust
ĠH agen
Ġbe quem
Ã¶ tt
Ġer ot
ier mark
ill o
ib us
get T
ĠEr ster
Ġ18 72
etz ungen
ian ischen
ac ional
Ġgew eiht
Ġwrit ers
ĠHal binsel
ĠverÃ¶ffentlich ten
Ġ186 2
Ġcert ified
Ġangeb racht
ĠAutor in
ĠMult ic
Ġprint ing
ixt ure
Ġabger issen
Ġgefert igt
N T
en cy
te ch
ĠP ersÃ¶n
ĠK leine
ĠSt att
ĠO F
ĠO bst
Ġsch m
Ġzum eist
Ġalle ine
Ġperson en
Ġac cepted
Ġerw eiterte
Ġperform ing
Ġmatch ing
Ġak zept
Ġbrow se
Vol k
Ġdetermin ed
ĠabhÃ¤ng ig
G ed
w eb
Ġv ul
Ġp rÃ¼
im i
hr ung
iv itÃ¤t
ĠO regon
la de
Ġsh ut
Ġreturn s
tra ce
Ġber aten
ank a
ĠGeb ir
ĠInd ones
ĠFest ung
Ġern st
ĠnatÃ¼r liche
ĠGÃ¼n ther
ĠÃ¤uÃŁer st
ĠTok io
K lass
P red
Ġt ap
ie ber
Ġm ic
Ġe lev
ĠD allas
ĠH arm
Ġl ust
ul ous
Ġer richten
Ġun gewÃ¶hn
ĠPro t
ack t
ĠAus stellungs
ĠSe le
Ġsk ill
Ġstatt dessen
ĠBut ter
Ġspecial ist
ĠSen ioren
Ġmat hemat
gere chnet
ĠBesatz ungs
C up
f indung
o be
ĠF ed
ĠR yan
Ġst il
Ġr ies
ĠVer y
Ġch ief
ens burg
form ed
ĠMar co
ĠNe uer
gesch ichten
Ġvers ions
gl ing
Ġbre iten
ommer ziel
ĠBra z
ĠDienst leistungen
Ġwirtschaft lichen
Ġcollabor ation
ĠVerantwort ung
ĠJord an
Ġentre prene
I st
Ġ ~
Ġt ub
ĠS M
Ġin frastructure
us che
Ġge ar
Ġst Ã¤rk
ib il
ĠEin er
Ã¤ch te
ĠkÃ¶n ig
fahr ens
ĠKon struktion
Ver tex
Ġmon at
Ġverb esser
ĠInter pret
Ġclass room
ĠUr teil
Ġgef Ã¶rdert
film ung
Ġenter ed
Ġverkauf en
ĠPlat te
ĠRestaur ants
ĠÃ¼b lich
ĠJahrzehn ten
ĠKaffe e
M Ã¶
k anz
in f
an on
Ġin ne
Ġz ogen
ĠH unde
ann y
ĠSch Ã¤den
ĠMit twoch
Ġcont est
Ġfe ierte
aw s
Th anks
ĠBr enn
ĠCar lo
Ġsupp osed
Ġdire cted
Ġche ese
ĠJugend lichen
Ġorgan ized
ĠVolks zÃ¤hlung
entry Set
H ar
S al
a ire
k rank
ĠC ott
och em
Ġle gt
Ġor din
Ġch allenging
ign et
Re port
Ġ0 5
ĠGeb Ã¤udes
Ġ> >
ĠMag net
Ġair port
Ġgl ad
ĠHall owe
Ġsil ber
Ġdraw ing
ĠHon or
ĠMerk male
ĠSum me
ĠVarian ten
ĠÃĦr zte
liefer ung
Ve ctor
ĠBres lau
6 00
M ENT
k al
Ġd ialog
Ġn arrow
am ar
Ġein heit
Ġbe zÃ¼glich
ĠSch icks
âĢĻ .
age ments
rit iken
enn zeichnet
ac ted
spieler in
ĠBet reiber
Ġgest artet
ĠGo ethe
Sh op
Method s
ĠKe vin
ĠFrei will
Ġgraph ic
Ġremov al
ĠKÃ¼nst lern
Ehr ungen
Fried rich
b ur
ar ischer
ĠM ong
ĠD ass
ĠF ollow
ĠG reif
ĠK ein
ĠH P
sch ild
Ġon going
Ġi OS
gr Ã¼n
Ġso le
Ġso ul
Ġme x
ĠAr izona
Ġte x
ĠHe eres
Ġbes tellen
ress en
ĠSte iner
ellen ce
ĠJun ge
Class Name
ĠBar th
Ġorder ed
ĠPra ct
Ġclos er
ĠSing les
Ġsignificant ly
ĠRÃ¶ mer
Ġumfang reiche
Down load
ĠVerstÃ¤nd nis
b org
j ar
ĠA lice
ĠB uff
Ġp ic
Ġc odes
om on
ĠE cke
ĠR ick
ĠR ight
ĠC R
ĠC laus
ber ge
ĠN AS
ĠIn schrift
ĠAn lass
Ġcon v
ĠZeit schriften
Ġ7 7
Ġph ase
unk er
Ġsub t
ĠOper a
Ġmeisten s
inst all
Ġnut rit
ĠNahr ungs
ĠVerbesser ung
O O
on ed
Ġs itzen
ĠD etail
ĠP s
ĠP iet
ĠK ay
ĠH ang
sch ung
ĠJ ury
iel en
Ġnew ly
ear s
ĠAus wirkungen
Ġ0 8
Ġco ordin
Ġ8 9
Ġspe zif
min der
Ġgr ass
ari at
Ġevent ually
ĠAustr ia
ĠZe hn
Ġoffen bar
Ġenc ounter
Ġdeb Ã¼t
Ġkont inuier
ĠSat ell
ĠSchwar zen
ĠJew ish
ĠKonfl ikt
Ġp in
ĠG umm
ĠH ed
ĠR ain
ert ungen
Ġsp ir
Ġ7 8
Ã¼t tel
ĠOn tario
ĠSÃ¼d west
ĠKn ochen
kon struktion
ĠFranz osen
ĠAndre a
Ġliegen den
ĠCap ital
ĠExp edition
stechn ik
ĠSaf ety
ĠBM W
vorsitzen der
Ġstellvertreten der
Hinter grund
ĠÃĦgyp ten
L et
m Ã¶glich
z uge
Â ¿
er ung
or ks
Ġw omit
as a
Ġe gal
Ġh osted
ĠZ en
Re zeption
Ġmy th
Ġgen auso
ĠIm mer
ĠVor lage
Ã© g
Ġ8 4
br unn
Ġgr atis
pf lanzen
Ġfile d
On ce
ĠMiss ouri
Ġelect rical
ĠHoff mann
W A
Ġw ra
ĠB arb
Ġc riteria
Ġh ang
ĠC urrent
Ġver lang
pe ction
ĠDie trich
Ġ18 15
Ġpr icing
ĠVor stellung
amer as
ĠMeister schaften
Ġbil deten
ĠBi ografie
!! !!
Ġpack ages
Ġredu z
Ġredu ced
Ġarch Ã¤
ĠÃľberg ang
K at
b undes
k ol
Ġt ank
Ġb ranch
ĠK i
ĠK orn
ĠW icht
ĠW Ã¶rter
ĠSch nee
Ġab use
fer red
ob i
Ġman aging
ĠSe ele
Ã¤hr ungs
utz er
dem okrat
res te
Ġpre v
Ġhier fÃ¼r
ĠBundes wehr
ĠHol ocaust
itu ationen
Ġlink ed
ĠSen at
Ġgre w
Ġwid ely
ĠHaw ai
H z
S ymbol
S creen
W asser
k lassen
m aking
Ġf er
ĠB od
ĠB eth
ro it
Ġp ussy
ĠR ies
ĠâĢ Ļ
ĠSch aff
qu alif
iz a
19 70
19 75
19 74
az y
Ġro ugh
ĠAnd rÃ©
Ġdire kten
ĠIs a
Ġenjoy ing
ĠBon us
famil ien
ĠmÃ¶ gliche
Eis hockey
ĠVerl Ã¤ngerung
ĠAtlant a
Wind ow
Ġbeeinfl usst
Ġcit izens
fir ma
T I
p ay
Ċ ĊĠ
Ġa wards
Ġn ights
ĠD y
ĠD ame
ĠD aily
ĠT unnel
Ġz ip
ĠW itt
ck now
Ġk ompon
Ġge pf
Ġge laden
Ġmit tlere
ĠU rauf
ĠIn putStream
tr ang
Ġ" ";
tel finale
ĠUS D
IN TER
Ġcomm ission
ĠPart ie
Ġbekannt esten
ĠBel ast
Ġprogram me
idel ines
IL L
ĠAud i
ĠÄ Į
ĠlÃ¶ ste
ĠKapit Ã¤n
ĠFÃ¤h igkeiten
Ġperman ent
Ġatmosph ere
ĠHallowe en
H D
d raw
k ing
r ent
Ġp atch
Ã¤ sche
am o
ĠE b
ĠK inos
Ġz ero
em pf
ĠR out
ĠR ainer
Ġan gle
qu ar
ĉĉ ĉ
sp ring
ok u
amen te
Ã¶l z
Ġcons ists
Ġ' "
ĠWh it
Deutsch e
Ġerfolg reiche
198 5
Ã¤m me
ĠEmp ire
lÃ¤uf e
ĠMotor rad
Ġcy cle
Ġhund ert
Ġdream s
ĠFant asy
Final e
Po inter
ĠRuh estand
Ġconfir med
T emp
re iter
ĠA gency
ĠB ird
ol ine
ra gs
ab ol
Ġver trieben
Ġum gesetzt
als o
Pro jekt
Ġwieder holt
Ġger inger
ĠDo es
ĠBew ertung
Ġmot ion
bÃ¼ ro
ĠRead ing
Ã¶p fe
ĠNiger ia
ĠNap ole
ĠSynag oge
J azz
S n
b art
Ġm oral
Ġl ift
ĠN ad
Ġy ard
gen den
Ġst imm
Ġaus geschlossen
Ġj un
Ġsch eiterte
ĠBe cker
tel ier
Ġ5 000
fe ktur
ins eln
ende te
Ġhand ler
ĠChrist opher
ex ception
ĠSk la
Ġplan et
ĠTer ror
ĠKont akte
Ġzahl en
ĠSchwar zw
Ġverwende ten
Cons umer
B R
D enk
L ab
O ktober
c p
in ent
Ġd b
it as
or chester
ĠS ource
ĠB enz
ĠD R
ĠP ick
ĠC in
Ġk aiser
Ġst im
Ġfor est
Ġj ung
Ġus age
Ġvor be
ian e
ĠTr ust
ĠStud ents
ĠBand s
ĠHaupt rolle
ival ent
verb Ã¤nde
Ġklass ische
ĠPrem iere
ĠLeg islat
ĠAnth ony
ĠPlÃ¤ ne
ĠnÃ¶t ig
ĠRol and
W atch
an ischer
Ġf Ã¤hrt
Ġc ategories
Ġn Ã¤chst
ĠP okal
et o
Ġl iquid
Ġfor med
Ġver haftet
op ter
ĠAn trieb
sp unkt
âĢĻ ,
ĠEr klÃ¤rung
ced es
Ġdire kte
hol ung
Ġgest orben
ĠTechn ischen
Reg iment
Ġinvest igation
Ġmeet ings
Ġgre y
ĊĠĠĠĠ ĊĠĠĠ
Ġged acht
Dec imal
ĠAnz eige
S onst
l abel
v org
ĠG or
ĠG oth
ver letz
Ġle hn
ens wert
Ġte eth
ble ib
ĠPol ize
ĠWer be
ĠCom edy
ĠOut door
Ġinstit utions
Ġmill ions
ĠKonk urrenz
Ġassess ment
prÃ¤sentanten haus
ĠGit arr
ĠBuffer ed
F ranzÃ¶s
S y
d ung
e ister
s u
t ax
ĠS emin
le un
ĠB E
ĠK Ã¼r
ĠR ic
Ġbe it
ĠSch atten
iz ist
19 14
19 38
iss ippi
Ġ0 7
cl uding
ays ia
ĠGem ark
)) )
ĠSpiel klasse
Ġtechn ique
ĠOrt schaften
ĠDurch fÃ¼hrung
Ġfest ge
Ġturn ing
ĠKommun ikations
Ġdest roy
ĠEis hockeyspieler
Verein igtes
ĠStat istik
Welt meisterschaften
ĠunterstÃ¼tz te
Ġcapt ure
Ġerinn ern
Sec urity
Ġverg essen
ĠVertra gs
Ġproduz ierte
Ġumst ritten
t Ã¤
Ð ²
or ium
Ġo d
Ġc ro
ĠF inger
ĠK Ã¼nd
ĠW at
sch Ã¼tzen
ĠC ome
Ġl ake
and em
ach ment
ab len
Ġle gs
Ġ" .
ĠAb lauf
fe ier
Ġ0 2
Se lect
Ġgra b
Ġter rit
Ġbig ger
ĠÃĸsterreich s
ham mer
Fl ug
ĠÃ¼bern immt
ĠDrehbuch autor
Ġsav ed
Ġcurren cy
ĠAspe kte
K ar
R ou
Ġ iv
ĠM ort
ĠI ss
ĠG ymnas
ĠE astern
ĠC ore
ĠRe par
Ġ" +
Ġent ries
Ġget Ã¶tet
Res ults
ism ar
Class Loader
ĠMot to
ĠBad minton
Ġhei ÃŁen
Ġblock s
Ġfunction al
ĠLeichtathlet ik
ĠstÃ¤dt ischen
I tems
o i
Ġv ast
ĠB ibli
il iate
id ance
af ter
Ġat tributes
19 80
Ġum s
ĠAl uminium
Ã¶n t
man uel
ĠInd iana
ĠHoch schul
Bu ild
Ġmir ror
ĠBen jamin
Ġkon k
Ġrece iving
Inter val
Ġstrateg ic
nehm ung
Ġtransport ation
Ġaffe cted
Ġmo ist
prof it
Ġcondu ct
ĠChallen ge
Ġdenk mal
Ġtom orrow
D istr
M ont
b lic
b ring
l Ã©
z oll
ĠA er
ĠA venue
ĠD ave
ĠW asch
ĠR eit
ul iert
ĠV ene
ein heiten
if ikation
ab ama
ĠIn se
ĠVer k
ĠÃ¼ber zeugt
ungs gebiet
Ġ18 30
Ġ18 49
Ċĉĉ Ċĉ
Ġfe hlen
Ġph ones
Ġsho oting
Ġsol ve
Ã¼l le
Ġfac ilit
198 4
ĠgrÃ¼ n
produ kte
Ġindividu elle
Ġfrei will
Ġconcern ed
ĠTown ship
Ġwid mete
ĠZuf luss
ĠStruktur en
L P
f ound
u ing
Ġd iss
Ġa gencies
Ã¤ ne
ĠP osten
ĠP lattform
ĠF R
Ġer laub
Ġan f
Ġge lingt
gen s
op ran
ial en
ĠAl i
ail ure
ges ted
ĠIm per
Ġpar ser
ĠKon f
ĠMan uel
ĠzurÃ¼ck gegeben
hand lungs
Ob j
Ġbl ow
Ġbeste hend
[] )
grÃ¼nd en
by tes
Ġweek ly
iller ie
Ġerk enn
Ġpain ted
cla zz
ĠTi rol
S eite
Ġt aught
Ġn one
ĠM ul
ĠH ildes
ĠL av
ver g
Ġauf s
ĠAn meldung
lo gen
oc on
ĠAuf l
lag ert
Ġbo ot
âĢ¦ .
ĠChrist ine
mat ik
RE D
ĠDr ive
Ġemp fehlen
ĠHel p
fÃ¶rm ig
ĠAufent halt
Leb ens
p red
Ġf f
ĠB lau
em pla
Ġr is
ĠIn valid
ĠSp uren
ĠAl f
ĠStadt gebiet
Ġdr ugs
Ġbre ite
yl on
Ġmar ks
Ġauth ors
Ġextra ct
Ġprakt isch
ĠHoff nung
Ġtal ks
ĠÃ¶ k
Ġgez Ã¤hlt
imens ions
ĠLÃ¤nd ers
B ek
d ated
k rÃ¤
Ä «
ĠS ug
st het
Ġn arr
ĠK ansas
ber ater
ĠJ Ã¤ger
ier endes
Ġne ur
Ġch annels
Ġwe ak
Ġwe ap
ĠÃ¼ber all
par ks
Ġmehr mals
iger ung
ek ing
Ġlist ing
ĠDo zent
Ġindividu ell
ĠKing dom
ĠSieg fried
ĠGesam tw
I E
f uÃŁ
n ten
Ġt iss
Ġm useum
sch te
ĠL ob
ab schluss
Ġas pect
Ġle tt
Ġbei der
ri or
fol gs
Ġper mit
ĠFre il
Ġstand s
Ġakt ive
ĠSal v
ĠMo ore
AS E
Ġinvest ors
Ġoffen e
ĠBud apest
Ġliter ature
ĠVerd ienste
ĠWass ers
ĠWach stum
Ġagre ed
ĠKurfÃ¼r st
A ud
E qu
F ull
r ation
Ġs oph
Ġm aps
Ġv i
ĠT ran
ĠK ai
ĠV ice
Ġst abil
ĠSe ason
Ġtr ib
ĠSchw Ã¤b
ader n
Ġfol ks
ĠTra de
ĠBr ut
ĠAut os
arch itektur
sw ert
ĠUr sprung
ĠLin col
trÃ¤ cht
ĠHÃ¶he punkt
Ġevangel ischen
Ġhy per
Ġausreich end
Ġnorm ally
I hr
e ber
g ert
he ll
ĠB orn
Ġc lock
Ġh l
ĠG lass
ĠE gypt
ĠH ung
ĠSch reiben
ĠÃ¼ber zeugen
Ġ" '
Ã¤n zer
Ġ9 2
Ġtra cks
Ġ7 1
Con verter
ĠOber flÃ¤chen
hol en
kon stru
ĠDu isburg
liegen de
Ġinform iert
ĠSilber medaille
Ed ge
grenz ung
Ġprior ity
Ġspirit ual
ĠDÃ¶r fer
ĠKandid aten
ĠLear n
Arg uments
H il
H igh
ĠS ale
ĠI F
ĠK abel
ĠC ash
ĠO cean
ĠZ ubehÃ¶r
ĠRe aktion
ard i
pr esent
Ġpr ison
az itÃ¤t
olog ist
Ġber u
ĠFre ist
Ġcre w
Ġverb inden
Ġfre edom
Ġrelat ively
Ġrel ation
Men u
Ġmonitor ing
P air
g asse
Ġs la
at tribute
al ters
ĠV ul
ver d
Ġver lei
Ġse qu
Ġas sets
ĠSe g
Ġhas h
Ġlie ben
imm y
ĠEx pl
ĠJul ia
ĠOff icer
ĠLa ub
ĠMay be
anc ouver
Ġverm eiden
Ġexpect ations
ĠTemperatur en
ĠKohl en
ĠFert ig
ĠScot land
Ġausgesch ieden
N icht
S en
b ayern
c d
s ed
Â §
er ber
it ative
ing o
il ber
Ġc arbon
ĠM es
ent z
ĠK ader
Ġtr igger
berg s
ĠPr in
ĠMen gen
ĠHand y
ĠChrist i
arch ie
Ġgef angen
Ġstatt f
Ã¤tz ung
Cont roller
198 3
ĠStÃ¤d t
ĠKre bs
Ġuk rain
Ġprepar ation
endo ktor
ĠSchwier igkeiten
. [
J oin
r Ã¶
Ġs ew
ar ma
ĠB auten
ĠD IN
ĠD OC
ĠC ow
Ġth orough
ul ator
ĠAn wendungen
Ġhe ft
ia e
Ġent worfen
ĠWor te
ÃŃ o
ĠTer m
ĠDu ke
Ġkomp lette
ĠMitarbeit ern
ĠLehr stuhl
Ġmiss ed
ĠPosition en
Ġcas ual
Ġaktuell es
ĠerfÃ¼ll en
Ġmil k
ĠNR W
ĠdebÃ¼t ierte
S H
S ing
en ted
Ġt ested
ĠS ysteme
Ġb undle
ĠG utsch
ĠE R
op Ã¤d
ug by
Ġse ats
ute te
Ġ9 7
Ġger iet
ĠCo ach
figur ations
Ġsuper ior
Ġcreat es
Ġoft mals
ĠMill imeter
ĠðŁ ĺ
ĠHoll and
ĠNeuse eland
P N
p ur
s d
le itete
ĠT auf
ĠN est
ĠVer sch
ĠEn joy
ĠBer ater
tz t
Ġob lig
rich ts
Ġmus lim
Ġgesch lagen
ĠRes te
Ġdel la
Ġehemal s
ĠPat ri
198 7
ĠSol o
ĠErw Ã¤hnung
Ġfort an
Ġwichtig ste
Fernseh film
Ġgelang te
Ġstru ctures
ĠLat in
PAR AM
Ġschaff te
empla re
B al
S el
f are
in ne
ĠD M
ĠD ienste
ĠF as
ĠW Ã¤l
ĠH arb
Ġg al
Ġk rÃ¤ft
est het
ĠO il
Ġauf w
kt oren
ĠAl an
ĠVor teile
ator in
ipp er
ĠWest falen
Ġstell ten
Ġresource GroupName
Ġbott le
Ġimag ine
ĠMaxim ilian
F low
Ġt ur
ĠB ibliothe
Ġer leich
ĠJ am
ab schnitt
Ġdes ired
Ġdes selben
ĠO hne
id x
Ġpro of
Ġch icken
19 30
row s
rÃ¤ gen
Ġ0 6
li ament
ĠSpiel film
Ġperson ality
Ġcall back
Ġflo ors
ĠLandkreis es
ĠOs lo
brÃ¼ cken
Med ia
Ġkanad ischer
Are a
ĠverlÃ¤ng ert
D O
J e
S K
U UID
h aut
k ommt
č ĊĠĠĠĠĠĠĠĠĠĠĠĠĠĠĠĠĠĠĠĠĠĠĠ
it us
Ġw ave
he ader
Ġb lank
Ġm ath
Ġv olle
Ġc otton
ent ity
âĢ ³
ĠW esentlichen
Ġg od
Ġl ady
Ã¶ ger
ab a
Ġge arbeitet
ĠO range
Ġcon trast
ult an
pro zess
Ġ8 7
ĠSte ine
iff s
ĠJan e
ĠAll gemeine
ams ung
Ġchar ged
Ġ% .
Ġconne ctions
Ġmag ic
leist ungs
ĠKol onial
Ġarr ive
ĠKommand eur
Ġdur ation
ĠAf ghan
ĠLux emburg
Ġcru cial
ĠLincol n
G O
P ubl
V ier
b Ã¤
b urn
h all
m outh
s rc
ĠS ax
un ting
Ã¼ pf
Ġc um
Ã¤ ts
ĠE state
ĠC urt
ĠV II
19 71
iss ions
Ġ8 1
ĠCar r
druck t
ĠTre ff
ĠkÃ¶nn t
ĠerklÃ¤r en
ĠLeg ion
ĠEvangel ischen
Fol der
ĠPreuÃŁ ischen
ĠDok umente
G reg
W eiter
s ql
at ile
ĠS ei
ent ums
am ic
ĠT un
ĠP unk
ĠG rant
ra hmen
ĠR au
Ã¶ mm
Ġge fe
iel ler
Ġpro ps
ĠEr hebung
ĠMit tler
ĠLe ader
ahl en
upp e
Ġtra v
Ġgew Ã¶hn
stra fe
Ġsho ot
Ġset up
ĠProdu kten
Ġsign ature
ĠEd itor
Ġpay ments
Ġemploy ment
ĠUs ing
Ġengag ierte
beg inn
BÃ¼rger meister
Pres ent
leucht ung
A g
B ot
m oder
Ġw Ã¤ren
re cken
re chnung
ĠS ide
ol in
ĠW ende
Ġbe zogen
ĠSch los
ĠĊ ĊĠ
aus chen
ĠVer z
ud a
ĠPar ks
yp en
ĠSte el
Ġbo ost
ĠQu est
sche f
fa iled
ĠBre ak
ĠCont ainer
Ġcert ificate
ĠTyp s
ĠHin weis
Ġzuge lassen
ĠDisk ussion
ĠUt ah
Ġbegrenz t
F ebru
s an
s uper
z ens
z usammen
on de
Ġv ierte
ig or
ĠT ak
ĠP ear
ĠG ur
ĠK abinett
Ġl ucky
ou x
ĠEr lebnis
Ġat temp
ĠSp ain
ĠAus gaben
ĠGra ben
off izier
ĠBundes land
Ġfl ash
stru ctor
Ġsign al
Ġann iversary
Ġmember ship
Ġenter prise
ĠLeip ziger
Ġdeb ut
ĠWeiter hin
ĠRob in
Ġfra uen
ĠHir sch
Ġsowjet ischen
A ber
P lay
V ID
h ten
it Ã©
el ry
ro ke
ĠF res
ĠK alender
Ġbe igesetzt
Ġl uck
Ġk Ã¼nst
Ġan x
ad i
os er
ver gleich
ere cht
ant es
ost ol
ĠTh rough
Ġoff ens
fahr zeuge
li ess
ĠFe ier
fa ction
Ġgut es
Ġhealth care
Ġ186 5
zus etzen
rim in
ĠSpr int
lah oma
ĠInner en
Ġuntersch rieb
ĠSchott land
S M
m ember
Ġa warded
ar ation
al in
Ġv illa
Ġh alt
ĠF okus
ĠH Ã¤nde
ĠR as
ĠL ess
um ble
Ġl ists
ĠJ oh
id met
ĠU d
av ed
Ġbis schen
ĠCh rom
ĠEn cyclop
Ġra us
)) ))
Id x
ĠRes idenz
bert y
Ġpost ing
ĠGu y
ĠPla yer
Des ign
198 2
trÃ¤ glich
dienst kreuz
ĠFlor ian
ĠStock holm
Ġexception al
Ġrecogn ize
Ġult imate
gewand elt
Ġbess ere
ĠLein wand
Ġannot ation
Strateg y
ĠOsnab rÃ¼ck
ĠBronzemed aille
B und
F ollow
L imit
à ¤
un ken
ĠB C
am ts
ĠT iefe
ĠE ier
ĠW ellen
ĠW inkel
ĠC av
Ġl agen
Ġst ainless
ver halten
ĠZ one
ĠRe formation
19 78
Ġvor genommen
ĠÃ ©
los igkeit
Ġup grade
Ġ9 3
nis sen
ĠKon ferenz
Ġbre ast
gra fen
ĠProv inzen
mus ter
Ġcr ash
ban ken
Ġengine er
End point
Ġschwed ischer
ĠMarc us
ĠRep ubl
ĠCorn el
Ġpersonen bezogen
L aut
ol y
ĠI owa
ra ben
et tet
ĠK rÃ¤fte
ĠW edding
ĠH altung
la ps
sp rechen
Ġ/ **
Ã¼hr t
Ġsc re
ĠFre unden
ĠMan ufact
Ġsub stant
hed rale
Ġav ailability
roll ing
Ġhol te
deutsch er
Sh ow
Ġnieder lÃ¤ndischen
ĠKompon enten
ĠCamp us
eme ister
ĠÃ¼b lichen
Ġfig ures
Ġincred ibly
I con
P ublic
W he
b ow
z ucht
Ġt elling
ĠS low
ĠS quare
ĠT ask
ĠF ashion
ĠI ce
em pty
ĠC ole
ess a
ass te
ver kauf
() ),
Ġme ets
ens ation
Ġen abled
pro perties
ĠHerr scher
DE F
ĠGen f
Ġhol z
Ġoffic er
ĠÃ¤hn liche
Ġannoun ce
ĠBud get
ĠCons ult
penden ce
Ġlisten ing
ĠRelig ions
ĠLaur a
Ġeigent liche
ĠJed och
ĠMÃ¤r chen
ĠBeaut iful
Mart in
Ġsud den
w ender
re ct
ent ine
ĠW erbung
ĠR eiter
ĠN om
ĠV il
ce ived
od el
for cement
Ġ18 06
Ġen orm
Ġsc an
ĠKon text
Er n
Ġfind s
Ġbl ind
ĠWohn zimmer
Ġmem ories
sprach ige
inst ance
fÃ¶rm igen
Ġwirtschaft liche
ĠErzÃ¤hl ung
Ã¤rt ner
Ġmaxim ale
ĠRaj on
ĠMuse en
ĠCapt ain
ĠberÃ¼cksicht igt
c ache
l ian
Ġd ad
at isch
re ll
ĠB ucht
Ġc ater
ig i
ĠK lin
ĠH appy
ach se
Ġk ill
art a
Ġch apter
Ġwe alth
ĠÃ¼ber gebenen
Ġsie gte
19 19
ite kt
ĠTe uf
Ġtra ce
Ġ7 9
ĠGr ill
pre uÃŁen
Ġwei ÃŁe
go ogle
Wh y
geord nete
Ġcap abilities
Ġmag n
Ġabsol ut
Ġprogramm ing
Ġhers elf
F ot
L ud
in ternal
Ġw asser
an ced
Ġb lau
ĠB ible
ĠP ink
ĠF uchs
ĠG Ã¶r
ot ive
Ġis rael
eb au
Ġr umÃ¤n
op ed
ne ys
Ġvor der
Ġen han
ĠLand rat
new Line
ĠGew inner
Ġgef Ã¤r
Ġbed s
Ġess ays
Ġneg ot
ĠDir igent
ĠFreis ing
C LASS
m Ã¤nn
ĠB uk
Ġc tx
st Ã¤rke
Ã¤ nen
ĠL ack
Ġre venue
ĠZ ert
Ġver p
ei zer
Ġ18 57
ĠDe kor
ĠLand tags
Ġ7 50
Ġste igt
Ġange kÃ¼nd
Ġbesch loss
Ġpass ende
If c
ĠHil f
verb indungen
UN G
Ġherv orge
ĠImp ro
Dat abase
Ġsubmit ted
Ġstaat lichen
Ġausgeb ildet
Ġincor por
Ġhinzuge fÃ¼gt
: "
Y es
g Ã¤
w id
Î ±
Ġt ut
Ġw Ã¤chst
Ġe g
ĠM asse
ĠD imension
ĠL aser
ein kommen
Ġge kauft
ĠO K
ern t
omm y
20 21
ĠGe fÃ¼
ĠVor name
Ġbest immen
An fang
Ġel ig
pla ys
con f
ĠMed ik
ĠProdu ct
ĠHar vard
gef angen
Ġclos ely
ĠDel hi
Ġleben s
Ġverste ht
Ġbege g
Ġearn ed
ĠAdmin istr
ĠMov ie
Ġextre me
B us
J a
M ass
P ORT
T M
l on
Ã¼ sten
ĠD ak
ĠD ress
Ġl adies
Ġfor ced
ĠTe ich
ĠWe iler
ĠSchw ed
bar ung
ott es
ĠTra ck
stÃ¤nd ig
Ġmark ed
fra uen
ĠText il
ĠKind heit
Ġausgest rahlt
Ġstre ets
Fr ame
Ġhop ing
ĠGeschle chts
O UT
Ã ī
Ġa men
Ġs ending
ar is
ĠP le
ĠK ate
ĠK av
ĠL anc
and in
ĠN ut
ĠO ste
ĠO berg
ĠZ er
ien e
ne uer
ĠAn im
Ġsch eme
Ġch art
ĠVor stellungen
Con stant
Ġloc ale
ĠHo uston
Ġperson ally
ĠChar ts
ES CO
zir ke
Ġspan ischer
Ġausgew iesen
ĠSign al
htt ps
Ġhighl ight
ĠeigenstÃ¤nd ige
ĠSecret ary
Ġprincip les
R ot
l ov
p ower
ge mÃ¤ÃŁ
Ġh ind
Ġh urt
ĠG P
sch Ã¤d
Ġg aben
Ġg ros
ĠL etter
if ff
ers te
ĠSch atz
ĠIn tel
Ġpro tocol
ĠAn satz
ĠTe en
cl usive
ĠPar ad
ĠSo ft
Ġrem ark
ĠBet reuung
Ġentwick elten
Ġgewann en
198 1
ĠDesign s
kn Ã¼p
Welt meister
ĠRem ote
ĠPsych ologie
ĊĠĠĠĠĠĠĠĠĠĠĠĠĠĠĠĠĠĠĠĠĠĠĠĠĠĠĠĠĠĠĠĠĠĠĠĠĠĠĠĠĠĠĠĠĠĠĠĠ ĠĠĠĠĠĠĠĠĠĠĠĠĠĠĠĠ
Ġqualifiz ierte
ĠdÃ¤n ischen
Ġkauf te
ĠBeteil igung
D okument
E hren
F eld
f Ã¤nger
Ġt s
ĠS v
ĠS ten
ĠK eit
Ġg ross
Ġan grenzen
ib a
Ġle hrte
Ġ18 59
ian z
ĠSe ver
Ġad op
iter ran
Ġlie ber
Ġ12 00
Ġseit her
ĠArbeit nehmer
Ġcons ist
ffe kt
ĠNord amerika
ĠSÃ¼d afrika
Ġtrans lation
ĠPrÃ¤ sent
ĠHar ald
Ġlet ters
Ġaufge teilt
zy linder
Ġresearch ers
zÃ¼ gen
ĠPorn o
ĠNationalsozial isten
Ġcrow d
Mem ory
ĠWupp ertal
Ġbewe gt
O k
W eiÃŁ
c ut
w irt
ie ge
Ġp oker
ĠF unction
ĠC ON
Ġbe auf
op es
ĠIn fe
Ġle ts
lo hn
ĠSe attle
iss a
Ġper mission
chn ungs
ĠEx pression
Ġbek le
Ġger ingen
Ġzusammen gef
Ġrest r
ĠBrit ain
Ġcommon ly
Ġvari able
Ġcirc umst
Ġrequ ested
friend ly
ĠKel ly
Ġwire less
B ern
F uÃŁ
p fe
x i
ĠS qu
Ġv intage
ĠB ug
ĠM az
ĠD ess
ĠL Ã¼n
ĠJ ess
ag net
pe te
Ġsich ern
sp reis
Ġse quence
tw ork
Ġgen e
Ġnoch mals
ĠSo ul
ĠGesch lecht
ĠGra nde
ĠQu ality
ĠFre md
ĠTra il
Ġass um
Ġdec ade
sport ler
ĠAss istent
Ġfac es
Ġenter tain
ĠZeich nungen
Ste p
Ġfinanz iellen
ĠPubl ishing
angeb ote
Ġil legal
Ġoccur red
Ġscr atch
Ġmensch lichen
ĠplÃ¶tz lich
E st
L uther
m esse
Ġp hen
ĠD oc
Ġ1 13
um ph
Ġl aden
ier re
Ġan gew
Ġde leg
Ġcom pr
Ã¤hr en
Ġprodu cing
Er zeugt
ĠArbeit sk
ĠRes ort
ĠPhil ip
Ġbed ient
Mod ell
cont ainer
Ġconf ident
Ġern annte
Ġerf Ã¤hrt
ĠmilitÃ¤r ischen
ĠOpt im
ĠiP ad
D oppel
F rÃ¼
P rÃ¼
l och
as sten
Ġin tel
Ġder selben
om ing
ĠK riterien
sch el
Ġfor g
ag entur
ru gen
ĠBe frei
uld a
Ġ9 4
hand elt
ĠInst anz
Ġgra u
ĠDr ama
ĠOff iz
ĠEd in
ĠÃĦ m
bed ded
ĠJournal isten
Stand ard
ĠAnn ual
Ġeurop Ã¤ische
ĠMount ains
ĠPrem ium
Hol der
Ġsup erv
Cert ificate
C enter
N a
c atch
n ischen
p iegel
t ages
le ton
ic ted
ĠF la
ĠG ift
ĠH us
ĠR Ã¼
Ġl oy
Ġge Ã¶ffnet
eb o
ĠIn haber
erk raft
ph ys
Ġro se
sk ar
ĠGer a
pl us
Ġprof iles
Ġcar pet
ĠWil helms
war f
ĠDienst ag
Ġstat istics
Ġaddress es
Ġkosten lose
lemen ted
Ġvalid ate
ĠQue ens
Ġappe al
ĠElect ric
quis ition
temper atur
E U
f unction
r unden
Ġd icht
ar ently
ĠS G
ĠB uen
ĠT ol
et a
Ġk onserv
Ġr ichtet
19 40
per rt
Ã© d
ĠMon ey
ĠGrund schule
Ġvis ible
ĠReich stag
ĠfrÃ¼ here
wor ld
Ġocc as
Ġtreat ments
ĠEhe mann
esh old
Ġentire ly
sequ ent
Ġaccommod ation
ĠProz esse
ĠEber hard
Ġstyl ish
Ġgebra ucht
Ġeindeut ig
B uf
F ont
O pt
R und
S ite
k Ã¼nfte
n umber
v ik
y ers
Ġa cknow
Ġw rap
ĠH allen
Ġl yr
ĠJ Ã¼d
ĠZ DF
og y
qu ellen
Ġall gemeine
hl on
mp ath
pro b
ĠDies el
OR D
Ġrequest s
IC E
ĠMÃ¤n nchen
vis it
Ġfal sch
Wil helm
Ġbeobach tet
INST ANCE
B atch
E ben
I AL
w enn
in de
Ġs auber
ĠS D
un ters
Ġe ase
Ġh orn
ĠW als
ĠR af
ĠC ock
ĠN utzen
ĠSt yle
os es
Ġ18 56
An gabe
Ġprov en
ĠCon c
Ġgu idance
Ġander erseits
ograf ische
str asse
Ã¤us ch
Ġcover ing
Group s
ĠMa ÃŁe
ĠDec or
ĠLang uage
fried hof
ĠPop ular
ĠGesetz es
loc ation
ipend ium
S Ã¤nger
s i
at in
Ġw ies
Ġb anks
un nen
Ġf ran
ĠA sp
st oÃŁ
ĠM ale
ĠF ly
ĠG ent
ĠH ugh
ĠC C
ĠSie ge
Ġ10 1
Ġbu cket
arb rÃ¼cken
ĠBi ographie
Ġadv oc
Ġref resh
lÃ¤nd ern
ĠHistor ic
Ġcamp us
Ġrespons es
Ġregion alen
bas is
Ġsitu ated
z ies
it led
Ġb Ã¼rger
ĠB ret
st unden
ĠM is
ĠP L
Ġein erseits
ĠH imm
sch i
Ġk ommerziel
ann over
Ġhe aling
ĠDe kan
ho b
Ġent decken
tell te
ĠAb satz
ren ner
ĠFl Ã¼ss
Res olver
iste te
Ġgesch Ã¼tz
ĠVol ume
ĊĠĠĠĠĠĠĠĠĠĠĠĠĠĠĠĠĠĠĠĠĠĠĠĠĠĠĠĠĠĠĠĠ ĠĠĠĠĠĠĠ
ĠIde al
ĠCal endar
ĠVe ter
ĠPrinz essin
kathol ischen
ĠMas ters
Vis ible
Sow jet
T erm
h Ã¤l
Ġb id
Ġv ollen
Ġv irus
am an
ĠF lex
ĠE mm
ĠE asy
Ġl Ã¤nd
Ġer e
ĠU C
ĠIn fo
Ġaus gestellt
ine a
ĠVer leihung
19 72
Ġum gewandelt
ĠEin zugs
Ġvor Ã¼ber
ĠTe ch
mit te
Ġ8 3
Ġfin ance
ĠGem Ã¼se
ĠKon stantin
Ġgesch ickt
Ge gen
ĠĊĠĊ ĠĊĠĊ
Reg ie
ĠverfÃ¼ gte
ĠRet urn
Ġimmed iate
ĠMach ine
ĠVerteid igung
ĠSchlaf zimmer
ĠFF DC
izont al
ĠInstall ation
ĠFilmp rodu
Ġcris is
N ummer
T F
c ms
p us
re ff
Ġin folge
st es
ĠD Ã¼r
ĠF iction
ĠH ass
Ġg rant
ĠR unden
ĠC onn
ĠN ort
Ġer ober
Ġge leitet
Ã¼r mer
Ġr ating
ungs ort
Ã¤t tern
19 25
Ġtr im
add y
Ġdesign ers
Ġass ociation
Ġgener ated
ĠMer cedes
ĠFlor a
stehen den
ĠGlas gow
ĠSpr ung
prof essor
ommiss ar
. '
K S
L ear
M ein
N et
m ers
Ġd ual
Ġw ann
hr ase
ĠL isa
if ies
Ġden ken
ok o
Ġunter lag
ĠBer ichte
Ġro les
ĠGeb Ã¤uden
ĠJan eiro
ĠHand lungs
Ġbl end
Ġbook ing
Ġgem Ã¼t
Ġnational sozial
196 8
ĠLaw rence
Ġplatform s
Ġengag iert
Ġphotograph s
Ġerheb lich
franzÃ¶s isch
ĠfÃ¶rder n
ĠD ien
ĠD orn
Ġh ate
am tes
ĠW etz
ĠW ester
ĠR ak
ver Ã¶ffentlich
th at
Ġver folgt
ĠEr be
Ġsp ark
19 22
19 76
ac c
St a
reich es
ĠAb wehr
ins ichtlich
Er stellt
ĠSpiel ern
15 0
schl Ã¼ssel
buch autor
ĠDurch schnitts
Ġerreich bar
klÃ¤r t
ĠAnt ike
ĠTro cken
rÃ¤n ke
Ġdivers en
Ass ign
ĠInstr umente
Ġevangel ische
ĠTenn essee
ĠAT P
ĠDrag on
Ġbrill iant
s inn
Ġd ivision
ĠS EO
Ġn utzt
ĠT Ã¤ter
ĠP hoenix
ĠG B
ra ph
ĠR auch
ĠC hal
Ġl as
os se
ik eln
ver w
Ġres et
ĠLe er
ĠEx emplare
ĠZw ar
fo hlen
Ġem otion
Ġcoun sel
Ġfact s
ĠSÃ¼ ÃŁ
gram me
Produ ktion
Ġkont akt
Ġrepla ced
ĠArchÃ¤ ologie
ĠVoraus setzungen
Ġworkshe ets
prec ated
Ġeingew eiht
h attan
o a
Ġs aving
Ġm erk
Ġh art
Ġh ole
de f
ĠĠĠĠĠĠĠĠ ĠĠĠĠĠĠĠ
Ġto k
ir r
Ġge liefert
sp h
nen nung
19 79
19 44
Ġvor kommen
ĠWe is
Ġbes ter
Ġ0 3
Ġtr ick
Ar gs
Ġthem es
vent ional
ĠHol mes
Ã¤ll ig
bed arf
ĠSol utions
ĠAnfang s
ĠLu is
Ġconc ert
ĠMiss issippi
Ġreport ing
fÃ¶rm ige
Rem ote
ĠAP I
ĠÃĦnder ung
ĠHarr is
ĠTai wan
Dav id
Ġgg f
" ),
G R
f ire
ĠA kte
il deten
Ġh ydro
ĠG az
ra ul
ĠC off
ĠN an
ĠZ eile
ĠEr gÃ¤nz
19 37
ĠCh Ã¢
Ġad van
Ġte ch
ĠBer ger
Ġ9 1
Ġfol der
ĠTr ennung
uck et
Ġletz tlich
figur en
Ġnie mand
ĠUN ESCO
Ġdiv or
Ġfair ly
ĠWeimar er
ĠSchÃ¼l ern
ĠGord on
G ymnasium
K ilometer
T ok
b ian
k ular
p il
ĠA uÃŁ
Ġ1 14
ĠT ool
ĠF ame
ĠE F
ĠZ wer
ĠAus schuss
par ameter
Ġ8 2
ĠAd ams
off er
lÃ¤ s
Ġsub st
Ġac id
other apie
mÃ¤ cht
ĠDis play
Ġhol idays
ĠNeu zeit
Vor pommern
Ġprim arily
ĠAbs ol
Ġrefer red
ĠFass ade
wir ken
Ġord entlich
Lin ie
ĀĀ ĀĀ
Ġcerem ony
P ark
V R
Ġd auert
Ġs Ã¼
ĠS ara
Ã¼ tt
ĠT alk
ĠR i
ĠN ature
ĠJ oin
ier bar
Ġst ab
ĠSch Ã¤d
ĠAn other
ĠAr rays
19 10
ĠEn kel
ĠLand gemeinde
Pro gress
ron en
ewe gung
schutz gebiet
Ġstor ed
Ġaufge geben
Ġant icip
ĠRober ts
ĠExper iment
Arch Ã¤
Ġak adem
Ġfung ierte
z es
Ġd ental
as ters
ic ts
ed u
ĠL E
ĠC ut
Ġre produ
ow itz
ue ft
ĠDe cken
Ġent stamm
Ġman chen
ĠCh ange
Ġsupp liers
Ġcons istent
bes te
akes pe
Ġstar tet
ĠauÃŁer gewÃ¶hn
ĠgrÃ¶ÃŁten teils
Ġbedeut ende
Ġerziel en
ĠEt appe
Ġindustr ies
Ġpoln ischer
Ġverhinder t
Ġlands cap
ĠDemokrat ischen
Ġeigent lichen
? "
M apper
S ION
w ass
al teten
Ġv ib
ro ff
Ġund ert
Ġim pression
Ġauf merksam
iz able
19 56
erv ed
ĠMar io
ĠNe uk
Ġste uer
Ġno ted
ĠSta ates
Ġmod ified
ĠChar lie
Ġeing est
ĠPat ent
Ġkon stru
ĠAnt arkt
Ph ys
Ġjoin ing
kor de
Part ition
FI LE
ĠKer amik
Ġbegeister t
H Ã¶
R ole
U ST
d ienste
p ed
Ġp ad
Ġc er
Ġc rypt
ĠT ib
ĠC ir
ach tet
ĠJ ay
ver arbeitung
ak ten
Ġ18 58
19 29
Ġher o
ĠBo ys
ĠHaupt dar
ĠKom fort
ĠZe ilen
ĠPan el
Ġtw enty
Gr id
Ġchrist lichen
abil itÃ¤t
Ġelektr ische
Ġvolunte er
ĠbeschÃ¤d igt
I hre
M s
M AT
e u
j ack
k ov
t ask
Ñ Į
ĠS itze
ĠM ob
ĠE cht
ĠR ied
ĠN elson
ow o
Ġpro spe
ĠBe an
lo h
Ġman che
ĠSe gel
ober flÃ¤che
Ġhand ling
tes te
Ġpolit ics
Ġprom ise
Ġfac ulty
Ġhead s
trÃ¤ gen
ĠKle idung
gesetz es
ĠSin f
Ġmer ch
ĠHy per
Ġconcern ing
ĠPublik ationen
Column s
Ġlos ing
ĠlÃ¤ng ere
Franz ose
ĠGemeinder at
ĠHildes heim
O l
R ennen
Ġt ill
Ġs hr
an ke
ĠA la
Ġh aus
ĠK ohle
Ġg lo
Ġer a
Ã¼r tel
id al
Ġhe ating
Ġ18 55
be y
ĠMar in
Ġ8 6
Ġges ichert
ĠÂ ©
Ġverb lieben
ĠFe atures
Ġatt orney
Ġschn elle
ĠZe ug
Ġport ion
Ã§ a
oe a
ĠBill y
Ġumfass ende
Ġbedroom s
Ġexpla ined
uert o
ĠJos h
Ġattack s
Ãĸsterreich er
Ġsav ings
ĠMargare t
Ġbon us
âĸ Ī
g nung
g alerie
h ut
ĠS amen
ĠB ush
ĠH ous
lich ten
ĠSt ationen
Ã¼r zen
ĠO hr
men ted
ĠVer f
ant a
Ġch ose
Ã¤t igung
ĠAb stieg
ĠLand gericht
imm ern
Ġstr ip
ĠVerb reit
umm y
ategor ie
ĠBewe is
Fe atures
kr ise
Ġwissenschaft licher
Ġbedeutend sten
Ġaccompl ish
Ġverab schie
Ġehren amt
Ġfasc in
ĠUrauf fÃ¼hrung
D uring
E vents
M erk
R ight
Î ¿
Ļ Ĥ
he ast
ĠS H
ĠA ktionen
Ġo cean
Ġ1 19
ĠT O
ĠP ension
ĠF ive
ĠG ay
ĠE D
ĠK ot
ĠN ash
id ad
Ġis lam
ĠSch enk
ĠAr ena
ĠNe ug
Pro file
Ġdar stellen
ĠGesch enk
Ġcol ours
Ġ% )
ĠAt tra
Ġben utzen
ĠStand ards
ĠGeneral major
Ã¨ res
ĠJust ice
Ġclos ing
hers tellung
Ġdiagn ost
ĠLear ning
ĠFinn land
Ġbayer ischen
B ay
G lobal
h aar
Ġt or
ie hen
Ġm ask
ĠT ODO
ber gen
Ġer g
sp rachen
Ġ18 54
19 28
ĠVor les
ĠPar allel
ĠSh are
Ġsur f
leit ungen
Ġfest gestellt
Ġbr ut
ĠWohn haus
press ed
Ġinstall iert
Ġdeal ing
ĠHu bert
ĠHash Set
ĠBesatz ung
Ġabgeb rochen
Ġspezial isiert
1 20
b uf
h yd
ĠS ony
Ġp itch
ĠF ortun
ĠF erner
ĠH i
Ġl ies
19 26
urg ical
ĠMar cel
rif fe
pl Ã¤tzen
alen ted
AR N
Ġclass Name
pos al
Not ification
UT F
Ġdiscuss ed
ĠProgram me
Ġdigit alen
shaus en
Ġsurpr ised
ĠErwachsen en
ĠBundesver dienstkreuz
A BC
C opy
F ach
P T
S L
X X
Ġd ust
re quire
Ġf ru
Ġm un
ĠA ra
ol ith
ut a
om y
ĠL iss
ĠL yn
Ġl Ã¶sen
ĠN HL
ĠU E
ĠSch u
af eln
ĠVer handlungen
ap olis
19 23
ĠMar x
rÃ¤ um
Ġrec on
Ġag ents
Ġdown town
ĠFe ucht
Sie ger
Ġteil en
ĠSan ierung
Ġmult ip
ĠTrans fer
ĠEmp fehl
ĠKat zen
ĠRos a
Ġbox es
Ġdisplay ed
ĠbeschÃ¤ft igte
ĠFeder ation
ĠTschech os
Ġjud ge
prech ung
ĠEdin burgh
M T
g ig
l Ã¶sen
m Ã¤r
n isch
s Ã¼d
it ations
as ie
ĠB B
ĠB lat
ĠF unktions
Ġto urn
ĠW ettbew
ĠH Ã¤uf
ĠV as
ĠSt orm
ver leihung
ah o
Ġun able
ok omot
Ġat tr
ĠTh ose
erk rank
Re ich
Ġgo ogle
ĠNe v
Ġfr isch
ĠOber Ã¶sterreich
Ġsm ile
eiter ten
Ġpat io
gra ph
ĠAk adem
Ġret ire
Ã¤m mer
Ġdre imal
Ġhappen ing
Ġbem Ã¼
Ġbere chnet
ĠVize prÃ¤sident
Ġrob ust
#### ####
Ġdistin ct
2 50
E xtra
W o
d ig
k am
l Ã¶s
m il
m utter
n acht
Ġw ander
Ġb ass
il o
Ġp our
ĠM Ã¼ll
ĠF usion
ĠG ieÃŁen
ĠH im
Ġk ar
ĠAn bau
ite e
Ġte lefon
amm lungen
ĠQu ick
ĠPf licht
ĠOber bÃ¼rgermeister
ĠMann es
Ġcolle ctions
Ġter min
Ġed it
ĠAg ain
Ġentfern en
ĠFrÃ¼h stÃ¼ck
Ġcelebr ation
Exec utor
ĠpreuÃŁ ischer
veranstalt ungen
ĠDet roit
ĠInstitution en
Kirchen gebÃ¤ude
instit ut
Ġgarant iert
L Y
S aint
T hr
er ben
Ġm g
ĠP ersÃ¶nlichkeiten
ĠG ard
ĠK ings
ĠH ob
Ġth esis
Ġauf gel
Ġle ague
ĠEin fach
pf el
Ġpl ugin
iner y
ĠBrÃ¼ ssel
ĠSw iss
ĠAuss agen
ĠGlaub en
ĠmilitÃ¤r ische
Ġdrink ing
ĠVorder grund
spar tei
ĠPremier minister
Absol ute
Ġkorre kt
F T
K r
P rÃ¤
R hein
T wo
Ġw itness
Ġb ars
ĠA tem
ĠG Ã¶t
ĠR ÃŃo
Ġge g
Ġr Ã¤um
se a
ĠRe ferenz
Ġor ig
Ġso il
19 35
erv ers
zeit lich
eth yl
Ã¤ch se
ĠQu ell
rag ment
ĠEl f
ĠSc ript
ĠKinder garten
Ġsu c
ĠGrÃ¼ nde
ĠBro t
ĠZe ugen
geord neten
gar ter
ĠAp othe
ĠVorsitzen de
Ġinteress iert
Names pace
Child ren
Ġstaat liche
ĠSmart phone
Ġkanad ischen
Hal b
Ġforder te
Ġdram atic
Ġrout ine
Ġmur der
ĠausdrÃ¼ck lich
ĠIra q
K ont
M IN
S aison
l ernen
v ision
Â ¼
Ġa ims
Ġs itzt
ĠB aut
ig ate
ĠF avor
Ġg aming
ĠEr stellung
Ġ18 14
Ġbes tellt
ĠFl ach
Ġgew idmet
Ġfin est
ash i
Ġreg ions
con nection
ps ych
ĠÂ °
ĠHaupt bahnhof
Ġlang uages
Ġreal ized
zentr ums
ĠForsch ungen
ĠAlbum s
Med ien
Ġtrack ing
hab t
Ġerz ielt
Ġchem ical
ĠSym pt
icul um
================ ================
Ġestim ated
! âĢĿ
en ke
ĠS or
Ġb uff
ge wer
ro tt
ĠM E
Ã¤ hne
ĠD Ã¼
ut ung
ĠF utter
ĠF DP
ir s
ĠV ancouver
ein richtungen
ow ed
Ġun us
Ġpro ceed
Ġ18 18
Ġ18 52
19 05
ĠAl lein
ac on
Re al
ĠVor feld
fin det
ĠInd ustry
ĠBet riebe
Ġpublic ation
Ġdec la
ĠJohn ny
ĠWohn ungen
ĠauÃŁer ord
ĠHeimat stadt
brÃ¼ ck
ĠzusÃ¤tz lichen
Pol y
Ġcrit ic
ĠKomment are
wach ung
Meta Data
ĠkÃ¼ mm
K ind
S ol
Ġb ug
Ġv end
ĠB ureau
ĠM Ã¼hlen
ĠM Ã¼ndung
ĠD EL
ĠL ith
ĠZ it
ĠSch ra
Ġwor se
ĠSe pt
ail ing
Ġnur sing
ser ien
Ġtra g
Ġev olution
Ġcont ents
ĠGra ham
bo ards
Ver walt
ĠMin er
ĠCon cert
Ġsl ots
ĠMor gan
ĠFreund schaft
ĠDres dner
Ġkom ment
Aut o
ĠEigent um
ĠBrook lyn
ĠKent ucky
Ġagr ic
. ;
1 000
B rit
G reat
V iele
W M
st an
ĠT otal
ĠW are
ĠH ud
sch lossen
ĠR uth
Ġre putation
Ġver ring
Ġver zeichnet
Ġr ib
ah ne
Ġab zu
Ġle iden
Ġgen der
ĠQu art
Ġmin ing
LE D
ĠMo or
Ġperfe kte
US A
Ġabge leitet
Ġbuy ers
ĠBru ce
Lo ad
ĠScott ish
dis ziplin
Ġachie ved
Ġweib liche
ĠBit coin
ĠInnov ation
ĠRez ension
D isc
H ers
H istory
S pr
d ichte
g ate
l ia
p um
t akt
Ã ²
Ġ 000
er z
ch ens
Ġf inger
Ġf emin
ĠA gn
ĠB og
Ġp it
Ġh ack
ig nete
ĠF itz
ĠG itarre
ĠK atal
ĠW id
ĠV iv
Ġan th
Ġfor ever
Ġr um
Ġcon cepts
ip ts
Ġ" )
Ġwor st
ook ie
teil ten
az ier
sh ut
fl Ã¼sse
ĠBes tellung
ĠÃľber leben
ĠVers icher
ĠMittel meer
ĠAss istant
glieder ung
ĠCom ments
Ġport folio
Ġrep airs
ĠKind es
ĠWeiter lesen
ĠWel come
Ġbetre ff
Ġarg uments
Ġpropos al
ĠReihen folge
Ġsorg te
ĠWiederauf bau
C ategory
F k
M el
P okal
S ql
k ter
Ġ1 17
ig ern
ic ide
ĠG ill
ĠN ak
ow ers
ei ra
se ction
get Parent
Ġle istungs
19 77
Ġunter teilt
ors es
ĠDeutsch es
Ġinter active
ĠNord west
schlieÃŁ en
ĠMag ic
uff ix
Ġeinge gliedert
Sp an
Ġimp ossible
plan ung
ĠMr s
Supp ort
ĠprÃ¤sent ieren
match er
Ġspect ac
pom oea
Ġdenkmal geschÃ¼tz
Z entr
f ly
is men
al id
ĠS U
ur d
un sten
us a
ol ia
Ġse ed
Ġle ichte
als ieger
mann schaften
min a
ĠSte iermark
Sch on
Al though
ĠCon fig
Ġerw achsen
ĠÃĦ l
Ġkon zip
ops is
ĠWinter spiele
Ġinvolv es
Ġsuggest ions
Ġschwed ische
PRO PER
parse Int
Ġnied rig
ĠAnal ysis
Servlet Request
Ġsustain able
ĠBapt ist
A U
G old
h ot
nd rom
at iver
al ign
Ġp ocket
ĠD ial
ĠD ob
Ġth in
ab on
ĠSt ufe
ĠO v
Ġver standen
ĠIn put
ĠIn itial
19 31
ĠSe kund
Ã¶l be
Ġgeb unden
ĠMed ium
Mit te
uk le
Ġeng age
SS R
schein lichkeit
Ġprote in
196 5
Ġfocus es
Ġnieder lÃ¤ndischer
ĠBahnhof s
Ġgek ennzeichnet
VAL ID
lehn ung
ĠIdent itÃ¤t
Ġcompar ison
Ġvolunte ers
ĠRess ourcen
Ġfir ms
ĠInse kten
L ife
L INE
n ien
Ġb are
Ġe ignet
ĠV W
ĠJ en
ein richtung
ĠSch ult
ĠSch mal
se arch
tr itts
ial is
ĠJahr gang
ĠJahr buch
Ġ18 13
Ġar ms
Ġfe iern
Ġges tern
Ġjust ice
Sch l
Ġvers orgt
ĠMon uments
pf alz
Ġsk i
sw itch
By Comparator
Ġoper ator
ĠThere fore
stre ifen
zy kl
ĠErn Ã¤hrung
ĠMinister ium
ĠHeil bronn
Produ ct
Arch itektur
Ġcirc uit
Ġinj uries
L ive
Z wei
c ole
m ass
t to
z esse
Ġd raft
te ine
Ġc enters
ĠF ine
ĠH unter
ĠR acing
ĠIn tens
ard in
ĠSp a
ĠUn i
19 34
ĠSe ction
Ex press
eng ers
Ġoff ices
Ġrec re
min ute
ĠAd vis
ĠAd vanced
Ġem b
wohn ung
bl og
ĠHel den
sicht lich
ĠTyp es
ĠGed icht
ĠCas a
ĠTurn er
ĠZwe ig
ĠHerzog tum
bra un
ĠViel falt
Ġspan ische
owa ÅĤ
komp lex
Ġguarante ed
ĠThr on
ĠInternets eite
( !
Z ug
s id
u in
Ä Ĺ
Ġt oler
Ġs inger
as et
Ġer lebte
ĠIn halts
ate au
Ġwh ilst
Ġsch la
19 36
19 73
ĠTe e
ock e
ĠAd l
ĠGra y
Sch utz
Ġadd s
asch a
Ġdiffer ences
Ġausge prÃ¤
ĠPart ien
ĠPer fect
Ġbesonder er
ĠBerg bau
Ġinner en
ĠSel f
ĠÃ¶ff nen
Ġstay ing
kle idung
ĠSter ne
resource GroupName
ĠErschein ung
tok oll
Ã¤nk ischen
ĠÃ¶rt lichen
Ġdut y
ĠGemark ung
B ank
J J
N E
W olf
m achen
n ord
Ġt ack
Ġf esten
Ġin tell
Ġo lymp
Ã¤ p
ĠF ett
ĠR iv
ĠV Ã¶gel
Ġal arm
ou is
op ing
og ramm
ste p
end el
ĠRe ktor
Ġme als
ungs s
enn zeichen
ian er
ĠNach kommen
Ġbut t
ĠSchw ein
Ġcont aining
Ġint ent
Ġag greg
gew alt
schie ÃŁen
Ġact s
Ġdire ctions
ĠStud y
schl Ã¼sse
ohl en
ĠBas eball
Ġdi am
ĠPlan et
ĠRel ief
196 6
dr ama
fÃ¤ll t
Ġregul ations
ĠSter nen
zub auen
Ġincreasing ly
Ġauthent ic
ĠViz emeister
ĠMultic ast
andin av
G L
K ritik
T ex
w atch
ĠS I
ĠS ier
st all
ĠD ritt
ig ran
ra ce
ĠE ro
ĠK ick
ĠK han
ten se
Ġl ob
ir i
ĠSt reich
se Exception
Ġsch ema
Ġman ip
ĠSe kretÃ¤r
Ex per
Ã¼ck t
ĠUnter schiede
ogra fen
Ġrec y
Ġsc ores
ĠEx change
ĠMet ro
ĠPhil harm
ĠReich en
ias ieger
Ġcontrol led
ĠTex ten
Ġop ens
opt ions
ĠPhys iker
Ġrom antic
Vol ks
ĠAtlant ic
Ġcomb ine
ĠErzÃ¤hl ungen
Ġzusammengef asst
g Ã¤ng
z elt
Ġd ent
or us
ĠS ix
Ġm s
Ġo ven
ĠB irth
st ark
ĠM D
ĠD O
Ġ1 12
ĠP oker
ĠG reek
ĠH els
ĠH air
ĠL ic
ĠN atÃ¼rlich
Ġr asch
ag ger
ag ues
end ant
ov es
Ġ18 46
19 12
ĠEx port
ograph ischen
ĠOber liga
Ġfl our
Ġcheck ed
ĠTo uch
Ġlaw yer
196 3
hÃ¶ hung
ĠOk lahoma
Ġserious ly
ĠSus an
Ġprefer red
Ġsus p
Ġsubs cription
ĠmaÃŁ geblich
m ung
p Ã¤dagoge
ĠS ey
ĠA telier
Ġ1 18
ĠT akt
ĠP ause
ĠF uss
Ġbe weg
and ra
Ġaus einander
ĠRe chnung
ĠAn walt
Ġhe av
ĠSp er
ĠBe cken
auf lÃ¶sung
ĠEx empl
ĠMan hattan
ĠZw eite
Ġresult ing
ĠAt tribute
Ġter r
ĠErn est
196 9
Ġlov ing
Ġassist ant
Char acter
Ġbelieb t
Ġdet aill
Art ifact
ĠVerkauf s
Ġhum or
pie ce
ĠBerat ungs
, -
7 00
A ir
C le
D b
f isch
s ingle
Ġ á
ar ity
ĠS ob
ĠA B
ĠA V
ig ste
ĠP aper
ĠL ub
ber eiten
Ġk reis
Ġim per
Ġst amp
th ese
her it
ĠDe te
19 00
19 60
19 24
19 32
rÃ¤ der
cl udes
Ġtra fen
ĠGemein schafts
ĠMus lim
ĠCar ter
pla in
Ġevery where
ĠMin istry
ĠCon rad
vor stand
por ted
alle utnant
ĠGew Ã¤sser
ĠCo oper
anst alter
ĠSport ler
ĠKom Ã¶die
Mod us
ĠBro thers
Time Millis
Ġimpro ving
print StackTrace
Ġindividu ellen
ĠBewe gungs
Ġsug gested
usst sein
Ġporn o
Ġinde ed
ĠJob s
wal de
Comm on
Ġmusikal ische
ĠBlo od
ĠRis iko
K Ã¼nstler
h lich
n Ã¼tz
p ons
ch ain
Ġt iefer
le id
ro b
Ġ1 16
Ġg iant
ĠC u
Ġan gest
Ġge gangen
ok a
Ġso fa
Ġunter schieden
Ġres ort
ĠMe g
sh op
Ġgew inn
Ġtime out
ĠTr ip
Ġpl ug
We ek
ĠSÃ¼d ost
olv enz
ĠSchool s
Ġaufge hoben
Ġalong side
bor der
Ġlik ed
Ġauthor ity
ĠImp lement
gehen de
check EMail
Ġerk ennt
ĠLouis iana
ĠWell ness
ĠJon athan
ĠFranzÃ¶s isch
ĠArgentin ien
checkEMail Adresse
d re
e ah
f al
ch el
Ġt a
ĠB akter
el ly
ĠG ian
ĠG astr
ĠH ydro
ĠN ob
ĠN acional
ĠV ic
ag le
tr ess
Ġ18 20
19 21
oun try
Ġro te
ĠGra ce
hand els
Ġbesch rÃ¤nkt
ĠRed aktion
Ġstehen den
Ã¨ ne
ĠRel ations
Ġangeb lich
ĠTest ament
ĠPo et
ĠMary land
Ġfiel en
Ġexcl us
Ġempf angen
ĠErinner ungen
ĠWit we
ĠWik ipedia
inv oke
A p
F P
r ath
re port
ĠS ich
ĠS ind
Ġf its
ge ts
Ġv inyl
st iegs
de i
ĠF eb
ĠE valuation
ten nis
ĠSt imm
ĠSch r
ĠSch alt
op ath
Ġun known
ze ch
get Resource
ov o
ip se
19 27
ĠY outh
ĠAuf sichts
fol k
ĠString Buffer
Qu elle
Pro tocol
ĠVerb indungs
Ġpass ing
ĠSer ge
ĠHol y
ĠWerk zeug
Ġteil te
ĠBas il
Ġbas ically
sta ates
gef unden
Unter nehmer
Ġmat rix
Ġinform ed
Ġorganis ierte
lad imir
ĠCent ury
ĠFinanz ierung
ĠRÃ¤ um
ĠAuss icht
Ġsubject s
ĠSamm el
Ġsouth ern
ĠWeihn achten
ĠLieb lings
Ġmusikal ischen
Ġstrug gle
rac owaÅĤ
ĠjÃ¼nger en
information en
Ġdanger ous
Fk EMail
g inn
h igh
u ous
Ġd einen
at ively
ĠB anken
Ġh anging
ĠT ieren
ĠP ixel
Ġz o
ĠW esen
ĠL iver
ĠC ab
ĠJ immy
ĠZ ellen
ĠIn stead
sp lan
hn er
Ġ18 44
ho le
Ġcan cel
Ġres istance
fÃ¼hr ungs
Ġsupp lier
Ġdel ight
ĠBas ic
vert retung
ĠPal m
Ġcontrol s
Ġoffic ially
lemen s
kathol ische
Ġexter ior
Ġermor det
, .
D D
L ie
T schech
U pper
b rechen
h Ã¤ngt
r ament
is i
ĠA mp
ĠD ritten
ĠC oup
Ġdes ktop
ell ite
ĠDie t
Ġsch lÃ¤
ĠSp ons
19 41
Re pository
ock s
ĠAd v
bach s
Ġperson s
Ã¶st liche
ĠPrÃ¤ fektur
ĠPre c
Ġoper ated
Ġincre ases
wissenschaft lichen
ĠAg ent
Ġsim pl
ĠRen ov
fÃ¤l ischen
ĠSamm lungen
Ġinstru ction
Ġzweit es
Ġton ight
OUR CE
ĠBrow ser
Ġveranst altet
F OL
j on
u als
es tet
Ġs ick
Ġf iber
Ã¼ ten
ĠB elle
Ġp Content
ĠM au
ĠG PS
ĠC ape
ĠN Ã¶rd
tra cking
Ã¤ch ter
ĠSte ink
Ġgu idelines
Ġpass enden
fra gt
ĠBuch en
Ġeng agement
ĠPat ient
umn i
ĠPark platz
Ġir re
ĠLog o
Ġcommer ce
ĠNachbar gemeinden
ĠBlÃ¼ te
Valid ation
ĠFur ther
Ġsomew here
AuÃŁer dem
F Ã¼gt
G ar
b ig
b ald
o ft
Ġ Ã¤nderte
Ġb ay
Ġm apping
Ġn utzte
ĠF Ã¤lle
Ġz it
ĠH amp
Ġbe ob
Ġbe grÃ¼
ĠJ oy
ĠJ ason
pp el
ĠSch al
sp rechend
Ġcon stra
ide te
Ġent rance
Ġvor stellen
String Builder
Ġra cing
ĠMal aysia
aul ts
reib ungen
ĠIs lands
ĠAt las
str Ã¶m
ĠLin ux
ĠBesch luss
ĠTyp en
Ã¤mp fung
ĠFÃ¼hr ungs
Bau denkmal
Her r
Ġexpl oring
Ġdef ine
penden cies
iale kt
CON T
Ġign or
Ġfight ing
ĠEqu ipment
intend o
ĠSkulpt uren
ĠGeor ges
F loat
M aster
R itter
S etz
W appen
s ucht
re b
ĠS amsung
Ġb io
Ġb odies
Ġf ried
Ġin du
Ġm ad
Ġo vers
ĠB usch
st Ã¤dt
ĠG ibt
ĠH ahn
ĠR ace
Ġbe grÃ¼ndet
ĠSch ienen
Ġun expected
ast ing
ĠSe lect
par tei
ĠLe v
ister s
De vice
net te
ina e
gend a
bau werk
ĠStra hl
ĠWor ten
Ġreal isiert
Ġcheck ing
amb ling
ĠTour isten
sta ats
ibr aries
fred akteur
ĠRob inson
Ġleg it
zi ologie
ĠRegierungs bezirk
Ġslow ly
Ġexpla ins
Ġausger ichtet
Ġsamm eln
ĠMisch ung
Ġmittelalter lichen
Spl it
B ur
O s
k ong
Ã Ĥ
Ġ \"
Ġt um
at em
Ġw und
Ġb ild
ĠF Ã¤r
ĠI tem
ĠG lock
ĠG allen
ra iner
Ġto ys
em en
ĠL oth
ĠL LC
ĠC ommerce
ĠU k
igen en
Ġsp r
19 52
St op
Ġ4 50
ĠEn try
Ġcomp osition
use ppe
dem ann
Ġgew isse
Ġins ight
Ġany way
ĠPh ant
ĠBet racht
ĠProdu cts
Ġbed ro
ĠTag s
Ġerr ichteten
Ġrep ly
ĠJust in
ĠMa ine
pass te
ĠLoc ation
Ġlic ensed
OW N
Ġevalu ate
Top ic
Ġvict ory
ÅĦ ski
Ġscen es
Ġgeplan ten
B Y
m agazin
Ġin halt
ĠF lat
ĠK enntnis
ĠW iesen
ĠN oten
Ġan spruchs
Ġge prÃ¼ft
ĠSt Ã¤rke
Ġwar n
ĠAr g
ĠBe arbeitung
19 11
be griff
Ġman agers
Ġtr usted
ĠVor gang
ĠSchw estern
ious ly
ific ial
Ġmus cle
ĠVerb raucher
Ġhin weg
ĠKl ar
Ġac quire
Ġwant ing
Ġbr ush
Ġobject ive
Met rics
ĠStaats anwalt
fest ival
zwe ck
ĠVis it
onym ous
Ã¤rk ung
Ġlok ale
ĠSQL Exception
ĠFriend s
Ġanbie ten
Lud wig
A K
M D
S ong
U uid
V B
z ule
er d
Ġw estern
Ġe hr
Ġn ic
ĠT am
ĠT ell
ĠP ent
ĠK ast
ĠK roat
ĠK openhagen
Ġbe ziehen
Ġ2 20
Ġk ost
ĠSt immung
ik os
sp annung
Ġcon version
ru der
ac cept
ĠAus lands
pro ject
ott a
ĠAnd y
Ġfr ustr
Ġ[ ]
RE AD
AN T
ĠEnt ity
Ã¤uf e
Ġappro val
ĠOlymp ic
Ġcreat ivity
CO DE
ĠĠĠĠĠĠ ĉĉĉĉ
ĠVe ktor
Ġoffic ers
Ġleb end
Ġexec ution
Ġpan els
Ġrelig ion
ĠgefÃ¤hr det
Ġkeiner lei
ĠAlo is
ĠFranÃ§ ois
ĠSingap ore
Ġerkenn bar
Whe ther
1 10
h ungs
k ilometer
m essen
v ari
ĠB auf
Ġp a
ĠM Ã¤
ĠT ed
ĠG am
ĠR ib
eit her
Ġr iding
ah me
ĠVer leger
Ġch unk
iz ers
rie t
19 46
Ġes cape
ĠAl abama
Ã¼n scht
Ġreturn ing
arbeit ungs
An n
rag ung
Ob wohl
Ġass ign
AT OR
ĠVers ionen
Aus gabe
Ġerfolg ten
Ġgener ic
Ġlog in
Hand le
Pr int
produ zent
ogn ition
Ġdeliver ing
ĠKle ink
Ġintegr ation
Spe ichert
Ġgenau e
Ġinvolv ing
kan al
Ġbede ckt
Ġreason able
sc ale
ĠTur k
FI X
ĠPhot os
Ġzeich net
uum l
nor mal
Ġfla vor
ĠAx el
Ġwechs eln
ĠForts etzung
Greg or
T al
T itle
is lation
an aly
re de
ĠS alt
Ġc in
ĠM ine
om o
ĠC ool
ĠC ulture
Ġse ctions
ĠEr nennung
ĠSp enden
ĠÃ¼ber liefert
Ġsp ots
Ġ18 47
ĠAl ban
ĠSe ch
Ġpr ide
Ġpr ime
ĠZeit ungen
En vironment
Ã¶l k
Ġstud ied
ĠzurÃ¼ck kehr
ĠCon nection
ĠPe ace
ĠOn kel
Ġbr idge
Ġnun mehr
kon zept
Ġposs ibility
ĠFach werk
umb oldt
Ġintrodu ce
Ġsle e
ĠAth leten
Rel ig
Ġrecogn ition
Ġsech sten
Ġrechte ck
Dest ination
ĠPhill ips
ibil itÃ¤t
B este
E B
g it
g igen
g iving
Ġt alented
Ġf Ã¼hlen
Ġm ile
ro v
ĠP ommern
ĠI L
ĠI pomoea
ĠH aup
ĠR ade
ĠL il
ver ordnung
Ġver mitteln
In halt
ac cess
auf gaben
ĠBer Ã¼cksicht
cl usion
ĠSh akespe
Ġsu ite
ĠPer u
Ġpolit ischer
ĠGold medaille
Pr iv
ĠCal c
Ġregion ale
Ġevangel isch
Ger man
umin um
ĠQualif ikations
Ġhop es
Ġsem i
Pass word
" -
H or
W ahl
c us
c ade
f ranken
he ight
ĠS ay
ĠS ain
ĠB Ã¤r
Ġc ul
ĠT um
ĠT ower
ĠF aktoren
ĠW Ã¼nsche
ĠL O
Ġvon einander
Ġauf zu
Ġzu ges
ĠEr mitt
Ġyour s
ord nen
St orage
ĠAb tei
iet ies
Ġover w
ĠTr io
Ġger man
Ġart istic
AR Y
Ġeinfach er
IT E
Ġla ptop
čĊ čĊĉ
Ser ial
Ġpurch asing
Ġtravel ing
ĠBÃ¶ hmen
ĠSl ot
ĠEss ay
ĠPfer d
ĠEins Ã¤tze
Ġconven ience
Ġpassion ate
ĠDemokrat ie
Ġbelie ved
ĠClin ton
Ġregistr iert
ĠTats ache
ĠWurz eln
ĠVie h
Ham burg
ĠHawai i
Y ear
g ger
Ġd rain
at ial
ĠA sk
ĠB eine
ĠG ary
ĠC L
ĠC redit
Ġ18 51
pr im
ĠEin ladung
rei hen
Ġgew orfen
Pro ps
ĠBo ots
Ġgu ard
ĠĊĊ ĠĊĠĊ
Tra iner
Ġlist ings
ĠSol id
west lichen
196 7
Ġamer ican
ĠZust immung
Ġill ness
Mon th
Ġdur able
ĠNic ol
Famil ien
ĠPri ze
wander ung
ĠJahrzehn te
Ġcir ca
verl ust
L uft
N orth
f i
f ted
Ġ ul
Ġt one
an al
ge ist
us ten
Ġh ung
ĠF ulda
ĠW rest
Ġbe herr
Ġer zeugen
den ken
Ġre action
Ġfor th
ou pon
Ġauf nehmen
tr as
Ġj ene
ĠVer ordnung
Ġdurch ge
Ġen ables
iss er
(" /
Ġhier zu
ĠSc ient
ari us
Nach bar
Ġexp ansion
Met ric
Ġhol en
ĠSen ator
ĠKaiser reich
Ġnormal en
Ġcra ck
Art ikel
Ġdro pped
Rem ove
ĠNamens geber
ĠÃ¤uÃŁ eren
H K
N etz
Q UE
U RE
W R
f ein
k Ã¼nstler
u den
Ġd elta
Ġt ier
Ġf usion
Ã¼ chte
ĠT ap
ĠP O
ĠH enn
if l
Ġge folgt
Ġauf einander
Ġaus zu
ĠVer schw
Ġsp ray
oc al
19 49
19 57
ĠSe hr
Ġcomp act
Ġspe aker
haus er
ound ing
Ġsho ck
ĠHaus halt
str ateg
ĠSaison ende
ĠRad i
room s
ĠDo ctor
196 4
spe c
Ġhum ans
ĠFun c
ĠGesell schafts
Ġpul led
Ġinvent ory
H ey
I Z
L inks
h Ã¤nge
u der
Ġp or
ĠW ick
ĠR ights
ir aten
ĠV amp
ĠSch uss
ĠDe ep
Ġnew est
fe hler
ĠHer itage
Ġalle ged
lieÃŁ t
Un garn
Ã¤d te
Ch ina
ĠMon ster
ĠMed aille
Ġgef ragt
ĠWer ft
ĠNo Such
So zial
Ġredu ction
ĠhÃ¤uf iger
ĠSa arbrÃ¼cken
ĠHom osex
Ġstrength en
Ġpred ict
ĠFein d
Ġlauf enden
M r
h our
k andid
s endung
| |
ĠA hm
ĠB owl
Ġp ics
ig ert
ber ichte
Ġst range
ĠBe fest
19 59
19 42
19 47
ĠAus sehen
Ġro y
Ġtr ips
String Utils
Ġinter action
ĠWh ich
ĠHaus halte
Ġausge dehn
Ġrest lichen
ĠCD s
Ġfinanz ielle
wal ts
Ã± a
Ġult ra
ĠVertra uen
Ġsuffer ing
H H
H ave
K or
P G
S am
in ue
in itial
he bt
ĠD opp
ĠK unde
ĠL enn
Ġge zwungen
ĠSch um
ĠSch af
Ġse asons
In f
ens atz
Ġvor n
rÃ¼ der
Ġdo ctors
rÃ¤ g
ĠNach kriegs
Ġgen uine
ieren der
ĠSchw anger
ins atz
Ġgr amm
iver y
Ġdesign ing
ĠPe ak
Ġend ing
ĠSpe c
Ġchild hood
recht lichen
ĠRÃ¼ck tritt
ĠProble men
ĠKomp lex
ĠRem ember
ĠHeraus forderungen
Ġliter ally
ĠOk res
ĠEvangel ische
ĠEins Ã¤tzen
ĠWord Press
Ġce iling
ĠLeiden schaft
ĠBeam ten
Su ccess
ĠFrem den
ĠPersÃ¶n lichkeit
Ġcircumst ances
) (
F iction
c amp
m aster
Ġt ip
Ġw is
Ġb ow
Ġb ron
Ġf t
Ġf ifth
Ġn odes
ol stadt
ra ums
et wa
ĠC OM
ul se
Ġer fasst
Ġk lin
ĠSt rat
Ġdes c
Ġver me
Ġver stÃ¤nd
ĠVer pflicht
ia de
ring s
Ã¤r er
ĠMar athon
ĠNe apel
bar es
Ġges ammelt
Ġind oor
Ġfind est
Ġback up
Ġrest ore
Ġcr usher
Ġgirl friend
Ġlow est
Ġzwe ig
Date Time
IG N
Ġbeteil igte
Ġtag ged
ĠLy on
ĠPor sche
ĠWorks hop
Ġut ility
Ġverbess ert
verteid iger
Ġumf assen
Setz liste
D ivision
E V
e xt
ĠS ad
Ġm and
ro se
ĠK ok
ĠH yd
Ġg all
ĠC abin
ber gt
ĠSt ress
ĠSp alte
St ad
aw t
Ġob s
fahr ung
En ts
Ġinv alid
ĠVolks republik
ĠVe ctor
Ġwonder ing
ĠschÃ¶n sten
Ġprem ier
Ġchrist ian
Ġcarry ing
ĠUrs ache
ĠBist ums
Ġgesetz lichen
ĠGene hm
ĠDub lin
Bi ografie
ĠPlÃ¤ nen
Ġdurchschnitt liche
ĠEtw a
J ean
M oder
R and
l ab
Ġa er
ĠM ahl
ĠP oll
ĠF urniture
Ġre ichte
ct u
qu ote
Ġam p
Ġsch auen
Ġen ger
Ã¤nd igkeit
ĠSe ktion
mp os
rÃ¤ uch
tt a
ĠReg iment
ĠQu ad
ĠGer d
gew Ã¤chse
ON E
ipp e
ĠX box
ex ists
Ad min
ĠHol iday
Ġfound er
ux e
Ġprom pt
Ġsetz ten
Ġenc oding
bre ite
ĠStad ium
Ġinteress ant
ĠWettbewerb s
Ġil leg
ĠOpp osition
PAT H
âĸĪ âĸĪ
> ");
R aum
T or
g Ã¤nger
Ð ´
Ġt we
te or
Ġb elt
ig rant
ĠE L
ĠH Ã¤usern
ĠC afÃ©
ĠN ou
Ġal ias
Ġre iste
ne cht
Ġde kor
Ġde posit
Ġj en
ĠAr me
ĠPro jekts
Ã¶r n
ob s
ry ing
ĠAus gra
ĠBer eit
ĠUnter richts
iger te
att ing
Ġber ichtete
sk on
Ġwhen ever
wer ben
lÃ¤ ser
Ġdr inks
Ġperson als
Ġeinz us
ling ton
Ġdel ivers
Ġdevelop er
ĠWar schau
Ġmet adata
ĠBeg leit
Ġgem el
mark e
Ġless on
Ġunterschied licher
rist all
ĠSalz burger
Fl uss
ĠSchÃ¶n heit
fle isch
Ð¾Ð ²
ĠLuf tw
ĠZerst Ã¶rung
Tim estamp
ĠAuseinanders etzung
Ġneut ral
ĠDiÃ¶z ese
bist um
ĠUE FA
P lat
S B
e ck
Ġa partments
ĠS ultan
Ġf as
Ġm olec
ĠM alt
ĠF unde
ĠF aust
ĠI an
ĠG y
ĠG ib
Ġto urs
ĠH Ã¼tte
iv ation
ĠSt ick
Ġst ren
ann ers
ĠSch acht
aus cht
we alth
get Attribute
ĠSp ar
ĠSp err
ĠEin tritt
enn ame
auf tritt
Ġsh irt
ĠY oga
Ġcomp uters
rÃ¤ ts
ĠFre y
Ver band
Ġcl ubs
Ġmar ine
ĠRegion alliga
Ġerhalten en
Ġconf lict
Ġtradition ell
Ġpack ed
ĠMc K
ĠBischof s
ĠMer c
ĠDom ain
fÃ¼ll ung
ĠGre y
ĠKenn edy
AX B
Ġsatis faction
ĠGrÃ¤ fin
ĠPed ro
******** ********
organis ationen
Listen ers
MÃ¶ gliche
ĠangekÃ¼nd igt
A ch
C ho
C ondition
M ac
N ur
g ast
er cis
in ations
ch ingen
Ġd ot
Ġs ummary
ĠS ave
ĠB j
ĠP un
ĠF o
ĠH Ã¶l
ĠAb u
Ġsh ots
ied s
Th omas
ĠPh Ã¤n
12 3
ĠTra uer
ĠEl be
Ġpl ot
mar ks
Ġdevelop ers
Ġtyp ischen
Ġair craft
Ġimpro vements
ĠErw art
ĠErk enntnis
ĠDor othe
Ġcaus ing
c ements
j j
j ing
ã Ģ
ĠS ometimes
te au
ge ht
ge gangen
Ġm ounted
us ions
ĠB ischÃ¶
ĠD raft
ĠT ot
sch reiben
ĠN assau
ĠAn ime
Ġwar ning
Ġhe x
get Path
ru ction
me yer
Ġad mit
Ġro ads
Ġgen ehm
ĠIm mutable
tra gt
ish es
ĠGesch Ã¤fte
ĠGes ichts
wer fer
Ġmake up
Al ben
ĠIs ol
Deutsch es
ĠStre ifen
Ġinternational er
ĠRechts an
bereich en
ĠZahl ungs
Ġsever e
Ġnie mals
Ġfil ters
ĠPil ot
Ġdig est
Ġbetre ut
ĠGeheim nis
Mult i
ĠWalk er
ĠInternal X
Ġzug unsten
9 00
F ER
K lein
b les
Ñ ı
le ans
Ġn om
ĠD ritte
Ġh es
am as
ut able
ĠK iss
ĠK az
ĠH end
ĠH onda
Ġg arten
ĠL an
Ġver mittelt
Ġpro t
Ġcon tribute
Ġex it
Ġex haus
Ġ18 03
land e
Ġres idence
ime tern
ges pr
ĠAuf fÃ¼hrung
ĠAuf tritte
ER E
ĠSh ar
ĠAll ianz
Ġshe ll
ĠPe er
ĠSc r
ĠRes ources
ST ART
ĠDes cription
esent liche
Ã¼rz te
ĠWeiter entwicklung
Ġverm utet
Ġapply ing
ĠSÃ¤ ulen
ĠDrei ÃŁig
ĠLux us
ĠEnter prise
ĠThÃ¼r inger
ĠVerteid igungs
Ġprepar ing
ĠGle is
ĠTerr asse
Lower Case
ĠSchicks al
lian ces
A Y
B ud
S ho
u eller
w affen
z ure
or iginal
ĠB ott
ĠM other
Ġh insichtlich
ĠP itts
Ġg ig
Ġre hab
ik ers
ĠAn zeigen
19 09
ĠAb hÃ¤ng
Ġcomp liance
-- ;
ĠNor m
Ġcl ip
urrent en
Ġdr iven
ĠVers orgungs
Ġsk illed
ĠComp et
Auf gelÃ¶st
196 2
Ġstudy ing
lÃ¤uf ig
Land es
ĠSpring s
trie be
ĠUR I
Change d
Ġdish es
ĠDist anz
irurg ie
ĠBam berg
E isen
N ein
g re
à ¸
at ra
Ġb ands
Ġe gg
ĠB ond
ro le
Ġn ob
Ġh its
ĠT oren
ĠIn formatik
Ġor al
Ġex pr
me ier
be auftrag
ĠAus flug
ĠAb schied
ĠFl otte
rif tsteller
Er ste
Ġact or
Le icht
ĠCl ubs
At tr
olv ing
less ly
Hand ball
Ġbro ke
Ġtext ure
ĠRu der
ĠVe get
Ġtalk ed
Ġverst orbenen
ĠFel sen
ĠCamp ing
valid ate
Ġverlie f
ĠSur vey
hyth mus
ĠBran chen
ĠgrÃ¼nd eten
Ġbeob achten
H R
z k
z it
Ċ ĊĠĠĠĠĠĠĠĠĠĠĠĠĠĠĠĠĠĠĠĠĠĠĠ
ar ded
Ġm Ã¼sse
st iftung
am azon
ĠT rop
ĠI ter
ĠG ros
ĠK rÃ¼
ĠJ i
ad ier
Ġj ar
ant ie
Ġsp acious
Ġ18 45
ĠPro tagon
ĠTe levision
Ġgen Ã¼
Ġgen auer
ĠVor schlag
ĠSh ang
Ġass ume
ĠVol ker
Cl oud
ĠDu o
ĠEm ma
verb ot
iol oge
Ã¤ss ern
ĠStutt garter
Ġauthor ities
current TimeMillis
Ġcontinu ing
ĠBedÃ¼rf nisse
Ġfundament al
Ġjun ior
+ "
N av
Z usammen
d orfer
k ompon
m ay
n ote
t ums
Ġt ollen
ĠS uz
us ts
st urm
ĠE ichen
ĠK lagen
ĠL ichten
ĠV III
Ġge ile
ĠSt Ã¼tz
ver teilung
qu ert
ell ers
19 50
ĠEin zug
Ġen de
ake te
Ġprodu cer
Ġdam aged
Ġger ufen
zie her
Ġx ml
Ġphot ographer
ĠFest ivals
jÃ¤hr ig
Ġprom otion
othe k
196 1
ordin ary
Â» ,
ĠWand el
Ġstream ing
ĠStreit krÃ¤fte
ĠAntw orten
Ġsyn thet
Ġnewsp aper
ĠLiss abon
, ...
? !
H y
N N
O ther
R obert
a o
z antin
Ġ ]
Ġ Ø
Ġd ump
Ġt ran
nd orf
Ġs orry
ie laut
st lichen
ĠT afel
ĠF OR
ĠG uten
ĠK ie
ĠH Ã¤ft
Ġg la
ĠR ote
ĠL ese
ĠC ant
ĠC ache
Ġre ception
la uch
Ġle ichten
Ġor ch
Ġex klus
ru le
19 01
ĠAl ber
ĠÃ ģ
ĠAb b
Ġpr ize
fe kt
Ġins zen
En tries
ĠNor bert
Ġact ing
ĠCon struction
ĠBundes straÃŁe
ommun ity
stein en
ĠBra uerei
ĠWar um
Ġhistor iques
ĠJo an
mel den
Ġren omm
ĠBud dh
ĠInvest ment
Ġintens ive
Pl us
ĊĠĠĠĠĠĠĠĠĠĠĠĠĠĠĠĠĠĠĠĠĠĠĠĠĠĠĠĠĠĠĠĠĠĠĠĠĠĠĠĠ ĠĠĠ
ĠspÃ¤t estens
ĠTok yo
ĠWes er
ĠðŁ ĻĤ
ĠCustom er
ĠEuropameister schaft
Ġtit les
Ġsurpr ising
ĠPow iat
Ġexpos ure
Ġsomew hat
Hall o
Febru ar
Ġbeauf tragt
B ilder
E mp
i Ã¨re
t urm
es er
an zeigen
al ben
ge halt
ent schieden
ĠP est
ĠK ran
ĠK ilometern
ĠC ad
ĠC art
ul ating
id ges
ass istent
ĠAn pass
19 13
land o
che f
Ġpart ition
Ġno ise
Ġind ischen
Al gorithm
gl as
ĠAss embly
Ġform ula
ĠOst see
ĠGen ossen
Parameter ID
Ste in
Ġarr ival
ĠCla ude
ĠerhÃ¶ hen
ĠKÃ¶nigs berg
Ġangegeben e
gerichts hof
Ġhochwert ige
ĠCru z
Ġbrach ten
Sl ot
Dom ain
ĠErot ik
Ġstattf and
Ġamen ities
ĠBerÃ¼cksicht igung
L B
k k
Ã ®
re kord
un er
Ġin telligence
Ġm i
ĠG ive
ĠH ut
ĠN FL
Ġer gab
Ġge le
ĠO P
Ġauf weisen
Ġr ising
Ġdem ands
Ġj ahr
aus s
get Default
Ġch ances
ĠAuf klÃ¤rung
ĠMar shall
ĠAm ph
fl ix
ĠSte p
iker in
ous ine
urt stag
ender s
Object s
ĠComp lete
ĠMag d
ĠWohn ungs
ĠLebens raum
Cl ub
ĠAnt ar
Ã¼ll en
ĠMont real
ĠUl m
ĠAp ache
ĠGi useppe
Ġumfang reichen
ĠkÃ¼nstler ische
Ġtele phone
spart ner
ĠEro ber
C lose
K reuz
M ag
T urnier
h ash
j Ã¤ger
k os
k ommission
| -
ĠS O
ĠS MS
Ġb unch
Ġf iction
ge x
Ã¤ ule
ĠK reat
ĠC ord
Ġl ib
ĠV in
ot ype
ei de
ste iner
get X
ant ischen
19 04
ĠCh ancen
los er
to Array
onder s
param s
sk irche
ipp en
ĠUr heber
ĠDurch schnitt
Ġmov es
ĠRad rennfahrer
ĠMot oren
bet riebe
Ġhol der
ĠForsch er
ĠRuss ischen
ĠAir es
So ftware
Ġple asant
ĠKlass ische
Co uld
Ġevalu ation
Ġscient ists
ĠSup reme
Ġven ue
Ġuntern ahm
E ven
m ing
Ġs tet
Ġw ed
Ġw Ã¤hlte
om i
ĠI b
and ro
Ġer rang
Ġer lern
ass o
ĠSch uh
tr es
ok raten
ĠEr ziehung
lo ÃŁ
Ġ18 43
be teil
ĠTh ai
ob a
Ġout fit
olog in
sh ore
ĠNe ed
ĠReg istr
ĠEx il
fr iger
oy a
rach ten
Ġange ordnet
Ġeinz eln
Ġx xx
ĠSchul ter
Ġrequire ment
Ġcor respond
Ġfeel ings
ĠEntwick lungen
ĠBed ien
lei h
Sc ale
mon th
ĠExper ience
ĠTrotz dem
ĠRena ult
Ġschwier ig
Ġshap ed
Lang uage
ĠkÃ¼nd igte
Ġgent le
D ienst
I K
R ows
Ġs aÃŁ
Ġp ipe
ĠM Ã¶rder
Ġh Ã¶r
ic ut
ĠG ol
ĠH Ã¤nden
ul ly
Ġge heim
ĠSt ief
ik at
Ġmit ge
ĠâĢ º
Ġdem okrat
ĠAn reg
.. ...
ĠSp annung
ĠÃ¼ber rasch
ome ter
Ġbes ieg
ren der
Ġcont ained
rif ft
Ch unk
ĠFrank lin
ĠHoch wasser
Ġeng aged
Ġcommun ications
ĠBel ager
ĠTer ry
Man agement
Ġest imate
ĠRuss ell
Ġconsider ation
ĠSchm id
Ġocc urs
Ġid x
Ġleben den
ĠWeiter bildung
Ġapproach es
Ġther apeut
Ġdescrib es
Ġsuggest s
Ġpoln ische
ĠDro gen
Ġexpand ed
ĠEreign is
Ġdigit ale
Liter al
Wor ld
ĠInde pendent
Ġwarrant y
ĠAfghan istan
A lias
C amp
P oints
S ort
b Ã¶r
e z
g ler
i ierten
m g
at ro
re p
ĠS ke
ĠS IM
Ġf ence
Ġf ranch
ĠB ib
ĠD ill
ĠK etten
em er
ĠL amp
ĠL az
ĠL esen
Ġst ations
Ġst uck
Ġr ice
Ġun lock
Ġaus gesetzt
ĠRe cher
ĠSp ir
Ġent deckte
ĠAuf trags
res ted
Ġfr amework
let ing
ift y
uk a
hol ders
ĠfrÃ¼ he
ĠKont o
ĠPark er
Ġbeh inder
Ġerschien enen
fel de
Ġnatur ally
ĠLou ise
ĠZwe cke
Ġparticip ation
grÃ¼ nde
Ġpaint ings
stud ien
imple Name
Ġcorrect ly
Ġwand te
opÃ¤d ie
ercis es
/ {
A ctive
R ichtung
d iv
m isch
is ierungs
ĠM ack
ĠM ira
ĠD irk
Ġh ip
ut age
ĠP ionier
ĠG R
sch ool
sch atz
ĠR ank
ĠL ac
ĠL arge
ĠC atherine
Ã¶ hne
ĠN iveau
Ġer setzen
ĠV irtual
Ġr ural
Ġde fense
ze k
Ġas set
ĠEr halt
19 43
auf lage
Ġar twork
ĠNach frage
Ġco at
ĠFra ktion
ĠZw eiter
Ġgreat ly
ĠInter ior
ĠProf i
ĠYork er
Ġlo aded
Ġview ing
Ġret ten
Ġhistor ique
Ġbezeichnet en
key s
Ġtradition elle
ĠHistor ische
Ġdeb ate
ĠVorsitzen den
ĠUntersuch ungs
fÃ¤ll ig
mot oren
ĠChem nitz
hem atics
Ġfab ulous
oles ale
ĠBege gnung
ĠberÃ¼hm ten
ĠLetz ter
kore a
ĠSkla ven
Sonst iges
K ap
U nder
f aktor
k ok
l inger
v als
ĠS lowakei
Ġf lying
am ents
Ġto w
ĠW alt
ĠW Ã¤hler
ĠH aving
Ġer baute
Ġge teilt
kt iven
op fer
Ġpro s
Ġsch afft
iz itÃ¤t
19 15
be c
ite es
ĠCh apter
Ã¼hr ung
ĠNe ver
Ġserv ers
ĠStud iums
met ter
Ġposs ess
Ġpower ed
not Null
Ġant iken
Ġbew ir
EL D
Gra f
Ġoptim ale
Ġmaint aining
ĠGÃ¤ sten
ĠUrs ula
Christ ian
Ġinstant ly
Ġgefe iert
> .
P ap
T it
n b
y y
on ische
Ġt ired
Ġs onn
Ġs amt
ar us
un ivers
ge fÃ¼hl
ĠB ock
am ine
ĠT Ã¤tigkeiten
ĠK ritiker
ĠC hel
Ġge habt
ĠSt op
aus stellungen
ĠDe g
19 55
ĠIm ages
put y
ĠTr ue
ĠBundes regierung
Ġass ignment
ĠUr kunde
ĠChar acter
Ġstill gelegt
Ġed ges
Ġdat iert
Ġfarm ers
ĠBÃ¤ ume
ĠErwachsen e
ĠNeum ann
ĠFore ign
Jose ph
Ġgesund heit
ĠKÃ¤r nten
ĠHinz u
Ġelig ible
! =
I ll
L it
P ower
T x
U K
h ill
h Ã¶ch
i ago
n ische
s y
es c
Ġm or
ĠM Ã¼
ĠM ick
Ã¤ ischer
Ġh rsg
ĠF ix
ĠF lieger
ĠK ies
ĠH ast
ĠH IV
ĠR it
ĠL enk
ĠC V
Ġre ward
ĠSt uhl
Ġdes wegen
ĠEr langen
fer enzen
19 54
Ġcomp licated
ĠNach lass
ock ets
ĠGr as
ĠPf lanze
ĠFe ature
Ġgef Ã¤llt
pre ise
ĠTal ent
zwe if
ĠInvest ition
Ġdra wn
Ġcolumn s
Ġweib lichen
Ġlay ers
Ġnorweg ischen
instr ument
Ġscre ens
C ard
T her
i our
j oin
Ġ ),
Ġs q
an as
ĠA kten
ro c
ĠP oten
ĠI BM
ĠĠĠĠĠĠĠĠ Ġ
ĠC oc
Ġst ages
Ġcon n
get Request
ĠEr ik
for um
ĠBe griffe
19 58
19 08
19 07
Ġcan vas
Ã¼ck e
Ġrec ip
ĠCon temporary
ĠMed iziner
ĠGrund riss
Ġprof essor
Ġstor m
ĠFin ance
amb a
ĠKo alition
ĠAg entur
Ġredu cing
UT E
ĠLog istik
Ġcharacter istics
Ġpercent age
Ġdepend s
Techn ik
maler ei
uzz le
Ġlif etime
Ġeg gs
H g
on ing
Ġm Ã¼
ĠB ent
ĠM ole
âĢ İ
ĠF resh
Ġto x
ĠW riting
ĠC lemens
Ġl aser
ĠN E
ĠJ h
ĠU we
art z
Ġcon vey
ĠAr mut
ord neten
19 17
19 48
Ġar gentin
Ġbet Ã¤t
fin anz
Ġinter act
ĠSte ven
An other
hand le
ĠMon itor
Ġtechn isch
ĠSal on
ĠDar stellungen
ĠPl anning
Ġbef Ã¼r
Ġperform ances
Ġgel Ã¶scht
Her ausgeber
ĠStad trat
Ġpriv ile
cla red
Bundes liga
Ġkrit isiert
VER SION
ĠMaur ice
ĠChron ik
ĠKult urg
ĠKandid at
Ġdokument iert
Entwick lung
C ounter
T B
T ab
l t
n on
v oid
w elle
w ait
ĠS weet
us ters
im ore
ĠK eine
Ġto ile
sch ema
ĠL ade
ĠC el
ĠC lan
Ġbe grÃ¼ndete
ow ner
ĠSch ein
ĠRe ife
rom an
ĠPro jekten
ĠAl aska
ĠTh ough
ob ahn
enn te
ĠHe irat
Ġany more
pert oire
orf ul
Ġgr at
AT O
ĠMÃ¼n zen
Ġem bra
Ġfre ier
He ad
unn able
Ġgest altete
ĠIns zen
ĠIns olvenz
Ġentstand enen
mark et
ĠSchloss es
ĠKat hedrale
ĠLiefer ung
ME SS
ĠFranzÃ¶s ischen
Ġque ue
ĠBeaut y
Kurz film
stÃ¤d te
Ġbird s
ĠEinkauf s
ĠTob ias
ĠKÃ¶r pers
.:.: .:.:
ĠAuthor ity
ĠBehinder ung
uis ine
pap ier
ĠLiver pool
C ity
L R
L EN
S outh
g irl
k rit
Ġd ienten
re aten
st yp
ĠF em
Ġl aid
ĠN as
ĠV ik
Ġk Ã¤mpfen
ĠSt if
ĠO cc
ĠAn wender
19 02
Ġdurch setzen
Ġsh arp
ĠMe eting
Ġ17 0
oth y
Ġreg istry
heim at
Ġdr ives
stÃ¤nd ige
wick lung
ender t
Ġplan e
Mar ie
Ġeinge zogen
ĠLei b
back tracking
irm ingham
Ġland es
ĠBew ertungen
pend ing
Ġlim its
Ġsicher lich
ĠKat astrop
ĠrÃ¶m ische
Med iziner
ĠErd geschoss
Ġregard less
Ġdise ases
Ġnorth ern
ĠMatt hew
Sign ature
ĠtÃ¼rk ischen
ĠJenn ifer
Ġtarge ts
ĠkÃ¤mp fte
Ġspectac ular
O wner
T en
a er
f und
f ish
k reise
t lichen
Ã °
in as
Ġt ie
re volution
ĠD eine
Ġh am
de pth
ĠP rad
ĠJ as
ĠSt ifts
ver eine
Ġor ganisation
lo ader
ĠTh ink
enn amen
ph p
ĠAus richtung
ĠMit be
ĠOr leans
omp son
app ly
ĠUnter kunft
of ern
br unnen
Ġshe ets
Ġide en
ĠNieder schlag
ĠPat tern
ragen den
Ġequ ivalent
Ġverl ieren
ĠNeben fluss
ĠMitte le
Ġaccount ing
ĠGast geber
ĠDÃ¼sseld orfer
Ġschwer er
Ġleg islation
itar ren
ĠAnge legenheiten
Ġsent ence
ĠKonz ern
ĠEntscheid ungen
Pl ugin
ĠkÃ¼nstler ischen
Ġkulture llen
Ġexpos ed
Ġbess eren
Ġphen omen
O U
S R
S ave
e xtra
i ak
Ġd st
ĠT U
im on
ĠH Ã¼tten
ĠC rit
ab is
ĠO skar
ĠSch Ã¤fer
Ġam ounts
Ġex istence
ĠSp rÃ¼
ĠAr gent
19 16
ĠMit ch
Ġhas n
ĠNe g
Ġgew alt
aw are
rich en
Ġra ck
vent ions
urr ican
ĠBr ent
Ġact ress
con nect
Ġfl ights
opp er
ĠComp an
ograf ien
Data Type
Ġmet a
umb ing
ogn itive
Ġbisher ige
sprach igen
Ġrestaur iert
eme tery
Ġprakt ische
ĠNÃ¼rn berger
Ġqualifiz ierten
ĠmÃ¤nn lichen
BevÃ¶lker ung
ĠProduzent en
Ġtempor ary
Ġverurs acht
Dam it
ĠSchwarzw ald
S oll
d ates
Ġs ight
al g
ur teilung
ĠD sch
ĠT Ã¤
ĠT SV
Ġg ym
uf Ã¼gen
Ġk ol
Ġden ke
Ġi p
aus ende
ĠAn not
Ġ18 37
Ġ18 41
uss ia
Ġwor n
St il
Ġbes iedelt
Ġher zlich
ĠFl orenz
lÃ¤ chen
âĢ¦ )
velop e
Ġac quired
Ã¤nder ung
Ġevent uell
Ġsecond ary
osp el
Ġrepr esented
ĠSchÃ¼ler innen
gehen den
Med aille
ĠPhot ography
match es
Ġattend ing
Constra int
ĠCook ies
tor hÃ¼ter
Ġmedizin ischen
ĠWett kampf
Ġphilosoph y
ĠWurz el
Ġportugies ischen
ĠClaud ia
ĠOze an
ĠDunk el
Ġtiss ue
ĠFertig stellung
K ur
T otal
b Ã¼ttel
h ain
y es
ĠS ED
ĠA pr
ĠG os
Ġl ip
ul u
ab ad
est on
ĠO ft
og an
Ġpro ve
ov Ã¡
ĠBe ing
Ġsp oke
ĠTeil nehmern
cre ts
AT TR
ĠNieder lagen
Ġmein t
Ġschn ellen
Ġmethod Name
ĠEntwick ler
ĠWith out
Ġpack aging
Ġwalk ed
Ã¶ss er
incip al
Ġsinn voll
ĠRal ph
Ġdipl omat
W ID
p g
Ġf icken
Ġm ood
ĠA BC
Ġc ow
ĠD utch
ĠE i
em on
Ġer fre
Ġre q
Ġmit ten
eb y
aus stattung
ĠUn fortunately
ĠTh om
ri um
ĠVor gehen
Ġgegen wÃ¤rt
Ġsc ulpt
Ġange mel
Ġstr ict
Ġshould n
reit et
OR Y
ĠPat rim
ĠJe de
Ġabge legt
fert igt
viron ments
Ġcommit tee
ĠAR D
ĠAnth rop
Techn ische
sper re
ĠLandtag swahl
ĠBege gn
cour t
zoll ern
Ġunus ual
R ob
f lag
i ja
re ide
il f
Ġc arr
ĠH Ã¤nd
ist ol
ot ter
ĠO ran
la yer
Ġver lauf
qu artier
Ġsch ul
ler in
Ġpla in
ĠUm frage
ĠCon text
feld t
ĠInter ruptedException
ĠJohann a
ĠRÃ¼ck seite
Ġexp lo
Reg ister
ĠRed akteur
Ġwatch ed
ĠAp ostol
spe kt
Comp uter
ĠMass age
Ġneg ativ
ĠRÃ¤ umen
ĠDate ien
Ġmount ains
ĠEar ly
ĠBrook s
Ġinstr uments
JÃ¤hr ige
ĠEinzugs gebiet
Merk male
Ġexclus ively
J an
L ied
M a
m ake
r isch
in ese
Ġa de
Ġf erner
st ufen
ter is
ĠT reib
ic ular
Ġein gemein
ĠW oll
sch reiber
ĠR s
Ġbe arbeitet
ĠN intendo
uch ter
Ġj ahre
we ek
sp an
ĠEr folgs
iz ierten
Ġsp iegel
Ġsp aren
lic a
Ġvor bereitet
ac ed
sk op
pen se
Ġbek annter
Ġinv ite
akt ions
Ġfl or
ĠGew ichts
Ġprocess ed
ommer cial
Wh ere
urf ten
Ġzurueck gegeben
Ġattra ct
Ġsens itive
Arch iv
ĠTar if
Ġcoach ing
ĠgÃ¼nst ig
agra ph
ĠEffe kt
Av ailable
Ġfot ograf
Ġbetroffen en
Ġjack et
ĠPian ist
ĠgewÃ¼nsch ten
Ġunterr ichtete
Ġgrund legen
Il legal
C ur
M ake
P I
c omponent
h on
t v
Ġ ....
Ġt act
ar ium
ĠI wan
ra de
ĠH od
Ġg ap
Ġer lebt
Ġk unst
Ġre lief
Ġr ated
au e
Ġwe ich
Ġsp ont
Ġro ots
ats on
ĠNov a
ĠZu vor
Ġbesch rieb
Ġbefore Client
ĠMittel feld
ĠWer ks
SS ION
ĠBÃ¼ chern
ĠPort land
Ġput s
ĠErw in
ĠKle id
ĠKle ider
Ġanal og
ĠKre u
ĠImp ort
istic ated
ĠGef Ã¤hr
ikal ische
Ġnetwork ing
ĠDenn is
Ġvari ables
Ġconsult ation
ĠSem ester
Ġelectric ity
Hash Map
ĠStrateg ie
ĠanschlieÃŁ enden
ĠFrÃ¼hl ing
ĠDokumentar film
ĠbeforeClient Execution
G ood
e ter
m ill
p it
er ne
at sch
ĠB oss
ig ter
ig ma
ĠP ant
et tel
ĠH ip
ĠL ernen
Ġan gewand
Ġim pl
Ġr anging
ĠSch okol
get Node
ĠAr min
Ġ18 53
In tern
19 53
geb ot
ĠWe ing
ther apie
ster y
Ġbo ards
lement s
ĠAll iance
ĠMed al
Ġselbst verstÃ¤ndlich
He alth
ĠApp ro
Ġvoll kommen
Ġworks hops
ĠTest s
Ġversch le
Ġerk annt
Ġdep loy
ĠSold at
gener ation
Ġrecommend ations
Ġdein er
ĠlÃ¤ng st
Ġbelie ves
ĠTschechos lowakei
% ,
F ernse
G leich
S ach
W ohn
g ue
g les
k W
Ġw Ã¼nschen
Ġb its
Ġn ude
ut o
om orph
ĠP eking
ed el
ĠK amm
ĠR TL
Ġer zeug
ĠV ia
Ġre verse
Ġver ify
19 06
Ġunter stellt
Ġcomp letion
Ġ17 00
sk o
Ġdis abled
ĠGra u
Ġacc ord
lÃ¤ ne
ST AT
ĠSpe zies
ĠMot ive
Ġabge lehnt
Imp ort
ĠKriegs gefangen
Ġversch oben
Ġtax es
ĠRen Ã©
Ã¤cht nis
build ing
ĠSho uld
Ġdauer te
ĠLook ing
Ã´ ne
Bild ung
ĠErschein ungs
Bet rieb
ĠPriv acy
ĠChallen ger
Ġster ben
Ġgeplan te
ĠBaumw olle
ĠVinc ent
Pred icate
Ġris ks
G etter
P ublik
S imple
k asten
m Ã¼n
Ġb acter
Ġin k
und ry
Ġp ap
Ġc ats
ĠG A
ĠH eld
hr ingen
ĠL G
ĠL ug
ĠC B
ĠC old
ĠAn wendungs
Ġhe aded
Ġas ian
iz on
19 51
Ġzw anzig
par ser
Ġbes etzten
ĠMar vel
ata ill
ĠNor man
gemein schaften
ĠPat r
Ġmoder ner
Ã¤us chen
ĠGen re
Ġabge geben
Ġblog s
Ġsicher te
ĠHa are
ĠAmts gericht
Ġcelebr ated
ĠAff airs
sthe orie
ausschuss es
ĠCommon wealth
Ġkombin iert
MÃ¼n chen
ĠPerspekt ive
B inding
k irch
r ams
Ġd imensions
it iv
re z
ĠS id
Ġo verse
ĠM are
ĠI R
ĠW oman
ul ted
ĠSt orage
Ġfor e
Ġr ug
Ġpro port
get Time
Ġsch me
Ġne ug
Ġsp in
ĠPro gr
Ġent itled
Ġman ifest
Ġen ge
Ġpr inter
Re quired
De te
Sch lag
enk te
alle tt
lauf bahn
Ġtrans formation
Ġkein em
gra duate
Sp iele
Ġjewe ilige
ĠGegen stand
Ġsw ing
Ġopp osite
Ġgl Ã¤n
ĠSen ate
ĠSein en
ĠStat ement
Ġdivers ity
ĠWirk lichkeit
ĠErk enntnisse
Ġvict im
db c
//// ////
ĠWitten berg
Tro tz
ĠSymph ony
ĠLuz ern
ĠTelef onn
ĠZut aten
Ġtok ens
C r
H erkunft
k ers
r ine
is p
is pr
he ld
Ġm ixture
Ġc uts
st imm
ĠM essen
de cker
ĠC hl
ul us
Ġan zeigen
if iable
ĠZ ig
ll ll
qu ate
get Text
Ġcom edy
Ġch a
ĠBe y
ord ination
io den
Ġres olved
erk irche
ĠSe il
auf ent
ĠY et
amm ung
amm ed
ĠVor jahr
Ġbet ont
fall enen
alen a
Ġze igten
ĠBet rag
Ġmark iert
ĠLandes regierung
illion en
ĠEd gar
Ġhistor isch
Ġlight weight
verb rauch
ĠCas tell
Ġbeautiful ly
Ġspecific ations
ĠChamp ion
Ġbedeut enden
ĠCle an
Ġexpress ed
Ġbroad cast
Ġelektr ischen
Ġaim ed
Ġhil f
VerÃ¶ffentlich t
ĠVoraus setzung
tran sport
ĠÃĦm ter
? âĢľ
C red
E lekt
S W
W ol
f ull
h h
j s
is emit
ĠB ilden
Ġh ess
ĠP aint
ĠP uerto
ĠF at
Ġz entral
ĠW Ã¶r
ĠN BA
Ġal ive
ad os
ik s
sp f
Ġsch ein
19 03
ĠAl p
tell ten
Re prÃ¤sentantenhaus
az ing
Ġtra iler
Ġcont rovers
[...]
