#version: 0.2 - Trained by `huggingface/tokenizers`
e r
e n
i n
c h
Ġ d
Ġ a
e s
n d
i s
o n
i t
i e
Ġ t
Ġ s
o r
Ġ w
a n
t e
a r
Ġ S
h e
a l
a t
r e
Ġ b
u r
u n
Ġ in
u nd
i ch
a s
e in
g e
Ġ f
u s
l e
Ġ m
Ġd er
Ġ A
Ã ¼
Ġ B
Ġ v
e l
Ġ 1
Ġ und
Ġ M
Ã ¤
i l
Ġ o
Ġ D
Ġt he
s t
in g
r o
t er
un g
Ġ p
i g
i on
d e
Ġ P
Ġ h
Ġ n
o l
Ġ (
Ġ T
â Ģ
Ġ ein
Ġ c
a m
Ġ F
Ġ G
Ġd ie
i m
Ġ K
Ġ E
u t
en t
o m
r a
Ġ z
s ch
Ġ I
Ġ H
e m
Ġ W
e t
Ġa nd
Ġ R
h r
Ġ L
t en
i c
is ch
Ġo f
e d
Ġt o
u m
Ġ C
Ġ g
b er
Ġ 2
a nd
Ġb e
u f
Ã ¶
is t
i r
e it
Ġ1 9
a ch
Ġ N
Ġ l
Ġ er
Ġ J
Ġ V
d en
Ġv on
i er
Ġa l
Ġt h
d er
c k
Ġ k
u l
Ġa n
Ġd es
Ġd en
l ich
er s
i v
Ġ im
g en
Ġ2 0
o t
Ġ e
Ã¼ r
at ion
i k
Ġ ge
ĠS t
Ġ O
o w
a b
o s
es t
Ġm it
a d
u ch
Ġ y
l a
an n
Ã Ł
Ġ âĢ
Ġ re
Ġ U
t s
Ġd as
i es
i f
Ġs t
al l
Ġa uf
e b
es s
k t
Ġy o
ĠS ch
e i
Ġ Z
c t
Ġf or
a f
Ġ is
a h
ie l
v er
Ġw ur
i en
Ġz u
Ġv er
Ġd em
i d
o p
isch en
Ġ ist
Ġ on
a y
u p
Ġal s
Ġf Ã¼r
c e
te l
ĠI n
Ġ Ċ
t h
a hr
ich t
it h
er e
u g
Ġa us
Ġwur de
a g
il l
Ġ un
Ġd e
n e
b en
as s
or t
w e
m en
o g
Ġ r
in d
ĠV er
a v
Ġein e
Ġw ar
er n
Ġw ith
s p
0 0
a k
ĠR e
Ġs ich
a te
a p
Ġ20 1
a u
o d
a us
el l
sch af
z e
er t
Ġw h
ĠA n
l y
l in
Ġp ro
) ,
ĠE r
Ġyo u
es ch
ĠD ie
Ġth at
Ġ j
r an
o ch
Ġn e
us t
ar t
Ġs ein
i b
en d
Ġ i
f f
s te
Ġa b
g er
Ġ it
Ġa m
q u
âĢ Ļ
h n
ung en
isch e
r ie
Ã¼ ber
i p
ig en
u d
s e
Ġs p
ĠT he
ĠS p
Ġ he
Ġbe i
h t
an g
u b
ut sch
Ġ le
o k
Ġs e
Ġ 3
s en
Ġ20 0
ĠB e
g r
Ġa s
ur ch
an t
m er
Ġa re
ar d
Ġs ch
Ġn ach
Ġa uch
ĠA l
Ġs o
ĠJ ahr
Ġ1 8
ĠU n
âĢ ĵ
tel l
1 9
âĢ ľ
Ġ or
k s
Ġ Ã¼ber
o v
i a
l ie
ĠâĢ ĵ
o st
m ent
ro m
Ġb is
ung s
Ġc om
i z
ĠA r
Ġw ir
schaf t
f or
i al
h en
Ã¤ t
iv e
Â ł
Ġw e
it y
ĠE in
is e
Ġe x
a in
Ġm e
Ġa t
Ã¶ r
ol l
ĠD e
Ġs ie
Ġz ur
as t
h er
Ġd ies
ĠâĢ ŀ
on t
b e
or d
a ge
h l
r u
Ġ ch
n en
Ġz um
h o
r Ã¤
ĠP ro
r it
Ġw as
et z
r Ã¼
Ġein er
Ġw er
Ġal l
isch er
av e
o ur
Ġyo ur
ic k
Ġ um
m e
Ġz w
ch en
te d
l and
om e
Ġ ent
. .
Ġn icht
Ġwer den
en s
Ġun ter
u re
i ge
Ġv or
Ġ19 9
Ã¤ r
ar k
o nd
Ġd urch
or e
o b
Ġ es
n er
ier t
in e
Ġh at
f er
us s
h al
Ġb y
g es
Ã¤ n
ge l
Ġf rom
Ġw ie
Ġwir d
u e
Ġth is
) .
it e
ter n
el t
i de
en n
ĠT e
i an
D ie
Ġs ind
ĠG e
re ich
i o
Ġh ave
am e
er k
ĠT h
p e
ĠC h
Ġein em
m al
Ã¶ n
ur g
Ġo der
d u
l er
Ã¤ nd
i re
ge b
is ter
Ã¼ n
ĠS ie
ĠL e
p l
il d
g t
Ġ us
p er
at ur
ĠM it
lich en
ĠD er
p ar
st en
Ġ 4
Ġ Ã
f t
ĠO r
ĠS e
a c
ch e
ion s
o c
z en
u ÃŁ
Ã¼ hr
Ġc an
p h
Ġm an
Ġw ill
Ġ en
Ġein en
b eit
Ġw or
o ut
ĠA b
a uf
ah l
ĠN e
ic e
ad t
2 0
ul t
ĠB er
ich te
s s
at z
a ck
ig ht
Ġ19 8
Ġ 5
Ġc on
Ã¼ ck
o hn
we ise
j e
Ġc o
in z
p t
1 8
ation al
r y
er v
ĠA uf
Ġt e
Ġ Y
f e
l o
Ġ -
Ġn ot
for m
el n
ĠE n
ur n
ĠL and
ig n
a il
de m
Ġs h
ĠA us
ch t
i le
ĠM ar
lich e
l l
om m
at er
Ġ( *
st er
p r
t ra
on e
ĠG r
Ġ19 7
' s
all y
t z
te il
ar e
on g
o ok
ĠH e
re is
re i
l os
p en
e ar
Ġh as
Ġdas s
ĠN ach
Ġb es
it ion
ĠI m
k eit
ĠM e
u te
ĠW e
f en
Ġde utsch
Ġp r
T he
iv ers
ul d
ab le
al t
am m
re t
b urg
ĠV or
Ġa d
em ber
or en
it z
l ass
c o
ber g
Ã ©
ĠD as
il m
is s
im e
Ġa r
ation s
Ã¤ hr
at t
a ut
k e
I n
ier te
a z
ak e
ol og
r at
Ġd o
f ol
an s
Ġi hr
de t
iel er
Ġ 9
Ġwur den
al e
Ġ19 6
ing s
Ġ 6
f l
th er
Ġw o
Ġ up
ers on
it er
p p
ro ÃŁ
te t
Ġh er
ĠUn ter
ĠH er
Ġcom p
Ġo ur
w er
Ġs ow
Ġw eit
ĠA m
o u
at h
Ġg o
he it
eb en
ct ion
un t
at en
ĠP l
ein e
am p
W eb
Ġr es
ent s
Ġ "
ĠZ eit
us e
Ġ1 7
ug h
os e
ol d
ĠF l
er en
lin ks
Ġv om
Ġo ut
Ġi h
Ã¤ l
as e
t o
Web links
an z
Ġg en
Ġn ur
Ġf e
ĠDe utsch
Ġ19 4
on s
ut z
ĠF or
Ġ qu
m it
Ġb ut
om p
par am
ĠF ran
ĠSt adt
ab en
ch n
Ġm y
i um
c c
Ġ et
l es
ĠRe g
Ġme hr
al s
ĠM a
ig er
z eit
v e
Ġn och
am il
or s
g an
r en
s el
Ġ19 5
Ġ ro
p ort
m ann
ze ich
Ġge w
om men
ol it
ĠP r
ĠSch w
ig h
Ġm ore
Ġt ra
Ġl ie
re e
f in
ne h
Ġ 7
ah n
an ce
Ġthe ir
ow n
ik e
ier en
te m
k en
el d
ic al
y s
ar y
Ġb et
D er
S t
Ġon e
is h
Ġ1 5
ĠG em
kt ion
ik er
Ã¼ d
b all
ie d
ĠI S
ie t
og ra
ib t
la g
E inz
r if
h Ã¶r
r ich
Ġp er
Ġsow ie
st and
ate d
f Ã¼hr
Ġb est
l d
in n
Ġ 8
u en
le ich
ĠU S
c l
n is
g lie
on n
ach weise
esch ichte
h und
ol le
Ġa ber
Ġ Ġ
eln achweise
b ar
a de
Einz elnachweise
e c
Ġ19 3
B N
Ġ1 6
ĠP ar
el s
Ġab out
or n
es e
r ing
ĠIS BN
o ck
Ã¼ nd
it Ã¤t
Ġals o
w a
ĠI t
Ġc ont
in k
a up
Ġ Q
ah re
n et
p ro
ann t
t t
h aus
Ġs te
am men
Ã¤ ch
s tell
ier ung
y ste
Ġge gen
Ġd ar
re at
ĠC o
f ahr
ub l
Ġ1 0
s k
Ġne w
ie der
Ġthe y
Ġe v
ĠUn ivers
o y
Ġsein er
Ġwh ich
etz t
âĢ Ŀ
Ġf in
m in
is sen
o ber
ĠGem ein
ig t
Ġzw ei
Ġein es
Ġ &
ik an
an k
Ġin s
u er
.. .
Ġb er
ĠJahr hund
Ã¶ ff
v el
a is
m an
Ġbe en
u al
ig keit
Ġh is
ĠG ra
g l
Ġp l
Ġal le
Ġsein e
am en
a ct
ay s
Ġy ear
ĠS o
m p
lie ÃŁ
ge ben
Ġp la
ĠS te
Ġhat te
is ten
el le
im m
Ġwh o
l ung
ĠJ ahre
iter atur
i ent
nd e
1 7
w o
ur op
Ġwie der
g lich
ĠK ar
00 0
x t
ĠB r
et t
or y
Ġg es
ĠP h
o h
Ġj ed
Ã¶ l
Ġof f
ie le
Ġk ann
ro w
ĠG es
ĠG eb
ĠA d
Ġt ime
Ġwor k
ĠD ies
yste m
or f
it t
am er
eit e
m ein
Ġ1 2
us ammen
Ġdies er
t on
ar beit
Ġge t
n ah
Ġk Ã¶n
an ge
Ġk n
al d
Ġs oll
ter s
ÃŁ e
ĠE s
b r
ĠB l
ĠK l
ĠBer lin
id ent
at s
re m
Ġzw ischen
le d
if f
Ġs ome
o f
Ġf ol
und en
Ġs eit
re d
rie d
ĠTe il
Ġan y
ent lich
c es
a w
Ġwar en
Ġo b
Ã¤ hl
ĠK ir
ab e
u de
ĠM us
ĠK on
ĠC hr
D as
ĠW elt
ĠU m
ing en
ck e
ĠF ra
e k
ĠâĢ ľ
s er
ĠJahr en
ret urn
ent r
ach t
Ġo ver
1 0
S ch
in ter
in der
is te
b st
ir t
Ġp art
Ġ1 4
f all
ie w
u le
w ick
1 5
Ġd is
ľ ber
i x
w erk
in a
b au
Ġbe g
Ġre c
ĠSp iel
ĠT r
os s
g esch
Ġin ter
Ã¤ ter
eit en
Ã¶ s
Ġ1 3
Ġs el
or k
1 6
Ġzur Ã¼ck
o ol
ot t
Ġl ike
ic t
T h
Ġst ud
ar n
sp ieler
ir st
ĠE x
ĠSt a
lin e
y p
Ġ em
ĠF re
und es
m a
at es
aup t
Ġ ra
s h
r on
c om
Ġd am
schaf ten
rie g
ĠJ an
en z
eit s
Ġdeutsch er
Ġg roÃŁ
Ġpro du
rie b
Ġbe k
la ge
ĠA nd
Ġh aben
p iel
gen d
ĠF ilm
Ġwh en
ĠJ un
ĠNe w
Ġs erv
uÃŁ ball
ot h
Ġge hÃ¶r
ver y
form ation
or g
Ġp e
hal ten
he im
at ing
Ġp h
ĠB es
Ġo ther
ov e
y n
E r
glie d
Ġthe m
r es
ĠT ra
am t
ell en
ar b
Ġn o
Ġpro v
ĠS h
a um
Ġs c
is m
ĠM an
ge w
un k
ĠA ug
Ġh o
en de
in t
V er
ĠB o
Ġj ust
ĠJahrhund ert
st ra
Ġhe l
en e
Ã¤ d
et h
1 2
e p
in s
g te
A n
sch en
Ġer sten
G eb
ck en
ĠJ ul
ĠTh is
L iteratur
Ġdies e
Ġ19 2
a ir
ĠGemein de
u ar
Ġs up
f r
ĠN ov
I m
Ġin d
Ġp re
Ġer st
Ġbe im
ĠÃ ľber
o ff
y m
ist or
me ister
ĠZ w
Ġk l
ĠSt ra
ĠAr beit
Ġ if
ogra ph
h and
Ã¤hr end
ÃŁ en
p f
ĠE l
Ġth ere
Ġa g
ĠEn t
ĠG er
ster reich
Ġwh at
tell t
tern ational
7 8
Ġd rei
neh men
Ġj e
Ġre g
Ġh ow
sch ie
aus e
Ġv ers
b le
ĠkÃ¶n nen
A l
Ġk onn
ĠC ar
Ġge b
1 4
Ġit s
ul l
au er
f ter
ĠN or
in er
ier ten
al en
Ġg r
ĠB and
k l
ic es
Ġne ed
Ġf o
op le
if e
Ġh ad
ĠG en
Ã¶n ig
ĠA ut
Ġw ere
a x
Ġ 0
i der
ra ch
l Ã¤
Ġl ook
iel t
Ã¤l t
uch t
ic s
io us
ĠO ber
Ġw el
ra nd
Ġt r
D e
Ġjed och
as h
Ġin to
en k
Ġin cl
ĠSt ud
2 00
ar r
Ġsp Ã¤ter
z er
e ich
Geb oren
ĠM en
Ġm us
a ce
Ġm ost
d ay
1 3
un st
ar m
o us
ĠAug ust
Ġbe c
Ġth an
rÃ¤ s
f ess
es ten
und e
c ed
le t
b ach
Ġer h
Ġwo uld
w ard
ur t
Ġf Ã¼hr
Ġf r
z ial
ĠI nd
le x
ĠE urop
ĠB undes
el y
Ġg esch
ro und
ĠB au
p or
ĠM o
Ġd ann
en den
Ġan ge
Ġf irst
Ġ201 8
ĠM ed
ĠF amil
ĠH and
al k
Ġc l
Ġih re
ĠP e
z w
un ter
Ġm ake
and er
Ġa c
ĠFran k
n ung
ĠÃ ĸ
ĠChr ist
f Ã¼
ĠZ u
b o
ĠAr t
b l
je ct
h ne
eb s
Ġd a
Ġa pp
in ess
Ġa cc
U n
Ċ Ċ
Ġet wa
tra g
tem ber
Ġth ro
gr Ã¼nd
ĠDeutsch land
st it
Ġb u
Ġg ibt
ĠVer ein
Ã ¡
r ess
il it
Ġk e
ch er
iv er
ol f
Ġhel p
Ġb el
ĠPl atz
ĠN ord
' t
ĠM Ã¼n
de d
it al
s o
ĠM on
ho f
k a
je kt
Ã¼ t
Ġpe ople
ier e
Ġw enn
ĠG esch
ĠP ol
Ġh and
Ġus e
Ġkn ow
Ġa p
ĠP erson
5 0
r icht
ru ck
up pe
Ġ ich
ĠM ann
M ann
R e
pr il
a ul
f ul
ĠK Ã¶nig
Ã¶ glich
ĠN ational
u z
Ġs he
u es
ĠSe p
ge mein
Ã¤r z
ib le
ment s
ion al
ĠM in
ĠNov ember
re it
Ġweit er
schaf ts
Ġi hn
ĠAl l
v or
ie f
ĠĊ Ċ
Ġe very
Ġver b
ĠM al
ĠH o
Ġer fol
lich er
ow er
ch ts
ass en
eit er
ĠJun i
b ild
ul ar
a id
ab ei
Ġw ell
Ġon ly
we g
at ive
d ition
ien ce
w ohn
ĠG roÃŁ
Ġsein en
v en
Ġh ier
us iness
ĠSep tember
Ġsein em
v ers
ig ung
k er
ag es
et s
is en
ur z
2 1
an y
ass er
a gen
ĠS c
schie den
uÃŁ er
ir k
i qu
Ġf l
Ġb ack
Ġlie gt
uf t
at or
Ġm o
der n
Ã¶ff entlich
ĠE nde
Ġ3 0
. )
Ġg er
kt ober
ĠH aupt
g ang
ĠA pril
ran s
ar s
w n
k reis
un kt
ult ur
g est
ĠP f
ke hr
it el
ĠB et
st adt
i ze
hal b
t re
at a
Ġz usammen
if ic
p la
ĠP olit
ar ten
ĠY ou
op h
Ġg leich
ĠV ol
ĠQ u
Ġ /
M it
Ġaus ge
Ġ19 0
hal t
sch l
Ġa ct
ro l
Ã¶ ÃŁ
ste in
iv en
v ent
ĠVer b
Ġm ay
ĠGr und
Ġver y
issen schaft
er al
on st
Ġdes ign
ĠOr t
ien st
ĠI I
ais on
he l
b es
ut ion
ĠS Ã¼d
ĠJul i
u c
Ġb o
am s
ĠB ei
ic a
amer ikan
G e
s atz
Ġ201 7
g ra
Ġfol gen
Ġcom m
Ġer ste
ĠMa i
Ġd ire
Ġs ho
N ach
Ġer w
Ġf ind
m s
ein g
it ed
ĠO ktober
Ġver w
a kt
Ġyear s
ĠF e
he mal
Ġle tz
ran z
Ġman y
Ġb esch
an c
1 1
Ġl oc
w alt
p s
Ġand eren
Ġh in
ĠI s
Ġber eits
vel op
Ġd ort
as ed
ich ts
Ġt wo
ze ug
ĠJan uar
Ġund er
oh ann
Ġkonn te
Ġz e
st Ã¤nd
Ġd r
f eld
al ien
z ahl
Ġas s
Ġh ome
es en
i or
Ġdies em
Ġe ben
f te
Ġ X
Ġ201 6
Ġe igen
ĠR o
Ġein z
ĠM Ã¤rz
if fer
Ġun s
Ġex per
es ter
as ch
ap p
Ġth ese
De utsch
Ġs m
Ã¼ tz
ust r
c ts
Ġ201 0
Ġcon s
Ġst and
ess en
u k
Ġv ier
isch es
Ġthro ugh
at ch
ĠH aus
ĠPro du
it s
Ġ201 1
Ġb l
z ember
use um
Ġihr er
la gen
b ahn
Ġe le
Ġd own
ĠK unst
k te
re g
Ġ201 5
um ent
ĠF ried
Ġs ol
Ġse hr
ĠO b
ein en
a den
Ã¤n g
a i
Ġh igh
Ġbe fin
or ben
eb ru
los s
m Ã¤
Ġte il
Ġ201 4
l i
Ġsp ec
r s
Ġbes te
Ġ201 2
ut h
am es
pt ion
Ġge l
ĠW erk
ĠH och
gr und
= =
if t
f ach
Ġ201 3
Ġhe ute
3 0
Ġ200 8
Ã¤n ger
c ess
Ġih m
ation en
Ġv iel
ra g
ei d
ĠO n
ĠM et
ĠB ar
Ġ18 9
ĠâĢ ł
Ġk eine
a ur
âĢ ¦
Ġ1 1
Ã¼r ger
Ã¼n st
u ck
ĠW h
ist r
ar ch
ber t
ĠK inder
S ie
ĠV ers
b uch
il ity
Ġa kt
Ġin v
la uf
olog ie
os ition
ĠF Ã¼r
Ġk am
Ġ .
ak ing
ebs ite
ern se
f ang
sch e
ge t
Ġs uch
ĠDe zember
ĠĊ ĠĊ
af f
is ion
Ġgo od
Ġg u
op p
mit tel
ĠA mer
ip p
al le
ost en
ĠLand es
Ġ200 9
gan is
ĠL iste
ig a
ĠF ebru
Ġm ed
Ġp ar
o ugh
ĠMus ik
B e
m at
Ġde c
Ġ |
Ġa fter
ing er
Ġn ow
zeich net
ĠJ ohann
up pen
W e
ic an
Ġm ark
le g
Ġm ach
s etz
Ġ2 5
Ġ Â
P ro
ĠC on
ich er
Ġ [
in al
ĠR es
w ahl
ĠG eschichte
ur s
rit t
fall s
ow s
ain t
Ġpla y
al th
Ã¶ st
Ġsel bst
ĠB ild
Ġver schieden
Ġg reat
Ġb en
ĠF r
Ġp erson
ĠO ff
an gen
ur ing
O r
Ġm on
in nen
Ġ9 78
Ġsch w
ĠF ol
Ġ Ð
a j
omm un
sch lieÃŁ
Ã Ń
w ay
for e
Ġb usiness
hr en
i us
ĠW il
ĠKir che
s on
ĠF uÃŁball
A us
Ġsp iel
Ġw ay
ĠAr ch
ĠG o
Ġ200 6
ion en
y l
Ġe ff
ranz Ã¶s
ĠG rÃ¼
ĠS aison
ĠC l
Ġwh ere
r ip
Ġ200 7
mal s
ĠPh il
ĠW est
o gen
v iew
. ,
he d
Ġse c
Ġ2 4
Ġw Ã¤hrend
ĠS er
sch rif
Ġre l
ĠV on
Ġp o
ĠRe ich
ism us
ges tellt
Ġer sch
Ġand er
it ies
ĠUnivers itÃ¤t
A r
Ġs om
ĠJ u
ell schaft
ig te
Ġs ub
Ġim mer
Ġm in
ra d
sch n
Ġbec ause
ch te
Ġar t
c y
Ġte chn
Ġgr Ã¶ÃŁ
19 9
Ġl ang
ĠIn ter
z ent
Ġsp e
Ġin c
ĠM ark
Ġbei den
Ġf ree
ĠUnivers ity
Ġall er
Ġw en
em ent
ĠW ert
Ġst att
iv es
hr er
ach sen
Ġse e
Ġa v
al ter
ĠA s
ĠS k
Ã¤ch st
z ug
ĠAl s
Ġdam it
ĠMit glied
we il
ĠDies e
ĠC he
Ġd el
in es
sp iel
Ġd ay
ut en
ĠH am
a der
z ie
p ieler
Ġ ,
rie ben
b and
ot her
ĠVer lag
Ġs aid
ĠE le
Ġev en
Ġsch on
ĠG l
ĠN ieder
ĠH ol
ĠR om
ut t
le it
Ġwor ld
ĠĠ ĠĠ
fÃ¼hr t
Ġde velop
f ra
Ġe hemal
ĠF ahr
Ġz un
om en
kt ur
o ten
ĠFebru ar
ĠB uch
u ge
T e
Ã¤ hn
ogra f
Ã¼ l
h ol
m ed
te te
A m
Ġne ue
Ġqu al
lin k
Ġw ant
{ @
ĠD es
ĠCh ar
ĠH Ã¶
Ġth en
o te
ĠMit tel
ien d
ĠW ien
Ã¼n f
ĠD r
âĢľ .
neh mer
Ġd iffer
an ts
ik a
Ġdes sen
Ġco uld
Ġ ed
ĠMÃ¼n chen
g abe
e h
Ġs ystem
ĠW or
ly mp
ro p
Ġo hne
ĠD urch
Ġo wn
o hl
w ert
ĠM ich
ĠB as
ĠS al
Th is
Ġincl ud
ra ft
Ġre ad
ichte t
Ã¼ s
ĠN amen
Ġv is
Ġg ra
Ġge f
Ġf amil
un ktion
b um
Ġb ook
Ġh ere
Ġf re
y r
ur es
Ġg ab
tel le
grÃ¼nd et
ust om
Ġ end
il t
p ert
Ġm ade
Ġre m
t ag
Ã¤nd er
Ġs k
en ce
Ġ200 5
ĠP aul
ch sel
ro ss
at her
rÃ¤s ident
4 0
Ġin formation
Ġs im
ĠKar l
Ġ20 00
i ra
is piel
Ġon line
Ġ1 00
Ġ %
Ġar beit
ĠE d
Ġc re
Ġbek annt
ĠSchw ei
e te
Ġre qu
co de
ur r
Ġf est
ĠSt re
Ġs Ã¼d
Ġ18 8
ch s
b t
L e
Ġerh ielt
in ing
ĠEin e
le ase
in o
Ġi de
all s
stra ÃŁe
iss ion
ĠMen schen
ĠÃ Ħ
Ġp ol
ĠD ar
ĠB ay
Ġs ur
ĠUnter nehmen
Ã¤ ude
h re
in ce
il le
c ted
âĢľ ,
ĠS an
ĠJ ohn
Ġf rÃ¼
Ġst ar
z u
2 5
lo ad
ernse h
Ġc ar
ĠP art
re cht
ĠMe ister
ĠAn t
ĠI f
Ġein ge
Ġbe f
Ġne uen
G eschichte
ro up
Ġt ake
is k
ĠL eb
ig es
ĠW er
Ġm uch
ĠK n
pr ess
olog y
Ġihr en
le gt
it zen
nah me
w end
ot s
ĠM ill
Ġ200 4
iv ing
h in
ĠSch l
Ġd on
Ġn ah
ie g
o ge
un n
Ġ201 9
Ġus ed
sp ort
sch ule
ĠK r
ag er
Ġl ife
Ġpro gr
m ar
z t
l en
los sen
uf en
in en
Ġre al
Ġf ranzÃ¶s
Ġp ubl
Ġv al
ĠF in
Ġin st
ĠP er
ĠA t
g leich
ĠD an
he in
Ġv ar
ĠC omp
k rieg
est orben
ĠU r
a e
u ter
Ġsho uld
6 0
Ġ ur
kt or
ĠL in
geb iet
ap an
ĠFried rich
le gen
Ġdies es
iel d
ar ge
Ġb eing
de ut
l ing
ĠK omp
Ġweit ere
Ġb zw
ĠSch ul
Ġprov ide
v an
wick lung
ĠK rieg
as on
ond er
stell ung
Ġste ht
w w
Ġder en
f ern
Ġ $
ĠB est
ĠPolit iker
Ã¤hl t
ak es
ĠW ill
ubl ik
Ġc ol
k auf
Ã ³
um ber
all en
ater ial
L eben
ct or
Ġe as
ĠY ork
Ġs ei
2 2
ĠR ad
fahr en
h ard
Ð ¾
p unkt
om in
Ġp ra
ĠFor m
ĠN atur
aus pieler
ĠD o
ig ten
ĠH ein
p le
f ass
Ġd abei
um mer
Ġch e
ug ht
ĠB ahn
re uz
Ġ18 7
Ġdeutsch en
Ġbefin det
i den
ĠPerson en
at ure
ĠL ei
ent ly
ĠT od
Ġ u
tell er
Ġr ight
rs g
irt schaft
la ck
ĠOr ts
age ment
Ġf Ã¼nf
im es
ĠG u
Ġer reich
g y
as ter
ed er
ĠBer g
wohn er
al er
Ġ #
ĠA ss
ĠR Ã¼ck
lass e
G estorben
ol v
ĠW ei
w are
Ġs u
ann te
ĠT o
it Ã¤
Ġent sp
ĠO st
ĠB ere
ĠF est
Ġof fer
u x
Ġbe fore
sch utz
ĠW asser
ĠJ e
Ġ2 2
oll ow
Ġb r
Ġ2 1
ir d
ide o
es ent
schl uss
ĠZ usammen
az u
Ġl a
ĠA uch
e y
ĠM ag
Ġd id
8 0
w ig
ĠSch rif
Ġad d
Ġl ast
iqu e
Ã¤ us
a ar
ail able
ĠS ohn
ĠCo unt
Ð °
an st
ĠSt and
Ġto p
Ġ200 3
u gen
isch of
k ommen
ĠB re
Ã¤t z
Ġ5 0
re en
Ġen g
Ġ200 1
Ġa round
a el
iz ed
Ġin ternational
Ġb ed
tel y
ĠM y
Ã¶ m
ĠE m
ru e
Ġp olit
Ġs er
ĠD aten
ĠW ohn
4 5
Ġ2 3
ĠP at
id es
< /
u ally
Ġp ost
um e
Ġbeg ann
Ġalle m
sch ul
Ġg l
Ġth ink
ĠIn ternational
Ġw rit
ĠFra uen
ĠK reis
E x
Ġc ustom
ĠD re
ĠLeb ens
E in
ip s
Ġzun Ã¤chst
Ġ( âĢ
Ġs ite
om mer
Ġre t
E R
Ġ =
Ġag ain
Ġc are
Ġp ass
um s
c ial
it ter
ĠL a
ĠT itel
ĠL ie
Ġe ach
ath ol
re ad
k ir
ich ten
out h
ck t
rip t
A b
hel m
f urt
Ġwh ile
Ġc le
Ġl ong
Ġth ose
ĠDeutsch en
ĠB en
ĠLand kreis
r ib
an ad
our n
Ġent stand
f ilm
ĠB ra
Â Ń
er ts
Ġge mein
Ã¶l ker
Ã¶ ch
ĠN ame
Ġdeutsch e
Ã¶r der
Ġ199 0
Ġgew ann
am ent
omm t
Ġl ove
Ġcomm un
od y
Ġm od
Ġ *
ĠFamil ie
glie der
Ġ200 2
Ġsh ow
s w
ĠGe w
re ib
b in
nd ern
ing le
itt le
t he
w ays
Ġwor den
Ġf and
b ur
Ġden en
Ġt rans
Ġc olle
Ġfo und
N e
c a
ĠH ans
ond on
Ã¶ sterreich
ĠH ar
Ġ2 6
Ġs l
Ġs tell
lo ck
k m
Ã¤n ge
h Ã¤lt
Ġ :
ĠO lymp
z iel
schrif t
mÃ¤ ÃŁ
p art
ĠB Ã¼
Ġr est
ĠFran z
Ġ18 6
g or
Ġco unt
te i
ĠC ol
Ġwe ek
Ġdo es
st re
Ġeben falls
ost er
ur m
sch ied
ĠM or
amp f
ut ter
ot or
ĠP ort
Ġand ere
ist s
Ġdiffer ent
gl isch
Ġserv ice
ĠP la
e ct
ran k
on om
en det
Ġb il
pl ic
ho de
2 3
Ã¤nd e
ĠPro v
Ġso ndern
d orf
Ġpla ce
le y
d ings
ĠM od
f ort
nis se
Ġch ild
Ġs ign
ĠS eite
Ġver Ã¶ffentlich
Ġre ally
ĠGe gen
an a
Ġh im
ro om
le i
ĠH al
ĠK ap
F or
I t
en der
stit ut
er st
am a
Ġr und
M e
en ter
ear ch
rÃ¤ ger
ĠB el
Ġje weil
Ġ2 8
Ġc our
we en
ard s
Ġ el
y d
F uÃŁball
Ð µ
Ã¤ uf
on es
ess e
an e
ĠPe ter
Ġ199 9
19 8
Ġd u
Ġh istor
Ġne u
C h
Ġav ailable
amerikan ischer
ann ten
Ġb as
ĠRe p
Ġab s
re chen
D R
ord s
ĠS up
Ã¼ ss
ĠSp ort
ĠM ain
Ġp os
e ver
ĠW ahl
n a
Ġm ov
sch w
rÃ¼ n
ĠEn g
Ġn or
Ġph ot
Ã¼nst ler
r i
Ġh al
k ten
Ġs et
Ġander em
Ġg est
Ġz ahl
Ġmark et
ra um
ĠS eit
i am
7 0
ĠTe chn
fÃ¼hr ung
ĠM at
ess er
il der
iv id
h af
ĠL eben
ent en
ap er
ĠÃĸ sterreich
y ch
n ess
ĠS il
j Ã¤hr
Ġo pt
y pe
ge d
ĠL ondon
Ġf ollow
Ġsch ool
ch es
Ġf un
Ġh abe
Ġspiel te
ĠBere ich
ck er
Ġl and
pl atz
Ġst ill
im al
uÃŁ en
b y
o de
Ġdar auf
ĠB i
z el
ges etzt
is hed
ĠP re
H rsg
as st
it ions
Ġer r
Ġfr iend
ik t
ver n
Ġk ein
gr amm
Ġp at
ire d
Ġver l
ĠK om
s am
Ġn umber
ĠT er
ĠD em
den s
ĠSta ats
ĠM art
ĠW ar
e hen
h ung
Ġa uÃŁer
Ġcomp any
Ġ ...
p os
ap t
ĠK ont
I I
m us
Ġnah m
st r
Ġbet ween
ot he
ĠGen eral
ĠP ark
Ġpro cess
ĠB ut
Ġexper ience
is se
Ġfamil y
h a
s c
Ġv iele
igh ts
Ġm uss
Ġb re
iz iel
j ahr
Ġus ing
ĠB urg
Ġdies en
Ġ2 9
gen ommen
Ġb oth
- -
r ic
Ġat t
Ġer halten
Ġ2 7
c i
Ġpro fess
Ġst art
ĠVol ks
Ġw icht
lich keit
ne y
on nen
Ġ20 20
D F
Ġa ut
ar i
g aben
iv al
ĠK ultur
Ġfin den
h m
Ġ '
enn t
Ġinclud ing
ĠM useum
Ã¼ b
ten s
min ister
E n
al y
bild ung
ĠSta aten
Ġ199 8
ap pen
ĠB Ã¼rger
ĠC ont
ĠPar is
ĠR ich
Ġfe w
ourn al
Ġch ar
iet y
Ġn un
Ġc lass
ĠGrÃ¼ nd
z ig
ur en
Ġmon th
us ch
Ġ â
Sie he
ir l
Ġt er
Ġein ige
ĠJ ose
Ð ¸
en nen
f ts
ĠHe im
ĠJu gend
w ork
U S
ell er
fol ge
Ġim port
ĠH el
2 4
ã ģ
Ġf ast
se e
I N
sel f
w ei
ĠD av
.) :
al es
p rÃ¤
Ġ199 6
Ġserv ices
ff en
an zen
ond ere
haus en
Ġsm all
Ġo pen
ass e
il ome
om at
Ġauf ge
Ġle arn
ge ord
ĠHer z
tra gen
g ie
ĠHer r
ies en
teil ung
ograph ie
Ġwel che
i as
Ġpro m
Ġent wick
Ġletz ten
b et
Ġ <
kl Ã¤r
ĠRe chts
Ġsoll te
or ge
Ġhe alth
ĠReg ion
A uf
Ġd i
w or
ĠgehÃ¶r t
ĠT our
ct ions
Ġt rat
ce ption
Ġ4 0
tell ung
cc ess
19 3
Ġfor m
Ġbu ild
an ten
af fen
oll en
Ġc al
lass en
v Ã¶lker
Ã¤ re
t r
Ġd uring
Ġro om
Ġs ame
tre ten
Ġp op
et en
Ġst ark
ĠT or
e le
ber eich
tern et
Ġm Ã¶glich
st off
et te
w as
av ing
a uch
ĠThe y
Ġpr iv
ĠKir chen
Ġ198 0
2 8
at ter
on y
Ġerfol g
Ġersch ien
Ġst r
st ru
nah m
z entr
ĠT ag
Ġsup port
ĠgroÃŁ en
) :
ĠD on
ĠH ier
g ar
Ġst ra
w issenschaft
g eschichte
Ġn eben
Ġte am
ges amt
Ġg ing
Ġor der
ĠIn s
Ġapp ro
d ienst
en a
ĠD orf
ĠP al
la ub
ll en
er in
Ġgo ing
um en
ĠS he
ĠN ot
19 6
4 8
ĠWil helm
ĠC om
ĠCount y
us h
nah men
o le
el te
f Ã¤
ĠC or
rÃ¤ n
Ġerst mals
m et
uf f
it es
Ġein fach
om as
ĠPro fess
oc i
ĠSch n
or ts
l ess
ĠSch auspieler
Ġg ut
Deutsch er
ĠB rÃ¼
Ġcomp le
ĠgroÃŁ e
de utsch
Ġm ember
Ġf ull
ĠH il
ĠW ir
ol ution
9 0
w est
Ġb rit
s icht
Ġzahl reich
fol g
Ġd et
op f
de te
ĠF o
ĠWelt krieg
la u
ĠF ach
Ġ199 7
d ing
Ġc or
uch s
Ġ194 5
op e
19 7
ilit Ã¤r
Ġl ittle
den k
ĠHam burg
Ġv oll
ĠN o
Ġge grÃ¼ndet
Ġbe zeichnet
oss ible
an te
Ġch o
alt ung
2 6
Ġth ree
ach en
ĠB esch
ĠC ity
ei den
Ġper form
sp r
ĠWor ld
ĠR u
ĠFamil ien
ĠUS A
v es
Ġin ner
imm t
ar a
th ing
ĠBe g
Ġlook ing
ar ly
y le
ograf ie
ic ally
Ġv iew
rit ten
Ġan n
Ġb ro
och en
st Ã¼tz
Ġ199 4
ĠJahrhund erts
Ġk ommt
ind ung
Ġdis c
ĠGe org
I D
Ġb ring
Ġfe el
ĠFol ge
l Ã¤nd
Ġab ge
Ġih rem
Ġm en
ĠK ais
wer b
Ġzw eiten
ĠgehÃ¶r te
ur y
m m
Ġare a
Ġspec ial
ver ein
um p
ĠJahr es
Ġvis it
ĠS el
ĠAl t
Ġakt u
y er
Ã ¨
Ã¤ mp
w ort
Ġg ar
ĠD a
Ġ197 0
ĠEr z
um b
Ġl o
l ang
at iv
h am
ĠFra u
ĠJ o
az z
ĠFor sch
Ġper fe
ĠS m
Ġ199 2
Ġb ig
Ġc urr
Ġal ways
ĠS erv
Ġincl ude
2 7
it u
Ġw est
Ġan t
ĠAmer ican
Ã¶ t
Ġc ond
Ġst ate
H e
ĠEin wohner
ĠR ed
Ã¼ hl
g o
Ġto o
Ġf ac
ne te
ir on
ĠG ar
ĠD u
Ġkl ein
Ġg anz
re ch
Ġ199 5
ĠTe am
utz t
ĠB ro
im mer
Ġsch lieÃŁ
ĠS ol
Ġb ie
icht ung
ĠMich ael
ap e
Ġqual ity
ĠA uss
Mit glied
Ġke ep
ĠB ern
ĠA lex
Ġo per
ab el
ĠK Ã¶l
ĠTh ere
Ġpro ble
Ġth ings
il es
n ungen
ĠD i
es te
ĠAn fang
Ġbeste ht
Ġ est
f ert
m ut
w ar
Ġex c
le tz
igkeit en
la v
Ñ Ĥ
ĠR ah
3 5
ĠIn formation
ĠC olle
ĠW ebsite
ond ers
ĠS ystem
Ġg ame
Ã¤ ft
b aut
heit en
ĠT em
d ie
s st
ĠSp e
B er
sch ein
Ã¤ che
ĠGra f
ĠA ustr
P erson
ĠL ud
z ogen
Ġ18 5
Ġd azu
Ġwe gen
. âĢĿ
ĠZ entr
s ych
ĠS a
ail s
Ġc los
Ġw ater
ĠC al
Ġmehr ere
Ġc a
Ġres p
ĠLei p
Ġto day
Ġhe ut
id s
ĠSch loss
Ġpart ic
eth ing
ĠBet rieb
Ġd ata
Ġin t
ĠG old
ĠA p
ver t
Ġhat ten
ĠM ay
ĠHein rich
d o
Ġd re
lie b
b ed
Ġwith out
w elt
ra cht
le hrer
c ript
ĠChrist ian
Ġst or
2 9
Ġsh ort
sk i
one y
Ġher aus
i at
Ġis s
Ġ199 3
19 5
Ġ Ã¶sterreich
Ġw ebsite
gr iff
Ġcont in
ar l
19 0
ĠD ire
zeich nung
Ġt yp
b el
ĠH ow
Ġme et
ilome ter
Ġs ay
ĠE ur
ĠR aum
Ġsein es
schn itt
Ġcom e
Ġbel ie
ate gor
sp rÃ¼n
ig ent
Ġw ei
ier ungs
re as
och ter
Ġob ject
in ner
ĠF ot
Ġbe h
ol oge
Ġor gan
j oy
h Ã¤ng
ĠB ad
Ġse x
Ġg ot
ĠEr st
! !
d ruck
Ġg roup
Ġg row
h ip
ier s
F ilm
uch te
Ġre ce
o ver
ĠR ober
Ġs ince
ganis ation
if iz
ĠfÃ¼hr te
4 9
m ark
Ġer ne
Ġge m
Ġqu est
pro du
ĠR uss
Ġk on
ĠVer walt
i ents
ro s
am b
um an
Ġ3 1
our s
ĠD is
Ġl ot
ĠN eben
Ġsch n
Ġm ind
im ent
S p
gr uppe
G ibt
ĠK at
Ġn ational
is iert
hn en
Ġs ure
ĠZ e
ĠL auf
ĠEin satz
Ġwe chsel
Ġun ser
ik en
ĠK o
Ġl in
ĠG ott
ĠSp ieler
Ġ199 1
Ġind ivid
A T
ar z
Ġe qu
Ġad v
Ð ½
ĠGr uppe
we is
Ã¶r d
Ġd an
ĠK ur
ĠEr n
Ã¤t ze
il y
Ġt ry
Ġ20 21
for der
ig ital
Ġp ower
ĠF eld
Ġgen er
ĠH istor
omm and
ĠS eiten
ĠF er
ĠMa x
. âĢľ
rÃ¤s ent
== ==
ĠMe ter
Ġo pp
ub e
Ġacc ess
ĠA g
Ġre p
Ġbe aut
ib li
ĠP reis
um m
st ag
ra che
amm lung
ĠFrank furt
w and
Ġ x
ĠRah men
Ġh ard
Ġg ive
Ã¶r per
ĠTe xt
co unt
Ġl ight
Ġall en
Ġc ost
A N
A d
Ñ Ģ
ab r
Ġt Ã¤t
ĠM c
le ben
ĠO l
ĠFl ug
Ġval ue
ĠA ir
il la
ĠS Ã¼
Ã¼ gel
Ġge ht
Ġab le
ĠB ed
ĠR ei
f re
Ġk urz
Ġwith in
Ã¤t te
Ġsom ething
in c
ĠSch ool
Ã ĸ
Ġev ent
D ies
ill s
/ /
ief ert
ĠW olf
ĠMit te
Ġd av
Ġ196 0
atur es
ĠW ind
ent ial
ser ie
4 3
ver b
Ġverw endet
Ġne xt
Ġc r
ĠFuÃŁball spieler
os oph
for d
pl oy
f el
ch ten
Ġ18 0
Ġ198 9
Ġgen annt
im a
ĠGeb Ã¤ude
ist ory
B ei
her r
Ġf ile
ain s
pe ct
ĠArch ite
Ġimport ant
z irk
ĠB rand
ĠW ald
Ġh inter
ĠâĢ ĺ
I f
bur ger
ĠS outh
ĠSchwei zer
Ġloc al
sh ip
Un ivers
irt schafts
ĠR hein
Ġho use
Ġet was
ĠTh omas
Ġaller dings
a at
Ġweit eren
Ġch ange
schlieÃŁ end
ĠT re
n ame
tell en
4 7
ft ware
Ġn ame
ĠG ed
Ġd ays
: //
ĠE nd
Ġle t
Ġf act
Ġk omp
A S
Ġb ra
gan gen
Ġverschieden en
w irtschaft
Ġse chs
ĠD ort
Ġbet ter
h le
ĠReg ie
ĠPl an
und s
ĠZ ahl
Ġt ro
ĠBe ispiel
ĠNor th
9 9
st Ã¼ck
e e
ĠD en
Ġp ay
ist ischen
ers Ã¶n
en glisch
ach e
Ġstud ents
ĠProv inz
ĠS en
ir m
Ġarbeit ete
ĠNe u
ĠN r
E S
Ġd ah
ĠHe il
Ġprodu cts
o x
ĠM Ã¤n
ĠS oc
Ġk m
Ġ198 8
4 6
Ġs etz
ĠFrank reich
Ġd och
ĠE p
ĠQ ual
ĠSch m
der s
ĠEin zel
Ġp ict
Ġinter est
Ġinv est
ĠThe ater
ĠT ochter
Al s
ĠZ iel
os en
g art
ĠGeb iet
ĠS ommer
ĠZ ug
Ã¼s sen
ein ander
ĠUn ited
L iefert
ĠR el
ts teller
z y
ĠAl bum
ĠEurop a
if ul
f il
Ġstud ierte
ĠF C
bes ondere
Ġjeweil s
O N
Ġerfolg reich
l iga
ĠW inter
Ġste hen
ob ei
ĠU l
h ere
j a
ĠH of
Ġhe ad
Ġsec ond
ĠfÃ¼hr t
ic le
ĠV ater
ĠW ith
Ġm ain
teil t
Ã¤ m
ĠS itz
it te
Ġo ld
iz in
Ġcon c
heit s
Ã¶glich keit
s weise
Ġj ob
at ten
ĠT ro
v ille
ĠM ont
d a
Ġk ommen
Ġm ust
Ġl assen
Ġle ad
Ġm et
ĠD abei
em s
reib ung
l ungen
ce pt
ig inal
ar te
ag ue
Ġt rue
Ġwork ing
ĠKl oster
Ġl ist
ĠAm t
Ã¤ fts
Ġperson al
kir che
ĠS ein
ge ber
ĠRe c
Ġd ating
ut es
m b
p ly
ĠP rÃ¤sident
ĠL iteratur
Ġle g
o in
Ġco ver
ĠZw eiten
and s
Ġfolgen den
A R
unk te
3 3
Ġbe w
ĠLeip zig
if ied
ĠG el
rÃ¤ ge
ĠEnt wicklung
ĠA kt
E s
Ġpubl ic
Ġw Ã¼r
Ġa ff
ĠI hre
Ġex ist
Ġl arge
Ġw omen
geb aut
ra y
ĠKl ein
a he
Ġan other
fÃ¼ g
ĠS l
ĠK e
Ġad dition
ĠLud wig
un ft
ĠSt utt
we hr
Ġc ert
Ġerfol gte
iz ation
ĠMann schaft
ĠtÃ¤t ig
ka dem
h end
u el
Ġeigen en
op s
ĠP ap
Ġw obei
ĠE isen
ĠF rÃ¼
ĠD ienst
Ġpra ct
ĠH ome
Ġmus ste
Ġap plic
ĠA ward
ĠSte in
gen den
Ġof t
ĠE he
ĠU nd
O b
Ñ ģ
Ã¤ ss
lich es
ĠKÃ¶l n
on ist
ag n
ran sport
ett be
am mer
Ġn ieder
ĠO p
ĠWe g
Ġeas y
ĠHÃ¶ he
Ġfo od
Ġse le
Ġ198 7
b ra
ĠJ apan
Ġh och
Ġ6 0
us Ã¤tz
ĠMart in
la us
Ġt urn
ĠGes ellschaft
ĠB ischof
gemein de
ob il
ĠSe e
as k
Ġh ol
Ġche ck
Ġact iv
ĠSt at
9 5
Ġa ir
ĠW o
iv ed
tel s
ort un
geben en
ĠSt ring
all er
Ġmus ic
ĠS im
4 4
ĠH a
k on
sch er
Ġl Ã¤
Ġpro ject
ĠL uft
Ġ198 4
ult ure
Ġdav on
ok ument
if ik
Ġg rÃ¼
y ing
ĠOb jekt
FuÃŁball spieler
ĠE is
Ġres earch
ĠF ernseh
Ġpl an
Ġm al
p end
Ġen joy
h Ã¶
ĠO ur
ab l
z ess
ĠT yp
W h
ĠF unktion
ail le
f o
E igen
Ġn Ã¶rd
Ġ( )
9 3
i os
Ġm ight
t y
it ive
ĠK ommun
Ġl aw
ĠEr w
ut s
uch e
ĠM er
ig ur
Ġw all
Ġg ilt
ĠA fr
p iele
l am
ĠU hr
ran ken
att ung
ĠF all
ĠW Ã¤hrend
G r
ik el
b ei
Y ou
w ie
it i
Ġb ased
ĠH en
ĠF ar
ab ility
Ġperfe ct
Ġm ax
Un ter
ĠOlymp ischen
Ġm aking
uch en
sch eid
ĠMin ister
richt ung
v iron
Ġne ver
f an
is ierung
Ġchild ren
ĠK ant
ĠSch iff
Ġt est
ĠI hr
ill ion
ĠRom an
g a
id ge
Ġde fin
ĠKais er
b an
Ġm ir
ĠB rit
ĠB ur
Ġim pro
ĠRe gel
' m
ĠF ir
Ġins gesamt
ĠS eine
Ċ Ġ
7 5
8 8
Ġwechsel te
te gr
ĠA pp
ten d
it or
E N
ĠLe ist
Ġas k
erk e
Ġ198 6
ĠTe x
Ġm ar
Ġprogr am
rÃ¤ gt
ĠBes itz
gen de
Ġinner halb
ei le
Ġauf grund
Ġcons ider
zeit ig
ĠB ru
gr ess
Ġm ult
Ġre f
op er
ĠRober t
g lichen
st ieg
o un
ĠK Ã¼
Ġpro te
Ġit alien
th ers
ĠMar kt
ĠPr iv
ch an
ĠH ann
Ġ198 5
ĠSo zial
Ġp age
ĠC omm
Ġt re
ent al
Ġer n
ure d
Ġ ident
ar ing
i ber
ĠK ol
ab or
r ist
ĠStutt gart
oc us
ĠNor den
A s
Ġc ap
Å ¡
S o
is ing
ĠPar tei
ĠHeim at
Ġerreich te
Ġsu ccess
Ġneed s
Ġl ange
schul lehrer
Ġwe il
O R
ĠP ra
Ġ195 0
ĠSta at
3 6
F ernseh
Ġl ess
ĠP ass
Ġur sprÃ¼n
Ġ(âĢ ł
f it
Ð¾ Ð
ĠâĢ Ķ
ĠBe vÃ¶lker
ĠSchrif tsteller
ver band
ĠschlieÃŁ lich
ĠF il
Ġse ver
ĠReg ierung
a ÃŁ
ĠK reuz
ĠK ilometer
. "
i ate
os p
ĠDeutsch e
A M
Ġex p
Ġcon f
v al
ing ton
af Ã¼r
Ġse arch
Ġ197 2
M ar
Ġal ong
al og
und er
ĠProfess or
row s
ul ation
ĠStra ÃŁe
j et
ge f
setz ung
g ing
il nehmer
ic o
8 6
al ten
un ch
ĠD enk
w ald
Ġf lo
ĠEr geb
ho cke
ĠMet hode
Ġkonn ten
wend ung
ĠJ ust
ie gel
Ġse hen
and id
f Ã¼r
eit ung
ĠDav id
w Ã¤r
ĠIn ternet
fl uss
ĠEurop e
, âĢĿ
ĠF rei
ĠR olle
ĠO per
Ġs ingle
Ġn ord
P D
Ġwor ks
ĠArbeit s
ĠP o
im men
ĠPf arr
F ra
ĠV ier
Ġme ist
ĠSt r
Ġprodu ct
ge ther
ĠÃ¼ber nahm
af en
l ungs
ust ry
on a
ĠS w
Ġc all
ĠS am
ĠO t
Ġa uth
Ġap pe
ibli othe
ĠHol z
ĠAl ter
Ġunter schied
ul ts
Ġr un
P h
it ing
ach er
Ġdire kt
ĠP ost
I S
if en
Ã¶r t
lich t
cript ion
tt ing
t il
Ġb lieb
Ġre view
Ġp ort
Ġcour se
ĠStra ÃŁen
Ġmach en
ber ger
wa gen
Ġc reat
ĠK Ã¼nstler
Ã¼r k
Ġden n
Ã¼r z
ĠJ ournal
eth od
rei ben
is ed
ern er
ĠW issen
c le
ĠEur o
Ġ }
f est
Ġs af
ord ing
Ġa way
Ġfin det
sp e
Ġv ideo
k o
Ġs w
it chen
ĠW al
Ġl ine
ĠâĢ ¦
Ġ198 1
Ġp ut
ĠW ieder
om an
ein t
fahr t
mann schaft
Ġbel ow
is on
Ex ception
ver kehr
Ġz we
Ġt em
ĠM utter
ĠCh ina
z a
ĠAut or
c ing
in i
ĠV e
Ġ198 3
Ġp ast
ĠH igh
ĠN utz
c er
ĠMar ia
p reis
ok rat
Ġgel ang
lÃ¤ uf
3 7
id ing
ĠC as
iv ision
ĠSt ate
ĠBeg inn
or m
Ã¶st lich
ok al
Ġ ir
Ġf our
Ġ198 2
ĠGesch Ã¤fts
L and
t es
opp el
b te
ĠD DR
ktion en
Ġgew Ã¤hlt
i ol
ĠM il
ord in
Ġen gl
Ġbes onders
ĠD am
Ġde v
' re
Ġcon ne
Ġd ra
Ġto gether
ord nung
Ġgeb oren
8 5
it ten
ent ion
ru ktur
Ġcommun ity
am ens
z Ã¼
Ġent fern
ĠFl or
Ġges am
Ġl ive
ĠAn ton
Ġdevelop ment
Eigen schaft
ium s
3 9
Ã¤r en
ĠS and
deut ung
Ġzw eite
- ,
Ġf av
ĠI ch
ĠR est
Univers itÃ¤t
arbeit er
A L
en zen
Ġein mal
mb H
itÃ¤ ts
4 2
Ġ Ã¶ff
Ġfor t
ĠM os
Ã¼r t
Ġbeaut iful
fer ence
ĠMill ionen
b ank
ĠW esten
ĠI de
Ġverschieden e
ab ly
8 9
ym n
Ġm oney
ĠPro jekt
ĠOn line
Ġh tt
f red
" ,
ĠSÃ¼ den
O n
Ġme isten
d es
le ist
ĠDies er
l as
ĠT age
Ġre du
Ġn et
Ġmo der
Ġbis her
ĠII I
te chn
Ġ197 8
ĠChe m
Ġtra dition
c onom
Ġh Ã¤uf
Ġf ilm
ĠB ank
Ġ197 9
Ã¼t zen
Ġunder stand
Ġed uc
Ġn ight
viron ment
ib r
Ġn atur
ĠR ichtung
if fe
ien s
ue ck
Ġsie he
Ġ197 4
Ġz eit
Ġerr ichtet
land s
Ġan s
Ver ein
ger ufen
Or t
ĠS aint
ĠL ang
Ġ {@
am in
ĠLe hr
St and
J ahr
Ġk ur
W elt
ĠE ner
Ġins besondere
Ġall ow
Ġ197 5
Ġof fen
Ġcont rol
Ġeff ect
ĠVer trag
ĠIn sel
A A
Ġen ter
Ġze igt
hocke y
B au
ian s
v ed
ip l
ob ile
ge gen
Ġgegen Ã¼ber
ill er
ĠIt alien
Ġ )
ir g
b Ã¼
it ze
ze pt
Ġle d
ĠG Ã¶
ĠAn zahl
Ġk ind
Ġre la
ak en
ak ter
ĠSchwei z
.. ..
ĠZw ischen
ĠCar l
an ze
Ġb rand
ĠPro ble
ĠK lasse
s burg
ĠSt art
e x
ist ik
ĠB eit
ĠO sten
ĠVor s
Ġfe atures
ag o
ĠAm ts
ĠH inter
ĠB is
Ġerne ut
7 6
Ġ197 3
be k
ĠB lack
amp le
Ġvor hand
Ġze hn
ĠM ad
Ġfolgen der
E D
ĠS ong
ĠK al
s etzt
Ġde ut
ĠO ne
Ġ197 6
zeich nungen
ra b
Ġagain st
4 1
ĠP ubl
Ġg irl
ĠSch ule
ru ct
Ġc ity
Ġle ben
id ay
ĠSch utz
sche ch
ĠT urn
Ġex pl
Ġehemal igen
ur f
Ġver st
ĠIn n
b est
asch inen
ĠW hen
as es
ĠA uÃŁer
Ġpr es
Ġt reat
Ġ197 1
Ġem ploy
Ġeinz el
ĠBay ern
Ġn ahe
Ġbest and
ll t
Ġb ar
Ġm ich
Ġver kauf
ĠZ ur
ĠPro zent
A C
Ġ197 7
Ġm ag
ĠS achsen
Ġo ber
Ġein gesetzt
en g
t ain
u h
le ge
ĠZ we
te ile
ges etz
m o
Ġ +
Ġh aving
ĠSt Ã¤d
' ve
I C
Ġw eb
ĠB or
ĠT op
Ã¤us er
ĠRe v
Deutsch land
Ġdown load
Ġpro pert
ĠBer uf
ĠS icher
ĠW eit
Ġcle an
k n
ĠR ock
Ġl ov
ĠF Ã¼hr
vern ment
ĠKrieg s
mal e
ĠC D
ĠN Ã¤
ĠIn stitut
* *
ĠG mbH
je kte
entr al
t al
on en
Ġviel en
au en
ĠPro gramm
Ġoff ers
ĠM ot
ĠDes ign
row n
ĠHerz og
et ter
Ġcre ate
V on
h aupt
red it
Ġb ody
Ġm Ã¼ssen
ĠT rans
ĠGer man
s ide
te id
ist ische
ge geben
Ġgemein sam
ĠverÃ¶ffentlich t
h or
ĠH or
wo od
ĠR ud
ĠZ eich
Ġm aj
Ġc ase
co ver
Ġke y
Ġm aterial
ĠK urz
me e
Ã¶s ung
iziel le
Ġle vel
zie h
Å į
Ġst amm
Ġf ocus
Ġp ot
Ġopp ortun
hl er
ich ter
itÃ¤ ten
Ġs ize
de ck
ĠT ur
ar ian
Ġan geb
f ried
ĠColle ge
S eit
Ġ196 8
ĠMal er
ĠPr ess
Ġdel iver
Ġn Ã¤ch
ĠT V
ĠGes amt
Ġcount ry
Ġfollow ing
ĠL ou
Ġof ten
Ġwh y
Ġt imes
Ġo cc
ĠK ind
weg ung
ĠM el
Ġre le
Ġst ory
geb Ã¤ude
F Ã¼r
Ġer m
ĠAuf lage
Ġbec ome
if orn
he mat
Ġsch wer
5 5
ust rie
Q u
Ġin sp
ĠBe deutung
Ġso cial
ĠD res
m el
ĠKar r
ĠA kadem
p re
Ġm akes
ĠT al
Ġsow ohl
Ġbeg inn
3 1
Ġh app
Ġ Ã¤
il en
Ġind ustry
Ġs ide
b ack
it en
Ġm ein
un e
Ġe ver
Ġp lease
ĠJohann es
ges ellschaft
ĠB aum
Ġsever al
ĠP osition
ĠW ie
ich en
Ġhin aus
Ġ( =
ĠJ ur
en ze
Ã¼ ler
Ġar ch
Ġdire ct
V or
Ġ196 9
g n
w eit
z ir
Ġkl einen
v ious
Ġd ist
id a
n am
Ġpr ice
olit ik
Re g
3 8
P l
Ġm Ã¶
la w
9 6
ĠE hren
Ġac ross
ĠSel bst
I T
ĠC enter
Ġal ten
v oll
Ġkl eine
ab hÃ¤ng
ĠW irtschafts
ettbe werb
Ġph ys
ĠfrÃ¼ her
Ġd afÃ¼r
on ne
ĠLe ague
b rÃ¼
c ent
Ġele ct
at Ã¼r
Ġz usÃ¤tz
ĠVerein igten
Ġst re
Ġv an
Ġsh are
om b
ĠB ot
al z
Ġn on
rit te
Ġb ene
Ġr ange
ĠVer kehr
Ã¤ch lich
i Ä
ĠW eb
i j
meister schaft
ĠOrts teil
ro du
ac y
he ther
Ġl ow
Ġim age
Ġh Ã¶ch
ĠTh ese
ol a
ĠAn gel
Ġheut igen
0 7
fÃ¼hr er
stell t
ĠErn st
ic ks
Ġp ossible
Ġdan ach
Ġa cht
ro ll
Ġpr esent
Ġso gen
stell en
s uch
anst alt
Ġcom es
Ġet c
ichte te
ck s
Ġw ind
Ġth ing
ĠSe c
3 2
ĠH all
Ġqu ick
wo hl
Ġihn en
ĠCl ub
ispiel sweise
Ġb it
Ġv ol
ol den
Å Ĥ
id d
unn ing
ĠSup er
A mer
l ig
ut ions
sch lag
ĠG od
Ġdam als
ĠJose ph
uf act
Ġge tting
tem berg
og le
Ġp ack
Ġd ien
Ġh erv
je cts
ĠO s
Ġs og
ĠG ast
ĠAn n
aff el
Ġ ess
ĠM otor
f asst
g Ã¤n
rÃ¼ f
ĠHo use
M us
ob al
ĠSt ar
Ġlie ÃŁ
Ġmaj or
an ien
E ine
ur ity
Ġbeste hen
og n
Ã¼ ter
Ġspec ific
ĠfranzÃ¶s ischen
ĠS ant
re icht
ĠT ab
ap s
Ġf ar
ĠM ore
Ġbie tet
ung sp
ak er
Ġoff ic
Ġide as
H och
h ang
Ġth ough
hl en
Ġun til
Ġsie ben
ĠVerwalt ungs
Ġ ens
t ler
ĠL es
ĠZ Ã¼r
Ġ196 4
v a
ze uge
o is
ĠBo den
read y
Ġstar ted
Ġcomp an
d in
ĠDe c
ĠE t
ĠKarr iere
6 5
Ġse ason
Ġ8 0
Aus wahl
Ġres ult
m on
Ġr Ã¶m
ell ing
ĠR und
ĠSt Ã¼ck
ĠTh at
Ġh inz
ab in
ĠD own
Ġim p
ĠGr uppen
Ġvorhand en
le gte
gesch lossen
h men
Ġbl og
Ġpo int
Ġl ag
9 8
ĠK or
ĠR ein
rach te
Ġyo ung
il s
Ġcont act
en burg
um er
an o
an ks
Ġm om
ge fÃ¼hrt
k i
Ġcal led
y e
Ġw atch
ĠR ot
ĠgehÃ¶r en
ĠD el
ĠIn stit
Ã §
sp rach
urop Ã¤
ĠK re
Ġso zial
ĠStud ien
ĠD istr
Ġ196 6
anad a
ch ter
ĠH ers
ĠMe hr
Ġc amp
ĠMit glieder
ĠM ilitÃ¤r
ut ure
Ġin n
ikan ischen
ibliothe k
b ung
Ġh om
Ġdar unter
arbeit en
Ġzahlreich e
or den
b ol
re w
Ġex tra
Ġen er
G em
ul a
Ġco up
Ġn ie
ĠReich s
ĠP et
Ġst arb
ĠkÃ¶n n
f s
ĠSch wer
h an
at te
ĠD om
ĠH in
ic ro
à ¸
sch iff
zeich en
Ġrequ ire
Ġzu dem
ĠP an
ĠI r
ĠInformation en
ĠSt ates
ĠlÃ¤ sst
ĠProdu kt
Ġr uss
ĠEng land
ann e
ĠM ur
th rows
Ġzur ueck
ĠBahn hof
âĢ Ķ
ĠJ azz
Ġhand elt
ĠT est
Ġz og
Ġ3 5
3 4
7 7
ch ester
rich ten
ĠE mp
ant wort
ame ister
Ġam er
Ġbu y
c is
m ost
Ġwel ches
s eite
Ġ9 0
ĠS u
Ġl at
Ġver t
Ġcol or
ĠI l
ĠG re
ĠW ochen
ĠTe le
Ġbefin den
ĠJ ames
arr iere
sch eiden
Ġer klÃ¤r
Ġdah er
b ro
es tern
Ġto ol
Ġle ft
Ġ193 9
ger icht
Ġprofess ional
ik on
ĠGen er
Ġser ies
Ã¼r d
ict ion
Ġschn ell
A P
un sch
pla y
Ġletz te
ĠR os
Ġbe de
ift ung
Ġabs olv
Ġl ink
ĠM Ã¶glichkeit
br uch
ĠRich ard
or ie
ĠEr folg
i od
Ã¤ chen
Ġkn own
Ġ7 0
ĠA G
la ger
Ġwen ig
ĠSal z
Ġbe ispielsweise
up p
at ers
ĠS ub
Ġerw Ã¤hn
ĠE ing
al ys
ĠL o
Ġl og
ymn as
ĠE ben
av en
r im
Ã¤l fte
ĠSp iele
Ġfriend s
H er
Ġbe vor
fl Ã¤che
Ġ196 5
w ind
Ġ ung
f a
n ach
Ġer Ã¶ff
F l
ĠAuÃŁer dem
Ġf ield
Ġp urch
ĠR iver
Ġ196 7
Ġmember s
ĠM iss
werk e
we gen
hr te
ak te
ĠEn gl
ish ing
pl an
ĠAustr al
ar en
ĠR ang
mÃ¤ÃŁ ig
Ġt alk
ĠDre h
fl anzen
Ġal ready
eh men
Ġm ethod
ĠK ategor
ĠV al
ĠB ach
Ġ Ã¤hn
Ġgen utzt
b esch
d f
Ġchar ac
r or
ĠB Ã¶
' ll
ell s
Ġ193 3
ĠC amp
r am
ier ungen
ĠIn nen
Ġ193 0
Ġgef unden
ar ed
v est
Ġme ans
bar en
ĠgrÃ¶ÃŁ ten
Ġeigen e
Ġt ype
Ġo p
ur ance
ĠHer mann
ĠAss oci
Ġs en
ĠE igen
Ġsp ace
ute t
Ġbest imm
em in
Ġwo hl
par te
Ġ194 4
d t
ĠZ um
Ġlie gen
Ġjed er
Ġprov ides
o int
Ġ195 6
Ġw oll
ĠJ ack
Ġj etzt
Ġinst all
b are
ĠS yn
âĢľ )
geb ie
led ge
Ã¤d ag
ic y
Ġwicht ig
Ġsoll en
Ġ Å
Ġentsp rechen
Ġsup er
ĠHal b
te g
esten s
is c
qu e
ĠD ruck
Ġ194 0
Ġentstand en
ut or
b ten
Ġre port
ĠhÃ¤uf ig
M et
ĠB u
ag s
re ibt
ĠW eiter
ilit ies
n es
ĠR oy
ĠL u
Ġmo dern
W est
Ã¶ ÃŁe
it ch
ĠA st
0 5
os sen
Ġ196 2
O S
Ġ(âĢ ŀ
Ã¤t zen
geb ung
ĠVors itzen
i i
ik al
he ira
an ischen
es ted
ĠP rÃ¤
Ġl im
ĠBerlin er
Ġd eb
Ġh ours
itz t
ĠA k
Ġre gel
. :
ĠF ac
Ġver m
ĠOt to
ĠBr on
Ġb lack
ikan er
ĠNach dem
" .
i ÃŁ
ĠF ort
Ġte xt
Ġzw ar
ĠBevÃ¶lker ung
c el
ĠB ook
ĠSie d
ĠPh ys
ast ic
r as
Ġsich er
ĠWh at
Ġrel ations
Ã¼s se
B C
rie f
iz ei
fin ale
it a
ĠJ es
Ã¼rt temberg
ĠNÃ¤ he
Ġor ganis
r ies
Ġso ur
for sch
an lage
Ġ19 20
Ġd one
Ġtechn ology
Ġcustom ers
Ġw ahr
il er
Ġh istory
ze hn
leit ung
itz er
b s
ĠMÃ¤n ner
o o
Ġprodu z
ĠSil ber
al tet
ĠP rem
Ġh uman
ĠGemein den
och e
Ġret urn
o ught
ĠG eld
ward s
ĠHo tel
rol le
ges ehen
m as
i ar
w esen
0 8
as er
Ġf alls
ĠF el
Ã¤nd ern
Ġw alk
Ġpriv ate
s eit
ĠL iga
Ġl iving
ad urch
Ġst ay
A nd
Ġf al
Ġ196 1
z us
ĠG i
ern en
fra ge
im s
ct ive
ĠW enn
Ġst at
Ġver fÃ¼
Ġs n
Ã¤t igkeit
ĠRe al
ĠServ ice
o unt
isse ur
Ġbe teil
Ġmed ia
ĠSie g
Ġzu vor
ick en
ĠK auf
Ġteil weise
ĠAkadem ie
in ge
ide os
Ġen vironment
Ġre pr
Ġinc re
k und
geord net
Ġw a
ang es
ĠR em
Ġstell te
ã Ĥ
ĠD et
l ad
Ġs ug
Ġtra ining
6 6
Ġp ie
ĠGe f
ĠK rit
Ver lag
ab y
h il
Ġdeut lich
ĠK an
Ge ographie
ĠÃ¶ff ent
Ġst yle
Ġbuild ing
Ġk itchen
ak a
aup ts
ent in
Ġcomp uter
Â ²
ĠS telle
Ġen ough
z i
8 7
Ġsom it
c ome
Ġw elt
ĠEr sten
ĠĠĠĠ ĠĠĠĠ
te xt
Ġme an
Ġte ach
Ġ196 3
Ġc ent
l ant
ad a
ĠEle kt
Ġdisc uss
Ġindivid u
ĠV o
ran ge
Ġ193 8
g re
Ġcompan ies
Ġm ass
er ing
Ġw issenschaft
ĠB y
âĢ ĺ
ĠPhil osoph
Dies e
it ure
ungs k
nd er
ĠB aden
ian a
Ġ194 9
S h
ub le
ĠD ate
ĠAl bert
ring en
an gel
ĠW ein
Ġth ought
ĠFre und
ĠWill iam
Ġo thers
Ġfol gte
ĠBes uch
o den
Ġer reicht
ier ter
fol ger
ĠGra nd
Ġproble m
b or
ĠP op
Ġmonth s
etz ung
Ã¤l ter
ĠRei he
Ġs tellt
Ġ195 2
ĠSp rache
Ġdam al
A ll
ing t
ĠSer ie
ĠH Ã¤lfte
lie ben
n ers
ĠL age
Ġ195 9
ĠZ ust
Ġag o
Ġp ur
ran g
stre cke
im ate
ĠRep ublik
ĠB ilder
Ġvar ious
Ġdesign ed
Ġwen iger
Ġeng ine
haf t
ĠEr d
Ð »
Ġac count
w in
Ġm iss
Ġfr ont
Ġverb unden
Ġbef and
Ġc ame
Ġstud y
Ġpop ular
un a
ĠZÃ¼r ich
ĠC ommun
ir c
Ġk lass
k el
in ts
Ġun ique
. <
P ar
Ġh Ã¶
Ġg ames
Ġall es
ide d
Ġoff ice
Ġne ar
ĠUn ion
Ġcl ick
itu ation
at um
Te ilnehmer
Ġein igen
) ;
Ġw onder
ĠG al
ĠHer ren
ĠFe uer
R O
ent wicklung
ĠR ob
Ġch allen
ĠGe orge
ĠP DF
Ġmod el
Ġver sch
ĠSpiel en
ĠBru der
ĠE du
Ã ľber
ĠM ac
Ġb in
M ed
ĠS Ã¤nger
ĠG arten
Ġto ok
ag t
Ġgleich en
g g
re p
Ġbes ten
ĠJe an
ĠS omm
E M
g ere
Ġauf genommen
Ġsog ar
rie ges
Ġ195 7
C D
m od
il ian
Ġdo ing
Ġcurr ent
m useum
v is
Ġn ichts
Ã¼l t
p ut
ĠPr es
ĠWerk e
Ġehemal ige
Ġsim ple
Ġperform ance
part ment
an ger
ĠK Ã¶rper
ach ten
schlieÃŁ lich
en er
Ġe arly
Ġcomple te
Ġlin ks
9 7
ig in
ww w
Ġman agement
ĠKÃ¶nig s
Ġadd ress
r unde
Ġk amen
Ġ195 8
ĠM ass
Ġc ard
ĠFl uss
ĠAlex ander
est s
ĠHil fe
ĠDres den
S port
u a
ĠAr m
rÃ¼ ck
Ġdid n
ik o
Ġfav or
ĠC an
Ġup d
ĠKÃ¶nig reich
anc ial
d i
ĠÂ »
amerikan ische
ĠSch Ã¼ler
ile d
Ġfolgen de
Ġnach dem
Ġw on
ĠMed ien
te in
Ã¼ hle
ĠL og
20 18
Ġ194 6
9 2
ĠO pen
Ġon ce
yn am
Ġevery thing
Ġcont ent
Ġm illion
w asser
ĠAuf trag
Ġmach te
Ã¼ss eld
un c
ay er
Ã¤t ten
Ġentfern t
w esten
Ġn atÃ¼r
y a
ĠI D
Ġ4 5
ĠA c
p rÃ¤sident
la den
Ġcert ain
ĠB al
Ã¶r m
he t
Ġres ults
ĠP sych
U m
ĠVerb indung
k ret
enn ung
Gem ein
Ã ¢
ĠS old
Ġver lie
Ġinclud es
ĠK ampf
ĠW alter
p ark
Ġ5 00
so zial
ĠG roup
un ge
Ġf uture
st ant
ot ball
Ġf urn
Ã¼ ste
ĠL Ã¶
tag s
ĠW issenschaft
por ts
Ġb ath
ĠW irk
Ġer k
Ġam ong
onst ru
le iter
ĠM aterial
ang s
Ġcomp et
ec ts
ĠWolf gang
ĠA ben
ĠN ow
Ġent hÃ¤lt
an ken
ur ther
Ġgen au
Fernseh serie
ĠÃ ľ
ĠG leich
us ion
oll ar
ag ing
ut zen
z Ã¤hl
ge hen
ad o
ĠVer fÃ¼g
ĠFin anz
Ġd ivers
Ġde al
zentr um
Ġbes uchte
E T
Ġwh ite
ĠGe ist
e ter
Ã¤ch s
ĠA tt
res h
as en
ĠC up
Ġpartic ular
ĠSt amm
ï ¿
sp iele
Ġf it
ĠD ay
Ġy et
jÃ¤hr igen
ĠB ud
ig lich
if y
ĠStre cke
d am
it sch
rit z
T rÃ¤ger
ĠC le
heira tet
air s
van gel
Ġge legen
ran t
Ġl ate
Ġele kt
or gen
ĠAr ten
ĠCh amp
ĠK le
Th ere
S e
Ġm ess
ĠC r
av a
Ġloc ated
ien ces
Ġbei de
Ġrec ommen
fÃ¤ h
r ig
Ġs ays
ï¿ ½
W hen
Ġcomm on
ĠJun e
ir che
i w
ĠW ash
Ġ195 5
wert ung
ic ation
ĠAr mee
6 8
ĠAn geb
Ġakt iv
rie ch
Ġt able
ĠRe gen
wohn ern
fe hl
arbeit et
or a
ge m
leit et
age d
ĠauÃŁer dem
Ġd oc
ĠW ol
ĠMe er
ĠG est
bet rieb
g liche
ĠThe ma
letz t
H and
el ten
Ġe conom
k an
ĠD eb
ĠS in
ann ing
ĠJ ung
Ġsetz te
ges tell
Ġinv olv
ip ment
ĠPhil ipp
ĠComp any
b ook
ĠHer aus
ĠC ent
ĠA th
ĠBÃ¼rger meister
Fra u
ĠG et
ĠK ing
fl ug
mit t
ĠIs land
or te
ur a
ĠF rie
Ġl ik
ĠSe x
Ġ194 2
or ies
ĠA v
auf en
ĠFrÃ¼ h
iv ely
S V
u hr
ig ungs
ĠF und
Ġj apan
ĠGra b
Ġpropert y
r uf
ĠC am
Ġs ett
ĠI d
ar stell
et ten
ĠAus bildung
b ischof
ĠI hnen
ens ion
im ar
lie d
Ġener gy
l ow
ĠP il
O ur
press ion
ut her
imm ung
9 4
Ġquest ions
1 00
ĠR and
Ġmehr eren
vent ion
ĠB ill
Ġtra vel
st ud
ĠE U
ĠK raft
ame ter
Ġresp ons
b Ã¼rger
Ġer ster
Ġle ader
Ġauth or
ell ow
ĠA ct
ĠK ranken
ho ben
ĠCh or
ĠUnter such
ĠEl tern
Ġact ually
ĠF Ã¶rder
ĠL eiter
ĠGeb ie
eb ook
ĠUnter stÃ¼tz
ho ut
e ign
f ten
il led
Ġ195 3
ient en
v in
ĠMe x
fahr er
amer a
ĠD okument
Ġnew s
g ten
f rei
ã ĥ
ar th
wissenschaft ler
Ġvoll stÃ¤nd
Ġz Ã¤hl
ĠY our
E L
k or
Ġmin utes
8 4
Ġsch rieb
ir es
men te
ĠV iel
Ġin de
Ġh ig
ĠG ut
ot a
ĠverÃ¶ffentlich te
m und
w es
ress e
ch ie
an ces
ra chen
ed en
ĠPro f
Ġman ufact
w ill
ĠA fter
Ġv o
ĠK opf
iden ce
Ġle ast
ĠTr uppen
C hr
k ap
t ritt
ĠPolit ik
ĠC la
ĠU p
av y
ĠKomp onist
ne ter
ĠMit arbeiter
Ġh old
Ġd ue
ĠSt ad
g al
t d
z we
Ġaus gest
S etzt
il ien
em b
ĠAl le
9 1
Ġh ope
iv il
Ġgeb aut
r al
ĠJ ac
k reuz
ĠMus ic
ĠArt ikel
h inder
6 7
g round
Ġpr ess
ĠDenk mal
ĠSomm ers
ge hend
ĠK ons
ieren den
Ġhe art
Ġg re
ĠBe zeichnung
meister schaften
ĠLe hrer
tre ter
ĠT on
ci ally
Ġf rei
ĠR itter
Ġer ziel
Ġare as
ĠSc ience
Ġgew esen
Ġex t
k unft
Ġd ate
Ġan schlieÃŁend
ĠZeit schrift
Ġ194 8
schrif ten
zir ks
le cht
Ð º
Ġw ent
st Ã¤tte
de ckt
Ġpre par
fass ung
Ã¶ hn
be zirk
Ġc ra
ĠE st
Ġre cht
ĠwÃ¼r de
E C
f on
g ien
r hein
Ġbre ak
ĠN et
ful ly
0 1
Ġres our
ca dem
k athol
Ġad min
Ġ194 3
ĠMo unt
ĠM ein
ĠK ra
ĠL im
nde te
ĠR en
gel Ã¶st
p age
eit her
ĠW and
ĠC our
end es
ĠGes etz
ĠN etz
wie gend
ĠO ut
ĠChar les
u ed
w art
Â »
Ġd ritten
ĠO ct
ĠPla y
Ġt aking
Ġin form
Ġl ar
ĠT om
Ġab ove
rÃ¤ fte
ĠLou is
ĠL aw
Ġne un
ĠVerein s
0 6
Ġs il
us st
ĠM ond
ĠL icht
A t
P r
Ġread ing
ĠArbeit en
ĠZu ge
M an
Ġor iginal
Ġf ert
Ġ195 4
Ġver d
Ã¤nd ert
ĠZentr um
ot ion
Ġe uropÃ¤
ĠBe k
om et
Ã³ n
Ġann oun
or ed
ĠF en
ĠRe ise
olog ische
ĠBas is
N ational
ĠW ider
Ġto ur
Ġprofess ion
Ġiss ues
Ġunter stÃ¼tz
Ġaut omat
Ġm atch
Ġbe deut
Ġ194 1
ĠD Ã¼sseld
ĠBe griff
Ġtra in
ab eth
ug hout
ĠPr inz
8 3
k ra
Ġa ud
ĠW all
Ġcom par
ĠAb s
Ġho hen
G B
ĠB d
ĠgrÃ¼ ndete
ra el
Ġam az
ĠStud ium
Ġpro b
ran sp
f ield
ze ugen
Me ter
ĠT it
Ġnatur al
at ors
ĠRe ad
hal ts
r ug
z ip
abr ik
T o
ĠRe cht
eid el
ĠA uÃŁen
ĠProdu ktion
ĠVerfÃ¼g ung
ĠS ym
ĠH essen
ite te
Ġz erst
ĠB ack
ĠT ier
ĠU K
Ġcolle ction
ĠSoc iety
olog ical
Ġlat est
is es
ĠL Ã¼
ĠC ons
Ġge ben
Ġpol n
ĠE v
Ġre ach
Ġsp ielt
ĠDan ach
Ġhe ira
ĠÃ¼ber n
aler ie
Ġgem acht
ĠHann over
Ġherv or
Â °
ĠF ern
ĠH Ã¶r
ĠC ap
Ġpos ted
ĠursprÃ¼n glich
re cher
Ġp ersÃ¶n
ib ility
ĠOr gan
ĠA cadem
ĠF ree
Ġj oin
p aper
Ġm acht
ail y
ĠD ach
ĠL ake
amil ie
ĠsÃ¼d lich
le tt
ĠAl b
hand lung
st a
Ġso ftware
zeug t
an ted
Ġf ive
r up
ĠI st
ich e
Ġ193 6
Ġabsolv ierte
zeit en
Ġp aint
ple ment
Ä į
Ġg iven
all ow
ĠNach folger
Ġgo vernment
Ġsystem s
ĠSchl acht
, "
Ġp aper
Ġh appen
Ġcom fort
ial og
ĠM ult
ĠDies es
w irk
ad s
Ġal most
bl ick
ĠT her
h istor
p ol
Ġa ge
Ġger ade
s erv
ĠF le
Ġcre ated
c m
==== ====
ĠWash ington
Ġr en
Ġge d
if fen
ograph y
ĠK ommand
Ġk osten
Ġwrit ing
6 4
Ġrest aur
lÃ¤ ss
Ġk einen
Ġk athol
ste hen
Ġ ill
ĠN ik
Ġhal f
Ġf und
Ġre ason
we isen
ĠDam it
P S
it ar
ĠU s
ĠGÃ¶ tt
ren g
Ġho he
ĠAmer ica
mer k
Ġgemein s
te ten
Ġre d
Ġd iff
at o
ĠerwÃ¤hn t
ro t
Ġst aff
Ġsoll ten
7 2
ĠFir ma
S er
Ġin tegr
Ġw id
de ten
Ġreg ion
ĠOff izielle
Ġdoes n
b ie
ĠAn ge
ĠLin ie
ĠA re
ing les
Ġb le
Ġle icht
Ġcom mit
Ġsome one
ĠGrÃ¼nd ung
W ir
e ded
Ġb ad
Ġj a
Ã¡ n
Ġem ail
ĠForsch ungs
I ch
l Ã¶sung
Ġhtt p
Ġc op
ot o
ĠG as
hr t
ret ty
Ġihr es
0 3
ĠVer Ã¶ffentlich
be ck
b ark
c ol
Ġp osition
ĠH u
ĠV ideo
Ġse en
z og
ĠD or
Ġstamm t
Hoch schullehrer
Ã¼r n
Ġt it
Ġper iod
Ġd istr
ĠK unden
Ġev ents
gew iesen
Ġbook s
Ġwho le
af r
ath let
s ie
Ġcho ose
0 2
Ġdes cription
ĠSte uer
Ã¼l ler
ĠV an
Ġass ist
Ġuns ere
Ġapplic ation
ĠM ess
ĠZw ei
âĢ¦ ]
Ġex ample
Ã¤nd ig
G es
M S
Ġr icht
ĠB a
ĠT eile
g le
ĠL Ã¤nge
ver walt
ific ation
Ġc ele
Ã¤t ter
ĠReg ierungs
Ġentwick elt
ĠSchauspieler in
Ġclos e
ĠB und
Ġsel ten
T ra
un s
Ġl iter
18 5
ĠStadt teil
ĠGo ogle
ĠR at
ĠL os
7 9
Ġnor mal
Ġ Ã¼b
Ġver heiratet
gr am
8 2
or es
Ġen c
com ing
Ġt ax
Ġsch loss
olog ischen
ĠAssoci ation
h y
r um
Ġl ater
iÄ ĩ
x is
Ġge k
Ġappro ach
Ġdet ails
ĠSt ock
ĠWien er
ĠBay er
Ġide a
. -
g as
7 3
Ġth er
ĠKategor ie
F A
ip le
enn is
Ġ194 7
ĠBrit ish
w issen
ir th
ĠDown load
ĠKant on
v o
ie ÃŁ
aus ch
Ġ3 2
ore a
ĠS Ã¤
ĠJose f
Ġstr ong
( )
f ar
b i
sch uss
Ġc la
hÃ¤lt nis
Ġs ym
ĠD oppel
istr ation
R E
om ot
et y
ab et
ĠnÃ¶rd lich
lin ie
pe cially
ĠR Ã¤
ĠÃĸ ff
ĠFest ival
ĠSch Ã¶n
ĠHow ever
ĠPriv at
l iste
ĠR a
ĠZu dem
Ġevery one
Ġflo or
ĠM as
ĠL ied
ime ter
Ġev angel
Ġra te
ĠB ig
Ġeben so
S S
i est
Ġh ot
ĠSp r
Ġeduc ation
v on
ur al
ĠD Ã©
n o
ĠW in
gr enz
ĠNach bar
arbeit ung
ĠnÃ¤ch sten
le ment
Ar ch
p el
Ġ Ã¤lter
Ġre chts
ĠPol en
mar kt
il det
Ġn ull
ĠH is
h ib
ĠF irst
neh m
p ass
ĠEisen bahn
h i
ĠR unde
ze igt
Ġfe ature
b aum
Ġ193 7
Ġf ul
por ted
Ġbes itzt
ĠD ivision
ĠÃ¶sterreich ischer
Ġw ww
ĠB usiness
ĠF uÃŁ
ĠW ild
ĠVer l
ĠEn ts
ĠMin uten
k au
ĠB on
Ġv eh
ĠSt il
bo ard
ich ert
Ġv ia
Ġim ages
Ġco ok
ĠSchw arz
fall en
Ġthro ughout
e ks
ĠRad io
ĠRud olf
Ġat tra
Ġpartic ip
o der
Ã¶ ll
ĠMa ÃŁ
En t
ab les
Ġst ore
Ġvers ion
k unde
ĠL uc
ĠL eitung
ĠJ ak
th ough
Ġpict ures
Ġb i
ĠP flanzen
Ġsel ben
Ġwei ÃŁ
Ġe her
ĠU N
denk mal
S tra
Ġsch l
ĠPol izei
Ne w
Ġwall paper
Ġc ur
l ern
Ġs ong
fer enz
Ġweiter hin
ĠfranzÃ¶s ischer
lichkeit en
at is
Ġp df
ĠH ere
M od
h ers
Ġcl ients
alys is
Ġ195 1
Ġeinz ige
Ġopt ions
Ġnet work
ie ur
ĠTra iner
a ill
t schaft
g arten
Ġp ain
Ġw ide
ĠMar ch
ĠEurop Ã¤
Ġpict ure
a ktion
k et
ĠE vangel
ra uch
Ġwel cher
idd le
Ġa chie
il ar
0 9
f unk
ĠNach t
Pro du
f alen
Ġp ick
Ġh air
gen cy
iqu es
Ġz ust
os ph
Ġne ues
Ġph one
Ġheira tete
ĠA ugen
Ġc rit
ĠCar ol
r is
Ġknow ledge
Ġerreich en
Ġfin anz
Ġern annt
K on
ĠA ber
Ġal te
ĠErgeb nis
as te
Ġge hen
Ġvar iety
ĠMat hemat
Ġcurr ently
ĠB us
ĠI V
ĠEr fahr
f Ã¤l
o id
Ĩ Ĵ
Ġh ab
Ġcon stru
ra ct
sch ei
Ġt akes
st att
Ġk om
Ġs onst
Ġs ites
ĠS ter
C O
Ġ193 5
ifik ation
W er
Z u
u age
ĠIn c
Ġj Ã¼n
ĠÂ «
U N
Ġf ace
Ġproble ms
af fe
Ġent ire
omm ission
rei he
Ġs ale
ot te
Ġmit tel
Ġausge zeichnet
Ġwoll te
ow jet
Ä ±
Ġto tal
ĠN S
ĠV is
Ġoff iziel
Ge grÃ¼ndet
Ġhe iÃŁ
ĠP ublik
am ing
Ġge geben
Ġver ein
bin ation
Ġh ost
ĠS ur
ell ent
Ġad ded
ĠfÃ¼hr en
w al
ip e
ist ic
Ġ19 18
Ġrel ativ
ĠPart ner
am ed
ĠE ast
orn ing
Ġloc ation
per atur
Ġrequ ired
Ġfun ction
Ġm em
Ã¤ te
Ġz ie
ĠNe ub
Ġqu ite
Ġrec ent
ĠAn na
end ing
Ġsel f
ĠgrÃ¶ÃŁ te
ĠG reen
Ġtra ck
Ġentwick elte
ĠMed izin
ĠA ust
Ġbo x
Le gt
ĠfranzÃ¶s ische
Ġunser er
Ġeinzel nen
Ġra d
Ġrel ig
Ġconc ern
o on
ĠT im
ĠSp ring
Ġquest ion
ĠEp is
ul es
Ġge pl
ien ste
ĠPar te
Ġbil det
f Ã¶rm
z uf
Ġ193 4
Ġprovide d
ĠInstit ute
ĠF rom
ĠW ahr
Ġum fasst
ĠFran cis
anst altung
t ime
Ġc m
ĠFol gen
g ers
re chts
parte ment
B o
Ġme as
Ã ¸
ĠStre et
u hl
ĠW ort
Ġmit tler
Ġent halten
ĠBl Ã¼
ĠEurope an
h ab
Ġs le
geord neter
hen s
Ġes pecially
Ġsh ows
Ġde ter
Ġbelie ve
ĠSchm id
ĠK laus
unter nehmen
ĠDÃ¼sseld orf
0 4
A D
p ed
halt ung
Ġs ens
ĠW erner
Ġar g
unk ten
b orn
fra u
ĠRec ords
6 1
Ġf ire
od es
los e
Ġopportun ity
hockey spieler
ve y
Ġdar Ã¼ber
ict or
ymnas ium
Ĥ ¬
ĠNew s
us ive
ĠK osten
ĠVers ion
ĠVer d
Ġj Ã¼d
Ġmarket ing
Ġf urther
sch au
Ġj Ã¤hr
Ġgen eral
f its
r ation
Ġh on
rech end
ĠD ipl
ĠAnd reas
Ġbil den
ĠP lease
Ġsim ply
re ise
Ġbu ilt
osp ital
ĠHand els
Ġhe ld
Ġfurn iture
Ġw hether
Ġcustom er
w h
sch t
gel n
ĠS ingle
ed ding
Ġk ont
Ġst ammen
Ġne g
ĠMan agement
Ġb reit
ĠH om
Ġspe ziel
Ġhapp y
on ym
ĠH y
Ġbesch Ã¤ft
Ġint rodu
Ġt aken
an ischer
ain ed
Ġ[ âĢ¦]
Ġsk ills
wÃ¤r ts
z immer
ĠSch les
Ġstand ard
ĠStand ard
Ġf iel
af t
Ġw anted
im um
ho use
C l
in os
Ġd igital
ieren de
Ġpre vious
richt ungen
zie hung
ic ago
Ġerh Ã¤lt
ĠFin ale
6 2
7 4
ĠO k
spiel en
rep ublik
iz ing
Ġread y
Ġmind estens
ĠEner gie
Ġp an
ĠB onn
Ġ Ä
ar f
Ġper cent
Ġinternational en
d y
ĠPro t
aut or
ĠEngl ish
ro ffen
ĠEin wohnern
sel ves
iforn ia
Ġp retty
Ġabs ol
piel t
Ġtry ing
Ãĸ sterreich
b us
C ont
Ġ Ã¤lt
Ġm ove
Ġp le
Ġk ids
Ġun ivers
ĠS ign
he ad
ver age
ĠRoy al
6 3
8 1
ok e
Ġar r
ĠD och
do or
I V
iz es
Ġaktu ellen
Ġens ure
G er
ĠP unkt
H ol
Ġs ales
ĠSp rach
Ġto wn
Ġt old
end ung
S pe
Ã¶ ss
ĠV oll
A G
ĠAb schluss
u ary
Ġcharac ter
Ġlearn ing
forsch ung
O T
haus es
| }
Ñ ĥ
Ġw ays
an lagen
ic les
chn et
I P
qu al
ain er
Ã¤r k
ĠWh ite
Ġcle ar
c rib
Ġrec ently
ron om
ĠF Ã¤
E is
Ġb lock
w urf
Ġ either
ĠH an
ĠVer gleich
stell ungen
Ġany thing
mÃ¤ ler
ĠOr ganisation
ess ion
ĠerÃ¶ff net
E O
ff e
Ġins ide
ĠDan iel
, ,
T V
as c
ĠW el
Ġne uer
Ġpl ans
i ally
ar ts
ĠO f
ĠAn schluss
Ġem pf
Ġse par
Ġphot os
7 1
Ġt w
ĠK as
Ġpro jects
erv e
Ġpart y
u it
ĠL ive
Ã¶ sen
Ġ19 00
zw ischen
Ġerschien en
M y
ĠA ud
ĠMod ell
d s
ct ing
f ace
ing ungen
z ert
ed ia
Ġso on
Ġdien te
k arte
P DF
ibr ary
hal te
Ġn ice
ĠHe alth
Ġins urance
Ġart icle
ĠZusammen arbeit
Ġtro tz
C H
Ġf a
ĠI nde
et ing
b rit
Ġ19 19
ĠFÃ¼r st
Ġst ock
ĠGes und
an ische
Ġv e
ĠEx per
Ġverl oren
p hen
Ġange geben
ĠRel ig
Ġamaz ing
is ted
ne w
Ġgesch lossen
Ġm at
Ġinn ov
Ã º
ic ult
Ġreg ul
y ear
ĠM r
ers eits
f igur
y es
ĠFl ugh
ĠUm welt
Ġ3 00
etz en
Ġled iglich
Ġf ra
Ġp sych
ĠT own
zeich nis
Ġges tellt
mut lich
ĠB il
ĠJ ones
ĠUm gebung
Ġsec urity
Ġequ ipment
O ber
at iven
ad y
ĠSch le
Ġne eded
ĠThe men
ĠBe zirk
Ø §
Ġsign ific
Ġgesam te
c on
ĠT urm
opp ing
P f
ĠH ei
Ġs we
ĠT w
ĠT ages
Ġpre uÃŁ
Ġfin ancial
Ġstud ent
ĠVer m
ĠOr d
ĠIm m
ĠInd ustrie
ie ger
ĠW ies
ain ing
pe cted
att le
ĠLie be
west lich
iz ier
w here
st aat
ĠfrÃ¼ hen
Ä ģ
Ġl on
op t
Ġze igen
Ġstell en
Ġbrit ischen
Ġ Ã¼
Ġw es
ĠW as
we chsel
Ġben Ã¶t
ĠUnterstÃ¼tz ung
at ory
Ġro le
Ġfand en
mus ik
wind igkeit
Ġd Ã¼r
ist an
Ġschw ed
ĠH eidel
au te
Amer ikaner
Ġw Ã¤re
ig ner
ĠH art
Ġbet rÃ¤gt
n itz
Ġke hrte
em ents
Ġdamal igen
g arn
i ro
ĠZeit punkt
Ġrela ted
k om
lie gen
Ġ Î
gr uppen
Ġerh Ã¶
Ġben annt
ar tet
ĠK er
ist in
Ġp oss
Ġprov iding
Ġsl ow
s berg
Ã¤n gen
Ġass oci
ĠVerkehr s
Ġe p
Ġjed en
ĠVol k
ĠJ er
ĠBre men
B l
on se
uf e
ir it
aus t
Ġse em
ĠP orn
6 9
v els
reich en
ĠRest aur
b is
ĠM aster
ĠLe g
Ġdec or
Ġehemal iger
f unktion
m esser
Ġco de
Ã¤d chen
ĠAut o
Ġrece ived
j or
ĠE th
ier re
ĠHer bst
ĠFamilien name
lie fert
ĠEle ment
med aille
ĠkÃ¶nn te
k ur
ĠAr n
ĠMÃ¼n ster
techn ik
hl t
me hr
ĠKir ch
ĠS und
ĠBr un
Ġver lÃ¤
ren ch
ĠFra ge
ĠS n
D urch
Ġdiff icult
at ik
Ġun ver
Ġwe eks
c up
w an
F C
ĠS tern
Ġactiv ities
f ur
ĠSp ec
is ierte
ĠI T
pro chen
ĠGeb urt
ĠM aschinen
ĠW ebs
Ġ ut
st anz
ĠG ro
ĠSt unden
gemein schaft
onst ants
h ing
ĠS onder
Ã¤ ten
Ġcom ing
ĠEnt scheid
ĠH ard
ĠVer t
ĠAus gabe
an walt
Ġo ben
Ġt ell
Ġb em
Ġth ird
ad es
R uft
ĠV en
Ġest abl
g ibt
Ġb lo
we ig
K l
ĠZeit ung
ĠFre ib
a un
Ġp ark
ĠL ove
ell es
Ġ rom
at form
Ġ19 14
ĠJ os
schaf ter
end s
ĠLe icht
Ġâ ĨĴ
ĠFac ebook
ĠR ennen
Ġg ute
ĠSt affel
ĠD ann
Ġs ummer
ĠK ern
ud es
Ġ192 8
Ġzahlreich en
Ġso und
Ġch em
Ġco ol
ig entlich
Ġyour self
Ġpolit ischen
ade d
ĠAkt iv
M L
ĠB all
ĠM em
ĠW ass
ste ad
Ġwo od
Ġiss ue
Ġm obile
Ġum fass
ian o
ĠBo x
Ġst ation
Ġin fl
ĠC lass
ĠIn vest
Ġcom mer
fr ast
Ġst ruct
od or
Ġus ually
b ul
it ts
Ġs ix
Ġb ud
Ġal t
ĠH alle
ĠUnternehmen s
Ġerfol gt
Ġindivid ual
us es
Ġver z
ĠOr gel
Ġ6 5
Ġout side
Ġcoup le
g u
en ces
Ġz entr
and a
Ġst op
ell o
ag d
Ġte le
S T
ĠAl ten
ĠMar y
pla ce
K ultur
ren nen
Ġfavor ite
Ġl ock
end orf
Ob jekt
rei ber
nd en
ĠBes te
Ġ192 7
wissen schaften
W ith
Ġk aum
ĠCal ifornia
c ement
ĠS ar
Ġan z
ĠAr ts
Ġex am
heim er
ĠFried hof
Ġus ers
ĠHoch schule
Ġsk in
p ret
au b
ho od
um ents
ĠN ic
ann er
Ġr unning
rat s
Ġprodu ction
ĠWer te
ĠVorsitzen der
Ġacc ording
Ġnieder lÃ¤nd
D es
h auer
ĠB ul
ĠN Ã¼rn
ĠZ usch
Ġam ount
Ġpar ts
sw Ã¼rd
Ġlead ing
S te
Ġw ollen
Ġz uf
ĠRes earch
Ġa ction
ĠM iner
Ġne cess
I L
t itel
ver fahren
ĠAus wahl
Ġd ro
aupts Ã¤chlich
Ġs od
ĠP C
Ġcho ice
ist ent
Ġ193 2
ĠT Ã¼r
tra iner
Ġspiel en
Ġbrit ischer
-- --
ĠPres ident
Ġal tern
ĠAn schlieÃŁend
Ġph il
ĠSh ow
ten ded
Ã¤nd en
ĠMus iker
Jahr hund
Ġd og
ĠP ers
ĠF ischer
au x
ĠCh urch
Ġvers te
Ġmom ent
Ġver k
setz en
ash ion
Ġpract ice
Ġzu letzt
ĠEr k
ang ing
kir chen
ĠL ab
Ġcom ment
ĠGr enze
Ġhow ever
Ġdr ive
Ã¼ss el
In ter
Ġsc reen
ĠGl as
ĠP unkte
Ġgen ommen
ĠBau ern
aller y
n amen
Ġd at
ĠD rei
Ġvor her
Ġpr esen
Ġkn app
l or
Ġus er
spr uch
k y
Ġ3 3
Ġbie ten
Ã¤d t
Ġ192 9
Ã¤n n
ĠAut om
mittel t
ĠfrÃ¼ h
ĠL ife
Ġwir tschaft
B ahn
W Ã¼rttemberg
Ġtreat ment
Ġrecommen d
bark eit
Ġ4 00
Ġdo or
ĠS zen
Ġbe legte
5 3
at i
Ġsie ht
ĠCh icago
Ġpr int
ĠK op
Ġer he
ĠAn s
ĠAl ler
Ġgew orden
ĠInd ia
ĠD azu
ĠJ ud
ill ing
amerikan ischen
Ġrepr esent
K arriere
k lasse
er o
Ã¼r gen
bo x
Ġwest lich
S C
l ament
ad el
Ċ ĠĊ
ĠS C
at tet
st all
mit glied
pla te
Ġrece ive
Ã ½
ĠNatur schutz
k ampf
re l
ĠH ill
Ġpra kt
Ġfal se
ĠN amens
sp l
ĠY ear
Ġprob ably
s ystem
Ġg riech
Ġmed ical
Ġdra w
unc il
Ġbath room
at in
ĠA ch
Ġ3 6
Ġsignific ant
Ã¼ ge
ir chen
ĠAn lage
Ġinter ess
ĠheiÃŁ t
ot es
Ġit ems
Ġind ustr
Ġphot o
ĠC ast
Ġg round
ĠInd ian
Gemein de
Ġd ress
ĠF ass
ĠE igent
iel ten
ĠTex as
Ġm atter
Ġto uch
fl Ã¤chen
Ġrec ogn
V D
er er
ĠAngel es
V ers
ĠS ammlung
Ġzw eit
Ġeff ic
P reis
p ossible
ĠK lass
ra in
Ġr isk
rÃ¼f ung
Ġh or
Ġc enter
Ġfor ward
Ġex act
ĠSm ith
verwalt ung
I M
ut n
Ġreg ard
Verein igte
it ial
Ġer baut
ne e
Ġwir k
stand s
Ġ192 5
ĠGott es
Ã¤ cht
kt iv
ien en
Ġex pect
ĠFen ster
ur er
Ġall ows
ĠAcadem y
ou ver
Ġ193 1
ĠEs sen
Ġho tel
Ġgl obal
jÃ¤hr ige
Ġinsp ir
k r
Ġd adurch
Ġm orning
Ġgleich zeitig
Ġext rem
ie gen
ĠS atur
Ġer setzt
allow ed
h Ã¤user
le ger
Ã¶ p
ĠSt reit
ĠBe zirks
itt ing
sch lÃ¤
for men
T ype
l im
ĠMo der
ĠO x
he m
ĠÃ¶ffent lichen
on ie
Ã© e
yste me
Ġeas ily
ma ÃŁ
om a
ah nen
D P
c ast
Ġc ut
ger ichtet
ĠhÃ¶ her
ĠSommers piele
un ion
Ġm ix
ĠM Ã¼ller
sch auspieler
ĠVer wendung
Ġble ibt
E urop
h ips
Ġk rit
Ã© s
ĠFra gen
Ġsim ilar
k raft
Ġn omin
ĠFl Ã¤che
ĠDire ktor
swÃ¼rd igkeiten
at al
ĠZ uf
ĠAr g
Ġch anges
Ġdis cover
ĠGÃ¶tt ingen
ov a
org ung
Ġsol utions
Ġm aint
ĠG attung
ĠH off
Ġne hmen
Ġ192 6
Met hode
P olit
Ġt ransport
Ġc apt
ei der
Ġhinz u
s b
Ġc ann
Ġb al
anc y
ĠComp uter
Ġf all
Ã¤ um
ĠEin fluss
E hemal
l ingen
Ġw ords
Ġre v
Ġsh op
Ġbeteil igt
ĠOct ober
r id
u ber
ĠT Ã¤tigkeit
irg in
ĠWeit ere
Ġl aut
ĠSch lag
B A
G en
p ose
Ġl ives
Ġsp ort
Ġste p
ĠspÃ¤ter en
Ġmeet ing
Ġs etzt
Ġh und
Ġreg ular
Ġstra teg
rÃ¤n k
ĠF al
ĠL ok
ub s
ĠDeutsch er
ĠKont akt
O C
b ased
Ġpr ices
Ġbeh ind
ĠzusÃ¤tz lich
Ġge prÃ¤
alle l
5 6
ĠS ome
ĠG lo
ens ive
ĠTeil nehmer
p unkte
k rit
m ission
or ing
Ġh auptsÃ¤chlich
se qu
ĠâĢ ļ
asch ine
W enn
re chte
Ġb esser
ĠP rom
Ġc aus
um in
ipp ing
Ġbed room
fan ter
W erke
uch ten
ass el
ĠDe partment
ĠSold aten
Ġdes t
ĠErz Ã¤hl
ĠHeil igen
5 00
Ġk ennen
ik ation
rie be
ĠLe x
Ġ- -
Ġro ad
w en
un ts
S piel
Ã¶l f
ĠR Ã¶
Ġge fÃ¼hrt
zie hen
ĠChamp ions
ĠEnt wick
ĠGer ichts
ĠFr iday
Ġans wer
Ġincre ase
Ã £
Ġf resh
Ã¶ ne
mal er
ĠPerson al
pos ed
Ġbeginn t
ĠB ol
isch em
ĠSch Ã¤
Ġent w
ĠNational sozial
Ġwen ige
ed s
Ġcont rib
ĠDem okrat
ĠS Ã¶
Ġ1 20
ĠG ust
ĠStud io
Ġch rist
Ġdurch gefÃ¼hrt
mittel bar
ĠHerr schaft
Ġcontin ue
ĠÃ¼bern ommen
teil en
Ġpr im
spr ung
ĠStÃ¤d te
ow a
ver lag
Ġver lieÃŁ
lÃ¤uf er
S c
ck len
I s
ĠS amm
Ġ1 000
Ġpubl ished
lau ben
Ġsour ce
U R
a ign
l ers
reich e
H ow
b a
il a
um Ã¤n
gew icht
ĠRo ad
ĠPap st
A uch
or th
Ġb ald
ĠD isk
ĠE ss
ĠAn gaben
20 17
rif f
v ing
ent y
ĠChrist oph
E l
ĠL ager
bl att
Ġ >
Aus zeichnungen
5 4
I nd
Ġd ed
ĠP fer
Ġn immt
ĠCh in
ĠVor g
B and
or et
Ġp ers
Ġfin al
Sch rif
B ut
Ġw ohn
as ten
ov ers
ar io
ĠVer treter
au ber
h agen
w Ã¼r
Ġs yn
ir n
Ġide al
5 7
av es
Ġse ems
Ġhigh ly
Ġm el
âĢ ŀ
ic kt
ĠGr Ã¶ÃŁe
St adt
Ġb ere
schein lich
Ġverkauf t
5 9
Ġo il
Ġcare er
Ġexc ellent
i h
Ġre fer
is er
Ġall ein
zahl en
Ġask ed
s telle
Ġex pert
Ġbet re
leg ung
Ġtyp es
Wh at
ĠS S
5 1
ĠD ro
ant as
ĠWind ows
ĠT ransport
Ġup on
N ame
Ġd aily
ĠA achen
ist ry
Ġl angen
imm el
ultur al
Ġle ave
ĠPart y
ch ron
Ġa sp
ĠN ur
Ã¤dag og
rÃ¼ cken
ĠZusammen hang
Ġp rem
Ġc y
Ġausge tragen
on ial
Ġin dem
ff ic
ĠWe ise
ĠgroÃŁ er
Ġb ott
ĠM ik
ĠH D
u ert
ĠBen utz
W Ã¤hrend
Ã¼ cht
ĠF ritz
ĠJ on
ĠV ictor
omm ern
reit ung
Ġpolit ische
es h
as chen
ĠBe im
Ġs ave
ĠM and
Ġp orn
ĠServ ices
Ġaddition al
Ġwelt weit
ĠJul y
Ġlook s
ĠBest and
S Ã¼d
k unden
ĠV ize
Ġgu ide
ĠReg ional
Ġmus sten
ĠDreh buch
hil fe
r est
Ġt rÃ¤gt
Ġso fort
Ġcommer cial
s m
Ġs ent
Ġp rÃ¤sent
Ã¶ gen
lo ud
Ġbo ard
se hen
Ġimpro ve
ĠT schech
ĠG reat
Ġis n
ste dt
Ġgleich nam
Ġt un
Ġde ep
ÃŃ a
ĠD at
ĠSt ruktur
ff er
iti ative
ĠJak ob
d om
d aten
r ick
Ġ Ã¶stlich
ĠM acht
Ġc irc
Ġwar m
O L
ĠPro zess
hal le
h te
ks am
Ġem er
lav ier
Ġgrow th
u elle
ĠD enn
stÃ¤nd e
ĠvollstÃ¤nd ig
Å Ļ
ge g
ig uren
Ġaktu elle
t a
ge legt
ĠK enn
ĠL aur
ĠPr im
Ġsch ed
N ieder
ĠH on
ĠSt rom
5 2
ĠG Ã¼n
Ġel se
Ġquick ly
Ġb us
Ġb rachte
Ġin j
az in
al a
ĠGegen satz
Ġs qu
Ġbe ach
Ġle bt
fr ont
Ġopt im
Ġoffic ial
ie ÃŁen
Ġc as
Ġwork ed
ohl en
ĠDar stellung
Ġvar i
f le
ut ive
20 15
Ġprom ov
u he
ã Ģ
em pl
ĠN icht
Ġap art
ĠAl fred
Ġjeweil igen
Ġgesam ten
w ell
sp ro
Ġall gemein
ĠLe on
Ġrec ord
Ġinclude d
N A
ĠM erk
ĠG ran
ĠSp Ã¤ter
ĠWe hr
Ġges etzt
icher ung
Ġpurch ase
ĠK u
ĠL ig
ikan ische
200 8
Ġst ieg
Ġzun ehmen
ĠVier tel
ket ball
ind ungen
Ġfl ow
le icht
Ġm er
ic ip
Ġaus schlieÃŁlich
Ġany one
Ġla unch
at us
Ġr ather
Ġverb reit
Ġhal ten
kret Ã¤r
k ord
ĠS y
tern al
Ã¼n ft
ĠMar c
ĠSte fan
Ġdec ided
erke hr
Ġst aat
w ir
ig ungen
ĠZentr al
ess el
Ġpl anning
ĠJan uary
Ġerziel te
Ġappe ar
Ġb ank
ĠC y
Ġ3 8
w el
an i
ĠGo od
cklen burg
wer ks
Ġrem ember
ĠVerwalt ung
ĠWissen schaften
V erkehr
ĠD ir
ist rat
Ġme chan
ĠBl ue
lei ben
umen te
Ber lin
ĠHeidel berg
k omp
s a
ĠH ab
Ġ192 4
ĠM icro
em e
au ern
ĠFahr zeug
in ation
ch ange
at ic
ĠM un
Ġc redit
ĠI ll
Bau werk
Ġtool s
ĠDÃ© partement
5 8
D o
Ġaus gew
Ġdar f
Ġw in
Ġf irm
Ġ19 10
ne ur
ĠVer teid
ail and
Ġfol gten
pend ent
ct ors
Ġstor age
ip pe
pl es
Ġerm Ã¶glich
ĠD igital
ol en
ĠAuf gaben
Ġde f
ĠEl is
laub t
Ã¼hr en
Ġpr ior
K omp
Ġk anad
ul pt
iv ity
Ġhistor ischen
Ġsogen annten
ĠS on
ĠMon ate
Ġhand s
II I
Ġcond ition
F in
Ã¼ gen
ĠM ach
ic ated
ot ing
Ġent lang
ĠChrist mas
ĠRep ubl
ĠS um
ĠR ing
ĠSpe zial
Ġd ig
Ġd unk
ĠM Ã¤dchen
ĠP a
F re
Z ur
Ġf ig
ĠAt lant
R ad
ĠW ander
ĠGroÃŁ en
Ġo ption
Ã¤hr t
Ġlang uage
Ġwe ight
ĠFr ont
Ġgra du
ĠHen ry
it ation
Ġh uge
Ġdes halb
Ġup load
ĠQu ellen
Ġdevelop ed
Ġregel mÃ¤ÃŁig
Ġresour ces
Ġg ives
oc al
Ġbest Ã¤t
st attung
ĠL ieder
_ _
ĠC entral
ĠĊĠĊ ĠĊ
ĠMeister schaft
ĠErgeb nisse
Ġg reen
Ġl oss
ĠPort ug
Gr uppe
ir us
Ġver mutlich
ph one
Ġ15 0
Ġ192 1
hol z
Ġwrit e
ĠS atz
Ġin tens
ĠD arm
Ġex tens
ĠChar akter
Ã ´
ho den
Ġwer de
Ġpart ners
Ġdis play
utt ing
Ġan alysis
Ġ3 4
Ã¶st lichen
ĠForsch ung
ĠJ ob
ul en
ĠSchw ar
N eben
n ummer
ĠU rs
Ġsaf e
ĠRev olution
m acht
Ġpo ints
K reis
T r
g ab
lin ge
pr ise
ĠSt iftung
ĠAuf stieg
Ġem p
Ġprogr ams
ĠHome page
ĠF ak
ĠE very
Ġim m
20 13
ĠW affen
ĠL et
ach im
Ġdes crib
ĠAn g
Ġtr ip
Ġverl or
denk mÃ¤ler
ĠNutz ung
200 7
Ñ ı
el la
ĠGr enz
ĠSpiel zeit
200 9
Ã£ o
ĠB ass
ĠPro p
ĠBl ick
ĠAuss tellung
Ġs ah
ĠS at
Ġb ul
Ġb leiben
Ġgeb racht
ĠEng ine
ĠI P
ir ge
Ġ19 12
ĠZeich en
Ġin ternet
le b
ĠG rÃ¤
Ġpat ients
anstalt ungen
Ġimp act
m ond
ĠG olden
ĠW ettbewerb
Ġl os
sel ben
Ġcond itions
w ide
or ten
alle y
Ġt Ã¼rk
ĠS em
zeich nete
Ġexper ien
Ġsug gest
ĠS icht
ĠL ong
ĠOr iginal
Ġbede utet
Ġwor th
Ġpl atform
Ġander er
B undes
l Ã¤nder
ĠD Ã¶r
Ġbesch rieben
le hn
Ġh Ã¤tte
Ġpro f
Ġh ielt
ĠAl so
ĠFran ce
Ġlon ger
Z eit
om s
ĠL y
ĠKn oten
kt ions
ĠBer eits
Ġapp ly
ĠunterstÃ¼tz t
A ug
C on
u gend
geb racht
Ġmaterial s
ĠW ell
ĠAb teilung
por ary
ĠverfÃ¼ gt
e es
in y
wei le
ĠSicher heit
utn ant
ĠIn str
Ġnot wend
p rÃ¼
er es
Ġs al
ĠC ho
Ġst reng
Ġqual ifiz
Ġwrit ten
z Ã¤hlt
Ġw ord
ĠT y
ul y
ue ber
Ġpos itive
Ã¤ss er
ĠAustral ia
. ),
ĠRich ter
ĠAben d
w itz
ĠW oche
ist isch
19 45
Ġgo al
ĠNieder s
or ial
Ġf ix
um n
Ġfe ed
ĠS V
ĠH aut
Ġl if
Ġfor mer
ĠQ ue
ĠSo ftware
ĠErz bischof
ĠRuss land
ĠBeit rag
ĠR am
th ur
Ġde ath
ĠDe velop
Ġro und
Ġbeen dete
zieh ungs
B esch
ĠS om
ĠKinder n
ĠPubl ic
Ġd ur
Ġd omin
il i
ĠH istory
Ġmov ie
ĠJes us
Ġsod ass
re u
Ġf uer
age gen
G ra
ĠSch la
ian ce
20 16
Ġ192 3
Ã¶rder t
ĠOp fer
o z
Ð ²
Ġm eine
Ġbet rieben
Ã ±
ĠL Ã¤ndern
our ce
ob by
Ġinter ested
D a
Â ®
ĠK olle
ĠBe wegung
Ġpl ant
ĠverlÃ¤ uft
Ġb and
ĠAr zt
Ġch ines
ink el
Ġbring en
Ġhig her
Ġm m
ĠR et
Ġver antwort
anz er
Ġpot ential
F e
Ġp rÃ¤
o od
v ant
ĠP ower
ĠReg isseur
Ġsu it
i Ã¨
ĠS uche
ĠR oll
Ġerw eit
Ġrele ased
Ã¶ k
Ġex pla
20 10
Ġje dem
Ġsol ution
Ñ ĭ
Ġpl us
Ġfol gt
ĠSc ott
b as
ĠL ind
ĠC anada
Ġarch ite
Ġplay ing
o ung
Ġp ath
ĠF arb
Ġje de
Ġpie ce
h old
Ġw oman
ĠL ux
ag te
Ġ192 2
Ġdarauf hin
v ier
Ġer f
Ġch arge
los en
ĠHaupt stadt
Ġeffect ive
Ġgirl s
ch em
Ġver treten
ak ers
Ġnot hing
200 6
A utor
E P
ro at
ĠSchw ester
gemein den
ĠGrÃ¼ n
ĠBÃ¼ cher
O ne
s itz
Ġw ish
Ġe igentlich
ren z
Sch wei
Ġd om
ar ter
Ġm ot
ĠA T
el a
ĠO ver
ĠW agen
ĠTra dition
ie fer
ĠR eb
Ġg anze
Ġger ne
ĠFe hler
Ġf il
ĠW ach
Ġro t
ĠFreib urg
ow ski
ill on
stru ktur
ĠFo und
Ġheut ige
ĠBrand enburg
din and
2 000
Ġc oll
d r
ĠM att
Ã¤ her
Ġun abhÃ¤ng
ĠVer kauf
lie der
ret t
minister ium
Ġgar den
ĠS ach
ĠC O
ĠSant a
Ġlik ely
ch ner
ĠW appen
ĠN ummer
ay a
Ġzw Ã¶lf
ĠNe ue
brit ann
Ġw ider
ĠS ing
ĠK lavier
ad rat
Ġpol icy
ĠFlugh afen
p ers
ĠG Ã¼ter
ĠW irtschaft
Ġre lease
au d
ree k
ha ber
ĠWo od
ĠFar be
ĠSatur day
ies ter
Ġent scheiden
ĠAd olf
ĠOff ice
ĠEle ct
Ġsei en
Ġapplic ations
Ġrelations hip
ĠW ork
ĠMann schaften
F rank
Ġv ac
Ġg lass
ĠDec ember
gebie te
Ġs end
ĠS onnen
Ġ7 5
ĠSund ay
S G
ĠSt ahl
ĠGer hard
deutsch en
b our
ĠR enn
we chs
Ġle bten
urn ier
Ar t
Ġangeb oten
v ors
ĠEin fÃ¼hrung
gra d
Ġful ly
ĠB ist
ĠÃĸ l
ĠmÃ¶ chte
Ġa verage
Ġf air
ĠB rown
ĠC ra
rat es
Ġbest immt
Ã¼hl en
d ire
ĠP or
Ġsch Ã¶n
20 11
ĠArch iv
ar es
ĠM ost
ĠSt immen
ipp ed
Ġrequire ments
un i
ĠIn form
ĠMar ie
ĠMar ine
Ġwieder um
Ġch ance
Ġent ry
Ġent deckt
Ġgra ph
d as
ind est
se x
ĠWei ÃŁ
Ġleg al
Ġzerst Ã¶rt
h och
ar get
Ã¼ st
ĠO ld
ger ichts
gang s
p olitik
Ġle bte
ĠCo uncil
ĠPrem ier
E B
Ġre in
iel le
ak s
Ġpar ents
r enn
ock ey
Ã¤hn ung
ĠSim on
ĠNÃ¼rn berg
L iste
ĠO h
ap ie
ĠWill i
or gt
and ers
ik i
ĠTh Ã¼r
ĠBr as
ĠBild ung
ĠFlor ida
Ġd ient
Ġweiter er
Ġref le
ĠAn aly
Ġ4 8
ĠÃ Ĺ
Ġgesch affen
wer be
Ġk or
Ġmehr fach
Ġgew onnen
ĠEdu c
l uss
ĠK urt
Ġorgan ization
Ġbe ein
Ġan im
ot ten
ĠEn ter
por ate
Ġtradition al
zieh ungen
fur ter
b it
Ġd iv
Ġt ick
ar ischen
as ons
uf fer
Ġon es
Ġle gte
ĠIs rael
Ġsaf ety
ĠPhilosoph ie
S ystem
W eit
a ber
Ġv ideos
ĠG irl
Ġge ts
Ġor igin
ain e
aut en
Ġspe ed
ĠStat us
Mus ik
ĠE dition
ul s
Ġgesch rieben
zip lin
Ġl ower
Ġcount ries
For mat
Ġwonder ful
O lymp
ĠSchmid t
ĠV om
Ġreg ister
ĠÂ £
Ġsuccess ful
ig an
eiter te
ĠLeist ung
ing u
Ġc ause
ĠW ed
et ts
Ġ19 17
b re
ĠF ernse
Ġerst es
Ġser ious
Ġatt ention
ĠMÃ¤n n
Ġveh icle
Ġein gestellt
ĠAn teil
ĠThe ologe
ĠBe ach
Ġex ec
ĠgehÃ¶r ten
Qu ellen
ĠeuropÃ¤ ischen
S P
m ine
Ġpat tern
Ġinterest ing
P re
p o
w eite
Ġw edding
th en
ĠÃ ī
ied lung
ĠBesch reibung
ĠArchite ktur
I d
Ġf arm
Ġgew innen
ĠHoch schullehrer
ĠTurn ier
b ibliothek
is ation
Ġver pf
ĠHÃ¶ hen
S A
Ġb all
20 12
Ġgo es
20 14
ĠD omin
ĠIn fanter
sp rache
Ġinc reas
h op
em a
ab il
os c
inn ing
p a
Ġin zwischen
Ã¼ m
ro id
ĠL Ã¤nder
ug s
Ġarbeit en
ĠTechn ik
ĠHistor iker
em ble
Ġver gleich
ap pe
Ġab ility
erk unft
baut en
ĠUl rich
ĠAngeb ot
Ġs ort
ĠR od
ist ics
ĠZ immer
ost on
West falen
geordnet en
p ack
ĠK ult
Ġpla ces
ĠKarl s
ĠÃ¼ br
n ational
Ġd ir
ĠA R
Ã¼ ll
Ġc ross
ver trag
ĠLand schafts
tr al
p erson
ist a
Ġsp Ã¤t
ĠPro gram
ĠOr te
Ã© r
Ġerw arb
gef Ã¤hr
Ġconstru ction
u ted
Ã¼ mer
ĠT at
Ġj ungen
ĠSp anien
br idge
Ã¼ hm
ĠK ammer
ĠW ater
Ġplay ers
Ġter ms
ä ¸
ar o
Ġb irth
Ġo l
ĠT ime
os ted
amer ika
Ġschw ar
Ġt en
ĠD ol
Ġh um
ĠFl Ã¼gel
ĠMen sch
u ell
er weise
at ives
ĠSt ation
ĠBlÃ¼ ten
g ern
ig ation
Ã¶ der
Ġum fang
Ġcons ult
g ner
ĠK up
ond s
Ġinvolv ed
T yp
o oth
Ġp ool
ĠE re
ach ts
Ġ19 13
Ġer forder
az ine
les en
ĠAd els
Er baut
ĠVerb and
Ġfert ig
ĠGust av
Ġbe gan
ĠV illa
Ġor d
ĠÃ¼ber wiegend
chn ung
ĠBas el
Ð ¼
os a
Ġvers ucht
ĠCour t
Ġcann ot
d ate
ĠA cc
ter e
Ġh it
Ġver hinder
Ġun mittelbar
Ġdar in
Ġfo ot
ĠStud enten
Ġmach ine
leist ung
d essen
Ã¤ ger
ĠF rench
lin ik
ĠBeruf s
B is
t um
ĠT Ã¼rk
Ġ19 11
Ġw r
ĠF eder
van ced
Ġm ilitÃ¤r
ĠV iew
Ġim med
la p
ib el
Ġlie fert
ĠMain z
Ġsele ction
Ġbene fits
is tet
ĠRe chte
it ur
la h
ĠZ ent
ĠWe chsel
ĠsÃ¼d lichen
ĠVer fahren
Ġso uth
ĠB lock
ĠL i
ber e
Ġed ition
ĠBeit rÃ¤ge
w ach
ver treten
ce p
be wegung
ĠBo ard
Ġarbeit et
Ġstar tete
j i
at alog
Ġl Ã¤nger
ĠSchrif ten
ĠBrÃ¼ cke
R es
Ã Ħ
ĠA ff
Ġl ux
Ġproduz iert
Ġd auer
Ġauf gerufen
ĠGel Ã¤nde
unsch weig
w ander
ĠS onn
ĠS owjet
us te
Ġl ok
Ġun bek
Ġle vels
ĠHe ute
Ġentsp richt
Ġatt ack
britann ien
f abrik
Ġein st
ĠK os
Ġmy self
vers ammlung
Ġweek end
ĠSm art
j ust
Ġs on
ĠR og
Ġal bum
ĠU kra
rup t
ĠD iss
st ation
Ġwir kte
ĠPar lament
ĠRhein land
ĠHinter grund
H L
Ġw uchs
ol o
ĠH it
ĠW omen
Ġsup ply
ĠPe ters
ĠKr im
ĠJur ist
M ail
aus piel
geb nisse
Ġcor re
u den
is l
ĠGe heim
Ġbestimm ten
c ul
ein s
Ã¼t te
Ã¤ ne
Ġc ulture
ĠG ru
sp er
ĠAb schnitt
gew and
reg ierung
ĠZust and
ĠElis abeth
m y
t liche
and en
Ġer inn
m ore
ĠInd ustr
or dens
ĠL am
ĠV irgin
ĠStand ort
ĠBern hard
al ing
ap el
ĠAn th
Ġ190 5
' d
I ON
g ut
ĠSt an
id ents
Ġbet rug
Ġitalien ischer
or der
Ġ4 2
ĠSoc ial
Ġmult iple
Ġdirect ly
ĠAller dings
r Ã¤t
Ġs aw
ĠL ight
ĠLe op
Ġinternational e
Ġun be
ĠBes atz
arch iv
ĠFer dinand
ĠProble me
r d
if er
ze ption
Ġfin ish
ĠHein z
Ġder zeit
ĠB Ã¤
Ã¤n gt
ichte ten
ĠHo hen
Ġdec ision
ĠInter view
ĠMat th
Ġitalien ischen
m ie
or al
ber eit
ĠWh ile
Ġs un
ĠS eb
ĠD ah
ĠD amen
ir ch
Ġzu ge
Ġle itete
t i
Ġd ark
re form
Ġg iving
Ġe arn
St ud
200 5
Ġrequ est
Ġoffer ing
Ġrep air
s et
Ġa k
Ġt ats
un te
ron ic
Ġbusiness es
oper ation
ĠC re
ĠV arian
Ġpro per
stit ution
fass ungs
k le
ĠT anz
ra te
ĠOr ganis
Ġdoc ument
im en
sch loss
iz iert
m l
is ions
brÃ¼ cke
Ã¤chs ischen
Ġl ic
hand elt
ĠE hr
Ġ3 7
Ġno te
z z
ĠR ost
Ġsow jet
Ġsup pl
Ġsub ject
ĠGew inn
ĠauÃŁer halb
ĠSl ow
tell ungen
Ġ5 5
ĠAd min
ĠWelt k
Ġmo unt
Ġ190 8
Ġenc our
al u
as ing
Ġstor ies
Ġf lex
ĠZ oll
ĠMe tern
ĠFot os
Ġl ost
ĠEn gel
chn ik
Ġverlie hen
c ies
n ungs
ĠAuf gabe
Sch w
Ġbek annten
res p
mittel n
Ġbrit ische
ĠnatÃ¼r lich
Å «
ĠO pt
ĠNe uen
Ġhelp s
Ġcamp aign
Ġindividu als
n ot
rit e
ĠTe ams
ĠAuf grund
Ġthink ing
ugh ter
ĠArbeit er
v olle
st he
lie fer
ph an
Ġd ise
ĠT ore
Ġber eit
j o
Ġ ult
ĠB ab
Ġver lassen
Ġse ek
ĠNach richten
Ġdeutsch sprach
ĠUnivers itÃ¤ts
Ġthem selves
vers e
ĠOrt schaft
gra f
ĠÃĦ nder
p olit
Ġcomple tely
Ġan aly
rÃ¤ ume
mann s
sk y
Ġpart ner
ĠProdu kte
ĠArch Ã¤
D ate
a dem
i ant
Ġj unge
ĠSer ies
Ġhom es
ĠSpec ial
ĠD ub
Ġag re
Ã¤uf er
Ġb ase
W ie
k opf
Ã ł
ĠP rag
ed eral
ate ur
Ġse ction
ĠEin trag
ĠLand wirtschaft
Ġlar gest
ĠG alerie
ĠH afen
Ġan ges
ct ure
Ġob tain
Ġschool s
g au
Ġres pect
Ġgel ten
ie fe
Ġor ient
ĠÃĸff entlich
Ġwirk lich
Ġn ov
ad or
ĠGra fen
200 4
ĠWeltkrieg s
ĠT ok
ĠG ame
Ã© n
so ft
Ġwicht ige
ĠFÃ¼hr ung
ĠJac ob
Ð ´
Ġrem ov
gy pt
bÃ¼ cher
Ġs old
el and
ĠL aut
ĠâĢ ¢
gr iffen
Ġdefin it
ĠL ast
Ġg ift
H aus
am ous
ĠF lo
ĠH ir
ĠR osen
Ġge gebenen
ei ge
ĠBe zug
pe kt
Ġpre fer
ĠJu den
Ġd Ã¤n
Ġm id
ĠL ar
Ġpro t
ĠChar l
Ġdet ail
ĠArchite kt
ĠBron ze
ĠFot o
ĠProble m
el er
ĠF ert
ĠThe odor
ĠAut oren
Ġbec ame
ĠSÃ¼d westen
fel der
k ont
Ġm ention
ĠAuf t
pf licht
glieder t
ĠCol or
zÃ¼ ge
b aden
ab teilung
Ġfor get
Ġjed es
Ġbek am
ar kt
Ġl au
lieÃŁ t
Ġtit le
L a
ĠP ok
Ġn utzen
Ġaus tral
ag ne
ĠVer lauf
Ġcomp lex
Ġresp onse
ĠerklÃ¤r t
Ġm otor
ĠQ uer
ĠCol umb
Ġcreat ing
Ġdistr ib
Ġmit tels
our ney
Ġent h
Nach dem
ima tely
ĠS uch
ĠB rief
Ġn ature
Ġne igh
ĠEin s
eng th
ĠCent re
Ġ Ø
Ġd ritte
ĠR ay
ier n
ru it
az on
ikan ischer
ĠPh ot
ĠCont in
Ġb ein
Ġf ab
Ġh our
ĠK ath
ĠVor der
com es
ĠPra xis
ĠS us
Ġm other
Ġh a
Ġde pend
ĠE ber
isten z
ĠWei hn
ĠBetrieb s
ĠLeicht athlet
Ġnecess ary
ĠD ra
ĠR aj
if ts
ĠGes prÃ¤
ek te
ĠBundes liga
Ġklein er
Weit ere
L in
Å ¾
Ġt hr
Ġp en
Ġg ro
glie dern
Ġphys ical
ĠKrit ik
z em
ĠR ap
hand lungen
ĠĊĊ ĠĊ
Ġsol che
B r
Ã ¥
ĠAl pen
Ġunter s
fin den
Al bum
er c
ar ische
ĠNord osten
Ġeng ag
ĠAustr alien
Ġorgan iz
Ġsen se
ĠSied lung
ĠMond ay
f amilie
l ike
Ġd agegen
re y
ent um
ĠIn tegr
wahl en
ein er
Ġim plement
ĠEr b
Ġcl oth
ĠP ak
ĠR h
Ġg alt
Ġk Ã¼nstler
iel len
ĠKar te
ĠMed ia
grÃ¼nd ete
akt iv
sie he
ĠT a
ĠGe h
Ġdar an
m ir
Ġf ine
Ġc ases
Ġinter view
Ġroom s
Ġmax imal
f Ã¶rder
on isten
Ġb aby
Ġf ashion
Ġge halten
Ġout door
pro gramm
oh le
gra ben
Ġt al
an en
ĠK andid
ĠH uman
Ġg ere
Ġr Ã¼ck
Ġsogen annte
Ġannoun ced
ĠT hen
Ġc abin
Ġit self
Ġcolle ge
ĠrÃ¶m isch
Ġl isten
ĠÃĦ r
Ġentsp rechend
Ġs and
ĠJahr zehn
ĠEin heit
ĠMet all
yd ro
M in
M ark
Ġein gesch
ĠH Ã¤user
ic ate
qu is
merk ungen
k ammer
re te
ein d
ĠT Ã¼b
ĠG ene
wer te
reit en
ĠS un
ĠTod es
Ġreview s
A fter
ial e
ĠLe e
ĠÃľ berg
ĠWider stand
ar ies
ĠT H
Ġre pla
ĠIn tern
Ġle er
Ġch urch
ĠOr dens
ĠZw eit
ĠgrÃ¶ÃŁ ere
Ġgrow ing
Ġexperien ced
y ond
ð Ł
b ungen
ĠA C
id o
ken nen
IN G
Ġhtt ps
m ont
or ganisation
ĠP od
Ġn ied
ĠN av
ph y
ĠKap elle
Ġstart ing
c ia
ĠP ot
iz enz
Ġat tem
ĠKar ten
Ad resse
ĠVo gel
g ree
Ġre ve
ĠBas ketball
Ġfamil ies
Ġ ;
ĠB ibliothek
Ã¤ ste
ei ÃŁ
rif ft
Ġsom et
Ġess ential
k rÃ¤fte
al m
ed y
ib ly
ord net
arm on
Ġverpf lich
ar in
ĠF ire
ĠI N
Ã¤nd ler
tain ment
Ġdivers e
ĠÃ¼ber geben
Ġdev ice
ĠS tellen
ahr en
ert ation
ĠfrÃ¼her en
ĠG ames
ĠNord rhein
ĠNieder land
ĠSalz burg
z ern
Ġo w
ĠAuf nahme
Ġro ck
Ġcost s
ĠL ib
ic ed
ĠSie ger
ĠGroÃŁ britannien
klÃ¤r ung
ĠAward s
Ġwichtig sten
C om
a ction
Ġs us
Ġverb in
ĠM ission
Ġ( ,
ĠL ink
ĠW alk
ab s
co very
Ġlie f
war en
k lass
m osph
ĠIn f
tell igen
Ġinst ru
ĠLauf e
ĠSin ne
ĠFrancis co
ouver neur
g ment
ie den
ĠT agen
ĠOb jekte
ĠBild hauer
I A
as ion
Ġp aar
ĠL ine
ĠN omin
Ġres olution
ĠHam burger
ĠÃ¶sterreich ischen
ĠgeprÃ¤ gt
K lasse
g Ã¼lt
r ik
Ġbek ommen
Ġwen igen
ĠTem peratur
ĠC a
Ġhe ar
gr enze
ĠUn garn
Ġ4 4
oren z
eld ung
uar ante
Ġmess age
Ġw ife
ĠP enn
ĠI hren
ige m
Ġplay er
Ġschw arz
Ġhealth y
hÃ¶r den
bar a
ennt nis
ven ue
lauf en
Ġamer ikanischen
V P
Ġp ages
ĠT iere
ĠDie t
olog ies
âĢĿ .
ĠDar Ã¼ber
forder ungen
** **
h orn
Ġs an
ĠK in
Ġl ots
gr Ã¶ÃŁ
ĠMar ien
ĠMe cklenburg
ader s
ĠKom ment
Ġerweit ert
B ild
te uer
ell schaften
Ġ3 9
bl Ã¤tter
histor iker
Ġwest lichen
ĠZ us
Ġdo uble
ĠEurop ameister
ĠUnd er
ĠJournal ist
n etz
Ġs atis
ĠW estern
ĠC ard
Ġher gestellt
Ġmus ikal
Ġ190 4
Ġest ate
Ġactiv ity
l an
ann a
c ont
i ot
ĠEr inner
Ġgen annten
ĠAut ob
Ġbel g
U T
ĠH ug
ĠH ub
Ġst uff
ĠSp an
ĠAuf bau
Ġad vert
Ġ190 7
hol t
Ġnor th
ĠWebs eite
ar zt
ĠG reg
ĠL eit
Ġbet rach
ident ial
M A
Ñ Į
il lage
ann el
Ġun ten
fl Ã¼gel
Ġges pielt
ĠZu kunft
Ġgroup s
ĠnÃ¶rd lichen
leist ungen
F L
Ġcom b
ĠY oung
omm iss
The ater
Ġ190 6
ÃŃ n
ĠÃ¤ uÃŁer
ĠWirk ung
ĠP unkten
ĠW Ã¼rz
Ġab gerufen
m and
ĠA f
ĠT isch
st amm
Ġth ous
lin es
ĠGrund lage
ĠFrÃ¼h jahr
i xt
Ġ19 16
ĠBl og
Ġverantwort lich
á Ģ
Ġd ry
us ed
Ġv Ã¶ll
ĠP aar
ĠC orn
Ġl Ã¤ng
ĠSchw eden
ilit ary
Ġsur round
Ġter m
Ġtem per
st ern
ĠUnter nehmer
ĠGl Ã¼ck
ĠhÃ¶ch sten
ĠId ent
ĠÃĸffentlich keit
f ast
o ÃŁ
ĠR ath
ĠIn gen
ĠIn ner
ĠĠ Ġ
d own
ĠS PD
Ã¤ llt
ran ce
io de
ĠMan ager
Ġerst re
Ġass ess
ĠPat ienten
Ġbil dete
Ġwahr scheinlich
Ġt im
ĠP fe
Ġg old
qu es
ĠCh ild
bo gen
Ġaff ord
ĠAfr ica
ĠBayer ischen
ĠLeop old
Ġh Ã¤lt
Ġg as
ei en
lin ien
ĠBe ck
Ġex hib
ĠSÃ¼d osten
ĠOx ford
E G
T A
Z um
200 3
C omp
Ġe yes
tem porary
ĠTra ining
Ġpos it
Ã¶ nen
ĠAn wendung
Ġex cl
ĠBahn strecke
Ã¤mp fen
ĠEre ign
Ġs ell
at re
Ġl es
ul f
Ġe ye
Ġdesign s
Schrif ten
Ġhe ard
ĠSo und
ĠDurch messer
ĠDaten bank
arstell erin
Aug ust
an er
le m
ĠE ck
ei ht
ho ff
Ġhin gegen
ĠSchrif t
is a
Ġex pected
Ġunterschied lichen
ion e
am at
Ġto t
Be vÃ¶lker
J an
Ġ id
ĠEr de
Ġsp orts
Ġtra gen
Ġengl ischen
st Ã¤tten
im me
Ġg ese
ĠBl ut
ĠKon zert
Ġuns eren
r in
y t
Ġ uk
ĠC op
ĠV iol
ĠCo de
Ġback ground
ĠBra unschweig
it is
ol is
ĠR icht
af el
ock en
afr ika
Ä Ľ
ĠS av
ĠKon fl
ĠEhe frau
ĠFir men
Ġexact ly
u um
en kt
ĠS et
ĠS qu
ĠW etter
Ġ2 50
ff ee
gel assen
ke y
Ġtra de
Er folge
Ġ190 3
ĠjÃ¤hr lich
in ed
je w
vers ion
ĠChe ck
ĠB oston
ĠW ag
est ra
Ġsp end
ĠBundes republik
Ġact ive
Ġemploy ees
ch mal
ĠS P
ĠS ig
Ġz eich
ac es
Ġtrans fer
ĠPre uÃŁen
ĠFak ult
ĠM Ã¤r
Ġcar ry
unn y
- )
es is
ĠS ituation
Ġp et
Ġg ingen
Ġsp ot
b u
m Ã¼hle
Ġhe il
leg ten
ĠEben e
k in
Ġv iol
Ġg uten
Ġaus geb
Ã¤n em
ĠDeutschland s
ĠIs lam
ĠDistr ict
ĠM ah
pp ed
Ġbek annte
ĠhÃ¶ch ste
R A
it o
ĠP ierre
ĠAll gemein
k ts
Ġm il
ĠK ron
Ġ19 15
ĠJ Ã¼rgen
Ã¼ck sicht
wÃ¤r t
ĠMos kau
D r
P la
d or
ĠK ey
ĠPol y
ĠJo achim
k unst
Ġb orn
Ġm Ã¼nd
ĠB la
ĠL iter
Ġcomp on
ĠOrt es
d urch
t or
Ġg anzen
Ġbe legt
Ġsch le
Ġfin ally
bau er
Ġverw ende
gem eine
Ġsle ep
ad d
ap y
ĠLauf bahn
D em
ĠA P
Ġh y
ĠT hr
Ã¶r en
Ã¤l de
anc ing
ĠInter esse
Ġopportun ities
D A
ĠS ab
Ġv irt
ĠBe w
erk l
arb on
arl ier
ĠProdukt ions
ĠSchles wig
Ġto wards
ct ic
Ġmov ing
ĠVerÃ¶ffentlich ung
Ġgleichnam igen
H aupt
l og
m es
st uhl
Ġh ar
ĠAd am
Ã¤us ern
ĠPfarr er
? ?
ĠN ap
Ã¶r ung
Ġown ers
Ġpolit ical
b ilder
ĠIt al
ograph ische
ĠFranz Ã¶s
wor ks
ĠLeist ungen
ĠÃ¤hn lich
Ġblo od
H o
M on
ĠE ich
rich ter
Ġ190 9
uck y
Eis hockeyspieler
L age
a ug
h aps
p osition
v ision
ĠT ar
Ġus es
pf lege
Besch reibung
ur ts
Ġwe ather
ider s
k g
le te
il ing
Ġum ben
auf hin
je kten
Ã¼nd ung
Er ster
Ġcons um
Ġ189 0
Ġcomfort able
frast ruktur
Ġ @
Ġn umer
Ġz Ã¤hlt
ĠR is
Ġdar gestellt
Ġben ach
ersÃ¶n lichkeiten
Ġw Ã¤hl
ĠD ialog
ĠK rieges
ak ei
stra hl
ĠPf lege
ĠVorg Ã¤nger
Ġw ild
ĠB an
Ġn amens
Ġge mÃ¤ÃŁ
Ġab geschlossen
ĠGrÃ¼nd en
p al
it ude
ic ations
ly wood
ĠOr ient
Ġcon ven
ĠHe ft
Ġob wohl
Ġsc ience
N o
l ast
z ub
ĠS ho
Ġer fÃ¼
fr iend
Ġstell vertreten
ĠKap it
Ġadv ant
inc ip
ĠArchite kten
) )
P er
at oren
ĠSp orts
ĠWe imar
ĠgrÃ¶ÃŁ eren
ifiz iert
D on
Ġg ave
Ġunter st
ĠFrank furter
Ġbro ught
Ġverbreit et
r Ã©
Ġm aster
Ġg rand
ĠUS S
Ġunser em
Ġlim ited
D E
a iled
Ã¤ b
ĠP ed
Ġer gÃ¤n
Ġstand en
unn el
Ġann ual
kathol ischer
ĠDarm stadt
Ġ ueber
Ġf em
le hr
ĠK en
ĠSt off
Ġse ch
ĠÃ¼ber tragen
ball spieler
Ġbeg in
Ġsm art
Ġelekt r
ĠR ena
Ġco ach
Ġfr ame
ĠHers teller
h ow
Ġt ips
ĠSch e
ak ed
ĠProdu zent
Ġbl ue
Ġfre qu
Ġlet ter
C C
Ġso ft
ĠBrÃ¼ der
Ġlin ken
Ġlov ed
ĠEuropÃ¤ ischen
Polit iker
p at
Ġf ight
ĠD ichter
ĠT imes
Ã¶ d
ab elle
ĠVer Ã¤nder
Ġsp ent
ĠKon stru
ĠFilm s
Ġwei b
Ġkomp lett
icht lich
Ġun it
ĠDe v
ĠDeb Ã¼t
b und
n y
t l
Ġver schw
ĠOr chester
Ġkl ar
Ã¼tz t
Â «
ont o
ĠPr iester
eich er
ĠNieders achsen
ĠT able
ĠNord westen
B i
im ents
ĠN eb
gen er
Ġcl ient
gangen en
Ġdeliver y
re ci
Ġf unktion
ĠSch auspiel
co unts
Ġpur pose
ĠEduc ation
H istor
g ory
p ot
z ur
Ġp red
ĠR oss
ĠSch iffe
ĠAn griff
Ġfe et
son sten
ĠTÃ¼b ingen
B S
b aus
t lich
Ġ Ã¶ffentlich
omm od
Ġplay ed
Ġeff ort
e v
w rit
Ã «
on ia
ĠK och
men s
ĠZeit en
rÃ¤sent anten
ĠFlug zeug
G roÃŁ
ĠL ord
ĠC all
Ã¶ die
fr ist
Ġart ist
ĠDevelop ment
ĠK rank
ĠR y
ĠC ross
ĠV ort
Ġst age
mer ksam
Ġch at
Ġwas n
ĠSchul en
Me ister
akte ur
B es
b il
ĠK Ã¼n
Ġan erk
Ġver fÃ¼g
Ġweit gehend
Ġbestimm te
te hung
al bum
ĠD auer
ab ase
Ġzu gleich
ĠAuf ent
Ġste ts
sc ar
Ġbeh av
hÃ¶ he
ĠDate i
Ġt ried
ĠF isch
Ġl ay
Ġdem and
ss on
ĠBr ig
ĠGeb Ã¤
ĠTex te
ĠBesuch er
N ord
Z w
ĠB ang
ĠP en
Ġde ad
ĠRÃ¼ck kehr
H ier
M useum
p m
w ettbewerb
ic on
ahr t
sp ar
ste ht
be g
urs day
ĠEle mente
ĠMuseum s
B ar
ï ¼
Ġmax im
ĠPfarr kirche
m ag
Ġ il
Ġd ich
ĠS T
ĠD rit
ver stÃ¤nd
up s
ĠAd d
Ġin stead
ĠH ause
Ġre ported
iz en
ĠLand tags
ĠAus druck
Ġ190 1
Ġmethod s
C o
S ehen
gew Ã¶hn
ĠwÃ¼r den
C ode
s es
Ġf iles
ĠP ack
ĠL as
ĠLin ien
Ġfeel ing
l Ã¶
ĠH ell
ap ter
Ġ8 00
Ġh us
ag a
ia tely
Ġsh opping
Ġtr uly
Ġnah men
ĠApp le
Ġsomet imes
Ġein gerichtet
ĠF rem
ĠF arm
im ed
Ã¶ff nung
weg s
zug s
ĠFahr zeuge
itte e
ĠE ll
ĠC are
se ud
Ġen dete
fang s
ĠGeist licher
Ġwr ong
Å Ħ
Ġs em
Ġb row
ĠF ind
ĠH orn
ten ance
Ġe uch
kt ar
Ġfor der
ost ers
Ġcreat ive
or i
ĠV alley
Ġzu erst
rie chen
Ġwe ar
Ġgeb ildet
Ġmoder nen
Ġgese hen
Ġim ag
ĠAl tern
ĠTeil nahme
Ġeigen stÃ¤nd
Ġsuch en
Ġview s
Chr ist
is at
Ġso c
ĠHer bert
200 1
Or ganisation
ĠMod el
Ġv ict
ĠT ennis
ate gory
iss ance
ĠKon gress
Ġweiter es
Ġsetz en
Ñģ ÑĤ
Ġconsider ed
lig isten
eign et
hy th
Ġentw eder
Ġv ierten
ĠM Ã¶n
ĠD VD
Ġl ack
ĠEn s
Ġstud ies
ĠBei de
ĠBre ite
ĠInternational en
Ġnomin iert
an geb
re a
re al
Ġc ards
ĠQ uar
ĠJuli us
Ġche ap
le utnant
ra k
ĠO tt
ĠWies baden
Ġbud get
B Ã¼rger
Ġd ining
te gy
ĠW ett
ers ey
Ġeff ects
ĠVerlag s
Ġs ingles
Ġf elt
Ġc ash
ĠK ong
ov en
iz iner
ĠHel mut
Ġt arget
or b
or ph
ĠTeil en
ĠHand buch
Ġkur ze
Ġdefinit ely
Ġsp irit
ĠFor st
ĠMittel alter
Ġausgest attet
o e
u i
w all
Ġd ynam
Ġt schech
us ing
ĠB oy
Ġn ation
Ġst ress
ĠEin ige
Ġhigh est
fra gen
ĠPre uÃŁ
ĠFar ben
nes day
ĠFound ation
te x
ic ing
Ġr ights
aus stellung
ĠPro ject
Ġvor gesehen
S a
or gan
ĠT sch
Ġ4 6
Ġ6 00
krieg s
Ġeconom ic
ĠGeburt stag
he ute
ĠB ob
ĠN ick
Ġoffer ed
ĠBÃ¼ ro
Ġentsprechen den
iw od
n icht
Ġs agte
Ġge zeigt
Ġre chten
Ġpro fit
art ige
ĠEx empl
Ġ189 9
Ġober en
Ġmittler weile
D ollar
ur b
ĠIn halt
ĠBe ziehungen
ast ian
Ġro ll
Ġben utzt
ĠDire ctor
Ġexist iert
Ġhol iday
Ġerhe b
f ung
ra gen
lei hung
ĠzÃ¤hl en
B el
d ach
u ver
z one
ĠA sp
ĠP S
Ġg Ã¼nst
be w
St ring
Ver Ã¶ffentlich
ĠHand el
Ġsym bol
ĠermÃ¶glich t
resp ond
Ã¤nem ark
s ur
Ġm iles
eb e
Ġze igte
yl van
ĠNationalsozial ismus
W il
200 2
J ul
ĠV ar
ĠfÃ¼hr ten
Ġmen sch
Ġdev ices
Ġwind ow
i y
un ehmen
Ġc ru
Ġg olden
Ã¶ pf
ĠIns gesamt
Ġt Ã¤
Ġm iddle
ro chen
ĠG olf
ĠG ymnasium
ĠR ab
stÃ¼ck e
u ben
he bung
al led
ĠT Ã¶ch
ĠReg ister
Ġersch eint
ro ck
ĠSch ach
Ġver geben
ĠVer hÃ¤ltnis
Ã¶r ter
Ġac cept
Ġ190 2
ĠR ies
ĠBe teil
ob ach
Ġ6 4
Ġmean ing
Ġb atter
Ġg uarante
ĠRe port
Ġhe ll
20 19
piel en
Ġcl ub
schul en
Pf alz
ĠA N
ol i
Ġgef Ã¤hr
Ġphot ograph
ĠCommun ity
J e
y les
is ieren
Ġc andid
ĠN ie
ub a
ick er
Ġ187 0
ĠChem ie
ĠEdu ard
D isk
ĠH und
ĠV aters
id ae
ĠSp ann
Ã¤n ner
ĠFor men
onn a
Ġprogr amm
ĠEm il
Ġexp and
ĠIde e
ĠUntersuch ungen
I G
Å Ł
ĠB ord
Ġer hoben
ill y
ĠEr ich
hard t
Ġhistor ische
Ġregard ing
ĠM id
ĠW a
ĠL au
ak i
lÃ¤nd ischen
ĠHeraus geber
P ol
Ġf ather
ĠG h
Ġl Ã¶
th a
ĠStra ÃŁ
Ġclass ic
Ġbeginn ing
ĠElekt ro
b al
ĠB ett
Ġz er
ow l
Ġpre c
Ġwel come
ĠFÃ¼r sten
R L
W erk
ĠK athol
ĠN ight
Ġber ufen
ĠTra in
ĠTer min
P olitik
ein anders
Ġh op
Ġob serv
ĠKon zept
let ter
Ġbas ic
Ã¤mp fer
Ġunderstand ing
ĠNik ol
Ġb ot
os is
Ġr ich
ĠRe view
sen z
Ġent stehen
Ġend gÃ¼lt
Ġpol ice
ĠSan kt
Ġadv ice
ĠInfanter ie
r ight
ĠA qu
ĠM ov
stand ing
Ġthan ks
Ġrela x
Ġded icated
w ise
se c
ĠMen ge
ĠPe ople
ĠMor gen
k osten
l Ã¤nge
ĠP ay
ĠF igur
ĠL it
Ġk aufen
Ġpro ced
Ġev alu
Ġapp reci
ĠCarol ina
s dorf
Ġ4 3
amil ien
Ġbeg onnen
ĠFernse hen
z if
Ġm ill
ĠC ru
Ġre li
ce ed
ĠBer at
Ġnor weg
fÃ¼r st
Ġverst Ã¤r
er a
ĠK ab
ĠK ard
Ġwe ist
ĠFebru ary
Ġprogr ess
= "
M ich
Ã Ĺ
ĠK a
ĠH as
Ã¤ng nis
ĠTro tz
Jahrhund ert
D S
p ite
ol es
Ġver kehr
ĠAus land
ĠKon rad
ous ly
ĠF alls
ho fen
fÃ¼hr ten
Ġzwe imal
Ã¤dag oge
zus tellen
b ell
ĠH ockey
iert es
Ġ4 1
ĠTechn ology
z iger
Ġn amed
ann en
ze p
ĠDie ter
ĠUn abhÃ¤ng
Ġgo als
Ġber Ã¼hm
ĠVers uch
ĠGesund heit
Ġextrem ely
ĠvÃ¶ll ig
m Ã¶glichkeit
z ul
Î ¿
ĠK ob
ĠN ahr
Ġk auf
Ġover all
Ġappro x
ĠComm ittee
ĠDistr ikt
C he
M P
ĠN a
af e
ungs ver
Ġste el
Ġac adem
Ġeinge fÃ¼hrt
Ġpass ion
i ag
m aterial
z ell
as ts
ĠP ast
ĠSch lieÃŁ
ht t
her zog
ĠQual itÃ¤t
k op
Î ±
ĠM Ã¶
ing ly
ĠEr folge
Ġhe im
ia ge
ĠPr esse
ĠSchn eider
ĠMax im
v ement
ro llen
Ġk ommun
Ġit em
gel d
im p
ĠK lassen
Ġk ulture
ind ustrie
ran ch
Ġstra ight
Ġhus band
E d
K urz
l ar
ĠW unsch
ĠJ agd
g on
ĠT el
Ġver ur
Ġne arly
ĠAb itur
ĠBl att
Er st
Ġa f
ĠE ach
ĠR uf
Ġer kennen
Ġr ates
Ġex press
ru he
cl ient
Ġtr ug
ĠStre cken
ĠRei hen
Ġow ner
Ġf ail
st ad
ĠT ax
ĠH aft
ĠL ot
ĠC ustom
Ġsp rach
ĠMit arbeit
Ġsec ure
Ġcontin u
it ness
al te
ĠVer dienst
ĠTh ursday
ĠCon c
Ġmod els
ĠM ike
ĠW es
ĠR oh
ug u
ell i
ĠAn ne
Ġdis k
======== ========
Ġin itial
ĠTh anks
Ġverw and
Ġeben da
ĠGl obal
ĠSicher heits
Ġumben annt
m aschinen
ĠA gr
ĠComm ission
ĠInde x
ĠSÃ¶ hne
Ġf amous
ol ge
ĠG lauben
Ġre ports
Ġes c
hand el
Ġange legt
Ġturn ed
lÃ¤ss lich
Ġinfl uen
Ġcoll abor
re hens
ĠB lo
ĠRe is
Ġhe at
Ġret ail
ĠAutom obil
inn es
Welt meisterschaft
ĠbeschÃ¤ft igt
N r
Ġp aid
ĠC at
ĠChr on
bur y
ĠFernseh serie
ĠAfr ican
Ġruss ischen
ĠF inal
ĠL en
ĠBen ed
Ġel f
Ġpower ful
R o
ch ip
Ġc lin
ins on
ar ina
el or
Ġc ell
ir ing
ĠV iele
ĠEr satz
Ġbut ton
Ġpre vent
Ġinc red
It alien
Ġcomple ted
ĠAlex and
Ġcap ital
Ġchallen ge
Sehen swÃ¼rdigkeiten
B y
f Ã¤lt
en se
in ted
Ġs av
al ed
Ġm ission
ro y
ĠK Ã¼nst
Ġst ates
Ġfe hl
ĠMann schafts
Ġ189 8
deutsch e
ĠLex ikon
ĠD ur
ĠK assel
Ġg ren
ĠJ ena
Ġj ourney
ĠPro fil
hÃ¶r de
ĠMon te
ues day
Unter nehmen
Ġbene fit
J ohann
R ep
S k
ell y
gr enzen
Ġch air
atur ing
ĠBar bara
ĠWo iwod
ĠRund funk
Ġpress ure
ĠRost ock
st on
ly ing
lin der
ĠAr thur
ĠOr ch
Ġher r
ĠAm azon
Ġges etz
gesch rieben
Ġinvest ment
Ġcent ury
Ġsett ing
Ġphil osoph
A ut
lie genden
ĠHe ad
ĠÃľber setzung
Ġdire ctor
Ġfriend ly
Ber g
ĠMinister prÃ¤sident
Hol stein
C S
ĠM ol
ĠK amer
ĠE ff
ĠSp iegel
Ġricht ig
V ol
r ix
ĠZ ahn
Ver b
bahn hof
ĠQual ifikation
v i
Ġm icro
Ã¤ nen
ĠD im
ĠW ohl
Ġauf gelÃ¶st
ĠIn t
ste iger
ĠStra f
Film ografie
produ ktion
produ zent
ar ia
ĠK iel
Ġgu ys
ĠSer ver
ĠErw eiter
B est
F F
in zen
Ġw he
Ġf ant
ĠA ktion
ĠI hrer
ans as
setz ungen
Ġsub mit
Ġjob s
wes ome
c are
an bul
Ġm Ã¤nn
gel t
ĠMed ic
Ġpop ul
Ġappro pr
Ġview ed
iforn ien
fÃ¤l le
k onstru
Ġw ert
ĠA rab
Ġte ams
ĠJuni oren
ĠGew icht
Ġhund red
ĠWed nesday
r ennt
Ġf ans
ĠP in
ĠK ommission
ĠH eb
ĠRe form
ĠAn y
ath on
Ġcont ract
ĠKon zer
fÃ¼ hl
ĠErfahr ungen
ĠWilli ams
en gl
re ten
ic ious
Ġl ines
Ġl isted
ĠO pp
ĠSp rachen
ĠBr es
ĠAd el
reg isseur
ĠKranken haus
aill en
w uchs
Ġw and
Ġauf gebaut
Ġver g
Ġwe g
âĢĿ ,
Ġsc ient
Ġ189 5
Ġdeter min
ĠWÃ¼rz burg
ĠH ot
ĠH arr
ĠW ho
ĠL ibrary
ĠMa jor
Ġbest ritt
ĠÃ¶sterreich ische
ĠW M
et he
ĠV el
gen Ã¶ss
In s
ĠÂ §
ĠBild ungs
N ov
R T
al ity
ĠK anada
ul in
ĠThe orie
eben e
Ġra p
Ġâ Ĥ¬
ĠFo otball
al is
ĠB ert
ĠK im
Ġl ern
ĠU ser
Ġj ud
ĠAuf lÃ¶sung
teil s
ĠDo ug
ĠZahl en
abet es
Europ ameister
ylvan ia
j en
Ġin fo
ĠG ang
ic ul
ĠPro te
ĠVor aus
Ġra ce
ĠMan y
Ġvers ehen
ĠCD U
ĠMicro soft
Ġw ants
Ġre ich
Ġver legt
Ġbro ad
ĠM om
ĠM ap
im b
Ã¤r ke
ath an
ĠCont rol
denk male
ĠAnton io
Ser ie
j an
n ow
t rue
on ien
Ġbes ondere
Ġger ing
Ġverw enden
ĠLeist ungs
iate ilnehmer
m iss
Ġs icht
ĠK y
ĠL iber
we ge
Ġdi agn
AA AA
Ġut il
al om
ĠK Ã¤
Ġbe ge
Ġab geb
Ġprodu ced
ĠCon ne
S eine
ä º
te gra
Ġf ung
ĠF iguren
ĠHalb finale
Ġoffiziel l
F unktion
ļ Ń
Ġb oy
ro te
ĠT ief
Ġe igent
Ġreg ional
Ġerh ielten
Ġsol id
ĠEd ward
ĠHers tellung
gestell ten
l ings
l angen
ĠS ak
ĠS tell
Ġb ill
ĠChr is
ĠMon at
ĠFakult Ã¤t
u v
Ġc ast
ĠF lag
ent ur
ĠC ost
ĠEin heiten
pl Ã¤tze
ĠPf ar
199 9
ĠWohn ung
ĠJo e
Ġdien en
ĠEntscheid ung
bere cht
D I
D en
e ch
Ġc ry
ver anstaltung
Ġle it
zen e
zeit ung
Ġserv e
ĠOber st
akt or
ĠRo ten
ĠÐ ¿
Ġeas ier
Ġprofession als
m auer
w s
Ġs ets
ĠR ollen
ĠL ittle
ĠC ur
let te
ĠBar on
Ġdah in
Ġprote ction
Ġwa it
> <
k ow
r iss
Ġc old
Ġsp ring
ĠgegrÃ¼ndet en
ĠBund est
Ġzust Ã¤ndig
ĠWeltk rieges
Ġm is
am i
ĠGe gner
fol gt
gesch windigkeit
Ġland wirtschaft
E hr
b rand
ĠH immel
ĠJ ed
ze igen
Ġserv ed
ĠGroÃŁ e
ĠKomp osition
Ġland sc
ĠnÃ¤ch ste
Ġocc ur
Ġess ay
L E
f ree
ĠM auer
Ġc amera
ist ischer
Ġde gree
Ġdr iving
Ġ188 0
ĠWei ÃŁen
ĠPrÃ¤sident en
Ġmot iv
Ġs ituation
Ġm ap
ĠA S
ĠM ake
od urch
ĠSp itze
ĠWe ge
ĠPar ameter
Ġhelp ing
Ġredu z
ĠSÃ¤nger in
ĠCam bridge
B et
G u
ol ogen
ĠW Ã¼r
ĠJ ar
Ġbeaut y
ĠIde en
Ġrelig i
ĠTÃ¼rk ei
ĠRath aus
m ot
z ust
ĠS aar
Ġer stellt
ĠV ill
Ġfor mat
ĠdÃ¼r fen
ĠZusch auer
Ġt ief
ĠM und
Ġn utz
ĠF a
ĠL ate
iv als
ĠAm ster
ĠQu elle
mar sch
ĠKo ordin
im er
ust ain
ov iÄĩ
lam ents
T S
ĠR ose
ied elt
ped ition
w Ã¤l
z te
er te
is piele
Ġand ers
ĠL at
ĠVer halten
land es
Ġen h
Ġcon ference
stand en
Ġfin ished
ĠTr ib
Ġdam age
ĠAst ronom
ĠBek annt
Ġestabl ished
W ert
ĠP ow
ĠSystem s
Ġupd ate
w ing
ĠK amp
stÃ¤nd en
ĠDan eben
Ġmet al
aka dem
ĠVirgin ia
ĠK urs
Ġge ist
Ġent gegen
ĠWelt meisterschaft
ĠSong s
ĠjÃ¼d ischen
Ġstruct ure
Ġw ine
ĠG il
Ġcover ed
ĠG le
aus gabe
Ġple as
ĠB ell
Ġo st
ĠSch on
rie den
age l
ĠBer icht
ĠzurÃ¼ck ge
ĠSchwer punkt
Ġcorre ct
r ast
Ġl ength
Ġe arlier
ĠMo dern
bes itz
Ġpar allel
ĠWor ks
zÃ¤hl ung
ĠJos Ã©
Ġpresen ted
ĠChin ese
ĠUkra ine
v ard
or fen
ut ing
min ton
Ġassoci ated
U r
en ken
ĠS emin
al tete
ĠM use
aus schuss
urop a
Ġexist ing
Ġpie ces
in ks
Ġc ars
Ġth ank
Ġim press
att form
ĠSte phan
Ġmay be
Ġcol ors
Ġlight ing
ĠFil me
Ġteach ing
p ommern
st al
Ġ18 48
ĠEpis oden
Ġw odurch
ĠK anz
Ġj ur
ĠZeit raum
Ġur kund
F ried
z in
z um
ber eitung
ÃŁ ig
Ġacc ommod
Ġuse ful
ĠChe f
ĠrÃ¶m ischen
G o
c u
k u
s ylvania
Ġc er
sp recher
Ġdiffer ence
ĠFunktion en
Ġgelegen en
Ġeffic ient
E le
ed om
ann ter
Ġdurch schnitt
Ã© t
Ġchange d
ĠFÃ¶rder ung
A F
S pieler
Ġ Ã¶stlichen
ĠF air
ĠH erkunft
ĠC anad
ir urg
Ġge kommen
ĠEr schein
ĠFamil y
fÃ¤h igkeit
Stra ÃŁe
Ġb ur
ĠM ig
ro nd
Ġan gesehen
Ġab ger
Ġ4 9
L ist
Ã¶ glichen
ann ed
Ġvor ge
olog ischer
Ġhel fen
ĠBau werk
so ap
Ġtechn ical
Ġ187 1
ĠMag de
Ġgepl ant
vors itzen
ĠÃ¼br igen
J uni
Ġt ritt
ein heit
ĠGrÃ¼nd er
ĠOp ern
ĠLok omot
h ire
el ine
ĠM d
Ġr u
por ation
Ġredu ce
Ġcertain ly
F o
W irtschaft
y ers
Ñ ĩ
Ġ !
us ter
ĠL td
Ġer laubt
Ġ4 7
Ġcon cept
arbeit ete
ĠInd ien
ĠBesitz er
ĠFrie den
Ġkosten los
b ad
r amm
Ġb rach
as che
ĠT uesday
ist ant
Ġal ter
iz eit
Ġat tend
ĠSchl uss
Ġkur zen
Ġelect ric
N ot
it arr
Ġin tern
ra ted
ĠNe ust
bild ungs
ĠIns eln
ĠParte ien
4 00
b ay
Ã ª
Ġ ign
ĠS tellung
ro ugh
em ann
ot ional
af ft
Ġcont ains
Ġtechn iques
Ġkein er
ĠInstr ument
ĠD iv
Te chn
part ner
!! !
ĠJack son
ĠTÃ¶ch ter
an ie
ĠA le
Ġer fahren
Ġan hand
Ġpro ud
ĠEin richtung
Ġex cept
ĠMan fred
ĠAs ien
Ġsur face
ĠÃ¤lt este
Ġin f
sch m
ĠR he
Ġzu geordnet
Ġum geben
ĠFl ucht
ons erv
fÃ¼ gt
Ġap pl
ĠOb wohl
Ġbeein fl
D AP
r t
Ġw inter
ĠE vent
ĠI C
ĠW it
ber n
ug ies
se kretÃ¤r
Ġbes itzen
grÃ¼nd er
ĠSc iences
Ġ189 6
cy cl
Ġpat ient
ĠFrei heit
g ot
h aben
Ġa ward
Ġ1 10
ad ies
ĠBe am
uss ion
Wh ile
Ġunterschied liche
ĠAustral ian
ĠRegen sburg
Ġdise ase
u an
ĠS oph
ĠD ata
ĠR io
Re chts
Ġcour t
ĠTab elle
Ġmeas ure
Olymp iateilnehmer
chip karte
L C
Ġb la
de gang
Ġk new
ĠU fer
ug os
rat en
Ġdr ink
eh m
ĠKom bination
ĠWeit eren
ĠÃ¶ffent liche
National mannschaft
Ġwes entlich
ĠBenutz er
Ġbenach bar
K irchen
f ranzÃ¶s
Ã¤nd igen
ĠFor um
An merkungen
ĠOff izier
Ġvisit or
ĠMÃ¶glichkeit en
V al
r ical
at om
el f
ol z
Ġc at
ĠWe ek
tet t
ĠFor ce
ĠKr ist
Ġsen ior
Ġinnov ative
v ol
ĠT rÃ¤ger
ĠVer anstaltungen
ĠAn frage
Ġsh own
Ġsh ared
Al le
Ġmed izin
ĠMy th
Ġentsprechen de
zem ed
l le
o ire
ĠK Ã¶
sch te
lo ok
ĠTr ump
as ilian
ĠL abor
ĠC ook
rÃ¤ gen
ild ing
ais er
Ã¡ s
Ġstand ards
Ġstre et
Ġgemeins amen
i ation
ar p
re me
ĠH ig
Ã¤r ung
Ġco unter
Ġvers uchte
Ġ189 7
Ġopen ing
B ad
Ã¤ ure
Ġh Ã¤tten
Ġc entral
oc ol
Ġad vanced
ĠWoiwod schaft
M ill
ĠP anzer
Ġn ames
Ġet abl
ĠSer ien
ĠGrÃ¼nd ungs
ĠFo od
ĠjÃ¼n ger
N S
Ä «
Ġs ession
ĠI ran
Ġwh ose
ĠSp itzen
wer ben
Ġtra f
ĠPar laments
ĠMet hoden
Ġsur v
ĠZug ang
st aben
ĠT en
ĠVer letz
Ġcan cer
fÃ¼hr te
Ġrespons ible
Ġmittel alter
Ġzunehmen d
Ġimmed iately
m otor
ĠB art
Ġn ut
ĠH amm
ap ers
Ġ18 60
fÃ¼hr en
ĠAnd rew
ator ium
ĠKommun ikation
ĠEpis ode
D igital
T our
ĠE ugen
ĠL ist
Ġst Ã¤r
ĠÃ¼ber haupt
burg h
schn itts
Ġswe et
Ġs agt
ĠSte ve
ĠMon aten
Ġcrit ical
prÃ¼ ft
O P
m ess
ĠAr ray
ĠBer nd
hÃ¶r igen
uer ung
ĠCount ry
in ischen
ur o
ĠGe walt
Jahr en
ĠBron zemed
ĠColumb ia
b chen
Ġl it
ĠVer st
fe ct
199 6
haf te
ĠSowjet union
E lement
F amilie
an ch
ĠD adurch
ĠF inn
Ġbe yond
ĠHaus es
Ġin iti
um pf
ĠC ro
ĠGes ang
Ġsay ing
ĠBevÃ¶lker ungs
akadem ie
M B
d is
k Ã¶rper
ĠH oll
ip fel
ĠBe wohner
ond eren
Ġausge fÃ¼hrt
Ġeven ing
C onstants
P ort
S PD
ĠD ist
Ã¶ tet
rom e
act ive
Ġprodu ce
An t
stoff e
bed ingungen
Ġconne ct
ĠDiss ertation
ĠKÃ¼n ste
n ab
ĠT ay
Ġsp richt
gr iffe
iz z
ĠLe arn
Ġ5 2
In stitut
Ġstat us
Ehemal ige
h u
s ere
t op
Ġj ournal
Ġad vent
Ġste ps
Ġfind ing
T H
Ġs itu
ĠS yd
ĠD ank
de hn
ĠP ots
ĠL etz
est yle
ate ver
wer den
Ġreg istr
Ġkathol ischen
Ġdig it
ĠPortug al
n g
p pe
p pen
Ġre asons
Ġun gefÃ¤hr
ite ktur
teil ungen
199 8
ĠRÃ¼ck en
mus iker
Ġfac ilities
ĠMex iko
M ax
c raft
on i
Ġinter ior
Ġviel leicht
weil er
verband es
ĠPublik um
ĠDah er
ĠS inn
ĠM ath
ĠW ay
Ã¶ z
ĠMark eting
Ġren ov
N or
or ien
de cken
Ġh ospital
ĠBe handlung
her ren
ĠMe yer
mit glieder
ĠGer icht
Ge w
ĠJe ff
Ġbas is
Ø§ Ù
Ġthous ands
re in
ĠKommun al
Ġengl ischer
ĠAmster dam
M C
f els
p et
Ä ĥ
ĠS her
ĠA L
ĠE ven
ĠJ a
ĠV ie
Ġj em
Ġse ven
ĠOr der
Ġges pe
ĠAnd roid
ĠLie fer
Ġcommun ication
fÃ¤ ll
Ġmult i
Ġa head
ĠO bl
id ung
Ġcom ments
Ġsh aring
ĠÃĸ k
Ġsec ret
ĠTer rit
ÑĢ Ð°
Ġnahe zu
ĠHor st
ĠerklÃ¤r te
Ġtalk ing
Ġrestaur ant
Ġunterst Ã¼tzen
G esch
O st
â Ĥ¬
ĠD iffer
ĠT ony
et ze
Ġr ank
qu enz
Ã¤nd ige
erv ice
Ġseit dem
ĠCon ference
ĠFahr er
Ġincre ased
Ġcompet ition
e ur
Ġe at
Ġun ge
ĠInd ivid
bo ten
ĠMc C
Ġeinzel ne
ĠOrd nung
r ia
it ors
ĠS ender
Ã¤ ll
Ġpro p
ste igen
Ġ/ >
or ation
Ġh ers
ĠLand tag
Ġnumber s
ĠAfr ika
Ã¼ p
ĠM ord
ĠF ord
ĠN Y
Ã¼r en
lin ois
ip pen
Ġmov ies
Ð¾Ð ²
ĠImm obil
k Ã¼rz
is ierten
ĠAb geordneten
Ġange gebenen
Ġclean ing
Ġachie ve
K rit
g yp
y c
or ient
Ã¶m isch
ĠFeuer wehr
Ġtats Ã¤chlich
ĠI ts
Th ese
Ġgu y
ĠJu an
ĠHar ry
Ġmov ed
A B
ber s
ĠCh allen
Ġco ffee
ĠAus nahme
Ġrec ords
Ġgra de
Ġâ ļŃ
ĠWir ken
ĠGerman y
P aul
Ġf allen
ĠE sp
ĠV Ã¶lker
ĠSch ritt
olog isch
ĠFre unde
Ġtr ust
Ġ189 4
ĠMark et
esent lichen
ĠBÃ¼ hnen
Ġstra tegy
Ġrele vant
ĠNet work
k ern
w ith
Ġt ag
Ġt ransp
Ġw ebs
ĠL ook
Ġwissenschaft lichen
3 00
d auer
l it
ur ers
ol as
ĠR ail
Ġauf gestellt
ap h
ack er
Ġho her
ĠGesch ichts
Ġsele ct
ĠNeub au
f al
l ife
m ail
Ġs amm
Ġf ill
ĠB it
Ġv ision
ĠR ett
Ġro b
Ġverb ess
Ġexper ts
verein s
Ġmein er
ziehungs weise
Ġol der
Ã ĥ
al em
ol ar
isch Ã¶
ĠO scar
ĠVer antwort
Ġhe avy
Ã¤r m
Ġman chmal
St affel
sk a
ĠGeb urts
Pro zent
ÃŃ o
Ġprote ct
Ġb ag
im in
ĠH um
ĠRe fer
ĠAr men
Ġ5 1
gesch oss
fass te
F ranz
ĠH ospital
ĠR on
Ġcon stant
Ġ15 00
Ġac qu
ĠNational mannschaft
Ġmon itor
schei det
Vers ion
or row
ĠL Ã¶sung
Ġg ather
igkeit s
kl us
Ġlook ed
Ġexc ited
Ġsn ow
ĠHug o
F alls
p fl
Ġt a
Ġs org
an ke
st rom
Ġbe grenz
Ã¶ gel
ĠN R
Ġmit einander
Ġhand le
ĠOl den
verkehr s
ĠKup fer
P art
k urs
o ter
ĠM i
ĠE P
ĠN ah
ĠSt ift
ac ity
Ġ189 3
Ġexc iting
ungsp ro
Ġrad io
ĠIngen ieur
ĠB io
ĠB Ã¤nde
Ã¶ ck
ĠO d
Ġpe ace
zÃ¼ glich
Ġcharac ters
Ġparticular ly
wirk ungen
g ant
Ġf Ã¤llt
Ã¼ gt
el ess
Ġal one
sp ann
ĠPl us
sh ire
grÃ¼nd ung
reg ion
icher ungs
Ġbott om
I R
r un
Ġf an
Ġf ish
Ġh il
ĠO ther
Ġent steht
erv ation
ĠNach richt
ĠgroÃŁ es
Ġspiel ten
199 0
ĠForm el
Ġbr asilian
ĠÃ¤ uÃŁ
ĠD rag
Ġg allery
ick e
geb irge
Ġber ichtet
Ġsm ooth
B ere
Ġw issen
ĠF ro
and e
Ġer le
ĠSt urm
ĠLand schaft
ĠGemein der
Ġstark en
Ġbring t
C ol
H ein
H ome
M W
o ben
al b
os h
ĠZ erst
setz te
Ġverschieden er
c ient
p an
t aus
Ġ ðŁ
Ġs uffer
le hre
ĠP ix
Ġ20 22
ip es
ub il
Ġvor bei
ĠGr amm
ĠWe gen
ĠUr laub
ĠLin ks
ĠGed enk
ĠDipl omat
n ing
u ern
È Ļ
ĠR ol
Ġg ran
ĠJ ersey
ĠMe chan
Ġcomp rehens
Ġass ign
ch ern
ĠB aus
ĠB aby
ĠE conom
ĠV iet
Ġal though
ĠSp ace
ĠEin richtungen
ĠAuf nahmen
Ġshe l
ĠSchl Ã¼ssel
Ġmain tenance
Ġir gend
ĠbestÃ¤t igt
ĠMatth ias
F B
R el
Ġn Ã¤her
Ġc it
ĠG uts
ĠE ind
ce an
tel n
av el
An halt
ĠFer ien
Pl atz
as ien
ĠP ie
ĠK eller
ĠH Ã¼gel
Ġl ab
ĠVer gangen
Ġsp anischer
ob acht
Ġbet rieb
ĠGesch ichten
rÃ¤n kt
ĠWieder auf
Ġallow ed
ĠArm y
mitt lung
b ahnen
Ġbe ziehungsweise
ĠJ im
Ġte acher
wend ungen
Ġaufge fÃ¼hrt
Ġclick ing
K o
Ġme x
be zogen
rÃ¼ st
In sel
ĠEx pl
leg entlich
Ġ188 9
ĠGraf schaft
cel ona
he il
ĠP M
Ġh aven
ut ch
os low
sp rÃ¼
ĠAus einanders
ĠMar s
Ġele ments
Ġchallen ges
p ool
Ġ Ã¶rt
in de
om er
ĠEr ste
ard o
ack en
iss es
ĠFran ken
Ġant i
Ġvo ice
ĠS au
Ġb lieben
ĠK il
ĠSt ory
ĠIn itiative
end o
ĠDe ck
uck s
Ġsele cted
Ġwa iting
! )
C ar
r us
w ater
ĠA M
ĠR ub
ĠN ation
ier er
Ġe he
end ar
Ġ18 50
Ġjapan ischen
s ichts
Ġer zÃ¤hlt
ĠSch we
ĠBe weg
Ã¼n fte
pl atte
Ã¤hr ung
Ġteil s
Ġnational en
ĠJust iz
schlÃ¤ ge
ĠSeb astian
v ens
st ab
Ġn ar
th aus
ĠKÃ¶nig in
Ġinc ome
O M
S ein
u ters
ĠA ster
ĠP ac
ĠT wo
ĠV ideos
Ġbis lang
fÃ¼hr ungen
ĠMich igan
ĠMex ico
K irche
S ep
Ġb ayer
Ġp al
ug g
qu est
Ġunter scheiden
ĠVor stand
gesch lagen
ĠWahl kreis
Ġstate ment
ĠBot schafter
Ġrelations hips
ĠR ac
Ġan schlieÃŁ
ad ing
âĢľ ).
Ġcom bin
rÃ¤ ft
je kts
Ġgu ests
ĠGegen wart
Ġclass es
Ġprim ary
S yn
x x
ie b
ĠF unk
ien cy
Ġsh ot
ĠMed ical
Ġser ver
ĠÅ ł
antas y
c en
k arten
u ellen
il de
Ã¶ ÃŁen
ĠAn spruch
Ġ5 3
ĠQu adrat
fa ult
e f
ran che
Ġunter en
Ġexper iences
ĠMich el
Ġpres ident
ĠGef angen
ĠM ak
ĠE as
um a
sen s
Ġcon vers
aj a
Ph il
c onstants
f ir
un Ã¤chst
Ġthe me
ĠT rieb
Ġc ategory
Ġr ules
ĠGra z
Ġacc ur
Ġpo or
Ġdevelop ing
ĠPolitiker in
ĠAktiv itÃ¤ten
F ahr
r uss
Ġon to
ĠAn h
Ġcom pl
Ġunter sch
Ġda ughter
Ġpay ment
Ġexpl ore
gre if
Ġfab ric
Ġnumer ous
ĠN och
la ted
if ying
Ġsch ied
be am
Ġbes aÃŁ
Einz el
geord nete
wor th
Ġunterschied lich
Ges ellschaft
Ġstreng th
f ue
Ġt ruck
ĠB om
ĠSch reib
art igen
Ġsch eint
ick et
ĠMa ur
Ġfo otball
Ġkon zentr
ĠPrinz ip
l ist
l itz
st ock
ung er
ĠG riechen
ĠK art
ĠH ay
ach us
ĠN ote
iz er
anz ig
Ġqu e
ĠSh op
Ġbesch reibt
ĠInternational e
Ġbig gest
ĠKal ifornien
ĠpreuÃŁ ischen
ĠbenÃ¶t igt
Ġerinn ert
M o
a tely
ĠM P
ĠD J
ing ham
ann i
Ġfor ms
ĠPer form
Ã³ w
ĠSchn ell
ĠursprÃ¼n glichen
Ġhig hl
ĠThÃ¼r ingen
ger Ã¤te
Ġtra ffic
ĠStud ies
ĠJohn son
ĠGener ation
ĠUntersuch ung
Ġerstre ckt
Ġwebs ites
N ow
W el
h ar
Ġ ĠĊ
re h
ers te
ĠAn lagen
inz ip
Ġbes onder
ester day
zie ht
Ġpropert ies
ĠVerÃ¶ffentlich ungen
Ġorganiz ations
H ere
k Ã¼nd
ĠS ir
ĠS ens
Ġb ess
Ġf lieÃŁt
ĠM ir
ic ans
eb urg
ĠZ ivil
ĠThe ologie
iz ien
ĠPl atten
Ġpl enty
yn ast
199 7
ĠmÃ¶glich st
ĠBur gen
ĠOper ation
ĠTab ellen
Ġklass ischen
ĠGest altung
ĠNetz werk
k Ã¼ste
Ġm aÃŁ
ĠK ohl
ĠH em
ĠLe w
folg ung
unds Ã¤tz
ĠSec ret
ĠBronzemed aille
k ultur
me er
Ġsc en
Ã¼t ze
Ġeinz igen
ĠOff ic
Ġschw ier
Ġav oid
ĠDon au
ĠZwe ck
Ġlov ely
u j
Ġs ing
or ia
Ġb illion
Ġf le
ĠL or
ip end
ĠBo ot
ĠBook s
Ġgemeins ame
B ook
ĠF ull
ir at
Ġr ent
ĠLe hre
rat ing
onst ant
ĠMet rop
Ã¤mp fe
ĠMount ain
Ġcop y
Ġappropr iate
M ag
Ġd ish
Ġver Ã¤ndert
ĠAn wesen
ĠNor wegen
bl ing
gest altung
sb ruck
Ġfant astic
J ose
z esse
ĠF un
fin ition
Ġinter pret
Ġsur pr
stre cken
Ġmov ement
Ġatt ach
ĠBro ok
ĠArn old
ĠOh io
. ).
Ġ Ã¶k
er ei
ĠT ob
ĠH aup
em it
Ġun er
St re
stell ig
ĠBl ues
ĠEnt fern
Ġletz ter
Ġ189 2
ĠInstit ution
Hand lung
ĠIst anbul
ĠÄ Į
Ġsched ule
Ġv en
ĠP ian
ĠL oc
Ã¶ se
ĠU se
Ġfl at
setz er
ĠPhys ik
D DR
Ġ ?
ĠG all
ver teid
sen de
ond e
pro fess
ĠGo vernment
spe kt
ĠAlb recht
Ġve get
kur renz
Ġaltern ative
O ff
ĠL abel
ass au
stell te
ĠRu h
ĠSchriftsteller in
Ġlar ger
Ġcele bra
L auf
on enten
an aly
ĠD Ã¤nemark
ĠL ag
ĠL ady
ĠC lin
ĠN un
Ġge eignet
wer ten
ĠHol lywood
Ġwissenschaft liche
ĠVergangen heit
ier end
Ġex erc
ĠAtt rib
h as
ist rÃ¤ger
Ġsp read
ho u
pl atten
hÃ¶r ige
Ġhelp ed
Te xt
Ġbas iert
Ġbra in
Ġitalien ische
besch reibung
Ġbedeut end
E nd
R S
Ġm ilitary
ĠB os
ĠD atum
ĠSt ill
id el
Ġsh ape
Ġpop ulation
ĠJapan ese
ĠErw achsen
J ahre
P e
c s
g s
l ight
m ack
y mp
ra p
et a
ĠV EB
for scher
ial s
Ġen glisch
Ã¤l le
bach er
Ġeigen es
Ġaktu ell
Ġafford able
8 00
T C
Ġs ter
ĠS onne
ĠM assen
ĠN ar
ĠN ad
Ġe arth
ĠGr enzen
igt es
à ¦
em burg
Ã¼r zt
Ġde p
Ġunter halb
Ġdort igen
Ġdist ance
bie ter
renn fahrer
ro ad
Ġc atch
ĠJ ord
ĠV f
Ġar en
Ġ188 5
Ð½ Ð¸
ĠPass ag
EM ail
ĠWeihn achts
a wa
Ġa wesome
ĠOr ten
ĠNe um
ĠVerein igung
hÃ¤lt nisse
Ġstor es
dire ktor
st one
ĠK am
ĠE arth
ĠN at
ĠV og
ĠAb t
ĠAb out
20 20
Ġ5 7
Ġbes onderen
Ġ8 5
stra ÃŁen
ĠStÃ¤d ten
ĠGebie te
ĠEntwick lungs
S up
n i
Ġs agen
ĠG ot
ib e
Ġse a
ĠMar gar
ĠUnivers itÃ¤ten
Ġbeen det
Ġerr ichtete
Ġklein ere
ĠSpring er
ĠRelig ion
Ġadvant age
B B
M ilitÃ¤r
Ø ±
ĠS ince
ĠA ction
ess in
ĠkÃ¶n ne
bau te
Te am
Ġbr ight
ĠDort mund
ĠPap ier
Land kreis
Ġconne ction
Ġverkauf te
Ġschwer en
m eldung
z ens
ĠG Ã¤ste
ĠZ y
ĠBe at
Ġex ter
Ġgre ater
y ll
ĠW Ã¼rttemberg
qu er
Ġtre ffen
Ġenvironment al
ĠEngine ering
ĠSyd ney
p in
s ol
Ġis land
ip ps
ĠReg ionen
ĠCo ver
ĠBereich en
Ġpoln ischen
Ġpaint ing
Ġneigh bor
Ġfem ale
k es
ĠK Ã¶r
ĠC EO
Ã¶ tz
ĠIn frastruktur
geb nis
gra de
199 5
Ġinvest ig
ĠTw itter
N atur
m or
Ã¤r t
Ġpr incip
ĠGu ide
Ġfollow ed
Ġleader s
ĠÃ¤lter en
Ġdeutschsprach igen
D an
} ,
Î ¹
ĠS ul
ĠS ud
ĠC reek
Ġr at
Ġman ager
aut hor
Ġber uf
ĠGra d
Th at
Ġstark e
ĠGar den
Ġsong s
K om
P lease
t own
ĠM io
sch uld
Ġer lang
iel l
Ã¶s ungen
ĠEng agement
Ġerm Ã¶glichen
ĠMaÃŁ nahmen
w ord
ĠT ats
Ġg Ã¼lt
ies s
ĠBe aut
olle y
bes itzer
ĠRo ute
ĠMet al
ĠPat rick
Ġresp ond
Ġpract ices
ĠOs nab
m aschine
u y
er ien
ĠD E
ĠF red
ĠJ enn
ĠSp er
ĠPro pert
Ġnot ice
Ġsc ene
ĠBar celona
med izin
Ġfre ien
ennt nisse
Ã¤m lich
ĠRestaur ant
ĠS af
al i
Ġf uhr
ĠM oh
ĠG Ã¶r
ĠK rie
ĠE qu
os ed
fol genden
ring t
Ġbu ying
ĠEing ang
Ġmaint ain
Ġbetrach tet
mÃ¶glichkeit en
C up
v y
Ġ Ù
Ġw eder
ĠT am
ĠH aar
ĠO der
fol gen
Ġget rennt
Ġbeg innen
ĠOn ce
ĠWar en
Ġoper ations
ĠTele fon
zuf Ã¼hren
B en
k amp
an ia
ĠH rsg
ĠW urz
ĠL isten
if el
ĠBe ziehung
Ġcol our
ĠInn sbruck
ĠGebie ts
ĠFÃ¤ llen
ĠPorn od
T od
n oten
ie fen
ĠB och
ĠM isch
ĠF ore
Ġk o
Ġge grÃ¼ndete
Ġst Ã¤dt
Ġfor ce
ĠVer eine
c ar
Ġv s
ĠK alk
ĠSch ott
esch oss
Ġle gend
Ġzw eiter
Ġdr ug
Ġnational e
Ġdenn och
Ġsepar ate
k ommand
n ight
Ġt on
te am
st Ã¤d
ers dorf
Ġre chte
ger y
ĠWelt cup
ĠÐ ²
ĠTo de
ĠTem pel
ĠGef Ã¤ngnis
Ġelekt ron
ĠFrie dens
Ġnotwend ig
. /
M en
u ct
ĠR ÃŃo
Ġer zeugt
Ġsch reiben
auf tra
app y
Ġ188 8
ĠTod ay
Ġhim self
ĠBrÃ¼ cken
Ġvisit ors
Ġfact ors
Ġop in
Ġ Ñģ
Ġa uÃŁen
an isch
an th
te au
Ġf at
Ġp assen
ver zeichnis
ĠÃ ł
Ġman age
Ġro of
Ġdar aus
Ġfre ie
ĠBÃ¼ hne
ĠKont rolle
ĠPo int
Ġlim it
Ġindustr ial
ĠMik ro
P al
l ein
o ir
is her
Ġs Ã¤m
Ġw rote
Ġm ut
ĠF Ã¼nf
ĠW ik
ĠC apt
end el
Ġent schied
Ġ7 2
uz z
haf ten
Ġcor porate
Ġsex ual
achus etts
D aten
E W
Ð ·
ĠB auer
ĠP ur
ĠV I
ab geordneter
Ġun its
ph il
ograph ic
Ġcould n
sw ald
Ġdre am
ĠDipl om
ugos law
v ar
er ie
ch a
Ġin kl
ĠG ab
Ġre icht
men d
od ox
ĠPro jekte
Ġres idents
Ġges ellschaft
ĠFre ien
Ġeinz ig
kauf t
arstell er
ĠMathemat ik
Cont ent
ĠMagde burg
e g
g ow
l enz
ĠA x
ed ig
ĠCh ief
ĠMit gliedern
Ġ5 4
Ġerw orben
ĠCon gress
ĠLei den
Ġpriv aten
ĠBro ad
ĠViel zahl
Ġcla im
Ġpromov iert
J apan
ger Ã¤t
Ġbes etzt
fahr zeug
ĠAug sburg
ĠSc ot
Ġpost s
fÃ¶rder ung
innes ota
Ġs elling
we ist
ĠAl k
Ġart ists
g Ã¤nge
ĠP as
gel s
fÃ¼ ll
Ġbo ught
sche f
Ġupd ated
Ġgriech ischen
K arl
] ,
ĠG Ã¼
Ġdie t
Ġsp rechen
ang a
zeich nen
Ġwel chem
Ġopen ed
ĠPenn sylvania
H S
æ ľ
it ag
ĠR umÃ¤n
ĠC A
ĠVer zeichnis
ĠAl ters
ĠSie ben
ĠAb geordneter
ĠFl Ã¤chen
Be im
ĠEigen schaften
ĠMiner al
ĠSchla f
O W
S he
â Ħ
ĠGrund stÃ¼ck
icher heit
199 4
Ġpass ed
ĠRu hr
Ġgener ally
ĠBist um
Ġattem pt
Ġsatis f
v ater
Ġw achsen
ĠCh air
Ġen able
ĠX X
Ġmin ute
ĠBra un
kn own
ĠSchÃ¤ fer
Ġbus y
M art
u tely
ĠB alt
Ġc loud
ĠE arl
Ġver fasste
ind ing
av or
ly n
Ġsch rif
ĠWh y
Ġmed ic
Ġadd ing
Ġbestehen den
ĠBened ikt
" :
e ff
p asst
Ġw ire
Ġl i
gr Ã¼
Ġex change
ĠFre izeit
ĠHil fs
Ġlo an
ĠNutz er
Ġinsp ired
ĠIl linois
Ġteach ers
Ġsoc iety
us en
Ġp ush
ĠP ul
Ġc ities
sch wer
ĠVer anstaltung
Ġbet roffen
Ġrem ove
Ġmoder ne
Ġverst arb
Ġsozial en
Ġinstall ation
Ġautomat isch
Ġgren zt
P C
ĠD ollar
Ġn Ã¶t
Ġden k
ow ohl
ib l
Ġvor aus
Ġvor gestellt
Ġus w
wer tet
ĠGesch le
Ġverst orben
ĠDet ails
Frank reich
Date i
A pp
it at
re ht
Ġsp anischen
Ġ5 6
Ġper haps
ĠBundes ver
Ġs ister
ĠB Ã¼r
ol er
Ġzu k
gr Ã¤
dem okrat
Ġsh all
Ġknow s
Ġtechn ischen
Ã¶ch ten
Ġoper ating
ĠBed ingungen
Ġtest ing
Ġengl ische
ĠErfahr ung
Ġverpflich tet
O D
Ä Ł
al and
un ters
om it
Ġbe zeichnete
Ġst ick
ĠTh ank
fen se
Ã© l
trag ung
ĠHoch zeit
usÃ¤tz lich
Ġengine ering
ĠerhÃ¶ ht
ĠWag ner
Ġil leg
ĠPornod arstellerin
p aar
ĠM ans
ĠK amera
Ġvor wiegend
teil te
zeit schrift
ĠGem Ã¤lde
Ã¼t ten
Ġdr iver
Ġele ment
Ġinc or
ĠEd el
legen heit
A p
J ohn
c z
g red
Ġer mittelt
Ġst yl
Ġver n
id den
Ġoff izielle
ĠVerb reitung
ĠFahr t
ĠpersÃ¶n lichen
hers teller
ur ies
ĠB at
ĠT i
Ġein iger
Ġein schlieÃŁlich
im ir
ap os
Ġcom bination
out s
Ġqu ant
ĠBes etzung
Ġbesch Ã¤d
Ph one
ĠAmts zeit
deck ung
Ġvol unte
Ġverur teilt
T er
V I
k as
un ted
ter m
ĠH ong
ĠL ow
ĠU RL
Ġsch ott
ĠMar i
ĠWerk en
jahr es
ĠSec urity
ĠBach elor
Ġsour ces
ĠKarls ruhe
Zw ischen
F rom
h Ã¤ndler
k Ã¶nig
ar ma
ĠM obil
Ġ( ;
ĠF A
ĠN on
Ġdes k
Ġde te
ĠBe f
Ã¶r g
ph ia
Ġad just
ĠTra g
ĠEnt wurf
Ġ189 1
ĠWei bchen
ĠAir port
w irtschafts
w Ã¤hnung
al o
ĠP red
Ġc art
ĠOr den
ĠMar burg
ĠGes ell
ĠKÃ¶l ner
ĠPlan ung
Ġfocus ed
Ġverbin det
E m
Ġb on
Ġn ennen
ĠR Ã¶m
ĠRe kord
ĠGemeinde gebiet
Ġbesch lossen
Ġcompar ed
rond iss
ĠT oten
ĠK un
ĠK ost
ent lichen
schaf fen
Ġdo ub
Ġgew Ã¤hr
Ġpack age
ĠFÃ¤ h
ĠSonn tag
Ġs in
Ġs ucht
ies e
iz ont
ĠCh am
fen ster
ĠLebens mittel
ĠHel m
Ġinde pendent
re ck
Ġdie d
ĠK ent
ent hal
ĠR af
we ich
ĠPh ase
ĠStud ie
Ġspe ct
Ġlearn ed
ĠAlt ar
Ġwind ows
Mus iker
m acher
Ï Ħ
Ġt rop
os ite
ĠVer wand
Ġunter r
Ġ9 9
ĠAm ateur
Ġeff orts
Ġeinge tragen
Ġcor ner
ĠKais ers
d itions
ie ht
Ġt rifft
ĠM es
Ġp ull
Ġwas te
ens is
Ġsh ip
ĠWe il
bo den
ĠDem oc
ĠColor ado
ĠBres lau
ĠB am
ĠE mer
Ġk g
ap est
Ġse eing
Ġch anging
ĠEn glisch
unter richt
ĠOff en
ĠDis ziplin
Ġcent re
ĠH Ã¤
ĠL ock
Ġbe handelt
ĠZ o
Ġver urs
Ġsch reibt
lie f
geb lich
ĠSe le
ĠHe ktar
Ã¤nder te
Ġreal ity
ĠStr als
Ġbisher igen
ffe kt
Schwei z
Ġverhinder n
âĦ ¢
Ġt ask
Ġf ear
ĠD ynam
if orm
ĠEr Ã¶ffnung
ĠSe hen
Ber eits
ĠBestand teil
G et
k ov
ĠF ab
ĠE C
ĠV it
Ġde als
ĠMad rid
ĠBras ilien
ĠTay lor
Ġcomprehens ive
F ol
U L
d rÃ¼ck
g in
ar ett
Ġf uck
ĠB iele
ĠD C
em an
ic ians
Ġzum indest
ĠFl Ã¼cht
ĠBes ter
ĠStra nd
198 9
ĠSchiff s
Ġhinz uge
ĠGleich zeitig
Ġzie hen
ĠBul gar
Ġprof ile
Sep tember
Ð ¹
ch o
ĠS yr
ig s
ĠP os
Ġl auf
Ġan genommen
ĠZ ul
iz za
In ternational
ĠGesch windigkeit
wirk ung
E E
o or
Ġd rop
Ġt ree
ĠM ix
ĠT enn
ik ations
19 18
ĠAr rondiss
Ġte en
pp ing
Ġange hÃ¶r
ĠNieder lage
Ġval id
Ġsl ight
Ġ186 6
Ġdet ailed
Ġs a
ĠS oll
Ġn Ã¤mlich
ĠK av
ra uf
ĠI h
Ġe ight
ik es
sp rÃ¤sident
Ġsch affen
ob el
rat h
Ġ6 2
imm ing
ĠWelt meisterschaften
ĠRo om
ĠDire kt
CD U
ĠDenkmal schutz
g roÃŁ
re gel
Ġc overs
ĠCo ast
ĠGemein schaft
Ġwalk ing
sta aten
ĠObl ast
Ġs ample
os ing
ost ol
Ã¤r ten
ĠMark us
seit ig
---- ----
ĠNaturschutz gebiet
ĠVarian te
ĠC os
ĠN az
ĠV ari
ĠAn trag
ĠBe fehl
ĠBe hÃ¶rden
ĠBr uch
ĠKl im
Ġmed ium
Ġ187 5
Ġerreich ten
ĠMod elle
ĠSec ond
M Ã¤rz
g un
r Ã¶
an teil
Ã¤ st
Ġthe oret
ĠF ield
ĠH ild
ĠN avy
Ġfor eign
ac ts
ĠAus zeichnung
ĠspÃ¤ter e
ĠTor onto
Ġfav our
Ġvert rat
Ġneg ative
Ġzentr alen
ĠmÃ¼nd et
ĠRena issance
Q L
T ube
ĠA ar
ĠB our
ĠG a
ĠK em
Ġg one
Ġgelegen e
Ġumfass te
ĠZent imeter
Ġapprox imately
U l
w ich
ĠB Ã¼nd
sch le
ac ter
ĠWe ber
199 2
Ġrequ ires
ĠEner gy
isc ons
ĠDokument ar
adel phia
c ause
k ins
us se
st il
ĠT onnen
ges ellschaften
ĠAm b
ĠKl ub
ĠMin ute
ĠPf ad
Ġ186 1
Ġgest altet
jahr en
Ġkeep ing
Ġprepar ed
Ġep is
b n
Ġb aute
ĠC ert
ĠĊ Ġ
end or
ĠThe ir
ĠSp ur
Ġfe aturing
Ġdire ction
iam i
ĠInstitut s
ĠEing abe
Ġhappen ed
ĠSchlag zeug
Ġapart ment
lehn t
i op
w ish
Ġs it
ar ks
Ġf ahren
ĠD ampf
Ġgo vern
Ġqu er
Ġersch einen
ĠzÃ¤hl te
P eter
b Ã¼t
c ore
h art
Ġa st
el en
ber icht
Ġsp Ã¤ten
ĠLe vel
ph ys
ĠBundes staat
199 1
Ġwatch ing
ĠAre a
Ġoffiziel len
Ġdeter mine
ĠGesprÃ¤ ch
Jan uar
ĠDoug las
Ġt aste
ig ers
ĠE M
ĠH ess
ĠL izenz
est ic
ĠIn v
ĠVer tra
ile y
Ġev idence
Ġpl ants
arr iage
199 3
ĠEis hockeyspieler
Ġauth ent
Ġjoin ed
å ¤
ĠB ier
ro h
ĠL ike
ĠN iger
Ġl ose
ĠRe de
ett ing
Ġgr undsÃ¤tz
ĠInn ov
ĠCanad ian
ĠA ccess
ĠR al
ĠAn gabe
Ġ18 00
ĠGe gend
Ġ5 8
Ġpart ies
ĠTra um
ĠGroÃŁ teil
ĠWil son
ĠfÃ¼nf ten
ĠCas ino
ĠÃ¤lt esten
Gen eral
ĠViet nam
z unehmen
ch or
le ide
ĠA z
ter t
Ġn am
ĠW y
ver l
ug by
ĠAus bau
alt y
Ġdo ors
Ġbegann en
Ġprocess es
Ġfac ility
ĠEis hockey
R uss
Ġb urn
ĠB em
ĠD OC
ĠN ationen
ĠAn f
ĠMar io
lieÃŁ en
ĠTr in
ĠJul ia
Ġspe ak
Ġval ues
far ben
B uch
B ay
k ul
r ian
in u
ĠB rem
ik as
op Ã¤d
Ġaus ger
Ġman ual
fahr ten
ingen ieur
Ġkomp lex
Ġorganis iert
Ġbatter y
ĠB le
ĠG ouverneur
ut y
ĠH Ã¼
ĠW ord
be zeichnung
The y
ĠAd ler
gesch Ã¤ft
Sie g
bin sel
Ġ186 7
ĠDon ald
ĠBesch Ã¤ft
Ġhoch wert
ĠPots dam
b on
Ġa im
ar ischer
ĠT ransp
and o
Ġaus ges
Ġr ub
ĠVer n
ĠThe atre
ĠSe kunden
ĠKl osters
ĠMann heim
iqu id
anc er
ĠInter essen
ĠAnt wort
Ġbrand s
ĠInform ations
J ust
r ale
ĠT aschen
ĠG allery
ach te
ot al
ĠO R
Ġde ck
ĠEin sch
erk ennung
ĠNach wuchs
cl ub
ĠCl ick
Ġart icles
Ġstatt finden
Ġvis ual
ĠGed ichte
Ġfig ure
Ġc alls
Ġg ain
Ġan geschlossen
Ã¤t t
Ġsh ower
ĠzusÃ¤tz liche
ĠEnts tehung
ĠGesund heits
A kt
U C
Â ³
is tern
Ġl ights
rÃ¼ cke
opp ed
ĠSk y
ĠCor poration
ĠlÃ¤ uft
ĠerÃ¶ff nete
ĠGi ov
Ġmat hemat
ĠunabhÃ¤ng ig
H inter
ĠS we
ol ph
Ġc e
Ġ9 5
Ġqu arter
ĠFran Ã§
Ġet hn
ĠUm setzung
ĠJuni or
Ġspe zial
the ater
ĠFrei herr
Par ameter
Ġbein hal
A cc
n itten
Ã ľ
Ġm Ã¶chten
ak u
ĠPl Ã¤tze
Ġloc ations
opp elt
hol m
prÃ¤ senz
fre und
Ġnied r
en te
Ġp air
ĠC ond
ag ers
Ġam t
Ġum ge
ĠIm p
werk en
ĠEl iz
Ġverb rachte
schn itte
Ġ188 7
Ġ187 9
Ġaut om
ĠKÃ¼ che
Ġsozial e
le ute
Ġl abor
ĠO m
ĠAb d
ĠÃĦ gyp
Ġdoc uments
es heim
ist ance
Ġer l
Ġsp ons
ĠÃ¼ber sch
ĠTh or
St iftung
Er gebnisse
Ġgr und
ĠEurop as
ĠMark e
ĠAlt stadt
mod ell
k ar
Ġm ail
ĠA sh
ĠD og
all iga
Ġaus reich
art ier
ip edia
Ġakt iven
ĠKn ow
Film schauspieler
Ġcommit ted
ĠAutob ahn
I F
Ġs ustain
re land
ol ve
ĠK abin
ĠW ales
ach ing
ĠAl ben
Ġcon temporary
ren ce
ĠCar los
Ġbr ings
Ġresour ce
ĠDiet rich
ĠImmobil ien
b ody
k urr
Ġm ort
Ġp f
ĠP el
Ġbe coming
ach s
Ġre ference
pt on
ĠMar g
man agement
Ġpla ced
ĠHo tels
legen heiten
Wer degang
Ġanim als
Ã¼ h
Ġn ennt
Ġver anst
od ies
Ġab gesch
Ġrem ain
Ġ188 2
ĠBel gien
ĠmÃ¶glich erweise
Ġcontin ues
ĠKommand o
strahl ung
d h
ĠE xt
ĠH yp
uf er
Ġk Ã¤mp
ĠSk i
Ġcommun ities
Ġnord westlich
c an
v ollen
ĠD ark
ĠP y
Ġc ore
iv a
ot yp
Ġent schieden
yste men
ĠMÃ¼n chner
ĠAmer ika
ĠBre mer
Ġshow ing
ĠkÃ¶nn ten
ĠprÃ¤sent iert
Ġchines ischen
BevÃ¶lker ungs
ĠM ut
ĠK el
Ġer ober
ste chnik
reis en
ĠVor bild
fr ies
Ġ188 6
Ġtrans form
htt p
ch st
us sen
ĠF our
Ġbe ant
all as
ĠBe geg
me ter
Ġwork ers
bereich e
ĠGeorg ia
ĠAkt ien
ĠMehr heit
Ġmem ory
D ar
g i
g ung
l u
as i
ĠC oll
ot ograf
ĠSt ab
Ġre form
ĠEr furt
gr Ã¶ÃŁe
hl on
Ġmittler en
ĠDrehbuch autor
ĠOsnab rÃ¼ck
H T
r asch
ĠM etz
ĠT un
ĠG n
Ġbe comes
ĠSch all
ast rop
Ġra in
int age
Ġnord Ã¶stlich
bro chen
Ġexpert ise
Ġunbek annt
U p
g han
ĠB rad
ic ian
elt a
act ions
Ġsel ber
Ġworld wide
Ġpol y
ĠAnt i
Ġtrat en
ĠSyn chron
ĠGal ax
Ġinde x
ĠEth n
Ġmention ed
Ġcompon ents
O G
or ney
ĠM u
ĠH op
ungs gebiet
rÃ¼ ckt
Ġen det
Ġsh ap
ĠFo x
ĠKÃ¼ ste
best and
ĠSilber medaille
Erster wÃ¤hnung
iscons in
p es
Ġw under
ol t
Ġl iber
Ġj o
ia c
ĠCh Ã¢
ĠSchw ier
ĠFre ist
ĠFr ucht
ĠsÃ¼d westlich
Ġcover age
Ġadmin istrat
M aler
Ġf arb
ĠJ ava
ĠV in
ah a
Ġnot es
Ġges te
Ġheraus gegeben
sprÃ¼n glich
Ġdunk el
Ġlok alen
telligen ce
Ġconven ient
Ġacadem ic
B I
B as
M Ã¼n
z usch
ĠA D
Ġn av
ĠH aupts
ĠV ent
Ġst one
ess ions
ĠZ er
ĠSp itz
Ġunter gebracht
ĠFor mat
Ġtra ding
ĠSpiel tag
ĠAut hor
ĠsÃ¼d Ã¶stlich
ĠDis ney
Ġgener ation
Ġextens ive
Ġreli able
M ain
u ation
ĠL P
Ġge Ã¤ndert
ste t
Ġse ctor
19 80
Ã¤r n
Ġper man
Ġapp lied
Ġgleich e
ĠMark en
Ġhal b
Ġpract ical
lad ung
ĠElekt ron
ĠLÃ¶ wen
Ġseek ing
Ġexerc ise
Ġs inn
ĠZ Ã¼ge
ĠGe werk
lass ung
formation en
ĠgrÃ¶ÃŁ er
ĠBi ograph
Ġexist ieren
gestell te
ĠQue en
Ġnov el
j amin
ar isch
Ġin stitut
ĠL yr
ĠC ob
Ġver ab
ĠSp Ã¤t
Ġad ult
ĠAll en
Ge ografie
ĠKomp onisten
Ġprom ote
ĠDi osc
s ein
on ischen
Ġan lÃ¤sslich
Ġwir ken
ĠSte phen
Ġsol chen
Ġbelie bt
umm ern
ĠS ier
Ġc ultural
ĠK itchen
ow itsch
ĠÃ¼ber w
Ġget Ã¶tet
Ġbal ance
Komp onist
ĠMÃ¤nn chen
ĠItal ian
Nov ember
Digital isat
ĠDiosc orea
f iel
it age
Ġer gibt
ass ung
lie ger
mal en
Ã¤ch er
ĠWelt meister
ĠRes erv
ĠjÃ¼n g
Ġtick ets
H z
c or
k B
Ġ </
ĠS K
re ffen
Ġf illed
Ġdes igner
ĠSt unde
ĠSt aff
rÃ¤ cht
ĠAus gang
ĠPre ise
bed ingt
Ġport ugies
gÃ¤n glich
h ai
us k
ĠP ion
Ġk id
ste ine
our i
Ġsh ipping
gor ith
onom ie
Ġentwick eln
rech ung
Ġvorhanden en
ĠSym bol
ĠRog er
Ġabger issen
A V
ĠT rom
ĠW arn
ĠIn halte
hÃ¶r igkeit
Ġkann st
aw n
Ġaut o
193 3
ĠGed anken
ĠStad ion
Inter ior
ĠIh rem
BevÃ¶lkerungs entwicklung
K an
l iteratur
z ielt
ĠM ind
ĠM ail
ĠRe isen
ĠEr m
Ã¼ck en
Ġ6 8
ĠFran ces
Ġpl astic
ĠkÃ¶n ig
irt y
Ġind ic
ĠFe hl
Ġopt ional
Dies er
Ġkathol ische
ĠVictor ia
Ġsuit able
K unst
R ock
Y our
] .
Ġin tegra
und et
Ġh Ã¶ren
ĠC S
ĠAn im
pen den
ĠAnd ers
Al t
ced es
Ġlaw s
Ġtre ten
f alt
Ġ iron
Ġb itte
us alem
ĠK Ã¶n
ĠW en
ab ilities
Ġde partment
ĠEr ic
alt ar
Ã© d
Ġ6 3
Ġange zeigt
Ġap par
Ġ186 9
ĠCla ud
ĠGlo cken
W ill
Ġin gred
ĠT ake
Ġl ibrary
ow ers
est and
au ert
ma jor
Ġthere fore
ĠFÃ¼hr er
ĠSzen en
Ġtemper ature
ĠP ir
Ġar range
Ġcont ra
Ġsc ore
ĠMan chester
ĠBo gen
Ġgu ess
ĠAs ia
ĠMag n
deutsch land
Ġcontin ued
Ġruss ischer
ĠJes u
iar den
Ġeconom y
ĠGÃ¼n ther
/ >
w Ã¼rd
ĠM Ã¼hl
ro d
ĠCo up
ĠHoch schul
Ġbeh aup
Ġpark ing
A pril
H P
O K
in den
st immung
ĠK Z
ĠK oll
eb ens
ran e
ss el
ĠHe art
rol og
Ġklein eren
Ġcap acity
Ġzeit genÃ¶ss
Ġvol ume
ĠLÃ¼ beck
ĠChampions hip
ĠEns emble
K Ã¶nig
u is
is p
Ġh arm
ĠW Ã¤r
me te
ĠGe fahr
Ġsc ale
ĠBundes wehr
Ġ187 4
ĠGar c
ĠTem plate
ĠGott fried
Ġdist in
ĠKauf mann
itar re
Ġpromov ierte
d atum
ĠP rÃ¼f
ĠIn sp
Ġres erv
ĠKl ima
Ġbeg leitet
ĠGer Ã¤te
Ġact ual
ĠVerm Ã¶gen
bour ne
ĠArrondiss ement
T L
a o
c omp
Ð ³
re pr
Ġein geb
ĠV iz
ĠSt ol
Ġver teid
Ġdo ctor
amp s
ĠSÃ¼d west
F est
R Ã¶misch
Ð ¿
at ische
ĠM ember
ĠD ok
Ġein s
ĠC ommer
ot ic
Ġ18 78
ĠUn fall
ens es
ĠHe eres
ĠNach folge
Ġhier bei
Ġfl ight
ĠRes erve
ĠBuch staben
ĠKap ital
ĠKol onial
ĠGÃ¼n ter
Fried rich
ĠS endung
ĠA ur
ĠM inder
ĠF ein
ĠL angen
Ġbe we
ĠZ iele
Ġaus gesch
Ġcour ses
pos es
ĠKo operation
verb indung
Ġgeboren e
i ang
p ra
p oint
Ġb rown
us her
ĠA u
ĠB Ã¶r
ĠB ath
ĠT u
ĠG ross
ĠK G
ĠK ohlen
ĠC er
Ġ8 8
vers orgung
ĠGrund lagen
Ġtop ic
jÃ¤hr iger
Ġwicht igen
wor ten
E nde
H C
W ien
â ĸ
in sel
Ġf ederal
sch icht
ĠO ze
Ġver gangenen
aus bildung
ĠAl ph
ĠSe a
Ġmark ets
Ġcre am
ĠOl iver
ĠMathemat iker
Ġunivers ity
ĠAllgemein en
A ss
M ay
S E
Z eich
b lock
ĠM iddle
Ġein deut
Ġc ute
ĠF els
ĠG au
Ġan zu
ill en
Ġi Phone
Ġsch uf
19 70
St ar
Ġcont ain
por ter
Ġimport ance
ilome tern
ĠSchn itt
Ġrep rÃ¤sent
Ġsw itch
stud ium
ĠNomin ierung
H A
Z e
gen ossen
men ted
ĠÃ¼ber nehmen
Ġgen ug
Ã¤hl er
ĠTr ier
Ġstud io
Ġapp oint
Ġ187 2
198 4
197 5
Ġest im
ĠKÃ¼ sten
gebie ten
Ġflow ers
ĠSing ap
i Ã³n
n ieder
Ġm einen
ĠN am
uch er
20 21
ret ung
stit ute
Ġtechn ologies
ĠHam mer
ĠColle ction
ĠAth en
K W
ĠB alk
ess a
ĠVer fassung
Ġum gebaut
ĠLe ute
ĠBes onders
Or ts
mÃ¤ÃŁ ige
orge ous
Ġgar age
Ġeduc ational
ĠerhÃ¤lt lich
ĠSzen e
ĠPremier minister
ĠverfÃ¼g bar
v ideo
in us
Ġd inner
ĠR as
ul ations
Ġe gg
ĠO ster
sp art
ĠAl i
ĠUm bau
ma ÃŁen
Ġexper iment
Ġ187 3
ĠFest ung
ĠLie b
sw ers
ĠWahl en
ĠRechts anwalt
ape ut
bÃ¼rger meister
ĠTschech ien
ĠKrim inal
Ġheil igen
R I
f un
Ġ ice
ĠM ailand
ĠH enn
ĠL ED
ĠVer fassungs
Ġad apt
Ġ6 6
Ġpl atz
Ġke pt
Ġbuild ings
Ġenjoy ed
ĠmÃ¶ glichen
Ġrestaur ants
ĠUnabhÃ¤ng igkeit
rÃ¼st ung
s ub
ie m
ĠM A
ĠM B
ĠC irc
ĠSch uhe
art ig
Ġle ider
Ġch amp
Ġman aged
auf t
imm ungen
ĠEs c
unkt ions
Te il
Ġtrans l
ĠSm all
ĠMein ung
ĠAnaly se
ĠNap ole
ĠNeust adt
" )
a al
g ent
ent wick
ĠW atch
ĠR oth
ei he
ĠAnd erson
ĠPort rÃ¤t
ournal ist
ĠgrÃ¼ nd
Ġprevious ly
ĠVen edig
Ġlux ury
H Ã¶r
j u
ĠP ader
Ġer b
ĠMar sh
ec utive
ĠPort al
Ġperform ed
go ing
ĠMil ch
Ġcaus ed
b indung
h es
Ã ¦
Ñ ħ
Ġd okument
Ġf la
ĠB arb
Ã¤ fte
Ġh ook
ĠL okal
eb all
lie gt
pf ul
Ġpol ic
ĠRuss ian
Ġaud ience
Ġsqu are
W as
d ung
Ī Ĵ
ĠM innesota
ĠC P
Ġre ag
ĠIn g
âĢľ -
ens us
Ġmehr erer
Ġ7 00
uc le
Ġgel b
Ġwei ÃŁen
bra un
Ġzeit weise
Ġjapan ischer
Ġsicht bar
S m
ĠM obile
ĠH alt
ver lauf
Ġwh atever
ĠGe werbe
rat or
Ġ6 1
utz ung
Ġ187 6
Ġoper ation
ĠGeschÃ¤fts fÃ¼hrer
Ġaud io
Ġpan el
Ġinspir ation
S ee
p rÃ¼fung
Ð ±
Ġd ance
Ġf uel
sch Ã¼tzen
ĠR olf
ik ing
ik um
ĠU t
Ġver boten
og a
Ġserv ing
alen der
ĠDav is
On line
Ġfa ith
ĠHei de
Ġasp ects
Ġregister ed
r ische
Ġd ein
Ġw inning
Ġf unds
ĠD iam
ig ration
Ġbe obach
ad ow
qu elle
ual itÃ¤t
oh ol
Ġcl imate
ĠOff iz
ĠRep rÃ¤sentanten
ĠHerr scher
ruct ure
ĠMot iv
ĠGebie ten
Ġspeziel l
ĠBiele feld
T itel
c os
m ans
in stitut
Ġm ale
Ġp ul
ĠE g
sch uhe
ĠSch aff
sp ur
ĠSp eicher
Ġse at
ĠAl though
Ã¶n t
ĠHe er
ĠBes onder
ĠVerb esser
Ġur ban
ĠNatur al
ĠDo ktor
Film titel
Ġallow ing
Ġhapp ens
ĠDokument ation
Ġwes halb
Ġprot est
ĠLeichtathlet ik
ĠZus atz
ĠendgÃ¼lt ig
H am
M at
and al
Ġauf treten
ĠAn forderungen
ĠSp recher
hen den
che ck
ack s
Ġber Ã¼cksicht
Ã¤hl te
Ġra ised
Ġgeb lieben
ĠRes te
Ġstar ts
ĠKant ons
Ġconne cted
iller ie
ĠPrÃ¤ fe
Ġproduz ierte
Ġzuf olge
Disk ografie
Ġlern te
E very
b ein
g ard
o ul
v iel
ĠP age
Ġh ast
Ġge tragen
sen der
Ġent lassen
ĠUnter richt
ĠStud ent
Ġdefin iert
Ġident ify
Ġhon est
Ġerforder lich
: .
p her
s ing
s ite
t im
w ird
} .
le un
Ġm ist
st ift
Ġc ivil
im ens
ĠL uther
Ġge legentlich
ĠBe obacht
ĠKr one
ĠPriv ate
Ġstellvertreten der
- /
Â ´
Ġd oll
ĠL Ã¤nd
pr int
fahr ts
Ġ188 4
Ġdistr ict
Ġurkund lich
ĠD ick
ĠG U
ĠJ ungen
ĠVer w
och em
Ġam b
Ġse qu
be hÃ¶rde
Ã¶ff net
ool s
Ġtr end
ĠDar aufhin
Ġvisit ing
Ġassist ance
Jahrhund erts
ĠContin ue
D ata
y nd
Ġin ne
Ġf inn
le ts
ĠB ir
Ã¤ h
ĠP ict
ĠT ai
ĠW ellen
ĠR ess
ir ts
ĠSt one
ip per
fin der
ĠGem ark
Ã¤hl ten
Ġag ree
lex ikon
Ġander es
ĠMeister schaften
verein igung
Ġclos ed
ĠMass achusetts
ĠChild ren
Ġcombin ed
c les
st ritten
Ġc row
ĠH als
ĠR ainer
ĠSt ich
ĠSch aden
ei ro
up pert
ind ungs
old ing
licher weise
ĠHerr n
Ġocc up
F il
i ors
n or
z ellen
Ġs am
ĠJ am
ĠO S
Ġis ol
ĠYou Tube
Ġspec ies
Ġgef ert
ĠCont ent
ĠGold medaille
ĠVe gas
v inz
Ġd ank
is or
Ġ( ),
ĠK Ã¼hl
ĠK redit
Ġbe auftra
Ġk os
lich em
Ġle aves
Ġ5 9
Ġpo et
Ã¨ s
ĠAp othe
ĠGest alt
O p
W ird
z o
Ġc ells
am ts
ĠF abrik
ent liche
ver treter
ĠFor ts
b ase
k olle
ĠG itarr
ĠK ok
ĠL ov
Ġl esen
ĠGeb irg
Ġele gant
ĠPhil adelphia
ĠPla ce
ategor ies
ĠSouth ern
Ġcele br
Ġabsol utely
ĠEigent Ã¼mer
ĠhÃ¶her en
ĠArg entin
ĠKath arina
beg inn
Ġa ware
st reit
sch iffe
ill o
ak on
pl ant
ph ase
Ġet h
ĠBr ian
Ar beit
Ġwicht iger
Ġrom ant
Fin ale
G C
te gie
he ber
ein heiten
Ġf rag
st um
Ġc ir
Ã¶ ten
Ġdem onst
od a
ĠDe leg
me ier
Ġbek ommt
ĠÃľber nahme
ĠSil ver
ĠMeer es
Ġincreas ing
Ã °
ĠS W
ĠB ade
ĠK rÃ¤
ĠK ino
ĠR E
ĠSt imme
ĠEr richtung
Ġ3 000
rit ter
ĠTh ailand
Ġtr uth
ĠStud ios
Ġbef Ã¶rdert
ĠMag azin
Ġdamal ige
Ġpresen ce
N ode
ĠS auer
Ġf rem
le c
Ġer geben
ust on
Ġen ded
Ġco ast
ile t
ĠChr isten
ism ar
ĠGrÃ¼ nen
198 5
Ġans Ã¤ss
Ġleader ship
ĠCharl otte
M ai
e ister
ie ten
ĠI ron
ĠL uk
ĠSch ild
lin s
iz ierte
ĠWerk statt
ĠMill er
ager ung
mÃ¤ÃŁ igen
Ġ186 2
Ġchar akter
197 2
lÃ¤nd ische
Ġbestehen de
ĠViertel finale
vier tel
Ġbirth day
ĠÃĦnder ungen
Ġbenachbar ten
er d
or ry
ĠM ul
ĠM Ã¼hle
ot ton
kt op
ien ne
Ġle ather
Ġme ant
ĠIm age
igh ted
ĠMus ter
ĠEl s
ĠÐ ¸
Ġpolit isch
ĠSa tell
Ġrun s
Ġruss ische
Ġschl ug
ĠVerd ienste
ĠSar ah
T ER
or ganis
ĠG att
ĠK orea
Ġe ating
Ġdem on
ĠIn stall
Ġde fe
ho e
ult y
Ġcon cl
Ġbes etz
ĠGroÃŁ herzog
Ġ| |
Ġlang sam
Ġ186 8
Ġbro ther
ĠBot an
ĠAngeb ote
omot ive
ĠBrun o
ĠPfer de
Ġlaunch ed
ĠKob lenz
B rand
E t
F r
g asse
i ben
s Ã¤tze
or ch
as ks
ĠE va
ĠH T
ĠH aw
Ã¶ scht
ot ions
ik te
ow e
Ġr ental
ĠAl te
iz ist
Ã¶r ungen
unt ing
Ġfe ierte
ĠMo de
minister iums
ĠSa arb
Ġamer ikanische
Ġzentr ale
ĠErinner ung
W or
k at
Ġd Ã¼n
or ded
un nen
âĢ ¢
ĠH ed
ĠV il
se y
ĠPr ix
Ġob vious
ĠVerb indungen
ĠBar ock
ĠNieder Ã¶sterreich
Ġgl ob
198 7
Ġcal cul
ĠKat alog
Ġdiscuss ion
ĠTown ship
Ġwirtschaft lichen
ï¼ Į
h ops
st ar
ĠP fl
ĠG oth
ĠK linik
ĠI reland
rit ts
ĠVor stands
Ġges ucht
ĠHand lung
Ġhand elte
Ġcolle ct
ĠDorf es
ĠEt appe
ĠergÃ¤n zt
> ,
o ted
Ġin nen
ĠB rie
ĠG T
ĠW hether
ĠR auch
ant on
Ġ18 15
iz ona
Ġwir kt
etz ungen
Ġfe e
pro jekt
ĠBr ust
Ġerw eiterte
fra gt
He ute
ifiz ierung
emb ly
S eite
k w
in ne
on line
ie ck
Ġv ent
ĠK affe
ĠH agen
ĠW rit
ĠL ad
ĠN in
Ġne ck
ĠAl ice
ĠAus zeichnungen
Ġar m
Ġgew Ã¼n
ĠPr ior
gew inn
Ġho uses
ĠVerb ands
ĠSk ulpt
Ġsur vey
Ġappear ance
F irst
ĠA cker
let ten
Ġ188 3
iden z
ĠTechn ischen
ĠSam uel
pre uÃŁen
ĠDÃ¶r fer
iag ra
g reg
ĠS ummer
us ted
Ġr ing
iz ens
ĠCh ance
ĠSe arch
ph ones
Ġacc om
Ġfl u
Ġteil nehmen
ird s
Welt meisterschaften
kap elle
Ġzie ht
fÃ¶rm ig
ĠAng st
iÃ¨ re
ĠKard inal
R ed
Ġb rief
ĠP seud
am ik
if ff
Ġyo uth
af fte
ĠDe ad
ĠVolks zÃ¤hlung
ĠLeip ziger
ĠComm on
des ign
Amer ican
ĠRaj on
Ġa gency
ĠB R
ĠB arn
ĠD ob
Ġ( ).
Ġunter lag
geb oren
Ein wohner
197 4
Ġtyp ically
Ġdan ger
Ġmein em
Ġmiss ing
Ġintrodu ced
ĠProt est
ĠJer usalem
L A
d ar
p per
ĠB ag
ĠD B
ĠW iesen
ĠL yn
ĠSt ore
ĠÃ¼ber setzt
Ġen co
off s
ĠFr iend
Ġfre ige
dienst kreuz
Ġsex y
Ġocc asion
Ġschwed ischer
ĠCast le
ĠWehr macht
Ġadvert ising
H i
O per
w inkel
ĠP ic
Ġn annte
ent z
uss y
ret ch
man uel
vers icherung
For m
pos it
wor fen
ĠEinwohner zahl
ĠNorth ern
Ġoffen en
C A
Ù Ĭ
ĠP est
op her
ag on
ĠGemein sam
ĠGra ph
Ġmin or
Ġmin imum
Ġfamil iar
Ġbef re
Ġphot ography
ĠÃĸsterreich ischen
Ġfun ctions
forder t
lieder ung
V ert
o use
u der
he w
ĠB ou
ĠR och
Ġge e
Ġr ide
19 20
ĠAus fÃ¼hrung
In nen
Ġcomp la
Ġany where
arb y
Ġsho es
Ġgu est
Ch ar
Ġmar ried
Ġtre es
Ġbefand en
ĠErk rank
Ġinj ury
ĠstÃ¤r ker
S onst
T ro
n ik
Ġ1 15
ĠG un
Ġhel pful
Ã¡ r
Ġviel fÃ¤lt
uck er
Ġwrit er
ĠTer ror
ĠTour ismus
Ġaff ect
una tely
Pr iv
Ġveh icles
Ġdescrib ed
Ġleit et
G rÃ¼
V A
n ischen
el be
Ġp urs
ĠR eit
ĠEin t
Ġum f
Ġqu iet
athol ic
198 8
Ġestabl ish
Ġpers pect
ĠErweiter ung
s l
Ġa rab
or er
Ġc up
Ġre pe
auf trag
ĠKon stant
Ġinst alled
ĠMor itz
Ġeinfach en
stag s
ĠKan al
Ġkanad ischer
Ġbehav ior
E hren
P M
g Ã¤ng
k la
en hagen
ĠM esse
Ġan sonsten
Ġso unds
ĠEin er
Ġch ain
ĠLe o
amil ton
ĠFre der
ĠReich es
Ġval u
deck te
ĠStÃ¼ck e
ĠDir igent
Ġfertig gestellt
ĠtÃ¤ glich
kÃ¼rz ung
n ern
v as
Ġm arriage
ĠT s
ĠR ats
ĠL ob
ĠEr ster
Ġne ut
ĠBe cause
ĠHe x
ĠUnter schied
Ġvers etzt
Ġger iet
Ġmax imum
Schwei zer
ĠHit ler
ĠGarc ÃŃa
ĠL em
ĠNe ck
ĠReg iment
ĠPr ince
ĠSchw ein
kl ar
Ġdec ide
Ġben annte
Ġtop ics
Ġ186 5
196 8
weis ung
ĠMaler ei
ĠRelig ions
Ġdat abase
cycl op
K ap
or um
ĠS A
ĠS ams
ĠB enn
Ġo d
Ġp utting
Ġh ieÃŁ
ĠF ast
Ġge le
Ġum s
ĠAuf l
ĠAuf ruf
tra ck
igh ter
iker in
ĠBl Ã¤tter
Ġhin ten
Ġpar ent
ĠÂ ·
Ġbef ind
Ġsmall er
ĠGraf ik
Ġcompet itive
ĠEliz abeth
S an
g io
Î ½
me yer
ĠAb stieg
ult an
pro zess
gesch lecht
ĠEx pedition
ĠHand werk
ĠOn t
ĠZe hn
ĠOrganis ationen
ĠVerÃ¤nder ungen
Ġdisk ut
H ans
S ome
c ious
o es
ĠW isconsin
ĠL inz
Ġk ick
Ġy esterday
rÃ¤ umen
gel Ã¤nde
gesch icht
Ġreg istration
ĠZu cker
Ġgu itar
Ġ188 1
ĠSa al
Ġthough ts
ĠFel ix
Ġpattern s
spar tei
Jul i
O ktober
U nd
a ver
m i
y ard
ĠM uss
ĠM iami
ĠP unk
sch ten
sch irm
ĠR av
ier endes
Ġle hn
19 30
Ġwe isen
Ġdar stellt
bau en
Ġbo und
ĠX ML
abr iel
ĠAutor in
T E
h ain
o ÃŁen
z ed
te en
ĠB od
ĠW art
ĠL orenz
auf nahme
Ġres idential
ĠMult ic
Ġschwed ischen
ĠniederlÃ¤nd ischer
B ra
B rite
T P
t w
Ġein gew
ĠC ott
auf nahmen
Ġho tels
Ġbo at
Ġ186 4
197 6
herr schaft
Ġmass ive
Ã¤dagog ik
ĠDrit tel
W ind
h Ã¼tte
y o
ĠF I
ĠC H
ĠC ry
Ġst unning
th al
ste ig
ĠEn vironment
ĠMin i
iges etzt
ĠKrieg sende
Ġeinfach e
Ġstamm te
ĠPerform ance
P at
n ull
st rÃ¤ger
Ġc red
ĠG anz
im ul
ĠC her
ast ik
Ġcomp let
ĠPl ant
kehr t
Ġrem ains
ordin ate
ĠHon or
Ġcas ino
wechs elt
tl ere
A lex
p ost
Ġs orgt
ĠT ho
isch t
Ġver haf
Ġaus gebaut
Ã¤n zer
ĠAb stand
ĠFor est
Ġpl ug
met hode
Ġerfolgreich en
ĠKategor ien
Ġcla ims
Tod ay
A uss
A ustr
p ie
Ã¤ mm
Ġthe ory
ut ation
ĠNe ur
Ġad ults
ec ted
Ġeigen er
ĠMittel punkt
ĠBen jamin
forder ung
Fra uen
Ġfield s
Ġpoln ischer
ĠAud io
merksam keit
Wil helm
v et
ĠF ans
ĠC hen
Ġbe wohn
Ġe hren
sp itze
Ġsch eiterte
Ġch airs
ĠMan uel
Ġacc ident
Ġown ed
Ġerr or
maÃŁ nahmen
Ġkor re
d ner
h Ã¼ter
ch i
ĠD S
ĠH ang
ĠZ usÃ¤tzlich
Ġsch lecht
Ġ18 40
ss ystem
ĠÐ ½
ommer ziel
ari at
ĠHier bei
ĠSied lungs
ĠNiederland en
Ġtot ally
ĠJord an
Ġneighbor hood
e per
k ind
Ġt end
al ia
Ġp ed
ĠW ende
ad i
ĠSch ei
we ight
Ġhe i
form at
ĠBr idge
ĠSpiel klasse
let scher
Ge org
Ne u
Ġlead s
gebie ts
Ġmanufact uring
ĠBil dern
ĠBrun nen
at istik
ĠP ont
ĠK h
ĠK ul
Ġer richten
ab end
ud ing
ok us
ĠNe use
fe uer
ank a
ĠEx p
Ġange ordnet
Ġklein es
Ġkomp on
ĠAth let
ynast ie
ĠSehen swÃ¼rdigkeiten
B ox
in str
am o
ĠEin en
ian z
Ġmost ly
.... ....
Ġbestand en
haupt stadt
ĠWissenschaft ler
Ġkom bin
ĠEntfern ung
Ġerlang te
Ġzuk Ã¼nft
P ersÃ¶nlichkeiten
Ġ å
on te
ĠB ull
ĠW itten
ĠR ou
ber ry
ach el
ĠV ikt
gen s
Ġzu gÃ¤nglich
ĠSe en
198 2
ĠProfess ional
ĠAuss age
ĠSen ior
Fernseh film
Ġdiscover ed
reu ung
ĠPader born
Ġt ail
ĠM atch
be cken
tern oon
Ġ7 6
amt es
ĠInd ones
ĠMer cedes
ĠMaterial ien
VerÃ¶ffentlich ungen
ĠPfar rei
b ing
b org
m os
it als
Ã¤ den
ĠD al
ĠD ance
ĠR ent
Ġge legt
ĠOr igin
ĠAus schuss
tem peratur
Ġprov ider
Ã¤nger in
Ġinst ant
Ġsowjet ischen
ĠRol and
H el
b ist
j ahre
w affe
Ġs izes
ĠB ene
ĠW itt
Ġst Ã¤rk
ĠInter pret
ĠDes halb
Ġshow ed
umin ium
ĠGreg or
ĠRumÃ¤n ien
E A
L isten
l ach
z it
Ġm ont
ig ar
ĠF an
ĠH ope
ĠH ills
Ġto ward
ab schnitt
tell ers
Ġex tre
hal ter
ac c
Ġwor ry
fol io
Ġda ÃŁ
apt op
ĠErw Ã¤hnung
Ġzwe ier
Ġmag azine
Ġelect ronic
Ġbreak fast
Ġagre ement
ĠPak istan
ĠKrank heit
a ktionen
Ġf ly
ĠD sch
ĠP okal
Ġc utting
ĠSch uld
ien te
Ġj u
ĠDe f
ĠLe h
ĠBr ut
Ġother wise
ilit ation
fort unately
ĠCor ps
ĠZuf luss
G ed
k ore
á »
gen cies
ĠEin stellung
ĠAus stattung
ĠHe y
Ġrec ipe
Ġra ise
Ġac counts
Ã¼t ter
ĠĊĠĊ ĠĊĠĊ
Ġdel icious
ĠMill ion
Ġcount y
Ġprocess ing
Ġask ing
Ġausgest ra
ĠMem orial
Ġlau tet
ĠMÃ¤r chen
W ei
e ist
l ov
ĠS ite
ĠD inge
st ances
Ġn a
Ġan imal
Ġr umÃ¤n
ĠMar co
Ġend lich
ĠEben so
Ġfeed back
Ġenh ance
D is
R oman
k al
Ġf lag
ĠW ars
ĠW under
Ġbe her
Ġst rip
Ġpro min
ĠSp irit
ans ion
Ġmo de
Pro gramm
Ġschw ere
Ġ180 6
Ġconc rete
Ġsearch ing
ĠKandid aten
ĠÃľberg ang
Ġaccom pl
D i
H ar
K inder
ĠB ow
st ers
men ge
ĠNord amerika
Re zeption
ĠDar stell
Ġnor m
deutsch er
Ġexp ensive
ĠWissen schafts
Ġtem plate
Vor pommern
Ã¼ste t
ĠLim ited
ĠSchlieÃŁ lich
B M
D u
L o
Ġs itting
ĠB oth
ĠR un
ĠL aus
um ps
Ġan fangs
Ġge zogen
ĠSch icks
ĠZ unÃ¤chst
ĠDie go
ĠBer gen
ute te
Ġwould n
stit u
ĠMon ats
Ġerw artet
ĠKreis es
198 6
ĠDis c
ifik ations
Ġdeliver ed
ĠVize prÃ¤sident
ĠEber hard
ĠGriechen land
repr ene
Ġd ipl
il ot
ĠP A
ĠL iv
ĠL eder
Ġj ava
rie t
tell ungs
ĠEin kauf
land schaft
ark e
Ã¤n glich
ĠCh ile
Ġcon text
br onn
ĠBl u
ĠUm gang
zw ungen
ĠĊĊ Ġ
Ġgleich er
198 1
Ġpriv acy
ĠRein hard
Ġwid mete
Ġstrateg ies
mir al
Ġposit iv
J azz
J ugend
Ġ ..
re uth
Ġdes ire
19 28
our t
ĠÃľber sicht
Ġgel angen
Ġmen u
hoch schule
Ġproper ly
writ er
ĠGiov anni
ĠÃĦgyp ten
Ġingred ients
Ġ icon
or ps
ĠC ass
aus geber
Ġ9 6
entr um
ĠEx istenz
ĠSÃ¼d ost
Ġakt ual
Ġ187 7
Ġcho ices
ĠRu der
Ġlo ad
ĠFot ograf
gesetz ten
Ġmajor ity
nehm ung
Ġausgew Ã¤hlt
Ġschwar zen
Ġincred ible
ĠLew is
Ġpolic ies
l s
Ġd ates
ĠI F
ĠSch Ã¼l
op ter
Ġbes ie
Ġmy ster
ĠOber liga
ĠPol icy
Ġgreat est
ĠhÃ¶ here
Ġadmin istration
ĠEreign isse
ĠTrain ings
Ġrap id
ch nen
Ġs orgen
Ġb auen
ol ith
Ġst ars
19 60
Ġzum eist
ĠSie gen
ĠPol ice
akt oren
Ġtechn ische
Ġsign ed
Ġstr ug
ĠFle isch
D ire
v ia
ĠP R
ĠK ai
ip t
me chan
ob jekt
ĠFre itag
Ġpre gn
Ġverl Ã¤ng
ĠBern ard
rim in
ĠgrundsÃ¤tz lich
B Ã¼
b ut
g ert
k ette
w eiten
it iat
Ġf aster
Ã¼ mm
ĠD ig
ĠT unnel
ent ially
ra f
ĠL ed
ĠL och
ĠC reat
Ġl ernen
sp iegel
ang o
Ġsch Ã¶ne
par ks
amm ern
Ġar ts
Ġ6 7
ĠUm fang
spieler in
Ġsur f
ĠTer r
fÃ¤ llen
Ġtro cken
fil me
ĠFil men
ĠSam stag
ÅĤ aw
opÃ¤d ie
f rÃ¼
Ġa th
ie u
un fts
ro it
ĠR up
la de
Ġre aders
Ġnach gewiesen
19 78
lie hen
ĠNor mal
arch ie
leit en
Ġed ge
ĠOlymp ische
ĠschlieÃŁ en
ĠursprÃ¼n gliche
Ġspecific ally
ĠSchwer in
ĠBud apest
Ġkont roll
endo ktor
re z
ĠB ah
ĠP ad
ĠF as
im o
Ġbe zieht
ĠZ DF
Ġver teilt
Ġj ump
ĠHaupt rolle
Ġbeste hend
hÃ¶ fe
hor st
far be
Ġrev olution
ĠlÃ¶ ste
Ġbegrenz t
L iter
u ine
ĠB in
ĠD unk
ĠG ymnas
sch ild
ic z
Ġan swers
ĠSch Ã¼tzen
ĠVer g
Ã¤t zt
ho fer
ĠCh rom
Ġ7 7
Ġsol cher
Ġ| --
ĠÃĦ hn
stag ram
Ġcommit ment
L ebens
Ġm outh
Ã¤ p
ĠG ert
ĠG ord
ĠK inos
Ã¼r f
Ġsch affte
19 25
Ġdies mal
Ġpr inted
fÃ¼ llt
ĠFahr rad
frei heit
ãĢ ģ
Ġallgemein en
ĠKu gel
ĠKomment ar
hyth m
Ġhundred s
O Exception
k ol
in th
nd orf
Ġs um
Ġw alls
at on
ĠB apt
ĠH ave
Ġg rat
Ġk ing
art ikel
Ġle aving
ov o
Ġch arm
Ġbet reibt
Ġgesch lagen
ĠMill iarden
Ġern annte
gef angen
ĠFlor a
Ġkur zer
figur ation
ĠBesatz ungs
ĠIntegr ation
Ġkauf te
a ire
is burg
ĠB ald
ĠB uck
Ġh yd
et on
ĠU C
ph as
ĠNe ues
ĠAuf merksamkeit
Ġpla ys
ĠAd v
ĠfÃ¼hr enden
ific ations
ĠEnts p
ĠpreuÃŁ ischer
h Ã¤usern
Ù Ĩ
Ġs at
ĠE b
Ã¶ gliche
la ut
ag an
Ġgen et
Ġsub sc
ĠDr ama
ĠKur fÃ¼rst
ĠniederlÃ¤nd ischen
Ġexcl usive
ĠverstÃ¤r kt
x id
Ġa fr
ĠB ein
ent h
ĠL is
ĠMus ical
zeug ung
ĠAss istent
Ġdom ain
Mich ael
ĠNahr ungs
Kirchen gebÃ¤ude
S ervice
k re
n s
Ġd iss
Ġd az
ĠA y
ĠB auch
ĠH us
ĠH ad
Ġst yles
rÃ¤ um
ĠVor stellung
ĠPr ice
igh ten
buch autor
ĠMag azine
Ġadv ance
Ġfilm s
Ġther apy
Ġflex ible
A ccess
Ġv irus
el ing
ĠG P
ber uf
Ġl anger
ĠVer z
ive au
berg s
Ġem otional
Ġbo ys
zy kl
Ġbevor zug
Ġdur fte
ĠEnter tainment
ĠBeteil igung
D enk
E X
v it
Ï ģ
st ate
ĠP ier
ra ph
ĠJ r
la y
âĢĻ .
ĠBe ispiele
Ġ6 9
ax oph
ĠPf alz
Ġbil deten
Ġappe ars
ĠJac ques
Ġconcern s
Ġbeinhal tet
? )
d on
n isses
ĠE ver
ĠW i
ic us
ĠSp uren
19 29
Ġat mosph
Ġvor der
ren cy
port al
ĠSte el
ĠKon zentr
anc en
ĠHÃ¶ chst
ĠBel g
193 9
mo der
Ġfeature d
ĠPers pekt
ĠFert ig
ĠKonfl ikt
G l
h Ã¤
Å Ľ
re iter
ĠG ipfel
ĠH at
ĠR ome
and t
ĠSch u
Ġver tra
ĠAn st
Ã¶r dern
Ġvor kommen
ĠMit be
ĠSe g
Ġgew eiht
bar er
ital ien
Ġsol ar
ĠBad minton
Ġgelang te
gÃ¤n z
Ġsug ar
zep te
ĠLate in
Ġs ud
Ġw omit
Ġm anner
ĠD ave
ĠK ader
Ġg orgeous
Ġr iver
ĠHe ck
ose x
Ġlie ÃŁen
ĠPar ks
Ġag ent
ĠOber flÃ¤che
193 4
197 9
ĠSol o
ĠTyp s
fÃ¤h ig
ĠPeters burg
ĠIndustr ial
Ġd ritt
al ters
ĠB urn
ĠM ie
et ime
Ġth us
Ġk Ã¼nd
ab len
Ġab ges
Ġup coming
ĠzurÃ¼ck gegeben
stre am
196 9
Ġtradition ellen
ĠGirl s
D oc
J o
S chn
b undes
w eiter
y pen
Ġs au
ĠS z
ĠD ich
eb au
ĠRe f
ĠAn erkennung
Ġj ener
Ġhe aring
19 27
Ġho using
ĠGen f
Ġbel ief
ĠOn ly
Auf grund
ĠModer ne
ĠtÃ¼rk ischen
ĠNiederland e
BÃ¼rger meister
Acc ording
1 20
B aden
M ont
P ass
ent ums
Ġto ugh
ĠJ ay
kt oren
ĠZ ell
Ġsp ending
ĠDe ath
Ġunter wegs
ĠIm per
Ġro ut
Ġ7 3
ĠEx ecutive
ĠUr ban
ham mer
fre ien
Ġerm or
Ġprepar e
Ġtrotz dem
Ġbem erk
Ġexam ples
Ġstaat lichen
leb nis
ĠNikol aus
Ehr ungen
zust and
ĠRac ing
B re
J Ã¤hr
d ra
d ies
Ġb attle
Ġp m
ĠK Ã¼r
Ġg olf
Ġl agen
ier mark
Ġk irch
Ġaus fÃ¼hr
Ġunter scheidet
Ġlie genden
Ġ8 4
Ġfest gelegt
196 7
ĠFort sch
ĠRÃ¤ ume
ĠPac ific
c ard
ge legen
ĠB og
ĠM aschine
ĠK ro
um es
Ġge fallen
els on
imm y
ĠSpiel film
Ġmach ten
ĠRu he
ĠschlieÃŁ t
ĠSpe ed
ĠStad ium
spl atz
ĠProm otion
ĠSchwar zen
Ġverhaf tet
D av
P osted
g Ã¤
en ters
ĠB orn
ĠM S
em y
ĠC ann
Ã¶ ger
ĠSch Ã¤d
âĢĻ ,
ok ol
ov Ã¡
Ġch osen
Ġgen annte
ĠBl umen
ĠMo z
Ġact ions
ĠAnt rieb
Ġ: )
Ġhistor ical
Ġenter tainment
ĠHerzog tum
iÄ į
ĠEben falls
ĠAc count
Ġsym pt
Ġeffic iency
Ġlandsc ape
ĠBoch um
ĠKonstant in
B ek
W E
c ase
v arian
in ent
Ġin tended
Ġm ine
Ġm ac
tel finale
Ġun c
Ġhin ein
Ġaccess ories
Ġmanufact urer
ĠMerk male
__ __
ĠCost a
ĠBundesver dienstkreuz
Ġvalu able
T it
r ischen
w irt
ĠS end
Ġc os
ĠJ Ã¶rg
id ays
od ge
ĠAn k
ok er
19 50
ĠSie ge
ĠÃ ©
los igkeit
amm elt
fahr ens
Ġget roffen
ĠEx press
Ġgewann en
197 3
rim inal
Ġpurch ased
lad imir
Ġged reht
ĠNS DAP
Ġbreit en
ĠOrch estra
vorsitzen der
G ener
b Ã¤
ie ge
Ġin ternal
Ġein heit
ĠF ellow
ĠH amilton
ĠW end
ĠL uz
ĠJ oh
Ġver an
ok oll
19 19
19 26
ain less
ĠTh ree
cl ing
... ]
Ġdis count
ÑĢ Ðµ
Ġwoll ten
ĠÃ¼b lich
ĠClass ic
ĠDenn och
ĠVerteid igung
Ġvac ation
Ġunters ucht
Ġclin ical
K ey
ç Ķ
Ġm ental
ĠP az
ĠT an
ab a
19 22
Ġste igen
ser ien
ĠFre il
iven ess
ĠGo ethe
ĠWest falen
Ġfre uen
197 7
ĠKe ep
ĠVertrag s
fried hof
Ġcook ing
wÃ¼r fe
Ġexpla in
Ġguarante e
' .
E p
O V
W K
w id
Ã ī
Ġs ac
or p
or ough
Ġv ital
ĠM all
ĠD uring
Ġan f
Ġdes pite
ĠSch ne
Ġbes ucht
ĠFor der
ock et
Ġges prochen
Ġstatt dessen
ĠAs ian
ĠGeneral major
Ġappro ved
Ġ185 7
Pl an
ĠCamp us
Ġautomat ically
Ġprem ium
Ġgespe ichert
H il
M otor
b oy
er ung
Ġv illage
Ġn ine
im on
ĠH imm
ver lÃ¤ss
Ġ3 50
ĠBe h
Ġ7 8
ĠIt aly
Ġges und
ĠEx c
Ġgesch ieht
Ġverb lieben
ĠLie bes
Ġsecond s
Verein igtes
Ã¤chs ische
ĠLeg isl
o und
in fo
Ġin fe
Ġf lav
ĠF alle
ĠG ur
Ġy ellow
la f
ĠÃ¼ber gebenen
ĠAr izona
Ġch annel
Ġvor ne
ĠMar sch
Ġ9 00
ĠPl Ã¤ne
ĠSo zi
ĠOrt schaften
zahl t
198 3
ĠBereich e
ĠFer r
ĠRegel n
ĠpersÃ¶n lich
ĠSn ow
ugu ay
K A
Ñ Ĩ
ĠS ed
ein richtungen
ra it
ĠZ auber
âĢľ ),
Ġat ten
ĠMit tler
ĠAb b
Ġseit her
ende te
ĠSal v
Ġsign s
ĠNeu zeit
Ġmag net
ĠBu ilding
omet imes
ĠEvangel ischen
Ġencour age
Ġaf ternoon
ĠbeschÃ¤d igt
x y
z il
å ı
Ġl ived
Ġk aiser
ow itz
gr at
19 44
Ġbeg ins
ĠBand s
Ġerfol gen
wor tet
193 1
196 5
qual ity
eme ister
Ġdistrib ution
franzÃ¶s isch
S ince
c lass
f ix
Ġw al
ĠG on
ĠV inc
Ġth ick
Ġver letzt
ĠAn sicht
ĠAd resse
Ġrec orded
Ġ13 0
ict ions
Ġsur gery
Me hr
lÃ¤nd ischer
ĠDi Ã¶z
Ġbelie b
oin ted
Ġhol te
scheid ung
ĠKre bs
Ġdeb Ã¼t
Ġfund ament
Ġrepla cement
ĠRett ungs
) -
A uÃŁer
er z
he ater
st het
ĠE val
Ġg rÃ¼n
Ġr uh
ĠAn z
ht ml
ĠMa de
Ġ186 3
Ġbro ken
sta ats
ĠEigent um
Ġhund ert
Ġcabin et
ĠTH E
Ġslight ly
T rans
Ġ 00
Ġd ick
il st
de cke
Ġein gebaut
tel ier
ĠVer leger
Ġ18 49
ob i
enn zeichnet
per iode
atur en
ĠBer ge
Ġher um
Ġlie fer
Ã¶l be
ĠGeb rauch
Ġsup ported
ĠGu y
Ġober halb
ĠRegierungs bezirk
ĠVerl ust
Ġhost ing
Ġmeas ures
wh at
ĠHei z
Ġverste hen
Ġrecogn ized
D ivision
E FA
G A
e ber
Ġt aus
ĠB ase
Ġp our
ĠG abriel
ĠK ub
ĠE ag
ĠN erv
ĠOr th
sport ler
En g
ĠCom ic
ĠAp plic
ĠBed arf
fre ie
Ġconf idence
Welt meister
Ġfrei will
l ic
p fe
ĠF la
ĠL ange
ĠL ocal
Ġg laub
ĠSch nee
af Ã©
ak et
Ġ18 30
ohn t
ett i
Ġapp s
Ġshe et
ĠAll tag
Ġger inge
ĠHaus halts
ĠÃĦ m
ĠZwe ig
Ġbedeut ende
Ġtele vision
Ġintens iv
waren ess
Ġanerk annt
h au
Ġv ieler
ĠN ag
Ġk ennt
ver Ã¶ffentlich
od ie
hal f
Ã© g
ĠKl eine
Er zeugt
Ġmin im
yr am
ather ine
193 6
Ġsil ver
Ġabsol ute
ĠAnth ony
fir ma
6 00
O ver
r unden
as ka
ĠB ody
Ġ1 13
Ġo k
ĠD un
ĠD id
ĠL iving
Ġth reat
ĠO bst
ĠâĢ Ļ
ĠSp aÃŁ
gr Ã¼n
ĠAl an
Ġum stritten
du ate
lo aded
Ġro ten
rich ts
Ġ8 1
ĠSta ates
org ungs
ĠRo hr
ĠGu ard
ĠSup port
197 1
ĠTre ffen
Ġfit ness
Ġmanufact urers
ĠunterstÃ¼tz te
Ġspeziel le
Ãĸsterreich er
ĠVert rieb
Ġmount ain
ĠVerantwort ung
Ġaccur ate
R eich
Ġ ib
Ġt utor
or fer
al ition
as sten
ut ors
Ġbe igesetzt
Ġj ack
ĠAr ena
ĠBer ater
mann schaften
ĠSh ort
off izier
ĠGer Ã¤t
Ġevery day
Ġger man
Ġgest artet
ĠDi abetes
ĠSpe kt
ategor ie
ĠTre ffer
Ġbra ucht
Ġtest s
ĠMur ray
ĠpersÃ¶n liche
ĠSign al
ĠKolle gen
Ġexec utive
Ġbrow ser
Ġinfluen ce
Ġdenk mal
å ħ
Ġw Ã¼n
ĠD ating
ĠI gn
and em
ul iert
our cen
ĠAuf tritt
co hol
Ġ7 1
ĠSpiel s
Ġra nd
ĠVerb reit
ĠHal binsel
ĠKap itel
ĠRegion alliga
196 6
ĠSen at
Ġrecommen ded
ĠEv ents
ĠAT P
P okal
z usammen
ĠS Ã£o
as p
Ġf ellow
ĠP ick
Ġein gest
ĠF act
ir en
ver letz
ok es
sk ar
ĠZw angs
ĠMon ument
ĠLin den
ãģ ®
ask et
Ġpresent ation
UN G
ĠBesatz ung
ĠMom ent
M ore
un sel
ĠB ast
Ġp ump
Ġz ul
ĠW Ã¶rter
Ġdes selben
Ġfor mal
ac o
iste te
Ġ0 1
De zember
arr ier
Ġdr amat
ĠFin ancial
Ġcle arly
ĠParis er
ĠIns besondere
ush ing
Ġappe ared
Ġsett ings
ĠKÃ¼nst lern
profess or
L og
Ġd eine
it ate
Ġt ur
ĠS itze
Ġ1 12
ĠM ort
Ġp reis
ic ial
ist ungs
19 23
Ġ5 000
ĠWe iler
Ġad opt
ĠPh oto
Ġ12 5
ĠHand ball
Ġdr ivers
hed rale
ĠBut ton
wei ÃŁ
196 4
ĠAuss tellungen
Ġposs ibly
Ġwirtschaft liche
ĠJahrzehn ten
Ġuk rain
ĠAnh Ã¤nger
ĠTi rol
Hinter grund
å ®
or ges
Ġf oll
ĠB atter
Ġv ary
im ension
ĠL ein
ĠC in
we ar
ap olis
ĠEr be
Ġch ron
auf lÃ¶sung
ĠY es
ĠzurÃ¼ck kehr
Ġele ction
ĠVers orgung
Ġakt ive
Ġcre ation
ĠMill imeter
ĠDo zent
Ġbre ath
ĠZe aland
Ġfort an
Ġjapan ische
ĠjÃ¼d ische
ĠDemokrat ischen
Ġfil ter
Ġengag ierte
k anz
s burger
Ġin folge
ĠB ry
ĠW uppert
ĠL ust
ĠN est
ĠJ Ã¤ger
ĠAn lass
19 10
Ã¶r te
ĠKon stanz
stra fe
Ã¤nger ung
Ġstatt f
ĠverÃ¶ffentlich ten
ĠDi agn
ES CO
ĠTur ner
ĠEmp f
ĠFel der
Ġreach ed
ĠFass ung
ĠGebÃ¤ udes
Ġforder te
F i
L P
T em
Ġin vent
Ġm useum
Ġm agn
ĠA h
Ã¼ g
Ġv ib
ĠP le
Ġ( "
ĠE gypt
ra ucht
ĠW esentlichen
ul ated
Ġst arten
art a
Ġ3 60
Ġ18 47
ĠVor teil
gesch Ã¼tz
Ġgesch Ã¼tzt
ĠChar ts
Ġbring ing
Ã¨ re
Ġarch Ã¤
ĠHin weise
ĠAben teuer
Ġill ustr
ĠHu bert
ĠÃ¤lter e
Ġdog s
ĠBerat ung
S il
S aint
d ale
an es
ar ily
ing ers
ber ge
Ġl aufen
Ġer zÃ¤hl
ĠAl f
Ġte a
Ġfe es
Ġ14 0
ĠMan ufact
Ġger inger
Mit tel
Ġcons ist
Sie ger
Ġgood s
ĠPart ien
ĠBi ografie
Ġ185 9
ĠHigh way
ĠBot schaft
ĠBÃ¶ h
Ġpur poses
ĠExempl are
ĠMaxim ilian
C al
G ar
m ach
s man
Ġs ides
Ġf ruit
Ġv ierte
ĠD oc
ĠE ichen
ĠW Ã¤l
Ġmit tlere
Ġre ichen
Ġdel la
ĠBerg bau
Ab sol
glieder ung
Ġcond uc
ĠRuss ia
ĠIr land
ĠEmp ire
lah oma
ĠHir sch
m ade
w affen
Ġb at
el ia
ĠI owa
Ġver arbeitet
ĠVer stÃ¤nd
Ġex amin
be c
be y
Ã¼nd en
ĠTra ck
Ġ0 4
rÃ¤s id
Ġac cep
ĠAll gemeine
uk i
ĠRes ult
Ġ% .
ĠOnt ario
K lass
M erk
he ben
Ġf ach
Ġl unch
ĠSch atten
ver hÃ¤ltnis
ia e
hen de
ian ischen
ĠEn cyclop
ĠGr iff
ivers ary
als ieger
lag ert
net en
Ã¤ch te
Ġdis p
ĠLandkreis es
193 8
ĠHistor ic
ĠKÃ¶nigs berg
Ġrespons ibility
ãĢ Ĥ
jen igen
Ġfung ierte
Ġuntersch rieb
L ast
Ġm ur
ĠN HL
ab schluss
Ġwar um
Ġsch Ã¼tzen
old s
An fang
ĠSer b
Ġed itor
Ġbef est
Ġhard ware
ĠSlow akei
ĠRuh estand
K S
ĠS ort
Ġp ure
ber to
ĠV II
ow o
Ġun gewÃ¶hn
ĠAus gaben
ou vern
ĠAnd rÃ©
Ġ% )
Ġhistor ic
ube hÃ¶r
ĠChem nitz
Reg iment
ĠPrem iere
Ġhold s
ĠAufent halt
Mart in
F ebru
R C
R ennen
c ers
i oren
Ġs ad
ĠM alt
Ã¶ tt
Ġk Ã¼rz
Ġan grenzen
Ġst ir
ĠVer tre
au c
Ġch ocol
Ġdurch aus
ĠSe kretÃ¤r
ĠÃĸsterreich s
Ġstre am
ĠÃĦr zte
Ġpleas ure
ĠPrÃ¤fe ktur
V om
à ¹
Ġa id
ĠS M
re v
st ufe
ro vers
ĠJ en
ĠSt att
Ġpro pos
Ġab gest
Ġab hÃ¤ng
ok u
19 14
az itÃ¤t
Ġter min
Ġaktu elles
ĠIr ish
ĠAust ausch
ĠHoff mann
ĠAcc ording
Ġtal ent
Ġappreci ate
D ur
F rÃ¼
L ook
b urn
z es
Ġ ).
Ġb Ã¼rger
ĠK ansas
ĠN C
Ġnach halt
ĠBr enn
ĠJun ge
Pro jekt
ĠInter ess
Ġqual ified
Ġpres ents
fÃ¶rm igen
ĠInf os
Ġverwende te
ĠRy an
' ,
Q ual
b ett
d arsteller
h aven
k orea
z lich
or ium
Ġf Ã¼hl
Ġv eter
ĠH P
ĠN ich
ul der
ĠO il
ĠAn ten
Ġ9 3
St a
ĠPaul o
196 3
Ġleg isl
ĠKe vin
Ġlog o
ĠverfÃ¼ gen
frast ructure
ĠMun icip
ĠAdmin istration
Ġopin ion
Ġdemon stra
ĠdebÃ¼t ierte
Ġ ==
ĠS ac
Ġg ay
Ġbe at
ĠJ ens
ĠSt ationen
ru gen
Ġ16 0
ĠGra ham
Ġdire kten
Ġdec ades
Ġgef angen
Ġsupport ing
verb Ã¤nde
Ġfile d
ĠPhys iker
Ġinstru ctions
R ec
f ers
u led
Ġt ub
te e
ĠS U
le vel
ĠM aus
ĠM Ã¼hlen
ĠP rÃ¼fung
ĠT ype
ĠV ul
ĠSch atz
qu ar
19 21
ĠAb wehr
ock e
Ġ12 00
br id
Sch ule
ĠHa wa
ĠTest ament
ĠSym ph
ĠFass ade
ĠRÃ¶ mer
D ialog
z ant
Ġv ote
il den
ĠT ak
ĠH av
ĠC it
ann y
sp unkt
ĠEr klÃ¤rung
Ġle hrte
19 24
ĠNe xt
Ġra il
asch a
rue ft
ĠWohn ungen
stoff en
ĠStat istik
Bo ot
Ġseem ed
F Ã¼hr
P rÃ¤sident
k ommun
Ġt oll
ur i
ur st
ĠW at
ĠR ain
ĠN AS
Ġl ake
Ġk inder
Ġk ommerziel
ĠZ one
Ġor th
Ġum gesetzt
Ġout standing
Ġfe els
Ġpl anned
An gabe
Ġcert ified
Ġperfect ly
Ġhold ing
RE E
ĠKapit Ã¤n
ÅĦ ski
ĠGemark ung
S aison
Ġt ells
at sch
ĠA er
ĠM Ã©
ĠR it
ĠC ase
id ad
Ġj oint
ĠAl ban
19 46
ĠAd vent
aw ay
Ġvers uchen
ĠGesch mack
ipp i
ĠPat ri
ias ieger
west lichen
ĠSpr int
Ġpartners hip
Ġsurround ing
erkl Ã¤rung
ĠPreuÃŁ ischen
ĠStrals und
ĠMarsh all
ĠLÃ¤nd ers
K ilometer
S en
h ome
Ġa chten
is is
ie ber
ĠB ran
Ġh ire
ĠT ap
ĠF ederal
ĠK ann
em er
ĠJ Ã¼n
Ġr are
ib ilities
ste uer
ip er
Ġ18 18
ime tern
Ġtr ial
Ġverb esser
ĠCon f
Ð¾ ÑĢ
Ġiss ued
rÃ¤sent ation
ĠQual itÃ¤ts
zir ke
Ġparticip ants
Ġumfang reiche
Ġassess ment
Ġscient ific
D okument
F ran
p unkten
Ä Ļ
an as
ĠS ingles
Ġm ent
Ġm Ã¤cht
ĠB ibli
ĠR ic
ĠN assau
ĠJ ubil
Ġk Ã¼nst
Ġan cient
ess ed
ill es
Ġr an
Ġr ise
ĠRe zept
ant es
ĠAl les
ĠLand gemeinde
Ġour selves
St ation
15 0
Ġtr ib
bild ungen
gra fen
Ġdec isions
film ung
Ġlo ans
ĠPubl ishing
Ġemploy ee
ĠStÃ¤d t
ĠKons erv
ĠSom it
Ġarchite cture
Ġdepend ing
ĠLokomot iven
sprÃ¼ che
ĠsÃ¤m tliche
Ġfavour ite
Ġausgestra hlt
P ress
t ums
us hed
ĠF usion
ĠSt reich
Ġauf gel
Ġum gewand
Ġqu otes
ĠUnivers al
ĠEx tra
ĠHar vard
Ġ185 6
ĠFlor ian
grenz ung
ĠSchÃ¤ den
Ġverwende ten
ĠjÃ¼nger en
w ein
Ġa ges
Ġs umm
ĠB ret
ĠD afÃ¼r
Ġh all
ĠF ed
Ġz ogen
Ġth row
ĠIn stanz
uer ei
ĠGes icht
ĠUm feld
gend es
ĠChrist us
ata illon
Ġav ail
ĠWohn haus
Ġbre ite
ÑĤ Ðµ
ĠZug riff
Ñģ Ðº
EN T
Ġhon or
ĠLux emburg
Ġschwar ze
ĠÃĦnder ung
ĠTok io
ĠFrem d
z uge
ĠD ienste
st ens
la ce
kt ive
ĠSch los
Ġwh om
ĠTe uf
Ġad mit
Ã¼nd e
min a
Ġber u
Ġdis pla
ĠPol ize
Ġletz tlich
ĠWer be
Ġinst r
esse e
193 2
ĠKirchen gemeinde
ĠWinter spiele
aller ie
ĠFrei will
Ġcall ing
Ġvert rieben
ĠCle an
Ġcandid ates
ĠVie h
! âĢľ
d ro
f indung
t it
ĠA venue
ĠB row
ĠB itte
Ġc ro
ĠR out
Ġl abel
op ran
ĠIn se
Ġhe ft
Ġhe ight
Ġwe aring
ĠMar cel
att an
Ġdar um
ĠAmts gericht
ĠLu is
Ġupd ates
ĠTher apie
ĠEuropÃ¤ ische
ĠIntern ets
ĠWalk er
o a
z ing
Ġa u
Ġf f
Ġf asc
ĠM ei
ĠF Ã¼
ĠL ern
ĠC urr
Ġge Ã¶ffnet
ĠU rauf
Ġver p
ĠRe par
Ġsp aces
ĠUn sere
ĠAr me
pro ble
schie de
ĠRes p
US A
Ġerfolg ten
ĠPosition en
ĠSieg fried
Ġerk enn
fÃ¶rm ige
ĠdÃ¼r fte
ĠRepubl ic
ucle ar
L ud
h ase
l och
n isch
Ġa gr
Ġf ell
ĠB BC
ĠP ho
sch ra
ĠJ Ã¼d
Ġe ar
Ġor ange
geb Ã¤
ac ious
ĠIS O
ĠStra teg
ĠVol ume
yl on
Ġel imin
ĠMount ains
Ġcloth es
Î¿ Ï
ĠPropert y
ĠFranÃ§ ois
F eld
L S
L uther
O f
Ġa kadem
le ten
ĠD I
ol s
Ġc raft
Ġg ern
ul ate
Ġauf t
ĠVer handlungen
sp reis
sp ect
ĠAr k
Ġex tended
Ġus ual
Ġcon fl
Ġ7 4
schl Ã¼ssel
Deutsch e
ĠWerk zeug
Ġstell ten
ĠverfÃ¼ gte
gere chnet
book s
ĠKommand eur
wal de
ĠKop enhagen
Ġlic ens
Ġreve aled
ĠHig hl
; ;
N ummer
s Ã¼d
Ġa gencies
or o
ur ger
ĠP av
ĠP ersÃ¶n
ĠG allen
ĠW inn
ic i
Ġver zeichnet
ĠRe aktion
Ġne arby
Ġab stra
19 48
Ġwe chs
iff s
app ing
Ġbekannt esten
Ġeinge gliedert
ĠHar ald
Ġhealth care
193 7
Ġevangel ische
Ġprakt isch
Ġsuppl ies
E isen
N C
Ã ¯
Ä Ĺ
Ġb ags
Ġ1 14
ĠP i
Ġein ger
ĠH arb
Ġk Ã¼nft
Ġan alys
ĠO ption
ĠU we
ok a
ĠCh a
Ġsh ops
Ġres ume
Ġnoch mals
eld ungen
res te
ĠPra kt
Ġlov es
onstru ction
ĠPfer d
Ġbelg ischer
Ġimpress ive
Ġbeeinfl usst
ĠAx el
Ġdoub t
? âĢĿ
P an
S owjet
p ap
ĠS ache
ĠB ibliothe
ĠD NA
ĠT auf
ĠF unde
ĠK Ã¤rn
ra ul
ĠR ied
ĠL av
ĠL oth
ir ms
ass te
Ġr ule
Ġme at
Ġsie gte
ĠGe fe
ĠPh arm
ĠKl ang
oth ing
grÃ¼nd en
Ġstand ing
Ġmach ines
the t
ĠBi ographie
Ġkind s
ĠmÃ¶ gliche
Ġreturn ed
wh ile
frist ig
Ġcelebra te
p flanzen
Ġ1 18
Ã¤ ts
ent le
ĠJ ag
Ġre ar
af eln
Ġne ur
Ã¤t igkeiten
Ġbes uchen
min der
ĠKon kurrenz
ĠBet on
ĠVerb rauch
Ġrem ote
Ġcol umn
Ġgar ant
ĠAnfang s
195 7
195 8
Ġevent ually
ĠFreund in
ĠnatÃ¼r lichen
Ġverbess ern
ĠKabin ett
I st
T ime
ĠI ce
ĠR ugby
ĠC ivil
Ã¶ te
ÃŁ t
lin ed
ĠEr hebung
ong o
Ġfin ance
por ters
ĠQu ell
hel ms
ament o
ĠFranz isk
Ġtyp ical
Ġimpro vement
ĠGre if
Ġple ased
ĠWass ers
ĠStreit krÃ¤fte
Ġemer gency
ĠmilitÃ¤r ischen
Ġcer em
ĠSaarb rÃ¼cken
k k
t lichen
or ter
or chester
ĠS ysteme
at ischen
Ġb ist
ĠA uÃŁ
Ġp Content
ig i
ĠP u
ĠP osten
ĠK ond
om on
ĠW ird
Ġst Ã¤ndig
ĠIn stagram
rÃ¤ glich
Ġvor genommen
ĠAus wirkungen
ium ph
ĠSpiel ern
Ġger ingen
Ġstand s
ĠDre am
Ġorder s
Ð½ Ð°
Ġpay ing
Ġinterest s
Ġbew usst
ĠRegierung schef
ĠWeiter hin
Ġwissenschaft licher
Ġpoln ische
Ġill ust
Ġarr ived
Ġenth us
ĠSpan ish
M any
T urn
n ische
ch el
ĠA uge
ĠU EFA
ĠSch mer
ĠSch reiben
Ġpro posed
ĠEr langen
ust ic
Ġbei der
ĠEn kel
amm ad
co in
Ġ9 2
ĠAnd rea
Ġ0 8
lÃ¤ uter
ĠChrist i
ling ton
ĠDaten schutz
ĠKaiser reich
Bau denkmal
ĠeuropÃ¤ ische
Produ ktion
**** ****
ĠSoph ie
b ringen
l ik
p iegel
al teten
Ġv in
Ġ1 17
ĠM ethod
ĠK it
ĠI van
ĠV illage
Ġge laden
Ġj un
ia de
Ġmehr mals
bo ot
ĠBar th
aur us
ĠAmer icans
ĠPhil ip
Ġmonth ly
Ġ185 1
ĠSchm uck
Ġimpro ved
ĠLehr stuhl
ĠMel bourne
Ġevangel ischen
ĠVerteid igungs
Ġlif estyle
mosph Ã¤re
ĠgewÃ¤hr le
ĠWÃ¤r me
F S
l at
n ur
ĠM az
ig o
ĠP ek
Ġn ative
Ġbe ar
ĠN u
ĠV as
Ġsch Ã¶nen
Ġso ul
ĠStadt gebiet
ĠSchw anz
Ġange passt
ĠUr sprung
Ġpass iert
Ġequ ipped
Ġerfolgreich e
ĠChem iker
Ġcamp us
ĠCap ital
ĠMÃ¤nn ern
national spieler
Ġmaxim ale
": "
ĠverlÃ¤ng ert
W asser
f amilien
ein satz
ĠD allas
ĠP s
âĢ ĭ
ic ts
ĠC laus
ud a
oc ation
ition en
Ġher unter
Ġgew id
ĠDes igner
Ġcare fully
190 9
ĠHÃ¶he punkt
ĠgrÃ¶ÃŁten teils
ĠSpr ung
Ġintrodu ction
Ġbege ister
A K
L ou
f i
u ers
w iesen
Ġm otion
ĠD ien
ĠT alk
ĠL aden
Ã¶ ner
iv ia
Ġge liefert
ĠZ eile
Ġis lam
ver leihung
Ġsp anische
ĠDe finition
ong s
Ġup per
ĠAnd ere
Ã¤d te
ĠÃľber blick
ĠArbeit sk
ĠSÃ¼d afrika
Nach bar
Ġpos itions
ĠJugend liche
193 5
war ded
Ġnational sozial
Ġherv orge
ĠLes er
Ġwichtig ste
ĠKing dom
ĠPrinz essin
col n
ĠwÃ¤hl en
ĠÃ¶rt lichen
E F
K Ã¼nstler
es ents
ter min
Ġh yp
Ġc am
ĠK rÃ¤fte
sch ung
ĠU d
id al
qu ert
for ce
co uver
Ġqu ote
own ed
ĠKon text
Er n
Ġca ught
ĠJust ice
ĠStraÃŁen bahn
Ġnet works
ĠHin weis
gre es
Ġfund ing
ĠAltern ative
Ġproced ures
ĠMuse en
M M
in cl
Ġf ein
ĠD FB
ĠRe ferenz
19 40
ĠWe is
ĠJan e
ucht ung
ĠÐ º
ĠfrÃ¼ here
wend ungs
ĠInnen stadt
ĠErzÃ¤hl ung
rupt ion
ĠKonzer te
Ġconvers ation
Ġperspect ive
O h
T or
Ê ¿
Ġt asks
Ġw ies
ĠA B
ĠJ as
ĠV ide
ĠSt ars
ĠIn fe
19 41
iz ieren
ĠAus bildungs
Ġ8 3
ble iben
Ġben ch
Ġcolle cted
ĠTechn ologie
!! !!
Ġmain ly
ĠFÃ¼hr ungs
kor de
liefer ung
Ġbrow se
bay ern
ĠViz emeister
Ġinstr ument
P R
S ub
b art
c ons
Ì Ī
er ten
en ix
in ische
ig ger
ig sten
ĠH ind
ach se
ÃŁ er
ĠSch acht
Ġver f
ite e
Ġwieder holt
ĠTr ust
Er stellt
ĠGesch Ã¤ft
wor ld
ĠIns urance
ole an
zÃ¼ gen
ĠAv ailable
ĠÃ¼bern immt
ĠMult i
Ġregular ly
ĠAtlant a
ĠPast or
Ã¤p st
L ied
t Ã¤
ĠS ale
ĠT oy
ĠF antasy
ĠG ieÃŁen
ra iner
ra gende
ĠI OException
ĠH allen
ĠL Ã¶sungen
ĠC loud
ĠV ision
ab ama
Ġch ief
ĠUS B
bach s
Ġbesch loss
Ġmin imal
lÃ¤nd ern
ĠPra ct
Ġmom ents
ĠSum me
Ġconsum ers
angeb ot
ĠDokumentar film
D atum
d ienste
h ten
l t
m lich
s se
ie bel
te ger
ĠM asse
Ġ18 46
iz a
Ġwill ing
ĠEn joy
ĠNach kommen
ĠSchw estern
Ġprov iders
ĠMed iziner
ĠGesch lecht
ific ate
Ã¼l le
Ġfest ge
ĠFranz osen
Ġinner en
ĠAp ostol
Ġair port
", "
ĠDres dner
Ġintegr iert
Ġcaus es
Ġmensch lichen
Ġreduz iert
Ġinkl usive
Ġverab schie
Ġintegra ted
Ñ Ī
Ġa w
ĠB ibel
il ation
Ġp oll
Ġk onserv
ver k
og ramm
ĠBe fore
Ġ18 20
ick ets
Ġvor Ã¼ber
ĠBer ichte
fe ier
rat ic
gesch ichten
Ġfre edom
Ġfound ation
Ġdisc ip
ĠRel ief
ĠKind heit
ĠMas ters
ĠStruktur en
Ġak zept
Ġhil ft
L ink
m outh
ol stadt
ac on
ahl en
urn iture
Ã¤hr en
ĠAd ams
Al so
zentr ums
ĠAustr ia
Ġconsider ing
Ġcompar e
Ġabgeb rochen
Ġatmosph ere
Ġumgewand elt
on er
te ine
Ġb undes
ĠI ss
ĠH Ã¶l
Ġge lesen
Ġy ard
Ġzu gelassen
ok ing
ĠMar x
ĠEx il
ĠInd iana
Ġgu ter
wert ungen
Ġcar ried
ĠBrÃ¼ ssel
Ġfood s
Ġparticip ate
ĠErzÃ¤hl ungen
P A
T ag
g age
u hren
Ä ħ
ç ļ
at ra
Ġf ishing
ĠF ell
ĠK ore
ĠK roat
Ġbe it
Ġre place
ens wert
olog ien
ĠZeit schriften
Ġro ute
hand els
Ġsol o
ÃŃ k
ĠMittel meer
Ġfre und
Ġchar ges
kathol ische
Ġhor se
Ġorigin ally
Ġconstant ly
1 14
p Ã¤dagoge
t age
y ou
Ġt arge
ĠR ie
ĠJ etzt
ĠVer ordnung
ĠRe formation
ĠJahr gang
ĠLe er
Ġgen e
Ġmus ical
Ġgef Ã¤r
Ġbr ill
195 5
Ġemploy ment
brÃ¼ cken
Mod us
ĠAust in
Ġstaat liche
Ġjem and
pfl anz
y en
Ġf er
Ġp od
ĠJ g
ier bar
ot ter
Ġde cl
ast ing
ian e
Ġbes ter
Ġad s
fahr zeuge
ĠHo uston
Ġdire kte
Ġbesch rieb
Ġsk ill
ĠMor gan
Ġlet ters
Ob ject
Ġprogram me
Ð¾Ð »
ĠMiss ouri
ĠDet roit
pass te
Ġproced ure
F Ã¼gt
I B
k Ã¼nstler
z ut
is lav
an on
ĠS ei
ĠB auten
ĠM D
ĠG B
ĠK orn
ach es
Ġk illed
Ġis rael
Ġj en
ĠEin kommen
als o
Ġpl Ã¶tz
pf alz
Ġfest ival
Ġreal ize
ĠRÃ¼ck tritt
196 2
Ġdre imal
Ġnut rit
E U
H ers
K at
L AN
Ã ®
Ġt ables
ra ben
op ing
ĠEr mitt
ob s
ĠAus sch
ĠAus gra
Ġfe hlt
ĠDeutsch es
Ġzusammen gef
mÃ¤ cht
ĠWh ere
Ġehemal s
Ġhouse hold
ĠIde as
Ġeffect ively
Ġelect rical
ĠPsych ologie
Ġarg entin
ĠHoff nung
wir ken
sthe orie
ĠerfÃ¼ llt
ĠOlden burg
ipend ium
ĠSchott land
Ġrand om
K ar
R ober
ĠEr ik
Ġlie be
gl ing
ĠDurch fÃ¼hrung
ĠKont akte
Ġident ified
ĠVorsitzen de
ĠVarian ten
Ġexhib ition
ĠSqu are
ĠHild esheim
Ġappoint ment
Ġd os
ĠS amen
ĠA ge
ĠB MW
Ġv intage
Ġh osted
ĠL ichten
Ġzu ges
og ne
19 00
19 42
Ġent worfen
ĠNe uer
cc a
ĠSte ink
br unnen
ron ics
ĠTra vel
ĠMo ore
reg on
yr ight
ĠLin coln
ĠCont act
190 2
ĠAlbum s
Unter nehmer
ĠĠĠĠĠĠĠĠ ĠĠĠĠ
Ġsil ber
ĠExper ten
ĠAdmin istrat
ĠKonstru ktion
M ost
v org
Ġd ental
Ġt om
Ġw et
ĠP iet
Ġein ges
am ic
ĠF ont
ĠG ift
ĠC ell
ir al
ib us
Ġbest immen
amen te
Ġsc re
ĠCar lo
Ġ0 5
eiter ten
ĠBet reiber
zahl ung
Ar g
Ġgef Ã¶rdert
ĠEd in
Ġfound ed
ĠProv inzen
Ġ185 8
190 1
Ġrepr esents
ĠdÃ¤n ischen
ĠeigenstÃ¤nd ige
ĠPix el
ĠGord on
K e
N icht
R itter
ch ar
es a
ĠS ultan
Ġm Ã¼s
Ġp ill
ol in
ĠT iefe
Ġl ayer
ĠJ eder
ĠO range
ĠIn haber
Ġde part
ome ter
ĠSe gel
teil ten
Ġwo oden
Ġ8 6
eth yl
ĠSchul z
195 3
verb indungen
Ġsuccess fully
Ġoffen bar
ĠPil ot
qual itÃ¤t
ĠGrÃ¤ fin
Ġlic ense
Ġepis ode
A re
F amilien
k ok
n ord
Ġs la
te le
Ġn Ã¤chst
ĠK la
ber at
Ġbe zogen
Ġaus gewiesen
ĠVer leihung
qu ellen
Ġwe ap
Ġme al
ĠMa j
ace ae
Ġcons umer
ĠSk la
Ġverl ang
klÃ¤r t
195 2
Ġturn s
So zial
ĠCamp bell
ĠbeschÃ¤ft igte
ĠTschech oslow
ĠIll ustr
ĠSemin ar
ĠWit we
Ġadvent ure
F ranzÃ¶s
T R
a a
a ult
ro b
et ch
ĠSch ult
Ġver grÃ¶ÃŁ
ere cht
nen nung
Ġent stamm
tz t
Ġper mit
ĠEl f
ĠAnt arkt
Ġgrow n
Ġenter tain
Ġgefert igt
M al
g ott
h Ã¤ngt
k ommt
t yp
he iz
Ġv ul
ĠM ust
ĠD aily
st art
ĠF ul
ĠH inz
ĠW inkel
ĠC ant
Ġg un
Ġr id
ĠRe ktor
Ġle gen
Ġso le
19 12
19 49
ial en
ite kt
ĠAb ra
ĠNe ug
ĠGr imm
Ġ8 2
ĠPar allel
Un garn
Auf gelÃ¶st
Ġangeb racht
ĠOs lo
ĠReihen folge
ĠGlauben s
Vol ks
ĠGemeinder at
ĠstÃ¤dt ischen
P ark
i ologie
È Ľ
Ġt ight
Ġs alt
Ġb an
ĠD ennis
Ġp ink
Ġre ader
Ġvor be
ĠSe attle
Ġad j
ĠSchw Ã¤b
ude d
inter est
ĠSh ang
Ġtr ends
ĠKn ochen
spr uchs
ĠDire ct
ĠHow ard
Ġbra un
Ġmeisten s
kn Ã¼p
Ġricht igen
Ġattra ctive
Bundes liga
Histor ische
ĠInstitution en
Ġhinzuge fÃ¼gt
ĠPion ier
A g
J J
g ast
Ġs ink
re ll
ĠF inger
Ġbe herr
Ġk reis
ĠSch r
ĠEr gÃ¤nz
19 11
ĠCh i
mit tag
ĠUS D
ĠAll ianz
Le x
ĠJe wish
Ġant iken
ĠDu isburg
Ġ185 4
Ġ185 5
Gr und
fÃ¼r sten
Ġbede uten
Ġtrain ed
Ġslow ak
Ġdest ination
wach ung
Ġerheb lich
ĠCru z
Ġbeobach tet
K n
Ġb order
Ġf ro
Ã¼ re
ĠT otal
ĠE ro
ĠW he
Ġg aben
Ġan gew
Ġj oy
ran gl
ru der
utz te
ogra pher
oh ne
schie ÃŁen
Ġcomm and
laub nis
Ġ185 2
ĠTro cken
fest ival
Tra iner
ĠUN ESCO
Ġcloth ing
Ġeigent lichen
ĠAlk ohol
p ur
ĠS ug
em en
ĠL isa
ĠC hal
Ġg estorben
and in
Ġl Ã¤nd
ĠJ ury
Ġfor um
iel ler
ĠIn schrift
ĠVer arbeitung
ĠGe legenheit
Ġco ordin
rei hen
ĠNach kriegs
St art
ĠCo oper
Sch war
ĠFre ude
rieg s
ĠMo on
ator in
ĠQu est
ĠCon rad
akes pe
ĠForsch ungen
Ġ180 3
ĠPlan et
Ġconf irm
Ġoffic er
sprach ige
Arch itektur
Franz ose
Ġmedic ine
ĠBam berg
ĠNeuse eland
n acht
z ule
re kord
Ġin ch
ĠP ut
ĠF reis
ir med
Ġth read
ĠUn it
Ġunter schieden
io den
ĠVor bereitung
Ġ9 8
Ġlie fern
Ver walt
Ġgesch ickt
Ġspe aking
196 1
ĠMont ag
leist ungs
bÃ¼ ro
ĠElect ric
verteid iger
çļ Ħ
B ack
W appen
Ġh Ã¤ngt
Ġn erv
ĠF DP
sch Ã¤d
ĠR ick
ĠNe apel
fl ow
stand es
ĠChrist opher
ĠSc ient
Ġerr ichteten
Ġaufge teilt
Ġorgan ic
Ġklass ische
Med aille
ĠPublik ationen
Ġcirc um
Ġehren amt
Absol vent
Ġchocol ate
V iew
Ù Ī
re ifen
ein richtung
Ġf unny
us che
ĠA cht
ĠD est
ĠE ier
ĠH af
ĠH ydro
ĠSt imm
Ġst imm
ĠSch enk
ei zer
Ġun less
aus o
lie gende
our ces
Ġfl ower
ĠSer ge
ĠKomp onenten
kir ch
Ġpat io
Ġrece iving
Ġsetz ten
ĠKriegs gefangen
ĠÃ¤hn liche
kan al
Spe ichert
Ø§ Ø
ĠMach ine
ĠInner en
Ġsorg te
ĠWik ipedia
A c
p rechen
al on
ĠF L
ĠH ud
ĠL az
ĠN FL
Ġan g
Ġan al
Ġst il
Ġso fern
Ġcom plic
che z
Ġcon v
ĠLand rat
Ġ9 7
Ġmy th
Ġgew Ã¶hn
sh ips
Ġwel chen
ĠBundes straÃŁe
gemein det
Ġbo ost
Ġgel ingt
ĠSaison ende
Ġrest lichen
room s
ĠErz bist
195 4
Ġwei ÃŁe
ĠHen ri
Ġless ons
lÃ¤uf e
Ġmess ages
Arch Ã¤
Ġspeziel len
ĠDub lin
ĠJed och
Ġta ught
k rank
or able
ĠS G
ĠB uk
ĠK ids
ĠW ettbe
ĠC ow
ĠC art
ĠC ape
Ġr ene
bau werk
ĠSh ar
Ġhistor ique
Ġnun mehr
Ġbig ger
Ġoper ate
ĠZe ilen
Ġfinanz iellen
How ever
Ġimag ine
fal se
Ġeingew eiht
W ar
d el
im ore
ĠI ra
ĠL atin
ĠC ord
ad bach
Ġsp ann
19 13
for mer
Ġunter stellt
ĠChar lie
Ġentwick elten
195 9
190 7
Ġfact ory
Ġverm eiden
zus etzen
Ġpaint ings
ĠAust rag
ĠGru ben
Ġanaly t
Ġausgeb ildet
P ierre
on c
ĠS id
ĠS ix
Ġb read
am an
ĠF uchs
ĠL iver
ĠRe chn
Ġco ck
Ġsh ares
old t
Ġfe hlen
ĠTra de
ĠIs lands
ĠRes idenz
Ġter rit
wissenschaft lichen
Ad d
ĠGed icht
ischÃ¶ fe
O l
Ġp apers
ĠH ahn
ĠH yd
lich ten
ĠAl p
Ġ18 45
ĠPr int
ĠOb ama
Ġgel ungen
Ġsur prise
Ġbed ient
Ġmember ship
Ġvoll er
ĠSchloss es
Exception Constants
ĠSyn ag
ĠDisk ussion
ĠChron ik
Fo otball
ĠEind ruck
Jose ph
Ġperman ent
1 10
L et
b ungs
c us
g Ã¼r
ĠS ony
us ste
Ġder selben
ĠM Ã¼ndung
ĠD ak
Ġein erseits
ĠE cke
ĠI wan
ĠR eiter
ĠC urt
Ġg rew
ĠN Ã¶rd
Ġe ast
Ġre iste
Ġst opped
ĠVer f
ĠLand s
man ager
An y
ĠVers icherungs
190 6
Ġprote cted
Fl ug
ĠCons ult
Ġgek ennzeichnet
Ġsech sten
ĠMitarbeit ern
Ġwhe el
AAAA AAAA
t est
Ġ ~
ĠF ile
ĠF iction
Ġauf merksam
ĠEr ne
ĠEin zugs
ĠLe ader
fl Ã¼sse
ĠAss istant
ĠOst preuÃŁen
ĠSeit dem
ĠWar schau
Ġaufge geben
Ġorgan ized
Ġcr ime
Ġident isch
ĠMotor rad
ĠNachbar gemeinden
Ġchrist lichen
Ġgraph ic
ĠmilitÃ¤r ische
analy se
inu ier
ĠArgentin ien
ĠMultic ast
F uÃŁ
R enn
W ohn
Ġw asser
he ide
ĠB uff
ĠD amp
ĠD orn
ro v
Ġc and
ĠC ommand
Ġst retch
ei ra
Ġaus gestellt
od ing
ib et
Ġ18 13
geb ra
ĠMit ch
gl as
entlich er
ĠTr ip
Ġacc omp
ĠMann es
ĠAnt ike
Ġser b
auch en
Ġresearch ers
ĠMinister ium
ĠWahr heit
Ġtransport ation
Ġfix ed
ĠÃ¤uÃŁer st
Bi ografie
Rel ig
ĠSchwier igkeiten
1 13
W ell
v ements
Ñ ĸ
Ġa men
ge ist
ĠB omb
st urz
ĠF erner
ĠE N
ĠH arn
ĠL ith
ĠJ immy
Ġge zÃ¤hlt
Ġi P
ĠBe cker
Ġ18 43
Ġ18 41
Ġunter teilt
ett a
ĠÃľber setzer
Mann schaft
ĠReich en
ĠDes cription
Ġopt imal
ĠauÃŁer ord
ĠJugend lichen
Ġrep utation
ĠUl m
ĠFrÃ¼ hl
Ġfour th
Reg ion
ĠEU R
gram me
ĠNamens geber
ĠProgram me
Ġprogramm ing
Ġsubmit ted
Ġdoll ars
ĠabhÃ¤ng ig
B enz
m Ã¤nn
Ġb ab
il deten
am ents
ĠH ugh
ĠC R
ĠC ir
Ġg al
ĠN i
ĠN ort
ĠJ ess
Ġal ign
ers e
ĠSt or
ĠSt ro
ĠO berg
Ġver folgt
ste chn
19 43
Ġwe alth
Ġch icken
Ġbut ter
ĠGra ben
ĠFre unden
Al ben
ĠMo or
Ge gen
Ġcomm ission
ĠPla yer
190 8
Ġtro uble
ĠRead ing
Lin ie
Ġbedeutend sten
gun sten
Ġhei ÃŁen
ĠSchÃ¼l ern
L uft
z ucht
ge mÃ¤ÃŁ
Ġr um
Ġ8 7
ĠStud iums
Ġtechn ique
Ġeinge laden
Ġrest r
mus ter
ĠHel den
Ġdre ams
190 3
ĠSen ioren
ĠHeimat stadt
ĠVe ter
ĠBÃ¶ hmen
Ġdat iert
Ġofficial s
konstru ktion
c al
h ungs
ĠB h
ol id
ĠF itness
ĠG ol
ĠK ay
sch el
Ġbe er
Ġbe wegen
Ã¶ he
qu ir
Ġle ichter
ĠSe ktion
ĠAuf sichts
ĠTr ennung
ĠAnd y
ĠÐ ´
190 4
190 5
Ġplan et
onen te
Ġsicher te
ĠSÃ¤ ulen
Ġprint ing
Ġcabin ets
Ġdetermin ed
ĠmaÃŁ geblich
b rechen
f are
s inn
Ġd icht
re lated
Ġv ast
ĠM ob
ol ine
ĠT ank
ĠR ut
ĠC ome
Ġbe le
Ġge heim
id as
Ġde grees
iss a
iss ippi
Ġ8 9
ĠUm satz
Ġra di
ĠGer d
Re ad
ĠMal ays
ĠRad rennfahrer
Ã¤us ch
ĠBre ak
ĠSport ler
ĠVolks republik
ĠHil f
ĠAuss agen
195 1
Ġkon k
Ġschn eller
Ġfact or
ĠEhe mann
ĠVe ktor
ĠStock holm
Ġfiel en
ctic ut
ĠMedic ine
Ġcit izens
Lud wig
V ier
Ġa wareness
ĠS yl
ĠB ush
ĠK lagen
ĠH ack
Ġvon einander
Ġk Ã¶rper
au ben
par tei
Ġ7 9
ĠKon ferenz
Ġsc ript
ĠArbeit geber
ĠKunst stoff
Ġselbst stÃ¤nd
Ġfest gestellt
stre ifen
ĠDem onst
produ kte
ĠBed Ã¼rf
Ġprote in
ĠTurn iers
fa ction
Ġspirit ual
================ ================
Ġnutz te
Ø§Ù Ħ
Ġeindeut ig
Ġenco unter
Merk male
L aut
V ideo
z ien
Ġb ike
Ġb owl
ĠB GB
ĠM au
ĠT ran
ĠR iv
Ġg g
Ġg rad
ir i
Ġre venue
if est
Ġex ternal
ru cken
Ġro w
gew Ã¤ch
ĠZw eiter
ĠBet racht
ĠWh it
mat ik
ĠLin ux
ĠCont ainer
Ġperform ing
ĠJur a
Ġverm utet
ĠVerl Ã¤ngerung
Ġgepl anten
Ġzweit es
sm ith
Ġearn ed
ĠAf ghan
ĠErschein ung
ĠChallen ge
olley ball
Ġsud den
ĠEdin burgh
a er
f ranken
ĠA gency
ĠP ear
sch lossen
ĠI tem
ĠW Ã¼n
ĠC C
Ã¶ ster
Ġge fe
ĠSt Ã¤rke
ess ing
Ġfor est
Ġ18 16
ĠSe ele
ĠGr Ã¶ÃŁen
olog in
Ġtra il
sh ut
Ġac id
ĠChrist ine
ĠPol ar
Ġfl ash
Ġausge dehn
akt ions
Ġspe ech
Ġgl ad
ĠBel agerung
Ã¤mp fung
Ġaff ected
imar ily
Ġrelig ious
Ġmittelalter lichen
C ount
G ymnasium
O B
it as
Ġw inner
ĠS B
ĠG ul
Ġg od
Ġl yr
ĠVer y
ĠGe fÃ¼hl
Ġman aging
ĠAuf klÃ¤rung
Ã¶l ler
ograph ischen
Ġhier fÃ¼r
Ġdr ugs
Ġend s
Le icht
ĠPart ie
Ġgest alten
ES T
gress ive
Ð¾Ð ¼
ĠWochen ende
ĠOk res
krit ik
Ġkanad ischen
Ġbayer ischen
ĠBom ben
Ġausreich end
ĠkÃ¤mp fte
ĠHimm els
Ġconduc ted
G old
k inder
p Ã¤
Ġin put
ĠP ool
ĠP ersÃ¶nlichkeiten
ĠF ame
ĠF ortun
ĠG rant
est on
ĠZ wer
ĠBe ar
ĠBe cken
ĠBe fest
Ġex pos
ond a
In halt
ĠPl Ã¤nen
olit an
ĠStand ards
Ġadv oc
Ġsw imming
ĠMur phy
ĠerklÃ¤r en
emin ar
Ġdivers en
Ġcra ck
Arch iv
Ġremov ed
Wel come
Ġbess ere
Z ent
k ers
p ts
in ch
Ã¼ pf
ĠB reis
ĠB ucht
st es
ĠP ommern
ĠG az
ĠK ohle
ĠH amp
ĠH appy
ul ous
Ġe ase
Ġsich ern
lo yd
Ġob jects
ĠCl ient
Ġander erseits
Ġgl Ã¼ck
ival ent
Ġter ror
Ã¤m mer
Ġdefin ed
Ġworks he
ĠDemokrat ie
ĠDro gen
Ġimplement ation
ĠThr on
I X
R und
R em
i ierten
it Ã©
al in
Ġ1 16
ĠT SV
Ġc able
ĠE D
ĠL ac
ic ulture
Ġbe zÃ¼glich
Ġk rÃ¤ft
ĠSt aub
Ġfor ces
Ġr is
ĠEin z
Ġex pression
rÃ¤ uch
enn zeichen
Ġte x
Ġste igt
Ġnew sp
Sch l
ĠGesch w
Mit te
Ġperfe kt
ĠRed akteur
Ġchallen ging
Ġlik es
Ġpick ed
Ġzie mlich
ĠOk lahoma
Ġmat ters
ĠMary land
Ġcy cle
bour g
wÃ¤rt igen
ĠNR W
Ġsympt oms
ĠAnz eige
U s
k Ã¤
m Ã¶gen
ĠS EO
ĠM ilit
Ġh armon
am ann
ĠH els
ĠN ations
Ġl as
pe te
ĠAb satz
Ġdar stellen
Ġem phas
Ġsup posed
ĠStud ents
Ġerw arten
Ġsm ile
Ġeff e
Ġinst ance
Ġsign al
Ġkommen den
Ġcra zy
kathol ischen
Ġwid ely
ĠSter nen
Verkehr s
Ġcollabor ation
Ã¤rt ner
âĸ Ī
B u
d ichte
j Ã¤ger
Ġd ump
ĠS v
ĠG itarre
ul ing
Ġan gen
Ġfor ec
Ġaus drÃ¼ck
ine a
utz ten
Ġqu adrat
ĠSchw ed
Ġoff ens
ĠEd itor
ĠDo uble
ĠWohn ungs
Ġaufge hoben
war f
ros se
Ð½ Ñĭ
kr ise
Ã´ ne
Ġaccommod ation
ĠFinn land
Ġsitu ations
Ġattach ed
ĠSchicks al
Ġaccep ted
b ring
f uÃŁ
n ommen
ĠS E
ĠS ide
ĠF REE
ĠG am
ĠW Ã¤hler
ĠL ip
Ġk it
Ġent reprene
enn ame
amm lungen
ĠVor feld
ĠSchw imm
Ġ16 00
ellen ce
Ġmin i
ĠDr ive
Ã¤tz ung
druck t
ĠQual ity
nehm ern
ĠMarc us
komp lex
Ġdom estic
ĠEuropameister schaft
irurg ie
Sonst iges
/ *
F iction
R om
k andid
m il
| -
Ġs uff
te or
ĠS ay
Ġp un
ĠG or
Ġ18 37
ĠVor name
Ġtra cks
St ad
Sch utz
ĠMed aille
195 6
ĠTre ff
Ġredu ced
Ġorganis ierte
ĠKrit iker
ĠGesetz es
Ġeigent liche
beam ter
Ġbesonder er
Febru ar
! "
M E
M ass
S B
h ost
h Ã¤n
o i
ĠB enz
ĠM am
ic als
Ġk ol
Ġy es
ap ing
ĠBe wertung
ho b
Ġunter nahm
pl Ã¤tzen
Ã¼ck t
Ġnot iced
zeit lich
ĠSo f
ĠSte iermark
Ġknow ing
mittel alter
Ġeinge zogen
ĠStaats anwalt
ĠErn est
ĠErw in
Ġdeb t
gre ifen
ĠFreund schaft
ĠnatÃ¼r liche
ĠAnge legenheiten
ĠDrei ÃŁig
ĠJon athan
o iden
ä »
Ġ Ã¤ndern
ĠA ktionen
Ã¤ le
ĠD ass
Ġn utzt
Ġein gemeindet
ĠF Ã¤r
ĠF oss
ĠG y
ĠG uten
sch les
ten nis
ed ing
ĠC oc
Ġk ar
Ġzu gunsten
op ath
ĠAn bieter
ĠUn ser
ĠDe kan
ĠPro cess
ĠY am
sk op
Ġpla te
br unn
ĠMen gen
bes te
Ġland es
itu ationen
Ġmag ic
Krit ik
ĠFertig stellung
C hem
E vent
k rÃ¤
m Ã¶glich
y ter
æ ĸ
Ġd iam
or ne
Ã¼ tt
ĠM ang
ĠT afel
ĠG lass
ra ut
sch Ã¼tz
ĠW ester
Ġal cohol
Ġre covery
Ã¤t tern
ĠAb lauf
ĠAb hÃ¤ng
ĠPl attform
Ġsup ports
ĠArt illerie
ĠDurch schnitts
Ġenter ed
Her r
ĠFel sen
ĠCent ury
Ġliter ature
Ġconcern ed
Ġstrateg ic
ĠnÃ¶t ig
Ġextre me
M Ã¤nner
l isten
Ġs ang
Ġin ches
Ġf ran
Ġp ow
Ġc arbon
ĠH air
ĠO ak
Ġauf zu
ĠZ wick
ĠVer sch
ran ten
ac ional
rif t
Ġwieder hol
ĠSh akespe
Ġmin ing
ĠBas il
Ġrem aining
olv enz
Ġstehen den
Ġtre ated
fred akteur
Qu elle
ĠBu y
ĠWand el
Ġgradu ate
Ġinstitut ions
ĠEro ber
O s
S ec
m ain
m ord
å ¹
Ġo h
ĠT oren
ĠW id
et enz
Ã¶ hm
ste iner
Ġle gt
Ġ9 1
ĠCo ach
Ġserv es
ĠNieder lagen
IN E
Ġkeep s
ĠMitte le
Ġverkauf en
Ġged acht
Ġmix ed
Ġbere chnet
wel ry
Ġfrequ ently
Val ue
Ġath let
Ġgewid met
S et
g ate
g alerie
Î µ
Ġt all
Ġw Ã¤chst
Ġf if
ĠB ug
ĠB ible
ĠD M
ĠH Ã¤usern
ĠL aub
Ġaus geschlossen
ĠJahr buch
Ġ18 39
Ġent deckte
enn amen
ĠAb tei
ĠNach lass
ĠVor arl
Ġsow eit
bar ung
oy al
ins eln
ĠPol iz
ĠGo vern
Ġclos er
Ġkon zip
Ġleg s
N et
O ut
W M
k ommission
u ing
Ġf Ã¶rdern
Ġm a
ĠB B
ĠM is
ĠP ath
ĠF ollow
ĠG ary
ĠW edding
ĠSch uss
Ġdem okrat
ĠTe en
ĠVor stellungen
wer ber
ĠPr ime
ied s
Ġber ichtete
Sch on
ĠOber bÃ¼rgermeister
ĠNord west
Ġass ets
ender t
hers tellung
wh ich
ĠSchles ien
lehn ung
ĠTy pen
Ġfail ure
Ġverg essen
Ġbrasilian ischer
ĠNapole on
Ġdenkmal geschÃ¼tz
Ġfoll ows
I hr
N etz
p op
u ages
v ie
st at
ĠH ut
ĠJ oy
ĠV III
Ġsp r
ant a
Ġnach weis
Ġall eine
ĠBer ger
ĠEx port
Ġausge prÃ¤
Ġsho oting
ĠMittel feld
Ġeng agement
Ġabge lehnt
ĠAnn ual
Ġerziel en
Ġricht ige
Ġcele b
Ġkont inuier
Ġempf angen
Ġinj uries
ĠSat tel
ĠZerst Ã¶rung
ĠKav allerie
Parameter ID
1 12
M Ã¶gliche
m ol
s endung
æ Ī
or r
or ders
ĠB lau
ĠD Ã¼r
ĠSp ons
Ã¤r er
Ã¤hr ungs
Ġges p
ĠÐ ¾
ĠHistor ischen
fel de
ĠKommun ikations
Ġregion alen
Ġevangel isch
ÅĻ ÃŃ
ĠIll ust
Ġbul gar
ĠArchÃ¤ ologie
ĠPian ist
Ġprincip les
Ġavail ability
C P
D ienst
f und
i ak
k arriere
n el
ĠR ight
os om
Ġsp l
lo gen
rif fe
ystem s
Ġ0 7
ĠPart ners
Ġtrans ition
ĠZe ug
ĠAg ain
ĠEst ate
ĠKult urg
Ġregistr iert
Ġsustain able
Ġvin yl
Ġzusammengef asst
D oppel
L iga
b ow
s he
it able
ĠS ara
Ġb io
Ġv iagra
ĠM rs
ig eschoss
ĠF avor
ĠW asch
Ġl ib
Ġst ated
ĠZ ut
Ġj ung
ĠSp ark
ĠTe ich
18 99
ĠEn zykl
ĠFl orenz
Ġro ugh
Ã¤ch ter
Ġno ted
ĠZw eite
Ġfl or
Ã¶st liche
Ġpost ing
Ġpriv at
Ġfac ing
ĠMer c
ĠKre u
Ġlink ed
sta ates
ĠKer amik
Ġarchite ct
bereit et
Ġmil k
ĠGebirg s
Ġbeher ber
E ben
R ichtung
f isch
k ons
is st
Ġin frastructure
ĠF F
la in
if l
Ġr ating
av ier
land e
ys on
ott a
hand lungs
ash i
li ament
ey er
ĠSup reme
ĠVan couver
ĠLy on
Ġerf Ã¤hrt
Ġtick et
ĠFranzÃ¶s isch
ĠAsp ekte
ĠAuseinanders etzungen
ĠSaf ety
ĠFrances co
B este
M a
Ġ {
it us
Ġs ed
ĠS ke
re chnung
ĠM uh
ĠF ly
ĠG ay
ent schieden
ĠV ene
ck te
ĠZ it
ĠSp enden
ĠÃ¼ber liefert
ĠHaupt ort
Ġsho ck
Ġgra b
Ġabge leitet
Ġmeet ings
ĠRober ts
zy linder
funktion Ã¤r
Ġult imate
Ġengag iert
quis ition
ĠErwachsen en
ĠFÃ¤h igkeiten
ĠRaf ael
ĠVerbesser ung
Ġermor det
ĠUrauf fÃ¼hrung
F ach
p ubl
Ġs essions
Ġb lau
ĠA ra
ĠB ien
ic ient
Ġk roat
Ġan x
if ier
Ġver standen
we iger
ian ces
oc aust
ry pt
ĠMar in
ĠVor gang
ĠAd dition
Ġprov en
ĠHand lungs
Re gie
ĠVol ker
ĠFe ier
ĠSal es
Ġel ig
Ðµ Ð½
Ġkomp lette
ĠBrit ain
Ġsuper ior
ĠRob in
Ġinform iert
ĠÃ¼b lichen
Ġobtain ed
Ġnied rig
ĠVort rag
idel ines
ĠVf L
ĠWurz eln
Ġrechte ck
Dav id
ĠWuppert al
Ġstattf and
A tt
K ont
t rieben
on ent
Ġt ab
Ġt we
ĠS ich
ĠS uz
Ġv illa
ĠM ale
ĠP aper
om ing
ĠL aser
ĠN ull
ĠN AT
ck el
ĠAn bau
ĠEr nennung
ĠÃ¼ber all
Ġen ger
Ġ9 4
Ġup gra
pro p
ĠEx ception
ĠÃľber leben
ĠAt las
ĠUr teil
ĠKomp lex
Ġhor izont
Ġcandid ate
Ġnorm ally
r ufen
en cy
Ġd ust
Ġt ank
Ġp asst
ig r
ig or
Ġc odes
ĠG amb
ĠK ings
ĠH altung
Ġg ifts
ir s
Ġer stellen
ĠJ ugoslaw
Ġth re
Ġth orough
Ġauf w
ĠAn other
tell te
19 15
Ġor din
ĠTh rough
Ġcon sequ
ĠUnter richts
Ġlie ben
ĠSte iner
Ġph ase
ĠOber Ã¶sterreich
Ġdesign ers
Ġcre w
schutz gebiet
ĠGeneral leutnant
Ġcap able
Ġrelativ ely
Ġdraw ing
ĠJahrzehn te
Ġfunktion iert
ĠSecret ary
B ern
K ur
O O
T ION
Ġf usion
le k
Ġh Ã¶l
Ġc um
and el
Ġge he
Ġge teilt
ĠO F
Ġwar n
Ġ18 35
omp son
nis sen
Ġoff ices
ĠEx change
Ġbek leide
Ġag ents
ĠCar ter
ĠQu in
ĠJohn ny
ĠGew ichts
ĠTit an
Ġfinanz ielle
ĠNationalsozial isten
Ġextens ion
Ġsuppl iers
ĠGle is
Ġign or
Ġmonitor ing
kurr enten
Ġib n
M ap
T urnier
l atz
w enn
ĠA kte
ro se
Ġc ake
ĠK han
Ġl ust
est het
Ġun w
Ġde fault
ĠRe h
ĠAl aska
Ġunter brochen
ges ted
ĠCh ange
Ġte eth
Ġgr ass
ĠPe er
ĠMon uments
stein en
ĠRo te
Ġinv ited
Ġgu id
ĠFernseh film
Ġlaw yer
Ġern st
ĠUs ing
ĠLaur a
BevÃ¶lker ung
D C
H I
b ot
l uft
Ġs Ã¤chsischen
Ġp rÃ¼
ic ted
ach tet
qu et
ok o
rÃ¤ der
dem ann
inn ers
ĠGra nde
Ġph arm
Ġreg ions
ĠNor bert
ĠMÃ¼n zen
ĠPat ent
Ġ180 9
ĠBru ce
rist all
Ġauth ors
Ġangeb lich
Ġyoung er
ĠEmp fehl
Ġdeb ut
ĠLaw rence
Ġhab ilit
Ã± a
ĠBrig ade
ĠVerdienst ordens
Ham burg
ĠVerbreit ungsgebiet
P N
T al
W eiÃŁ
f iguren
k linik
Ġt ube
ĠT akt
âĢ ¯
ĠG Ã¶t
ĠH ung
ĠW rest
ĠL Ã©
ĠC hl
ĠV i
ĠV at
Ġan gest
Ġge kauft
os ion
ver w
19 47
age ments
ure au
Ġpr imarily
ĠVor les
ĠVor lage
ĠHer zen
Ġrec ipes
Ġprodu cing
ĠĊĊ ĠĊĠĊ
Ġstar tet
ĠHal te
str ong
Ġfac ilit
parte ments
Ġreturn s
Ġmusikal ische
Europameister schaft
ĠberÃ¼cksicht igt
ĠVerstÃ¤nd nis
D am
H en
O t
is pr
ĠS ain
ur ist
Ġin telle
ĠB aut
ĠD ritt
Ġp ic
ĠC e
Ġl ift
Ġk onstru
ik at
ĠEr werb
Ġle isten
our g
ob a
ian ischer
ĠGe lehr
Ġtra fen
inn t
elle d
Ġges agt
Ġgeb unden
Ġrel ative
Ġspe zif
ĠUr kunde
ĠPal m
Ġinvest igation
Ġinform ed
Ġerschienen en
Ġinnov ation
bas is
ĠSmart phone
ixt ure
ĠBeam ten
ĠBeaut iful
A ir
B ur
e ck
n Ã¼tz
y k
à ¤
es k
Ġm obil
ĠB j
ĠT ower
ĠW icht
ĠR unden
ĠN OT
Ġer rang
Ġge leitet
ĠO hne
Ġre produ
ĠBe weis
ĠAl uminium
ĠAr z
ĠTh ose
je cted
ign et
Ġout put
Ġdis app
fess ion
ĠNational versammlung
Ġsho ot
Ġpublic ation
Ġimpro ving
Ġconf irmed
ĠBaum w
ĠBahnhof s
Ġdescrib e
ĠAufent halts
ĠStraÃŁ burg
ĠSams ung
P op
S to
W olf
ĠS alt
Ġm oral
ĠA V
ĠB uen
Ġh idden
Ġbe grÃ¼ndet
ĠO skar
ĠO regon
ĠSch mal
ind s
Ġwar ten
ĠAn satz
ĠSp ain
ĠÃ¼ber zeugen
auf tritt
ign y
ĠIm pro
Ġlie gende
pro fit
Ġra ck
Ver band
Ġind ire
ĠMed aillen
Ġdire cted
Ġbl ow
ĠfrÃ¼ he
Ġpolit ischer
En ts
Ġspecial ist
ĠAuss tellungs
Ġ185 3
ĠKat hedrale
hÃ¶ hung
ĠTex ten
Ġworks hop
ĠWach stum
ĠBeweg ungs
ĠOffic er
ĠJoh an
2 50
7 00
M as
P O
Ġ Ã¤nderte
Ġt iny
al ben
ĠA kten
Ã¼ sten
ĠH Ã¤nde
ĠR uth
ĠC ock
Ġbe geg
Ġ18 14
Ġex cess
Ġ10 1
Th ank
Th anks
ĠFe ucht
Ġgest altete
Ġstre ets
iction ary
upp el
ĠSold at
ĠFinanz ierung
Gemeinde auflÃ¶sung
abil itÃ¤t
ĠAR D
ĠIdent itÃ¤t
uum l
zub auen
Ġmill ions
ĠÃ¤uÃŁ eren
ĠanschlieÃŁ enden
M el
P osition
k lassen
in ary
Ġm ath
Ġp ussy
ĠSch af
ak ten
ap elle
ĠBe hinder
Ġ18 42
ens burg
Ġdurch setzen
ĠAb stamm
ĠGr upp
fin det
ĠDies el
ĠCar r
olv ed
Ġwrit ers
Ġatt rib
Ġcho osing
ĠBur k
Ġarg ument
Ġphotograph s
Verb reitung
izien z
Ġjo ining
ĠGitarr ist
D et
L ei
T op
U M
k W
ie hen
ĠT ol
ĠT um
ĠF itz
ĠK ie
ĠR ace
Ġge g
Ġfor med
Ġun e
Ġr Ã¤um
ib ir
ĠBe frei
be teil
rich en
amer as
Ġinter face
iner y
Ġgesch Ã¼tz
ĠProdu cts
ĠWei h
Ġbr idge
ĠSol utions
Ġkurz zeitig
Ġbene f
ĠWeb prÃ¤senz
ĠÅ ½
Ġmiss ed
Ã¶ss er
ĠNic ol
ĠSchwar zw
sper re
Pla y
dor fer
ĠWett kampf
stad ion
miss ions
Techn ische
ĠLoth ar
K reuz
S ach
t urm
Ġa wards
on ic
it ative
le itete
ĠH Ã¼tten
hr ingen
ĠN ash
Ġge arbeitet
ĠO N
ess ischen
id t
ok en
be h
ĠSpiel zeiten
ĠBau reihe
Ġange kÃ¼nd
ĠZu vor
ĠVers and
ĠMenschen rechte
ĠTour isten
mark e
stud ien
ĠRen Ã©
stehen den
hab t
Ġfa iled
Ġaustral ischen
ĠRis iko
ĠPed ro
mag azin
Rep rÃ¤sentanten
icul um
ĠDist anz
B rit
R aum
f angen
h yd
i ja
l alom
m aking
å Ń
Ġf ur
Ġm iner
ĠB C
ĠB usch
ĠD ress
Ġh ang
ĠT aus
ĠN an
Ġge p
ĠEr forschung
âĢľ :
Ġex port
Ġall gemeine
Ã¼ck e
ĠLand gericht
ock el
ĠCo le
ĠBest immung
ĠTo uch
ĠBel ast
ĠKom bin
ĠIns olvenz
ploy ment
oin ts
Ġschwed ische
ĠDat abase
ĠUrs ula
ti rol
ĠAN D
ĠHoll and
Ġdep th
ĠOze an
ĠGoth a
F ind
H al
I nde
b rem
Â §
st Ã¼r
ĠK elly
ten do
ed el
Ġan alog
ĠSch ra
ĠBo ys
ograf ische
ĠPer u
ĠWill y
ĠMag net
Ġinternational er
Ã¶m m
ĠPat ient
ĠOper a
ĠzusÃ¤tz lichen
ĠDet ail
usst sein
Mod ell
Cl ub
Ġchem ical
Ġsignificant ly
ĠSamm lungen
Ġprof iles
ĠBegeg nung
Listen er
ĠShang hai
A fr
K E
r und
å Ľ
is i
ar us
le ans
ĠD ritten
st oÃŁ
ĠP aint
Ġh l
Ġh ydro
ĠF eind
ĠG R
ĠK ommiss
ĠH end
ĠW Ã¶r
Ġto urn
ĠN elson
Ġer baute
ĠJ ason
Ġre ichte
Ġver passte
tell igent
ĠDe te
Ġman chen
ĠBer Ã¼cksicht
iss ions
Ġtra v
ĠPar ad
ep ing
ĠAg ent
Fl uss
Ġbeteil igte
onym ous
ĠExper iment
Des ign
Ġsched uled
Ġgraph ics
iale kt
ĠAgr ar
Ã¤ll ig
ĠÃĦm ter
B oden
B asket
F ield
m utter
ĠS ad
ĠB att
ĠD ame
Ġp hr
ĠF okus
ĠG ib
Ġfor ced
ver d
Ġnach t
Ġbes tellt
pp el
haus e
ĠSo ul
ĠAut omat
Ġhier zu
Ġsol ve
eid ung
Ġreal isiert
Ġaccess ible
Ġinvest ors
Ġoft mals
bÃ¼ hne
Ġleben s
Ġentire ly
dr ama
ĠerfÃ¼ llen
ĠWeimar er
M er
X X
Z wei
g ro
h all
k ilometer
n immt
Ġt ested
Ġf Ã¼
Ġv it
ĠM ine
st immen
ĠT ell
ĠF Ã¤lle
ĠK ran
ĠK ilometern
et tel
os hi
ts piel
ĠZ ellen
ungs ort
ord nen
uld a
pro fil
ĠEl be
schl Ã¼sse
ĠDr amat
ĠFach werk
fo und
ĠHÃ¶r spiel
Ã¶p fe
ĠSamm el
ĠMÃ¶n ch
Ġhers elf
Ġbon us
Ġbeauftra gt
ĠHT ML
ĠAbra ham
h on
ĠS le
ĠB aker
ing o
Ġc orn
ra hmen
ĠH ost
ĠH inder
ĠC atholic
Ġbe arbeitet
ith er
Ġ18 10
Ġcom pr
Ġpr icing
ĠFre y
ĠMan h
ĠZw ar
ĠGrund schule
Ġcons ists
lauf bahn
Ġdec ade
Ġfac ts
Ġdan eben
Ġcr ash
Wh y
Ġgenau e
ĠOut door
Ġconcern ing
Ġindustr ies
Ġkulture llen
Mill ionen
dis ziplin
ĠNiger ia
Ġspezial isiert
ĠDok umente
ĠKaffe e
ĠInse kten
ĠLiver pool
U B
m ass
o fen
ge gangen
ĠB utter
st urm
ĠT ed
ĠF aust
ĠG lÃ¤
im inal
hr ung
Ġan bie
Ġst ainless
ĠVer schw
ĠAn atom
Ġle ts
ĠBe arbeitung
Ġex tend
ĠTe ch
ĠTh read
pt y
ĠAus bruch
ction al
ish ers
Th omas
schlieÃŁ en
Ġerreich bar
schein lichkeit
07 2018
ĠPan el
Med iziner
ĠSin fon
Kultur denkmal
ĠGrÃ¤ ber
Ġqualifiz ierte
Ġerle bte
ĠAuseinanders etzung
ĠBalt imore
l inger
Ï ĥ
Ġ 000
Ġd ialog
Ġo vers
ĠD ad
st Ã¤rke
ig rant
ĠG ibt
ĠK ate
ĠR iesen
ĠL Ã¼n
ĠO cean
os k
Ġst ring
Er ste
Ġele v
ĠVers uche
Ġperson ally
leit ungen
ript ion
Ġident ity
wes ens
Ġmechan ism
ĠQue ens
Ġumfang reich
ĠGru yter
Ġverbin den
klass igen
ĠVoraus setzungen
ĠLearn ing
ĠScot land
ĠTai wan
Ġgg f
F k
W o
Ġt ap
te ch
Ã¼ chte
ĠF Ã¶der
ĠE k
Ġst abil
Ġr asch
sp olitik
qu artier
Ġ18 44
Ġ18 38
19 16
ite es
geb ot
ĠFra ktion
ĠPf licht
Ġcr usher
Ã¤m me
Ġhol idays
Ġoffen e
ĠPop ular
ĠBox er
Ġzuf rieden
Ġbetre ff
jew itsch
Ġdynam ic
ĠTenn essee
ĠkÃ¶nig lichen
Ġausgesch ieden
ar ab
re de
Ġb anks
il og
ĠD ag
ĠG ard
ĠG ouvern
ĠE arly
et tet
ĠV ic
ik ro
ĠSt all
ĠSt apel
if ter
ĠEr halt
ant ik
Ã¤t igung
Ġex ception
Ġgen auso
Ġro te
St ate
ĠGra y
Ã¤hl en
hel ess
Ġfind s
ĠNeben fluss
ĠKol umb
ĠEt wa
Ġlink er
ĠCle mens
Ġbedeut enden
Ġcommit tee
Ġbedroom s
Ġcompon ent
gewÃ¤ch se
R hein
W eiter
l ia
es telle
ar ben
ar mee
al p
ĠT ry
ĠF ine
ĠF unktions
ĠL anc
Ġge zwungen
ĠSch er
Ġver ring
sp ring
se a
Ġar ray
ĠStadt rat
isten ce
gew alt
ins ichtlich
arch itektur
Ġsub stant
ĠFriedrich s
ĠEm ail
ĠHistor ische
ĠWissen s
Ġleben den
ĠTal ent
ĠVal ent
ĠRen ov
Ġstruct ures
ĠGebÃ¤ uden
ĠWiederauf bau
Ġumf assen
A BC
B ot
V e
l ler
m Ã¤r
v ik
Î »
in ken
Ġw ander
ĠS i
ĠA telier
ĠB elle
st yp
ĠG umm
ĠK iss
ra h
um pen
ĠVer hÃ¤ltnisse
19 17
ens atz
ĠNe uk
ĠGr as
ĠMa ÃŁe
ink i
gra b
Ġsub t
ĠMark graf
40 6
ĠZusammen setzung
Ġpolit ics
Ġret ten
Dies es
ĠBischof s
Ġerk ennt
Mod el
Ã¤rk ung
ĠBÃ¤ ume
ĠkÃ¼nstler ischen
Ġviol ence
Hein rich
Ġerkenn bar
? "
Z usammen
c in
h aut
á º
Ġs itzen
Ġv oc
Ã¤ ÃŁ
ĠF lex
sch a
ĠL ett
ĠC onn
ĠN ature
ĠV Ã¶gel
est adt
ann els
ĠSch re
ĠZ ert
id i
Ġr ichtet
be griff
ac ted
ĠNe v
18 93
Ġ17 0
oy a
Sch ach
ĠSpiel ers
Ġmo ist
ĠPer fect
esent liche
ĠMag d
ĠBesch luss
He il
Ġpay ments
Ġzurueck gegeben
ĠBill y
ĠFeder ation
Ġzeich net
ĠBlo od
Bet rieb
ĠPow iat
ĠKrie ger
Ġdipl omat
& #
D uring
b ian
g Ã¤nger
Ġd ad
Ġb odies
Ġm orgen
il o
ĠT Ã¤nzer
ĠK abel
ist ol
Ġl Ã¶sen
Ġal ph
Ġver me
ĠVer folgung
ĠEr haltung
art z
Ġat tended
Ġch apter
Ġwor se
Ġcon ver
sk irche
ork ommen
ĠGesch enk
ĠNational park
reg ister
ĠYork er
anad ier
ĠTem p
ĠSen ator
ĠVe get
ĠWeiter entwicklung
Ġmass age
zwe ck
Ġneg ot
Ġtw ice
Ġverste ht
ĠAtlant ic
Ġcharge d
ĠOpp osition
Ġverstorben en
Ġstyl ish
Ġbewe gt
ĠSingap ore
Ġkorre kt
ĠTschechoslow akei
andin av
g ies
j ar
r isch
Ġw Ã¤ren
re ts
Ġb ond
ĠB eth
ĠD raft
de cker
am as
ĠF res
im i
ĠK ot
ĠC ash
Ġth in
ĠAn wendungen
ib il
ĠSp alte
los ure
ina e
Ġ0 9
rach ten
ĠBet riebe
Ġvis ited
ĠWer ft
Ġerhalten e
rÃ¤n ke
ĠKat zen
Ġ180 8
gesetz es
Ġbuy ers
ĠInde pendent
Ġrecogn ize
ĠTemperatur en
Ġmusikal ischen
EMail Adresse
verl ust
Ġestim ated
check EMailAdresse
B lack
H ello
H alb
R eihe
is emit
Ġw itness
ĠB ocken
ĠM indest
Ġc ategories
ĠG os
ĠK etten
ĠH ass
ĠL ingu
ĠO ste
ah ne
Ġver lei
op ol
Ġr ies
ĠAl abama
Ġwe ak
ĠCh at
ĠÃ ģ
Ġen orm
sk Ã¤mpfer
ĠBr id
ĠGrÃ¼ nde
ĠHol y
Ġsk y
Ġsl ot
bet riebe
welt meisterschaften
Ent wicklung
Ent fern
fÃ¤l ischen
Ġexpect ations
Ġerinn ern
ĠNeum ann
ifff ahrt
E V
g ue
l Ã¶s
m Ã¼nd
ĠS L
at iver
ur teilung
le uchtung
ĠA sk
ĠM Ã¼ll
Ġo lymp
sch reiben
ĠC B
Ġbe ziehen
Ã¶ h
ĠN ob
ĠN umber
ĠV irt
Ġe urop
ĠO hr
ann over
ag entur
Ġun able
ĠRe chen
ĠAn pass
qu ire
Ġ18 32
ob ahn
Ġges ichert
ĠBl um
Ġfol ks
Ġob lig
ĠVerb indungs
ĠFr ame
ĠCl ark
Ġreal ized
Ġcr isis
Ġlist ing
osp el
ĠWal ther
plan ung
ĠGet re
Des cription
ĠUrs ache
ĠPok alsieger
ĠVorder grund
ĠKoordin aten
ĠEas tern
ĠTats ache
ĠInsp ir
ĠHawa ii
Leicht athlet
Fk EMail
M G
u eller
w ass
ĠB ent
ĠK und
sch i
ĠC av
ir kt
Ġl iquid
Ġan gebaut
ĠZ ister
ind a
ĠVer teilung
per rt
auf gaben
erv ers
ĠMar athon
pr esent
ĠVor schlag
zent ren
Ġstar ben
Ġsu ite
En gl
ĠTem ple
ĠMay be
bed arf
Ġless on
Ð¾Ð ´
Ġunterschied licher
ĠGef Ã¤hr
Ġcommon ly
Ġachie ved
Ġkrit isiert
Ġcapt ure
Ġrefer red
ĠlÃ¤ng ere
ĠMov ie
Ġincor por
ĠkÃ¼nd igte
F P
P ublik
W A
i ago
Ġt ack
Ġs uc
ĠD utch
ĠH Ã¤uf
ĠL Ã¤ng
ĠC rit
Ġbe hand
Ġge h
op en
ĠSte ine
gew orfen
Ġeinz eln
ĠMet ro
ĠHol ocaust
ĠKom Ã¶die
ĠRuss ischen
On ce
ĠVorsitzen den
Ġfal sch
Ġdeal ing
rÃ¤nk ischen
ĠOpt im
Ġweib liche
ĠMyth os
Ko ordinate
E ins
en ke
Ġt iss
Ġs aÃŁ
Ġb id
Ã¼ ten
Ã¼ se
ig ert
ĠF ett
ĠH Ã¼tte
Ġg lo
Ġbe qu
ir r
ĠZ irk
ĠÃ¼ber le
ges prÃ¤
ĠGe orges
ĠSe ver
olog ist
ĠAt mosphÃ¤re
ĠMag ic
Ġunser es
ĠSÃ¼ ÃŁ
Ġens uring
ĠGre y
Ġop ens
Met al
ĠLaur ent
Ġserious ly
Ġelektr ische
Ġreligi Ã¶sen
ĠRal ph
Ġveranst altet
ĠgrÃ¼nd eten
% .
H D
R ich
S ingles
k ter
m ung
m ers
t ur
Ġt elling
us in
ĠP ension
Ġh rsg
ĠF ive
ent he
ĠL ub
Ġ2 20
Ġbe achten
Ġer zielt
ĠSt Ã¼r
Ġun bedingt
ĠDe ep
be an
ĠOr din
ĠGes ichts
ĠFilm regisseur
Ġ0 2
ĠInd ustry
Ġbesch rÃ¤nkt
ĠOn kel
alle tt
ĠOrts teile
ĠHil de
Ġann iversary
ĠSol id
ĠRuss ell
kn oten
Ġversch oben
Ġregul ations
Ġrecommend ations
ĠLi bert
Ġtal ks
ĠDrit ter
Ġwand te
Ġdiagn ost
ĠBrie fe
ĠPho enix
F R
S pr
i om
Ñ İ
Ġ essen
en ne
ch tet
Ġd rag
un ken
ĠD ial
ĠC onstant
ĠSt yle
ab ol
th ese
ag u
Ġde fense
Ġj ene
igen en
Ã¶r n
pl ates
ult iv
ĠY e
lo h
ĠGr ill
Ġgen ieÃŁen
zeich ner
ma x
enz el
Ġ[ ...]
ĠStre ifen
Ġfac ulty
ĠDu o
ÑĤ Ð°
Sport veranstaltung
Ġangegeben e
ĠStan ley
Kurz film
ĠFreist il
ĠPek ing
D reh
L es
P ap
S etz
Ġa warded
Ġf irms
ĠD ays
ĠP oll
ĠK rÃ¼
sch rank
et wa
ag ram
sp or
sp ec
Ġbei ge
ĠEin zug
Ġme als
Ġcont rast
ober haupt
ĠMed ium
Aus gabe
ĠZusammen schluss
ĠPat rim
umb oldt
viron ments
ĠDel hi
Ġstation iert
ĠniederlÃ¤nd ische
Ġdauer te
ĠkÃ¼nstler ische
Ġvirt ual
ĠBundest ags
Ġdiskut iert
ĠEval uation
Ġcerem ony
r ise
re f
Ġin du
ĠB reit
ĠB ird
ĠB attle
ĠM other
ro hr
Ġp hen
ĠT O
Ġc lock
ĠK id
ĠL A
ĠV Ã¶l
Ġim per
ĠO K
Ġre cover
Ġauf einander
ĠSch au
Ġaus einander
Ġsp lit
ack e
Ġco unsel
Ġsh ift
Ġher o
Ġgen der
Ġtra g
ĠRo und
Ar ten
ĠWor te
ĠAt om
AT ION
ĠDienst leistungen
Ġturn ing
Ġappe al
Ġpan els
ĠAud i
wander ung
ĠVerÃ¤nder ung
ĠAbstamm ung
D own
F ree
L ie
u in
Ġd uty
Ġs amt
ĠB aup
ro ph
ĠH C
ĠC ore
Ġl ies
kt iven
Ġaus gesetzt
hn s
ĠLe gend
je ction
ail ing
Ġgew orfen
ĠGrund riss
icher ten
Ġsk illed
Ġzahl en
jÃ¤hr ig
ĠTre ppen
omet rie
vo gel
Ġmem ories
Ġgepl ante
Ġhy per
ĠAqu ar
ĠMÃ¶ bel
ĠConne cticut
ĠSak r
Ġunterr ichtete
ĠDreiÃŁig jÃ¤hrigen
ĠBerÃ¼cksicht igung
H R
it iert
Ġt ip
Ġm ile
st iftung
Ġh ind
Ġn ic
ent sp
ĠH arm
ĠL ena
ĠSt ick
ĠVer k
ĠSe ason
ĠUnter k
Ġcomp uters
ĠFl ash
ren ner
ĠGes ellschaften
Ġbek annter
ĠStra tegie
ĠVers ionen
Ġrem ark
ĠMeister titel
Ġprom ise
ĠSen ats
Ġreport ing
Ã¸ r
,, ,
Ġincred ibly
fÃ¤ll ig
H in
S Ã¤nger
b ald
re am
ĠP L
ĠP ent
ĠT R
em pf
ĠR ib
Ġg ross
Ġer leben
Ġal arm
Ġab use
Ġle istete
ĠAl m
for cement
alt itel
ĠFl ach
Ġnew ly
Ġrec ording
ron en
oth y
ĠMed ik
ief el
Ġche ese
str Ã¶m
Ġorder ed
ĠKÃ¼ chen
Ġcreat es
ibr aries
Ġinn ere
Sh ow
Ġverlie h
gehen de
Ġcur rency
Ġumfass ende
ĠAnth rop
Ġwire less
ĠFriend s
m isch
Ø ¯
Ġd ent
Ġs ick
at ile
Ġv olle
ĠT ool
ĠK lin
ĠW are
op y
Ġon going
th iop
ĠPro zesse
ian er
Ġfe iern
Ġro ot
ĠAut os
wohn ung
gra ph
ps ych
âĢ¦ .
ãģ Ħ
ĠCor p
Ġgener ate
Ġbew aff
Land es
Ġjeder zeit
Ġprepar ation
ĠbenÃ¶t igen
uert o
ruit ment
ĠEuropameister schaften
Ġcru cial
Ġven ue
ĠPassag iere
ĠGeschle chts
Ġdanger ous
9 00
K ol
k am
Ġs oph
ĠP Ã©
ĠH ert
ĠH ip
et o
ver arbeitung
Ġsch m
Ġ18 31
Ġme ets
ĠTh ompson
ĠSe pt
St atus
ĠSo ft
met ter
Ġtyp ischen
Ġequ al
Ġenter prise
ĠOs man
ĠErd geschoss
Ð» Ð¸
Man ager
ĠSy mp
ĠJob s
cep ts
Ġlok ale
ĠberÃ¼hm ten
ĠHarr is
Wor ld
ĠFI FA
Ġfasc in
ReprÃ¤sentanten haus
. ]
1 15
> .
c ue
l ong
m Ã¼n
t ages
u tel
Ġs tet
at isch
un er
ĠB anken
ĠE S
ĠL ay
um me
Ġer leich
Ġst imul
Ġauf s
ste her
ler in
lo ÃŁ
Ġgew isse
ĠOb serv
Ġdel ay
Ġbed ro
ĠPal Ã¤
fert igt
Ġtreat ments
ĠZust immung
Ġinvolv es
ĠEins Ã¤tzen
Ġsatis faction
ĠFlag ge
ĠEqu ipment
bÃ¼t tel
ĠForts etzung
Ġbesetz ten
Ġlehn te
E ach
M ein
S el
c at
h Ã¤ngen
Û Į
es tet
Ġt ile
ich s
ein kommen
Ġp it
ra c
ĠI X
ĠR in
Ã¶ hne
Ġge omet
Ġfor th
Ġaus zu
be hÃ¶rden
Ġev olution
of ern
vent ional
ĠFest schrift
Ġcommun ications
ĠGew inner
herr n
ĠJournal isten
lig as
SS R
ĠBlÃ¼ te
Ġneg ativ
Ġbem Ã¼
ĠGlas gow
ĠtÃ¼rk ischer
Ġhum or
Ġimmed iate
Ġbelg ischen
ĠFranzÃ¶s ischen
ĠBang kok
Ġvict ory
ĠgÃ¼nst ig
Juni oren
Ġce iling
Denk mal
Ġeingest uft
H O
I l
S am
d ays
h um
er ia
Ġs aving
ĠD ein
ĠP ant
ĠF ig
ĠG ian
ĠW oll
ĠL etter
Ġl uck
Ġl aptop
la c
ĠU ll
ĠEr sch
ĠEr hol
qu in
Ġsch lossen
Ġcon vert
ĠIm plement
ĠPr ize
Ġbet Ã¤t
Ġins zen
ĠPh Ã¤n
Ġausge geben
Ġben utzen
ĠSan ierung
ĠBel ie
ĠBeg leit
ÑĢ Ð¸
ĠBrand t
Ġmir ror
gef unden
gesetz te
Ġocc as
gÃ¤n gen
ĠAth leten
Ġfunction al
ĠCapt ain
ĠEncyclop edia
Rober t
Ġguid ance
D ec
i u
ch sen
ĠS ob
ĠM oney
Ġn ights
ĠT rue
ĠH ob
ĠL uf
ĠC ad
ir aten
ĠSp ar
ial is
Ġwor aufhin
ĠAus richtung
omm y
iet ies
Ġover w
ĠJan eiro
ĠBand e
Ġtr ick
Ġcolle ctions
str asse
Ob wohl
Ġalong side
ĠZeich nungen
ĠMiss issippi
ĠKommand ant
Ġfloor ing
Ġbott le
gerichts hof
ĠAuft ritte
ĠEins Ã¤tze
ĠProduzent en
Ġweib lichen
ĠLetz ter
Ġauthent ic
B ank
S im
S tein
T schech
k ong
t v
Ã ²
Ã Ĥ
Ġd ienten
is ka
ĠS hel
ĠS achen
ĠB L
ĠB rÃ¤
il ia
ĠP Ã¤dagoge
ol utions
Ġc otton
ĠF uss
ĠH K
ic ultural
ĠN ancy
Ġl ucky
ul u
ik ts
ver folgung
ĠIn stead
ang riff
Ġ18 36
rom an
ĠDe part
ru kt
Ġwas h
ens ation
erk raft
Ġnur sing
fin anz
ĠAd l
ĠTr end
Ġmon at
Ġeng ines
ĠHar z
Ġweek ly
ĠMor ris
Ġhistor ischer
ĠMain e
ĠMat rix
AT E
ĠText il
Ġenjoy ing
Ġdefin ition
Ġfocus es
ĠDec or
Ġamer ikanischer
Ġbede ckt
Ġren omm
ĠwÃ¤hl te
ĠRon ald
ĠGesell schafts
spart ner
ĠPseud onym
. âĢĵ
P ost
T B
Y es
g ins
at io
Ġin tr
le v
ĠF u
ĠH i
ĠIn tens
Ġab zu
Ġ18 34
ĠOr leans
ĠSe kund
Ġfl ights
esen ted
Ġeinz us
Ġviel fach
Ġvis ible
ĠAt tra
ĠauÃŁer gewÃ¶hn
ĠCom ments
ĠDu ke
ĠKommun e
ĠLou ise
ĠAbs ol
Ġregion ale
ĠSter ne
Ġcas ual
Ġlos ing
Gra f
ĠAster oid
organis ationen
N ote
W ahl
y an
Ġf Ã¤hrt
us ten
le mente
ĠP ig
Ġn one
ĠT ipps
ĠG reek
ĠH eld
ĠN ike
Ġer gab
Ġle ichte
ĠÃ¼ber rasch
ia z
ĠEin fach
ĠEin ladung
erk rank
ĠCh annel
ĠGen re
Ġprofess or
ĠForsch er
ĠThere fore
ĠFrankreich s
Land tags
Ġtravel ing
kap it
Ger man
Ġblock s
ĠJos h
Ġanz ut
Ġchines ische
ĠMatt hew
ĠEnter prise
ĠTat ort
Ġumfang reichen
Ġanges iedelt
Ġnorweg ischen
ĠEnvironment al
ĠPersÃ¶n lichkeit
berat ung
H erkunft
I O
c amp
Ġa ims
on ferenz
as a
ĠB oss
st ance
ĠT rop
âĢ ³
Ġc atalog
ĠI M
ĠL if
Ġl uther
ĠV ice
ĠIn spe
Ġr ichtete
Ġab gelÃ¶st
be zirks
ĠSe ch
auf lage
ĠAd vis
sh aber
ĠAll ein
ĠProdu kten
ĠWor ten
ĠfranzÃ¶s isch
Ã³ r
ĠRober to
ros sen
Ġcr iminal
ĠCas a
Ġbisher ige
ikal ische
Ðº Ð°
ĠEvangel ische
ĠInstr umente
bre ite
Ġsouth ern
Ġremov al
Ġsav ings
Sup er
Lou is
ĠBreis gau
T ags
Ä ĩ
Ġt iefer
ĠB owl
ĠD irk
st an
Ġc in
ĠE ms
ed a
ĠC ulture
ber ater
ĠO ran
la te
Ġre chter
Ġhe aling
Ġ18 29
Ġent it
fer enzen
18 90
ĠSchw aben
stell ungs
Ġfin est
Ġins ight
Ġho le
Ġ0 6
ĠIs a
Ġass um
ĠÐ ¼
zie her
ĠGew Ã¤sser
ĠPark er
Ġwest liche
Ġclos ely
ĠErn Ã¤hrung
ĠKÃ¼nstler in
voll stÃ¤nd
ĠGast geber
ĠJazz musiker
ĠAst ron
ĠCla ude
Ġhappen ing
Je an
ĠmÃ¤nn lichen
Ele kt
Ġcrow d
ĠNeck ar
P rÃ¼
Z ug
Å ĳ
ĠM eine
ĠP oten
ĠT ieren
ĠK ick
ĠE id
om i
ĠL ic
ĠL enn
ĠN atal
Ġk ill
ĠZ en
ĠZ iegel
ver halten
ĠIn cl
Ġun us
sp rech
Ġsp eich
ĠCh art
ire ktor
Ġte ch
fe hlen
ĠNach frage
ake te
ĠKl einen
ĠFrank lin
ĠVerein ten
Ġbl end
Ġdevelop ers
Ġfre ier
Ġentsp rach
Ġatt orney
ĠDon ner
rÃ¤n gt
Ġmar ks
ĠEhren bÃ¼rger
Ġoffic ers
ĠInvest ment
Ġverhinder t
Ġhop ing
ĠMd L
Ġbeherber gt
V B
Ġ æ
it tel
ĠB ock
ĠB irth
Ġund ert
Ã¤ hne
ĠD j
ĠI an
Ġto x
ber gen
Ġge pf
ĠSt u
ver gleich
Ġaus gerichtet
ran ty
Ġwor st
18 98
Ġ17 00
ĠArt ist
Ġletz tes
Ġteil te
ĠDar stellungen
wissenschaft liche
dienst es
umm el
AL L
Ġresult ing
Ġung arischen
Ġevangel ischer
Ġful f
Ġcook ies
cu ador
" -
G E
I mp
W hether
b ig
p ern
Ġb ay
ich i
Ġf erner
ĠB ond
ĠB rat
il iate
Ġc ater
ĠE R
ĠW oman
ĠR ights
ĠC ab
ist o
os se
ver teilung
Ġsch lÃ¤
Ġ18 21
ĠAuf stand
Ġbes iedelt
ĠFl otte
Ġgen ehm
ĠCar s
fra uen
Ġbook ing
ĠDo ctor
ĠLebens raum
ĠBÃ¼ chern
Ġerfolg los
ĠSchiff es
ĠProble men
ĠKurz film
Her ausgeber
Ġpain ted
Ġexpla ined
ĠErinner ungen
ĠCorn el
Ġneut ral
ĠgefÃ¤r bt
ĠAfghan istan
. ;
P res
z k
er gie
an ced
ĠS amt
Ġin telligence
us a
ig ter
ĠF ron
Ġg rant
th es
we alth
ĠAn walt
Ġsp acious
ard i
ard t
ĠDe cken
ĠAb geordnete
Ġpr ide
ĠVor runde
rat ive
Ġdo ctors
Ġste uer
Ġges ammelt
ĠMin istry
ĠBet reuung
ĠVerb rechen
fÃ¤ llt
Ġleg it
ĠOper ations
ĠSand stein
ĠZwe cke
Ġdeb ate
Med ien
Ġannoun ce
Ġnormal en
ĠFal ken
ĠWettbewerb s
Ġdurchschnitt lich
Ġbrach ten
ĠBroad way
ĠInterpret ation
ebau ung
J a
p df
s Ã¤nger
ge h
Ã¤ use
ĠD R
st yle
ĠH eid
ĠR ak
Ġg ast
Ġ2 30
ĠV ik
Ġk Ã¼mm
Ġe cht
Ġzu verlÃ¤ss
Ġver e
Ġso il
land o
ob achten
ide en
Ġus age
Ġ4 50
ĠVor teile
ren e
Ġro les
Ġbet reiben
ĠSte ven
ĠStra hl
Al though
Ġhand ling
ĠMal erin
ĠÃĦ l
ĠSchul ter
ĠFest ivals
Ġeng age
Ġhistor iques
Ġbre ast
ĠHerr schafts
Ð½ Ð¾
Ġtem por
ĠZeich ner
iro ler
ĠMargar et
stet ten
Ġangrenzen den
ĠMitch ell
K al
P P
T I
e xt
Å ¼
ĠD ess
ig nete
Ġn eb
ĠT U
ĠT Ã¤ter
ĠE uch
ra ums
ĠL ippe
ĠN y
est es
ĠSch o
Ġver lauf
ĠIn halts
aus stattung
ĠAn w
Ġsp ark
ĠLe hen
ĠPr in
ĠPr inc
pro of
reat iv
Ġem otion
alen ted
ĠKinder garten
ĠArch ae
anst alter
Ġbed s
Ġpass ing
Ġbre iter
Ġerhalten en
iat hlon
Ġerne uert
Ġlin ke
ĠMc K
ĠPlan eten
ĠMont real
Ġpersonal ity
Ġconf ident
ĠTrans fer
ĠTur in
ĠClub s
Ã§ a
ĠDenkmal pflege
gien e
ĠErk enntnis
MÃ¼n chen
Ġmur der
b Ã¼nd
p it
u als
| |
es ien
ĠS einen
ĠS ri
Ġb ow
as ar
ĠD um
ig ern
ĠH Ã¼r
ĠL er
ĠC arn
ĠC rist
Ġk ap
Ġk Ã¤mpfen
ot ischen
Ã¼r ft
all o
Ġhe ating
ĠBe griffe
Ġen ables
ĠY or
able d
ĠAd ress
Ġjust ice
Ġvers orgt
ĠNor m
ĠOber flÃ¤chen
ĠPhil h
ĠAnt wer
Ġdarauf folgenden
Ġkein em
irm ingham
fil men
ĠrÃ¶m ische
Ġindividu elle
Ġindividu ellen
gle is
ĠEss ay
Ġtats Ã¤ch
Ġgrund legen
ĠRess ourcen
! âĢĿ
r igen
v ents
Ġ Ã¶
Ġo sman
ĠD ill
ĠG is
kt on
ien e
th is
Ġ18 28
Ġdurch ge
ame ters
Ġen ge
ĠCo ol
Ġfin de
ĠArt ik
pla in
ĠAnt ar
ĠWer bung
ender s
ĠEnd spiel
Ġdirect ory
Ġbeteil igten
Ð» Ð°
ĠDor othe
ĠYear s
Sa ale
Ġnar row
Ġnav ig
ĠGon z
Ġbrill iant
Ġtom orrow
I hre
V ID
W S
c ut
c ell
f ly
l on
Ġ q
in fe
Ġw ra
ĠL ion
ber ichte
Ġl ady
ik ten
os er
if ies
ĠZ ubehÃ¶r
Ġfor g
ver kauf
ĠIn fo
ĠSe il
18 97
18 92
ĠMe et
ĠUnter schiede
ĠHer itage
fahr ung
ĠSte wart
ĠFilm produzent
ĠVerein igte
FuÃŁball trainer
Ã¤uf e
Ġhistor isch
ĠPal ast
Ã¤ss ern
Welt cup
ĠMot to
ĠTur k
Ġenth ielt
Christ ian
ĠSkulpt uren
1 17
T F
Ù ĩ
is men
Ġt um
Ġs hr
ĠS O
ĠF urther
ĠG PS
im an
ut ung
ĠC afÃ©
Ġbe an
th on
ĠEr stellung
ick te
ĠLe gende
ĠGr en
ĠMe g
ĠAm ph
mit tler
ieren der
ĠUm zug
ser ver
ĠEurop ap
Ġgel Ã¶scht
Ġmin ister
hol ders
ĠDurch bruch
Ġret ire
Ġcor respond
Ġbra uchen
ĠFrÃ¼ chte
ĠErw art
ĠLang haus
ĠÅ ģ
ĠLog o
flug zeug
ĠHy per
ĠBist ums
ĠTok yo
ausschuss es
Ġdurchschnitt liche
ĠManh attan
> -
A uth
b og
k reise
Ġa ben
ar is
Ġb ass
ein trag
Ġf lÃ¤
ĠD amm
st ahl
ĠF ur
im aur
om orph
ĠW affe
ĠW right
ĠL loyd
Ġer fasst
Ġge folgt
ĠSt ufe
Ġre fin
Ġ18 25
rÃ¤ gern
ond o
uss ia
ĠAus b
St r
acht ung
vers uch
ĠPolit ical
ĠSÃ¼d amerika
Ġcol ours
Ġclass room
ĠKol onie
ĠJournal istin
Ġmatch es
ĠSym pt
Ġill ness
Ser ver
Ġverk Ã¼nd
Ehemal iges
Ġtag ged
ĠBÃ¼nd nis
AuÃŁer dem
ĠMalays ia
> </
H op
V C
h ier
p ower
u ka
w elle
at ible
ĠM iet
Ġh anging
Ġz one
sch reiber
ĠL iz
Ġan treten
Ġge be
ĠSt uhl
ver anstaltungen
gr id
our se
18 96
ĠNach ruf
Ġar ms
use ppe
ĠNov a
Ġind oor
Ġentsp ringt
Ġpass enden
ĠMay er
ĠAir es
Ġhead s
AR D
ĠRos a
Ġsug gested
Ġaccount ing
Ġassist ant
maler ei
ĠspÃ¤t estens
Ġlisten ing
Ġframe work
Max im
Hein z
Ġster ben
ĠInnov ation
penden ce
ĠBapt ist
M ult
Z E
b rief
f ot
o be
es c
ĠS ap
ĠS Ã©
ĠM ack
ĠD elta
ĠK ies
ra kt
ĠW ire
Ġge ar
Ġfor ever
ag ues
Ġi OS
rie ge
Ġsch olar
Ġ18 12
Sch ul
ĠStud y
Ġange mel
ata ill
Be griff
ĠsÃ¼d liche
Ġbef Ã¼r
ĠUr heber
ĠLondon er
ĠPal ace
Ã¨ ne
ĠBrit en
Ġflo ors
ĠSied lungen
ĠZust Ã¤nd
Ġverbunden en
Ã¶p fer
krit iker
ĠGeheim nis
ĠKab arett
ĠBenedikt iner
ĠplÃ¶tz lich
Ġgefe iert
Ġpow der
ĠShakespe are
1 18
C an
c am
s aison
Ù ħ
he ll
ol ia
ĠL iss
eit h
os te
Ġre ception
eb el
Ġr iding
Ġwh ilst
Ġ18 33
ov ice
her it
ĠAb bau
ĠAus lÃ¤nder
utz er
ors itzen
fin al
Ġ10 5
ober flÃ¤che
ĠTr ink
ott i
Ġra w
Ġno ise
ĠNor der
Ġdesign ing
Or igin
recht lichen
less ly
produ ktionen
Sp iele
ĠLuft waffe
Ġconf igur
ĠSw iss
lÃ¤uf ig
zÃ¼ g
ĠSalz burger
Ġentstanden en
Sport ler
ĠGeist es
Ġauthor ities
Ġcra fts
Ġtit les
ĠVerkauf s
verstÃ¤nd lich
Ġjud ge
Ġsurpr ised
Ġilleg al
ĠPict ures
Ġrout ine
ĠKroat ien
re if
Ġin stitution
Ġf inger
Ġm erk
Ã¼ ÃŁ
st age
Ġl ob
ĠSch Ã¶ne
ah ler
Ġver mittelt
sp rachen
aus en
ĠEr finder
Ġ18 26
ĠLe gal
ĠGemein schafts
ĠSte p
stit el
ĠIs ol
Ġmark iert
ĠRÃ¼ck zug
ĠTechn ische
Ġgut es
Ġabge geben
Ġant icip
Ġcond uct
leben s
osoph ie
Ġ180 4
ĠQual ifikations
Ġport folio
Ġprem ier
Ġrefle ct
Meister schaft
Ġsamm elte
ĠAster oiden
Setz liste
E th
F er
c enter
d an
f onds
u cc
Ġf ried
Ġf emin
Ġm att
ĠB reiten
ĠT reat
ĠL ade
ĠN utzen
Ġl ists
Ġer zeugen
ik ale
ver eine
Ġr ural
ern t
ang aben
iz it
Ġpr ison
amp a
bar es
Ġbeg raben
Ġem b
Ġschw ach
ĠJe de
Ġgem el
Ġschn elle
ĠKind es
Ġdiscuss ed
ĠWirk lichkeit
Ġlik ed
ĠÃ¼b te
ĠEvangel isch
ĠEntscheid ungen
Ġfig ures
Ġsah en
ĠGene hm
Ġmedizin ischen
Ġhighl ight
ĠReprÃ¤sentanten hauses
Ġris ks
M r
ĠS ende
as ters
ge ts
Ġp in
ĠP rad
Ġh art
ĠT auch
ĠG ent
ĠK ein
ĠE rot
ra genden
Ġge habt
Ġr ib
se k
Ġle istungs
Ġsie bten
teil ungs
ĠIm mer
ĠTr io
kl oster
Ġ0 3
ĠJohann a
Ã¤nder ung
ĠWer ks
Ġbr ut
ĠPort land
ĠÃĸsterreich ische
ĠRegel ung
ĠÃ¶ff nen
Ġoffic ially
aser ne
rup ted
Ġwid th
Ġcrit ic
Ġrecogn ition
Ġgesellschaft lichen
Ġvolunte ers
ĠOffiz iere
ĠInstall ation
Ġbevorzug t
ĠEinzugs gebiet
A bst
T wo
b Ã¶
h ielt
r iz
Ġd ot
Ġf otograf
Ġo cean
ĠP au
ĠE sch
om o
ĠR ade
ĠL ipp
Ġk andid
ĠSt ufen
og an
Ã¶r ten
be weg
Ġent decken
Ġup grade
ĠPl atte
ĠZeit ungen
Ġro y
ĠSchw anger
arbeit ungs
Ġsup erv
anc ement
ĠOb ject
Te x
ĠKreis stadt
ĠBra uerei
ĠWar ner
ĠVolks schule
bereich en
Ġzahlreich er
Ġverlie f
ĠUp date
Ġsens itive
Ġposs ibility
ĠEntwick lungen
Ġsem i
ĠBundesverdienstkreuz es
ĠVerbrauch er
Ġcircum stances
L ive
f ile
k os
Î º
nd ung
it iv
Ġm Ã¼sse
ĠB ureau
ĠM ahl
ĠP itts
ĠK rem
ĠK letter
ĠC N
Ġdes ktop
Ġe if
os es
est one
Ġre action
Ġaus gel
Ġne ug
end ant
ack t
ĠIm port
ĠArch ive
Ġdeliver ing
roll ing
gehen den
ĠBud get
ĠHart mann
ĠRestaur ants
ĠZusch auern
Ġcontrib ute
Ġbetre ut
Ġasp ect
ĠJon as
ĠScott ish
ĠGeh irn
ĠBasketball spieler
Bild ung
Bere chnet
ĠTob ias
ĠSier ra
ĠDiÃ¶z ese
Ġconfl ict
Zent imeter
D ruck
L Ã¤ufer
P ubl
g ymnasium
j ing
v gl
å Ĳ
ĠS D
Ġb acter
Ġin ten
ĠD rachen
st ill
Ġh urt
ĠT ree
ĠF K
ĠF uture
ĠK ell
sch ool
ĠC redit
Ġg am
Ġer zeug
ck now
ĠÃ¼ber ras
Ġch ose
ick el
Ġro se
Ġalle ged
mp el
aw are
Ġem bra
Ġbo ot
ĠEd itions
ĠDo es
Ġla ugh
ĠMy then
ĠRechts wissenschaften
Ġindividu ell
emb les
ĠAnge hÃ¶rigen
Ġcharacter istics
ĠLeon hard
ĠTrotz dem
Ġcontinu ing
ĠBundest ag
Ġadministrat ive
Ġbesie gte
1 16
O U
W ein
l ob
re b
Ġf iber
Ġp or
Ġh am
ĠL LC
ĠN ak
Ġge prÃ¼ft
ĠSt ark
Ġst ake
ĠSch ein
Ġver fasst
up t
Ġr ational
Ġpro of
iz on
Ġent s
ĠVor jahr
ĠFl Ã¼ss
Ġber aten
gl Ã¼ck
ĠKon zern
Ġinter active
Ġra us
Ġph ones
ĠGen ossen
ĠHand ballspieler
Ġfl ach
Ġlang uages
ĠRom a
Ġbas ically
ĠKultur en
ĠCont est
Ġcover ing
Ġport ion
Ġwatch ed
Ġversch le
pol izei
ĠRÃ¤ um
Ġgegeben e
Ġintens ive
Ġqualifiz ierten
ĠPor sche
Ġincreas ingly
Ġkulture lle
marsch all
Ġverbess ert
ĠBeweg ungen
Ġschwier ig
ĠSchlagzeug er
ĠVinc ent
ĠSkla ven
ĠHels inki
. [
N orth
O der
l Ã¼sse
Ġf iction
ĠD ry
st Ã¤dt
ro ff
Ġn om
ĠK amm
ĠH Ã¤r
Ġg ym
Ġmit ge
Ġst ren
ill i
ĠAn alysis
ĠEr ziehung
ast y
Ġfe at
ĠEl ite
bl ings
ĠOst fries
ĠEm ma
Ex per
ĠIns zen
Ġdav or
Ġconc ert
Ã¼rz te
ĠGesamt wertung
atÃ¼r lich
ĠPrem ium
Ġinde ed
Ġautomat ic
Kl ein
ĠWeihn achten
Ġdigit ale
ĠBiograph isches
S ingle
s sen
s feld
es er
on ed
ĠS or
Ġf esten
Ġf ence
ĠA chter
ĠM old
ĠD ritte
Ġh insichtlich
ĠT Ã¤tigkeiten
ĠR Ã¼
ber eiten
Ġbe obachten
Ġauf weisen
ĠSch ienen
Ġzu gewiesen
ĠVer anstalt
ĠVer pflicht
ov es
ĠAr mut
Ġsie d
be fehl
ĠGe is
pl ung
18 88
att a
ish i
ĠUm frage
ĠFre ie
Ġra cing
sh ore
ĠBundes land
ĠNord ost
Ġbl ank
Ġteil en
ĠMittel alters
Ġdiffer ences
Ġsk i
gar de
ban ken
Ġentfern en
ĠInn ere
Ð» Ðµ
Ġreason able
sequ ent
Ġdur able
Ġagre ed
ĠNahr ung
Ġexcept ional
Ġexter ior
Ġverbesser te
incl uding
J ournalist
R ud
b rÃ¤
l Ã¶sen
r uppe
v Ã¶gel
w ords
} .<
Ċ ĠĊĠĊ
ge halt
Ġm ature
ĠB ott
st atus
ĠH R
ĠH im
ab ad
ap o
Ġ18 17
Ġ18 22
ĠUn i
ĠDe kor
ĠAb schied
ĠMar ÃŃa
Ġres ort
St unden
sk l
Ġgesch Ã¤tzt
rol ler
Ġverw altet
ĠBere chnung
Ch ina
ĠStaats oberhaupt
Ġprom pt
Ġfac es
ĠFot ografie
erke ley
Ph ys
Ġstay ing
Ġerk annt
Ġcompar ison
ĠSur vey
Ġtrack ing
ĠtÃ¼rk ische
Ġfair ly
ĠBerat ungs
ĠBrook lyn
ĠNAT O
Ġhabilit ierte
B ilder
L ang
P et
V iele
å Ī
Ġd ivision
Ġw estern
Ġm and
st ationen
ĠT Ã¤
ĠW ink
ĠR Ã©
ĠL ost
ach ed
ĠN oten
Ġge gliedert
ĠSch icht
Ġsch eme
Ġwor auf
ĠNe ut
ĠNe ver
ĠY outh
amm ed
sk Ã½
acht al
Sch lag
ĠBundes regierung
Un sere
ĠHaupt mann
Ġze igten
Ġeigen em
Ġdec re
Ġsub s
schn itten
ĠSchul den
ĠSel f
ĠSozial demokrat
Ġexp ansion
sprach igen
ĠViel falt
ĠFÃ¼rst entum
Ġmaint ained
oles ale
Ġphilosoph y
ĠErschein ungs
Ġchamp ions
Ged enk
ĠKÃ¤rn ten
ĠSynag oge
N amen
T M
a it
g ne
m Ã¶
r one
w ende
å ľ
in ental
Ġd ual
ĠS tett
ĠS ometimes
he ft
al itÃ¤t
ĠB auf
ĠD onn
ro th
Ġh ung
ĠT ul
ĠI rak
ĠSt ories
Ġver letz
Ġr ice
ap es
ĠEr ziehungs
ĠBe werb
ĠAr sen
ĠAr min
ĠAr range
rÃ¤ ts
ĠTh ink
ac ular
ĠY oga
ĠMe ilen
In t
fol k
wer de
Ġbut t
Ġgew innt
ĠSte ck
gew Ã¶lbe
Ġgeb rÃ¤uch
Ġmus cle
bo ards
ĠGesch Ã¤fte
oph ys
sche e
ĠCon temporary
Ar ray
hol der
ĠSal on
ĠPaul us
erin tend
Ġstor m
Ġtyp ische
ĠZe ugen
ĠRel ations
ĠnÃ¶rd liche
Ġcap abilities
Ġsever e
Ġconne ctions
Ġtradition elle
ĠCarol ine
hab ilitation
tor hÃ¼ter
friend ly
Ġlauf enden
Ġcelebr ation
A ch
ĠH Ã¤nden
ĠV alen
Ġab gebaut
ov ed
Ġum liegenden
par e
ĠHe irat
ĠBo sch
ific ial
ĠKunst denkmÃ¤ler
ĠGrÃ¼ ne
ĠUr kunden
Ġdet aill
ĠFlug zeuge
ĠhÃ¤uf iger
ĠzÃ¤hl ten
ĠBon us
Stra ÃŁen
aun us
ĠThÃ¼r inger
System atik
ĠSlow en
ĠKandid at
ĠKomment are
ĠRail way
Ġsurpr ising
Ġcir ca
ĠEls ass
ĠNin tendo
ĠEnzykl opÃ¤die
f rom
p rechung
ĠS H
ĠF eb
ĠG A
ĠK enntnis
ĠC ut
Ġg entle
ot ische
ik ern
ĠSt Ã¼tz
ia o
Ġch annels
ens lalom
18 91
iss er
Ġgo ogle
ĠPl at
Ġgew issen
unk er
bl og
Ġdown town
Ġsim pl
ĠKn ie
ĠUr sprÃ¼nglich
ĠWill en
Ġset up
ĠHeil bronn
BC I
ĠFluss es
wal ts
Ġarr ive
sthe ater
Ġmex ikanischer
Tro tz
ĠLuz ern
Ġrene w
G leich
i able
k ing
o ft
Â ¼
Ø ª
Ġs ending
Ġin spe
il ie
ro de
ĠT hal
Ġc arr
ĠH IV
ĠW esen
ĠC L
ĠC abin
ist oire
aus s
Ġsp ots
Ġman agers
Ġen han
auf ent
18 89
Ġtra ditions
ĠPh ill
ĠGes am
Ġrec re
ĠTra il
ious ly
ĠGl en
ĠDurch schnitt
the orie
Ch arts
ĠRed aktion
ĠAuss icht
Ġobject ive
fo ot
ĠFil ter
osp itals
ĠPo et
Ġnie mals
Ġsle e
Ġstammen de
Eis hockey
Ġprior ity
Ġfight ing
Ġsuffer ing
ĠSwe et
ĠMitbe grÃ¼nder
schra uber
ĠSchr Ã¶der
ĠausdrÃ¼ck lich
C amp
W ol
s ysteme
in as
Ġd auert
Ġt or
ar isches
as ted
us er
ĠB rÃ¼n
ĠB akter
ĠD y
Ġp ix
ĠP for
Ġh alt
ĠT iger
ĠF ix
ĠF lieger
ĠG utsch
ĠH unde
ĠH obby
ĠW ladimir
ĠR Ã¼st
ĠN ou
ĠSt immung
ies sen
ĠSch alt
ĠAn halt
Ġen vironments
18 86
ĠAus rÃ¼stung
los er
mit te
ĠMus lim
ser b
pf el
ĠKÃ¶nig lichen
Ġmo od
ĠHaus halt
mark en
ĠIde al
Ġlov ing
ĠProf i
ĠEv olution
ĠÄ Ĳ
ĠLig as
ĠDigital isat
Ġdisplay ed
Ġsitu ated
ĠÐ½ Ð°
ĠStatt dessen
B ass
G reat
S al
S Ã¶hne
T her
h Ã¶ch
w il
Ġs itzt
Ġb omb
Ġin itiative
Ġf eind
ĠB SG
ra ce
ĠJ ochen
ver ordnung
ĠAn ordnung
ĠAn kunft
Ã¼ber greif
ok omot
ĠÃ¼ber arbeitete
ĠGe fÃ¤
pe z
ĠSie mens
use el
Ġcont est
sk o
irt schaf
Ġvers ions
ĠMed al
Deutsch es
ĠKunst historiker
Ġgu idelines
ĠOst see
ĠOlymp ia
Ġredu cing
urf ten
ĠVerwaltungs sitz
Ġimp ossible
Ġpurch asing
ĠÃ¤hn lichen
ĠAk k
schei be
Ġintrodu ce
ĠÄ °
ĠMand at
Ġconven ience
ĠAusgra bungen
ArchÃ¤ ologischer
ĠangekÃ¼nd igt
T est
d re
Ù Ħ
å ±
es el
Ġs inger
Ġw ann
ĠB ark
Ġp a
de aux
am ine
ĠF at
ĠG S
em ester
Ġdes ired
ĠSt o
ĠO kt
ab on
ver hÃ¤ltnisse
ste uerung
Ġle ague
Ġsch ein
Ã¶r er
ĠLe v
18 95
18 82
ĠNach weis
ĠWelt rangl
ĠgroÃŁ em
gra duate
uk le
Ġele gan
Ġinc ident
ĠDar in
ĠUr spr
sc reen
Ġfeel ings
ĠBro t
iat rie
ĠMot oren
All gemein
Ð» ÑĮ
Hand ball
Ġinteress iert
Ġdest roy
lap pen
Ġprefer red
ĠStell vertreter
ĠMisch ung
ĠApplic ation
ĠInternets eite
ĠvorÃ¼ber gehend
Leichtathlet ik
M ess
e z
Ġb ron
sch atz
ĠH ous
ĠR um
ĠR au
ĠR ange
Ġl ip
Ġst ab
Ġnach folgenden
rÃ¤ g
ĠPro jekten
18 79
Ġar men
rat ch
St il
ĠAd miral
Ġmus lim
ĠQu ad
We imar
weil en
Ġdevelop er
Ġcal endar
Ġgar dens
ĠErst ligisten
fel den
ĠgrÃ¼ nen
So ftware
ĠCas par
bÃ¼ chern
ĠZÃ¼r cher
Ġwonder ing
zwe ig
Ġrestaur iert
Ġrepla ced
ĠÃ¶k onom
Ġausger Ã¼stet
instr ument
ĠSpekt rum
G ood
g us
m auern
p c
p ted
r ud
Ġt alented
Ġf ern
ĠP on
Ġg riff
Ġbe half
Ġer a
ĠJ i
Ġe c
Ġab schloss
ĠPro jekts
ĠMit tw
oc ated
ĠAb bey
Ġres istance
rif fen
ause e
Ġhand eln
Ġshe d
Ġgu ard
ĠCl ar
Ġbef asst
ĠComp an
ordin ary
Ġengine er
Ġsyn thet
ĠFlo or
verstÃ¤nd nis
ĠSpann ung
ĠProte ction
taus end
ĠVog t
ĠClaud ia
ĠCommon wealth
Sta ats
FuÃŁ noten
F rance
G el
H K
H igh
j er
u gel
Ġa er
on omen
Ġs tem
Ġs ymp
ĠS R
Ġm un
ĠE V
ut a
et al
ĠR ank
Ġto oth
Ġbe grÃ¼ndete
ĠN ut
Ġst amp
ĠPro tag
ĠNe uf
ĠAuf fassung
ĠVor gehen
amil y
vel and
ĠGra phen
Ġthem es
weil ig
Ġeng aged
Ġjeweil ige
Ġgelang t
Ġmoder ner
Ġrespons es
Ġslow ly
ĠZweit ligisten
ĠInner halb
ĠLandtags wahl
Ġguarante ed
ĠEconom ic
Ġstrug gle
K or
R h
S zene
Â ·
ch at
ch ild
Ġb ild
und ing
Ġc enters
ĠG ute
ra cy
ĠH ain
ĠH unter
ĠC ancer
Ġan gewand
ĠSt ifts
Ġre ine
Ġst uck
Ġse ats
ĠBe y
ish es
Ġnew est
Sch wer
Geb iet
ĠEnt deckung
Ġmake up
ĠSc reen
ĠIs abel
leg ungen
laub e
ID S
ĠLang uage
ĠMot ive
ĠEhren mitglied
ĠKle idung
Ġdro pped
Ġwohn te
Ġsuggest ions
Ġunmittelbar er
ĠSus anne
inde x
ĠEas y
ĠBeaut y
ĠBulgar ien
Ġdokument iert
Ġbekleide te
B und
N ur
b ane
i ast
m all
z ure
Î ·
is dom
ro g
ĠF ulda
ĠG ate
ra uchs
ĠW W
ĠW arm
ĠL an
ĠC atherine
ĠV ia
ik ers
op el
og o
Ġor al
Ġor ganisation
rÃ¼ der
ogra fen
arbeit s
Ġstud ying
ĠFre quenz
Ġmo unted
Ġzusammen ge
Be lege
ĠPaul i
Ġadd s
Ġâ ĪĴ
Ġbro ke
amb a
Ġair craft
ĠDreh arbeiten
ĠEigen schaft
Ġinstall iert
ĠLuc as
Ġregul Ã¤ren
ĠKult us
Ġdigit alen
ĠTaschen buch
Ġentit led
D el
S outh
T O
e hemal
f ire
g iving
m aus
Ġt Ã¶d
Ġs ight
Ġs yr
ĠS ind
ĠS ave
ĠB innen
ing ung
ĠH ur
ĠR s
ĠL uck
Ġl adies
ĠV all
kt ors
aus stellungen
ĠEr ben
ĠSp reng
ard in
ĠAr te
ĠCh ap
gend a
Ġdr iven
Ġgra u
Ġbr ush
ĠRu ine
Ġcert ification
Ð¾Ð ³
Ġess ays
Ġdeal ers
ĠPhilipp inen
ĠUntersuch ungs
ĠvollstÃ¤nd ige
Ġintegr ation
ĠHu ber
ĠWin ters
ĠWahr scheinlichkeit
ĠGlo cke
ĠKenn edy
ĠRay mond
ĠContin ental
ĠSab ine
Ġnorweg ischer
ĠKomposition en
ĠKanz el
Ġfundament al
Ġamen ities
C la
P G
r ible
is ierungs
ro tt
Ġh es
ĠT et
ut age
ĠN ina
Ġk unst
ĠSt op
ad os
Ġauf nehmen
Ġauf gest
ay e
ste ins
ĠGe fÃ¼
18 78
18 80
ĠAus sehen
Ġad op
ikan ten
Ġsome where
Ġind ischen
enk te
Ġact or
Ġact ing
ĠProdu ct
ĠKn ight
mar ine
ĠSchrif ts
Ã¤us chen
Ġpass ende
reib ungen
FuÃŁball nationalspieler
rÃ¤n ken
ES S
Ġcheck ed
Ġredu ction
Ġcontrol led
ĠBaum eister
schiff s
Ġarr ival
Ġgeschlossen en
Ġplatform s
Ġlif etime
ĠOrient ierung
Ġlay out
ĠVoraus setzung
mot oren
Ġbess eren
ĠZul assung
ĠRepar atur
Hers teller
ĠHinz u
ĠBuen os
I r
h Ã¤nge
m aster
t ing
Ġd oppel
ĠS iz
ĠP ause
Ġz entral
em at
Ġer lern
ik s
Ġge gangen
esch ool
hn er
Ġsp an
ĠBe ge
be cker
Ġvor n
18 94
olog ists
ĠPl Ã¤tzen
ish ment
sh afen
gew achsen
ĠMon ster
Ġger ufen
ĠLandes regierung
ĠÂ °
ĠMitglied s
En glisch
ĠCor porate
AR T
Ġstamm ten
Ġnie mand
ĠKrit erien
ĠRob inson
Ġaddress es
ĠjÃ¼n gere
Ġexcl us
Ġelektr ischen
ĠMyth ologie
Ġsatisf ied
ĠKent ucky
Ġmort gage
ĠBesonder heit
ĠGreif swald
ĠAuÃŁ ens
Entfern t
B ec
x e
Ï Ĥ
Ġa cknow
Ã¤ ule
ĠG ig
ĠE cht
Ġg aming
ĠN iveau
Ġe gal
ĠSt orm
tel la
ĠIn vent
ag net
Ġde posit
be zirke
ĠVor haben
Ġgen Ã¼
ĠGer a
wohn ungen
halt ungs
Ġcons erv
Pro zess
ER S
Ġtrans mission
wei he
ĠJo in
vert retung
AN D
ĠBor is
ĠÃ¤ gypt
ĠBÃ¶ hm
Ġmatch ing
ĠSpr ings
ĠerhÃ¶ hen
Ġmer ch
ĠVerteid iger
polit iker
ĠCa es
dehn ung
spann ung
Ġbetroffen en
Ġkompon ierte
Ġlicens ed
U K
b om
d ig
ĠS ven
ĠS QL
ĠM s
ĠG uer
ent urm
ĠH MS
em m
hr ten
ĠL on
ĠC and
and ro
ĠJ ama
ann ers
Ġr ar
Ġsp ir
Ġseiner zeit
min ute
off er
Ġcl ubs
ĠFe atures
ĠRom ans
Te chnik
Ġprom otion
ĠBro thers
ĠSol ar
ĠBed ien
Ġconsider ation
ĠVier er
Ġpack ages
ĠSant iago
Ġdivers ity
ĠPil ger
ĠOrgan ist
Ġselten er
ĠVis it
Ġabsol ut
Ġassoci ation
Ġerhe bt
Ġmaint aining
Ġcaus ing
Ã©n Ã©
Comp uter
ĠAP I
angeb ote
Ġevalu ation
Ġscen es
fÃ¼ll ung
Ġunterr ichtet
Russ land
ĠKohlen stoff
Ġsam ples
Alex ander
Ġdaz uge
rev olution
Ġjun ior
ĠGetre ide
Ġs olle
il ang
ĠL ars
ĠC hel
ĠN er
ct ual
ben s
Ġsp iegel
ĠDe an
enn ungs
dem ar
pr es
att oo
ĠReg isse
ors es
ĠHaupt bahnhof
Ġdr ama
app ed
ĠVers ammlung
Ġperson en
ĠChe fredakteur
ĠBuch en
lei h
Ġmov es
Ġpriv ile
Ġbezeichnet en
Ġ180 7
ĠHeil ig
Mar ie
ĠLog istik
ĠPil oten
Ġinform ieren
Ġkathol ischer
Ġfunction ality
Ġsort iert
bil den
ĠKÃ¤ fer
Ġsamm eln
astrop he
Ġdistin ct
ĠErkrank ung
Ġberu ht
C ons
D om
W issenschaft
i our
Ġd urften
on ing
ĠS ED
ĠB eine
ut o
ĠH aving
ĠN BA
ĠN obel
Ġan gle
ĠSch ieds
Ġun known
ass o
ĠNe ed
ons o
com mer
ĠBo ots
Ġcl imb
ĠMon th
Ġcons istent
ĠGegen stand
ĠJo int
ĠBro ck
Ġ180 5
ĠWinter spielen
ĠWith out
ĠSl alom
kon zept
Ġconf ig
Ġrequire ment
Ġcolor ing
ĠGi useppe
ĠRem ote
Sport liche
Ġgre y
ĠWass ert
schlÃ¤ gen
Ġkanad ische
ĠdÃ¤n ische
ĠdÃ¤n ischer
Ġverschw unden
Ġpassion ate
has Access
Ġbefind lichen
Ġverblieben en
Ġliefer te
C olle
v re
w Ã¤
Ġ \
ar ent
at hlon
Ġh ielten
Ġto ys
Ġg iant
Ġdes wegen
ĠO ft
eb o
Ġyo ga
Ġver legte
Ġse ctions
Ġse asons
ĠEin blick
Ġent rance
ĠBl as
Ġshe ll
Ġcar pet
Ġcommun icate
ĠDen ver
Ġzwe if
Ġstat istics
Ġliter ally
ĠÃ¼b licherweise
Ġrelig ion
ĠEvery thing
Don ald
ĠWes er
Ġlit au
Ġvolunte er
Ġshap ed
ĠUt ah
ĠCreat ive
andem ie
N ein
P L
S onder
c io
h d
j un
Ġf ikt
ĠB Ã¤r
ĠM Ã¼l
Ġp ics
Ġp Node
ĠP ink
Ġein heim
ĠF urniture
ĠG Ã¤rten
ĠK Ã¤mpfe
sch lagen
ĠW onder
um ann
Ġg ang
Ġre ward
ĠSch uppen
ĠSch metter
Ġver Ã¤nder
ĠIn stru
sp eicher
ap ed
ĠAn ger
Ġj ahr
Ġyour s
ĠVor kommen
Ã© bec
ans k
ĠFl ur
Ġwhen ever
ĠPf und
Ġben annten
mar ks
ĠComp lete
ĠLei b
ĠPla ces
fre unde
Ġfocus ing
deck ten
ĠĠĠĠĠĠĠĠ ĠĠĠĠĠĠĠĠ
kap ital
ĠHan au
ĠElement en
ĠKirch spiel
Ġcontrib ution
ĠAff airs
Ġsus p
Theater schauspieler
Ġschle chten
ĠMÃ¶n chen
Che ck
ĠInt rodu
ĠWorks hop
Ġerl itt
ĠGU I
Ġexpos ure
ĠAbhÃ¤ng igkeit
Ġelig ible
C arl
D B
L it
M I
d oc
w achsen
z oll
Ġb ars
ĠB erkeley
ĠD Ã¼
ĠD Ã¼n
Ġc oc
ĠH l
ĠL om
ĠL enk
ist isches
ĠN it
Ġl aser
Ġer setzen
ers en
ik alen
ĠO le
ab lo
ĠU A
op fer
ĠAn meldung
ĠEr lebnis
ste d
Ġsp oke
fl Ã¼ge
ĠPl ug
ĠCo ffe
vel le
ĠPh ant
res ted
Ġvers uchten
Ġtr ips
ift y
ĠWh ich
Ġspe akers
olv ing
ĠPal ais
sicht lich
ĠKur fÃ¼rsten
ĠAg entur
stÃ¼ck en
ĠMos k
ĠZur Ã¼ck
ĠHerren haus
ĠverlÃ¤ sst
ĠNÃ¼rn berger
ĠLeon ard
iÃ¨ res
Pre istrÃ¤ger
ĠgefÃ¤hr det
Ġlandwirtschaft lichen
Ġromant ic
Brand enburg
Ġpromin ent
% ,
a endert
b eben
f ig
g Ã¼nst
k Ã¼hl
k asten
k Ã¤mpfe
p he
v all
Ġt ags
Ġt rugen
un es
ĠB ased
il ians
Ġein fluss
am ar
ĠH ash
ĠL ahn
ist urnier
ĠO w
ĠAn reg
Ġsch Ã¤tz
ĠMe teor
Ġdeutsch es
Ġ7 50
St atistik
ĠHand eln
Ġcl ar
Ġdel ight
Ġdel ivers
23 4
Ġchild hood
ãģ «
ĠRec ord
ĠStat ue
OR E
ĠStaat lichen
eint rÃ¤cht
ĠGener ationen
Ġkom ment
Ġapart ments
spro gramm
Ġstreng then
Ġmedizin ische
Bay ern
ĠAuthor ity
Ġnationalsozial istischen
ĠKlagen furt
ĠSof ia
S ong
z iert
it ime
Ġm ad
ĠM oss
ĠK ast
ĠE gg
sch ers
sch reibung
ĠL oh
ĠC V
ĠC ort
Ġan th
Ġr ising
Ġch er
pl o
ĠSe ction
Ġen de
ĠBer eit
inz eit
Ġ17 90
ĠUm stÃ¤nden
ĠJul ian
ĠCar ib
ĠGroÃŁ vater
Ġact ress
ĠX V
ĠProdu ktionen
ĠBar ry
ĠFahr zeugen
ĠSchl Ã¶sser
Ġeinfach er
Ġint ent
Ġ180 2
spe zif
Ġir re
ĠRein hold
Ġstay ed
ĠKra kau
ĠAnge la
Ġther ap
Ġincreas es
Ġdauer haft
Ġverurs acht
ĠNam ib
ĠDunk el
Ġbegeister t
ĠAntwer pen
J Ã¼rgen
g Ã¼ter
m essen
w ang
w alk
Ġb ands
ĠB irmingham
ĠF aktoren
ĠR ow
ĠL utz
ĠC onstruction
den burg
ĠO cc
sp Ã¤ter
ran ts
ĠTh ai
Ã¤nd iger
Ġout fit
ton a
ĠTr i
bild ner
Pro fess
ĠEd mund
Ġdra wn
Ġans telle
Ġbede utete
ĠLu ke
ĠAnge hÃ¶rige
kom Ã¶die
ĠAch telfinale
wÃ¼r de
Ġapply ing
Ġdepend s
DE F
Ġoccur red
ĠVerletz ungen
ĠPassag ier
ĠCott bus
ĠSchu bert
Ġatten ding
ĠWeih bischof
W ald
f ted
o ured
u ke
ch rist
Ġw esentlichen
ĠS ten
ĠS ession
re ff
ĠA BC
ĠB eing
ig ne
ĠK az
ĠK iew
ĠE X
th at
Ġpro ceed
ĠBe zeichnungen
tell ten
ĠVor sprung
Ge ographische
Ġdr inks
Ġviel mehr
istr ikt
Ġinv ite
leg ation
Or dens
other apie
ĠAss embly
ĠTo ul
Ðµ ÑĢ
ĠStr Ã¶m
ĠMad ison
ĠKor ps
ĠVis ual
system s
Art ikel
ĠEreign is
tor wart
ĠChallen ger
ĠLuk as
ĠTho ugh
ĠVikt or
Ġgesund heit
ĠNAS A
Ġweap ons
Ġworkshe ets
Lei p
E st
G S
H E
S u
T able
U P
W inter
b els
m achen
w appen
z essen
Ġt olle
Ġw Ã¶ch
Ġb elt
as tern
Ġf ranch
ĠB obby
ĠT ang
ĠT reib
ann on
Ġst ieÃŁ
eb y
ĠRe eder
Ġpro spect
Ġle iden
ks hire
Ġch art
Die ter
Ġman che
18 81
co le
ĠGeb irge
Ġger aten
mÃ¤ h
ĠBild schirm
Ġ24 0
fass ade
zentr ale
ĠAp pl
ifiz ierte
Ġgem essen
ĠUl tra
Ġvorhand ene
pre ise
ĠCons erv
ĠSem ester
ĠPhot os
Ġzeich nete
Ġforder t
Ġsav ed
Johann es
ĠVerletz ung
grÃ¤ ber
Ġschott ischen
ĠEinkauf s
Ġrapid ly
ĠHamp shire
Ġoffens ichtlich
M or
N O
W C
h essen
h Ã¼gel
m ay
er gebnisse
in ischer
ĠB org
st unden
Ġp ets
Ġp uzz
ĠP yram
Ġn ad
ĠF ather
ĠK um
sch Ã¤den
ĠL ane
Ġbe legen
ĠJ orge
uch ter
Ġst range
ill as
Ġzw anzig
ĠSe an
ĠSe ven
ĠSe chs
18 85
Ġcomp osition
Ġ17 89
mit gliedern
Ġlie ber
haus er
Ã¤ch ern
Ġsc ored
ĠÃľber tragung
For sch
Ġphot ographer
Ġbre aking
ativ ely
verb ot
Ġmet all
ĠBesitz ungen
Ġworks hops
ĠZwe ier
ĠFert igung
Ġvict ims
ĠSau di
ĠKÃ¶n ige
Ġprotest ant
Verwalt ungs
Ġthre aten
Ġphen omen
N un
s an
Ġd raft
or ted
ĠS ais
he ast
Ġb ibl
Ġm ob
ĠA part
ĠP ep
Ġh aus
ĠE i
sch Ã¼tze
ĠI hm
ĠH Ã¤ndler
ĠW eing
Ġl aden
ĠSt rat
Ġre lief
ĠSp eich
ub les
ĠFl Ã¼sse
ĠKar in
Ġje welry
Ġac ts
ĠMÃ¼n z
ief ern
ĠX I
ĠÐ ±
Ġed it
Ġappro val
He im
ĠGraf iker
do ors
ifiz ieren
lÃ¤uf erin
ĠFund platz
Ġauthor ity
ĠCap it
Ġbox es
ĠerhÃ¶ hte
ĠprÃ¤sent ieren
Ġerf uhr
Ġgere gelt
Min ister
Ġhop es
Ġappl iances
ĠWay ne
Ġegg s
Relig ion
ĠErober ung
? âĢľ
B R
S ign
V is
a dern
g ouverneur
Ġt oler
Ġin telligent
ĠD ialekt
Ġp ad
Ġn ob
sch Ã¶n
ĠC amer
ĠO P
Ġst ages
ĠSch aum
aus chen
ĠAn sonsten
Ġpro ve
Ġso fa
Ġ18 24
ĠÃ¼ber s
ian i
Ġcon cepts
Ġro ads
Ġrec ip
ĠGer ade
alen a
Ġtr usted
Ġacc ord
Ġmo lec
ĠQu ick
ĠHaus halte
ĠRes ort
utt a
Ġ% ,
Ðµ ÑĤ
ãģ Ĺ
Ġabge halten
ĠJust in
Ġgirl friend
Ġamer ican
ĠChamp ion
Ġprepar ing
Ġpercent age
ronom ie
ĠSchwar ze
ĠAdels geschlecht
ĠVerband es
grÃ¶ÃŁ te
Ġdrink ing
ĠDiffer enz
russ isch
ĠIra q
C ity
K ommand
l Ã¼ck
l uther
w ider
Ã ¬
in formationen
ĠS aw
Ã¤ ub
Ġo ven
ĠP Ã¤dagog
Ġn uclear
Ġ( âĢľ
ĠH au
et ooth
um pe
ĠC rew
Ġbe wertet
eb ack
ah m
ĠRe cher
Ġse am
Ġ18 27
Ġvor ange
ĠPl anning
Ġ17 93
pro vinz
Ġke ys
reit et
Ġhin weg
Ġexper imen
Ġsub jects
Ġrequ ested
ĠBay reuth
45 3
ĠKont roll
ĠTag s
umb ing
ĠGar nis
mark et
Ġ180 1
Ġcheck ing
Ġexpl oring
ĠHall owe
ĠMiss ions
kra ut
Ġparticip ation
Ã¤cht nis
Ehemal iger
Ġemp fehlen
Ġsuggest s
ĠrÃ¼ck te
Ġconsum ption
Ġobserv ed
ĠLiber al
ĠKreu zer
ĠJugoslaw ien
ĠschlÃ¤ gt
ĠPrinc eton
V org
e u
l ernen
s eiten
ch tern
Ġin halt
ĠA ve
ĠB rom
ĠP it
ĠG ive
ĠG row
Ġal ive
Ġk lin
iv ier
Ġim pression
00 1
ib a
ĠBe grÃ¼ndung
ĠAl berto
ĠÃ¼ber nahmen
ĠPro gr
Ġvor geschlagen
ĠAb u
18 74
Ġsh ut
Ġsh ots
ĠBau werke
ĠHand y
ĠHo hl
ĠMusik pÃ¤dagoge
Ġmark ed
Ġpo unds
link plain
recht liche
ĠGegen stÃ¤nde
ĠHistor ical
Gr uppen
Ġung arischer
bor ough
Ġapproach es
ĠjÃ¤hr liche
person en
ĠØ ¨
Ġpred ict
bil dern
Ġtschech ischer
Ġpleas ant
Ġkeiner lei
Bad minton
ĠTrieb wagen
Ġcompl iance
ĠJenn ifer
ĠVertra uen
ĠCommer cial
ĠPerspekt ive
okomot iven
ĠCoffe a
A ktiv
B ro
B urg
B ras
C ard
G rand
H or
V G
h ot
j on
r ice
v illa
Ð ¶
Ġt ill
us el
ĠF utter
ĠK anten
ut in
ĠI L
ĠR umpf
ic ide
ĠC ele
la imed
ĠZ ar
ce ived
Ġun regel
sp f
ĠBe ver
ho le
Ġwor n
ĠAus gleich
ĠWe iss
ret to
Ġgen auer
ĠMa ul
An other
ym bol
ĠOber landes
Ã¡ l
ĠSÃ¼d seite
Ġeinz iger
ĠWohn zimmer
Ġentstand ene
Ġhal ben
ilder t
gar ter
Ġevent uell
zess ion
ĠAtt ent
ĠCle veland
ĠSommers pielen
verwalt ungs
ĠVerl uste
ĠBil den
ĠGottes dienst
But ton
Ġqualifiz ieren
ĠschÃ¶n sten
ĠFlo h
Ġaustral ischer
Ġfab ulous
Ins gesamt
ĠCham ber
Ġfla vor
ynd rom
ĠBotan iker
ĠLaus anne
ĠErzbist um
s up
y st
Ġ ï¿½
in stall
in haber
an ter
un ivers
de i
ĠH umboldt
ĠR ams
ĠR TL
Ġer werben
ĠO ra
ad ows
ĠZ ag
tell ite
ian ische
ac ed
Ã¼hr t
18 83
ster y
tra cht
Ã© m
Ġgew alt
Ġgew Ã¤hlten
Ġber ichten
Ġany more
Ġtr igger
ĠNational en
Ġsign ature
ĠStaats bÃ¼rger
ĠTor schÃ¼tzen
Ġview ing
Ġabge legt
Ġbelie ves
ĠGott lieb
Ġlist ings
ĠTele f
Ġvorher igen
spl an
ĠModer nis
ĠGolden en
Ġvergleich sweise
ĠOrganis ations
stÃ¤d ter
Ġunus ual
B ud
j ournalist
z elt
Ġa esthet
an che
Ġb old
Ġb oss
Ġb ranch
Ġf liegen
el ung
ĠM ick
Ġp iano
ion i
ĠP am
Ġh ate
om ed
ra ck
ĠL ess
ĠC el
ĠC row
ĠU g
Ġun ex
ip her
iz ierten
Ġch a
Ġum gest
erk irche
pr inzip
ĠGr ube
iger ung
Ġbet ont
Ġinter act
Ġra ted
Ġgeb raucht
bo le
ĠEd gar
ĠEd die
Ġpubl iziert
ĠFin ance
Ein ige
Ġgemein nÃ¼tz
Ġfound er
Ġvoll kommen
produ kt
ĠDis play
chten stein
ĠSen ate
ĠIhr es
ĠPass au
ĠEmp fangs
Ġtax es
ĠEnts te
ĠDisk uss
ĠermÃ¶glich te
ĠRepubl ican
ĠConc ert
Gew Ã¤sser
Ġdish es
ĠOffen bach
ĠHud son
ĠCir cle
A ct
G ER
H ey
K anada
R ot
n ummern
s or
Ļ Ĥ
ĠS ource
ĠS owohl
ĠD IN
st ore
ing st
ĠT uch
ĠH ins
ĠN acional
Ġde kor
schaf fung
Ġ18 19
rÃ¤ te
urg ical
geb irg
ĠMar ina
Ġcont aining
ĠKar en
ĠBr ight
Mit glieder
ĠHoch schulen
ĠPhil ippe
Ġrel ation
ĠBest immungen
ĠTechn ical
vÃ¶lker ung
rech ten
Ber uf
Ġopp osite
ĠSchool s
ĠMil an
Ġnatur ally
ĠPubl izist
ĠBor deaux
ĠDistr ib
ĠBud dh
ĠEst land
ĠbestÃ¤t igte
Ġnotwend igen
hyth mus
Ġmensch liche
Ġscient ists
ĠPfar re
ĠDrag on
ĠKÃ¶r pers
endor ff
ĠWitten berg
ĠMittw och
ĠHallowe en
H ave
P o
S oll
b id
h oven
j ap
l ohn
t rans
in ations
ĠM ic
ter y
ra ys
and ra
ik ameister
ĠSt urz
ĠSch ar
Ġzu geschrieben
ze k
ĠTe e
ĠSe es
che f
ĠAb fahrt
ĠDies en
anc a
Ġperson s
ĠNieder schlag
ograf ien
rib e
ĠOlymp iasieger
Ġant rat
Sh op
Ġamong st
zwe if
Â» ,
ĠAre al
Ġtw enty
Ġexam ine
Ġmechan ical
Ġinstru ction
Ġton ight
ĠLeiden schaft
Fol gende
Ġsau ce
verÃ¶ffentlich ung
Ġverabschie det
ĠErmitt lungen
ĠOberg eschoss
ĠÃ¼berrasch end
) }
A ber
g ia
j ob
k Ã¶r
p rach
r idge
s achsen
u ous
w Ã¶rter
Ġt u
Ġs auber
Ġf Ã¶rder
ĠD eine
Ġp itch
Ġp izza
ĠF OR
ĠG Ã¤
ĠK ante
Ġz iv
ĠC arbon
Ġbe zog
sp ace
ap pro
qu ote
ĠThe at
Ġ18 11
ĠEin tritt
Ġman ip
Ġbes tellen
ĠSchw ert
tem pel
leich en
Ġcont ained
Ġ10 2
ĠMus l
werk statt
ĠNor weg
Un ser
Ġbu ck
gemein schaften
ĠSÃ¼d tirol
Ġeinz iges
Ġteil t
ĠVers orgungs
ĠReich stags
Ġtechn isch
Ġbelie ved
ĠAmt es
Ġref resh
ĠPriv ile
Mar ia
Ġlow est
Ġorganis ations
Ġklass ischer
ãĥ ¼
nehm lich
ĠBil anz
ĠAns ichten
ĠChampions hips
ĠCho ice
Ġattack s
ĠWiderstand skÃ¤mpfer
ĠMig uel
ĠGeschle chter
imens ional
beteil igung
P olen
g ier
j as
n Ã¤
p rÃ¼f
v ity
w ellen
en ge
Ġd ritter
Ġa ged
ur l
Ã¼ bt
Ġo verse
ĠD anzig
ro gen
âĢ ²
Ġz ero
ĠW ard
Ġg ate
ĠJ Ã¤nner
ah me
ver antwort
Ġver mein
ag anda
tell ern
ĠÃ¼ber zeugt
Ġch ances
.. ...
ĠTh om
ĠCh apter
Ġco at
18 84
Ġhas n
wer fer
ĠZeit ungs
ĠAd vanced
ĠEx am
fr iger
ĠAut h
Ġacc eler
Ġevery where
Ġverb lieb
ĠReich sk
ĠBi ologie
ĠAg nes
Ġcontrol s
best immung
Ġober e
mo or
brÃ¼ ck
ĠAuftrag s
ĠFund ament
ĠLouis iana
ĠSteuer ung
Ġdress es
lim ited
Bundes staat
ĠDebÃ¼t album
ĠRies enslalom
Ġcry pt
ĠFlÃ¼cht linge
-------- --------
ĠSatell iten
Ġvorder en
Ġinvent ory
ĠSamt gemeinde
ĠGenehm igung
. âĢĻ
L ondon
V O
W ettbewerb
f aktor
n atur
p y
á ¸
er folg
en berg
Ġb ol
Ġb ird
ĠA pos
Ġv el
ĠF P
ĠF em
ĠF ish
ĠF alk
ĠE ffekt
ic ular
iv o
ad in
ĠSch iffen
Ġver bleiben
we hren
ze ch
ungs weise
ĠTh ings
ĠGes and
10 1
wick elt
Ġgesch ah
cy cle
Le ague
Ġbef asste
ĠCol lins
ĠWar um
Ġperfe kte
ĠSpe z
ĠWol ff
Ġregard less
sex amen
ĠRod rig
national mannschaft
Ġmount ains
Ġausges prochen
Kan al
ĠDiam ond
Einwohner entwicklung
ĠUd SSR
Lex ikon
ĠUrspr ungs
C onne
D M
G L
O k
s ort
å į
it ischen
ĠS umm
ĠS MS
Ġf its
ĠF ashion
ĠL arge
Ġg ig
ĠN il
Ġl aid
ul er
Ġe ignet
ĠSt rip
uch tet
Ġy e
ben ennung
sp an
sp rechen
ĠRe z
Ġas ide
ant ie
iz ismus
Ã¤n gel
ĠAuf stellung
Ġpr est
Ġres idence
use hen
mit ten
ĠFran co
Ġany way
ĠSh ip
Ġsc ores
ĠPlatz ierung
ĠNational rat
ĠBet rag
ĠVol umen
Ġdire ctions
ĠLebens jahr
Ġ= >
ĠHier zu
Person en
Ġgem Ã¼t
Ġgener ated
ĠOrtsteil en
ĠKÃ¶nigreich s
Ġerk annte
Ġchrist ian
Ġdiv or
ĠEhr endoktor
Ġgere cht
Ġnorth ern
ĠmÃ¤nn liche
ĠChair man
ĠDarstell er
ĠDak ota
Ġkonzip iert
imaur er
8 95
K ategorie
P oint
b at
h ill
n ia
ie in
Ġf ru
ĠP un
ĠP aw
ĠK ill
ĠE w
sch ar
ĠH ale
ĠL ese
ic um
ĠN as
ul ierung
Ġim pl
Ġre konstru
aus wahl
ste il
Ġex haus
Ġex posed
ord nungen
ĠGr Ã¶n
Ã¶ff nungs
Ġseit ens
ĠHaupt rollen
schl iess
ĠKunst geschichte
Pro vinz
ĠRom ane
Ġpra yer
ĠOrts name
ĠAir lines
Ġhead ing
Ġcreat ivity
Ġenter ing
pre uÃŁ
Ġvan ity
ĠBu ild
Ġwalk ed
Ġattra ct
ĠSter e
Ġrepresent ative
Ã¤um t
rÃ¤nk ungen
struktur en
wechs eln
ĠDub ai
Ġgolden en
ĠIndivid ual
Ġacqu ired
[...]
