#version: 0.2 - Trained by `huggingface/tokenizers`
e r
Ġ Ġ
e n
c h
i n
Ġ d
ĠĠ ĠĠ
i e
u n
s t
a n
e i
o n
e s
Ġ S
a l
t e
s ch
a r
e in
a u
g e
o r
un d
u r
Ã ¼
a t
Ġd er
i t
Ġ w
Ġ s
e l
i ch
Ã ¤
Ġ und
Ġ v
Ġ A
Ġ B
e t
a s
Ġ b
Ġd ie
un g
Ġ i
Ġ D
Ġ 1
Ġ M
Ġ in
e m
Ġ ein
Ġ (
a m
h r
ĠĠĠĠ ĠĠĠĠ
Ġ m
Ġ z
Ġ n
Ġ K
ĠĠ Ġ
Ġ G
d e
o l
Ġ F
t en
Ġ E
Ġ P
t er
Ġ f
Ġ au
l e
g en
i s
t i
d er
Ġ H
Ġ T
Ġ W
d en
Ã ¶
i sch
Ġ L
Ġ R
t r
a ch
i l
b er
â Ģ
u m
Ġ er
Ġ I
u s
o m
r e
an d
Ġv on
Ġ V
c k
Ġ1 9
Ġ 2
Ġ h
r o
u t
Ġ N
l ich
a b
Ġ J
i on
i er
i g
Ġd en
s e
Ã¼ r
i r
Ġ C
Ġ k
Ċ ĠĠĠĠĠĠĠĠ
en t
Ġ ge
ei t
ĠĠĠĠ ĠĠĠ
Ġd es
Ġm it
in g
Ġi m
) ;
Ġ an
Ġ g
Ġ al
Ã Ł
Ġd as
u l
r a
an n
r ei
Ġ2 0
Ġ O
Ġau f
Ġz u
f t
a d
i st
s en
e st
Ġv er
Ġ Z
e b
i k
Ġ t
ie l
Ġ o
ĠS ch
Ġ U
a hr
Ġ l
Ġi st
a g
Ċ ĠĠĠĠĠĠĠ
Ġf Ã¼r
el l
Ġ p
Ġ =
Ġw ur
f f
i c
ĠS t
e h
Ġ âĢ
Ġd em
s p
Ġ {
h e
v er
at ion
isch en
a h
w ei
ĠI n
ich t
i en
ĉ ĉ
Ġau s
ĠV er
e d
ti on
Ġal s
Ġ st
Ġein e
r i
o t
e u
Ġ }
Ġ Ċ
ĠD ie
Ġs ich
o w
o s
m en
Ġwur de
Ġ r
e g
Ġ un
Ã¤ n
er n
al l
Ġb ei
c e
in d
b en
k t
ĠA n
e w
Ġ c
sch a
Ġw ar
g er
s er
o ch
) ,
ĊĠĠĠĠĠĠĠĠ ĠĠĠ
ei ch
a p
es ch
ĠJ ahr
ĠE r
Ġs ein
o p
h n
o g
er t
ung en
en d
Ã¼ n
ei l
Ã¼ ber
i m
u ch
u b
ge t
e hr
u f
or t
l in
0 0
Ġau ch
et z
Ġw ir
r ie
ur n
a te
( )
Ġ20 1
scha ft
Ġb e
ĠS p
isch e
Ġ Ã¼ber
es s
st er
e c
an g
e ut
Ġn ach
Ġ sch
st en
ung s
l a
l er
Ġ j
m er
r an
ur ch
r u
g t
Ġ am
ĠU n
ĠE in
l ie
o d
i d
ar t
as s
Ġb is
au s
âĢ ľ
Ċ ĠĠĠ
Ġn icht
Ġs ie
n en
ĠA r
âĢ ĵ
eut sch
Ġz ur
Ġ1 8
ĠA l
et urn
er s
Ġ a
Ġw er
Ġ20 0
Ã¶ r
1 9
i z
ol l
ĠâĢ ŀ
ĠS tr
Ã¤ t
I n
Ċ ĉĉ
Ġz um
te l
u g
e x
Ġ um
q u
Ġein er
Â ł
Ġwer den
e ch
Ġ 3
ch en
p e
Ġ es
Ġv or
ĠS ie
ĠâĢ ĵ
Ġw ie
t s
ĠP ro
i v
Ġh at
a k
i b
ter n
st ell
am e
D ie
Ã¶ n
z en
or d
ge l
h l
ul l
Ġwir d
Ġ "
h al
Ġd urch
Ġ ab
Ġun ter
Ã¤ r
Ġs ind
ĊĠĠĠĠĠĠĠĠ ĠĠĠĠĠĠĠĠ
u e
Ġo der
Ġi f
au f
i gen
Ġi hr
en n
or m
Ġ ent
Ã¼ ck
ĠE n
k s
ch e
te t
a ge
Ġein em
h er
) .
e p
ge b
eb en
ĊĠĠĠĠĠĠĠĠ ĠĠĠĠĠĠĠ
l o
isch er
ar b
Ġ tr
st e
lich en
p tion
g r
el t
ĠB er
Ġ re
Ġein en
ĠM it
ei ter
ier t
ah l
Ã¼ hr
Ġ /
er k
u d
u p
e f
Ġ Ã
r Ã¤
ĠD er
i f
ur g
Ġ19 9
ĠA us
E x
ub l
o k
l and
il d
Ċ ĉ
ti g
n er
u st
Ġs p
e k
at z
S tr
o de
( );
i a
r it
p ar
il l
p l
o b
ĠA b
i ck
i ge
us s
sp iel
Ġ -
ad t
h en
ĠG r
ĠO r
Ġn ull
lich e
el n
r au
o f
ar d
rei ch
e z
a y
a v
Ġdas s
Ġn ew
in z
ul t
wei se
p f
ei ten
om m
ĠA uf
at ur
o hn
Ġr eturn
i al
e y
a c
ce ption
in al
2 0
ĠM ar
ĠC h
g es
s s
Ã¤ l
a st
1 8
an t
u ÃŁ
ĠL and
o v
S t
it z
ein e
an z
Ġ 4
Ġt he
Ã¤ hr
at h
ab en
ĠN ach
ĠD as
m al
et er
Ġz wei
ĠM a
t h
ĠV or
Ġs o
at en
Ċ ĠĠĠĠ
Ġ +
Ġ19 8
. .
i p
l en
l ass
ec t
m e
ubl ic
Ġo f
or en
r es
rei s
Ex ception
b urg
ĠI m
p t
Ġ/ /
on n
eit s
b j
y pe
ver s
o c
te m
e v
ĠH er
o ur
al t
ro ÃŁ
om p
Ġn eu
Ġ19 7
f ol
Ġn ur
am m
Ġs ow
ich te
a ck
in e
on t
( "
p er
Str ing
k en
Ġm ehr
Ġ 5
Ġn och
ĊĠĠĠĠ Ġ
h t
Ġwur den
Ġ( *
ber g
Ġb est
p h
p r
b au
at t
ĠStr ing
Ġ 0
ut z
der n
en s
Ġd eutsch
ĠF l
i le
b ar
Ġan der
ab le
Ġv om
ach t
s h
a f
it ion
f l
in t
as e
etz t
sch en
it Ã¤t
Ã ©
Ġ19 6
g l
il m
al ue
ier te
ation al
ĠD eutsch
N ame
ei ster
ei m
Ġz w
b e
par am
Ġl ie
ĠZ eit
W eb
ĠA m
Ġa ber
p en
el d
b r
om men
l em
r eturn
C on
Ġge w
ah n
ĠSt adt
n is
k eit
s k
Ġdie s
D er
i an
lin ks
d u
it er
ĠP l
el le
ĠB r
Q u
n et
E n
Ã¤ ch
l ei
Ġ1 7
Web links
a gen
a z
ĊĠĠĠĠĠĠĠĠĠĠĠĠĠĠĠĠ ĠĠĠ
n e
un k
ier en
Ġp ro
ĠK on
i o
Ġsow ie
l os
Ġb er
Ġm an
Ġw eiter
Ġ19 4
Ġ19 5
hr ow
m ann
Ġ et
r ich
l ag
p ublic
ĠG em
Ġ e
Ġ= =
f er
m it
ĠT he
ar k
it y
Ġ 9
Ġk Ã¶n
Ġb es
i re
Ã¼ t
f orm
Ġk ann
f ten
g esch
as sen
f Ã¼hr
Ġ &
P ro
o ck
d em
ti v
ĠF ran
a in
Ġ 6
am men
Ġd ar
ei te
Ġ gen
at er
r Ã¼
e gen
Ã¼ d
eh en
ol le
ĠR eg
l ung
Ã¶ l
ff en
h und
g lie
Ġ le
et h
i te
d ig
ol og
g lich
E inz
en z
f ahr
T ype
ei gen
p ro
i vers
sch ie
w er
et t
o st
ĠG esch
Ġ ex
ol it
Ġge gen
eh men
Ġwie der
A n
ĠK l
Ġein es
s b
z eich
t eil
ach weise
ĠSp iel
st an
Ġ19 3
l i
er v
Einz eln
am en
ĠB ei
ru p
Einzeln achweise
Ġsein er
ĠJ o
hund ert
spiel er
Ġs oll
ier ung
y m
ib t
ik er
Ġ el
und en
f en
Ġsein e
Ġ1 5
ĠM us
Ã¶ ff
Ċ ĊĠĠĠĠĠĠĠ
ĠGem ein
is sen
i um
ĠI S
ch t
ĠUn ter
u le
ÃŁ e
ĠT h
em ber
s el
ĠB au
s et
Ġhat te
lie ÃŁ
Ġd e
an s
a is
or g
bj ect
ann t
in gen
z eit
ie der
ic e
ers on
b all
Ġdie ser
Ġt h
b st
Ġh aben
e kt
ar l
Ġg es
ge ben
Ġf or
ĠJahr e
ie le
at a
us ammen
u te
Ġ ich
sp r
ĠG es
m ein
ĠE s
at or
e ck
h eit
ĠU m
al e
Ġ1 6
B N
in n
ĠG eb
y st
ell en
ĠIS BN
al s
ab e
or f
Ġbe f
Ġge t
ie s
ĠJahr hundert
ik an
w a
ĠK ir
Ġ 8
l eich
S ch
n ah
im m
Ġge h
A l
Ġ 7
I m
og ra
Ġg r
D as
A r
Ã¼n d
Ġzw ischen
ĠT eil
tr ag
Ġj e
ad d
Ġs el
e an
iter atur
ar r
ĠkÃ¶n nen
Ġt o
E r
ĠJahr en
Ġs eit
ig er
ei st
ĠR o
y n
U n
on g
k l
Ġt hrow
L ist
w ar
Ġr es
Ġ !
in ter
ĠÃ ľ
f all
iv e
Ġb eg
ie t
ĠS o
) )
yst em
ĠSt a
Ċĉĉ ĉ
Ġ Y
ĠB l
en er
on der
Ġb et
1 7
ĠH au
al d
Ġk l
p ut
() .
t or
w ick
I N
Ġwar en
ĠU S
ol d
Ġj ed
in der
et en
o ol
ur op
is s
y p
z eu
Ġ Qu
" ,
e qu
m a
am il
Ã¤ hl
Ġg roÃŁ
und es
ap p
an k
ĠEn t
at ch
ĠW elt
w erk
Ġf ol
R es
ĠBer lin
Ġer h
ĠAr b
on d
Ġ en
h m
Ġzur Ã¼ck
o un
hal ten
Ġdie se
st ra
Ã¶ s
ĠUn ivers
ĠS te
Ġ <
ĠI hr
t o
l es
ÃŁ en
Ġi s
f or
Ã¤ ter
Ġbe k
er en
m ent
o ff
ge w
r om
te x
I d
a il
at s
ti gen
am er
or den
= =
or e
Ġbei m
t schaft
Ġd rei
m us
V er
gen d
it t
" );
() )
Ġ and
as ser
ĠL ist
1 0
o id
m in
ĠĠĠĠĠĠĠĠ ĠĠĠĠĠĠĠĠ
ĠB o
st and
eh t
scha ften
iel t
ĠB e
Ġ1 0
Ġ :
Ġgeh Ã¶r
in den
ing s
ti l
Ġd am
ĠW ir
ĠP h
o hl
l au
Ġer sten
am t
ĠE x
Ġh er
Ġh eu
ex t
Ġer st
00 0
n ung
ĠF ilm
ĠÃľ ber
al en
Ġal le
l Ã¤
la ge
rie g
Ã¤n d
- -
Ġd ann
k e
z e
ach e
or n
E R
Ġin t
el s
Ġ! =
st r
glie d
Ã¼ l
Ã¶ glich
ĠO ber
ation en
Ġg esch
Ġ1 4
Ġw enn
b t
um ent
an gen
ĠC hr
Ġth is
z u
h aus
ĠGemein de
il der
i ff
Ġg ibt
de x
Ã¤hr end
ĠA d
1 6
() );
m eister
ent lich
Ġf inal
stell t
an der
uÃŁ ball
Ġ eigen
ri v
ĠN eu
fol g
f e
a x
e am
ĠL eben
Ġ1 2
c tion
tex t
ĠM en
Ġan ge
an ge
ĠG er
r en
Ġun ser
.. .
Ġihr e
rie d
hn e
un st
w end
as se
m an
Ġh ier
ĠP ar
Ã¤ d
f ig
b ild
y s
rie b
âĢ Ļ
G eb
ĠZ u
st ein
und e
Ġv iel
Ġ19 2
ĠB undes
Ġk onn
Ġjed och
1 5
v or
ĠH and
k er
ist er
L iteratur
ĠSch w
k tion
ĠA ut
ach en
o ber
z w
ist or
r at
au l
ster reich
Ġ1 3
Ġaus ge
ri ft
ar ten
er e
ra d
Ġf Ã¼hr
V alue
ur e
b o
ĠE l
our ce
Ġ ch
ĠA ug
ti ge
ĠÃ ĸ
ĠP f
ru ck
C h
ig n
s atz
Ġv oid
1 2
ĠG e
ein en
Ġsp Ã¤ter
ĠOr t
Ċĉĉ ĉĉ
sch e
ab ei
ĠDeutsch land
lich er
O N
ur z
Ġel se
ĠB et
ie d
Ġd a
ind et
ĠB es
Ã¶n ig
Ġ *
au t
st adt
ess ion
ĠL e
au er
te d
en tr
P ar
Ġw el
Ġs ehr
a der
re u
( ),
iel d
oun t
ĠF or
un i
t on
ĠJ an
ĠR e
ge mein
Ã¤ u
Ċ Ġ
ĠP erson
o u
Ġet wa
O r
p ert
Geb oren
S p
at ic
m ar
7 8
re ch
ier ten
Ġi hn
h of
ĠP r
tern ehmen
i den
hal b
it h
ei g
ei d
ĠM in
iz e
Ġdeutsch er
ĠF amil
s etz
i de
i x
on e
Ġw as
Ġh in
Ġin s
o sten
ur t
Ġsein en
a de
schie den
s on
in a
au m
ĠM on
p on
Ġ |
/ /
Ġg leich
Ġsein em
ĠN ord
k ehr
ĠF rau
stell ung
1 3
g ang
ĠG roÃŁ
1 4
Ġdies em
b l
en de
ra y
Ġz usammen
ĠM Ã¼n
ĠGr und
w ir
Ã¤n ger
ĠB and
sch l
gt h
ation s
Ġc on
ĠM ann
ĠJ ul
ĠVer ein
Ġ ar
en den
ĠPl atz
ĠFran k
Ġlie gt
al er
M it
ĠR ech
ist en
t es
z er
Ġg er
Ġber eits
or k
ĠAug ust
Ġ eh
) );
u ff
eit ung
Ã¶ ch
Ċ Ċ
am p
ber t
ien st
en k
ol f
r icht
ĠW est
Ġander en
rÃ¤ s
Ġk eine
Ġver b
z ial
k reis
t t
ĠL u
ĠEn de
Ã¤r z
rup pe
Ã¤n der
2 00
Ġw o
Ã¶ ÃŁ
un kt
s g
Ġim mer
s uch
M ann
h a
[ ]
Ġsch on
ĠK Ã¶nig
Ġb esch
C lass
issen schaft
ĠP art
in k
ult ur
ĊĠĠĠĠĠĠĠĠĠĠĠĠĠĠĠĠ ĠĠĠĠĠĠĠ
ĠP ol
Ã¤l t
ĠM an
ĠE urop
ĠR ei
s o
u ar
Ġsel bst
f Ã¼
ĠJ uni
Ġun s
ĠK unst
ĠT r
ĠB ez
Ã¶ff entlich
N ach
Ã ¡
Ġ )
al ien
Ã¼t z
Ã¼n st
Ġihr er
z ahl
le g
a den
ĠG ra
Â Ń
ie f
Ġer ste
ĠN ov
ĠIn tern
Ġfol gen
la gen
r on
ti k
b uch
ais on
kt ober
ĠV ol
k eiten
Ġheu te
Ġein z
2 1
ĠF Ã¼r
ĠC on
ĠS h
t ag
Ã¼n f
m Ã¤
Ã¼r ger
ĠS e
Ġge l
Ã¤ m
ĠW ei
b ach
o ten
ĠM ed
ĠĊ Ċ
ĠH aus
ĠHau pt
f ach
u ten
mit tel
č Ċĉĉ
ĠH och
gr und
ĠB ild
ĠG ew
om mer
d r
an is
Ġd ort
ĠVer b
omp on
Ġv ier
ĠPro du
h au
ier e
Ġl etz
ĠF ahr
e um
f inal
ĠS Ã¼d
h ann
Ġein ge
Ġst atic
Ġkonn te
c t
ĠMa i
ĠF rei
tem ber
Ġt eil
in nen
r y
olog ie
ĠS ep
O bject
an den
Ġk am
Ġ eben
ing er
l ig
I D
Ġge f
ĠB est
erv ice
f eld
re g
ool ean
Ġp ar
Ġ& &
ĠJul i
Ġi hm
o ut
re d
Ġ19 0
Ġs on
ti er
Ġneu e
tr y
ich er
ĠJ u
ur r
sch lieÃŁ
ĠSt ud
f ang
c on
ĠH o
ĠA k
ĠW eb
ĠK inder
Ġver schieden
el m
c c
ĠO ktober
isch es
ĠUnivers itÃ¤t
ĠW erk
i tel
č ĊĠĠĠĠĠĠĠ
h eim
er b
unk tion
de ut
ĠChr ist
S ie
Ġw en
Ã¼ s
ogra ph
or ben
Ã¤n g
Ġb el
pon se
D eutsch
le x
Ġdam it
Ġal l
os ition
o gen
5 0
Ġver l
Ġo hne
A us
a ce
ĠB uch
ĠP olit
ĠK omm
A T
w ahl
. )
fall s
lin e
r or
ĠF ried
f o
Ġ %
ran z
ĠM o
ti m
as h
Ġer sch
ĠLand es
w alt
Ġb r
ĠN ew
ĠStr a
hal t
pr il
ĠSp r
ĠM Ã¤rz
es sen
b ahn
sch n
al is
un ter
Ġal ler
lo ck
c ode
Ġ X
ĠJan uar
ĠSep tember
ĠB eg
ĠKir che
em al
Ġc ase
ĠN ational
eth od
z ei
ĠF ol
ag er
1 1
ach sen
ie b
ch er
sh all
Ġ .
M ap
ĠO l
zeich net
al se
č Ċĉ
r ik
ell schaft
ĠU r
Ġst att
ez ember
al ter
op h
ĠD ar
equ est
te te
m s
p p
ess age
ĠMus ik
Ġw Ã¤hrend
n ew
Ġbei den
re ate
es en
Ã¶ st
ĠJo hann
E N
Ġo b
Ġsp iel
ĠĊ ĠĊ
ĠW asser
ĠV on
ĠI I
Ġer folg
h in
Ġgr Ã¶ÃŁ
Ġ18 9
ĠDie se
ĠList e
Ġb en
im e
ĠNov ember
stell er
ig keit
K ey
amer ikan
ĠUn ternehmen
ĠA pril
ĠMen schen
res ult
w ohn
mal s
ĠW ert
ĠGesch ichte
E in
A m
ĠSch ul
kt ur
ĠT ra
ĠR eich
kt u
âĢľ ,
ĠS aison
ro up
Ã¤ch st
ĠN ieder
ar i
ĠZ wei
Ġ201 0
Ġneu en
lem ent
ion en
Ã¤ hn
k on
ĠAl s
ei le
ĠF re
Ġ Â
Ġv alue
ĠMit tel
ern se
Ġg anz
os s
Ġer n
eh mer
st it
f te
Ġihr en
li ent
Ã¤ tig
los s
ri ff
ĠD aten
Ġ3 0
ĠIn ter
Ġ201 1
ĠD ezember
ĠA t
l an
ogra f
âĢľ .
Ġ arb
c ri
eh n
em ent
fÃ¼hr t
eb ru
ot t
de te
ebru ar
am es
Ġd abei
ire kt
h ol
c o
ĠH am
v al
Ġge b
ĠD urch
st ru
Ġdies es
ĠF r
ĠEin e
k ommen
ĠF orm
ĠIn d
stan ce
Ġge st
g abe
as k
ĊĠĠĠĠĠĠĠĠĠĠĠĠĠĠĠĠ ĠĠĠĠĠĠĠĠ
Ã¤n de
gl eich
ech n
ĠZ w
R equest
ĠÃ Ħ
de ck
Ġf est
A t
app end
ar n
stra ÃŁe
Ġm us
sch utz
a w
az u
sch ule
ĠE m
Ġ201 2
i der
Ġ ur
l auf
ĠMit glied
n ame
is h
Ġh abe
Ġ >
Ġ201 8
Ġz un
Ġd u
ti f
Ġ '
Ġthrow s
Ġ u
ie w
Ã¤t z
ĠSch l
b ew
ff iz
G esch
h and
Ġst eht
ver b
M ar
Ġg ab
ĠVer lag
Ġ200 8
rÃ¤s iden
Ġ200 9
lin k
ĠG l
ĠAr ch
ĠSch wei
Ġf rÃ¼
ĠW ien
at iv
s ol
k ir
zeu g
ĠG ener
ann te
it zen
ar e
ĠW il
ech s
tr Ã¤
v ent
ĠMÃ¼n chen
ĠâĢ ł
A d
ĠF ebruar
ranz Ã¶s
u tion
oll en
Ġk on
T o
Ġk omm
o ub
rei chen
Ġ on
Ġdes sen
u ilder
ym p
ĠPro f
a kt
z ent
h ein
Ġb zw
p el
ich tig
D ata
Ġs ei
ar ch
Ġ201 4
ĠN amen
ĠL ei
Ġ ro
Ġ200 7
uf en
Ġ201 5
Par am
ĠH al
R E
Ġ201 7
er st
tr ib
S et
nah me
Ġ201 6
Ġ201 3
len gth
ĠF uÃŁball
Ġ it
ti ert
Ġb ew
S T
Ġ qu
um en
uch t
s st
Ġ9 78
ĠT ag
los sen
Ġerh ielt
3 0
Ġres ult
ĠR om
ge h
Ġal lem
ĠS k
oub le
19 9
le gen
rup pen
ĠS er
ĠK arl
y te
d orf
z ug
Ã¼nd et
ĠH Ã¶
Ġl ang
il it
in en
Ġs Ã¼d
ĠW ohn
schl uss
Ġ2 5
o te
sch er
ĠK n
ĠS a
ĠM al
p unkt
ten t
Ġ200 6
nis se
Ġn ah
ĠPh il
Ġh and
Ã¤hl t
ĠPerson en
L eben
ie g
Ġst ell
th is
ĠAr t
Ã¼ b
Ġc atch
Ġ18 8
fahr en
rie ben
F ile
eu er
an st
wick lung
re cht
Ġf inden
Ġn ot
Ġw ei
ri de
p s
Ġder en
Ã¤u de
geb iet
Ġbes onder
ÃŁ er
Ġweiter e
ĠR Ã¼ck
u er
ĠA uch
schie d
Ġg ut
Ġeh emal
sch ul
Ġtr ue
c es
is k
ĠSch au
w est
Ġp ublic
ĠB ahn
urr ent
O ver
riv ate
ein er
ĠArb eit
ol um
Ã¤n dig
Ġson dern
a i
ech sel
N ode
w eg
ĠZ usammen
ĠC o
ĠD u
== ==
qu est
al ten
ĠH ol
ĠK r
ĠG egen
Ġer reich
ĠB ew
p ort
s ion
P ath
al if
ĠR ep
Ã¼ ss
ĠBer g
ĠM eister
Ã Ń
f ern
Ġb ie
ti gt
ĠD es
at us
ach te
ubl ik
Ġ1 1
Ġdeutsch en
wei l
Gesch ichte
ge stellt
em en
Ġtr y
ran k
ĠW ahl
Ġ200 5
Ġf alse
f ra
ĊĠĠĠĠĠĠĠĠ Ġ
Ġh o
ĠK rieg
w ig
ec tion
ĠL ehr
Ġm uss
A L
ĠE d
w e
est er
stell en
Ã¶r der
at ive
Ġer w
mÃ¤ ÃŁ
A R
h ard
i us
Ġbef indet
Ġander e
* *
Ġ at
Ġv iele
ĠD i
us e
ĠS ystem
fig ur
up er
e ad
Over ride
ie h
Ġbek annt
Ġf Ã¼nf
k te
ĠN atur
Ã ³
pert y
is mus
4 0
ĠS al
k rieg
re chen
G est
z iel
Ġn un
ĠF ra
Ġge mein
j ekt
f c
ĠM ich
c om
Ġ [
Ġp er
Ġ20 00
el e
in er
sp ort
ĠK ap
Ġ or
isch of
ĠSt and
ĠAl l
A b
ad em
ĠR es
ĠLeben s
en nen
T ra
ei tet
h Ã¤lt
s am
ab el
ĠWeb s
ur m
ĠBer eich
ra ft
on s
ĠDie s
ĠReg ion
g or
w as
ĠFried rich
ĠEin wohn
ĠFl ug
ĠL in
Ġb oolean
Ġden en
gr amm
O R
re ck
ĠI s
ĠM ill
ĠB ay
glie der
ch n
ĠA uÃŁ
Ã¼ hl
ĠT itel
y l
reu z
ĠS eite
am pf
le gt
ĠC l
ur s
ow n
eite te
ĠG ef
as st
ĠF est
Ġ18 6
h elm
Ġf ranzÃ¶s
ĠSp ort
rei b
tiv e
Ã¶ m
ĠI l
ich ten
Ġw orden
ĠB ar
Ġeben falls
ges etzt
Ġr und
Gest orben
k a
ut t
ĠP er
ĠD an
ĠJu gend
Ã¤ ft
M od
tr agen
In dex
-- --
Ã¤ uf
Ġa ktu
ĠS c
d ings
Ġsoll te
ĠIn form
ei den
ĠAl b
ĠM et
uff er
g aben
ĠD r
ut ter
Ã¤ h
E lement
Ġm Ã¶glich
Ġz ahl
in s
ĠM od
Str eam
ont ain
Ġer halten
ĠS tel
ĠB Ã¼
Ã¶l ker
u ft
ĠH ein
2 5
ĠK reis
Ġd i
Ġdie sen
v e
w ort
ĠW er
ĠS ommer
Ã¤n ge
ĠFamil ie
aul t
ar y
hn en
Ġ em
Ġzun Ã¤chst
o ge
ĠE is
g te
f urt
Ġbeg ann
c lass
Ġb eh
j ahr
ĠDeutsch en
c l
n ehmer
Ġ18 7
v en
u ck
pl atz
Ċ ĊĠĠĠĠĠĠĠĠĠĠĠ
Ã¼nst ler
b lem
ĠFrau en
Ġ2 4
em a
Ã¤ re
ĠO st
Ġ200 4
Ġje weil
ernse h
j Ã¤hr
p rÃ¤
ĠS ohn
Ġver w
2 2
ĊĠĠĠĠĠĠĠĠĠĠĠĠĠĠĠĠ ĠĠĠĠĠĠĠĠĠĠĠĠĠĠĠĠ
ath ol
ĠO n
ĠB as
er y
ran s
sch rift
at es
ĠT od
ĠL ie
ĠN ame
enn t
ri te
ĠK ar
bild ung
f r
ĠB el
o se
P D
ĠB Ã¼rger
Ġsch n
Ġin tern
č ĊĠĠĠĠĠĠĠĠĠĠĠ
ir k
Ġ201 9
se e
in o
et te
Ġa k
kl Ã¤r
ĠL a
ĠC ar
gl isch
im mer
+ +
Ġletz ten
ri d
zen tr
Ġh ei
ĠH il
Ġ x
f ilm
ĠR ad
Ġsch w
Ġwel che
k auf
Ġein ige
us er
ĠKir chen
al itÃ¤t
p or
s w
hr en
ann ten
o und
. ,
A N
ig ht
tr eten
il ter
an ce
ĠW eiter
k m
fol ge
Ġau ÃŁer
ĠIhr e
e e
ess or
F uÃŁball
Ġent wick
ĠG el
ĠFran z
ĠP at
d ruck
er g
Ġ1 00
d ate
ĠH ier
Ġander em
Ġin ter
G e
ĠF ach
s icht
och en
ĠEr z
r sg
z t
ĠK ultur
Ġd azu
ĠM ag
ĠS an
gen ommen
h af
le hr
B uilder
ĠPolit iker
in anz
Ġk ein
Ã¶ sterreich
A uf
Ġ ev
Ġ200 1
f Ã¤l
um s
ov e
Ġge gr
ĠF ot
o ver
b et
Ġver Ã¶ffentlich
a ff
av a
19 8
ĠS el
Ġdeutsch e
ĠÃĸ sterreich
tor y
rei che
Ġs et
eth ode
ar m
ĠD orf
M an
U til
Ġgew ann
sch ein
Ġge ht
a ar
Ġet was
in de
ĠH eim
rau m
č Ċ
Ġkomm t
Ġ199 0
Ġ( âĢ
arb eit
che ck
ĠB en
h o
et s
F ield
< /
ĠO bj
B ei
Ġ te
an ten
ĠG en
u es
Ġdar auf
ĠLand kreis
Ġ200 3
ĠPro v
ĠB ern
ĠSch n
ĠO bject
ra g
is e
H and
b ez
ĠHer z
ach ten
ef in
den k
l ang
e er
Ġf rei
Ġ ,
ĠS eit
min ister
g ument
Ġein fach
on nen
B y
st Ã¼tz
able d
Ġk urz
la y
ĠHer r
alt ung
ĠgroÃŁ e
ĠT eam
n a
O f
Con text
U R
4 5
Ġ2 2
st off
Ġ end
Ġn eben
ĠSch rift
Ġge m
st Ã¤nd
Ġk ommen
op f
ber eich
b ei
sch w
Ġre g
ig ung
ĠO b
6 0
re ak
ĠN e
ĠH ans
Ġl assen
ic a
č Ċĉĉĉ
ĠgehÃ¶r t
nah men
z ig
am ent
Ġ200 2
L E
Ġin ner
Ċ ĊĠĠĠ
ser v
ur ger
Ġihr em
om b
st ag
h le
I fc
imm t
Ġab ge
T ime
r et
St ate
ĠW ie
Ġ2 1
Ġver m
iss ion
ĠP eter
2 3
rÃ¤siden t
it ter
Ġv oll
ĠVol ks
R eg
ĠgroÃŁ en
d ienst
ap an
Ġnah m
ek te
l y
Ġw ill
ĠF er
ri m
ĠK Ã¶l
M essage
W ir
e ader
Res ponse
wir tschaft
ĠFamil ien
Ã¼ck e
gesch ichte
S S
ĠJahr es
ĠJ ohn
un ft
Ġver wend
S ervice
l t
ok en
ar s
ĠD a
ti schen
ĠAn d
Ġ2 3
lo se
es se
Ġm Ã¼s
ĠB i
h eits
ĠE ur
ĠR ah
Ġg ing
z el
ĠB urg
ot or
Ġm ir
ĠGr Ã¼n
Ġ| |
p rivate
ĠT er
n ungen
ĠB esch
is ion
D E
a el
a j
M E
all en
r em
ti c
sp iele
ĠG u
T he
sch au
ell er
ĠWil helm
ĠT echn
ut h
ar en
ĠA p
ing t
Ã¤ ten
Ġzwei ten
I T
ĠArb eits
o int
et ter
ges amt
kir che
ilit Ã¤r
Ġver st
O Exception
ĠS eiten
ĠSta aten
il om
ge ord
D R
ĠAl t
en der
ur en
Ġersch ien
ind ung
w ert
ĠW ill
Ċ Ċĉ
Ġspiel te
fÃ¼hr ung
F orm
Ġ5 0
Ġ20 20
Ġent sp
bau t
equ als
for der
Ġ â
all s
ater ial
arr iere
Ġ2 8
Ġd och
ers Ã¶n
ev Ã¶lker
y r
eich t
ĠBet rieb
Ã¶r per
Ġ199 9
Ġm o
ot he
ĠUnivers ity
2 4
En try
rÃ¤ ger
um mer
rit er
ne te
ĠB ro
19 3
setz ung
ĠK o
Ġh och
ĠMar k
ffiz iel
fÃ¼ g
Ġl og
y ch
ĠEin satz
ust r
Ġbest eht
Sie he
l ist
Ġhat ten
ĠSchau spieler
ip p
Ġw Ã¼r
ĠAn fang
In fo
lo ster
Ġher aus
Ġals o
ei gt
an zen
h ei
Ã¤ che
En abled
Ġst ud
Ã¤t ze
st a
Ġerst mals
ĠHam burg
Ġst ehen
H rsg
Ġ2 6
u ter
Ġn e
19 7
Ġp olit
Ġbe zeichnet
Ġal len
olum n
ĠT or
ĠSch iff
ograph ie
Ġm achen
ĠY ork
l ow
w w
ĠN eben
it te
u k
l ungen
ĠWir tschaft
ic al
icht ung
ĠPar is
ĠPart ei
ĊĠĠĠĠĠĠĠĠ ĠĠĠĠ
v alue
ĠS itz
ĠD em
ĠOl ymp
ĠFol ge
ĠRech ts
Ġmehr ere
schn itt
d es
hau sen
trib ute
ĠD re
.) :
Ġ( !
8 0
sch eid
Ġm al
ĠI ch
an gel
re uÃŁ
ĠM art
Ġ y
Ġsch lieÃŁ
t hrow
Ġw egen
ver ein
oc ol
nah m
um ber
la st
ti sch
Ġintern ational
ĠJahrhundert s
U S
Ġauf ge
ik a
d ie
Ġm ich
an c
ĠMus eum
ĠP al
rit ten
or s
Ġ2 7
a e
et ten
w ard
ĠI t
ra k
ĠRah men
ĠW eg
ĠSta ats
ck er
w elt
es onder
om it
ĠL ud
Ġd ah
utt g
. âĢľ
ĠIn stit
rit t
h Ã¤ng
ĠF ir
ate gor
ar get
Ġ194 5
IN G
ĠEr n
ĠVer s
ĠK ais
ĠZ ahl
utz t
om in
el te
h eiten
ĠgehÃ¶r te
Ġden n
ĠH istor
il t
E s
Deutsch er
Ġ ?
ĠEinwohn er
ĠZ entr
lie b
t ocol
amerikan ischer
Ġs ol
ograf ie
ĠIntern ational
av on
ĠMann schaft
t lich
ĠS il
ig es
Ġo bject
ti me
Ġin d
ĠM or
Ġre quest
ĠJo se
le ben
Ġb rit
ĠOr g
s weise
sch ung
ri ften
am mer
ĠG o
Ġh inter
P erson
B er
ĠP reis
teil ung
ĠN r
Ar ray
Ġaller dings
g angen
ei sten
ĠU hr
Ġre ch
onn ection
ĠGener al
ĠG ruppe
is se
ig a
ern e
ĊĠĠĠĠĠĠĠĠĠĠĠĠĠĠĠĠĠĠĠĠĠĠĠĠ ĠĠĠ
w ie
ĠK ur
ĠP aul
res se
o x
ĠL auf
Ġn ame
ĠB ad
ond on
Ġh istor
Ġm ax
ĠWelt krieg
ĠR ich
h il
ti sche
ĠW or
ĠK ont
l ing
ĠR u
Ġ199 8
Ġverwend et
ĠH a
Ġ18 5
spr Ã¼n
ĠZ ug
Ġum f
ĠH of
au r
Ġo ft
Ã ĸ
ĠF unktion
an a
ig it
m b
4 8
ĠZ iel
ĠR aum
ĠT re
am b
G roup
z ep
ier ungs
Ġsein es
ĠD is
w and
ich tet
ĠH eil
amm lung
te ger
Ġtr at
Ġc a
ompon ent
at ten
ĠC omp
Ġverschieden en
ef ault
ĠS ti
{ @
> >
ol e
S E
Ġw e
eg t
Ġeigen en
I ON
ig t
uch s
k ten
ĠW olf
ĠR ef
o ot
arb eiter
ĠE igen
Ġbe de
ĠGe org
st Ã¤ndig
unk te
Ġst ark
sk i
En t
ilom eter
ĠBei spiel
ĠB ru
Ġs pe
Mit glied
Ġf and
ar a
ĠAl ter
af Ã¼r
lich es
F or
au ch
2 7
at Ã¼r
Ġ add
et r
us Ã¤tz
ĠSt uttg
ie gel
A C
2 8
9 0
ein ander
ge f
i as
ak e
ĠLu ft
stan den
I I
schlieÃŁ end
ti eren
ĠT ro
n ot
ĠL eist
Ġ199 7
pt y
ĠFrank furt
Ã¶r d
Ã¤m pf
ĠSch m
ic ation
ĠS Ã¼
pr ession
2 6
Res ource
Ġs echs
g n
au en
ĠGra f
Ġk ey
ĠLei p
ĠW inter
ĠD ort
eh m
es ser
ĠK Ã¼
Ġ199 6
ĠGes ellschaft
Ġ @
ck en
ig ten
och ter
ĠEurop a
ic s
ĠArch ite
ra un
ĠR hein
ĠB ed
Ġs etz
ĠT em
Ġweiter en
ĠWebs ite
esonder e
un n
Ġin stance
tt p
Ġgen annt
ĠfÃ¼hr te
or y
ĠA mer
ar te
ge ber
om as
k ey
Ġr el
ĠL ondon
Ġ2 9
ĠK at
b ack
Ġ199 4
ĠMit te
ei er
l et
am s
Ġ198 0
Ġst and
ĠE le
qu e
f el
ĠD ienst
ge st
ĠUn d
) :
Ġ197 0
ĠF rÃ¼
ĠM eter
u gen
Ġ20 21
ĠEr st
Ã¼nd ung
Ġw ith
ĠKÃ¶l n
Al s
sp ro
ĠMich ael
t z
om at
cc ess
ĠF eld
um e
al b
ĠLud wig
F ilm
Ġ #
Ġw eit
ĠB eh
icht s
2 9
Ġg ilt
lei st
19 6
ĠProv inz
Ġw eil
Ã¼ gel
ĠVer walt
du z
Ġ( (
Ã ¨
Ġein mal
l og
Ġd avon
a ÃŁ
19 0
gemein de
eu te
ĠGesch Ã¤ft
ĠS ol
G ibt
Ġsch wer
j ect
ĠHein rich
an e
ik ation
ĠSpiel er
ĠT our
om pl
war z
ĠmÃ¼s sen
m l
I C
ĠUS A
ĠD abei
ib le
ĠfÃ¼hr t
Ġl ange
Ġ Ã¤l
E m
s ych
g s
ĠGeb Ã¤ude
ĠE v
am a
ĠI hnen
gen den
Ġo ut
C lient
tik el
Ġt ype
Ġo p
ĠR est
sb esondere
d s
h Ã¶
b el
ĠKomm un
s ize
figur ation
wei ter
S h
ĠN o
ĠH ann
âĢ ¦
O G
ĠG eh
Ġs ehen
ĠF all
lehr er
ĠK an
uch en
k o
ĠSta at
w Ã¼r
ĠEur o
Pro perty
] ;
Ġf ast
ĠKl ein
Ġ4 0
ĠC olle
F ac
ie sen
ief ert
Ã¼ck en
ĠMar kt
stan ts
shall er
Ġf indet
ob ei
J ahr
s eite
D es
w issenschaft
Ã¤t te
Ġb lei
Ġ199 2
ĠStra ÃŁe
ĠHol z
ĠC omm
ser ie
Ġbesonder s
A s
z ogen
ĠT ext
s etzt
Ġw est
to String
i ver
ock ey
iz in
ĠG old
anis ation
ass ung
ĠPro zent
W ith
Ġab sol
ĠHÃ¶ he
ĠD en
ĠSte in
ĠA lex
Ġbie tet
Ġjeweil s
trÃ¤ ge
Ġ _
ĠA ss
ĠStuttg art
ĠEnt wicklung
Ġ199 5
Ġ Ã¶sterreich
# #
ĠD at
st eil
ĠV ater
ĠSch loss
wei s
c a
ob il
Ġc reate
7 0
Ġ Ã¶ff
om e
et ers
m Ã¶glich
Ġd irekt
ĠAn t
lich t
C ode
ol oge
s itzen
4 9
ĠW ald
reib ung
eck e
zei tig
ĠEin zel
lig a
ĠRe gel
Ġan geb
m od
Ġstud ierte
ĠPro blem
g lichen
j a
le y
ĠD on
a he
ĠPro jekt
l ungs
rei se
M ethod
o ok
ĠVer tr
3 5
ap pen
Ġarb eitete
Ġal les
I tem
ib li
Mar shaller
w agen
Ġunter schied
ĠM Ã¤n
ĠT el
ĠEn g
Ġ18 0
Un ivers
a ffen
g o
ĠD av
Ġ199 3
Ġmus ste
op pel
att ung
Ġj etzt
ch es
ĠT ochter
ĠK loster
Ġviel en
age ment
re e
Ġje der
i at
ĠP ort
ĠM ath
urn al
b y
o den
ĠK Ã¼nstler
Ġfolgen den
ĠBer uf
ĠMa x
V al
ack age
19 5
ĠEr geb
k au
u ster
Ġgegr Ã¼ndet
ech t
ĠSt ad
os it
ĠS icher
w ehr
Ġ196 0
Ġz eigt
S er
L iefert
ĠB ischof
it ten
R ef
' s
en glisch
ig inal
tocol Marshaller
Ġl in
ĠGeb iet
sch t
n ehmen
il le
Ġl Ã¤
ĠG ast
ĠPl an
ĠH ar
auf en
Ġw obei
leg al
Ġkl ein
ĠAm t
it u
ĠI OException
Ġw echsel
g ruppe
Ã¶r t
Ġb y
č ĊĠĠĠ
ig h
ĠS ein
st elle
ĠS eine
ĠN utz
Ġn Ã¤ch
ĠU l
ĠPf arr
Ġt Ã¤tig
ĠM Ã¶glich
Ġinner halb
4 7
ist ischen
richt ung
ĠK ant
ĠP ap
m ed
spr ach
den t
ĠR ot
iz ei
Ġ198 9
Ġkl eine
E igen
ĠCh ar
Ġv al
4 3
Ã¼r z
ĠFrank reich
ett bew
ro w
en gth
ĠProdu ktion
Ġm eist
ĠF arb
FuÃŁball spieler
al k
uch e
l d
if c
Ġunser e
ĠS en
ĠD e
Ġl ist
Al l
ĠB ef
Ã¤n dern
fahr t
i ent
ĠH e
ĠF C
ĠLeip zig
ĠSchwei zer
or ge
ĠL iteratur
Ġw h
ĠA s
Ġgr Ã¼n
wend ung
ag es
b es
g ar
Ġer f
Ã¤r en
Ġ199 1
arb eiten
ĠB is
ust rie
os oph
ate d
L og
Ã¼ ler
ĠObj ekt
f ter
Ġm eisten
geben en
L oc
Ġm Ã¶ch
Ġschn ell
t ler
Ġsich er
ĠZwei ten
Ġf rom
st ieg
b urger
E D
la v
Ġd afÃ¼r
Ġauf grund
ĠKais er
eck en
sch lag
ĠfrÃ¼ her
ges etz
Ġerfolg te
ide o
ĠP ark
l Ã¤nd
Ġins gesamt
ĠInform ationen
ĠN orden
Ġges am
E vent
deut ung
rei ben
t ei
S C
st reck
a ir
ĠThe ater
F Ã¼r
ak ter
< ?
ĠVer kehr
Ġur sprÃ¼n
n ull
ĠStra ÃŁen
S c
ĠB evÃ¶lker
ĠR el
pert ies
ĠM at
pro du
ĠF il
Ġk m
az z
ak tion
te c
ĠW Ã¤hrend
ver kehr
Ġkl einen
4 6
t her
ĠkÃ¶n n
Ġn ieder
ĠM utter
ĠHeim at
av e
Ġex ist
s burg
ĠT yp
ĠC or
Ġl a
N ull
Ġer rich
Ġd an
ĠR olle
ĠH inter
Ġm ein
Ġn Ã¶rd
V ers
ĠD o
ĠE p
c y
Ġd eut
ĠMart in
ik en
Con fig
adem ie
al y
il den
Ar gument
Res ult
fl uss
ĠW e
an de
Ġb reak
b te
eh l
f s
T ext
eu ch
Ġle ben
sten s
ran ken
ek tr
ĠBes itz
Ã¤ f
m o
ĠschlieÃŁ lich
eich en
Ġkonn ten
in es
Ġn ord
h anden
ĠT age
ĠM ehr
ĠMill ionen
ĠDeutsch e
In ter
Ġver such
ĠEis en
mb H
lich keit
ĠSchrift steller
3 3
Ġh Ã¤uf
ĠTh omas
h as
ĠS tim
ro s
Ġw ichtig
gen t
Ġent fern
w Ã¤r
Form at
b est
le ch
den s
sch iff
Ġf ile
Param eter
Ġgeb oren
ĠRom an
ĠVer trag
Ġ3 1
Er ror
Ã¼t zen
8 9
Ġb lieb
y d
Ġn atÃ¼r
stell ungen
M us
ul d
ev el
Ã¼ ter
Ġs og
mann schaft
ay er
O ut
ĠS am
ĠD am
ber ger
ĠG eld
Ġbis her
- ,
ĠC lass
S ize
Ġ Ã¤
k unft
o ben
her r
Ġd ouble
iz ed
Ġ ...
ĠDie ser
B au
Ġp rÃ¤
os sen
cri pt
verb and
ĠlÃ¤ sst
ge gen
f est
ĠSo zial
Ġd o
ig te
ĠEn erg
f ert
ĠOr ts
k tr
em at
ĠT ri
l as
ĠC he
Ġ198 8
Ã ľ
ĠG est
Ġ195 0
put Stream
is iert
ti ger
Ġit alien
ĠK in
Ġverschieden e
ĠG ut
Ġb ed
Ġk osten
ord nung
ĠChrist ian
ĠSel bst
A P
O n
ĠK ind
V or
Ġz eit
b ed
w or
Ġgegen Ã¼ber
ĠR ec
lin gen
St and
rau ch
ĠI de
18 9
z Ã¼
ĠE he
ĠW enn
ot s
Or t
ĠM il
ĠK ilometer
ĠW ochen
Ã¶s ung
p art
ĠL es
lÃ¤ uf
k ung
ĠK omp
Ġmit tel
ĠSchwei z
E ine
Ġsch Ã¶n
. :
ĠIn s
Ġwechsel te
ĠM aler
ĠM ethode
ĠT Ã¼r
ĠAuÃŁ er
Ġst r
get C
Ġunser er
it s
ĠSch utz
ĠReg ierung
Ġ Ã¼b
in ner
ir st
ĠO p
ar ben
ĠF Ã¼hr
am ens
==== ====
ĠA c
Ġcase Ifc
4 4
ĠZ ur
R ep
ĠG mbH
m m
de b
re ad
Ġm od
tr itt
ĠAr ray
anst alt
ĠM ap
om en
Ġ up
Ġf l
Ġk n
Ã¶st lich
ĠK ompon
ĠL ang
Ġz usÃ¤tz
Ġ as
ĠMar ia
ĠV ier
Ġo ffen
fÃ¼hr er
ĠAlb um
et ail
S ystem
ĠW ein
re p
O bj
ft ung
ĠSt Ã¤d
Ġw ich
Ġw ohl
efin ition
Ġinstance of
i am
und er
ĠBeg inn
it Ã¤ten
in ation
ĠG re
Ġsow ohl
z ie
R O
Ġd ien
ĠW ieder
Man ager
Ġin sbesondere
r Ã¤n
Ġw ahr
Ġo ber
ĠSch ule
ge geben
ĠIn sel
s ystem
an te
Ġb in
ĠBe deutung
Ġvor handen
in dex
tier te
Ġhin aus
3 6
Ġm ar
issen schaften
++ )
ÃŁ t
ĠAn g
ro p
al z
yn ch
Ġn ie
ĠT ex
zeu ge
ĠK reuz
Ġern eut
ĠA ben
ac t
tiv en
lo ad
Ġgemein sam
ĠFuÃŁball spieler
ent lichen
ĠRo bert
Ġgel ang
Ġwen ig
Ġf ort
Ġp ol
ĠAn geb
spiel sweise
war e
Ġerreich te
ĠW ar
ĠAut or
Ġz ehn
m ark
hr ead
ĠK urz
Ġh erv
p reis
ant wort
Ġf orm
Ġ( )
ĠÃ¼ber nahm
Ġgew Ã¤hlt
Ġhand elt
ern er
k n
Ġ198 7
ord s
f an
ge hen
ist r
Ġh Ã¶ch
ĠJ ur
ĠO t
gr ess
I ch
ĠH in
7 5
ĠR ichtung
ag t
ĠGes amt
ĠO per
w ay
ĠE t
ĠH el
Ġp l
ĠP o
Univers itÃ¤t
s ub
ur f
atur e
Ġehemal igen
all y
S eit
Ã¶ ÃŁe
Ġzwei te
ĠSÃ¼ den
y le
ĠSt art
c reate
urn ier
c ess
an ien
ĠKl asse
ĠR ed
pr int
ĠF ile
od y
ĠHo tel
ĠG Ã¶
ibli othe
uch te
ĠReg ie
8 6
ĠOlymp ischen
G r
Ġ198 6
sch inen
ĠPro gramm
ĠZw ischen
Ġbest en
geb aut
ĠT ab
inz u
L o
Ã¤ user
Ġ{ @
Ġd ata
Ġal ten
" )
ĠB ilder
ĠP ost
ri gen
eg r
schaft s
Ġpro tocolMarshaller
S el
m Ã¶
ĠIl legal
Ġdah er
Ġ ad
ĠZ Ã¼r
Ġin dex
Ġj a
Ġ193 3
ĠIntern et
g Ã¤n
al le
ĠM c
ern en
et a
Util s
ĠD enk
N ot
f red
V on
Ġer klÃ¤r
ĠR en
Ġlie gen
ĠIt alien
at te
L and
Ġ org
ac tion
ol ution
gesch lossen
ĠVer l
an ken
eil nehmer
k omm
O ption
get Name
ĠBo den
A G
s l
w asser
op p
Ġm acht
u h
Ġl ong
z y
ĠOn line
3 2
Ġzw ar
Ġbes ser
eich nung
v oll
Ġge legen
ĠIn nen
In stance
ut zen
her e
Ġ6 0
es e
ĠF ort
Ġbest imm
j et
Ġn ahe
im a
enz e
W elt
ĠK unden
um m
op er
g ra
Ġihn en
Ã¤ ischen
Ġein gesetzt
Ġ198 5
un ge
te gr
re f
den burg
C ount
Eigen schaft
Ġ198 4
Ġent stand
A S
b ank
Ġsie ben
Ġsoll en
8 5
Ġbei spielsweise
ger ufen
Ã¤n den
Ġbe vor
ue ck
en ter
mÃ¤ÃŁ ig
u he
ing le
bar en
e der
Ġem pf
ont in
3 9
sp l
ĠProf essor
ĠW issenschaft
ab hÃ¤ng
ĠR ev
ff set
ĠAn zahl
Ġnicht s
ym b
ĠR uss
lau b
schul lehrer
ĠP osition
ĠDre h
val id
ĠW ind
se hen
sen d
Ġerfolg reich
ist ische
ium s
Ġs ub
P ackage
f Ã¼r
ad a
z ess
ĠMit arbeiter
ĠS til
ĠBes uch
U N
Ġen gl
ol ler
Ġ acht
B uffer
ĠBay ern
ĠAnd re
n ach
Ġre gel
ĠTh ema
ĠHal b
Å į
er r
lo b
Ã¤ch lich
Em pty
U p
u al
ĠK auf
Ġ197 2
Ġw oll
ĠVer fÃ¼g
ĠO sten
or gen
w art
cri ption
un ction
ĠK or
ĠS ong
Ġst amm
b Ã¼
u ild
P l
Ġ check
ist ik
Ġf r
ĠMa in
en ce
Ver ein
ontain er
ĠF ernseh
ĠMit glieder
h am
ion s
ĠT al
ĠN etz
f il
Ġgen au
b ek
ĠH ei
Ġzahl reiche
tec ted
ger icht
ĠC ol
Ġzu dem
Ġerrich tet
ĠD ruck
Ġfolgen der
w ald
ĠN or
ĠN Ã¤
Ġent standen
A ut
fol gt
bar e
ĠZ um
ic an
ym n
Ġges p
ikan ischen
T yp
ĠM ont
w ohl
Ġeigen e
7 6
al tet
olit ik
ynch ron
ĠM otor
Ġsie he
ĠT a
4 2
T oken
w eit
ect or
ĠverÃ¶ffentlich t
Ġ197 9
hau pt
ĠM aterial
ĠH en
ettbew erb
U T
ein t
" ;
t ype
us h
meister schaft
ĠH om
St atus
Ġdam als
ĠD om
ĠL og
ĠSch Ã¼ler
ichte te
IN D
on en
te st
sch eiden
Ġbest ehen
st art
Fac tory
ĠWest en
ĠA ir
F A
Ġso zial
Ġheu tigen
ĠMin ister
it i
w o
Ġm ethod
ĠÂ »
ĠL au
f re
Ġre cht
Ġsog ar
ĠD DR
ĠOrt steil
Ã¤ chen
ĠC ount
Ġp ath
U r
ĠC om
ge fÃ¼hrt
le ge
Ġ Ã¤hn
zeich en
throw s
ĠS im
Ġb ild
ĠAuÃŁer dem
Ġlie ÃŁ
ĠT est
eg ung
la den
d i
ĠS uper
ĠAuf lage
ok rat
Ġst ar
Ġ Q
ĠG ed
riv at
EN T
I S
ag s
iv id
ĠEn d
ĠEr folg
iv al
At tribute
Ġdan ach
it ial
st Ã¼ck
ĠM ilitÃ¤r
Ġm in
im al
b eh
z immer
ĠR und
Con stants
C E
T rans
Ġ198 3
Ċĉĉĉĉ ĉ
Ġentsp rechen
ĠB ran
im ent
ĠO s
K l
irekt or
F rom
Ġgef unden
Ġwel ches
geb Ã¤ude
Ã¼ hle
en zen
Ġ197 8
fl Ã¤che
ĠHerz og
net en
ĠS achsen
geb ung
ĠD res
( (
Ġstell t
ĠAm ts
F ernseh
Å ¡
A p
ge m
Ġge ben
Ġso gen
ail le
ĠPol izei
ei der
ri x
iz iert
ĠW al
ĠC arl
ĠG ruppen
ad urch
get S
Ġdeut lich
âĢľ )
ĠS ek
ĠM os
ak te
ĠS ex
ul ti
Ġwen iger
K on
Ġn o
ĠSt u
ĠhÃ¤uf ig
sch ech
Die se
Ġ(âĢ ŀ
al og
ok al
u x
ĠE ing
ĠInstit ut
C O
ot h
Ġst art
z i
ĠW o
9 9
ei ger
Ġn ational
ol a
Ġ197 4
C omponent
ĠD ok
ĠG i
Ã¼r t
ĠT on
ĠVerein igten
Ġdar unter
u el
Ġs omit
ĠK Ã¶rper
Ġg ar
---- ----
pl ate
Ã¤hl en
ĠHer ren
werk e
ĠR ein
ĠEle ktr
Deutsch land
och e
r ist
Ġi d
Ġc urrent
H och
d a
an ischen
Ġ198 2
ĠgehÃ¶r en
ie ten
ei s
ir t
ĠA ber
ĠP ass
ĠMed ien
ĠT rans
oc ument
3 8
f rei
h ang
ĠwÃ¼r de
ĠD el
ti tel
Ġ198 1
Ġ197 7
ĠKrieg s
ĠP fl
c urrent
k el
in c
l eitung
Ġh Ã¶
ĠBahn hof
Ġw elt
ĠV iel
ĠJohann es
3 7
Ġver sch
st ehen
ĠK ategor
Ġ197 5
ĠFre und
ĠSch wer
sp rech
ow er
Ġletz te
Ġf ield
ĠAr tikel
ĠStud ien
eh ler
ĠS oc
Hand ler
end et
bl ick
ĠL o
f ile
re v
itz t
Ġer k
Ġ196 8
n o
ĠErn st
ĠP or
Ġ Ð
F rau
ĠRech t
Ġabsol v
stru ktur
st all
ĠS and
ĠAn ton
s ie
ĠB ach
fra ge
R ec
d o
ges ellschaft
ab il
Ġver fÃ¼
deb ug
Ġp ersÃ¶n
Ġ197 6
tem berg
> ();
c ase
tr e
ĠG arten
and id
ĠD rei
Ġd el
Ġo ffiziel
k ungen
ĠF el
Ã¤ te
Ġr uss
te chn
Con tent
lÃ¤ ss
ĠSpr ache
P er
p ts
il la
Ġer Ã¶ff
ĠP ra
ĠT o
Ã¤t zen
Ġerw Ã¤hn
U L
r acht
ĠK osten
ser t
4 1
au se
ot z
Ġein igen
ĠZ ust
Ġgen utzt
Ġ us
ĠW el
Ġst arb
lei d
Ġ196 9
ĠSie d
5 5
ĠA f
U m
ĠG ot
Ġr Ã¶m
br uch
** **
ex ik
P E
ĠS u
Ġl ag
Ġbef inden
ĠE ben
ĠP rÃ¤
ĠF euer
op e
F l
it or
gen de
D ate
Ġs c
ĠSp iele
ĠS onn
in i
8 8
Ġc m
ĠG ar
Ġf re
R el
tr a
ĠAuf trag
L A
tag s
Ġz og
itz e
ĠEl tern
n ext
ĠZÃ¼r ich
ĠB ank
ĠVerfÃ¼g ung
ĠF rie
ĠM er
Ġzu vor
ag ue
m et
ĠA ward
Ġk ur
ĠF inal
" .
ĠR egen
ich ter
mal e
ĠRei he
T able
ĠB aden
ish ockey
ĠBru der
ĠGes etz
ĠHil fe
Ã¤l fte
h an
Ġgem acht
rei te
Ġ197 1
Ġe urop
Ġger ade
schlieÃŁ lich
ach er
Ġ197 3
ĠB ur
ĠB ot
lo at
ĠVerwalt ungs
ĠM e
Ġs of
Vers ion
f ried
an lage
ĠM y
ĠP rÃ¤sident
ĠM el
Ġbie ten
ĠB al
Ġf er
is p
teil t
ul ar
m el
An d
ĠL age
ik e
ĠSal z
N A
ang s
ges ehen
En d
ĠJo urnal
Ġ196 7
Ġ ung
D at
Tra ce
ĠCh or
3 1
ĠA G
ain er
sch ungs
form at
Ġherv or
Ġd r
rich ten
re c
ĠRei se
list e
Â »
Ġch ar
ĠHann over
ĠV o
Ã¼ss el
s um
ĠM Ã¼l
č ĊĠĠĠĠĠĠĠĠĠĠĠĠĠĠĠ
en a
Ġh inzu
ĠVor sitzen
Ġverb unden
Ġ reich
ĠF inanz
ĠN ot
Ġzur ueck
ĠII I
ĠEr fahr
pr Ã¼
zeich nungen
ĠHer mann
am eister
Ġd efault
C omm
enn ung
t he
Ġge hen
it al
Ġs h
St art
ĠG ott
a un
ymn as
Ġent hÃ¤lt
ĠStel le
C H
ĠfranzÃ¶s ischen
k rÃ¤
pl an
Ġi r
C all
p le
ĠgrÃ¶ÃŁ ten
ĠBevÃ¶lker ung
Aus wahl
: //
as ste
u tet
ĠV al
ro ss
ĠC D
rei fen
Ġw es
ĠAus bildung
ĠNÃ¤ he
ĠB or
ort h
arb eitet
mar shall
Ġteil weise
M L
Ã¶ hn
ĠDav id
re am
Ġc lass
b esch
ikan er
ivid u
k eits
on a
ĠG eist
ĠF Ã¶rder
ĠS ervice
Ġb yte
ĠAr me
iv en
ĠAuÃŁ en
z ehn
Ġk lass
ar ian
rei bt
d ien
Ġ196 4
E L
Ġ Å
ĠK raft
deck t
ie te
ĠH or
ibliothe k
ĠSch Ã¶n
en e
Ġau t
ten s
ĠBeg riff
w rite
Â ²
Ã¤ s
Ġ( =
R e
Ġstell te
ĠI r
List ener
Ã¤ us
Ġk amen
Ġ193 9
ec ted
Ġr et
Ġsoll ten
b and
wei sen
fol ger
Ġres ponse
ei en
W est
ĠK arriere
ĠE hren
ĠSer ie
tei dig
in ge
lie ben
f Ã¤h
f ield
Ġpar am
ck e
ĠEnerg ie
B IND
6 4
ĠB ek
yn c
7 9
ĠG leich
ĠR ang
ĠNach t
an o
ey er
G em
as en
L e
ĠGeschÃ¤ft s
ĠCount y
w esen
w ind
Ġk einen
ut ton
ĠSie g
Ġentfern t
ymb ol
p ol
ĠMin uten
ag n
arl ament
r uf
ĠK ol
v ider
Ã¤d ag
BIND ING
x is
M ed
Å Ĥ
ĠT op
M ail
ĠT ran
6 5
fl ug
Ġver s
P art
r ach
H er
Ġ196 5
f ung
rit te
en te
Ġz ul
. <
h ung
ativ en
Ġak tiv
Ġw ollen
ĠR ud
ĠEr d
Ġmit tler
ĠQu alitÃ¤t
Mod el
ow s
or ie
Ex pression
Ġd ir
an y
af en
ier ungen
3 4
Ġ8 0
Un ter
ĠJose ph
rei ten
ĠCh arl
Ġbet eil
ier ter
ĠAl le
G ener
Ġauf genommen
Ġl eicht
eu e
ĠPolit ik
ĠFrÃ¼ h
Ġgleich en
Ġerreich t
Ġeinz el
isse ur
ru g
Ġunter stÃ¼tz
m ut
Ã¶ pf
ud em
P ol
us st
ĠGr ab
Ġdam al
zentr um
Argument Exception
Ãľ ber
ĠEr w
streck e
v est
rÃ¤s ent
ĠSil ber
ontain s
ĠNach dem
tr ue
T h
ire c
Ġth at
Ġje den
ende te
de d
Ġwh ile
Ã³ n
Ġte chn
ĠT ier
Ġ196 1
Ċĉĉĉĉ ĉĉ
ĠnÃ¤ch sten
Ġw issenschaft
b us
Ġbei de
rit z
ik t
ĠVerb indung
L O
u sch
Ġ193 0
Ġen g
ĠIn n
as il
ĠWor ld
ĠS in
ĠC ity
ĠGemein den
i os
ĠPhil osoph
k ap
ĠR ock
jÃ¤hr igen
Ġver lie
ĠMÃ¤n ner
u hr
ĠFl uss
F ilter
ĠOt to
zeu gen
C ase
eil en
itz er
geh end
Ġk ompl
ite d
ĠHer aus
spiel en
Ã¤ um
ĠK ampf
Ġfol gte
7 7
Ġ194 4
Ġ(âĢ ł
ĠH Ã¤lfte
Ġ19 20
ial og
N umber
Ġam er
W erk
i ft
ĠM eer
ĠF en
Ġre ad
ĠD ach
Ġm on
ĠL icht
Ã¤t ten
M P
Ġ195 2
ann e
ĠSa int
ĠDam it
ĠArray List
Ġver tr
Ġ );
hal te
ĠWerk e
O per
Ġho hen
Ġ196 6
Ġpro duz
Pro du
ĠUnter stÃ¼tz
ĠFra ge
ĠS em
ĠB raun
Ġ195 9
ĠAk ademie
T Y
ĠMa ÃŁ
er in
arb eitung
Ġgew esen
ĠH all
Ġel ektr
zeu gt
f rau
ĠB us
ĠâĢ ¦
ĠB Ã¶
Ã¼s se
Ġnach dem
ord in
ĠJ azz
ĠL iga
ĠauÃŁer dem
ĠWolf gang
Ġl oc
Ġwir k
rie ch
ir ks
f ord
Ġn ode
ĠSpiel en
rik a
Ġm achte
ĠC as
Ġ194 0
B r
Ġver f
Ġ196 2
om an
a sch
an ger
E T
od es
ĠCh em
Ġfolgen de
f Ã¶r
Ġbest and
Ġ194 6
kt or
T r
sch riften
Ã¼rt temberg
aler ie
r hein
is ierung
eh len
ien s
dig t
Ġver z
so zial
ieh ung
Ġr em
wei g
st at
ĠP sych
str ing
H ol
g liche
ĠB und
her ap
der s
Ġm ed
ut es
eid el
ĠA ustr
pr ess
O T
ĠD och
C omp
z z
i j
ĠL Ã¶
Ġmehr eren
ĠBÃ¼rger meister
Ĥ ¬
Ge ographie
it ch
ĠS tern
ĠAr ten
Ġ195 6
Ġentwick elt
it en
D efinition
pro tected
ĠJ e
Ġ196 3
ĠAlex ander
ĠDres den
Ġd Ã¼r
au sch
ell a
ick en
Ġbede uten
ann el
A D
ĠD oppel
la ck
Ġtr ans
i que
olog ische
ĠBas is
ĠS m
Ġ scha
Ġinter ess
Ġson st
F I
l ern
ĠD enn
and elt
Ġ193 8
Ġal te
ĠÃ¼ber n
Ġspe ziel
sch uss
ĠK opf
Ġk ehr
ing ungen
our ces
l am
ĠSt unden
n am
o in
ĠA ch
Ġz ie
ĠDies es
c le
ĠPr em
Ġg erne
hÃ¤lt nis
A ccess
Im pl
ĠBerlin er
hei ra
P age
Ġst ellen
id th
Ġer r
Ġge tr
P r
U ser
ĠStr ecke
Ġ195 8
0 5
b ten
o o
ĠM ein
ĠJ apan
Ġb as
ĠD ep
ĠI D
ĠMÃ¶glich keit
o is
ĠBr and
ĠF uÃŁ
ĠSe e
ĠDes ign
ĠRich ard
ĠW h
e arch
Ġer ziel
C hr
F C
H eader
] .
Ġben Ã¶
Ã¼ ch
8 7
z ip
ĠS ub
Ġs uper
or a
Ġge k
ĠRep ublik
ul a
Ġc omp
ub e
not ation
Ġeben so
Ġwei ÃŁ
m und
at hl
Ġan schlieÃŁend
ĠKont akt
Ch ar
Ã¤tig keit
ik al
tig ung
Ġer ster
Con figuration
ĠFra gen
zep t
c m
iv ision
Ġ195 7
E C
t um
ĠEr sten
Sp iel
Sp ort
ĠErgeb nis
z eiten
Ġres ource
Ġev ent
v el
ĠD ist
ĠH essen
ra p
ition s
Ġl and
N ames
ĠL ou
D ec
T rÃ¤ger
z uf
âĢ Ŀ
Ġg ute
etz ung
ĠOr gel
Ã §
kau ft
Ġbes uchte
kl us
W enn
ĠT eile
Ġ195 3
ĠfÃ¼hr en
ĠÂ «
ĠF ig
gew iesen
ĠÃ¤ uÃŁ
Ġf alls
sh ip
ĠUnter such
Ver lag
S V
Ġ3 5
ol den
Ġihr es
Ġ195 4
Ġcon text
Ġm eine
rie ges
Ġsch rieb
Ä į
ag o
ig keiten
ĠV oll
Ġgemein s
l n
g ien
m on
Ġeh er
K ir
Ġ9 0
ar f
ĠW ort
op y
ile d
Ġw Ã¤re
ĠM ad
eh ens
final e
A mer
ĠS et
> (
ĠOr d
k an
Ã¤t ter
ĠW and
gr Ã¼n
setz en
west en
le cht
ĠPart ner
ĠErz b
bet rieb
ele te
Ġsetz te
er ror
g ten
sp h
Ġst ate
Ġ17 9
ing ton
ĠArb eiten
Ã¡ n
Ġz eigen
ab rik
ier s
Ġal t
ĠInd ustrie
ĠK rit
olog ischen
C l
l assen
ĠGes und
Ã¼ss eld
b eg
on ie
ĠStud ium
Ġent halten
it a
it sch
ĠP op
ĠStand ard
Ġ194 8
or te
Ġn orm
Ġbet rÃ¤
ĠIllegal ArgumentException
T ag
Ċ ĊĠĠĠĠĠĠĠĠĠĠĠĠĠĠĠ
ĠA ust
ĠPr ess
ĠGl as
Ġp r
ĠSt Ã¼ck
ha ft
s em
ĠPh ys
at tern
ĠK om
ĠZ udem
ĠLe ague
Ġd ritten
Ã¤ ss
ĠB rit
ĠF ern
ĠW alter
Ã¤d chen
ĠD eb
ĠSch warz
ent wicklung
zei gt
wie gend
ĠursprÃ¼n glich
Ġd at
5 9
ĠC ms
la ce
ĠP an
ĠVer sion
k ra
ĠKon z
Ġz erst
Ġdar Ã¼ber
ter s
M S
ĠĠĠĠ ĠĠ
ĠP il
ĠMod ell
Ġne un
t liche
ab r
T eilnehmer
Ġt c
b ef
i ber
o der
ĠS onder
Ġsp ielt
C onnection
and s
Ġ195 5
N ext
on es
ĠT im
ĠSt amm
inn t
d k
re quest
u a
S o
Ġsel ten
ĠS Ã¤nger
ĠL eiter
Ġwoll te
. -
Ġer reichen
ĠC al
ĠFir ma
6 6
Ã¤ch s
st ud
im men
L ine
Ġ ap
ĠV ideo
st ant
ĠÃ¤l ter
l ad
ĠSp ez
Ġunser en
Ġeinzel nen
be ck
dr ess
rei sen
mus eum
k athol
ĠA g
par k
S ON
i w
Ġf inanz
G es
Ð °
ĠÃĸ ff
stra hl
ien ten
t c
g yp
ĠB rie
Ġn ehmen
Ġer z
Qu ery
Ġz entr
In teger
ic o
ĠIn teger
ĠBr on
v iew
ver walt
C ms
M et
ĠSt ar
Ġge d
Ġaktu ellen
lich keiten
ĠJ er
ĠAut o
Ġgen er
Ġon line
T ree
ĠN ik
ĠEr k
land s
F F
l eiter
ĠAus wahl
n eter
ĠP rivat
ĠK ranken
mar kt
lag er
ĠSta ff
d am
w ill
A B
c lient
Ġ7 0
N o
v is
te ten
Ġbesch Ã¤f
In ner
d ata
Ġtr otz
L ength
en g
Ġk athol
Ġs er
l eit
st att
ĠW all
ĠR at
âĢ ĺ
ĠUnterstÃ¼tz ung
un ternehmen
Ġk omp
olle ction
Ġstamm t
s ei
el ten
Ġl Ã¤nger
Ġbeg r
ĠKÃ¶nig reich
Ġver ein
ap e
ĠNach folger
ĠSte uer
in fo
Ġt yp
ĠW ider
ĠL OG
ĠCl ub
ĠDenk mal
gel Ã¶st
unk ten
ĠverÃ¶ffentlich te
ĠAmer ican
D F
ĠkÃ¶nn te
en ten
E d
ĠVer gleich
ĠLin ie
ĠerwÃ¤hn t
V iew
ah nen
Ġspiel en
Gem ein
per atur
Ġo ben
8 4
ĠnatÃ¼r lich
ĠS yn
Ã¼ st
Ã¶ sen
Ġver heira
Ã¤nder t
Ġge pl
al es
_ _
c ing
ĠA pp
ĠH an
entr y
Ġabsolv ierte
gel n
ĠKon tr
fall en
ch ester
ft ware
Ġehemal ige
ĠWill iam
is Empty
In t
Ġex ten
ĠBau m
hal le
E S
s a
ay s
at ter
Ġho he
W er
Ã¤n gen
ĠGeb urt
Ġ ra
Ġ194 9
Ar ch
ĠProdu kt
pl ication
E X
J ob
ĠR unde
tig keit
Ġ195 1
5 6
S te
i ol
ĠTh emen
au sen
ĠO ffiziel
Ġev angel
L evel
S etzt
ĠS old
ek tion
ff er
0 9
R I
c ontains
Ċ ĊĠĠĠĠĠ
Ġerh Ã¤lt
Ġv an
Ġumf asst
ĠgrÃ¼n dete
Ġs ex
l ar
yn am
anst altung
f in
ĠK amer
ĠP arlament
ĠP unkt
end es
Ġweiter hin
ĠEx ception
O L
an ad
ĠP ublik
Ex ec
tem ent
st eh
olog y
ĠFol gen
ĠSt at
Ġmo der
fÃ¶r m
k raft
den tif
A ss
a iled
O S
lin ie
ĠB all
y a
ĊĠĠĠĠĠĠĠĠĠĠĠĠĠĠĠĠĠĠĠĠĠĠĠĠ ĠĠĠĠĠĠĠ
ĠL eitung
ot al
tern ehmer
ĠFor schungs
ĠVer f
ĠReich s
M in
k reuz
âĢ ŀ
ekt or
eig ht
l Ã¶sung
ĠStadt teil
Ġorg anis
Ġwel cher
rÃ¤siden ten
ch ar
" ))
ĠB d
ahr en
tern al
d aten
ĠJ ames
Ġk ennen
Ġhei ra
wÃ¼r dig
ĠBl ick
q l
ell es
st anz
ĠR a
Ġt arget
ĠAl bert
ug h
eig net
S up
ĠâĢ ľ
S ub
Ent ity
Ġj apan
ill en
20 18
Q L
ĠE st
ĠA ugen
Ġge geben
ĠIhr en
ĠDan ach
d at
ĠBez eichnung
ĠD ann
ĠJ ac
sta at
ĠR os
ĠTag es
J o
ate in
ĠW as
m ap
pf er
ĠNach bar
Ġneu es
ĠAn n
ĠGr Ã¼ndung
ĠEnt scheid
6 9
meister schaften
ĠW ahr
Ġgesch lossen
deut sch
ĠAl ten
Ġverl oren
ĠKategor ie
C he
ĠD ek
Ġsch l
T em
em ann
ĠArme e
ĠReg ierungs
Ġbel eg
ĠZentr um
h Ã¶r
imm ung
mit t
richt ungen
an lagen
r c
Ġin put
k arte
Ġhei ÃŁt
um p
T ask
ĠKant on
Hoch schullehrer
Ġc all
Ġ194 7
ĠsÃ¼d lich
A ction
z og
Ġer folgt
Ġen try
Ġrech ts
w egen
le b
ĠUm welt
oc i
Ġje de
Ġer weiter
ou ver
0 1
ĠP unkte
ĠT urm
ĠR Ã¶
8 3
l l
Z u
Ġ194 3
Ġsel ben
ĠPfl anzen
Ġinternational en
j e
Ġ+ =
ĠJose f
k i
ei sen
ĠS w
ir m
au b
ĠR itter
eich er
M ax
a at
Ġj Ã¼n
ĠbetrÃ¤ gt
ĠJ ean
h istor
Ð ¾
Ġun ver
Ġarb eiten
ĠSc ien
P oint
ĠL Ã¤nder
P h
ĠL Ã¤nge
hal ts
Ġmo dern
ie ben
Ġgesam te
ĠA u
C D
Ġerh Ã¶
mus ik
b ie
Ã¤hl te
ĠH eidel
ĠAn ti
ĠAn gel
zw ischen
s c
Ġar e
au tor
ab eth
ra el
Ġbes itzt
Ġs b
Ġbek annte
Ġmar shall
Ġeinz ige
0 3
ĠD amen
ĠmÃ¶ch te
ĠK al
Ġblei bt
ĠAb geord
halt ung
<? >
st o
ut her
Ġwirk lich
Ġsch loss
I ter
Ġein ger
oss ible
| }
Ġp ass
Ġp rom
ĠP e
Ġm essage
Ã¼hr en
Fernseh serie
on om
ĠD Ã¼sseld
ĠR em
Ġc om
spr uch
ĠPr inz
Ġ194 1
au ber
lie gen
amil ie
ĠFen ster
Ġj Ã¤hr
ĠEisen bahn
ĠV en
Ġh au
iz er
ĠGr Ã¶ÃŁe
inde stens
ĠAb schluss
0 6
ari able
Ġb ilden
ĠSchauspieler in
ol or
ĠAr n
ĠCh ina
ĠZusammen arbeit
schein lich
Ġel ement
Ġge baut
ĠK re
ĠLie be
N ational
ie ÃŁen
Ad dress
Ċ ĠĠ
leich t
ĠgrÃ¶ÃŁ te
A X
c tor
ib r
Ġ194 2
Ã ¸
Ġtr ad
g arten
rem ove
ot te
Ġneu er
ĠFor schung
S ource
Ġst ammen
br acht
Ġj ava
ic es
zeich nis
ĠVerein s
ĠSpr ach
ĠUm gebung
ĠOr iginal
M ill
fahr er
7 1
C olumn
Ġm indestens
Ġ> =
ĠT ruppen
i i
is c
reuÃŁ en
m ehr
s berg
ĠVerkehr s
ĠZeit schrift
G B
Ġ* /
den ten
Ġk aum
bau ten
7 2
\ "
ĠD azu
ĠZu kunft
s itz
Ã¼ ge
ĠKompon ist
U E
ers eits
ĠZeit punkt
m eld
Ġern annt
ĠH elm
Ġh as
ĠAn schluss
Ġwir tschaft
ĠEv angel
z a
Ġpro f
ĠW ol
t a
z us
Ur l
ĠM ess
zie hen
Ġdes halb
Ġg l
Ġle dig
ĠBay er
ĠBr un
ĠAben d
ref ix
Ġs etzt
ĠAngeb ot
N ew
on y
Ã¼r k
rei ber
ĠKir ch
ti en
ĠT e
Ġblei ben
## ##
Ġverheira tet
ĠS ow
Ġb l
tr aum
ĠOffiziel le
bez irk
ĠnÃ¶rd lich
b Ã¼rger
la w
ĠSchl acht
u hl
t d
Ã¼ ten
Ã¼r n
get Message
v on
ĠK ern
ĠR h
d et
ĠDok ument
ĠWirtschaft s
k r
s dorf
Pro perties
ĠIhr er
ĠR and
Ġent spr
Ġre c
7 3
Ċ Ċĉĉ
Ġge stellt
u c
ĠG al
ĠVer Ã¶ffentlich
ĠMÃ¼l ler
Ġsie ht
Ġausge zeichnet
Ġledig lich
ow ed
C ON
D a
ri ck
get Value
ĠÃ¶ff entlichen
em er
Ġgew orden
og le
Â °
Ġdar f
Ġentwick elte
ic ate
Ġjed em
ĠÃ¤l te
f alen
k or
atch er
8 2
n ungs
n amen
r unde
ĠH um
ĠGe orge
Ġbild et
Ġ193 6
rei he
Ã¼nd eten
ĠB on
ĠAk tiv
Ġp assen
20 16
haf en
ĠEng land
g ut
w ork
ĠE lement
ĠPhil ipp
Ġd ire
ĠQu alif
ĠOrg anisation
M eter
alif orn
ĠUn ion
A uch
s Ã¤tze
ĠE hr
ĠC ap
Ġunser em
C o
ĠSt ock
ab l
Ġtr Ã¤
ĠfrÃ¼ hen
Ġlog ger
ĠzusÃ¤tz lich
NA ME
. ");
ra ph
Ġo ption
g ie
om o
denk mal
g a
ĠJ ust
ent liche
ag te
Ġbe ein
ieren den
x y
Ġm ap
ĠP re
ĠAuf gaben
rech ts
ĠfrÃ¼ h
sch lÃ¤
Ch ild
ĠBes onder
ce pt
Ġvor her
b ro
s es
ut ure
Ġp art
c el
Ġgleich zeitig
ĠLehr er
M on
V erk
ĠH igh
pro chen
Ġd adurch
f unk
ĠB ack
Ġein f
Ġp rak
0 2
A c
ĠB ud
ĠM ass
Pro vider
ma ÃŁ
im it
tig te
Ġpolit ischen
ĠG ro
ĠMed izin
Ġl o
ĠPol en
pf lich
ie ÃŁ
ĉĉ ĉĉ
ak tiv
ĠM Ã¤dchen
iel ten
ĠAl ler
amerikan ische
Ġ- >
Ġheira tete
C ache
ĠD isk
ĠM ac
ver tr
c omp
ĠTra in
il ler
ĠT ur
ĠN icht
C om
ã ĥ
tr ainer
Ġp osit
ĠStr u
ĠHerr schaft
egr Ã¼ndet
st ate
un time
ann ot
ĠGÃ¶ tt
ĠprÃ¤ sen
5 3
lau ben
Ġind ividu
ĊĠĠĠĠĠĠĠĠĠĠĠĠĠĠĠĠĠĠĠĠĠĠĠĠĠĠĠĠĠĠĠĠ ĠĠĠĠĠĠĠĠĠĠĠĠĠĠĠĠ
ĠL Ã¼
ĠDi pl
b ase
Ġsof ort
Ġre p
Ġwen ige
P f
h eb
or gt
lin ge
ĠCh amp
form ation
Ġpol n
k ur
an ische
bau m
Ġbrit ischen
Ġup date
am in
get D
ymnas ium
ie ur
f unktion
Ġ3 2
L egt
er m
end ar
ĠKin dern
ĠP a
ĠH Ã¶r
ep age
0 8
ĠKl aus
icher ung
' t
ĠTeil nehmer
ĠZu ge
Ã¤n n
ĠEs sen
ĠBest and
Ġin dem
ĠO pen
rau cht
eren ce
Ġ193 4
Ġzahl reichen
Ġkehr te
ĠS Ã¤
Ġw ohn
ĠL eg
ab ase
ĠEin fluss
Ġo bj
Ġwer de
spr ung
ĠWei se
ĠColle ge
ĠTra iner
Ġzul etzt
ĠS ant
Ġer g
Ġver k
r ess
ĠB eim
ĠZeit ung
p os
ĠB onn
eb ug
ĠEnt wick
jÃ¤hr ige
Ġn immt
is D
bl att
au ern
Ġganz e
Ġerschien en
ĠJ ung
ĠAn na
7 4
Ġn ext
par tement
ĠHer bst
k ampf
ĠH u
ek ten
ĠEm pf
i or
ĠS uche
ĠÃ¶sterreich ischer
6 8
i men
Ġb ald
zen e
č ĊĠĠĠĠĠ
ĠL ong
n ey
ĠhÃ¶ her
Ġ tem
ar tet
er tif
ie ger
ro ffen
ĠN orm
d in
ge stell
ĠW agen
ran t
Ġkn app
D urch
ĠWien er
ĠJ ack
ass el
qu es
o tion
Ġm m
la f
rep ublik
B ahn
z ub
ĠH ash
ĠL ab
Ġh Ã¤tte
ĠJ es
ir g
Ã¤n gt
B e
Ġ rei
Ġs ervice
ic tion
Con tr
ĠFried hof
Ġh ol
sp art
ĠHoch schule
g Ã¤nger
Â «
y al
ĠĠĠĠ Ġ
Ġt Ã¤
Ġ193 2
Ġange geben
r am
Ġf iel
ĠR ennen
ĠP fer
ond s
ĠGer icht
les en
j ekte
and o
lie fert
Ġex ec
ĠMon ate
for schung
ĠG Ã¤
Ġer war
Ġgr und
Ġeigen tlich
ĠBez irk
mÃ¤ ler
O ber
Ġh alten
ist in
L ink
ĠAn gaben
gemein schaft
i ar
haus es
ĠVol k
B lock
ez ep
spr ache
Ġbef and
Ġvoll stÃ¤ndig
ĠAndre as
Typ es
8 1
Ã¼ m
Ġver kauf
Ġaus schlieÃŁlich
ĠSch les
ks am
ĠF und
ĠP ri
ĠL ied
Ġst Ã¤r
il es
Ġ193 5
ge legt
ĠRo sen
ĠHal le
west lich
W eiter
h te
0 4
st attung
ĠStaff el
ĠC amp
ĠVer such
ie gen
st Ã¤tte
ĠO ut
An y
Ġall gemein
Ġbede utet
ĠColle ction
ĠN S
ver t
ĠGer man
inde st
at ers
Ġun mittel
Ġ193 7
verwalt ung
= "
ĠK ab
Ġer mÃ¶glich
Ġh ab
ĠBei trag
B ean
T I
Ġd efin
Ġ5 00
ĠEinwohn ern
gew icht
imm el
F e
etz en
wissenschaft ler
b le
Ġ19 18
bar keit
ge g
Ġbr ingen
Ġdamal igen
ĠFarb e
ĠRud olf
ĠC an
oll ar
if e
6 7
ĠM acht
ĠJ ak
S I
an walt
ĠA ktion
Ġ192 9
hol z
ĠS ammlung
ĠT at
ĠZ eichen
hil fe
print ln
Ġr ich
ĠWeiter e
ĠunterstÃ¼tz t
ick t
p ath
Ġ euch
ech net
ĠBez irks
Ġdien te
er ei
ĠP rÃ¼
Ġp h
ĠGr enze
Ġper f
Ġaktu elle
ĠtrÃ¤ gt
9 5
n der
ĠF e
Ġf ind
Ġf anden
ĠN ur
Ġben annt
ĠW oche
ĠAn schlieÃŁend
ĠVorsitzen der
O ffset
By tes
T H
ĠW ild
Ã¼ck s
As ync
itu ation
ĠH art
ĠG et
ĠF ehler
qu ire
ĠMa schinen
ĠFl Ã¤che
Ġqu alif
6 2
ĠGot tes
fl Ã¤chen
ian a
umen te
G egrÃ¼ndet
st rÃ¤ger
ĠD ir
Ġr ichtig
ungs ver
ĠfranzÃ¶s ische
Ġschw ed
Amer ikaner
j o
eg ment
ĠProdu kte
ĠDreh buch
Ġk rit
Ġ4 5
k und
in sel
ĠT urnier
Ġg riech
ven tion
sch ine
j ava
Ä ģ
Ġj Ã¼d
Ġbek ommen
Im age
p ed
Ġi de
ĠBen utz
serv ice
anstalt ungen
Ġge prÃ¤
Ġgen ommen
Ġwelt weit
! !
Ã¼ gen
Ġbeg innt
ĠAut om
ĠF ac
le hn
zahl en
6 3
ĠK olle
ret Ã¤r
ĠLeist ung
ĠDÃ¼sseld orf
r el
all el
ĠN amens
auf trag
ĠgroÃŁ er
ww w
ĠD Ã©
ĠV ic
Ġh el
ĠAn lage
av en
ock en
Sp ec
Ġnot wend
Ġver d
W Ã¼rttemberg
ĠW es
Ã¤hr t
wÃ¤r ts
Ġm Ã¶
ĠT V
ĠStr om
lo c
ĠBr emen
athl et
E urop
Ã¤n e
kl asse
c up
k unde
Ġ text
ĠT rad
Ġbeleg te
0 7
ie fer
M e
ĠF Ã¤l
ĠP lay
igit alis
ig i
ĠSch ool
irec tory
A pp
p unkte
Ġ ;
ĠP et
PD F
Ãĸ sterreich
eu cht
ĠAus gabe
ĠBild ung
ĠFot o
Ġl ast
ĠVer kauf
b s
Ġs od
ĠK u
ĠG Ã¼ter
Ġver lÃ¤
ord on
n ehm
wei le
() ))
Ġ192 8
b is
Ġex tr
ĠR enn
ĠAr m
ĠFot os
ĠF ernse
krÃ¤ fte
ĠMus ic
Ġf in
ĠBÃ¼ cher
ĠEp is
Ġkosten los
Ġ19 19
ĠAb s
Ġzw eit
Ġsei en
et ern
ĠAn der
Jahr hundert
Ð µ
Ġjed es
T ER
stit ut
ra w
org ung
Ġjeweil igen
m at
Ã¼hl en
TY PE
ĠL ink
Ã¼l lt
ĠHeil igen
Ġtrad ition
ĠâĢ ļ
ri ffen
geh Ã¶
ĠSicher heit
Obj ekt
P ort
mittel t
ĠS atz
tr ieb
Ġl eich
res ource
Ġehemal iger
ĠChar akter
ser e
stru ktion
ĠRef orm
ĠFinal e
un sch
ad ata
Tra cing
Ġgesam ten
Ġent scheiden
lav ier
N eu
Ġd ich
ĠBau ern
L ong
Ã¼ ste
Ġp aar
op en
par e
Un it
ĠStÃ¤d te
un e
iz ation
lo sen
or ien
h auer
on ym
Ġgel ten
trib utes
ĠVer wendung
Ġre st
amerikan ischen
h Ã¤user
ĠB ig
Ġexten ds
D I
y th
ĠS ter
ĠF ischer
ĠV iz
o us
ha ber
Ġall ein
ĠR ob
leg ung
mittel n
ĠArchite ktur
B ase
ur ity
ag d
Ġaus gew
Ġdurch gefÃ¼hrt
U M
st Ã¤nde
ĠW erner
Ġer ror
P osition
B yte
W ie
Ġb au
Ġ19 00
n ess
ĠVor stand
Ã© r
ĠMen sch
UR L
1 00
Ġer setzt
Ġso ur
A M
ĠB ill
Ġk or
end orf
ĠS icht
ieren de
()) );
ĠspÃ¤ter en
ĠH y
ĠVertr eter
R o
ĠFamilien name
b as
Ġl aut
ind ungen
ĠDar stellung
ĠHeidel berg
S ession
ĠP rie
um pf
ec ts
ĠFahr zeug
Ġangeb oten
6 1
R eader
ĠSch lag
I t
Ġw rite
ĠW ander
ĠZ ei
Ġges etzt
Ġbr achte
au st
ĠZ immer
ĠAus stellung
etail s
H el
ĠGroÃŁ en
zeich nung
tier ten
ĠCharl es
Ġd est
ul en
ic y
Ġkl ar
5 4
B C
in put
Ġc omm
op s
Ġunter st
¿ ½
ĠMÃ¼n ster
ĠUnternehmen s
forder ungen
ĠS l
ĠK arten
iff er
gent in
R uft
w echsel
ĠU p
pf el
Up date
and lung
ĠHau p
ehens wÃ¼rdig
5 8
Ġ ed
ommer ce
f ace
Ġ time
Ġlin ks
ĠÃ¼bern ommen
D S
Ġf irst
Ġan s
lau bt
pts Ã¤chlich
Ã¤dag og
E l
d t
Ġb ein
ĠGr and
ĠK ammer
ra f
Ġpolit ische
Ġerziel te
Ġd ur
ĠM em
Ġn utzen
ĠLou is
ï ¿½
ĠS ec
Ġer forder
ĠFrei burg
ieh ungs
ĠH off
Ġt un
ien en
Ġj unge
Ġbel ieb
Ġmus sten
I L
aly se
ĠM Ã¶
Ġm en
ĊĠĠĠĠĠĠĠĠĠĠĠĠ Ġ
scha fter
ib el
ĠZ uf
Ã¤s ser
Ġm ark
Ġo ther
red it
rid ge
ĠF ak
Ġp reuÃŁ
ĠIn f
kir chen
ĠZusammen hang
b ung
Ġzun ehmen
ĠSchm id
5 1
rei tet
le ger
ĠWei hn
ĠD or
Ġl angen
ĠMa inz
======== ========
Ġregel mÃ¤ÃŁig
ĠE ich
ĠD irektor
ĠIn str
id a
W Ã¤hrend
t lichen
Ġ19 14
Ġver br
ĠFÃ¼r st
ĠL ager
ĠverfÃ¼ gt
D P
ĠS V
Ã¼r gen
Ġbe an
low ak
W riter
Ġs ah
ĠG attung
ĠW ehr
ĠNutz ung
f rie
Ċ ĠĊ
Ġ user
get R
ĠH und
Ġber eit
ĠGre en
Ġgesch rieben
G er
mit glied
Ġle bt
Ã¶rder t
wei te
uf e
ist ent
Ġkl einer
k osten
Ġb em
isch em
ĠRel ig
ĠS ign
ĠB ab
Ġl au
ĠStru ktur
p oint
p ossible
ĠVer br
f ur
Ġ ti
ver lag
setz ungen
ĠT ype
Ġge fÃ¼hrt
ic t
age gen
ĠH ir
ĠFl or
ĠMus iker
omb in
Ser ver
T O
Ġander er
Ã¶l f
Ġstatt f
w en
M ethode
z ur
Ġumf assen
K ultur
un ion
ĠL Ã¤ndern
ĠDan iel
ĠerÃ¶ff net
Ġsod ass
ĠEx per
ĠUn ited
Ġerh eb
Tracing Enabled
P reis
Ġb uffer
sp rÃ¼
ver l
ĠDeutsch er
wer ks
Ġf ra
An notation
ĠSt ate
Ã¼n dig
sub string
ĠA v
g ruppen
H ttp
ĠS PD
ĠG it
ĠSp anien
ĠStr af
ĠMath emat
Lo ader
is Any
ĠSpez ial
ĠF ritz
ĠN Ã¼rn
enz t
an i
Ġf unktion
ad o
ĠSchul en
ehenswÃ¼rdig keiten
isAny TracingEnabled
c er
ach ts
sp ann
ĠBran denburg
b yte
Ġj ungen
ĠS up
ĠE U
ri ge
K E
ĠO ff
Ġtr agen
5 2
ĠIm m
Ġcon fig
ĠfranzÃ¶s ischer
D ep
ie ts
ver se
Z ur
z Ã¤hl
it ts
Ġst ieg
ass ungs
Ġh ttp
Ġc l
w urf
ĠComp uter
C ollection
w issenschaften
ge d
all owed
ĠS ar
at ung
Ġs ize
Ġbet rieben
techn ik
5 7
Ġge bracht
Service Response
ishockey spieler
R ule
S P
ĠB lack
ĠString Builder
ĠM ot
sh of
ĠHand el
K arriere
vers ion
ĠTechn ik
ĠErgeb nisse
n itz
ikan ische
Al b
wert ung
m acht
Ġz eig
ĠAl fred
N eben
S e
w ord
ĠK enn
Ġent st
ĠStu denten
Ġbeteil igt
Ġver gleich
Ġex p
ĠProblem e
Ġent lang
app ing
ohl en
R ad
Ġh al
eich ert
Ã¼n dete
D O
v ille
ĠK ey
ĠI V
ĠKarl s
ĠWebs eite
ĠS amm
Ġver antwort
iet y
T R
T ION
c is
f ort
un t
Ġin tegr
Ġc an
fer enz
ma x
ĠMittel alter
ĠRad io
Ġd unk
Ġs uchen
ĠArb eiter
ĠNieder s
ĠG ordon
Ġa c
ĠRec ords
d as
w al
ĠIn ner
iv il
ĠNational sozial
Ġsour ce
ĠN av
Ġl ength
Ġ ag
ĠS S
ĠG Ã¼n
zeich nete
Ġhau ptsÃ¤chlich
ti al
Ġum fang
ĠGegen satz
b rit
Ġk aufen
stÃ¤nd ige
ĠB ra
B est
S ec
r is
at is
at ik
ra te
r ats
an geb
ĠS onnen
Ã¤ den
ro t
ĠZ eich
Ġwich tige
ĠM erk
Ġ192 4
AT E
ĠTel ef
ĠHom epage
b a
ĠL eicht
ĠR is
und le
ul ation
ĠNach richten
ĠFest ival
T V
ĠS ib
Ġein st
ĠT om
Ä ±
ĠS or
ehr t
gesch oss
Ġd igit
ĠS ing
Ġin form
Ġun abhÃ¤ng
Ġle bte
Ġ} );
par se
eth oden
ĠWer te
ĠPra xis
O l
tier ung
Ġg uten
h el
Ġ1 000
Verein igte
ĠBraun sch
n ern
ĠO ffiz
Ġreg ion
Val ues
ĠTran sport
ĠD ank
ĠK lavier
Ġ192 7
schau spieler
9 3
P olit
m esser
ĠS at
Ġi tem
ĠT urn
V AL
ĠBer eits
fol gen
ĠBl ut
bo x
ĠHaupt stadt
F unction
iel le
Ġverl assen
ĠHinter grund
h emal
ĠA uff
ĠR iver
Ġ192 5
Ġdi ent
st il
Ġ Ã¶stlich
se x
ard inal
sb ach
ĠBetrieb s
om et
Ġ193 1
erv let
ĠD ivision
ĠInter esse
gef Ã¤hr
m p
p hen
es h
Ġtr e
ĠAb st
az in
AT ION
9 6
g y
l ong
er te
ĠG alerie
ĠChrist oph
Ġwest lich
Verk ehr
Ġst aat
Sel ect
od or
Ġdar an
reu en
B l
b i
ad rat
Ġex ception
ink el
ĠStim men
ĠB il
ĠL os
ĠT hr
ĠR Ã¤
ĠU N
art s
omm ern
Ġpar ent
I P
Ã¶ nen
Ġg Ã¼nst
ĠSp Ã¤ter
ĠerklÃ¤r t
Ġweiter er
ĠGes prÃ¤
ĠQu ellen
N ieder
in ar
ĠSt atus
Werk e
ĠW eil
ĠAuf stieg
Ġentsp rech
Ġsol che
ĠM ik
ĠE vent
ĠW ettbewerb
ĠN ummer
ĠN orth
Ġbrit ischer
F ol
d ouble
Ġm einer
ĠK er
ĠL ig
um er
r ing
sch uhe
Ġw ww
ĠT Ã¤tigkeit
l Ã¤nder
ĠP la
Ġver lieÃŁ
ĠFir men
u til
gen er
Ġfol gt
ĠM iss
Ġh ielt
Ġver treten
ĠY ou
Ġaut omat
s m
ĠM as
ĠT agen
ĠEin fÃ¼hrung
ĠBei trÃ¤ge
O b
g arn
ĠC up
sel ben
Ġer inn
ĠV is
ah er
( '
ĠM ount
ĠW etter
gel assen
ĠLand wirtschaft
Ġw or
Ġl ine
eil t
arr y
Ġ< =
ĠErzb ischof
Ġsogen annten
Ġeurop Ã¤ischen
] ,
ĠJ ob
ĠL im
il dete
ĠSt ahl
Ġr ule
ĠDÃ© partement
c lose
ĠB arb
ĠMet all
klÃ¤r ung
ĠSold aten
Ã ¢
Ã¤ ger
ĠHau se
ĠPar am
ĠPat ienten
herap ie
sch m
om ent
ĠUr s
ĠBeruf s
ĠRuss land
v olle
ĠO ption
Ġ3 00
ĊĠĠĠĠĠĠĠĠĠĠĠĠĠĠĠĠĠĠĠĠĠĠĠĠĠĠĠĠĠĠĠĠ ĠĠĠĠĠĠĠĠ
C ontainer
h och
Ġs w
ay out
Ġbest e
minister ium
Ber lin
Ġwieder um
ĠÃĸ l
lÃ¤nd ischen
ĠD ev
Ġ192 2
. "
h agen
p a
Ġro w
Val id
ichte ten
ĠĊĠĊ ĠĊ
ĠNatur schutz
ĠM ul
ĠH oll
ĠL ive
Ð ¸
ĠF arben
ĠH eute
D ir
d ar
ĠW issen
Ġet c
Or der
ĠMo dern
T arget
or der
ĠG lock
lei tet
M ode
d or
Ġs agte
ĠVerwalt ung
ĠmÃ¶ch ten
an ischer
Ġs ynchron
ĠK up
Ġver fÃ¼g
Ġ{ }
Ġkann st
Ġgesch affen
ĠSchw ester
ĠFÃ¼hr ung
u z
ad ion
Ġgleich nam
dr Ã¼ck
v o
ĠS uch
Ġlie fert
ĠBas el
ur a
et ing
ĠT schech
Ġh ave
Ġbestimm ten
H ier
I V
ĠS ach
ĠS ingle
ti scher
ĠVier tel
Ġ ass
stell ungs
ck s
ĠWahl kreis
h or
ĠD ro
ri a
iter ator
Trace Component
ĠW ach
Ġs k
ĠPerson al
d urch
ĠPhilosoph ie
Ġin itial
Ġn ied
ok e
lÃ¤uf er
ĠL y
Ġunmittel bar
B undes
ĠJ SON
ĠAuf gabe
ĠLand schaft
Or g
Ġbesch rieben
ĠKap elle
ur y
ĠG ust
cript or
K reis
Å Ļ
y pen
ĠM un
Ġin zwischen
20 17
ĠNeu e
Ġ Ã¶
ges p
Ã¤l lt
Sch wei
P S
z ul
de f
ev ent
Aus zeichnungen
ĠArch iv
st ern
ĠI st
re en
og n
ĠW echsel
Ġar ch
d essen
ĠG ran
iel len
ĠVer fahren
Ġhistor ischen
ĠV ide
ĠSchw e
ĠJak ob
c ed
p osition
r and
is abeth
ĠC entr
Ġdar in
Ġqu ery
S Ã¼d
Ã¤ ische
Ã¶ hne
se k
Ġaus ger
Ġgew innen
own load
Ã ½
st Ã¤d
tr Ã¤t
Ġc olumn
ĠF in
ĠW affen
Ġst ets
bo gen
g g
Ã Ħ
Ġbe z
Ġpar se
g au
er o
erk unft
ĠSpiel zeit
Ġbet re
on ik
us ion
Ġan zu
wo od
ĠSch war
qu ar
alis iert
ĠZust and
Ã¼ hm
ĠP au
Ã¼n der
ler s
Ġbest immt
r t
ĠZentr al
ĠReg isseur
for men
d f
Ġh Ã¤lt
ĠPro zess
Ã¼hr ung
v ier
ĠOr te
Ġverl or
unn el
ĠK lass
ĠMeister schaft
fra gen
ĠE lem
um Ã¤n
Ã¼l l
Ġ192 1
reg ierung
Option s
er er
ĠSicher heits
Gemein de
ĠT enn
par ator
Ã¼l len
ĠIn vest
Ã¶r en
ĠGr enz
ist an
ĠPf lege
Ã¶st lichen
ĠDem okrat
Ġir gend
ĠTrad ition
u gend
iz ierte
ĠBr Ã¼
ach im
ĠDar m
ĠDat ei
Bau werk
p ack
ess ages
gel d
ieh ungen
ĠStand ort
G et
Ġun ten
Ġ4 00
ĠHau t
Ġprom ov
ĠBo x
wind igkeit
Ġf uer
Ġg roup
rei g
St adt
arch iv
gangen en
ĠBrie f
ĠKn oten
Ref erence
UL T
Ġc lient
ay a
ĠFlug hafen
Aut or
B is
j or
Ġver kauft
ĠAuf bau
Ġerst es
Ġeinz eln
Ġverm ut
Ġfer tig
st ed
Ġer fahren
lin ien
G ruppe
ĠA ud
Ġg anzen
ed ia
ĠSte fan
ĠHÃ¶ hen
Ġval id
A cc
g ing
ĠK rank
Ġun bek
vers ammlung
B esch
d el
u de
ĠW erb
ĠV om
ennt nis
mÃ¶ gen
n ummer
Ġv Ã¶l
schul en
ĠSoc iety
ĠHand els
weg s
ĠOrg anis
ĠSch ne
ick s
S a
ĠH eer
ach tet
ouver ne
D ef
ĠL ad
ĠSo uth
ĠwÃ¼r den
exik on
B and
T hread
ĠP orn
fr ist
Ġdarauf hin
V P
ã Ĥ
Ġw eg
as p
get Class
Ã¤hn ung
Client Exception
c i
ĠB eck
ĠÃ¼ber wiegend
Ġsch war
geb iete
ĠV ort
Ġch ines
Ġarb eitet
ĠÃĦ r
ĠSti ft
Mus ik
ĠG rie
ĠC re
Ġt ats
pro gramm
Ġr ein
tel l
gr am
k lass
n ant
geb nisse
Ġgew onnen
Ġâ Ĥ¬
Ġrel ativ
r ig
Ġs e
ĠW issenschaften
In put
ust om
ht t
Ġwen igen
ĠSti ftung
brit ann
Ġd agegen
ei ben
ist isch
Ġtr an
ĠLeist ungen
Ġ19 12
Ġsch warz
ĠSin ne
h i
denk mÃ¤ler
9 4
E Object
w in
ĠS end
ĠH on
ĠMen ge
ver trag
and t
sp or
Str a
Ġersch eint
ĠGel Ã¤nde
Ġunterschied lichen
f alse
ĠW appen
Ġl ok
Ġvermut lich
I s
ĠB ist
ĠD E
ĠI N
gemein den
Ġge bild
lie fer
ask et
we der
Ġwichtig sten
ĠO pfer
Ġ192 6
ĠM and
ig ar
Ġent deckt
ken nen
ĠÃľ berg
Ġentsprech end
ĠAn teil
Ã© e
eim ar
ĠIs land
ĠKrit ik
ĠWider stand
E hemal
ĠP resse
ĠAl tern
ĠO x
ik ations
m t
Ġer baut
Ġ3 6
tig es
Ã ´
ch mal
al a
Ġw ider
Ġm ag
ĠVor der
ĠRich ter
in ce
ir d
ĠS on
au ff
ĠMa ster
Ġheu tige
ĠA sp
ĠSied lung
Ã¼ mer
deut schen
ĠBesuch er
u en
ber n
kon om
ent al
ist ry
Ġver pflich
geb racht
ĠAut ob
fan ter
ĠGÃ¶tt ingen
a ster
w ander
it ur
Ġitalien ischer
e ar
ĠN ic
9 2
pl y
ĠMar c
ĠGer hard
ash ington
ĠTÃ¼r k
Ġwahr scheinlich
ess el
if ied
ĠHer steller
ĠdÃ¼r fen
M ark
ab s
ĠU ser
ip s
rech te
o y
an en
au pt
ti st
ĠAc adem
sie he
I M
as ure
ĠAl pen
20 15
Ġzw Ã¶lf
Ã¼tz t
ĠVerb and
ĠÃĦ nder
H T
S ti
n ode
Ġ19 10
ot a
ĠRo yal
ĠVer teidig
ĠAut oren
Ġeng ag
ĠL ok
Ĩ Ĵ
Ġk anad
ian o
ĠTem peratur
ĠAller dings
o ugh
st uhl
Ġer le
ied lung
Ð ½
Ã¶r den
n etz
stÃ¤nd igen
ĠG rÃ¤
Ġ192 3
Nach dem
Ġ1 20
ell o
ĠÃ ī
Ġp riv
Ġle er
ĠVo gel
L in
Ġd re
Ġaus geb
la zz
ĠDar Ã¼ber
n ational
sp ar
ĠVer m
ĠMa il
ĠKl assen
ĠS dk
Ġw id
ĠE ss
rie be
ohn er
ĠSo ftware
T E
ĠT ir
tig ten
Ġle bten
Ġausge tragen
Ġch ild
por ted
ĠBern hard
as er
ĠMann schaften
ĠGew inn
Ad resse
b uild
p ace
ĠSt off
ĠBesch reibung
leist ung
H ash
ie m
ĠK a
ĠG all
ĠC ast
West falen
au x
Ġm atch
ĠE du
fra struktur
P RO
v a
z in
Ġm ilitÃ¤r
Ä ĩ
ĠR ek
Ġp rivate
.. ..
glie dern
ĠverlÃ¤ uft
b ul
f ilter
ĠVer halten
len burg
zip lin
ĠS C
Ġab geschlossen
ĠEn gel
io us
Ġcon tent
Ã¤uf er
ech te
Ã© n
ĠgehÃ¶r ten
ĠSdk ClientException
c ar
u id
ge legen
ĠEr b
ĠEurop Ã¤ischen
rik t
gn ore
Ġhel fen
fur ter
Ġ eb
Ã¶ der
Ġges ehen
B ound
ie den
ĠOr tschaft
ĠBl Ã¼ten
gew Ã¶hn
ĊĠĠĠĠĠĠĠĠĠĠĠĠ ĠĠ
Ġsetz en
ĠÃĸff entlich
leg te
ĠMat th
Ġd ec
ļ Ń
Ã¼r f
ĠVer lauf
wer te
ab les
ei sch
ad el
ĠZ ahn
Ġfol gten
mar y
L abel
ĠB art
ĠB rau
List e
Z um
c as
Ġd Ã¤n
el se
ĠAn wendung
ĠBew egung
hei mer
Ġversuch t
H istor
m ethod
Ġbe endete
amer ika
ĠGeh eim
ĠIde en
Ġar gument
leist ungen
ĠAng riff
ĠBraunsch weig
Ġmittel s
9 8
Ñ Ģ
Ġb uilder
ĠT Ã¼b
Ġge halten
ĠHein z
g ern
at o
ĠPfarr kirche
S k
el ement
ol s
od ing
ĠsÃ¼d lichen
T op
m ord
ut or
Ġbet rug
ĠRev olution
ĠW unsch
20 10
ĠWei ÃŁ
ĠgrÃ¶ÃŁ ere
Ġd ep
Ġo per
In d
gr Ã¶ÃŁ
ĠBez ug
ĠD Ã¶r
Ġz eich
ĠL eit
anz e
ĠLie fer
N on
O p
Ġ15 0
stoff e
Ġzerst Ã¶rt
an isch
Ġher r
Ġausge stat
Ġd ein
ur al
Ġauf gerufen
ĠAb teilung
Ġviel leicht
omb ination
Ġout put
Loc al
I OException
ĠAuf grund
Ġpro perty
Ġle gte
ĠAd olf
ĠBild ungs
ĠauÃŁer halb
gem eine
britann ien
ĠB lock
ĠP rom
alis mus
ĠBund est
F r
g Ã¼l
ã ģ
is on
ĠC oun
ul ts
In putStream
Ã© s
ĠLauf e
ĠPap st
isD ebug
ĠgeprÃ¤ gt
w es
ter t
Ġ/ *
Ġhoch wer
an ia
ĠH ard
ig r
mÃ¶glich keiten
st echn
at oren
ĠR eb
ot o
Ġc o
19 45
Ġdeutsch sprach
ĠDeutschland s
alis ierung
Param eters
Ġval ues
iti ative
st Ã¤r
Ã¶ ss
ĠL ind
200 9
med aille
Ġ3 8
ard s
Ġamer ikanischen
or et
Ġw uchs
Ġs agt
ro und
Ã¶r ung
Ã¶r de
ĠGrund lage
Ġinternational e
ĠN a
zu stellen
echs eln
ĠPrem ier
R L
Ġc ount
ĠVor gÃ¤nger
Qu ellen
D ouble
L ock
ue ber
ĠFl Ã¼gel
produ ktion
asket ball
ch em
ĠIn halt
olum b
ĠermÃ¶glich t
R ow
p end
s Ã¤tz
ĠK rÃ¤
ĠL ieb
j ew
ge fÃ¼
Ġw issen
Ġvor bei
res ent
ĠRe al
ĠGl Ã¼ck
Ġz Ã¤hlt
ĠE ck
ĠP unkten
ir ge
Ġt Ã¼rk
lob al
Ġ19 13
Ġl etzt
ĠStr eit
ei se
ier re
im ple
ĠEin trag
S U
ĠK as
V D
ĠPro te
Ã¤nd ler
' ,
lin ik
ĠInter view
W arn
Str u
ĠEl isabeth
Ġur l
ĠH Ã¤user
In valid
th ur
Ġverlie hen
ĠK athol
ĠR aj
ĠFran cis
ĠMet ern
ĠKar te
ĠMor gen
ĠChe f
im il
oper ation
Call back
Che ck
ĠNÃ¼rn berg
m ission
Ġp ort
ack en
ett ings
ĠPart y
ĠFahr zeuge
ĠPrie ster
ĠSchwe den
f assung
l Ã¶
z un
re a
gang s
ĠArchite kt
ĠUl rich
ĠKonz ert
m atch
s age
as on
hr e
Ġo ffset
Ġob wohl
zÃ¼ ge
v ir
au d
ĠT ar
ow ski
Ġander s
En um
ĠRech te
ĠG ir
Ġf ilter
ep ar
ĠKÃ¶nig s
ĠHo hen
State ment
Ġstar tete
s or
v ar
Ġd ritte
ĠM ur
Ġges etz
ren nen
ĠhÃ¶ch sten
Ġproduz iert
] );
r aten
ĠT iere
pr et
Ã¤chs ischen
D B
k tiv
s ein
deck en
omin iert
ĠJac ob
ĠT isch
re form
bild ungs
Ġeinge stellt
ĠIde e
er be
at al
ĠLu x
l uss
elt a
Ã £
Ã º
tr at
ĠKomm ent
ĠAll gemein
ĠObj ekte
oci ation
ĠLand tag
ĠTh Ã¼r
ĠGew icht
ĠStel len
ontin ue
Ġverantwort lich
Ġb i
ĠD Ã¤n
is ierte
ĠR ing
eck lenburg
D oc
ĠV arian
eit ag
ĠIhr em
**** ****
ĠL i
ap ter
ĠAr zt
Ġsogen annte
B oolean
F rank
sch te
ĠJ os
Ġt able
sp ir
Ċĉ ĠĠĠ
20 12
20 11
az on
Ġgen annten
V ER
att form
ĠNeu en
Ġar gs
Z eit
Ġan ges
Ã¼t te
Ġdar gestellt
Ġentspr icht
g on
Ġg alt
Ġhin gegen
Ġbesonder e
ĠUnter richt
ĠgrÃ¶ÃŁ eren
ĠAustr alien
F ound
O P
w ach
sch loss
Ġf loat
ĠC r
ik o
lie der
Ġ3 3
B ild
ĠGeburt stag
em e
Ġj em
bo ten
em pl
ĠG ru
ĠF isch
ĠP ersÃ¶n
Ġge mÃ¤ÃŁ
20 13
it le
ĠG roup
Ġerw arb
ĠInform ation
T echn
w an
Ġent stehen
oren z
Ġfin ally
m ack
ĠB Ã¤
ud es
ĠDaten bank
k ultur
ĠK rim
de st
Ġf ound
ĠUn ternehmer
R oot
W ei
Å «
ot ten
Ġgef Ã¤hr
Ġbr eit
UR I
J son
sp er
Ġher gestellt
ĠGra fen
Ġbel egt
Ã¤ her
ĠCar ol
ĠFer ien
in os
ĠK iel
Ġzu gleich
mer ksam
ru he
leid ung
ĠNik ol
ĠjÃ¤hr lich
ĠD ate
ĠM Ã¤r
Ġge gebenen
20 14
fer ence
G ER
g roup
ĠP ubl
Ã¤hl ten
T im
ĠJu den
2 000
f rom
u ell
ĠS ituation
Ġs icht
ĠW ashington
Ġp sych
ĠÃ¼ber tragen
up date
Ġbek omm
ÃŃ n
M o
ĠT ime
Ġge z
Ġ old
Ġf lieÃŁ
Ġp re
Ġp lan
o ffen
Ġ( "
ĠC a
ger s
teil en
Ġbek annten
ĠTro tz
Ġder zeit
ĠZ en
ĠSo und
Ġbr ingt
glieder t
ĠfrÃ¼her en
Ġ ter
ĠK ath
Param s
ĠArchite kten
Ġunterst Ã¼tzen
z ern
ĠVer d
ĠJahr zehn
ĠEr satz
vor sitzen
Ã¤us ern
R A
an er
ĠM ol
ĠP aar
ĠT ore
R em
ĠE reig
ĠStud io
ĠLeist ungs
Ġkompl ett
Ġ Ã¶ffentlich
ĠG olden
Ġk o
uch ten
ac ter
Ġmoder nen
Er baut
-------- --------
Iter ator
s With
Ġmehr fach
ĠEr inner
ĠHam burger
Ċ ĊĠĠĠĠĠĠĠĠĠĠĠĠĠĠĠĠĠĠĠ
Ġsch lech
Ġ3 4
Ġunter such
ĠZ us
ĠWohn ung
ĠSonn tag
T P
f abrik
ĠN ahr
ĠBundes liga
ĠR am
ĠSch riften
Ġ6 5
Ch ange
G roÃŁ
Ġ Ä
Ġ Î
ma schinen
P re
ĠRes erv
Ġh il
co ver
ĠRest au
ĠPort ug
st ream
ĠS eb
ĠK ult
get eilt
Ġmittler weile
c ol
k omp
n s
ver fahren
ĠAus druck
ĠLe on
Ġmax imal
Ġentsprechen den
ĠFrÃ¼h jahr
R ead
ĠT rau
ĠMon at
ĠK och
av or
Ġgesp ielt
ol er
Ġc onnection
Ġwir kte
Ġbestimm te
L OG
k opf
p o
Ã¼ cht
Ġw under
ĠP eters
Ġh eil
ver treten
Par ent
ĠMÃ¶glich keiten
ĠZ eiten
ĠSch ritt
ĠKl ima
rech er
dien ste
< >();
et work
ĠH ttp
ist enz
ĠEr de
ĠÃ Ĺ
Ġverw enden
S G
ar zt
ĠH ab
op tion
fÃ¤l le
ĠSow jet
Ñ ģ
Ġge eignet
ĠStr ecken
200 8
ĠOb serv
d ach
Ã¤ st
Ġf ac
Ġk einer
scha ffen
g ab
z ust
al te
Ġâ ļŃ
ĠEhe frau
orden s
ĠSer ver
hÃ¶ he
il en
ĠSie ger
Ġbrit ische
ĠrÃ¶m isch
ĠvÃ¶l lig
Ã ±
Ġkur ze
Ã ¥
un c
ĠL oc
ĠSch uhe
Ġl eitete
ĠEn gl
gesch rieben
ĠM ission
Ġg ingen
gr enze
equ ence
Ġengl ischen
W idth
b orn
n es
ĠK urt
sh eim
čĊ čĊĠĠĠĠĠĠĠ
ĠKauf mann
ĠH afen
Ġ19 11
ĠC lau
Ġa v
St ore
ĠFeuer wehr
h men
Ġl ock
stell te
ar ischen
ĠB a
ĠV iele
ik on
ult Ã¤t
ĠErfahr ungen
k Ã¼nf
v ed
č ĊĠĠĠĠĠĠĠĠĠĠĠĠĠĠĠĠĠĠĠ
it hm
hrow able
Ġkomm un
ĠnÃ¶rd lichen
W ork
Ġ190 7
ĠEm il
ĠFer din
exik o
ur es
au th
Ġer gÃ¤n
Ġk ultur
off iz
ĠÂ §
Ġdah in
Ġge zeigt
Ġo ff
sp ek
hand el
ĠNieders achsen
et ts
Ġg o
Ġt op
ĠAd els
ĠHaup tr
N O
Ġer kennen
zug s
N ord
p ft
Ġr en
ĠAb schnitt
ĠGrÃ¼n den
ĠRhein land
Oper ation
is en
ste ck
ĠKon k
ĠTod es
9 7
k rieges
ap pe
Ġre duz
Wir tschaft
ĠjÃ¼n ger
t eile
ĠS um
ĠF eder
ĠIn tegr
arb urg
ĠGroÃŁ britannien
200 5
Ġro ot
oot ball
ĠKÃ¼ che
ĠKap it
Ġsynchron ized
em ark
Ġch rist
ĠNord rhein
ĠBro w
Rec ord
g rad
on ischen
ber eitung
ĠO k
ff e
sp iegel
ind ing
mal er
ĠLin ien
N S
ar re
fel der
ĠErfahr ung
' )
n ers
ĠE ro
om a
St ack
200 7
rÃ¤ ume
pl Ã¤tze
ĠEurop ameister
Ġrem ove
D ocument
Ġs agen
Ġb itte
Ġn eg
tr ans
il s
ss ystem
B ox
ĠE ind
ĠR ath
ĠMar ie
ĠComm un
Ġausgestat tet
B A
K omm
Ġf e
ĠBes atz
Ġ190 8
ĠÃ¤hn lich
or weg
ĠÃ¼ber ra
sk y
Ã¤mpf en
Weiter e
Ol ymp
ĠF ein
ĠC enter
Ġmus ikal
ĠBÃ¼ ro
ĠTÃ¼b ingen
D el
h em
ter e
Ġent weder
af rika
ĠNord osten
I G
Ġh eim
ĠJ Ã¼rgen
ig ner
Ã¶s ungen
Ġverst Ã¤r
ĠIn gen
ĠBr asil
org anisation
Ġbek am
ĠWir kung
lan de
ir che
Ġr Ã¼ck
bÃ¼ cher
isDebug Enabled
A ug
H E
p olitik
Ġp erson
II I
ĠbeschÃ¤f tigt
Exec ution
Tem plate
. ),
T eam
ten sion
get Key
ĠF al
Ġf al
ĠH it
ĠR ost
ĠI f
Ġver schw
Ġl os
Ã¼nd ungs
Ġverb reitet
ĠSchmid t
Ã£ o
st eiger
ĠI P
Ġfor der
Ġbet roffen
wahl en
Me asure
Ġw ert
ĠSm art
5 00
ĠL Ã¶sung
ĠKon gress
ĠBundes republik
K urz
mer kungen
ak er
St yle
D en
ert ung
ĠSchau spiel
ĠHistor iker
ĠJur ist
ĠK andid
ĠIl l
FA ULT
ĠGÃ¤ ste
ĠVer anstaltungen
Ġeinger ichtet
9 1
ĠD rit
is Entry
Ġbest Ã¤
ĠRef er
ag ne
men sion
ĠEntscheid ung
b ad
f amilie
and a
ind ustrie
ehr en
Ġsow jet
mit h
ĠThe ologe
200 4
200 6
ĠBild hauer
m ung
ĠVer Ã¤nder
arb e
ĠOr dens
isEntry Enabled
C al
ĠIn dex
Ġs ystem
ĠG as
Ġ19 17
Ġweiter es
ĠFilm s
ĠSpr achen
mÃ¶ glichen
bie ter
l or
z ell
Ġwei b
ĠK assel
ĠVer hÃ¤ltnis
ĠĊĊ ĠĊ
ĠA str
th eit
++ ;
M en
Ġsp ec
Ã¤l de
Ġtre ffen
y t
Ġd or
ĠG eg
ro chen
he ute
ĠKon zept
Ġitalien ischen
Ã¶r ter
ech ts
ill on
war n
Alb um
ĠM ay
Ġn umber
Ġzu erst
ĠVor aus
ĠKon fl
ĠLe op
Ġstr ing
rei f
ic ro
rich ter
ĠBl att
Ġweit gehend
Ġerweiter t
Ġk Ã¼nstler
amil ien
ĠFranz Ã¶s
lÃ¤ss lich
p rÃ¤sident
ĠF ass
il er
bau er
ĠW M
Ġp ost
ĠGo ogle
Ġform at
- )
k arten
Ġprof ession
M at
Ġm ust
ĠK ing
ĠP as
ĠTeil en
ĠZw eit
Out put
D isk
Ġb lau
ĠD B
Ġan ti
Ġver p
ĠHo use
tre ffen
m Ã¼hle
ĠS ur
Ġin tens
ĠZ ul
Ġl Ã¶
ĠEin ige
anz er
ĠMos kau
Ġ one
Ġbe ob
ĠFor men
son sten
ĠTex te
Ġb ildete
Ġm einen
ser ver
up pen
bez ogen
Ġloc al
h aben
Ġver h
ĠIn fanter
meld ung
i h
ĠB yte
ĠG lauben
Ġerst reck
ĠSh ow
ĠGust av
st euer
Ġs ession
el and
ĠB ett
ĠP rag
ak et
F unktion
Ġn utz
ĠW ag
ul pt
ĠVer antwort
ĠSp iegel
ak a
ĠAuf nahme
Besch reibung
g u
l s
Ġn amens
ges sen
ĠD ouble
ĠL aut
Par ser
Ġ190 5
Ġwest lichen
ĠZei traum
k g
p olit
reg ion
hand lungen
Ġwes entlich
Ġgleichnam igen
b n
i Ã³n
in zen
st he
ĠW a
lei hung
bl Ã¤tter
ĠhÃ¶ch ste
w Ã¤l
ei fen
ĠW ohl
ĠV illa
ĠSp ann
lie genden
ĠSommer spiele
ouverne ur
B ar
z eigen
al ys
ĠL aw
gr aben
At om
value Of
ĠFernse hen
o sen
ank e
ĠK ardinal
ĠFr em
ĠTeam s
ĠFÃ¶rder ung
ĠScien ce
P AR
ĠÃ¼ber haupt
Ġber Ã¼hm
Ġdien en
and te
ĠV an
ĠUr laub
ĠRegion al
Ġop ti
> ,
A F
F uture
z um
Ġs ec
tr ack
se ud
Ġl eider
Ġbeg onnen
ĠWir k
ĠMan agement
ĠSchn itt
htt p
g Ã¤nge
k ammer
ĠP DF
ber ech
ĠV iew
con text
It alien
Hel per
i tem
ĠH ill
ow a
ur ts
Ġm ass
eu ten
end a
ĠK art
Ġau str
ab geord
ver stÃ¤nd
wei ht
ot her
hol t
ĠÃĦ gyp
akt or
ĠBeh andlung
Met adata
ĠVic tor
B utton
st eigen
ĠS n
geord net
ĠAustr al
Ġzeig te
ĠB ass
Ġan erk
aus stellung
ks h
ĠLand tags
br Ã¼cke
ĠTeil nahme
haf te
D em
Ġ q
ĠN ode
ĠKommun ikation
Ġmen sch
b ilder
j en
ĠD ichter
ont o
Ã¶ff nung
ĠErz Ã¤hl
ĠL ine
ĠR au
ĠEr ich
af el
Ġâ ĨĴ
L S
k y
em s
Ġm el
Ġl ern
icher ungs
ĠGesund heits
u age
ei tern
ĠK ron
Ġtr ug
Ġar ray
ĠSÃ¼d westen
Ġ190 6
ĠKomm ission
âĢ¦ ]
ĠHen ry
ĠFerdin and
st ation
ĠD auer
ĠW aren
ĠL am
ist e
M A
r Ã¼ck
ĠH immel
ĠBei de
ĠSchles wig
M atch
in ess
ĠB reite
ĠD aher
Ġin n
Ð¾ Ð
ĠVerÃ¶ffentlich ung
n icht
Ġv is
ĠB ol
ĠT anz
Ġer stellt
Ġh eader
Ġp os
// //
ĠMuseum s
D ist
P os
P lan
â Ļ
in ander
ĠStr and
ĠAuf ent
ĠMar y
Ġend gÃ¼l
m ir
ĠE ber
ĠR ap
ĠSp itze
ĠMin er
ĠM eyer
ĠR ab
iel l
Ġp op
Ġst anden
Ġ7 5
Ġ189 0
Ġschw ier
ĠFunktion en
st Ã¼cke
ĠK op
Ġent gegen
ĠN un
auf hin
ĠAus land
Ã¤hr ung
ĠJo achim
ĠMon aten
Des criptor
P ool
ĠS inn
ĠG rad
il ien
ul gar
pf lege
ock et
ĠÃ¶sterreich ischen
ĠÃ¼b rigen
ĠBayer ischen
B ody
e en
k om
Ġd auer
Ġw eist
ĠB ibliothek
Ġc ode
ĠSib Tr
Ġz Ã¤hlen
Er ster
ĠInternational en
Loc ation
ĠQualif ikation
w ischen
Ġs ho
Ġn um
wer den
aliforn ien
heb ung
i od
Ġ rad
ĠM auer
ĠZ eu
ĠIn halte
ĠEr weiter
ĠBr Ã¼cke
ĠSalz burg
V is
i ode
ĠÃ¼ber geben
Ġen dete
ĠZahl en
ĠDeb Ã¼t
H ost
M B
W ind
er weise
ĠD ien
Ġ( ,
ĠW Ã¼rz
ĠSch lieÃŁ
ĠAn h
ran ge
ex ec
up p
kathol ischer
Ä «
č Ċĉĉĉĉ
Ġs org
Ġlie f
igitalis at
eu ert
gel t
if ft
ĠNord westen
ĠBez iehungen
ĠIntern al
The ater
ĠWeltkrieg s
Welt meisterschaft
Ġge kommen
get Type
Ġber uf
Ġsel ber
ĠEd ition
Ġlin ken
ĠDarm stadt
G ew
p erson
den ken
ip pe
fÃ¼hr en
IN E
osit ory
P attern
st eine
Ġb ar
ĠL exikon
ate ur
ok ens
ĠGesund heit
; ;
ĠF Ã¼nf
Ġum ben
Ã¼s sen
Ġat tr
untime Exception
: :
g ibt
at alog
ĠV iol
ĠN eum
Al le
ĠbenÃ¶ tigt
ĠFak ultÃ¤t
V ariable
Ġl en
lig isten
ĠBest e
ĠMaÃŁ nahmen
ĠAcadem y
c oding
ĠS erv
Ġf ehlen
ĠT au
iz enz
A uth
m es
ĠW ett
ĠL ieder
ĠSch laf
ĠGew alt
ĠElem ente
b oolean
sch auer
ĠR oll
ĠI ter
Ġsp rach
ĠIns gesamt
ĠErw achsen
m aterial
Ġm sg
fÃ¼hr ten
ĠBrit ish
Ã¼ h
ĠM ir
il a
Ġan hand
aus schuss
F inal
ĠFlug zeug
ĠnÃ¤ch ste
B evÃ¶lker
Ġver sehen
ĠSt urm
ĠRÃ¼ck kehr
rap per
Stru ct
Ñ Ĥ
Ġs ech
Ġb lock
ĠSch on
ĠFor st
ĠBez iehung
Ġbeein fl
Ġgebild et
t Ã¼mer
ĠT w
ĠAd el
Ġben utzt
ĠEben e
tr oll
ĠCh ic
iw od
k u
k unst
in ts
st Ã¤tten
ĠW egen
Ã¼r en
Ġger ing
U ID
t arget
au p
ĠK urs
ĠBereich en
ry pt
ĠLauf bahn
gest altung
Ġd isk
on ien
Ġver kehr
Ġp hil
arr en
m auer
u it
re st
eg al
Ġpro cess
man agement
V ar
ĠR ezep
tiv ity
ĠInter essen
gra f
L I
ĠW is
Ġt ief
ekt ar
trÃ¤ ger
ĠFil me
ĠA st
ĠG ang
ell schaften
20 19
ett o
ĠFr ont
ĠEng agement
ĠPfarr er
Ġs ign
ĠH erkunft
ĠPro z
klus ive
ĠK os
Ġer laubt
Ġst Ã¤d
ick e
ĠCl ark
ĠMod el
fÃ¤h igkeit
P ass
ed ig
Ġj ob
Ġerh oben
ĠNeu bau
Ġunterschied liche
O C
ei ert
Ġein gesch
ĠH enn
ĠT ief
B i
in ne
ĠS ab
ĠR od
Ã¤n ner
Ġbef ore
ĠL abel
Ġ190 9
Ġruss ischen
Stra ÃŁe
S egment
ĠD ialog
Ġver gangenen
ĠThe ologie
sb aden
ĠÃľber setzung
t ur
sen de
ĠAn frage
Ġsch eint
ĠHand buch
part ner
l v
y e
Ġs rc
ment s
Ġnah men
Reg iment
isp lay
ĠJournal ist
c ia
ie fe
ĠB ir
ĠV ik
ab elle
Ġzwei mal
ĠKon s
Ġel f
ĠFrank furter
Ġeinge fÃ¼hrt
Ad d
Ġreg istr
Trans action
Ġentsprechen de
Kl asse
Ġsho uld
D ollar
F irst
L ayout
ann ter
Ġver sion
ĠfÃ¼hr ten
ĠmÃ¶glich st
ĠParam eter
j i
it tel
ĠB ord
con fig
ĠBron z
ĠÃĸffentlich keit
J uni
c r
ĠM und
rei ter
od urch
St ud
Ã¤u ft
setz te
ĠI T
ab teilung
onn e
B erg
re den
ĠStr e
her ren
ĠThe odor
Ver Ã¶ffentlich
ĠOrt es
Ġpar ams
n y
Ġt oken
Sch riften
Ġor iginal
ĠGeist licher
L age
Ġ ueber
er ung
ĠSch r
Ch annel
Ġexist iert
ĠWe ge
Ġgemeins amen
H L
or es
ĠK ul
B Ã¼rger
k rit
Å ¾
Ã¤ b
Ġt otal
int on
ĠSchn ell
Ġrech ten
Ġmod el
Polit iker
ten d
ri b
ĠÃ¶ff entliche
ĠFig ur
c omm
ĠG lei
om ain
ĠO ffen
aus gabe
R ed
ĠD ef
nis sen
Ã¤h ler
sert ation
ĠM exiko
ĠR icht
ĠMon ument
ĠPol y
ĠHelm ut
H o
P ER
s Ã¤tzen
Ä Ľ
Ġw odurch
ĠV it
ĠU kra
ĠHeraus geber
a ber
f ind
o ks
Ġw achsen
In s
ug o
Ġvor gesehen
Ġman chmal
teil ungen
ore a
Ġaktu ell
prÃ¤ sen
Field s
z iger
ei ge
Ġv ierten
ĠC O
Ġab gerufen
ĠBr enn
ĠFre unde
ĠSchl Ã¼ssel
ĊĠĠĠĠĠĠĠĠĠĠĠĠĠĠĠĠĠĠĠĠĠĠĠĠĠĠĠĠĠĠĠĠ ĠĠĠ
Inter face
re al
eh e
fer tigt
ĠBet eil
Ġverb esser
ĠEin heit
Ġsp richt
Ġ190 4
ĠNetz werk
le ut
ob ile
ĠWeihn achts
P an
ar ray
fl Ã¼gel
Con stra
En g
Ġersch einen
ĠEdu ard
ĠA R
ĠH ell
ĠC y
ath on
ĠBew ohner
st aben
ĠM ach
ĠP ok
ite inander
ER R
aff el
ĠZug ang
ĠSchwer punkt
ĠSeb ast
c en
d is
ĠS ig
ĠW eimar
ĠN och
ĠJ on
Ġst ream
ontin u
Hol stein
ĠPublik um
z te
Ġd eine
ĠP rÃ¤sidenten
ĠH orn
ra ys
Ã¤n en
af e
ĠFran ken
ĠBahn strecke
ĠTelef on
M essages
t x
Ã¶ ÃŁen
Er folge
ĠgroÃŁ es
Ġerh ielten
E Class
ĠH ub
Ã¼t ze
Un ternehmen
etr ic
Ġmed izin
b aus
ĠK anz
se qu
hl en
F ahr
l eiten
et on
Ã¶ die
ist s
ĠVer anstaltung
Ã¤m lich
Ġstell vertreten
Ġ use
ĠM ak
ĠK rieges
ĠK Ã¼n
ant as
Ġber ufen
ĠSÃ¼d osten
Out putStream
Warn ings
h orn
w uchs
Ã¤ fer
ĠM ecklenburg
ig ungs
ĠU RL
ff ekt
id d
iz ieren
ĠRei hen
dentif ier
S yn
er ber
ĠM au
ĠStÃ¤d ten
zun ehmen
W il
ĠAn spruch
ĠEr schein
ĠPro p
her zog
ĠBl og
deut sche
\ \
ĠM ethoden
ĠT her
ĠAn trag
Ġsch reiben
ip ps
Id s
Ap plication
ĠFrie den
p re
ĠR uf
ĠLand schafts
hard t
o z
ul es
Ġber ichtet
gesch Ã¤ft
sb ez
ĠWelt meisterschaft
ĠSam stag
ĠFig uren
ĠGesprÃ¤ ch
sÃ¤tz lich
B as
B ack
Ġw a
ĠM ulti
Ġdurch schnitt
ohn t
fÃ¼hr te
Ġunterschied lich
ĠStim me
g i
ar z
Ġm Ã¤nn
ĠFÃ¼r sten
ĠGrÃ¼n der
ĠLeop old
ĠS av
ĠS ym
Ġs ucht
ĠStel lung
ĠComp any
k ern
ur i
ab et
In nen
b ran
Ġb ase
() ).
res ponse
Ġben ach
ĠSim on
ĠL en
ra in
In tern
Ġange legt
ĠFahr er
Ġreich t
oin ts
mitt lung
m or
Ġf eier
gen Ã¶ss
ĠL iter
iz iner
Ġ4 8
Un able
Ã¨ re
ĠWo iwod
ĠHash Map
d b
ol ogen
ĠO ne
ri an
uss ion
Ġ190 3
ĠKamer a
Pf alz
L ast
P olitik
Ġges ellschaft
Ġdenn och
fre und
ĠT Ã¶ch
ĠEin richtung
Er st
wir kungen
ĠStad ion
Ġaustr al
I f
t op
on ische
Ġf Ã¤llt
eb ook
ĠUn abhÃ¤ng
ĠAb itur
ĠSchl uss
Ġro t
ĠBevÃ¶lker ungs
Ġnahe zu
ĠD eck
ĠD adurch
ber eit
c essor
ĠR ollen
ĠDie ter
ĠzurÃ¼ck ge
ĠSong s
ĠBenutz er
Ġtats Ã¤chlich
) {
et he
ĠP u
Ġzu stÃ¤ndig
In ternal
Ġre f
ĠDurch messer
ĠForm el
read y
u elle
tr ee
Ġh ast
ĠAn f
ĠFÃ¤l len
ĠG ymnasium
Pro ject
ĠGroÃŁ e
Ġober en
rÃ¤sent anten
ĠLeicht athlet
ĠGrie chen
E hr
Ġs an
Ġ3 7
Ġsp ort
leg ten
Ġne ed
prÃ¼ ft
steh ung
Sup press
ĠAngel es
st ift
al th
ar ische
Ġb uf
ĠF le
ikan ischer
ĠLin ks
ĠWie sbaden
ĠKomp osition
s ur
ĠG au
Ġf ahren
il ber
ĠSp aÃŁ
lie d
reu de
bew egung
ĠIs rael
Ġentwick eln
mod ell
ĠPor trÃ¤t
Ġexec ute
iel en
Ġab geb
ĠChic ago
ie fen
ar kt
ĠD ampf
ĠN omin
ĠC amb
ann er
Ġt Ã¶
Ġ3 9
ĠMar ine
ma schine
ĠCD U
F re
ol t
Ġzu g
ĠMil ch
Ġtr itt
Ġ4 4
ĠStra ÃŁ
er ten
Ġf reuen
Ġc ache
log ger
ĠAss ociation
ĠOx ford
Ġin stall
ar io
Ġs up
ĠP reuÃŁen
ain ing
Ġgepl ant
ĠTÃ¼rk ei
ch ten
al tete
ol o
Ã¶ tz
la c
ĠOber st
ĠGra z
Ġur kund
) ");
p ass
z ung
ĠG olf
Ã¶ z
ig keits
ĠUn garn
Ġbesonder en
Ġkur zen
> <
L a
ĠS us
se d
Ser ie
vir on
D u
M eta
Ġg eist
la in
iert es
ob j
ob by
ĠAf rika
M eister
N r
z wei
Ġer mÃ¶glichen
ĠEr f
ph an
ĠAd am
ĠHoch schullehrer
trÃ¤ gen
ĠpersÃ¶n lichen
w itz
er ben
ĠT own
Ġl esen
Ġzum indest
Org anisation
Ġeinzeln e
P O
p pen
un a
le f
ĠT ok
Ass ign
ĠB at
ĠK ombination
Ġgew Ã¤hr
alb um
ĠOrd nung
ĠAutom obil
ĠD ata
de u
ĠW Ã¼r
Ġ19 16
Ġh Ã¤tten
ĠSt ation
ĠOr den
ÃŃ a
gor ithm
akte ur
ped ition
y er
ĠM Ã¶n
Ġn Ã¤mlich
ti z
ĠschÃ¶n e
D ar
T A
p ul
or age
Ġver legt
Ġ4 2
ĠFl Ã¼cht
Ġmittel alter
KE Y
ĠS Ã¶hne
ĠW Ã¤r
ais er
asser t
ĠLei den
ĠGest altung
ĠOper ation
ĠObserv able
f ft
is a
Ġ19 15
Z E
am at
eb el
Ġun er
ug in
Ġsp Ã¤t
Ġversuch te
r ang
at om
Ġk auf
zen en
Ġbet rach
ĠRÃ¼ck en
haf ten
scheid et
B el
M em
m otor
Ġre quire
ail able
ĠRe aktion
ĠgrÃ¶ÃŁ er
ĠEm p
Ġmein em
Ġmodern e
Suppress Warnings
or fen
tr o
Ġh alb
ann en
Ġc al
ĠKarls ruhe
b reak
t al
ĠV aters
Ġver ur
ĠZ erst
Pl atz
k op
it ies
Ġer l
pl atte
Ġbes itzen
J ul
ich tigt
rÃ¼ st
gangen heit
ĠEigen schaften
Ġoffiziel l
sum er
Kir chen
S ehenswÃ¼rdigkeiten
Ġs amm
et ch
um in
Qu eue
urr enz
u ste
Ã¼ pf
ĠM assen
Ġp ubl
ĠSp itzen
Ġon ly
B ad
F ran
tr an
qu ery
pf licht
ĠInstit ute
b ahnen
h b
at in
Ġun gefÃ¤hr
ĠAn lagen
ev ice
dig ung
200 1
Ġ[ âĢ¦]
Ġhistor ische
ĠÃ¤lte ste
h u
w ettbewerb
iz ierten
ĠMar ien
Mill is
K an
v ollen
ar tige
ite ktur
Ġzunehmen d
E G
F ailed
b indung
h ost
ĠB ier
ĠE g
ĠN ull
ĠJ a
imil ian
p ers
ĠV ar
ĠJ ed
Ġet abl
C reate
H aupt
at ing
ĠM isch
Ġp f
wend ungen
J an
z one
Ġf ung
ell i
ĠAn dr
our s
ĠThe orie
200 3
ĠPap ier
Ġumben annt
ch te
ĠA ktu
ist ischer
sp rechen
ru e
Ã¶r ungen
Ġor der
ĠGel egen
Ġstar ken
ĠUntersuch ung
ĠJust iz
ĠverfÃ¼g bar
T est
ei he
ĠK Ã¶
ĠF Ã¤h
lie s
eite ten
ĠKÃ¶l ner
ĠOp ern
â Ĥ¬
Ġb ayer
ĠT sch
ĠT ode
il de
Ġ190 2
ĠGener ation
we ge
cl ub
Ġmax im
Ġscha ffen
ĠNationalsozial ismus
m ag
Ġl Ã¤ng
Ġp osition
ĠAr ts
Reg ion
ĠPartei en
Group Name
sei tig
Ġbekomm t
M ember
ĠBer icht
Ġ190 1
ĠWeiter en
ĠerklÃ¤r te
te uer
it es
gel eitet
Ġ5 5
Ġgen ug
ĠGesch ichten
ĠGeb urts
ĠSchiff e
sted t
d auer
d irektor
o e
ĠS au
ĠB u
Ġn Ã¤her
ĠGemein der
ĠEx empl
red icate
ograph ische
geh Ã¶r
wor ten
Chr ist
F rei
ĠD ol
id s
oun ter
ĠProf il
umen ten
Ġland wirtschaft
D efault
ĠMar i
ĠQu er
ĠArch Ã¤
ĠHe ft
Ġerz Ã¤hlt
H ein
k Ã¶rper
ĠE ugen
Ã¶ se
ib il
Ġbeg innen
alen der
spl atz
ÃŁ ig
Ġver geben
ĠMar ken
ĠHer stellung
ĠLebens mittel
ĠIns eln
S l
or ten
ĠB an
ĠF ield
ĠJ ud
ĠJ agd
ĠIn frastruktur
ord net
ain s
ĠTh is
yl v
ĠKan ada
ĠDon au
G en
t au
Ġs Ã¤m
ĠC ode
he d
Ġc ontinue
land es
D e
Ã¼ gt
ĠT rÃ¤ger
ĠZ un
ennt nisse
ĠWoiwod schaft
N um
d y
ch or
ĠM ord
ip pen
Ġ189 9
ĠBesitz er
Ġan gesehen
all er
arb eitete
ator s
stit ution
val ues
sph Ã¤re
Ġd ank
ĠL etz
ro at
ĠU fer
ĠBed ingungen
ĠViel zahl
gram me
A uÃŁ
ĊĠĠĠĠĠĠĠĠ ĊĠĠĠĠĠĠĠ
ver ter
wei ler
Ġbis lang
Ġ4 7
ĠNach richt
ĠWir ken
Ġho her
ĠDan eben
ĠH yp
ĠW ell
Ġbest ritt
d ner
m inton
Ġzu geordnet
rau en
ĠX ML
echs elt
Ġsw itch
ĠB oolean
Ġn Ã¶
ĠL ove
ĠC am
sp f
Die ser
200 2
ĠHaus es
Comm and
schlÃ¤ ge
Ġnotwend ig
r iss
} ,
it o
ĠGes ang
histor iker
s in
Ġz er
ĠP C
gr enzen
ok ument
ĠHer bert
Ġ6 4
ĠUntersuch ungen
ĠInfanter ie
s eit
ĠB ade
ĠEin richtungen
ĠPro jekte
ĠEnt fern
ĠFrei zeit
Ġgegr Ã¼ndeten
R ange
S ervlet
Ġf ein
Ġp ri
âĢľ ).
ild et
ĠBau werk
lehr e
Ġrel igi
W h
Ġsch rift
#### ####
Ġm et
Ġst at
Ġkathol ischen
ch est
de burg
ĠMann heim
ĠStud ie
sp ez
gesch lagen
ĠNational mannschaft
Ġ187 0
ĠKontr olle
ĠSant a
m essage
ĠS ak
ĠT hread
re h
ap el
Ġab ger
rÃ¤ f
Ġgelegen en
ar in
ĠB och
ĠM is
ĠF alls
ĠP reise
ab end
anz ig
Ã¶rder ung
ĠWill i
ĠDist rikt
iehungs weise
omet ry
leut nant
ĠL eute
ĠVer dienst
ss on
ĠFl Ã¤chen
Ġ189 8
Ġ188 0
P ersÃ¶n
ch ner
Ġan gew
sp ace
ĠVer gangenheit
ub il
enn fahrer
inder t
ĠJuli us
Ġpr int
B o
H aus
sen der
ex p
Ġunter sch
St at
b und
usÃ¤tz lich
ĠK am
ĠK alifornien
ĠAuf lÃ¶sung
ial e
rup p
vier tel
viron ment
B et
vers icherung
ĠFl ucht
Ġeinz igar
cri be
hand lung
ĠGef ahr
Ã¶m isch
c olumn
Ġ2 50
Ġvor aus
Ġent ity
ĠBr emer
stru ctor
ĠOrg an
Europ ameister
S eine
W as
b lock
ch ip
ĠSch reib
id o
At tributes
ĠBew eg
ĠtÃ¤ glich
L iter
ur ren
ver zeichnis
lass ung
ator ium
ĠBl au
Ġeigen es
ĠHil fs
ĠKur fÃ¼r
ĠWelt krieges
Ġat tribute
cle ar
en gl
ol i
Ġauf gelÃ¶st
ĠOb last
ĠErk rank
Ġentst eht
Ġeb enda
O K
P o
ĠK aff
ĠP S
ĠN ah
hen tic
ĠKon rad
ĠRo ten
