#version: 0.2 - Trained by `huggingface/tokenizers`
e r
e n
Ġ Ġ
c h
i n
Ġ d
ĠĠ ĠĠ
i e
u n
s t
a n
e i
o n
e s
Ġ S
a l
t e
s ch
a r
e in
a u
g e
o r
un d
u r
Ã ¼
Ġd er
a t
i t
Ġ w
Ġ s
i ch
e l
Ã ¤
Ġ und
Ġ v
Ġ A
Ġ B
a s
Ġ b
e t
Ġd ie
un g
Ġ D
Ġ i
Ġ 1
Ġ M
Ġ in
e m
Ġ ein
Ġ (
a m
h r
ĠĠĠĠ ĠĠĠĠ
Ġ m
Ġ z
Ġ n
Ġ K
Ġ F
t en
o l
Ġ G
Ġ E
d e
Ġ P
ĠĠ Ġ
t er
Ġ au
Ġ f
l e
g en
i s
t i
d er
Ġ H
i sch
Ġ W
Ġ T
Ã ¶
d en
Ġ R
Ġ L
t r
a ch
i l
b er
â Ģ
u m
Ġ er
Ġ I
u s
o m
r e
Ġv on
Ġ V
an d
c k
Ġ 2
Ġ1 9
Ġ h
u t
r o
l ich
Ġ N
a b
Ġ J
i on
i er
i g
Ġd en
s e
Ã¼ r
Ġ k
Ġ C
i r
Ġ ge
en t
ei t
Ċ ĠĠĠĠĠĠĠĠ
Ġm it
Ġd es
ĠĠĠĠ ĠĠĠ
Ġi m
in g
Ġ g
Ġ an
Ġd as
Ã Ł
) ;
Ġ al
r a
an n
r ei
Ġ2 0
u l
Ġ O
Ġau f
Ġz u
f t
a d
e st
i st
Ġv er
s en
i k
Ġ Z
ie l
e b
Ġ U
ĠS ch
Ġ o
Ġ l
Ġ t
a hr
Ġi st
a g
Ġf Ã¼r
el l
Ġ p
f f
Ġw ur
e h
Ċ ĠĠĠĠĠĠĠ
Ġd em
Ġ âĢ
ĠS t
i c
s p
h e
v er
Ġ =
isch en
Ġ {
at ion
w ei
a h
i en
ich t
ĠI n
ĠV er
Ġau s
ĉ ĉ
e d
Ġal s
ti on
Ġ st
ĠD ie
Ġein e
e g
r i
o t
Ġs ich
Ġ Ċ
m en
Ġwur de
e u
Ã¤ n
o s
o w
Ġ un
Ġ }
Ġ r
er n
Ġb ei
al l
e w
k t
ĠA n
in d
b en
Ġw ar
c e
s er
g er
sch a
ei ch
o ch
Ġ c
a p
) ,
es ch
h n
ĊĠĠĠĠĠĠĠĠ ĠĠĠ
ĠE r
Ġs ein
o p
ĠJ ahr
ung en
Ã¼ ber
er t
en d
ei l
o g
Ã¼ n
i m
u b
e hr
u f
u ch
0 0
or t
Ġau ch
l in
ge t
et z
Ġw ir
r ie
isch e
e ut
a te
Ġ Ã¼ber
Ġn ach
Ġ20 1
st er
Ġb e
ur n
ĠS p
scha ft
an g
( )
Ġ sch
st en
es s
l er
ur ch
l a
Ġ j
m er
r an
r u
Ġ am
ung s
e c
g t
ĠU n
ĠE in
l ie
o d
Ġb is
i d
ar t
âĢ ľ
as s
eut sch
au s
Ġn icht
n en
âĢ ĵ
Ġs ie
Ġz ur
Ġ1 8
Ċ ĠĠĠ
1 9
ol l
ĠA r
Ġw er
ĠâĢ ŀ
er s
a k
ĠA l
Ã¶ r
i z
et urn
u g
te l
Ã¤ t
I n
Ġz um
ĠS tr
Ġ 3
Ġ20 0
Â ł
Ġ um
Ġein er
Ġwer den
e ch
Ġ es
q u
e x
ch en
Ġw ie
Ġv or
Ġh at
t s
p p
i v
Ġ a
ĠS ie
ĠP ro
Ã¶ n
Ċ ĉĉ
Ġun ter
ĠâĢ ĵ
Ã¤ r
z en
D ie
Ġd urch
i b
st ell
ge l
Ġwir d
h l
am e
Ġ ab
Ġo der
Ġs ind
h al
ter n
or d
au f
Ã¼ ck
en n
i gen
ĊĠĠĠĠĠĠĠĠ ĠĠĠĠĠĠĠĠ
Ġ ent
or m
ĠE n
Ġi hr
Ġ "
isch er
Ġi f
u e
y p
Ġein em
k s
h er
te t
ch e
ul l
a ge
l o
st e
) .
ge b
g r
Ġein en
Ġs p
ar b
eb en
Ġ tr
p tion
lich en
ei ter
Ã¼ hr
ĊĠĠĠĠĠĠĠĠ ĠĠĠĠĠĠĠ
ĠM it
ĠB er
el t
ier t
Ġ re
ah l
Ġ Ã
r Ã¤
er k
u d
n er
e p
Ġ /
ĠD er
e k
e z
o k
Ġ19 9
ĠA us
l and
ti g
ur g
u st
Ċ ĉ
ub l
E x
o b
e f
il d
il l
r it
i ck
( );
o de
h en
sp iel
us s
p f
at z
i a
i ge
S tr
ĠA b
ad t
p ar
rei ch
ĠG r
Ġdas s
p l
lich e
el n
ar d
Ġ -
Ġn ew
ĠO r
r au
o f
i f
ĠM a
wei se
om m
in z
ĠA uf
1 8
ei ten
o hn
ĠC h
a v
at ur
Ġ 4
i al
g es
2 0
in al
o v
Ġr eturn
e y
ce ption
an z
a st
u ÃŁ
Ġn ull
Ã¤ l
a y
Ã¤ hr
it z
s s
ĠM ar
S t
ab en
an t
ĠĠĠĠ Ġ
ein e
l en
at en
Ġz wei
a c
ĠN ach
Ġ19 8
m e
ĠD as
ĠL and
p er
Ġs o
ĠV or
t h
ĠI m
m al
et er
on n
Ġ/ /
at h
or en
l ass
Ġt he
Ġ +
ubl ic
al t
ĠH er
te m
Ex ception
. .
eit s
b urg
om p
ver s
Ġ 5
rei s
Ġo f
o c
p t
f ol
k en
ro ÃŁ
Ċ ĠĠĠĠĠ
am m
Ġn eu
e v
Ġ( *
Ġs ow
Ġn och
Ġn ur
Ġm ehr
ich te
p h
h t
Ġd eutsch
p r
ec t
Ġ 0
Ġb est
on t
Ġwur den
a ck
in e
b j
o ur
ber g
ul t
Ġ19 7
ĠF l
yp e
( "
Ġan der
at t
ach t
Str ing
b au
en s
der n
ut z
f l
Ġv om
ĠB r
b ar
ĠStr ing
b r
in t
i le
a f
sch en
g l
etz t
ab le
s h
ier te
it Ã¤t
it ion
Ġ19 6
Ġz w
ei m
Ġl ie
ei ster
Ã ©
Ġa ber
b e
ĠZ eit
Ġge w
ĠD eutsch
om men
ĠSt adt
i an
ation al
ah n
l em
ĠA m
n et
W eb
Ġdie s
il m
el d
par am
k eit
r eturn
D er
el le
n is
ier en
d u
C on
Ġ1 7
N ame
Ġw eiter
Ã¤ ch
un k
u p
ĠP l
a z
al ue
lin ks
n e
ĠK on
Ġb er
it er
s k
Q u
i o
Ġ19 4
Ġm an
d r
Ġsow ie
Ġk Ã¶n
Web links
a gen
Ã¼ t
Ġ 9
ĠR eg
l os
Ġp ro
Ġ et
l ei
Ġ 6
E n
p ublic
m it
ĊĠĠĠĠĠĠĠĠĠĠĠĠĠĠĠĠ ĠĠĠ
Ġk ann
d em
as e
l ag
as sen
Ġb es
i p
f Ã¼hr
hr ow
ĠT he
f orm
ĠF ran
Ġd ar
f ten
i re
o ck
at er
Ġ19 5
ĠG em
e gen
Ġ e
ti v
m ann
ar k
Ã¼ d
er en
eh en
ei te
ol le
l ung
Ġ gen
g esch
a in
Ġge gen
am men
ff en
Ġ &
es p
d ig
g lich
sch ie
Ã¶ l
Ġ le
it y
ei gen
g lie
ier ung
l i
et t
or f
r Ã¼
y m
st an
s b
Ġ1 5
E inz
eh men
f ahr
ol it
ap p
z eich
P ro
et h
em ber
Ġs oll
spiel er
h und
Ġwie der
i vers
ÃŁ e
i um
am en
ĠK l
a is
ĠG esch
ol og
Ġein es
ĠJ o
ĠUn ter
t eil
er v
ĠB ei
i te
Ġsein er
Ġhat te
und en
Ġd e
ach weise
Ġ19 3
ĠI S
ib t
s et
w er
ĠE s
Ã¶ ff
z eit
ik er
A n
Einz eln
ann t
Ġsein e
ie der
o st
Ġ el
ĠSp iel
Einzeln achweise
Ġh aben
ar l
lie ÃŁ
or g
Ġ ex
e kt
Ġdie ser
p ro
ch t
hund ert
T ype
r en
Ġ1 6
ĠB au
an s
b all
ĠT h
z e
is sen
ĠJahr e
ĠM us
ge ben
Ġ= =
at a
h eit
ie le
ik an
B N
ell en
ĠGem ein
us ammen
Ġ 7
ru pp
ie s
ĠG eb
Ġ ich
sp r
ĠIS BN
u le
n ah
ĠU m
ers on
b st
Ġt h
ab e
f en
in gen
in n
y st
Ġf or
Ġ 8
ic e
u te
al s
l eich
on g
- -
s el
Ġbe f
m ein
A r
Ċ ĊĠĠĠĠĠĠĠ
al e
e ck
at or
ĠSt a
D as
w a
ĠU S
S ch
ĠkÃ¶n nen
Ġzw ischen
y n
k l
h Ã¶r
ĠT eil
Ã¼n d
I m
w ar
bj ect
Ġwar en
ig er
ie t
o ber
tr ag
im m
ĠÃ ľ
A l
Ġ Y
ĠB l
Ġb eg
ĠG es
et en
w ick
in ter
ĠJahr hundert
Ġge t
Ġj e
is s
f er
ĠJahr en
iter atur
og ra
ei st
U n
E r
ĠH au
Ġs eit
p ut
Ġb et
ĠS o
Ġs el
1 7
r es
L ist
ol d
yst em
on der
ĠK ir
Ġ !
Ġg r
am il
Ġk l
f all
Ġj ed
en er
ur op
o un
iv e
ĠEn t
ĠB o
Ġt hrow
) )
in der
Ã¶ s
e an
I N
Ġg roÃŁ
Ġt o
h m
o ff
e qu
t or
st ra
t o
r ich
an k
ge w
Ġf ol
at s
Ġzur Ã¼ck
Ġ Qu
am er
at ch
Ã¤ hl
Ġdie se
ÃŁ en
Ġer h
ĠW elt
al d
() .
und es
on d
Ġbe k
hal ten
Ġ en
z eu
ĠI hr
l es
a il
Ġi s
Ġ1 0
w erk
Ã¤ ter
ĠBer lin
ad d
ĠUn ivers
ĠS te
or den
Ġg es
f or
Ġ <
te x
o ol
or e
Ġd rei
ĠAr b
as ser
ti gen
it t
" ,
m ent
ĠP h
ar r
V er
st and
t schaft
eh t
1 0
o hl
00 0
Ġd am
am t
I d
ĠE x
in den
la ge
m a
Ġer sten
ĠÃľ ber
Ġbei m
" );
ing s
Ã¤n d
ĠL ist
al en
m in
m us
ĠW ir
r om
rie g
ĠB e
E R
Ġd ann
n ung
l au
iel t
z u
scha ften
k e
Ġh er
Ġge hÃ¶r
l Ã¤
Ġ1 4
Ġer st
Ã¶ glich
() )
Ã¤hr end
Ġh eu
ĠC hr
ation en
o id
an gen
ti l
fol g
Ċĉĉ ĉ
Ġal le
hn e
Ġ1 2
gen d
ex t
Ġ :
Ġin t
an der
stell t
ent lich
Ġw enn
i ff
um ent
il der
Ġg esch
h aus
ĠF ilm
Ġg ibt
Ġk onn
Ã¼ l
k er
Ġ! =
glie d
m eister
Ġ and
ĠM en
or n
Ġ eigen
st r
Ċĉĉ ĉĉ
el s
ĠĠĠĠĠĠĠĠ ĠĠĠĠĠĠĠĠ
b t
w end
uÃŁ ball
Ġth is
1 5
Ġan ge
z w
ĠZ u
an ge
Ġh ier
ĠR o
ĠN eu
1 6
Ġ1 3
tex t
ĠP ar
er e
Ġjed och
as se
e am
ĠO ber
ĠSch w
ach e
Ġf inal
ĠG er
() );
Ġaus ge
v or
Ġf Ã¼hr
ĠL eben
ster reich
1 2
f e
Ã¶n ig
Ġihr e
un st
ri v
ach en
m an
Ã¤ d
1 4
Ġun ser
ĠH and
rie b
k tion
Ġv iel
de x
ra d
ein en
Ġ ch
ĠJ an
i den
ĠA ug
G eb
Ġ19 2
r at
ist er
L iteratur
a x
ĠGemein de
oun t
ar ten
âĢ Ļ
ĠÃ ĸ
und e
c tion
Ġs ehr
b o
ĠB undes
ĠA ut
ri ft
on e
Ġd a
z er
ab ei
b ild
ĠA d
ĠL e
y s
am p
ĠP f
.. .
O N
ru ck
l t
Ġsp Ã¤ter
Ġr es
z t
C h
ig n
Ġ |
f ig
re u
Ċ Ċ
ist or
ĠB es
Ġdeutsch er
sch e
Ġel se
un i
in a
our ce
au er
iel d
au t
st ein
ĠM on
ist en
ti ge
s atz
ĠE l
lich er
o u
ĠDeutsch land
Ġw el
Ã¤ u
en tr
ĠG e
ĠJ ul
ei d
Ġi hn
S p
ier ten
ĠF amil
ind et
ei g
ĠB et
a der
hal b
st adt
7 8
Ġet wa
ĠOr t
it h
iz e
Ġv oid
ĠR e
re ch
ie d
on s
s etz
au m
1 3
ĠM in
ĠF or
ĠB and
schie den
te d
ess ion
Ġh in
( ),
Geb oren
Ġw as
ĠF rie
tern ehmen
Ċ Ġ
en den
m ar
ur e
i x
h of
Ġdies em
ĠP r
at ic
rÃ¤ s
ĠP erson
ĠK Ã¶nig
a de
Ġg leich
ur z
Ġsein en
ĠR ech
i de
V alue
O r
Ġin s
P ar
ation s
Ġ *
en k
ĠF rau
ra y
ĠM ann
Ġz usammen
u ar
ĠVer ein
ĠGr und
ĠL u
t on
Ġsein em
en de
Ã¶ ÃŁ
ĠAug ust
Ġg er
b l
gt h
ĠN ord
o sten
Ã¤n der
Ġ ar
w ir
ge mein
ur t
stell ung
Ġlie gt
Ã¶ ch
ĠM Ã¼n
ĠG roÃŁ
Ġb esch
g ang
ien st
sch l
Ġber eits
Ã¤n ger
ĠEn de
M it
al ien
u ff
Ġander en
s on
un kt
Ġim mer
Ã¤r z
/ /
eit ung
ĠS h
ĠW est
D eutsch
Ġk eine
ĠM an
Ġw o
Ġver b
r icht
k ehr
t t
Ġ eh
Ġer ste
s uch
z ahl
ĠP ol
ĠN ov
I D
ĠFran k
or k
ĠJ uni
ult ur
kt ober
ĊĠĠĠĠĠĠĠĠĠĠĠĠĠĠĠĠ ĠĠĠĠĠĠĠ
2 1
M ann
f Ã¼
ĠE urop
rupp e
ĠPl atz
Ã¶ff entlich
Ã¤ m
ĠM al
[ ]
ol f
r on
= =
R es
s g
Ġsch on
2 00
ĠW ei
ĠV ol
) );
ĠS e
b ach
t es
N ach
ĠJul i
C lass
Ġge l
ĠP art
tem ber
Ġun s
le g
Ġc on
p ert
Ã¼r ger
issen schaft
ĠHau pt
Ã¤l t
in k
ep tember
on se
ĠT r
s o
ĠMa i
ie f
ĠR ei
ĠB est
Ġein z
ĠF Ã¼r
Ġkonn te
ĠG ra
Ġsel bst
Ġ %
ĠB ez
re g
Ġihr er
ĠK unst
mit tel
h ann
ĠG ew
la gen
pr il
ĠO ktober
ĠVer b
k reis
Ã¼n f
Ġ )
Ġfol gen
ais on
ĠH och
k eiten
Ã¼n st
omp on
Ġheu te
ĠM ed
m Ã¤
Ġv ier
u ten
o ten
ĠJan uar
ier e
tern ational
gr und
ĠS Ã¼d
f ach
ĠF rei
ĠB ild
Ġt eil
z ial
an den
ti k
ĠPro du
i tel
Ġi hm
ĠĊ Ċ
h a
Ġk am
5 0
Ġb r
Ġ19 0
Ġge f
a den
amer ikan
o ut
h eim
S ie
l ig
ez ember
lo ck
om mer
ran z
f inal
es sen
Ġl etz
ĠS eptember
Ġdam it
ĠSt ud
ĠH o
Ġst atic
sch n
ĠM Ã¤rz
ich er
Ġd ort
erv ice
Ġein ge
ĠH aus
esp onse
Ġo hne
an is
Ã¤n g
Ġver schieden
olog ie
ti er
Ġneu e
as h
ĠA pril
A T
b uch
h au
sch lieÃŁ
c c
ĠO l
Ġs on
os ition
in nen
ĠJ u
isch es
Ġ eben
w alt
Ã¼ s
o gen
f ang
or ben
ĠP olit
el m
ĠF ahr
unk tion
Ġp ar
un ter
Ġ& &
Ġal ler
re d
re ate
ĠStr a
ĠR eich
w ahl
ing er
Ġver l
Ġw en
ĠB eg
ĠK inder
Ġ X
tr y
ĠK omm
ĠC on
1 1
r ik
ĠI I
ĠMus ik
ĠUnivers itÃ¤t
n ew
ĠChr ist
fall s
ogra ph
ĠD ezember
ĠU r
zeich net
Ġw Ã¤hrend
ĠNov ember
lin e
ĠW eb
op h
ĠN ew
b ahn
ion en
ĠA k
ĠSp r
ĠF ol
A us
f eld
Ã ¡
) :
c ode
de ut
ĠN ational
ĠDie se
E N
ĠM o
ĠJo hann
te te
es en
ag er
ĠW asser
h in
ti f
ĠLand es
Ġgr Ã¶ÃŁ
K ey
Ġ .
ell schaft
le x
Ġer folg
ie b
al is
ĠW erk
ĠKir che
hal t
f o
em al
ach sen
Ã¶ st
Ġo b
Ġst att
eb ru
er b
u pp
rÃ¤s iden
ebru ar
ti m
Ġb en
Ġ3 0
Ġer sch
Ġbei den
im e
Ġb el
č ĊĠĠĠĠĠĠĠ
c t
Ġs ei
w ohn
z ei
ĠMen schen
ĠD ar
ch er
al ter
ĠList e
equ est
Ġ18 9
ĠZ wei
ĠE m
ĠIn d
ĠB uch
al se
âĢľ ,
e um
Ġsp iel
i pp
stra ÃŁe
c o
ĠF r
ri ff
Ġal l
eth od
ĠT ra
ern se
ĠD urch
Ġg anz
ool ean
ĠUn ternehmen
kt ur
E in
ĠSch wei
ĠW ert
âĢľ .
Ġneu en
r or
A m
Ã¤ tig
Ġer n
ĠĊ ĠĊ
kt u
l an
M ap
ĠV on
ĠF orm
sh all
ig keit
ĠGesch ichte
en z
ĠâĢ ł
fÃ¼hr t
ĠEin e
mal s
c on
ĠA t
ĠS aison
ĠMit tel
los s
de ck
ess age
ot t
ĠAl s
Ã¤ch st
lem ent
-- --
Ġd abei
ar n
eh mer
Ġf est
ĠF re
ĠF ebruar
de te
Ã¤ hn
Ġ Â
st it
at iv
stan ce
h ol
f te
Ġ arb
t ag
l auf
ire kt
gl eich
stell er
a ce
Ġm us
ĠN ieder
ĠD aten
ĠÃ Ħ
eh n
Ġihr en
ĠW ien
ro up
ĠIn ter
O bject
ar i
Ġge b
ur r
ĠZ w
k ommen
ĠW il
az u
g abe
ĠS k
ei le
Ġh abe
Ġg ab
ĊĠĠĠĠĠĠĠĠĠĠĠĠĠĠĠĠ ĠĠĠĠĠĠĠĠ
Ġ201 0
ĠG ener
ranz Ã¶s
Ġ201 5
st ru
v al
n ame
ym p
Ġz un
a w
Ġst eht
ech n
Ã¤n de
os s
č Ċĉ
is h
Ġ >
Ġdies es
i der
Ġge st
d orf
em en
ĠSch ul
u tion
Ġv alue
li ent
ĠMit glied
ti ert
c ri
ann te
Ġ201 8
er st
R E
h ein
Ġb zw
h and
R equest
Ġ it
em ent
k on
Ġ201 1
r y
a ar
op p
ar ch
ĠT ag
rei chen
Ġ '
ff iz
ĠF uÃŁball
uf en
ver b
b ew
es se
ogra f
ber t
Ġ201 2
len gth
u ilder
D ata
Ġk omm
ĠB as
Ġ ur
G esch
a kt
sch utz
Ġdes sen
ich tig
Ġb ew
il it
oll en
A t
Ġ201 3
19 9
Ġ200 8
i us
Ġf rÃ¼
app end
it zen
o ub
st Ã¼t
ĠN amen
Ġ u
ĠS er
tr Ã¤
Ġl ang
Ġ2 5
sch ule
Ġ9 78
Ġthrow s
s st
ie w
ĠVer lag
ĠH al
T o
re cht
nah me
ĠG l
ĠH Ã¶
zeu g
ei den
Â Ń
Ġ201 6
ĠA uch
S T
Ġ201 7
ĠPh il
ĠMÃ¼n chen
wick lung
v ent
Ġ on
ĠR om
Ġ201 4
ĠSch l
w eg
ie g
lin k
ÃŁ er
M ar
ĠR Ã¼ck
p unkt
schie d
ech s
Ġw ei
m s
ĠK arl
in en
geb iet
3 0
le gen
Ġ200 7
ĠI s
Ġweiter e
Ã¤t z
dr ich
Ã¼nd et
ĠH am
est er
oub le
Ġk on
los sen
z ug
Ġer reich
Ġ1 1
Ġbes onder
an st
ĠVer s
nis se
Ġ200 9
rupp en
Ġd u
Ġs Ã¼d
Ġtr ue
rie ben
Ġal lem
ĠPro f
Ġerh ielt
Ġ ro
Ġst ell
ĊĠĠĠĠĠĠĠĠ Ġ
ĠAr t
uch t
um en
Ã¼ b
schl uss
ge stellt
o te
fahr en
al er
Ġh and
A R
ĠR ep
ĠSch au
ĠM ill
ĠK n
S et
ĠAr ch
u er
Ã¤u de
al ten
tr ib
ĠG egen
h o
ech sel
wei l
ĠW ohn
y te
z ent
Ġn un
Ġder en
Ã¤hl t
Ġdeutsch en
L eben
Ġg ut
ĠK rieg
ti gt
ĠE d
Ġ qu
ĠZ usammen
ri de
us e
F ile
Ġn ah
f ern
is k
Ġ200 6
ĠK r
Ġf inden
Ġson dern
Ġn ot
ubl ik
Ã¶ m
Ġh o
4 0
Ġeh emal
ĠB ew
ĠPerson en
Ã¼ ss
Par am
Ã¤n dig
ran k
th is
s ol
k ir
ach te
Ġc atch
ra ft
ĠD an
ĠM eister
ĠArb eit
s am
ĠT itel
riv ate
ur s
ĠC o
O ver
P ath
ĠH ol
A L
sch ul
at us
Ã¤ uf
h ard
Ġv iele
ĠFl ug
Ġb ie
Ġ18 8
ein er
mÃ¤ ÃŁ
sch er
k rieg
Ġf ranzÃ¶s
Gesch ichte
Ġander e
Ã Ń
gr amm
a i
Ġbek annt
ow n
Ġge mein
ten t
ra g
ĠD es
o ge
ĠD u
2 5
au l
Ã¤n ge
p en
N ode
ak tiv
w e
Ġ at
Ġm uss
stell en
al if
el e
ĠDie s
qu est
k te
Ġf Ã¼nf
at ive
Ġw orden
ĠS al
Ġtr y
in s
w est
y l
ĠBer eich
G est
Ġ2 4
ĠL ie
is mus
ĠN atur
ĠM od
Ġbef indet
Ã¶r der
eu er
ĠG ef
O R
ab el
Ġ( âĢ
ĠK ap
Ġf alse
ei tet
p s
in er
as k
ĠF est
A b
re chen
w as
ĠS ystem
Ġden en
Ġp ublic
ĠS tel
d ings
ĠS eite
ĠL ei
ĠFamil ie
Ġp er
ĠL ehr
Ġ200 5
hn en
ĠEin wohn
h elm
ol um
6 0
urr ent
le gt
l u
ĠBer g
reu z
ĠReg ion
am pf
im mer
Ġsoll te
Ġsch w
eite te
ich ten
c es
ĠFrie drich
ĠS c
ĠP er
Ġ or
Ġer w
Ġc ase
ĠL in
ĠSt and
Over ride
glie der
ar e
ĠI l
rei b
as st
Ġr und
ĠB ay
ĠH ein
Ã¼ hl
Deutsch er
Ġ20 00
e ad
ges etzt
ĠWeb s
ĠM ich
ut ter
ĠD i
Ã¤ h
u per
Ġz ahl
Ġd i
st off
w ig
ĠR ad
Ġbeg ann
z ie
en nen
sp ort
ĠB ahn
ĠB Ã¼rger
ĠW er
ĠLeben s
Gest orben
Ã¶l ker
ar m
c om
v en
Ġa ktu
isch of
Ã¤ ft
sch rift
ad em
ĠA uÃŁ
Ġ18 7
j ekt
2 2
Ġdie sen
Ġje weil
kl Ã¤r
f ra
ĠSp ort
ĠD r
19 8
in o
Ġm Ã¶glich
ĠS a
j Ã¤hr
ĠS ohn
Ġ1 00
Ġb oolean
R eg
a ff
Ġb eh
Ã ³
tr agen
n ehmer
A N
j ahr
ec tion
ĠP at
ont ain
Ġzun Ã¤chst
uff er
ĠB en
Ġer halten
Str eam
er y
em a
ernse h
f r
b lem
h Ã¤lt
Ġres ult
Ã¤ re
T ra
Ġeben falls
ĠIn form
c lass
b um
am es
ĠFrau en
ch n
ir k
Ġ201 9
ĠF ra
s icht
ĠM et
ĠE is
ĠS an
Ġ200 4
ĠW ahl
ĠO n
Ġent wick
In dex
och en
h Ã¶
Ã¶ sterreich
ĠO st
Ġ ,
w ort
ĠK reis
g or
rÃ¤siden t
Ġdeutsch e
ĠT od
Ġsch n
L E
pl atz
Ġau ÃŁer
* *
ĠB el
ĠB Ã¼
Ã¼nst ler
hr en
zen tr
ut t
g aben
Ġander em
ĠDeutsch en
gl isch
ĠS ommer
enn t
Ġ [
ĠC ar
ann ten
ĠK ar
Ġ em
4 5
re ak
A d
ĠPolit iker
E lement
Ġwel che
et te
fig ur
ĠN ame
Ġletz ten
g te
Ġver w
tr eten
ur m
st ag
sch w
gen ommen
fol ge
Ġd azu
. ,
f Ã¤l
ri d
st a
h af
ĠG en
pert y
g ument
d ruck
ck en
ran s
ov e
Ġ te
Ġein ige
ath ol
Ġ| |
M od
bild ung
ĠIhr e
al itÃ¤t
den k
ri te
Ġver Ã¶ffentlich
alt ung
b ez
ĠH ier
+ +
Ġdar auf
is e
Ġkomm t
I T
ĠW eiter
ut h
s w
o se
ĠK ultur
Ġ end
ĊĠĠĠĠĠĠĠĠĠĠĠĠĠĠĠĠ ĠĠĠĠĠĠĠĠĠĠĠĠĠĠĠĠ
Ġin ter
au lt
ig ht
er g
Ġ x
Ġh ei
Ġgew ann
ĠM ag
Ġ2 2
f ilm
ĠFran z
A uf
on nen
Ġw Ã¼r
rei che
h le
B uilder
at es
St ate
ach ten
G e
Ġs et
ĠJu gend
Ġre g
ĠÃĸ sterreich
ĠPro v
U R
ĠO bj
k auf
tor y
iss ion
z el
ar y
l y
Ã¤ us
Ġet was
il ter
it ter
le hr
eth ode
Ã¼ck e
am ent
Ġge ht
F uÃŁball
ess or
om b
ig ung
n a
in anz
k m
Ġein fach
ĠH il
ĠW ie
amerikan ischer
ĠgroÃŁ e
Ġk ommen
ĠS eit
u ft
Ġge gr
č ĊĠĠĠĠĠĠĠĠĠĠĠ
nah men
v e
Ġ200 3
f urt
Ċ ĊĠĠĠĠĠĠĠĠĠĠĠ
ber eich
b ei
Ġk ein
ĠG el
ĠgroÃŁ en
Ġ18 6
ais er
e er
arb eit
in de
Ġv oll
Ġauf ge
Ġab ge
sch ein
F ield
ĠSta aten
rau m
u ck
b et
U til
ĠB ar
ĠO bject
ĠF ach
R esponse
ĠHer z
Ġge m
Ġin ner
ĠHer r
T ime
B ei
Ġ ev
ĠE ur
a j
l ang
Ġ2 3
st re
ĠWil helm
an ce
Ġl assen
Ġ199 0
Ġn eben
o und
et s
ĠT er
2 3
ot or
ilit Ã¤r
ĠB ern
e e
d re
d ate
ap an
ĠIn tern
ĠVol ks
st Ã¤nd
ĠW ill
r sg
Ġf rei
č Ċ
ĠR es
ĠB esch
W ir
M an
Ġihr em
h eits
B y
Con text
ĠLand kreis
tiv e
Ġ2 8
ur en
Ġver m
ĠgehÃ¶r t
op f
min ister
ĠSta ats
eich t
is ion
ĠJahr es
P D
h ei
Ġ200 2
ĠB i
H and
ĠO b
ĠD orf
ĠT eam
o ver
ek te
ĠD a
ĠJ ohn
ĠGr Ã¼n
ĠF ot
imm t
nah m
S ervice
ĠN e
Ġhat ten
ti schen
se e
M E
ĠF er
ti c
Ġ2 1
Ġg ing
el te
un ft
et ter
ser v
Ġm Ã¼s
ĠSch n
ĠS el
en der
Ġ20 20
an ten
ĠF all
ĠFamil ien
la y
ĠC l
ĠH eim
č Ċĉĉ
ĠOl ymp
k a
< /
Ġ2 6
D R
S S
ĠS il
gesch ichte
ri m
ev Ã¶lker
ĠKir chen
ic a
able d
Ġw ill
Ċ ĊĠĠĠ
fÃ¼hr ung
iel le
ur ger
ell er
um s
ind ung
il om
sch eid
2 4
d ienst
y r
Ġh och
M essage
Ġ200 1
schn itt
ges amt
Ã¤ ten
an zen
ĠW ar
re uÃŁ
equ als
ĠH ans
u es
Ġ5 0
e ader
z ig
p rivate
ĠR ah
Ġal len
che ck
ĠB ro
ĠL a
Ġver wend
es onder
av a
D E
ĠG u
ing t
p ort
Ġd och
ne te
ĠSch rift
bau t
ĠAl l
sp iele
Ġw egen
ot he
o int
T he
ĠR u
Ġbe zeichnet
setz ung
Ġn e
Ġin d
om in
Ġnah m
Ġm ir
7 0
ĠB urg
F orm
ge ord
ĠFol ge
l ungen
for der
I I
Ġals o
ĠI t
ĠK o
ĠP eter
Ġspiel te
Ċ Ċĉ
ĠRech ts
Sie he
w ard
Ġent sp
E s
ĠSch iff
Ġm o
8 0
Ġst ehen
Ġmehr ere
sch au
Ġher aus
ti sch
wir tschaft
fÃ¼ g
ĠS eiten
Ġver st
rit er
arr iere
it te
ers Ã¶n
a el
h eiten
In fo
Ġzwei ten
ĠM art
Ġbest eht
icht ung
ĠS itz
et ten
Ġin ternational
um mer
Ġp olit
ater ial
ĠSchau spieler
ĠT or
ĠT echn
Ã¤ che
Ġsch lieÃŁ
o x
U S
ĠGener al
Ã¶r per
3 5
ĠAn fang
w ert
rit ten
Ġb rit
Ġm achen
ra k
ĠI ch
Ġre ch
Ġersch ien
lo se
d ie
Ã¤t ze
l ist
an c
ei sten
Ġs ol
Ġm al
h Ã¤ng
la st
O Exception
om it
a e
is se
ĠD em
av on
ĠMar k
ar s
Ġ2 7
ti me
n ungen
ĠZ entr
IN G
ĠArb eits
ig es
h ung
ĠEr n
Ġerst mals
es ser
ĠZ ahl
ei gt
ck e
Ġ199 9
Ġaller dings
ĠC omp
ĠEin satz
w w
ĠY ork
w elt
O f
ĠBet rieb
ĠPart ei
4 8
ĠEinwohn er
ri ften
Ġst ud
ĠPar is
l ow
ĠUnivers ity
u ter
Ġm ich
ĠW or
Ġst ark
ok en
ĠN eben
A C
ĠIn stit
ĠM or
at ten
ust r
Ġ ?
Ġk urz
Ġd ah
En try
ĠWir tschaft
all en
i as
Ar ray
ĠMann schaft
t hrow
an gel
r et
s ion
Ġ y
ĠD re
ĠAl t
H rsg
ĠRah men
ĠB eh
ver ein
ĠK Ã¶l
Ã¤m pf
ĠW eg
r em
ĠR hein
ĠZ iel
ĠH istor
Ġ( !
rÃ¤ ger
ig ten
En abled
ĠG o
9 0
Ġd ef
ĠW inter
il t
Ġ194 5
Ġ199 8
esonder e
ti sche
t lich
. ):
ograph ie
ern e
z ung
ĠF ir
Ġl og
ak e
S E
or s
Ġw e
Ġsein es
ĠAl ter
ck er
Ġtr at
kir che
Ġden n
Ġ18 5
âĢ ¦
Ġer z
rit t
ond on
g angen
b ack
am b
ĠH eil
ĠR aum
ĠF unktion
I C
Ġo ft
P erson
ĊĠĠĠĠĠĠĠĠĠĠĠĠĠĠĠĠĠĠĠĠĠĠĠĠ ĠĠĠ
ĠA mer
Ġo bject
teil ung
ĠWelt krieg
w ie
Ġh inter
ograf ie
v alue
utz t
u k
ein ander
af Ã¼r
p rÃ¤
ĠM Ã¤n
Ġr el
ĠL auf
uch s
ĠU hr
y ch
ĠGe org
le ben
ĠS ti
sch ung
Ġc reate
ob il
Ġverwend et
Ġum f
ĠgehÃ¶r te
19 6
t oc
ĠP reis
spr Ã¼n
Ġverschieden en
== ==
Ġ20 21
och ter
ĠfÃ¼hr t
ĠHein rich
Ġn ame
ĠR ich
stan ts
ik a
ĠD ienst
Ġm ax
ĠP aul
ĠR ef
ol e
ier ungs
Ġw eil
lie b
ĠK aiser
I ON
ĠB ru
ĠHam burg
an a
st Ã¤ndig
ĠJo se
p or
. âĢľ
olum n
ĠfÃ¼hr te
ĠOr g
ĠV ater
ĠH a
g n
s weise
3 2
ilom eter
ĠUS A
sb esondere
Ġs etz
ĠJahrhundert s
ich tet
ĠWebs ite
f rie
{ @
um ber
ĠBei spiel
ĠG ruppe
ig t
ĠE igen
ĠA u
eg t
toc ol
trib ute
ĠG old
Ġf and
te ger
ĠD ort
ĠVer walt
E m
ĠB ad
Ġbe de
ic al
ĠI hnen
o ok
Ġre quest
w and
ate gor
Ã¼ck en
ĠLu ft
. :
ĠK an
l ing
Ġ2 9
b el
Ã¼nd ung
ompon ent
Ã¶r d
. )
in es
ti eren
ĠEr z
Ġeigen en
G roup
at Ã¼r
us Ã¤tz
ig a
ob ei
stan den
Ġh istor
ĠK ur
ge f
ĠK at
B er
unk te
ĠProv inz
ĠT re
4 9
ĠS Ã¼
f ass
ig it
Ġin stance
ĠGra f
ĠT yp
Ġ4 0
tt p
d es
C ode
ĠZ ug
Mit glied
Res ource
Ã ĸ
Ġd avon
ĠIn ternational
ĠEurop a
Ġ Ã¶sterreich
icht s
sk i
> >
ser ie
Ġw eit
ĠL ud
Ġ â
Ġ198 0
F ac
Ġweiter en
ĠMit te
ĠB ed
ĠEr st
ĠĠĠĠ ĠĠ
k ten
ĠEn g
ra un
sp ro
ĠD abei
ĠVer tr
t z
Ġk ey
Ġgen annt
Ġ199 6
g ar
amm lung
un n
ĠMa x
k o
au en
3 3
Ġs echs
ĠReg ierung
ĠGes ellschaft
h il
l og
Al s
En t
ĠL ondon
f el
ĠM eter
Ġn ie
ĠF rÃ¼
2 8
19 7
ĠEur o
eu te
ĠT em
du z
ĠStra ÃŁe
Ġc a
ĠEnt wicklung
onn ection
Ġl ange
hau sen
2 6
om pl
ĠSpiel er
j ect
ĠKl ein
ĠSch m
lo ster
n ot
Ġbesonder s
Ġjeweil s
ĠK ont
Ġ199 7
pt y
schlieÃŁ end
om at
Ġein mal
ĠGesch Ã¤ft
ĠH of
Ġ199 2
ĠLei p
J ahr
il le
au r
ĠL eist
ĠW olf
Ġst and
ar a
m ed
19 0
ĠP al
Ã ¨
ĠF eld
l et
Ġ us
et r
ĠUn d
ic ation
Ã¼ gel
Ġ199 4
am a
am mer
Ġf ast
om as
Ġj etzt
ĠRe gel
an e
Ġb reak
Ġg ilt
all s
wei ter
F or
ĠSta at
gen den
am s
ol oge
Ġw est
ĠP ap
ĠmÃ¼s sen
a ÃŁ
Ġw obei
s etzt
ĠD at
lei st
ei er
D ef
F ilm
l Ã¤nd
V al
m b
ĠD on
ic s
Ġ197 0
lich es
G ibt
m Ã¶glich
Ġ( (
s ize
] ;
ist ischen
d i
lig a
ĠN r
Ġd irekt
Ġ199 5
ĠFrank reich
tik el
ĠAn t
eh m
ĠE le
it u
Ġ Ã¤l
pr ession
ĠGeb Ã¤ude
L oc
2 7
ĠK Ã¼
S h
arb eiter
i ver
Ġs ehen
n ehmen
a ffen
ie sen
reib ung
ĠS ol
lich t
ĠKomm un
o ot
Ġ18 0
Ġo ut
ĠHÃ¶ he
cc ess
ĠHol z
trÃ¤ ge
or ge
war z
ek tr
ar get
um e
ĠT ochter
Ġunter schied
k au
c a
c l
al k
ĠT our
Ġarb eitete
ge ber
auf en
z ogen
ĠM Ã¶glich
att ung
ĠCh ar
Ġw ith
s eite
3 8
ĠG eh
ch es
3 7
d s
anis ation
wei s
lehr er
Ġkl ein
Ã¤t te
w Ã¼r
Ġt ype
g art
qu e
ĠPro blem
Ġab sol
ĠD is
ock ey
g s
D es
ĠGeb iet
Ar gument
A s
ig h
ĠC olle
a he
age ment
ĠSchwei zer
ĠEin zel
ĠD av
ĠF C
3 6
ĠMich ael
4 7
Ġmus ste
ĠD o
ĠkÃ¶n n
it or
Ġinner halb
om e
m l
ĠT ext
ief ert
2 9
S er
ik ation
ĠMill ionen
ĠSch loss
Ġbie tet
g lichen
ĠMus eum
Ġ add
ĠR est
ĠPl an
Ġm eisten
ar te
Ġunter stÃ¼t
Ġ @
ĠE v
Ġl Ã¤
eh l
urn al
ie gel
wend ung
ĠP ort
Ġn ieder
ib li
ĠW ald
ĠMar kt
C lient
ĠR el
ĠW Ã¤hrend
ĠC omm
ĠD e
ĠM ath
ĠM at
Ġt Ã¤tig
ĠH e
ĠEr geb
Ġm eist
ĠSchwei z
ĠT ro
ĠM utter
ĠFrank furt
Ġw echsel
Ġ _
19 5
Ġf indet
ĠKon z
k ey
t ler
Ġk m
uch en
au ch
ran ken
iz in
al le
V ers
ĠS icher
zei tig
3 9
Ġ199 3
ĠA ss
Ġviel en
L og
Ġ aktiv
o den
ĠArch ite
---- ----
ĠPro zent
l d
ĠB ef
ĠHer ren
Ġ196 0
ĠG ast
ĠD en
to String
Ġsp ez
s itzen
i at
shall er
ĠB ischof
richt ung
w issenschaft
Ġit alien
st eil
Ġn Ã¤ch
ust rie
ĠB evÃ¶lker
Ġkonn ten
ĠZwei ten
Ġgegr Ã¼ndet
Ġd afÃ¼r
L O
ĠR olle
g ruppe
Un ivers
ĠN utz
ber ger
Ġb lei
Ġfolgen den
ĠBer uf
Ġstud ierte
4 4
W ith
leg al
Ġer f
ĠH ar
ak tion
ĠK Ã¼nstler
Ġ199 1
rei se
ĠThe ater
Ġal les
en glisch
ĠA s
č ĊĠĠĠ
Ġsich er
Ġauf grund
ober t
ĠAl bum
eck e
Ġh Ã¤uf
ĠSt utt
ĠLud wig
sten s
ĠA pp
L iefert
Ġerfolg te
Ġ Ã¶ff
ĠB is
ĠR ot
ĠC or
geben en
ro w
Ġ198 9
Ġins gesamt
ĠN o
ĠFuÃŁball spieler
t ei
ĠK ompon
ĠSte in
ĠObj ekt
Ġd eut
fahr t
Ã¤r en
Ġje der
ĠW e
Ã¼n dete
g o
ĠP ark
Ġges am
Ġkl eine
ĠEis en
Ġm ein
st ieg
ge st
j a
lich keit
E D
9 9
Ġo p
sch lag
F Ã¼r
l ungs
ĠI OException
ĠBes itz
Ġw ichtig
ĠF arb
Ġg esp
S ize
ĠA lex
fl uss
den s
E igen
ro s
S C
ĠT age
Ġn Ã¶rd
ib le
Ã¼ ler
ech t
Ġschn ell
Ġer rich
f est
Ġl in
le ch
ĠO t
ĠS ein
Ġle ben
Ġd an
ĠS en
Ġz eigt
et ers
Ġm Ã¶ch
it ten
R O
ĠPro jekt
n ull
Ã¤n dern
I tem
Ġan geb
' s
ĠKÃ¶l n
Ġ3 1
ik en
ĠU l
ĠAm t
Ġl ist
lÃ¤ uf
4 6
m od
a ir
ĠS eine
w Ã¤r
ĠProdu ktion
FuÃŁball spieler
b y
ĠW ochen
ĠStra ÃŁen
ig inal
Mar shaller
in ner
ĠL iteratur
lau b
ĠfrÃ¼ her
rei ben
ĠC he
y d
j et
Al l
N ull
app en
gemein de
ĠRom an
ĠschlieÃŁ lich
ĠMart in
E vent
ack age
ĠK ant
pert ies
ett bew
ĠM ehr
M ethod
S c
iz ei
os oph
sch t
ĠM il
war e
Ġd ouble
ĠE p
Ã¶s ung
Ġur sprÃ¼n
Ġer klÃ¤r
Ġin sbesondere
om en
Ġgemein sam
Ġgegen Ã¼ber
ĠLeip zig
en gth
Ġw h
ĠD am
ĠInform ationen
spr ach
b urger
s burg
sch iff
Ġkl einen
Con fig
figur ation
s ych
ĠW enn
ĠDie ser
Ġent fern
ges etz
Ġf rom
an ien
ti ger
f ter
ĠK ilometer
re f
Ġp ol
ĠIn s
w agen
ar ben
Ġv al
ĠT ex
c y
st elle
Ġs og
al z
Ġ198 8
w ehr
Ġk ur
ide o
ĠA p
Ġunser e
b es
ĠBo den
h anden
ar en
Ġo ber
ec ord
ĠN orden
Ġbis her
ĠSo zial
tocol Marshaller
3 4
ge gen
Ġn atÃ¼r
A P
deut ung
ĠE he
ĠC ount
put Stream
la v
il den
Ġo ffen
Res ult
ĠH inter
ate d
8 9
b ed
Ġver such
- ,
Ġgeb oren
Ã¤ f
av e
< ?
ĠChrist ian
ĠO ffiz
r Ã¤n
ĠlÃ¤ sst
er dem
Ġverschieden e
i ft
b est
f ert
Ġex ist
Ġ ad
Ġl a
is iert
ĠF il
ĠS yn
Ã ľ
z immer
ĠTh omas
ĠPro gramm
opp el
5 5
O ut
Ġd o
ĠBeg inn
ag es
m o
an de
Ġf ile
ĠH ann
ĠO per
cri pt
Ġ #
ĠK reuz
u h
ĠF Ã¼hr
ĠV ier
ĠG ut
ĠT ri
adem ie
ĠK ind
R ef
ver kehr
lo ad
ĠReg ie
pl an
ĠZ eich
ac t
Ġsow ohl
Ġwechsel te
Ġgel ang
k ung
k unft
ĠStutt gart
ĠPf arr
ĠR ev
te c
pro du
Pro perty
Ġb ed
ĠW al
eu ch
al y
art s
ĠS tim
ir st
mb H
3 1
w asser
ĠVer trag
ĠAn g
ord nung
arb eiten
er in
Form at
ĠOlymp ischen
her r
ĠAr ray
Ġw ohl
ĠSch utz
ĠM ethode
M et
ĠHeim at
Ġ Ã¼b
ĠDeutsch e
Ġz ehn
und er
Ã¼ ter
Ġk n
em at
ĠMar ia
Ġ( )
t her
w ay
rau ch
ĠW ieder
Ġsch wer
tr itt
ĠGr en
ĠK omp
z Ã¼
Ġp rÃ¤
ĠIt alien
ĠS am
it Ã¤ten
Ġz usÃ¤tz
B au
a sch
k tr
s ystem
ĠR ed
Ġw ich
Ġhin aus
Ġerreich te
c ess
Ġb lieb
de b
Con stants
ĠK unden
i am
re p
ĠT el
Ġp l
mann schaft
uch e
Ġ198 7
ĠG est
at te
Ġen gl
++ )
ĠEn erg
ĠAut or
op er
ĠK in
ĠW ind
ig te
ge hen
gen t
In ter
Ġ(âĢ ł
ev el
ĠK or
E ine
eil nehmer
ĠK loster
az z
V or
Ġ195 0
ĠGes amt
am ens
ĠAn dre
ĠÃ¼ber nahm
ĠA ir
Ġh Ã¶ch
ĠMin ister
Ã¶r t
e der
ge geben
it s
ĠL es
ĠSt Ã¤d
Ã¼t z
Ġunser er
M us
ĠG Ã¶
gen de
lo b
ge h
ĠI de
sp l
ĠZ ur
Ġ6 0
Ġ Ã¤
A S
ĠG eld
" )
m m
Ġm ar
St and
Or t
Ġern eut
Ã¶st lich
ĠA c
Ġvor handen
anst alt
T ext
t c
hau pt
L and
ch ron
ĠR ichtung
O ption
Ġal ten
Ġf orm
ĠR en
ĠSchrift steller
ĠP osition
den burg
Ġwen ig
verb and
den t
ĠW ein
le b
ĠC lass
S ystem
gr ess
Ã¼r z
ĠO p
ul d
ĠSch ule
Ġn ord
ĠVerein igten
ist r
Fac tory
k el
ĠT ab
get C
In stance
ep t
Ġz eit
Ġinstance of
ĠO s
od es
ak ter
ĠBay ern
Ġh erv
iel l
ĠOr ts
Ġ198 4
Ġf l
Ġzwei te
ym n
Å į
Ġn ahe
ĠAn geb
sen d
ym b
k omm
ro p
Ġ Q
hr ead
ol ution
val id
stell ungen
Ã¼r k
ag t
ĠR uss
iz ed
EN T
re e
Ġbest en
u he
Ġb in
me e
Ġihn en
ĠwÃ¼r de
ĠG mbH
Ġk osten
geb aut
im ent
I ch
te gr
Ġw ahr
ĠL ang
b ank
ad a
ot s
V on
Ã¶ ÃŁe
l as
ĠE t
ibli othe
ol or
ĠH in
ut zen
eck en
f an
k n
ar ian
Ġ198 6
8 5
re ad
Ġ ...
u ild
ĠT urn
Ġl ong
Ġgew Ã¤hlt
f Ã¼r
ĠJ ur
z ess
ĠM otor
Ġmit tel
ĉĉ ĉĉ
ri gen
Ġdah er
ant wort
Ġbe vor
Ġ as
ĠF ernseh
Ġein gesetzt
ĠIl legal
s ub
um m
Ã¤ch lich
8 6
le y
S eit
Ġgen au
ĠSel bst
ÃŁ t
ger icht
7 5
Ġd ien
Ġi d
ent lichen
ĠVer kehr
z y
Er ror
ĠSÃ¼ den
ĠM os
ion s
c reate
Ġf ort
ĠM er
ĠKl asse
4 3
ĠB ilder
ist ische
zeich en
ger ufen
mÃ¤ÃŁ ig
ĠS ing
ab hÃ¤ng
O n
ĠP ass
os sen
ic an
Ġbes ser
inz u
issen schaften
O bj
ĠM ap
se hen
18 9
Ċĉĉĉĉ ĉ
U N
ĠBe deutung
tier te
ĠK urz
ĠZw ischen
b Ã¼
f s
b eh
ĠM ont
Ġb y
uch te
ĠSt art
Ġem pf
Ġzw ar
Ġeigen e
A ut
Ġm in
Ġ197 2
Ġm acht
Ġ198 5
Ġerfolg reich
m Ã¶
Ã¤ ischen
ĠD om
Ġw oll
ĠN Ã¤
Univers itÃ¤t
on en
ĠF ort
ĠH en
ri x
ĠAn zahl
od y
Ġbest ehen
Ġsch Ã¶n
atur e
ĠN or
g Ã¤n
Ġ198 3
ĠMa in
4 2
ĠM ilitÃ¤r
i ent
u al
Ġlie ÃŁ
I S
ontain er
Ġent stand
or gen
ĠR obert
ue ck
Ġge legen
p reis
ern er
P l
ĠS im
spiel sweise
y le
Ġsoll en
ĠG ot
ĠHo tel
fÃ¼hr er
N ot
w eit
Ġzu dem
ĠIn n
Ġsie he
gesch lossen
ĠIn nen
schaft s
bar en
d o
w ohl
iel len
ĠCount y
Ġn o
ĠA ben
ium s
ĠIntern et
n ach
Ġso zial
R ep
ĠC arl
Ġ Ã¤hn
ĠOn line
Eigen schaft
lin gen
r ist
sch eiden
ĠH el
f red
ĠO sten
al og
ir t
Ġent standen
ichte te
Ġerrich tet
ĠHal b
Man ager
ĠF ile
T yp
Ġdeut lich
eg ung
Ġre gel
ĠhÃ¤uf ig
P ackage
b ek
ĠVer fÃ¼g
Ġst ar
Ġre cht
ĠD ruck
ern en
Ġd ata
te st
ge m
Ġzahl reiche
Ġsog ar
ĠP rÃ¤sident
C O
ff set
Ġnicht s
ĠAuÃŁ erdem
Ã¤n den
zeu ge
ĠBes uch
ĠD enk
ĠH ei
re v
ĠK u
ĠG i
Ġj a
fol gt
s ie
ĠG ar
Ġdan ach
w o
Ġ{ @
Ġs ub
Ġbest imm
ĠEr folg
pf er
Ã¤us er
Em pty
Param eter
ĠS til
ĠG ed
( (
h as
u el
es e
U T
Ġm od
g ra
ĠZ um
v oll
ĠÂ »
un ction
net en
m et
s l
St atus
p art
schul lehrer
ĠSch Ã¼ler
Ġr Ã¶m
Ġehemal igen
Vers ion
Ġstell t
ein t
Ġ acht
al tet
mal e
eren z
ĠverÃ¶ffentlich t
ge fÃ¼hrt
Ġst r
au se
ag s
le ge
4 1
in ation
st ehen
Ã¤ chen
ĠAm ts
och e
F A
Ġso gen
ĠT est
eren ce
Ver ein
Ġsie ben
bar e
et ail
H er
Ã¼ hle
ĠW issenschaft
ad urch
ĠE ing
ĠEn d
br uch
in dex
ĠP fl
Å ¡
ĠStud ien
sch ech
fl Ã¤che
ikan ischen
eg r
Ġwen iger
ĠKrieg s
ĠV iel
ĠMÃ¤n ner
Ġdam als
ĠH all
ĠIn sel
in c
Ġhand elt
ĠP ost
ist ik
ĠE hren
Util s
h am
dr ess
it i
eich nung
K l
ĠEr d
C ount
W elt
an ken
f re
Ġheu tigen
Ġst amm
ĠMal er
ĠMit glieder
ĠSil ber
Ġwel ches
B uffer
L o
Ġr uss
iz iert
f rei
ol ler
a un
ei der
8 8
č ĊĠĠĠĠĠĠĠĠĠĠĠĠĠĠĠ
L A
Ã¤t zen
pr int
w ald
iv id
au p
an ischen
Ġ198 2
Ġ org
st Ã¼ck
ten s
la den
throw s
ĠgehÃ¶r en
tec ted
ĠN etz
bl ick
Ġbei spielsweise
ĠTh ema
ĠRech t
geb Ã¤ude
ĠHerz og
her e
ĠJohann es
ymn as
eh ler
Ġw elt
Ã¤hl en
ĠEr w
Ġpro tocolMarshaller
Ġf r
all y
ĠR und
F ernseh
ok rat
7 6
Ġ up
Ġb ild
Ġfolgen der
G r
ĠC as
Ġver sch
ĠAuf lage
k ungen
werk e
Ġp ath
N A
ok al
18 6
P E
tr e
Ġentsp rechen
A pp
ĠSt ad
ĠWest en
h ang
Ġge ben
ĠB ot
en ter
on z
ĠII I
ont in
tei dig
D ate
ei ger
Ġzu vor
ĠG arten
ĠProf essor
cri ption
ĠAr tikel
Ġs omit
ĠL age
ĠT al
ĠP riv
Ġin dex
w or
ĠT o
ail le
ĠA ward
ĠP o
ĠUnter stÃ¼t
U m
ĠSch wer
op e
ĠD rei
ĠN ot
ul ar
ĠMed ien
or y
Ġsoll ten
Ġst arb
Ġdar unter
m ark
Ġs of
> ();
D at
get Name
ĠT rans
itz t
ĠFre und
geb ung
Ġle b
an ger
get S
Ġ(âĢ ŀ
Ġo ffiz
ur f
ĠL au
Ġver fÃ¼
Ġ197 1
Ġgef unden
in i
f il
ĠF el
iv al
ĠGes etz
Ġst art
ĠK Ã¶rper
ĠE ben
ak te
U r
ĠInstit ut
ich ter
Hand ler
ti tel
rei te
ges ellschaft
Ġlie gen
Ġh Ã¶
ort h
ĠB us
ĠK auf
Ġ198 1
Ġk lass
Die se
ettbew erb
ĠVerwalt ungs
Ġer Ã¶ff
and id
Ġn ational
ĠB ur
ĠR ein
irekt or
Ġ196 8
P er
ĠS ong
ĠZ ust
Ġbef inden
fra ge
un ge
ĠC om
t ype
il la
Deutsch land
Ġer k
Ġp ersÃ¶n
ĠM aterial
Ã¼r t
St art
ĠBevÃ¶lker ung
c ase
ĠHil fe
im al
it al
ok ument
oc ument
ĠL og
sp rech
Ġger ade
ĠOrt steil
ikan er
Ġz og
end et
ĠM y
Ġ197 4
F rom
lei d
ĠSt u
olit ik
ĠS achsen
Ġm ethod
n o
ĠD DR
C all
x is
ĠS uper
ĠK raft
u x
an lage
on a
arl ament
Ġc urrent
Ġs h
ol a
C omponent
Ġein igen
At tribute
frie d
" .
ĠA G
ĠM ad
Ġ ung
ab il
geb ie
ĠMit arbeiter
ek tion
Ġ197 8
ĠP or
r acht
ul ti
ymb ol
ĠVerfÃ¼g ung
ow s
Ã¤t ten
ĠH om
d a
ĠB und
ĠD res
z z
Ġ197 5
stru ktur
ĠH or
Ġletz te
ect or
7 9
ĠF inal
ol on
ĠL o
Ġg ar
ĠSp iele
Ã¶ hn
ĠRei he
ĠBru der
b and
Ġd r
IN D
ĠW el
ier ungen
Ġabsol v
tem berg
is p
Ã¤ te
wei sen
it ial
A G
ĠM el
ow er
teil t
Ġerreich t
ĠErn st
ik e
ĠgrÃ¶ÃŁ ten
Ġgem acht
ĠR egen
ĠDav id
ĠFl uss
ĠEle ktr
Ġ197 6
meister schaft
Ġ reich
ĠM e
ĠP rÃ¤
ĠEl tern
ĠS and
Ġ197 9
ĠK osten
Ġverb unden
Ġw es
as ste
ĠfranzÃ¶s ischen
ĠW o
ĠDre h
v est
Ġ196 9
C E
Ġe urop
ot z
H och
ser t
ĠB ran
ĠA f
ĠA ber
ĠB al
as en
ĠB ank
ĠAn ge
enn ung
u tet
ĠJo urnal
sch inen
ĠP ra
Ġge hen
ag ue
Ġau t
âĢľ )
ien ten
ĠNÃ¤ he
schlieÃŁ lich
ĠR ud
form at
Ġbet eil
ges ehen
F rau
Ġf ield
M L
Ġ197 3
Ġi r
ĠG re
G em
ĠSti ft
z ehn
ĠM Ã¼l
ĠCh em
ish ockey
r ach
5 9
ĠT a
ĠRei se
ĠS onn
rei fen
deb ug
af en
ĠAn ton
f c
k rÃ¤
en e
an o
ac tion
ĠB or
Ġp os
arb eitet
ativ en
T oken
ro ss
itz e
l ad
ĠPol izei
ĠStel le
Ġver lie
ĠL i
pl ate
w esen
te chn
Ġmit tler
Ġf re
Ġl ag
st at
ĠT on
ier s
Aus wahl
gr en
Ġbie ten
Ġ check
ĠZ Ã¼r
lÃ¤ ss
B r
Ġc lass
T rans
as il
fl ug
ĠK ategor
Ġl eicht
ĠAuf trag
Ġstell te
Ġzur ueck
it en
Ġteil weise
an te
ĠF inanz
n am
Ġgen utzt
ĠVerb indung
Ġh inzu
Ã¤d ag
lo at
ĠB Ã¶
: //
ik t
ĠWor ld
E T
im a
Ã¤ s
Ġk amen
hl et
Ġ193 3
n ext
ain er
in ition
M ail
ĠFor sch
ĠT ran
ien s
Ã¤l fte
ĠVor sitzen
ud em
ĠBahn hof
A D
spiel en
rei ten
rie ch
ĠVer l
F I
c tor
ĠC ity
jÃ¤hr igen
um er
ay er
ik on
Ġ193 9
T h
ĠG leich
ach er
list e
7 7
r uf
ĠS ervice
p ol
ĠGeschÃ¤ft s
ĠAl le
Ġerw Ã¤hn
ĠS oc
or ie
en te
ĠFrie d
ĠS ub
Ġw ollen
C H
ivid u
ei en
ĠG ruppen
Ġk ompl
Ġc m
Ġpar am
ru g
yn c
W est
f Ã¤h
deck t
ĠMod ell
" ;
ĠGr ab
Â ²
w rite
u hr
Ġh al
arb eitung
Ġfol gte
Ãľ ber
ou ver
Argument Exception
l eitung
Ġentfern t
de d
eil en
Ġ196 6
ĠT op
ĠI r
Ġs c
ĠNach dem
ĠSch Ã¶n
Ġ197 7
U L
c le
fol ger
Ġ196 4
rich ten
ĠJose ph
ĠQu alitÃ¤t
i j
k ur
Ġnach dem
Ġ194 0
Ġbei de
i os
sch riften
Ġherv or
ibliothe k
ĠK ranken
zentr um
F l
ĠFrÃ¼ h
M ed
rit te
ĠGemein den
** **
isse ur
Å Ĥ
ang s
ĠB ach
la ck
Ġ196 7
A mer
ĠBÃ¼rger meister
f Ã¶r
Ġr esponse
Con tent
En d
Ġ196 5
st all
ĠL icht
p el
ĠK arriere
rei bt
ĠNach t
ag n
c urrent
ro chen
k eits
T Y
ende te
J o
U p
eld orf
ĠB ek
ĠD ist
ĠDes ign
C omm
ĠSpr ache
b esch
ĠCh arl
Ġte chn
Ġdam al
R e
iv en
R I
pr Ã¼
t um
Ġl oc
Ġwir k
ĠSie d
b ie
tr a
W erk
. <
T able
Ġn orm
iv ision
ĠJ e
ĠSal z
ĠOt to
Ġk einen
geh end
Ġz ul
ĠI D
Ġver s
ĠBerlin er
ĠF Ã¶rder
an y
ĠAus bildung
ĠV o
Un ter
us st
Ġm on
re c
ik al
Ġho hen
Ġver tr
zeich nungen
List ener
ck t
Ġr et
Ġ8 0
ĠK ampf
Ġauf genommen
Ġb yte
Ġbest and
Ġel ektr
ĠBeg riff
Ġent hÃ¤lt
ĠDam it
ĠC D
or a
ĠEr fahr
ĠSer ie
ĠEnerg ie
6 4
en a
ĠMa ÃŁ
Ġgew esen
Ġ193 8
ĠnÃ¤ch sten
ĠArray List
ut es
d ien
s dorf
ĠEs sen
sta at
O G
ĠPhil osoph
ĠRep ublik
Ġentwick elt
ann e
Ġ196 2
ier ter
Ġje den
Qu ery
ĠPr ess
Ġgleich en
ĠM eer
lie ben
ĠG ott
ĠR ang
am eister
h an
k ap
el ten
tr ue
Ġeinz el
ĠPolit ik
Ġpro duz
ĠauÃŁer dem
ĠK opf
ell a
ĠS ex
Ġer ster
F C
ei s
ĠAr mee
Ġen g
Ġwh ile
den tif
ĠSa int
P ol
dig t
hei ra
Ġd Ã¼r
ĠS in
Ġfolgen de
Ġ ra
Ġ193 0
ĠF en
her ap
č ĊĠĠĠĠĠ
P age
ĠFra ge
itz er
eh len
Ġ195 6
ha ft
Ġ196 3
Ġ17 9
kau ft
ĠMÃ¶glich keit
f ile
in ge
op y
Ġ Å
O T
ĠM ein
ĠSta ff
Mod el
ĠAuÃŁ en
z i
Ġf er
ĠBas is
Ġd el
it sch
Ġsetz te
Ġm achte
f ord
rÃ¤s ent
ĠSe e
C T
Ch ar
Ġwei ÃŁ
Ġw issenschaft
ĠT ier
ial og
ĠHer mann
l am
Ġz ie
L ine
O per
] .
zeu gen
ĠL Ã¶
S V
z uf
mar shall
Ġ7 0
Ġ19 20
ĠSie g
Ġ196 1
ontain s
Ġerz iel
H eader
Ã¤ um
ĠG eist
f ield
g ten
w ind
id th
Ã §
ĠCh ina
ĠMin uten
ord in
Ã¼t zen
g liche
m und
Ġam er
L e
rit ik
Ã¼ss eldorf
Tra ce
v el
ĠA ust
zeu gt
Ġmehr eren
Ã¼ss el
ĠDies es
Ġm ed
E L
C D
ĠD enn
ĠR ock
ĠÃ¤ uÃŁ
ĠD ach
rie ges
ĠPhil ipp
Sp ort
ĠUnterstÃ¼t zung
and s
ĠSt Ã¼ck
au sch
T r
rit z
Ġsch rieb
ĠSpiel en
ĠD el
ot h
Ġst ellen
ĠKÃ¶nig reich
u ster
ĠL eiter
Ġge tr
ik o
Ġch ar
Ã¤tig keit
8 7
ĠS tern
at tern
ĠAl b
er r
is ierung
ĠJ apan
8 4
ĠB raun
ĠD och
ĠA ch
tig ung
ĠPart ner
5 6
Ġ( =
ft ware
setz en
ĠInd ustrie
c m
ĠW ider
Ge ographie
ĠF euer
Ġer reichen
om an
ec ted
Ã¼rt temberg
ĠF ern
ĠP arlament
Ġbede uten
Ġver z
Ġeh er
ĠAk ademie
ĠH Ã¤lfte
ĠRich ard
. -
p le
ĠGeb urt
em b
Ġn ode
ĠGes und
ĠZÃ¼r ich
Ĥ ¬
Ġd ire
Ã¼s se
fass ung
B IND
ch ester
âĢ ĺ
T rÃ¤ger
ick en
ĠÃĸ ff
inn t
gew iesen
it ch
m on
Ġge k
ĠâĢ ¦
Ġs uper
Ġt yp
tem ent
m el
Ġz erst
ĠUnter such
Ġk ehr
Ġg erne
Ġc omp
final e
A B
Sp iel
T eilnehmer
W enn
z eiten
ĠErgeb nis
BIND ING
f ung
ĠV al
b eg
ele te
st art
ab r
ĠZ udem
ĠEng land
ĠS u
Ġ scha
ĠW and
ĠIllegal ArgumentException
E S
Ġf alls
ĠT e
ĠkÃ¶nn te
hal te
ĠFra gen
ĠSt unden
ition s
z ip
ol den
âĢ Ŀ
ĠV en
Ä ģ
ĠL iga
N ext
m ut
Ġw Ã¤re
Ġm eine
kt or
ĠHer aus
fahr er
Ġson st
Ġ194 4
O L
sp h
e arch
pp er
f rau
Ġinter ess
S ub
_ _
Ex pression
Ġth at
Ã³ n
N o
G ener
Ġd ir
ab rik
ĠM c
us h
o der
gel Ã¶st
Ġihr es
Ġg ute
gel n
Ġres ource
ĠReich s
S o
l assen
ĠKon tr
ĠF uÃŁ
An d
an ad
Ġ9 0
ar f
Ġsel ten
ĠEr sten
ĠVers ion
or te
ĠW alter
ĠTh emen
olog ische
Ġf inanz
ĠPh ys
kl us
ite d
g ien
ĠT eile
em in
ir ks
ag o
M P
ie h
ĠS et
Ġver ein
str ing
ĠHann over
N umber
un ternehmen
Ġbes uchte
ic o
Ġ3 5
au b
ĠAr ten
In t
Ġ195 8
Ġver f
Ã¤nder t
in ts
ey er
P art
s ei
ent wicklung
im men
ĠN ik
rik a
ĠWerk e
Ġdar Ã¼ber
ĠK om
ĠBau m
Gem ein
Ġ195 2
ĠPr em
ĠB rit
F ilter
Ġbet rÃ¤
Ġsp ielt
ĠStud ium
Ġan schlieÃŁend
Ver lag
ĠStand ard
K ir
d am
Ġg l
olog ischen
st ud
ĠÃ¼ber n
um p
hÃ¤lt nis
w art
st ant
pro tected
ĠGeb ie
end es
> (
ĠAu gen
A ccess
ĠR os
rei sen
ub e
ĠF ig
ĠW ort
ĊĠĠĠĠĠĠĠĠĠĠĠĠĠĠĠĠĠĠĠĠĠĠĠĠ ĠĠĠĠĠĠĠ
ĠB aden
ĠStr ecke
ĠS Ã¤nger
Ġd ritten
etz ung
yn chron
ĠfÃ¼hr en
eig ht
Ġal t
Ġtr ans
ĠBr un
on es
ĠZ ahn
eu e
ĠEnt scheid
Ġne un
ĠWolf gang
Ġ194 8
rÃ¤siden ten
Ġn ehmen
ĠVer gleich
ĠS ek
sch uss
ĠL ou
Ġst ate
der s
In teger
Ã¼ ch
Ã¤n gen
ĠCh or
sh ip
Ġeben so
6 5
w egen
ing ton
ĠKompon ist
Ġr em
ĠD ep
Ġtr otz
olle ction
ĠS m
k athol
ter s
Ġb as
Ġwoll te
In ner
ann el
fÃ¶r m
l ar
mar kt
i que
Ġin put
l ern
v iew
Ġre ad
ĠZu ge
west en
ĠJ azz
wei g
==== ====
ĠC al
eh ens
lin ie
Ã¤ ss
ot te
Â »
ĠP e
per atur
ĠLe ague
ap e
o is
ĠS ar
C omp
ĠP il
" ))
o ben
gr Ã¼n
par k
Ġ195 9
Ġal te
Ã¶ sen
ĠR at
Ġk omp
ĠAn gel
Ċĉĉĉĉ ĉĉ
ĠS old
ĠD Ã¼sseldorf
ieren den
ĠP sych
Ġben Ã¶
anst altung
ĠDres den
Ġ194 6
ĠD oppel
ĠD eb
Ġ194 3
D ec
Ġj apan
Ġweiter hin
ĠDan ach
ĠverÃ¶ffentlich te
ĠHau p
Ġho he
ĠEr k
Ġon line
0 5
ĠSt amm
ĠÃ¤l ter
ing ungen
Ġ195 5
ĠAmer ican
ĠursprÃ¼n glich
v is
re quest
z og
ĠT ruppen
ĠSch warz
ut ton
Ġcon text
Ġz eigen
tiv en
lag er
v ider
Ġz entr
S te
Ġt c
ĠStadt teil
ig keiten
ĠAus wahl
l Ã¶sung
Ġer weiter
res se
ĠArb eiten
ver walt
C hr
tern al
amil ie
te ten
Im pl
S ON
Ġv an
Ġ195 7
Ġ ak
ĠD ef
b us
c lient
G es
ĠW h
Ġun ver
Ġerh Ã¤lt
so zial
a ile
f unk
u sch
Ġaktu ellen
it a
B lock
r hein
Ġs er
ĠV ideo
Ġehemal ige
st o
Ġent halten
be ck
Ġer r
Ġp h
Ex ec
ĠSte uer
ĠPfl anzen
heira tet
k raft
lich keiten
0 6
Ġbe zie
eid el
ĠAlex ander
ĠSc ien
ĠP reuÃŁ
om o
ĠH essen
Ġunser en
ĠPriv at
Ċ ĊĠĠĠĠĠĠĠĠĠĠĠĠĠĠĠ
ĠM ess
pf lich
Ġ194 1
0 9
not ation
ĠS w
Ġ194 2
wie gend
ĠWill iam
le cht
la w
Ġ194 9
is c
zei gt
Ġgen er
d at
Ã¤t ter
Ġ195 3
stre cke
eig net
ĠP unkt
ĠProdu kt
tag s
inde stens
Ġerh Ã¶
meister schaften
er ror
Ġge baut
ĠBez eichnung
ĠA g
la ce
Ġpol n
ĠL Ã¤nge
Ġl Ã¤nger
unk ten
ĠsÃ¼d lich
ĠNach folger
Ġp ass
ĠTag es
Ġ195 4
K on
Ġreg ion
Ä į
is Empty
ĠW all
Ġabsolv ierte
Ġk athol
ĠWien er
au ber
ĠSp ez
b ischof
ĠR itter
y a
ĠL ied
ĠSt ar
ei sen
Ġo ben
ĠFir ma
k reuz
q l
ĠJ er
tig keit
au sen
Ã¤ch s
Ġm indestens
st eh
i w
on om
ĠBr and
0 1
H ol
U ser
Ġ Ð
ĠT im
ĠIhr en
P r
ĠOr d
ĠS onder
ĠK al
E X
stra hl
S etzt
z te
ĠP op
lie gen
ul a
ic es
mit t
ĠnatÃ¼r lich
A X
ekt or
ĠCl ub
Ġmo der
m ap
Ġspiel en
ĠLin ie
8 3
un time
ĠVol k
Ġwirk lich
ĠP ublik
Ġgemein s
R el
Ġex ten
Ġev ent
ĠKont akt
ĠBl ick
Ġinternational en
ĠR a
Ġl and
W er
g ie
l n
8 2
Ġ );
ĠP an
ĠA ustr
Ġbesch Ã¤f
Ġev angel
ĠH u
âĢ ŀ
Q L
Ġj Ã¼n
ĠKant on
on y
Ġneu es
n eter
Ġgr Ã¼ndete
Ġbek annte
tr aum
our ces
haf en
k an
Ġ+ =
Ġle dig
ĠT ur
ĠIn teger
ĠR h
ĠCh amp
Ġs b
ab eth
C he
ĠGl as
j e
la f
amerikan ische
L ength
Ġge geben
D F
a at
Ġ tem
ĠBl Ã¼
g yp
land s
bet rieb
7 1
s itz
and elt
Ġc all
ĠReg ierungs
Z u
ĠB on
br acht
Ġdef ault
Ċ ĊĠĠĠĠĠ
yn am
ahr en
L evel
M in
d k
Ã¤d chen
ĠPol en
9 5
Ġbes itzt
0 3
ĠZeit punkt
Ġeinzel nen
ĠZentr um
ĠP unkte
ĠJ ean
20 18
ĠSpr ach
F F
fall en
7 2
en ten
al es
ĠmÃ¶ch te
w ord
Ġledig lich
T ER
l eiter
ĠSchauspieler in
8 1
P h
t he
Ã¼ st
et a
Ġsel ben
entr y
richt ungen
ĠbetrÃ¤ gt
Ã¼r n
ĠUm welt
ĠPr inz
ĠSchl acht
imm ung
Ġwel cher
Ġrech ts
k ra
m ehr
ĠW as
ay s
s berg
Ġwir tschaft
Ġorg anis
d ata
rie f
ĠAb geord
Ġ5 00
Ġsei en
iz er
l l
Fernseh serie
c ontains
f alen
ĠB all
Ġp assen
ate in
Ġsch loss
ĠEx ception
k i
k arte
ĠD amen
ĠK re
ill en
Ġsie ht
ĠZeit schrift
b ef
ĠB d
hal ts
ĠW ahr
ĠC ol
ĠStaff el
Ġentwick elte
ĠSt at
Ġhei ra
wÃ¼r dig
ĠR ecord
deut sch
Ġj Ã¤hr
ymnas ium
ĠerwÃ¤hn t
7 3
C onnection
k ampf
o o
ass ung
Ġ194 7
ouver ne
ro ffen
ĠC ap
Ġmo dern
ir m
ĠL eitung
ĠVer Ã¶ffentlich
ff er
ĠHer bst
Ġ> =
z us
Ã¼ ge
Ġstamm t
bez irk
Ġ4 5
Ġneu er
Ã¶ pf
M S
ĠH an
ĠL Ã¤nder
pp en
ĠnÃ¶rd lich
B e
m eld
ĠGr Ã¼ndung
Ġj Ã¼d
Ġ193 5
Ġausge zeichnet
ĠForsch ungs
V iew
ie ben
G B
ic ate
Pro du
Ġk aum
Ġk ennen
Ġgew orden
and o
ut her
d aten
ĠS ow
ĠR unde
Ġer folgt
ĠAn ti
Ġ195 1
ĠD ann
ĠAn d
O S
Ġb ilden
Ġumf asst
on ie
ĠK amer
ĠMÃ¼l ler
ĠD ek
ĠV oll
oc i
ĠK ern
ĠGr Ã¶ÃŁe
Ġern annt
ĠL eg
et ern
leich t
ĠP et
6 6
Ġind ividu
ĠF al
ĠKir ch
ag te
Ġverl oren
rem ove
s a
Ã¼hr en
Ar ch
mus ik
Ġeinz ige
7 4
ĠB ud
ĠJ ames
ra el
č Ċĉĉĉ
em ann
oss ible
tern ehmer
Con figuration
aler ie
ĠDenk mal
t liche
ĠT V
ĠW ild
st att
Ġp rak
ĠNach bar
ad ata
ĠâĢ ľ
Ã¤hl te
L ong
and lung
ĠJ ust
Ġtr ad
Ġgesch lossen
Reg ion
ĠG al
end ar
ch ar
ĠFen ster
Â °
der ung
ĠZusammen arbeit
Ġhei ÃŁt
ĠM as
ell es
aile d
P f
Ġer mÃ¶glich
oll ar
spr uch
in fo
Ġent spr
Ġunser em
d et
ĠStr u
S ource
U E
at hlet
ĠKategor ie
ĊĠĠĠĠĠĠĠĠ ĠĠĠĠ
Ġl o
ĠAl bert
Ġ3 2
dr esse
Ġpro f
g arten
ĠF Ã¤l
ĠJ ak
ĠS Ã¤
Ġ193 6
w ill
Ġgesam te
O P
Ġvor her
Ġch ines
mus eum
ĠAk tiv
ĠgrÃ¶ÃŁ te
<? >
ĠAndre as
ĠD okument
ĠL OG
Ġsch l
Amer ikaner
eich er
ĠLie be
M ax
ĠFol gen
= "
P oint
k r
Ġin dem
ug h
ĠWirtschaft s
A uch
low ak
Ċ ĠĠĠĠ
ie ÃŁen
ĠR em
Ġjed em
ĠLehr er
k or
ĠAut o
h eb
u c
Ġein ger
ĠAl ler
Ġer g
Ã¤n n
og le
ĠBay er
Ġwer de
zw ischen
Jahr hundert
j o
u hl
Ġkn app
ĠAb schluss
ĠAn schluss
Ġbild et
s c
ĠS ant
iel ten
ĠH um
Ġarb eiten
ĠT Ã¼r
Ġmar shall
C ache
C ON
U M
z a
ĠÃ¶sterreich ischer
ĠD Ã©
ĠâĢ ļ
Ġzahl reichen
an lagen
ut ure
c ing
ĠC amp
Ġbrit ischen
0 2
er tif
Ġh alten
ĠTeil nehmer
Ã¼nd eten
ĠAngeb ot
ĠL ong
ers eits
ma ÃŁ
ĠEisen bahn
i ol
par tement
ĠZu kunft
ĠVerein s
st anz
ĠEv angel
ic tion
ot al
get Message
ĠIhr er
ĠOffiz ielle
ĠRud olf
0 4
ĠW oche
Ġst ammen
Ġj ava
Ġpolit ischen
0 8
Ġge stellt
ĠBes onder
zahl en
egr Ã¼ndet
I V
org ung
ĠÂ «
ĠfrÃ¼ h
st ate
ĠUn ion
hal le
M ill
T ag
am in
Hoch schullehrer
Ġbe ein
tig te
ĠÃ¤l te
. ");
or gt
f in
Ċ ĠĠ
S el
ver t
ĠTra in
ĠGren ze
ĠM ass
Ent ity
ĠL ab
Ġin form
ĠUm gebung
itu ation
ah nen
Ġblei bt
Ġt Ã¤
lie fert
res ult
Ġd adurch
ĠA ktion
ĠWei se
Ã¡ n
N ational
ĠAr m
Ġ193 7
ĠR Ã¶
v on
ie ÃŁ
ĠP ri
ĠAben d
E d
\ "
p os
ĠD azu
stell te
ĠGe orge
Ġvoll stÃ¤ndig
at ter
iv il
ĠL Ã¼
Ġ ap
Ġg riech
ber n
bar keit
ĠEin fluss
ek ten
Ad dress
ĠH igh
ĠVer such
ĠOr iginal
n amen
ab l
ĠJ ac
Ġgleich zeitig
n ungs
Ġver heiratet
lo c
Ġar e
Ġdes halb
A ss
z ub
ĠR and
en g
Ġh ol
Ġben annt
lu ster
schein lich
au tor
Ġm ap
Ġdar f
Ġen try
ĠN orm
Ġsof ort
w ork
ti en
ĠW ol
lin ge
ĠG esp
il ler
I ter
jÃ¤hr ige
ĠB eim
ĠH art
T H
ĠE lement
ĠR ob
Ã¼ck s
if e
ĠFor schung
D a
D urch
Ġn immt
ĠMÃ¼n ster
ĠhÃ¶ her
Ġs etzt
ĠT urm
Ġeigen tlich
alif orn
5 4
etz en
Ġbef and
Ġkehr te
ow ed
b Ã¼rger
gew icht
Ġk rit
Ġp rom
ĠEnt wick
ĠBez irk
Ġd at
u a
ĠJ ack
ĠRo y
ĠH Ã¶r
c omp
Ġst Ã¤r
h istor
Ġm essage
Ġf anden
Ġver k
ĠVer wendung
ĠMar c
5 1
v ille
en ce
ver tr
Ġblei ben
B C
S D
Ċ Ċĉĉ
ie ger
ĠAn n
N ew
Ġn ext
d in
rau cht
bau ten
ĠHerr schaft
sch lÃ¤
ent liche
ep age
Ġbr ingen
sch ine
Ġb em
Ġf iel
Pro perties
icher ung
ven tion
k unde
ĠGer icht
ĠAut om
Ġheira tete
at ers
ĠG ran
Ġtr Ã¤
R o
n itz
Ġp r
PD F
Ã ¸
ĠAb s
ĠfranzÃ¶s ischer
ĠV ir
Ġel ement
au ern
5 3
zeich nis
M on
u gen
ĠC an
fl Ã¤chen
lau ben
ĠProdu kte
Ġper f
T em
ĠO pen
L egt
Ġ193 4
D O
ĠzusÃ¤tz lich
C ms
ĠK olle
ĠC ms
ĠFÃ¼r st
Ġganz e
ĠfrÃ¼ hen
i or
G ra
all el
ĠSp anien
Ġje de
Ġbel eg
ĠPat ienten
halt ung
Ur l
rech ts
ĠEm pf
ĠT rad
ĠC O
NA ME
Ġzul etzt
Ġl ast
ri ffen
ĠÃ¶ff entlichen
ĠAus gabe
ĠHal le
ĠRel ig
ĠprÃ¤ sen
1 00
Ġent scheiden
ĠFl or
ref ix
L S
ag d
g ut
t a
lo sen
ĠBest and
r c
Ġi de
kl asse
i i
mÃ¤ ler
' t
Option s
Ġer setzt
Ġh as
ĠTra iner
b s
Ġein f
gemein schaft
ĠEinwohn ern
V erk
Ġver kauf
Ġqu alif
Ġgesam ten
C olumn
Ġ19 00
g Ã¤nger
Ġb ald
ĠP lay
5 8
p ath
ĠH ash
tr ainer
Ġerschien en
ĠGot tes
b is
t d
den ten
ĠB onn
ĠJose f
ĠS zen
ĠJ ung
Ġl aut
ĠGer man
ĠOrg anisation
ĠunterstÃ¼t zt
eb ug
ech net
qu es
Ġre c
verwalt ung
ĠM acht
Ġp aar
olog y
ĠBas el
ĠfranzÃ¶s ische
T ree
ĠB ack
Ġer war
spr ache
i men
isch em
Ġver lÃ¤
ĠBei trag
ĠColle ge
! !
Ġge pl
Ch ild
b ase
Ġ text
get Value
ĠIm m
ĠBr emen
As ync
5 2
ĠZ immer
Ġaktu elle
ĠZeich en
C ase
ĠD or
ĠBen utz
Ġwelt weit
H el
Ġs ervice
ĠDi pl
denk mal
ĠGÃ¶ tt
Ġ19 14
ĠAn na
p e
ĠF ischer
ot o
ieren de
ks am
G egrÃ¼ndet
is D
rep ublik
an ische
ge g
ĊĠĠĠĠĠĠĠĠ ĠĠĠĠĠ
Ġ- >
Ġ ed
ver fahren
Ġbeg innt
st Ã¤tte
ĠVertr eter
ie ur
B ahn
M eter
st attung
ĠN ur
Ġdamal igen
A ction
Ġm Ã¶
TY PE
j ekte
ĠP fer
im it
E l
Ġw ohn
ĠSch les
ĠMon ate
amerikan ischen
ĠKin dern
ic t
Ġpos it
k und
stru ktion
ĠFinal e
ock en
Ġjeweil igen
ĠS ach
pf el
| }
ĠH eidel
Ã¼hl en
Ġh Ã¤tte
I L
er m
ĠA v
ig i
iz ation
ib r
mittel t
b ung
for schung
Ġh el
rei ber
Ã ¢
le ger
les en
g a
Ġbede utet
wÃ¤r ts
Ġm m
Ġ193 2
atch er
ĠSicher heit
Ã¤n gt
bl att
Ġbr achte
ĠwÃ¼r den
hil fe
ĠD isk
ann ot
Ġso ur
spr ung
ĠF ehler
ĠP rÃ¼
ĠM iss
ĠL ager
ĠDan iel
ww w
S upp
ĠVer br
Ġmus sten
Ãĸ sterreich
ĠStÃ¤d te
imm el
ĠEx p
ĠZentr al
ie gen
auf trag
get R
Ġange geben
y th
ĠF e
Ġschw ed
ĠFried hof
ĠBr on
By tes
Ġ rei
Ġr ich
ĠAl ten
haus es
ĠSch ool
ari able
m esser
s Ã¤tze
Ġd est
leg ung
an walt
stell ten
ĠEx per
ĠHoch schule
() ))
au pt
ti al
ra te
ĠSch lag
ian a
Ġ192 8
h te
ĠS uche
Ã¼r gen
ĠAn lage
Ġs od
ĠF ac
Ġc om
f unktion
ĠF und
Ġh ab
Ġdurch gefÃ¼hrt
r unde
ren z
o tion
Ġb l
I P
Ġd ur
Ġo ption
ĠO ut
uf e
E urop
ĠW ander
C o
W eiter
Ġaus gew
ce pt
Ġnot wend
w urf
Ã¤hr t
mittel n
Ġ time
ĠE U
ĠP re
Ġun mittel
ib el
ĠHand el
An y
Ã¼l lt
ond s
ĠG et
ĠH elm
ĠKl aus
ĠColle ction
id a
Ġex ec
Ġgesch rieben
Ġp reuÃŁ
Ġaus schlieÃŁlich
Ã¶l f
Ġtrad ition
N ames
und le
sp art
ĠG Ã¤
or ien
Ġp riv
Ġgr Ã¼n
ĠEl is
Ġc omm
Obj ekt
Ġ3 6
ire d
inde st
Ã¤s ser
ĠL eicht
v o
ĠVerkehr s
etail s
P reis
qu ar
Ġex tr
Ġ192 9
ĠWeiter e
ach ts
arian te
omb in
ge legt
ĠE ck
Ġl eich
ĠMa schinen
L ink
er ei
ri ck
ĠDÃ© partement
ĠverfÃ¼ gt
W ie
an sp
Ġall gemein
0 7
w en
ĠS amm
ĠH off
Ġ euch
Ġb au
ĠM Ã¤dchen
ĠAr n
Ġgel ten
ĠMed izin
ĠV ic
Ġz eig
ĠG Ã¼ter
ĠL os
Ġk or
()) );
Ġwen ige
r am
end orf
Ġzun ehmen
le hn
ĠPap st
ĠUnternehmen s
Ġpolit ische
-------- --------
g arn
ĠZeit ung
Ġgen ommen
stit ut
Ġehemal iger
aup ts
ĠD ir
9 6
Ã¤ ger
ĠB ill
Ã¤n e
K E
O ber
ĠT agen
Ġtr agen
ick t
Typ es
ĠtrÃ¤ gt
r ing
sch uhe
ĠE hr
west lich
x y
ĠVer kauf
ĠOr gel
ĠS au
ĠS icht
ĠAn gaben
ĠHau t
stand s
hol z
ĠN Ã¼rn
ĠIn f
ĠAn schlieÃŁend
Str a
ĠHeil igen
ĠMus iker
ĠRad io
Ġlin ks
ist in
Ġt arget
krÃ¤ fte
ĠVorsitzen der
ĠFran c
ĠQu alif
h Ã¤user
sh of
ĠStru ktur
in put
ĠS atz
ĠF ernse
anstalt ungen
ĠerÃ¶ff net
I t
K ultur
setz ungen
st Ã¤nde
Ġjed es
ĠBild ung
age gen
tier ten
Ġregel mÃ¤ÃŁig
O l
Ġbek ommen
wissenschaft ler
D I
ĠW es
ie fer
ĠE ich
Ġ19 19
wei le
ĠFot os
Service Response
g in
ĠFl Ã¤che
und s
ĠU N
ĠAuf gaben
ĠF ield
ĠBr Ã¼
Ġd ich
ĠG ro
stoff e
Ġup date
ĠIn str
orf en
ĠgroÃŁ er
ĠL Ã¤ndern
ok umen
B yte
Ġer forder
ĠZ ei
ind ungen
Ġ19 18
l s
ĠG attung
Ġge fÃ¼hrt
Ġall ein
h el
m acht
ĠN icht
trib utes
Ġzw eit
Ã¼ gen
Ġw or
lau bt
ĠCharl es
rei he
ĠSt ock
ouverne ur
F e
ĠN amens
Ġber eit
un e
Ġ* /
ĠZusammen hang
Ġo bj
ri a
bau m
ohl en
k ret
ser e
Ġweiter er
ĠV iz
ĠWei hn
ĠBez irks
Ġm ark
il es
A M
c er
m p
ĠR ek
eg ment
Ġges etzt
C om
Ġh aupts
wei te
p unkte
ĠU p
ĠVer teidig
Ġbeteil igt
ĠW affen
Ġl angen
Ġex p
ĠBau ern
5 7
P ort
ĠM erk
Ġf unktion
Ġk aufen
Ġstatt f
ĠH oll
ĠT enn
reg ierung
ĠÃĦ n
Ġerziel te
ĠB ir
ĠR ez
ĠspÃ¤ter en
ĠProblem e
Ġsour ce
n ehm
ommer ce
stÃ¤nd ige
at ik
ĠStr om
Ġumf assen
Ser ver
c r
Ġver br
N eu
r ess
un sch
or ted
Ġf ind
ĠBo x
9 3
R uft
ĠW ehr
ĠR is
ĠI V
ĠFarb e
Ġdien te
Ġerh eb
ĠRo sen
c tory
f ort
ĠA sp
Ġkl einer
en sch
ri ge
Ġr ichtig
Ġd igit
Ġs ex
br Ã¼cke
Ġdef in
Ġ192 5
ink el
scha fter
Ġbest e
k osten
ĠP aar
op s
Ġsod ass
B est
w echsel
Ġ3 00
H ttp
Ġent lang
serv ice
W Ã¤hrend
z ur
ĠT hr
Pro vider
S P
b as
ent al
Ġl au
Ã¼n dig
UR L
S I
eil t
form ation
Ġkl ar
ĊĠĠĠĠĠĠĠĠĠĠĠĠĠĠĠĠĠĠĠĠĠĠĠĠĠĠĠĠĠĠĠĠ ĠĠĠĠĠĠĠĠĠĠĠĠĠĠĠĠ
ĠFot o
print ln
ĠS ec
ĠA uff
ĠH ir
ma x
ĠLeist ung
un ion
Ġs ah
ĠL ink
ĠPra xis
herap ie
in sel
Ã¤dag og
ab ase
red it
C ollection
J ob
h auer
Ġbesch rieben
zie hen
ĠFamilien name
Ġnieder lÃ¤nd
ĠB ab
ra w
T ask
W Ã¼rttemberg
l ong
z Ã¤hl
it ts
ĠSch war
ĠAn der
ĠM Ã¶
Ġun abhÃ¤ng
ĠMen sch
.: .:
ĠS ter
Ġc an
ass el
forder ungen
or ten
ĠK op
ĠJu den
ĠK ab
ĠHaupt stadt
Ġrel ativ
V AL
ul en
O ffset
c ed
ikan ische
Ġge bracht
ĠLou is
as p
Ġge prÃ¤
minister ium
ĠTechn ik
ĠVerwalt ung
ing le
ĠNutz ung
Ċ ĠĊ
Ġd unk
az in
ĠB ig
ĠT om
ĠY ou
ĠBÃ¼ cher
A c
ĠW erner
ist ent
ĠIn ner
Â «
ĠEp is
Ġb ein
ĠZ uf
fol gen
rid ge
ehens wÃ¼rdig
ver se
T R
Ä ĩ
tr ieb
par se
Val id
ĠErgeb nisse
W riter
ĠO ff
ip her
Ġbel ieb
Z ur
ĠN av
j i
n ey
p ossible
Ġf irst
Ã¤nd ler
lav ier
Ġre st
Ġsol che
D ep
o us
Ġf in
ĠO ption
ĠBl ut
Tra cing
d el
Ġn utzen
ĠH und
Sp ec
Ġin tegr
ĠFahr zeug
UL T
ĠSt ahl
iz ierte
res ource
rik t
um pf
eich en
AT ION
b rit
ĠD ivision
ĠR enn
Ġh ttp
eth oden
ĠGegen satz
N eben
R eader
ĠS S
rei tet
ĠM and
ĠAb st
tier ung
own load
l eit
Ġs ize
ĠC re
Ġt un
Ġhaupts Ã¤chlich
Ã© r
ĠDar stellung
b a
ĠÃ¼bern ommen
d essen
eich ert
AT E
gel assen
N ieder
ĠN orth
Ġst ieg
zeich nete
K arriere
ĠB lack
om ent
ĠChrist oph
Ġaut omat
. "
au st
ĠK er
erk unft
Ġs w
ĠR ennen
z in
R ad
on ym
ĠB ra
Gemein de
un t
Verein igte
Ġ ;
g ruppen
ĠA ud
ĠJ es
ĠGeburt stag
Ġan s
ul ation
schau spieler
B ean
ĠF ritz
wer ks
ĠPerson al
Ġbrit ischer
lÃ¤uf er
d ar
Ġ Ã¶stlich
ĠE vent
ĠChar akter
ĠStim men
ĠPar am
ĠFrei burg
Ġ1 000
ĠRecord s
e ar
Loc ation
Ġexten ds
h ungs
ĠC r
Ġgew innen
ĠComp uter
9 4
ĠFlug hafen
Ġb uffer
Ġle bt
zeich nung
ĠWer te
j or
Ġm ilitÃ¤r
ĠSo uth
aly se
Werk e
f erenz
Ġander er
ĠSold aten
Ġbeleg te
ĠD igit
ĠJak ob
Ġt ats
ĠMus ic
techn ik
ĠS erv
um Ã¤n
ĠSt ate
ĠBetrieb s
P S
Ã¤l lt
Ã¤uf er
Ġp art
Ġch ild
n ern
Ġâ Ĥ¬
ehenswÃ¼rdig keiten
A cc
Ġ19 10
ic y
Ã¶rder t
ĠS ib
Ã¼ m
ĠBer eits
ĠDeutsch er
ĠTrad ition
er te
ĠM ik
ĠG Ã¼n
Ġver kauft
Ġeinz eln
kir chen
ĠZust and
Ġst aat
all owed
Ġfer tig
i ar
ur y
od or
Ġent st
Ġfol gt
ĠMath emat
Ġsogen annten
r el
ĠD ank
ĠV ort
ver trag
ĠSo ftware
ĠArchite ktur
ĠMittel alter
6 8
r ats
Ġw rite
ĠK lass
In put
par e
anz e
ĠBr em
Ġwich tige
P osition
ĠIn vest
Ġwieder um
ĠLu c
ĠSpez ial
D ir
Ġein st
ĠF arben
ĠN ic
Ã¼t zt
Ġwichtig sten
ĠNieder s
alis ierung
sub string
l Ã¤nder
Ġum fang
gef Ã¤hr
G et
M ethode
ĠW agen
tr ol
ĠVor der
ro t
Ġeurop Ã¤ischen
f ur
z ul
ĠT at
ĠRef orm
S k
Ġm einer
ĠHom epage
and t
ad rat
Ġver gleich
ĠAl fred
ĠAus stellung
ĠG ust
ĠT Ã¤tigkeit
Ġo ther
ĠSp Ã¤ter
ran t
d urch
ĠF in
w ander
ti scher
Ġverm ut
h och
Ġ ag
Ġh ielt
p oint
ĠK ritik
Ġg uten
ges p
ĠÃľ berg
ĠerklÃ¤r t
Ġm ag
Ġbet rieben
ha ber
Ġver fÃ¼g
Ã¶r den
Ġdar an
reu en
R ule
w issenschaften
at rix
ust om
Up date
I s
is Any
ĠBran denburg
st rÃ¤ger
ĠD irektor
id t
ĠAuf gabe
ĠReg isseur
Ġentsp rech
Def ault
ĠL im
bo x
Ã¼ hm
is on
sp ann
Im age
ĠArb eiter
Ġangeb oten
d as
ĠR iver
rie ster
v ier
Ġs agte
lin ien
Ġverl or
ĠFest ival
Ġl ok
ĠRich ter
ĠL ok
mit glied
st Ã¤r
Ġcon fig
Ġlog ger
Ġs ynchron
il dete
ĠSt atus
ĠInter esse
ĠGesp rÃ¤
Tracing Enabled
B ase
n ess
ab s
Ġg anzen
ĠFir men
ishockey spieler
Ġvermut lich
Ġv Ã¶l
ĠNeu e
Or g
ad o
Ġ19 12
ĠUn ited
alis iert
isAny TracingEnabled
ĠK a
ĠMo dern
Ġkosten los
dr Ã¼ck
b yte
v an
au d
Ġ{ }
9 1
B undes
Ġan zu
Ġitalien ischer
in ce
Ġge d
Ġver antwort
I fc
Ġ Ã¶
ĠGr and
S erv
S ession
ĠB il
ĠW echsel
Ã¼n der
F unction
Ġj ungen
S a
ĠM ul
ĠH eute
ver lag
for men
k g
on ik
de f
Ġ192 7
6 3
Ġo per
ĠMeister schaft
ĠVier tel
Ġ192 4
Ġ192 6
er er
ĠS onnen
Ġ1 20
end ung
ĠRev olution
c i
ur a
ur ity
Ã¶ nen
ien en
ĠLand wirtschaft
Ġdar in
sel ben
ĠÃĸ l
9 2
P os
w al
Ã¼ ste
ĠK rank
ehr t
Ġus er
st Ã¤d
Ġl ine
ĠWei ÃŁ
c up
ĠP rom
G er
ĠK ey
ĠAn teil
urn ier
ĠSchw e
S Ã¼d
Ä «
lei tet
ĠG lock
Ġer ror
Ġdarauf hin
ĠBesch reibung
ĠHinter grund
Ġbestimm ten
m t
Ã Ħ
ĠB arb
Ġgesch affen
ĠUr s
ĠAng riff
ĠRuss land
f ace
ĠF ak
gebie te
Ġ4 00
sie he
ĠS ammlung
Ġdi ent
Ġleb te
¿ ½
Ġg Ã¼nst
Ġver treten
Ġwest lich
ei ben
ĠC ast
Å «
ĠS V
ĠP la
ĠStr eit
sh eim
o y
vers ammlung
wert ung
ĠQu ellen
Ã¶r de
ĠBron ze
ĠS on
ĠM ot
ĠPf lege
ĠP a
ĠString Builder
wo od
ĠDreh buch
Ã¤ ische
Ġp ort
Ġst re
geb nisse
ĠStel len
Val ues
c ol
p o
ĠI st
ĠLu x
Ð ¾
an geb
ĠG it
ĠJ ob
.. ..
vers ion
Nach dem
ĠAller dings
p ft
an ischer
ĠW ettbewerb
ach im
ig r
ï ¿½
ĠW etter
Ġtr e
Def inition
gent in
es h
ĠE lem
ĠC up
ed ia
ĠS l
ĠKarl s
Ġro w
p hen
ĠT schech
rei g
H ier
ĠL ig
Ġsch war
Ġsow jet
Sch wei
ĠÃĦ r
gn ore
ĠSing le
F ol
P o
b uild
ĠB u
Ġver pflich
sp ir
Un it
Ġbr eit
we der
s es
Ð ¸
y t
Ġd agegen
ĠLand schaft
wer te
cript or
wind igkeit
6 7
st ed
ĠSicher heits
ĠPhilosoph ie
c ar
mar y
ĠStand ort
ĠHeidel berg
Ð °
ĠS at
ĠB eck
ist isch
Ġbeg r
ĠmÃ¶ch ten
ĠK arten
ĠPro zess
n ummer
ter t
ĠAd olf
9 8
st il
st ift
ĠEin fÃ¼hrung
Ġa c
Ã© e
ĠStift ung
et ball
ĠJ SON
an i
ĠDar Ã¼ber
Ã¤ ume
ĠO pfer
Ġver lieÃŁ
R ecord
bo gen
ĠFÃ¼hr ung
P olit
S U
h emal
ĠS ab
at ung
Ã¶st lichen
klÃ¤r ung
M ark
Ġh Ã¤lt
an en
ep ar
rech te
fass ungs
Ref erence
i h
Ġge halten
ĠKap elle
denk mÃ¤ler
Ġc olumn
Ġgleich nam
d ouble
ĠM ount
19 45
ĠMa ster
ĠElis abeth
s m
Ġj unge
Ã¼hr ung
Ġerst es
ĠermÃ¶glich t
Ġd ec
ĠW issen
ĠAuf stieg
Ġverl assen
6 1
R ec
Ä ±
ĠK olon
ĠH on
lie fer
Ġunmittel bar
p osition
Verk ehr
Ġs uchen
se x
Ġ193 1
C l
Ġs k
ĠK ammer
ĠverlÃ¤ uft
c lose
ĠT ype
Ġge z
ĠNational sozial
at oren
Ġer inn
B is
ver l
Ġbe an
Ġzw Ã¶lf
Ġbet roffen
ĠBeh andlung
ĠSoc iet
v olle
Ġd re
II I
Ã ½
ard s
20 17
Ġlie fert
Ġarb eitet
S ec
Z eit
l igen
it ur
eu cht
Ġun bek
sb ach
Ġhistor ischen
Ġw eg
ĠH aar
Ġqu ery
ĠHo hen
T E
T echn
ier re
ĠSch ne
ay out
St adt
ĠBei trÃ¤ge
P RO
ĠW eil
Ġr ein
ler s
ĠBlÃ¼ ten
H ash
Ġl ength
Ġt able
Ġre f
Ġre p
app ing
ĠNatur schutz
ge d
ĠE g
stell ungs
ken nen
ash ington
ĠV om
Lo ader
Ġw ider
gr Ã¶ÃŁ
mÃ¶ gen
O b
omm ern
Bau werk
Ġzerst Ã¶rt
em ie
tr Ã¤t
Ġet c
fr ist
Ġk anad
Ġgew onnen
ĠKn oten
Ġf uer
ĠAr zt
ĠKÃ¶nig s
ol er
ul ts
ad el
Ġaus ger
ĠGew inn
F r
Ġin zwischen
gr am
ĠMa il
ĠSchw ester
ĠTem peratur
z un
Ã¤ den
ĠB lock
ĠD ro
ĠPro te
Ġfol gten
leist ungen
ĠZ en
Ġsch warz
ĠHau se
gen er
Ġ} );
ĠNach richten
Ã £
ot a
St ore
ĠIm pf
Ġentsprech end
C ontainer
Ġbet rug
c el
g ing
ĠM ol
ĠStr af
ĠGrund lage
ĠgrÃ¶ÃŁ ere
Call back
ar tet
em e
ess el
ĠDar m
s um
ĠS PD
Ã¶ hne
il ian
ger s
Ġent deckt
Ġo ffset
ĠMa c
ĠSpiel zeit
ren zt
Ġausge tragen
ĠBes atz
ĠGel Ã¤nde
6 2
ichte ten
r t
ĠL ive
ĠWebs eite
ĠEntscheid ung
ĠU ser
ĠSt off
get Class
ĠW ach
Ġh ave
ah er
ĠauÃŁer halb
brit ann
ĠM ex
ĠR ec
ĠGroÃŁ en
ĠBild ungs
Ġaus geb
ĠSchul en
ĠM ur
ĠBeruf s
Ġb uilder
eck len
arr y
ĠKomm ent
ĠTel ef
ĠStu denten
Ġ ti
Ġval id
Trace Component
T hread
at o
ĠÃ ī
ĠBez ug
ĠTod es
ĠDat ei
l uss
Loc al
Ġer baut
ĠMat th
o ffen
ĠT iere
ick s
w in
Ġun ten
av en
ack en
ĠÃĸff entlich
ĠL ex
ĠN ummer
ĠVer fahren
leg te
K reis
u til
T arget
at is
tr at
ĠC entr
if ied
ĠHand els
ĠĊĠĊ ĠĊ
Ġi tem
upp en
f alse
sch ef
ĠD E
ach tet
la zz
ĠRech te
G ruppe
t lichen
ie hung
n ant
Ġ ass
ar zt
ĠH ard
ĠH eer
er o
ĠT ar
Aus zeichnungen
Ġir gend
Ġ ter
Ã¼ mer
geb racht
ĠArch iv
ĠSer ver
Ġhel fen
Ġversuch t
m ission
ff e
Oper ation
Che ck
ĠHer steller
Ġ< =
d f
tig es
Ã© s
Ġw issen
Ġw ww
ĠH afen
ĠL ieb
fan ter
ĠNik ol
Ġb lock
ĠH y
om et
lin ik
ĠRoy al
Ġpar ent
weg s
Ġ3 3
Ġwen igen
Ġbesonder e
ĠTran sport
ĠdÃ¼r fen
el ement
pp e
ĠOr te
ĊĠĠĠĠĠĠĠĠ ĠĠĠĠĠĠ
k lass
al te
ro und
Ġdeutsch sprach
iter ator
Ġinternational e
ĠAc adem
] ,
ĠT isch
ech te
eim ar
ĠPort ug
Ġverlie hen
Ġeng ag
d t
ĠK enn
Ġt Ã¼rk
r aten
ĠK un
Ġr ule
ĠK rÃ¤
Ġge bild
k ultur
ĠAn wendung
B l
B esch
T V
Ġbe endete
tig ten
ĠLeist ungen
n etz
u z
Ġg alt
Ġ3 4
ord s
ĠGew icht
ĠS ituation
ge fÃ¼
ĠE du
Ã¶r en
( '
B A
w an
ĠS uch
and a
Ber lin
Ġentspr icht
or der
Ġausge stat
hei mer
leist ung
ĠScien ce
sch m
em pl
ied lung
ĠSte fan
ĠerklÃ¤r te
] );
ĠAuf bau
Ã¼t te
ĠBest e
Ġout put
Ġunterschied lichen
ĠK rim
Ġges ehen
ĠChe f
Ġw uchs
ĠH ab
ĠT anz
Ġst ets
In d
In putStream
ĠAb teilung
ĠGer hard
fra gen
ieh ungen
ĠK lavier
ec ts
ĠFl Ã¼gel
H E
ch ten
ch mal
ĠÃ¼ber wiegend
ĠMa inz
I M
ĠVer m
ĠVer lauf
ss ystem
Ġdar gestellt
Ã¼l len
Ġprom ov
ĠGÃ¶tt ingen
er be
ĠD ev
ĠG rie
Ġ19 11
ĠC lau
ĠP resse
ĠT rau
ĠMet all
ĠBro w
D ire
Ġf ilter
ĠR eb
ĠKl assen
Ġ192 1
ĠIs land
Ġs e
gangen en
Client Exception
g Ã¼l
s ein
ĠM Ã¤r
med aille
ĠWider stand
ĠMor gen
ĠTurn ier
T O
Ġder zeit
Ġher r
ĠK andid
ĠEr b
Ġbek annten
Param s
ĠEin trag
Ġbet re
Ġher gestellt
ĠNÃ¼rn berg
g ern
st ern
ĠBr asil
Ġle er
ĠMen ge
R em
g y
Ġw id
ĠM em
Ã¶ ss
stÃ¤nd igen
Aut or
sch te
kon om
Ġsetz en
ĠH it
Ġwir kte
ĠgehÃ¶r ten
UR I
b orn
ĠS ign
ĠB rau
ten d
ĠK ol
Ġauf gerufen
og n
ĠOb serv
oper ation
9 7
M ode
h agen
ĠS n
ĠR ing
ir che
Ġver d
ru p
ĠOr tschaft
ht t
S G
ĠS C
re en
ik ations
ĠunterstÃ¼t zen
ĠSociet y
Ġent stehen
ĠOrg anis
ĠKonz ert
S A
b i
al a
Ġs agt
Ġin tens
ĠV is
par ator
20 11
io us
H T
ĠK ron
ĠT Ã¼rk
rie be
ĠLauf e
Ġwahr scheinlich
Ġd ritte
sp rÃ¼
ĠG rÃ¤
ĠW erb
Ġle gte
ĠVerb and
et ing
reg ion
ĠHÃ¶ hen
ĠMÃ¶glich keiten
Stra ÃŁe
ĠSchwe den
Ġein gesch
ĠAuf grund
ĠgrÃ¶ÃŁ eren
ĠMon at
ĠEurop Ã¤ischen
echs eln
Mus ik
ĠM ission
Ġbest immt
arch iv
ennt nis
omin iert
West falen
ĠL aut
ip s
G ER
ĠW Ã¼rz
Ġ192 3
Ġleb ten
A p
E hemal
us ion
gew Ã¶hn
ig ar
ohn er
T op
p rÃ¤sident
ĠL ieder
Ã¼r f
Ġ15 0
pro gramm
st echn
hol t
f ilter
Ġge eignet
Ġg roup
m atch
ĠW issenschaften
ett ings
ĠFer ien
ĠSin ne
oci ation
ĠT ore
ĠGr enz
ĠIhr em
ĠGra z
k Ã¼nf
as er
ĠJahr zehn
zu stellen
Ġheu tige
Ġstar tete
k arten
ie m
de st
ĠSch uhe
Ġviel leicht
Ġar ch
T P
Ġz eich
is en
is ierte
ĠW unsch
Ġge gebenen
ĠIn dex
F rank
m ethod
w Ã¤l
ĠS dk
ist ry
ot her
Ġch rist
gang s
ontin ue
Å Ļ
ti st
Ã¤hn ung
Ġkompl ett
glie dern
lob al
č ĊĠĠĠĠĠĠĠĠĠĠĠĠĠĠĠĠĠĠĠ
ĠStr ei
ĠAut ob
fÃ¤l le
ĠB ett
ĠD Ã¶r
Ġf loat
gemein den
isD ebug
au x
Ã¤ her
ti z
pr ess
ĠMann schaften
y g
ĠS um
Ġ19 13
Qu ellen
pro chen
ĠRe al
ÃŃ n
Exec ution
k opf
Ã¼l l
deut schen
Ġ eb
ber eitung
ĠAl pen
Ġbest Ã¤
Ġgef Ã¤hr
Ġerw arb
Ã¤mpf en
ĠFer din
a ster
ĠB art
20 10
Ġbrit ische
H istor
ĠDeutschland s
Or der
ĠBew egung
ĠhÃ¶ch sten
britann ien
A dresse
Ġin itial
Ġz Ã¤hlt
Ġ6 5
ĠLeist ungs
ĠFrÃ¼h jahr
D ouble
D ocument
L in
Ã ±
ĠP au
get eilt
produ ktion
ĠBraun sch
ĠB ist
Ġob wohl
ĠAustr alien
L abel
Ċ ĊĠĠĠĠĠĠĠĠĠĠĠĠĠĠĠĠĠĠĠ
ra gen
omb ination
ĠBesuch er
ue ber
Ġproduz iert
ĠSdk ClientException
h orn
at al
Ġf lieÃŁ
gel d
fra struktur
ĠK as
ĠJ os
rei f
ĠO x
app e
State ment
ĠDem okrat
zip lin
r and
ĠW ashington
Ġsch lech
anz er
ĠLe on
++ ;
ut or
Ġt op
ĠInter view
v a
st uhl
Ġver p
ĠZ eiten
esp ace
ĠSh ow
ĠBern hard
ĠGust av
ĠvÃ¶l lig
u id
an er
Ġs agen
ĠEn gl
mit h
B oolean
k omp
mer ksam
th ur
Ġpar se
Ġersch eint
ĠB rief
rei ter
ok e
ĠGra fen
ĠKar te
Z um
f amilie
ĠS ym
ĠT ir
Ã¶ der
Ġeinge stellt
ĠLie fer
ĠjÃ¼n ger
ĠjÃ¤hr lich
ĠAus s
deck en
ĠsÃ¼d lichen
ĠÃ¤hn lich
Ġloc al
Ol ymp
g ab
Ġge h
In valid
ard inal
Ġfor der
L ock
j ava
ĠV ide
ĠIn iti
20 12
Ġkann st
Ġar gument
200 8
Ġmittel s
Ġd auer
ol s
ab les
Ã¤us ern
ĠP ubl
enn fahrer
List e
ĠFr ont
ĠIl l
n ational
ĠN ahr
Ġc ount
ĠEn gel
or weg
Ġunter such
ĠIde en
Ġent weder
ĠAut oren
kon z
V ER
i od
ĠK ing
Ġpro perty
ĠTeil en
N ON
ĠG as
ĠMos kau
ĠE ss
ĠKon fl
Ġ192 2
ar ischen
Ġf e
ĠSow jet
w ith
Ġs icht
ĠG ru
ĠV iele
Ã¤n en
ĠBl att
amer ika
ĊĠĠĠĠĠĠĠĠĠĠĠĠĠĠĠĠĠĠĠĠĠĠĠĠĠĠĠĠĠĠĠĠ ĠĠĠĠĠĠĠĠ
B and
le d
Ġbek omm
v ir
re form
ho ben
ĠGo ogle
B ild
t eile
ĠAb schnitt
20 13
orden s
Ġamer ikanischen
an isch
is co
Ġh Ã¤tten
Ġab geschlossen
pr et
Ġmus ikal
âĢ¦ ]
I G
l ication
Ġengl ischen
D B
Ġzu gleich
zug s
Ġverw enden
< >();
D en
R A
o sen
r esp
Ġl etzt
ĠVer halten
Ġvor bei
S e
Ġ Ã¶ffentlich
ĠH ill
Ġh il
Ġb itte
ug in
ĠMet ern
gren ze
6 9
un s
Ġk ultur
ĠAus druck
ĠThe ologe
200 9
ecklen burg
Ġverst Ã¤r
F rie
K omm
Ã¤hr ung
Ġweiter es
rech er
Hel per
g roup
z eigen
Ġ( ,
ĠAn dr
ĠObj ekte
Ġsogen annte
k y
ĠG rad
Ġl eitete
ac ter
Al bum
ĠIde e
Ġwei b
ĠSchau spiel
Ġmoder nen
k ow
ĠF eder
ĠP rÃ¤sidenten
ĠH ttp
ĠV ar
ĠLin ien
mÃ¶glich keiten
Ġerweiter t
f abrik
ĠG ir
ĠP unkten
Ġan ges
org anisation
ĠFlug zeug
Ġitalien ischen
ĠrÃ¶m isch
Ġd ep
or et
ĠZ ul
ĠWir kung
ĠInform ation
R L
k w
ĠK iel
Ã¶ se
Ġer fahren
ĠSp ann
Ġander s
Ġausgestat tet
ĠL y
ist an
ĠMan agement
Ġ Ä
ĠB ol
Ġre duz
ĠErz bischof
ĠA re
ot ten
ĠHistor iker
ten sion
ĠG olden
equ ence
Ġat tr
Ġk Ã¼nstler
ed ig
Ġc lient
ock et
ĠZw eit
Ġweit gehend
Ġer kennen
ĠC a
Ch ange
fel der
C al
ĠL oc
Ġer gÃ¤n
ĠJ Ã¼rgen
Ġ190 7
Ġwest lichen
h i
Ġ old
ĠP riester
Ġg ra
ĠMin er
Ġbr ingt
ĠR ost
ĠV an
ĠMon aten
ĠRhein land
B ox
b ul
ĠE st
Ġver schw
ud es
Ġar gs
G ew
Ġb lau
ĠT ime
il en
Ġh eim
Ġg ingen
20 14
bo ten
ĠS ur
ĠH yp
ĠC oun
eit ag
ic ro
Ã¶s ungen
ĠHein z
ĠAngel es
P attern
d b
k rieges
ĠG roup
ĠDaten bank
Ġval ues
ir ge
Ġ3 8
alis mus
tr ans
20 16
Ã© n
ch em
Ã¶ ÃŁen
ĠRest au
Met adata
5 00
\ \
Ġn utz
de p
ĠV illa
Ġj em
Ġmehr fach
az on
ĠUr laub
ĠMax im
ĠGesund heits
O p
Ġn eg
ĠF isch
ĠI P
Ġl ock
ess ages
Ġ190 8
ĠK ult
ĠR ap
ĠEr inner
Ġbe ob
teil en
con text
ĠÃ¶sterreich ischen
ĠfrÃ¼her en
in zen
hÃ¶ rigen
ĠM un
ĠT it
20 15
Ġgen annten
ĠBundes liga
ĠAd el
ĠVo gel
ĠN a
ech ts
lan de
D el
Ġz Ã¤hlen
ĠTro tz
D igit
in ander
ĠG all
N O
ĠT Ã¼b
ĠBei de
Ġmax imal
Ċĉ ĠĠĠ
onn e
Ġbel egt
olum b
m aterial
der ungen
ĠVor gÃ¤nger
ĠFahr er
Ġhoch wer
ĠhÃ¶ch ste
Ã¤chs ischen
ĠL eit
ĠI f
end s
Ã¶r ung
ĠBr Ã¼cke
Ġcon tent
ck s
m ung
m ir
et work
ian o
Ġbek am
ĠHen ry
Ġmittler weile
m ord
Ġber Ã¼hm
ĠHo use
ĠAll gemein
Ĩ Ĵ
ĠE reig
ĠL Ã¶sung
ank e
schul en
glieder t
Ġentsprechen den
Ġzeig te
T im
h or
ĠS em
ĠK Ã¼n
att form
ĠD ate
ĠF ass
ĠStud io
D P
IN E
Ã¤hl ten
ersÃ¶n lichkeiten
ĠnÃ¶rd lichen
It alien
St ack
isDebug Enabled
W idth
ei ÃŁ
ĠS eb
gesch oss
akt or
z ust
Ġverantwort lich
re st
A ug
N on
ĠD ien
Ġ3 9
ĠOr dens
sp er
ĠEr satz
ĠRegion al
leid ung
Weiter e
sch loss
ĠK G
he ute
ĠEin ige
av or
Ġges etz
ĠHaup tr
ĠVer Ã¤nder
use el
Ġc o
ĠFor men
ĠGrÃ¼n den
ĠGeh eim
Ã ´
Ġzu erst
Ġ190 5
ĠWohn ung
fur ter
D ollar
S ti
c ount
iel en
ĠVor aus
W arn
n um
meld ung
g rad
y er
Ġw ert
ĠCar ol
ĠVic tor
p a
Ġp lan
An notation
Ġfin ally
M atch
ann ter
F irst
Ġm atch
ĠF ein
ĠW it
ind ustrie
ob ile
ĠFerdin and
A uth
Ġ( "
ĠI N
ĠO k
Ġo ff
k tiv
w ach
er weise
Out put
ĠLeicht athlet
Ġw under
hr e
ĠW appen
ĠSch riften
ĠUn ternehmer
200 7
ĠGl Ã¼ck
I f
h men
ĠS or
M o
T I
ĠIn halt
op old
ĠSie ger
Ġsp ec
Ġb ildete
Ġre qu
pf en
Ġlie f
hand lungen
gem eine
ĠPreuÃŁ en
heb ung
f arb
ĠUnter richt
ĠT her
ra pper
Er baut
ĠErfahr ungen
ĠA st
ti ere
Ġkomm un
M B
ĠVer d
uch ten
th eit
isten z
ĠĊĊ ĠĊ
2 000
ĠH erkunft
ul gar
ag ne
Ġr Ã¼ck
ap ter
Ġerst re
ĠEhe frau
j en
Ġrech ten
Ġform at
ĠgeprÃ¤ gt
p aar
prÃ¤ sen
Ã£ o
N ord
as on
ĠK urt
tr oll
son sten
st he
Ã¼ h
ĠM ir
Ġan ti
Ġan erk
ĠFahr zeuge
Ġlin ken
FA ULT
u gend
un c
ev ent
amil ien
dien ste
ĠL ad
Ġ19 17
pl Ã¤tze
ĠCh ic
Ġhin gegen
P T
Ġn amens
hard t
i ber
Ġ19 16
čĊ čĊĠĠĠĠĠĠĠ
in ess
ĠG ouverneur
ĠL aw
Ġp rivate
ru he
ite inander
ĠFrie den
bez ogen
ĠM au
ĠE ber
ĠR oll
lÃ¤ss lich
g au
n s
et ts
ĠE ro
ĠÃ¼ber tragen
ĠAuf nahme
sb ruck
Ġdah in
ĠSied lung
b ad
ĠR au
Ġk einer
C odes
b n
u ell
sch auer
ĠB ob
rich ter
Ġsynchron ized
W ind
i ode
ar ische
ĠD rit
ir urg
iz ieren
I OException
ĠKap it
ĠSonn tag
Ġrem ove
ĠVerÃ¶ffentlich ung
B ound
S H
ie den
gr aben
Iter ator
V ar
Ã¤ st
Ġg o
ĠGroÃŁ britannien
ĠNieders achsen
ei sch
ĠAuf ent
Ġkur ze
Ġbestimm te
r Ã¼ck
w es
ie fen
ĠB ord
ĠIn gen
Ð µ
č Ċĉĉĉĉ
is Entry
ĠÃ¼ber haupt
Ġ4 8
Ġend gÃ¼l
ĠOper ation
isEntry Enabled
ĠD ichter
ĠC enter
Ġge zeigt
ak et
ĠAl tern
Ġent gegen
ĠÃ Ĺ
ill on
ĠRes erv
Wir tschaft
ĠSchn itt
k Ã¼r
ĠW a
ĠZ us
Ġl os
her zog
unn el
ĠbeschÃ¤f tigt
i Äĩ
n ode
ber ech
and te
ĠTex te
mÃ¶ glichen
auf hin
ĠTh Ã¼r
ĠBas k
gest altung
ĠB yte
Ġt ief
untime Exception
Ġw eist
ak er
ĠAus land
Ġop ti
Met a
G roÃŁ
Ġ ehr
st ation
arb urg
mal er
wahl en
P O
ĠMaÃŁ nahmen
P AR
el se
ĠG lauben
Ġp erson
ek tive
ĠAd els
dentif ier
g Ã¤nge
st Ã¤tten
ĠSch ritt
Ġgesp ielt
ĠBraunsch weig
# #
F uture
ul pt
ĠComm un
st eiger
ĠG eg
Ġst anden
rÃ¤ ume
ph an
ĠD ialog
ĠW ett
Ġh eil
ĠEin heit
ĠNeu en
ĠInd ien
ĠGener ation
Ã¤h ler
hÃ¶ he
ĠTeam s
ĠPrem ier
Ġm Ã¤nn
ĠSch laf
ek tiv
ĠSÃ¼d westen
ĠInter essen
ĠSch lieÃŁ
Ġsp rach
g ibt
Ġf ound
ĠVer hÃ¤ltnis
Ġsch eint
LO G
bie ter
ĠIn tegr
ant as
ĠBÃ¼ ro
m ack
it hm
Ġs ystem
ĠM und
ĠT ok
fer tigt
ĠBund est
zun ehmen
Ġm einen
ĠF o
ab elle
ab teilung
Ġge mÃ¤ÃŁ
ann en
ĠZahl en
Ġ19 15
sp iegel
ak a
ĠJo achim
war n
ĊĠĠĠĠĠĠĠĠĠĠĠĠĠĠĠĠĠĠĠĠĠĠĠĠĠĠĠĠĠĠĠĠ ĠĠĠ
m at
ter e
ĠW ohl
den ken
op tion
elt a
ĠNord rhein
**** ****
Ġprof ession
er ber
ĠBild hauer
Ġs ech
ĠÂ §
Ġ[ âĢ¦]
haf te
ĠArchite kt
ar re
Ġl Ã¶
D isk
P ool
p ack
us er
ell schaften
stre am
Ġin n
ĠK athol
Ã¼r en
ĠnÃ¤ch ste
ĠAutom obil
. ),
T eam
ei tern
Ã¼ cht
ĠNeu bau
ĠFranz Ã¶s
ĠUl rich
ĠDist rikt
> ,
w ischen
ert ung
In s
af el
Ġverb reitet
sp ar
Ã¼nd ungs
Par ent
ĠHam burger
ĠPfarr kirche
R ead
v ar
y e
at alog
ĠK och
Ġr en
get Key
oren z
fÃ¼hr en
Ġ7 5
Ã¤u ft
ĠErfahr ung
F unktion
st eine
Ġs ession
ul es
vor sitzen
ĠParam eter
b ilder
p erson
ĠR ath
ĠÃ¼ber geben
pf licht
Un ternehmen
alen der
ĠfÃ¼hr ten
ĠNetz werk
ĠK os
ĠG ymnasium
Ġl eider
ver treten
ĠGÃ¤ ste
al b
ĠD ol
Ġ/ *
Ã¶ff nung
wir kungen
geord net
ĠErw achsen
it le
ĠW Ã¼r
Ġer stellt
Ġge kommen
wei ht
ĠEr de
od ing
od urch
if ft
ĠEm il
arian ten
hl en
Ġwes entlich
D oc
ĠIn fanter
ĠÃ¼ber ra
ĠKomm ission
Ġd Ã¤n
Ġm el
ĠI T
ĠN un
ĠAl lt
ĠThe odor
ĠZei traum
er ben
ĠH immel
200 6
ĠT own
En um
ĠÃ¼b rigen
zÃ¼ ge
Ġf ac
ĠNord osten
D em
s ur
Ã º
ig ungs
ĠSch r
man agement
Par ser
ĠSchm idt
U ID
ĠK anz
ĠF le
gesch rieben
ĠWeihn achts
F ound
o ks
Ġau str
ĠTeil nahme
Ġbeg onnen
Ġeinge fÃ¼hrt
K urz
r esponse
ob el
Ġex ception
Ġaktu ell
ĠArchite kten
ĠSm art
ĠR ab
ver stÃ¤nd
eg al
st euer
ĠI ter
Ã¶r ter
At om
Ġschw ier
Ġober en
Ġ Î
in os
Ġm sg
Ġf ehlen
ĠVer antwort
200 5
ĠJur ist
kathol ischer
ĠElem ente
ĠTÃ¼b ingen
V ID
l or
Ġd ein
Ġw odurch
Ã¶ t
ĠGre en
W ork
au ff
men sion
ow a
ĠEr f
ĠWar en
g g
Ġ q
ĠP eters
ĠVer anstaltungen
Ã¤n ner
Ġc onnection
ĠEben e
ĠFernse hen
ĠB reite
ĠD ouble
em ark
il er
Ġver h
Ġdurch schnitt
up date
ĠAt hen
hand el
ĠFil me
KE Y
B ody
ĠWir k
bl Ã¤tter
Ã¼s sen
' )
h em
fÃ¼hr ten
bild ungs
ĠFunktion en
ĠJournal ist
ĠK rieges
om ain
mer kungen
ĠRÃ¼ck en
ĠD auer
Ġ4 2
int on
ĠStel lung
ĠWeltkrieg s
Ã¨ re
Ġm ust
J uni
h aben
se ud
Ġverb esser
aff el
sta aten
ĠDon au
l Ã¤nge
ei ert
ĠT w
ĠN ode
ĠSch on
iz enz
Ġtr ain
Ã¤ng nis
ĠSommer spiele
ĠPfarr er
bÃ¼ cher
k op
n icht
un a
Ġsp richt
H ost
eil igung
The ater
ĠInn sbruck
al bum
Ġ3 7
Ġger ing
ĠRÃ¼ck kehr
Des criptor
) {
d is
Ġ use
ff ekt
Ġsch reiben
ĠSchiff e
V P
ĠK ul
ĠE ind
ser ver
Ġnah men
ĠG alerie
ĠOber st
Ġunterschied lich
klus ive
ĠÃĸffentlich keit
Besch reibung
j ew
ein s
ĠK ath
Ġf Ã¤llt
aus schuss
wend ungen
Ġunterschied liche
ĠIns gesamt
a ber
or tiert
ĠK art
ĠZ ivil
Ġp ost
end a
ĠDurch messer
ie fe
st ad
af rika
ĠIntern al
Ġm ensch
Ġur l
Ġmed izin
iw od
Ġtats Ã¤chlich
o ugh
an el
om a
ĠC ro
Ġa v
ĠComp any
ĠFÃ¤l len
ĠAcadem y
k unst
n ers
ĠS us
Ġl en
ind ing
Ġ190 9
ĠLauf bahn
ĠChic ago
D S
ĠK assel
Ġdien en
gra f
Ġd or
Ġm ass
ĠRei sen
ĠGrÃ¼n der
Ġrel igi
ĠErz Ã¤hl
ĠKommun ikation
ĠD adurch
i tem
pf lege
Ġange legt
b lock
f rom
v ater
ĠP orn
ĠHer stellung
sk y
Ġgemeins amen
Ġeinger ichtet
ĠBenutz er
ĠFak ult
ir d
ran ge
ĠKon gress
aff e
ĠDeb Ã¼t
ĠSib Tr
B as
Ġn am
ĠH Ã¤user
Ġk o
ĠUn garn
St ud
AT A
c omm
ĠH orn
Ġab gerufen
Ġpro cess
al ys
ĠL ake
ft ung
tif ication
Pf alz
ĠWÃ¼rz burg
P ER
ist s
ri an
pl y
Ġ190 6
ĠB ibliothek
Ġn um
ĠF Ã¼nf
Ġruss ischen
E Class
m as
t Ã¼mer
ur ts
Ġp re
ĠEin sch
Ġvor gesehen
Ġro ot
p ass
p olit
z wei
ĠS inn
et ch
ĠD Ã¤n
ĠM auer
ig ner
Ġar ray
ĠKonz ept
Ġs org
Sch riften
ei se
Ġs ec
ĠW M
ĠW ag
im ple
lie genden
sb aden
mitt lung
Ġ rad
get Type
part ner
B Ã¼rger
ort s
ob j
L ast
Ġv is
ĠGren zen
ĠGesund heit
B evÃ¶lker
b oolean
on ischen
Ġv ierten
gen Ã¶ss
ex p
ĠBr onz
Ġbeg innen
Er ster
off iz
ĠFig ur
B i
K an
ĠK e
ĠH ell
Param eters
Ġgepl ant
P ass
h u
ĠRe aktion
Ġtre ffen
t yp
ĠK ais
ĠFilm s
Ġersch einen
ĠbenÃ¶ tigt
k om
st eigen
ĠPro p
ohn t
B ar
M eister
Ġ one
Ġf al
ĠH ub
ite ktur
ekt ar
ĠPart y
Ġpar ams
geord neter
Ġexist iert
lowak ei
vier tel
Ġgleichnam igen
d ach
v ed
Ã¶ die
Con stra
dig ung
Ġen dete
======== ========
m Ã¼hle
iz ierten
Ġtr itt
oot ball
Ã ¥
tr oller
eb ook
Ã¤l de
ĠLe opold
lig isten
spl atz
Ġg eist
Ġum ben
pl atte
ĠOr chester
g u
al em
Ġver sion
ĠZ erst
vers orgung
bahn hof
k urs
Ġ ueber
Ġb i
Ġf ein
ĠAn frage
ĠgroÃŁ es
ĠBereich en
n y
ĠW eimar
Ġp osition
J son
Ġd isk
ĠHoch schullehrer
ĠAss ociation
ĠFÃ¶rder ung
ĠA R
il ien
ĠV iew
ĠMar ie
Ver Ã¶ffentlich
trÃ¤ ger
kret Ã¤r
ĠTenn is
Ġm et
Ġn umber
ĠL ind
lei hung
ĠFr em
Ġnahe zu
ĠSchles wig
Ġb ar
iel ler
Ġ5 5
Ġben utzt
isp lay
n t
Ġer laubt
Ġver sehen
ĠSp iegel
ick e
ĠÃĦ gyp
Group Name
ĠOp ern
ĠB re
Ġp o
op ul
Ġmod el
ĠEdu ard
b aus
ach bar
ĠKontr olle
ĠBayer ischen
Ġbeein fl
aliforn ien
eu ert
scha ffen
Ġber uf
Ã¤m lich
itor y
Ġkur zen
lad ung
Ġ app
ut sch
ren nen
ĠLin ks
ĠGesprÃ¤ ch
y c
ĠAn spruch
ĠPro z
ord net
Ġl ern
ed ition
ech ten
ĠÃľber setzung
ĠSpr achen
ĠWe ge
r is
ur es
ĠAn h
Ġ4 4
Ġber ichtet
ĠSer ien
ĠWind ows
ĠObserv able
c as
or age
Ġm iteinander
Ġver kehr
ĠHer bert
Al le
ĠSchl uss
ĠBevÃ¶lker ungs
ĠImm obil
htt p
ĠM ethoden
ĠT au
Ġp ubl
Ex p
Ġ190 4
ĠDan eben
ĠZug ang
fÃ¼r st
ur i
eu ten
ex ec
ĠBau werk
ĠBez iehungen
ĠSÃ¼d osten
Ġ190 3
r ang
z ell
Ġf reuen
Ġtr ug
fÃ¼hr te
ap el
hen tic
En g
gesch Ã¤ft
Er st
ĠSchwer punkt
c u
w itz
Ġs amm
Ġs ign
ĠA achen
ĠD B
ut nant
ist e
ate ur
ĠSp ec
ĠFran ken
ĠFre unde
er ung
ĠA str
sb ez
ennt nisse
Ġmein em
ĠGeist licher
L age
p end
ar ray
Ã¶ tet
ĠL ib
th or
hrow able
ĠFor st
200 4
gangen heit
ĠSam stag
akte ur
z um
Ġw achsen
tr ack
Ġ18 48
ss on
Org anisation
ĠBask etball
ol ogen
ĠP rag
ĠL abel
ĠVer fassung
ĠEr weiter
ĠBer icht
ĠzurÃ¼ck ge
ĠFrei zeit
Kl asse
ĠQualif ikation
N r
p olitik
u age
it ies
Ġf ahren
il s
ĠVer anstaltung
lin der
ĠUn abhÃ¤ng
me er
Ġel f
Ġstr ing
f ft
ĠL it
all er
ĠAn trag
Ġzwei mal
ĠLand tag
steh ung
lie d
ĠSo und
D A
d ition
en gl
ar kt
Ġab geb
Ġerh ielten
Ġgebild et
f ind
ei ge
ĠBundes republik
icher ungs
bew egung
ĠB a
lie s
Ġbis lang
Ġentwick eln
ĠWeiter en
ĠZ eu
ĠVer dienst
ĠStr e
ĠJuli us
ĠGew alt
ĠmÃ¶glich st
Ġdenn och
ĠWo iwod
al tete
tr o
ĠJ agd
ĠSt ation
ĠNord westen
ĠEurop ameister
ograph ische
ĠMatth ias
" ).
B et
ĠS emin
Ġn ominiert
ĠP ok
ĠV aters
ĠKl ima
tim eter
value Of
ĠSim on
Jo hann
B ad
F ranz
L iter
ĠN ow
Ġc ode
Ã¶rder ung
ĠRelig ion
F ahr
t au
ĠD ata
hal ter
ast ian
bau er
Ġgew Ã¤hr
Ċĉĉĉĉ ĉĉĉĉ
ĠDarm stadt
J ul
N LS
al ia
ĠK ombination
ĠEin heiten
Ġet abl
at in
ĠD eck
ver anstaltung
ri z
ren g
ĠEd ition
ĠJac ob
z iger
ĠSp itze
sicht lich
b ro
Ã¶ tz
ĠL eiden
Ġst Ã¤d
Ġc ontinue
ĠAb itur
ĠFÃ¼r sten
Ġor der
ĠM ulti
Ġoffiz iell
ĠPublik um
Ġeinzeln e
i ro
ĠEn glisch
ĠEx empl
deut sche
ĠgrÃ¶ÃŁ er
ĠEng agement
ĠPap ier
p reuÃŁ
ĠV it
ma schinen
st aben
ĠP u
ay a
Ġerh oben
Ġne ed
ĠkÃ¶nn ten
ĠMil ch
Ġreich t
Ġer mÃ¶glichen
Ġan hand
ann er
ĠAuf lÃ¶sung
20 19
wer den
lÃ¤nd ischen
gel eitet
denk male
ĠWill i
ĠÃ¶ff entliche
L I
R ow
t ok
ch est
st Ã¼cke
Ã¤ fer
ĠP DF
ĠK urs
ĠT Ã¶ch
ĠIs rael
ĠKÃ¼ che
Out putStream
ĠFig uren
ĠLex ikon
ĠGrie chen
Ã¤ umen
ĠR aj
aus gabe
enn e
ĠQu elle
setz te
Ġer l
ĠJ ud
ĠStr ecken
ial e
Ġ// $
Er folge
ho uld
ĠBesitz er
ĠB ert
le bt
ĠJ ed
ĠEr l
ĠThe orie
Ġbef ore
ment s
Ġ189 9
Ġzunehmen d
f on
Ä Ľ
eh e
ĠMar ine
ĠHand buch
H o
d own
ĠR od
ĠU RL
Ġt schech
ĠMar ke
Ch annel
c al
t x
ĠZ oll
ĠU fer
Ġun er
Ġsel ber
ĠOrt es
G en
m auer
m inton
ol z
ĠP ir
Ġf eier
ig keits
Ġzu ge
Ġ189 0
ĠRund funk
D ist
e en
k ern
ĠSp aÃŁ
Ġber ufen
con fig
ĠBew eg
scheid et
Ser ie
tre ffen
Ġentsprechen de
ĠChamp ion
c lu
ĠM ak
ĠN omin
Ġp sych
ges sen
ikan ischer
ĠBl au
ĠEnt fern
ĠMod el
ĠInstit ute
Ġstar ken
sted t
z one
al th
Ġauf gelÃ¶st
Ġt otal
ĠQu er
Ġro t
ĠInternational en
Ġn Ã¤mlich
ĠN eum
Ġtr ansp
Ã¤tz lich
Ġklass ischen
Ġaustr al
el or
ĠM assen
ĠEr folge
âĢľ ).
Ġ6 4
ĠFeuer wehr
R ange
ĊĠĠĠĠĠĠĠĠĠĠĠĠĠĠĠĠ ĠĠĠĠ
200 3
ief el
fÃ¤h igkeit
Ġnotwend ig
H aupt
O K
ĠS ig
de u
ĠL ine
ab end
ĠJ a
ĠC ode
Ġl esen
gr ab
ĠWie sbaden
ĠGest altung
H L
I FC
W il
qu ery
Un able
Ġkon zentr
ĠtÃ¤ glich
Ġexec ute
b reak
Ġk auf
gel t
folg ung
ĠPlan ung
ĠbestÃ¤ tigt
ĠP ul
ĠW egen
Ġ190 1
ĠKranken haus
ĠN och
ĠkÃ¶n ne
ĠBl og
ĠZw eck
ĠViel zahl
ĠUntersuch ung
Aug ust
" ));
V is
er ten
ĠP oten
ĠVer gangenheit
Trans action
ĠjÃ¼d ischen
Tem plate
Ġv ari
ĠD aher
ĠM ang
ĠL iter
ĠKl ub
ĠFor um
ĠJust iz
iz iner
Ġzum indest
ĠEn s
ĠOr den
Ġbes itzen
ĠBundes staat
ĠR io
ĠL ove
ĠL eute
ib il
ĠMinister prÃ¤sident
ĠFakult Ã¤t
Ġein geb
ĠI fc
uss ion
sh aus
ĠKan ada
wor ten
sert ation
k in
u elle
bo den
ĠStud ie
ĠStra ÃŁ
stru ctor
LO W
prÃ¼ ft
M A
c essor
Ġzu g
land es
ix el
Ġur kund
Ġwe der
A uÃŁ
t al
ĠB ass
ĠM obil
ĠN eb
ent um
Ġl Ã¤ng
Ġt ag
Ġsp ort
ov a
Ġman chmal
zeich nen
Ġ190 2
gren zen
ĠSalz burg
Ġin stall
hand lung
ĠBew ohner
B erg
C olor
P olitik
c ause
ĠM Ã¶n
ĠL en
il ber
Ġver geben
ĠTer min
R oot
ĠS Ã¶hne
ore a
Ġgelegen en
ĠBrit ish
schlÃ¤ ge
d auer
t ur
Ñ Ģ
Ġver urs
ow ski
Ã¶m isch
ol ean
ĠAn lagen
op en
ĠSonn e
- )
ĠS mith
ĠB ell
se y
Ġun gefÃ¤hr
stit ution
ĠHe ft
ĠÃ¤lte ste
Ġn Ã¶
Ġver legt
Ġp f
ĠAn s
ige m
ges prochen
ĠKon rad
Ġgen ug
log ger
ĠHash Map
B utton
S yn
ĠN ah
zen e
Ġab ger
Ġversuch te
ĠStÃ¤d ten
Polit iker
or es
at om
ĠW Ã¤r
Ġp ri
ru e
if ic
ĠMÃ¼n ch
ÃŃ a
ĠOb wohl
Serv let
Ġb ase
ri b
Ġunter sch
ĠUntersuch ungen
Ġbekomm t
Ġt au
Ġsw itch
ĠverfÃ¼g bar
gram me
R ed
a it
Ð ½
ei de
Ġb ayer
le te
ĠR am
ĠL ast
ĠEr zie
ĠEin richtungen
Ġbet rieb
Ġbet rach
Ġges ellschaft
Id s
Ġsol chen
ĠOrd nung
Warn ings
h eil
ĠM isch
Ġm aÃŁ
ĠT ode
ĠpersÃ¶n lichen
w uchs
ĠD et
ĠF Ã¤h
ĠE ast
sen der
ĠAn th
mann s
ator s
leg ten
Ġpar allel
cle ar
Ġn orweg
is ation
ĠB ade
ber eit
Ġauf gestellt
Ġver ur
ĠMon te
k u
asser t
ĠNutz er
ĠInstr ument
ĠAus einander
ĠIs lam
ĠstÃ¤r ker
S egment
c ul
Ġs an
ĠM ecklenburg
Ġan gesehen
Ġl Ã¤uft
Ġent schied
F inal
g as
Ġs ucht
ĠK alk
ĠBo olean
ĠBe am
reu de
Ġ189 8
ĠFr eitag
il de
ĠI d
ĠSch reib
ĠThe ologie
so ap
V D
ÃŁ ig
() ).
ĠEin richtung
ak u
ĠAl li
anz ig
ĠArch Ã¤
haf ten
b chen
ĠV ariante
Ġzu stÃ¤ndig
rÃ¤ f
ĠRo ten
ĠNieder l
ĠWoiwod schaft
E G
ĠD iff
ĠD omin
em it
ĠAn f
ĠDes halb
Welt meisterschaft
ĠAf rika
ĠBrÃ¼ der
S ehenswÃ¼rdigkeiten
ĠG reg
Ġh eader
ĠPro jekte
zeit ung
schlieÃŁ en
mod ell
B ack
ĠD ampf
ĠM ach
Ġmax im
Ã¤dag oge
ĠBrasil ien
ie ten
Ġs Ã¤m
Ġs orgt
ĠH Ã¶ch
wei st
itÃ¤t s
Ġengl ischer
D ar
ĠU kra
ĠAl te
Ġausge fÃ¼hrt
Ġon ly
C onn
I gnore
M en
k ammer
ĠS ender
ĠJ on
Ġver gangenen
pl atten
urop a
hÃ¶ rige
Ġentst eht
M O
S eine
V ol
ub il
ont o
fl Ã¼gel
mit glieder
ĠGegen wart
ĠKr ist
we ge
ĠPartei en
Ġstre am
P lan
o z
Ġs hould
am at
zen ten
Ġar g
trÃ¤ gen
krieg s
ĠCas ino
D u
J an
d irektor
p ool
t arget
Ġd ank
Ġn Ã¤her
Ã¶ z
re den
ist ischer
ĠAr ts
ĠGemein der
ĠWelt krieges
ĠSan kt
ĠSchn ell
Ġnie dr
emb le
Supp ress
N am
o e
ĠAn forderungen
Ġhistor ische
ĠrÃ¶m ischen
Kir chen
C reate
ch ip
Ġh ast
umen te
D ur
l im
r ig
ĠL ipp
ĠGes icht
ĠChem ie
Ġumben annt
c oding
Å ¾
ĠR icht
sp rechen
Ã¼n den
ild et
ĠBr ig
t op
ol i
id s
ĠKon s
ĠRei hen
f alt
ĠM icro
ĠF la
ĠSp itzen
oun ter
cl ub
D C
v as
ich tigt
le utnant
Ġor iginal
ĠM ah
Die ser
Ġmodern e
h Ã¤ndler
ug o
Ġvor ge
Ġbest ritt
ĠCO VID
ĠOx ford
um in
nis sen
hin dern
Ġor ien
Ġbeh andelt
read y
B el
y an
Ġ Ã¶stlichen
ĠV il
ĠEr ich
St yle
ĠGroÃŁ e
ĠFrank furter
ĠGef ahr
Europ ameister
ĠSowjet union
) ");
ĠR uf
os a
gesch lagen
ma schine
ĠPor trÃ¤t
ra ys
ĠX ML
ĠSant a
E C
Ġb ot
ĠLand tags
ĠBez iehung
gor ithm
ĠÃ¶sterreich ische
zuf Ã¼hren
Ġkathol ischen
b uffer
ĠM ethod
Ġz er
ĠK ro
ĠVer k
Ġsp rechen
ĠMar ken
St at
our c
bo ard
ĠForm el
ĠAktiv itÃ¤ten
m es
ĠP C
la c
Ġeinz igar
ĠKÃ¶l ner
usÃ¤tz lich
Ġwich tigen
Hol stein
B en
ĠS endung
ĠF ell
ĠE h
Ġc al
her ren
eite ten
rÃ¼ st
Ġscha ffen
d y
in ken
get P
ĠÃ¼ber nehmen
Ġunter en
ĠGemein schaft
ĠBe ob
Key s
Ġstell vertreten
wei ler
arb eitete
yn ast
Ġparam eter
b raun
v ol
ĠT hread
ĠEr schein
Ġj ob
tel s
ail able
Ã¤mpf e
Mill is
Ġautomat isch
L ayout
w el
Ġt ask
ĠGesch ichten
Ġen glisch
ĠGer ichts
ĠHand ball
c opy
ĠZ un
Ġr esp
Ġ4 9
ĠBo ot
ĠBahn strecke
Ġ187 0
ĠSÃ¤nger in
W rapper
wei ÃŁ
ĠMar ien
Sch w
ĠQu adrat
Ġser ver
Ass ign
Ã¶ ck
Ġzu geordnet
ĠTh is
ĠAug sburg
ĠJuni oren
ĠTa schen
ĠTÃ¶ch ter
ĠO ffen
ĠKon zer
res ent
Field s
rÃ¤sent anten
. _
s eit
ĠB an
Ġb uild
Ġin nen
ĠP reise
ra in
teil s
fen ster
ĠRegierung schef
Inter face
ĠTab elle
ĠW ell
ĠSt att
sp ez
etz te
unter richt
ĠFernseh serie
Ġchines ischen
E hr
und ert
ĠP ie
ĠIn halte
Ġeigen es
ĠVerb esser
ĠIns eln
fre und
asil ian
Ġverpflich tet
B o
ĠT ipp
eh lt
ver ter
In nen
ett o
Ġreg istr
ĠBed ingungen
has Next
ĠKamer a
Suppress Warnings
ell o
Ġvor aus
Ġ189 7
lehr e
Ġerz Ã¤hlt
ĠHeraus geber
ĠTrain ing
A F
ĠM io
aus stellung
IN T
m ag
ĠSt Ã¤r
ĠSchn eider
w ettbewerb
ĠM id
ĠL iv
Ġent ity
Ġsp Ã¤t
Ġ8 00
Ġho her
Comm and
H aus
n i
â Ķ
ab et
Ġt oken
ver k
val ues
ĠAngeb ote
ĠPass ag
ĠHelm ut
m ond
ĠM is
ĠT ats
ĠBo ok
ER R
Ġ189 5
ĠWieder auf
Pl atz
ĠInfanter ie
n es
s cription
Ġs orgen
Ġs rc
Ġein iger
ĠEin s
VAL UE
ĠGeg ner
ĠH ockey
Ġ2 50
ĠStr and
spieler in
ĠSchl Ã¼ssel
Film ografie
Ġsozial en
kur renz
Ġpoln ischen
l eiten
Ġ1 10
Ġsch eiter
Ġstark e
F ran
ĠW in
pf l
Ġ5 2
reg isseur
on st
ar z
ĠG olf
ĠP ierre
ĠL ife
Ġver hindern
ex it
Ġent schieden
Ġre ag
ĠWir ken
At tributes
ĠKap itel
ĠTÃ¼rk ei
D aten
d ung
Ã «
el a
ĠG h
Ġp rev
ster dam
ĠDaten schutz
ĠGed anken
g asse
ĠD ownload
iz ierung
Ġber Ã¼cks
ĠGeb urts
ĠGer Ã¤t
Ġklein ere
way s
Ġbezie hungs
> <
ur o
tr ich
lass ung
ĠKon f
one Region
ĠInstit ution
ĠRegen sburg
Ġparam eters
r Ã¼cken
ĠM uster
ĠR ollen
ĠL ande
ĠIn frastruktur
os law
ĠReg ionen
ĠAs ien
ĠMeer es
ĠParlament s
s ource
ĠW urz
ĠDie ter
Ġbe zeichnete
In ternal
Ġeinz igen
Ġgest altet
Ġbesonder en
Ã¤mpf er
ĠMein ung
' :
K arl
u an
Ġst at
Ġ6 00
eig h
alis at
ĠProf il
ĠOrg an
rÃ¤n kt
Chr ist
Ġbeziehungs weise
d ner
sch rank
ĠN am
ĠC our
Ġan gew
Ġan genommen
Ġst ra
Ġr un
ks h
ĠFl Ã¼cht
200 1
Acc ount
v ollen
or i
Ã¼ gt
ĠK ardinal
Ġf arb
ti r
ĠBr enn
ĠLe der
verein s
ĠÃ¤lter en
g round
h es
j an
sch irm
et ti
ĠK alifornien
ĠC amb
ĠO der
ell i
Pro ject
ĠEx tr
Ġben achbar
ĠLehr e
Des cription
iat eilnehmer
h y
Å Ħ
ĠS ul
it o
Ġf Ã¼n
ĠT ief
inder t
fÃ¶rm ig
Ġerforder lich
ĠÃ¼ber w
Ġsch rift
af e
tiv ity
D e
Ã ł
ĠM r
Ġj ahr
ĠLebens mittel
DE FAULT
Kir che
M em
u en
Ġun ge
Ġ18 60
ais s
teil ungen
ĠZu schauer
ĠMon ument
icher heit
deck ung
ĠGel egen
ĠDort mund
sph Ã¤re
H eight
b or
r iss
ar io
sen de
id ae
Ġtr af
ĠWelt meisterschaft
ĠEd el
ĠRes ult
Ġâ ĨĴ
Dat ei
vir on
at ing
ĠP enn
ent in
ĠBr es
ĠBeh Ã¶rden
sei tig
V ariable
ur l
ĠM ord
Ġk ombin
Ġp hil
ĠNach richt
ied elt
reg ister
ĠBesonder s
ĠNationalsozial ismus
chip karte
W as
f els
ĠSch ach
Ġent w
Ġdar aus
Ġwel chem
br onn
Reg iment
b indung
la in
Ġbes aÃŁ
ĠHistor y
ĠM Ã¼hl
Ġf ung
ĠMar y
ĠRu hr
ĠStim me
ĠSong s
ĠLÃ¼ beck
ier end
Ġk ir
ess ern
In stitut
ĠPl atten
ator ium
ĠHaus es
ĠNational mannschaft
ĠSyn chron
K o
a illen
l v
p ers
est en
ĠAr thur
Ġsp anischen
Ġtr ifft
ĠGr amm
ĠBen ed
SD AP
L a
w h
} ,
te uer
ar tige
Ġl ernen
ag a
etz ten
iert es
br ingen
200 2
ĠDat um
ĠMount ain
J Ã¤hr
K ompon
p ul
on ische
ath on
ĠFl Ã¤chen
Sch ema
Ġeb enda
w riter
ĠGer Ã¤te
ĠMod elle
N S
st rom
ĠAus nahme
etr ic
c ast
f ac
ar rei
ĠK ost
ol o
ĠT rieb
Ġc ache
ĠStr ate
ĠerhÃ¶ ht
ĠLok omo
n itten
ei he
sch wer
au ert
et he
ĠO ster
Ġ" ,
Ġus w
Ġitalien ische
Ġmittel alter
Ġzie hen
ä ¸
ĠV ik
ĠN S
ig an
Ġ4 6
ĠKomp osition
zÃ¤hl ung
ĠRath aus
K W
O C
b te
h old
ĠD etails
Ġein schlieÃŁlich
ĠP oint
ĠT u
Ġk Ã¼
ĠC orn
ĠUn fall
tern e
Ġ4 3
ĠFrei heit
Ġverschieden er
ĠMehr heit
Ges ellschaft
Ġerinn ert
C ar
R W
ĠS of
ĠSch aden
lo k
ĠGes ang
Ġbesch reibt
ĠGew erk
ĠChe ck
ĠschÃ¶n e
ĠM ond
Ġ4 1
Ġange gebenen
m otor
ĠV el
Ġh ell
ĠIn g
ĠGeb rauch
ĠBÃ¼ hnen
ĠBesch Ã¤f
ĠTex as
Ap i
em pf
Ġf allen
amp le
ĠEm p
199 0
ĠEigen schaften
Ġnational en
ordin ate
histor iker
ĠMex iko
D DR
O st
T itel
Z E
in ne
rie d
ak ademie
Ġvor gestellt
Ã¤r ung
Ġbas iert
L ang
M ath
at her
ĠP ed
ĠT onnen
if y
ĠLand schafts
sk a
k as
o ung
Ġunter halb
ko hol
ĠVerbr eitung
L en
b an
Ġf lie
ĠC all
Ġre ader
ix ed
verkehr s
ĠerhÃ¤lt lich
ĠS QL
at i
ĠK ob
ĠE arl
ĊĠĠĠĠĠĠĠĠ ĊĠĠĠĠĠĠĠ
Ġan t
Ã¤r ten
our s
ĠSchw ier
Ġverb indet
ĠPol y
Land kreis
ĠprÃ¤sen tiert
r ingen
ch te
st um
Ã¤ ure
ĠM ech
ĠM esse
ĠT rÃ¤ger
pp ich
ĠBÃ¼ hne
Ġklein es
abil ity
ertif icate
B eim
ver zeichnis
im eter
Ġgew Ã¼n
ĠMed ia
cri be
ĠStel l
ĠM eyer
Ã¶l z
Ġspez iell
ĠWe ber
ĠAp ost
l ot
m ie
p re
ĠH Ã¼gel
ĠT sch
Ġ/ >
Ġletz ter
Ġ189 6
Ġ188 0
W ert
Ġd eine
lo h
ĠReg iment
Ġgegr Ã¼ndeten
Ġdeutschsprach igen
S ign
e ption
ĠB Ã¤nde
Ã¶ gel
Ġbe endet
Ã¼t ze
Ġgemeins ame
N E
d h
em burg
de hn
Ã¤n k
ĠRe de
Ġ187 1
med izin
ĠAnt wort
ĠKommun al
App lication
sprech er
ĠDipl om
E Object
ĠS ymbol
Ġw ork
ĠF abrik
Ġg Ã¼l
vers icherung
upp orted
kn Ã¼
B ew
F amilie
T est
m sg
it es
ĠK Ã¶r
Ġauf gebaut
ĠFl ucht
Ã¼t ten
ĠUm setzung
Ġda ÃŁ
hof en
akt oren
199 9
Not Null
ĠpreuÃŁ ischen
P A
ĠS ak
Ġs inn
ĠB ier
ahr t
Ġc annot
ug ies
Ġab zu
ĠFÃ¼hr er
V I
m and
ĠK amp
ver lÃ¤ss
ĠEr ste
Ġpro perties
Ġseit dem
Ġteil s
ĠEd ward
maÃŁ nahmen
F re
M atrix
Ġd elete
ar in
et on
ĠM ut
de burg
ĠR ie
ĠL ew
Un d
for mer
Ġch em
ĠursprÃ¼n glichen
ĠPrinz ip
ĠKarls ruhe
p c
st Ã¤nden
ĠV I
ĠO m
qu en
ĠOr ten
ay ern
Ã³ w
ĠzusÃ¤tz liche
AG E
ĠLi ber
ĠBestand teil
P ost
S pr
Ġd iff
st atus
il a
ĠMa y
M apping
T A
Ġv ar
Ġer zeugt
sp f
ĠUn sere
ĠVor stand
ĠBru st
ĠMÃ¶ bel
D ialog
v es
st ar
ĠG ang
Ġer lang
Ġl iter
Ġwir ken
trag ung
echs elt
ĠS oll
Ġb lieben
ĠTab ellen
Ġbau te
< >(
F alls
b ibliothek
ĠD F
Ġan y
onn a
Ar ab
reu ung
ĠRef er
C ap
al o
ĠF lie
de gang
rei strÃ¤ger
ĠO ne
ĠmÃ¶glich erweise
Ber eits
ĠpersÃ¶n lich
ĠCD U
ĠS oph
Ġi l
ĠP as
ĠP ath
ĠJ ungen
stra ÃŁen
Ġange p
ĠNew s
Ġend lich
b ein
ĠD ur
ann i
Ġl auf
olog ischer
ĠSte phan
Ġges und
stre cken
Jahr en
Ġgriech ischen
iar den
id o
fang s
Ġtechn ischen
B undle
ĠM ode
um b
Ġver n
Ġ18 50
ĠMit gliedern
ick er
ĠAlt ar
ĠAlt stadt
Spiel er
ĠTelef on
viron ment
M ich
Ġb ut
Ġ( ;
ĠK Ã¶
ĠO pp
wei ten
eil er
ĠkÃ¶n ig
ĠReg ister
form ationen
Ġ189 2
ĠFall s
Ġerr ichtete
ĠAbgeord neten
ĠD ire
ĠF unk
ĠP ast
if ication
mus iker
char At
S QL
k Ã¶rper
Ġb rau
Ġwir kt
ĠKÃ¶nig in
ĠMann heim
Ab sol
ĠEntwick lungs
ĠIniti ative
Ġn ennt
ĠG lei
Ġau ÃŁen
ĠW ik
ĠL ust
Ġge tragen
ĠAr men
lo ud
ast rop
br Ã¼
ĠAm sterdam
Ġgr unds
Ġfrei en
AB LE
ĠImmobil ien
H ein
n chen
as ien
ĠG au
ver teidig
rit iker
m or
Ġn ennen
ĠT raum
ĠL am
eb e
Ġe ff
Ġbesch lossen
Ġcon vert
ĠBern ard
R echts
c z
y k
ar ina
Ġw Ã¼n
ĠA ktu
em an
ĠF ro
eh Ã¶r
ĠGr Ã¼ndungs
atur es
ev ice
ĠBach elor
Pol icy
Ġbedeuten d
Ġaus zu
ĠBes etzung
ĠMo der
Ġbeh aup
Ġrech te
ĠEing ang
ĠPortug al
Ġ Ã¼
Ġw riter
ot yp
ess in
Ġbes etzt
wohn er
jahr es
verband es
f arben
ch ild
ge tr
ach ed
rit or
Ġ4 7
Ġ5 4
ĠFahr t
Ġhand le
Ġoffiz iellen
Ġrich tige
h et
Ġ5 1
for scher
Ã¤nder te
uff ix
Ġreg ul
ĠMik ro
199 8
Ad d
Olymp iateilnehmer
s z
Â ®
ĠD ra
ra gt
ĠMa schine
Einz el
ive au
Ġat tribute
M ain
igen t
red icate
ĠHa ft
Ġb uf
ĠD iv
ĠF u
ĠW en
Ġst atus
Ġum geben
Mus eum
ĠFac ebook
rup ted
Ġbetrach tet
ein heit
Ġs epar
ber icht
sen s
os itory
schn itts
Ġverl Ã¤nger
ĠGef angen
ĠGef Ã¤ngnis
Ġgar an
P ri
c ia
on i
ĠK redit
ger ichts
erk ennung
Ġbel g
M ember
g i
â Ĥ¬
ar ia
Ġh ieÃŁ
Ġerw orben
ĠHalb finale
Ġland wirtschaft
Ignore Case
m ont
Ġb raucht
wir kung
AN CE
ĠBus iness
Ġerstre ckt
ich ert
ĠH ow
ak en
her steller
con stants
ĠQ ue
M essages
N e
st arts
ei ern
ĠL ot
Ġt Ã¶
ungs ver
Ġtr eten
ĠBest ell
ĠBel gien
igh ts
Ġspez ial
ĠEpis oden
b und
Ã¤ hne
ĠH as
Ġo ver
ĠAd am
riff e
ĠAutob ahn
ĠflieÃŁ t
F OR
b ett
tr ies
ach ter
ĠSp eicher
bau en
sk l
sb urger
aj a
ĠBot schafter
National mannschaft
A v
E le
H e
S equence
m essage
st ock
te am
Ġle hr
ieb el
ĠTra g
Ġbestehen den
ĠRost ock
ĠT oten
ĠC ross
Ġ20 22
acht ung
utz ung
ĠPl Ã¤tze
199 6
ĠOb last
ĠOffiz ier
ĠBrun nen
ĠSeb astian
ĠIngen ieur
r as
ei ste
ar gs
ĠE ugen
isch Ã¶
ĠN ap
Ġim pl
Ġver t
Ġver Ã¤ndert
ĠVer mÃ¶gen
ot oren
ĠFl ag
bau te
Ġ15 00
Ġget Ã¶tet
Ġbesch Ã¤
ĠBest er
ĠBar on
Sc ope
ĠGleich zeitig
def ault
b al
ĠS P
or ff
ĠV iol
iss ement
ĠEurop ean
Element s
leb nis
O M
ĠK rie
ĠP od
Ġp age
sp lan
gr Ã¶ÃŁe
Ġsp Ã¤ten
ĠKon struktion
Pro cess
Ġeinge tragen
Ġschw eren
ĠjÃ¼n g
K n
M e
g ung
Ġd ro
or p
ĠB io
gel s
ĠBer atung
Ġzwei ter
lei der
gesch windigkeit
Ġviel fÃ¤l
Ġ189 3
b ahnen
i y
ĠS av
Ã¤ ck
Ġst eigen
Ġc ons
ĠAl f
In sel
ĠGi pfel
ĠAward s
ĠArn old
ĠunabhÃ¤ng ig
T L
Ġh Ã¶ren
SE T
rep lace
Ġpriv aten
T erm
te sten
ĠP anzer
Ġst Ã¤ndig
Ġpro p
hÃ¤lt nisse
B eg
S cript
t ums
Ã¤ udes
ir n
Ġl atein
Ġr uh
Ġgleich e
Ġsozial e
ĠBur gen
Ġwissenschaft lichen
ur al
ĠR E
Ġbe cause
Ġ5 6
Ġaufge fÃ¼hrt
bes itz
Ġbisher igen
F ailed
k unden
s f
st ab
ĠB em
ĠP ian
ĠZ iele
Ġc lose
get Id
olog isch
min ist
ĠNieder lage
Ġjapan ischen
E ishockeyspieler
t able
Ġc le
ĊĠĠĠĠĠĠĠĠĠĠĠĠĠĠĠĠ Ġ
ain ing
Ġjem and
S PD
X ml
z ep
Ã Ĺ
an ie
ĠB Ã¼r
ĠB ull
ĠSt unde
od ox
An merkungen
ĠEurop as
ĠSk i
State Exception
ĠFel ix
P air
z n
ĠK Ã¶n
ĠR ett
ĠV Ã¶lker
Ġhier bei
ĠDis sertation
ĠLab or
M W
h s
ung er
Ġin fo
us en
ĠGesch lech
ĠSzen e
u ccess
ĠA ster
il i
ĠAus zeichnung
sicht s
ĠTer r
ĠKÃ¼ sten
ĠÃ¤lte sten
I dentifier
c tr
n ieder
z ellen
Ġb auen
he d
aus bildung
tt ps
ĠBi ograph
Ġgetr ennt
M Ã¤rz
N um
ĠL ar
ĠAn wesen
Ġsch uf
ĠAus bau
Ġpro blem
ĠUnivers itÃ¤ten
ĠMan fred
schn itte
Ġlo ad
ĠPrÃ¼ f
W h
h ler
on str
ĠF inn
ĠR Ã¶m
us alem
ĠJ etzt
ĠâĢ Ķ
Ġange hÃ¶r
mar sch
ĠBeg r
Ġlang sam
ĠHil fs
zÃ¼ glich
Ġwich tiger
umm ern
( _
l Ã¶
ch ange
on ien
ĠK le
ĠSch ott
ĠEin kauf
check ed
ĠVir gin
ĠJes u
ĠClau d
/ *
or ph
ĠB y
ĠAn k
end o
Ġsch reibt
ack er
Ġwissenschaft liche
ĠDenn och
S um
Ã¤r t
mal en
)) );
yd ro
stud ium
ĠGebie te
Ġrequ ired
ĠDÃ¤n emark
ĠS ud
ĠJ ena
Ġa cc
co ver
Ġsicht bar
S earch
U ri
Z wischen
sch ten
ĠD irekt
and emie
ĠO h
ed ule
get String
Ã¶n t
ĠÃľ b
Ġcreate Ifc
ĠLÃ¶ wen
ĠVen edig
ĠFranc isco
ĠKrank heit
ĠStre et
an on
al m
ant eil
ĠErk rank
c s
f ranzÃ¶s
in us
al i
eich e
ĠAus stattung
Con s
ĠUnter schied
Ġ189 4
Ġend et
ĠFot ograf
anc en
it is
ad or
Ġsch ied
ĠPhys ik
ĠKrim inal
: :
el ine
ĠR untimeException
Ġden k
Ġver anst
Ġo st
erk l
ĠTr ier
Hand lung
ĠFÃ¼hr ungs
Ġfre und
Ġverf asste
ĠNic ol
ur ren
ĠA ction
ĠSt ates
ĠBl umen
Ġ188 9
Ġverst ehen
ĠKÃ¼n ste
X ML
l it
Ã¤ b
ĠM inder
Ġn atur
ĠR equest
ĠAr r
ĠStr eam
form ance
ĠRo h
mÃ¤ÃŁ ige
frie den
Ġph ys
G o
S ein
ĠS eg
ĠF F
ien z
ĠÃ¼ber sch
qu enz
ĠInd ian
ĠHotel s
ĠMaterial ien
Ġerg ibt
ĠIll ustr
ĠL or
ĠL ern
ĠL ob
re gel
ĠVer eine
ĠAuf nahmen
ontin u
ĠSek unden
C C
M ulti
r ic
ĠB Ã¼nd
ĠN ull
Ġauf zu
he dr
ĠIn tel
ĠOr chest
Ġbest ell
ma ÃŁen
ĠGrund stÃ¼ck
ĠPer sp
ĠFranz isk
ĠKo operation
Jahr e
ĠKÃ¼ ste
dat um
Ġverkauf te
u ay
it iv
ĠVer w
get D
ĠFrie dens
Ġverst orben
ĠBarb ara
S ettings
Ġm er
is ieren
ande ur
ĠAllt ag
O F
s Ã¤nger
u i
z lich
ei ro
ĠM arburg
tr op
ĠAn gabe
Ġab gesch
sh ausen
ĠFrei en
ĠMich el
Ġgegr Ã¼ndete
Ġzie ht
Ġperf ekt
Ġstattf inden
Ġbein hal
M ilitÃ¤r
b ody
Ġd ate
Ġ( ),
ĠN ationen
ann a
Ġzu folge
Ġum s
werk en
M ENT
U I
p lay
ĠS E
sch Ã¶n
ar g
ĠRu h
ĠInternational e
ĠNor wegen
Gra ph
Ġrich tigen
chten stein
ĠW Ã¼rttemberg
ĠL ev
us sen
geb nis
Ġander es
ĠNeu stadt
ĠSc ott
ĠFer tig
Ġoffiz ielle
Ġerwar tet
Ġposit iv
Dire ctory
ĠS ei
ĠSch le
ger Ã¤t
Ġsch ot
off set
ĠspÃ¤ter e
ĠMathemat ik
B ez
h art
h off
ĠB at
ĠM Ã¼hle
ol ve
Ġst ru
Ġc opy
Ã¼t ter
ĠGroÃŁ teil
Ġby tes
J ava
m lich
Å Ł
ĠJ ava
ĠMar s
Time out
Ġruss ischer
ĠÅ ł
ĠRek ord
p ap
Ñ ģ
ĠD inge
ĠH ektar
ing u
Ġan g
Ġunter wegs
Ġ" /
ĠMar i
pro f
ĠBe geg
opp elt
ĠGebie ts
ĠDipl omat
ar ed
ĠR umÃ¤n
Ġg rau
ild es
rat es
ĠPf ad
ĠMan ager
ĠInform ations
ĠBern d
ĠMark eting
ĠSchriftsteller in
ĠJos Ã©
ie ht
et ung
ĠD ial
if ik
Ġ5 3
ĠKais ers
A bst
au ten
ak i
ob ald
par ent
ĠFran co
fahr zeug
Ġange zeigt
ĠOl denburg
ĠTem pel
ĠStaat sb
ĠS aar
Ġw echseln
ĠB itte
em ed
ĠG anz
ĠR oss
Ġer mittelt
Ġk g
Ġge Ã¤ndert
Ġal tern
Ġunter scheiden
hol m
Ġ187 9
bed ingt
B B
ĠP S
ĠH ig
ĠH ugo
ĠAus gang
asse d
Ð¾ Ð
F rei
N OT
ĠĠ Ċ
ĠS upp
el emen
ĠM u
ĠR ay
Ġg ro
Reg istry
ĠZus atz
ĠD ynam
Ġein deu
ĠH ob
ĠVer fassungs
ĠEr Ã¶ffnung
inz ip
ĠBr Ã¼cken
ĠWei ÃŁen
fr ont
ĠVort eil
D an
j ob
Ġj ur
ial izer
be am
ĠHand werk
ĠPf alz
Cal endar
- /
. /
E Mail
ĠS ir
ent wick
icht lich
stell ig
ĠBundes ver
ĠAng st
I l
on te
or ter
Ġb it
Ġi dentif
Ġp opul
ri ver
wir t
ĠSa al
Ġpl atz
ĠGlock en
ĠThÃ¼r ingen
N ov
o ir
ĠM oment
ĠVer wand
ĠAr ab
ers dorf
Ã¶r ungen
ug oslaw
Ġsp ann
ĠWelt meisterschaften
ĠÃľber sicht
equals IgnoreCase
Ġruss ische
ynast ie
P hil
ĠH ay
ĠAn alyse
Ġc l
Ġte st
bed ingungen
Ġtrotz dem
ĠWh ite
Fe ature
o ul
w s
Ġwar um
ost on
ĠBundes wehr
ĠGroÃŁ herzog
AC T
ĠGi ov
U P
un nen
ĠA cc
ol ver
is a
ĠH eb
ig ger
Ġauf treten
Ġp reis
ungs gebiet
Ġspiel ten
ĠAlex and
sprech end
igr ation
hentic ation
Ġzu kÃ¼nf
ans as
ommer z
ĠOs car
ĠAlb recht
ĠKolle gen
Ġeinf ache
F iles
k Ã¼ste
in it
ĠT ob
est e
ger Ã¤te
im um
IT Y
B U
p ommern
Ġ Ã¶rt
ĠF ans
Ġl eist
Ex tension
ges ellschaften
af ft
ond issement
ĠMin ute
199 1
Ġorganis iert
ĠVerÃ¶ffentlich ungen
r uss
Ã ª
ĠC le
get Property
geb lich
k amp
ĠA ff
ĠP ots
Ġr ight
fÃ¤l lig
Ġoffen en
Ġextr em
m acher
Ġver ab
ĠZ er
Ġst ill
Str u
fl ow
licher weise
ĠEpis ode
ĠÃĦgyp ten
F OL
in ett
Ġs ymbol
Ġein s
Ġan lÃ¤sslich
ap elle
Ġmittler en
r ein
ĠP rak
Ġan geschlossen
Ġnach hal
ĠHer zen
li as
Ġbeg leitet
ĠGrund lagen
ĠMittel punkt
st on
ĠB os
Ġn on
Ġf uhr
ph ase
ĠPf arrei
dre ht
leb te
S ingle
am i
ĠK eller
ĠP en
is burg
ĠH ome
re a
ik at
eh end
lo ÃŁ
ĠÃ ł
ĠAuf tr
ĠWerk en
ĠMuseum s
Ġlok alen
B rite
h ten
Ġd is
ĠP ow
Ã¼t t
sb ed
ĠGesch mack
Er gebnisse
Ġumf asste
LA SS
ĠerÃ¶ff nete
ĠHor st
ĠÃĦn derungen
ĠVerÃ¤nder ungen
Ġverur teilt
W ei
c olumn
x ml
z ern
ar o
ĠG ab
ĠW art
get Instance
ĠUm fang
bereich e
ĠGraf schaft
Ġklein eren
Null able
Not Found
ĠCamb ridge
ĠB it
Ġb ack
ĠT ax
ig ungen
ow itsch
ĠSp Ã¤t
ner stag
ok us
Qu eue
Ġbr asilian
Ġzeit genÃ¶ss
ĠEt hn
Ä ĥ
ĠL inz
ĠAl p
ĠUm gang
ĠEnt stehung
ĠSh op
ĠForm at
ĠBef ehl
Ġwes halb
Ġkomp lex
ch or
ĠS auer
ĠZ ehn
sp unkt
ĠVer zeichnis
etz ungen
ĠMar gar
ĠBuch staben
ST R
ĠVertr ieb
weis ung
Ġvertr at
sto ÃŁ
' );
> )
J ose
R eturn
W asser
lich em
est amp
ĠEin en
ob ject
Con trol
mÃ¤ÃŁ igen
jÃ¤hr iger
abr Ã¼ck
Com parator
Ġim age
rie s
ĠNach folge
Ġange k
ĠMo tiv
ĠAnton io
ĠBrem er
Non Null
Ġdor tigen
ĠChampion ship
umin ium
> ()
P anel
t w
u ellen
st em
ĠA fr
ĠB om
ĠH ey
us k
ra xis
ff te
ĠSt ich
ĠAn zei
ĠUn ser
ek or
ĠMa jor
ĠRo ad
199 4
Ġdo es
Ġengl ische
spl it
besch reibung
ĠAnh Ã¤nger
. ).
Ġge legt
sp olitik
ĠIm age
ĠPol iz
ĠNieder lande
ĠWahl kreis
i ffen
ĠH em
ĠL eb
ĠN ation
Ġge fallen
Ġc or
âĢľ -
ĠE N
teil te
so ft
ĠGegen d
rÃ¼st ung
K unst
P refix
T eil
l itz
y ball
Ġ iter
Ġ assert
ap i
ĠCh ance
Ġar ab
Ġdur fte
Ġdunk el
g roÃŁ
m ess
Ġb raun
ĠK Ã¼hl
all iga
ĠSp itz
ĠOr der
index Of
ĠBres lau
C P
Ċ Ċĉĉĉ
in as
ĠL at
he ber
ĠVer arbeitung
ĠUm bau
arch ie
ĠMill iarden
bÃ¼rger meister
B ef
b it
v ens
ļ Ń
in f
ĠL angen
tr an
ĠVer z
Ġaus reich
Ġr oman
ay load
pro jekt
ĠGemein sam
gew inn
AL L
Ġhal b
EX T
.:.: .:.:
ĠArr ondissement
Ġd ist
ĠB ase
le ute
ĠR ub
Ġunter b
ĠFl eisch
Ġber ech
eren zen
verb indung
Ġwei sen
Ġtem p
aiss ance
H eute
L auf
S ymbol
k olle
n abrÃ¼ck
o ire
w Ã¤hnung
ĠS y
gen ossen
ĠT herapie
ĠL egen
ent s
zeit schrift
pro cess
Ġhin ten
199 2
Ġbegann en
198 9
On ly
Ġempf ehlen
ĠNikol aus
starts With
D on
w ell
Ġbeg eist
Ġeigen er
gÃ¤n glich
Ã¼ se
ĠD ay
ĠG ymnas
ĠW Ã¼n
Ġh ttps
ĠC olor
(" \
ele ase
Ġgelegen tlich
Dec lar
ĠBab y
ĠBrow n
' ,
M er
R Ã¶misch
r oll
ĠK ub
Ġan schlieÃŁ
sp reis
ĠÃ¼ber setzt
reich er
du ktion
fahr ts
ĠReich stag
Ġverst arb
angeb ot
Ġunbek annt
A k
B ran
P re
ĠS ens
ger t
ĠEr richtung
In itial
ahl en
An halt
ĠCon tent
Ġ188 5
ĠMag azin
ĠZen timeter
stechn ik
ĠSmart ph
M I
h Ã¼ter
Ġv iew
ĠD ich
Ġn annte
ĠE UR
ĠR al
ĠR ail
ĠN ick
Ġge zogen
ack t
li ver
stan bul
ĠSte u
bo ok
agn ost
ĠhÃ¶her en
Ehemal ige
r amm
ĠN at
Ġal ready
ĠZ ub
ang es
Ġ8 5
Ġher um
val u
ĠSer ies
Log ger
Ġzeit weise
omet ry
f u
Ñ Ĥ
st ritten
ĠN ar
Ġver boten
tet t
ĠAus fÃ¼hrung
br eitung
ĠNe useel
strahl ung
Produ ktion
ĠWag ner
ĠMÃ¼nch ner
âĶ Ģ
B oot
ĠM ie
Ġm Ã¼ndet
Ġz Ã¤hlte
ĠG ame
ĠE ch
Ġk ennt
ir ma
Ġaus fÃ¼hr
Ġbe auftrag
ĠMit tler
pl ication
St affel
ĠHoch zeit
ĠAk tien
199 5
tisch es
Ġversuch en
D i
H inter
ĠD ec
ut s
Ġg ern
Ġg renzt
ĠSch aff
Ġl es
Ġp assed
sp itze
ri min
iz ont
auf nahme
Al t
ĠY oung
Array List
ĠStad ion
ch ern
ei r
ĠMar g
ĠPf licht
low en
Ġfre ie
Ġgl Ã¼ck
Ġbezie ht
Frank reich
Frie drich
v inz
Â ³
und et
ĠB ein
ĠK y
ĠSch los
ĠSt urm
Ġ188 8
druck t
ĠAmts zeit
Ġsh ort
Ġnorm al
or men
Ġm e
ep te
ial en
Ġmehr erer
out h
Ġ186 7
ĠTre ffen
ĠBed Ã¼rf
Ġspez if
Ġnational e
ĠGott fried
Ġeinf achen
ĠRestau rant
| -
Ġst ation
ĠHerr n
ĠJer usalem
Ġurkund lich
ĠUkra ine
4 00
D ATA
m ach
r olle
ĠS T
Ã¤ ÃŁ
Ã¤ fte
Ã¶r dern
St ar
ĠChr isten
til ler
Ġhin ein
ĠPort al
Ġgetr offen
stant in
ĠExper ten
K Ã¶nig
c ard
k ul
on ic
ol ph
ĠH av
ĠAn sicht
ĠSp ir
Ar b
ĠPh ase
setz er
ĠWei bchen
Ġgest alten
yl van
UL L
Ġtechn ische
ĠPfer de
B S
c ape
t oken
Ġw Ã¤hlen
ti ver
ĠH rsg
Ġh um
ro id
Ġg ros
ra p
ĠâĢ ¢
Ġent h
ĠBo gen
ĠZu cker
199 7
ĠRu he
frei heit
sto ffen
Jahrhundert s
r un
v m
v oke
ĠK ino
ĠW ies
ĠR on
ĠZ usÃ¤tzlich
Ġst arten
ĠAb d
rau t
contains Key
cel ona
P RE
S ow
m ine
au g
Ġm ulti
Ġf ot
Ġge Ã¶ff
Ġan gen
ĠĊ Ġ
imm ungen
Ġher unter
ĠHam mer
ĠTechn ologie
G E
S uch
ĠB am
ĠL ow
Ġl eitet
qu is
ĠAb stand
iss ar
ĠVerein igung
Sie g
Ġverl etzt
Ġdi verse
ĠGrÃ¼n en
Ġkur zer
ĠSau di
on ia
lin es
geb irge
20 20
Ġgen ieÃŁen
ite kt
// //
ĠMet rop
ĠRes earch
ĠBed arf
Ġaktiv en
Fl ug
kap elle
ĠmÃ¶ glichen
Schwei zer
" :
( ...
F O
R ez
Ì Ī
st ahl
ĠA x
ĠF ound
ĠF reude
is ierten
he ad
men s
Ġ189 1
OR T
Ġ187 4
ĠTex til
Ġzentr alen
ĠendgÃ¼l tig
/ >
ĠF ar
ĠP ower
ĠC am
Ġg olden
ĠZ o
Ġt hread
Ġsch Ã¼tzen
Ġum ge
Ã¤ch er
Ġgel b
Ġwei ÃŁen
fÃ¤l len
uck et
Ġport ugies
farb e
T hrowable
W e
c ap
w ner
ie bt
ĠB och
ĠK Ã¼r
est ern
ĠAl les
ĠVor bereitung
sw ald
aktion en
Ġprof it
ĠKomment ar
C A
P I
g riffen
ie be
Ġin klusive
ĠV og
est and
ĠSt an
ind ungs
Ġc omponent
Ã¤ch te
wa ffe
Ġgel angen
ĠMag deburg
ĠIllegal StateException
Ġwoll ten
Ġkathol ische
F est
p ost
Ġ( ).
Ġle ft
Ġerreich ten
irt ual
ĠGeschÃ¤fts fÃ¼hrer
Ġans Ã¤ss
f ekt
Ġin spir
Ġein zu
ĠN ote
ĠC ons
ing ung
ĠPro j
ĠSk la
199 3
Ġkon troll
H Ã¶r
X X
ĠC onn
Ġj son
Ġvor wiegend
Ġges ucht
ĠSchw anz
ĠMet al
ĠIntern ets
ilom etern
ĠEigen tÃ¼mer
produ zent
Ġlau tet
Ġd omin
at ische
ro y
mer zen
qu elle
bar er
ĠAm azon
ĠGem Ã¤lde
eten z
hÃ¤ng ig
Ġexist ieren
Ġverbr achte
clu de
r ennfahrer
ĠD ub
Ġc lazz
Ã¼ck t
ĠNach wuchs
Ġbest anden
ĠRo se
ĠMark us
ĠInstitut s
ĠProm otion
Wil helm
P eter
T er
k re
v iel
ĠL etz
ĠV inc
Ġc olor
wer ten
Ġviel er
Ġteil nehmen
ĠNieder Ã¶sterreich
Ġdi ver
Ġheraus gegeben
With ServiceResponse
ĠLes er
ĠMont ag
ĠMail and
Ġgrunds Ã¤tzlich
WithServiceResponse Async
L IC
ie ck
ĠK ohl
ĠT ak
us se
Pro zent
arr ier
ct ure
ĠFra ktion
K onz
Z one
w all
au thor
at tet
ĠG od
ĠR ess
re y
ĠO R
ste ck
alt ar
ĠAm ateur
Ġerfolg reichen
send ung
ĠhÃ¶ here
Ġhil ft
ĠHÃ¶ch st
k at
s ession
or ed
ĠEr ster
ĠGes am
Ġgesch Ã¼tzt
minister iums
Ġw eb
isch t
ĠL Ã¶sungen
ĠV ari
ab or
ĠC lient
Ġg uter
ĠAr me
Ġdurch aus
ĠVor bild
Pro gramm
Ġeh e
spro zess
Header s
deutsch land
ĠverstÃ¤r kt
ĠMaxim ilian
preuÃŁ en
ĠEntfern ung
K inder
ĠK el
ĠJ son
Ġl aufen
org anis
ĠLe e
ĠCon c
riter ien
ĠBist um
m eter
Ġd b
hr op
ĠI dent
art h
ass au
az itÃ¤t
ĠÃľber blick
ĠWissenschaft ler
Ġhervor ra
ĠergÃ¤n zt
D ER
J apan
M aler
T ags
V ector
s ver
Ġb reiten
ĠĠĠĠĠĠĠĠ ĠĠĠ
se c
all o
op Ã¤d
19 18
ĠTh or
ĠGe denk
ĠHum an
Ġ orden
on line
ĠD okumen
ĠG att
Ġf ach
Ġ5 8
ĠRo ute
ĠOber flÃ¤che
ĠKunst stoff
ĠVers and
ĠpersÃ¶n liche
Ġkor re
dar steller
C urrent
M ehr
t ml
v ard
Ġer geben
ĠC ir
Ġp attern
if er
Ġ5 7
ens ion
ett ing
Ġex pl
scheid ung
Ġvorhanden en
ĠGebie ten
spann ung
r n
t urm
w inkel
ĠB ow
Ġst abil
ĠAn bieter
Ġc onn
Ġsch Ã¶nen
Ġlie b
hau se
Jan uar
l ein
em als
ĠH T
ĠH ex
Ġc ol
ĠSo zi
Ġverb essern
ĠDi Ã¶z
ĠFir st
ĠSyn ag
ĠMad rid
ĠdÃ¼r fte
r eit
r ession
{ }
ĠS omit
ĠK en
ĠE ishockeyspieler
ab geordneter
aus o
min istr
Ġgel ungen
Ġgeb lieben
ĠsÃ¼d Ã¶stlich
ĠSoc ial
ĠFÃ¤l le
ĠLeichtathlet ik
ĠIntegr ation
Erster wÃ¤hnung
Ġ Ã¤ndern
Ġd oc
el en
ĠM uss
ĠK im
ol en
ĠP ader
Ġf rem
ĠH agen
os se
Ġent f
ĠBr uch
not ations
ĠKauf mann
ĠWel tr
Schwei z
ĠVide os
en kt
sch icht
eich ern
od a
arb eitern
Ġbes ucht
Ġdar um
Pro xy
ĠEnt wurf
ha i
ĠsÃ¼d westlich
mo sphÃ¤re
Ġschwer e
Ġbestehen de
Ġdamal ige
ĠGÃ¼n ther
ĠGriechen land
FOL LOW
M ag
] [
in ary
it ro
ol and
ĠG riff
ĠH ad
ĠL em
ĠSch lei
auf nahmen
ĠVor stands
Ġbef Ã¶rdert
Ġ< /
ĠFahr rad
ĠAben teuer
Ġtem plate
vertr eter
ĠUp date
h Ã¤usern
ĠS he
ĠA gent
ĠD afÃ¼r
Ġnach fol
ĠBer ge
Ġpro ject
schie de
ĠInn ov
Ġschl ug
ĠBesatz ungs
Ġdisk u
U B
b ran
h ar
ĠS un
ĠF as
ĠF ilter
ĠG Ã¶r
ĠR ats
ĠKl eine
ĠJu an
Ġwirtschaft lichen
C I
E t
Q U
Ġd okumen
ĠK linik
Ġer folgen
ĠZ y
ru st
ĠSie ben
ĠAb stra
ĠAt om
ĠTour ismus
ĠSzen en
Ġfunktion iert
W or
g al
ĠL ibr
Ġk Ã¶rper
Ã¼n n
In ternational
ĠKl im
ĠPolitiker in
ĠFil men
ĠDrehbuch autor
ĠDrit tel
ĠS ache
al om
Ġge fertigt
Ġan sonsten
eben e
unk el
iden t
ĠFr ucht
ĠMÃ¤n nchen
Ġsowjet ischen
ĠKandid aten
an dern
Ġh a
ĠBl ues
ĠWelt meister
[] )
ĠVerb indungen
ĠVerlag s
ĠGest alt
ĠAbgeord neter
ĠBil dern
Ġpromov iert
ylvan ia
R est
R oman
ĠB Ã¶r
ĠL evel
tr ee
Qu alif
ĠBl Ã¤tter
ĠKomm and
forder t
ĠAllgemein en
Ġinn ov
k Ã¶nig
ĠF antas
ĠJ Ã¤ger
eck t
ĠDar aufhin
ĠGed ichte
ĠAust ausch
ĠDenkmal schutz
Ġkir ch
C up
i Ã³n
p at
Ġ ol
ĠB j
ĠB rie
ĠP age
ĠR ow
Ġum gebaut
ant a
amp e
ĠSk ulpt
sprÃ¼n glich
d elete
r al
ge legen
ĠD ollar
ĠP el
ĠSt ol
ĠAn erkennung
lie der
af r
Ġle gen
Ġunser es
Ġhand elte
wort h
lÃ¤nd ische
ĠFreund in
gebie ten
lehn t
NotFound Exception
n eu
s or
un sten
Ġl anger
ap h
Ġlie ÃŁen
ĠGem ark
Ã¤nd ige
rag ment
ĠBereich e
ĠBar celona
Film schauspieler
M Ã¼n
i oren
v in
Ġ reichen
ar tigen
at isch
it ive
ĠR et
ĠR eit
ĠSch all
Ġle hn
Ġ186 6
Loc ale
Argument s
ĠDo ug
Ġgelegen e
B uch
k B
Ġein heit
ĠK Ã¼nst
ĠC H
Ġst imm
ert al
qu al
ĠVers orgung
198 5
Ġgesp rochen
ĠMiner al
ĠIter ator
ĠF ehl
men ge
uf er
Ã¤r zt
ĠSpiel tag
ĠCo ok
198 8
ĠWahl en
frist ig
exec ute
ĠSt ory
ĠVer f
qu alitÃ¤t
Ã¼l ler
ĠSpr inger
AR T
ĠSam uel
ĠOs nabrÃ¼ck
prÃ¼ fung
g reg
k ov
in ischen
Ġs im
Ġm y
ĠE ishockey
ĠL as
Ġnach gewiesen
lu ft
fre ie
ĠDep art
zus etzen
ĠFal un
R un
b eu
ĠB lo
ĠB oston
ĠT unnel
ĠZ Ã¼ge
ĠSch icks
ĠSt iefel
Ġsch lecht
Ġ18 40
Pro jekt
ond ition
ĠKomm ando
Ġ187 5
ĠRegel n
Ġober halb
Ġamer ikanische
Ã¢ te
ĠÄ Į
ERR OR
s ing
it alien
ĠM att
Ġm achten
ĠR eiter
ier er
yp t
rit ter
Ġlie fern
Ġgen annte
ma jor
ĠHal te
ĠFrÃ¼ hl
Ġallgemein en
ĠSchwar zen
T ro
s ylvania
ĠP rim
ig in
Ġan f
Ġc ap
Ġ9 5
Ġges agt
Ġch ange
ĠWerk statt
ĠschlieÃŁ en
ĠÃĦr zte
Ġ1 15
Ġt hen
ĠDie trich
Ġ5 9
Ġur i
urs or
Ġspez ielle
h ost
s an
s ign
ĠK oll
Ġdes cription
Ġver setzt
ik i
Ġst rate
mer k
AC E
ĠDis ziplin
ĠDien ste
jen igen
kÃ¼r zung
M otor
en se
is st
ĠW ellen
ul iert
Ã¤t zt
ill ing
ip al
sb et
Ġbef ind
Ġis rael
amt es
deck e
ĠProf ess
ĠRes ource
gebie ts
d oc
Ġs earch
ir ke
Ġ} ;
ess ischen
gr Ã¼ndung
ĠMar sch
ĠGef Ã¼hl
Ġjeder zeit
Ġpass iert
Ġbeinhal tet
T our
w ein
Ċ ĠĠĠĠĠĠ
in ten
Ġd ocument
Ã¼ re
Ġan fangs
Ġre v
En de
add All
ĠRo hr
ĠDorf es
Ġoffen bar
Ġehr en
Kompon ist
N atur
au te
ĠM ans
ĠJ ubil
Ġp orn
ST ANCE
ĠKr one
sw issenschaft
Ġbed ro
Dat um
Ġjapan ischer
Ġforder te
Sti ftung
g ier
ĠS her
sch el
Ã¶ scht
ĠEin z
lie derung
ĠAr k
fahr ten
Ġbew usst
ĠAmer ika
J SON
i ques
Ġw eite
Ġw idth
ĠB ang
Ġin it
ĠP seud
re qu
Ġk om
iv als
geb oren
eld et
ĠSe en
ĠKan al
ĠKategor ien
CD U
ĠWehr macht
prÃ¤sen z
T ri
Ġb reite
Ġn ied
der e
ĠW S
ow o
if est
ĠAd ler
jahr en
gefÃ¼ gt
ĠKonfl ikt
H O
in stitut
oll ow
Ġent lassen
Ġ" );
pro perty
Ġgeboren e
ĠOrganis ationen
ĠAlli anz
M M
Z wei
l Ã©
| |
ro ot
Ġzu gÃ¤nglich
ĠZ it
lex ikon
glieder ung
Wir d
ĠNiederl anden
j ust
ĠI ran
Ġk inder
ĠAus zeichnungen
Ġ6 3
Mod ule
Ġkommen den
ategor y
hoch schule
Ġ{} ",
Ġbenachbar ten
ĠBened ikt
ĠA C
Ġp asst
ĠAus wirkungen
ober haupt
sta ates
Ġzie mlich
vorsitzen der
ourc en
g it
č ĊĠĠĠĠĠĠĠĠ
Ġ hr
Ġw hen
Ġs yn
ĠF it
Ã¼n de
id get
Ġtr aten
ĠBer ech
hÃ¶r igkeit
Ġhand ler
ĠMeister schaften
ĠKant ons
Ġschwar zen
ar c
ĠH arr
ĠV alle
Ġh undert
wei ch
im ir
rau cher
of en
ĠPh ot
Ġgleich er
lauf en
Ġ188 3
ĠLie bl
port al
ĠDo ktor
Ġzentr ale
ĠSchlieÃŁ lich
ĠVerantwort ung
un checked
ĠP in
ĠL inden
Ġzu frieden
lei ben
wir d
ĠAlter s
ĠBaum w
M art
r ight
ĠH arry
ĠL ag
ĠL atein
ach s
Ġsch wei
ĠFran ce
Un sere
Ã¼l le
upp e
AN D
Ġ186 9
ĠVerl ust
merksam keit
ĠVirgin ia
B it
t l
ar tig
se kretÃ¤r
ul f
Ġdar stellt
amer a
Ġ> >
ĠGal ax
ĠErinner ung
Jul i
B O
F lag
b old
e ed
Ġ achten
ĠB ulgar
as sten
ĠM d
ĠF I
ĠE ff
ĠH eck
ĠT ick
ĠO ri
Ġzu gelassen
ser ien
ĠAl kohol
ĠEx pression
ĠRechts anwalt
ĠKat alog
urnal ist
Ġerrich ten
ĠAutor in
A V
b Ã¶
d ing
ei be
ĠG n
ĠL ein
Ġer stellen
ĠN RW
ent hal
war en
ĠÃľber nahme
fe ature
kir ch
Film titel
ĠverfÃ¼ gen
Ġdefin iert
rupted Exception
l aus
st es
ĠW under
ab t
Ġk Ã¼rz
ĠC os
Ã¼n digt
aus s
iss ing
deck te
ĠAmer ica
ĠMathemat iker
ĠGiov anni
D o
O pen
S an
ĠK ra
ĠE uch
Ã¶r g
Ġdies mal
Ġ7 2
Ġschn eller
ĠGraf ik
ĠWochen ende
Ġnord westlich
ĠPsych ologie
ĠLOG GER
N odes
ĠA ct
Ġm ech
ĠP etr
Ġf inn
sp rÃ¤sident
ver lauf
os ite
ĠEr wer
ĠEr furt
ib l
Sch n
ĠReich es
mod el
ĠHin weise
ĠÃľberg ang
ĠBronz emed
C ommerce
b ten
f irst
un es
as i
ĠK il
ĠP ublic
ĠT eu
tr im
ĠO ver
Ġaus einander
ichtig ung
Ġ188 6
ĠschlieÃŁ t
ĠDon nerstag
Ġgesp eichert
ĠRis iko
W R
b uilder
Ġf Ã¼hl
Ġf unction
ĠJ ord
Ġp oint
Ġwar ten
Ġj ener
ĠCh allen
atur en
ĠUm satz
)) )
RE S
198 6
Ġheil igen
( @
l isten
ich tigen
ĠR y
Ġge eig
Ġt mp
Ã¤n zer
od ie
ĠAuf tritt
ov en
zw ungen
bach er
ele ge
Ġerf Ã¼llt
Ġprak tisch
ĠGÃ¼n ter
P C
k ar
Ġs ur
ĠM aur
ĠP ers
ĠL izenz
ĠN ight
eb urg
ate ll
Ġvor ber
ĠPl Ã¤ne
Ġbes uchen
Res ources
ĠBar ock
tic ast
strahl t
ĠPremier minister
BevÃ¶lker ungs
A pril
or um
Ġi den
ĠT ol
se g
Ġt here
ot ter
ĠÃĦ hn
ĠkÃ¶nn t
Ġlist ener
Ãĸsterreich er
ĠErweiter ung
m y
Ġh ash
Ġk re
ĠSch ild
ĠSt ab
eu ern
Str ate
ĠAuf ruf
Ġ9 9
Ġ6 6
Pro f
Ã¼l lung
Ã¤u den
ĠSÃ¼d west
ĠHir sch
ĠSum me
Cons umer
D r
M ai
O ktober
z o
ĠG ames
ĠH Ã¼
sp ace
ĠEin er
ĠAr gentin
Ġtr ocken
Ġnord Ã¶stlich
Digit alisat
ĠPots dam
G u
M AX
ĠA dresse
ĠK am
Ġh off
tel n
land schaft
ĠBau er
ingen ieur
wa ffen
ĠWelt cup
Ġall eine
zeug ung
Ġ188 4
Ġverw endete
ĠJugend liche
Ġintens iv
ĠEind ruck
er tet
Ġvor ne
ĠBr ut
ĠFran Ã§
ĠJo e
org an
ĠUm feld
Ġsol cher
verein igung
ĠZug riff
ĠKont in
Welt meisterschaften
Ġtradition ellen
Eng ine
Ġangep asst
or ity
Ġv oller
ĠM Ã©
Ġf inde
ĠL aden
ab schnitt
ĠAl uminium
ett a
Constra ints
(... )");
S eptember
a schen
e ff
sch reibung
ein heiten
ĠD VD
ĠW upp
Ġver teilt
ĠAn im
ĠAl ph
ĠIm pl
forder ung
ĠTre ffer
ĠjÃ¼d ische
Ġschwed ischen
ĠEns emble
ĠfÃ¼n ften
C lose
sch reiben
ĠP ersÃ¶n
ĠR iesen
ĠSie gen
ĠPro tocolMarshaller
gend es
ĠHit ler
D ezember
W S
] )
c all
m ethode
ĠG T
ĠG rupp
Ġh ost
ĠO tt
19 70
ill y
ail ure
ĠGra ph
ĠSpr ing
Data Type
herr schaft
ĠVerteidig ung
d ist
p al
in str
Ġs ql
ĠK Z
ĠR iv
Ġan bie
Ġ18 78
Ġ+ +
ĠAm b
ĠKon zentr
Ġbet r
ĠSchw anger
Ã¤tig te
Ad apter
ĠRot h
ĠScien ces
ĠmilitÃ¤r ischen
ĠAstr onom
A gent
C luster
c at
f rÃ¼
ĠG il
ĠProdu zent
ĠUniversitÃ¤t s
ĠTer ror
ĠErn Ã¤hrung
ĠProduktion s
W ien
z ut
Ð º
ĠT ay
ĠC ob
ern ame
ĠEin stellung
ek tiven
ian ischen
Ã¤nd igen
Ġ186 1
ĠRob in
ĠTipp s
ĠS z
em p
Ġaus drÃ¼ck
Ġzum eist
ĠBer gen
Ġbef est
wir k
Ġ187 2
ĠÃĸsterreich s
ĠEinwohner zahl
Ġwh ich
Wer degang
I E
ie ber
ĠD og
ĠM eg
ĠF res
ĠV orm
ion e
ech er
ĠArbeit geber
ĠApp le
Ġpl Ã¶tz
Ã¤dagog ik
ĠTok io
ĠsÃ¤m tliche
ĠM aus
ĠO d
Ġl eisten
Ġt hr
ĠIn stall
ed y
end ing
up le
Ar t
ĠMon ats
ĠHoch schul
ĠSpr ung
Ġabge st
zÃ¼ g
ĠInnen stadt
frei en
ĠStad tr
c ons
v ide
Ã¤ use
ĠJ emen
ĠJ ones
ĠAuf merksamkeit
burg h
wend ungs
out put
rÃ¤sent ation
Ã¼st et
Ġindividu ell
Wind ow
B E
ĠS ed
Ġer leben
ĠC at
ĠO ze
ĠO liver
Ġsch m
Ġlie fer
ĠBe ach
ĠLe o
ĠBet on
rech nung
Ġerfolg reiche
ĠMor itz
ĠnatÃ¼r lichen
valid ate
Ġausreich end
l iteratur
l ings
n g
s aison
ĠT en
ĠV i
Ġge lesen
ĠSch atten
ĠAn lass
ob jekt
amm ern
ĠBl ue
Ge org
ĠTem plate
Ġchar akter
; ;
S ocket
c il
n ap
st ufe
ĠT O
ĠR Ã¤ume
and eln
ĠÃ¼ber tr
ĠÃ¼ber all
Ġbe qu
ok ens
Ġ6 1
Ġger inger
ron om
Ġcon figuration
ĠKn ochen
ĠSystem s
AC K
schiff e
komm t
ĠBrun o
ĠSek ret
Ġrec ord
Ġuntersuch t
Ġlern te
Arab ien
b art
sch Ã¼tzen
ti us
ĠH enn
om er
he ater
ang le
Ġab hÃ¤ngig
ĠChr is
man ager
alis ieren
Ġ188 2
Ġ188 7
Ġem pty
sw ert
gesetz ten
ĠErwachsen en
K omp
e ber
h arm
Ī Ĵ
ĠE ier
ĠH allen
ĠO f
me te
olog ien
Ġger iet
ĠWest falen
ĠNe ur
atÃ¼r lich
Ġangeb racht
ĠNahr ungs
âĶĢ âĶĢ
Ã¢te au
G ET
R ock
S uper
c p
ĠVer dienste
Ġunter gebracht
Ġgew Ã¶hn
Deutsch e
ĠHin weis
No tification
Ġwirtschaft liche
R uss
W E
k al
l at
sch wei
ĠW ork
ĠL eh
Ġal ter
ad ies
Ġp refix
os h
Ġ18 00
hl t
dem okrat
ĠBau ch
Ġgr und
itt le
Ġgesch ieht
iden z
ĠEurop Ã¤ische
ĠGew erbe
Ã¤tz ung
ĠKompon isten
Mus iker
ĠDokument ar
ĠFlor ida
Ġscheiter te
ĠbeschÃ¤ digt
Ġg u
Ġunter scheidet
ĠGr Ã¶ÃŁen
ĠGemeinde gebiet
ĠMill imeter
Ġ186 8
Ġreduz iert
ĠVerbesser ung
A ME
S onst
j ection
sch ritt
at tr
ĠB atter
um l
ul er
ĠAn ne
ĠJahr hund
âĢľ ),
stell ers
if iziert
con tent
Ġgest artet
ĠKap ital
Ġreg ister
ĠMat rix
ĠKloster s
ĠKu gel
Ġerweiter te
Ġevangel ischen
endo ktor
tw och
C ol
F L
W ar
Ä Ł
an ia
ĠF alle
Ã¼r zt
Ġan n
sh ire
Ã¤ch t
amp en
Ã¼ndig te
Ġpromov ierte
Ġperson en
z ungs
Ġb ist
Ġk aiser
ĠIn sbesondere
Ġa ction
opp en
ektr um
V om
ein st
ĠA L
ĠB iele
ig tes
ĠZ ell
ĠVor trag
spr uchs
wir ken
Ġ% .
UN G
al ition
ab schluss
ĠJ unge
ĠZ auber
ĠEin ladung
ĠBei spiele
ĠGeb ir
ĠfÃ¼hr enden
Ã¤nger ung
ĠFrei herr
Ġbr ach
ĠNomin ierung
ĠZun Ã¤chst
8 00
P ersÃ¶nlichkeiten
ĠAl so
ech ter
Die ses
ĠAus bildungs
ĠEx pl
Ge ografie
Ġpolit isch
lÃ¤uf e
ĠnatÃ¼r liche
ĠPrÃ¼ fung
Ġanerk annt
ĠA qu
ĠM es
ach us
ĠN u
Ġk ont
ĠSt ationen
Ġunter lag
ohn e
br Ã¼cken
Ġlie genden
Sch ule
ĠIhr es
Ġben utz
Ġro ten
ĠOn kel
ĠSen ioren
Ã¤te stens
Ċĉĉĉĉĉĉ ĉ
ĠEvangel ischen
Ġerwar ten
ĠHoll y
ĠAltern ative
ĠWilli ams
f ailed
k ette
Ã ĥ
ch a
in ing
ĠF ast
ol is
ĠG etr
ien te
ĠSp ar
Ġ18 49
Ġum gesetzt
age d
ĠGesch enk
Ġbef anden
str eit
ĠVers icherungs
ĠPat rick
ĠHerr scher
wor tet
fil me
Ġoption s
Ġfeier te
BevÃ¶lkerungs entwicklung
E M
b il
ĠS yd
em er
Ġm ake
Ġver grÃ¶ÃŁ
ap est
Ã¤t t
Ġum stritten
Ã¼hr t
hen den
rau en
ĠOrt schaften
ĠDu isburg
unn ing
Ġmeisten s
Dat abase
ĠEben falls
ĠCom ic
Ġscha ffte
c an
Â ´
Ġd eb
ĠM etz
Ġ( _
Ġm ore
ĠW Ã¶rter
ĠV arianten
Ġver g
ĠAn st
Ġbe achten
gr Ã¤
Ġzwei er
sk irche
lau be
aler weise
irurg ie
c ore
d ir
ĉ ĠĠĠ
sch end
el er
ĠB la
Ġf ehlt
ran ts
Ġ6 8
Ã¶l l
ĠVerb ands
Ġern annte
ĠMittel meer
ĠÃ¼b lich
n d
o ÃŁ
ar ischer
Ġs erv
Ã¤ g
ĠB ibel
ĠM ei
ĠVer sch
19 39
ard o
bar ung
ĠSpr int
198 3
Ġverm eiden
ĠStaats oberhaupt
ĠTyp s
Ã¼rz te
ĠPader born
d ire
n oten
ĠB R
ĠE th
ic z
19 14
Die s
ĠBer ater
ĠSchw ein
ĠInd ust
198 0
ĠDokument ation
ĠTrain ings
N icht
sp ur
urn e
olle ctor
ĠBew ertung
ĠHier bei
Ġstamm te
d om
sch ungs
ĠK Ã¤r
ĠE M
ĠW Ã¤l
Ġk Ã¼nf
ĠUn s
gr enz
Ġsp anischer
par ks
br unn
be cken
Ġ187 7
ĠTest ament
ĠVerteidig ungs
ĠniederlÃ¤nd ischer
ced es
ĠModern e
P riv
č ĊĠĠĠĠĠĠĠĠĠĠĠĠĠĠĠĠĠĠĠĠĠĠĠ
st atic
ĠD orn
Ġge dreht
ĠDie sel
Ġre al
Ġ187 3
198 7
ĠBeh inder
On line
ĠÃ¤lter e
Ġak adem
Ġverkauf en
ĠHoff mann
ĠOption al
Ġfertig gestellt
ĠFÃ¤h igkeiten
Ä Ļ
tr olle
ber uf
Ġk Ã¤mpf
ap s
ĠAus gaben
Ġ- -
len z
ĠÃĸ k
Ġwel chen
ĠGelegen heit
k rank
È Ļ
ar tikel
Ġw asser
Ġk ost
19 38
Ġsow eit
kehr t
lan zen
frie s
ĠursprÃ¼n gliche
Ġdire kte
Ġkanad ischer
ĠJahrzehn ten
ĠUnabhÃ¤ng igkeit
Ġbrau chen
D est
g ast
h ut
v ideo
st yle
ur er
ier endes
ĠAn aly
eich nungen
ĠAl ben
pf lanzen
ĠAuf l
Ġpro du
198 4
Gr und
Ste p
---------------- ----------------
ĠMerk male
ĠAuss age
zust and
f al
ĠG a
Ġh Ã¤ngt
Ġaus gebaut
end el
ark e
Pro ps
Pro cessor
Ġ< <
ĠGew Ã¤sser
Ġteil te
ĠÂ ·
ĠPosition en
Ġdire kten
Ġinform ieren
ĠKonfl ik
ĠMicro soft
W el
Ġin folge
ĠR ainer
eil ung
19 33
enden cy
Ã¤tig keiten
Ġbew egen
ĠverÃ¶ffentlich ten
ĠHeil bronn
g reifen
Ġd ynam
ĠA N
ĠM i
amm elt
bez eichnung
Ġspez iellen
stehen den
ĠEben so
ĠRÃ¶ mer
ĠlÃ¶ ste
ĠRaj on
B eh
G C
H alb
h eben
ĠP ion
ĠN az
ĠN eck
Ġk ompon
ĠSt Ã¼cke
Ġun gewÃ¶hn
ĠEr gÃ¤n
gl as
ĠY or
IN STANCE
Ġ188 1
ĠDÃ¶r fer
national spieler
Ġerlang te
ĠB uffer
ĠD rag
ĠC ontainer
ĠSch Ã¤den
ĠJahr gang
Ġ18 15
ĠKon kurrenz
Ġle gt
Ġben annte
ĠLie chtenstein
Ġbetroffen en
D ivision
P al
o h
w eb
ĠK ai
is er
ĠV f
ĠN et
ĠC ra
ĠIn schrift
ĠVer n
ĠAl len
br and
Sp ace
ĠBet eiligung
ĠFre der
legen heiten
ĠMaler ei
Ġklass ische
Ġm ay
ĠF ootball
ĠP az
ĠT ank
ĠC ru
ir us
Ġge weiht
Ġver gessen
Ġp ers
Ġaus gesch
Ã¤n ke
ĠEr klÃ¤rung
Ġnoch mals
Ġmehr mals
Ġ6 7
Ġger ingen
ĠĊĠĊ ĠĊĠĊ
ĠÃĦ m
hÃ¶ fe
ĠKo ordin
ĠBef est
haupt stadt
ĠMas ken
Ġbem erk
liefer ung
ĠTir ol
) -
ĠA S
sp ital
Ġc as
Ġ8 8
Ġverl ang
Ġstatt dessen
Ġgest orben
ĊĠĠĠĠĠĠĠĠĠĠĠĠĠĠĠĠĠĠĠĠĠĠĠĠĠĠĠĠĠĠĠĠ ĠĠĠĠĠĠĠ
ĠTechn ischen
Ġcall back
ĠmÃ¶ gliche
B es
m ain
r ufen
am ik
Ġm or
ĠK ohlen
re ste
ĠV ector
ien ce
ĉĉ ĉ
Ġvor genommen
ĠOl d
ĠReich en
Ġbew eg
ĠFest ung
Sh ort
ĠVertrag s
fÃ¤h ig
spart ei
Ġschwar ze
Po inter
yg on
ĠNahr ung
Kirchen gebÃ¤ude
P at
W IT
i ak
an iker
an alyse
ĠM eld
ĠK aff
ĠF ab
ĠF inger
ĠF uchs
ĠG ross
ĠL ord
ra ph
Ġauf merksam
Ġbei der
br ig
Ġex pression
ĠAt lan
ĠMÃ¤n nern
spro gramm
Item s
ĠDef inition
ĠInf ektion
achus etts
) ).
M sg
a al
b u
ĠA gr
Ġin ne
Ġn ow
ĠL aus
Ġt olle
19 19
Ch ain
Ġ185 6
gef angen
Ġâ ļŃ
Ġsof ern
ĠAufent halt
s d
at ischen
ĠP ek
ĠSch reiben
Ġc luster
Ġ7 3
Ġgesch lagen
Ġhier fÃ¼r
eig ung
ĠBerg bau
Ġ187 6
ĠPat ri
ĠKreis es
ĠCor ps
zÃ¼ gen
Ġerk enn
ĠExp edition
ĠCentr al
Franz ose
Ġstellvertreten der
ĠNeuseel and
D elete
f euer
z ten
Ġ ord
at iver
ĠC ipher
ra f
Ġver arbeitet
ĠAn wendungen
org ungs
Un ser
ĠÃĸsterreich ischen
Ġfrei will
ĠBad minton
ĠKur fÃ¼rst
ĠRest e
ĠHen ri
Gener al
fÃ¶rm igen
hedr ale
. ",
Z entr
n ik
ĠK abel
Ġk Ã¼nst
Ġk rÃ¤f
Ġan notation
Ġwie s
ĠPro perty
enn zeichnet
ĠMar x
ĠVor stellung
Ġber aten
Ġ6 2
ip e
ĠFran ces
ĠEx ec
dienst kreuz
Ġaktiv e
ĠCor por
ĠLux emburg
ĠCarol ina
D is
V ari
Ġ est
ĠF a
ĠC ur
Ġp ut
Ã¤n glich
Ġj ust
hl on
lo gen
ĠAb wehr
ph ys
ĠQu ar
aktiv e
leist ungs
ĠKompon enten
ĠAp othe
Ġschwed ischer
Ġoption al
ĠDir igent
ĠÃĦn derung
Ġchrist lichen
ĠKapit Ã¤n
ĠgeÃ¶ff net
B ag
O B
g Ã¤ng
Ġw omit
ĠA z
ĠA le
ĠK ok
ach se
ĠN ie
ĠVer handlungen
lie gt
id es
St ation
gesch lecht
ĠSchm uck
Ġbild eten
Ġabger issen
R et
T ran
W ill
ĠS ehenswÃ¼rdigkeiten
Ã¤ uÃŁ
ĠR un
and el
Ġzu verlÃ¤ss
tel l
ĊĠĠĠĠĠĠĠĠĠĠĠĠĠĠĠĠ ĠĠĠĠĠĠ
atz e
Ġgen auso
ĠPh o
ĠHand lung
Class Name
ĠKrieg sende
bÃ¼ ro
Med ia
ĠBek annt
Ġbekannte sten
ĠRumÃ¤n ien
ĠK ast
ĠT iger
ĠV e
Ġh aus
ĠN SDAP
Ġl ive
ĠSt au
ĠSp ur
ĠAus sicht
omm un
ĠKl ang
man uel
ĠFre e
ĠDienst leistungen
abil itÃ¤t
Disk ografie
ĠGemeinder at
ĠAnzei ge
g ard
ĠS achen
ein richtungen
el be
ĠK ann
ĠF ord
ĠH ot
ĠI stanbul
eh le
ĠEin zugs
stan ces
Ġwieder holt
Ġbesch loss
stru ction
ĠRep rÃ¤sentanten
Ġ186 2
fried hof
Ġjapan ische
ĠHaup ts
aliforn ia
ĠBesatz ung
D re
Ã¼ ÃŁe
Ġg lob
rei ft
Ġp rÃ¼
ph il
Ġ0 1
mit tag
olle yball
ĠWir d
zahl t
ĠUr teil
yr am
ĠAnder e
B aden
I F
N onn
e o
m uster
en ke
an ier
re uth
ic us
ĠAn trieb
ĠEr m
sh ow
ĠKon text
ĠNeu es
ĠSe gel
ĠSen at
ĠHeer es
m utter
n orm
ð Ł
al it
Ġin to
em s
ti ment
ĠC reate
Ġver haf
ĠSp uren
mer z
ĠEin kommen
ĠSÃ¼d afrika
Ġfest gelegt
Ġstell ten
jahr e
Ġentwick elten
Auf grund
Ġid x
ĠNaturschutz gebiet
Ġstrate g
? ?
F il
P aul
ĠB utton
le un
ĠW alt
Ġdem okrat
Ġun bedingt
tel finale
ĠFl otte
ĠKon ferenz
ĠSta ates
Ein wohner
ĠGo od
ook up
ĠEle ctr
ĠHalb insel
ĠKu pfer
ĠPfer d
ĠSemin ar
ĠberÃ¼cks ichtigt
E P
Ġw Ã¤ren
ĠM iet
Ġm orgen
ĠK lin
Ġf lex
Ġge liefert
eg er
ow itz
ĠOber liga
Ġ186 3
Ã¨ s
ĠTim es
Ġpersonen bezogen
f loat
Ã ¦
ĠB enz
ĠD ass
Ġin vest
le ft
is l
tr ace
and om
ĠJ eder
ĠMit twoch
att le
ĠBr Ã¼ssel
Ġbeg renzt
buch autor
stÃ¤nd nis
ĠFer r
ĠWo od
ĠPhys iker
Ġintegr iert
ĠKolon ial
Ġlehr te
L ower
l abel
r ise
Ġi gn
ĠF assung
ĠP ack
ĠH ildes
Ġver an
yp en
rÃ¤ umen
tem p
ĠChrist us
Ġeurop Ã¤ische
abr iel
ĠDef ault
entry Set
Ġhol te
ĠThr on
ĠCre ek
V AR
b in
ĠK Ã¤
ĠH ang
ab ilit
fahr ens
ĠRo ger
Ã¡ r
ĠRep ubl
Ġ186 4
itu de
ĠKÃ¼ chen
wÃ¼r fe
ĠJac ques
olumb ia
Ġoff ens
! âĢľ
L ex
ĠW ende
ig ation
ĠSt aub
19 78
19 60
Or iginal
ĠWohn zimmer
Mod ell
Ġ186 5
Ġwichtig ste
ĠbenÃ¶ tigen
ĠTschech ien
K or
M a
d lich
Ġs end
ĠH ead
Ġsich ern
19 20
Ã¶r te
ack e
ĠZeit schriften
Ġ6 9
ĠQu ery
ĠPar allel
ĠAt trib
schau en
cy cl
ĠKind heit
ĠViel falt
ĠgÃ¼nst ig
ĠBronzemed aille
ĠA ur
ent ity
Ġr ies
bild ungen
ĠAd d
tif y
ĠFre unden
ĠBel ast
ĠMag n
Ġindividu elle
spart ner
ĠHoff nung
ĠniederlÃ¤nd ischen
ĠSchott land
n ischen
Ã ī
Ġd ella
ĠP i
Ġum gew
Ġlie ben
ĠKon serv
Ġ) ?
tif act
ĠunterstÃ¼t zte
ĠTri b
Ġgepl anten
ĠReform ation
ĠLieb es
ĠSchwier igkeiten
ĠKÃ¼nst lern
h Ã¼tte
v ey
ĠS eil
ĠR ic
ĠJ ens
ul in
Ġbe en
Ġfest ge
hol en
ement s
sport ler
eier mark
Inter val
Ġbesser e
beh Ã¶rde
ĠStil l
ĠZub ehÃ¶r
B ig
F ranzÃ¶s
m ol
al teten
Ġs um
ĠP res
ĠT am
um ul
ĠO bst
ĠU d
Ġl it
ĠIn stanz
sh ot
ĠPl us
ĠSpiel klasse
Rep ort
ĠEing abe
ĠEreig nisse
ĠPenn sylvania
a wa
f ot
ĠA uft
Ġz ogen
ver hÃ¤ltnis
ran ten
ĠGesch ichts
ĠAd vent
ĠMin i
Ġwei ÃŁe
umen ten
ĠHÃ¶he punkt
beg inn
3 00
P lay
i op
ĠD ein
ĠM essage
ĠH als
ĠSch Ã¼tzen
Ġj en
ĠPl attform
gesch ichten
ĠzurÃ¼ck gegeben
rÃ¤siden tschaft
Ġbem Ã¼
ĠAsp ekte
ĠEro ber
BÃ¼rger meister
p age
ei ra
Ġv ia
ĠB enn
Ġb undes
ĠM ig
Ġm ex
is m
ation Exception
Ġst il
ĠAus stellungs
ĠGesch windigkeit
pro blem
ĠWest ern
ĠDurch fÃ¼hrung
com pare
198 2
Ã¤mpf ung
ĠWal es
ĠSter nen
Fr ame
Abst ra
ĠHig hl
Ê ¿
Ġs itzen
ĠR as
ĠJ enn
ad s
Ġl imit
Ã¤n omen
ĠÃ¼ber zeugt
ste ckt
Ġle vel
Er n
lÃ¤ uter
klÃ¤r t
opÃ¤d ie
B us
o ter
Ġ ei
Ã¶ tt
ĠR esponse
Ġh eight
Ġr aus
scha ff
ĠAus schuss
pl Ã¤tzen
Ã¤l ter
Ã¼l ern
Ġop tim
ĠSilber medaille
ĠRein hard
Ġmittler e
ĠCollection s
ĠDoug las
p st
Ġ ep
Ġv irt
ĠK orn
ĠP av
ĠN erv
ĠO hne
ĠSp recher
Ġ" '
rit iken
ĠIm mer
ĠPl at
Ġel eg
ĠAt mosphÃ¤re
Ġgelang te
zy kl
CO L
ĠÃ¤uÃŁ erst
G ymnasium
N orm
b org
k anz
w Ã¤
Ġ1 14
ĠM ov
ĠL ock
Ġg g
ĠAb t
Ġzahl en
198 1
ĠErw Ã¤hnung
usst sein
CT ION
Ġwid mete
ĠAndr Ã©
VerÃ¶ffentlich ungen
ĠKonzer te
Nonn ull
D ay
w ahr
st einen
ĠA ccess
am burg
ĠG rim
ĠP rix
Ġf ra
Ġh ef
ak ten
Ċĉĉ Ċĉ
ĠRep ort
ĠWeiter hin
Ġerf Ã¼llen
ĠÃ¤ gyp
ĠMy th
Ġpassen de
Nov ember
D omain
ĠS yr
Ġm Ã¤ch
ĠE ver
ĠP ersÃ¶nlichkeiten
Ġf u
Ġf Ã¶rdern
ab len
se d
ing ham
ĠSt or
ĠIn putStream
Ġ" +
ath an
berg s
ĠTr ennung
Ġat om
ĠPer formance
ĠIr land
Ġletzt lich
Ġbayer ischen
ĠSynag oge
n isch
ĠK ader
Ġge laden
he ader
ĠAb stieg
ac y
ĠNord amerika
Mit tel
Ġbel iebt
ĠLeip ziger
komm ission
ĠAbstra ct
E hren
P ers
S ing
f uÃŁ
r in
Ġd st
un ken
or chester
ĠB og
ĠK ell
ĠV ill
get Attribute
rau ff
ĠQu ell
Ġausge strahlt
ĠMill ion
ĠEng ine
Ġherv orge
FI X
loc al
Ġerheb lich
ĠSpec ial
k ons
an ik
ĠD istr
ĠF ire
ĠC oll
Ġc ontainer
Ġbest ehend
zy linder
TI ME
! =
Ã¶ te
Ġt ot
wei chen
aus geber
20 21
ph y
Ġgef angen
Ġkon f
ĠBi ografie
ĠRez ept
B ek
I hr
L uft
L INE
f eier
Ã¤ le
em eister
ĠL et
ĠC alifornia
Ġ18 30
ĠPro t
Ġgew id
Ġ8 4
EN D
ĠMag az
ĊĠĠĠĠĠĠĠĠĠĠĠĠĠĠĠĠĠĠĠĠĠĠĠĠĠĠĠĠĠĠĠĠĠĠĠĠĠĠĠĠĠĠĠĠĠĠĠĠ ĠĠĠĠĠĠĠĠĠĠĠĠĠĠĠĠ
Ġstaat lichen
ĠVort eile
verstÃ¤nd lich
Ġbeeinfl usst
D okument
O ff
j amin
u hen
w ur
ĠM ike
ĠP ac
ĠL uther
us ste
Ġl agen
19 25
zahl ung
Fernseh film
Ġregion alen
Ġausgew Ã¤hlt
Ġcomm and
Ġbeob achtet
mir al
F S
M erk
c ontainer
ĠA cht
ĠD ick
ĠV iet
ĠCh urch
Ġ0 4
Ġeinge st
ĠUr sprung
ĠRep ar
ĠAu ge
ĠDisk ussion
E p
E ishockey
G H
S im
Ġb Ã¼rger
ĠK reu
ĠH D
ĠZ wer
id d
ĠMar io
Ġ9 6
fÃ¼hr ungen
ost a
ĠSchw imm
ĠVolks zÃ¤hlung
ĠBischof s
ĠRed aktion
Ġinform iert
ĠArm y
Ġperf ekte
ĠNav y
ĠGemark ung
s ite
an ts
ĠS I
ĠS amen
ĠK alender
ĠH Ã¤nde
ĠL eu
ĠC op
id x
ok u
ĠBet reiber
ĠSol o
best and
Ġumfang reiche
ĠGreg or
A ktu
h ou
Ġv ierte
ĠE cke
ĠP okal
ĠH ong
re ck
ĠV ul
ro ck
og a
19 30
In formation
Ġbest immen
ĠMen gen
ade d
ĠWar schau
Ġrel ev
197 2
ĠKind es
ĠViz ep
Ġerinn ern
ĠverlÃ¤nger t
K lass
L AN
P P
R S
U s
ĠM alt
ĠM Ã¼hlen
Ġein erseits
ĠL ange
Ġge arbeitet
Ġaus gewiesen
ed o
ĠEr ic
Ġ3 000
ĠSpiel s
lau ch
ĠChr on
Ġgel ingt
ĠCo ver
ĠWie sen
Ġvertr ieben
ĠWach stum
r ollen
s em
t ax
st eile
el y
ĠD J
per iode
ht ml
Sch iff
bo ot
Ã¶m m
ĠJohn son
ategor ie
ĠRen aissance
Ġbevor zu
v org
Ġf Ã¤hrt
ĠV alue
Ġl abel
Ġa fter
ĠMit arbeitern
Ã¤hr ungs
ĠNach kommen
Ġbet reibt
alis ierte
Ġern st
Ġkon stru
ÃŃ o
ĠSchiff s
Dec imal
Ġrest aur
ĠÃ¶ k
k orea
ein richtung
ĠK rei
ĠG or
ĠR ac
ĠN ich
Ġdes selben
Ġbe zogen
19 34
ĠJugend lichen
orth odox
Ġschwier ig
ĠOh io
b ist
b lau
c ache
n ur
ĠW inkel
ir chen
Ġge pf
eg ate
op le
rÃ¤ der
ant on
per imen
Ġpro tected
ĠEx istenz
ĠBe at
ĠAut os
Ġcon f
let on
ĠBot schaft
Ph one
Ġleich ter
ĠUrs ache
ĠPubl ish
ĠAlf ons
T hr
v oc
w idth
ein satz
ĠB ug
ĠB uck
ĠK av
ĠG allen
om on
ri p
ens ive
Ġres ults
ĠAss istent
Ġerziel en
ĠBud apest
ĠSym pt
u v
ĠA T
Ġin tern
ĠEr hebung
Ġher e
Ġ' "
sw itch
197 4
Ġus ed
ĠMotor rad
ĠHei de
ĠForsch ungen
Ġproduz ierte
Ġdiver sen
F ebruar
S ol
Ġn a
ĠG lobal
Ġver lei
tion en
ate way
ant es
Ġar gentin
ĠLandkreis es
leist et
ĠHerzog tum
ĠStrei fen
ĠKath arina
S aison
l ige
ĠA ar
ĠP last
ĠW itt
ĠL ED
tr ieben
lich ten
Ġge kauft
ist a
19 00
ĠAb b
ĠProdu kten
ĠNorm al
ĠEber hard
Ġuntersch rieb
h ain
Ġein gebaut
ĠT s
ĠL Ã¼n
ĠEin tr
Ġ" .
ĠLand rat
ens ure
Ġ9 00
An fang
Ġnun mehr
Ġ185 8
ĠVerbr eit
ĠSamm el
Sec urity
ĠBiele feld
Ġverhaf tet
K ar
z usammen
ion al
Ġver sen
ĠU E
ĠIn haber
Ġc ir
ator in
ĠBl u
stra fe
ĠJan eiro
eid ung
ĠVerb raucher
Ġfest gestellt
197 9
ĠstÃ¤d tischen
ĠBundesver dienstkreuz
ĠFound ation
Abstra ct
M Ã¶
ĠF red
ĠR ektor
ro hr
Ġst yle
Ġr umÃ¤n
ĠGeb Ã¤udes
kl ar
ĠAt hlet
hol ung
verb indungen
ĠRÃ¼ck tritt
ĠRegion alliga
Ġinter pret
ĠKo hle
ĠWinter spiele
ĠElektr o
the ater
Ġposit ive
ĠStock holm
R ev
R hein
b ell
Ġs auber
ĠB ibliothe
Ġm obil
ĠF eier
ĠF okus
ĠL orenz
Ġk Ã¼ndigte
wei he
ĠSp enden
19 36
ak on
qu ote
if ier
ĠSo ft
ĠMed ik
ĠSystem e
ĠGrÃ¼n de
ĠStat istik
ĠInf os
J a
n acht
p unkten
r d
Î ±
ĠF erner
ĠL A
Ġver folgt
ĠÃ¼ber zeugen
qu ellen
qu alif
ĠAus stellungen
fl Ã¼sse
Ġdar stellen
Ġ8 7
ĠEx il
Ġzusammen gef
Ġall gemeine
ĠBew erb
Ġinner en
Exec utor
ĠJack son
Ġged acht
Ġengag ierte
D am
M D
S w
V ideo
en ken
Ġn Ã¤chst
ĠZ war
Ã¤hr en
St a
ĠThe at
Ġ7 00
ĠKomm andeur
Ġbedeuten de
ĠRuh estand
i ologie
ĠB urn
as ure
Ġf f
ag ing
ĠÃ¼ber gebenen
19 21
ĠLand gemeinde
ĠSpiel ern
trÃ¤ glich
Ġaktu elles
ĠSitz e
ĠRest aur
plan ung
ĠWes entlichen
ĠKab inett
ĠViertel finale
Ġhochwer tige
spez if
: "
O UT
z iel
al u
ĠC ent
Ġp oten
ens is
verb Ã¤nde
ĠCar los
ĠProv inzen
ĠKirchen gemeinde
Ġak zep
ĠDek or
Ġstaat liche
D etails
V E
Ġ $
ĠS ektion
at sch
ĠW asch
Ġk ommerz
ver Ã¶ffentlich
ĠAn meldung
19 28
Ġth an
ĠPr int
ĠMan uel
Ġbeh err
By Comparator
ĠerklÃ¤r en
Ġkompl ette
Ġsorg te
elemen te
Sow jet
F ra
N etwork
R C
ĠP os
ab els
ist ics
Ġt our
ĠVer folgung
Ġaus geschlossen
nen nung
19 26
19 27
br unnen
ĠTr ink
ĠHoch stift
ĠHaus halts
arch itektur
196 3
196 8
197 5
SC O
Le ft
kan al
ĠmilitÃ¤r ische
Ġdeb Ã¼
B Ã¼
B atch
I A
J ugend
P AT
f amilien
Ġ append
ĠS om
ĠM inn
Ġm ain
ĠF Ã¤r
ĠE D
ĠP osten
ĠL okal
Ġer for
zen s
gel Ã¤nde
Ã¤d t
Ġch ron
Ġverwend eten
197 6
ĠKont akte
anstalt ungs
UN D
ĠÃ¤hn liche
ĠPreuÃŁ ischen
Ġindividu ellen
Ġausgeb ildet
ĠVoraus setzungen
tiller ie
J ohn
K ur
o ice
Ġd on
sch lossen
ĠG ep
ĠL och
ier bar
Ã¶n e
ev or
Con troller
Ġ8 9
Er zeugt
ĠBo oks
ĠBundes regierung
ĠFor scher
stit u
Ġaufge geben
ĠTre e
ĠFel der
ĠCharl otte
sph ase
ĠMul ticast
Ġoper ation
ĠHauptr olle
tok oll
C or
v ia
z esse
he x
Ġbe geg
Ġbe zÃ¼glich
ĠGem Ã¼se
Ver b
Ver tex
isten ce
Ġerfolg ten
Ġ185 9
ĠStruktur en
ĠWerb ung
Ġehren amt
S pl
U l
s ql
ĠM ilit
ĠW ater
ĠT iefe
Ġg aben
auf lÃ¶sung
ip edia
fahr zeuge
An notations
pro p
ĠNeu zeit
ĠEurop e
Res ults
ĠFranz osen
ĠKat zen
di mension
Ġoffen e
ĠMer cedes
Per mission
ĠRegierungs bezirk
ĠHash Set
ĠnÃ¶ tig
ĠInstitution en
1 20
J e
S am
ĠS ession
ĠD etail
ĠC olumbia
pl es
Ġander erseits
ĠFrei will
ĠWor ksh
ĠGo ethe
system e
Ġstar tet
ĠGesetz es
Ġchines ische
h us
an es
an ti
ar ren
ge stellten
Ġb ound
ĠM Ã¼ndung
Ã¶ ger
ig ion
19 29
ĠOr th
ĠStadt gebiet
Ã¼t tel
Ġseit her
Ġeigen stÃ¤ndige
ĠEl s
Ġeinge gliedert
film ung
des ign
ĠJe ff
ĠEmpf eh
Ele ktr
R ender
c us
Ġ ).
ĠN ad
ĠC y
ĠZ eile
ver gleich
ĠVer stÃ¤ndnis
ed s
19 31
Ġis lam
riter ia
Group s
197 1
Ġresource GroupName
ĠÃ¼bern immt
fÃ¶rm ige
Ġpassen den
ĠGit arr
ĠVictor ia
ĠPeters burg
* (
C K
S ER
b le
g Ã¤
in stance
el f
ĠA cker
ĠT an
ber atung
ĠN est
ĠSch atz
eh er
ĠSp ark
19 40
19 22
gesch icht
ĠChr onik
over n
lehn ung
ĠEh emann
R und
m all
t licher
w enn
ĠM asse
Ġm ath
ĠF usion
Ġer mord
Ġt oll
Ġent decken
Ġ7 7
ĠSchw estern
ĠBel ager
Ġ180 3
ĠHar z
Ġfinanz iellen
Ã¤chs ische
offiz ier
ĠOpp osition
G egen
sch lagen
ich en
ĠM eilen
ĠF A
uch er
Ġvor kommen
ition en
Ġ% )
Des c
ĠfrÃ¼her e
ĠAndre a
ĠverfÃ¼ gte
pfl anz
ĠVik tor
ĠTay lor
F rÃ¼
H ans
l ik
st eig
ĠA y
ĠD al
ver leihung
Ġbei gesetzt
19 23
ĠVor les
ĠKon stantin
Ġ9 8
Ġth emat
ĠPart ie
Ġgef Ã¶rdert
omb ard
ompl et
ehm igung
Ehr ungen
Ġstru ktur
Rez eption
ĠHolly wood
S ION
W rite
ĠK etten
Ġf eiern
ĠR olf
ber ater
ĠO berg
ĠVer ordnung
iz en
af eln
ace ae
Ġgut es
ĠKrÃ¤ fte
Ġkauf te
ĠAuseinander setzung
ĠLew is
" ),
sch les
Ġw Ã¤chst
ĠA tt
ĠP y
Ġf ehl
ĠĊ ĊĠ
eid et
Ġverb inden
chn ik
ĠBÃ¶ hmen
ÅĤ aw
C S
O ne
T ube
ĠB ast
ĠH us
ĠW arn
re z
ĠV eg
ben e
19 32
pro ject
ĠauÃŁer gewÃ¶hn
ontin ental
ĠHu bert
ĠDek an
Ġmaxim ale
Ġdenk mal
p rev
te in
ar isch
it as
ĠB MW
le fon
ĠO ran
ce p
ĠEr be
im age
In f
eren ces
pro perties
ren ten
Ġ7 6
Id x
such t
ĠAk k
Ġgewann en
ĠBesch luss
Event s
ĠJur y
ĠJer sey
ĠMot to
Ġfung ierte
B und
c onnection
l is
s sen
ĠD un
ĠG abriel
ĠE i
Ġj o
ĠRech nung
ĠCon rad
Ġerreich bar
ĠTer ritor
197 3
etr ics
di ent
ĠzusÃ¤tz lichen
ĠFass ade
Ġbegeist ert
S K
a ft
e ep
m inal
un ks
ĠB ut
ĠR ober
ber ge
ĠJ Ã¶rg
ĠC er
rie den
ĠSp ace
ok er
Ġthe oret
sk o
sk on
ĠVers ionen
lu ste
ĠGen e
ĠNap ole
ĠOrchest ra
k ind
ĠS lowakei
et ische
ro d
Ġk ar
Ġan alys
ĠZ ertif
19 11
Ã¶r er
Ã¤r m
Ġre form
Tra iner
Ġhei ÃŁen
ĠRef erenz
ĠKin os
ĠSied lungs
eta ill
ĠWahr heit
ĠAnti ke
ĠFrem d
ĠRett ungs
ĠBÃ¼nd nis
M IN
Ð »
ĠS qu
ur gen
et tet
ĠD ocument
Ġein gemein
Ġn utzt
ĠR av
il ch
re b
Ġl ink
qu ert
ĠKon stanz
ĠBet roffen
Ġschn elle
ĠGÃ¶ t
Ġinstall iert
WIT H
M AT
S l
V ier
i ang
er z
an ter
sch ild
ĠM atch
Ġin kl
ĠG ong
ĠG lÃ¤
ti als
Ã¼r mer
eh me
Ã¤t tern
ĠPro ject
if ikation
pr es
pro zess
tik a
ĠOlymp ia
ĠÃ¶ff nen
ĠbeschÃ¤f tigte
ĠJes us
gesp ielt
Ġnutz te
Ġmensch lichen
c or
s rc
te ste
ar ag
ĠB Ã¤
ĠF unde
ten nis
ĠE sp
ed el
ingen d
190 1
ĠEv a
Lo ad
ĠVorsitzen de
Bound s
Kurz film
Ġeindeu tig
rauff Ã¼hrung
A rea
l Ã¼ck
le vel
ĠSch al
amm ad
ĠFl ora
ĠzurÃ¼ck kehr
Ver walt
ĠBet reuung
ipp i
196 2
ĠErw art
ĠLau b
agn ose
isc ount
eucht ung
ilen ame
ontinu ier
ĠplÃ¶tz lich
P rÃ¤sident
S Ã¤nger
x id
Å Ľ
à ¸
Ġd auert
st het
Ġs ame
ĠR up
Ġauf gel
ehr ung
Ġab w
if orm
ov ed
tem peratur
ens us
An gabe
Ġ7 4
ute te
ail and
ĠNeu er
Ġgef Ã¤r
Ġu kra
ĠWohn ungen
Reg ie
ĠGen f
ĠGeneral major
ĠSÃ¼ ÃŁ
ĠgrÃ¶ÃŁten teils
ĠChamp ions
ĠstÃ¤r k
ĠServ ices
Ġfe ature
Ġleist ungs
L aut
P ad
m achen
n ten
ein kommen
ĠM B
ĠF els
eb au
ĠSt ufen
ĠJahr buch
ĠAb lauf
Ġlie ber
mit ive
ĠMus ical
Ar gs
Ġverb lieben
ĠTr ump
Ġeinge laden
ĠInter pret
Ġ185 4
ĠBed ien
ĠFreund schaft
Ã¤um t
ĠCap t
ĠTemperatur en
ĠErl angen
Ġniedr ig
R ows
s orge
ĠB ean
Ġge g
Ġan grenzen
Ġl Ã¤nd
ĠAn bau
Ġbe ant
ĠTr end
ĠInd ividu
ĠÃĦ l
ĠTre ff
ĠÃ¼b lichen
ĠDel eg
kathol ische
Hinter grund
ĠDistr ict
Ġder selben
it tel
ĠB od
ĠW omen
Ġge plan
ĠZ e
etz e
Ġ18 45
ant ast
ĠKon sol
En tries
ĠGesch lecht
Ġ8 1
res ources
ĠBo hr
schl Ã¼ssel
schl Ã¼sse
tik eln
aj ew
ĠParis er
Ġfort an
Ġevangel ische
ĠStreit krÃ¤fte
ĠSchne e
ĠBeweg ungs
cycl op
A ch
M al
N ummer
S eite
U UID
b egr
Ġ1 17
em pty
ĠH unde
Ġer ober
ĠI tem
Ġden ken
ver halten
ert ungen
omm el
spr achen
zeu ger
ĠRe ad
Ġkon serv
ĠSal v
hÃ¶ hung
LE T
Ġerz ielt
ĠGed icht
Per iod
ĠVerl Ã¤ngerung
kathol ischen
Ġpoln ischer
Hash Map
ĠjÃ¼nger en
ĠPubl iz
ĠReserv e
urren cy
b reite
s in
u ht
ĠD sch
ĠW itten
Ġer leich
ĠC ab
Ġa ct
als ieger
ĠBo y
Ġeigen tliche
Ġeigen tlichen
str Ã¶m
ĠCentr e
j u
m i
m essen
o ÃŁen
w ender
ĠS A
et ik
ĠN ep
ir a
Ġauf geteilt
ex ception
arb on
ok raten
ĠUnter schiede
ĠGew inner
Ġgeb unden
ĠLehr stuhl
ĠAll gemeine
197 7
Ġempf angen
ĠVal id
ĠdebÃ¼ tierte
K ilometer
c enter
e te
m Ã¤r
t ask
} .
am ann
ĠH at
ĠW y
ĠR och
and ten
ĠN utzen
ĠJ ar
ĠSch enk
dr om
Ġex tra
Ġ7 9
Sch on
bo urg
geord nete
Ġverst eht
Ġ185 2
ĠInner en
kÃ¼nf te
P ack
U RE
d ichte
f Ã¶rderung
ĠM eine
ti le
tr Ã¤ch
Ġo s
Ġl eiten
Ġst eigt
19 24
Ġges ichert
ĠAd ministr
ign ment
ĠBet racht
bl Ã¼
ĠSh ort
ĠOst preuÃŁen
ĠRu der
ĠStim m
ĠSmartph one
Ġumgew andelt
I st
d on
ge mÃ¤ÃŁ
ĠA D
ĠA TP
ĠB orn
as ks
ĠF eu
ĠT ieren
ĠIn se
ĠUn der
aus stattung
Ġvor n
gesch Ã¼tz
olog ical
ĠSÃ¼d tir
halt ungs
ĠSa arb
ĠKaiser reich
ĠZust immung
Ġpoln ische
ĠHan se
ĠSec urity
Ġengag iert
sprÃ¼ che
ĠDemokrat ischen
Ġverh indert
quen zen
R ennen
o zi
z ucht
Î ¿
au ben
ge halt
Ġer b
Ġh l
Ġge leitet
Ġge zwungen
ĠSch Ã¼lern
19 10
ĠPl Ã¤nen
Ġch annel
enden t
Ġeh emals
ĠHoch wasser
oph on
Ġ185 7
Ġ180 6
ĠStraÃŁen bahn
ĠDres dner
Ġland es
B ook
J J
k ins
ar p
ĠP ic
ĠL eich
ĠV W
se Exception
ges prÃ¤
Ġber ichtete
Ġgen utz
dig er
ata illon
Ġ13 0
ĠOber Ã¶sterreich
man ischen
ĠHand y
ĠAll ein
196 7
kn own
Ġfr isch
Frau en
Ġfinanz ielle
ĠEntscheid ungen
Ġevangel isch
ĠMÃ¤r chen
ĠGlauben s
Pass word
A tt
E v
s se
ra hmen
ist et
ĠSch Ã¤d
Ġaus gel
Ġunter schieden
ac c
Ġbest er
-- ;
Ġen ger
ĠFrei stil
Ġkon zip
ĠSeit dem
Ġbed ient
Ġgener ate
wander ung
Nam espace
Ġgaran tiert
ĠValle y
Mart in
H A
S til
V O
ï ¼
Ġd t
Ġver zeichnet
Ġl Ã¶sen
ic i
sp or
kl assen
res erv
Ġausge stellt
hof er
ĠAk te
rim inal
196 9
Ġnie mand
laub nis
Ġgek ennzeichnet
Ġrei ste
stÃ¤r ke
SH A
ĠArgentin ien
D enk
R equ
Ġb ody
Ġm en
ĠG ol
om os
ĠN i
Ġman chen
Ġ9 2
pro fil
Sie ger
Ġeinge weiht
arbeit ungs
Ġgem Ã¼t
ĠKommun ikations
ĠSyn th
part ei
Ġinteress iert
ĠpreuÃŁ ischer
ĠBeam ten
Ġmittelalter lichen
L ie
P rÃ¼
l och
ch i
an os
ge wer
ĠB ald
ĠH ed
ĠH Ã¤ndler
ĠN ag
Con verter
Ġbeg rÃ¼
Ã¤tig ung
euer ung
sta ats
aur us
lÃ¤nd ischer
Ġhinzu gefÃ¼gt
ĠBon us
ĠRelig ions
ĠZuf luss
ĠSkla ven
ĠKaff ee
I O
d ay
k Ã¶pf
t Ã¤u
Ä ħ
or o
Ġs upp
ĠP ak
Ġf rag
is her
ĠSt ufe
od on
Ġ18 20
19 43
ac o
ac ity
param eter
ĠBand s
Ġ185 3
ĠViz emeister
Ġmusikal ische
Ġgewid met
1 10
B enz
C LASS
H il
k ont
on omen
Ġv ol
ĠK ompl
ĠR oland
Ġer wer
Ġh art
Ġsch ul
ru le
ok ol
if iers
per rt
lem ens
Ã¶s ser
ĠPar tien
ĠFor ce
Ã¤m pft
Ã¼b ung
Stand ard
ĠAnge hÃ¶rigen
Ġbezie hen
Ġqualif izierte
ĠHon or
Ġabgeb rochen
ĠHildes heim
A ber
C ertificate
T ool
h ammer
z ule
ĠL ichten
ĠMa ÃŁe
Ġis ol
sg ruppe
Ġben utzen
ograf ische
ĠLie ben
ĠBen jamin
196 6
190 8
ĠDav is
ĠBef rei
Ġangeb lich
ĠAust ria
ĠÃ¶rt lichen
ĠBoch um
ĠPek ing
A lias
F low
V iele
k reise
er ing
ĠA sh
ĠF an
ĠG ieÃŁen
ĠH ert
ĠH aw
ĠT Ã¤ter
ĠC ann
ler in
ec tive
ĠCh a
ock e
Ġe ffiz
ĠMich igan
ĠDienst ag
bÃ¼ hne
ĠGre at
Mill ionen
ĠprÃ¤sen tieren
Ġtime out
Ġumfassen de
ĠLux us
ĠWit we
D oppel
D isplay
S L
g han
ĠF uss
ĠG umm
Ġauf s
ver kauf
Ġunter teilt
agen tur
ĠSpiel film
ze ption
Sch we
IN TER
ĠÃľber leben
ĠBe weis
grÃ¼n den
ĠLink ed
ĠSchlaf zimmer
******** ********
ĠJed och
ĠPast or
h Ã¤nge
m Ã¤nn
am o
ĠF ont
Ġk ontinuier
Ġo pen
19 13
19 42
ĠAr zn
Ġ3 50
ĠEn kel
Ġ7 1
res h
min a
vor stand
Ġhin sichtlich
Ġbesch rieb
ĠChrist i
wirtschaft s
Ġoft mals
ĠAustr al
Arch itektur
Bundes liga
ĠtÃ¼rk ischen
ĠSQL Exception
Strate gy
ĠSekret Ã¤r
E B
ĠS G
ĠA er
ĠR eh
ad i
ĠVer st
ĠAn walt
ang o
Ġsch lÃ¤
Ġvor Ã¼ber
Ã© d
Pro p
Ã¶st liche
wohn ung
ĠWil son
ĠDi am
196 5
ĠFrÃ¼h stÃ¼ck
EL D
ĠlÃ¤nger e
Ġregistr iert
C R
j son
Ġ att
un er
at tribute
Ġw ann
Ġauf einander
Ġver mitteln
Ġ18 18
Ġ18 47
ĠPro test
ĠVor stellungen
Sch utz
ott om
ĠSan ierung
ĠVolks republik
190 5
rÃ¤n kungen
system s
rue ft
ĠBam berg
B ern
n ommen
Ġd icht
ĠS ech
ĠL ohn
ĠAn satz
im o
Ġsie gte
ord nen
St orage
zeit lich
ĠBau ten
ĠBet eil
ĠKn ow
ias ieger
fest ival
Welt meister
ĠTrau er
ĠBestell ung
ĠIdent itÃ¤t
ĠUE FA
C oun
ĠS yl
ich e
Ġb ran
ĠD own
ĠH ut
ĠW ick
ĠL ittle
ĠN ev
ĠVer leger
Ġst arben
ĠIm per
Ġ7 8
ograph ischen
deut scher
ĠSk y
Ġbew egt
ĠWer ft
ĠHistor ic
ĠEt appe
ĠPrem iere
Ġexp ected
Fol der
Cl ub
ĠSn ow
Ġfal sch
A ir
I B
L ud
M ont
P okal
r Ã¶
ĠR auch
ĠJ im
Ġge p
enn zeichen
ĠFl ach
br Ã¼ck
ian s
Ġbef Ã¼r
Er stellt
ĠUnivers al
ĠSte ink
ĠEx port
ĠMann es
Ġger inge
ĠCon f
Time Millis
Ġ185 1
Ã¼ndig ung
ĠTschech os
Vol ks
Ġbedeutend sten
Ġbestell t
K Ã¼nstler
c olor
r ichtete
st ore
an ch
ĠS K
Ġs eiten
am ts
ĠP ool
ĠH alt
ĠH arm
ĠT oren
ĠIn halts
ri o
op ol
ehr en
Ġab ges
Ġ" ";
Ġ5 000
be an
ĠGesch w
ĠLe er
ĠZw angs
Ġbesonder er
ĠauÃŁer orden
čĊ čĊĉ
196 4
ĠMitte le
itu ationen
ĠComm on
ĠTe ppich
ĠMass achusetts
Ġrest lichen
ĠWeil er
ĠKult urg
N etz
b ury
g Ã¤u
ĠK leid
ĠW ettbew
ĠL ade
re de
ĠN umber
Ġauf w
ĠZ eilen
ĠZ DF
Ex pr
(" /
Ġgew isse
Ġ9 7
dig te
Pro gress
kon ferenz
figur en
Ġverm utet
Ġ185 5
ĠEigen tum
by tes
ĠSw iss
Hol der
ĠAud io
ĠDigit al
Ġarch Ã¤
ĠSym ph
ĠmaÃŁ geblich
C re
P N
T urnier
k ter
ĠP rÃ¤sidentschaft
Ġer o
ĠZ Ã¤hne
ĠBer at
Ã¶l be
ĠJul ia
ĠMin dest
Ã¤m m
ĠKinder garten
Ġsicher te
kor ean
zub auen
nehm ern
ĠDro gen
ĠRestau rants
Ġprev ious
R ing
el and
is hed
ĠH altung
ĠR ÃŃo
ach ment
Ġh e
ĠJ Ã¼d
Ġc tx
Ġj eg
Ġsp anische
off er
Mit te
ĠSÃ¼d ost
rid Bag
Ġaufge hoben
produ kte
Pl ugin
Ġerr ichteten
ĊĠĠĠĠ ĊĠĠĠ
CON T
ĠFranzÃ¶s isch
ĠExempl are
erkl Ã¤rung
" -
f ache
Ġ Ã¤nderte
ĠD est
ĠE valu
tr act
ĠZ iegel
19 50
amen te
eck er
ĠSte phen
Ã¤uf e
ele ted
ĠBi ographie
ĠBeh and
ĠTro cken
beh alten
Ġvers orgt
ĠKre bs
Ġleich te
================ ================
Ġzug unsten
Ã¤rt ner
Ġf ix
Ġer lebte
ĠV II
ĠC af
ĠU til
Ġp df
lin ois
ĠAl i
hl eten
Con stant
Qu elle
anst alter
ĠGold medaille
ĠMinister ium
AS K
ĠSand stein
Gener ator
ĠSamm lungen
j Ã¤ger
Ġ 00
Ġ ener
al ts
ĠF unc
ĠH Ã¤
ĠH af
ĠJ Ã¼n
Ġl aden
ĠIn c
ĠPro perties
Ã¤l le
ĠLand gericht
stein er
ĠHaus halt
ĠZwei g
ĠmÃ¼s se
ĠFort setzung
ĠChem iker
Ġkrit isiert
Ac tive
Ġopti mal
Ġspezial isiert
ĠInternets eite
ĠTO DO
ĠSyd ney
l Ã¤ndern
Ã ¯
ĠD ob
ĠC ass
Ġge test
Ġl eiden
Ġst et
og ramm
19 46
ĠSie ge
Ġlie be
ock el
Ġgen auer
Ġ16 0
Ġ8 3
ĠzurÃ¼ck zu
Ġgesch ickt
ĠStud ies
ĠWohn ungs
ĠBro ad
Sh ow
Ġlok ale
ĠLokomo tiven
ĠSchicks al
K rieg
M T
ĠS ag
ur ist
ĠB Ã¤r
et wa
ĠF ett
ĠP L
ti a
ĠC la
19 12
lo yd
Ġre port
ĠNach frage
ĠFl orenz
ren ce
ĠBild schirm
hand els
Ġind ustr
gesetz es
Arch Ã¤
ĠMisch ung
ĠStÃ¤r ke
Mich ael
Ġgg f
I R
k inder
s Ã¤
Â §
ĠM ahl
ĠP est
ĠT ib
Ġbis schen
19 41
ian er
off s
rich tet
code d
ĠDist anz
angeb ote
ĠSat tel
ĠOk res
ĠLad y
Ġiden tisch
ĠFranÃ§ ois
M G
ã ĥ
ĠS id
or er
is pr
ĠR ey
urn ee
Ġbest ellen
Ġber echnet
sb ek
Ġhin weg
Ã¤m mer
ĠDurch schnitt
RE AD
ins eln
Date Time
ĠJournal isten
ĠFal ken
ĠSign al
ĠmÃ¤nn lichen
ĠTown ship
Servlet Request
ĠAnth ony
Ġzusammengef asst
F ont
R eich
f ix
k Ã¤mpfe
en os
au ft
Ã¼ sten
ĠB ag
ĠE R
Ġvon einander
ĠSch u
Ġst ore
eg g
ug ger
stell ern
Ġtr afen
ĠCh art
Pro tocol
imm ern
gew Ã¤ch
ĠOber bÃ¼rgermeister
Class Loader
ask a
ĠPrÃ¤ fekt
krÃ¤ ften
ĠBlÃ¼ te
## ##
L eicht
M ein
u cc
ĠVer anstaltungs
Ġc ur
rie t
Ġsch ema
ĠVor schlag
Un ternehmer
Ġange ordnet
hand elt
geord neten
Option al
ĠSing les
Ġzeig ten
verl ust
? )
C opy
F in
F ach
M as
i Ã¨re
k rie
en hagen
ĠF aktoren
ĠL enk
om aten
se arch
ĠC arr
ent z
ĠU rauffÃ¼hrung
ĠSch alt
Ġr ichtet
ĠEr stellung
ĠAr ena
her stellung
lei tete
ĠKl ar
ober flÃ¤che
Ġbek annter
Ġdrei mal
ĠHand lungs
ĠPr inc
ĠNord west
kur renten
ĠMem or
ĠJahrzehn te
ĠCoun try
ĠBuffer ed
F amilien
T urn
Ġ tim
ar mee
Ġs ang
Ã¤ pst
ĠH Ã¤usern
ĠT able
Ġp Content
ĠVer leihung
ĠAn ders
19 44
Class es
fÃ¤l lt
ĠHil f
ĠBund esp
ĠVorsitzen den
ĠPrinz essin
stÃ¤d ter
gefÃ¼ hl
Top ic
ĠTats ache
ĠBegeg nung
b ayern
f ranken
Ġ egal
st al
Ġs ilber
ĠD ecken
ĠG ul
ĠT ask
se h
ad bach
Ġl ib
ĠAus bruch
ĠOr ien
ĠMar co
schen den
add ing
ĠPar ks
Ġausge st
ĠChrist op
figur ations
gehen de
ĠSchwer in
ĠFinanz ierung
Ġra sch
stud ien
ĠMot oren
ĠKomment are
Ġzeich net
ĠÃĦm ter
i qu
Ã¤ ub
ĠK h
ĠF air
ĠG am
ĠG reif
lie gende
auf lage
enn er
ĠDeutsch es
Ar g
Ġres ul
ĠSaison ende
ari at
ĠBas il
ĠMeister titel
evel op
Ġregion ale
wach ung
Ġren ov
ĠProz esse
ĠClaud ia
ĠDokumen te
F eld
L uther
O UR
h Ã¶ch
l Ã¶sen
s inn
u ge
Ġb reiter
Ġm erk
ĠK und
ĠT um
Ġver teidig
ic ations
ĠVer stÃ¤r
Ġunter nahm
St ad
Ġausge prÃ¤
Ġhand eln
ĠTem p
Rep ository
mut able
exp ected
ĠPassag iere
Ġerkenn bar
m os
y o
au e
or b
ur st
it ischen
ĠT auf
ut down
ro h
Ġauf weisen
ĠSt eiermark
ĠIn t
19 37
Ġvor s
ĠCh ines
Ã© b
Con dition
En coding
ĠVerein ten
ĠCon trol
ĠSchul d
othe k
ĠWor ten
sei tige
ĠFranc is
ĠFrÃ¼hl ing
+ -
K ritik
L ehr
T ab
s Ã¼d
v i
ĠF ox
ach ing
and in
Ġk r
ul o
Ġauf nehmen
ĠEr nennung
pf alz
spr icht
Ġ8 6
anis mus
ĠMittel feld
AR N
ĠHar ald
ĠStad trat
Ġgez Ã¤hlt
ĠkÃ¼ mm
ĠCorn el
prof essor
ĠDiÃ¶z ese
A f
B Y
er a
ge gangen
em m
ĠN Ã¶rd
ern t
ĠÃ¼ber liefert
ru der
Ġab s
ĠBer ger
List en
ou v
Ġgef eiert
Map per
ĠÃĦ uÃŁ
Ġat tributes
ĠGel ehr
Ġabsol ut
Ġverlie f
Ġerg ab
ĠEntwick lungen
Ġfiel en
Ġdigit alen
track ing
ĠSoph ie
F uÃŁ
Ġs amt
Ġ1 13
ti ker
ĠAr rays
ĠAb sol
mittel alter
ĠMo z
SS R
196 1
Ã¨ res
Ġentfern en
Ġnorm alen
ĠAnd roid
Final e
Lang uage
C lau
F Ã¼gt
O W
W olf
at io
ĠK ent
ĠP ier
ir r
18 90
Ã¤l lig
Ġ8 2
ĠSte ve
Ġ14 0
str asse
Ġgest altete
Ġro te
tic s
195 9
ĠTri o
Vor pommern
rist all
End point
Ġren omm
B ud
K ind
T el
c onn
sch rau
it ation
ĠL av
wei ger
get Resource
ĠEin zug
Ã© g
ĠMus een
kl ang
ond itions
ĠList en
ĠEl iz
ipp e
west lichen
ook ie
Fac tor
ĠKonz ern
euch ten
ĠPil oten
resource GroupName
ĠVorder grund
Techn ik
Ġweib lichen
Ġdurchschnitt lich
dis ziplin
Ġverurs acht
Ġgeplan te
f angen
s ort
s ieg
ĠA riz
ĠN au
ĠIn valid
esch ichte
ĠEr lebnis
ate l
Un garn
rÃ¤s id
Ġqu er
zentr en
ĠStaats anwalt
190 9
beh Ã¶rden
Ġloc ale
Ġmon at
Ġqualif iziert
adel ph
ĠDemokrat ie
ĠFantas y
ĠFit ness
n ische
ĠA hm
Ġ1 12
ĠF unction
ĠH amm
ĠI wan
ĠV ieh
Ġr Ã¤um
op ran
ĠSp alte
ĠStr ahl
lo ym
ĠPr ince
ĠGrund schule
ĠVerb indungs
ĠOn lin
Ġunterschied licher
ĠAp i
klass igen
Stack Trace
ĠErzÃ¤hl ungen
wh ile
E V
M at
p ri
u den
z elt
Ġ ðŁ
ei fen
ĠS ehr
al in
Ġs in
Ġk lin
Ġt ut
get X
Ġ18 35
19 35
ĠAus grab
pl omat
ĠBe arbeitung
Ġx ml
Ġstehen den
195 2
ĠHeimat stadt
Char acter
ĠerhÃ¶ hen
IV E
Ġumfang reich
Ob wohl
ĠWett kampf
ĠBundest ag
verteidig er
S ql
Ġ eignet
ar is
or ges
ĠP on
ĠH Ã¶l
ĠN etwork
ĠSch Ã¤fer
Ġ18 46
Ġa ccess
ill es
ige st
gl eis
sh aber
Ġteil en
ĠChrist ine
ativ es
schein lichkeit
ĠWor te
ĠSti pend
dent ity
ĠrÃ¶m ische
Ġnational sozial
ĠBahnhof s
Ġdigit ale
H z
n ord
ich tige
ĠB in
Ġin halt
ĠK leidung
ĠH op
il o
Ġh om
Ġl iber
id sch
Ã¶r n
Ġres ources
ĠhÃ¤uf iger
Verein igtes
ĠBran chen
Ġfield s
ĠPublik ationen
ĠAktion en
ĠYou Tube
AuÃŁ erdem
J vm
S M
W ord
a ire
i ph
} );
Ä Ĺ
ã ģ
ol t
ĠW ay
ĠT ool
ĠC in
wei len
ap o
pp el
Ġtr an
oc us
zw eck
Ġbr achten
EN G
Ġbeh erber
ĠDe ath
Ġerf Ã¤hrt
FI LE
Sel ect
ĠSchles ien
Ġentst amm
ĠWiederauf bau
Ġd auern
st reifen
ĠS ich
Ġs ens
ĠB rad
ĠD ark
ĠE li
il lo
ir ken
Ġver standen
ĠEr mitt
lin s
la fen
Ġ3 60
iv es
geb ir
ĠAuf stand
ĠVor gehen
ong ol
ĠEnt ity
kreis es
Hand le
ĠBro t
ĠKat hedrale
Ġide al
Ġweib liche
Ġgra ph
Ġkeiner lei
oneRegion Codes
ĠPian ist
ĠausdrÃ¼ck lich
B al
B ot
J E
K at
R ole
S en
c ent
in formationen
ĠE P
ĠP ension
Ġf ahr
ĠW affe
and al
Ġh alt
ĠJ ugoslaw
Ġver mittelt
Ġaus b
ak eten
ĠAl ber
ĠPro gramme
Ġab gelÃ¶st
ĠVor name
Sp eichert
ĠKÃ¶nig sberg
verb rauch
ĠWohn haus
Ġpolit ischer
anc el
ĠVertr auen
ĠAnt worten
ĠSold at
leit ungen
Lin ie
b ieren
m ech
ĠF ron
Ġf ull
Ã© t
mit tler
olog in
ĠAk adem
Ġabge lehnt
Ġy ou
ĠDat abase
ĠPri or
sthe orie
B ro
F loat
ĠB anken
Ġ1 16
ĠM esser
Ġin iti
is emit
ĠFl Ã¼ss
sk ar
set s
ank a
ĠLu zern
Nach bar
ĠLei b
ake te
ĠSieg fried
sa al
ĠKop enhagen
Sa ale
PT ION
ĠAR D
ĠWurz eln
Ġentw orfen
JÃ¤hr ige
nap shot
C ell
D ienst
L ayer
W idget
l ach
z ant
Ċ ĊĠĠĠĠĠĠĠĠĠĠĠĠĠĠĠĠĠĠĠĠĠĠĠ
ie u
Ã¼ ÃŁ
et o
ĠL eut
Ġver dien
ĠEin blick
ex ists
ĠCh arts
ĠMar in
amm lungen
los igkeit
Ã¡ s
Auf gelÃ¶st
190 7
195 8
ĠAlbum s
Ġgenau e
ĠKriegs gefangen
ĠÃ¤uÃŁ er
Ġser ial
Ġregion Codes
ĠKer amik
ĠWÃ¤r me
oneRegion Code
Ġveranst altet
requ ire
ĠInse kten
s v
ar es
ĠD C
ĠK au
ĠP ommern
Ġk ap
ĠC ustom
ri pt
ind el
ĠGr aben
Con f
Ġman che
fahr ung
Ġger ufen
Ã¤m me
Ġeinge zogen
Ġfest en
To String
ĠPhil harm
Ġheraus ra
ĠSitz ung
Ġerf asst
wÃ¤r tigen
bed arf
ĠAir lines
Ġverf asst
SI ZE
Rec ei
ĠMun ic
ĠberÃ¼hm ten
Ġverbesser t
Ġverbesser te
ĠWeimar er
h essen
Ã °
ĠS ev
ĠA tem
ĠM ix
Ġm oment
ĠK ilometern
ĠP ixel
ĠW Ã¶r
Ġg riff
ĠAr g
ĠVor gang
Ġ0 8
Ġausge dehn
ĠBet riebe
ender t
ĠDrei ÃŁig
ĠWand el
PRO PER
C enter
F iction
e ars
h lich
ei mer
ĠS tif
ge ht
ĠD eine
ĠH els
ĠR Ã¤
ĠL iss
sp ark
ver arbeitung
ster s
âĢľ ;
In halt
geb ot
ĠBer ichte
ym m
Ġ12 5
recht lichen
ĠMag d
ĠCoun cil
ĠRess ourcen
Sonst iges
Merk male
C N
C ur
J azz
W issenschaft
b undes
ĠB uild
Ġm eta
ĠH ahn
ĠL ight
ir es
ad es
get Parent
ĠStr eich
ĠEn cyclop
Ġ0 5
bar es
gl os
Ġgen Ã¼
zw ald
ĠHaupt ort
ĠX X
195 7
emat ik
ĠEt wa
Ġtrans action
ĠSÃ¤ ulen
ĠStraÃŁ burg
ĠStrate gie
ĠEinzugs gebiet
ĠVerbreit ungsgebiet
adelph ia
I hre
k W
st unden
ĠS atell
ĠA kt
Ġm em
ĠP ay
Ġf ailed
ĠW ern
ver anstaltungen
ĠVer schw
ĠSp rech
Ġsp aren
ĠAuf sichts
ĠGef Ã¤hr
Ġgem essen
sprach ige
Land es
lad imir
ĠÃ¤uÃŁ eren
ĠEich en
VAL ID
ĠBrau t
ĠEreig nis
D iff
E U
H om
z ahn
ĠS end
ĠB ul
ah me
iv a
ek ul
Ġex perimen
ĠMo h
ĠDurch schnitts
ĠSport s
jÃ¤hr ig
fred akteur
rec ated
Ġwissenschaft licher
ĠRh yth
ĠImm un
Ġdauer haft
minist rat
Sum mary
V oid
f ast
ĠK affe
ĠR unden
ĠZ ut
Ġr etten
() ),
ste te
ĠÃ ©
ult an
ĠMed iziner
Ġeinfach er
DE F
190 2
bes itzer
ĠHel den
Ġreich te
ĠQualitÃ¤t s
Sub scription
rib ution
Ġgetest et
G it
G el
M aterial
Q UE
R h
R ight
S ite
n immt
s uper
st age
et scher
ĠD oc
ĠP ad
ĠT Ã¤nzer
re ct
ĠC el
rei hen
Ġab gew
tig keiten
ĠMa j
ĠCh ile
lei h
war f
zentr ums
ĠAnfang s
back tracking
190 3
ĠTel ek
ĠNor bert
Ġbeteil igten
franzÃ¶s isch
ĠBom ben
A lex
L imit
T ex
b ot
b uf
es k
ĠA tel
ĠB ock
ĠH Ã¤uf
ĠH ins
ĠL kw
ĠO ppen
Ġst euer
men te
auf gaben
ĠBer Ã¼cks
reis gau
mann schaften
Ġger aten
ĠHaupt darsteller
alle d
Ġerr ang
Ġtats Ã¤ch
Po ints
ĠZul assung
Ġdurchschnitt liche
Absol ute
skl asse
wÃ¤ sche
Ġeingemein det
C ounter
E isen
P ap
P resent
R eihe
T ile
ĠB arn
ĠB ecken
ĠD unkel
ĠM all
ĠK ein
ten ts
ol ved
ĠG ard
de v
ĠH inzu
ĠR Ã¤um
ĠL ith
tr echt
ĠN iveau
Ġk reis
Ġl ust
Ġj ene
Ġab gel
dr ama
ĠPf and
Ġgest ern
ĠSchul ter
kon struktion
go ogle
Her r
Ro ute
DO M
ĠGeheim nis
Ġverstorben en
Lud wig
G ateway
g alerie
k le
s ent
w issen
Ġs itzt
el ektr
ĠH eu
ĠL iver
ĠEin tritt
Ġ18 13
ĠCh inas
ite e
Ġbesch rÃ¤nkt
ĠDr ama
Ġnie mals
Ġpl us
Ġdur ften
ĠBrow ser
Ġfac tory
ĠEdel stahl
Ġphil osoph
ĠSchwanger schaft
F ull
G ef
c lazz
f ein
h ash
h Ã¤ngen
Ġw ind
ĠF utter
ĠE mer
Ġf iles
der t
ĠW end
ĠL az
Ġt ags
ahr ung
ver g
Ġ18 14
Ġent deckte
Ġsp r
ĠGr as
ĠBau reihe
ĠReich weite
Ġinternational er
Ġsetz ten
leid et
Gra f
ĠInstr umente
Ġzweit es
ĠEvent s
ĠAuss agen
G leich
H in
d ates
h Ã¤
ĠS ind
ĠK riterien
Ã¶ d
Ã¶ hnen
ĠR eu
ber gen
Ġk Ã¤mpfen
ĠSt ars
ia e
Mann schaft
new Instance
Ġgeb raucht
ĠDes igner
ĠFach werk
itte e
ĠAndre w
Med ien
Comm on
ausen de
Ġorganis ierte
ĠWeihn achten
Sa int
ĠkÃ¼nstler ische
Ġreligi Ã¶sen
Ġbequ em
Ġermord et
h aven
Ġi ll
ĠG ibt
ĠH uth
Ã¶ he
ĠR uns
ĠSch uh
ap ur
Ġ18 44
Ġ18 42
ĠCh ancen
ĠVor lage
Ã¤ch ter
tor hÃ¼ter
Ver band
ĠHand eln
ĠLu is
Ã¼nst ige
Ġ180 8
ĠComm and
gÃ¤n gen
Ġversch oben
Ġsc ope
Ed ge
ĠMarc el
funktion Ã¤r
drÃ¼ck t
ĠNationalsozial isten
Ġausger ichtet
Ġletzt es
Ġbeob achten
ĠTw itter
ĠLeiden schaft
ibil ity
K ap
ĠM uh
ĠF Ã¤hr
ĠF avor
ĠC u
ir men
ir kt
ic um
get Time
Ġ18 43
ĠUr spr
UT F
ĠLi u
ĠermÃ¶glich te
ĠTat ort
ĠFlÃ¼cht linge
ĠIntel ligen
ĠOR F
W T
f ul
m atcher
r um
z bach
Ġ []
ĠS einen
ein g
ĠB ie
ĠB uk
Ġ1 18
ĠG onz
ach el
Ġer baute
ger echnet
Ġj ung
av ax
ĠIm pul
ĠString Buffer
Ġkein em
Ġind ischen
ĠDat eien
195 1
stehen de
AX B
komp lex
ĠZerst Ã¶rung
ĠErschein ung
ĠEins Ã¤tzen
ischÃ¶ fe
Ġkorre kt
o ti
u uml
Ã¼ ben
ĠK unde
ĠH ass
Ġh or
ĠN on
ĠN eg
ĠN assau
ĠC ock
ĠVer mut
ind lich
19 48
Er ste
Ġins zen
tag on
ĠSti ck
stud io
ĠErk enntnis
ĠLeg isl
Ġschwed ische
Ġvalid ate
mag azin
ĠViet nam
B oden
L eist
P L
c ur
d ro
k ompon
Ġd Ã¼n
Ġd etaill
ĠB utter
ĠW id
ĠR uth
ĠZ one
Ġaus gesetzt
Ġun ivers
Ġ18 37
Ġ18 41
Ġvor stellen
ĠAb tei
Ġneu esten
ens wert
Ġet hn
sb es
sb ahn
als o
Ġgr Ã¼ndeten
Ġgr atis
ĠFilm regisseur
ĠZu vor
ĠWest er
ĠGew erb
Ġerhalten en
ĠWie se
Ġleben den
Aut o
Ġerk ennt
sprech ung
Ġloc ation
Ġtyp es
ĠPil ot
bas is
Ġgeh abt
Ġkultur ellen
ĠKob lenz
ĠAuftr itte
Ġbeauftrag t
organis ationen
C L
H ome
a a
h ier
p ern
Ġd avor
ĠK enntnis
ĠG Ã¼
Ġt itle
19 17
Ġsp Ã¤testens
ĠZeit ungen
heit lich
ĠY our
ĠÃĸ konom
ĠProdu zenten
ps ych
fÃ¤l ischen
Ġfrei er
ĠBetrieb ssystem
wie sen
ĠDon ald
fÃ¼r sten
ĠFel sen
Ġpriv at
Ġstattf and
nehm ung
Ġsech sten
ĠBulgar ien
st etten
ein trag
Ġi gnore
ĠG ur
ĠE id
le pp
ĠJ un
ĠC ard
ĠSt urz
sp eicher
ĠEn tert
ok a
ĠVor arl
lei sten
wer fer
ĠInter ruptedException
ari us
Ġvoll kommen
ĠKat astrop
Ent wicklung
ĠPal Ã¤st
lÃ¤uf ig
ĠRen Ã©
aun a
vis or
Ġsamm eln
ĠErzie hung
B uf
F ootball
T itle
l iger
m otoren
o on
ĠD y
ĠF DP
ĠC hl
Ġdes ign
ver ordnung
ĠEr sch
im pl
Ġ18 38
Ġdurch ge
lo y
ob i
ĠGr ill
ĠPl atte
iet z
Al gorithm
bereich en
asch inen
Ġclass Name
rec ord
ĠStern e
ĠVen ez
Ġkanad ischen
stad ion
Ġmedizin ischen
sbez irk
Ġdisku tiert
Ġlehn te
Ġerwer ben
! )
F T
m eier
Ġin tel
ĠĠĠĠĠĠĠĠ Ġ
Ġz us
ĠK arn
Ġf rauen
om etr
Ġh arm
ĠO hr
ĠU we
ĠU RI
Ġunter stellt
Ġab geleitet
param s
ĠBe au
Ġhier zu
ied s
rag ung
tic a
ĠRechts wissenschaften
ĠRuss ischen
ĠMont age
ĠSub stan
ĠVir us
ĠWes er
db c
ĠDrit ter
ĠErf inder
ĠWÃ¼n sche
ridBag Constraints
gewÃ¤ch se
H allo
T or
W M
r s
s ammlung
in ische
in ternal
st rich
ĠE T
ĠE y
Ġf erner
ĠI gn
ĠJ Ã¤nner
Ġdes wegen
ĠAn ordnung
scha f
get E
ĠAuf wand
ac ional
bau werk
Ġe ach
ĠHau st
we en
ĠAuÃŁ er
ĠSied lungen
Ġnorm alerweise
Part ition
fac es
ĠFinn land
MÃ¶ gliche
f a
j ar
in iti
Ġd einen
ĠS eiden
it Ã©
Ġb ill
Ġi v
ĠW is
ĠV Ã¶gel
Ġmit ten
Ġc ollection
ĠEin sÃ¤tze
ĠAus sehen
ef eld
Ġ9 1
ĠGeb Ã¤uden
ĠPh arm
ĠTra ck
ĠGeneral leutnant
ĠTyp en
ĠRen ov
189 5
Kl ein
ĠFlor ian
ĠMang a
Ġniedr iger
Europameister schaft
ĠErober ung
O s
P ark
a ktu
f le
m d
n Ã¼tz
s eiten
Ã ®
ĠS ac
ĠS Ã£o
it iert
Ġw andte
ĠB org
ĠR umpf
ĠC hal
ĠSch uss
im b
get Path
19 15
Ġvor der
ĠLand s
our t
ĠSpiel zeiten
ĠOber flÃ¤chen
mar ken
Ã¤nder ung
ĠHaupt bahnhof
dorf er
ĠKr ise
ĠHil de
ĠWar um
195 4
ĠMil ler
ĠOs lo
iction ary
cr yp
Ġumfang reichen
ĠMonument s
ĠFF DC
ĠPow iat
Ġanbie ten
ĠProt otyp
ĠSaarb rÃ¼cken
C ustom
D ynastie
k Ã¤
p il
or ia
ĠF ame
ĠE ffekt
ĠO v
ĠZ ellen
Ġst op
ert o
ĠEin fach
aus wahl
che f
18 85
schie ÃŁen
ĠStud iums
Bau denkmal
Oper ator
Techn ische
omet rie
BevÃ¶lker ung
ĠVerdienst ordens
Ġrechte ck
voc ation
Ġmath emat
p Ã¤dagoge
v oid
á ¸
Ġd ekor
es a
ĠG az
Ġf il
Ġer lern
Ġbe arbeitet
19 49
ev in
Ġ0 7
our i
ĠUS B
lÃ¤ chen
Ġerst mal
ĠSchw Ã¤b
ĠBet rag
ĠMed aille
ĠWerk zeug
ĠfranzÃ¶s isch
Ġschn ellen
ĠNe apel
ĠHistor ischen
ĠGraf iker
Ġbisher ige
ĠKor ps
ĠZeu g
Ġlauf enden
Ã¤cht nis
E W
y cle
ar tement
Ġw Ã¶ch
ĠK ie
ĠP ant
ĠT Ã¤tigkeiten
Ġh inz
ĠC row
Ġst ein
get Field
ĠSp art
Ġsch lagen
auf tritt
stra te
Ã¤nd ischen
ĠSe ele
Ġbew aff
Ã¤ndig keit
ĠLuft waffe
lÃ¤uf erin
sprach igen
current TimeMillis
ĠHum bold
Ġdauer te
Ġmet adata
ĠFertig stellung
Tro tz
. âĢĵ
F k
Z usammen
au ens
re ader
ck et
ab on
Ġ18 36
Sch l
amil y
ĠKomp etenz
vertr etung
Ġpr int
resp on
person en
ĠdÃ¤n ischen
ĠKanz el
ĠInternal X
ĠPorn o
Constra int
tran sport
ĠDokumentar film
N un
T enn
in itial
st Ã¼cken
at ien
Ġs olle
ĠB reiten
et sch
ol as
Ġer zeugen
Ġge be
Ġge gangen
Ġge folgt
Ġex klus
ĠTh ailand
iss ippi
ĠZu schau
ĠDurch bruch
ĠZw ecke
ĠPhil ip
reib ungen
ĠTex ten
Parameter ID
ĠRos a
Ġmoder ner
Child ren
Ġbetre ffen
B uild
P G
T schech
st isch
ĠM usch
ĠK rau
Ġf Ã¼hlen
den kt
ĠL ehen
ent schieden
ĠO ft
ĠU A
Ġo ur
Ġbe enden
Ã¤r er
io den
hÃ¶r en
ĠÃľber ra
Ġbesch rÃ¤n
Mod us
ĠErn est
ĠZahl ungs
ĠSchloss es
Ġdien ten
ĠAmts gericht
Ġbeteil igte
Ġbedeuten den
ĠNachbar gemeinden
ĠTar if
ĠAuseinander setzungen
Ġkombin iert
ĠVinc ent
ĠLein wand
V A
W eiÃŁ
n ow
Ġ echte
Ġb un
ĠD amm
ĠT oken
ra ÃŁe
Ġdurch setzen
Ġre alisiert
ĠAus sch
anz eigen
Ġbeg leiten
Ġen ge
Res olver
bach s
ĠHaupt mann
yl l
ĠLebens raum
Ġem otion
ose x
krÃ¤ f
So ftware
Ġtradition elle
parse Int
ĠAud i
wal de
ĠBundest ags
cul ate
kriegs zeit
Lower Case
C ard
P R
W ein
W ohn
b evÃ¶lker
d ies
h ab
č ĊĠĠĠĠĠĠĠĠĠ
st op
ĠB lei
ĠE con
ĠW orm
ĠW Ã¤hler
ĠAr c
Ġunter richtete
of ern
18 89
Ġlie gende
ais e
Ġ16 00
ĠUr heber
ka sten
gehen den
Ã¼st ung
ĠReihen folge
ĠVizep rÃ¤sident
loym ent
ĠBerÃ¼cks ichtigung
D evice
F u
R ichtung
ĠB Ã¤ume
ĠH C
ĠT ai
ĠI hm
ĠJ imm
Ġk unst
Ġk andid
Ġan spruchs
Ġp ool
ĠVer g
Ġ18 39
able From
dr es
los er
aw s
Ġit s
kon stru
loc ation
ĠMarc us
Ġangegeben e
ĠGrÃ¤ fin
Ġanti ken
Kan al
D b
H eim
T ick
W appen
g Ã¼r
n umber
ur teilung
ĠD ritt
ĠM igration
ĠP A
ĠP eer
ĠSch ein
Ġp at
Ġst ren
Ġ18 21
ick te
Ġpro te
eid igen
ĠJohann a
ĠTour isten
Ġfl ach
Ġentstanden en
mark e
FI ELD
beg riff
Ġinteress ante
onom ie
Rel ation
ĠEvangel ische
Column s
Ġtradition ell
Histor ische
Ġmusikal ischen
ĠJord an
ĠInstall ation
L ei
S ee
Z ug
c omponent
ĠD ritte
ĠK ombin
ĠT eich
ĠC ell
ver y
ĠVor feld
th ers
ain s
Ġgesch m
Ġgesch Ã¤tzt
ĠGer d
ĠGer ichte
ĠSe eh
bew eg
fel de
ĠDis play
195 6
Ġdan eben
ĠZeich nungen
ĠKom fort
bef ehl
ĠEntwick ler
cept or
Ġbegr Ã¼ndete
ĠErzÃ¤hl ung
Ġsec ond
aller ie
ĠGeschlech ts
Ġschwei zer
A ud
a int
s i
z weig
es er
ĠD ead
ĠD ritten
Ġin f
ĠK ran
ĠH Ã¼r
ĠL ook
ĠV olleyball
ĠC loud
Ġt iefer
ic on
Ġgew innt
ĠUm zug
ĠEurop Ã¤
Ġbew ertet
Ġbeh alten
ĠDen ken
ĠAir es
ĠschÃ¶n sten
Ġelektr ischen
Bi ografie
ibil itÃ¤t
D rei
b rech
m u
o iden
Ġ ul
st urm
Ġb undle
et ischen
ĠH Ã¤nden
and ro
Ġg ere
eb el
ot tes
Ġun it
im me
ĠMar athon
ĠAk ten
ĠRad i
ĠHier zu
laub te
ĠHei z
Welt cup
ĠBur k
Re al
Ġtyp ischen
ĠNamens geber
Ã± a
ÅĦ ski
Ġeingest uft
g eist
Ġ echt
st ationen
an aly
te or
sch ema
it us
ĠD eut
ĠW ichtig
ier tem
rei tete
Ġes sen
gr ammen
Ġ9 4
lei dete
ĠKl einen
to Array
ĠRo te
ĠGu y
Ġmo tiv
ĠRegel ung
Ġwest liche
Ser ial
gesetz te
ĠRed akteur
uld a
__ __
ĠVersuch e
Ġhol en
Byte Array
ĠGir l
ĠAre a
Ġdokumen tiert
zule gen
A U
D isp
k Ã¼nstler
m Ã¤ch
Ã¼ ÃŁen
Ġs l
ĠB reisgau
den z
ĠR ied
um a
Ġst Ã¼rzte
ang a
olle ct
res sen
Ġres olve
25 6
aktiv en
Ġhistor isch
ĠComm ittee
Ġbesser en
CO DE
ĠErw in
Ġdire ctory
ĠGet rei
Z eich
w elle
st yp
ĠS v
ol es
ĠP aket
Ġf as
le ep
ĠL oth
ĠN oten
ent ums
ĠSch ritte
Ġr ange
Ġ18 32
ud a
amm ung
ine a
ain ment
Ġ12 00
ĠBundes land
ĠAd v
ĠNational versammlung
Ġte lefon
ĠKo alition
ĠKont o
ĠMad onna
ĠRem ote
ĠOff ice
ĠErinner ungen
ĠErschein ungs
ĠEliz abeth
bevÃ¶lker ung
( !
L ied
M ass
R itter
w ende
Î ¹
Ġd ritt
ĠK upp
ĠW esen
ĠT y
ĠL ac
re al
Ġk op
Ġ18 34
Ġsp iegel
ĠMit begr
ĠBer eit
String Builder
Ġex pr
gew achsen
ĠSchw ieger
verb ot
ĠProblem en
komm and
ĠJur a
ĠHei rat
gra fen
Ġgl Ã¤n
Ġbeein druck
ĠCast le
Ġforder t
hor st
ĠAgent ur
B ER
C an
k am
p assen
w id
Ġ iterator
ĠS D
Ġs aÃŁ
ĠB rian
ĠD R
ĠK ad
ĠF iction
ol stadt
ĠG lo
ĠH Ã¼tten
ĠW eich
och em
ay r
az ier
olit h
eig ern
ĠVol ker
ĠBro ok
gef unden
ĠKommun e
Ġmethod Name
ĠAnge legenheiten
ĠChem nitz
Ġchines ischer
quar tier
Ġmark iert
ĠKrank heiten
Ġbetre ut
Ġverp asste
sthe ater
Ġol ymp
ĠWupp ertal
evelop ment
N ur
T S
W A
a ver
m auern
o i
Ġs ince
Ġv olle
ĠB eu
Ġi Phone
Ġm ode
de uten
Ġf indest
ĠT SV
Ġge prÃ¼ft
wei lig
ĠIn tens
ĠVer hÃ¤ltnisse
Ġc ipher
ĠAl an
Ġvor an
ib Package
Ġre q
pl ibPackage
Ġgew orfen
Ar ten
Sch rift
ĠPh Ã¤nomen
Ver breitung
ĠEl f
ĠEl be
ĠWei ss
mÃ¤ ss
schn eiden
ash i
ĠRad rennfahrer
ĠCar lo
ĠErz bist
ĠDo zent
fre unde
Ġerk annt
Ġleich ten
Ġunmittelbar er
ĠTrotz dem
option s
Ġcir ca
L iga
P andemie
b Ã¼r
k es
p reise
w enden
Ġd oppel
ĠP ur
ĠP unk
ĠH ack
ĠT H
ĠN atÃ¼rlich
ĠC li
ann over
Ġaus gesprochen
ĠCh am
sk Ã½
Ġgesch Ã¼tz
bo urne
Ein ige
ĠProf i
Ã¤ft s
ĠWeiter entwicklung
Ġvoll stÃ¤ndige
ĠRechts an
190 4
Des ign
Method s
ĠGot th
ĠerhÃ¶ hte
Pr int
Ġwor auf
ĠLoc al
Juni oren
Ġangek Ã¼ndigt
Ġoffens ichtlich
N och
P reuÃŁ
S al
c atch
st immen
ĠS erb
Ġw Ã¤hlte
ĠH Ã¤r
ĠT R
re ut
ĠSch uppen
id den
Ġ18 17
her z
rit ische
ard in
ĠVor jahr
Ġgew issen
ĠBundes straÃŁe
leg ungen
out ube
ĠDar stellungen
ĠInd ustr
ĠsÃ¼d liche
ĠDan ce
Ġkey s
ĠFrÃ¼ chte
ĠStu dent
ĠÃ¤uÃŁ erte
Ġcomp ute
ĠKom Ã¶die
Ġstate ment
Ġerschienen en
ĠGit arre
Tim estamp
Italien er
ĠStatt dessen
Il legal
ĠFrances co
1 12
f ehler
l uther
m isch
m ass
r ath
r unden
es ota
ĠA gen
Ġb rauch
ĠF aust
ol in
is Assign
ĠC ott
im s
Ġ18 16
Ġa fr
ss itz
Ã¤nder ungen
ĠVol ume
ffiz ienz
ĠTor onto
ĠOp tim
ĠSim ple
Ã¤ss ern
Ġexten sion
Meta Data
Ġreag iert
ĠAx el
OUR CE
andin av
R aum
Ġd oppelt
ĠS ax
Ġs egment
ĠW ing
ĠT afel
ĠJ ag
Ã¼r zen
ul ierung
ist ern
ver eine
ĠAn kunft
ang riff
Ġa f
Ġsp lit
rÃ¤ um
ob ahn
ov iÄĩ
be auftrag
ĠJo han
ĠÂ °
Hand ball
190 6
Ġus ing
UT E
Ġverbunden en
ĠHeraus forderung
Ġevent uell
Ġelement s
ĠHoll and
ĠEngl ischen
ĠDiv is
ĠYor ker
Leicht athlet
h ers
Â ·
at hlon
ĠR aub
ĠC hen
Ġver ring
ĠVer pflicht
eu x
ap pt
im es
ĠEin trÃ¤ge
ib m
rÃ¤ uch
Ġbest Ã¤tigte
wer fen
Ġher zlich
ĠĊĊ ĠĊĠĊ
ĠUr kunde
ĠAt l
ĠVers ammlung
Ġqu adrat
SS ION
ĠGu ide
Ġkosten lose
ĠErd geschoss
ĠMc C
So zial
ĠAbgeord nete
Ġwor aufhin
imple Name
Hein rich
ĠQue en
ĠBedÃ¼rf nisse
ronom ie
ĠLiver pool
E lem
F arb
c ommerce
u dent
z ept
in burgh
sch reiber
ĠP RO
ber ichte
âĢ ¢
ĠV Ã¶l
ĠO ste
iel les
ĠSt Ã¼tz
ĠEr ror
ub a
ĠEn zykl
ĠAus richtung
ĠAb satz
18 87
be cker
Ġ9 3
Ġpro ps
Ġpro vider
spr ingen
wa it
Ġbeg in
ĠRe alitÃ¤t
Ġbesch reiben
ipp en
ĠAt tr
ĠFest ivals
zentr ale
kn oten
rev olution
Gemeinde auflÃ¶sung
ĠÃ¶ konom
ĠkÃ¼nstler ischen
ĠErkrank ung
Jose ph
ĠOze an
ĠKoordin aten
ebau ung
a ÃŁen
ie de
Ġein iges
ĠF lex
ĠR ade
Ġh Ã¶lz
Ġge fahren
Ġge teilt
ap ply
Ġ18 10
ord neten
arb eits
pl ic
ĠFl ur
fer tigung
stra int
ĠRe eder
Ġgel Ã¶scht
lock en
Ġverl ieren
ĠPhil adelphia
ask etball
Mod ified
Ġabge geben
Ġgem eldet
unn able
ĠVerl etzungen
ĠPrem ium
steh er
Ġevangel ischer
Ġdat iert
ĠEuropameister schaft
ĠDF B
ĠHob by
ĠanschlieÃŁ enden
F ot
T RI
v ik
ĠB eine
hr ingen
ĠE u
ĠL td
ĠV ize
ĠC onnection
ĠC lemens
ĠVer pack
Ġr ief
00 00
ĠAr mut
enn ungs
ĠAuf klÃ¤rung
ov ice
Ġdar auff
iss ionen
ĠRei s
ĠIl linois
ĠPal ast
Ġinteress ant
ĠLiefer ung
Ġmedizin ische
Ġcle ar
Ġbevorzu gt
Dam it
+- +-
E E
O t
P ublik
f irma
j s
ĠS iz
ĠS af
ĠA quar
ĠD NA
ĠE C
ĠR ib
ĠV as
ĠV ektor
ier n
Ġst erben
ot herapie
get Default
ac cept
ian ce
tieren den
Fl uss
Lin ks
Ã´ ne
ĠCommun ity
R T
V ariante
u ver
Ġw ait
ĠD IN
ab st
ĠU s
Ġdem nach
get Request
ang aben
id ak
Ġtr op
Ġre prÃ¤sen
Exception Constants
ian ischer
Con structor
old ing
ĠMan chester
[] {
Ġgef Ã¤llt
ĠCon fig
oot h
ĠKÃ¼nstler in
Ġad dress
Met al
ĠLang haus
Ġsh ow
Ġide en
ĠtÃ¼rk ischer
ogn ition
ĠByte Array
ausschuss es
Ġunterb rochen
ĠBelager ung
JE CT
ĠHumbold t
N or
S oll
S ynchron
d an
g ow
Ġs enden
ĠF au
le k
ĠC arn
Ġp al
ver antwort
ĠIn put
la ster
ak s
18 99
ĠSte ine
Deutsch es
ĠHo spital
ĠZwei ter
ĠBuch es
Ġfest e
ĠVers orgungs
ho use
ĠDr amat
ox id
anc er
Ber eich
Client Execution
Aut hentication
ĠPfl anze
ĠVerl etzung
ĠVal entin
ĠTur b
Max im
!! !
ĠKandid at
ĠgefÃ¤hr det
ĠBrig ade
ĠCour t
ĠAriz ona
ĠDreiÃŁig jÃ¤hrigen
U pper
j on
k ord
u de
v enz
x x
Ġein heim
Ġf liegen
ĠI b
Ġge he
lo v
lo hn
reich t
18 88
St unden
ator y
Sch lag
ĠgroÃŁ em
ĠSchw ed
ĠSchw aben
Ġviel fach
ĠBez eichnungen
ĠSÃ¼d amerika
Ġgef ragt
alse kretÃ¤r
ĠAt las
ĠKap azitÃ¤t
AP I
do or
ĠTon y
Ġelektr ische
Ġservice Callback
Ġdest ination
Ġanges ichts
Ġnachfol genden
ĠkÃ¤mpf te
Ġdarauff ol
C ategory
Y ear
h Ã¤n
k arriere
al ischen
Ġs u
ĠB alk
ĠG ros
ĠH Ã¼tte
ing o
ik ro
Ġl ux
ell s
ver schluss
ver mÃ¶gen
ĠAn wender
ez eit
ĠBl as
ĠDar steller
Ent fern
ĠWein bau
Ġra w
Ġtyp ische
sei tigen
ĠBu enos
ĠBist ums
resp ond
Ġbefore ClientExecution
ĠQuadrat k
ĠTaschen buch
ĠLetz ter
ĠChristop her
, -
A ustr
F ort
S AR
h aut
k ischen
l ess
Å ¼
Ċ ĊĠĠĠĠĠĠĠĠ
ie se
Ġw eich
Ġs m
ĠG overn
ĠH ess
ĠH imm
ĠL ernen
end em
id ar
lo ok
ok o
ĠAb sch
Ġneu tr
ph a
An ti
ĠQu art
ĠÃľber setzer
ĠArbeit nehmer
ĠGesamt wertung
AB C
Ġap i
schlÃ¤ gen
ĠDor othe
wes ens
verstÃ¤nd nis
ĠFell ow
ĠschlÃ¤ gt
B esonder
S ong
i ja
un ch
ge zogen
ĠN iger
ĠN HL
ĠIn spir
Ġsch auen
Ġvor ange
Ġent s
Ã¤l en
ĠNach lass
ĠNach mittag
Ġgen ehm
ĠBo ard
ĠUr ban
ĠUr sprÃ¼nglich
Ġern euert
ĠProf ession
OR D
ĠWebs eiten
Ġzurueck gegeben
ĠTÃ¼r en
Ġbegr Ã¼ndet
sex tr
wÃ¤l te
ĠSpann ung
Ã¼h ungen
ĠÃ¼berra schend
Ġaustral ischen
Ġil leg
Ġprofit ieren
Ġbeherber gt
ĠHins icht
R ot
c ms
r und
z oll
Ġ ew
ĠK it
ĠG uten
Ã¶ ster
ĠL ack
Ġp rim
ed a
ĠEin stieg
19 16
Ã¶r ten
enn ame
ĠVor trÃ¤ge
fl eisch
sh afen
Ġzw anzig
Un s
rom an
Ġviel es
ĠAt tribute
ĠAnt wer
komm ando
ĠHeraus forderungen
annot ation
Ġopti male
ĠZuschau ern
W o
w Ã¼n
Ġ arr
Ġb ad
ĠK leider
Ã¶ ten
ĠJ ew
Ġst ack
id ad
Ġtr ee
ek ord
ip eline
ĠGesch icht
ĠGesch Ã¤fte
ĠWei den
ee ded
ĠKomp lex
gericht shof
189 2
Ġgeschlossen en
ĠBesonder heit
aust ausch
ĠVerÃ¤nder ung
reden tials
Ã¶nt gen
ĠBrie fe
Ġvorber eitet
Dre h
ĠprÃ¼ fen
E LE
F ernse
G l
v ari
Å ¯
au me
ĠD ame
Ġm uÃŁ
ĠF arm
ĠF uture
ĠG ord
ĠJ AXB
ĠSp reng
la ve
ĠGr au
ĠPl Ã¤tzen
mit te
ite es
amil ton
ĠVerein igte
ĠKunst geschichte
ĠMed aillen
new Line
ĠZwei te
ĠFr Ã¶
con f
ĠSport ler
check EMail
Ġabsol ute
195 5
ĠGast geber
ĠZeich ner
189 3
Ste in
wander er
ĠBeck er
tau send
Ġschot tischen
checkEMail Adresse
6 00
H erkunft
N ein
e ppe
Ġ å
on o
ĠL an
ĠI C
ĠV in
ĠV alen
ĠJ am
Ġbe zeichnen
ech tigkeit
hen de
ens ystem
ekt ak
ĠGer ade
ĠJul ian
ron en
ĠAt hleten
ĠInter ess
ĠZusammen setzung
ÃŃ k
ament o
ĠBesuch ern
ĠSchÃ¶n heit
Med aille
grÃ¼n de
Ġzentr al
ĠHigh way
ĠInner e
Serv ices
Ġreligi Ã¶se
Bet rieb
ĠPok alsieger
Ġsinn voll
ĠglÃ¼ck lich
B M
B inding
L P
Z en
b rechen
k ritiker
m Ã¼n
ĠS ymp
Ã¼ g
ĠB ibli
ĠF ind
ĠW oll
ĠL esen
Ġzu gewiesen
ĠU K
ĠSch icht
sp olit
lie be
Ġ0 9
(" ,
Pro file
lieÃŁ t
Ġbet ont
ĠGrund riss
deck er
ĠfrÃ¼ he
ĠKar os
list ener
ĠIns zen
oo ks
Ġverbr ingen
ĠKonf ession
ĠNeck ar
Fk EMail
C ollector
H S
Ð ²
ĠS i
ge tragen
ĠA gn
ĠE b
ĠH ind
ĠO skar
Ġl et
In stances
ech e
uss ia
teil ten
ĠIS O
ĠBau meister
ĠY ear
to LowerCase
Ġges ammelt
ĠOrt steile
schn itten
schutz gebiet
ĠGegen stand
ĠWill y
ĠFot ografie
ĠHistor ische
Resource Field
ĠVertr etern
ĠNo Such
189 4
CO MP
sie ht
Ã¶pf e
Ġlo op
ĠTir oler
Vis ible
lac ement
ĠFlag ge
ĠEinkauf s
Ġarab ischen
ĠSkulpt uren
MÃ¼n chen
Ġgrund legen
ĠOberg esch
M etric
e urop
Ġs ingle
et isch
Ġi bn
le ted
ĠW elle
Ġer setzen
ĠVer teilung
ĠAn leitung
ĠEr forschung
19 47
ĠReg isse
ĠUnter kunft
lieÃŁ en
war te
Ġgesch w
Ġausge legt
Sc reen
produ kt
ĠStim mung
ĠZur Ã¼ck
ĠGeist es
ĠErk enntnisse
Bild ung
ĠErwachsen e
ĠPion ier
D och
D ruck
O wner
l inger
w ich
on isch
ĠB eute
ĠD Ã¼n
ĠG ute
ĠP andemie
ber s
he orie
Ġr oll
Ġj etz
fl Ã¼ge
dig ten
ĠEnt deckung
Ġ| =
AT OR
Ġverl auf
ĠWer ks
Ġhistor iques
189 1
ĠPartner schaft
ĠInner halb
ĠPed ro
ĠApost ol
ĠTerr asse
schaff ung
B I
S ach
T re
d ocument
l eister
m aus
z eits
Ġ ×
ĠA ven
ĠB akter
Ġ( â
ĠK ay
ĠL yn
Ġer lebt
om s
ĠV III
and ie
ut a
Ġan sehen
rei en
Ġauf geb
ver d
Ġr ichtete
og ne
im ation
gr Ã¶ÃŁen
av y
ĠVor haben
sk omm
sb ild
Ã¶ff entlichen
tik um
ĠBuch en
ĠZusammen schluss
zie h
Ġstand ard
Ġfl Ã¼ch
ĠFernseh film
ĠInnen raum
struktur en
Page Link
Ġscha fft
Rel igion
Ġdefault Value
Ġhol z
ĠUrs ula
Ġkultur elle
ĠFein d
Ġgesund heit
Ġign or
E st
P op
k k
m ail
ge x
ĠB arr
Ġb o
Ġb ox
ĠT et
ĠT ap
ig l
ir bt
ĠSch lÃ¤
ĠSt apel
Ġnach weis
Ġum liegenden
ill i
String Utils
Ġ6 55
form ed
ktion en
ĠSh ar
ct x
emen tierung
esse e
ĠIs ol
ĠWeiter bildung
ĠRes idenz
Man agement
ĠRot ter
ĠRev iew
ĠAnge hÃ¶rige
ĠUntersuch ungs
ĠgewÃ¼n schten
Ġverab schied
ĠInnov ation
ĠgefÃ¤r bt
isAssign ableFrom
1 17
o hle
sch eibe
ĠK Ã¤mpfe
ĠP rec
ĠP reisen
ĠT un
tr es
Ġer fol
Ġver r
Ġl at
Ġt ollen
ĠAn nahme
ĠAn zeigen
ĠEin bau
arb eiteten
ac es
ĠBr eit
Ġbes iedelt
ark tischen
amer ik
ĠBundes staates
aut omaten
ink i
ĠEm den
ĊĠĠĠĠĠĠĠĠĠĠĠĠĠĠĠĠĠĠĠĠĠĠĠĠ ĠĠĠĠ
ĠGener ationen
ĠIs a
AR D
ĠArbeit spl
ĠPat tern
Ber uf
key Set
Ġret val
Gener ic
Ġgener ell
Ġprak tiz
ĠVerkauf s
ĠErzie hungs
pap ier
ĠTschechos lowakei
H eil
L ive
b rief
f isch
t mp
st ufen
ur laub
Ġw and
Ġv ariable
ĠB auf
ĠB Ã¤ren
ĠB usch
ĠB GB
em atic
ĠH unter
ĠI rak
ĠC rem
Ġo cc
ĠAn reg
ard i
Ġber ichten
ĠReg istr
ĠPar ti
40 6
Ġverw altet
ĠTechn ology
ĠÃ¤hn lichen
ĠTrans fer
ĠFluss es
ikal ische
ĠgÃ¼nst igen
Ġschlech ten
ĠVoraus setzung
ĠmÃ¤nn liche
jew itsch
Men u
Mem ory
Ko ordinate
N C
c re
w achsen
Ġ \"
Ġi Pad
ĠK rÃ¼
Ã¶ cke
ĠSch um
ĠÃ¼ber s
Ġsch ein
Ġar men
ĠSh ak
hol ungs
oss a
ĠBÃ¼rger krieg
ĠDem onstr
ĠTre ppen
gar ter
ĠPal Ã¤
Ġmein t
gra de
ĠDreh arbeiten
isc ons
Ġnotwend igen
ĠSec ond
Ġneg ative
Ġgesetz lichen
ĠFranzÃ¶s ischen
ĠPseud onym
> .
M ut
U se
k ong
u y
in th
Ġs ort
ĠF aktor
ĠP oll
ĠR og
ĠC ache
ĠSch ub
ĠDie go
ĠUn i
Ġbet reiben
ĠJuni or
ĠGra phen
Reg istr
ĠnÃ¶rd liche
Med iziner
mel den
ĠExper iment
Ġumfassen den
ĠÃ¶ fter
Ġref erence
Rem ove
VER SION
ĠZweit ligisten
Ġgesellschaft lichen
STR ING
Ġhum an
ĠKÃ¤r nten
Spl it
ĠEcon om
H amburg
N a
m esse
un en
ĠA V
ĠD anzig
ĠH ip
ĠL is
ĠL ub
ĠI dentif
ĠV all
Ġh erk
ah a
ĠAn wendungs
Ġj unger
ĠEin stellungen
iz it
Ã¼hr ungen
ĠAus gleich
ĠAm tes
ĠKon stru
ĠY am
ĠFor derung
ĠRech er
ĠOl den
ĠCon text
ĠMod ul
Ġor igin
Ġdi plomat
Ġober e
189 6
Ġentspr ingt
Mon th
ĠSus anne
Ġnorweg ischen
E ben
E CD
H or
c os
f ische
k os
l on
r one
v Ã¶gel
al ben
ur b
ĠB aus
Ġb atch
ĠG is
ĠG Ã¤rten
ist isches
Ġver Ã¤ndern
Ġst ieÃŁ
ĠAb hÃ¤ng
ov Ã¡
ĠNach weis
ĠVor schriften
Al low
ĠÃľber tragung
AT O
ĠNational en
ĠMittel n
ĠEd inburgh
ĠFlug zeuge
Ġzahl reicher
Ġ180 2
ĠJe de
ĠlÃ¤nger en
Ph ys
ĠCamp ing
Ġdat abase
Verkehr s
ĠwÃ¼n schen
ĠBerech nung
G L
H op
N ET
P RI
b eln
d igen
p ause
ã Ĥ
en ge
st amm
on er
sch Ã¤
sch ub
Ã¼ che
ĠA dr
Ġn odes
ĠK ritiker
ĠL Ã¤ng
ver teilung
ri um
Ġsch laf
Ġsp eichern
if c
Ġbes etzten
ĠEx press
iff er
Ġange kommen
ĠZu hause
ĠSchw ert
Ġausge geben
bild ner
Ġger echt
ĠEm ail
ĠSan ti
schw itz
por ary
ĠEigen schaft
Obj ects
ĠGesetz e
Ġdr auf
ĠSek und
ĠHab ilit
konz ept
sper re
ĠFle cken
Bad minton
ĠReichstag s
ĠSteu ern
k ab
t temberg
u tern
Ã¼ bt
Ġw a
ĠW alk
ĠN an
ĠN as
Ġal ias
sp ath
ĠIn tr
ĠEr ben
ord nungen
app y
app ed
Ġwieder her
gew orfen
ĠMo or
deck ten
ĠFest schrift
Ġdazu ge
ĠTechn iken
Ġverlie h
Sport veranstaltung
ĠSow ohl
ĠPau lo
ĠKrie ger
ĠBegr Ã¼ndung
ĠTob ias
Ġrestaur iert
ĠSympt ome
ĠPrÃ¤fekt ur
h ing
h all
n utzung
in voke
Ġv o
ĠB ent
ĠB ande
ĠG ift
Ġmit hilfe
Ġl eiste
ahr er
ĠDie t
âĢľ :
Ġvor zu
ĠAb schied
ant ie
Ġpro gress
ĠUm stÃ¤nden
Ġeigen stÃ¤ndig
Ch Ã¢teau
ĠGen ehmigung
FuÃŁball trainer
Ġkein es
Ġlin ker
189 8
Ġverz ichten
ĠTur in
ĠFÃ¼rst entum
ĠgrÃ¼n en
wal ts
ĠGolden en
Ġneg ativ
ĠZeu gen
ĠMÃ¶n ch
ĠMÃ¶n chen
ĠLegen de
HÃ¶r spiel
ĠMitbegr Ã¼nder
t as
ei hen
Ġm u
ĠW eit
il ang
Ġwar m
ĠEr ik
get B
ĠÃ¼ber prÃ¼
Ġ18 12
Ġ18 25
Ar n
ĠUS D
Al ben
ction s
mar ck
ĠBest immung
wohn ungen
Mar ia
Ġjeweil ige
spro jekt
Ġbed ingt
ĠRen ten
ĠBrit en
ĠNachbar n
Ġerheb t
ĠProp ag
Hein z
ĠKÃ¶n ige
ĠRÃ¶m ischen
ĠMagaz ine
ĠPublish ing
Listen ers
1 18
W al
h um
ĠB our
ĠK reise
ĠP ick
le f
ĠL ap
Ġan treten
Ġp e
ew ork
ĠAl m
her it
sb rauch
Ã¶s ungs
Ġen den
els on
ĊĊ Ġ
ĠStud ios
tag es
Ġerhalten e
ĠBÃ¼ chern
ĠSchm id
Ġ180 1
ĠHar vard
Ġsicher lich
Ġlin ke
186 5
Ġdr amat
Part ner
ĠField Location
ĠSchwar ze
Ġcolumn s
Ġbefind lichen
ĠBaumw olle
ĠCorpor ation
F ollow
H ex
T C
T okens
f inder
h ir
i able
Ġd ruck
ĠS cript
sch ers
Ġein setzen
Ġz ivil
ĠP omp
Ã¶ ser
ro hung
Ġan ger
Ġp fl
ĠEn try
ĠAuf sicht
ĠAm ph
Ġpro xy
lei b
Ġle gend
Im port
Ġ12 8
ĠNord ost
such e
ĠNieder schlag
cl us
Ġad ap
ĠSchÃ¼ler innen
ĠPriv ile
ĠBek ann
ĠTe en
meld ungen
ĠCamp us
ĠGottes dienst
ĠMiss issippi
ĠField Item
ĠAbst ammung
Theater schauspieler
ĠWurz el
grÃ¤ ber
ĠLiss abon
ĠMagd alen
F er
O der
d ige
j ana
Ġw eiten
ĠK lage
Ġf ree
Ġf ragen
ĠL ak
ĠL eucht
ĠCh annel
gl Ã¼ck
ĠHaus halte
ĠFahr zeugen
Ġaktu alisiert
ĠPat ient
ĠGen au
ĠÃĸsterreich ische
Ġinner e
SC H
ĠEhe paar
ĠAf plibPackage
Mon itor
Ac tivity
dep endent
ĠNa gel
steuer ung
ĠEuropameister schaften
Bew egung
ĠStaatsb Ã¼rger
ĠVog t
ĠLibr ary
ĠLiebl ings
feature ID
zut age
E qu
f inanz
f onds
g ium
l ic
w ider
st eht
st Ã¤tt
an schluss
al ity
ar est
et tel
ĠK eine
ĠP yram
ag ert
ĠIn vas
ĠAn liegen
ĠAn sonsten
Ġc ustom
Ġtr ugen
ĠStadt bezirk
An t
Ġsel ect
Ġeinz us
ĠFrei heits
ĠCon st
ĠRad sport
ĠProduktion en
ĠEnd spiel
ĠGran de
Rem ote
match es
ĠSor timent
ĠlÃ¤ng st
ĠProj ekten
Ġbedro ht
Ġdenkmal geschÃ¼tz
ymm etr
D av
P ierre
k Ã¼hl
Ġw ord
Ġdie jenigen
ĠD opp
Ġf ern
ĠT ast
ĠR eturn
ro g
ro v
ĠU hren
ĠSch eiben
Ġo k
Ġt x
Ġc ommerce
eut zutage
Ã¤t sel
ib us
18 75
18 79
br ach
Ġ17 0
setz ungs
fÃ¼ hl
ĠWeb prÃ¤senz
Mar ie
ĠDu o
ĠPer u
hÃ¶ fen
Ġaufge f
ĠGu ido
Ġerz Ã¤hlen
Ġexist ing
herr n
ĠhÃ¶ch st
gra ph
ĠGericht shof
Ġac tive
Ġverschw unden
A K
P rev
d orff
p assung
y en
Ġw here
ĠF K
Ã¶ pfer
ent urm
ĠSch ichten
ri fft
ĠSp ektrum
ru ption
Ġsie d
Ġ18 31
ĠOl iv
At tr
ĠRom ane
ĠKultur en
ĠIns assen
ĠrÃ¶m ischer
ĠAufent halts
ĠWirk lichkeit
ĠKart off
Ġsamm elte
Arb eits
ĠUd SSR
S u
in sp
ĠP ut
Ġp ur
Ġbe ur
enn te
vers uch
ĠKon g
sk ammer
lei den
En vironment
ym ph
ĠKl etter
ren zen
Sch edule
Ġkl icken
IN VALID
ĠgroÃŁ zÃ¼g
ĠPol ar
ĠKunst denkmÃ¤ler
ĠVerb rechen
ĠRÃ¼ck zug
ĠMag net
uck er
ĠTor p
ĠRel ief
ĠMos k
Ġamer ikanischer
Ġentscheiden d
Ġsowjet ische
ĠGrÃ¤ ber
ĠPersp ektive
G eh
G etter
W ahl
f lie
n ing
ch annel
ĠS ey
ge stellte
Ã¶ hr
um pen
ist iken
eb t
Ġl Ã¤dt
ĠIn sol
op fer
utz er
An dre
Ġ10 5
bo und
utt ons
ĠNeben fluss
195 3
Ġgelang t
Ġap ply
ĠZimmer mann
Ġhab ilit
russ isch
ĠJubil Ã¤um
ĠSyr ien
PAT H
B ilder
B asketball
H ar
I con
L es
S uccess
È Ľ
Ġd einer
Ġd own
ĠD ag
Ġm ut
ĠK ies
ĠF euch
ĠH ydro
ĠW ho
ĠC osta
Ġg lauben
18 83
ĠCh ild
ĠVor sitz
ĠKon se
teil ungs
Ġteil t
ĠStud ierenden
ĠUr kunden
hand le
ius eppe
ST AT
welt meisterschaften
wissenschaft lichen
ĠSen ator
189 7
ĠService Future
Ġprak tische
Bundes staat
Ġirgend wie
H C
st Ã¤
ĠS Ã¤u
ĠB ilden
Ġm ol
ĠR esp
ro duktion
ĠN Ã¤hr
ĠJ ason
ra c
ĠSch iller
Ġunter richtet
ĠAus rÃ¼stung
tig ungen
ĠAb bau
eigen en
ĠUm frage
Ġges perrt
Ch em
ide en
ĠChar acter
ĠClass ic
eiger t
ĠLog o
ĠPil ger
Ġprofession elle
Ġangen ehm
Ġdarauffol genden
H K
g ro
i ation
u gel
w il
ĠB ap
ĠD egen
ĠF ulda
ter nen
ĠH end
ĠL Ã¼b
ĠC A
ien ne
ĠSp anier
ĠAr te
ĠAb fahrt
ss l
ev oll
Ġnoch mal
up e
inder te
ĠDar in
bet on
ĠFach bereich
US A
ĠHeil ige
Ġ180 7
ĠBeruf ung
ĠUl m
ĠGot ha
Ġ179 3
ĠverlÃ¤ sst
Kultur denkmal
ĠSec ret
ĠMittelalter s
Ġrep ubl
Ġplan en
Auth or
lok omo
Ġregul Ã¤ren
ĠDepart ment
Ġfas zin
T otal
g Ã¤rten
n ames
s ow
ĠB innen
ĠP iz
ĠP ause
Ġf lag
Ġauf bew
ah m
lie hen
enn amen
geb ra
18 70
18 84
mit ten
ĠBo ots
ĠBundes staaten
Ġres et
ĠRech en
ĠHoch schulen
Ġersch ossen
ĠZwei fel
Ġvorhanden e
ĠTest s
Her ausgeber
Ġhal ben
Â» ,
ĠBud get
ĠHÃ¶r spiel
Ġausgew Ã¤hlten
stift ung
ĠHaar e
ends With
Ġmensch liche
sbed ingungen
Ġkost et
Ġangrenzen den
? âĢľ
K om
M ac
T al
a ine
h Ã¤ngt
v ision
Ġ eig
ĠP rÃ¤sentation
ĠH l
ĠH ugh
ĠR ande
ber eiten
Ġl ob
Ġl ohnt
ĠAn stieg
In tegr
auf bau
Ġtr ock
ian i
pro vinz
ogra fen
gew ehr
Ġen orm
riv e
ograph ic
upp er
druck s
Sh op
Ġ179 4
Kir ch
ĠÃľberg angs
Ġgez ielt
Ġenth ielt
/ {
B L
W N
i u
ge laden
Ã¤ k
ĠB ah
Ġb ulgar
ĠD irk
ĠK ru
rei z
ah ler
ĠIn fo
op hen
Ġent sprach
oc aust
Ġ0 2
los ure
ĠRei fen
Ġho hem
LE D
čĊ čĊĠĠĠĠĠĠĠĠĠĠĠ
Ġsol ange
iat ischen
ĠÃ¼b licherweise
Th omas
ĠEvangel isch
Ġbegr aben
Ġdre hte
ĠjÃ¼nger e
ĠBiograph isches
ĠPetr us
ĠgenÃ¼ gend
E SCO
R M
a sten
sch reiten
Ġs uchte
ĠP s
ĠH ohl
ĠVer luste
ĠAr tillerie
ĠPro tagon
Ġab schloss
18 78
... ]
ĠX I
Ġbeh andeln
Ġwill kommen
Ġkurz zeitig
ĠHa ber
vel ope
Ġqualif izieren
ĠLuc as
Ġanges iedelt
Stud ien
ĠDiff erenz
ĠStell vertreter
Ġmer ge
ĠRepar atur
Ġleiste te
G A
G i
H g
R Ã¼ck
S zene
u ste
v oller
Ï Ħ
Ð ´
ĠS we
sch Ã¼ler
Ġein fluss
ĠP rivate
ĠH amilton
Ġan zeigen
ĠZ in
ĠSch aum
ster ben
Ġbe deckt
ĠSp ons
ov o
vers ation
ĠUnter k
ĠGroÃŁ vater
ĠBeg leiter
ĠSk ispr
Ġkon kr
ĠVers icher
Ber echnet
ĠHin dern
sl eiter
aun us
flug zeug
Ġtechn isch
Ġfinanz iert
Ġap plication
ĠGÃ¤ sten
Ġspec ified
Ġmel dete
ĠgewÃ¤hr leistet
ĠNeum ann
Absol vent
Bran denburg
ĠRal f
ĠJimm y
ĠAntwer pen
d n
r v
z end
in ischer
ĠM am
Ġin ternal
ĠG un
ĠP anz
ĠT rÃ¼
ĠT iefen
Ġg eile
eb r
Ġt at
Ġun be
ĠÃ ģ
pf ung
ĠAuf hebung
Ġbes ei
sb uch
Ar tikel
ĠQu artet
Ġeinz iges
Ġbel egen
bet eiligung
ĠVolks schule
ĠFer tigung
ĠSil v
ĠAs yl
osoph ie
ĠIde al
ĠHall er
Ġzul Ã¤ss
ĠKÃ¶nigreich s
ĠSteuer ung
ĠTages zeitung
ĠNÃ¼rn berger
ĠAuff assung
asp iele
Ġpart ition
Liter al
beam ter
ĠRobin son
ĠAtel ier
iscons in
D abei
Z iel
p us
á º
Ġ tier
st rei
ĠS ix
Ġb ud
ĠD Ã¼r
ĠM obile
ol izei
ĠP rad
ĠW etz
Ġg ast
Ġp or
ĠDie sen
eg a
men gen
ern d
ĠSp er
Ġab gebaut
18 81
ac tive
(" -
Ġ17 90
Ġ10 1
ke a
ĠMed ium
ĠPark platz
ĠPor zell
Ġeinzel ner
vo gel
Ġzeich nete
ĠFlie sen
ĠkÃ¶nig lichen
Ġbelg ischen
ĠSupp ort
Ġkonzip iert
ĠBerat ungs
SAR L
A g
f la
h ans
k atalog
Ġd ick
ĠĠĠĠĠĠĠĠ ĠĠĠĠĠĠĠ
ĠK lagen
ĠC ontinental
ra h
ĠO K
eb all
ien d
ĠIn sp
ĠAn notation
Ġent tÃ¤u
18 80
ĠZeit ungs
En gl
stan de
iet ung
Sp ez
ĠWei h
ĠNational park
Ġte sten
ĠTechn ische
Ġhistor ischer
Ġleben s
Ġung laub
ĠRis ik
Ġvert eidigen
Sta ats
Ġerfol glos
H as
N UM
T M
j as
in haber
ar isches
ĠB eth
ĠD ak
ĠM eier
ger ichte
get Data
ĠAus flug
18 76
Ġgew achsen
ĠSpiel ers
ĠSte ck
Ġselbst verstÃ¤ndlich
ott a
ativ itÃ¤t
Ġwei ss
not Null
Ġregel mÃ¤ÃŁigen
Ġwirtschaft lich
ĠSab ine
ĠAre al
LOG GER
ĠArchÃ¤ ologie
Christ ian
Ġhoff e
sem ester
> -
G N
G RO
S etz
s ame
Ġ 000
un ivers
ĠS echs
it r
Ġw olle
Ġm ember
ĠK ick
ol ine
Ġh yp
Ġan halten
ĠZ irk
ag on
ĠIn quis
tig keits
if izierung
Ġ17 00
Ġbef asst
ĠKÃ¶nig lichen
schn ell
zei tige
aktiv iert
Ġem p
ĠBru ce
ĠKan te
Ġmod ule
ĠSied ler
Ġselten er
Meister schaft
ĠfÃ¼hl t
grenz ung
ĠGlÃ¤ ub
F INE
G old
L C
a o
m ak
u tive
x FF
sch lies
ĠB BC
ĠG ug
ĠG itter
ĠH ef
ĠL j
um ph
ĠV ision
ungs verfahren
ĠAr tist
ĠPro st
Ġdeutsch es
ĠMus kel
Ġange meld
ĠAd j
ĠFor derungen
Ġpar ser
zie hung
hÃ¶ hle
IT E
ĠGu ard
IC T
Ġ180 4
ĠHe alth
Start seite
ĠBal kon
Ġhab t
rel ation
Dur ation
Ġkom fort
ĠExpl os
ĠBundesverdienstkreuz es
D river
R om
ĠS lowen
sch ungen
ĠB un
le hen
ĠW are
ĠR ange
ĠR Ã¤umen
re q
ĠV eter
Ġge lo
ĠSch o
ĠSch acht
Ġaus reichen
Ġaus sehen
Ġc ool
ub s
ĠSp alten
Ġ18 28
Ġent scheidet
pf arr
15 0
ĠAut omat
ina e
eig n
Mit glieder
ĠVol umen
ĠWeiter lesen
ĠSchiff es
ĠRegel ungen
row ser
ĠWal ker
bÃ¼ chern
Ġentstanden e
inc ipal
print StackTrace
Ġprak tischen
Supp ort
ĠGlock e
ĠKolon ie
ĠHard ware
Ġwunder schÃ¶n
alys is
ĠBade zimmer
Ġhr sg
ĠBatter ie
ĠWalt her
ĠPac ific
ĠMuh ammad
ĠUrspr ungs
A ktiv
M el
R echt
b inding
es is
al ische
sch lei
sch Ã¤den
Ġw ild
Ġs ank
ĠA ri
ĠF loat
Ã¶ konom
ir i
Ġzu stÃ¤ndigen
he ft
Ġst ep
ĠAn sprÃ¼che
ĠEr hÃ¶hung
Ġbe zahlen
ass istent
Ex tr
ia de
ĠGr em
ĠNach ruf
att formen
ĠfÃ¼hr ende
ON G
ĠFamil y
ĠEurop ap
ĠPlatz ierung
ĠBuch t
Reg ister
ĠFolge zeit
Ġcreate d
stÃ¤ndig keit
Ãĸ ff
spro blem
ĠSen ats
ref erence
rÃ¤n kung
ĠprÃ¤ z
ĠViel leicht
Gr Ã¼n
Ġtyp isch
emin ar
Ġpass word
Ġqualif izierten
Ġcom pare
ĠWettbewerb s
ĠSem ester
ĠSauer stoff
M atcher
b els
u in
st one
ĠS ultan
Ġw on
am ar
Ġn ames
Ġf icken
ĠT akt
ĠR Ã¶ntgen
Ġer zeug
ing h
Ġg arten
ĠU t
ĠSch rau
ĠSch ienen
Ġst reng
Ġsch einen
ĠAr gument
18 71
Ã¤l z
Sch ul
Ġbek leidete
ander s
Ġange griffen
ĠLe ber
ĠGe orges
recht liche
ĠBew usstsein
ĠPat ent
ĠGen re
kap ital
ĠAust in
mon at
Ġsk ip
ĠEintr acht
ĠGÃ¶t ter
ĠMittele uropa
Ġ655 35
B R
P ubl
S Ã¶hne
S imple
T AG
w Ã¶rter
at form
ĠB ey
ĠB uff
ĠD avon
ĠR af
ĠL ov
ĠI F
Ġh ielten
Ġge gliedert
Ġver folg
wei tern
Ġr hein
Ġsch lossen
ug by
Ġunter s
18 77
18 82
ĠVor kommen
tem pel
fl Ã¼ss
fÃ¼hr ungs
stein s
icher heits
Aus gabe
ĠFre y
ST ART
ĠPat rim
Ġinter nen
Ġschwer er
leb ten
ĠErd b
fÃ¤h ige
ĠOrd ner
Ġgriech ische
durch schnitt
Ġhil f
Ġav ailable
array copy
ĠBeob acht
kre te
ĠSozi ologie
bran che
ĠIndust ri
ĠHels inki
ĠEntert ainment
I dentity
m Ã¼ller
p es
s is
z ien
č ĊĠ
Ġein gew
ĠR asse
ĠR TL
ĠL il
re ktur
Ġge druckt
Ġg laubt
ĠSt ore
ĠSt one
sp unkte
ĠVer mittlung
ĠEin nahmen
auf ent
Ġ4 000
ĠVor sprung
ĠVor runde
ĠVor bereit
ph abet
ĠPl ant
ĠzurÃ¼ck zufÃ¼hren
Ã¤rz te
ĠLandes regierung
stru ct
ĠDi mension
ĠSchm etter
ĠFrankreich s
ĠKurz film
ĠDist rik
Ġrem ote
ĠCal c
ony me
ĠQualif ikations
ĠStoff e
ĠTisch tennis
knÃ¼ pft
Ġliefer te
B ayern
D etail
G ast
O ffiz
b on
h ielt
s iedlung
u it
Ġd evice
Ġd ritter
Ġs au
Ġv iert
ĠM ust
ĠK rak
re gen
Ġver Ã¶ffentlichen
ĠâĢ º
ot ti
Ġr Ã¶
Ġ18 19
Ġsp ir
rÃ¤ g
ĠCh irurgie
unk er
Ġbes ieg
Ã¶l n
ĠUnter grund
An g
ren e
rech ten
ĠFr isch
ĠLei der
Ġbezeichnet en
SE CON
Ġwahr genommen
âĢĿ ,
frau en
ĠKirch spiel
Ġkrit isierte
ĠBox er
Ġzeich nen
Ã¼ll te
ĠStan ley
ĠGitarr ist
D own
H ead
J ed
T x
U hr
U uid
a art
d ater
f achen
s n
Ġ art
ei b
sch atz
Ġs ing
ĠD ess
ĠM Ã¼
ĠM eth
Ġein gel
am azon
Ġm ach
ĠT ig
âĢ ¯
ĠC ON
ĠSch e
ed uler
Ġbe z
ĠSp eyer
ĠSp eed
ok ko
En glisch
dig ungen
res et
Ġen gen
Ã¤nder ten
ĠLin ux
Ġ180 9
Rep rÃ¤sentanten
riech isch
ĠAch telfinale
ĠEhr endoktor
TR AN
Valid ator
ĠBrau erei
Ġlit au
Leichtathlet ik
+ "
1 16
P OS
k ritik
w Ã¤hlen
au scht
Ġs ure
ĠK han
Ġf all
ck te
ĠSch ema
get Bytes
Ġ18 24
Ġ18 33
ard t
18 86
ieren der
sk e
Ġle ere
kl am
ĠPh asen
ĠSk el
ĠBew ertungen
ĠKreis stadt
Ġversuch ten
BC I
ĠEmp ire
ĠPersÃ¶n lichkeit
ĠAusgrab ungen
F ailure
I ST
M issing
R ud
w Ã¤nde
in sert
ol y
ĠZ elt
ien e
Ġst iegen
get Text
ess a
ĠSie b
tern ehm
18 72
be arbeitung
dr unde
lag t
Ġ7 50
Sch au
bez irks
ĠWill en
ĠKreuz es
Ġerfolgreich sten
ĠLog istik
ĠWel che
Ġwes entliche
ĠMÃ¼l l
ĠBÃ¶ hm
ĠWahr scheinlichkeit
lowak ischen
ĠUrs achen
ĠtÃ¼rk ische
ĠClau de
ĠLy on
Gew Ã¤sser
ĠKrist all
ĠAgr ar
ĠErwart ungen
ArchÃ¤ ologischer
M Ã¤nner
P or
S uffix
Ġ ĊĠĠĠĠĠĠĠĠĠĠĠ
Ġ echten
st itel
ĠS ri
el in
ĠB reak
ĠD M
ĠD aw
de z
ĠP le
Ġf ilm
ĠW at
ĠR ast
re am
Ġg old
ra ham
ĠZ wick
ĠSt uck
ungs weise
od iert
ev al
ĠGemein det
esse d
Ġbesonder es
back ground
Ġhistor ique
ĠÃ¼b te
ĠWissenschaft s
ĠJournal istin
ĠKontr oll
dat ei
Ġitem s
ĠVerm ess
Ġchrist liche
PO ST
Ins gesamt
Ġjahr el
ĠMinn esota
ĠBehand lungs
O D
b rid
g h
k andid
p la
u alitÃ¤t
} .<
ĠS ain
it at
it enk
Ġs ortiert
et tern
ĠM ent
ĠM ey
ĠK iss
ĠK anten
ĠK enntnisse
Ġf ik
Ã¶ hm
ĠL ehn
ĠL etter
ĠN BA
ab ama
Ġg Ã¤ng
Ġver dient
ĠIn fl
Ġc ontains
ru pt
ĠUn it
ib ia
Ġ" ]
Ġre d
ĠCh i
Ã¤ch ern
fÃ¼hr ende
reg on
ĠDi agnose
čĊĉĉ čĊĉ
ĠLondon er
ĠSen ior
getS impleName
Ġklass ischer
Sport ler
ĠRitter gut
word s
Ġposit iven
Ġextr act
produktion en
ĠPoten z
ĠVermÃ¶gen s
ĠAster oiden
Dest ination
ĠKav allerie
ĠTrink wasser
f aktor
k rat
l ier
m ode
m ethoden
un ternehmer
es ia
sch ew
Ġs uch
el ung
ĠA mal
ĠH i
ĠT ru
ĠR i
ĠC ow
ĠC anad
Ġzu zu
ĠAl ice
Ġgew Ã¤hlten
Ġbef reit
ĠÃľber reste
ĠRu ine
Ġstehen de
Ġrel ation
Ġmein te
Ġangeb aut
Ġexist ierte
ĠPass au
andid ate
kap itel
Ġdest o
ĠRez eption
Ġausger Ã¼stet
Ġdeutschsprach ige
ĠZerst Ã¶rer
R ect
f Ã¤r
g ei
p rÃ¤sidenten
s achsen
t age
er ial
ĠK evin
ĠF ur
ĠP Ã¤dagoge
Ġf ehler
ĠC art
Ġge hei
ik um
ĠSch iffen
sp ec
he et
ĠIn itial
In tern
ĠLand schaften
br em
ĠBau werke
Ġgr Ã¶s
Ġher an
ID s
ĠVerb Ã¤nde
ĠDar unter
ĠFre ie
Ġerw achsen
Ġrech ter
anc y
Ġstud ieren
ĠStutt garter
Ġpl ugin
ĠBegriff e
Ġverz wei
grÃ¼n der
ĠDÃ¼sseldorf er
Ġstammen de
Stra ÃŁen
ĠMand at
ĠBÃ¶r sen
Russ land
Ġherk Ã¶mm
ĠInsol venz
Setz liste
( -
d l
Ī ŀ
ĠK orea
ĠP ig
ĠP ont
ĠH ost
tr ansp
Ġden ke
Ġan stelle
Ġver schl
ĠSch mal
ĠSt abilitÃ¤t
ĠÃ¼ber arbeitete
ĠUnter haltung
ĠGes ellschaften
ĠWei s
ĠBest immungen
ipp er
gebiet es
ĠLei h
FuÃŁball nationalspieler
ĠCl aus
ĠWinter spielen
ĠTour en
ĠChe fredakteur
Ġwes entlichen
kraft werk
Ġide ale
Ġerl itt
ĠFÃ¤h igkeit
ĠBem Ã¼hungen
ĠangehÃ¶r te
ĠPoliz isten
Ġnied rigen
ĠVe get
ĠArzn eim
ouv elle
ĠJugoslaw ien
E K
I Z
N amen
k reisen
m obil
ĠB olog
em on
ĠF oss
ĠR eut
ĠR eim
Ã¼r me
Ġver mein
iel te
Ġt iefen
ag ten
og o
Ġsie bten
Ġ18 22
Ġ4 50
St op
mal erei
ont act
ĠFl y
Ã¶l ler
ĠEl l
Ġeinz iger
ĠSÃ¼d korea
Ġverl aufen
ĠCon stants
Ã¶st licher
ĠBeh Ã¶rde
Ġ180 5
ĠEv olution
ĠHe art
ĠSicher ung
ĠHerren haus
ĠCor on
System atik
ĠStu hl
Th is
Comp uter
Ġgegeben e
Sel bst
ĠtÃ¤ glichen
ĠWol ff
Ġkrit isch
ĠSchlag zeug
Ġdein em
comm and
kom Ã¶die
ĠSoll te
ĠDial ekt
Ã©b ec
L L
b ab
b ing
ar ett
Ġs am
Ġs Ã¤chsischen
as List
ĠM ake
ĠW ith
ĠR in
ĠL amb
Ġer mitteln
Ġauf zunehmen
Ġt ab
ĠSt eiger
Ġr eine
get Int
ĠÃ¼ber region
Ġvor erst
St ats
fol io
eim ate
Ġber uht
amen ten
Ã¶ch er
Ġersch lossen
Ġqu alit
ĠLebens jahr
Ġerf uhr
mod elle
ĠVerwaltungs sitz
Ġnational er
Ġverlie bt
ĠAch ter
Ġtrans form
Ġpass ieren
jo urnalist
Ġwohn en
ĠKlass iker
arkt is
Declar ation
ĠProfess ur
ĠJahrhund erte
Requ ired
Ġgere gelt
D N
m ungs
m ans
v ariante
á ¹
an kt
ĠD eh
ĠG amb
Ġau st
Ġf Ã¶rder
ĠC av
Ġver glichen
ĠSch merzen
ĠâĢ ĺ
ver hÃ¤ltnisse
ĠÃ¼ber prÃ¼ft
Ġsch icken
Ġ18 23
ahn e
ip se
ock er
Ġviel mehr
ĠGrund stein
ĠSe es
ĠSer ge
ĠCo us
com e
haf ter
ĠmÃ¼s ste
anc ed
IC E
ĠFil ial
186 9
ĠAf rik
ĠSar ah
Ġgriech ischer
funktion en
DI AL
Ġdec ode
ĠTelef onn
Ġschlech ter
ĠWÃ¼r fel
ĠHub raum
ĠJed es
Ġgros sen
Ġfot ograf
ĠMemor ial
Ġhor izont
E uro
M os
p ush
p lain
Ġd ek
ĠS tett
Ġv en
Ġin sert
ten ded
ĠSt Ã¼rmer
ĠStr Ã¶m
Ġvor geschlagen
ill ons
ohn ern
pt on
Ã© es
ĠgehÃ¶r enden
ĠPf le
such en
ĠMo tive
ĠMitglied schaft
recht lich
ĠGl etscher
Mar kt
ĠZahl reiche
ĠPlan et
ĠTal ent
Ġklass isch
ĠEntscheid ungs
ĠPop ular
ĠSach ver
Fol gende
Change d
ĠRap per
dehn ung
Ġidentif iziert
ĠLaus anne
Verwalt ungs
ĠErdb eben
1 13
S dk
h Ã¼gel
p attern
w etter
ar ing
Ã¤ ums
ĠF ull
Ġf uture
ĠR iga
ĠSch loÃŁ
ĠAn ruf
Ġc ell
im ate
Ġunter ird
Ġab stra
St Ã¤d
ĠUnter lagen
for dern
Ver fahren
ign y
aut omat
Ġverb leiben
ĠVerb rauch
zei tigen
ĠEm ma
ĠSk ir
Leben s
Ġgemein nÃ¼tz
Ġte uer
Ge ometry
Ġad ded
ĠAir port
ĠHin blick
(( (
186 8
pol izei
Ġproduz ieren
ĠÅ ½
Ġpassen d
ĠVerteidig er
Ġsah en
Ġhochwer tigen
ĠArk ansas
ĠMeld ung
ĠRac ing
Ġverabschied et
J ean
Ġ ..
an trieb
ĠB ak
ĠĠĠĠĠĠĠĠ ĠĠĠĠ
ĠK us
ĠK essel
ĠF ri
ĠG iuseppe
ĠE leg
ĠP for
ĠR Ã¼
Ġer setzte
ĠO ch
ĠIn stand
Ġst eigern
Ġst irbt
ĠÃ¼ber legen
ĠY u
ĠSo ul
Ġgesch afft
Sp iele
50 9
med ia
Ã¶pf en
ĠHart mann
Ġvergleich en
ĠÄ °
cas Type
LI ST
ĠBeweg ungen
Ġeinzigar tige
Beg riff
PRE FIX
ĠChallen ger
bil dern
Ġseiten s
Maxim ilian
) ),
N eue
ĠD all
ĠG ri
ĠE qu
ĠT hal
ĠT wo
ĠL ug
Ġer weitern
ĠI X
ĠV iv
ro th
ĠN ak
ĠJ ochen
ĠC olon
Ġc ause
Ġbe deut
ungs zeit
pp ed
18 73
18 74
ov on
ĠFl Ã¼sse
ĠKon sum
inder ten
Ġges endet
ĠAd ams
ĠEl len
ĠSe el
ĠGener alsekretÃ¤r
ĠBas ic
ĠRÃ¼ck seite
ĠWer be
leben s
Ser ializer
ĠhÃ¤ufig sten
Her steller
vis it
ĠbeschÃ¤f tigen
Arch iv
ĠBil anz
stÃ¤d te
led ge
ĠCa stell
ĠSchreib weise
Ġlatein ischen
Ern st
ghan istan
7 00
B urg
D ann
P ane
R obert
g io
g Ã¼ter
v ing
z onen
Ã ²
Ġ ~
on struktion
al p
Ġein sch
Ġm iss
ĠK ansas
Ġf usion
ĠT U
ĠT uch
ĠR ain
ĠN OT
ĠJ g
ul ieren
Ġun klar
ĠSp err
Ġ18 11
ĠBer kel
gl adbach
An dere
ans ion
ator ische
eten zen
wick elt
amp a
Ch arl
ĠTr in
ĠGl anz
ĠGl Ã¼cks
ĠArbeit splatz
ĠGel b
ĠArbeits gemeinschaft
wÃ¼r de
ĠUl tr
ĠTurn iers
ĠschÃ¶n er
186 6
herap eu
ĠJazz musiker
Ġgriech isch
ĠCan ada
ĠPaar e
ĠAuff Ã¼hrung
ĠniederlÃ¤nd ische
Bl ank
Ehemal iges
ĠRau chen
ĠdÃ¤n ischer
typ es
ĠRicht linien
Ġschrift lich
Ġbrasilian ischer
//// ////
ĠOri ent
ĠvorÃ¼ber gehend
Ġstet ig
) }
G ar
J ar
Z eichen
k ompl
l yn
n ick
s icherheit
w ann
ĠS und
ĠA ra
ĠD au
ĠP Ã¤dagog
ĠP kw
Ġf ran
Ġk onse
Ġl uther
ug ins
schie ben
rich en
ond a
Or dens
ĠLu kas
Ġgel Ã¶st
ĠVerb ot
aw t
ĠHÃ¶ hlen
Ġabge halten
ĠZug leich
ĠDis c
RO M
has Access
ivid ual
ĠprÃ¤sen tierte
esh old
ĠElem enten
Ġrep rÃ¤sent
gener ate
national mannschaft
ĠProp st
ĠMid d
Ġimpl emen
ĠGebiets reform
ĠErm land
ĠGul den
ĠLoth ar
ĠObergesch oss
ReprÃ¤sentanten haus
F E
L it
N ULL
c ole
w t
č Ċĉĉĉĉĉ
or iginal
Ġs ome
Ġm obile
ĠE cht
Ġf und
Ġf ur
ti ce
lich keits
ad ier
ĠSch ult
get Next
Ġwir st
pp s
rÃ¤ te
ĠAb kommen
ĠIm mutable
att an
ĠJo urn
Sch m
lau tern
ilder t
ĠfÃ¼nf te
Ġbeh eimate
++ ]
ĠBesitz ungen
ĠOffiz iere
ĠKreuz ung
ĠEhren bÃ¼rger
Ġstamm ten
Ġwohn zimmer
ĠGesprÃ¤ che
Ġacc ount
ĠIllustr ationen
Ġakadem ischen
Bek annte
C arl
I r
L Ã¤ufer
O FF
p refix
Ġ orthodox
ie hen
an us
Ġs obald
el i
as a
ĠM S
ĠF our
ĠF ugger
Ġf etch
le der
ĠR ick
ĠR asen
ab wehr
Ġan wes
ik ate
ĠSch ieds
Ġp ack
ĠSt all
Ġr unden
get Node
lie f
ĠMa ck
fl ush
ĠBr Ã¼ck
Ġpro gramm
mit gliedern
lag ert
sb esch
sb ibliothek
ĠBau arbeiten
ikan ten
sel f
Ġbet rifft
ĠBe er
iden ce
Ġ% ,
ĠGegen stÃ¤nde
Ġqu eue
Ġper man
ĠWer den
ĠBi ologie
ĠOlymp iasieger
gar de
ĠOrts name
ĠEing angs
ĠAuftrag s
fÃ¤h igen
ĠHu ber
ĠUN ESCO
Ġvergleich sweise
ĠWissen s
ĠWik ipedia
ĠErkrank ungen
ĠAusgang spunkt
ĠMargar et
Jose f
Tran sport
ĠFerr ari
Entfern t
ĠGord on
G S
K reuz
P UT
S epar
c ies
f Ã¶rder
Î ½
ĠS ED
as ar
ĠM A
ĠM ale
Ġm ache
ĠK iew
ĠE manuel
ĠT hrowable
Ġan trat
ĠZ ier
sp rÃ¤sidenten
Ġunter nehmen
Ġget an
oun ts
fÃ¼ gt
ĠInd ones
Ein en
ĠKn ie
ĠStand orte
ĠSommer spielen
čĊ čĊĠĠĠ
weis ungen
ĠPlan eten
ĠKompon ente
uel a
sl etter
Ġeurop Ã¤
Jo urnalist
ĠVolk es
ĠGerman y
ĠunabhÃ¤ng ige
ĠBra unk
ĠMountain s
ĠHow ard
ĠjÃ¼ng ste
Ġpopul Ã¤r
Ġthr ough
ENG TH
R ate
l Ã¼sse
m aur
o es
Ġd elta
ĠS ockel
Ġw ander
ĠK Ã¤l
ĠL ungen
re port
Ġh Ã¤ngen
ro st
ĠJ en
ĠfÃ¼r s
Ġp Ã¤dagog
sp Ã¤ter
erk rank
rit able
anz eige
ett y
ĠTeil nehmern
Ã¼nd lich
ĠBeg leitung
Person en
mÃ¶glich keit
ĠAnt hrop
ĠDruck er
Ġfr ame
ĠBot aniker
fil men
ĠPhilipp inen
sto ÃŁen
ĊĠĠĠĠĠĠĠĠĠĠĠĠ ĉĠĠĠ
Co uld
ĠOption en
Ġkanad ische
ĠHauptr ollen
Ġco uld
ĠgewÃ¤hr leisten
ĠKro atien
Ġruh ig
ĠRal ph
ĠLÃ¼n eburg
C annot
K aiser
N et
y ter
st ill
Ġv ollen
ĠK i
ĠF at
ĠG UI
ĠP ia
ĠP fe
Ġf ail
Ġf ried
ĠL edig
re geln
ĠC lin
ĠC her
uf Ã¼gen
aus stellungen
ac cess
Ġwieder hol
ĠBe eth
Ġres erv
schlieÃŁ t
Ġverl iert
ĠÂ ½
ograf ien
ĠRom ans
ĠHol ocaust
ĠLin col
tic al
ĠWar s
ĠZahl ung
Ġbede utete
fass ade
Ġmein es
ĠNot wend
ektion en
Br ig
Ġ179 2
ĠDenkmal pflege
ĠTÃ¼r ken
ĠRab att
ĠKomposition en
ĠGewerk schaft
ĠBegr Ã¼nder
.:.:.:.: .:.:.:.:
ĠMetrop olit
ĠgewÃ¶hn lich
Pointer Exception
ĠVorles ungen
Denk mal
ĠEnzykl opÃ¤die
= \"
B itte
C ast
L y
M C
P redicate
R ein
W F
z it
ĠS ier
ĠA fter
Ġb utton
Ġm at
ĠW arm
Ġ2 20
ĠN ATO
Ġver dr
Ġ18 27
ech en
geb r
ĠAus lands
Ġ0 6
br achte
be er
Ġweiter entwick
stan ti
Ġeigen em
ĠHoch zeits
Ġ' \
Ġlang jÃ¤hrigen
Ġho hes
Ġschw ach
Ġabge legt
ĠMark graf
ĠLauf zeit
ĠAnt arc
Sh ape
ĠErfolg s
ĠEben en
ĠPe ople
ĠPublik ation
Ġbean trag
Ġportugies ischen
ĠVerf asser
Ġkompon ierte
1 14
L ou
c raft
f acht
k loster
n itro
o a
w oche
ĠD j
ĠG ib
ĠH eiden
ĠW ed
ĠI ce
Ġk ro
ist o
Ġp Node
Ġdem onstr
os er
Ġun bew
Ġun regel
Ġr uft
Ġc re
qu et
stell bar
ĠAus lÃ¤nder
pro vis
Ġbeg leitete
wend et
ĠGef Ã¼hle
OR Y
Ġhei ÃŁ
ĠComm ons
All gemein
bed ded
Ġempf ohlen
kap it
the orie
bef est
ĠBayer ische
Ġchild ren
Ġlocal Var
ĠKult us
ĠFo od
Ġmel den
Ġpubl iziert
ĠOrgan ist
ĠtÃ¶ ten
ĠzeitgenÃ¶ss ischen
ĠColor ado
ĠRail way
ĠSchaff ung
G ruppen
M y
T ier
V ert
Ġ ec
st imm
ĠS alt
sch Ã¼tze
Ã¤ ule
ĠD raft
ĠD ynastie
ĠM ind
ĠP aw
Ġf ilename
ĠV amp
Ġk rie
ĠC emb
ĠO S
esch en
Ġsch me
oll y
stell ter
ĠMar ch
stan ten
Pro blem
ĠRech ner
Or ts
ĠSchul z
sst elle
Ġhinter en
ĠDis ney
ĠTab l
getC urrent
ymb ole
186 1
ĠKamp agne
ĠQue ens
ĠGeschlech ter
Ġcas ino
gÃ¤ ste
ĠRup recht
ĠEncyclop edia
L egen
M or
T uple
g st
h end
k Ã¤mpfen
Â ¼
au to
as y
Ġein her
ĠK ette
ĠG ei
ĠP R
ti zen
ĠH eid
il f
and es
ro it
ro tt
Ġg laube
ist urnier
ĠSch ad
ew ald
hn er
ĠEr haltung
op ing
uf a
Ġbe zahlt
auf tr
ĠAb bildung
ĠAuf stellung
Ġ10 3
ĠAd olph
ĠSe arch
Ġgeb rÃ¤uch
ĠSchul den
ĠStand orten
dienst es
ĠIt al
Ġdah inter
ĠTo uch
Content Type
ĠPan el
ĠAbst immung
olumb ien
ĠLaw rence
ĠRav ens
Schwe den
T ABLE
b anken
h allen
un fall
sch eiben
ĠA B
Ġb at
ĠM inden
ĠG Ã¼r
ĠE cken
ĠR aketen
Ġge heim
Ġg ross
Ġt wo
ff end
get Max
ĠSp in
Ġsch arf
Ġ18 26
qu ent
zen en
ĠAb bruch
fl ossen
Ġseiner zeit
zeit lichen
Sch ach
tor wart
Ġerst aun
ĠFilm fest
Ġausge liefert
ĠPf und
Ch arts
ĠBest en
ĠBeg leit
ĠHÃ¶ hle
Path s
uk le
ĠGeorg ia
ĠKur se
med ien
ĠStaat lichen
Ġmin im
Pl us
ĠRein igung
Ġung arischer
CE SS
ĠPan or
Ed it
ĠSon st
ĠKron en
sprÃ¼ fung
ĠThÃ¼r inger
ĠPassag ier
ĠAster oid
ĠHT ML
3 20
H P
H Ã¶
W ieder
c amp
t ail
v arianten
en ster
in formation
ie hlt
ĠS R
Ġs en
ĠD evelopment
ĠL utz
ĠV ent
ab a
ĠSch la
ĠVer einen
ĠVer anstalter
end eten
iz a
ĠStr ess
pf te
ĠAb kÃ¼rzung
av ior
ĠZeit alter
ĠAm ate
ĠGeb irge
gew erk
ĠPf eil
enk te
ĠNord seite
ĠRei ÃŁ
ĠArch ive
bet rag
Ġaktiv iert
ĠProjekt s
ĠGut schein
ĠKu pf
FI G
Ġhal f
MP TY
comp iler
ĠOut door
Nieder lage
ĠKlass ik
verl etzung
polit iker
ĠKÃ¤ se
ĠlÃ¤nd lichen
amazon aws
R oll
V irtual
h eight
m ore
in stall
ĠS orge
ge hr
it Ã¤r
ĠD ecke
ĠG liederung
is ser
ĠW DR
ĠL loyd
Ġal ign
ser tion
Ġum gest
tig ungs
th iop
ult ure
Ġber uh
gesch nitten
Pro vinz
Ã¶ff nungs
ĠBau t
Ar rays
Sch warz
ĠMon archie
ĠMal erin
ĠOst see
Ġschn eiden
ĠHof mann
ĠSol ar
ĠGeh alt
fest e
Jo in
ĠLeg ion
Ġvorher igen
ĠDisk uss
ĠBir ken
Ġschlech te
ĠGir ls
Ġtransp ortiert
ĠHandwerk er
ĠPlast ik
ĠTerritor ium
ĠKaros serie
ĠRotter dam
S tel
st ack
Ã¼ ten
Ġm essen
ĠK lem
ĠE L
ĠH eld
Ġer lÃ¤uter
ĊĠĠĠĠĠĠĠĠ ĠĠ
ik ationen
og ie
im iter
ĠÃ¼ber nahmen
ru hen
ĠAl ois
qu er
Ġtr eu
ian ische
ĠPl ate
ĠTh em
sel ect
Ã¼nd ungen
ON E
reu zt
ĠFor est
Ġben annten
ĠFr acht
gleich en
ĠEd mund
ĠCo uch
bez irke
ĠMannschaft s
ĠHa ag
ĠDam als
ĠTri umph
ĠHel fer
Ġmethod s
ĠjÃ¤hr liche
ĠPri ze
Da o
ĠHund ert
ĠGru yter
Komm un
Johann es
AuÃŁ en
ĠBegeg nungen
Ġbefest igt
Ġverlang t
ĠPubliz ist
Ġhabilit ierte
A A
A fter
F M
P reistrÃ¤ger
j ord
s zene
Ġ Ã¶stliche
on iker
ĠS ven
ĠS urf
ar Access
ĠD elta
ti um
ĠL enn
ĠN ase
ĠC ord
ĠO ok
Ġauf wend
ad ap
Ġver legte
Ġl an
Ġbe zog
ĠAr min
ĠAr range
ek e
fl Ã¤ch
Ġbet onte
ĠPar ad
ĠMin en
ĠMÃ¼n zen
ĠSe eb
ĠDu ft
Ġverm ehrt
minister in
Ġâ Īŀ
ĠKomp anie
ĠKraft werk
ĠBor is
ĠFund platz
Best e
Ġaustral ischer
Ġorien tiert
ĠTats Ã¤chlich
Ġkirch lichen
ĠErwer b
ĠInterpret ation
FuÃŁ noten
ĠErmitt lungen
ĠAbhÃ¤ng igkeit
ĠSanti ago
D om
L ENGTH
T e
l imit
u der
w n
y y
Ġw ovon
ĠD in
ĠM P
ĠF len
um me
ro ute
Ġzu geschrieben
ien n
os kop
Ġsch malen
pl us
ĠBl ind
Ġgesch ah
12 8
ograph y
Ġern euten
ĠNieder lagen
Ġbew ohn
ĠEd gar
ĠGen uss
Ġne useel
Ġrech nen
ĠDre ieck
tieren de
lÃ¤nd isch
ĠRein hold
Le ague
ĠStandard s
Sel ection
ĠFass aden
Team s
ĠLit auen
Ġkonzentr iert
ĠGroÃŁherzog tum
ĠHÃ¶chst geschwindigkeit
ĠStol per
ĠRober ts
ĠBefrei ung
ĠConf erence
ognition Exception
k urz
r ab
r ier
Ġs uccess
et in
Ġm ac
ĠK ass
ĠK uchen
ĠK Ã¤mpfen
ĠG os
is es
ĠH unger
ĠL aser
il ation
ĠN acional
Ġk ons
Ġauf weist
ĠZ ag
lie ss
Ġtr ace
Ġ17 89
Geb iet
such ung
Ġgef Ã¼llt
ĠHo he
Ã¤ng ern
lauf bahn
ĠDr achen
ME SS
ĠAmer ikaner
ĠChar lie
Ġdeut liche
ĠMehr ere
Ġfl Ã¼ss
Lo op
Re gel
ĠGott lieb
Ġverz ichtet
ĠClub s
ĠjÃ¤hr lichen
Ġunbek annten
Ġgebild eten
ĠLeon hard
Ġflie hen
Ġgros se
ĠLincol n
A xis
H R
S ommer
l ation
w ise
ç ļ
st el
Ġs ettings
Ġein setz
ĠG iebel
ĠP un
ĠP end
ĠW enz
um fang
ĠV at
ĠJ r
ĠC ad
Ġzu stande
ĠâĢ Ļ
sp an
Ġaus ser
os is
ĠAn atom
Ġdurch fÃ¼hren
rau ÃŁen
av i
ack te
Ar mee
Ã¤nd ische
Ġange messen
ĠMan tel
ĠKunst historiker
RE D
olum e
Ġor ient
ĠBel ieb
Ge ographische
ĠNutz ungs
ĉĉĉĉ ĉĉ
Ġverz ichtete
ĠCal endar
verwalt ungs
ĠNorm andie
ĠRis iken
po ints
Cl ick
ĠAdels geschlecht
Ġinn eh
Stat istik
ĠKÃ¶r pers
ĠPersp ektiven
oir es
ĠDisziplin en
Sing les
ĠBÃ¤ cker
ĠJÃ¼n ger
ĠZut aten
zoll ern
ĠÃ¼berprÃ¼ fen
S onder
c ell
c luster
s ide
t hal
Ċ ĠĊĠĊ
in ens
ĠS ource
sch iffen
Ġs onn
ĠG Ã¤n
ĠE sch
ĠH arn
ĠL Ã¤ufer
ro ph
ĠJ h
Ġim por
ad Ã©
ag ner
Ġst immt
Ġun zÃ¤hl
Ġre konstru
pl ates
tem pt
ĠQu Ã©bec
Ġ10 2
ĠFÃ¼r th
File Name
ĠAnt eile
ĠGeh Ã¤use
Land tags
ĠPrÃ¤ sen
ĠWahr nehmung
Ġbein ahe
Valid ation
ĠAngriff e
Ã¶der ation
ĠKathol ische
Ġmass iv
ĠLandtags wahl
ĠgÃ¼l tigen
ĠAuft akt
PROPER TY
ĠAtl anta
! ");
H a
H y
H ER
K ritiken
P ersÃ¶n
sch i
sch anze
Ġs equence
Ã¤ tigen
ĠD ikt
ĠM essen
ĠP ep
Ġh Ã¶rt
Ġg eim
ĠSch affen
Ġst eckt
os k
kt oren
anz ahl
Ġbest attet
ĠBau denkmÃ¤ler
gew Ã¶lbe
ĠGer tr
Or gel
ief ern
ĠSÃ¼d seite
Ġgest iegen
Ġbeh ielt
Ġwahr en
ĠTurn er
Jo achim
Ġprom inen
Ġwohn te
oler anz
Ġrule X
ĠVerband es
ĠVerhalten s
Ġreduz ieren
ĠTit an
Ġprofession ellen
ĠSchr Ã¶der
ĠJon as
ĠBrig itte
ĠBeschÃ¤f tigung
Av ailable
ĠKel ch
ĠPho sph
Ġrenov iert
ĠSatell iten
Ġprote stan
ĠLedig lich
T en
a endert
f as
s eller
z iert
is i
ti ces
ĠW ur
ĠT auch
ĠL ess
ĠL ett
Ġk Ã¼r
Ġver eint
Ġver folgen
Ġp ackage
ver folgung
Ġr v
ĠAn sprech
get M
get Status
ĠPro gress
Ġunter e
ĠMit tag
ĠNach hal
az it
ĠKon figuration
sb ew
ĠGes ell
Ġbesch leun
Ġverw andt
ĊĠĠĠĠĠĠĠĠĠĠĠĠĠĠĠĠĠĠĠĠĠĠĠĠĠĠĠĠĠĠĠĠ ĠĠĠĠĠĠ
Ġstark er
ĠHeil ig
wÃ¼r fen
ĠBef Ã¶rderung
iam i
Ġkosten losen
Ġabsolv iert
Ġ179 8
zub ringen
imen sion
ĠGÃ¼ter s
Ð¸ Ñ
ĠÃ¼brigen s
Ã¤nk ischen
ĠÃ¼ brig
ACT ION
ĠSkulpt ur
ĠSÃ¼dtir ol
gesprÃ¤ ch
> </
S m
k amer
s ich
ie in
ar gument
et al
ĠF rom
ĠF eiert
ĠG arn
ĠG ouverne
ĠH Ã¤nd
ĠW LAN
ĠW ladimir
Ġan gewiesen
ĠAn passung
ĠEr halt
op ter
Ġtr ag
ĠAus wertung
ĠAb raham
par ed
bau meister
br ingung
spr inger
Sch wer
Ġzwischen zeitlich
Ã¤nd ischer
Ch unk
Ġarb eits
ĠEd itions
utt gart
ĠKat al
>> ()
ĠRev ision
ĠMe teor
rug uay
Block ing
ĠEich stÃ¤tt
Byte Buffer
ĠSchwar zwald
ÅĻ ÃŃ
ĠCa es
ĠHyp er
Ġbeeinfl ussen
ĠPok er
ĠZy linder
Ġrev olution
ĠBelast ung
ĠRestaur ierung
ĠNapole on
ĠCaf Ã©
Publik ationen
ĠPorzell an
çļ Ħ
. ;
H of
R untimeException
W ettbewerb
b lack
Ï ģ
st hal
ar fs
or de
ĠM auern
Ġin valid
ĠW ord
ĠL anc
Ġer inner
us z
om eter
ĠV ia
Ġver sp
Ġo wner
sp uren
sp anisch
op es
ungs ort
ste cken
Ġsp ont
set Name
Ġbef asste
ĠSte iner
for um
ide os
ĠEm ir
Ġmus st
stÃ¼t zung
uck s
Ġhinter lassen
ĠErst ligisten
AS A
ĠStad ium
ĠTa sche
Br Ã¼cke
ĠWol ken
Ġstattf indet
ĠAllt ags
Ġpubl izierte
Bef ore
ĠWitten berg
DIAL OG
" |
C le
f ull
j ekten
und heits
Ġs aud
Ġm ill
ĠP all
ĠJ ungs
ĠJ ahn
Ġge handelt
ĠAn to
ger Ã¤ten
Ġc ontain
schaft lichen
ex pression
Ġab weichen
auf gefÃ¼hrt
(" %
ile y
Ġbef re
Er z
bo y
ĠCon figuration
ĠUr b
tim etern
ĠGef ahren
ĠPer iode
Reg ierung
erg ie
ĠWar ner
igh ter
Ġdr ingend
ĠBran che
Ġnorm ale
Part ei
ump e
ĠGlas gow
ĠKamer amann
Ã¸ r
Ġanzu zeigen
ĠAutomobil rennfahrer
brÃ¼ che
sÃ¤nger in
ĠkÃ¼nf tig
J etzt
P e
W inter
Z eitung
h ow
r asse
Ġd one
on de
ĠS orten
ar ot
Ġw enden
ĠA den
Ġb aut
ĠK iefer
ĠH ipp
ĠL ey
ĠI ron
ĠC E
ĠC P
ĠO le
ell meister
Ġsich ere
ang liste
Ġvor nehm
Ġunter einander
ob a
rit ing
par ser
los ing
Al tern
gew al
ĠBundes ministerium
ĠPf ei
Ġcon structor
ĠX V
echs lungs
ĠVers icherung
Ab sent
ĠBÃ¼rger schaft
AN G
ĠStaats sekretÃ¤r
med i
ĠPlan ungs
ĠOs man
komm un
sie ger
186 4
ĠTran sp
ĠSchÃ¶n e
Ġverein bar
Ġservice Name
ĠTenn essee
grÃ¶ÃŁ te
ĠdÃ¤n ische
ĠKanz lei
Ġsorg fÃ¤l
ĠGlei s
FOR MAT
Einwohner entwicklung
ĠStaatsanwalt schaft
1 15
B lack
N omin
S R
ch tet
Ġd ei
ĠS ummer
sch uh
ar ab
Ġs cript
ĠM AX
Ġn m
ĠG y
ĠE sk
ĠR im
Ġr ender
Ġwar f
ĠJahr est
eil le
Ã¶r tlich
zen sion
gr au
ĠAuf treten
per ten
up s
Ġpro c
esp e
iss a
ĠOber sten
Ġall mÃ¤
Ġgemein t
ĠObj ekten
ĠNe un
ĠKommun en
ĠÃ¤hn elt
ĠSalz burger
Ġtem por
ĠEmpf Ã¤nger
ĠExper imen
Ġinitial ize
Ġberuf lichen
Assign ment
Ġreag ieren
Ġchem ische
getr iebe
ĠGefangen schaft
Me asure
Ġcle an
rein igung
ĠansÃ¤ss ig
Konz ern
ĠGatt ungen
ĠHex en
ĠChallen ge
Fil me
ĠTheat re
initi ative
Ġschlaf zimmer
F ragment
R en
b urn
l ernen
p df
r ut
s im
Ġd Ã©
ei tig
es i
sch es
Ġb Ã¶hm
ĠD Ã¤m
Ġm is
ĠP ode
ĠP aten
ĠL aur
eit h
ul u
ul arb
ĠO hren
Ġp ossible
Ġr s
ĠAn ten
Ġsch Ã¤tz
zen z
ip io
set Attribute
iger ode
Ġ10 8
ied ler
Ġgel assen
ĠVerb und
ogen e
unter schied
oph y
ĠLandes amt
alis ierten
ĠEm otion
ĠInd iana
ĠWohn en
ĠKar ib
ĠHerr schafts
ĠDre am
Format ter
Ġruss isch
Pol y
Ġfinanz iell
Ġunver Ã¤ndert
ĊĠĠĠĠĠĠĠĠĠĠĠĠ ĊĠĠĠĠĠĠĠĠĠĠĠ
Bahn hof
Ġerheb liche
ĠDigit alisierung
ĠFin anzen
Ġsowjet ischer
ĠIngen ie
Ġetabl ierte
Ġtau send
Ġgolden en
;; ;;
Ġkaiser lichen
B ass
B inary
B elege
G rie
G rad
G alerie
H H
å Ī
Ġ Ã¤ndert
er ungen
ch o
st uf
ĠS ten
at um
Ġs ave
ĠA rag
Ġn eb
ĠK ot
ĠE if
tr ast
om orph
Ġun weit
Ġnach zu
Ġsch ien
id i
ĠMa yer
ĠAuf lagen
18 60
amm ler
gl anz
Ġex akt
kl ein
ĠLu ise
ton a
ĠMan che
[] []
ĠReich sk
ĠGef allen
ĠBel g
sw issenschaften
23 4
ĠVolks wagen
ĠDa im
ĠRef lex
ENT ER
ĠGar de
ĠCom ics
Ġung arischen
ĠPra ger
ĠLi bert
ĠÃĸff nung
ĠWh it
ĠMess ung
ĠSchlag zeuger
Ġblau en
ĠEro tik
ĠÃ¼bergeben e
VerÃ¶ffentlich t
ĠWÃ¤r m
heil kunde
ischÃ¶ f
ĠKonzentr ations
schles ien
ĠMoz art
F ast
G lobal
V B
b om
b og
k asse
p hal
v gl
Ġ ^
ge gr
or ig
ĠD um
ĠF lieÃŁ
ĠG ent
ĠG Ã¼l
ĠT all
ĠL E
ra ht
Ġver wirk
ĠSch af
ger echt
Ġsch licht
Ġ18 29
ĠBr et
An n
ĠGe denkt
lig ht
rik e
ĠChrist entum
zei le
con figuration
ĠSohn es
stag s
Ġsol ches
Ġkurz fristig
ĠGraf iken
Ã¨ ne
Sc ale
186 7
ĠAuftrag geber
Sport liche
ĠpreuÃŁ ische
Ġbelieb te
Se q
Ġstation iert
ĠvergrÃ¶ÃŁ ert
ĠHÃ¼r den
ĠGetrei de
ĠMÃ¶nchen gladbach
Ġkonkr eten
N N
T EXT
V oll
d ale
k eln
x i
sch ritte
ĠB eil
Ġm ul
ĠK amin
Ġk rei
rei fer
Ġzu fÃ¤llig
ĠZ elle
ver n
esch t
get Absolute
Ġj ugend
18 49
ĠVor lÃ¤ufer
net te
sb est
ĠWir bel
ĠFrie s
ĠBest es
ĠDar aus
co der
Ġlang jÃ¤hrige
AR S
ĠFlug platz
utt a
uck y
ĠBro thers
ĠPlan ungen
ĠOper a
Ġkompl etten
field s
ĠEmpf ang
ĠgrÃ¼n den
ĠKrÃ¤ uter
ĠlÃ¶ schen
ĠBasketball spieler
ĠExtr em
Ġkont ak
Ġill ustr
ĠLegisl atur
S F
S ehr
Z ahl
h on
n ischer
s Ã¤tzen
â ĪĴ
Ġd ran
Ġs ite
Ġs erb
ĠA U
ĠM ore
ĠW rest
ĠW isconsin
ĠT as
ĠR inge
ĠL ip
ĠV ariable
ir l
Ġzu einander
Ġun b
Ġc ondition
ĠAr sen
Ġdurch s
ĠMa gen
ĠVor gaben
oc o
br uchs
fÃ¼hr enden
Ġle g
ĠQu ad
Ver lauf
str and
ĠPr inzen
schl usst
ĠSh ang
Aus bildung
Ġbel ast
Ġmus lim
jÃ¤hr iges
<? >>
Ġrecht zeitig
ĠHerzog s
Ġelektr onischen
ĠZuge hÃ¶rigkeit
kr ise
ĠPlay er
Ġvergleich bar
Histor y
If Absent
Ġeff ektiv
Ġfreiwill ig
Vari ables
ĠOrien tierung
Sdk Internal
/ -
G ed
K A
M ore
P Ãĸ
k Ã¶r
s ohn
v id
st u
an as
ĠB ody
Ġb lu
Ġi ran
Ġm l
ol te
ĠH ers
ĠN ULL
Ġge klÃ¤rt
Ġver steckt
rie ve
ĠÃ¼ber fÃ¼hrt
aus strahlung
Ġ" "
th aus
oc a
ĠFl u
String s
Ġen coding
ĠÃľber legungen
aut obahn
ĠMan usk
ĠBest ehen
hand ler
Ġkomm e
Ġbew erten
ĠKar in
ĠRu inen
ĠLuft fahrt
ĠKur fÃ¼rsten
wissenschaft liche
ĠBoden see
ĠPor sche
ĠMel bourne
Ġbedeuten der
Min uten
vertr et
ibr ary
Ġfind By
ĠLim burg
ĠGall ery
Ġeingeb unden
Ġangew endet
ĠModer ator
Ġnachhal tig
agnost ik
ĠTeu fel
gÃ¤ng ig
Lex ikon
ektak ul
W egen
z on
Ï Ĥ
Ġd ay
ĠS O
al pen
und eten
ĠK ut
ĠK Ã¤fer
ĠF ren
ol et
ĠG eis
ĠP utz
le ktu
is ierungs
ĠT Ã¤
ĠT ote
ĠT alk
ĠR ass
Ġg reift
Ġt her
Ġr om
Ġr ichten
ĠÃ¼ber lassen
iz able
ĠAb fall
Ġ- =
sk osten
schie bung
ĠSte ven
lau t
ĠVerein barung
ĠFol genden
ĠgrÃ¶ÃŁ ter
ĠKr Ã¶n
achte ten
Ġkommen de
ĠSol ingen
azz o
ĠGar den
ĠWel traum
ĠPhilipp e
ĠStat ue
ĠBud dh
Ġlau tete
ĠergÃ¤n zen
ĠAns ichten
Ġproblem los
ĠReprÃ¤sentanten hauses
rieden heit
R enn
b Ã¼ttel
j ap
p oten
au schen
Ġv s
ĠA pfel
ĠD iss
ĠR ent
ach tete
ĠN adel
Ġg Ã¤n
ĠU CI
ĠSch a
Ġl ook
Ġaus gelÃ¶st
Ġsch mal
la de
ĠEin nahme
ĠEin flÃ¼sse
Ġunter zeichnet
Ġent warf
ĠEn ter
gr at
if tet
18 59
ĠVor lauf
Ġ0 3
ĠEs c
inder ung
ĠNeu tr
ĠMan gel
ĠGra zer
buch t
ĠFol k
ĠMo ore
arn ing
link plain
ĠDu sche
ĠMod us
ĠGen ossen
ĠmÃ¼s sten
ĠTechn ologien
ĠGut es
ĠEnerg ien
Ġempf ing
ĠNor weg
Ġregel mÃ¤ÃŁige
Ġerk annte
ĠBor ussia
endar steller
Ġausgew Ã¤hlte
zur Ã¼ck
Ġbelieb testen
konz ern
berech tigt
gelegen en
Ġgeeig neten
Ġbetr achten
ĠPrÃ¤sidentschaft s
Ġvorder en
M aster
S Y
g ru
p zig
ĠS ituationen
al ing
sch in
ĠB ridge
ĠD eg
ĠP ist
ĠW Ã¤nde
ĠR end
Ġer lassen
re fer
Ġk alt
Ġan zus
Ġzu geteilt
ah men
Ġun mÃ¶glich
Ġ} ,
get Parameter
ĠAb riss
sb l
ĠKl ick
Un ion
Ġgesch eiter
ĠAd miral
hau ser
ĠSc reen
aj or
time out
ĠPaul us
ĠPal ais
tre al
ĠLou ise
Ġed ge
Syn drom
Ġheader s
Term inal
ĠBem erk
ĠÃ¤gyp tischen
ĠGep Ã¤ck
ĠJAXB Element
ĠBakter ien
, "
> ");
H en
V R
b ol
b ayer
u ti
u co
Ġ ),
te ams
ĠB evor
as et
Ġb ibl
ĠD ing
ĠM ater
Ġ( Â§
ĠK Ã¤ufer
ĠP Ã¶l
Ġf a
Ġl Ã¶st
ic ia
Ġr as
rie le
Ġab sch
ob e
ĠMar mor
Ġander n
lei hen
rÃ¼ che
wer de
ĠTh ese
ator ischen
Ġseit lich
Ġkl are
ĠGer echtigkeit
ĠBundes kanz
ĠOn t
ĠMarkt platz
ĠMel odie
Ġsc ale
ĠBek Ã¤mpfung
ĠMiss ouri
ĠMaschinen bau
ĠLy rik
ĠSchlieÃŁ ung
ĠInternal SARL
ĠMari anne
ĠGymnas iums
ĠKommand ant
ĠMatt he
ĠGebir gs
ĠPaz ifik
PrÃ¼ ft
SdkInternal List
A ff
F IN
N av
N SDAP
R ules
S ender
w ochen
Ñ ĥ
å Ĳ
ar if
ĠA ach
ĠB ruck
em ar
ĠK ahn
ĠW iel
ĠT ed
and ra
Ġg lobal
ul ierte
ad dress
ĠU eber
ĠSt Ã¤nde
ĠAn merkungen
ast ral
Ġbest es
dr Ã¼cken
Type Reference
ĠGemein schafts
hÃ¶r er
ĠTeil s
Al b
man gel
Ã¤u er
ĠBet reu
Ã¼nst ig
ĠMo os
ĠDar auf
Ġfest stellen
ho tel
Ġqu asi
ĠInform atik
ĠHerr mann
ĠGesellschaft s
ĠSchweizer ischen
Ġwichtig es
Obj ekte
Ġfr ischen
pol icy
Ġverein bart
ĠPet ra
Ed itor
ĠunabhÃ¤ng igen
Ġorder ByComparator
Ġtschech ischer
Ġnorweg ischer
spez ial
Stru ct
ĠLiebl ing
ĠVul kan
Fra ktion
LET TER
Ġverdien en
Ġkandid ierte
ĠReeder ei
ĠSiz ilien
ĠBekann theit
F el
G R
V ors
f ell
l Ã¶sungen
Ġ reisen
sch ach
sch ichten
ein igt
or ger
Ġm atrix
ĠK f
ĠG eiger
de fin
le uten
ĠW ass
ĠT ee
ĠN ort
ul i
ĠO range
ĠZ oo
get Local
ĠAb sicht
sk op
Ġe ure
Er mittelt
Ġbet ragen
Ġeigen s
Ġange trieben
ĠHand werks
ĠJan e
Ġteil genommen
ĠMenschen rechts
Ġ> >>
ĠsÃ¼d afr
Ġvoll stÃ¤ndigen
ĠGrÃ¼n e
ĠGu ill
ĠKlein stadt
ĠerhÃ¶ hten
Sel ector
ĠCan al
sex amen
ĠKathol ischen
ĠAcc ount
Ġinspir iert
Ġcap t
ĠJahrhund erten
ĠBetroffen en
ĠFuss ball
Ġmoment an
ĠRÃ¤um lichkeiten
Ġerlern te
ĠHimm els
. ]
9 00
B ond
D ownload
I AL
d icht
g able
l ug
r Ã¶m
å ı
at ischer
ĠB ond
ĠF itz
ĠF Ã¼ÃŁe
ĠN obel
Ġg reifen
Ġan al
ad ow
ist ing
ist oire
ik os
he er
ot in
ot es
kt op
zeich ens
tex te
ĠMen Ã¼
ĠBet ten
ĠTr omp
so ftware
ĠKirchen gebÃ¤ude
186 3
ĠAustr alia
ĠBall ett
ĠCre w
ĠKolon ien
wÃ¤l der
ĠrÃ¼ck te
Ã¼h ler
Ġgesellschaft liche
replace All
marsch all
K r
W ald
p op
s amen
w appen
Ġs i
ĠA dress
ĠB ebauung
ĠF ische
ĠE isk
Ġh ead
ĠC urt
Ġg iven
Ġp ayload
ben ennung
ĠEr laubnis
Ġsch oss
ĠPro cess
Ġdurch zufÃ¼hren
gel b
Ġab gesehen
geb unden
Ex ists
ĠGr unde
Ġgegen einander
sb eh
cht ung
ĠBl itz
gemein schaften
Ã¤hn en
verb und
ĠEd itor
ĠBel euchtung
Ġ[ "
Ġletzten dlich
ĠBi ber
SE D
ĠBis marck
row s
beh andlung
ĠAuÃŁen minister
Ġkathol ischer
ĠBill y
ĠAnder son
Ġrow s
reden tial
Ehr endoktor
ĠFlie ger
Ġbehaup tet
ĠÃľb ungen
ĠKaisers lautern
mess ungen
ĠEngine ering
ĠHong kong
Ġverblieben en
Allow ed
D Ã¤n
E DEFAULT
H tml
M etrics
M aschinen
R U
c f
h ib
p osten
s ingle
Ġ eis
ĠS Ã¤chsischen
ge kommen
Ġw usste
Ġs or
el bach
ĠB Ã©
ĠM eist
ĠP ict
ĠH ung
ĠL Ã©
ĠL agen
tr ad
ro ad
ĠN iem
se ek
Ġk ind
ent wurf
ul ationen
ist ers
ĠSch Ã¼tz
Ġaus lÃ¤ndischen
Ġr untime
ert s
ĠMit ch
Ex ternal
of ilm
18 48
ges ucht
geben den
yn a
ond o
Ã¤u schen
Sp anien
Ġzusammen gestellt
ĠMo on
ĠNatur al
ĠLin ke
Ġ[ ...]
tic le
IC HT
spro zesse
ĠSchm el
ĠNo tiz
ĠEp ik
ĠDenk mall
ĠEssen er
Ð¸ Ð
ĠProte in
Ġwert volle
Ġberuf liche
Ġverkehr en
Europameister schaften
ĠLokomo tive
ĠRon ald
ĠCH F
ĠVf L
ĠAtlan tik
Us age
Ġinterpret iert
Ġnationalsozial istischen
ĠInternalX base
E ner
F K
G ut
P ublic
V iel
b zw
f unction
h eid
n ote
Ġein richten
Ġz Ã¤hlten
ĠG Ã³
us sten
ig o
Ġal p
ra de
ĠAn gl
Ġsch ar
iz itÃ¤t
Ġunter halten
ant o
our en
sk apelle
agen t
ystem e
ĠWei ÃŁe
mittel bar
oph ys
ĠFre undes
ĠBay reuth
bet reiber
Ġgem isch
ĠCl ark
Es sen
ĠTor schÃ¼tzen
last ung
Ġerk rank
tra it
Ġmon tiert
Ã¶pf ung
ĠAktiv itÃ¤t
ĠFe ature
ĠSouth ern
Polit ische
Ġrep lace
Ġeingesch rÃ¤nkt
ĠDÃ¶r fern
ĠZul etzt
ĠDebÃ¼t album
Ġko ordin
Dist ance
clu ded
Ġsan iert
Don ald
TRI B
ĠDorothe a
ELE MENT
H igh
M eine
g ymnasium
Ġd ownload
ĠS ende
al ias
Ġs ee
Ġz ertif
ĠK eil
ĠK alten
ĠR app
ĠR ott
Ġge form
ad os
ĠSt Ã¶rungen
ĠIn vent
ru ine
ĠMa z
ss ue
ack s
acht al
Ġth em
ong o
werk statt
10 4
ĠRech nungs
Ġwo hin
Ġverschieden sten
AT ED
ĠLandes hauptstadt
con vert
Ġgeb rochen
ĠRep ert
tent wicklung
ĠSal omon
Form ation
ĠÃ¶ff net
Ġleben de
Ġfile Name
verband s
las spath
Ġerfolgreich ste
ĠLau ra
Expression s
ĠWall fahrts
Ġerforder t
ĠHon ig
Ġter m
ĠEngl ish
ĠgewÃ¼n schte
seg ment
sko je
ĠCapt ain
Ġact ual
ĠSchÃ¤d el
ĠPak istan
ĠWorm s
ĠPrec onditions
ĠMagdalen a
) (
M gr
m asse
t agen
v s
Ġd isp
Ġd isplay
ĠS ony
ĠB ac
ĠM Ã¤
Ġz iel
ĠF un
Ġf Ã¶rdert
ti mer
Ġge zeichnet
eu gen
Ã¼n ster
ĠÃ¼ber leben
Ġzur zeit
ers atz
St aat
Ġzwei gt
Ġpro j
ire ct
Pro zess
Ġel e
Ġbeg inn
ĠĠĠĠĠĠĠĠĠĠĠĠĠĠĠĠ ĠĠĠĠĠĠĠĠĠĠĠĠĠĠĠĠ
vor steher
unde te
bl ing
zahl ungen
aktiv itÃ¤t
platz ierten
bez iehung
ĠProgramm s
Ġwahr e
ĠBÃ¶ den
Ġ179 5
Ġ179 7
ĠFuÃŁ gÃ¤nger
ced ure
ĠKa sten
ĠJob s
ĠImpf ungen
ĠGru ben
Ġpo ints
ĠWell ness
ĠMr d
Ġchem ischen
ĠAnwesen heit
ĠCook ies
ĠMaur ice
ĠMyth ologie
Ã¤pst lichen
K ern
N D
T abelle
d al
g on
k alender
w urz
Ñ Į
en gt
Ġd rit
ĠA hr
ĠB agd
ĠK atze
ĠF onds
ĠH ain
ĠT in
ĠT enden
ĠN y
ab kommen
Ġk rank
Ġan gesch
Ġauf ger
Ġauf steigen
ĠZ ucht
ĠAn schlag
ert onie
ĠSie mens
Ġ" ;
ĠMar ina
sh op
Ġ17 99
ĠÃľber wachung
ĠPar adies
bo hr
Ġverb reitete
ĠProf is
yl on
schw ung
ĠKultur denkmale
ĠAll gÃ¤u
ĠBed rohung
ĠMath ematic
ĠKonz epte
ĠAss istenz
ĠElektr onik
Ges etz
Min ister
museum s
ĊĠĠĠĠ ĉ
ĠMensch heit
asp ielen
ĠOff ic
ĠMaster s
Ġdec lar
ĠDE FAULT
ĠJesu iten
ĠVorstands mitglied
ĠGetr Ã¤nke
ĠWÃ¤l der
ĠzuverlÃ¤ss ig
wirtschafts lehre
ĠGreif swald
ĠStif ter
ĠBolog na
B ind
C r
E ach
M ad
d ik
v all
Ġ ĊĠĠĠĠĠĠĠ
er ent
Ġd omain
ge mÃ¤
ĠF rag
ĠP eg
Ġf rÃ¤n
ĠR Ã©
Ġge fordert
Ġan aly
Ġver trag
ĠSch ar
ate m
ĠSp anisch
ran ke
ue z
rÃ¤ u
ĠGr Ã¶n
Ġbest ens
sh ort
ĠStadt zentrum
stand ort
Ġgesch nitten
Ã¤u ber
ĠSe a
ĠHaupt straÃŁe
ĠGra ham
fr em
ĠTer minal
ĠSti rn
por trÃ¤t
wand lung
186 2
ĠTrans formation
ĠMel od
Trans form
Ġgl att
Produ ct
Ġnotwend ige
ĠverfÃ¼g baren
ĠJSON Object
Ġgleichnam ige
ĠEg al
Ġargument s
ĠEss ays
ĠBeob achter
ĠHandball spieler
ĠDatenschutz erklÃ¤rung
Cap acity
ĠDra ht
ĠBÃ¼r gern
anon ical
gewinn ung
ĠbemÃ¼ ht
ĠVeg as
ĠEli te
Ġintel ligen
L eg
k tive
n ÃŃ
} ;
ch rist
Ġd achte
Ġd etail
st Ã¤tigkeit
at ro
ĠB ann
ĠP lace
ĠP ICT
ĠW eid
ĠN O
ing ten
Ġl okal
ĠVer fahrens
Ġr andom
Ġc p
ap olis
ĠCh ap
fol ie
Ġ17 80
pro jekte
Ã¼nd nis
Al so
Ġselbst Ã¤ndig
ash ion
ĠMenschen rechte
opp ing
ĠSchn abel
For schungs
sl eitung
Pol en
ĠSin f
Ġwissenschaft lich
ĠAch sen
Pr ice
Ġorganis ieren
ĠNachbar schaft
ĠKlass ische
Ger man
ĠHill s
ĠBol iv
ĠLoc ale
Ġheim ischen
Ġwunder bar
ĠAltern ativ
ĠKons ul
wh ite
Sign ature
genossen schaft
ĠWorksh ops
ĠIntelligen z
ĠMosk auer
Ġlan dete
ĠgÃ¤n zlich
B its
D ATE
d itions
g attung
s au
y al
ei bt
ei bung
ar um
Ġs uche
ĠB ischÃ¶fe
Ġ1 11
ĠM ine
Ġin mitten
am me
Ġn Ã¼tz
ĠG aler
de k
ĠH un
ĠL er
Ġer le
ut ing
ro b
ab lo
Ġr einen
Ġc oll
iv alen
ac ters
sk olle
sk rise
ekt oren
Type Enum
ĠGes ichts
ank ing
10 8
Ġ13 5
Ġch ain
ĠLe verk
ĠMon itor
ĠMon treal
Ġarb eiteten
Ġkon krete
class Name
gangen e
ĠVertr etung
fel dern
ĠCor ona
yd rau
ĠKor ruption
Ġzeit gleich
ĠFort schritt
ĠNor men
Ġgefunden en
kur se
UM ENT
ĠgrÃ¼n e
Nieder lande
Ob serv
trans form
ĠFrem den
Ġkonzentr ieren
mess ung
ĠGil bert
Ot to
ĠInszen ierung
ĠSkir enn
B rit
J Ã¼rgen
L R
d eten
l ate
l iter
v re
ĠS Ã¶l
sch eide
ar ge
ĠB unt
ĠB Ã¤umen
ĠK ate
Ġau ton
ĠL ayout
Ġk W
ra ck
ĠO swald
ĠO regon
Ġver tik
Ġaus lÃ¤ndische
get In
ĠAr tikeln
ĠAl abama
ib a
Ġtr eiben
ĠAus kunft
18 56
ay ment
Ġ17 50
yn th
Un ique
ĠList ener
ĠChr omos
ĠMon ster
schieden e
Ġgef asst
ĠAt tent
kon trolle
ĠSchl ange
ĠLebens weise
fra gt
ĠBÃ¼ ch
ĠBro ck
iat rie
bes uch
ĠSyn onym
zy klus
ĠDesign s
ĠÃĸff nungs
Ġinteress ierte
Ġverein igt
Ġrec ei
Europ a
orien tierte
ĠSamm ler
ĠSS L
Ġag ain
ĠLipp en
Rechts anwalt
ĠRay mond
ĠungewÃ¶hn lich
ĠCru z
ĠProst ata
f ers
g riff
l ime
n est
w ellen
st abe
an trag
Ġw Ã¤r
Ã¤ ften
Ġb eb
Ġb itten
ĠE X
Ġau to
Ġan st
ĠIn zwischen
end ienst
im p
ess ur
ungs los
ĠUn ternehm
St amp
lag te
olog isches
ĠBo eing
Ġher ange
str ument
ĠNeu auflage
ĠÃĸ st
Ch ina
bl Ã¤ttern
ĠsÃ¼d korean
ĠKn ight
FuÃŁball torhÃ¼ter
ĠTro ck
ĠOper ationen
ĠEhren mitglied
Comm it
Dec l
Arch itekt
Ġkor rig
ĠStudio album
Ġmittelalter liche
ĠgÃ¼l tig
ĠVerwand ten
We ek
ĠErgÃ¤n zung
Ġausgesch ieden
Ġfu hren
verÃ¶ffentlich ung
ĠEmpfeh lung
ĠWeih bischof
C Y
k ok
p ez
es c
ĠĠĠĠĠĠĠĠ ĠĠ
Ġm isst
ĠG R
ĠP V
Ġf air
ĠW ich
ĠW atch
ĠW urm
ĠL ars
ĠL eichen
Ġ2 40
ĠN ein
Ġal li
ĠZ ap
ow sk
Ġwar tet
op el
Ã¼ber tragung
ang riffe
ĠEin es
hal s
Ġsp ace
ĠAb bildungen
ac a
sh a
gesch Ã¤fte
ĠUnter seite
Sch Ã¶n
ĠRe ader
bl ut
ĠFre quenz
ĠCo oper
ĠSystem atik
Ġkommen d
Ġaufge treten
hei de
Ġkurz em
ĠPal m
ĠFeld zug
ĠGeh irn
valid ator
Ġbestimm ter
sl alom
ĠCas par
ĠHor ror
ĠAf ghanistan
Ġkehr t
resse d
Ġbekannte ste
ĠKop ie
klass ige
Bas ic
ĠPie tro
ĠProfess oren
Ġaufgel istet
Ġkontinuier lich
QUE ST
Ġschein bar
ĠBerkel ey
I p
K EN
N AL
P rom
R ich
} -
ĠS eh
ĠB A
Ġb ucket
et or
ĠD atein
ĠM old
Ġein ver
hr a
Ġm atcher
ĠF ang
ĠE k
ĠT T
ĠR aff
Ġh ob
rei be
ĠSch ull
ĠSt oÃŁ
op ath
rie st
mer kung
od ium
Ġ" \"
av ier
ĠVor schlÃ¤ge
ens eits
eren tial
ĠBo ys
Ġen tries
enden cies
ha elt
Ġdort hin
ĠHaus halten
legen heit
ĠFest land
ĠTer rit
ĠKo oper
AC H
ĠTem po
alle e
mod us
wÃ¤r tig
ref erences
Format Exception
Ġwelt weiten
ĠCas inos
Ġsof or
ĠWel ten
ĠBal ken
ĠÃ¤uÃŁ ere
ĠStamm es
ĠHum or
Ġstammen den
ulpt ur
Ġtrain iert
Ġvis it
Ġetabl iert
ĠberÃ¼cks ichtigen
Ġlandwirtschaft lichen
Ġhervorra gend
B all
K ategorie
O cc
R andom
S etting
u is
st Ã¶rungen
ĠS ams
ar men
Ġs upported
Ã¤ he
ĠF ut
ĠF lo
ĠG ian
ĠT ausch
ĠL ingu
ĠL isa
ach es
Ġan statt
rei fe
ĠZ a
Ã¤n gel
Ġun besch
ĠAn fÃ¼hrer
Die ter
ok uss
Ġnew Value
ĠHer stellers
ĠBr ett
rÃ¼ der
ĠGes angs
fe der
Ġeinz ig
Ġbr ut
ĠPolit ische
ĠKap ellen
ĠPat ron
ĊĠĠĠĠĠĠĠĠĠĠĠĠĠĠĠĠĠĠĠĠĠĠĠĠĠĠĠĠĠĠĠĠ ĠĠ
ĠGast ronomie
deb Ã¼t
ĠOp tik
send ungen
ĠEt appen
preis es
ĠRecht sprechung
ĠAnge la
Amer ican
anad ier
ĠSar ra
Comp lete
ĠRand om
ĠByte Buffer
ĠEinsch Ã¤tzung
Ġnorweg ische
ĠFla schen
ĠKost Ã¼m
Ġbehaup ten
ĠjÃ¼ng sten
ĠBurgen land
BU G
Flag s
Ġann Ã¤h
Pers istence
ĠKell y
ĠMalt a
ĠNotwend igkeit
G EN
K ult
b ig
d isk
f sp
g itter
p aket
Ġd eg
ie ÃŁt
Ġau spro
ĠL ion
Ġ2 30
lich ung
ĠN ummern
Ġk el
Ġver stÃ¤nd
ĠSch okol
Ġl ookup
Ġsich eren
im i
ĠAl ger
Ġunter hÃ¤lt
ef el
ĠOr n
omm e
ĠAuf sÃ¤tze
av el
Ã¤l ern
amm ed
br ett
wer tet
gew alt
stand es
Ġverb lieb
ĠSe ver
schlieÃŁ ung
ĠMusik pÃ¤dagoge
Ġfest genommen
ĠSchl Ã¶sser
Ġ(âĢ ¦
Ġwill st
uk i
ĠDav e
ĠDe te
ĠKÃ¼nstler s
ĠApp s
lech ter
Ġexist s
ĠMer c
Not Empty
oder ator
Ġkomp eten
ĠÃ¤lter er
Fe atures
Ġabgeb ildet
Ġsport lichen
ĠPrÃ¼f ungs
beu tel
ï¼ Į
Ġeig nen
A qu
M AN
P an
P seud
R ichter
S eiten
f ill
g ge
r inger
z iele
Ġd eu
ĠS ne
au ÃŁ
und ing
at ible
Ġs lot
ĠA PI
as ing
ĠM Ã¶rder
ĠM iami
ĠK em
ĠK PD
ĠG ary
ĠE w
de utet
ul us
ic it
ĠSp l
ĠÃ ħ
ĠAb teilungen
pr ise
Ġman geln
Ġgegen seitig
iker in
Ġex ternen
Ġbeg ab
ĠEnt lassung
ats on
ĠGer Ã¤ten
tier ter
ĠCon test
Ġur aufgefÃ¼hrt
ĠWohn sitz
ĠNatur park
ĠLehr erin
ĠMich ail
ĠSil ver
Ġâ ĪĴ
ĠApp lication
Ġpl ant
getC olumn
Ġsozial er
wor tete
Ġjeden falls
Ġbeein trÃ¤ch
ĠLÃ¼ becker
ĠGran it
ĠGerman ia
shof en
ĠVerd acht
ĠIter able
ĠSof ia
minist ers
ĠHaupts itz
ĠBewerb ung
Ġrenomm ierten
ienn ale
ĠSinf onie
p okal
t otal
at ius
Ġw eichen
Ġs enk
ĠM ost
Ġin tr
Ġin haf
Ġein ges
Ġein genommen
Ġn s
Ġn at
ĠP utsch
ĠL Ã¶sungs
Ġer stellte
Ġh igh
ul k
ul ator
Ġaus s
end igung
og l
ĠÃ¼ber arbeitet
mer s
iz es
ĠVor fahren
form ular
ĠEs el
geben e
old s
gew Ã¤sser
ĠNord see
urt stag
ĠÃĦ sthet
Ab kÃ¼rzung
ĠBel eg
ĠGen ua
ĠZentr ale
ĠMath ias
ther ap
zy k
Hol z
stÃ¤r k
ĠGit arren
ĠbestÃ¤ tigen
ĠDate Time
Ġaustral ische
Ġisrael ischen
ĠKonzentr ation
Ġglob alen
ĠGene alog
ĠArzneim ittel
ĠStett in
ĠAnsprech partner
F ix
i Å¡
v om
Ċ Ċĉĉĉĉ
un it
ĠS agen
te ch
or ing
ĠB iel
ĠD ez
ĠG ia
ĠG lob
ĠH K
ĠH essischen
om atic
ĠJ Ã¼
Ġauf zubauen
ĠSch merz
Ġo hn
os hi
ort eil
Ġzum al
Ġum gehend
geb Ã¤udes
Ġsp itz
ek tiert
Ġthe y
ĠFl Ã¼ge
ĠStadt teile
sb eg
ĠTh at
res olve
tor s
Ġ10 4
Ġ10 7
ĠGroÃŁ es
son st
mittel te
grund lage
ĠInd ia
ĠBas ler
ĠGegen zug
ho se
aff ung
ĠHa wa
ategor ien
ĠProjekt es
leb nisse
Her mann
ĠBÃ¶ hl
ĠMess ages
Che f
zub ilden
ĠBack stein
ĠState ment
ĠHohen zollern
ĠWiderstand sk
ĠSpann ungs
Ġwachsen den
ĠNeb el
ĠDet roit
ĠzeitgenÃ¶ss ische
ĠMittler weile
Qualif ikation
Zentr um
ĠSpark asse
ĠVorarl berg
clus ive
Ġvornehm lich
' .
C UR
H alle
L ondon
l ib
s Ã¤chsischen
w ang
ch ise
al de
al ier
ar et
ein igung
el o
ĠB elle
ĠB amb
ĠG rid
Ġf eine
ti co
Ġh eutzutage
ĠJ ay
Ġk B
och t
ĠEr Ã¶ffnungs
ak es
ĠPro ben
ĠEn ts
Ġ" )
Ġre cover
18 50
vers icherungs
att ungen
Ġlie bt
ĠUnter arten
Ġen code
ĠWir t
rad io
ĠFrie der
ĠNew sletter
Ġbew ohnt
AR Y
ĠMod ellen
Ab schluss
ĠSc ot
ĠMet s
ĠOst fries
Ġem er
dre h
ĠKommun istischen
Ġober sten
ĉĉĉĉ ĉ
ĠMos a
Ġfre ut
nam espace
beg in
ĠRob oter
ĠstÃ¤r ken
Ġverkauf ten
ĠGerman istik
Ġfunktion ieren
Ġdunk le
RA Y
ĠGolden e
ĠTime Unit
[...]
