#version: 0.2 - Trained by `huggingface/tokenizers`
e r
e n
Ġ Ġ
i n
c h
Ġ d
Ġ a
e s
o n
u n
i s
ĠĠ ĠĠ
Ġ t
i t
a n
i e
Ġ s
o r
a t
Ġ w
a r
r e
a l
Ġ S
t e
h e
Ġ b
u r
l e
g e
a s
Ġ f
Ġ in
i ch
Ġ e
un d
Ġ m
u s
Ã ¼
Ġ A
Ġd er
in g
Ġ v
Ġ B
Ġa n
e l
Ġ o
i l
r o
s t
i on
Ġt he
Ġ und
Ã ¤
Ġ n
Ġ M
Ġ D
d e
Ġ p
Ġ 1
Ġ c
t er
un g
i g
Ġ h
Ġ (
en t
a m
o l
u t
Ġ P
Ġ T
Ġe in
i m
Ġ F
o m
ĠĠĠĠ ĠĠĠĠ
Ġd ie
Ġ G
i c
â Ģ
Ġ E
Ġ K
Ġ I
e t
Ġ z
r a
e d
Ġ W
s ch
e m
Ġ H
Ġan d
ĠĠ Ġ
h r
t en
Ġ R
Ġ L
Ġt o
u m
Ġ g
Ġo f
d er
Ġ C
Ġb e
u f
is t
i r
b er
is ch
Ġ l
Ã ¶
an d
u l
e it
Ġ 2
a ch
Ġt h
d en
Ġ N
Ġ er
c k
Ġ V
i er
Ġ k
e in
Ġ J
Ġa l
Ġv on
Ġ1 9
i v
l ich
o t
i f
a b
Ġ re
c t
at ion
Ġd en
g en
Ġ ge
er s
Ã¼ r
ĠS t
es t
Ġ im
Ġd es
a d
c e
o w
Ċ ĠĠĠĠĠĠĠĠ
o s
u ch
Ġ O
Ġm it
Ġ2 0
ĠĠĠĠ ĠĠĠ
es s
i k
Ġ y
) ;
an n
l a
Ġs t
as s
i es
i d
Ã Ł
Ġ U
al l
Ġ âĢ
Ġf or
v er
k t
Ġ is
t s
Ġa uf
o u
Ġz u
ie l
Ġ Z
p p
ĠS ch
w e
b en
Ġv er
ĠI n
t h
Ġ ist
i en
a f
Ġ on
a h
a y
Ġf Ã¼r
Ġd as
ich t
Ġn e
Ġ r
n e
l l
Ġ =
o p
Ġd em
Ġ un
it h
o ur
Ċ ĠĠĠĠĠĠĠ
Ġal s
at e
a g
Ġw ur
er e
a u
isch en
Ġ {
a hr
in d
o g
s te
o d
t r
ĉ ĉ
Ġa us
il l
s e
p t
m en
Ġd e
or t
ĠA n
u b
z e
a v
er t
q u
Ġein e
Ġw ith
Ġp ro
Ġs ich
ĠR e
s p
i b
a k
0 0
en d
Ġ j
Ġ }
l y
Ã¤ n
Ġ Ċ
e b
Ġw h
a us
el l
Ġ i
Ġwur de
ar t
u g
ĠV er
er n
o ch
p e
Ġw ar
Ġ20 1
in e
Ġs e
Ġth at
Ġy ou
) ,
f f
Ġ it
r an
es ch
sch af
ĊĠĠĠĠĠĠĠĠ ĠĠĠ
ĠE r
a p
h t
ĠD ie
ung en
r u
ge t
Ġs ein
ĠB e
g er
Ã¼ ber
Ġa b
h n
Ġs ch
a ge
ig en
o k
m ent
am e
Ġ he
Ġa m
Ġ le
Ã¼ n
an g
âĢ Ļ
Ġbe i
u p
Ġc on
i z
m er
f or
Ġw ir
ĠT he
Ġa uch
Ġa s
ur n
u e
an t
ĠU n
Ġe x
s en
u d
Ġa re
isch e
om p
ro m
Ġw e
Ġ 3
Ġ or
ur ch
ar d
b e
it y
Ġ Ã¼ber
iv e
o st
. .
i al
us t
Ġn ach
ĠS p
( )
ol l
o v
ung s
l in
Ġ ch
g r
h en
Ġs o
r ie
i p
a in
Ġm e
ĠJ ahr
âĢ ľ
ut sch
ĠA r
Ġa t
Ġd ies
ul t
I n
Ġ "
k s
Ã¤ t
i a
l ie
ĠL e
h l
n en
Ġ1 8
as t
ĠâĢ ĵ
Ġ20 0
Ġb is
or d
is e
Ġ if
Ġn icht
ĠP ro
Ġs ie
Ġs p
h er
Ġw er
i de
ĠD e
u re
Ã¶ r
Ċ ĠĠĠ
te d
l ic
i le
Ġth is
Ġz ur
Ġw as
Ġ es
Ġal l
ĠS ie
f er
o c
t urn
schaf t
r it
Ċ ĉĉ
ĠâĢ ŀ
âĢ ĵ
om e
Ġz um
Ġ um
et z
p r
j e
av e
ul l
ĠE in
Ġwer den
Ġ ent
ĠE n
Ġ -
Ġne w
or e
i ge
Ġein er
1 9
ter n
Ġy our
h o
ch en
ĠA l
ab le
m e
Ġv or
Â ł
Ġw ie
pt ion
Ġb y
l o
Ġh at
l ass
) .
ar k
a ck
h al
d u
Ġo der
en n
il d
ier t
Ġs ind
ct ion
Ġf rom
er v
Ã¤ r
om m
Ġwir d
ĊĠĠĠĠĠĠĠĠ ĠĠĠĠĠĠĠĠ
Ã¶ n
Ġd urch
Ġun ter
ic e
i re
ĠT e
it e
f t
Ã¼ ck
n er
Ġm an
ic k
r ing
o ut
te l
on t
us s
Ġ us
Ġh ave
as e
en s
l and
ĠG e
Ġein em
it ion
el t
o b
D ie
ĠT h
ch e
w er
ge l
i an
i o
Ġ /
isch er
b eit
Ġw ill
ĠN e
te ll
p er
g t
Ġein en
ge b
ĠS e
m al
z en
ĠA us
ĊĠĠĠĠĠĠĠĠ ĠĠĠĠĠĠĠ
S t
l at
ĠC h
Ġ 4
a uf
a c
re ich
for m
Ġ en
Ġc an
k e
g es
lich en
st en
ĠM it
Ġr es
ig n
Ġ19 9
Ġw or
s s
Ã¼ hr
ig ht
Ġ Ã
ah l
ur g
is ter
ro w
ĠD er
at ur
ĠW e
o un
Ġn ot
r es
p h
u te
E x
r y
ĠA b
a il
l er
p ar
at h
ĠO r
im e
Ġ 5
Ċ ĉ
f e
on g
x t
e ar
u ÃŁ
( );
in al
o ok
Ġt e
ar e
ĠG r
m p
2 0
on e
ch t
l os
ad t
ĠB er
all y
o hn
lich e
ĠA uf
Ġn ull
te t
at er
o de
Ġd ass
Ġa d
Ġs h
R e
k eit
ĠH e
Ġge t
Ġc omp
Ġh as
de m
' s
Ġa r
c c
el n
Ġb es
Ġ Y
t z
f en
Ġre turn
ce ption
ub lic
t o
de t
we ise
r Ã¤
ul d
l an
ation al
je ct
1 8
al t
an ce
st er
re i
Ġw o
ation s
in z
T he
is s
ĠL and
in t
Ġz w
te il
re is
ĠV or
ĠM ar
ing s
ak e
Ġ &
t w
Ġ19 8
ab e
ĠD as
y pe
h re
Ã¤ hr
s er
ab en
th er
ĠM e
em ber
Ġo ut
ĠĠĠĠ Ġ
at en
ĠN ach
r i
am m
ent s
Ġ up
Ġ/ /
a ut
Ġi hr
Ġn ur
am p
a z
S tr
Ġd o
Ġh er
Ġ 0
b urg
ol og
k en
m s
he it
at ed
Ġ +
c l
or en
Ġ 6
re e
iv ers
Ex ception
f ol
Ġo ur
a pp
on d
ier en
ĠI m
eit er
ion s
ro ÃŁ
Ġme hr
ĠH er
Ġn och
ĠUn ter
.. .
ich te
al s
Ġg en
it z
Ġg o
ier te
Ġ qu
an s
Ġ19 7
der n
Ġs ow
t ra
it er
Ġ 9
l es
ers on
ar y
ber g
Ġ ro
os e
ol le
an z
ch n
( "
v e
ĠZ eit
Ċ ĠĠĠĠĠ
Ġf e
ut z
p ro
Ã¤ l
or s
Ġb ut
on s
ol d
om men
y s
a ct
ein e
Ġde utsch
or y
al e
d r
z eit
ow n
Str ing
Ġv om
Ġ1 7
ĠF or
Ġt ra
Ġp er
Ġwur den
ste ll
ĠF l
ig er
al ue
ĠB r
ĠA m
ĠSt ring
s h
us e
ne h
Ġm ore
ig h
we i
Ġa ber
f l
Ġthe ir
ib t
Ġ19 6
il m
it t
i ent
Ġon e
r en
g an
Ġp r
Ġ( *
in k
Q u
is h
o ck
Ã ©
ic al
y ste
ik e
at t
Ġl ie
am il
b ar
at ch
te m
a de
ĠDe utsch
kt ion
v el
Ġm y
Ġb et
Ġ 7
iel er
b le
a x
l d
N ame
D er
Ġs te
t t
Ġk ann
Ġk Ã¶n
u en
ĠSt adt
at a
Ġal le
b r
Ġa pp
f in
le ich
el d
i um
is ten
Ġge w
E n
W eb
A n
Ġf in
D e
Ġc o
ie d
ĠF ran
Ġals o
Ġb est
re turn
Ġ 8
ze ich
Ġ1 5
ĠRe g
lin ks
es e
par am
e y
ĊĠĠĠĠĠĠĠĠĠĠĠĠĠĠĠĠ ĠĠĠ
oun t
f Ã¼hr
p ublic
i ze
P ro
Ġsow ie
on n
Ġe v
m ann
en g
f ahr
n is
s et
r at
re at
in n
Ġab out
u le
st and
Ġ19 4
g lich
it Ã¤t
o f
ĠG em
Web links
Ġ= =
r if
C on
Ã¤ ch
Ġ ich
or n
Ġd ar
la g
h Ã¶r
ah n
an ge
Ġb er
etz t
et h
ol it
u pp
Ġwh ich
ter s
ĠP r
Ġin s
Ġcon t
ĠI t
Ġ1 0
ie t
âĢ Ŀ
og ra
ig keit
Ġ1 6
b ject
Ġthe y
n et
Ġ19 5
c es
ig t
Ġf r
der s
ier ung
Ġs pe
im m
Ġp re
Ġg es
Ġh is
Ã¤n d
ĠP ar
m it
s el
o le
ĠG esch
Ġj ed
Ġy ear
Ġwie der
am men
a ce
Ġh aben
Ġof f
a i
an k
Ġbe en
ay s
el le
ah re
et t
Ġge gen
und en
Ã¼ d
Ġt ime
ar beit
m in
T ype
y n
b all
ĠU S
Ġs oll
g lie
ann t
u er
l ung
el s
Ġein es
eit e
ie w
w o
m an
er en
is sen
c re
h und
p ort
g esch
E inz
Ġp la
b st
ie le
l ine
Ġg r
Ġwor k
a w
o h
y p
Ã¶ ff
ĠI S
Ġsein er
Ġz wei
ĠS te
Ġk n
00 0
ik er
ĠG es
at or
Ġ19 3
at z
ĠS o
at s
erv ice
ĠD ies
ĠE s
lat z
ĠGem ein
Ġdies er
lie ÃŁ
ĠF re
er k
le ment
ach weise
ess ion
h aus
ĠkÃ¶n nen
Ġsein e
ir st
in ter
eln achweise
i x
p ut
Einz elnachweise
ĠF ra
Ġs ome
ÃŁ e
ge ben
Ġ |
ov e
u de
or f
o ber
ĠP h
am en
Ġhat te
m ein
or k
ĠUn ivers
I N
1 0
o ol
1 7
a is
ĠJ ahre
Ġan y
Ġin ter
Ġs el
U n
D as
s k
ach t
ĠE x
Ġe l
Ġp art
el y
Ġ Qu
Ċ ĊĠĠĠĠĠĠĠ
d ition
Ġre c
Ġd is
B N
ĠK on
sch e
Ġwh o
us ammen
Ġi hre
Ġo ver
ĠG eb
ĠâĢ ľ
yste m
ĠK ar
ru pp
ur op
Ġc om
ir t
t on
o ff
u al
ent lich
B e
Ċĉĉ ĉ
ar n
f all
A r
ĠIS BN
ĠJahr hund
Ã¤ hl
id ent
L e
Ġ1 2
n ah
Ġe tw
Ġin t
r ich
E R
ik an
re d
le d
at ing
ĠA d
ie der
- -
S ch
Ġs eit
k te
am er
Ġth row
o und
T h
" ,
ĠM us
form ation
Ġo ther
ĠJahr en
i der
le g
Ã¶ l
Ġf ol
Ġzw ischen
p ert
h m
c om
at es
if f
ĠÃ ľ
Ġ <
ĠU m
gen d
Ġun s
Ġbe g
ĠC hr
ĠTe il
iter atur
b au
t es
Ġw eiter
E r
our ce
al d
ent r
Ġ !
Ġa cc
ĠG ra
ĠSch w
hal ten
eit en
Ġl ike
in s
a gen
Ġg roÃŁ
r on
en de
Ġ :
) )
ver y
Ġd am
ĠK ir
Ġdies e
as h
ĠSp iel
Ġn o
und es
en den
en e
Ġv ers
m a
Ġwar en
Ġp e
ĠW elt
V er
Ġb o
I d
iel d
ĠT ra
Ġpro v
p l
omm un
Ġp ar
eit s
ic t
qu est
os s
ing en
ĠB es
um ent
ĠBer lin
ĠB o
Ġ1 4
in der
in a
ĠAr beit
ell en
a ir
o us
Ġwh en
Ġst ud
u es
ĠS h
c ial
la ge
Ġbe k
a um
Ġin d
ou g
aus e
l Ã¤
() .
Ġpro du
ĠM an
sch en
ot h
o id
R es
Ġp h
neh men
1 6
Ġzur Ã¼ck
Ġd ann
f r
ĠTh is
g s
ĠNe w
" );
Ġre g
Ġs c
Ã¶ s
Ġhe l
is te
Ġj ust
Ġj e
y m
f Ã¼
l i
en z
le in
e k
p iel
de d
ĠG er
1 5
ug h
Ġth ere
Ġ1 3
h and
v ent
st ra
he im
Ġne ed
c o
au pt
I m
ĠĠĠĠĠĠĠĠ ĠĠĠĠĠĠĠĠ
1 2
ic es
or g
Ã¤ ter
Ġa g
ic s
f ter
tr y
Ã¶ glich
en er
uch t
Ġw enn
A l
b o
le t
Ġbe im
Ġb u
O N
ge w
ĠJ un
Ġit s
ÃŁ en
Ã¤ d
schaf ten
ĠJ an
Ġthe m
Ġf inal
Ġer sten
ĠÃľ ber
Ġo b
Ġf irst
sch ie
on der
Ġin cl
Ġh ow
Ġt r
ran s
io us
p s
Ġin to
ur r
ru ck
ĠA ut
Ġwh at
Ġg ibt
Ġer st
Ġh ier
is m
if e
Ġst at
Ġ '
Ġ ra
ĠA ll
ro up
c ted
h ne
Ġl ook
Ġw el
Ġge hÃ¶r
Ġh and
tell t
c ed
if ic
() )
Ġin st
ĠM en
d ay
ro und
Ġth an
ĠT r
al en
p f
Ġ .
re am
k l
ot t
op le
fol g
il der
ĠH and
Ġ *
ag es
ĠSt a
Ġg esch
ĠB l
g l
ĠM in
Ġel se
en k
c ess
i den
Ġm ake
und e
ut ion
Ġbe c
ĠA ug
Ġw ere
ĠLe ben
v ers
Ġm us
ra g
a der
ra y
ar b
ub l
ĠP f
Ġh o
f ig
am t
Ġ201 8
Ġwo uld
ĠF r
ier ten
Ġv iel
ĠGemein de
ĠJ ul
e p
Ġd rei
wer k
Ġ! =
ib le
Ġm ost
tern ational
le x
Ġk onn
rie b
1 3
' t
ĠN ov
Ġh ad
Ġse hr
() );
Ã¤hr end
p en
Ġd a
C h
an der
ĠZ u
glie d
m at
ra ch
en ce
ĠB au
o y
Ġd r
ster reich
ĠAr t
je kt
ow er
a kt
Ġge b
un st
iv er
Ġg er
ĠB undes
de x
ĠO ber
ul ar
Ġus e
eb s
w ard
ĠJahrhund ert
Ġth ro
L ist
uÃŁ ball
c on
i pp
ĠC ar
ĠC on
Ġs ho
Ã¤l t
ad d
it ies
in ess
ĠN or
me ister
Ġan ge
ĠSt ra
sp ieler
Ã¼ t
Ġb el
1 4
Ġl oc
Ġjed och
Ġz e
Ġc ase
ĠÃ ĸ
il s
f ach
Ġ19 2
ist or
ĠF amil
Ġf ind
ĠE l
b ild
al k
ĠM ed
L iteratur
ass en
sp r
G eb
am es
Ġon ly
Ġs et
ar ten
abe i
ĠP e
Ġer h
Ġb re
v or
Ġkn ow
ar m
Ġe very
Ġd ire
ogra ph
ĠIn d
Ġf Ã¼hr
ĠSt ud
at ive
Ġpe ople
p la
it al
iel t
5 0
z ial
p on
it s
ĠM on
f ul
Ġb ack
z w
ĠE urop
ur t
os ition
te xt
c y
Ġs he
eng th
ch er
7 8
ĠF ilm
u ar
Ġ Â
Ġdeutsch er
b ach
ur z
s o
ĠDeutsch land
Ġa ct
Ġw ell
urr ent
ig ung
Ġm ay
Ġver b
ĠChr ist
e c
V alue
ĠM Ã¼n
Ġw eit
Ġsp Ã¤ter
Ġ X
schie den
O r
a id
ass er
em ent
au er
ĠB et
Ġun ser
gr Ã¼n
ĠP erson
iv en
ich er
un kt
ĠH o
Ġi hn
w n
č Ċĉĉ
n ung
Ġetw a
us iness
( ),
Ġh in
hal b
pr il
/ /
ke hr
2 00
ck en
P ar
ĠK l
ĠB and
Ġv oid
Ġg leich
ch ts
re m
ge mein
Ġim mer
ĠAug ust
ate g
tem ber
am s
Ġp l
Ġ3 0
uÃŁ er
Ġdes ign
Ġs upp
hal t
F or
âĢ ¦
ĠZ w
o te
Ġcon s
lich er
ol f
Ċ Ġ
ĠAn d
er g
I f
u z
Ġdies em
ost en
Ġsch on
ien ce
ĠP ol
un k
Ġst r
ĠO b
re g
ĠPro du
Ġc l
ĠM ann
ir k
le ct
eth od
ar s
ier e
Ã¶n ig
ien st
Ġm in
ĠF e
an y
Ġhel p
u ck
o int
Geb oren
Ġver y
um ber
Ġs ol
T e
N e
o od
Ġas s
ĠM al
ra d
1 1
ĠGr und
ro l
et s
ar r
ĠW er
as ed
Ġsein en
g est
Ġle tz
ut h
ĠF rie
ĠO n
Ġman y
un ter
W e
Ġ [
schaf ts
Ġver w
ĠY ou
ĠA pril
ing er
M it
ie b
ĠSe p
Ã¤r z
Ġand eren
ĠVer ein
i qu
ĠFran k
Ġt wo
ĊĠĠĠĠĠĠĠĠĠĠĠĠĠĠĠĠ ĠĠĠĠĠĠĠ
Ġm ach
Ġlie gt
Ġein z
as ch
is en
Ġe igen
Ġz usammen
ess en
ich ts
ĠG roÃŁ
ff e
Ġs m
Ċ Ċ
ĠNov ember
A T
Ġc re
it el
Ġyear s
lo ck
es ten
ie f
g ang
Ġf l
it ed
vel op
Ġt ry
p or
if fer
ze ug
I D
il ity
C lass
Ġin v
Ġber eits
ĠN ord
ist r
ĠEn de
Ã¤n der
Ġsein em
Ġd own
Ġs on
ĠP latz
ĠV ers
ho f
ste in
s on
Ã¼ tz
Ġk eine
ĠVer b
Ã¶ ÃŁ
Ã¶ ch
Ġ201 7
ment s
sch l
ĠSep tember
f o
k er
uf t
Ġthro ugh
ur s
Ġs ub
w ohn
Ġre m
la gen
w ick
Ġ end
s atz
Ġth ese
ult ur
Ġa kt
Ġp ublic
is ion
for e
a den
Ġ )
ĠH aus
ĠH aupt
v en
st adt
if t
ar i
Ġsel bst
Ġer w
z ahl
oug h
Ġs uch
ĠJun i
r icht
) );
Ã¶ff entlich
u k
Ġb esch
a j
ag er
R E
Ġer ste
ĠN ational
Ġres ult
Ġh igh
. )
c ri
a ur
ĠR es
ar ch
Ġbes te
Ġex per
op h
we g
G e
M ann
k reis
Ã¤n g
ne w
Ċĉĉ ĉĉ
Ġe ben
m Ã¤
ĠIn st
ĠI hr
Ġs erv
ct or
Ġg u
Ġm on
rupp e
ĠM et
Ġd ort
us tr
Ġh ome
S e
Ġ& &
ĠH och
ru e
w alt
re ad
ĠF Ã¼r
ĠV ol
an ts
a ul
Ġch e
Ġfol gen
Ġund er
Ġ201 6
f ang
Ġa fter
Ġre ad
Ġn ow
oh ann
2 1
in er
kt ober
f te
3 0
ĠB ild
Ġst and
= =
Ã¼n st
Ġ ,
b es
he l
O bject
[ ]
ĠI f
pon se
Ġp erson
isch es
ĠI I
at ure
ak ing
ct s
lic k
al le
c a
Ġhe ute
ĠK unst
Ġpro f
ĠW h
v iew
Â Ń
ow s
ess age
as k
ais on
E N
Ġihr er
Ġm ark
in nen
Ġw en
ĠI s
A t
Ġkonn te
r or
ut en
Ã¤n ger
ation en
N ach
e ich
mit tel
l ing
ĠS c
Ġse e
ĠK Ã¶nig
Ġ201 5
c ode
ĠM ai
gr und
iz ed
res ult
Ã¼ s
Ġv alue
Ġb r
Ġf re
ĠIn ter
m ar
Ġb l
ĠBe i
tr ib
al ien
Ġgo od
ess e
ĠD es
S T
al th
d s
ĠK inder
Ġo hne
la uf
f inal
Ġpla y
issen schaft
f eld
Ġk e
S ie
Ġver schieden
Ġ19 0
lo ad
Ġon line
b uch
Ġdam it
i ÃŁ
s g
w ay
Ġ2 5
Ġm ed
es ter
iv ate
up er
Ã¼r ger
l ang
ĠB ar
Ġg reat
ot her
Ġi hm
Ġv ier
o ver
stell ung
ĠO ktober
es en
Ġw rit
Ġd ay
ur ing
ĠĊ Ċ
iv es
ĠJul i
er d
Ġw ay
ĠD r
ic a
ĠJan uar
Ġde c
Ġne ue
ebs ite
Ġf ree
re t
Ġc ol
Ġaus ge
Ġ201 4
ĠU r
eb ru
ĠM Ã¤rz
p art
ck e
re it
Ã¼n d
Ġl ong
Ġ201 0
Ġwh ere
Ġte chn
Ġstat ic
Ġsch w
o ten
Ġk ein
ĠOr t
olog ie
ro p
Ġbec ause
pert y
ĠA t
omp on
ction s
Ġ >
T o
we iz
z ember
Ġl ang
ust om
o gen
Ġ201 3
Ġa v
Ġ201 2
um s
Ġ1 1
st ru
w ahl
ĠJ ohann
Ġth en
Ġb usiness
mal s
Ã¼ h
e x
t ag
f a
Ġs om
Ġ1 00
fall s
k a
v al
Ġ2 4
ĠS pe
ĠM ark
o in
Ġar t
sch lieÃŁ
u ge
Ġv is
Ġge f
ĠS Ã¼d
Ġwor ld
Ġwh ile
ĠA mer
ĠF ahr
ĠMus ik
Ġd el
ĠJ u
Ġer folg
w ert
Ġk lein
ole an
Ġch ar
Ġbe fin
le it
Ġb en
ĠP olit
A us
Ġ201 1
al if
ĠDies e
im p
rif t
ĠLand es
gan is
Ġp ass
or ben
and s
ot s
ra ft
Ġte il
Ġf un
er y
Ġm o
Ġev en
Ġ %
af f
kt ur
ĠF ol
zeich net
z ie
al ity
ĠC l
ĠS er
in es
ran z
il it
ĠF ebru
ĠS k
De utsch
le ase
ater ial
w w
iss ion
H e
Ġer sch
l ig
A m
Ġd iffer
in o
Ġh ere
ro ss
w end
Ã ¡
Ġs aid
Ġk am
b ahn
Ġse c
b t
Ã¤ s
al se
Ġs k
tra g
Ġe m
ĠPro f
ou ble
ĠDe zember
ĊĠĠĠĠĠĠĠĠĠĠĠĠĠĠĠĠ ĠĠĠĠĠĠĠĠ
Ġt rue
sp iel
Ġa c
Ġw ant
s etz
Ġincl ud
ĠB uch
f ra
in ce
Ġst att
Ġsp iel
A N
Ġ200 9
Ġgr Ã¶ÃŁ
los s
a ar
om en
Ġde velop
Ġand er
Ġbei den
ĠMen schen
ĠG ener
ĠUnter nehmen
z ug
amer ikan
ĠC omp
č Ċĉ
Ġ200 8
ain t
Ġ ur
Ġw Ã¤hrend
ĠA s
ĠC he
ĠKir che
w are
ĠH ol
i or
A R
ed er
k auf
Ġne uen
is piel
Ġco uld
A L
Ġo wn
Ã¶ st
he d
ĠM o
ĠE ine
ber t
ĠP art
Ġpro gr
Th is
st Ã¤nd
ĠW ir
h ol
ĠV on
ĠW or
Ġp res
re cht
z ent
h in
ern se
ĠGesch ichte
ion en
ach sen
Ġh abe
cc ess
ĠL iste
Ġ18 9
. ,
ĠO ff
rie g
ch s
od y
z u
Ġc lass
Ġus ed
Ġe ing
il t
Ġsho uld
Ġl ast
ĠAl s
l en
Ġn ame
Ġdies es
Ġg ra
ur es
O R
ĠD urch
ĠD aten
âĢľ ,
Ġs er
ig te
ĠĊ ĠĊ
Ġc ar
Ġs ur
de te
ism us
Ġst art
ĠRe ich
ĠCh ar
Ġd abei
rÃ¤ s
Ġ #
ĠW ert
ĠAr ch
Ġin formation
i us
al ter
o pp
ach e
n ame
at her
ĠH Ã¶
Ġs ervice
ing le
g abe
Ġm ade
Ġi de
ĠUnivers ity
ĠPh il
ell schaft
Ġf est
olog y
Ġd on
ĠS aison
omm t
he mal
o hl
Ã¤n de
Ġf amil
Ã¤ch st
Ġm od
ĠI hre
ĠâĢ ł
iv ing
Ġ200 7
om an
u ter
Ã¤t z
sh all
ig es
Ġihr en
in ing
ut t
Ġb ook
Ġbe fore
Ġste ht
Ġein fach
ogra f
ĠS al
Ġar beit
Ġp ol
g leich
Ã¤ hn
Ġr ight
ic an
č ĊĠĠĠĠĠĠĠ
neh mer
Ġt ake
Ġm uch
Ġd u
sch n
an st
le te
ĠD ar
m ed
t re
is k
ver b
ĠW est
app end
fahr en
fÃ¼hr t
age ment
âĢľ .
in en
ide o
ĠH am
ĠW ien
lin k
Ã¼n f
nah me
ĠÃ Ħ
ĠP l
as on
Ġ ...
Ġb ie
Ġst ar
Ġ x
qu ire
Ġfin den
un n
sch utz
2 5
Ġein ge
Ġt rans
k ommen
sch ule
Ġch ild
sp e
p os
Ġs u
f ass
ĠMit tel
sp ort
Ġprov ide
Ġto p
Ġe t
Ġc atch
y l
u gen
y le
il le
le gen
4 0
Ġl ife
t he
S S
ĠW ohn
M ap
Ġb zw
ĠB ere
Ġg ab
oll ow
Ġd ata
f ern
le gt
ĠC o
ĠG l
ĠFebru ar
Ġp lan
ar z
b y
be i
Ġg ut
D ata
st r
Ġz un
ĠM ich
it zen
all s
Ġthrow s
19 9
ten s
ĠL in
6 0
ĠMit glied
Ġ9 78
az u
T ra
s ol
ail able
Ġe mp
B y
ik a
ges tellt
Ġe as
ĠM ill
Ġ5 0
ĠW asser
p unkt
um e
im es
en ter
Ġbe ing
Ġdes sen
l ength
Ġ u
ĠEn t
Ġen g
ĠUnivers itÃ¤t
Ġc le
um mer
ĠFor m
Ġ200 6
Ġm uss
ĠSt and
Ġc omm
Ġ $
K ey
Ġf ound
ĠEn tw
om mer
ĠJ ohn
uf en
Re quest
la ck
Ġe ach
los sen
ak es
G esch
ist s
as ter
E in
Ġc urrent
e h
ĠMÃ¼n chen
m m
f ort
Ġbek annt
ip s
hn en
er m
E lement
8 0
oll en
y r
un ktion
ĠSch ul
uf fer
it Ã¤
ĠF uÃŁball
le kt
Ġgen er
u x
ear ch
Ġc olle
hr en
Ġof fer
ĠA uch
id es
ranz Ã¶s
Ġre al
O ver
ĠR Ã¼ck
Ġweit ere
ĠK n
Ġa round
Ġg anz
al b
dr ich
2 2
an gen
ĠF est
ĠW il
ĠV ert
p ieler
d orf
Ġson dern
ab el
ĠB ay
ĠIn tern
Ã¤ ude
schl uss
ĠB est
ĠK r
Ġc oun
ĠP at
Ã¤hl t
Ġag ain
a e
ĠE d
sp re
Ġc ustom
ĠSch weiz
Ã¼ ss
tell en
Ġv iele
ĠD an
Ġg est
ĠG u
ĠM ot
Ġn umber
ĠKar l
S et
de ut
Ġdo es
ĠN amen
ĠS an
Ġp ost
Ġsh ow
A d
Ġad d
ĠN atur
Ġc ommun
p re
M ar
u ally
M e
Ġalle m
ĠB as
ch te
ĠVer lag
Ġ200 5
rie d
Ġs ite
im al
-- --
Ġder en
Ġl og
en der
rie ben
Ġb ed
E D
ge d
Ġpro cess
ĠB re
out h
a ÃŁ
Ġn un
ch sel
Ġm ein
us h
stra ÃŁe
iv id
ran k
and en
v an
d ate
w ays
ĠM ag
all en
sch ied
rupp en
ra gen
Ġbe f
Ġw icht
ĠM od
Ġp ra
Ġs ign
ĠB ra
ich ten
lass en
Ġdiffer ent
th is
iqu e
Ġr est
t il
ut ter
Ġn or
Ġp os
al er
ain s
Ġb ring
A b
irt schaft
Ġm ar
z iel
Ġd id
Ã¼ hl
Le ben
Ġand ere
s w
Ġ2 2
los e
Ġn ah
C ont
ĠReg ion
ie g
Ġs Ã¼d
r ic
ĠJ e
re ib
Ġf ile
ĠSch l
Ġin ternational
Ġ20 00
Ġ â
P ath
h ard
F ile
ann te
Ġf Ã¼nf
ĠP er
ĠR ad
lass e
I T
Ġth ink
b ack
Ã¤ us
Ġl ist
ĠGe w
Ġche ck
ubl ik
ĠA ss
ĠT od
Ã¤ uf
Ġth ose
ĠSt re
ĊĠĠĠĠĠĠĠĠ Ġ
ess er
Ġl ar
om in
ly mp
Ġerh ielt
ĠS eite
mÃ¤ ÃŁ
k ten
ĠBere ich
Ġ2 1
ĠY ork
Ġl ove
reich en
nis se
Ġcre ate
ig ten
Ġdeutsch en
c ing
ĠSt r
it te
Ġge mein
w ork
ĠW ill
Ġk ey
Ġm ir
ord s
ĠPerson en
Ġp olit
we en
A s
ĠH ein
ĠMe ister
itt le
Ġc are
ĠLeben s
om b
re uz
he in
ĠZ usammen
Ġpro ject
Ġ2 3
N ode
wohn er
ro ll
ap an
kt or
r ide
Ġ201 9
geb iet
7 0
Ġwe ek
it ter
ĠB Ã¼
Ã¶r der
st off
ĠFra uen
Ġv ar
im mer
use um
ĠAl b
Ġp at
ĠTe chn
ĠP re
c lass
h Ã¤lt
ĠFrie drich
al y
ĠK reis
Ġ200 4
o ot
Ġf alse
k on
ard s
n ess
ĠK ont
B u
Ġe hemal
Ġpla ce
j Ã¤hr
m et
hr er
it or
ĠT ag
et ail
Ġa ut
Ġm Ã¶glich
Ġan n
as st
Ġc our
ĠF il
ĠN ieder
ct ive
I t
g ra
ĠK ap
Ġm al
et ing
Gesch ichte
h af
Ġdies en
Ã Ń
ir che
y ch
c i
ĠA pp
Ġc a
le i
ck er
am ent
Ġk on
ĠOr ts
erd ings
Ġl a
ĠT o
Ġav ailable
ĠB el
Ġden en
s am
Ġus ing
Ġje we
or ts
uf f
gr amm
Ã¤n ge
ĠW erk
Ġbefin det
4 5
If c
och en
Ġo bject
al ten
op e
Ġre ally
ĠBer g
Ġge ht
A C
U R
Ġs ystem
Ã¤ ll
dr ess
Ġc al
ar te
ĠFamil ie
la ub
Ġf ollow
Ġr und
ĠM at
Ġbu ild
Ġv al
w ig
Ġh im
ath ol
Ġ18 8
b l
Ġt ype
p latz
Con fig
Ġb oth
Ġst ill
z er
fÃ¼hr ung
glie der
n a
it es
Ġm ov
Ġer halten
ĠR o
Over ride
G est
Ġletz ten
Ġg roup
ĠGe gen
ra um
ĠL a
g aben
ĊĠĠĠĠĠĠĠĠĠĠĠĠĠĠĠĠ ĠĠĠĠĠĠĠĠĠĠĠĠĠĠĠĠ
ch es
lo b
Ġs l
ur y
Ġk ommt
our n
enn t
ĠB ahn
ernse h
is hed
aus pieler
ĠJu gend
Ġz ahl
in ation
an e
+ +
bild ung
Ġf ast
Ġcomp any
h a
ĠT itel
igh ts
ass e
able d
ĠEn g
L E
Ġbet ween
Ġwor den
Ġv iew
ur m
Ġwel che
i at
Ġf ranzÃ¶s
ig inal
ĠW ahl
ĠP aul
ĠB ut
lich keit
v ed
ĠB en
ĠS ohn
Ġsoll te
Ġph ot
Ġl o
ut es
Ã¤ re
en det
tell er
Ġeben falls
ĠG o
Ġsm all
Ġb as
us ch
Ġdis c
Ġetw as
ff en
ĠD u
Ġ2 6
ĠH ier
an a
ĠEntw ick
U S
il es
Ġ| |
ĠIn formation
sch rift
Ġmon th
St ream
Ġg ar
ĠE m
Ġbeg ann
em p
Ġsch n
Ġfr ien
ĠF in
Gest orben
om at
Ġa uÃŁer
M E
A ll
Ġfor m
alt ung
Ġper fe
ĠSp ort
ĠL ist
Ã ³
Ġne xt
cri ption
ĠF ot
ĠIn ternational
ĠL ie
Ġinclud ing
M od
ĠP la
s icht
de ck
ent en
f urt
Ġ2 8
isch of
A uf
Ã¼ b
le y
ro om
Ġd i
2 3
ĠH ans
fer ence
Ġdar auf
Ã¶ sterreich
ĠFran z
ess or
Ġo pen
ĠC ol
sch ul
ĠC olle
ĠPro v
er st
Ġbo olean
at us
ir l
rit t
kl Ã¤r
2 4
v es
Ã¼ l
ĠN ame
S p
ĠW ar
ĠO st
uch en
Ġent stand
h ung
Ġein ige
Ġm ember
tr Ã¤
Ġne u
Ġbre ak
Ġzun Ã¤chst
o ge
it u
f ts
ĠM or
op f
Ã¶ m
onder e
Ċ ĊĠĠĠĠĠĠĠĠĠĠĠ
Ġ200 3
b ed
Ġent wick
am a
Ġakt u
f ilm
ho de
Ġexper ience
um en
ĠO bject
C l
M an
k m
Ġd och
ĠM y
Ġ( âĢ
Ġc or
fa ult
< /
um p
ĠF ach
Ġsch ool
Ġ200 1
amp f
grÃ¼n det
iv al
ir d
Ġ4 0
Ã¶glich keit
j ahr
ann ten
d ruck
m us
r sg
Ġst ark
Ġm ax
ĠC ont
Ġre quest
I C
ap er
is se
ber eich
D F
av ing
Ġge l
Ġfamil y
Ġ199 0
Ġev ent
a el
ĠDeutsch en
Ġprof ession
Ġs ame
b et
Ã¶ t
ĠS il
an ad
Ġspe c
Ġp op
sch w
o x
ĠB Ã¼rger
Ġre quire
Ġc all
un t
Ġat t
la u
Ġhe alth
tt p
Ġver Ã¶ffentlich
Ã¼nst ler
en nen
ĠgroÃŁ e
sch ein
Ġserv ices
ĠP ark
Ġ2 7
oc i
č Ċĉĉĉ
er ts
lo y
ĠS he
ĠLand kreis
al es
hel m
ell er
Ġst ate
ĠInst it
ĠT or
Ġincl ude
Ġim port
ĠÃĸ sterreich
T ime
Ġv oll
In dex
uÃŁ en
ĠS ystem
ame ter
ĠJahr es
ĠS eit
Ġh istor
ĠP ort
ĠPolit iker
Ġim p
D R
ĠHer z
ĠE ur
g te
ar get
Ã¤ h
Ġo per
f re
av a
Ġf act
ne y
ĠPe ter
W ith
Ġse i
ond on
ĠI ch
ĠD em
Ġcont in
Ġl assen
Ġb il
O f
Ġ200 2
Ġfe w
Ġapp ro
du c
e ver
Ġm ich
Ã¤ che
Ġle arn
Ġspe cial
c le
ĠH el
ĠSta ats
Ġander em
ur en
ĠB esch
Ġd uring
Ġor der
for der
ĠRe chts
Ã¶l ker
ĠH il
ĠN o
min ister
Ġgew ann
Ġm en
Ġper form
trib ute
on nen
Ã¼ck e
ik t
Ġind ivid
l ess
ount y
Ġge m
Ġo ption
ic ally
d o
Ġm ust
ĠB i
M et
Ã¼s sen
imm t
ĠT er
ro s
reich e
ĠFra u
af fen
iz ation
IN G
et te
ĠN ot
D ies
on ders
Ġsupp ort
Ġal ways
ot he
im at
um n
Ġloc al
Ġh app
z entr
Ġm ethod
ver t
Ġk urz
th ing
Ġth ree
den s
uch s
Ġdeutsch e
e qu
Re g
Ġte am
ir on
Ġd ating
Ġre t
te gr
ĠD re
Ġro om
iet y
Ġf ull
Ġm et
Ġgo ing
i as
ĠD a
Ġ18 7
ies en
Ġd azu
ĠThe y
ĠgroÃŁ en
d ing
I I
Ġ18 6
oss ible
st Ã¼tz
Ġlook ing
Ġpro ble
um m
Ġex p
gen ommen
te te
s ych
ĠAn t
wer b
Ġne ben
ĠZ e
ĠH ar
O n
A S
Ġto o
Ġall en
Ġk ommen
igkeit en
ĠS el
ĠWelt k
Ġeing es
Bu ilder
Ġl ittle
at ter
ĠK ultur
Ġb ra
S ervice
ĠS ol
ĠM art
P r
Ġs imp
Ġihre m
Ġin cre
* *
z el
oc ol
Ġf ield
ĠD on
ĠD o
č ĊĠĠĠĠĠĠĠĠĠĠĠ
b ook
Ġt yp
F uÃŁball
Ġse x
ĠBe g
Ġh och
id s
ĠFamil ien
: //
nah men
ah men
ĠgehÃ¶r t
Ġin ner
Ġare a
ur ger
M essage
Ġmach en
Ġ Q
Ġ2 9
ub e
Ġb ro
ĠB ern
ourn al
an c
Ġwith out
H and
ar ly
Ġpro m
ind ung
ĠG en
ĠR ich
Ġn ie
ĠP al
Ġch o
ĠP reis
ĠT our
Ã¶r per
Ã¤ ft
am b
Ċ ĊĠĠĠ
Ġw ater
Ġex c
ne ction
Ġre ce
Ġpart ic
ĠHer r
ent ial
or ge
ĠU hr
Ġs w
z ogen
ft ware
ĠD orf
ĠO lymp
pr ess
ĠB ed
Ġver l
Ġfr Ã¼
Con text
Ġe ffe
Ġ199 9
Ġis s
g ument
ĠJ ose
Ġauf ge
ĠL ondon
Ġb ig
Ġo ld
on es
Ġfe el
ra cht
z t
ent ly
ers Ã¶n
Ġre lat
3 3
ĠPar is
Ã¤t ze
Ġg ing
F ield
f ert
č Ċ
pr ession
or ie
ĠSe e
Ġ ?
Ġg ot
Ġc r
Ġst or
e te
gesch ichte
D E
se e
ur ation
In st
ĠTe xt
atur es
teil ung
ch ten
Ġersch ien
ĠH ow
ĠVol ks
d ienst
ges amt
Res ponse
fÃ¼ g
ĠI hnen
Ġto day
ĠD is
Ġsh ort
ce pt
ĠR u
Ġw Ã¼r
I ON
c r
in ner
ĠD av
Ġnah m
. "
ĠD i
9 0
Ġp ay
L A
gan gen
ĠTh ere
ab r
h ip
c ont
il en
ĠM ain
En abled
um er
ere i
Ġden n
rit ten
Ġg row
il ter
ra che
Ġor gan
le tz
iz iel
Ġt ro
Ġs ince
ut lich
E s
icht ung
el te
rie gs
z ig
ol ution
ĠR ed
Ġste hen
ĠR ahmen
ag s
2 8
w h
Ġ20 20
4 8
Ġab sol
Ã¼ ll
Ġs ure
D es
pr ivate
ĠB urg
ĠF ar
lat t
le ben
ĠC or
Ġbeste ht
3 5
Ġj ob
rÃ¤ ger
rÃ¤s ident
ĠR aum
! !
ach en
ĠUS A
Ġs ay
Ġspiel te
. âĢĿ
I S
st re
g n
Ġher aus
Ġk omp
ĠW ebsite
our s
we is
Ġqu ality
Ġch ange
Ġm ind
) :
Ġf lo
ĠEin satz
le ine
uch e
Ġ est
19 8
w or
Ġc ome
fol ge
ĠC ity
Ġhat ten
ge ord
Ġbe h
2 6
g ar
rit er
Ġbe zeichnet
ĠS m
amerikan ischer
ĠAn fang
ĠS eiten
ĠBet rieb
m ark
ĠFl ug
ĊĠĠĠĠĠĠĠĠĠĠĠĠĠĠĠĠĠĠĠĠĠĠĠĠ ĠĠĠ
is iert
9 9
pert ies
il ome
Ġe qu
equ als
ĠUn d
ĠNe ben
ul ts
Ġwe gen
ĠKir chen
Ġke ep
j oy
Ġt re
ig ital
ĠK at
Ġsch lieÃŁ
Ġsec ond
um b
Ġmehr ere
Ã¤ mp
Ċ Ċĉ
ost er
Ġh ard
h Ã¤ng
Ġle vel
at Ã¼r
eth ing
our ces
ur f
Sie he
te i
om as
2 7
ĠP lan
g o
Ġg re
Ġl ine
ĠIn s
H rsg
ograf ie
Ġbe aut
Ġth ings
ĠB ro
O Exception
Ġab ge
Ġall erdings
ĠFor sch
ĠT re
il y
Ġqu est
m l
ĠGr Ã¼n
th row
Ġerst mals
m b
ack age
one y
w elt
uch te
ĠTe am
w ort
ĠB ad
utz t
ĠM ay
Ġ199 8
Ã¤ m
ar a
ier s
ĠâĢ ¦
Ġd ah
heit en
rif ten
Ġ @
ich tet
ĠAmer ican
ver ein
it ive
ĠK ais
Ġs uper
et en
In fo
Ġzw eiten
it ing
im ent
Ġl in
ile d
v Ã¶lker
ik en
Ġh inter
ĠA lex
ĠG old
ĠD ienst
ne te
ĠEr n
tel le
Be i
Ġd ouble
ut s
ĠHam burg
ĠFol ge
ĠNe u
n ot
Ġo pp
Ġle t
ĠGe org
um an
Ġbet ter
ĠLe ist
ir m
ĠSch m
ĠIntern et
h am
ke y
ĠS en
Ġof t
ier ungs
if ied
s weise
k un
o ung
Ġinst ance
ĠD ire
Ġab le
ĠZ ahl
Ġh ol
w and
Ġer ne
ĠAus tr
ĠF all
ĠSta aten
y er
au g
ĠBe ispiel
En try
ĠG ed
ĠWor ld
Ġp ower
ar en
in c
Ġl ot
Ġm ain
ut ure
ĠGener al
em s
P erson
it ch
ik el
w est
Ġall er
ĠMich ael
Ġf ac
ĠI l
ĠAl t
Ġc ost
d es
ĠWe g
Ġapp lic
ĠWil helm
an te
ĠW ind
p lan
Ġwith in
de utsch
Ġg ame
iv ed
ill s
ist ory
ĠEn erg
den k
on y
op s
Ġad v
d ie
af Ã¼r
Ġuns ere
eng l
Ġw ebsite
os en
sel f
ograph ie
S h
an ten
rit e
Ġverschieden en
ĠL auf
ĠZ ug
ĠI de
N ot
ĠG re
ĠC omm
schn itt
ĠC ounty
ĠEin wohner
Ġres earch
l ow
ĠK o
Ar ray
3 6
ĠW inter
lich es
gr iff
Ã ¨
ĠM ax
v alue
Ġwe il
.) :
t ocol
Ġex ist
b el
Ġd ays
yste ms
Ġd av
tre ten
y d
Ġl ight
Ġent spre
Ġm ult
Ġein mal
a uch
ilit Ã¤r
e hen
ein ander
ĠĠĠĠ ĠĠ
ĠA kt
Ġr un
ĠEur o
ĠVer walt
7 5
R O
Ġj etzt
ĠZ iel
f el
Ġg ive
Ġn ational
ra w
ĠA ir
Ġsein es
Ġs ingle
Ġt er
Ġeigen en
em pl
Ġ18 5
lie b
ĠOn line
we hr
ĠS ervice
W h
ĠSch auspieler
Ġ198 0
Ġprodu cts
Ã ĸ
ĠArch ite
Ġsom ething
A P
ĠHein rich
Deutsch er
Ġho use
a at
Ġ199 7
Ġhe ad
Al s
Ġinv est
ĠJahrhund erts
und er
il er
Ġpro te
al itÃ¤t
ĠW olf
Ġacc ess
ĠZ entr
ig a
ĠR uss
In ter
Ġde fin
ĠW ith
Ġa uth
Ġle ad
Ġse hen
Ġm Ã¼ssen
Ġco ver
ĠM Ã¤n
ĠC lass
ĠChrist ian
Ġlar ge
w issenschaft
Ġbie tet
Ġf and
Ġverw endet
2 9
ĠL ud
heit s
n ungen
if c
ĠMe ter
Ġ( !
ĠD ort
haus en
Ġre f
Ġ6 0
Ġ194 5
i ol
Ġdire kt
il igen
ver n
ic y
us Ã¤tz
{ @
Ġ3 1
Ġ197 0
ĠN r
Ġimport ant
Ġs ize
l Ã¤nd
G roup
Ġb rit
Ġan other
ĠW eiter
4 6
ĠO l
ĠSch ool
ĠR oman
ab ility
Ġer reich
op er
ĠgehÃ¶r te
Ġunser er
. âĢľ
ge ber
ĠEr st
sh ip
l ungen
4 9
v iron
rei ben
Ġb in
b re
ĠRe gel
un kte
ĠL u
irt schafts
Ġt rat
3 8
Ġbe w
ĠGeb Ã¤ude
Ã¤ fts
ic le
C O
ĠDes ign
ĠS ommer
Ġstud ents
if ul
az z
Ġwork ing
St ate
Ġall es
Ġ199 4
Ġt est
Ġw est
P h
Ġhe ut
ĠF unktion
ĠD en
spr Ã¼n
s ize
Ġre l
oug ht
ĠArbeit s
Ġact iv
Ġ199 6
arbeit er
Mit glied
ĠG ruppe
och ter
Ġp age
O b
nah m
ĠK Ã¶l
stell en
f est
19 6
Ġ199 2
Ġad dition
pt y
Ã¼ck en
ĠGra f
" .
Ġd an
E S
ĠT yp
L O
Ġa ir
Ġw omen
Ġse chs
w irtschaft
ĠPro jekt
zeich nung
amm lung
Ġg l
Ġs etz
Ġse arch
bes ondere
ĠEntwick lung
Ġc ert
Ġf ood
P re
Ġchild ren
ar ed
sche id
ĠInformation en
Ġt urn
z irk
Ġan t
C ol
ĠSte in
Ġo pt
ĠK la
Ġjewe ils
au p
is ierung
ĠC om
ĠF ir
Ġl ange
Ġl at
ain er
g al
ion al
Ġpra ct
l og
Ġcomp lete
Ġeas y
ĠSch n
p end
Ã¼ gel
ĠSp ieler
S er
l le
en a
tel s
Ġen joy
Ġinter est
ĠPro ble
ib li
pr Ã¤s
Ġtra dition
b urger
Ġde v
ĠMar kt
ur ity
for d
ĠLe ip
b and
Ġg ilt
ĠS itz
aj or
Ġ Ã¶sterreich
Ġs tell
Ġfin det
h end
b aut
Ġe ff
ent lichen
ĠNor th
Ġc ap
ge ther
Ġgen annt
ĠS w
Ġweiter en
ilome ter
ĠM ont
schlieÃŁ end
3 2
Ġcon f
> >
Pro perty
Ġneed s
it ten
reib ung
ie gel
Ġbes onders
Ġprogr am
f s
Ġk m
E C
W ir
i am
if y
Ġp ort
ĠThe ater
os oph
Ġ( (
Ġ199 3
st ag
Ġs af
un ch
ganis ation
g lichen
ĠS outh
Ġ ident
leg al
ar l
Ġp ut
== ==
E T
lich t
Ġunter schied
ĠMit te
le v
Ġ199 5
p ublik
ra u
ober t
k irche
oc us
as es
cri pt
Ġm ag
hl en
Ã¤ ss
ĠD am
Ġen gl
ĠG el
il la
a pe
ĠS oc
ĠfÃ¼hr t
ĠP ap
Ġmus ic
c ent
ĠâĢ ĺ
Ã¼ f
ĠfÃ¼hr te
Ġt Ã¤t
ĠV ater
t ing
Ġcase Ifc
ĠD abei
ĠJ o
if en
C omp
ĠM Ã¶glichkeit
ĠS Ã¼
ĠR est
Ġjed er
d a
Ġin it
ĠF eld
Ġmark et
ct ure
te ger
Ġperfe ct
4 7
etail s
ĠG ar
3 9
Ġp ath
im men
' m
Ġv ideo
ĠB y
her r
ĠFrank furt
] ;
Ġim pro
isten er
Ġre view
ort un
E m
ĠS ein
j a
ĠK om
ĠProv inz
Ġdav on
Ġviel en
ĠStra ÃŁe
Ġm aking
ĠP ost
wend ung
3 7
ĠâĢ Ķ
au en
ĠK omp
G ibt
Ġm ight
ĠR el
Ġp ict
ĠEr z
ob il
e le
le ge
Ġle ft
l ungs
ĠK Ã¼
ĠkÃ¶n n
z y
ĠTh omas
ĠEurop a
Ġm atch
teil t
st ants
ar ing
le ist
Ġn et
c er
ĠHÃ¶ he
st ant
gr ess
Ġe d
Ã¶r d
pr Ã¤
ĠO p
Ġl and
Ġ18 0
ĠP ra
pla y
ĠHol z
Ġn on
Ġsu ccess
Ġne ver
S o
Un ivers
k n
ĠH ome
Ġperson al
pe ct
w agen
ĠE he
ĠN utz
sk i
w ie
ab l
ĠEr geb
Ġschn ell
Ġh al
pro du
viron ment
ze pt
Ġm Ã¶ch
ĠEin zel
L oc
v oll
ward s
ĠE is
de ten
Ġfolgen den
Ġ _
ag ue
tell ung
red it
ĠOb jekt
g art
ĠS am
ok en
ik ation
id ge
Ġse ver
Ġcons ider
read y
ĠEr w
Ġcommun ity
ĠW eb
h Ã¶
ĠSch loss
Ġmus ste
ter t
ran sport
Ġl aw
Ã¤t te
ut ions
Ġres p
ĠTe x
Ġver m
Ġof fen
19 0
amp le
Ġte xt
Ġk leine
Ġ196 0
ĠO ur
ĠV e
ord ing
te chn
and id
ĠA g
ĠT ro
Ġc reat
Ġ199 1
Ġbu y
Ġarbeit ete
ĠK lein
ĠW enn
ĠMann schaft
W er
ĠWe i
Ġb ased
ĠB eit
Res ource
C H
Ġr ange
ge f
ĠEn gl
Ġm ill
ĠRe i
4 4
ac ter
ĠMart in
mb H
le hrer
m od
am mer
ĠW ald
ĠH of
A G
ific ation
ĠH ann
ĠRe c
F ilm
ĠLud wig
Ġal ong
zeit ig
ĠUn ited
Ġme isten
Ã¼t zen
Ġ Ã¶ff
ief ert
ĠK e
Ġer m
ire d
part ment
ist ischen
Ġ20 21
ob ile
ul ation
kun ft
Y ou
V al
gemein de
u h
ĠH istor
Ġwor ks
C E
ĠR olle
b ol
ĠM c
ĠO per
ok ument
Ġall ow
ĠSchweiz er
to String
is ed
geb aut
ĠT ochter
Un ter
ĠK ommun
Ġvis it
ĠU l
Ġp oint
al og
oc ument
ĠT urn
Ġas k
ĠF C
F Ã¼r
i ate
Ġ ir
C ode
Ġ Ã¤l
ser ie
ĠGeb iet
Ġto t
v ious
Ġd afÃ¼r
lie gen
ult ure
c ome
ĠSt utt
Ġges am
Ġinner halb
th ers
tern al
ent ion
or m
ĠProdu kt
is ing
Ġlie gen
ĠM useum
ĉĉ ĉĉ
ib r
I ch
Ġn atÃ¼r
ab or
og le
Ġze igt
g ing
Ġre du
a he
Ġklein en
f ield
Ġl ive
ĠW ochen
os p
Ã¤n dern
Ġwo bei
' re
ĠW al
D ate
h men
on a
Ġcle an
iz in
rif ts
ett be
Ġf our
Ġstud ierte
, âĢĿ
Ġn Ã¤ch
pr es
5 5
I tem
ent al
Ġdire ct
Ã¤s st
Ã ľ
Ġgr Ã¼n
st att
Ġsich er
Te xt
omm and
anst alt
ĠE p
pp er
U N
a pt
as tr
eit ung
Ġ198 9
Ġb ody
ĠW ie
Ã¼r z
ran ken
m itt
ro du
act ory
Ġcour se
Ġto gether
B er
19 7
Ġt reat
ĠS eine
3 4
Ġkonn ten
lob al
itÃ¤ ts
P D
ĠK in
dem ie
lig a
i os
U T
ib e
ĠBer uf
richt ung
ĠG eld
Ġex tra
ĠR hein
ĠS icher
Ġwo hl
Ġst yle
_ _
Ġs og
ĠFrank reich
- ,
n ov
Ġprodu ct
ing ton
Ġent fern
z Ã¼
ĠM er
Ġj a
ut or
An d
ĠPro zent
Cl ient
' ve
it chen
Ġh Ã¤uf
ĠJ apan
v ille
ĠT age
ĠÂ »
ĠT rans
ĠGes ellschaft
3 1
geben en
ĠG mbH
ĠGesch Ã¤fts
Ġer n
Ġre p
ĠB ischof
u el
f ace
ĠC as
Ġn ieder
ĠK ompon
ĠR om
ĠK unden
ĠZ we
V ers
Ġunder stand
ĠP ass
ten d
us try
Ġl ess
Ġcon c
Ġbes ten
č ĊĠĠĠ
Ġ198 8
ompon ent
c omp
ab ly
ĠAn geb
ĠL uft
L iefert
Ġins gesamt
ĠtÃ¤t ig
Ġwe chsel
rÃ¤ gt
et ter
Ġbeaut iful
ĠM a
O T
w Ã¤r
sch er
ĠDeutsch e
Ġr icht
ĠM ap
Ġz we
op y
Ġte ach
A pp
Ġa way
Ġk ind
Ġme ist
con om
te ile
Ã¶s ung
ĠK Ã¼nstler
Ġdown load
an ze
Ġauf grund
engl isch
ĠK ind
ĠH en
ch an
od es
shall er
Ġpro perty
ĠD ate
ri x
G r
ĠK ur
i ber
ie ve
For mat
an de
N A
Ġe duc
Ġge grÃ¼ndet
Res ult
Ġf av
Ġg irl
ktion en
Ġres ponse
fÃ¼ ll
T r
ĠI OException
Ġk osten
ĠLe hr
Ġe lement
ĠMin ister
Ġal ready
Ġoff ers
ĠL og
ĠKais er
Ġw eb
Ġagain st
Ġbis her
Ġle ben
ĠLeip zig
Ġeinz el
ĠH igh
ure d
fahr t
Ġo cc
ĠD enk
O ut
ĠEurop e
ent wick
Ġl Ã¤sst
Ġc ity
Ġdevelop ment
m el
ĠJ ust
Ġe ig
ub s
Ġerfolg te
it en
ĠP rÃ¤sident
ĠL iteratur
ag n
Ã¤r en
a ction
ĠL ang
Ġcont rol
ĠStra ÃŁen
Ġcont ent
Ġn atur
n ull
ĠM utter
ĠB ank
und s
ĠM il
c ol
ĠO ne
r Ã¤n
Ġer rich
ĠK le
Ġcon dition
ĠMill ionen
M ethod
N ull
l am
E ine
ĠGer man
Ġme et
Ġbel ow
Ġp ast
Ġverschieden e
r ist
ĠAnd re
Ġfe atures
ĠW Ã¤hrend
ĠSt art
Ġit alien
8 9
is on
ĠK rieg
Ġb ar
ĠschlieÃŁ lich
ĠM ore
Ġmo dern
Ġp ubl
auf en
ĠH inter
ĠZw eiten
Ã¼ ler
en zen
b est
Ġ ess
ge gen
ak ter
ĠT V
ich ter
s c
Ġm aterial
Ġsow ohl
ĠDav id
8 6
es ted
Ġun til
je kte
A D
Ġd ist
etz ung
deut ung
Ġmo der
Ġb it
ber ger
ĠC D
L og
ra b
Ġan geb
ĠK reuz
U t
Ġim age
ou p
S ize
Ĥ ¬
ĠBo den
Ġl ov
.. ..
En t
Ġwh y
Ġgegen Ã¼ber
w eit
ian s
Ġbeg inn
FuÃŁball spieler
Ġdel iver
iv ision
form at
ĠStutt gart
ĠE isen
Ġz eit
Mar shaller
z ess
itz er
< ?
Ġm oney
Ã¶r t
Ġt imes
ĠH in
Ġn ight
Ġet c
ĠAlb um
sp ir
M S
Ġcont act
ĠSo zial
unn ing
ĠF rei
O S
ĠB rit
ĠB ilder
be k
ĠAm t
id ay
ĠMe hr
ac y
ĠG et
Ġwicht ig
F A
ĠE mp
un sch
Ġm ot
id ing
ĠB ru
ĠA ben
Ġz usÃ¤tz
Ġn Ã¶rd
Ġw all
Ġwen ig
Ġe lect
ze uge
Ġo ber
Ġv ol
iv ely
ĠDies er
ĠR obert
At tribute
im a
ern en
c ase
Ġc la
Ġof ten
F rom
itÃ¤ ten
V or
ĠSt Ã¤d
bar en
le b
ĠR ock
ĠAut or
stell ungen
put Stream
ord in
ĠBes uch
Ġh aving
iv at
Ġgen au
E L
f an
Ġins besondere
Ġsch wer
k o
m on
Ġgo vern
Ġ198 7
Ġur sprÃ¼n
Ġt able
ĠO t
Ġp ossible
yn ch
in i
ĠBeg inn
ĠInd ustr
ĠMet hode
S pe
E igen
Ġin tegr
Ġen c
Ġfollow ing
ĠKÃ¶l n
och e
Ġgeb oren
p reis
ĠT est
j et
ens ion
Ġindivid u
es te
uf act
ak en
ut zen
Ġhin aus
ibli othe
ĠS uper
fl uss
" )
Ġd est
ĠSch ule
ay er
or gen
Ġsp ace
Ġp osition
cre en
Ġpr ice
ĠEn d
z z
qu e
ĠCh ina
Ġf ocus
ĠA uÃŁer
ĠW hen
ĠSt ate
ĠSel bst
Ġ Ã¤
ich en
sch lag
b ank
it ze
fin ition
am ens
tocol Marshaller
i od
ic o
ĠW ieder
lÃ¤ uf
ar f
ĠM el
ĠC al
Ġy oung
S c
h an
Ġgemein sam
4 2
ĠZ ur
a un
ch ter
ĠA fr
ium s
g ruppe
v ier
ĠSe x
b Ã¼
Ġl im
ĠPro gramm
Ġs ide
um ents
ang es
ĠAr ray
Ġinstance of
o o
kehr s
ant wort
Ġwrit e
ĠR ichtung
ir at
em per
ck s
d f
ĠV ier
Ġan s
Ġsever al
h aupt
Ġ195 0
ym n
S eit
Ġp ot
rifts teller
L and
ag t
Ġ ens
Ġo p
Ġver kauf
B r
an ien
Ġm acht
Ã¶ ÃŁe
Ġ198 6
ĠF er
ĠK ilometer
ĠPf arr
Ġerfolg reich
Ġopp ortun
âĢ Ķ
Ġ8 0
ĠT op
8 5
ges etz
Ġemp loy
ip l
og n
Ġcon ne
Ġvor hand
Ġw he
ĠSt ar
Ġfor t
ĠBe vÃ¶lker
Ġinst all
ĠHe imat
Ġgew Ã¤hlt
om et
wo od
Ġac ross
++ )
al ys
in ge
Ġzw ar
ĠFuÃŁball spieler
ĠK ant
Ġle d
n s
Ġd re
t c
Ġk l
ein en
Ġe ver
ol oge
ĠProf essor
k r
ord nung
Ã¤hl en
s erv
ĠSch utz
19 5
Ġdah er
E vent
ern er
asch inen
b u
Ġge lang
Ġs ource
ĠSch iff
Ã¼r t
ĠJ ournal
ene f
te mp
Ġp lease
l ast
Ġex ec
a ders
Ar gument
Ġh erv
Ġso cial
ir chen
ĠReg ierung
ispiel sweise
Ġerne ut
ĠIn nen
ĠWeltk rieg
n ach
Ġs im
em in
ĠZ eich
Ġwechsel te
Ġl ink
Ġge ben
la den
ĠMar ia
ĠF Ã¼hr
Ġcoun try
Ġf ar
Ġh Ã¶ch
ĠTh ese
ĠOlymp ischen
Ġb lieb
St and
Ġcom es
b are
Ġcal led
Ġent ry
ar ian
fÃ¼hr er
arbeit en
ĠMot or
9 5
Ġre port
land s
Ġn ahe
h or
ĠW issen
Ġin dex
age d
ĠHo tel
Ã¶st lich
Ġzw eite
Ġnor mal
Ġl ow
cre ate
ĠReg ie
s etzt
y e
sp rach
ĠNor den
EN T
Ġpres ent
t ype
Ġw oll
ĠB is
ĠL es
Ġal ten
tr itt
af en
ĠVer fÃ¼g
im s
Ġc los
mann schaft
M P
Ġspec ific
Ġn ord
ĠK lasse
Ġcol or
Ġus er
Ġind ustry
ĠB or
Ġstud y
Ġbec ome
zie h
he mat
ĠF ile
de b
Ġbie ten
I mp
ĠT Ã¼r
Ġth ough
ĠVor s
zeich en
Ġsh are
as ure
ann el
Ġ198 4
Ġ9 0
Ġze hn
ĠZw ischen
ĠD at
ca dem
il nehmer
Ġn ichts
ĠH ers
Ġer klÃ¤r
ide os
Ġihn en
amer a
fe hl
Ġw ind
Ġ198 5
b ung
fol gt
Ġbest imm
opp el
re icht
ein t
ĠBe deutung
ĠIt alien
ww w
Ġpr ivate
id a
id d
ĠIl legal
an zen
ĠR ot
ab les
( (
co ver
B au
ab in
Ġsog ar
J ahr
Ã¤n den
U r
ur ance
Ġbe vor
ĠBay ern
Univers itÃ¤t
ĠB aum
ĠAn zahl
Ġar ch
ĠA p
if fe
ain ing
ab hÃ¤ng
4 3
Ġsoll en
Ġm akes
ĠM os
ĠK ol
ĠN Ã¤
8 8
b s
st ieg
ab y
Ġser ies
Ġqu ick
Ġprofession al
al z
ann ot
ste lle
ic ro
ĠH alb
ail le
Ġph ys
Ġver st
Ġ(âĢ ł
ĠM aterial
Ġst ory
W elt
ĠThe ma
pr int
ĠL ou
L ine
O ption
z ir
ĠC enter
ien en
ĠAn ton
Ġm essage
ĠF ernseh
fl Ã¤che
Ġto ol
ĠS and
ck t
I P
ĠH all
v est
ĠS ong
Ġc m
Ġ197 2
Ġm ajor
Ġapp ear
---- ----
s burg
ĠC oun
ap s
Ġd one
el f
Ġfrien d
ĠCar l
pla ce
il ities
Ġcomp an
ĠFl or
wo hl
Ġcom b
ict ion
Ġ id
f asst
ĠB lack
Ġde fault
L o
Ġhand elt
yn am
ĠverÃ¶ffentlich t
Ġw ahr
al tet
st Ã¼ck
ial og
b ie
or den
ĠB ur
ĠP res
app en
g Ã¤n
ĠI r
ym bol
M L
ell ing
stell t
Ġerreich te
6 5
Ġs n
P ackage
ĠE igen
id el
l as
z immer
Inst ance
Ġm om
ĠÃ¼ber nahm
Ã¤ch lich
ĠP et
Ġst amm
get ragen
Ġ7 0
Ġmember s
g re
Ġkn own
s ide
le f
ĠW irtschafts
Ġbeste hen
L T
Ġ3 5
Ġsie he
Ġw es
ĠK urz
Ġoff ic
ach ten
ĠM ad
te id
we gen
Ġde utlich
le ction
Ġ{ @
ĠAl ter
alif orn
an o
ĠG arten
ĠH a
verb and
ung sp
Ġbe ispielsweise
itz t
d i
Ġ( )
Ġme ans
led ge
st it
ok al
ĠD ruck
ĠR ein
ist ische
h as
Ġget ting
Ġstar ted
p iele
Ġres ource
esten s
Ġd ate
Ġeinges etzt
empl ate
0 5
a iled
Ġeigen e
ĠK auf
wer ke
un e
Ġp ersÃ¶n
ĠK Ã¶rper
ĠS im
ĠErn st
ĠZ um
Ġc ent
Ã¼ ter
Ġwen iger
Ġproble m
ĠD own
ĠH or
ge geben
Ġth ing
ikan ischen
ĠE v
zeich nungen
ĠMit arbeiter
leit ung
V on
iz iert
Man ager
F ernseh
ĠSt at
fra ge
Ġ198 3
Ã¤us er
Ġs ett
Ġh om
F actory
G B
an ces
en ze
Ġw a
Ġres ults
f red
Ġor iginal
' ll
Ġvers ion
Ġentspre chen
ettbe werb
ĠN ow
Ut ils
ra uch
ĠW ein
Ġse ason
ĠG ast
Ġre gel
Ġad dress
sche iden
Or t
ish ing
z us
Ġver sch
h ang
ĠP osition
Ġmod el
eh men
Ġm ass
ĠB u
Ġr uss
ĠV iel
ient en
Dies e
Par ameter
Ġs en
ig ent
in dex
w ald
em a
rie f
Ġzahl reiche
Ġger ade
entr al
ĠA ber
an ken
Ġ197 9
Ġdam als
g a
ĠI mp
Ġun ique
geb ung
ĠArt ikel
re ibt
ag o
Ġbl og
ad urch
ill er
ĠColle ge
Ġb lack
eit ere
ĠPr ess
Ġfrien ds
ĠfrÃ¼ her
6 6
ĠB ach
ĠR os
ĠD el
20 18
U p
Ġh ours
ĠSÃ¼ den
Eigen schaft
T yp
v is
g in
Ġw elt
Ġer k
Ġ196 9
Ch ar
c or
an ks
ĠF el
ran t
Ġeng ine
ĠII I
Ġ198 2
ol den
x is
ĠT al
Ġs tellt
ĠFe uer
Ġ Ã¤hn
am in
gesch lossen
ĠWh at
O L
w es
ak er
Ġstr ateg
Ġerrich tet
4 1
c el
Ġh Ã¶
ĠN etz
ĠMit glieder
ho ck
av en
Ã¼nd ung
Ġen vironment
ĠW es
Ġ197 8
Ġprov ides
val id
mÃ¤ÃŁ ig
Ġh inz
ger ufen
Ġinv ol
ĠhÃ¤uf ig
g g
ok e
Ġide as
im um
ĠSta at
er ing
ĠHerz og
ag ing
Ġp urch
O ff
ĠF inal
ĠFre und
ul a
ĠAl le
ĠL o
res h
ĠR und
ĠJun e
ĠK or
e ign
ĠS ub
ĠS ant
Ġj oin
ungs k
olit ik
w in
Ġc amp
ute t
ĠP an
ic ks
Ġem ail
C D
Ġp ie
ĠJohann es
Ġb enef
setz ung
ĠwÃ¼r de
Ġh ttp
F e
Ġre cht
ges ellschaft
Ġwel ches
le men
ĠC la
Ġso zial
ĠPar tei
ĠVerfÃ¼g ung
f Ã¤h
Ġ ung
Ġc ard
ĠR em
Er ror
ann e
schul lehrer
ĠC r
ĠO ut
is c
ri or
ĠTh at
pp ing
Ġcon fig
Ġsimp le
č ĊĠĠĠĠĠĠĠĠĠĠĠĠĠĠĠ
ĠS erv
Ġfolgen der
ĠD DR
Ġv an
Ġmit t
Ġne ar
Ġw atch
ol a
ĠSch riftsteller
pe cted
C omponent
ichte te
Ver ein
Ġsom it
ur al
Ġm iss
ĠAuÃŁer dem
ĠS on
Ġp ur
g ent
ĠSch Ã¼ler
e ded
ĠA G
Ã¤ chen
ĠD om
Ġzu dem
Ġver fÃ¼
B uffer
haf t
n am
t ime
Ġp o
Ġso gen
Ġt alk
c m
en en
H er
Ġs ug
Ġehemal igen
âĢ¦ ]
ĠM iss
Ġwir k
ĠGes amt
Ġa cht
Ġl iving
Ã¶ ll
ĠO sten
w ind
ist ik
Ġ198 1
Ġacc ount
r ess
i ents
Ġc ode
ĠSch wer
ĠSt ad
ast ic
Ġwe iÃŁ
Ġ197 5
Ġbuild ing
n ers
s eite
ĠW esten
T rans
Ġm eine
ĠIn sel
ĠU p
Em pty
ĠB ook
ue ck
ĠgehÃ¶r en
w esen
get S
Ġheut igen
b esch
ĠT ab
Ġ197 4
le iter
7 6
Ġ> =
as er
Ġtechn ology
Ġrel ations
C ount
ĠLe ague
ynch ron
ĠS a
ĠG od
Ġjed en
ĠS aint
ĠHo use
ge hen
ĠE ing
ben e
Ġdesign ed
Ã¤ ischen
St atus
Ġ197 6
rach te
Ġgef unden
Ġf uture
I L
R el
m ut
ĠG ott
Ġw ollen
Ġst ra
fl ug
Ġ196 8
weg ung
Ġsie ben
s eit
m ost
Ġm at
la ger
ring en
Ġgem acht
Ġoption s
F C
Ã¼r d
ĠSch ne
Ġtra ining
ĠEnerg ie
M us
Ġf ilm
throw s
ĠMÃ¤n ner
i j
> ();
w rite
ide d
B C
ĠZ ust
che ck
Ġme an
ran ge
p age
ĠL age
ĠE hren
ĠI D
Ġdan ach
0 1
Ġlie ÃŁ
aff el
Ġb lock
ro t
ell s
ĠHil fe
C all
Ġv e
Ġletz te
ĠJose ph
ĠS telle
ĠA ka
ĠV al
Ġen ough
lan zen
Ġc lose
ic ation
ĠSp iele
ĠVerwalt ungs
i ra
m as
get Name
ĠR ud
c is
ĠF ort
op t
Con stants
ĠKar r
F l
Ġl ik
O G
ĠE lekt
geb Ã¤ude
ar tet
ĠD istr
ĠW irk
. :
ĠS achsen
ĠMed ien
mal e
IN D
Ġsoll ten
ĠD res
Ġk lass
Ġle icht
ĠM ac
ĠAuf lage
Ne w
6 4
Ġpro tocolMarshaller
ift ung
s uch
at iv
et ten
ul es
ci ally
ĠDre h
an lage
Ġw id
row n
ĠSal z
f ried
ĠEr d
ĠEr fahr
ok rat
b or
Ġdisc uss
f rei
Ġcompan ies
ĠGe f
ĠCl ub
ist ry
Ġon ce
ip le
ĠChe m
Ã¼s se
ĠNÃ¤ he
tr ieb
tem berg
in ed
ĠM ass
rÃ¤s ent
itu ation
Ġh istory
B o
ĠK ateg
ian a
sche ch
ĠW as
ymn as
ier ungen
Ġre por
ĠRe ise
yn c
ain ed
Ġlin ks
Ġger ne
ĠKl oster
G em
Ġt arget
Ġor ganis
on en
arbeit et
s ub
pres ent
h il
or ed
ĠP lat
ĠAm ts
entwick lung
Ġs ing
Ġr Ã¶m
Tra ce
Ġo thers
ĠJ ack
ĠC an
ĠAn n
k i
u he
ĠK raft
Ġk ur
hl er
ĠSie g
Ġe arly
f ix
us ive
ĠReich s
M ail
ge m
anad a
Ġh uman
ĠG est
ĠFr Ã¼h
Ġpop ular
oin ts
p ark
Ġz ie
Ġk itchen
im ate
ĠN et
os sen
hock ey
air s
ĠPol ize
f ile
Â °
Ġw on
Ġf it
el ten
Ġvar ious
ĠV o
Ġsch Ã¶n
M A
Â »
Ġg ute
H och
Ã¶ hn
Ġer reicht
Ġ197 7
ak te
Ġbefin den
Ġinclud es
L istener
Ġb le
ges etzt
deck t
Ġw alk
leg te
ĠVerein igten
ĠK osten
ibliothe k
7 7
ĠK an
Ġman ufact
meister schaft
ĠP rÃ¤
ien s
Ġy et
Ġge hen
ne xt
Ġd at
Ġne ues
Ġcustom ers
Ġle ast
U m
ĠC ommun
ik al
ĠEng land
ĠS et
Ġh ost
Ġfe ature
lÃ¤ ss
Deutsch land
or te
Ã¤t igkeit
Ġman agement
Ġqu alif
Ġl ag
rol le
Ġin form
ĠMin uten
ig ungs
ge fÃ¼hrt
Ġh ig
ĠCh amp
Ġrequire d
g round
l ad
ĠFin anz
i ro
al ia
Ġ' \
ĠOrts teil
ĠK riegs
Ġst ru
Ġevery thing
0 9
er in
ĠJ ur
Ġ197 1
iziel le
M ed
ib ility
ip ment
ĠAn gel
Ġf il
Ġin tern
hr te
jÃ¤hr igen
Â ²
P ol
br uch
Ġreg ion
Ġz og
Cont ent
ĠA ward
ste hen
it a
Ã¤n gen
A mer
Ġtra vel
fol gen
S E
Ġa ud
bed ing
ĠG al
ĠSp rache
ĠG Ã¶
ĠZ Ã¼r
ĠRei he
ier ter
Ġdar unter
ĠK re
F I
ĠP rem
Ġcon stru
Ġs end
as en
ĠG leich
ĠStud ien
schlieÃŁ lich
w asser
ick en
Ġpartic ular
Ġerw Ã¤hn
Ġ Ð
Ġpre par
ĠHer aus
Ã¼h le
k or
Ġst ay
Ġcomm on
Ġa ff
as chen
ĠP DF
ĠW o
ĠEr folg
as ing
Ġoff ice
ir es
ĠSer ie
Ġloc ated
or ted
ĠW ebs
Ġabsol v
ch ar
Ã¤t zen
Ġentfern t
Ġf ur
0 6
r am
ĠB ack
Ġwh ite
Ġresp ons
ĠV ideo
Aus wahl
Ġmonth s
Ġauth or
Vers ion
Ġgen utzt
ĠP sych
ĠG roup
ĠEl tern
Ġmed ia
ĠS u
Ġh ab
Ġ196 7
C he
C ase
ĠC amp
Ġcolle ction
S te
g ere
o der
Ġho he
oci ation
ĠHer ren
an cial
En d
Ġam er
Ġle b
Ġ196 4
Ġf rei
Ġein igen
Ġto ok
Ġth ought
Ġ4 5
Ġ[ âĢ¦]
ĠVert rag
Ġ(âĢ ŀ
i ar
ĠA k
Ġst arb
Ġ197 3
ĠT her
geb ie
Ġ5 00
arbeit ung
Ġde al
u a
Ġc lick
ĠT on
P E
Ġm em
ĠSt ates
Ġcontin ue
ĠH al
Ġzu vor
Ã¼ss eld
Ã¼l t
or ies
ger icht
g liche
ĠSil ber
ra el
hand lung
ĠM ein
ach ed
ze ugen
18 9
ĠGes etz
Ġfav or
O per
u age
it i
Ġbe de
rit te
Ãľ ber
Ġc oup
te cted
Ã §
ĠB Ã¶
k le
at ers
ĠL Ã¼
rich ten
g ment
un ction
ĠR ang
ĠFl uss
Ġkein en
ĠKarr iere
ĠGemein den
ĠGo ogle
Pro du
ĠPart ner
ĠAus bildung
ĠBahn hof
ĠG ot
ik on
Ġunser en
ĠRich ard
Ġg ames
deb ug
W enn
Ġc ame
sp iele
Ġverb unden
Ġin put
Ġaut omat
S ystem
f il
Ġcomp uter
ĠD och
y a
ĠB al
ĠVerb indung
f Ã¼r
ĠRe v
Ġpr int
Ġag o
Ġfr ont
l im
Ġver lie
z a
ĠS in
ĠG ruppen
Ã¤d ag
ien te
v ing
at ors
Ġer Ã¶ff
tag s
Ġdo ing
T Y
ĠB ig
Ã¤l fte
ik o
Ġperform ance
Ġherv or
Ġhe iÃŁ
arr iere
ch end
ĠK opf
Ġact ually
T oken
t est
us st
ĠA ugen
ĠF Ã¶rder
Ġ193 3
ad s
âĢľ )
Ġby te
Ġmin utes
ĠMe er
imm ung
Ġre le
Ġne g
ĠgrÃ¶ÃŁ ten
Ã¼ll er
Ġtot al
ĠB und
me e
p ol
ĠAr m
ach er
ĠN ie
Ġfolgen de
7 9
Ġbe teil
zeit en
Ġpr im
Ġgleich en
, "
Ġd istr
le icht
ĠE lement
ĠY our
ĠSte uer
b ro
u ed
Ġc ur
ĠT ier
c ement
Ġam ong
ĠBerlin er
ĠB aden
for sch
ace book
Ġpos ted
St art
Ġdoes n
p ass
Ġd Ã¼r
In t
cre t
c urrent
Å į
Ġe urop
w ill
I V
ges ehen
ĠFrie d
letz t
P S
ĠKont akt
ze hn
vent ion
W est
Ġpro b
ang s
Ã¼rt temberg
Ġe her
Ġv ia
ĠnÃ¤ch sten
it le
Ġn ode
Ġex t
ĠBr and
A ccess
la w
De finition
ĠBr on
T able
ch ester
Ġd iff
Ġp ack
ith er
ĠDam it
em ents
Ġs at
or es
Ġpr ess
1 00
k an
Ġf ert
ĠJ ames
iz es
Ġteil weise
K on
Ġzur ueck
ĠWer ke
un ge
Ġcon text
Ġakt iv
ĠJ azz
Ġd ir
Ġbei de
Å ¡
ĠSie d
ĠM r
Ġen erg
U til
Ġdid n
Ġiss ues
k ret
ĠJ es
Ġs ays
ĠA v
Ġl ock
Ġm ap
Ġe lekt
ĠK ons
z we
am ed
ĠPhil ipp
iden ce
ĠF ree
oll ar
enn ung
ĠL Ã¶
Con nection
fass ung
Ġann oun
Ġf alls
sch riften
ĠUnter stÃ¼tz
ĠP o
Ġst ore
Ġso ftware
ame ters
E X
st ate
ĠI d
Ġdes cription
leit et
Ġd ivers
ĠM ilitÃ¤r
Ġmill ion
t d
as il
Ġex pl
k el
we isen
ĠRe cht
ir c
Ġfun ction
Ġcert ain
P oint
tr ue
Ġs il
Ġde p
iv il
ĠRe gen
Ġam az
. <
Ġh old
ĠG i
Ġs tellen
ĠD enn
Ġgovern ment
O ur
Ã¶ ne
Ġ193 9
ĠVors itzen
ĠW and
ĠO ct
st ud
zeug t
ĠA fter
Ġnew s
ĠSpiel en
ĠVers ion
hal te
c il
w ar
af fe
Ġquest ions
Argument Exception
ĠL at
Ġe conom
ĠL icht
Ġse en
w a
Ġd ue
Ġ( =
net en
ich ert
ct ors
z iert
Ġa ction
ĠM ess
Ġunter stÃ¼tz
Ġ196 6
Ġr en
au ber
be ck
0 3
ĠR oy
os ph
W hen
at ic
Ġg iven
Ġspe ziel
ien ces
Th ere
Ġd etails
ent liche
ĠF le
ĠSt Ã¼ck
ĠP op
ĠF en
bo x
ĠK as
ĠM aÃŁ
av y
Ġinter ess
ful ly
0 2
A M
g y
ĠNach dem
Ġstell te
n es
Ġa ge
Ġ< =
ĠfranzÃ¶s ischen
us ion
ĠBevÃ¶lker ung
ĠD eb
d am
u c
w ord
Ġapplic ation
5 9
8 7
ĠI ll
Ã¤t ten
Ġ196 5
Ġho hen
ĠM ult
Ġf ive
Ġcre ated
u hr
ĠfÃ¼hr en
B ut
P er
Ġentwick elt
8 4
en ces
an ger
Ġfol gte
Ġb ad
ĠW issenschaft
Ne xt
Ġ19 20
ĠOt to
ĠR at
Ġw issenschaft
ges tell
Ġ196 3
] .
ĠAlex ander
Ġcomp et
ĠFra gen
Ã¼ st
ĠF ig
k und
ren g
ikan er
ĠArray List
an ischen
ĠB on
Ġ194 0
Hand ler
ist ic
Ġent hÃ¤lt
mar kt
Ã¼ss el
ou d
ĠAn ge
ho ut
Ġp aper
ĠP or
Ġk amen
lie d
P age
Ġev ents
Ġrec ommen
Ġloc ation
Ġt ax
Ġw Ã¤re
sch iff
Ġnach dem
Ġ193 0
ĠW el
aus ch
zentr um
ie ÃŁ
Ġcle ar
C hr
l ant
ĠD ay
iz er
Ġto ur
Re c
ĠB ud
Ġle g
ĠkÃ¶nn te
Ġver d
ĠHe il
A ss
Ġw ww
Ġbo x
Ġerh Ã¤lt
an gel
ich e
ut her
Ġup date
ĠBas is
ĠS at
ĠK ing
e e
le tt
ĠThe men
gr am
ĠSe c
Ġs ale
Ġw onder
b ark
Ġl ength
aup ts
0 7
r uf
Ġal t
Ġex ten
is es
ĠFol gen
ame ister
Qu ery
final e
ĠPla y
ed ule
Ġk ont
Ġsel f
ĠauÃŁer dem
ot o
Ġare as
ĠPhil osoph
Ġnatur al
ĠB all
ĠC ent
ĠGe orge
P art
ĠStand ard
ĠR iver
f ten
Ġb ath
ge hend
ĠO s
Ã¤ch s
Ġfr Ã¼h
Ġb ill
ĠL iga
hal ts
ĠK ampf
ĠW all
ĠL ong
Ġen ter
as te
ĠR Ã¤
ĠIhr en
Ġvoll stÃ¤nd
ĠK omm
Ġlat est
Ġt c
Ġauf genommen
rit z
it ts
Ġ193 8
Ġstr ong
ĠT ur
Ġze igen
Ġf und
Ġm m
Ġhapp en
Ġa ch
ed en
af t
Ġvers te
ĠS ing
ĠO pen
Mod el
n o
ĠSt unden
st ring
Ġmach te
0 4
G ener
Ġ196 1
he t
ĠAut o
h y
tt y
Ġson st
v in
le cht
ĠC our
Ġaus gest
Ġpre vious
Ġne hmen
Ġass ist
ĠAka demie
= "
b lick
ĠnatÃ¼r lich
N umber
S P
Ġre ason
ĠGe ist
Ġad ded
Ġper iod
ĠA cc
ĠDies es
ĠFra ge
Ġw ent
iv ity
Ġ195 6
li ents
istr ation
Ġin nov
Ġm er
b us
k ap
Ġdam al
Ġpartic ip
d t
ĠHer mann
Ġspiel en
Ġhal f
Ġgew esen
ĠWolf gang
alys is
I s
Ġp lat
ra in
ann ing
ran g
m Ã¶
ĠT emp
Ġfin ally
ĠPh ys
olog ische
ĠMus ic
ĠNew s
Ġbr and
or a
Ġl ater
ze igt
Ġsome one
or ing
ĠD Ã¼sseld
ĠDe c
An y
Gem ein
Ġeben so
b Ã¼rger
ĠB us
ra chen
ĠW ash
Ġer ster
G es
Ġge legen
ele br
es h
ĠL ieb
Å Ĥ
Ġevery one
T H
ĠA ct
ig lich
me hr
ĠNach t
Ġwirk lich
ition s
b um
ĠI st
ĠC ons
Ġre d
ĠAus wahl
hÃ¤lt nis
if fen
m und
w irk
ĠWill iam
or ten
fol ger
he ad
Ġat tra
ieren den
Ġph one
Ġbel ieb
Ċĉĉĉĉ ĉ
ĠmÃ¶ch te
ĠLou is
an ted
Ġsch rieb
rit ik
Ġra d
ĠZÃ¼r ich
0 8
ĠM ond
Ġer z
Ġ3 2
pro tected
fahr er
Ġdar Ã¼ber
ĠA re
ter e
sch t
ĠB ot
ĠA uss
Ã¤ te
ver kehr
Ġde b
ĠRe ad
trÃ¤ ge
N o
par te
w art
ĠP unkt
Ġne eded
isse ur
ug hout
gr enz
Ġtro tz
o on
Ġt aking
anst altung
z ip
Ġne uer
ĠUn ion
Ġnet work
k arte
ĠHann over
ade d
anden burg
Ġwoll te
a ktion
Ġwh ole
bo ard
' )
S ON
com ing
Ġ194 6
le cted
lie ben
ĠSchw arz
Ġs ystems
x y
et y
Ġaus gew
Ġ196 2
Ġ194 4
ĠPr ivat
zir ks
Ġsel ten
Ġaktu ellen
ĠD ach
âĢ ĺ
ĠGes und
ĠÃĸ ff
ĠS yn
Ġh ope
ĠA st
ĠD ann
ĠAuf trag
. -
ad a
Ġunser em
mar shall
Ġentstand en
Ġe p
Ġhe art
olog ischen
Ġse par
Ġcom fort
ĠF uÃŁ
Ġrest aur
bet rieb
ĠD oppel
Ġp ick
z uf
ap ter
ĠErgeb nis
ĠH Ã¤lfte
A B
Ġc annot
ell ow
ĠB usiness
L ength
Ã¤nd ig
Ġc ook
ĠBÃ¼rger meister
Ġl iter
Ã¼f ung
I M
ĠA uÃŁen
ĠIm m
Ġwrit ing
M in
ĠL aw
Ġ ill
it ure
ĠR ob
Ġver he
olog ical
Ġprovide d
Ġer reichen
Ġknow ledge
Ġread ing
Ã¶r m
s ie
Ċ ĊĠĠĠĠĠĠĠĠĠĠĠĠĠĠĠ
ĠI T
ĠRest aur
ĠK ranken
be zirk
Ġchar acter
ĠW ider
end ar
Ġmehr eren
Ġbest and
Ge ographie
Ġgemein s
f ar
au ern
Ġihr es
Ð °
Ã¤ll t
ĠB ill
ï ¿
rÃ¤ fte
ic les
ĠPr inz
Te ilnehmer
Ġcurrent ly
ĠBru der
ĠH y
Ġal te
end s
h ing
Ġer ziel
Ġab ove
Ġex ception
ĠÂ «
Ã¼ ste
Ġde ter
ĠIhr er
ĠF und
Ġre chts
ow ed
b ra
ĠC am
ab ase
Ġcho ose
C ms
est s
ĠOr iginal
ĠFir ma
ĠT om
Ġpr iv
zie hung
prÃ¤s ent
Ġst re
iz ing
ĠGeb urt
ĠProdu ktion
Ġeduc ation
idd le
ĠDres den
end es
Ġv o
ent ry
ĠSt ru
lichkeit en
b an
Ġs ong
pp en
ï¿ ½
I G
d ata
ĠWien er
> (
w issen
ĠAben d
O P
ĠP il
Ġv ari
ĠBe griff
Ġad min
ĠZu dem
k ur
is ted
neh m
ĠLie be
Ġh ot
gen cy
ran sp
aler ie
ĠB lick
ĠU s
ĠIllegal ArgumentException
ir th
Ġex ample
Ġens ure
B IND
âĢ ŀ
ĠBes itz
Ġb esser
em e
Ġfin anz
S ource
Ġs ites
Ġo ben
ĠF rom
ĠBe k
u ell
ĠP ublik
Ġbes uchte
icher ung
la v
Ġar r
Ġrec ord
ĠHow ever
ĠEn ts
Ġ195 2
M ax
ac es
C olle
S C
Ġp le
ĠP lease
techn ik
H ol
u it
ĠS Ã¤nger
ĠV oll
Ġge k
ĠDenk mal
BIND ING
h ib
Ġ195 8
Ã¤nder t
halt ung
ĠJe an
in fo
U ser
ĠC ap
Ã¶ sen
ĠSp ring
ĠPolit ik
S port
Ġf oot
Ġan schlieÃŁend
Ġp sych
c ast
l iste
ĠD okument
ul ly
ĠRe al
ail y
ĠArbeit en
Ġben Ã¶t
ĠOr gan
Ã³ n
F ilter
Ġst aff
ĠVer gleich
Ã¤d chen
ĠBr un
Be an
wert ung
Ġ Ã¼b
Ġc ount
ĠR and
ct ing
Ver lag
ĠEnt scheid
ĠHe alth
Ġw ide
Ġto wn
irat et
S V
Ġ );
Ġe uch
Ġ195 5
Ġsetz te
k athol
ĠW alter
ĠC ms
Ġb i
Ġread y
r hein
w esten
Ġp ain
ic ate
ĠEr sten
g as
l it
N ames
Ã¼hr en
ĠA th
ĠM ath
Ġver ein
Ġv eh
ĠW ort
Ġf ace
Ġcl ient
F r
Ġt un
ĠStud ium
ĠEngl ish
" ;
ĠG as
tr ies
ĠÃ¼ber n
l ern
ĠSch e
Ġh air
Ġsp ielt
Ġ194 2
Ġ194 3
Ċ ĊĠĠĠĠĠ
Ġf urn
ho ben
y ear
Pro v
h ab
ind ing
wie gend
Ġvorhand en
em b
ĠAr ten
i Ä
Ġd igital
re ten
Ġm obile
ĠRe publik
ĊĠĠĠĠĠĠĠĠĠĠĠĠĠĠĠĠĠĠĠĠĠĠĠĠ ĠĠĠĠĠĠĠ
Ġd og
ell ent
Ġwhe ther
5 6
F F
Ġso fort
Ar ch
on ie
ĠKon z
ĠSt il
rie ges
mer k
T ag
st a
Ġro le
it ar
ar th
Ġz erst
Ġkosten los
e ks
Ġp an
ut il
ĠGl as
pe cially
Ġent halten
Ġsimp ly
ĠOr d
ĠEx per
T rÃ¤ger
Ġt w
ĠTe ile
Ġins urance
i pe
Ġch allen
l ist
ĠK er
ĠN S
Ġreg ister
Ġb ase
Ġit em
Ġcom mer
l Ã¶sung
Z u
k unde
v on
or der
le ted
Ġsec urity
Ġgeb aut
Ġquest ion
ĠSch Ã¶n
ak a
ĠS Ã¤
Ġqu ite
tr ie
lic ation
Ġins ide
fall en
ĠW ild
ad o
th ough
oc al
les en
Ch ild
so zial
ĠS old
Ġbes itzt
Ġvar iety
ĠSt ock
ĠU K
ien ste
re quest
Ġdar f
ict or
unter nehmen
Ġtyp es
ĠGra b
8 3
ed ding
ĠW ol
Ġ3 6
gel Ã¶st
Config uration
Ġble ibt
ĠF acebook
Ġfor mat
do or
Ġeinzel nen
ig r
ou ver
lan gen
ĠV en
Ġal most
ĠheiÃŁ t
Ġt aken
Ġz uf
ann er
ieren de
7 1
Ġc ra
ĠIs land
Ġer folgt
Ġbes onder
L S
R A
Ġs ens
ĠS l
ĠB d
St at
Ġk aum
Ġâ Ĥ¬
Ġ195 9
ĠDan ach
Ġbel ieve
Ġmitt ler
Ġc lients
Ġus ers
ix ed
ĠAmer ica
Ġmind estens
Ġs ession
ĠN icht
ver walt
Ġproble ms
ĠT ages
gel n
il ar
Ġpart y
it sch
Ġb lo
Ġc as
Ġk ennen
hl t
ĠUnter such
Ġ194 9
ĠLin ie
ite te
T ree
Ġer r
wh ere
ir ate
Ġsie ht
ĠH art
ĠU N
ver age
Ġ3 00
Ġd ritten
ĠJ ac
ĠMan agement
Ġbesch Ã¤ft
ĠL ive
end ing
ond s
Ġ Ã¼
ĠL im
Ġent ire
pro chen
p lat
etz en
i ally
Ġe ither
ĠK al
Ġst ream
ograph y
stre cke
i w
ro ffen
Ġit ems
ibr ary
F rau
G et
ĠE U
Ġhe ld
In d
ĠMe x
Ġ195 7
ĠMal er
setz en
Ġstamm t
Ġenerg y
rÃ¤ ge
Ġappro ach
ĠursprÃ¼n glich
g or
ĠL eiter
Ġint rodu
t itel
ĠE t
Ġcon tra
Ex ec
ĠV is
ĠUm welt
Ġstand ard
Ġide a
Ġun ivers
wohn ern
ĠDown load
p oint
at iven
ho use
ĠGr and
Ġd ig
ĠLe hrer
piel t
Ġsk ills
S upp
ĠL ink
An not
Ġany thing
Ġweiter hin
ig ner
v o
st art
ĠL os
ĠJ er
ve y
Ġthro ughout
Ġne un
ĠZu ge
ĠWash ington
D ire
ĠF ern
ĠStre cke
Ent ity
b aum
ĠS onder
ĠM ount
Ġam ount
ĠKompon ist
i i
ĠW oche
Ex pression
osp ital
ĠA ud
om s
Ġsh ows
ĠUm gebung
Ġbu ilt
ĠH essen
Ġbe ein
ist ent
In ner
ĠGre en
ĠAngeb ot
st aat
ĠC up
cl ient
at ten
ĠB il
Ġcustom er
Ġeig entlich
Ġs le
Ġdec or
Imp l
p hen
ĠUnterstÃ¼tz ung
Ġs ales
Ġw ays
ĠSch la
Ġmark eting
Q L
o den
ig in
ĠBe zeichnung
ĠHer bst
ĠForsch ungs
ĠK ern
ĠH ere
Ġf all
Ġbe deut
Ġl on
om ot
Ġt akes
ab eth
ht t
ĠVerein s
Ġbook s
** **
ĠA ch
Ġ194 8
d ung
Ġf ire
van gel
ĠR unde
r c
Ġge d
Ġ- -
ash ion
Ġopt im
Ġ Å
in den
Ġk athol
se hen
lin ie
ĠSt amm
ĠGr Ã¶ÃŁe
ĠStre et
u hl
Ġp rÃ¤sent
Ġh on
Ġge geben
ne ter
ĠZeit schrift
Ġ195 4
ĠZentr um
Ġb ud
ot a
ess ages
Ġr ate
Ġes pecially
Ġplan s
ĠComp any
Ġphot os
se qu
or ien
Ã¼ cht
Ġtra ck
rie ch
richt ungen
Ġart icle
ĠW ahr
ĠL A
U E
ĠN ur
ad y
ĠMar ch
ĠS ow
i h
Ġum fasst
Ġper cent
ĠN ik
ĠEs sen
Ġindivid ual
Ġconc ern
ĠFest ival
O D
Ġc elebr
Ad dress
A uch
Ġbe ge
teil en
Ġje de
ĠMod ell
E d
ĠAl bert
ĠChar les
Ġproject s
ĠerwÃ¤hn t
um in
ĠEx ception
Ġactiv ities
Ġim ages
Ġun ver
In teger
ask et
f unk
er o
Ġco ol
ĠVer d
yste me
er ror
Ã¤t ter
Ġpar ent
ĠInstit ut
ĠH Ã¶r
ill en
ang ing
Ġrece ive
n y
ĠR en
get C
ĠverÃ¶ffentlich te
Ġw anted
Ġwel cher
Ġp aint
ĠMat hemat
9 6
S etzt
p ath
astr u
z og
ĠS tern
Ġb ott
Ġj apan
Ġs we
Ġst op
Ġfur ther
ĠAb s
Pro perties
spiel en
b orn
ĠK lass
Ġj Ã¤hr
mus ik
8 2
ĠA cadem
ĠT im
ĠAb geord
az on
Ġrec ent
Ġrec ently
9 4
Ġp oss
Ġk ids
V iew
r im
ĠGeb ie
ĠProdu kte
" ))
te ten
Ġin spir
att ung
Col umn
ie ÃŁen
m ap
Ġpict ures
f amil
Ġ row
sch uss
gen er
orn ing
fr astru
7 3
7 4
bark eit
lei ben
Ġest abl
ĠH is
Ġpat tern
id t
ĠIn vest
on ym
Ġval ues
D is
Ġequ ipment
c ul
f Ã¤l
Ġd raw
Ġacc ording
7 2
k reuz
al a
abr ik
ar ts
ot ion
Ġkn app
Ġreg ul
==== ====
ĠP C
on om
ĠT w
tr at
Ġtreat ment
Ġb us
ĠL Ã¤nge
unk ten
Ġres ources
ĠNach bar
Ġ195 3
ĠSh ow
Ġerh Ã¶
M y
ĠU R
Ġent w
Ġpra kt
ste ad
\ "
g ten
Ġs b
ĠSt rom
Ġopportun ity
spr uch
Ġausge zeichnet
ĠDÃ¼sseld orf
Ġev angel
asch ine
P e
kt iv
C T
ĠQu alitÃ¤t
Ã¤hl te
ĠTra iner
Ġpar ts
ĠS omm
Ġeffe ct
ĠF arb
ĠsÃ¼d lich
Ġlead ing
Ġamaz ing
9 3
as ten
Ġso on
ic ult
au b
ĠAn schluss
ĠKÃ¶nig reich
Ġabsolv ierte
ĠL OG
af r
Ġgew orden
Ġrem ove
ĠAss ociation
Ġrece ived
Ġz ust
ĠVer Ã¶ffentlich
ĠCh or
Ġpre tty
ĠPf lanzen
Ġehemal ige
Ġup d
d ar
p ack
u ary
Ġo il
ĠE ast
Ġre lig
ĊĠĠĠĠĠĠĠĠ ĠĠĠĠ
Ġp aar
Ġg lobal
wÃ¤r ts
i ÃŁen
Â ®
ers eits
ĠVer kehrs
fer enz
ca pe
us ter
ĠNach folger
Ġreg ular
E Object
G ra
ĠP unkte
ot te
Ġfin ancial
ĠSoc iety
b ischof
Ġ194 1
Ġinternational en
Ġm ove
ĠJose f
meister schaften
ĠKateg orie
ĠO f
z i
te x
ĠWind ows
O ne
Ġan z
if ier
Ã¤d t
5 00
Ġoff iziel
Ġd et
ĠD ivision
Ġ1 000
Ġne cess
Ġj Ã¼n
dr esse
ĠBay er
prÃ¤s ident
Ġin dem
Ġm Ã¶
erv e
Ġd oc
Ġc enter
ach ts
N ational
Ã¤ ten
Ġum fass
Ġg anze
ide t
Ã¶ ss
jÃ¤hr ige
ĠFar be
ĠWh ite
ĠV ir
ĠGr Ã¼ndung
chn et
ĠA ust
Ð ¾
ĠS ur
Ġtry ing
Ċ ĠĠĠĠ
ch ner
or gt
ĠZeit punkt
ĠgrÃ¶ÃŁ te
ĠH an
ĠR itter
get Value
Ġpract ice
zw ischen
C ache
k lasse
ĠWe ise
Ġbil den
Ã ¢
ie ur
sch au
ad es
Ġde f
NA ME
Ġbek ommen
Ġwo od
rem ove
is Empty
Ġr unning
ĠnÃ¶rd lich
b ase
ĠG ut
Ġzu ge
ĠBrit ish
5 3
Ġd ro
gew icht
Ġbring en
ĊĠĠĠĠĠĠĠĠĠĠĠĠĠĠĠĠĠĠĠĠĠĠĠĠĠĠĠĠĠĠĠĠ ĠĠĠĠĠĠĠĠĠĠĠĠĠĠĠĠ
ĠAkt iv
ymnas ium
ĠC re
Ġus ually
ĠS ingle
Ġch em
aliforn ia
Ġw ord
uf e
k raft
ĠA c
ro id
ĠHÃ¶ hen
Ġdiff icult
Ġt ell
ĠIn teger
ĠEr k
ĠHe im
Ġn ice
Ġro t
itt ing
Ġrelat ed
h istor
Ġt old
Ġmit tel
rei ber
Ġ194 7
ĠSo ftware
Ġval id
g ien
i est
Ġse em
Ġje dem
sp ro
Ġcom ing
h ers
Ġb ald
Ã¼ ge
Ġfl ow
pos it
Ġhapp y
f alen
Ġb leiben
t a
ĠF irst
Ġsign ific
ĠM as
Fernseh serie
H el
Ġex tens
ĠAb schluss
Ġsel ben
Ġgleich zeitig
Ġext rem
n d
le m
hr t
ĠSc ience
Ġinclude d
re ise
ĠBes te
ad ata
ind est
ĠAr mee
ĠFran cis
D urch
t schaft
Ġp df
ime ter
Le vel
Ġgesam te
s m
ur a
ĠK ey
Ġwar m
Ġp ark
ĠJ ob
tra gen
Ġs ent
ĠD isk
Ġal tern
ĠU ms
9 8
Ġs od
Ġerm Ã¶glich
ĠS ign
ĠD or
Ġch anges
ĠAl so
Ġsub ject
g le
ed s
B lock
E G
L ink
P ort
Ġvor her
Ġgener al
Ġiss ue
ĠÃ¶sterreich ischer
Ġs ummer
ĠS upp
Ġc ut
Ã¼r n
hen s
Ġso und
ĠEx p
P f
Ġ rom
isch em
re l
Ġbet rÃ¤gt
Ġste p
Ã ¸
Ġp orn
Ġs ave
al ian
ĠS uche
Ġh or
ĠF ass
Ġsch loss
ick et
Ġre v
Ã¤r k
<? >
b is
Ġer ror
ell o
Me ter
Ã¤ll en
Ġfavor ite
P os
vers e
ĠPerson al
Ġpict ure
Ġd iv
we chs
ĠVert re
cont ains
ĠM Ã¼ller
ĠJul y
ĠCar ol
D a
Ġb em
ĠC O
ĠO k
Ġ193 7
Ġsk in
ĠhÃ¶ her
ĠS S
ĠSicher heit
Ð µ
M on
u elle
ĠJ ung
Ġse lect
Ã¼n ft
Ġor d
ĠSp r
Ġeinz ige
pp ed
Ġsp ort
ĠH ard
if iz
Ġdes halb
Ġex pect
Ġ ;
Ġst ammen
ap ie
Ġd adurch
Ġth ird
Ġyour self
Ġpol n
5 4
Ġn immt
Ġre present
ateg ory
ĠGl Ã¼ck
Ġbil det
Ġlearn ing
E O
d om
il det
Ġcomp on
vers ion
Ã¶ p
ĠAn na
Ġsaf e
ĠIndustr ie
J ob
an i
Ġstud ent
Ġstor age
Ġflo or
p ted
Ġ+ =
ĠgrÃ¼n dete
anstalt ungen
Ġbeginn t
d k
Ġf ra
ĠG Ã¤
ĠL Ã¤nder
l ers
Ã¤ cht
Ġp ool
Ġout put
ĠK omb
ĠH om
ĠInd ia
Ur l
T R
re chts
ĠM use
ĠT ime
ah nen
ĠFot os
ĠEurope an
Ġaktu elle
schein lich
g u
Ġs ix
ĠS n
iqu es
Ġh alten
Ġr ule
Ġans wer
Ġs etzt
ĠL ied
y es
Ġ195 1
Ġverl oren
Ġern annt
Ġmom ent
Ġgesch lossen
Ġmed ical
ĠW ell
ĠVer l
ĠAuf gaben
Hoch schullehrer
at o
ĠS onn
ĠR a
ĠTra dition
lemen te
b ased
s ere
op en
ĠBo x
n der
ĠL eitung
ĠAus gabe
Ġapp ly
Ġ193 6
irate te
ch ange
Ġc redit
Ġind ustr
an lagen
te in
ĠH u
Ġwe eks
trib utes
bu ild
K E
ĠS aar
ar ge
ĠT ruppen
ĠE dition
sch lÃ¤
Ġer he
ĠMÃ¼n ster
ĠBen utz
ĠKant on
s a
Ġs creen
ĊĠĠĠĠĠĠĠĠ ĠĠĠĠĠ
ĠO ption
Ġprov iding
ĠHand els
. ");
c up
ĠD ipl
ĠHoch schule
zie hen
ĠQ ue
gen de
we ig
w ner
at ely
ĠG all
ĠW ander
Ġpro perties
Ġled iglich
at tet
Ġl os
oun ts
org ung
ĠServ ices
5 2
g arten
w ell
ag te
Ã¤n gt
Ġw ords
Ġn utzen
ed ia
end orf
Ġentwick elte
Ġricht ig
ĠPart y
ĠInstit ute
ĠfrÃ¼ hen
S U
d aten
sp rache
Ġcon nection
5 1
g ers
Ġ- >
De f
Ġprodu ction
ĠAndre as
ĠS uch
end ung
Ġwelt weit
f unktion
ĠVer kauf
Ġ193 4
ĠEisen bahn
S I
ĠRud olf
ĠOct ober
| |
ĠS und
rei he
ĠKla us
ĠRec ords
ĠFen ster
5 7
j ust
fra u
hil fe
8 1
V D
Ġges tellt
Ġdis play
ĠRel ig
ĠNutz ung
ial e
ĠTeil nehmer
mittel t
ĠZusammen arbeit
ĠWei hn
Ġl aut
m ission
ber e
af e
ĠReg ierungs
ĠComp uter
Ġd ich
Ġme eting
Ġsol ution
ĠPres ident
ĠRoy al
ĠK olle
ĠH aut
ho od
L ong
P at
l ament
id th
Ġfor ward
Ġ4 00
l ings
r unde
ph one
lau ben
ic ip
Ġre ach
Ã¤n n
ĠSp rach
9 2
is ierte
Ã¼ ten
att le
ĠD amen
ĠD azu
ic ated
Ġre in
av es
Ġjed es
Ġpl ant
Ġcoup le
as c
Ġg round
ĠAn s
Ġbeh ind
u ert
v a
in ts
ĠzusÃ¤tz lich
Ġf ig
Ġre lease
ĠVer wendung
ĠGr enze
Ġwen ige
Ġz entr
Ġst ock
Ġj ava
Ġdr ive
C o
P la
Ġre fer
Ġsol utions
Ġc y
ĠP ower
ĠT enn
Ġbe ach
Ġge grÃ¼n
oper ation
ĠI N
lie fert
ren ch
Ġpol icy
m o
Ġt erm
re u
ĠS ar
ĠDe partment
Ġverhe iratet
g ibt
r ument
an walt
Ġm atter
ĠM aschinen
Ġc rit
ĠT Ã¤tigkeit
Ġro ad
Ġinit ial
ĠD Ã©
wissenschaft ler
D at
l ong
forsch ung
Ġm aint
ĠG ro
Ġde ep
is er
ic ago
ir it
ĠJ ak
ĠÃ¶ff entlichen
Ġprob ably
Ġt ransport
Ġle ader
Ġnot wend
Ġtra in
Ġser ver
uch ten
ĠFÃ¼r st
A cc
ĠN ic
Ġzu letzt
Ġide al
p ose
ĠW ass
Ġlook s
Ġb ere
ĠOff izielle
ĠM Ã¤dchen
Ġcomm it
ĠDan iel
w al
ma ÃŁ
d own
res ource
lef on
h i
ay out
Ġmar shall
Ġzahl reichen
k omp
ĠFahr zeug
ĠProble m
ĠHe idel
Ġgesam ten
ĠWebs eite
w s
Ġc aus
ĠSch lag
Ġarbeit en
Ġex pert
ĠS ome
ĠMon ate
p aper
Ġjewe iligen
6 7
ĠStÃ¤d te
q l
om a
Ġgu ide
Ġdev ice
ĠBeit rag
D r
Ġis n
Ġwer de
ĠM ur
Ġex act
Ġall gemein
Ġdis cover
ĠRes earch
Ġemp f
ĠKin dern
w ir
ĠM ail
ĠL ake
Ġber eit
ĠUnternehmen s
ĠB onn
ien d
Ċĉĉĉĉ ĉĉ
Ġk aufen
Ġcom ment
c as
č ĊĠĠĠĠĠ
Ġd ra
re chen
ic ient
ĠC le
we chsel
ĠAl ten
amerikan ische
Ġd ocument
Ġsch l
app ing
ĠSt affel
5 8
ĠM em
cr ibe
Ġnieder lÃ¤nd
ĠW eitere
ĠBre men
st Ã¤tte
Ã¤ um
ĠK ass
Ġph il
forder ungen
ĠW ork
ĠZ immer
aug h
ĠChamp ions
M ill
Ġe mer
ĠStadt teil
6 2
Ġs al
ĠP ers
Ġ19 00
ab s
ĠZ uf
Re ad
h inder
z Ã¤hl
Ġhow ever
alle l
Ġcho ice
Ġp oints
Ġh und
ĠC alifornia
iz ier
Ġaddition al
Ġ1 20
ĠPar te
Ġgra ph
Ġeas ily
Ãĸ sterreich
ĠS icht
ĠSchl acht
9 7
d ire
ĠIn c
Ġ15 0
Im age
m atch
ĠS onnen
ĠJ ud
ab il
Ġch rist
Tra cing
Ġany one
Ġdr ess
Ġf iel
ks am
Ġzw eit
ĠFre ib
ĠgroÃŁ er
ĠChe ck
p unkte
ut ive
ĠF eder
ĠSchauspieler in
Ġrele ased
Ä ģ
Ġs ort
Ã¼ gen
Ġschw arz
ĠÃ¤l tes
Ġt im
ar ter
ĠOr ganisation
Ċ Ċĉĉ
denk mal
k au
od ing
Ġro ll
Le gt
Ġange geben
ĠGÃ¶ tt
f Ã¶rm
l n
ĠE vangel
ĠH ash
ĠZ usch
ho den
ist in
ath let
ĠGot tes
ĠunterstÃ¼tz t
ĠI V
ĠStru ktur
H ier
I ter
Ġ193 5
ĠPol en
H z
unt ime
k unden
Ġf ail
ĠL ager
ĠC ook
ĠKÃ¶nig s
p ret
re ct
und le
ĠE ss
ĠR et
Ġer forder
ov ers
ĠBest and
Ġpolit ischen
Ġla unch
pr Ã¼
ĠCh urch
Ġphot o
Ġp ers
get Message
Ob jekt
6 8
Ġnot hing
wissen schaften
ĠS zen
Ġaus schlieÃŁlich
20 17
Ġro und
Ĩ Ĵ
ĠG ood
zeich nis
ound s
ĠSomm ers
F re
h ips
k y
ĠK enn
Ġto uch
Ġl ives
Ġj Ã¼d
Ġc oll
Ġver k
ĠPat ienten
D eb
ĠSch le
pro f
Ġsignific ant
ĠE ben
chn ung
verwalt ung
C ON
Ġl ate
ĠZ wei
Ġexc ellent
ĠT at
ĠBe zirk
Ġhand le
Ġincre ase
m ax
fl Ã¤chen
imm el
Ġrec ogn
ĠW ies
ĠAn gaben
Ġall ows
ĠMen sch
ĠRad io
pend ent
B A
er r
in st
ĠH off
ud es
Ġprogr ams
Ġpurch ase
M ark
h op
Ġc ause
Ġge prÃ¤
oc ation
Ġoffic ial
W ie
as y
au te
ian ce
w el
Ġth er
Ġre qu
Ã¤hr t
Ġgrow th
Ġr isk
Ar t
ĠS ter
Ġf resh
ĠP ublic
Re ference
Ġass oci
ĠTechn ik
, ,
Ġb al
Ġrem ov
Ġschw ed
6 9
ĠD igital
im ar
ot es
ian o
ĠZeit ung
Ġver z
ĠAn lage
for men
Ġex pla
Ġgra du
aly se
c ies
er weise
ĠT ransport
ver fahren
Ġalle in
Ġimp act
ul en
ĠLeist ung
H ttp
m ot
ĠT urm
ĠVol k
ĠT emper
ĠP rom
Ġwrit ten
S ub
an geb
ĠEp is
H E
at ory
Ġb ank
Ġe inger
ĠL ife
6 1
id ung
Ġout side
Ġver lÃ¤
ib el
aus t
ĠA f
Ġh Ã¤tte
ĠG ran
ĠK ra
Ġmaterial s
re publik
ist ics
we ile
ĠMed izin
Ġsuch en
Ġsug gest
Ã¤dag og
Ġw in
ug ht
w en
Â «
ig ation
ĠN amens
hal le
rif f
Ġreg ard
Ġlik ely
ĠS atz
ist an
Ġst ation
west lich
Ġplat form
b i
Ġgesch rieben
6 3
d y
Ġin de
F irst
T ask
ð Ł
ĠS ho
ic kt
ĠIs rael
parte ment
Ġin fl
ab et
atur day
ĠEng ine
lin ge
el a
ĠM icro
Ġ192 8
ĠFinal e
Ġexten ds
A ction
l ingen
ĠM aster
ĠP orn
Ġhe ll
p a
ĠT ill
As ync
u id
ch em
Ġin c
ir ch
rat s
Ã¼hl en
in sel
ess el
Ġke hrte
ĠFir men
Ġbede utet
o is
Ġm orning
ĠD rei
qu are
Ã¶l f
Ġho tel
Ġben annt
Ġlog ger
sw Ã¼rd
il led
Ġlon ger
G er
ie ger
Ġc ross
Ġpos itive
Ġgel ten
m useum
Ċ ĠĠ
ĠL ove
ĠMar y
gew iesen
ĠH alle
ahr en
St ra
chn ik
Ġbo ard
Ġsim ilar
Ġd ein
Ġin tens
Ġk rit
ack s
Ġintern et
ĠInd ian
P DF
Ġd ed
Ġw ohn
ĠW erner
ber eit
ĠW etter
Ġle bt
ĠPh ot
wind igkeit
b it
b ul
ĠS C
ĠAn schlieÃŁend
Ġent scheiden
leg ung
Ġpot ential
R em
Ġm el
Ġsw itch
Ġw r
Ġhig her
g rad
ĠNe ub
Ġhigh ly
ĠFamilien name
im ension
Ġse ems
Ġdurch gefÃ¼hrt
Off set
ĠR oll
ĠBe im
Ġd om
ĠE th
ĠAn g
gemein schaft
Ġmov ie
T ER
Ġsh op
ĠfranzÃ¶s ischer
A fter
Ġa ffe
pp e
haus es
ĠIde en
Ġw oman
ĠA T
ĠR Ã¶
aut or
ĠKir ch
ĠArchite ktur
Ġt ask
Ġ19 19
lin ik
By te
Ġcare er
a ign
Ġ19 18
ĠA tt
ĠM and
Ġp rior
ig ungen
ĠC y
ĠV ictor
Ġhe iratete
heim er
ĠZu kunft
Ġfurn iture
ĠSpe zial
Ġg old
Ġer inn
Ã¼r k
spr icht
ultur al
ĠfranzÃ¶s ische
in ary
ĠM un
ĠH D
AT ION
R oot
Ð ¸
ĠC ard
and a
ul s
ug s
Ġdar an
Ġpat ients
ĠTex as
h le
if er
ĠChrist oph
Ġbed room
laub t
asket ball
Ġun mittel
ĠOr gel
ĠMed ia
Ge grÃ¼ndet
ĠBÃ¼ cher
W Ã¼rttemberg
Ġf anden
st Ã¤nde
Ġh uge
ill ing
cr ib
Ser ver
O C
ĊĠĠĠĠĠĠĠĠ ĠĠĠĠĠĠ
() ))
eld ung
Ġbest Ã¤t
Sch w
Tracing Enabled
E urop
Ġf irm
Ġwe ight
hen swÃ¼rd
Ġsol che
Ġmein er
un ion
is Any
ĠT it
Ġl Ã¤nger
ĠMo der
Ġlo ad
in put
ĠEin fluss
Ġbef and
r is
Ġan im
ĠBe zirks
Ġle ave
Ġ3 3
ĠLe icht
ĠFl ugh
ĠQu alif
Ġgirl s
Ġd iente
Jahr hund
p osition
ag d
ĠKar ten
zahl en
ĠS ym
Ġges etzt
isAny TracingEnabled
Ġ193 2
Ġ* /
Ġask ed
k ampf
un s
ĠL ux
Ã¶ nen
H ow
Ġre pla
Ġbrit ischen
M atch
ar es
()) );
Ġlang uage
n itz
at al
Ġer setzt
ĠAut om
ĠVerwalt ung
statt ung
Amer ikaner
ĠT own
Ġwir tschaft
tt ps
U M
n ern
o e
Ġw ider
ten ded
iel ten
ĠEin wohnern
Ġsu it
ĠAngel es
ĠD ir
Ġhinz u
Ġup on
Ġdec ided
He ader
Gemein de
g arn
ĠS ib
Ġin fo
Ġr ather
mittel n
Ġpubl ished
ĠFried hof
le ger
ipp ing
Ġmult iple
ĠK u
Ġst reng
Ġcommer cial
ĠF ernse
az in
By tes
Typ es
ĠSch les
ĠPro zess
ens ive
ĠProble me
ĠErgeb nisse
Ġgen ommen
ĠFot o
p erson
w an
ĠS ammlung
ur er
v olle
ĠS amm
ie gen
ock et
Ġb uffer
Ġpl us
ĠH on
ul f
ot ing
mÃ¤ ler
b ody
n amen
ĠR ing
Ġex pected
ĠLe g
fr ont
Ġca pt
S ession
Ġg Ã¼nst
Ġle gal
Ġ192 9
over n
kret Ã¤r
C om
P A
Ġst ring
Ġwork ed
imp le
Ã¤uf er
ĠmÃ¶ch ten
Ġpie ce
ĠverfÃ¼ gt
ĠAcadem y
al u
ĠAr n
Ã¶rder t
ĠN Ã¼rn
ĠCh icago
S G
d is
ĠSt reit
Ġfor mer
ĠBr Ã¼
ĠBau ern
ĠBild ung
ĠB a
Ġfun ktion
Ġaktu ell
ĠRich ter
ĠFar ben
U s
l or
Ġbath room
r um
ĠT agen
ĠLe on
Ġfin ish
ĠChar akter
Ġreview s
b latt
ĠAus stellung
Ã¡ n
P RO
ĠS om
ĠD ata
Ġpolit ische
Ġorgan ization
Ġcondition s
Ġregel mÃ¤ÃŁig
p at
ĠG reat
Ġj unge
ige m
wer te
ĠY ear
Ġinter ested
Wh at
ĠVor stand
ĠFl Ã¤che
Ġpr ices
Ġimp lement
W ork
at alog
be w
p ers
ĠM ach
r al
Ġim med
Ne ben
hol z
henswÃ¼rd igkeiten
w ide
Ġt ag
ĠJan uary
Ġklein er
B ahn
k irchen
Ġo l
ink el
ĠMus iker
ĠPolize i
ge legt
ĠL Ã¤ndern
Ġl angen
E M
Ġv ideos
ĠE lect
Val ues
h Ã¤user
ed y
Ġar g
ĠFr iday
Ġeing esch
] ,
ĠB ul
umen te
Ġdamal igen
A uth
ĠW ettbewerb
ĠVorsitzen der
Ġg uten
if ts
Ġehemal iger
Ġter ms
ĠL et
Ġl oss
Ġro ot
Ġstat us
ĠPf lege
Ġtradition al
g ree
Ġf ant
Ġex cl
K ultur
W Ã¤hrend
Ġan alysis
Ġver antwort
iz en
ĠSp anien
ĠAr ts
ĠDar stellung
g Ã¤nger
Ã¼ m
UR L
Ġunter st
amerikan ischen
Ġangeb oten
Ġt Ã¤
Ġf ilter
st ream
Ġim m
por ate
Ġcol umn
w ith
ent y
ĠF ound
Ġg riech
Ġge eign
ak ers
Ġgeb racht
Ġd aily
ber n
and t
Ġme chan
Ġtr ip
Ġsaf ety
m ont
or th
ĠH ir
ĠLe x
ĠBr andenburg
ĠspÃ¤ter en
Ġsod ass
Ġin j
ĠF ischer
ĠE ll
Ġgo al
Ġzun ehmen
Ġt rÃ¤gt
ĠM ik
ĠM erk
Ã¼r gen
Ġro ck
Ġexper ien
ĠIhre m
Ġkl ar
Ã¤ u
ĠC ast
pr ise
ĠKla vier
en te
im inal
ĠE st
em ble
ĠBl og
Ġf lex
Ã¼ hm
if est
all owed
Ġon es
oh le
Ġquick ly
u gend
ĠV an
ĠRo ad
cript or
Ġbeteil igt
F amil
Ġfol gt
fÃ¼ hl
Ġrelat iv
Ġrecommen d
Ġf ully
ken nen
Ġconstru ction
Ġrem ember
Service Response
Ġgre en
ĠPra xis
Ġtool s
Ġh ttps
ĠP fer
ĠCh in
ĠTemper atur
K reis
M at
R uft
b rit
Ġb rachte
Ġer f
ĠVertre ter
ĠM Ã¶
ĠÃĸ l
Ġsupp l
ĠPort ug
Ä į
Ġp rÃ¤
Ġc opy
Ġl isten
ĠIn tegr
Ġwicht ige
D A
g ner
r t
ĠS um
ĠHaupt stadt
ĠMet all
Ġander er
V ari
Ġbet re
Ġpart ners
Ġbeg in
ĠR ath
Ġun abhÃ¤ng
wer ks
Ġapplic ations
ĠS aturday
ĠR ou
ĠR enn
ĠVer fahren
Ġpre m
ĠÂ §
htt p
P l
at ung
ĠT ype
ĠH ause
ĠÃ¼ br
y ing
ĠF ritz
ob by
Ġimpro ve
Ġf iles
Ġl ower
Ġsp an
ĠS T
Ġerw eit
k osten
ese hen
leist ungen
it ation
ar io
ĠL ig
Ġg ives
Ġg anzen
ist rat
Ġge fÃ¼hrt
amp les
ĠKom ment
ĠCoun cil
Ġw edding
Ġm ount
Ġ19 14
ont o
lan k
ren nen
Ġmus sten
Ġhistor ischen
ĠForsch ung
Ġt ats
Ġn omin
ĠI P
Ġqu ery
Ġser ious
Ġeffe ctive
ĠM acht
ff er
Ġplay ing
Ġfert ig
Ġv irt
ĠV iew
Ġun it
ĠAn der
ĠWer te
m ie
Ġf air
ĠW ach
ad el
P osition
Z ur
Ġs yn
Ġb and
Ġl ic
Ġver treten
ĠVert ra
Ġsl ow
TY PE
ĠBe ach
Ġverm utlich
ĠHen ry
ĠW irtschaft
Ġde ath
ru it
Ġpar ents
ĠZusammen hang
inc ip
ĠHinter grund
en ted
ie fer
ĠP ubl
Ġcl oth
D I
m esser
Ġh Ã¤lt
ĠO ver
erd in
aupts Ã¤chlich
H T
i ders
Ġt emp
Ġse ek
ĠWe iÃŁ
Ġpass ed
Ġwall paper
u ted
od or
ĠMar c
ĠZust and
D o
ĠA C
am ing
et ch
ĠW agen
ran ch
Ġdo or
Ġact ive
van ced
Ġbestimm ten
Ġsing les
r d
ĠW in
Re ader
cle ar
ĠF isch
Ġpre uÃŁ
mit glied
ĠBeruf s
Ġs un
Ġf a
Ġse ction
Ġ3 4
Re f
T hre
it ial
Ġder zeit
ĠZeich en
T V
Ġw issen
Ġc irc
Ġh um
ul y
Ġgroup s
R ad
Ġd ream
Ġh it
ber s
Ġwor th
20 13
Met hode
an cy
Ġne igh
S A
p i
ct ory
ĠHome page
k ul
n ungs
Ġe arn
sch uhe
Ġ7 5
ĠGer ichts
Ġdistr ib
b as
Ġtra gen
ĠStud io
Ġarch ite
ĠerÃ¶ff net
Ġ Ã¶
er al
ic on
ind ungen
20 16
Ġth ous
Ġpro p
pl ant
Loc al
zieh ungs
r ug
z if
Ġb itte
Ġver g
ac ity
ĠÃ¼bern ommen
Ġinst ru
Ġcoun tries
Ġn ames
ĠDe velop
aut en
fin den
inn ing
oh ol
Ġt en
ar ies
ĠSt immen
Ġse ien
f Ã¤lt
Ġm id
ĠT ar
ĠâĢ ¢
Ġcomp lex
dr Ã¼ck
ĠFr ont
ĠChrist mas
AT E
n ummer
o oth
Ġch ines
Ġ193 1
aug ht
Up date
Ġt itle
ĠCol or
Ġt hr
Ġw ish
Ġ ign
ra ct
Ġent lang
ĠWe chsel
ren z
fra gen
Ġentspre chend
ĠDreh buch
S erv
r id
Ġj ungen
gang s
Z eit
Ġh ielt
ĠE duc
Ġer baut
akt iv
ĠvollstÃ¤nd ig
sch auspieler
Ġg lass
Ġdar in
B and
Ġh ous
ĠE vent
id ents
ick ets
tel n
pro gramm
pf licht
ĠBesuch er
m osph
Ġd omin
ĠB lock
ĠAn th
ĠHe iligen
| }
te uer
as ons
Ġsch edule
itte e
Ġinvol ved
C al
in os
ĠW ood
ĠColle ction
V AL
Ġa verage
Ġweiter er
Ċ ĠĊ
Ġverl or
ĠSchm idt
ĠSold aten
B S
ĠR um
Ġso uth
Wer ke
i ben
un te
Ġhand s
ĠÃ¤l ter
ĠS V
Ġum fang
Or der
D P
Ġd ise
ĠK ult
Ġab ility
fr ist
Annot ation
Ġit self
ĠPro gram
stru ktur
utt ing
Trace Component
Ġerziel te
Ġer fÃ¼ll
Ġst ieg
pe kt
Ġ3 8
ĠdÃ¼r fen
S piel
j o
ĠL ok
Ġmach ine
ĠInter esse
Ġâ ĨĴ
Ġg all
ĠSch rift
age gen
Ã¶r en
Ġstart ing
Ġerschien en
T arget
ĠP a
la x
ne ct
Ġ} );
ĠEin fÃ¼hrung
ond ition
Pro cess
Ġprogr ess
ĠSund ay
9 1
Ġ Ã¶stlich
le hn
R et
Ġun ten
ĠWe hr
Ġgo es
ĠPe ters
ĠSoc ial
Verein igte
or et
Ġm ix
rie den
ĠDeutsch er
L L
il i
Ġpre d
ĠSant a
U LT
p ace
Ġa k
Ġs an
Ġch ance
Ã¼tz t
Ġinterest ing
leist ung
Ġverkauf t
P olit
d ouble
l Ã¤nder
is tet
ĠE very
we gs
sel ben
Ġatt ention
K arriere
Ġhel fen
ĠRuss land
Ġsuccess ful
ĠerklÃ¤r t
k ra
Un it
Ġdevelop ed
Ġp en
ĠG olden
ĠO x
la us
Ġfe ed
Ġpl anning
ĠÃĦ nder
re chte
Ġbe legte
Ġwieder um
ĠHeidel berg
h agen
Ġ4 8
ĠQu ellen
ĊĠĠĠĠĠĠĠĠĠĠĠĠĠĠĠĠĠĠĠĠĠĠĠĠĠĠĠĠĠĠĠĠ ĠĠĠĠĠĠĠĠ
Ġgar den
p ossible
Ġs aw
Ġe he
il ing
ĠL i
Ã¤ss er
ĠS Ã¶
ĠT able
qu ence
reit en
ĠSm art
L ast
ĠPol y
gangen en
unsch weig
Ġrelations hip
E is
on str
Ġk or
ĠSp Ã¤ter
lin es
ĠHe ute
ĠSt atus
wer be
ys elf
Ġcreat ing
g ruppen
ur l
Ġob t
ĠSin ne
v ement
is ieren
Ġs ynchron
ĠS us
ĠÂ ·
Ber lin
Ġfinanz iel
f alse
Ċĉ ĠĠĠ
Ġs us
Ã¼ che
Ġerst es
m Ã¶glichkeit
Ġb irth
Ġg iving
Ġver gleich
Ġse lection
ĠSpiel zeit
ĠCour t
B ox
is ation
Ġb row
ĠB rief
ut n
ĠC all
Ġwrit er
Ġarbeit et
N O
P reis
m acht
Ġs agte
ar kt
ĠJ os
os ed
lie der
ĠGew inn
Val id
C re
D S
Ġs ah
ier n
Ġent spricht
ĠAm azon
hand elt
ĠRegion al
ĠMÃ¶glichkeit en
in y
ĠS un
ĠC anada
ist isch
Ġex am
Ġ192 5
Ġcons ult
spr ung
Ġgleich nam
Ġsetz en
Ġsogen annten
ĠNe ue
geb racht
Ã© s
ĠBeit rÃ¤ge
print ln
Ġd ient
ĠKar te
rich ter
ikan ische
Ġgrow ing
erdin and
al ing
Ġer fahren
ĠSt ahl
ad rat
ĠDe v
Ġzw Ã¶lf
so ft
E l
M ode
20 15
Ġ6 5
ĠTra ining
ĠGegen satz
minister ium
hockey spieler
ĠC ode
Ġbe gan
ĠBetrieb s
ĠAustr alia
Ġnecess ary
K e
ver stÃ¤nd
ĠâĢ ļ
Deb ug
Ð ½
Ġan aly
be g
ĠSer ver
ĠL aur
stell er
ĠMen ge
ĠM ost
au x
ĠVer teid
w eite
Ġg ere
anz er
unk el
reit ung
ĠS ach
ĠL ab
Ġplay ers
k ord
Ġan ges
ĠG attung
reit et
ĠLeist ungen
d at
s ervice
s ystem
ĠSt off
ah er
Ġbest immt
ron ic
Ġnie dr
m ine
zeich nete
Ġwichtig sten
ĠLeist ungs
ĠUR L
W riter
f ur
Ġge ts
ĠFe hler
B ase
Ġpre fer
Ġhoch wert
ĠDire ktor
g ern
Ġt al
Ġor igin
ĠAut oren
ĠStand ort
Ġwest lich
ĠG irl
se x
ĠBer eits
ĠWh ile
ver lag
iss ert
ĠGroÃŁ en
Aus zeichnungen
y mp
ĠH und
ĠH ill
ĠSt iftung
ĠAuf gabe
Ġag re
gemein den
alle y
ĠSm ith
sub string
B ar
Ġe dition
Ġv ac
el ine
ĠAn wendung
ĠTex te
d urch
k om
Ġt ree
ot ten
ĠAuf bau
Ġbusiness es
Ġbenef its
R ule
Ġw ild
ĠT isch
ib ly
Ġwe g
Ġste ts
Ġdirect ly
iti ative
in ks
Ġw under
ĠR ennen
ĠAll erdings
Ġelement s
Ġenc our
ĠJak ob
O ber
ĠL eit
Ġent deckt
II I
gef Ã¤hr
ĠermÃ¶glich t
T O
V ER
Ġh auptsÃ¤chlich
ĠW ed
ĠW omen
Ġun bek
Ġpro per
ak s
Ġar ray
Ġoffer ing
Oper ation
p m
an ders
ĠA R
ĠW unsch
ĠN ummer
ĠJ SON
se c
ĠMann schaften
roll er
f rom
r est
ies ter
Ġpart ner
Ġeng ag
ĠTurn ier
Ġannoun ced
ĠDec ember
Colle ction
d as
m ore
tert ain
im er
ĠK ohl
Ġst aat
In s
St ud
Ġspe ed
Ġviel leicht
h och
z one
ĠO h
ger ichts
Ġpla ces
Ġlar gest
Ġkomp lett
ĠPap st
ĠGesund heit
I A
us ed
Ġk om
In put
ĠAb st
s l
Ġm yself
ĠIde e
Ġdefin it
en se
ĠP ier
Ġbesch rieben
ĠNational sozial
Ġdec ision
ĠAt lant
ĠGÃ¤ ste
w ise
ĠD ub
Ġl ux
Ġsp Ã¤t
Ġbec ame
Ġze ich
Ġ192 4
ĠSc ott
Ġh il
ipp ed
Ġs old
Ġin zwischen
Ġ19 10
Ġgew innen
iÄ ĩ
ĠE igent
Ġg esehen
ĠAn tw
20 14
ĠEl is
Ġsub s
ĠFreib urg
Ġd ur
ĠSte fan
med aille
Ġrequire ments
ĠFlor ida
Ã £
aus piel
ĠSchw ar
Ġ192 7
ĠUr laub
Cont ainer
l uss
ĠB ol
ik i
ĠSp an
ĠBy te
ĠJes us
h ere
ĠAl fred
Ġbu ilder
ĠBl ue
Prov ider
B undes
C A
or fer
am ous
lan z
gew Ã¶hn
pf lich
con fig
ands ia
Ġabsol ute
Ġn ov
Ġg ro
ĠO ld
Ġde pend
Ġno te
ific ate
Ġwen igen
r ig
ĠG Ã¼n
Ġver fÃ¼g
ĠMar ine
Ġcolle ge
Ġv iol
Ġbas ic
ĠPhilosoph ie
ver trag
Ġver lieÃŁ
Ġhel ps
ĠKarl s
ĠauÃŁer halb
Rec ord
ĠD et
ĠUr s
kt ions
ĠAd olf
ĠBo ard
ĠNie ders
' d
Ġin kl
Ġl au
Ġl ok
ff ic
ha ber
ĠwÃ¼r den
Ġb aby
il a
ĠG ust
Ġlie fert
uar ante
Ñ Ģ
Ġf ashion
Ġm ention
oot ball
ĠBesch reibung
F rank
Ġe ye
Ġc abin
yd ro
s itz
ĠV ize
ĠOr ganis
N S
T op
Ġc andid
ĠE hr
ĠK ritik
Ġbet rieben
umm ary
Ġlevel s
? ?
D ir
v ar
ie fe
Ġc ases
St adt
trie ben
ĠR is
( '
Ġd ark
ĠSt an
Ġj em
iz eit
ĠOff ice
ĠÃĦ r
C omm
Ġaus getragen
ĠGe heim
vers ammlung
h ost
ĠGes pr
or al
Ġkann st
ĠHerr schaft
Ġf uer
Ġor ient
ĠTill andsia
un i
Ġn umer
Ġein st
Mus ik
gr Ã¶ÃŁ
gr iffen
ĠPro ject
ĠEin s
ĠInter view
Bau werk
o ÃŁ
Ġin stead
Ġc ell
ĠP fe
ck len
lie fer
ĠGr enz
Ġweek end
ĠVier tel
bild ungs
Ġveh icle
m ethod
ow a
ze p
ze ption
Ġher r
ors itzen
Ġoff set
fig ur
Ġmethod s
m d
ĠS PD
Ġar gument
Ġactiv ity
Ã Ħ
â Ĥ¬
Ġb orn
im me
ĠK ommand
Ġsch le
br idge
ĠMan ager
Ġac cept
ĠC are
ow ski
Ġch at
ms el
ĠverlÃ¤ uft
ot al
Ġfr ame
Ġbrit ischer
ĠId ent
Ġver lassen
ĠIn t
Ġent stehen
Ġgesch affen
ĠBl ut
Ġ192 1
hol t
Ġhom es
Ġf ine
ĠW affen
ĠAll gemein
Ġ192 6
Par am
c lose
Ġand ers
rie be
Ġmein en
Ġprom ov
Spe c
i ation
al m
Ġh arm
ĠGrund lage
Se lect
gebie te
r and
w ach
ĠA P
th ur
ĠGe h
geb nisse
ri pt
ĠPar lament
Ġprof it
lÃ¤uf er
ĠFer ien
gent in
B l
ĠT schech
ĠF lo
ĠV om
Ġun be
De fault
Ġpos it
ĠKap elle
imat ely
ĠT a
ĠE re
Ġg ift
Ġgew onnen
ilit ary
h old
r ight
w itz
st at
Ã¤ den
art ige
h ow
ĠNach richten
ĠReg isseur
Ġnor th
sie he
ĠDÃ© partement
S k
b a
ĠS P
ĠB Ã¤
ĠD ro
Ã¼ck sicht
los en
iss ions
ĠNatur schutz
Ġdarauf hin
ĠK och
ik ations
ĠGer hard
Ġstat ement
Ġsur round
Ġwonder ful
Ã¤ her
ĠJ on
ĠBe zug
Ġcon du
par se
ĠLand wirtschaft
rif ft
Ġdesign s
ĠLie fer
Ġt emper
im in
sp ann
form ations
Ġstru cture
ĠNÃ¼rn berg
Ã ±
ar g
Ã¤ ische
ĠD ank
icht lich
Ġvers ucht
stoff e
Ġl ost
Ġher gestellt
ied lung
ĠSpe cial
ĠDar Ã¼ber
Ġlet ter
20 12
ĠMond ay
Ġv Ã¶ll
ĠK rank
ly ing
Ġexist ing
Ġwahr scheinlich
s es
it ness
Ġinst it
b our
Ġn ature
ic ed
ĠK ammer
ĠC a
Ġcont ains
Id ent
Ġmax imal
Ġindividu als
Ġverlie hen
ĠIn f
Ġunmittel bar
S Ã¼d
ach im
ĠZ us
ĠBed ing
Lo ader
C ons
S ett
ĠBe wegung
ĠÃ¼ber wiegend
ĠTr ump
ĠG overn
Ġhe ar
Ġle gte
tra iner
200 5
iat ely
ĠT hen
Ġver t
Ġwe ar
200 9
c an
ĠMe tern
Ġup load
ĠBild ungs
ĠGel Ã¤nde
p olitik
ĠD arm
get Class
ĠAl tern
il lage
ate ur
Ã¤r t
ĠSchw ester
k lass
ĠR og
ĠEr schein
bo gen
Ġmus ikal
lauf en
fass ungs
lev ant
Ġcamp aign
ĠWirk ung
c ia
ĠD ouble
ĠO pt
ĠAn teil
ĠTe ams
Ġ192 3
ĠWill i
al led
ĠR icht
ĠFran ce
Ġges etz
temp or
Ġsom et
Z um
t i
ĠB ist
ĠT ri
ĠL y
Ġl Ã¤
Ġbes ondere
Ġpolit ical
Ġcost s
ĠgeprÃ¤ gt
- )
z ub
el la
Ġo wner
ĠT ore
Ġl en
Ġverw enden
klÃ¤r ung
ĠOp fer
P an
Ä ±
Ġ( "
ĠV iol
Ġsc ience
pf lege
Ġbl ue
ĠWohn ung
Nach dem
Ġunterschied lichen
T E
Ġd ritte
at i
ĠF erdinand
ber eitung
Ġab s
gel d
ĠBas el
Ã ½
ĠS tellen
reg ierung
ĠFÃ¼hr ung
er er
is ions
Ġh our
ĠR osen
Ã¤nd ler
Ġview ed
gem eine
ĠCommun ity
A utor
Ġs and
Ã¼ mm
aw a
Ġhealth y
gor ith
O M
h auer
Ġ2 50
Ġste el
âĢĿ .
Ġsm art
Ġexperien ced
r ies
Ġ ult
ĠU ser
Ġsen se
Ġleb te
Ġs agen
ra p
schaf ter
isten z
w ander
ĠW he
ct ural
Ġbring t
Ġinternational e
Ġconsider ed
zip lin
ĠRath aus
D B
m ess
Ġd ynam
ĠS of
us er
ag ne
ick er
ĠErz Ã¤hl
Ġstreng th
W arn
i xt
l ike
ĠP ay
Ġk anad
ĠMar ie
Ġev alu
ĠBra unschweig
mÃ¶ gen
D oc
t or
ist a
ĠSt ation
ĠString Builder
For m
or ial
ĠF ak
ĠL aut
Ġersch eint
ĠMat th
Ġcomplete ly
A ut
m and
v ol
Ġs agt
ist ance
ess ions
Ġaus tr
-------- --------
on st
il ien
ĠF rench
ustr ie
Ġvis itor
ĠĊĠĊ ĠĊ
ĠWider stand
Ġg as
20 10
ĠVor der
ĠMeister schaft
c ause
be zogen
ign ed
ph an
E hemal
el er
Ġ3 7
ĠGra fen
ĠMo dern
Ġmod els
fan ter
Ġblo od
B is
e es
is Entry
as che
ĠF ert
ĠC ross
Ġst age
by te
issert ation
isEntry Enabled
k opf
Ġp et
ĠUl rich
. ),
ur b
Ġf ix
ĠP aar
ad ies
ste ht
iz ations
Ġb ul
ĠVer kehr
ĠEr inner
St ore
Ġbet rach
Ġbre it
Ġthink ing
Ġess ay
msel ves
G ruppe
ĠB it
Ġhe ard
ĠPro p
ĠHo hen
F ound
m aterial
t liche
Ġf lieÃŁ
ok er
ĠZeit en
ĠMon at
Ġh y
Ġh ar
ĠG ene
ĠH uman
Ġl Ã¤ng
Ġsp ring
Ã¤r m
Ġges pielt
hand lungen
Ġ192 2
N on
ĠW ater
ĠV arian
ĠRe chte
Ġso ft
ĠAb teilung
Ġfol gten
Ġopportun ities
Ġsat is
B esch
T I
Ġp f
az ine
ĠÃ¤ uÃŁer
ĠHers teller
ĠÃĸff entlich
B es
Ġc ulture
Ġre ve
ommer ce
Ġthe mselves
Ġ{ }
Ġcla im
P ER
Ġe th
ĠA qu
ad or
Ã¼t te
beding ungen
Ġmit tels
Ġinter view
cklen burg
k ont
er es
de cken
Ġwe ather
Ġmehr fach
Ã© e
Ġunterst Ã¼tzen
D ouble
Ġb all
el se
Ġst uff
ĠBern hard
deutsch en
O p
as ion
ĠD ol
ul pt
au ben
In putStream
ree k
ĠÂ £
West falen
w Ã¼r
Ġp ages
ĠL ine
Ġge halten
Ġzu gleich
Ġle ider
ĠSp ann
Ġbut ton
ĠAd d
V is
e lement
m ond
ĠR am
ail s
Str u
Ġeinz ig
N ieder
S ec
Ġd ry
ĠD Ã¶r
Ġc ru
20 11
ĠHoch zeit
Ã¶st lichen
ĠSchul en
Ġmoder nen
p ost
ĠR od
oun ter
Ġback ground
part ner
Call back
utn ant
it ude
ĠW appen
ĠC entral
ĠRe is
Ġeurop Ã¤ischen
D C
F L
c ap
Ġf ab
up s
ĠLand schafts
ĠOb jekte
Ġverw ende
ĠOrt schaft
ennt nis
G ER
p olit
y les
ĠP ak
ĠR aj
Ã¶r ung
ĠOr te
Ġm aster
Ġc ards
ĠT iere
ue ber
Ġres ol
ĠTra in
frastru ktur
posit ory
it ag
ĠM ethod
ĠBe handlung
ĠSo und
Ch ange
Ġdeliver y
ĠSonn tag
p al
ĠAuf nahme
ven ue
Ġfre uen
fÃ¤h igkeit
ĠB la
ĠIn n
uck y
ĠJu den
Ġdivers e
Ġgeeign et
ra pper
Ġer gÃ¤n
g ut
i ant
ĠSch riften
ac ters
Ġout door
Ġplay er
Ġhol iday
ĠDistr ict
ĠEntscheid ung
d essen
ĠL ast
ĠV illa
Ġche ap
Ġstor ies
A ug
D em
Ġd agegen
Ġs ell
ĠBe w
ĠSp iegel
Ġschool s
kn own
Ġlim ited
un ehmen
ach ing
ĠAr zt
Ġsp ot
sh aus
G roÃŁ
ĠF ind
ze igen
Ġ5 5
cre te
ĠAd min
ĠHam burger
B ack
at oren
ck ing
ichte ten
Ġcl ub
Option s
g ab
ĠH aft
Ġcons um
ĠErfahr ungen
T A
ĠS eb
ĠR ost
ĠBron ze
Ã£ o
it ur
ĠM om
ĠG Ã¼ter
Ġz Ã¤hlt
Ġver pflich
ĠFebru ary
ĠKonz ert
T ION
f ung
k ammer
Ġa spe
ĠN av
ident ial
ĠArch iv
ĠMod el
ĠSow jet
ĠGÃ¶tt ingen
ch mal
he m
ĠG alerie
ĠL iter
qu is
ĠDem okrat
ĠFeuer wehr
ar ischen
el and
Ġsp orts
Ġbeen dete
pl Ã¤tze
ĠgrÃ¶ÃŁ ere
Ġsett ing
ĠVer Ã¤nder
glieder t
Ġeinges tellt
F ol
Ġrep air
Ġverantwort lich
I B
f ast
h u
ĠVer anstaltungen
let ter
Out put
Ġach ie
ĠK ath
Ġunter s
Ġprim ary
com es
Ã¶s ungen
Ġfamil ies
g roup
ĠLe op
Al le
Ġann ual
Ġlim it
ĠRe p
cl ude
Qu ellen
Ġfre qu
ĠErfahr ung
ĠSied lung
M B
N ON
al ed
ĠL Ã¶sung
we iler
res p
olog ies
ĠOb serv
Client Exception
emin ar
ĠWeihn achts
ĠA ff
ĠM att
am at
ĠR y
UR I
Des cription
Ã¤mp fen
zieh ungen
b ilder
ĠÃ¼ber tragen
St ack
oren z
fl Ã¼gel
tem pt
ĠVerb and
ĠKn oten
hÃ¶ he
Ġentsprechen den
Ġcomfort able
f le
n ode
st ation
ĠD VD
Ġp ackage
our ney
ĠEin trag
denk mÃ¤ler
tertain ment
] );
re al
ĠMon aten
ĠWissen schaften
Ġexact ly
f ree
g ie
Ġm other
tr ans
ĠgrÃ¶ÃŁ eren
re form
Ġsp end
19 45
Ġsow jet
Ġpar se
ĠStud enten
fel der
Ġlov ed
Ġrepor ted
Ġkur ze
ĠEduc ation
n ational
on ial
ĠR E
Ġ19 11
Ġre lax
ag ram
Ġ3 9
ĠMor gen
ĠjÃ¤hr lich
I OException
m y
ur i
Ġch air
rÃ¤ ume
ĠAustr alien
Ġqualif iz
ĠPrem ier
Ġs ymbol
ĠE xt
je kten
Ġent h
Ġprodu ziert
ĠhÃ¶ch ste
m ir
z ul
or ph
Ġm ilitÃ¤r
Ġauf gerufen
ĠgehÃ¶r ten
ĠHand el
ĠBl Ã¼ten
bie ter
Bo olean
Ġmittler weile
l Ã¶
n ow
Ġf lat
Ã¤ ger
ĠF al
ĠE ck
ap y
Ver b
ĠKl ost
2 000
B ild
b il
Ġbe an
arz t
LO G
ĠA ktion
et ts
Ã¶ der
Ã¤n en
bo ten
Ã¤hn ung
ĠLin ks
Ġroom s
Ġphys ical
ĠVer halten
ĠBr Ã¼cke
Ġur l
ĠRev olution
Ġzerst Ã¶rt
y ond
tell igen
Ġcomp leted
ĠArbeit er
ĠFunktion en
Ġwa it
P C
R ed
Ġg alt
St yle
glie dern
ues day
Ġcar ry
ĠD omin
ĠL ieder
Ġbek annten
Ġob wohl
baut en
brit ann
ĠA wards
la h
Ġex hib
amer ika
Ġbek am
gy pt
ĠvÃ¶ll ig
Ġsomet imes
Ġbe legt
ĠSch auspiel
Ġdeutsch sprach
ĠB ass
ĠB aby
ĠF ield
ĠK os
Ġpur pose
k rÃ¤fte
Ã ´
in u
ĠD E
ĠR h
ĠBe ge
Ġsch eint
stand ing
Ã¤chs ischen
i Ã¨
Ġ il
Ġ19 13
Ph one
ĠWes tern
ĠE lemente
ĠMain z
Ġitalien ischer
L iste
ĠS em
ĠA N
ĠT anz
ĠL ind
iert es
Ġus es
ĠOr dens
ĠFor um
Ġplay ed
Ġcor rect
ĠVo gel
J e
č ĊĠĠĠĠĠĠĠĠĠĠĠĠĠĠĠĠĠĠĠ
at ives
st he
ĠP ot
Ġto wards
Ġl ack
ĠIn halt
Ġso c
Ġsel ber
ĠMark eting
h te
Ġw ert
ov en
ĠQu al
Met adata
Ġitalien ischen
Ġbud get
Ġs ym
or b
us te
ro ck
Ġfor get
ĠBe f
ĠFrÃ¼h jahr
Ġwr ong
A X
is Debug
Ġs icht
ĠM aur
ĠT ok
ein s
Ġge tr
Ġge zeigt
ĠLe e
ĠAut ob
200 6
Ġav oid
ĠSer ies
ĠG ru
ĠSp aÃŁ
Ġ6 00
app er
ĠSh op
ĠChe f
FA ULT
ĠSim on
Chr ist
ĠB ran
Ġge mÃ¤ÃŁ
ĠEin heit
Ġdis k
leg ten
ous ly
Ġwind ow
P ass
Ġw uchs
stra hl
ĠEurop Ã¤ischen
200 8
ĠApp le
Ġtre ffen
ĠLauf e
Ġbestimm te
L abel
o z
w riter
Ġl es
ĠV iele
ĠVor aus
fr iend
Ã¤us ern
Ġerweit ert
k arten
Ġge gebenen
Ġunderstand ing
ĠSchla f
j i
Ġm iddle
ĠB aus
Ġn amed
Ã¼n sch
Ġir gend
R ow
im it
ĠF ro
Ġle itete
Ġch urch
Ġ4 2
ĠAuf grund
Ġentw eder
r ik
Ġs em
ĠH oll
est ra
In valid
uss ion
ĠCh ild
(" \
Ġview s
Ġbeh av
B et
D en
U I
W eitere
b ungen
ĠB ibliothek
ĠH ab
Ġr ich
ĠVer lauf
act ive
br Ã¼cke
Sch weiz
ipp s
zÃ¼ ge
zus tellen
ĠÃ¤hn lich
ĠElis abeth
Ġ ðŁ
Ġde gree
Ġass ess
stru ktion
Ġown ers
Ġtrans fer
Ġocc ur
at te
Ã¼ mer
ĠRe fer
be wegung
ĠTh Ã¼r
mann s
ĠChr on
arl ier
ĠhÃ¶ch sten
ĠFlugh afen
w aren
al te
Ġf Ã¤llt
ĠG olf
ed ition
ĠH ig
Ġcreat ive
tempor ary
b ibliothek
j ava
l ar
Ġt Ã¼rk
re f
ĠS tell
ĠL ight
lo ok
ĠAus druck
Ġad vert
ĠUnivers itÃ¤ts
ĠAd am
Ġrepor ts
Ġaff ord
ĠE ffe
ĠH Ã¤user
lan de
schul en
g Ã¼lt
Ġb atter
ĠK ron
Ġent ity
ign ment
ĠFahr zeuge
ĠD rit
ĠH istory
Ġer kennen
Ġaus geb
Ġwir kte
ĠSie ger
ĠEn gel
Ġar gs
200 4
ĠL ord
ĠVer anstaltung
bar a
âĢĿ ,
U ID
Ã ¥
Ġ6 4
Ã¤hl ten
ĠAnd roid
fass te
Ġsogen annte
F in
c ise
ĠS ituation
ro te
st ern
ĠJahr zehn
Ġflo at
F unction
c s
j en
ĠW ohl
Ġstr ess
N et
ĠS dk
ĠIn gen
Ġhe at
kl us
W ind
ĠJ ava
eiter te
ĠDeutschland s
urs day
Ġschw ar
Ġmov ing
r ick
on ien
Ġs av
ut ing
ĠT el
Ġbe ob
Ġdar gestellt
Ġamer ikanischen
Ġill ustr
Ġthous ands
A dresse
Ġ q
Ġt emplate
ĠZw eit
ĠWor ks
stit ution
ĠCent re
A ct
il ian
ĠD ialog
Ġaus ger
Ver Ã¶ffentlich
ĠBes atz
Ġgef Ã¤hr
ĠBÃ¼ ro
ĠGrÃ¼n den
' :
ir ge
ver treten
Ġver schw
Ġr ights
omm ern
Ġgen annten
Ġsho pping
ĠStr ateg
ĠProdukt ions
Ġerhe b
ĠEre ign
< >();
H L
ĠM ission
ill on
Ġgr and
b aus
ĠA u
ĠR ose
Ġj ud
Ġit er
Ġab geschlossen
ĠUn der
ĠÃ¼ber haupt
ĠSp orts
ick e
son sten
arch iv
ĠInst rument
kon om
Ġbro ad
J an
ĠS au
Ġl ands
Ġ19 12
Ġres olution
Ġber Ã¼hm
Ġe le
ĠU t
mer ksam
IN E
aj a
Ġmot or
Ġdig it
b aden
f abrik
k urs
lin ien
ĠBundes liga
Ġbott om
k omm
Ġd etail
an er
Ġe yes
Ġn ation
ĠM ah
ĠEr de
Ġent gegen
Par ent
Ġstar tete
ĠSib Tr
ļ Ń
ĠK urt
ĠIn halte
af ft
Ġpre vent
Ġhin gegen
Ġkein er
ĠKÃ¼ che
ĠVir gin
ĠÃĸffentlich keit
ĠSdk ClientException
p ool
ĠD B
ten ance
ĠL au
ER R
Ġheut ige
ĠTro tz
or age
ĠB ang
ĠD auer
ran ce
The ater
bÃ¼ cher
F uture
e hm
ic ations
ĠEr b
Ġcon ven
Ġserv e
ĠHein z
ĠK urs
wei ÃŁ
ĠArchite kten
Ġelekt r
Ġg uarante
Ġde ad
Ã¤hr ung
Ġtra de
upp en
Ġmay be
Che ck
ĠJac ob
Ġre ich
ĠDaten bank
Ã¤m lich
h aps
or ient
ho fen
mit ted
b ad
i ot
re in
he bung
Ġf ein
ĠM Ã¶n
ig an
ĠDate i
f alt
ĠW Ã¼rz
Ġl esen
og a
ly wood
Ġcon trib
ĠFor men
ĠBr asil
ĠDevelop ment
b ruck
} ,
Ġn um
ĠM ol
Ġse lected
Ġoffer ed
ĠGeburt stag
G en
f ind
re ci
ĠDaten schutz
Ġassoci ated
D ocument
E Class
k g
l v
sch m
Ġg ingen
Ġzu erst
ĠSommers piele
ĠK el
Ġres erv
Ġmein em
Exec ution
ĠN omin
ay a
Ġest ate
wor ks
Ġbeginn ing
e ben
Ġw ife
Ġl ines
ĠIn dex
ĠFre izeit
Ġpol ice
Ġconne ct
Ġ4 4
200 7
Ġclass ic
ĠZentr al
|| (
Ġal bum
os ite
Ġtr uly
tens ion
Ġnumber s
Ġsle ep
A re
Ġk ommun
ag ra
Pro ject
ĠTeil en
Ġra ce
Ġstrateg y
u ern
Ã¤ b
ĠP enn
ĠK amera
ra ys
Ġr Ã¼ck
se ud
onn a
f lo
Ġan erk
ic ing
ow l
ack en
Ã¤r ke
ĠGra d
ĠSchw eden
arb on
setz ungen
Ġoper ation
ĠbeschÃ¤ft igt
V ol
Ġ Î
Ġt ransp
Ġf ight
Ġpro pos
Ġbet rug
Ġacc omp
ĠDire ctor
ouver ne
B el
ĠT uesday
ann a
ĠSch ritt
elt a
Ġclass es
++ ;
Ġess ential
Ġausgest attet
Ġeinger ichtet
ĠF un
Ġdes crib
ĠVer antwort
fl ow
Ġcour t
V e
m Ã¼hle
ĠS inn
Ġf al
ĠM ake
ĠP en
ĠE ind
Ġpro ced
Ġex press
ĠSalz burg
D isk
T S
ion e
ĠM ov
ic ine
Ġ8 00
ĠTra um
roll en
ĠPap ier
N ord
O lymp
af el
lic ken
ĠÃ ī
Ġsupp ly
Ġg ave
ce ed
ock ey
De cl
Ã¶ff nung
ĠTeil nahme
Ġsc ient
ĠsÃ¼d lichen
Ġbeein fl
h orn
ĠP age
Ġim ag
ill y
Ġchange d
ĠÃ¼br igen
ĠGust av
ĠS av
Ġm iles
ĠKon zept
reg ion
fang s
Ġcol ors
Ġtrans form
afr ika
ĠTe le
akt or
ĠStra f
ĠErz bischof
ĠDeb Ã¼t
famil ie
k in
ĠB ett
ĠAn frage
Ġsp irit
Ġstud ies
Ġverb ess
Ġmet al
ĠSon ne
H ome
I R
P O
t um
Ġt ips
ĠS up
Ġf arm
ĠK amer
Ġl ots
Ġst ates
sp er
ĠAus land
sk y
ĠÃľ berg
Er baut
Al bum
ĠGroÃŁ e
Ġhigh est
ĠAfr ica
mÃ¶glichkeit en
ĠLeop old
H ash
ĠB ab
ĠR ay
ne e
ug in
zug s
latt form
Pat tern
Ċ ĊĠĠĠĠĠĠĠĠĠĠĠĠĠĠĠĠĠĠĠ
Ġth read
iz enz
je w
Ġco ffe
stand en
Ġdefinit ely
b ell
as ks
st Ã¤tten
em por
ĠL ook
ste iger
ĠPro z
Ġsp ent
leg ant
ĠNord rhein
ĠH ub
ĠC orn
Ġle er
Ġ190 8
omb in
ĠSicher heits
wes ome
Ġleb ten
ĠFÃ¶rder ung
is a
Ġs ucht
ent in
sch loss
Ġr ates
ix el
ĠFil me
E W
w arn
st uhl
ĠL ED
ĠZ ent
ak ed
Ġwe ib
ĠHe ad
icher ungs
ĠChar l
Ġdev ices
ĠrÃ¶m isch
M en
M essages
ĠP unkten
Ġz Ã¤hlen
ĠIn ner
Ġ/ *
Ġweit gehend
!! !
ĠnÃ¤ch ste
Ġelect ric
britann ien
Ġ( ,
ĠH it
ĠH ell
ĠC ho
Ġbek annte
Ġ190 7
Ġchar ge
ĠFrancis co
p an
ar ische
Ġc ast
ĠK iel
ĠTh ursday
val u
ĠZug ang
F ra
ĠB ir
Ġres pect
ser ver
Ġset s
ĠFil ms
haf te
Ġded icated
c la
f ilter
es is
ĠE ach
ĠW ag
ĠN ode
ĠPr esse
Ġmen sch
Ġjob s
ĠOper ation
ĠT hr
Ã¶ pf
erk l
Ġdire ctor
wend ungen
ĠPre ise
ĠArchite kt
nes day
Ġtats Ã¤chlich
r as
Ġt ried
ĠC ustom
if ik
Ġst Ã¤r
ĠZ ahn
gr enze
ke i
Ġerw arb
Ġart ist
m ag
Ã¼ ne
ĠA ccess
ĠB rown
ro at
Ġh op
os a
De p
ĠKon zer
Ġerst re
ĠIntern al
ĠCol umb
ĠComm ission
ĠImm obil
Ġinfl uen
g ot
ĠP ersÃ¶n
ab teilung
ĊĠĠĠĠĠĠĠĠĠĠĠĠĠĠĠĠĠĠĠĠĠĠĠĠĠĠĠĠĠĠĠĠ ĠĠĠ
Des criptor
Ġcent ury
Ġin f
ĠE C
ĠH as
ĠV ideos
qu es
du ard
ĠTh anks
ĠAuf stieg
bl Ã¤tter
augh ter
Ġl Ã¶
Ġk auf
ĠEr satz
ĠEin ige
ĠÃ¶sterreich ischen
Ġunterschied liche
Ġs ituation
Ġm ission
st on
Ġn Ã¤mlich
ĠH orn
au d
Ġsp richt
Ġfe hl
Ã¤l de
por ts
ĠFound ation
c are
Ġ Ã¶ffentlich
Ġ uk
ĠH ttp
Ġadv ice
L ock
Ġd auer
Ġt ief
Ġw ants
le hr
Ġsch reiben
ry pt
ĠBr ig
Par ams
Ġpass ion
ĠBereich en
Q ue
T C
re c
ĠF ire
Ġk Ã¼nstler
ru he
Ġbo y
gra de
Ġpop ul
Ġadv ant
Ġimmed iately
or dens
Ġin sp
ing u
ĠP oint
ĠLe vel
ast ian
hÃ¶r den
Ġben utzt
ĠRÃ¼ck en
Ġcap ital
ĠElekt ro
S he
z in
ĠL ib
ĠMet hoden
Ġunterschied lich
Ġdeter min
Ġf em
ers ey
lin der
ĠNe uen
ĠSchwer punkt
merk ungen
Å Ļ
ĠH afen
Ã¶ ÃŁen
Ġre levant
ug u
lic e
ĠGes ell
ĠAd els
ennt nisse
Ġappro pr
ĠBund est
V P
g on
ĠA rab
ĠF alls
urn ier
ĠUnter nehmer
Ã© r
ĠPl us
Ġrespons ible
at re
ĠV ari
Ġge kommen
set s
ĠKap it
ĠSam stag
M ember
t arget
ĠG lobal
ĠR ab
ĠL am
ab elle
ĠRe port
Ġex er
ĠÃ¼ber geben
ĠAb schnitt
ĠY oung
ĠFl Ã¼cht
Ġob serv
ĠFig ur
Ġm is
ĠB lo
ĠB row
Ġp ush
Ġc ash
Ġsol id
Ġfriend ly
in det
st Ã¼cke
Ġwes entlich
Ġcoffe e
d b
Ġa cadem
ar ia
ost on
wahl en
ĠfrÃ¼her en
Ġpress ure
Ġcoll abor
I F
L a
Ġf ill
ĠN ote
Ġwas n
ĠÃ Ĺ
Ġweiter es
Ġdah in
m ail
el or
ĠG ame
ĊĠĠĠĠĠĠĠĠĠĠĠĠĠĠĠĠ ĠĠĠĠ
io de
Ġges pe
Ġhelp ing
ĠInternational en
ĠVerÃ¶ffentlich ung
Ġextrem ely
ĠMicro soft
ĠS ab
Ġh a
id den
ĠSch on
Ġemploy ees
D on
g Ã¤nge
re hens
al em
ĠP ack
Ġfe et
ĠKon fl
m t
n etz
r Ã¼ck
z ur
ĠM ir
ĠP rag
ĠFl Ã¼gel
Ġ190 6
ĠĊĊ ĠĊ
ĠLin ien
ĠBre ite
Ġpower ful
P lan
ĠA M
ĠT Ã¼b
get Key
Ġcon cept
ĠWe ge
ĠFre unde
Ġbeaut y
Ã¼st ung
b lock
k re
ĠG ames
ĠBe teil
Ġif c
Ġengl ischen
Ġd Ã¤n
Ġd ienen
rom e
tra gs
Par ameters
ĠKomb ination
D ialog
Ġf ahren
ĠT imes
Ġre li
ho ff
wer den
ĠSchl uss
Ġmult i
ĠMuse ums
Ã¤ st
ap el
ĠPr im
Ġze igte
Ġprogr amm
ĠEd el
b al
c opy
m es
t yp
Ġm il
Ġp aid
Ġc amera
ĠK athol
ĠAn griff
Ġro b
ĠReg ister
geord net
Ġstra ight
ĠRe view
ĠThe odor
is ierten
ĠP od
ĠVer hÃ¤ltnis
rÃ¤ ft
Thre ad
Ġgleichnam igen
W as
m ack
it is
Ġf amous
ro y
ĠD ra
ĠC H
and om
ĠBe ck
Ġprov ider
Ġhund red
Ġdise ase
W idth
Ġc op
ĠT rieb
ĠK andid
Ġ4 6
ĠFor st
Ġfin ished
fÃ¼hr en
Ġwel come
Par ser
ĠIs lam
lÃ¤nd ischen
j ob
ter m
Ġg olden
Ġer stellt
omm od
ĠTe lefon
Ġbel ie
ĠmÃ¶glich st
gra f
Ġs um
ĠD aher
im ens
ĠW ay
Ġre ference
wirk ungen
g reg
n icht
ar ray
ig ger
Ã¶ tz
ov a
Ġme as
gesch rieben
ĠGes am
Ġsur face
KE Y
Iter ator
B i
ur ts
Ġer b
ĠJ Ã¼rgen
ĠO R
rie chen
Ã¤r ung
stell ungs
Ġeinge fÃ¼hrt
ĠTod es
ĠFranz Ã¶s
Ġfield s
Ġbro ught
ĠPfarr er
S yn
z ust
Ã Ĺ
Ġ19 17
Ġsp rach
ĠEnts te
Ġbe in
ver ter
ĠIn fanter
Ġlie f
Ġeconom ic
igr ation
Ġsynchron ized
" :
u an
ĠA gr
Ġc lin
ĠK en
ach te
let te
Ġeigen stÃ¤nd
ĠStr and
Ser ie
Ġdist ance
Ġruss ischen
Ġinnov ative
Z w
t ml
or ganisation
ĠS ig
Ġv ict
ĠSch lieÃŁ
ĠSp re
sh ot
J son
ĠB an
ĠP S
ĠK ore
ĠW ett
sen z
ip fel
Ġapp reci
ĠgroÃŁ es
ĠBundes republik
Inter face
rÃ¤n k
ĠpersÃ¶n lichen
Ġregard ing
fur ter
D ollar
Ġv ierten
ĠF ord
Ġl isted
Ġcon vert
auf trag
Ġcan cer
teil s
Ġger ing
Ġeffe cts
Loc ation
sc ar
Ġmean ing
ĠTw itter
> ,
ent um
ĠE bene
ĠAngeb ote
ĠJournal ist
Ġbesonder en
ĠP ed
ĠV ar
gel t
Ġ190 9
Ġeff ort
zÃ¼ glich
Ġestabl ished
A F
ĠM P
ĠF ein
ĠW alk
Ġre icht
Ġver gangenen
Ġun er
Ġvor bei
Ġber uf
Ġprodu z
Ġschw ier
Ġatt ack
hy th
ĠRestaur ant
c ious
Ã º
er em
it em
all er
Ã¶r ter
Ġsh ared
ron om
Ġgu ys
ĠKommun ikation
m aschinen
Ġf elt
ĠB ier
ĠD J
ĠFre itag
Dies er
ĠSong s
e vent
En g
alen der
unn el
isDebug Enabled
ĠLe iden
ĠAl pen
ĠChr is
ĠSÃ¼d westen
Ġappro x
n ing
ĠB ob
ĠP ir
Ġre ader
ind ustrie
Ã¤n em
ĠBe ide
ip es
ĠEn s
Ġbek ommt
ĠPublik um
ĠNik ol
Ġphil osoph
T emplate
ĠS ir
Ã¼ p
Ġge plan
ĠSch iffe
Ġsh ape
urf Ã¼r
ĠRhein land
f Ã¤ll
s ource
en kt
Ġf ans
Ã¼ ÃŁ
wer ken
20 19
Ġact ual
Ġserv ed
spe kt
Ġlo an
ĠK ard
Ġr ent
Ġphot ograph
ĠFlug zeug
ĠK affe
ath on
liegen den
p ite
Ñ ģ
ar p
ĠD adurch
ĠG ang
ĠE ven
ĠH aw
Ġg ran
Ġer laubt
gr enzen
ĠHe ft
Ġber ichtet
ĠPr iester
Ġbas is
Ġret ail
ĠIns gesamt
Ġpie ces
ĠWilli ams
M ult
ach tet
iv als
os is
ahr t
co very
ĠTer min
Ġredu ce
Ġclean ing
" ));
Ġm ut
ol o
ĠC oll
ĊĠĠĠĠĠĠĠĠĠĠĠĠĠĠĠĠ Ġ
ĠMan y
Ġchar acters
Ġober en
ĠHeraus geber
ĠWed nesday
ch ern
Ġh ast
Me asure
Ġincre d
Ġerm Ã¶
Ġteach ing
ĠMos kau
B ody
H o
ĠS tellung
ro ugh
ĠH ug
Ġl abel
gen Ã¶ss
Ġse ch
Ġvor gesehen
IN T
ĠEx ec
por ation
At om
Ġh us
ic ul
ĠN ight
ĠV alley
Ġim press
ĠO ther
ĠAn y
Ã¤n ner
ĠMit arbeit
Ġbes itzen
Ġfeel ing
ĠGest altung
Aug ust
ĠG reg
ĠR uf
ir ing
Ġl ern
row able
ĠHand buch
Ġbrit ische
wÃ¤r t
ĠKomm ission
D ar
O K
an en
ĠF air
Ġsch affen
lat ed
Ġvers ehen
Ġincre asing
Ġturn ed
P AR
g au
n t
r iss
v y
ĠM isch
ĠE qu
Ġ19 15
sen s
Ġbeg onnen
c ount
Ġ util
Ġs orgen
ĠS ystems
ĠD iv
Ġj ourney
ĠAl ters
ĠWe imar
ĠEurop ameister
Ġprofession als
ĠHers tellung
F inal
T P
t y
t ree
ol es
ĠW M
ĠH ot
ĠIn nov
Ġsch Ã¶ne
Ġ4 9
Ġstand en
Ġtechn ical
Ġeas ier
ĠGew icht
Ġfac ilities
ĠThe orie
Ġlin ken
bre ak
ĠKass el
c u
n g
Ñ Ĥ
Ġf allen
ĠD ichter
Ġc ategory
ĠOr der
ĠGr Ã¤
Ġsc ale
Ð¾ Ð
prÃ¼ ft
Ġb ess
ĠB ord
ĠC ra
Ġsh own
int on
Ġacc ur
ĠFernse hen
ĠNieders achsen
Ġn amens
ĠH immel
we ge
Ġman ager
ĠFe hl
ex ec
Ġ189 0
ĠTechn ology
low ake
Ġexec ute
lÃ¤ss lich
P ost
Ġd ank
Ġb la
ĠW a
ĠL uf
Ġwe ist
ĠMark en
kathol ischer
c en
Ġs org
Ã¼r en
ĠRe public
get Type
ĠUn garn
ĠPro te
Ġpar ameters
čĊĉĉ ĉĉ
Ġ190 2
__ __
Ġmot iv
Ġswe et
l ation
Ġf rag
ol en
ĠR oss
aus stellung
ĠAuf ent
hÃ¶r igen
Ġel f
Ġallow ed
ĠOx ford
Ġa im
Ġw ebs
hÃ¶r de
Ġprodu ce
Ġuse ful
Ġ190 5
ĠEm il
Ġprote ction
ĠMaÃŁ nahmen
N or
k rit
p o
v ice
z te
Â ´
Ġ ueber
us en
ĠW ho
Ġle it
wer ten
Ġ5 2
gew and
Ġmon itor
Ġexist iert
Ġinvest ment
ĠCas ino
Ġstre et
M ich
ch ung
Ġs uffer
ĠC ert
Ã¼n det
Ġman age
atur ing
Ġ190 1
ĠGener ation
leb nis
Ġverst Ã¤r
But ton
fÃ¤l le
G o
â Ħ
er te
ĠL as
ĠC at
ĠN ap
Ġr ules
ub a
ĠPe ople
Ġend gÃ¼lt
Ġol der
f it
h aben
Ġa f
Ġf an
sch le
ĠL ar
ĠBu ild
Ġchallen ge
Ġh off
ĠP M
ĠF ull
Ġinter ior
Ġpay ment
wh ile
Ġbenef it
B est
F unktion
S cript
ie den
ol z
Ġne arly
Ġrem ote
ĠJo achim
ĠErw eiter
Ġeinzel ne
ĠermÃ¶ glichen
K urz
K lasse
is her
Ġin ternal
ic ious
ĠK up
ĠLand schaft
Ġshe l
Ġmem ory
C P
D u
Ġf ish
Ġn Ã¶t
ĠW ord
ĠH eb
ĠOr ient
Con stra
ĠKon gress
Ġprodu ced
ĠNord westen
Ġdi agn
ĠGerman y
ol i
ĠR oh
Ġst opp
yl van
Warn ings
v orsitzen
ĠD etails
tr Ã¤t
Ġcon ference
Ġange legt
Ġopen ing
> <
s ing
Ġw and
Ġb ag
Ġqu al
ĠAd el
c raft
e ch
k ow
Ġf ather
Ġth ank
ster dam
Ġgo als
man agement
Ġcom ments
ĠDurch messer
m eldung
Ã ĥ
is piele
Ġc old
ĠK op
et ze
ak i
Ġme asure
ath an
Ġdr ink
ĠZahl en
ĠbenÃ¶t igt
z iger
ĠR ub
() ).
ĠQu er
Ġs up
Ġan hand
Ġc ars
ĠH aar
ĠN un
Ġben ach
ur st
Ġsp rechen
Ġthan ks
u ellen
v ollen
is at
it ors
ar ator
le hre
Ġ1 10
ann ed
Ġfor der
Ġcon stant
Ġent steht
Ġvor aus
enn fahrer
ĠVers uch
Ġentwick eln
ĠCont in
if el
Ġent sp
ĠVor gÃ¤nger
Ġgew Ã¤hr
rat es
ĠBundes staat
Ġincre ased
Ġsay ing
Ġmoder ne
Supp ress
ste uer
Ġum ben
200 3
Ġstell vertreten
lev ision
b ury
Ġs rc
Ġh ers
Ġ4 3
Th ese
ĠX ML
ĠProdu zent
Ġ190 3
Ġcontin u
ĠJur ist
ĠCarol ina
H istor
Ġd rop
âĢ ¢
ĠE duard
ĠThe ologe
ĠPro jekte
form ance
teil ungen
ĠMar i
ĠHer bert
ĠZeit raum
Ġsec ure
ĠMittel alter
p et
Ì Ī
st rom
ĠK lassen
Ġi Phone
ĠzurÃ¼ck ge
ĠErw achsen
Ġdest ination
N r
c al
l ife
Ã¶ d
Ã¼r f
aus gabe
iz z
gest altung
ĠMark e
Field s
Ġhig hl
H aus
S ign
ed ig
ru pt
ĠEin richtung
Ġad vanced
hin dern
Ġp air
ĠG le
ĠG ymnasium
pro cess
Er ster
alb um
Ġnah men
n um
t ok
Ġs amm
Ġb uf
Ã¶ die
Ġzum indest
ĠGra z
Ġmax im
Ġwest lichen
untime Exception
M o
in ken
Ġs itu
or fen
ir urg
Ġge ist
Ġr um
Ġob j
Stat ement
k rieg
Ġab gerufen
ĠBer icht
Ã¤nd igen
Ġdenn och
Ġrad io
ĠBayer ischen
č ĊĠĠĠĠĠĠĠĠĠĠĠĠĠĠĠĠĠĠĠĠĠĠĠ
st ock
ce p
auf hin
br and
Ġdr iving
ĠnÃ¶rd lichen
v ents
Ġd eine
Ġt ruck
at ik
Ġm icro
Ġm Ã¤nn
ĠM ode
ĠM ike
Ġl ernen
qu ery
up date
iter ator
wei ht
Ġda ÃŁ
ĠGroÃŁ britannien
ĠNord osten
ĠFÃ¼r sten
. /
m essage
m aschine
w uchs
Ġt ritt
ĠP ath
ĠC ost
we il
ap ers
ss on
ĠFran ken
con text
Ġgra de
gangen heit
Group Name
Ġcompon ent
ĠBenutz er
k Ã¼nd
Ġto ken
ĠV aters
ĠO der
Ġpres ented
Me ister
Ã¤nem ark
H aupt
ĠM Ã¤r
ol er
ĠT sch
fre und
bere cht
Besch reibung
Ġa ward
Ġn utz
cy cl
Ġhistor ische
ĠNet work
ĠBek annt
M W
M ot
W erk
k unst
ian ischen
Ġbet rieb
fÃ¼hr ten
ĠKon rad
fÃ¼ gt
ĠFr Ã¼
Ġentsprechen de
x x
ar ily
st al
Ġcon vers
Te chn
Ġprote ct
Inter ior
ĠPfarr kirche
Ġgemeins amen
ĠLeicht athlet
P ool
R ange
b uffer
Ġw inter
ĠR ail
Ġbe yond
Ġre chten
ann ter
ĠBe wohner
sche idet
Ġover all
gestell ten
ro ad
ro chen
ĠH em
Ġdem and
Ġex pression
Ġeven ing
ĠComm ittee
ĠEhe frau
Polit iker
O W
v i
Ġ ut
ĠM und
ĠP y
ĠJ ones
Ġr ank
ĠAn spruch
ĠGesch ichten
Ġexper ts
ĠSÃ¼d osten
Ã¤tz lich
Ġprote cted
Pre fix
J ul
r ical
s st
s ichts
al tete
us sen
ĠK ong
ein anders
Ġfor ce
her zog
ĠOber st
Ġtop ic
stant in
G u
a ber
r asch
it o
he ute
ĠJ agd
sp ace
Ġhe im
quire d
It alien
Ġkur zen
G E
or i
re y
ĠF Ã¤llen
ic ien
ĠC lin
ĠJ ed
ĠAn ne
ite ktur
Ġtr ust
Ġ190 4
lam ents
B ad
h Ã¤nger
in zen
Ġc e
ĠN ahr
Ġwh ose
Ġ189 9
ĠTÃ¼b ingen
ĠM ak
ol ar
ĠK Ã¼nst
Ġhe avy
ĠSpiel tag
ĠBo olean
ĠGer icht
ĠÃľber setzung
Ġmov ed
n or
w is
le ft
Ġm ode
ent ur
ĠF ood
ĠL abor
ir n
ĠAn forderungen
ĠBe ob
Ġ4 1
ĠGemein der
Un d
ĠEx empl
Er st
Hel per
ĠIn itiative
value Of
ĠHistor iker
Unter nehmen
ĠSec urity
Ġc ache
ĠAn ders
ĠIm age
bau er
reg ister
Ġexc ited
Ġsen ior
Jahrhund ert
on i
Ġe arlier
Ġc at
ĠF ootball
ot ional
ste dt
ĠUn abhÃ¤ng
Ġstr ug
Ġaustr al
4 00
B Ã¼rger
Ġt it
Ġre asons
In ternal
ĠBar bara
hard t
ĠFrei heit
L C
c ard
s b
Ġa head
Ġk ulture
ĠBe ziehung
ĠAug sburg
uz z
Ġgu ests
Ġ189 8
Ad d
Ġauth ent
ĠL ag
if iziert
ĠQu elle
hand el
Ġfind ing
ĠSc iences
ĠGed anken
Ġeff icient
L age
P res
W el
sch ne
ĠN a
Ġj ur
Ġse ven
Ġverb reitet
200 1
ĠMot iv
Ġoper ations
ĠEigen schaften
N LS
Ġal ter
tr an
Ġch annel
De c
Ch annel
legen heit
Ġs cre
Ġs Ã¤m
Ġw achsen
us es
Ġwe chs
je ction
ĠPar ameter
Ġet abl
Ġcomm and
IT Y
ungsp ro
v as
as ts
Ġm sg
ĠI ter
ph y
Ġacc ommod
ĠFamil y
ĠArch Ã¤
ordin ate
Ġnahe zu
ĠPrinz ip
ĠtÃ¤ glich
Ġcoun ter
Ġann ot
Ġfact ory
ĠRei hen
mitt lung
ĠCD U
Ġclos ed
Z E
Ġd ining
ĠL abel
Ġ19 16
ĠPr iv
Ġdam age
Ġdiffer ence
ĠAlex and
ĠMil ch
ĠPortug al
Sett ings
h art
Ġb ot
Ġe at
el ess
Ġn ut
pr Ã¼fung
Ã© n
Ġreg istr
mar sch
Inst it
Ġerz Ã¤hlt
Ġrestaur ant
D AP
T erm
k ultur
ĠA S
ĠF Ã¤h
ĠG lauben
ĠJ a
Ġde cl
ell i
ĠLand tags
Ġpar allel
Reg ion
ĠTemp el
ch ip
ĠB ase
ab end
Be vÃ¶lker
ikan ischer
ĠHash Map
p asst
ĠB itte
ĠK y
Ġge z
Ġde lete
Ġus w
Ġdr iver
B erg
P R
Å «
in stit
Ã¤ ure
Ġp al
ĠAl k
ph a
ĠMe cklenburg
yd ney
Ġnotwend ig
C ur
Ġf le
ĠP red
ĠR ena
ĠC ur
Ġmit einander
ĠVer letz
wer ben
Ġ/ >
Ġqu e
âĦ ¢
Suppress Warnings
I FC
P olitik
c os
u ters
Ġw ine
ĠM ord
ĠW Ã¤r
Ġver ur
Ġat tempt
Welt meisterschaft
ĠBrÃ¼ der
H ost
k la
w ater
ĠB ade
ĠP ast
ĠL ittle
Ġte ams
Ġber ufen
Ġcor ner
Ġcover ed
C ar
ie fen
art igen
ĠVer gangenheit
zeit ung
ĠAm sterdam
Ver kehr
Ġho her
Ġerh ielten
Col or
ĠRund funk
ĠChin ese
kra ine
F ahr
ĠK a
ĠH ospital
ĠC ru
ĠN ar
Ġse cret
ĠLe ute
Ġste ps
ĠStra ÃŁ
Ġcommun ication
r in
Ã «
Ġm aÃŁ
kt ar
ĠDe ck
ĠAm b
Ġbil dete
Ġklass ischen
ĠSÃ¶ hne
ing t
ĠM id
ĠM atch
aus schuss
Ġsch reibt
ĠBr enn
bo olean
omot ive
un a
ĠT ob
Ã¶ se
ĠBe weg
Ġbeg innen
Ġaut o
deutsch e
C C
D own
c ons
Ġn Ã¤her
ol ogen
ĠK art
ĠN ick
ein heit
ĠBes itzer
Ġend lich
n ischen
ĠD al
ĠK ab
ate ver
ĠWe il
200 2
ĠIf c
ĠWeltk riegs
ĠMax im
ĠÃ¤ uÃŁ
ĠIll ustr
Ġvo ice
F O
d d
ĠT ax
Ġhe ight
ĠLe arn
Ã¼t ze
ĠInd ivid
ĠfÃ¼hr ten
Ġcas ino
Ġwebs ites
em ed
ĠR ollen
Ġauf gebaut
ĠAn lagen
ub il
ĠUn sere
... )
ĠRÃ¼ck kehr
Ġcompet ition
B E
ĠA ction
ĠN och
Ġtechn iques
M O
ĠK anz
ĠH um
Ġg ather
ad ing
ĠEr ich
fe ct
Ġ// $
Ġlie be
Ġstand ards
ĠKranken haus
prÃ¤sent anten
Ġcontra ct
Ġhus band
ylvan ia
p ot
en ken
Ã¼ gt
ĠF lag
Ġge plant
Ġdem onstr
Ġj ung
ĠVer dienst
ĠSp rachen
ĠGer Ã¤te
uck s
ĠSchl Ã¼ssel
Ġstark en
Ġtalk ing
Ġnumer ous
ĠVirgin ia
C urrent
Ġv ision
Ġk new
Ġpar ams
ĠHoch schullehrer
Ġbig gest
Ġland wirtschaft
ĠGeist licher
ouverne ur
i ÃŁe
le bt
ĠT wo
Ġer hoben
Ġpro ud
ĠEr folge
ri age
Ã¤ng nis
ĠNetz werk
Ġchallen ges
reu ung
J uni
N ov
W R
b und
t able
Ġf ailed
Ġgeb ildet
ĠHaus es
Ġprof ile
ĠTer r
ĠWeiter en
Ġoffiziel l
ĠL ot
ĠSan kt
ĠTod ay
ĠSchn ell
Ġrelig i
Ġnomin iert
d on
w Ã¤l
ĠS af
il de
ĠD ist
ĠD inge
am i
la y
fÃ¼hr te
Ġupd ated
histor iker
Ġerinn ert
w all
Ã¤ ÃŁ
id ae
Ġfor ms
ĠSp itzen
ĠOr chester
Ġsol chen
ĠSer ien
ĠCont ent
Ġlov ely
beding t
L iter
g yp
k ern
o ul
ich ern
ĠF ur
tr ast
mal er
Ġcont ain
kauf t
ĠDort mund
ĠZwe ck
ĠTenn is
V ar
e f
Ġs orgt
Ġh Ã¤tten
ĠL en
ĠInstit ution
ĠEngine ering
' ,
) {
M ore
ĠA dr
ĠB io
im b
ĠK redit
ĠC av
ier end
ĠIn formations
ĠAb itur
irt y
Sch riften
ĠDarm stadt
d auer
r aten
ur ers
ĠIn frastruktur
ator ium
ession al
Ġzie hen
rehens ive
I gn
ch o
Ġd ish
ĠA ster
Ġg rat
ĠU se
ĠZ erst
Ġme x
Ġbis lang
ĠEin richtungen
ĠOff ic
ĠTab ellen
ĠerhÃ¤lt lich
ĠgegrÃ¼n deten
Ġzunehmen d
ĠAntw ort
B re
C R
W E
w ing
Ġm ilitary
ĠK amp
eb all
ĠGe gner
ĠAuf lÃ¶sung
ĠVers and
Wh ile
AG E
ĠWÃ¼rz burg
A v
u um
on ne
ĠS ince
st ab
ĠT erm
Ġen dete
Er folge
so ap
grÃ¼n der
the EObject
CE SS
Ġaltern ative
ĠFak ult
D aten
a ill
ur o
ĠBe ziehungen
ĠGr enzen
Ġgen ug
ĠPf ar
ĠHo tels
Ġmax imum
ĠÃ¶ff entliche
') ||(
K l
t op
ĠB ell
Ġp ull
ust ain
ĠJan e
icher heit
ĠProf il
Ġpol y
Ġgest altet
ĠEntwick lungs
check ed
B ook
w ettbewerb
Ġin cor
Ġh ospital
im ents
ĠJ etzt
Ġ4 7
iss ance
gesch lagen
ĠJo e
ĠlÃ¤ uft
ĠImmobil ien
lowake i
" ).
. ).
a ctions
Ġs inn
ĠS oll
ol is
Ġk g
Ġdurch schnitt
Ġsh ot
Ġorgan izations
Ġdat abase
T ags
Ġa wesome
ĠT aschen
Ã¶ gel
ab ilities
Ġat tend
Ġ18 70
Ar g
haf ten
ĠGrÃ¼n der
rÃ¤n kt
Ġdefault Case
Ġrelations hips
ĠCam bridge
F il
c ore
an ded
Ġal though
... ]
ĠEnt fern
Ġaut om
denk male
ns bruck
Vari able
or gan
ce an
Ġman chmal
ĠMed ical
Ġcap acity
Ġwa iting
ĠViel zahl
Ġspeziel l
iw od
ĠZusch auer
k ore
ĠB oston
st il
ĠK rieges
ĠR ett
Ġbe ant
we ist
br Ã¼cken
Ġadd ing
produ ktion
ĠLex ikon
ĠB asketball
ist ischer
res ponse
cl ub
Ġsm ooth
lig isten
ĠAktiv itÃ¤ten
B as
W il
s ur
z um
z ern
al i
Ġthe EObject
et he
ed ikt
ĠH T
ĠR io
Ġl it
ĠV el
Ġj ournal
Un able
ex it
Ġdevelop ing
Ġpres ident
Ġinvest ig
Ġparticular ly
======== ========
ĠQualif ikation
L I
ĠK im
ĠSt ory
ĊĠĠĠĠĠĠĠĠ ĊĠĠĠĠĠĠĠ
ĠUn fall
Ã¤nd ige
ĠRelig ion
Ġneigh bor
ĠMatth ias
z ens
Ġt rifft
at om
Ġb urn
ĠP ac
ĠF ore
ra k
ĠC over
ang o
for mer
Ġex ter
ungs ver
ring t
ĠAus nahme
ĠOr tes
Ġpart ies
Ġident ify
Ġsepar ate
S H
ĠC A
Ġsp read
Ġur kund
AL L
Ġfollow ed
ĠbestÃ¤t igt
Ġal one
Ġunter sch
ob el
Ġsc en
ĠMet al
Ġopen ed
schlÃ¤ ge
ĠWies baden
ĠSowjet union
Ġt schech
le ute
Ġf ung
Ġin n
ĠD issertation
ow e
Ġauf gelÃ¶st
Ġviel fÃ¤lt
plat te
Ġf eder
ĠK anada
ĠL etz
ab geord
ĠAn f
ĠVerb esser
ĠBahn strecke
Ġsett ings
T ube
ch ild
ĠD iffer
Ġz er
ĠZ y
ĠLand tag
Ġtr ug
ĠCon ference
ograph ische
Se henswÃ¼rdigkeiten
lei hung
ĠEng agement
ape ut
ĠMc C
Ġautomat isch
Ġcrit ical
Ġrequ ires
ĠSchles wig
Ġ Ä
Ġw eder
ĠL ibrary
ĠC lick
ist ant
Ġun ge
Ġab geb
Ġpe ace
ĠLauf bahn
S ingle
b ahnen
Ġan c
ĠC os
Ġon to
Ġart ists
ĠMod elle
ĠHar ry
ĠOp ern
r ics
ĠA cker
Ġn ar
Ġh aven
ol s
Ġbe grenz
ik es
land es
Ġad vent
ĠPar laments
Ġinst ant
Ġmed izin
zie ht
Ġwicht igen
ĠPlat ten
Ġach ieve
plat ten
ĠBeding ungen
A kt
S B
ĠSt urm
ere ien
zeich nen
Ġverschieden er
ĠJack son
Ġcertain ly
Ġsong s
Ġappropr iate
es tern
an th
ĠM i
ĠE ich
Ġsch rift
Ġor g
fahr zeug
Id s
Ġpar ameter
Ġwel chem
Cont rol
ĠMik ro
z unehmen
it at
st ar
ĠM ie
ĠK Ã¼n
ĠW it
ot yp
ial s
Ġqu ant
ins on
Ġsc r
Ġeigen es
Ġpat ient
ÃŃ a
Ġkon zentr
ĠStÃ¤d ten
ĠVen edig
Dire ctory
d ach
ĠF inn
ĠE ber
Ġk os
ĠO pp
ĠO tt
art ig
ĠLe hre
Ġsc ene
Ġausge fÃ¼hrt
oin ted
ĠPre uÃŁen
riter ia
ziehungs weise
k u
Ġw rote
ĠH ay
ver anstaltung
Ġsh aring
Re chts
Ġpr incip
ĠHand ball
Ġletz ter
ĠJohn son
ĠKont rolle
ĠOl den
akte ur
Pf alz
ĠverfÃ¼g bar
M em
an ische
Ġb rach
Ġan gesehen
st atus
Ġr u
iz ont
âĢľ ).
Or ganisation
kehr t
Ġrem ain
or row
ar ina
te am
ĠB latt
ĠM obil
ed om
ĠSch ach
ĠVer st
Ġum geben
ĠFahr er
ĠMag de
aliforn ien
Pol icy
M I
d el
n itten
us alem
ĠT en
tr ich
Ġch ain
Ġ18 48
Ġres idents
ĠGr Ã¼nd
ĠIns eln
ĠJust iz
Ġinstall ation
ĠChem ie
s upp
Ã¤ ck
ĠT Ã¶ch
ĠJ ersey
ĠNach richt
čĊ čĊĠĠĠĠĠĠĠ
cel ona
Ġgelegen en
kur renz
C or
E P
W ert
wer tet
fe uer
En um
ais er
Ġop in
W or
b ay
s ylvania
ĠG it
ĠL eb
Ġ5 1
Ġar en
Ã© t
Te am
ĠInst all
Ġexc iting
has Next
Ġep is
3 00
P o
g red
Ã ł
Ġs ample
ĠT ief
iel le
Ġ18 80
formation en
part ments
ĠBÃ¼ hnen
ĠPre uÃŁ
ĠAfr ican
ĠNationalsozial ismus
Ġumben annt
Ġf lag
ĠM ut
Ġc it
ĠF ant
Ġg one
ĠV it
Ġis land
od urch
burg h
Ġdire ction
ĠDes halb
Ġsur pr
Ã¶rder ung
Ġhim self
Ġstark e
ĠRu h
ĠParte ien
Ġl ab
Ġby tes
ĠKl ima
Ġmin ute
Ġfre ien
ester day
ĠPrÃ¤sident en
Ġexpl ore
! )
F OR
R Ã¶m
ĠF ast
em ann
ess ed
kt op
ĠZ oll
Ġun gefÃ¤hr
pe ctive
ĠSe cret
ĠCh allen
Ġbest ritt
akt oren
Ġgre ater
LO W
log ger
B ere
M ain
k es
ĠI ts
cl es
ĠFrie den
Ġâ ļŃ
ĠGegen wart
ĠWar en
Ġbuy ing
Ġgemeins ame
D an
D ay
F low
J ust
w ich
ĠM auer
ĠD og
Ġbe handelt
ĠAr thur
ren cy
ST R
Ġart icles
schn itts
Met a
ube hÃ¶r
Ġstor es
ĠzusÃ¤tz liche
ĠSchne ider
Ġbill ion
S L
V I
l Ã¤nge
s ite
ĠB le
Ġh alb
im en
ĠL ern
Ġex pos
Ġra p
Ġexp and
Out putStream
omet ry
Ġneg ative
s berg
ol ge
ĠL it
ĠC op
ĠSt ream
ĠZ un
Ã¤r ten
Ġman ual
ans as
Be im
Ġgu y
ÃŃ n
sta aten
**** ****
N OT
Ġb auen
Ġf at
ĠM ajor
ĠC anad
Ġse a
zen e
upp er
ĠGesch ichts
acht ung
Ġmov ies
Ġgar ant
ĠOrd nung
Ġdoc uments
Ġsoc iety
L ook
r ate
ĠH Ã¶ch
ĠSch aden
Ġr ing
ĠKl im
ĠOb wohl
Ġ189 6
ĠBesch Ã¤ft
Ġzwe imal
S eine
ĠS ak
ap shot
Ġle aders
Ġsp ann
Ġte en
Ġdar aus
Ġsupp orted
Ġsur v
ĠMich el
Ġpop ulation
Ġtest ing
ĠTÃ¼r kei
Ġengine ering
ĠPier re
B it
J ohann
m inton
o ted
ĠV ie
gr iffe
ĠEin sch
Ġtra ffic
ĠMet rop
ĠBild hauer
ĠMex iko
Serv let
ĠObserv able
r amm
re ck
Ġb on
st anz
Ġbe ziehungsweise
ber icht
Ġaus ges
ĠEr ste
Ġsch lecht
Ġnach halt
ĠBer atung
Ġsc ore
grÃ¼n dung
Ġgener ally
Sp ace
ĠWeltk rieges
Ġvisit ors
ĠAnton io
ĠFig uren
Ġzust Ã¤ndig
chip karte
Ġw odurch
ĠB Ã¼r
Ġan schlieÃŁ
ĠN at
Ġver geben
Ġsee ing
ĠkÃ¶nn ten
Film ografie
Ġve get
Stra ÃŁe
C ommand
D igital
N ow
on ia
ĠB art
ĠN Y
ĠN ation
Ġde partment
Ġent schieden
geb nis
ĠRes ult
ĠHel mut
Ġfant astic
ĠD ynam
ĠP os
ĠG lo
ess in
Ġver hindern
Ġvor gestellt
Ġ5 4
Ġzw eiter
ĠWh y
H S
Ġw Ã¤hlen
ĠP ow
Ġr at
ĠTh ank
Al t
ĠerklÃ¤r te
ĠprÃ¤sent iert
ERR OR
c ert
k Ã¼rz
u ber
Ä Ľ
ĠS E
Ġc alls
ies e
iz ien
Ġwir kt
ĠSp itze
ĠNe um
Ġco ach
Ġcol our
Ġant i
F ranz
U P
Ġb ound
ĠSt ore
ĠU fer
Ġcons umer
Ge w
Ã¤mp fer
Hol stein
U B
b ut
l s
Ġt oll
ĠS oph
st Ã¤nden
ĠD ich
Ġver f
ĠIn nsbruck
ĠFor mat
Ġelekt ron
M ag
Ġb ist
Ġh ook
Ġh Ã¶ren
ĠRe form
ĠWe ek
leg entlich
ils on
ĠJuli us
ĠHol lywood
ĠEngl isch
Ġd aughter
ĠM ans
ĠR oten
Ġde te
iss es
isten ce
ĠKo operation
ĠÃ¶sterreich ische
ĠrÃ¶m ischen
ĠMein ung
Ġmaint ain
Ġerforder lich
Ġc ir
ĠT ay
ĠT rÃ¤ger
ic ies
ĠL oc
ĠL td
Ġver tra
ĠGe walt
anz ig
ĠGeb urts
ĠMann schafts
spre cher
Ġcour ses
Ġkomp lex
ĠPlan ung
besch reibung
k Ã¶rper
is lat
le vel
ĠK urfÃ¼r
ann i
Ġzu geordnet
ĠAn dr
Ġgr unds
anc er
ĠÃ¤ltes te
w as
te ms
Ġe ight
st um
ver lÃ¤ss
Ġver n
ĠBe am
ger Ã¤te
Ġsp lit
ĠTh read
deck ung
ĠArm y
Ret urn
Ġf ear
igkeit s
ĠMon te
Ã¤mp fe
Cre ate
o or
er ung
st ad
ĠL eder
ĠSch reib
Ġr uh
Ġat tribute
alt y
The y
olog ischer
ĠEd ward
Ġvol unte
Jahr en
Ġdeter mine
r un
Ġin nen
st aben
de gang
ĠE conom
ĠN ull
Ġsh all
ĠBro ok
z usch
Ġb ayer
us ted
ĠB om
Ġl i
Ã¼n fte
her ren
Ġ5 6
imm ing
ool s
Th at
med izin
ĠjÃ¼d ischen
Ġs ources
Ġc entral
ĠK ob
Ġaus reich
ĠÃ¼ber nehmen
ĠGe werk
ĠGr amm
Ġad just
Ġper man
ĠKr ist
loy ment
Ġmain tenance
State Exception
Ġengl isch
ĠNutz er
ĠNeub au
ĠunabhÃ¤ng ig
Ġa p
ro h
ĠG riechen
ĠK Ã¤
Ġg ern
ck et
ĠO scar
ste igen
Ġle aves
ĠReg ionen
Ġpl enty
ĠTor onto
Ġsex y
Ġzie ht
ĠDipl om
f ir
ĠS ens
us her
ĠP ots
ĠK linik
ul er
Ġk ombin
ĠRe f
ap os
Ġsh ip
Ġind ic
On ly
zuf Ã¼hren
k riegs
ie m
ĠB Ã¤nde
ro ot
ĠF F
ĠBe aut
En gl
ĠGer Ã¤t
Ġange gebenen
EC T
Ġinit i
Ġgall ery
L AN
P ersÃ¶n
sch wer
ers dorf
ĠO ster
ang a
ĠCh ance
Ġtro ub
zep te
Ä «
Ġf ach
Ã¼ te
ĠP anzer
Ġl ibrary
Ex p
ĠJe ff
schaf fen
In nen
ock en
AR T
Ġcor porate
jahr es
ĠKomp osition
ĠSec ond
D ur
P lease
Ð º
ĠH arr
ĠR on
ot ograf
Ġst Ã¤dt
ĠGe fahr
ĠZu cker
ĠGu ide
E hr
ĠT ats
ier er
ĠDie ter
Ġspe ct
ĠArbeit sp
Ġass ert
Ġtechn ischen
Ġcolle ct
Ġcommun ities
Ġed ge
Fe ature
h ou
Ġwar um
Ġspe ak
ĠBes onders
ling t
ĠK ent
Ġg lob
ir ts
ĠZ ivil
ag ers
ĠRes erv
Ġklein es
App lication
far ben
P al
ĠS ydney
as p
Ġan genommen
Ġc ream
ent hal
ĠZ ul
ard o
atur en
inz ip
olog isch
ĠSte phan
Ġverste hen
Ġpriv aten
Ġfig ure
ĠGespr Ã¤ch
ĠBrasil ien
ĠHug o
B O
H ere
S uch
Å ¾
or ia
ĠT i
Ġein getragen
Ġwir ken
fen se
mit glieder
ĠQu adrat
Element s
Ġperfe kt
Ġlat ein
Europ ameister
ĠRost ock
c ar
x ml
Ġt on
em it
ĠPro perty
fÃ¼hr ungen
ateg ories
Se gment
ĠWir ken
D el
Ġf la
ĠSt ift
iz iner
Ġges ellschaft
ĠSte ve
urop a
Ġvis ual
Ġbas iert
Ġsozial en
Ġaud ience
F alls
S a
Ġs ter
Ġc ore
im ation
sch irm
Ġfact ors
Ġref lect
Ġprepar ed
Ġren ov
Ġseek ing
VAL UE
ĠIngen ieur
J ahre
ĠB os
de p
ig s
ĠG anz
ĠL inz
Ġlang sam
ĠCoun try
H ein
ĠS ymbol
ĠK Ã¶r
Ã¼r zt
ĠSt unde
Ġver urs
Ġ5 7
fe hlen
pro perty
Ġtra ding
ĠGra ph
Ġcomb ination
ĠUntersuch ungen
ĠMathemat ik
Ġcompon ents
C ommerce
a illen
ĠS QL
ot ic
ĠU kraine
Ġr ub
ll en
lie f
Ġexper iences
Se quence
ĠRu hr
Ber eits
Ġkathol ischen
u v
Å Ł
Ġs au
Ġo k
ĠM B
ĠK Ã¶
ĠW Ã¼r
ĠR Ã¶m
ĠJ enn
ver kehrs
ze ige
qu em
ĠThe ologie
lie ger
Ġ18 60
Ġte ils
Ġad apt
Ġinter pret
ĠDan eben
Ab sol
ĠSÃ¤nger in
Ġregister ed
ĠSeb astian
ĠInfanter ie
T er
e xt
ĠE uch
ĠW en
ĠRe de
och em
ĠMar ien
Ġhelp ed
Ġgener ate
Ph il
ĠS yr
ĠN ah
ann en
ap h
ĠEin heiten
auf nahme
ĠWe ber
Ġcomp ared
arbeit ete
bes itz
Ġplan ts
verein s
ĠKais ers
Ġteach ers
National mannschaft
ĠUms etzung
Ġbetrach tet
Ġein s
Ġein iger
ĠH ess
ug ies
Ġab ger
Ġvor ge
Ġro of
Ġ15 00
Ã¤ch er
Ġange zeigt
Ġrom ant
- /
e v
Ġ18 50
ĠNe ust
ight ly
Ġbesch reibt
ĠInter essen
usÃ¤tz lich
ĠRou te
Ġafford able
d est
Ġe legant
Ġthe me
Ġ9 5
Ġbet roffen
Ġ8 5
ĠGes ang
Ġfre und
ĠJapan ese
lad ung
ĠJer usalem
S u
c enter
k w
ĠS her
ĠD ig
ĠF arm
ĠL iber
Ġre ag
Ġch anging
ĠWe gen
Ġsh ipping
ĠMar burg
ĠHalb finale
ĠUntersuch ung
Ġindustr ial
ĠModer ne
Ġsatis f
m auer
t own
z lich
| -
al ition
ĠF ac
Ġl auf
ĠV iet
sp art
Ġqu arter
Ġtra f
ĠBes onder
Ġshow ing
Ġmov ement
Ġmittel alter
8 00
F ailed
S PD
o ben
Ġs elling
ĠB res
Ġc overs
est and
ip end
Ã¶r ungen
Ġunter wegs
Ġlar ger
AC E
\ \
Ġc ities
Ġdes k
we ight
ord net
ron en
ĠBo ot
vers icherung
ret ch
Ġdist in
Ġconne cted
seit ig
y t
Ġs qu
ĠP ok
Ġex change
ĠFl Ã¤chen
ĠGesch le
Ġeinz igen
fort un
ĠDat um
umin ium
Gra ph
ĠChampions hip
O UR
Å Ħ
al om
ĠM ig
ĠH yp
ĠV og
Ġst one
Ġad ult
ĠSchw ier
folg ung
ĠOn ce
199 9
icien cy
es k
ĠV I
ĠJ ord
ĠSe arch
ĠSe kunden
ĠAll tag
Ġcal cul
Ġlight ing
mitt ag
W irtschaft
j an
st Ã¤d
Ġc ock
get reten
be an
lo aded
Ġman aged
aut hor
Ġvers uchte
piel en
gra ben
ĠflieÃŁ t
iwod schaft
M M
c ur
d h
Ã¤ ne
Ġver legt
ru pted
ĠBe at
ĠHer kunft
ĠFor ce
aly t
Ġsex ual
ĠRu he
Ġteach er
ĠFernseh serie
A pi
S QL
x id
Ġw al
Ġf uck
Ã¼ se
ĠA achen
ĠK eller
iv a
ran e
Ġdo pp
Ġpr in
ieb el
He ute
folgen den
Que ue
ĠS ort
il ige
Ġ( ;
Ġdes igner
Ġver Ã¤ndert
men d
Ġnot ice
ph ase
Ġget ragen
ĠFahr rad
Ġfab ric
l ight
w urf
ĠH ockey
Ġer zeugt
id o
Ã¼n den
St ar
par ent
ĠFre ien
ĠUm gang
ĠX X
Ġem pty
Ġprocess ing
ĠAustr alian
ĠMount ain
S ep
Ð »
le ucht
Ġm ail
Ã¶ z
ĠEin kauf
ĠGe werbe
ĠInd ien
bach er
At tributes
Ġengl ischer
wirk ung
S m
t lich
Ġc red
ist rÃ¤ger
bo den
Ġcould n
ĠMat rix
Ġcover age
Ġconfig uration
zÃ¤hl ung
O B
h s
w irtschafts
Ġt empor
as tern
Ġv ir
Ġg ren
Ġl ights
ste chnik
ĠAl p
Qu alif
Ġ: )
Ġunser es
RE E
ĠOff en
ĠmÃ¶glich erweise
ĠjÃ¼n ger
M apping
k at
o ter
ter y
ĠN eb
os ing
ĠVer eine
Ġent schied
Ġte le
gesch oss
Ġrec ords
ĠAut hor
Ġerw artet
Ġeben da
ĠBar celona
ĠPl Ã¤tze
forder ung
ĠHerr n
ĠMaterial ien
ĠpersÃ¶n lich
Ġcent re
Ġwissenschaft liche
ĠGovern ment
K n
p aar
t x
ĠM Ã¼hl
ĠD un
ĠL ike
est ic
Un sere
Ġpl astic
ino is
hÃ¤lt nisse
anc en
Ġcla zz
ĠQual itÃ¤ts
Ġa uÃŁen
an ch
ĠB alk
ĠH ong
ĠAr r
stra ÃŁen
iqu id
Ġerw orben
Ġworld wide
Ġbra ucht
ĠBook s
Mat rix
Ġl ay
Ã¼n sche
ack er
Ġev idence
ĠPr Ã¼f
Ġcont ainer
ĠPh ase
Ġseit dem
Ġverb indet
ĠFrank furter
leit en
ĠDem oc
Not Null
Ġverpflich tet
Ġt rop
ar in
st ags
de hn
Ġg Ã¼lt
ĠC ro
isch Ã¶
est amp
ĠAus bau
ĠWe ib
ĠAuf nahmen
Ã¤l le
Ġvol ume
ĠMad rid
Pe ter
Ġflow ers
ifest yle
I E
V A
] [
Ġ Ã¶stlichen
or p
Ġn ennt
ĠT ake
ĠR un
ger Ã¤t
Ġwas te
sh ire
hÃ¶r ige
Ġpla ced
Ġwork ers
Ġinst alled
con stants
stru ction
Ġbring s
Ġcontin ues
ĠAfr ika
ĠTab elle
ĠKarls ruhe
H inter
L ang
W rapper
k as
w ish
sch uld
ĠL ipp
ĠL ady
ĠN az
ast rop
app e
En c
ĠPr Ã¼fung
ĠJuni oren
ĠBevÃ¶lker ungs
Ġprepar e
Ġwissenschaft lichen
Ġdet ailed
Ġextens ive
ĠBestand teil
ĠEpis oden
ĠOh io
J Ã¤hr
Ġs ister
ĠP ian
Se e
ĠEntw urf
go ing
Land kreis
ĠÃ¤lter en
D i
a ult
Ġw ire
al o
ĠB at
ĠK ost
ĠK Ã¼hl
ĠC P
ĠJ ena
Ġre ality
ĠSch we
ĠAn trag
Ã¤t t
stra ct
ĠMark us
Ġspiel ten
ĠKap ital
atÃ¼r lich
Ġaud io
ĠEpis ode
ĠBul gar
Ġhil ft
Ġsicht bar
g ung
Ġb lieben
ol ph
ĠK rit
reich er
gre if
ĠFakult Ã¤t
n chen
Ġa partment
ĠS y
ĠM esse
ĠR he
ĠMit gliedern
Ġper haps
Ġbeg leitet
ĠWelt meisterschaft
ĠBes etzung
Ġmat hemat
Ġdom ain
Ign ore
h es
l iance
ie ht
us se
ĠB ull
ol id
ĠP in
ĠC EO
ĠV ort
ĠZ iele
ag a
Ġpro test
Ġsch Ã¶nen
Ġsp Ã¤ten
Ġunter scheiden
Ġcomp rehensive
Ġber Ã¼cksicht
ĠBar on
Ġgef ert
K W
Ġt ickets
re gel
al and
Ġv s
Ġp assen
ĠVer trieb
ĠMan fred
Ġnor weg
Ġeconom y
ĠInf os
ĠTÃ¶ch ter
e i
Ġin gred
ĠB em
st arts
ĠD ein
ĠW urz
ĠN R
Ġge he
ers te
Ġzu k
Ġver ab
ens is
ms g
ĠInter ess
ĠFil mp
Ġeff orts
Trans action
Ġzie m
bÃ¼rger meister
ĠGesund heits
J ohn
Ġin come
Ã¤ fte
Ġn am
ver zeichnis
Ġle gend
ive au
Ġ5 3
ĠSte phen
199 7
199 8
Ġpost s
Ġfac ility
ĠBach elor
N um
Ġd ou
Ġv en
ol and
ra uf
ĠL or
Ġbe coming
Ġunter en
199 6
Ġoper ating
ĠDon au
ĠSchn itt
Ġricht igen
ĠerhÃ¶ ht
Ġinde pendent
Cal endar
ĠMom ent
R oman
T our
ĠA x
ĠM io
ĠR ac
ĠR ats
ht ml
Ġdo ors
ĠkÃ¶n ne
Ġloc ations
Ġsn ow
Ġpo or
ĠAng st
h ar
Ġe arth
ĠB rad
Ġer mittelt
ĠV ill
ĠÃ¼ber sch
ĠCh ief
act or
yste men
ĠgrÃ¶ÃŁ er
Ġander es
OR D
ĠTer rit
Ġricht ige
Ġerr ichtete
L in
p le
Ġ Ã¶rt
Ġein geb
ĠSch uhe
ĠUn ser
ĠLe ib
reis en
app y
ren ce
ĠMin ute
ĠMill iar
Ġkeep ing
Ġjeder zeit
' );
m i
ch nen
Ġt mp
st ers
ĠT ree
Ġdie d
et enz
pro jekt
fin ed
ĠFre ude
tes ten
Ġsc ript
ĠMin i
unkt ions
He ight
bahn hof
Ġstar ts
ĠLebens mittel
wor th
des ign
EX T
Ġtrotz dem
Ġadvant age
B B
ĠE N
ĠR ap
ĠN on
au ert
for scher
lie gt
ĠAus einanders
Ġlook ed
Ġtechn ische
Ġbedeut end
ie ten
ar o
ĠE ugen
Ġun its
ĠRe quest
gr Ã¶ÃŁe
ĠMe yer
Ġbeen det
ĠNor mal
ĠStre cken
ĠgegrÃ¼n dete
mosph Ã¤re
Ġjem and
ĠHig hl
Ġbatter y
ĠWÃ¤r me
B en
g Ã¤ng
l u
r s
ĠSt imme
utz ung
irt ual
ĠBl umen
Ġmed ium
ĠColumb ia
K ompon
T ro
at is
Ġ5 8
reat ive
Me hr
ĠPort al
verband es
ĠLat ein
Ġerstre ckt
h ops
v ater
Ġb ought
Ġm essages
Ġl ayer
Ã¶r dern
oun ted
Ġcomp r
Ġcomp ar
ĠYou Tube
urs or
ĠMont ag
ĠFle isch
Ġfa ith
U ri
z ell
is tern
Ġn av
ĠT emplate
ĠK ul
Ġauf gestellt
get Id
In ternational
Ġen h
gesch windigkeit
hol m
ĠMy th
Ġjoin ed
Ġbenach bar
S ein
e per
h ire
m or
ĠS auer
stell te
Ġgleich e
reg isseur
Ġersch einen
Ġ189 5
Ġoffen en
ĠEing ang
Ġcommit ted
ĠÃĦnder ungen
O pen
or ff
ĠP ie
ĠW atch
em an
Ġfor eign
we ich
ĠAn erk
Ġle aving
ĠAus gang
tem per
ma ÃŁen
Ġthere fore
vers orgung
ask a
iate ilnehmer
ĠGeschÃ¤fts fÃ¼hrer
Ġwatch ing
ĠArn old
K irchen
b indung
l iteratur
or ation
ĠD Ã¤nemark
ĠE arth
Ġsh ap
ĠFre ist
Ġstatt finden
Ġanim als
ĠAutob ahn
ĠB rie
ver l
Ġver me
ĠAn alyse
Ġdurch aus
ĠOr ch
Ġ6 6
ĠPr int
ĠStud ie
unter richt
Ġnational en
Ġitalien ische
Ġfoot ball
Ġacadem ic
ĠKard inal
Ġp oll
Ġer lang
ĠĊ Ġ
Ġle gen
ges ell
Ġreturn ed
fol io
bar er
Ġ< /
ĠEurop as
ĠBÃ¼ hne
Ġwid th
ĠRegen sburg
Ġjapan ischen
Ġbal ance
Ġchines ischen
Ġinsp ired
b on
st one
ĠW ales
Ġg ain
Ġre place
ĠSch mer
ern ame
Ġab gesch
ĠGem Ã¤lde
ĠMÃ¼n chner
Ġfl ight
ĠVerb rauch
mod ell
ĠKommun al
Ges ellschaft
Ġexpert ise
dire ktor
ĠAutom obil
Ke ys
Ġgetr ennt
S pieler
p atch
he dr
em burg
ĠAn gabe
ohn t
ons erv
An merkungen
trÃ¤ ger
O F
Ġs quare
re ht
Ġn ennen
ĠK am
ho fer
Ġ5 9
Ġ6 2
ĠFrie dens
ĠAs ien
Reg istry
Date i
Ġbestehen den
ĠNic ol
ĠCook ies
K irche
R S
Ġan gen
Ġre form
ĠSt ill
Ġver anst
ĠAn wesen
sp arte
Ġvor be
Ġra in
ĠGrund lagen
Ġveh icles
D om
V E
g han
er a
Ã¼ ch
ĠD ollar
Ġc ivil
ad r
hen den
ĠEin en
Ġunter halb
Ġges und
ific ations
Ġdr ug
ĠKn ow
Ġperform ed
Ġleader ship
Ġobt ain
Ġdeutschsprach igen
ut ch
Ġden k
Ġfor mal
Ġfin de
Ġke pt
ĠAlb recht
ĠGi ov
ĠAbgeord neten
Ġabsolute ly
K o
as i
ĠG itar
ĠK Ã¶n
ĠK alifornien
ĠL ow
Ġer gibt
ver tre
men s
Ġsch ied
val ues
Ġmen u
ĠDire kt
ĠKlost ers
D istr
P latz
Ġp ul
Ġc ry
Ġein schlieÃŁlich
ĠJ im
Ġapp ar
pf ul
ĠOff izier
jÃ¤hr iger
ĠGal ax
Ġbein hal
Ġa st
Ġf uhr
Ġo st
sch icht
isch t
ct ures
Ġver teid
od ies
Ġde als
aus end
enden cy
Ġ188 5
ĠBed Ã¼rf
Ġpan el
ĠSupp ort
B uch
b ein
e ff
ĠB arn
ĠM obile
ist ungs
ach us
Ġum ge
Ġke ys
ex p
ĠNieder lage
Ġlearn ed
Ġrun s
Ġschwer en
ĠExper ten
: :
T od
j or
ĠM iddle
Ġp urs
om it
ĠK abin
ĠO d
esch oss
ĠBr ust
Ġapp s
co in
Ġverw and
setz te
ĠBra un
ĠCont rol
ande ur
best and
ĠFer r
Ġnov el
Ġaspe cts
Ġfem ale
Ġapprox imately
> )
L ayout
u i
ĠD ur
Ġdie t
ĠL ocal
ĠAn st
ĠBe cause
ĠÃ¼ber w
ĠFl ucht
Ġapp oint
yn ast
ĠBau werk
Ġ189 7
Ġwicht iger
ĠKÃ¶l ner
ĠGef angen
Ġziem lich
z ert
Ġp ow
ĠL angen
qu enz
ult y
hal ter
Pro zent
Ġlaw s
ĠBron z
ĠErk rank
Mill is
Ġrepla cement
J ava
a ktionen
s ein
Ã ª
Ġd inner
ib ution
ĠWelt cup
ĠCon fig
Ã¼t ten
Ġ187 1
ĠLes er
ĠUp date
Ġzuf olge
ĠWag ner
an bul
ĠB lau
ĠT H
ĠR ess
Ã¶ ten
fen ster
int age
Ġdis app
Ġbra in
Ġenjoy ed
char At
h Ã¼ter
k ind
ĠF ab
ĠF our
ĠL ock
Ġk ennt
Ġste igen
Ġfun ctions
ĠWahl kreis
cont ent
ĠEnerg y
ĠPenn sylvania
k anz
p ap
Ġt aste
ĠD rag
ĠH Ã¼gel
ĠL ust
Ġk id
all o
Ġr andom
lan ge
Ġhier bei
Ġklein ere
Mod ule
fÃ¼ll t
ĠSa al
Ġfil led
ĠTrain ings
ĠKup fer
gyp ten
ĠMagde burg
Ġ iron
Ġd ance
ĠB och
ĠM inn
ĠD ick
ĠE UR
ag on
get Property
gel s
Ġ7 2
ĠIt alian
imm ungen
ĠRes ource
ĠPla ce
mus iker
ĠMinister prÃ¤sident
Ġassist ance
ĠjÃ¼n g
ĠhÃ¶her en
Ġunbek annt
F est
y ball
it ro
ĠM assen
ĠP u
ĠĠĠĠĠĠĠĠ ĠĠĠ
ik ing
Ġ" /
ĠMit t
ĠOr ten
ĠGesch windigkeit
ron ik
Ġserv ing
ĠBel gien
Ġopt imal
Ġengl ische
Ġdirect ory
ĠDenkmal schutz
Ġpaint ing
Ġexcl usive
B M
ä ¸
ĠF unk
Ã¤n k
Ġle ather
ĠMe chan
Ġher unter
ĠGeb rauch
)) );
Ġvers uchen
ĠStud ies
Ġmin imum
Ġtop ics
Ġspec ies
ĠHil fs
ĠWo iwodschaft
Ġzentr alen
Ġgriech ischen
Ġreli able
W ill
X ml
z ellen
re h
as ien
ĠA le
iel len
ĠIn v
ĠKl ub
Ġteil nehmen
Ġkommen den
Ġbisher igen
Ġstrateg ies
ĠverfÃ¼ gen
Ġrestaur ants
Ġsuit able
T L
o ire
ĠB am
st ore
Ġc row
ĠI ran
Ġz ul
ĠV ide
ĠAm ateur
forder t
Ġenvironment al
ĠLÃ¼ beck
< >(
w eiter
men ge
ied elt
Ar beit
Ġag ree
Ġfocus ed
Ã¤dag oge
ĠSzen e
J SON
o om
s ession
on line
Ġp latz
ĠF ans
Ġbes uchen
ĠAll es
ĠTr ib
bes itzer
ĠInternational e
ĠKolle gen
Ġagre ement
K unst
K arl
P RE
Z one
v m
v iel
is p
ĠK itchen
ĠHe iz
ri ze
Ġspe zial
Ġsur vey
ĠBre mer
Ġmar ried
K omp
in us
ĠF A
ĠVer g
ĠAl te
Ġ9 9
An halt
Pro xy
Ġakt ual
OR T
Ġremov ed
M er
f angen
ĠB R
el be
ĠR ie
ĠL Ã¶sungen
th aus
Ġcon crete
teil te
tw och
ĠÃľber sicht
Ġbel g
ĠSk y
Ġâ Ī
Ġoffiziel len
ĠColor ado
Ġmention ed
Ġgespe ichert
B undle
M ilitÃ¤r
e ps
Ġt ail
Ġv illage
ĠD ampf
ic ian
ic ians
Ġ20 22
Ġse ctor
ĠNational mannschaft
Ċĉĉĉĉ ĉĉĉĉ
Ġ189 3
Ġgener ation
Hand lung
Ġfav our
ĠHor st
Ġmiss ing
ĠAbgeord neter
Ġpark ing
ĠIntegr ation
Ġfeder al
U RE
Ġd okument
re tt
el en
ro ph
Ġver fasste
Ã¤n ien
sen de
ĠAus fÃ¼hrung
pro p
Ġapp lied
Ġgesch Ã¼tzt
ĠAt om
mÃ¤ÃŁ ige
Ġaufge fÃ¼hrt
Ġbeh aup
ĠKÃ¼ sten
Ġwalk ing
Ġbege ister
resp ond
S ome
ĠK rÃ¤
ĠN OT
Ġaus fÃ¼hr
Ġen det
Ġcomp are
amp en
An t
Pro f
Ġeinfach e
199 0
Ġclick ing
Eis hockeyspieler
Ehemal ige
Â ³
re ifen
ĠT y
ra ucht
ĠC apt
Ġer l
Ġj son
auf bau
Ġco ast
ogra p
Ġtr end
ograph ic
Ġpres ence
ĠMag azin
Gr und
ĠpreuÃŁ ischen
K inder
P L
c our
i able
an on
st ift
Ġl iber
ert al
Ġhe ader
ĠAb out
Sch ema
ĠBen edikt
ĠDi am
Ġdisk ut
Ġverur teilt
ĠA z
ic ans
ĠE M
ĠR ies
ĠN iger
sp rÃ¤sident
for ce
Ġar range
Ġ6 8
ĠBr idge
ĠPr ince
haus e
ĠIllegal StateException
ĠGebie ts
Ġbehav ior
Ġw inning
ste ine
ĠAus zeichnung
aw n
AT A
Ġgest alten
ĠDon ald
ĠWochen ende
ĠDistr ikt
ing ham
ĠG uts
ĠR av
ĠSch uld
ak u
ĠVer mÃ¶gen
Ġad ults
Ġhin ten
Ġest im
Not Found
ĠAir port
Ġmass ive
f irst
l ik
ĠF I
ĠR untimeException
ĠL yr
Ġk o
Ġre chte
ell es
Ã¼n schen
lass ung
ĠÃ ł
Ġunivers ity
Ġbus y
Olymp iateilnehmer
a a
he ber
Ġin spe
ul ate
Ġj u
me er
ĠNe ur
los ed
sk a
ĠAs ia
ĠForm el
Ġkurz er
Pr ess
LA SS
ĠWei ÃŁen
Ġfunktion iert
ĠMÃ¶ bel
Ġtemper ature
v ens
Ġm ess
Ġp asst
ĠF Ã¼nf
ĠIn g
ug os
ĠVer wand
Ġcon temporary
Ġfe aturing
Ġ7 00
Ġhin ein
Ġexper iment
Ġbr ight
Ġcomb ined
ĠVarian te
S ince
ĠK il
ver teid
ver hÃ¤ltnis
th a
od a
Ġse at
ĠEr Ã¶ffnung
ens es
Ġbes etzt
ĠUnter schied
Ġges ucht
let ion
199 4
Ġ188 8
weis ung
ĠBur gen
MA X
dat um
Zw ischen
R uss
S an
r us
st amm
ĠT oten
Ġde fe
sp ar
end o
Ġ18 00
Ġapp e
Ġreg ional
ĠNor wegen
ĠVerein igung
ĠBed arf
ĠRegel n
ĠursprÃ¼n glichen
ĠpersÃ¶n liche
ĠmÃ¶ glichen
gorith m
R est
ĠA D
ĠT rom
Ġg ay
Ã¶ tet
ĠAn bieter
ĠVer fassung
Ġeigen er
ĠMark et
fre ie
ĠEntste hung
D DR
g i
Ġ ..
ĠK alk
ĠN erv
Ġauf treten
Ġher um
Ġges te
ĠOb last
Ã¤nder te
Ġgu ter
ĠBro ad
ĠLu c
Ġpract ical
Ġestabl ish
D est
if orm
Ġre pe
Ġre prÃ¤sent
os h
Ġ" );
ark e
geb lich
Ġnot es
ail and
Ġgen ieÃŁen
Ġbr asil
ĠRo om
Ġhappen ed
ĠVertra gs
Ġsym pt
F S
Ġf rem
ĠD uring
ĠP ut
Ġer stellen
Ġst ick
ĠNach wuchs
ĠKÃ¼ ste
ĠEing abe
hoch schule
Z e
c olle
e ck
Ġ ice
ĠB lan
ĠD ok
ĠP A
ĠF els
ĠG T
ĠE R
Ġsch uf
ĠEn ter
ĠOr den
Ġsh ower
ĠMar gar
ĠUm fang
Ġdort igen
Ġdec ide
Ġpract ices
our cen
sp an
sp iegel
ĠVer stÃ¤nd
pro v
ole c
ĠSh ort
Ġra ised
ĠspÃ¤ter e
Ġwind ows
gÃ¤n glich
ĠAre a
starts With
. _
J ose
b ett
w Ã¼rd
Ċ Ċĉĉĉ
ĠJ son
ad ow
la ut
ĠVer n
Ġdo ctor
fin der
ĠStud ent
Ġ189 4
aka demie
ĠVerÃ¶ffentlich ungen
/ *
> ()
l ere
p c
Ġ Ã¤ndern
in ations
Ġa u
Ġt a
or ter
ĠP el
ĠK rie
Ġr ide
ak et
Ġab ges
ant on
fer ences
Ġbes aÃŁ
stell ig
ĠMus ter
Ġpar am
Ġhel pful
Ġcre ation
AN D
legen heiten
Ġlog o
index Of
far be
B ay
f ranzÃ¶s
Ġf arb
Ġc ultural
im ir
ĠK oll
ĠGe fÃ¼hl
Ġstud io
ĠHand werk
ĠVerb reitung
ĠVerlag s
Ġpromov iert
m Ã¼n
s dorf
ĠS ender
Ġb rief
ĠB ein
Ġl istener
Ġy outh
Ġch amp
ĠGemein schaft
ĠFre md
ĠBundes wehr
verb indung
ĠGed ichte
ĠGleich zeitig
ĠTher apie
Ġzuk Ã¼nft
F B
Ġd oll
Ġa gency
ĠT ransp
pt on
av or
ĠBl ues
ĠWer ken
ĠIntern ets
ĠPat rick
sw ers
Ġtre ten
ĠMehr heit
ĠBist um
strahl ung
Ġwechs eln
C la
k ar
r uss
ur ies
Ã¤ udes
ĠM A
ĠD C
Ġp reis
ĠK ino
ĠR al
ĠSch au
od ge
Ġj ack
Ġch airs
ob ject
fahr ts
Ġrec ipe
Ġother wise
Ġmost ly
ĠOber flÃ¤che
EN D
bereich e
ĠFÃ¼hr er
Ġverst arb
E very
H i
f els
o use
č ĊĠĠĠĠĠĠĠĠ
ĠD oug
de fault
Ġein deut
ĠC ore
St iftung
ĠKon stantin
lÃ¤ ne
ĠMal erei
Ġeinfach en
Ġ188 9
Ġocc asion
Ġruss ischer
Ġadmin istrat
p ra
v ard
Ġd Ã¼n
he il
ĠL ein
ul ations
pt op
iz ierte
rie t
Ġvor wiegend
Ġtr uth
arb y
Ġ187 5
ĠÃ¤ltes ten
Ġbirth day
Frank reich
O st
S eite
d ro
ch or
an ie
Ġs izes
und et
ĠT ode
ĠAus bildungs
Ġnor m
ĠFil ter
ĠRechts anwalt
On line
achus etts
B ig
f aces
m ach
re me
Ġge zogen
ĠRe isen
ĠUS B
ĠGrund stÃ¼ck
ĠGroÃŁ teil
ret ung
ĠGraf ik
ĠBil dern
P air
p ie
in de
ĠW Ã¼rttemberg
Ġge Ã¤ndert
ĠSch all
ap i
Ġen ded
Ġgew Ã¼nsch
Ġshe et
Ġbesch lossen
Ġerfolg reichen
col umn
Ġhinz uge
Ġprevious ly
Ġinspir ation
ĠGall ery
Ġinkl usive
ĠstÃ¤r ker
c all
c omm
h Ã¤ndler
ĠM ember
ĠP ul
sch ild
Ġwh atever
Ġso unds
Ã¼ck t
Ne u
Ġhapp ens
ĠAnt i
Ġspecific ally
ĠFel ix
ĠhÃ¶ here
Ġallgemein en
T im
is or
ĠA dresse
ĠF u
um a
ĠN umber
Ġre ichen
ass au
ĠAb t
bau te
Ġmin or
Ġcontin ued
Ġtre es
Ġverkauf te
Famil ie
G S
st atic
Ġl ose
lic ations
ĠSe a
oh an
ĠBundes ver
Ġbre iten
ĠWer be
Ġgu est
Ġtechn ologies
trag ung
ĠVerÃ¤nder ungen
S n
b te
it age
ĠH aup
ĠAn trieb
art ikel
ĠFran ces
Ġinter face
ĠOn ly
ĠGed enk
Ġorganis iert
ĠAud io
ĠPers pekt
cep ts
fortun ately
M Ã¤rz
b ound
y ard
Ġm Ã¼s
ĠH ave
Ġg laub
if act
qu alitÃ¤t
sen der
ĠSp ace
Ġent f
ob j
En tw
Ġser ial
Ġobject s
ĠAlt stadt
Loc ale
ĠPhys ik
ĠgewÃ¤hr le
ĠHÃ¶ch st
F iles
W ord
t ten
Ġan gew
Ġthe oret
ĠW art
ĠL uther
Ġver trat
ĠUm bau
Ġmark ets
Ġsign ed
Ġoption al
Ġadv ance
Ġnational e
ĠGar den
Ġsozial e
ĠKateg orien
re place
ĠS ud
ĠB ald
lich em
Ġne ck
ast ik
Ġ6 3
Sie g
ĠInstit uts
Null able
Log ger
adel ph
ĠKaffe e
W ien
o ir
È Ļ
ĠH amm
ĠH aupts
Ġl abor
Ġge h
aus bildung
ĠAb stand
Ġra w
Ġ189 2
Ġcall ing
ential s
es a
ĠB alt
Ã¶r g
etz te
ĠAus stattung
ans ion
ĠSc ot
ĠFot ograf
ĠCor poration
ĠAkt ien
Ġocc up
Ġdiscuss ion
Ġmittler en
ĠVictor ia
Ġinj ury
Ġexer cise
ĠTay lor
c z
j u
Ġm ent
ig sten
ĠH ung
um es
ber uf
ĠV f
ad i
age l
iz ens
Ġro ute
old ing
off set
ĠWelt meister
Ġknow s
Ġkor re
S earch
T est
in it
ĠS ummer
ĠB iele
Ġan geschlossen
st ufe
Ġp ray
ĠK h
Ġer leben
ah m
ĠVer zeichnis
In itial
etz ten
erv ation
20 20
Ġbes ucht
fahr ten
Ġdar um
ĠFre der
ĠKunst stoff
AC K
Ġgel b
Ġimport ance
Ġintrodu ced
ĠZus atz
ĠUnabhÃ¤ng igkeit
Sep tember
r ische
Ġb ond
Ġb rown
Ġund erg
ĠP rior
ĠVer arbeitung
ĠCl ient
ĠCo ast
ĠTour ismus
Ġsecond s
ĠRaj on
RÃ¶m isch
ĠCanad ian
gesell schaften
ĠS ynchron
Ġf Ã¼hl
ĠA uge
ĠW ilson
Ġl aufen
ul ated
Ġst yles
ust on
hel ms
wend ungs
trÃ¤ gen
ĠHel m
Ġkathol ische
Pan el
Ġgrunds Ã¤tzlich
C ap
re iter
ĠW arn
ĠN avy
Ġ3 000
ĠMann heim
ĠEm ail
ĠDon ner
kun fts
Ġspeziel le
Comm on
C ert
ĠE P
ĠR ow
ĠV Ã¶lker
Ġ" ,
rÃ¤ umen
ĠMus ical
bild ungen
Ġbr ands
orge ous
Ġwes halb
ĠDenn och
angeb ot
B ound
Ġm ont
ĠT ipps
ĠH at
ot ton
qu elle
iz za
Ġme ant
Con ne
Te il
zeug ung
Ġrem ains
Ġ187 9
ĠSam uel
Ġvorhand enen
ĠQue en
Ġdescrib ed
ĠViet nam
E E
V ert
h ome
m ain
Ġs ustain
le ts
ĠG os
ra f
Ġbe comes
ĠSt ab
od ox
ĠEr ster
ile y
ĠAl though
ob jekt
amp s
ĠUnter richt
ĠUnivers itÃ¤ten
ĠFahr t
AN CE
athol ic
ĠDis ziplin
Ġappear ance
Produ ct
gestell te
kap elle
ĠWhe ther
N atur
w Ã¤hnung
y o
or able
ar ks
ig ar
ĠE sp
um ps
Ġst Ã¤ndig
iz abeth
Ġwe iÃŁen
Ġent lassen
out s
Ġ9 00
Ġange hÃ¶r
Ġgu ess
Ġfre ie
hol en
Ġvoll er
Ġverl Ã¤ng
ĠOl iver
ĠDipl omat
H A
Y our
d oc
Ġ 00
Ġs it
or ded
or ney
Ã¼ re
ĠB orn
ĠD ream
et ry
ĠL iv
ĠN u
ot ions
Ġst arten
ass ung
ok us
ĠÃ¼ber setzt
Pro gramm
uck er
zahl ung
pre chen
Ġruss ische
emb ly
Ġupd ates
ĠergÃ¤n zt
erkl Ã¤rung
A tt
Q U
X ML
in str
Ġan zu
ĠJ ar
Ġst yl
Ġj ump
me ter
Ġob vious
spr uchs
Ġpl Ã¶tz
Ġ189 1
ĠPer formance
Acc ount
mot or
Ġlok alen
jen igen
A bst
h arm
un es
an es
il den
Ġc ounty
Ġh ieÃŁ
Ã¶ ck
Ġaus gebaut
Ġch ron
land en
app ed
ĠEx press
off s
Th rowable
Ġacc essor
Ġvers etzt
ĠMag n
ĠJugend liche
Ġdog s
Eng ine
ĠGrÃ¼nd ungs
ĠMilliar den
P aul
e g
h Ã¤ngen
Ġt ags
ce pted
qu er
get Instance
pre c
Ã³ w
Ġtradition ellen
Ġeduc ational
Ġzuf rieden
ĠJos Ã©
ĠAllgemein en
ĠKrank heit
ĠThÃ¼r ingen
Ġconven ient
ĠExec utive
Instit ut
M art
g ow
ĠD all
ĠD afÃ¼r
Ġoff izielle
Ġreg istration
spieler in
Ġval u
Time out
Ġexist ieren
Ġresp ond
ĠKauf mann
ĠEv ents
Ġhon est
ĠPots dam
M aterial
Ġm ac
st ahl
Ġbe zeichnete
Ġ188 4
ĠSen ior
onom ie
Ġwunder sch
R ock
Ã ¦
is burg
an ia
ĠG ab
ist ing
Ã¶ scht
ĠV inc
Ġis ol
ly n
ĠSp Ã¤t
ov ed
ĠHe x
Ġ0 1
gesch Ã¤ft
ĠCon nect
kehr en
licher weise
Ġemp fehlen
ush ing
Mus iker
S D
g un
n ieder
r Ã¼stung
ent ially
se kretÃ¤r
Ġ3 60
ain less
los ure
Ġsow eit
Ġges p
Le ft
Er gebnisse
ĠEntfern ung
E ach
L en
Ġm Ã¼ndet
ĠR oth
ĠL uz
Ġum gebaut
pr ene
geb irge
tet t
ĠTra g
Ġakt iven
Ġchar akter
199 3
ĠWerk statt
ĠComm on
ĠAben teuer
leucht ung
L auf
Ġa ware
Ġv olle
zahl t
Ġpass iert
Ġbef Ã¶rdert
Ġsmall er
ĠPra kt
ĠBrun nen
B ra
I O
ĠS ac
ĠJ eder
if iers
ĠDe ad
ĠBo y
setz er
ĠMich igan
sw ald
uff ix
fre ien
Ġprom ote
ilen ame
wh at
ĠCre ate
Jan uar
ĠKÃ¼n ste
B U
J apan
y ll
Ġd unkel
Ġa th
ie ck
ĠS A
ĠM aschine
ra gt
ĠH agen
ul in
Ġge legentlich
Ġst ack
ang le
ĠEin kommen
Ġpr ivat
Ġvis iting
Ġprocess es
ĠSm all
Ġzeit genÃ¶ss
ĠHin weise
ĠSing ap
ĊĠĠĠĠĠĠĠĠĠĠĠĠ ĉ
A pril
un ters
ĠA sh
ro d
st ens
Ġn u
Ġp m
ĠG ipfel
ĠV i
Ġaus drÃ¼ck
Ġi P
be hÃ¶rde
In v
ĠSie ben
ĠUS S
ĠBet on
spe kte
Ġmar riage
With ServiceResponse
Ġexp ensive
scheid ung
ĠGef Ã¤ngnis
gebie ten
bour ne
Ident ifier
adelph ia
WithServiceResponse Async
S ubs
k Ã¶nig
Ä ĥ
un checked
ĠS ache
Ġb aute
ĠM u
Ġc ells
am o
ĠH av
ĠL och
ĠL orenz
Ġbe wegen
Ġge legt
kt ive
ap est
Ġam b
ud ing
ungs s
igh ted
Ġgr und
ual itÃ¤t
ĠPf alz
Ġtrans action
Ġcla ims
Ġappear s
ĠFort sch
Ġlau tet
G ET
S ymbol
c at
k olle
v et
ĠB ou
Ġan imal
Ġst unning
gr Ã¤
Ã¤l ter
eld ungen
ĠProf ess
ragen de
ĠTechn ologie
ĠRuss ian
Ġverst orben
ĠGest alt
Ġlaunch ed
abet es
lehn t
ĠEind ruck
Ġleit et
K an
Ġd ates
Ġs in
Ġb ur
ĠM d
ĠSt aff
ak on
end el
ĠVer k
get R
tern oon
ced es
ĠsÃ¼d westlich
ĠSil ver
Dies es
abr iel
198 9
aun a
Ġverkauf en
ĠWissenschaft ler
Ġpriv acy
p ommern
{ }
Ġan sch
ĠD M
Ġc up
Ġl ayout
ste ig
men te
sp h
Ġ6 1
zeit schrift
ĠMon ats
ĠRes erve
code d
199 5
ĠIll inois
telligen ce
ĠAnerk ennung
k Ã¼ste
or ry
re ffen
us ste
ĠD ass
ĠD ark
Ġp or
ĠP ool
ĠW y
ĠDie trich
ĠPro test
ĠGe legenheit
ĠPf ad
Ġbew usst
Ġinform ieren
Ã§ ois
Ġpattern s
Ġcandid ates
Non Null
ĠSpre cher
j amin
m Ã¶glich
w eiten
ut y
ĠT ai
and o
Ġk Ã¶rper
iel en
we et
Ġver letzt
Ġsp anischen
ĠHe ktar
ĠHer zen
Ġgen annte
ĠPr ivate
ĠGemein sam
Ġrem aining
ĠMeister schaften
Ġ188 6
ĠColle ctions
CD U
ĠJes u
ĠFass ung
Ġpoln ischen
beg inn
Ġposit iv
ĠAlk ohol
ĠBronz emed
C up
s rc
ol ver
Ġbe quem
Ã¶ te
ĠSt one
Ġy esterday
Ġr ental
ĠEr richtung
iz ieren
com mer
ĠMittel punkt
leb te
ĠLOG GER
Ġumfass te
Ġverbess ern
S uper
w inkel
ĠĠ Ċ
ĠS endung
Ġe hren
ĠB ow
Ġc urr
ik um
Ã¶n t
ĠGe gend
Ġqu otes
ĠChr isten
ĠWelt meisterschaften
ĠFr Ã¼hl
Ġmanufact uring
F ran
F rie
F ree
l ate
in ne
it as
or ganis
ing ly
ĠT HE
ĠBe hÃ¶rden
ĠBr ian
ĠCon gress
ĠBar ock
Ġshow ed
Ġgel ungen
ĠAlt ar
ĠCom ic
omot iven
maÃŁ nahmen
al ign
ĠK un
ĠW ik
ĠZ auber
Ġcomp la
ĠGes icht
Ġthough ts
' .
] )
b ring
h Ã¤usern
Ġf unds
ĠB ag
Ġen able
Ġbegann en
Ġfact or
Ġ186 7
Ġport ugies
ĠVe gas
ĠMex ico
ĠSchlag zeug
ĠM Ã¼hle
la f
kt oren
pp ers
Ġver hinder
Ġde ck
ĠAuf tritt
ĠGesch mack
Einz el
ocol ate
ĠDi agn
Ġdefin ed
UN D
ĠAust ausch
Ġextens ion
Ġschwed ischen
Ġdistrib ution
Ġurkund lich
N odes
o ÃŁen
st rÃ¤ger
ĠM ind
Ġh yp
ed ing
ĠL iving
ach s
gen ossen
ĠZ usÃ¤tzlich
ĠAn hÃ¤nger
ĠThe atre
ĠAr men
ia c
Ġsp ons
Ġwor ry
ond iss
ma jor
ĠHam mer
Comp arator
ĠkÃ¶nn t
Ġtot ally
vier tel
hers teller
Ġcaus ed
Auth or
ĠGiov anni
l ies
Ġ upper
ĠB our
Ã¤ mm
Ġk it
Ġex amples
ĠSp ur
St affel
Ġqu iet
15 0
riter ien
ĠRena issance
NotFound Exception
D am
e ig
i ors
l isten
ĠP R
ĠL ed
sp ur
ĠVer fassungs
ip her
ph il
Pro jekt
Ġbef re
umm ern
Ġbestehen de
Ġgelegen e
ĠVerantwort ung
Ignore Case
# #
A A
K at
M Ã¼n
b in
b ringen
he ben
âĢ ĭ
ĠH alt
ĠL izenz
Ġl if
Ġk ick
Ġge langen
aus o
Ġle ichter
Ġdies mal
Ã¤ch te
ĠGesch enk
Un ser
199 1
Ġans Ã¤ss
Ġautomat ically
Ġsil ver
ĠLieb es
Ã¤dagog ik
Ġhous es
ĠWeib chen
M any
M ENT
h av
o es
ch a
Ġ( ),
Ġte levision
Ġverb rachte
ĠsÃ¼d Ã¶stlich
wor tet
lÃ¤nd ische
Ġallow ing
ĠInnen stadt
opt ion
ĠS ul
Ġin tr
Ġm ob
Ġer folgen
ĠSt Ã¼cke
ÃŁ ig
tr itte
ip edia
Ex tension
ĠNach folge
Ġmy ster
bau en
Ġag ent
Ġpol icies
ĠschlieÃŁ en
Ġsearch ing
ĠCla ud
Ġflex ible
Ġsurround ing
K Ã¶nig
is i
ĠE mer
ach ter
ĠN in
Ġk inder
ĠSt ars
ik as
Ġst ars
ĠSch Ã¼tzen
ĠAn zeige
Ġad s
Ġges agt
cy cle
Ġmod ule
ĠKan al
ĠSar ah
Ġlux ury
S ow
T itel
Ġe ating
Ġm ist
ĠG il
ic us
os k
op her
ĠLand s
stell erin
stand s
Ġsc ope
Ġpass word
mÃ¤ÃŁ igen
ĠBereich e
ĠSen at
bre chen
Ġgl Ã¼ck
Ġrecommen ded
K ap
R ou
Ġan sonsten
ĠE tw
ĠR ober
uch er
ĠSch ild
Ġun bedingt
Ġex tre
hen de
Al so
ĠUr teil
ĠSpe icher
ĠFest ung
ĠKr iminal
ĠDav is
haupt stadt
frastru cture
ĠKomment ar
un nen
te en
ĠB auch
ĠC reek
Ġer geben
ĠV ision
ĠNe ck
igt es
ett ing
spr Ã¼che
199 2
Ġgar age
Ġtro cken
Ġdiscover ed
Ġbeinhal tet
L isten
p op
Ġf ruit
Ġv ieler
Ġc ute
ĠP seud
sch iffe
ĠH unde
Ġre ached
Ġst imm
ĠSe henswÃ¼rdigkeiten
Ġar m
iss ar
Sch ule
He aders
schn itte
unn y
ĠGrÃ¼n en
ĠSpring er
ĠSom it
Ġhous ing
ĠsÃ¤m tliche
Ġingred ients
k amp
en ters
ĠA L
ro g
Ġp ure
ĠP ader
ĠO m
ĠSch Ã¼l
lat es
ĠNieder lande
ĠKap itel
jahr en
Ġwoll ten
T emp
n i
ie ber
as ant
Ġm ur
st reit
de lete
et ime
Ġwar ten
ĠNe ues
ĠVor bild
ĠMin eral
Ġbring ing
ĠBern d
ĠKat zen
sprÃ¼n glich
Ġmanufact urer
Ġkont roll
ĠniederlÃ¤nd ischen
shaus en
merksam keit
M Hz
e ing
e ister
w ords
re land
st ritten
Ġto ward
Ã¶ tt
ah a
Ġaus gesch
Ġab hÃ¤ng
auf nahmen
fe ature
ĠHe art
Ġfe e
sel ves
ĠFre d
ingen ieur
ĠBo gen
ĠAll en
Ġmin i
Ġ[ ...]
the ater
ĠGeorg ia
Ġemer gency
ĠAltern ative
Ġincred ible
ĠErweiter ung
H Ã¶r
g asse
en ke
Ġin ne
Ġm orgen
ol t
ĠT R
ĠG a
ic i
Ġbe achten
get String
iz ona
Ġch osen
ĠNe use
res ources
Ġro ut
use ums
ĠIhr es
ĠSal v
lieder ung
ĠendgÃ¼lt ig
g age
Ġm ort
ĠH als
ĠV ent
Ġwel chen
ĠAt mosphÃ¤re
Ġfamil iar
ĠNieder Ã¶sterreich
Ġ188 7
Ġoffen bar
Ġdistr ict
ĠOption al
! âĢľ
Ġf ixed
ĠA y
ĠE g
Ġg ros
ĠC ob
ir ds
ier mark
ĠO ze
we b
Ġwe isen
Ġunter gebracht
Or iginal
Ġschw ere
Ġappro ved
Wer degang
Ġexec utive
ĠHerzog tum
ĠAcc ount
Ġlic ense
frist ig
! "
l itz
an teil
ĠP az
ĠK af
Ġge fallen
Ġr ies
art ier
ĠLe wis
ĠNe uer
ĠAus zeichnungen
Ġany where
Ġklein eren
yr ight
Ġ188 2
ĠWahl en
Ġ187 6
DE FAULT
Ġimpro vement
Ġelect ronic
IV E
ĠIst anbul
ĠChild ren
Ġt olle
or er
st yle
Ġh os
ĠP av
ĠW ellen
ĠW under
we gt
Ġvor ne
Ġget roffen
Ġ0 4
olog ien
Pro file
Ã¤hl er
kl ar
[] )
ĠSk ulpt
Film schauspieler
ĠSchiff s
Ġcompet itive
ĠBon us
Ġcelebr ate
ĠAnder e
ĠSchlieÃŁ lich
vertre ter
H P
Ġm outh
ic ial
ĠL aden
den ken
ĠJ ungen
ĠBe fehl
ok es
Ġ18 40
out put
ĠMar s
ose x
ĠÃľber blick
Ġ188 1
stre cken
ĠschlieÃŁ t
Ġdefin iert
ĠKompon isten
fÃ¤h ig
Ġfil ms
ĠAst ronom
exec ute
C S
f Ã¤llen
n ight
n ames
un ft
Ġm anner
ĠB Ã¶r
ter min
Ġ( ).
ĠN ationen
gen cies
art z
ĠMit twoch
ĠKÃ¶nig in
Ġerfolg reiche
book s
cont ainer
Ġlead s
Ġdan ger
ĠSouth ern
ĠGirl s
Ve ctor
ĠCharl otte
ĠEns emble
Digital isat
ĠArr ondiss
h ai
w irt
w arte
Ġ ).
Ġd az
Ġt end
an alyse
ĠL okal
ach es
iv itÃ¤t
Ġre aders
Ġpro min
rit ing
ĠMar g
Ġfe hlt
Ġtr aten
Ġho tels
Ġdire kten
ĠPol icy
Ġperson en
Ġdeliver ed
Ġmajor ity
ĠLÃ¶ wen
( _
A c
k rank
Â §
Ġt ut
el ing
st op
ĠK G
ĠK Z
Ġdes ire
ĠBe ispiele
ĠThe ir
Ġgr id
Ã¶ff net
ĠEx istenz
Be fore
Ġgeb lieben
ĠBuch staben
Ġsl ot
Ã¼l le
bra un
wechs elt
Ġsuppl ies
ĠPac ific
P ers
S l
re w
Ġm ale
Ġan lÃ¤sslich
ĠM oh
Ġl unch
Ġst Ã¤rk
ĠDe finition
Ġres ume
ĠVor teil
Ġout standing
az itÃ¤t
Ġ+ +
Ġpre fix
ĠAd ler
ĠBl Ã¤tter
ĠfÃ¼nf ten
met hode
ĠWeiter lesen
Ġconf lic
Sc ope
ĠFreund in
ĠSchne e
Ġbeein druck
Ġzentr ale
Ġcloth es
Ġhundred s
k ins
ĠB Ã¼nd
Ġz Ã¤hlte
ĠH rsg
ĠAn lass
ĠLe h
ĠTh or
ĠFor der
En de
Ġwould n
Ġbeste hend
esse e
ĠAss oci
ĠTre ffer
Ser ial
col or
Ġdamal ige
ĠerfÃ¼ll t
E qu
h aven
n ik
Ġa ctions
Ġe ar
us hed
st het
de cke
Ġun tern
âĢľ -
ĠMit ch
pre uÃŁen
ĠTer ror
Pr im
Ġcho ices
chten stein
ĠProm otion
b uf
w idth
and al
id i
Ġver boten
ĠVer w
Ġam t
be am
ĠAr z
rit ter
ĠHe y
Ġlie fern
gend es
Ġnord westlich
ĠdÃ¼r fte
ĠKons erv
ĠVerd ienste
a ver
c ms
Ġb attle
ĠB urn
Ġthe ory
ĠM aus
ĠV alue
ĠJ ubil
ĠEr mitt
Ġent decken
Ġlie ben
ĠJuni or
Ġparticip ants
Ġconcern s
ĠUms atz
Ġadvert ising
N E
t ax
Ġa ka
Ġa chten
Ġw alls
ĠS ed
ĠB ent
om er
ĠO bst
we ar
Ġne ut
out ube
uss y
ĠKon zentr
lex ikon
Ġbre ite
Ġerw arten
ĠÃĦ gypten
Ġbef ind
Ġbra uchen
mod el
ĠOrganis ationen
valu ation
Ġb ike
Ã¼ pf
ĠM essage
ĠF an
ĠPro cess
ĠEin stellung
mp el
amm ern
ĠBau er
Ġsho es
ĠInst agram
ĠGu ard
Ġlo ans
Ġgeboren e
Ġindividu elle
Erster wÃ¤hnung
H O
P M
in yl
ar gs
Ġm ental
ĠB atter
Ġr ise
Ġum gesetzt
ĠAl uminium
Ġ6 9
br id
oh ne
lieÃŁ en
ĠPh arm
lÃ¤ uter
Ġown ed
Ġsign s
ĠBern ard
ĠSchm uck
inu ier
Nov ember
M ai
g roÃŁ
Ġt utor
ĠAl ben
ĠCh air
ĠBer ge
Ġmin imal
Bu ild
Ġ188 3
minister iums
Ġconf idence
Ġkind s
Ġve ter
Ġinform iert
bro chen
ĠPor trÃ¤t
ĠGebie te
Ġvirt ual
mir al
t age
Ġb undes
Ġc os
ent ity
ĠF abrik
Ġk Ã¼nd
Ġzu gÃ¤nglich
utsch ein
ĠLe o
Re p
Ã¤hr en
Ġup coming
pro ble
Ġges prochen
prÃ¤ senz
iction ary
Ġdur fte
ĠErinner ung
( ...)
ĠJ ens
ver letz
ĠZ it
ĠSch ott
Ġde ut
ĠEr ic
ĠSe en
Class Name
ĠVerb ands
Ge ografie
war ded
ĠSzen en
ĠEth n
Ã¤u den
Ã¼ ft
ĠB ert
ĠB uffer
Ġan bie
Ġan swers
ĠM S
ĠF alle
ĠK ub
iel l
ĠBe wertung
ĠSie gen
hal f
ĠCh am
Ġte a
sche f
ĠArbeit geber
iden z
ĠKl ang
por ter
ĠSk i
Ġtest s
Jahrhund erts
ĠKapit Ã¤n
ĠIter ator
E p
Ġb order
Ġin fe
Ã¼ ÃŁen
Ġan fangs
ĠH op
th al
af fte
Ġat ten
ĠHe er
ĠVor bereitung
Ġel imin
Ġbo ys
ĠTr ier
pos es
Ġspec ified
ĠBi ograph
ĠFrei herr
bu ilder
ĠSing les
p es
t al
es ota
ar on
Ġv ent
ĠB apt
ig ers
Ġfe es
Ġacc ident
Ġcl imate
ĠWer bung
ĠVers icherungs
Ġsub mit
the t
ĠBra u
Ġ187 2
Ġ187 3
ĠKant ons
ĠAmts zeit
ĠMun icip
Ġproper ly
waren ess
flo at
A uÃŁer
on ischen
Ġf aster
ĠL uk
ver k
Ġdel icious
ĠTre ffen
deutsch land
ĠSchriftsteller in
H ar
ĠB anken
ver lauf
Ġauf s
ien ds
op Ã¤d
Ġsch Ã¼tzen
ens wert
Ġfe els
pro b
ĠSchw ein
)) )
oth ing
Ġ13 0
ĠÂ °
Ġschn eller
herr schaft
Ġfeature d
ĠerÃ¶ff nete
Ġrev olution
Ġaf ternoon
S ET
k B
Ġs essions
ĠS eminar
Ġb at
le un
ĠP ur
ĠK ann
In sel
Ġum f
ĠTr end
ĠHand lung
Ġange passt
Ġgleich er
ĠWir d
Ġ186 6
iller ie
ĠPeters burg
ĠZent imeter
Ġgefert igt
Ġaccessor ies
F OL
f ue
on te
Ġt ab
Ġf oll
Ġv ote
Ġn annte
de i
ĠP ict
ĠT um
ĠG rupp
Ġse gment
ĠSp itz
geb ra
Ġen tertainment
Str ateg
port al
Ġ14 0
fa iled
ĠAmer ika
Sp an
ĠAth en
ĠEben so
ĠBiele feld
A ustr
J ugend
M al
v ia
y ers
Ġt at
it able
Ġf ly
Ġn ine
Ġn ative
im age
ĠL em
ann els
Ġne ur
sp lit
Ġab gest
ĠAr k
ĠDe leg
ĠCh at
ĠAuf merksamkeit
Ġ0 8
Ġ12 5
ĠBl u
Ġevery day
ĠÃĦ hn
ĠKr one
Ġmanufact urers
Ġconvers ation
Ġopin ion
ĠTi rol
A gent
H C
V ideo
e ist
Ġs itting
as sten
ĠF ox
ach el
ru ption
tell ers
ĠBer gen
Ġber aten
Ġpla ys
let ten
Ġbro ther
ĠEis hockeyspieler
Ġpresent ation
Ġfund ing
Ġther apy
V om
is st
re uth
ĠB oth
ĠD etail
ĠE le
ĠC R
Ġth reat
ĠRe zept
Ġor th
ĠÃ¼ber all
ip eline
Ġmin im
ĠPl ant
ommer ziel
Ġ187 4
ĠSol ar
ĠDis ney
Ġprem ium
zust and
? )
b Ã¶
c in
or um
Ã¤ ts
ĠD ienste
Ġre put
ĠEr klÃ¤rung
Le x
ĠMan uel
ĠEl izabeth
Ġbesch Ã¤d
Ġgreat est
ĠPhil adelphia
Ã¤tz t
Ġzeit weise
ĠNomin ierung
F lag
S ER
U LL
l abel
un ks
he et
ĠK ein
ct ic
our i
tr im
ĠSp ar
me te
amer as
ĠCon rad
ĠGroÃŁ herzog
ĠBel g
Ġ186 1
Ġexpla in
R o
W ird
f ers
s ort
ĠS achen
ĠM uss
ĠSch atten
ungs gebiet
Ġ7 7
ĠMin er
ĠGemeinde gebiet
Ġakt ive
unt ing
Ġheraus gegeben
Ġeff iciency
ĠAndre w
Ġober halb
ĠMult i
contains Key
Ġfail ure
Ġinfluen ce
Ġrap id
Ġenh ance
ĠBronzemed aille
R un
Ġc aught
ĠF a
ĠE rot
Ġdes pite
Ġzu verlÃ¤ss
Ġhe iligen
Ġ18 78
ĠDe ath
mal en
Ġ0 9
Ġ6 7
Ġ8 8
Ġrec orded
Ã¼t ter
arr ier
ĠKreis es
ĠCont act
ĠGraf schaft
ĠAp othe
ĠRÃ¤ ume
abil itÃ¤t
Ġneighbor hood
M aler
er ie
Ġg olf
ĉĉ ĉ
ger y
ob a
Ġ0 2
ond a
man ager
ict ions
stra fe
ffe kt
Ġmag net
Film titel
ĠPass ag
ĠLink ed
c ue
Ġ icon
ĠM etz
Ġp utting
ĠE arl
ĠH ild
Ġg orgeous
Ġk Ã¼nft
ein heiten
ĠVer z
Ġres idential
Ġins ert
inter est
ĠAd vent
ĠAs ian
Ġeinge laden
ĠBut ton
lÃ¤uf e
ĠDrehbuch autor
verstÃ¤nd lich
Ġvac ation
ugos law
B ag
B aden
I l
t oken
u is
en cy
ĠA er
ĠT onnen
ĠK leine
ĠW ars
ĠRe aktion
Ġsp ending
Ġ0 5
ĠBr ut
ĠfÃ¼hr enden
wert ungen
ĠDorf es
wh ich
Ġerreich ten
Ġed itor
Ġnord Ã¶stlich
ĠEben falls
ĠSym ph
Ġgren zt
S onst
m acher
ĠB ibel
il ot
ĠT u
ĠT auf
ĠF ed
ĠF itness
ĠL ange
ach ment
ĠSt ich
ĠSt ol
ĠDie go
ĠGr Ã¶ÃŁen
ĠBer at
ĠSo ft
Ġschn elle
ĠFrei will
ĠGott fried
Ġamer ikanische
ĠRy an
commer ce
ĠS imple
Ġm ine
st ances
ĠD ocument
ĠR af
ĠL ad
ik te
Ġver lang
Ġdar stellt
ĠÃľber nahme
Ġintegr iert
Ġsug ar
ĠMass achusetts
nehm ern
Ġresol ve
kÃ¼rz ung
ĠNeust adt
C an
U UID
en berg
he ll
ĠM all
ĠM ade
ĠD ating
ĠT ony
ĠK und
Ġk Ã¤mp
ĠZ ubehÃ¶r
ign et
Ġmehr erer
Res ources
ĠJu an
Ġ186 9
ĠVerl ust
ĠMail and
ĠKommand o
ĠTschech ien
Entw ick
l ocal
ĠB ath
ĠB MW
end ungen
ĠDe fault
ĠFre unden
ĠInd ones
Ġsol cher
Ġdec ades
mus ter
Ġ187 7
ĠDis c
ĠEis hockey
ĠAuss age
OD O
Ġposs ibly
Acc ording
Ġhund ert
ĠNikol aus
abgeord neter
I st
L ayer
Z eich
n ische
Ã¤ g
ĠG ross
Ġk Ã¼rz
ĠSch Ã¤d
ĠIn tel
Ġex ternal
be zeichnung
Ġzum eist
19 18
geb oren
ĠUm feld
grÃ¼n den
ĠFil men
Ġsl ightly
ĠMÃ¤n nchen
Ġdep th
ĊĠĠĠĠĠĠĠĠĠĠĠĠĠĠĠĠĠĠĠĠĠĠĠĠĠĠĠĠĠĠĠĠĠĠĠĠĠĠĠĠĠĠĠĠĠĠĠĠ ĠĠĠĠĠĠĠĠĠĠĠĠĠĠĠĠ
Ġcloth ing
Ġinstit ution
( @
W ar
d orfer
i oren
p unkten
Ġt arge
Ġbe zieht
ĠRe par
Ġat mosph
par ks
ĠOr th
uld a
ĠPr ice
co der
Ġinst rument
Ġmon at
Ġem otional
ĠWohn zimmer
Ġdisc ount
wor fen
format ik
Ġbevor zug
ĠEv a
Fernseh film
bereit et
i op
r Ã¼
Ġt asks
ĠM eine
Ġl anger
ĠSch icks
Ġver teilt
Ġver arbeitet
ĠIn spir
Ġun gewÃ¶hn
ĠVer m
ĠHe ide
tra ck
igh ter
Ġfre ige
Ġfest gelegt
Gener ator
ĠGebie ten
Ġfertig gestellt
ĠerfÃ¼ll en
Ġconsum ers
Cur ve
ĠVerstÃ¤nd nis
F ollow
G A
i y
Ġc and
ĠAus wirkungen
Ġfe ierte
Ġfe hlen
ĠKon f
mÃ¤ cht
Ġbuild ings
Ġphot ography
ĠMeer es
ĠHÃ¶hen lagen
Ġanerk annt
Ġaccomp l
/ >
ĠF ly
ĠJ am
ĠO S
Ġr are
ĠEr m
De zember
ĠJul ia
ĠProdu kten
ĠGo ethe
ĠPolitiker in
Ġredu z
Ġlands cape
Ġbegrenz t
C L
O ktober
ĠG ib
ĠW Ã¤l
Ġbe her
Ġl ust
Ġth us
ĠSt u
ĠSch reiben
hl on
Ġqu er
De lete
ĠGesch Ã¤ft
ĠSchw anz
Ġprov iders
vent ory
bo ot
ĠÃĸ k
ital ien
ĠHier bei
ilome tern
Ġ{} ",
B R
L ab
M ay
m ans
Ġs alt
Ã¼ ÃŁe
ĠK abel
ĠH ope
ĠR eit
ĠZ ell
Ġalle ine
upp e
ĠBes ter
Ġtr ial
ĠProf essional
Ġur i
ĠDar aufhin
Ġintens iv
ĠVorstand s
Stru ctural
ĠverstÃ¤r kt
D ivision
I hr
M ass
P op
S ocket
k al
Ġn Ã¤chst
ĠP as
ĠG h
ĠG lock
ĠI F
ĠC in
ind ungs
Ġ3 50
etz ungen
Ã¤r n
ail ability
Ġpre gn
Ġhand elte
Ġmin ing
ĠEinwohner zahl
Amer ican
grenz ung
Ġarr ived
Ġschl ug
Ġmount ain
Ġverg essen
Ġdepend ing
BevÃ¶lker ungs
C I
k ommt
ch i
ĠM ix
pp t
Ġne arby
Ġch arm
ens us
aw ay
ĠStud ios
Ġpl ate
Ġstand ing
hol ung
abr Ã¼ck
ĠKat alog
ĠKompon enten
ĠFel der
Ġfund ament
open hagen
Ġinstru ctions
ĠRum Ã¤nien
ĠMitarbeit ern
Ġlern te
H am
ar ation
ig i
la p
ĠY es
Ġour selves
Ġ9 6
Ġra us
Ġstar tet
Ġcal endar
Ġbreak fast
ĠDo ktor
Ã¼ste t
ĠbenÃ¶t igen
Ġcommit ment
ĠGÃ¼n ter
or ough
at ische
Ġp ed
ĠG Ã¶r
âĢ ³
ĠK Ã¼r
ĠI ss
id ays
ate way
per iode
ss ystem
ph as
ĠGr iff
ĠBr Ã¼cken
Ġgu itar
Ã¤nger ung
ournal ist
Ġleben s
gre es
stud ium
Ġkont inuier
hab ilit
ĠNS DAP
ĠSpan ish
Ġcabin et
ĠDrit tel
P red
V O
g ard
n oten
v ideo
Ġs ad
Ġan alys
Ġp ump
Ġc art
ra hmen
ĠW itt
Ġk ing
ĠRe kord
ph abet
igh ten
li ess
Ġhand ler
Ġger inge
iven ess
ĠPol ice
Ġgood s
ĠCl oud
Ġ186 8
ĠÃ¤l tere
Ġerk enn
Gener al
Ġerinn ern
Wind ow
Kompon ist
Ġpersonen bezogen
N ote
n abrÃ¼ck
on ic
ar film
ĠB ib
Ġein heit
Ġl ived
Ġge kauft
ond itions
Ġgew Ã¶hn
hÃ¶r igkeit
ĠPh oto
li as
bo y
Ġ> >
ĠSal es
Ġiss ued
ĠMa ÃŁe
Ġple asure
Ġimplement ation
ĠHir sch
ĠCast le
Ġfeed back
Ġverwende te
R ight
l enz
w ird
Ġd ick
ĠP ear
ĠL ov
Ġth ick
Ġr ene
ill o
Ġsp aces
ĠDe kor
Ġqu ote
fahr ens
ĠTra vel
Ġur ban
itu ationen
film ung
urf ace
ĠZug riff
Ġparticip ate
Ġarchite cture
D etails
m os
ĠP rÃ¤sent
ĠT an
ĠT ank
im i
ĠSt ro
Ġis rael
Ġle gt
ĠAr gentin
lie hen
Ã¼hr t
ĠBr uch
ĠIS O
rich ts
Ġbo at
ĠJun ge
ĠMor itz
Ġhistor ical
ĠÃ¶ k
Ġdynam ic
) ).
P ay
c ell
m issions
t l
le ten
ĠB od
ĠK ai
ĠW eit
ĠC ass
os c
ĠEr gÃ¤n
ĠEin er
ĠAus stellungen
ph ones
ari at
arch ie
ĠSpe kt
Ġgest artet
Ġgem Ã¼t
ĠnatÃ¼r lichen
isc ons
ĠÃ¼b lich
dar steller
uert o
Ġcaus es
ĠWach stum
ĠÃĦr zte
ĠVerbesser ung
Tod ay
ĠDonner stag
F ont
M useum
t ario
ĠS ob
Ġf uel
Ġv ital
ĠD id
ĠG abriel
ĠW itten
ĠL ohn
Ġge pf
Ġver an
ĠEr lebnis
ĠÃ¼ber zeugen
gesch Ã¼tz
entr um
ĠTr ink
add All
new Line
ĠJugend lichen
ĠKo ordin
ĠNorth ern
Ġmatch es
ĠStruktur en
Ġbrow ser
ĠContin ue
b art
ĠS z
Ã¤ use
ĠG ymnas
ĠR oland
Ġnach gewiesen
ĠAb lauf
ĠBer ater
Ġ7 6
ĠAll gemeine
Ġgut es
Option al
fil me
entry Set
Ġple ased
ĠMathemat iker
ĠKath arina
Ġscient ific
Frie drich
s inn
u ers
Ġa gr
Ġs tet
ic z
ĠW icht
ĠC ann
Ġst ir
se y
ĠRe prÃ¤sentanten
00 00
ĠTe uf
Ġar ts
Ġwieder holt
Ġbeg ins
Or ts
ĠBet reuung
Ġmach ten
anstalt ungs
zir ke
ĠBot schafter
ĠBres lau
BevÃ¶lkerungs entwicklung
I tems
k ommand
Ġd ialog
ĠS I
ĠS ams
Ġb lau
ĠA cht
ĠT iefe
ĠF ont
ĠG ouverneur
ĠH P
ĠR ent
ĠC irc
ĠJ ury
af Ã©
Ġunter scheidet
Ġdr ivers
ĠRes te
ĠMot to
Ġsign ature
equals IgnoreCase
Ġindividu ell
Ġappear ed
Ġstamm te
Ã¶p fe
ĠMem orial
Ġschwar zen
ĠLeichtathlet ik
W A
d ner
z ut
Ċ ĠĠĠĠĠĠ
Ġd unk
ĠS ale
ab len
Ġst retch
ou is
ĠSch aff
Ġde cre
ĠAn meldung
ib ilities
ĠCh annel
lan ze
als o
ott a
Ã¡ s
ĠMo z
ĠĊĠĊ ĠĊĠĊ
ĠFin ancial
ĠHar vard
Ġepis ode
N onn
P AT
W rite
Ġb an
Ġm ic
us che
Ġv ul
il ation
ĠI reland
ĠSch Ã¤den
ĠÃ¼ber zeugt
omm ission
ĠWe is
sh ow
ĠKon kurrenz
gew inn
Ġcl oud
ĠInter pret
Ad apter
Ġmonth ly
Ġair port
Ġmeisten s
Ġlov es
ĠerklÃ¤r en
ĠLim ited
Process or
Ġak zept
ĠRuh estand
A ud
B oot
z uge
ĠB ah
ĠR out
if ff
Ġsch affte
Ġ18 15
du ate
ĠTh ailand
Ġ0 7
Ġ< <
Ġfl u
ĠNatur al
ĠMag azine
Cont roller
deck te
ĠnatÃ¼r liche
ĠBaum w
Ġausgew Ã¤hlt
Ġpromov ierte
ĠKurfÃ¼r st
ĠGriechen land
ĠPader born
W eiter
r ent
Ê ¿
Ġd ipl
at ible
Ġo s
ĠF lex
ĠH Ã¤
ĠV ene
Ġk irch
Ġge liefert
ĠZ ut
ĠBe arbeitung
Ġle isten
Ġex port
be cken
Ġum s
pro ject
ĠVerb indungen
ĠLin ux
ĠBen jamin
ĠDi Ã¶z
Ġredu ziert
ĠEmp fehl
ĠAutor in
Ġpur poses
ĠDokument ation
ĠÅ ł
ĠZuf luss
ĠPfer de
Ġschwar ze
ĠKonzer te
vorsitzen der
H alb
b ur
re chnung
he w
Ġin tended
ĠG lÃ¤
ĠE ver
ĠR ome
ul iert
ĠZ Ã¼ge
sp unkt
aus chen
ĠBe hinder
hn te
Ġso fern
ac o
Ġbut ter
Ġlie ÃŁen
pf lanzen
Ġgesch ieht
ĠLin den
Ein wohner
Array List
Ã¨ s
ĠBischof s
Ġerrich ten
ĠPrem iere
ĠDisk ussion
ĠniederlÃ¤nd ischer
Ġcandid ate
Dec imal
ĠOlden burg
Ġbenachbar ten
M T
M ath
N icht
c ers
ĠS ay
ĠC ell
Ġbe it
Ġy ellow
ivers ary
Ġ8 4
ĠWor ms
Reg iment
Ġtyp ically
ĠMÃ¤n nern
ĠMel od
ĠSieg fried
Ġintrodu ction
Ġhon or
Ġprakt isch
ĠSaar brÃ¼cken
ĠJahrzehn ten
Ġanc ient
D ig
Ġd b
Ġt ast
or ders
il st
ĠD R
Ġp od
Ġp ink
ol ine
Ġg rad
ĠSt att
Ġ} ;
Ġhe ft
In formation
hand lungs
Auf grund
Ġimpro ved
Ġerm or
Ġliegen den
Ġzwe ier
ĠIndustr ial
ĠHon or
Ġtal ent
ĠGÃ¼n ther
ĠPfar rei
Ġverme iden
ĠArrondiss ement
m ade
as ie
Ġe gal
ĠA sp
Ġc ake
ĠK ast
Ġto ugh
uf er
ul der
berg s
ari us
Ġtyp ical
Ġangeb racht
Cons umer
ĠExt ra
Ġbess ere
l ach
n isses
Ġt iny
ie gs
ro st
Ġge lesen
Ġst il
Ġfor um
sp itze
Ġhe aring
Ġhe iÃŁen
Ġwe aring
ĠSp irit
ĠEn vironment
19 33
me chan
ĠAus gaben
ĠCh a
Ġmehr mals
Ġ7 8
ĠOrt schaften
ĠReich es
ĠNieder landen
ĠCor ps
iam i
Ġask ing
Ġhost ing
ĠPsych ologie
ĠBrun o
Ġsowjet ischen
c ohol
g ler
k Ã¶
p ann
an ing
ĠB enn
ĠG ul
ĠH us
ĠC ount
Ġk Ã¼nst
Ġk illed
Ġsch ott
Ġat tributes
ĠPro tocolMarshaller
Ġvor genommen
enn zeichnet
Ġsh ut
Ġgen e
ĠAd dition
Ġtr ends
Ġra il
Ġpass ende
Ġrelat ive
ĠKe ep
ĠKind heit
Ġintegr ated
ĠÃ¼bern immt
ĠZun Ã¤chst
(...) ");
iscons in
r ia
ĠS ysteme
Ã¼ he
Ã¼ chte
ĠP lÃ¤ne
ĠG Ã¼
Ġl ifestyle
all iga
qu ote
ungs mittel
ĠEn tertainment
ĠAus sch
Ġreturn s
ĠQu ell
ins ichtlich
ane ben
Ġaccess ible
Ġmatch ing
ĠHin weis
Ġproced ure
Disk ografie
ĠBeteil igung
Nonn ull
H ans
M C
M iss
S en
S im
us ing
ĠF as
Ġl an
ĠN an
Ġk rÃ¤ft
ĠAn wendungen
Ġent re
19 80
ĠAb satz
amm elt
Ġgen et
Ġspe zif
ĠFre il
Ġel ig
Ġacc ounts
Ġdec isions
ĠSpe ed
Ġben ch
Ġ186 2
Ġperfect ly
ĠAndre a
Ġcook ing
Ġrecogn ized
Ġwirtschaft lichen
Ġlic ens
ĠDub ai
Ġreve aled
Ġaccur ate
ĠJord an
D av
F i
G ood
P rÃ¤sident
t im
in ent
ar ischer
Ġe cht
Ġh ire
am ik
ĠP ont
ĠP RO
ĠG ard
Ġfor ec
ord on
ĠDe f
ute te
fahr zeuge
ĠGem ark
ĠSchw imm
ĠEurop Ã¤ische
ĠDurch fÃ¼hrung
Ġpolit isch
Reg ie
Ġbro ken
Ġorgan ic
Ġabsol ut
Fr ame
Ġbeeinfl usst
ĠNap ole
ĠverlÃ¤ng ert
B I
Ġa ben
ge mÃ¤ÃŁ
Ġf lav
Ġc ategories
ĠG ent
sch ung
sch rank
Ġre ar
la de
ste chn
Ġpre c
ett i
Ġrec o
ĠÃĦ m
anc ouver
Welt meisterschaften
gebie ts
ĠWass ers
angeb ote
PRO PER
ĠKomment are
Mot or
ĠabhÃ¤ng ig
B ounds
b Ã¤
k ette
Ġa ges
Ġc raft
ĠG un
ĠG att
ĠI ron
Ġr an
ere cht
gel Ã¤nde
St a
St ation
tra ce
old s
Ġ8 1
ank a
Ġgesch lagen
ĠDes igner
Ġtrans ition
ĠDienst leistungen
ĠClass ic
ĠMer cedes
Ġpurch ased
ĠOpt im
Ġperman ent
Ġsympt oms
Ġb atch
ĠB eth
ro vers
ĠG n
ĠL ob
ov iÄĩ
Ã¤t igkeiten
imm y
Ġph arm
ĠMill imeter
ĠTechn ischen
ival ent
Ġequ ipped
Ã¨ re
ĠFrÃ¼h stÃ¼ck
ĠAth let
Ġencour age
ĠKohl en
liefer ung
Ġvalu able
C ost
F ind
G re
k ommun
n el
n isch
w ein
or o
Ġf Ã¶rdern
ĠB E
ĠG oth
ĠG Ã¶t
ĠH ang
ĠR as
Ġde bt
Ġsch m
auf lÃ¶sung
ac ious
ble iben
lag ert
ĠMan chester
Ġmus ical
ĠFr ucht
Ġbel ong
Ġsupp orts
ĠMill ion
pres ents
Med ia
Ġerlang te
U se
W asser
k ol
n ur
he ater
Ġv ary
st Ã¤rke
ĠD ob
au c
Ġat om
ĠIm per
ĠkÃ¶n ig
off izier
ĠOber Ã¶sterreich
Ġbel ief
ĠHaus halts
ĠAt trib
ĠPart ners
ĠPat ient
Not ification
iÃ¨ re
Ġappoint ment
ynast ie
? "
H il
r ufen
ĠR olf
ber ry
Ġle istungs
Ġch icken
ac a
ĠAb d
los igkeit
Ġ7 4
elle d
kr ise
Ġfrei will
fir ma
PersÃ¶n lichkeiten
W S
b ten
g ments
p fe
r ischen
Ġt ur
Ġc utting
ab schluss
id x
Ġver grÃ¶ÃŁ
ĠAn k
Ġpro ps
ok ol
iz ist
dem okrat
Ġlie fer
ĠÃĸsterreich ischen
ĠStraÃŁen bahn
Ġmitt lere
ĠPrem ium
ĠMult ic
ĠRestaur ants
famil ien
ĠAust in
Ġcirc um
Jul i
ĠBoch um
b ing
r ennfahrer
ĠM asse
ĠD y
ĠH R
Ġst im
th en
ĠPro perties
Ġsh ares
Ġpar ser
rol og
Ġcle arly
ÃŃ o
Ġlo op
Ġevent ually
Ġatt ached
Ġ186 4
ĠZe aland
Ġ185 7
Ġturn s
Ġern st
Ġgelang te
Ġadmin istration
Ġguarante e
ugu ay
Ġannot ation
O O
U L
a ire
s Ã¤tze
Ġt or
an ischer
Ġw asser
Ġw omit
ing ers
ĠB uck
ĠD I
ol ve
ĠP ick
ĠG on
ĠK ok
Ġg ross
ber atung
id as
Ġaus geschlossen
Ã¼n der
ĠAr izona
Ġent ries
Ġsh ift
Ã© d
Ġbest immen
Ġra ise
Ġconc entr
Ġeig entlichen
Ġindividu ellen
Ġklass ische
Ġhold ing
ĠÃĦnder ung
a al
d ir
i he
t ask
Ġa rab
ĠS quare
Ġf ir
Ã¤ le
Ġ( _
Ġein gebaut
ĠF inger
Ġbe gr
ĠSp uren
land schaft
Ġgen auso
schie de
Ġerw eiterte
ĠHoch schul
Ġsur gery
ĠĠĠĠĠĠ ĉĉĉĉ
Ġident ified
bÃ¼ ro
Ġspeziel len
ĠOs nabrÃ¼ck
Ġdeb Ã¼t
ĠStock holm
ifiz ierung
ĠÃ¤uÃŁer st
Ġgeplan ten
Ġabger issen
W ell
c p
Ġf u
Ġe lection
ĠG umm
sch Ã¼tzen
ĠR iv
ĠV iz
ĠJ Ã¤ger
ĠSch enk
Ġr id
ĠEin fach
ĠTh ree
Ġber u
ĠOb ama
Ã¤tz ung
spre chen
ĠRo hr
IC E
ĠZe ug
Ġdefin ition
Ġposition s
omet imes
inst ance
Net work
Ġmeas ures
supp orted
M ein
O UT
k lassen
v arian
ĠD ance
ĠP rix
ĠW i
ĠZ wer
Ġun less
ost ol
ĠAuf sichts
Ġro ten
ize i
ende d
ex ception
ex pected
ĠIns urance
ĠComm and
ĠIr ish
TI ME
ĠGemeinder at
FOL LOW
b undes
Ġ 000
ro b
am ar
ĠAuf ruf
Ġ9 8
ĠQu ery
Ġrec over
ĠKon struktion
Ġbr ill
Ġmed icine
ĠSen ioren
produ kte
frei heit
Ġevangel ischen
Act ivity
Ġclin ical
d ated
ĠS K
Ġn utzt
Ġ1 17
ĠP ad
ĠW inkel
ĠJ Ã¶rg
ant in
Ġor ange
ĠLe ader
ĠCh ile
Ġbest anden
ĠAmer icans
ĠMo on
stoff en
Ġkosten lose
ĠursprÃ¼n gliche
ĠVal id
Ġfit ness
ĠWehr macht
ĠnÃ¶t ig
Ġdou bt
P erm
S w
Ġa id
Ġb ab
ĠE cke
ĠI gn
Ġre presents
all eng
ĠAn sicht
ĠUn it
par ator
ĠMill er
Sh ow
Sh ort
ĠGesetz es
ĠKomm andeur
Ġevangel ische
ĠmÃ¶ gliche
sparte i
t ail
ar isch
he iz
Ġc able
ra ben
ru p
ek ing
Ġdisc ip
ĠVe ter
ĠTemperatur en
ĠSchwar zen
ĠBuild ing
ĠKabin ett
C lick
Ġt ables
Ġf ellow
Ġf asc
ĠM indest
om on
ĠN est
ier bar
ĠIn se
Ġwar rant
hn t
Ġum stritten
ook ie
ĠHe eres
ĠZeit schriften
Ġoff ens
ĠChrist us
ĠRes ponse
ĠSÃ¼d afrika
IT E
kon stru
ĠverÃ¶ffentlich ten
plan ung
Ġident ity
Ġern annte
Ġwichtig ste
ĠDÃ¶r fer
Ġverwende ten
d ies
g nung
Ð ²
Ġ ~
al is
sch te
ĠC ivil
ĠN atÃ¼rlich
ĠV ul
gen den
qu ellen
Ġpro spe
Ã¤n glich
ĠTe lef
ian ischer
ser ien
br Ã¼ck
ĠIt aly
ĠFre y
ĠSpiel klasse
ĠzurÃ¼ck gegeben
Ġgef Ã¶rdert
Ġsk ill
Ġoffen e
197 6
Ġpubl ish
ĠStÃ¤d t
Ġemploy ee
ĠBud apest
ĠFeder al
ĠAdmin istration
ĠPremier minister
VerÃ¶ffentlich ungen
ĠBrow ser
) -
D okument
e ber
f Ã¤nger
Ġt om
al ters
ĠB ody
ĠP okal
ĠC er
ĠJ Ã¼n
Ġge lingt
ou red
ien ne
Ġj ener
Ġj oint
Ġwh om
ern t
ĠBe werb
19 70
ack e
Ġen han
Ġbes tellen
Ġlie ber
ĠHo uston
198 4
ĠgÃ¼nst ig
Schweiz er
ĠEreign isse
Ġimpress ive
ĠFÃ¤h igkeiten
ĠRett ungs
Hinter grund
B rite
W o
d rom
l t
p ur
Ġ iv
es heim
Ġs ac
ĠT s
ad bach
ĠO hne
ĠIn de
Ġex ists
gr at
ĠJahr gang
âĢľ ),
ĠEx c
ĠKon stru
ĠVers orgung
ĠSÃ¼d west
Deutsch e
iges etzt
Ã¤mp fung
ĠHÃ¶he punkt
ĠKrieg sende
ĠWissen schafts
zus etzen
ĠExp edition
ĠSn ow
Ġaffe ct
ĠVerteid igung
wach ung
ĠRog er
Ġgrat is
Ġbon us
g f
l Ã¤ndern
it als
Ġb Ã¼rger
Ġb owl
ich s
ĠB GB
lin ed
Ġ12 00
sg ruppe
Ġfest ival
Ġbef est
Ġhol te
leist ungs
ĠHalb insel
Ġged reht
ĠprÃ¤sent ieren
ĠSum me
imens ions
ĠMÃ¤r chen
G C
r Ã¶
in v
Ġs itzen
as ted
Ġp un
ic ut
ĠC ase
ĠV ikt
qu ir
Ġat tended
je cted
ian er
ER S
Ġph ase
zw ungen
Ġpres ents
AS E
Ġbig ger
EL D
Ġwhe el
Ġwid mete
Ġexten ded
Pla y
ĠKu gel
Ġumfang reiche
ĠEigent Ã¼mer
Ġstellvertreten der
Ġausreich end
Abst ract
. ",
b ran
f uÃŁ
h au
en ne
Ġm g
il deten
ĠM alt
Ġz ip
ĠW asch
Ġdes selben
ne uer
Ġun w
ine a
Ġex cept
Ġad j
Ġget Ã¶tet
Ġnoch mals
gesch lecht
ende te
ĠAut omat
Ġdr amat
ĠParis er
Ġelect rical
Lo ad
Ġged acht
Ġofficial s
B Ã¼
S K
j ar
ch annel
Ġf o
ro it
st unden
Ġl Ã¤nd
ul ing
ĠSch atz
Ã¼n de
Ġus ual
Ġwo oden
ĠBet reiber
stru ctor
Ġdel la
Ġchar ges
ĠDo zent
ĠIns besondere
ham mer
ĠHigh way
ĠPosition en
Child ren
Ġpoln ischer
Dat abase
fÃ¶rm ig
Ġengag ierte
ĠlÃ¶ ste
Ġappreci ate
Down load
ĠstÃ¤dt ischen
Ġreco very
C ustom
O pt
a ine
d ig
f indung
ie ge
ĠS low
Ġf ishing
Ġo h
ro tt
ĠG az
Ġz ogen
ra ph
ĠL P
Ġge laden
Ġall gemeine
oun ge
ĠHe ck
Ġ7 1
Ġ7 3
IN ST
Res ults
Ġhier fÃ¼r
Ġset up
Mit tel
Ġben annte
yr am
Ġkon k
198 8
Ġqualif ied
Ġvari able
Ġeffect ively
Ġassess ment
ĠAndr Ã©
rupted Exception
1 20
j ahre
s Ã¤nger
v ements
ï ¼
Ã¼ ben
Ġh all
ĠP lattform
ĠT ed
ĠSch u
ĠAn satz
pro zess
ĠAut os
ĠFe ier
Ġhistor ic
Ob j
Ġsuccess fully
Ġworks hop
Stand ard
Ã§ a
Ġsil ber
Ġausgest ra
Ġbem erk
Ġdetermin ed
irurg ie
ĠMinn esota
M sg
h Ã¤lter
s ed
w id
z ucht
in cl
Ġin ches
ic als
ra gs
ĠL isten
Ġbe zÃ¼glich
ĠO ak
ĠZ DF
ĠSch Ã¤
Ġj oy
ok ing
Ġwill ing
ĠVor stellung
fol gs
De vice
ĠGeb ir
org ungs
Ġfl ower
Ġclass room
Ġkomp lette
ĠRein hard
ĠAcc ording
ĠHoll and
ĠCost a
M ost
M AT
Ġd iss
Ġv ib
Ġh Ã¤ngt
ĠP iet
ĠK alender
ĠH ass
ĠH enn
ĠN am
ow itsch
Ġst abil
Ġver p
oc ate
ĠTe en
ĠAb wehr
fe ier
att an
ĠSte el
ĠSer ge
Ġ186 5
ĠBed ien
ĠRu der
Ġmag azine
ĠKe vin
Ġverste ht
prof it
Ġunters ucht
ĠBesatz ungs
ĠGreg or
: .
Ġs ides
ĠS D
ĠB utter
ĠB uff
ĠI C
ĠH ob
ĠH ills
um pf
ber gen
ĠU rauf
ver halten
Ġvor der
ĠMar co
inn ers
Ġinv ited
trÃ¤ glich
ĠPra ct
Ass ign
ĠCap ital
ĠHoff nung
Ġign ore
ĠGit arr
Ġehren amt
k ers
Ġw inner
ĠA spekte
ĠR ange
Ġg ifts
Ġfor ces
Ġvor kommen
ĠGe or
ĠFor ts
Ġtra ined
Ġ8 3
rat ic
Ġbre ath
ĠBand s
Ġac cepted
Ã¼ll en
ĠLeip ziger
UN G
Ġlik es
Ġregular ly
Ãĸsterreich er
Ġerheb lich
ĠInnov ation
ograp her
K om
Ġd ental
Ã¤ sche
ĠP s
ĠP osten
ĠJ ag
if ikation
Ġr iver
ĠEr furt
Ã¤t tern
ĠAb tei
Ġ9 2
Ġapp end
ipp er
reg on
schl Ã¼sse
Ġbra un
ĠGed icht
196 8
Ġinterest s
Ġdivers en
Ġschedule d
B inding
E lem
M Ã¶
l ier
r uments
Ġa wareness
Ġe c
Ġh art
ĠH arm
Ġbei der
Ġme al
Ex pr
own ed
bar ung
ett a
ĠKon text
Ġbo ot
ather ine
ĠauÃŁer gewÃ¶hn
IL L
ĠInstitution en
ĠChallen ge
ĠVerbrauch er
A ber
d ienste
m Ã¤r
m Ã¤nn
ĠS G
ĠS itze
Ġm Ã¤cht
ĠE ff
ĠC N
la ce
ver kauf
ov o
Ġ18 49
Ġbis schen
omm y
olle yball
Ġger iet
ĠMed icine
Ġmach ines
Ġpass enden
Ġmember ship
dienst kreuz
198 6
ĠStad ion
Ġzerst Ã¶r
Ġgradu ate
Ġaffe cted
instit ut
izien z
ĠplÃ¶tz lich
c ache
h ent
u tel
u ages
ĠA uÃŁ
de f
em y
ĠR ic
ĠC hen
Ġauf w
sen burg
Ġor ders
ĠTe ich
Ġtra il
wei he
ĠCar los
ĠCon f
Ġke eps
ĠUr ban
ament o
sicht lich
Ġcall back
Ġgrow n
kn Ã¼p
ĠCons ult
ĠLeg islat
ĠRis iko
ixt ure
Sec urity
ĠKonfl ikt
A lex
K ar
R ennen
f w
m iss
s ign
ĠS EO
Ġf ell
Ġh ung
sch reiben
ein richtungen
Ġy es
Ġle hrte
Ġme at
me yer
Re port
Re pository
ĠMe g
lement s
Ġange kÃ¼nd
Ġvis ited
Ġcar ried
ĠDis play
Ġhard ware
ĠBad minton
ĠÃ¶ff nen
Ġconstant ly
I K
k urrent
z ule
er ten
ĠS yl
Ġf v
st age
Ġh idden
ol ved
ĠH eine
Ġbe auf
ĠAn bau
Ġsich ern
ĠRe ed
Ġex cess
Ġsp ir
ĠAl an
iss a
fahr ung
Ge org
ĠDr ive
ĠChar ts
Ġgest orben
AC T
Ġzahl en
Ġperfe kte
ĠSol o
ĠAnfang s
ĠTre ff
Ġfour th
197 9
ĠDat abase
Ġinnov ation
Ġpartners hip
ĠAnth rop
ĠÃľberg ang
BÃ¼rger meister
ĠNR W
Ġbegeister t
b ist
is is
ĠS emin
ro hr
ĠR ain
Ġl Ã¶sen
ein st
Ġre venue
ĠSt aub
ib us
eb au
ĠBe fest
ĠAb sol
Re zeption
gesch icht
Ġvers ions
ĠX S
Ġsol o
weiz er
Ġsur prise
Ġreal ize
Ġmain ly
Ġtw ice
Ġzuge lassen
How ever
Ġanaly t
Ġfrequ ently
Ġgarant iert
K lass
U C
l Ã¼ck
Ġs auber
Ġw et
ĠS ite
le ep
Ġin frastructure
ĠB in
ion ier
Ã¤ hne
ĠD IN
ĠF la
sch rau
ĠC ry
iv ia
ĠZ er
ĠIn putStream
leit ungen
ĠSee le
197 4
ĠCla us
Dis play
Pos ted
ĠEvangel ischen
ĠDir igent
ĠErgÃ¤n z
ã ģ
Ġd einen
Ġw Ã¤chst
al teten
ĠS ource
Ġf f
Ġe ast
Ġ1 15
ĠK ay
ĠI b
hr ung
ĠR auch
Ġbe wohn
ĠO range
ĠAr ena
Ġsp l
Ċĉĉ ĠĠĠ
ahl en
Ver tex
Ġra di
mat ik
Ġcolle cted
spre ch
Ġbef anden
ĠKommun ikations
Ġredu ced
Ġcamp us
Ġbesonder er
rim in
ĠAnth ony
ĠMaxim ilian
ĠSchÃ¼l ern
ĠdebÃ¼t ierte
E hren
Ġt icket
le utnant
ĠM inder
Ġp apers
ent schieden
âĢ ¯
ĠR unden
Ġg un
ĠC her
ĠC ock
ĠN O
Ġk ompon
ĠJ Ã¼d
ĠJ ohan
ot os
ĠSch los
ĠRe b
Ġsch ne
ĠCh ap
row s
Ġsh ops
ĠSta ates
ĠNord amerika
Ġ% .
ĠWest falen
Ġbekannt esten
haf tet
ĠTo uch
Ã¤ll ig
Des ign
198 7
ĠGold medaille
197 2
iÄ į
Ġhor se
ĠTok io
O h
T ok
c atch
h Ã¼tte
j son
k ter
Ġt ri
re v
ĠA lice
ĠB BC
Ġan grenzen
im o
et on
Ġge arbeitet
os er
ran ten
lic ke
form ed
ĠIm mer
Ġgef angen
Ġrest r
ĠFot ografie
ĠHar ald
Ġpay ing
198 5
Ġequ al
ĠOut door
sm ith
ĠLux emburg
ĠMitt ler
Ġt ub
Ġs ink
Ã¼ chen
Ġan al
ĠF ellow
ĠF ulda
ĠK ader
ra it
Ġbe ar
th ese
qu ar
ĠVer anstaltungs
ĠBe an
ip er
ack t
ĠVor teile
Ġtra cks
ĠFre m
Ġseit her
Ġpl anned
Ġcons ists
buch autor
fa ction
Ġstatt dessen
Ġfest ge
ĠKont akte
ĠHow ard
Ġenth us
Ġadvent ure
Mem ory
Ġdenk mal
ĠMitch ell
6 00
F E
M IN
k k
t akt
z it
in th
Ġa w
ĠS ix
ĠM ust
ĠH Ã¤nde
Ġbe wegt
and in
ĠZ ert
esch ichte
ĠCh i
Ġnot iced
ler in
alt ar
tra cking
chn ungs
br onn
ĠSpiel s
Ġ' "
ĠEd itor
Ġgewann en
ĠDienst ag
Ġcert ificate
gef angen
ĠDate ien
ĠÃ¤hn liche
Ġrespons ibility
Ġseem ed
ĠSmart phone
hyth m
ĠEber hard
Ġfoll ows
" -
N ummer
S pl
Ġs la
ĠM O
ĠD orn
ĠR up
Ġbe er
Ã¶ ger
ier endes
ĠTe ch
Ġstand s
Ġfound ed
ĠHerr scher
ĠRuss ia
CO L
Ġconsider ing
ĠSilber medaille
ĠLieb lings
Ġsus p
Ġstaat lichen
ĠKandid aten
T or
k rÃ¤
n acht
p ay
y ou
z elt
Ġa gencies
ĠF uture
ĠK upp
Ġk ommerziel
Ġcon v
ĠDe te
19 75
ens burg
ĠNe xt
Ġ5 000
ĠBr Ã¼ssel
Ġtr igger
Ġfind est
Ġverb esser
ĠPla yer
Ġhealth care
ify ing
Ġenc ounter
ĠIr land
ĠSied lungs
ĠRelig ions
Ġpers pective
Fra uen
ĠExempl are
C ategory
h ir
ã ĥ
ĠA ge
ĠM ob
Ġp in
am tes
id met
Ġver lei
ĠRe formation
ĠEr werb
Ġle ichte
Ġ18 30
amil ton
ĠPar ad
Ar gs
Ġfl ash
At tr
ĠErw Ã¤hnung
Ġbede uten
ĠfrÃ¼h ere
ĠMerk male
ĠViertel finale
lah oma
Constra ints
ĠDist anz
G Hz
H allo
S ite
f ound
l on
Ġm ixed
ĠA kte
ĠB ry
ĠB enz
et a
Ġz ero
Ġl aden
Ã¼r tel
uch ung
ĠSch icht
Ġon going
sp ec
ib il
fe ktur
Ġar gentin
cl ing
Ġfe iern
ĠStadt gebiet
Ġ8 2
yp en
ĠMan ufact
Ġtechn ique
Hand le
LO C
ĠNaturschutz gebiet
Final e
ĠErwachsen en
alleng ing
D enk
at in
ge legen
Ġh ole
ĠR ainer
ĠN ash
we be
se a
se ction
Ġch art
Ġnew sp
ian z
Re al
ĠPar ks
ron ics
ĠTr io
schlieÃŁ en
ĠIde as
Ġstell ten
Stack Trace
ĠAN D
Ġbeob achtet
% .
A ME
ar ett
Ġan f
Ġn a
ĠP ic
ĠW ende
ber ge
ab schnitt
Ġge fe
id ance
ĠU E
Ġsch eiterte
ĠMar io
ĠFor est
ĠGesch lecht
ĠArbeit sk
ĠJul ian
Ġverb inden
ĠWohn ungs
ĠCo ach
hÃ¶ fe
ĠMr s
ĠAufent halt
B lack
I ts
S ummary
c io
f Ã¶rderung
l oc
Ġt ile
te ch
Ġv ast
ĠT ry
ĠT ool
ĠW ester
ĠL ande
ĠC ON
ĠEin zugs
19 30
19 39
res te
ail ure
par tei
Ġ7 9
Ġger inger
ĠBet racht
oph on
Ġeing est
wor ld
ĠNeu zeit
ĠWeiter hin
Ġconf irm
comp are
Ġeurop Ã¤ische
Ġschwed ischer
ĠPorn o
H ello
P ubl
U uid
Ã¤ p
ĠD ame
ĠF lan
ĠE ier
Ġg aben
Ġge p
af eln
ĠEr hebung
ĠAl lein
ĠSe kretÃ¤r
ĠLand rat
min der
man uel
Ver walt
Ġgesch ickt
Ã¼t tel
Ġdire kte
Ġdel ay
Ġfound ation
Ġsupport ing
verein igung
Ġnet works
iro ler
Ġerziel en
ĠVerteid igungs
Mich ael
Ġcit izens
Ġatmosph ere
G ymnasium
O k
an ke
Ġs ed
or chester
ĠS qu
Ġin folge
ĠM ort
Ġz one
ach se
ĠBe fore
Ġab wechs
ial en
Ġch ief
ire ct
rÃ¤ der
ĠSte iermark
Ġrec ipes
Be k
Ġhand ling
fig uren
ipp e
ĠChrist i
Ge gen
Ġfun ny
Ã¡ r
loy d
Ġtre ated
gress ive
ĠFreund schaft
Ġwid ely
Ġcabin ets
ĠDemokrat ie
ĠberÃ¼cksicht igt
T ax
Ã¤ hre
ĠI tem
ĠR in
Ġer leich
ck te
Ġden ken
ĠSt yle
qu ality
ok u
Ġ" '
19 78
Ġ0 6
Ġfr isch
ĠSpiel ern
gl ing
ĠMal ays
ĠDr ama
ĠWohn haus
ĠCont ainer
Ġcr usher
198 3
ĠGeneral major
Sh op
FI X
cla zz
Ġfavour ite
A ir
L ife
c am
ĠD ien
ĠK orn
sch Ã¤d
ok o
ĠMit be
ĠAb stract
Ġbet reibt
br unnen
Pro p
ĠBes tellung
Ġdire cted
Ġsk ip
ĠWohn ungen
ĠGu y
glieder ung
ĠVolks zÃ¤hlung
Ġgre w
Ġprote in
Ġmill ions
ĠMel bourne
Ġhold s
Ġbege g
lehn ung
ĠAP I
ĠOffic er
ĠausdrÃ¼ck lich
P ack
b ald
Ġa fr
ĠS ain
ĠF reis
ĠH ost
tr ess
ĠPro t
St re
ied s
ĠGem Ã¼se
olit an
ĠUS D
ĠDies el
ĠChrist opher
tag on
ĠMo ore
verb Ã¤nde
ĊĠĠĠĠĠĠĠĠĠĠĠĠĠĠĠĠĠĠĠĠĠĠĠĠĠĠĠĠĠĠĠĠ ĠĠĠĠĠĠĠ
ĠÃĸsterreich s
Ġter ror
Ġ185 9
Ġconf ir
ĠRec ord
ĠStat istik
Ã¤rt ner
national spieler
ĠBesatz ung
F ar
G H
J oin
V iele
m aking
it ative
re lated
ĠS ind
ĠA venue
Ġc riteria
ĠE astern
ĠK av
af ter
lic ated
", "
ĠGra ben
ĠPf licht
ĠStra hl
ĠHil de
Ġattra ctive
Ã¢ te
prof essor
Ġkanad ischer
temper atur
F ebru
H R
S M
V C
g Ã¤
ĠS ide
Ġb undle
ĠA hm
ĠB ibliothe
ĠD est
ĠD NA
am ts
ĠT ran
ĠT auben
ĠH inz
ĠH allen
Ġbe at
Ġge druck
Ġge weiht
ĠSt ark
Ġr ender
og ramm
Con verter
Ġkon stru
bed arf
ĠBi ografie
Group s
Ġcert ified
Ġpick ed
nehm ung
ĠJob s
ĠPak istan
ĠHT ML
ĠDoug las
Ġentre prene
C ho
w enn
Ä Ł
on de
Ġt ells
Ġb io
st itu
im ed
Ġz it
ĠH altung
Ġr ichtet
ag an
ĠÃ¼ber gebenen
ĠSe hr
ĠSpiel film
ĠMag net
ĠBra z
ĠHil f
Ġinteress ant
Ġinteress iert
komp lex
ĠPubl ishing
Ġcondu cted
ĠLuf tw
Ġtroub le
A U
B us
m utter
z ed
ĠB ug
ut ors
em pty
ĠL yn
Ġge Ã¶ffnet
ĠU d
Ġfor med
Ġauf einander
Ġde leg
qu alif
sp reis
Ġdar stellen
ĠQu est
RE N
Element Type
Ġlist ing
Ġfood s
197 1
Ġenter ed
ĠÃ¼b lichen
Ġdraw ing
ĠSchwier igkeiten
ĠOrch estra
ĠNeuse eland
B und
t te
w ass
z ing
er ial
Ġb id
us k
ĠB ret
Ġn erv
Ġ1 18
ĠG au
ra iner
ĠL av
Ġk aiser
Ġdes cribe
ess a
Ġver folgt
Ġso fa
gesch ichten
Ġob lig
add ing
[] {
ĠWerk zeug
ĠWar um
Ġcr iminal
Ġresearch ers
Ġter rit
ĠKol onial
ĠRen ov
Ġjapan ische
ĠSign al
ĠRÃ¶ mer
Ġexhib ition
ĠSchlaf zimmer
Ġproced ures
cycl op
Ġnorm ally
Ġa part
Ã¼ tt
Ġv ierte
ĠM ul
Ġbe zogen
Ġl agen
Ġth erm
ĠV ancouver
ru gen
ungs zeit
Ġman chen
Ġtra ce
aw s
Sch utz
ĠTra de
Ch ain
ĠNor m
Ġcomm ission
Ġcare fully
Ġ186 3
Ġnormal en
Pol y
Ġprint ing
AB LE
ĠSchÃ¶n heit
ĠProgram me
Ġhochwert ige
ĠKore a
un ken
ig ade
ent h
ĠG ur
ĠK ids
ul ator
ĠN ad
Ġsch lÃ¤
ho e
erv ers
tel finale
ob i
ĠWe ing
An fang
ĠKon ferenz
ĠMen gen
ipp i
ĠMÃ¼n z
AT OR
ĠAss istent
ĠMor gan
Ġconne ctions
ĠCamp us
Ã¤chs ische
sequ ent
ĠWahr heit
ĠBran chen
: "
J o
S al
Ġt ank
Ġo d
ĠF okus
ĠW Ã¶rter
ĠH ydro
ĠR ib
lich ten
ĠSt reich
ann y
Ġauf merksam
Ġde grees
Ġch allenging
Ġat temp
lic it
Ġes cape
ĠCh ange
ĠAb ra
Ġtra v
sh ips
amen te
Sch on
akt ions
pla ys
ĠFilm fest
AT O
Ġhouse hold
ĠViel falt
valid ate
wir ken
ĠKÃ¼nst lern
Distr ibution
R ole
V ID
k arriere
z o
Ġt ight
Ġw Ã¤ren
ge h
ĠM iami
ĠN utzen
ĠSt imm
pp el
Ġver standen
ĠVer y
ĠVer handlungen
iz a
ĠVor stellungen
ĠEx pression
ĠTra ck
Ġzusammen gef
ĠWh ere
back tracking
schein lichkeit
ĠSol utions
197 7
ĠSchwer in
ĠKre bs
Ġcy cle
Ġgraph ics
Ġorigin ally
Ġil legal
ĠInner en
S chn
T urn
k ens
} .
ĠB auten
ĠD ave
Ġc lock
Ġh ind
ĠE gypt
sch i
ver g
enn er
pro perties
min a
Er n
ĠSchw estern
Ġsc an
SS ION
Ġcr ime
Ġorgan ized
ĠErn Ã¤hrung
present ation
umin um
ĠHu bert
ĠAT P
Ġaktuell es
Are a
Ġrum Ã¤n
Ġce iling
Ġnut rit
ĠKob lenz
Ġhos ted
G L
L uther
Ã ī
le itete
ĠT ask
ĠH arb
ite kt
ac ted
ĠFl Ã¼ss
ĠTr in
ĠOn tario
Ġben utzen
ĠDu isburg
ĠTyp s
Ġerz ielt
Ed ge
ĠTenn essee
Ġfal sch
Ġstopp ed
Ġprin ted
i pt
v enz
ĠA B
Ġh alt
ĠT unnel
Ã¶ he
Ġer ot
Ġal ign
ow itz
ĠO v
ag entur
Ġ" .
ĠNe ug
ĠNe uk
tell te
utz te
wohn ung
ĠWor te
ĠFranz isk
klÃ¤r t
ĠZe ile
ĠPlan et
Ġfort an
pass te
ÅĤ aw
ĠAuss agen
Ġdom estic
ĠMach ine
ĠErschein ung
ĠKel ly
Ġspirit ual
ĠMisch ung
Ehr ungen
Ġdoll ars
S il
h aut
n Ã¼tz
z usammen
Ġs ud
ĠB ac
st all
Ġc am
Ġh insichtlich
ĠL ub
ĠC urrent
ĠEr stellung
ud a
Ġch ocolate
ĠAl i
ges pr
ake te
az y
Ġem phas
Ġeinge gliedert
ĠBas il
ĠGew inner
ĠEmp ire
ĠzusÃ¤tz lichen
Ġmom ents
ĠFert ig
komm ission
O ther
m achen
u ben
Ġt ap
Ã¼ fen
Ġv illa
Ġc ro
ĠE X
ĠR au
ĠR eiter
Ġg od
Ġg gf
ĠC it
Ġl ib
ĠJ en
gen s
Ġr is
Ġsch ema
Ġwe ap
ust ic
ĠAr me
Ġ18 46
ĠAb b
ĠGes ichts
Ġprov en
gl as
Ġgeb unden
ĠSk la
stÃ¤nd ig
ĠAustr ia
Ġauth ors
ĠKin os
hor st
Ġmat ters
ĠKing dom
ĠPrinz essin
ĠAf ghan
ti rol
ĠVarian ten
clude d
Pass word
ĠHaw ai
Ġhers elf
Po inter
ĠBuffer ed
N etz
or ium
ĠS W
Ġe ignet
Ġder selben
Ġh aus
ĠF unction
ĠRe ferenz
Ġwar n
Ġas sets
ĠBer ichte
ata illon
Ġ16 0
Er zeugt
stra int
ĠMed ik
Ġteil en
ĠDar stellungen
ĠGrÃ¼n de
ĠSchm id
zy kl
ĠHen ri
Ġmass age
ĠAud i
ĊĠĠĠĠ ĊĠĠĠ
ĠHoff mann
ĠVize prÃ¤sident
Ġult imate
ĠVoraus setzungen
Ġuk rain
Ġverab schie
y an
Ġa warded
Ġc erem
ĠG ift
sch el
ĠC ab
ĠIn fo
op ter
op ath
Ċĉĉ Ċĉ
oun try
Ex press
Ġ9 7
inn t
ator in
Ġger ingen
con nection
ĠInd iana
ateg orie
Ġend s
ĠLin col
Ġentwick elten
Ġperform ing
ĠZe ilen
Ġrece iving
Ġsw imming
Welt meister
Oper ator
Ġcapt ure
Ġfinanziel len
B ern
R C
b org
z esse
ĠB ott
st oÃŁ
Ġbe ziehen
Ġes c
ĠEin tritt
ĠVor lage
Ġspe aking
ĠUnivers al
Ġbo ost
rag ment
Ġdr ugs
ĠCar lo
ĠZw ar
ĠNord west
Ġander erseits
ĠEm ma
Ġinner en
go ogle
Ġoft mals
190 2
ĠTrans fer
ĠFass ade
ĠQue ens
Ġinstit utions
ĠTob ias
ĠBam berg
ĠBundesver dienstkreuz
prec ated
Ġaka dem
L et
d ays
p ower
Ġd t
Ġa men
Ġw ann
ĠS H
ĠA ktionen
ĠG allen
ĠL is
ber eiten
Ġge ar
ĠAn im
ĠRe chnung
Ġse qu
ĠMar sch
utz er
fin anz
Ġpre v
ĠPar allel
tes te
Ġche ese
ĠPart ie
++ ]
ias ieger
yd ra
Ġmag ic
ĠEhe mann
ĠErd be
ĠunterstÃ¼tz te
Ġmer ch
htt ps
Ġvalid ate
Ġtransport ation
ĠPfer d
ĠHit ler
fÃ¤ll ig
Meta Data
ĠRess ourcen
ĠDok umente
L ive
R und
f unction
ĠS ession
Ġin ch
ĠB B
ĠM es
ĠF unktions
ĠH ind
Ġbe hand
id ad
ĠSch alt
Ġwe iÃŁe
ip h
fe kt
uk i
ikt ion
ĠKirchen gemeinde
Ġ185 8
Ġkont akt
ĠPersÃ¶n lichkeiten
ĠBeweg ungs
M erk
m ill
v org
ĠS ich
am as
ĠF res
ĠF ett
ĠF aktoren
ĠK ick
ra ut
ĠW id
ber ater
Ġk Ã¼mm
ĠâĢ Ļ
ĠZ one
Ġat tr
ĠLand gemeinde
Ġtra fen
ĠHand lungs
Ġkon zip
deutsch er
ĠKle idung
gesetz es
fried hof
Dat um
Ġempf angen
ĠElect ric
Ġzeich net
gewand elt
Constra int
Ġbayer ischen
Ġsau ce
Kirchen gebÃ¤ude
endo ktor
K or
L INE
Ã¼ g
ĠW isconsin
ĠH imm
Ġver haftet
Ġse quence
ard in
St orage
ĠVor schlag
ĠGeb Ã¤udes
ĠSchw Ã¤b
iste te
urf ten
gere chnet
Ġneg ot
spart ner
Ġmur der
F ull
J a
L P
ĠP oten
Ġein erseits
Ġl ift
ĠEn kel
19 00
Ġte eth
An gabe
ĠFran Ã§ois
Ġfre edom
ĠUr sprung
AR N
pre chung
roll ing
ĠauÃŁer ord
Des c
ĠLehr stuhl
Ġmot ion
stehen den
Ġgraph ic
fÃ¶rm igen
CON T
Ġkauf te
Enc oding
2 50
G old
H igh
at iver
he ets
Ġf Ã¤hrt
ig u
ĠF uss
ĠL an
ĠL isa
Ġge heim
ĠSt ick
ver Ã¶ffentlich
Ã¤n zer
Ġbes tellt
ĠNach frage
Ġletz tlich
ĠVerb reit
Ġmir ror
ĠAnt ike
liegen de
Rem ote
Ġspan ischer
ĠVort rag
D b
O l
k irch
w ed
Ġs ql
ĠM aj
ĠD ritten
ĠK reat
ĠSt Ã¤rke
Ġdes c
Ġst ab
kt iven
ĠIn schrift
up le
Ġso ul
ĠAr rays
Ġ18 20
ĠEx pl
Ġreg ions
âĢ¦ .
ĠKn ochen
Ġbed ient
ĠBerg bau
trÃ¤ cht
Ġaufge teilt
196 9
Ġemploy ment
ĠSpr ung
ĠWeihn achten
ĠVorder grund
ĠjÃ¼nger en
D uring
S ing
W ohn
k linik
Î ±
ĠS ony
Ġb ranch
ĠD aily
ĠP aint
em pf
ĠH arz
ĠL aus
ĠC ome
ĠSt immung
os se
ĠO ran
Ġj ene
ap olis
ges ted
Ġte lefon
ĠUnter richts
Ġbek le
AR D
ĠPart ien
ĠStr ess
ĠOst preuÃŁen
Ġspecial ist
Ġausgew iesen
Ġexception al
Ġfra uen
Ġwirtschaft liche
ĠJon athan
ĠZerst Ã¶rung
ĠUrauf fÃ¼hrung
un ior
Ġs oph
Ġf otograf
ĠF ell
ĠW iesen
Ġl yr
ĠV illage
ĠJ oin
if th
ver ted
Ġr ig
Ġwe ak
ide en
enn is
Ġte x
tz t
old t
imm ern
iff s
Ġhier zu
Ġmus lim
Ġwrit ers
Mod ell
Ġerreich bar
ĠStad ium
Ġhappen ing
Ġerr ors
ĠVerl Ã¤ngerung
Ġdream s
Ġtal ks
Ġpropos ed
Ġmensch lichen
Ġcollabor ation
ĠÄ Į
ĠAx el
opÃ¤d ie
I ST
U l
ge ist
Ġm oral
ĠF uchs
sch ema
Ġbe grÃ¼n
Ġst ated
sp latz
ĠĊ ĊĠ
hn er
Ġunter lag
ĠHand y
ĠOber bÃ¼rgermeister
uck et
ĠÃĦ l
ĠJe wish
fre unde
ĠKÃ¼ chen
zÃ¼ gen
Ġprior ity
Ġschwier ig
Ġerkenn bar
M ac
T F
T otal
r isch
ar us
ro ff
ĠF ollow
ĠI ce
ĠN FL
ik eln
ĠUn i
Ġwe alth
ĠÃ¼ber rasch
ĠSp ark
ĠSie ge
19 44
ĠAus schuss
Ġbes ter
ĠVor les
amm lungen
els on
Ġbesch loss
Ġserv es
ĠPat ri
ĠLie chtenstein
ĠBi ographie
Ġlet ters
Ġ180 6
UT F
Ġyoung er
Ġinstall iert
ĠBot an
ĠErzÃ¤hl ung
ĠGene hm
Ġausgeb ildet
ĠGlo cken
ĠKaf ka
A V
D ienst
k Ã¤
l ia
ic ted
ĠE D
ĠW at
Ġg ent
ĠN oten
Ġge gangen
Ġfor ced
qu et
Ġch apter
ho en
ĠAb stieg
rÃ¤ um
Ġ9 1
ĠHaupt rolle
arch itektur
Ġmo ist
Ġsk y
str ateg
ĠDu ke
Ġerk ennt
Char acter
artet t
Ġliter ature
ĠJac ques
ĠHash Set
---------------- ----------------
Ġdigit alen
ĠPersÃ¶n lichkeit
ĠeigenstÃ¤nd ige
A K
F ranzÃ¶s
H y
T wo
d ale
p iegel
ĠS creen
ĠB ush
ol in
ĠT un
ĠF L
ĠR ÃŃo
Ġk Ã¤mpfen
Ġvon einander
Ġge g
ĠO regon
Ġst ainless
Ġso le
nen nung
ĠAus stellungs
Exception Constants
ole k
ĠSchw anger
Ġsol ve
Ġsub t
iner y
Ġbr idge
kon struktion
198 2
ĠLog o
Ġresource GroupName
ĠRos a
gehen de
Ġbere chnet
ĠDrit ter
ĠPast or
ĠÃ¤uÃŁ eren
ĠTerr asse
Rou te
B atch
H ers
w affen
Ġ1 14
Ġc orn
ĠG ieÃŁen
ĠH ed
ĠR ight
ĠL iver
Ġauf gel
ĠIn tens
aus geber
âĢĻ .
Ġme ets
Ġwas h
fer red
Ã¤r er
ĠSe lect
Ġher zlich
dr ama
ĠReg istr
ĠReg iment
Ġber ichtete
ps ych
ĠTr ust
pf el
ĠCar r
ĠZw angs
Ġsub mitted
RE AD
ĠVol ker
ĠDr ess
Ġplan et
ĠDesign s
Ġprogram me
ĠHistor ic
ĠMinister ium
ĠJust ice
Ġgek ennzeichnet
ĠerhÃ¶ hen
Ġsignificant ly
ĠPhot os
Wel come
Ġhinzuge fÃ¼gt
" ),
L ower
M ont
n ic
p red
Î ¿
Ġd urften
ĠB uk
ĠM Ã¼ll
Ġh ydro
em en
Ġbe herr
tr itts
ru der
Ã¤t igung
cc a
ĠPr ime
Ġspe ech
ĠMon ument
fra uen
laub nis
zentr ums
Ġangeb lich
ĠWes entlichen
ĠverfÃ¼ gte
kle idung
ĠgrÃ¶ÃŁten teils
Exec utor
Ġbedeut ende
Ġchem ical
Ġehe mals
Ġimag ine
F uÃŁ
N ur
s uper
on ed
ĠS R
Ġn one
ĠT SV
ĠH ack
ĠL E
ĠC ape
id al
urn iture
Ġhas h
Ġ8 9
Ġrec y
ĠGrund schule
ĠBel ast
ĠHel p
ĠKo alition
Ġinvest ors
ĠKom Ã¶die
ĠKomp etenz
hÃ¶ hung
Unter nehmer
Ġherv orge
Ġcook ies
Ġbott le
Ġviol ence
Ġaspe ct
ĠSaf ety
h ten
Ġd auert
at tribute
Ġp ill
ĠP est
ĠK han
ĠR och
ĠR ied
ĠC ant
Ġbe igesetzt
Ġfor est
Ġzu ges
ĠZ o
19 19
Ġvor stellen
Ġpr icing
Ġvers orgt
ism ar
Ġpl ug
Ġsol ar
bl og
ĠLandkreis es
ĠGre if
ĠTyp en
ĠMotor rad
Ġblock s
lad imir
ĠPublik ationen
Ġumfass ende
Ġsuppl iers
Ġmusikal ische
Ġachie ved
Ġmaxim ale
Ġverhinder t
Ġextre me
Ġausgestra hlt
I hre
L ED
M el
V ier
es tet
he ader
Ġv it
ĠD iale
ĠD unkel
ĠG R
Ġk ar
ok a
19 14
reich es
los er
to o
ĠChrist ine
Ġgu idance
rue ft
ĠVol ume
Ġstatt f
Ġeinge weiht
spe zif
Ġfile d
Ġpay ments
Ġmeet ings
End point
kathol ischen
Ġconcern ed
ĠProz esse
ĠReihen folge
Ġincor por
Wor ld
ĠGitar re
b urn
s ucht
Ġa wards
Ġt ip
Ġt aught
ĠA sk
Ġan g
ĠP ixel
ĠG or
Ġl iquid
ĠV ice
Ġk reis
age ments
be teil
Ġ18 18
Ġ18 47
me ier
Ġman aging
Ã¤hr ungs
Ġ9 3
Ġro ugh
pro of
Ġste igt
stand es
Ġoff ices
ener gie
spre chend
Ġsuper ior
Ġfac ing
Ġfac ilit
Ġ185 6
ĠTro cken
Ġentfern en
Ġchrist lichen
Ġmusikal ischen
Ġsorg te
ĠJed och
Ġmex ikanischen
ĠInstall ation
H in
Ã °
er z
on ische
ĠS ten
st ufen
ĠM az
ĠD ess
Ġc odes
ĠT am
ĠN E
Ġk ost
Ġle gs
Ġ18 45
Ġunter stellt
ĠSe ason
iss ue
Ġ10 1
ĠSte ine
Ġno ted
Ġra ck
Ġknow ing
ĠEnt ity
ĠStand ards
Ġnun mehr
Ġsign al
Ġrest lichen
ĠAlb ums
Ġoper ate
ĠMay be
Ġ185 5
Ġimpro ving
rodu zent
Vor pommern
Ġoffic er
ĠschÃ¶n sten
Ġannoun ce
ĠInvest ition
ĠjÃ¼d ische
TER N
Ġbedroom s
ĠEdel stahl
Ġforder te
P P
T M
c ut
Ġd uration
ent ums
ĠK ohle
ĠW end
ĠW upp
Ġk ill
ab ad
ĠIn valid
ĠBe weis
ĠLe v
Ã¤r bt
Ġunter teilt
ĠGr ill
ĠPr in
ĠPh Ã¤n
Ġthem at
con f
ĠMÃ¼n dung
ĠKl ar
Sie ger
ĠGew Ã¤sser
ĠVe ctor
ĠBrit ain
Produ ktion
ĠSat ell
gram me
Ġindustr ies
ymp ath
Ġengag iert
Ġproduz ierte
Ġsitu ations
Pres ent
O s
S el
Ġs amples
Ġf as
ĠF usion
ĠG ute
ĠG ordon
et o
et tet
ra pped
ĠSp enden
Ġnew ly
ĠVor name
fl Ã¼sse
Ġgew idmet
Ġ8 6
Con f
RE S
ĠInst anz
ĠInter ior
Ġdec ade
ĠPl Ã¤nen
ĠDu o
Ġnational sozial
Ġcreat es
ĠLat in
Ġcra zy
ĠKult urg
ĠmilitÃ¤r ischen
Ġdigit ale
Ġfung ierte
ĠBrie fe
Ġreput ation
C ondition
K ritik
L ud
e he
Ġd icht
Ġb ags
Ġan gest
Ġ1 16
ĠG lass
ĠW are
ce ived
Ġcon trast
ĠAl f
ĠBer ger
iss ippi
Ġpr ison
fin det
sk ar
Te chnik
Ġass ociation
ĠBre ak
Ġdi am
Cl uster
ĠKind es
Ġdest roy
Ġdre imal
Ġdeb ut
wel ry
Famil ien
ĠMov ie
ĠLincol n
B itte
C LASS
F IN
J J
U K
W M
m ult
in ternal
Ġv intage
ĠB ucht
ĠM is
Ġc atalog
ĠR ak
Ġl uck
and el
Ġk onserv
Ġsie gte
Ġunter schieden
ian ces
pl Ã¤tzen
ĠMed ium
alle tt
Ġchar ged
Ġfest gestellt
ĠPer u
uff icient
ĠSw iss
rÃ¤n ke
ĠHeimat stadt
Ġlink ed
Ste p
ĠBud get
ĠSter nen
Ġerf Ã¤hrt
ĠBundest ags
Ġuntersch rieb
ĠUE FA
E lect
K reuz
p ons
Ġb ib
ĠK rÃ¤fte
ĠK enntnis
ĠK openhagen
ĠW esen
ĠW Ã¼nsche
ir us
Ġal cohol
Ġre iste
ĠSch uss
ult an
ia de
pr Ã¼f
ick el
ian ische
per rt
Ġen orm
br unn
Ã¶l z
Er stellt
ins eln
hand els
fig uration
ĠAnt arkt
Pr ice
Ġaufge geben
Ġmult ip
Ph ys
gre ifen
ĠRem ote
Rel ig
Ġregion alen
zwe ck
SI ZE
fÃ¶rm ige
Ġearn ed
Ġfinanziel le
tor hÃ¼ter
ĠlÃ¤ng ere
Ġprogramm ing
ĠSchicks al
X X
w enden
Ġd rag
Ġe lev
Ġv i
st es
ĠP ension
ĠE mm
ĠE asy
ĠK ansas
ĠH appy
ĠC ow
ĠC ash
Ġge dei
ĠSch Ã¶ne
ĠIn haber
âĢĻ ,
Ġte ch
zeit lich
Ġgew isse
Ġ8 7
ĠGemein schafts
Th anks
ĠEl be
ĠMed aille
ĠUr kunde
Ġbil deten
On ce
ĠAR D
ĠFranzÃ¶s isch
Ġmonitor ing
Arg uments
Wil helm
Ġkombin iert
ĠÃ¶rt lichen
L EN
m outh
u ine
Ċ ĊĠĠĠĠĠĠĠĠĠĠĠĠĠĠĠĠĠĠĠĠĠĠĠ
in burgh
is ierungs
an cing
Ġe g
ĠM Ã©
Ġh l
ĠF at
ĠG P
ĠE b
ĠW edding
ĠR ug
ĠC ir
ĠN i
Ġaus zu
ĠBe cken
Ġle tt
Ã¼n scht
ĠGe fÃ¼
ĠNe g
ĠGr imm
ĠBer Ã¼cksicht
ĠMe et
ĠFl ach
ace ae
Ã¶l be
rag ung
Ġvis ible
Ġgra b
ĠMag d
US A
Met al
Ġref resh
ĠPan el
ĠZust immung
ĠEigent um
ĠBedÃ¼rf nisse
Ġeindeut ig
ĠGemark ung
A g
T B
l och
m il
t ages
Ġt ollen
at io
Ġm ature
Ġv ollen
Ġp ic
ig ern
Ġh tml
Ġl ucky
ab a
Ġge leitet
Ġst amp
sp rachen
ĠBe cker
Ġqu adrat
let scher
Ġgesch Ã¼tz
ĠCon nection
ĠMann es
Ġav ailability
ĠOff iz
Ġreal isiert
kon zept
ĠApp lication
ĠText il
Ġ185 1
196 4
fÃ¼ll ung
ĠJournal isten
Welt cup
idel ines
ĠErinner ungen
ĠmaÃŁ geblich
ĠOpp osition
ĠVie h
. '
1 10
? âĢĿ
K Ã¼nstler
P okal
f ein
g ert
re ff
ĠA gency
ĠB uen
ĠM D
ĠP uerto
ĠG ol
ĠK Ã¼nd
ĠH im
ĠL aser
Ġer zeugen
Ġver zeichnet
Ġdem okrat
Ġent worfen
19 20
20 21
ĠY oga
Ġste uer
ĠEx port
Ġtr ib
Ġsho oting
ÃŃ k
stre ifen
Ġinvest igation
Ġcap able
ĠVal ent
Ġren omm
Ġrequ ested
tok oll
P ark
Q UE
v Ã¶gel
z ien
Ġs hr
Ġw itness
ĠS hel
Ġb ron
Ġin du
ĠD ritte
Ġ1 13
ĠH ahn
ten nis
ĠN ature
Ġk licken
ĠSt uhl
ver arbeitung
get X
ho b
rich tet
werk statt
Tra iner
ĠBas eball
Ġclos er
ĠImp lement
ĠVorsitzen de
Ġobt ained
ĠðŁ ĺ
Ġgeplan te
bay ern
Mart in
ĠDall as
ĠFrÃ¼hl ing
F lo
I X
d re
h Ã¤ngt
k Ã¼hl
l Ã¶sen
s um
s ingle
ur ist
Ġin tel
ĠB arb
Ġan th
Ġan gle
ĠP aper
ĠF REE
ic ultural
ĠH amilton
Ġbe arbeitet
ber gt
ĠN assau
ĠSp ain
19 34
19 42
ĠCh rom
auf gaben
Ġper mission
sh op
ock el
gend a
lÃ¤ s
ĠTr ennung
Ġviel es
rach ten
Ġsub stant
ĠKinder garten
ĠCl ark
anst alter
verb indungen
Ġcr ash
Ġ185 2
Supp ort
Ġord entlich
Ġrepla ced
ruit ment
Ġphotograph s
ĠSecret ary
H istory
h ier
m aster
ch ain
ĠM ahl
ĠT otal
ĠF ashion
ĠE i
ĠR ick
ĠSt ipend
Ġaus gestellt
end ish
ĠEr be
Ġle ts
ĠJahr buch
ĠString Buffer
ink i
bar es
ĠBundes land
Te x
Ġeinz eln
ĠVers ionen
Nach bar
sport ler
Ġnie mand
ĠTour isten
Ġaufge hoben
Ġcover ing
Ġgl ad
ĠAuss icht
Ġhor izont
ĠSpr int
C enter
F eld
G ar
J azz
K ind
S Ã¤nger
W ahl
b ot
n ischer
t as
ur d
Ġm ask
ĠT alk
ĠJ av
Ġge ile
Ġauf nehmen
ĠRe ktor
Ġcon cepts
19 60
ac cept
Ġbut t
Ġ16 00
Ġrec ording
ipp en
asch a
hol ders
Ġgel Ã¶scht
Ġfac ulty
ĠTal ent
ĠMount ains
Ġdiv or
ĠBÃ¤ ume
Ġcondu ct
ĠWorks hop
ĠCav endish
ĠBeaut y
ĠPian ist
ĠSingap ore
Ġdenkmal geschÃ¼tz
R ich
e hrt
l uft
p ed
u der
u eller
Ġd os
ĠS Ã£o
Ġin ten
ĠA gn
ĠB reit
ĠM Ã¼hlen
ĠH els
ĠN ag
ĠSt if
ak ten
get Path
for dern
ure au
19 10
Ġup grade
az ier
iger ung
rif fe
Ġges ichert
ĠPh ant
ĠBundes regierung
ĠEl f
Ġbre ast
Ġcons ist
ĠJe de
ĠErn est
ĠWinter spiele
bre ite
ĠZwe cke
ogn ition
Ġclos ely
ĠAp ostol
Ġneg ativ
ĠDet roit
Ġregistr iert
ĠLein wand
C ounter
K lein
m ember
t isch
ar is
le id
ro x
ig o
ent z
Ġg al
ĠN ich
ĠO berg
Ġum gewandelt
Ġvor Ã¼ber
ite e
bach s
ĠAt tra
ĠAt las
Ġgef ragt
Ġx ml
Man agement
ĠAir lines
Ġreport ing
FI ELD
kathol ische
ĠWass erk
Ġsouth ern
ĠLi bert
ĠAtlant a
ĠBundest ag
Ġdiskut iert
Ġstyl ish
hoen ix
1 12
B ER
H D
W olf
Ċ ĊĠ
Ġd ivision
ie u
re ll
Ġf emin
il iate
ĠM E
ĠG reek
ĠK lin
ĠL esen
Ġdes ired
ĠU k
Ġis lam
for cement
be fehl
ock e
ĠOber flÃ¤chen
Ġcre w
fo ot
Ġbesch rÃ¤nkt
Ġcho osing
ĠSen ator
ĠFÃ¼hr ungs
mut able
Fl ug
Ġrespons es
ĠSyn ag
hab t
sta ates
ĠOk lahoma
inst all
Ġserious ly
zub auen
Ġqualifiz ierte
Ġsamm eln
ĠSoph ie
Listen ers
. ;
L imit
S R
S ION
u den
Ġd ot
Ġw ies
ĠS amen
am ic
ĠL ess
ĠL ese
Ġto urn
ĠC oc
ĠC omb
ne ys
ĠEr ik
Ġle iden
Ġus age
ĠLand gericht
ĠUnter k
eng ers
nis sen
Ġgr ass
Ġass um
Ġausge prÃ¤
Ġtreat ments
Ġeig entliche
Method s
Her r
Mon th
ĠVerkauf s
wal ts
Ġbetre ff
VAL ID
Ġbrow se
Ġsav ed
ĠEqu ipment
verl ust
Ġveranst altet
ĠInternets eite
Ġzusammengef asst
C as
C ard
L aut
T her
Y es
b ian
k ons
m ung
Ð ´
â Ī
in f
Ġd ual
ĠS cript
ĠB og
ĠM ilit
ĠM oney
ĠD in
ĠD eine
ĠF ortun
ĠH ut
ĠC ole
Ġth orough
ĠV il
ĠV II
ver ordnung
for um
rei hen
ĠGra ham
ins atz
Ġperson s
Ġgra u
ĠMittel feld
ĠWil helms
Ġ185 4
Arch Ã¤
ĠVertra uen
ĠEins Ã¤tze
ĠFrances co
Sonst iges
ĠArgentin ien
ĠSams ung
ĠInse kten
C le
F ach
d ates
v ari
Ġan alog
am ents
ĠP ink
ĠH ud
ĠR it
ĠIn halts
ĠAn alysis
Ġab zu
Ġman che
Th omas
Ġger aten
stein en
ĠRed aktion
ĠForsch ungen
ĠIde al
lÃ¤nd ischer
ĠWeiter entwicklung
196 6
ĠcaseIfc Object
Bau denkmal
Ġdeal ing
ĠKer amik
Ġkrit isiert
ĠStan ley
ĠSpann ung
Ġverbess ert
ĠGeschle chts
Dest ination
ĠConnect icut
Ã¤rn ten
andin av
M AN
Y ear
Ġs ummary
Ġb ran
ig ste
Ġh anging
sch lossen
ĠL LC
ĠN iveau
ĠO cean
ver schluss
ĠEin ladung
19 37
Ġgen auer
ĠFl orenz
Ġcont est
fr ies
ĠMon uments
bes te
recht lichen
ĠPat ent
ĠSport ler
ĠFranz osen
ĠBro t
Ġrel ation
196 5
190 3
Ġzwe if
Ġprepar ation
Ġprakt ische
ĠRegierungs bezirk
Ġgesetz lichen
D imension
S imple
c amp
f ranken
m ol
à ¤
ie wer
ĠB olog
st lichen
ĠT ieren
ĠE k
ĠL iss
um fang
Ġge be
Ã© l
Id x
ĠSh ang
Ġhand eln
Ġger man
Ġloc ale
Ġsupp osed
Ġcl uster
ĠFe ucht
Ġrem ark
Ġcommun ications
ĠStre ifen
Ġpat io
Ġret ten
Ġret ire
AS A
ĠSen ats
Ġless ons
omet ric
Ġarch Ã¤
Ġmiss ed
ĠBot schaft
ĠbeschÃ¤ft igte
ĠWettbewerb s
bas is
Ġcru cial
ĠCorn el
ĠThr on
Ġhighl ight
Franz ose
hedr ale
Ġelig ible
d ichte
Ġs amt
ĠS ke
le ton
Ġin tell
Ġc ater
ut ung
ĠK ings
Ġk unst
Ġge le
ĠO K
ĠO hr
ah me
Ġun known
ord neten
19 35
ĠSe gel
ĠMar athon
Ġ9 4
mann schaften
ogra fen
Th ank
Ġfact s
ĠRechts an
wissenschaft lichen
ĠProble men
So ftware
ĠKlein en
Ġgenau e
ĠZeich nungen
ĠBu y
opt ions
ĠAnn ual
Ġhab t
Ċĉĉĉĉĉĉ ĉ
ĠLearn ing
D O
P lat
R ate
T x
b ow
d raw
r ath
er ed
Ġd st
Ġd ent
he ast
Ġe chte
Ġv end
ĠB ischÃ¶
Ġan spruchs
ĠI ra
ĠJ i
ver anstaltungen
Ġauf zu
Ġr Ã¤um
ill es
ru d
ant es
Ġ" +
ia e
Ġdurch setzen
ĠSe ch
eiter ten
Ġro se
(" /
Ġmy th
iker in
Ġinter active
ĠBar th
fra gt
hol der
by tes
gra fen
ĠDo es
ĠHistor ische
ĠhÃ¤uf iger
ĠDres dner
FI LE
Ġinteress ante
eme ister
ĠDrei ÃŁig
Ġimmed iate
ĠEffe kt
INST ANCE
ar ent
ĠS U
Ġf esten
Ġf Ã¼hlen
ĠB att
ĠE ro
ĠC atholic
ĠJ ess
get Resource
Ġ" ";
ĠSie mens
wer ber
ĠSe ktion
ĠCh ancen
ym met
li ament
ĠJohn ny
ĠBas ic
Ġorder ed
Ġmet all
amb a
Â» ,
ĠVis ual
dar stellerin
Ġfig ures
ĠpreuÃŁ ischer
ĠJane iro
ĠTats ache
PROPER TY
R ot
j Ã¤ger
z ure
Ñ ĥ
er gebnisse
Ġb odies
Ġe ase
Ġm or
ĠM C
om orph
Ġg lo
ul ous
ĠO ft
Ġmit ge
ag le
sp olitik
get Parent
igen en
Re presentation
ĠVor gehen
ĠArbeit nehmer
ellen ce
Ġjust ice
gew alt
Ġtr ick
ious ly
Ġerst mal
str asse
ĠProv inzen
Ġrelat ively
Ġant icip
Sc ale
ĠAp i
ĠDel hi
Ġsatis faction
quis ition
Dom ain
ĠangekÃ¼nd igt
Ġconfir med
S aison
l ernen
r ors
s end
ĠS lowakei
Ġc arbon
ĠP oll
ĠF eb
ĠF ame
ĠG ay
ĠK ne
Ġth re
ĠN ut
Ġsch auen
Ã¶r n
19 38
app ly
Ġges tern
ĠGesch w
Ġag ents
ĠMÃ¼n zen
akes pe
pre ise
leben s
198 1
ĠLu is
ĠMont age
Ġport folio
Ġed it
Ġextra ct
Ġlik ed
ĠHeraus forderungen
ĠWand el
ĠSat tel
Names pace
Ġexpect ations
ĠspÃ¤t estens
Bet rieb
Ġstrug gle
ĠCru z
ĠBerat ungs
K ont
M apper
a it
p us
re ide
ge ts
ĠM ong
ĠC hal
ier re
ver leihung
ĠSch al
Ġver mittelt
Ġr ating
ĠAn walt
ĠAn liegen
ĠVer sch
ov es
Ġch annels
Ġ18 43
Ġdurch ge
ph ys
tra gt
ĠFl otte
Pro ps
Ġgeb raucht
Ġperson ality
ĠIs lands
Ġfre ier
Ġac id
Ġeinfach er
Ġlist ings
ĠEntwick lungen
Met ric
196 2
196 3
Ġgl Ã¤n
Ġsicher te
Ġlink er
ĠFel sen
lemen ted
ĠMiss ouri
ĠFinanz ierung
Ġfunction al
Arch itektur
Ġentire ly
ĠSym pt
ĠSamm lungen
Ġbetre ut
ĠUrs ache
ĠErzÃ¤hl ungen
sthe orie
Ġoccur red
ĠChron ik
Hash Map
ĠFlÃ¼cht linge
Absol ute
Ġspezial isiert
n umber
s Ã¼d
Ġs inger
al in
ĠS O
ĠS ug
ge x
Ã¼ sten
ĠA tel
ĠB usch
Ġp hen
ĠF erner
ra gend
ĠH Ã¤ndler
ĠSt Ã¼r
ĠU we
ind s
ĠRe ife
ide te
ograph ischen
hel ess
Ġbl ow
ĠSaison ende
ragen den
Ġ180 3
ĠZwe ig
Ġop ens
Ġstrateg ic
ĠHy per
ĠUs ing
ĠEntscheid ungen
VerÃ¶ffentlich t
ĠBrig ade
Ġsech sten
Su ccess
ĠAuseinanders etzung
Ġermor det
F Ã¼gt
f ire
Ġ ul
Ġa ck
ar ma
re kord
ĠB attle
st iegs
ĠM ine
ĠD ak
am an
ĠT akt
ĠW oll
ĠL ernen
ĠC rit
ĠN iel
ĠSch uh
Ġr asch
op ol
ate au
get Attribute
iz on
19 29
io xid
par ameter
Ġcomp osition
Ġco ordin
leg ungen
Ã¤d te
mÃ¤ ss
ĠCo oper
Ġpost ing
sw itch
Date Time
Ġstru ctures
Ġregion ale
Ã¤cht nis
Ġzweit es
Eis hockey
Ġevalu ate
friend ly
Ġguarante ed
ĠPreuÃŁ ischen
ĠKent ucky
B este
S urface
h lich
h Ã¤nge
k asten
Ċ ĊĠĠĠĠĠĠĠĠ
it ate
Ġf er
ĠB ond
ol as
ĠT oren
ĠT Ã¤ter
ic ulture
ĠH obby
hr ase
Ġ2 20
ein richtung
ess ischen
ver d
op ing
ĠAn pass
Ġi OS
Ġsp ont
Ġres istance
ĠY outh
Ġ0 3
Ġro les
Un garn
Ġfol der
Res olver
Ġletz tes
Ġsm ile
other apie
rÃ¤s id
Ġmethod Name
Ġfac es
Ġter min
Ġant iken
Ġport ion
ĠTex ten
usst sein
stud ien
hers tellung
ĠSamm el
Pl us
ĠTar if
ĠLaur a
ĠSof ia
Fol der
) ),
A Y
L ear
L uft
T hr
X base
j as
v ik
on omen
Ġt x
Ġt ear
Ġs itzt
le ans
ĠD sch
Ġ1 12
ĠC ott
ab on
Ġpro tocol
sp ring
Ġcon n
ĠSp ons
Ġcomp ens
Ġar ms
String Builder
Con stant
-- ;
ĠGra y
schie ÃŁen
ĠTr ip
pf alz
ĠBundes straÃŁe
Class Loader
Ġ% )
Ġobject ive
ĠFach werk
Ġverl ieren
ĠSÃ¼ ÃŁ
Ġinvol ves
Ġign or
ĠBege gnung
Ġil leg
Ġbeob achten
Ġjud ge
Ġaccommod ation
Ġsud den
ĠBerÃ¼cksicht igung
J vm
T AG
n ord
t urm
el ly
ĠW ille
ber to
ber ichte
Ġver mitteln
Ġaus einander
art a
Ġ18 34
Ġsp aren
ens atz
cl usive
ĠDeutsch es
arbeit ungs
ĠAd ams
pl us
Ġstat istics
ĠNor bert
Ã¤nder ung
Ġeng agement
Ġbew ir
anze igen
ĠImp ro
Ġevangel isch
ĠOk res
ĠNamens geber
ĠLux us
ĠPak et
ĠGlauben s
Ġanbie ten
AuÃŁer dem
S creen
b els
n b
s f
Ġt ested
Ġm aps
Ġan onym
ĠM other
ĠG ibt
ĠG uten
sch mer
ĠH af
ĠV es
ĠO F
ĠSch acht
Ġun able
aus cht
ĠTh rough
Ex tra
ĠGr en
ĠNach mittag
Ġgen Ã¼
hÃ¶r en
Ġ10 5
off er
enden ce
ĠStud iums
ograf ische
ĠWar schau
fert igt
čĊ čĊĉ
ĠRuss ell
Ġmag n
mel den
ĠKle ink
ĠChamp ion
ĠRÃ¤ um
resource GroupName
ĠMary land
Ġstaat liche
Lang uage
Ġbedeutend sten
gun sten
ĠTai wan
ĠEtw a
P OS
m ing
m ers
Ġin halt
st urm
ĠP ause
ra ums
eit h
ow o
ĠO il
ĠSch r
Ġr ib
ĠEr nennung
19 46
ĠAb hÃ¤ng
Ġtra g
sh ut
rat ive
ĠEs c
ateg or
ĠSc ient
ST AT
ĠSal on
Ġpolit ischer
mark e
EC ON
ĠErw art
Ġocc as
Ã¤rk ung
ĠMuse en
Ġdur able
ĠmilitÃ¤r ische
ĠGesam tw
ĠAnders on
Ġsinn voll
ĠHild esheim
ĠMultic ast
C opy
U hr
m esse
w Ã¤hlen
Ġs ang
Ġw Ã¼nschen
al id
ur teilung
ge halt
Ġe hr
ing ang
ĠT afel
ĠK eine
ĠH i
ĠH Ã¤nden
ĠL ac
um ph
ĠC hl
iv ile
ĠZ in
op ran
se lect
qu ert
Ġcon sequ
Ġ18 16
Ġ18 32
pr esen
19 28
lo hn
ĠAus sehen
Ġcont aining
gl Ã¼ck
ĠUr heber
ĠDurch schnitts
Ġweek ly
jÃ¤hr ig
Ġatt acks
sc ale
ĠWieder aufbau
sprach ige
ĠSchÃ¼ler innen
Ġdiscuss ed
kor de
Ġbelieb t
ĠPil ot
Hol der
ĠRet urn
Ġsuggest ions
ĠAntw orten
Ġlok ale
, -
P T
o iden
s u
z es
es er
Ġw is
ĠS ax
Ġo vers
ĠW ettbe
ir aten
Ġer fre
Ġy ard
Ġ18 10
enn zeichen
icher ten
alle utnant
ĠEd inburgh
ĠWeiter bildung
ĠKor ps
ĠPhys iker
Ġexpla ins
ĠSchles ien
dis ziplin
Ġgere cht
ĠIdent itÃ¤t
Ġprofit ieren
ĠErschein ungs
ĠRac ing
pap ier
Ġestim ated
ĠbeschÃ¤d igt
ĠAbra ham
R ender
b em
u in
ro de
ro se
st iftung
ĠD ud
ĠD opp
Ġp Content
ĠK ro
ĠH ad
ĠV at
ĠJ r
ĠSt ationen
ĠO N
ub b
ĠSp a
Ġpr Ã¼fen
sk on
ĠAd vis
ĠZw eite
Ġeinz us
Ġ% ,
ĠPhil ip
Ġbook ing
Ġhol idays
ĠAka dem
Ġsend ing
Ġcommer ce
Ġjapan ischer
Ġkom ment
spann ung
ĠWett kampf
ĠArz ne
ĠBapt ist
Ġbeauf tragt
9 00
D ruck
E Mail
b ungs
f und
Ġm a
Ġm uÃŁ
us a
Ġp our
ĠT rop
Ġein gemein
ĠK iss
ĠL ic
ĠL ocation
ir i
Ġer gab
est adt
Ġsch eme
Ġso il
ĠDe ep
ac cess
of ern
ĠZu hause
ĠVers uche
Ġbr ut
Ġem otion
ĠProf i
Ġeinge zogen
ĠLie ben
zÃ¼ g
ĠExper iment
ĠDisk uss
Ġrecogn ize
ĠMarc us
Ġumfang reichen
ĠDub lin
Ġnutz te
ĠFinn land
ĠSak r
ĠiP ad
Dam it
Sow jet
F T
K ur
P N
h ut
l ov
l io
Ġt ube
an dern
Ġw Ã¤hlte
ĠS L
ĠA tem
ĠB j
ĠB lat
ĠD OC
ĠH Ã¤usern
aus ende
Ġex klus
ĠVor gang
als ieger
sh afen
Qu elle
ĠBo ys
kl en
Ġhin weg
He ad
sol venz
Ġgest altete
ĠMot oren
ibr aries
ĠFlor ian
ĠBÃ¶ hmen
Ġstre ets
ĠSter ne
E lekt
J ECT
K ilometer
w ender
ie hen
at em
Ġp atch
ĠG rant
ĠE y
ĠE ichen
ĠE valuation
sch les
ĠL aub
Ġmit ten
Ġver ring
ĠfÃ¼r s
ĠAn aly
ĠVer teilung
pe te
ĠDie t
iz itÃ¤t
ĠDe kan
ĠAuf l
ĠMar x
Ġgew alt
Ġfin ance
Ġcont ents
ĠSte ink
Ġimp ossible
Ġcap abilities
ĠRel ief
produ kt
ĠTurn er
ĠFlor a
ĠWebs eiten
Ġcas ual
ĠGran de
Ġplatform s
drÃ¼ck t
icul um
Strateg y
ĠRepar atur
kurrent en
B rit
W K
a er
c omponent
l ib
o a
o i
v oid
w Ã¶rter
ĠS M
le tes
ĠT oy
ĠF ine
ĠJ oy
Ġver kehr
Ġver trieben
be auftrag
19 36
ĠBer eit
ĠMar in
Ġlie b
En tries
ett y
Le icht
Ġag greg
pla in
We iÃŁ
Ġprof iles
SS R
Ġmar ks
ha pe
ĠMay er
ĠHeraus forderung
Ġsle e
Ġrelig ious
Ġschwed ische
ĠRep ubl
ĠLeiden schaft
Mult i
Histor ische
Ġabgeb rochen
E ner
E mp
I r
M as
S oll
W he
r ichtete
Ġs ick
Ġb ird
ĠM ale
ĠD ritt
ĠK ate
ĠK riterien
ĠC lemen
ĠC reative
est r
Ġun us
ag ues
be griff
ĠÃ¼ber liefert
ĠSp ir
In halt
ĠPro gr
Ġent stamm
19 22
ĠGe fe
Ġ4 50
use ppe
ĠMus lim
Ġprodu cer
Mit te
fo hlen
ĠChar lie
Ġcolle ctions
ĠZusammen setzung
gra ph
lei h
bet riebe
Ġhol en
Ġbuy ers
Ġintegr ation
ĠCal endar
Ġleg it
match er
ĠTown ship
ĠGeheim nis
ĠAdmin istrat
Ġweib liche
Ġpow der
franzÃ¶s isch
Ġumf assen
Ã¢te au
( !
T itle
s ql
ge ht
Ġc arr
ĠP rad
ien e
sp f
eb e
tell ten
amm ed
Ġtra um
En ts
ĠJohann a
reib ungen
Ġident isch
Ġunterschied licher
ĠKom fort
190 9
197 3
Ġmoder ner
ĠPlat te
ĠSÃ¤ ulen
Ġdet aill
Ġagre ed
Ġkom fort
fle isch
Ġkeiner lei
Ġbelie ved
tran sport
Febru ar
C ore
N un
O U
Z wei
l inger
m g
Ġb ow
Ġb lank
Ġm and
Ġm ath
Ġm ounted
ĠB ast
ĠB aut
et wa
ĠC C
la yer
Ġzu gunsten
ĠEn joy
ĠAuf trags
Ġro te
ĠGeb Ã¤uden
ĠMin istry
ĠMed aillen
velop e
Ġerfolg ten
Ġdevelop ers
ĠWor ten
yl on
ĠSchul ter
Ġprom pt
Ġabge lehnt
Ġtradition elle
Ġverm utet
Ġir re
Ġjoin ing
ĠAv ailable
Ġwissenschaft licher
Ġremov al
Ġprefer red
Ġsubs cription
Ġbul gar
ĠDemokrat ischen
ĠClin ton
ĠVinc ent
Ġgrund legen
D oppel
H or
H tml
S ong
T it
ã Ĥ
Ġf its
ĠB ible
st Ã¼cken
ĠP end
ĠR Ã©
Ġl as
Ġab gew
iz isten
ip ts
ĠLe ider
19 25
Ġman agers
St ad
ĠWe iler
ĠAd v
Ġsc ores
ĠGer d
ĠFr ame
Ġfind s
ĠRad i
Ġevent uell
Ã¤m mer
ES CO
Ġturn ing
Ġoptim ale
Ġrefer red
": "
Ġwand te
Ġscr atch
Ġcrow d
D etail
I con
V G
w alk
Ã ¯
Ġs enden
Ġe ure
ĠF Ã¤lle
Ġer a
ĠSt orage
Ġver Ã¤ndern
() ),
Ġ18 44
Ġsp acious
auf tritt
Ġen abled
Re ihe
ĠQu ality
Ġfol ks
Ġverb lieben
Ġass ign
Ġgef Ã¤llt
str Ã¶m
ĠFest ivals
ĠGew ichts
Ġla ptop
Mod us
Ġvoll kommen
ĠSel f
ĠBeg leit
Ġenjoy ing
ĠStad trat
Ġenter prise
ĠRead ing
Ġarg uments
Men u
Ġscen es
ĠFant asy
Ġdanger ous
ĠÃĦm ter
C ell
G ed
ch el
Ġt ier
Ġt ack
Ġt iefer
Ġb ars
Ġf ried
Ġf liegen
ĠP ent
ĠI owa
ĠH ugh
ĠC ool
Ġge fahren
Ġge prÃ¼ft
ĠVer pflicht
Ġab use
Ġ18 35
19 13
Ġwill kommen
ĠGer ade
erg ie
ĠFin ance
ĠFlug zeuge
ĠVe get
rist all
ĠCamp ing
Ġregul ations
Ġfiel en
ĠStreit krÃ¤fte
Ġlisten ing
bil den
Vol ks
ĠXS LT
ydra ul
Ġgedei ht
L Y
h Ã¶ch
Ġ å
in um
Ġs aving
re de
ĠS ri
Ġm ile
Ġc um
ut age
om aten
ĠJ ay
ab ama
os lowakei
pp ich
Ġaus gesetzt
ĠAn other
ĠTh ose
Ġen v
Ġwor se
ĠSo ul
Ġrec on
fall enen
ĠSchw aben
ĠBet rag
ĠDes cription
Ġpass ing
stÃ¤nd ige
ĠRegion alliga
Ġcheck ed
ĠTag s
Auf gelÃ¶st
ĠSeit dem
vert retung
196 1
Ġconf ident
ĠSchloss es
ĠDom ain
ĠChem nitz
ĠBahnhof s
ĠPop ular
ĠWel che
Ġbox es
ĠDokument arfilm
ĠLiefer ung
Av ailable
Hein rich
ĠRober ts
Ġfir ms
Ġgefe iert
presen ted
in ch
Ġb ass
ĠB ibli
Ġp oker
ĠP le
ĠT rue
ĠG B
ĠK unde
ĠR ound
um pe
uf Ã¼gen
ĠSt op
ÃŁ t
ĠIn spe
Ġne ug
ĠSp alte
her it
ĠDe cor
Ġvor n
ac le
Re v
Ġgew orfen
ĠÃľber rasch
ĠHand eln
Ġdesign ers
Ġcons istent
Ġeng aged
ĠBest immung
less ly
196 7
ĠBru ce
fehl er
Ġoffic ially
ĠGast geber
Ġerk annt
ĠAth leten
fÃ¤l ischen
Ġdistin ct
Ġcompar ison
ĠNiger ia
ĠScot land
Ġkorre kt
1 15
R hein
W atch
k Ã¼nstler
l is
m ass
Â ¼
ĠS alt
le e
us ten
ig eschoss
ĠK it
ĠK ot
ĠC ous
ĠC ommerce
ir s
ĠV ik
sp lan
ĠVer pack
Ġsch afft
Ġex pr
Ġnach folgenden
Ġ18 36
ord nen
auf lage
alen a
unk er
ĠWer ks
ĠDr amat
Ġkein em
ĠGener ationen
Ã¶st liche
ohl en
ĠMitglied s
Ġreal ized
Ã¤uf e
ĠKont o
druck s
ĠZe hn
ĠAir es
195 2
ĠTÃ¼r en
Ġtravel ing
ĠPor sche
sta ats
Ġerr ichteten
Ġsuppl ier
Ġausger ichtet
roat ien
Bi ografie
Ġbess eren
ĠWord Press
ĠBeam ten
Ġfla vor
E B
R aum
f are
k ov
in formationen
Ġt all
Ġf icken
ĠB elle
st Ã¤dt
ĠF K
ĠĠĠĠĠĠĠĠ ĠĠĠĠĠĠĠ
ĠC ommer
eit her
Ġk omm
est on
se arch
ĠRe alitÃ¤t
aus s
ĠEr langen
ant i
ial is
gr id
ĠNe v
par ser
ĠNach kommen
Ġsome what
Class es
Ġpublic ation
Ġmark ed
By Comparator
Ġcomm ittee
Ġpolit ics
ĠBel ager
ĠTour en
ĠSand stein
Ġung laub
ĠErd geschoss
Ġdat iert
kan al
ĠCent ury
ĠUR I
Ġnotwend igen
incip al
ĠAtlant ic
Ġevalu ation
Ġkos tet
Ġmittelalter lichen
ĠSort iment
kÃ¶ mm
S pr
W appen
b rief
r Ã¼cken
Ġl Ã¤dt
ĠVer ordnung
ue z
teil ten
reis gau
Sch edule
ins icht
Ver kehrs
ott i
ĠBl Ã¼te
Ġstr ict
schl Ã¼ssel
Ġtechn isch
ĠMittel meer
ĠGen ossen
amb ling
Ġstehen den
Ġflo ors
Spe ichert
Ġcommon ly
Ste in
Ġmem ories
Ġpain ted
Auth ent
Ġhum or
Ġkanad ischen
ĠberÃ¼hm ten
ĠGesell schafts
ĠAgr ar
ĠRail way
Ġque ue
Dav id
B ot
ĠB C
Ã¤ k
ĠD ag
ĠD amp
Ġh ang
ĠT ODO
im ore
Ġbe legen
ĠN ATO
we ilen
ĠIn formatik
Ġ18 13
19 27
19 31
geb ot
ĠSe pt
Ġcan vas
ĠMar cel
amm ad
ierte m
alen ted
ĠArt illerie
Ġger ufen
Ġange ordnet
ĠAnt ar
Ġexec ution
ĠtÃ¼rk ischen
ĠTrieb wagen
ĠEuropameister schaft
================ ================
ĠBom ben
JÃ¤hr ige
I AL
R ichtung
Z usammen
st an
ĠI M
ĠL ane
Ġl ies
ĠV ic
Ġdes wegen
ĠZ en
Ġver fasst
Ġme als
Ġ18 21
19 12
ĠAl aska
wer fer
ĠVor jahr
Ġfin est
Ġins zen
Ġspe ichern
ober flÃ¤che
ĠMus kel
Ġbek annter
ĠHaupt mann
AN S
verb rauch
By Id
190 5
ĠWirk lichkeit
Ġstru ktur
Ġpack ages
stud io
IG HT
uell es
Ġrelig ion
Ġbere cht
ĠCapt ain
ĠViz emeister
Ġfasc in
ĠEro ber
D och
a ired
y th
Ġw ander
Ġc tx
ĠF o
ĠG utschein
ĠK i
Ġg rant
ĠN C
Ġk ap
ĠJ ason
Ġge folgt
la uch
th at
Ġwe iss
Ġ18 42
19 43
ail ing
ĠAuf klÃ¤rung
rÃ¤ g
ĠFra ktion
Ġdesign ing
ĠProdu ct
Ġperson ally
Ġgener ated
ĠRÃ¼ck tritt
ĠPark platz
ĠSol id
Ġ185 3
Ġsetz ten
kn oten
ĠKaiser reich
ĠTest ament
Ġsug gested
Med ien
ĠAnge legenheiten
ĠVis it
Ġpoln ische
Co uld
Ġexpla ined
Ġinstru ction
Ġausges prochen
Ġoffens ichtlich
inv oke
Merk male
ĠWupp ertal
E st
H ave
p Ã¤ck
re port
ge fÃ¼hl
Ġc otton
ĠF abr
ĠF aust
ĠR ote
ĠL oth
Ġto ys
ĠO ste
ĠSch ult
sp l
ĠVer schw
ĠVer folgung
lic a
ĠAus flug
Ġen ables
ors es
Pro tocol
Ġfr ustr
mit te
Ġsome where
ash i
Ġshe ll
ĠBet riebe
Ġteil te
Ġhistor iques
ĠStaats anwalt
ĠNo Such
Ġnie mals
ĠThere fore
west lichen
Ġhead s
ordin ary
gÃ¤n gen
Ġchrist ian
Gemeinde auflÃ¶sung
wander ung
Ġhop ing
ĠWeimar er
Ġsup erv
ĠSchott land
Ġbrill iant
ĠLiver pool
A ch
B enz
S am
n ote
s d
un c
Ġt elling
Ġs aÃŁ
Ġb ay
Ġb au
Ġb irds
Ġv oc
ro th
ĠM ang
ĠT ap
ĠW K
ĠC abin
Ġl ady
ĠN BA
Ġge zwungen
ĠSt ufen
ĠZ ellen
ĠIn put
tr es
Ġsp iegel
ome ter
19 11
19 24
geb ir
St unden
Ex per
Ġad op
Ġad van
ĠNach halt
utz ten
fl Ã¼ge
Ġ: :
ĠSh are
ĠPe ace
zw ald
por ted
Ġbesch reiben
ĠTechn ische
Ġann iversary
Ġatt orney
cept or
ĠCor porate
ĠVe ktor
Verein igtes
Ġpo et
Fl uss
current Time
ĠAnge hÃ¶rigen
ĠvollstÃ¤nd ige
ĠVerÃ¤nder ung
Ġsitu ated
owe en
Ġtom orrow
ĠGenehm igung
B ro
C y
C red
P oints
k ritik
Ġ Ã¤nderte
at ile
ĠB rem
Ġn odes
ĠC art
Ġbe weg
Ġl ists
ĠN ort
ĠV olleyball
Ã¼r ft
Ã¼r zen
au be
Ġde kor
ĠAn nahme
Ġhe ating
In tern
ast ing
ĠDe cken
fer enzen
19 41
fe ktion
18 90
amm ar
Ġher o
Ġ17 00
Ġind oor
vent ions
ĠZw eiter
ĠProdu cts
ĠSer b
ĠLebens raum
room s
ĠForsch er
ĠLog istik
Ġnormal erweise
Ġorganis ierte
Ġqualif iziert
Ġarr ive
Column s
ĠErk enntnis
Ġdisplay ed
ĠTrotz dem
Ġelektr ische
Ġtempor ary
ĠErkrank ung
instr ument
Ġbeher bergt
Ġfas zin
7 00
B al
P ublic
k os
t lichen
ĠS i
Ġn ob
ig ert
am ann
ĠP all
Ġz us
ĠC V
Ġl aser
Ġer werben
ĠV as
ĠJ immy
ĠVer leger
ĠVer leihung
ĠEr haltung
Ġhe av
Ġ18 41
ho le
ĠOr n
tw ork
ĠNach kriegs
Sch lag
Ġbeg leiten
Ġze igten
Ġbre ad
ĠStud ents
Ġcl ar
Ġcl ip
ĠCl ar
omb ard
bed ded
Cl ub
zwe if
ĠNachbar n
Ġrob ust
Ġentsp ringt
ĠFÃ¤h igkeit
ĠPow iat
1 13
> </
G lobal
f i
n on
o ft
r und
č ĊĠĠĠĠĠĠĠĠĠ
Ġd auern
Ġf lying
ĠA mp
ĠT Ã¤tigkeiten
ed a
ĠC and
Ġer ober
Ġk lin
ver teilung
ind lich
ĠEr ror
ĠBe frei
Ġent rance
Ġres ort
Ġad ds
Ġcomp act
ĠSte iner
Ġange mel
grÃ¼n de
Ġstr ip
ĠRes idenz
mittel alter
Ġbl end
Ġlang uages
Ġbed s
ĠHier zu
iol oge
195 9
ĠKol umb
Ġneues ten
Ġhohe m
Ġprim arily
wa it
ĠSpring s
Mon itor
Ġverz ichtet
ĠdÃ¤n ischen
kore a
ĠWit we
Ġromant ic
ĠLuz ern
organis ationen
Entwick lung
/ -
; "
G leich
P ublik
g ate
k andid
o be
z antin
Ġd ump
Ġs ke
ur laub
as et
ĠF ron
Ġz entral
Ġl ake
ul us
ĠN HL
ver hÃ¤ltnisse
ĠAn wendungs
ĠRe chen
aus stattung
ĠAr gument
ĠUnter schiede
use hen
Ġgew innt
Ġtime out
Ġpart ition
bau werk
Ġact or
Ġmin ister
Ġresult ing
Aus gabe
Ġcar pet
ĠSan ierung
Ġbef Ã¼r
Ġinternational er
ĠLauf zeit
ĠRegel ung
produ zent
ĠAg ain
astr al
wes ens
ĠMass age
ĠNews letter
spro zess
Block s
Match er
ĠkÃ¼nd igte
Bag Constraints
Ġcerem ony
Lud wig
A p
F iction
N orth
f isch
h our
k ok
it led
Ġb ild
ĠB eine
Ġo lymp
il o
ut a
ĠF avor
et tel
ĠIn solvenz
th of
Ġde fense
ĠRe z
ĠVer f
iz able
ĠEn cyclop
amm ers
ĠUnter halt
Ġins ight
ĠPh ill
Ġviel fach
uk le
Ġcol ours
pre fix
ĠAss istant
195 7
ĠAst ron
Annot ations
ĠInvest ment
ĠSur vey
funktion en
Ġdein er
Ġniedr iger
Ġhil f
ĠlÃ¤ng st
mag azin
Ġvict ory
ĠAster oid
ĠEnter prise
Ġsustain able
Ġrout ine
Il legal
ĠEinzugs gebiet
ie ch
al ben
Ġm apping
il og
ĠP L
ĠT ickets
ĠE cht
ein satz
ad in
Ġr ural
be zirks
ĠPro jekten
19 50
rÃ¤ uch
ĠNach weis
Ġnur sing
ĠGesch Ã¤fte
ĠFr iends
ĠÃĸ konom
Ġdire ctions
ĠFe atures
ux e
ĠBesch luss
key Set
ĠMa ine
seit ige
ĠWahr scheinlichkeit
Ã¶p fen
ĠKomb in
Ġangegeben e
Ġchines ische
Ġhy per
Decl aration
ĠWurz eln
verteid iger
Pred icate
ĠschlÃ¤ gt
K S
N ein
S aint
f lag
Ġt v
Ġt um
st ance
Ġh ack
ĠF utter
ĠH ip
ir r
ĠN ations
Ġer fasst
og o
Ġsch ed
ok ia
be zirke
ĠTh ink
wer fen
Ġdown town
new Instance
ĠWh it
ĠEnt deckung
ĠRÃ¼ck seite
Ġrequest s
ĠGen au
ĠVolks republik
ĠMitte le
omet rie
Med aille
Ġreason able
Ġcrit ic
nor mal
Ġgez Ã¤hlt
MÃ¶ gliche
H H
l ok
Ġd ust
is ka
Ġw ave
Ġh ate
ĠI an
ĠH Ã¤uf
ĠH Ã¼tte
ĠL ars
ĠL amb
ein kommen
Ġge habt
Ġauf weisen
Ġver passte
Ġsch me
Ġnew est
19 23
ĠSe ver
ĠMit tag
ren e
ĠBo ots
vent ional
ĠOber liga
ĠCon text
ĠMed al
Ġbre aking
ĠAt tribute
Ġmet a
ĠGen re
ĠAg ent
ĠOper a
ĠKle id
ĠStar ts
Ġlos ing
AX B
Ġirgend wie
ĠBlo od
Ġauthent ic
ĠVerletz ungen
******** ********
Ġangen ehm
ĠFerr ari
B ank
D ER
Z ug
k W
u y
u cc
u als
Ġa ims
te ine
Ġf erner
Ġan x
ĠP oker
ĠT icket
ĠG ary
ĠG PS
hr ingen
ĠR iesen
ĠC ache
ist ol
ĠN Ã¶rd
Ġer lebte
ers atz
ĠSt ufe
est het
Ġst ren
Ġch ose
ord nungen
ob ahn
ĠSe il
Ã¼hr ung
res ted
olog ist
Er ste
ĠFe ature
ĠVerb indungs
ĠHaus halt
Deutsch es
Ġmet adata
Ã¤m me
Ġerne uer
Wh y
ĠTurn iers
.... ..
Parameter ID
ĠWes er
ĠBÃ¶ h
ĠRob in
Ġcaus ing
Ġdein em
Ġconven ience
Ġdauer haft
Ġprincip les
Ġsurpr ised
Ã¤nk ischen
ĠVerbreit ungsgebiet
D isc
m oder
Ä Ļ
te or
Ġf inger
Ġm Ã¼sse
ĠG ros
ĠL ack
um ann
Ġal arm
ik ers
ver w
Ġsch la
Ġcon tribute
lin er
Ġ18 33
ĠEn try
ĠAl m
lo gen
ĠAus richtung
Ġen tert
ĠÃ ©
ĠUnter kunft
Ġgew issen
ĠAd vanced
Ġinst ruments
ĠMeister titel
Ġschn ellen
Ġprofession elle
Ġgem el
ĠZahl ungs
Ob wohl
ĠErz bist
So zial
Ġalong side
Ġconc ert
Ġaddress es
ĠFluss es
Ġassist ant
Ġerz Ã¤hlen
ĠImm un
ĠDenkmal pflege
ĠUN ESCO
ĠKlass iker
ĠGottes dienst
ĠKÃ¶nigs berg
ĠVoraus setzung
cu ador
ĠArchÃ¤ ologie
ĠDrag on
ĠfÃ¼hl t
ĠSpekt rum
Ġwarrant y
! =
, ...
H as
f z
is emit
Ġp itch
ĠE state
ĠK Ã¤rnten
ĠH Ã¼
ĠL az
ĠC ond
Ġre lief
ĠSt all
Ġim per
Ã¤n gs
19 21
uss ia
ian e
ĠSe attle
ac ional
ĠOr leans
olog in
Ġber ichten
min ute
ĠÃľber leben
ĠOn kel
ĠReich en
ĠMag ic
Ġrest ore
Ġstor ed
ĠHistor ischen
gesetz ten
ĠWell ness
ĠFeder ation
ĠErwachsen e
Ġexpos ure
ÅĦ ski
Ġappe al
L ie
R ing
a ÃŁen
g ger
k asse
m isch
Ġd aneben
Ġt oler
at sch
Ġf ahr
Ġin k
ĠP rize
ĠT ower
Ġein iges
ed el
ĠW DR
ĠH insicht
Ġth in
id get
se Exception
get Field
be cker
ĠAus gleich
Ã¤ch ter
aw t
ĠMan ual
Al though
Ġsho ot
ĠFe ed
ĠBÃ¼ chern
ĠPreis en
ĠCom edy
ĠErw in
Ã¼rz te
mon th
Ġversch oben
Per iod
Ġther apeut
ymp os
Verb reitung
ĠFun c
db c
Engl isch
Ġverurs acht
ĠSQL Exception
Ġlauf enden
astrop he
Subs cription
Ġlicens ed
! âĢĿ
N och
T urnier
o fen
in itial
Ġf iction
ĠA ve
ĠB owl
Ġc ommen
sch atz
ĠH Ã¶l
ĠC ut
ĠU V
ou b
ĠSch mal
ste p
ĠAn leitung
Ġsch olar
ang riff
lo ÃŁ
ĠAb schied
erk irche
Sch l
Ġprodu cing
ON E
ĠAll ianz
iver y
Ġcl ubs
ĠSÃ¼d ost
Ġappro val
Ġsicher lich
ĠMiss issippi
Ġbeteil igte
Max im
Ġcelebr ation
match es
Ġintens ive
ĠStrateg ie
ĠFlÃ¼cht lings
Lin ie
ibil itÃ¤t
M s
Ġe gg
ĠT reib
ĠK ilometern
ĠC ulture
ĠSt ief
ĠSt ifts
ann over
Ġfor ever
ĠSch ieds
ĠAn c
ĠEr folgs
Ġcon cl
Ġor ganisation
ĠNe ut
ĠAb u
iet ies
enden cies
bo ards
ilder t
Ch ina
Ġinv alid
ĠComp lete
unn able
Ġsu ite
met ter
ĠPort land
ĠPrÃ¤ fektur
Ġverlie f
Ġtax es
Ġporn o
ĠNationalsozial isten
ĠLy on
Ġsem i
Kurz film
ĠBeob acht
Juni oren
Ham burg
ĠLiss abon
Ġack now
T ool
l iances
in tend
ĠS MS
Ġb ands
Ġan zeigen
ĠM am
ĠP i
ĠT ib
ĠF R
ĠF lieger
ĠE id
ĠO P
ant ik
ĠAr ist
Ġent s
mal erei
Ġwor auf
Pro gress
Ã¶ff entlichen
sk op
ER E
Ġausge dehn
ĠHol y
Ġbed ro
Ġflo oring
wor ten
Ġliegen de
195 3
Ġdro pped
Ġinj uries
Bundes liga
ĠBege gn
ĠPed ro
uum l
Ġinn ere
Ġgesellschaft lichen
ĠgewÃ¼nsch ten
ĠWik ipedia
Ġcircum stances
1 000
B Y
H erk
M aster
R om
W ein
g ast
h ain
h ash
m Ã¼ller
p df
w il
is lation
at ischen
Ã¼ hen
ro le
Ġn ic
ĠD j
ĠT hal
ĠH urr
ĠC urt
Ġl adies
Ġer setzen
ĊĠĠĠĠĠĠĠĠ ĠĠ
Ġmit hilfe
Ġr ar
Ġwar ning
Ġsp ark
ĠTh ings
ĠAus gra
to Array
sk irche
ĠTeil nehmern
ins ert
ĠgroÃŁ em
ex ists
Ġdiffer ences
Ġdevelop er
ĠMittel n
Ġcoun sel
bereich en
ĠDo ctor
ĠPal m
!! !!
ĠStein bach
Ġsever e
195 8
ĠHÃ¶r spiel
ĠniederlÃ¤nd ische
ĠSchwar ze
ĠEins Ã¤tzen
typ es
Ġmil k
ĠWalk er
Ġkulture lle
MÃ¼n chen
ĠOze an
habilit ation
ĠInde pendent
ĠÃ¼berrasch end
F ootball
Ġt ill
an trieb
or ama
Ġw Ã¶ch
ĠS ara
Ġf ulf
Ġo ven
st yp
ig ter
ĠP ommern
ĠG astr
ĠW LAN
Ġbe deckt
ot ter
Ġden ke
ĠSch ub
Ġse ats
Ġse ctions
ran ts
ok ed
ant ic
ĠLe gend
Ġ18 17
Ġ18 39
Ġ18 31
ĠAl tert
ĠNe ed
Ġ17 0
param s
heim at
Ġprof essor
ĊĠĠĠĠĠĠĠĠĠĠĠĠĠĠĠĠĠĠĠĠĠĠĠĠ ĠĠĠĠ
ĠArch ive
Ġcheck ing
Ġmov es
Ġerschien enen
fred akteur
ĠSant i
Ġauthor ities
Ġpack aging
Ġposs ibility
Ġsubject s
build ing
Ġqualifiz ierten
ĠÃ¼brigen s
sper re
ĠFF DC
Ġdokument iert
cour t
B ur
g it
on ly
at tr
ĠS ad
le ister
ĠM ent
Ġh Ã¶r
ol stadt
om ing
ĠK enntnisse
ĠH amp
ĠC M
Ġer zeug
ver folgung
ĠAn reg
ĠAn sprech
av ax
Ġ18 38
19 26
lo h
io den
ĠSe kund
Ġro ots
anz a
ĠSh akespe
Ġact s
ĠRes ources
ĠĊĊ ĠĊĠĊ
Ġclass Name
ĠPer fect
Ã¤us chen
Ġjewe ilige
umm y
umb oldt
190 6
Ġless on
akter ien
lÃ¤uf ig
ĠBur k
Bo den
ĠrÃ¶m ische
Ġmanufact ured
ĠNachbar gemeinden
ĠCy ber
ĠAqu ar
Ġscient ists
ĠSup reme
. [
V oid
f onds
h all
t ier
w oche
Î ¹
Ġa rom
und ry
ro v
ĠP un
ĠT all
ĠF lat
and ra
ĠJ g
iv ation
ĠSt rat
Ġst ake
ver gleich
ĠSch ienen
ĠIn stead
ill i
ak ul
ĠEr halt
ord ination
enn te
tel la
ac ular
ieren der
ĠFl ash
ĠUm frage
ĠSchw ert
Ġverb ringen
Ġsu c
ĠFest schrift
ĠTechn iken
ĠTre ppen
Ġcontrol led
195 6
ĠEv olution
New s
Ġinform ed
Arch iv
Ġconcern ing
ĠBit coin
jew itsch
ĠProduzent en
ĠGle is
Ġdurchschnitt lich
Ġcir ca
ĠBulgar ien
Ġven ue
Tro tz
ĠDiam ond
Sn apshot
Cert ificate
Ġamen ities
ĠHimm els
U LE
d og
h ot
i ierten
m all
w atch
Ġd uty
un ivers
Ġs Ã¤chsischen
Ġb inding
Ġm un
ĠA BC
Ġc enters
Ġh urt
âĢ İ
um pen
Ġl ip
Ã¶ hne
ĠV amp
Ġk reat
Ġre produ
ass istent
tr as
ok raten
ĠEin z
19 47
erv ed
ĠAuf wand
ĠQu in
ĠKon sequ
ĠMus k
ĠTra uer
lÃ¤ chen
AN T
Ġeng age
Ad min
Ã¼b ung
Ġret val
ĠZe ugen
ĠEnerg ien
190 1
ĠhÃ¶ch st
Ġdeb ate
vo gel
Ã¶p fer
pat tern
Ġstrength en
ĠMÃ¶n chen
Ġsurpr ising
kanz ler
Ġrechte ck
ĊĠĠĠĠĠĠĠĠĠĠĠĠĉ ĠĠĠ
eig nete
ĠClaud ia
E U
I Z
d ist
f ly
g alerie
Ġd ienten
is men
re if
ĠS ah
us ions
ĠA kten
Ġn ights
ĠM esser
ĠP O
ra kt
la ps
ste her
av ed
Ġpro xy
aus wahl
ap o
Ġle ichten
19 40
ĠTe e
ian ts
18 0
ĠVor arl
vel and
fÃ¼hr ende
ĠDies en
ĠEx pert
fr ame
hand le
Ġselbst verstÃ¤ndlich
Ġkein es
Ab geord
ĠRad rennfahrer
Reg ister
Ġtext ure
Ġess ays
stit ute
ĠHard ware
gerichts hof
Ġzeich nete
klass igen
Je an
ĠJava Script
ĠkÃ¼nstler ische
Ġdish es
Ġbrach ten
ĠBÃ¼nd nis
? !
L inks
O wner
P rÃ¤
z k
Ñ ı
en c
Ġb ol
Ġc oc
Ġh its
ĠG am
ĠK etten
ĠL ith
Ġk op
ĠSch re
Ġpro of
esch en
Ġsch ein
ĠEin zug
Ġent deckte
teil ungs
Ġgen ehm
ĠFl ow
Ġ7 50
Pro ble
ina e
Ġph ones
AC H
Ġdav or
Ã¤ss ern
ĠRegierung schef
Ġclos ing
ĠViel leicht
ĠVorsitzen den
ĠGlas gow
ĠEvangel ische
Ġtats Ã¤ch
Ġfight ing
Ġincred ibly
Ġsuffer ing
Ġforder t
ĠanschlieÃŁ enden
Ġster ben
Ġgesund heit
sph ase
ĠNeck ar
Ġconflic t
ĠBuen os
> .
V arian
g io
k inder
Å Ľ
ge gangen
ĠB auf
Ã¤ ule
Ġp ussy
Ġh am
ĠT reat
ĠR Ã¼
ĠL anc
Ġl ob
Ġer g
Ġst able
ĠSch ritte
ĠAn alyt
Ġch a
ĠLe er
St ats
Ġres et
par e
ĠAd miral
ĠCon vention
ĠInst r
Ġac quire
ĠGegen stÃ¤nde
Ġcr isis
Ġtradition s
mod ule
Client Execution
ĠHin dern
Ġemail s
esh old
Ġmaint aining
Ger man
ĠOrganis ations
ĠFert igung
Ġweib lichen
Ġreligi Ã¶sen
ĠMalays ia
> ");
A W
G reat
P ower
t mp
w achsen
an ced
Ġf ro
ĠA ur
ĠA dress
ĠT O
im on
et ooth
ra h
ĠW ang
ĠW ink
ĠC redit
Ġl ohnt
Ġer lern
ĠV Ã¶gel
Ġwh ilst
ĠEr ziehungs
get Time
St il
urg ical
ĠAuf tritte
Re quired
Ġcomp uters
cl ip
Ġpr ime
br enn
ĠGes etze
ĠZu vor
Ġsho ck
ĠAnd y
ĠBild schirm
Ġ24 0
Ġbefore ClientExecution
ĠSil v
zentr ale
ĠÃ¶ff net
UT E
rÃ¤n ken
ĠZur Ã¼ck
ĠJur a
kap ital
ĠtÃ¤ glichen
ĠTaschen buch
Bere ich
ĠHarr is
Ġnav ig
ĠErot ik
N av
O cc
S ol
Ġa ged
ar at
al ier
ĠS F
ĠB irth
Ã¤ ischer
ĠM ic
ĠP for
ĠT ang
ĠT ommy
ĠK Ã¤l
ra ce
ĠC afÃ©
ĠN om
Ġer rang
ik at
Ġst ations
kt ors
Ġj en
Ġsp r
oc aust
ĠAuf lagen
iss er
Ġgen der
Ġinter action
ĠUm stÃ¤nden
Ġdr iven
ĠBra ut
File Name
ĠStr Ã¶m
Ġbas ically
lau tern
ĠHel den
Ġabge leitet
Ġair craft
ĠBeruf ung
Ġdeliver ing
ĠWissen s
Ġphys ikal
kle id
ĠGi useppe
ĠKenn edy
Ġprem ier
Ġzeich nen
Ġschle chter
____ ____
Ġtit les
ĠFlag ge
Liter al
Servlet Request
ĠgewÃ¤hrle isten
ĠGos lar
E isen
G O
Ġs onn
ĠT auch
sch a
ĠV irtual
Ġre chter
est one
ĠO skar
ĠRe ifen
ĠBe hr
ĠAr min
Ġ18 37
pr im
pr inzip
ĠAuf fassung
ĠZeit ungen
Ġfe at
set Value
ork ommen
ER T
ĠCon c
ĠÂ ©
Ġact ress
Ġcl imb
Object s
ĠUr sprÃ¼nglich
ĠSchul z
ĠSchl Ã¶ss
LE CT
Ġspecial ized
ĠPal ace
ĠRuss ischen
Ġland es
Ġenc oding
ĠGeist es
Ġregul Ã¤ren
ĠgÃ¼nst igen
Ġharm on
ĠJahrzehn te
wÃ¤rt igen
ĠKÃ¶r pers
ĠâĪ Ĵ
Ġneut ral
ĠFertig stellung
? âĢľ
b inding
w ahr
Ġin telligence
ĠB reisgau
ĠG row
ĠG host
ĠK ell
Ġg lauben
Ġk re
os serie
op fer
Ġdem nach
sp or
ĠEr ziehung
ĠEr neuer
rom an
ĠDe p
ĠNach lass
ĠUnter haltung
ĠKon stanz
Ġacc eler
Ġsol ange
Ġmach e
ĠBere chnung
Data Type
ĠBest immungen
ĠGegen stand
Ġprom otion
Gr id
ĠTest s
Ġfocus es
ĠEing angs
ĠHal te
ĠTur in
Rem ove
Ġeinzig artige
Christ ian
rÃ¤nk ungen
ĠCert ificate
Techn ische
Ġton ight
Jose ph
ĠForts etzung
currentTime Millis
B L
D M
M ir
P et
k am
k ong
p ause
Ġt we
Ġt ran
ĠD Ã¼n
ĠI X
ra c
ĠL ichten
Ġg iant
ĠC amer
Ġbe ur
Ġl aid
uch tet
ĠSch lÃ¤
Ġr ice
ĠEin stieg
ick te
pro fil
String Utils
Ġdis p
ĠGra u
oth y
Ġtr usted
ĠMed ic
ĠInd ustry
arch y
Ġgu ard
Ġausge geben
ĠCl ubs
str ong
ĠKreis stadt
Ã¤h ern
Ġtyp ischen
ĠUl m
ĠLang uage
Ġsim pl
flug zeug
Ġbesonder es
Ġprakt ischen
ĠMas ters
Ġdra uf
Ġnorth ern
Change d
weil ig
ĠAuthor ity
ĠFreist il
ĠSalv ador
Whe ther
' '
O der
g irl
m ay
t to
z iele
Ġs ight
as a
Ġm olec
ĠM uh
Ġ( +
ten do
ĠR uth
Ġg ig
Ġst uck
Ġde posit
Ġse ed
Ġsch icken
ost ic
ĠAr g
In f
ĠDe an
lic ate
19 32
Ġen ger
Ġnoch mal
ans on
Ġro y
arbeit s
kl ang
Ġevery where
ĠStud y
Ġfl our
ĠFahr zeugen
ĠHÃ¶ hle
Ġplan e
Ġfound er
ĠMod ul
ĠCas tell
bÃ¼ hne
Ġtw enty
ĠHu ber
DA Y
Ġdise ases
ĠJos h
mess ung
ĠGalax y
Ġstet ig
Ġangrenzen den
Spl it
ĠAfghan istan
P ane
V V
Ġd imensions
ĠS iz
Ġe chten
ĠM s
ĠD ays
Ġto x
ĠC atherine
Ġr ated
ang aben
ant ie
Ġnach weis
Ġent t
Ġvor bereitet
row ave
18 99
Ã¤nd igkeit
ĠMed iziner
Mann schaft
zie her
Ġem b
Ġem bra
schutz gebiet
Ġgemein nÃ¼tz
ĠCont est
Inter val
Ġ180 8
Imp ort
Ġoffic ers
Ġaccount ing
ĠLaw rence
ĠKonz ern
ĠbeschÃ¤ft igen
Ã¸ r
ĠEss ay
ĠByte Array
Ã± a
ĠTok yo
Ġjung er
Ġnar row
ĠKrit iker
Ġverstorben en
Ġris ks
B ass
P G
b b
b rÃ¤
h igh
r ise
s eiten
Ġb ug
Ġin ventory
ĠM au
ig rant
ĠT X
im aur
ĠG Ã¤rten
ĠE arly
ra cy
ĠL ost
ul ating
if ies
ĠIn it
od el
ĠRe cher
Ġi p
ant a
lic kt
ime tern
ĠHe iden
ĠVor feld
ĠStadt bezirk
Ġje welry
ĠUr kunden
ĠGener alleutnant
med ia
Ġexp ansion
Ġter r
Ġlaw yer
ĠWei h
ĠGef Ã¤hr
Ġverd ient
Ġpan els
Ġbedeut enden
verstÃ¤nd nis
Europameister schaft
Absol vent
Ġlif etime
Ġeingest uft
ĠHawai i
ĠClemen s
% ,
D reh
U ST
p Ã¤dagoge
s or
Ġt alented
Ġf ragen
ĠD O
ĠT in
ĠT em
ĠG ou
ĠL etter
ĠC e
ĠC ou
Ġbe grÃ¼ndet
ĠV iv
Ġge teilt
la c
Ġfor g
ib Package
Ġab gelÃ¶st
iz it
ud d
be hÃ¶rden
Ġch unk
Ġ" )
ĠPro b
Ġunter brochen
ke ys
ĠY e
fol k
Ġpr ide
ĠSte ven
ĠFre ie
Le ague
pl ibPackage
ĠMan h
Ġviel mehr
Ġinv ite
Ġgra v
ĠGen f
Ġstor m
fel den
ĠSein en
190 8
Land es
Br andenburg
Ġinvol ving
sa al
Ġdra wn
ĠTat ort
Serv ices
Ġhochwert igen
Vis ible
Ġsav ings
ĠmÃ¤nn lichen
ĠNahr ung
ĠBeaut iful
ĠVog t
Ġshap ed
Ġfundament al
âĪ Ĵ
ĠBolog na
Ġeingemein det
ĠInstr umente
R obert
j p
k ing
l Ã¶s
s n
č ĊĠ
it ches
he orie
Ġf t
Ġc urt
ĠF DP
ĠK ies
ĠW alt
sch reiber
ĠL enk
Ã¶ cke
Ġk alt
Ġal uminum
ik ern
get E
iz ers
19 49
enn ame
ĠSe ction
ac on
Ġsh arp
Ġhas n
Ġseit ens
Ġend ing
Ġsur f
ender t
Ġzahl reicher
Ġperform ances
herr n
ĠBor is
ĠOrgan ist
ĠCarol ine
Ġcirc uit
ĠDro gen
ĠkÃ¼nstler ischen
Go ogle
Ġkulture llen
ĠTerm ine
H g
P I
e iden
g om
k rat
l ab
es c
Ġf ern
ĠA K
ĠP hoenix
ĠT uch
ĠF unde
Ġto y
ĠC old
ĠSt orm
ver eine
Ġauf re
ring s
tell ern
ĠGr as
ations hip
Ġges ammelt
not Null
wissenschaft liche
ĠRoman e
Ġrep ly
print StackTrace
Ġversch le
ĠÃ¤hn lichen
ĠSche iben
trie be
ĠWol ken
Gra f
Com ment
Ġsyn thet
ĠLok omotiven
ĠBist ums
Aut o
ĠFal ken
bil dern
ĠBran che
Ġbroad cast
Ġbeeinfl ussen
Sign ature
ĠPerspekt ive
ĠGlÃ¤ ub
incl uding
ĠHels inki
ĠDreiÃŁig jÃ¤hrigen
B uf
F ragment
G R
I ll
S ho
b anken
e u
e ffe
f aktor
k ompon
m essen
Ġf ranch
Ġo bst
Ġp ics
ĠF Ã¤r
ĠK id
ĠH aving
Ġbe zahlen
we iger
Ġver stÃ¤nd
ĠIn itial
op hen
Ġab stra
Ġent scheidet
wer de
fen ce
Ã¤ch se
Ġwork er
sche e
12 5
Al ben
pf lanz
Ġass igned
Ġfl or
imp ly
ĠPort o
Ġverl iert
Ã¤ss ig
Ġnatur ally
Ġens uring
ĠChem iker
ĠKriegs gefangen
Ġstay ing
ĠLouis iana
ĠGÃ¤ sten
ĠWin ters
ĠScott ish
Bild ung
Ġbetroffen en
Ġaktual isiert
ĠFI FA
f este
s endung
Ġw eite
ĠS end
Ġ1 11
Ġc in
ut able
ĠP eking
ĠK ill
ĠH Ã¼tten
Ġre q
Ġre cre
ĠZ iegel
Ġr ug
op ed
ĠAn sonsten
Ġam ounts
Ġas set
19 17
ĠSe gment
Ġsh ots
uer st
ĠEx change
ĠUm zug
let ing
Ġfl ach
ĠInter ruptedException
Ġgreat ly
med ien
Ġchild hood
Mar ia
Man aged
ĠFlug platz
irm ingham
Ã¨ ne
ĠKomp lex
ĠAg entur
ĠKÃ¼nstler in
Attribute Def
Ġple asant
Ġcra ck
Ġmaint ained
Ġinc ident
hyth mus
oles ale
Ġdrink ing
ĠBeweg ungen
ĠFur ther
ĠBroad way
Tim estamp
Ġdaz uge
B ased
G TH
S onder
f arb
g ov
p ubl
w ana
ar ie
ar mee
ĠB ak
am azon
ĠT ak
Ġein setzen
ĠI R
ĠI BM
ĠL enn
ĠC onn
ul ierung
ĠJ ahn
ver antwort
ĠÃ¼ber prÃ¼ft
ĠY am
ĠUnter lagen
Ã¤l en
Ġbet Ã¤t
Ġbet reiben
ep ing
ĠCon struction
ĠPe er
Ġmark iert
ĠDurch schnitt
Ġeng ines
ĠStand orten
ĠRechts wissenschaften
ĠRed akteur
mark et
viron ments
voll er
gef unden
Ġbisher ige
Ġhab ilit
Ġspan ische
Ð¾Ð ²
Ġscre ens
Ġvolunte ers
ĠEconom ic
Ġdipl omat
ĠGeor ges
Lower Case
/ {
S ave
f al
å ¤
Ġd ring
Ġp ocket
ĠH ous
Ġbe halten
Ġbe half
and ro
ĠJ as
Ġauf wend
Ġver letz
Ġ18 14
Ġsp ots
Ġbeen den
Ġ12 8
ĠCon stants
stÃ¤nd igkeit
schn itten
Ġcal c
ĠPaul o
Ġcor re
ĠDen ken
Ent fern
189 8
Ġbeteil igten
Ġsat ell
Ġarr ival
Ġcra fts
ĠFlo or
Ġpropos al
Ġvolunte er
ĠglÃ¼ck lich
Ġvul ner
Sta ats
ĠShang hai
ĠAtel ier
Ġunus ual
L iga
S ach
V erk
W N
a o
w urz
Ġ essen
ĠB ien
Ġund ert
ĠD irk
Ġc ms
ig entlich
ol ith
ĠE uler
ĠR S
Ġer led
ĠV alen
ĠSch lange
Ġpro c
Ġle af
St arts
Ġreturn ing
ett es
aw are
ym ph
Ġass ume
Ġfl ights
Ã¤nder ungen
wohn ungen
ĠWh ich
ĠCo x
Ġlog in
Ġkon kre
ĠDem onstr
ĠHerr schafts
Ġleben den
Ġcontrol s
ĠGet reide
Ġid x
ĠHa ag
ĠSin f
Ġcur rency
ĠBill y
emb les
Ġumfass enden
person en
BevÃ¶lker ung
ĠStatt dessen
B urg
P ap
T hen
b ors
k rÃ¤ft
ã Ģ
in ese
Ġd ritt
an as
an schluss
ĠS ubs
ĠA V
ĠB rom
de v
de cker
ĠP aw
ul se
[...]
