#version: 0.2 - Trained by `huggingface/tokenizers`
e r
e n
Ġ Ġ
c h
i n
Ġ d
ĠĠ ĠĠ
i e
u n
s t
a n
e i
o n
e s
Ġ S
a l
s ch
t e
a r
e in
a u
g e
un d
o r
u r
Ã ¼
a t
Ġd er
i t
Ġ w
Ġ s
i ch
e l
Ã ¤
Ġ und
Ġ v
Ġ A
Ġ B
e t
Ġ b
a s
Ġd ie
un g
Ġ i
Ġ D
Ġ 1
Ġ M
Ġ in
e m
Ġ ein
Ġ (
a m
h r
ĠĠĠĠ ĠĠĠĠ
Ġ m
Ġ z
Ġ K
Ġ n
Ġ G
o l
Ġ F
t en
d e
Ġ E
ĠĠ Ġ
Ġ P
t er
Ġ au
Ġ f
l e
g en
i s
d er
t i
Ġ H
i sch
Ġ T
Ġ W
d en
Ã ¶
Ġ L
Ġ R
t r
a ch
i l
â Ģ
b er
Ġ er
u m
Ġ I
u s
o m
r e
Ġv on
an d
Ġ V
Ġ 2
c k
Ġ1 9
Ġ h
u t
l ich
Ġ N
r o
Ġ J
i on
a b
i er
i g
Ġd en
s e
Ã¼ r
i r
Ġ C
Ġ k
Ġ ge
en t
Ċ ĠĠĠĠĠĠĠĠ
ei t
Ġd es
ĠĠĠĠ ĠĠĠ
Ġm it
in g
Ġi m
Ġ g
Ġ an
Ġd as
Ġ al
) ;
Ã Ł
an n
r a
Ġ2 0
r ei
u l
Ġau f
Ġ O
Ġz u
i k
f t
i st
ie l
s en
e st
Ġv er
Ġ Z
Ġ U
a d
ĠS ch
e b
Ġ o
Ġ l
a hr
Ġi st
Ġ t
el l
a g
Ġf Ã¼r
Ġ p
f f
e h
Ċ ĠĠĠĠĠĠĠ
s p
Ġ âĢ
Ġw ur
Ġd em
i c
ĠS t
h e
Ġ =
v er
Ġ {
at ion
isch en
w ei
a h
i en
ĠI n
ich t
ĠV er
Ġau s
e d
Ġal s
Ġ st
ti on
Ġein e
o t
ĠD ie
r i
Ġs ich
Ġ Ċ
e u
Ġ }
m en
Ġ un
e g
o w
o s
Ã¤ n
er n
Ġwur de
Ġ r
ĠA n
Ġb ei
al l
k t
in d
b en
e w
ĉ ĉ
s er
) ,
c e
g er
ei ch
o ch
sch a
Ġw ar
Ġ c
a p
es ch
ĠE r
h n
ĊĠĠĠĠĠĠĠĠ ĠĠĠ
Ã¼ n
Ġs ein
ĠJ ahr
o p
ung en
en d
Ã¼ ber
o g
er t
ei l
i m
u ch
u b
u f
e hr
0 0
ge t
or t
isch e
Ġau ch
l in
et z
Ġw ir
Ġ20 1
r ie
Ġ Ã¼ber
e ut
a te
Ġb e
ĠS p
( )
st er
es s
ur n
scha ft
Ġn ach
Ġ sch
st en
r an
l er
ur ch
ung s
Ġ j
l a
Ġ am
m er
r u
an g
e c
g t
ĠU n
l ie
âĢ ľ
i d
ĠE in
o d
ar t
âĢ ĵ
as s
eut sch
au s
Ġb is
ĠA r
n en
Ġn icht
Ċ ĠĠĠ
Ġs ie
1 9
Ġz ur
ol l
Ġ1 8
Ġw er
Ġ20 0
ĠâĢ ŀ
er s
a k
Ã¶ r
ĠA l
i z
Ã¤ t
ĠS tr
te l
I n
u g
et urn
Ġz um
Â ł
Ġ um
e ch
Ġwer den
Ġ 3
Ġein er
ch en
e x
q u
ĠS ie
Ġv or
Ġ es
i v
p p
Ġw ie
Ġ a
st ell
Ġh at
t s
ĠP ro
ĠâĢ ĵ
Ġun ter
Ã¶ n
z en
Ã¤ r
Ã ĳ
Ġd urch
Ġwir d
D ie
ge l
am e
Ġo der
isch er
Ãĳ Ãĳ
h l
Ġs ind
ĊĠĠĠĠĠĠĠĠ ĠĠĠĠĠĠĠĠ
Ġi hr
h al
Ġ ab
ter n
en n
or d
i b
au f
i gen
ĠE n
Ġ ent
Ġi f
Ã¼ ck
u e
or m
Ċ ĉĉ
Ġ "
y p
ch e
te t
Ġein em
k s
ge b
ul l
h er
) .
Ġ tr
eb en
ar b
st e
ĊĠĠĠĠĠĠĠĠ ĠĠĠĠĠĠĠ
Ġein en
l o
Ġs p
lich en
a ge
el t
g r
e p
ĠB er
ĠM it
Ġ re
ei ter
Ã¼ hr
er k
ier t
ah l
Ġ Ã
Ġ19 9
ĠA us
Ġ /
l and
ĠD er
p tion
n er
u st
r Ã¤
u d
e k
o k
ur g
r it
ti g
il d
sp iel
e f
ub l
e z
o de
il l
us s
( );
i a
i ck
o b
Ċ ĉ
E x
ĠA b
ĠG r
i ge
S tr
p ar
at z
h en
rei ch
r au
lich e
Ġ -
p f
el n
p l
o f
ĠO r
Ġdas s
ad t
ar d
om m
ei ten
ĠM a
ĠA uf
ĠC h
in z
wei se
at ur
Ġn ew
i f
o hn
2 0
g es
e y
a v
Ġr eturn
Ġn ull
i al
ĠM ar
o v
in al
Ã¤ l
1 8
an z
s s
Ġ 4
a st
t h
. .
ab en
ce ption
Ġ19 8
u ÃŁ
Ã¤ hr
a c
at en
ĠL and
ein e
ĠN ach
it z
a y
an t
p er
ĠĠĠĠ Ġ
m al
l en
ĠV or
Ġz wei
Ġs o
S t
ĠD as
et er
m e
at h
Ġt he
Ġ( *
on n
Ġ/ /
or en
ĠI m
ubl ic
l ass
b urg
te m
Ġ +
eit s
rei s
Ġ19 7
al t
Ġd eutsch
Ġo f
ro ÃŁ
ĠH er
h t
ver s
p t
Ex ception
o ur
am m
o c
om p
in e
ich te
Ġs ow
k en
f ol
Ġn ur
Ġ 5
Ġn eu
p h
Ċ ĠĠĠĠĠ
ber g
Ġ 0
Ġn och
( "
Ġb est
Ġm ehr
yp e
ut z
e v
ec t
ĠK on
a ck
der n
Str ing
b ar
Ġwur den
en s
b j
Ġv om
ul t
p r
at t
Ġan der
f l
ach t
ĠStr ing
i le
ĠF l
l eich
b au
b r
sch en
s h
Ġ19 6
etz t
it Ã¤t
ĠB r
it ion
in t
ab le
a f
Ã ©
ĠZ eit
ÃĳÃĳ ÃĳÃĳ
Ġz w
ier te
Ġa ber
N ame
C on
ation al
i an
ĠD eutsch
n et
el d
l em
om men
Ġl ie
ier en
l ei
k eit
Ġge w
b e
n is
Ġdie s
W eb
ei m
ei ster
al ue
D er
it er
par am
il m
a z
ĠA m
Ã¤ ch
el le
ah n
s k
un k
Ġ19 4
ĠSt adt
u p
Ġw eiter
Ġm an
lin ks
Q u
Ġb er
n e
ĠP l
i o
r ich
r eturn
l os
Ġsow ie
d u
Ġ1 7
Web links
ĠT he
Ã¼ t
l ag
o ck
Ġp ro
i re
E n
Ġb es
Ġk Ã¶n
Ġ et
Ġk ann
Ġ 9
p ublic
a gen
m ann
f orm
i p
ĠG em
ĊĠĠĠĠĠĠĠĠĠĠĠĠĠĠĠĠ ĠĠĠ
Ġd ar
g esch
Ġ e
f Ã¼hr
m it
as e
f ten
Ġ 6
ap p
ti v
d em
ff en
hr ow
Ġ gen
as sen
Ġ19 5
e gen
l ung
ar k
eh en
en z
ol it
ol le
ĠR eg
ei te
ik er
at er
ĠF ran
am men
f er
Ġ &
Ġ le
Ã¼ d
g lich
r es
f ahr
spiel er
a in
Ã¤n d
on t
sch ie
r Ã¼
Ġge gen
ei gen
et t
ĠG esch
ĠJ o
ĠSp iel
w er
ol og
g lie
l i
Ã¶ l
Ġ1 5
it y
ch t
E inz
P ro
y m
eh men
z eich
Ġwie der
Ġein es
et h
ĠB au
und en
ĠB ei
Ġ el
st an
h und
Ġs oll
S B
f en
ier ung
ie le
i vers
er v
ik an
or g
Ġsein er
ib t
Ġsein e
em ber
s b
Ã¶ ff
e kt
ach weise
t eil
ĠUn ter
Ġ19 3
Ġd e
Ã¼n d
ĠM us
ĠK l
ar l
A n
Ġ ex
is sen
lie ÃŁ
o st
ann t
Einz eln
b all
am en
i te
ie der
ĠT h
Einzeln achweise
in n
s et
p ro
ig er
Ġ ich
T ype
b st
Ġh aben
z eit
Ġhat te
ĠGem ein
Ġdie ser
an s
Ġ= =
at a
Ġg es
a is
u le
sp r
ge ben
ĠJahr e
us ammen
s el
i um
hund ert
ell en
ru pp
h eit
SB N
ĠG es
e ck
ers on
ĠI SBN
ĠU m
al s
in gen
Ġ1 6
y st
ic e
m ein
n ah
ie s
im m
ĠG eb
at or
ab e
ĠE s
ĠU S
Ġf or
ÃŁ e
Ċ ĊĠĠĠĠĠĠĠ
S ch
w a
ĠT eil
Ġbe f
D as
al e
Ġ 7
og ra
u te
ĠkÃ¶n nen
Ġg r
Ġt h
am er
tr ag
e an
A r
Ġzw ischen
ĠS o
A l
I m
Ġ 8
Ġs el
Ġge h
k l
ĠB l
iter atur
Ġb eg
iv e
on der
ĠÃ ľ
ei st
ĠR o
ĠJahr hundert
Ġge t
yst em
in ter
U n
en er
am il
Ġs eit
o ol
w ick
ĠSch w
or f
Ġj e
ĠK ir
E r
ĠJahr en
on g
ĠH au
y n
1 7
m a
Ġ !
bj ect
ĠEn t
al d
f all
ie t
et en
Ġk l
is s
Ġg roÃŁ
L ist
Ã¶ s
p ut
) )
Ġb et
Ġj ed
ur op
in der
Ġwar en
ĠSt a
h m
ĠS te
Ġt o
g l
() .
t o
ĠI hr
ad d
e qu
Ã¤ hl
ar r
Ġt hrow
Ġf ol
w erk
ĠW elt
I N
Ġ Y
o ff
l es
o un
t or
at ch
Ġdie se
z e
Ġer h
Ġ Qu
Ġbe k
z eu
hal ten
ol d
Ġ en
er en
Ġ <
k e
Ġzur Ã¼ck
m us
ĠAr b
st r
ĠBer lin
it t
or e
ge w
R es
ÃŁ en
Ġ1 0
on d
f or
und es
a il
ti gen
eh t
Ġr es
Ġd rei
Ġi s
ĠUn ivers
" );
I d
at s
Ã¤ ter
m in
ĠB o
as ser
m ent
t schaft
or den
te x
ĠL ist
ei d
Ã¤ d
Ġer sten
o hl
V er
Ġd am
" ,
gen d
00 0
st ra
ĠP h
l au
l Ã¤
ĊĠĠĠĠĠĠĠĠĠĠĠĠĠĠĠĠ ĠĠĠĠĠĠĠĠ
ĠW ir
am t
Ġh er
scha ften
ation en
al en
ĠÃľ ber
Ġd ann
iel t
st and
E R
ĠE x
ĠB e
ti l
ing s
o id
in den
Ġbei m
la ge
z u
Ġ :
n ung
Ġh eu
rie g
1 0
b t
an k
Ġw enn
1 6
ĠM en
ent lich
Ã¶ glich
Ġer st
() )
r om
Ġgeh Ã¶r
Ġun ser
Ġal le
ĠC hr
fol g
Ġihr e
.. .
an gen
Ġin t
stell t
hn e
Ã¤hr end
Ġg esch
il der
ĠA d
an der
un st
ĠF ilm
Ġ! =
ex t
Ġ1 4
Ġ eigen
ĠG er
Ġg ibt
ster reich
ach e
Ċĉĉ ĉ
glie d
ĠO ber
uÃŁ ball
f e
Ġ1 2
Ġ and
ĠL eben
k er
Ã¼ l
um ent
el s
ĠP ar
w end
Ġh ier
or n
Ġdeutsch er
âĢ Ļ
ri v
Ġv iel
a x
m an
b ild
o ber
Ġan ge
m eister
w ar
() );
ach en
rie d
e am
h aus
Ġk onn
Ġ1 3
Ġf inal
i ff
Ġjed och
ĠN eu
tex t
an ge
und e
ĠH and
ein en
Ġ19 2
rie b
ĠZ u
1 5
ĠL e
am p
v or
ra d
ĠGemein de
y s
re u
er e
in a
r at
ist or
z w
as se
ĠÃ ĸ
Ġaus ge
ri ft
r en
G eb
Ġel se
L iteratur
Ġth is
ĠA ut
k tion
ĠA ug
Ġd a
1 2
c tion
Ġs ehr
iel d
Ġf Ã¼hr
ist er
ĠR e
l t
Ġ ch
our ce
ru ck
Ġ .
de x
ÃĳÃĳÃĳÃĳ ÃĳÃĳÃĳÃĳ
ab ei
ĠJ an
z er
lich er
ti ge
au er
f ig
ind et
ei g
ĠG e
t on
ĠB et
ĠF amil
Ġi hn
Ġw el
ier ten
en tr
oun t
Ã¤ u
b o
un i
ĠB undes
ar ten
ĠB es
ie d
t es
ĠE l
Ã¶n ig
Ġsp Ã¤ter
ĠF rau
re ch
Ġ |
- -
s atz
i x
Ġv oid
ĠDeutsch land
7 8
sch e
schie den
V alue
P ar
o u
au t
au m
ur e
C h
ig n
O N
h of
S p
st ein
( ),
ĠP f
ĠF or
ĠB and
hal b
ĠM on
ĠJ ul
iz e
Ġg leich
ess ion
stell ung
i den
Ġh in
Ġin s
ĠW est
ĠM in
ĠP erson
s etz
Ċ Ċ
ĠR ech
o sten
it h
Ġet wa
ra y
Ġsein em
i de
Geb oren
Ġw as
tern ehmen
Ġsein en
O r
ĠM Ã¼n
Ġdies em
ĠL u
Ġz usammen
a de
at ic
ur z
a der
al er
r on
ĠGr und
en den
ge mein
w ir
st adt
ĠN ord
2 00
ist en
m ar
ĠP r
en de
ation s
en k
Ġg er
te d
ĠG roÃŁ
ĠAug ust
b l
Ã¤r z
1 4
ĠVer ein
g ang
ĠM ann
= =
Ċĉĉ ĉĉ
Ċ Ġ
s on
ien st
M it
Ġ *
Ã¶ ch
Ġander en
Ã¤n ger
ĊĠĠĠĠĠĠĠĠĠĠĠĠĠĠĠĠ ĠĠĠĠĠĠĠ
Ġ ar
al ien
sch l
u ar
s g
ĠS h
Ġim mer
b ach
Ã¤n der
t t
un kt
Ġun s
Ã¼n st
Ġlie gt
eit ung
Ġber eits
in k
ur t
1 3
Ġsch on
or k
ĠM an
k ehr
ol f
Ã¶ff entlich
Ġc on
amer ikan
Ġ eh
Ġw o
) );
s uch
ti k
p on
ĠP art
ĠEn de
ult ur
Ã¶ ÃŁ
Ġb esch
gt h
r icht
ĠK unst
Ġver b
ĠN ov
kt ober
ber t
issen schaft
ĠPl atz
Ã¤l t
ĠE urop
rupp e
ĠOr t
p ert
ĠK Ã¶nig
Ġk eine
ĠFran k
ĠJ uni
s o
la gen
M ann
Ġsel bst
f Ã¼
ĠS e
h ann
ĠF rei
ĠV ol
[ ]
Ġer ste
z ahl
u ff
Ġihr er
Ã¼t z
/ /
rÃ¤ s
u ten
ĠR ei
ĠP olit
Ġge l
h a
on e
ĠH och
k reis
Ã¤ m
tem ber
ĠB ez
ĠP ol
Ġfol gen
om mer
ie f
ĠHau pt
ĠW ei
ep tember
h au
N ach
a den
ĠJul i
ĠB ild
st Ã¤nd
Ġheu te
Ġkonn te
ĠT r
ĠG ew
k eiten
Ġein z
ĠO ktober
ĠMa i
le g
Ã¼n f
gr und
ran z
C lass
2 1
ti er
ais on
mit tel
ier e
m Ã¤
tern ational
ĠB est
Ġi hm
ĠH aus
re d
an is
pr il
ĠM ed
ool ean
z ial
ĠH o
ĠS Ã¼d
) :
ich er
ĠVer b
f ach
re g
Ã¼r ger
I D
ĠF Ã¼r
ĠPro du
Ġl etz
ig keit
Ġein ge
in nen
Ġt eil
Ġd ort
Ġo hne
Ġver schieden
ĠC on
olog ie
Ġv ier
an den
ĠĊ Ċ
Ġ19 0
Ġdam it
ĠG ra
S ie
o ten
Ġb r
ing er
sch lieÃŁ
omp on
ĠJan uar
b uch
erv ice
Ġst atic
Ġge f
f inal
ĠS eptember
5 0
Ġ )
i tel
or ben
A T
ĠB eg
ĠW erk
f eld
ĠM Ã¤rz
ch er
ĠK inder
ĠSt ud
o gen
isch es
Ġs on
le x
Ġ eben
r ik
sch n
u pp
lo ck
Ġw en
ogra ph
os ition
ĠU r
ĠJo hann
us e
tr y
w alt
ez ember
Ġk am
Ã¤n g
Ġp ar
unk tion
D eutsch
es sen
ĠN ew
c c
f ang
o ut
Ã¼ s
Ġneu e
ĠA k
ĠChr ist
ĠA pril
ĠM o
ĠJ u
d r
ĠW eb
op h
fall s
c ode
Ġ& &
A us
ur r
hal t
ĠK omm
er b
ĠB uch
ĠO l
Ġ X
w ahl
al ter
al is
el m
1 1
zeich net
Ġal ler
de ut
ĠUnivers itÃ¤t
ess age
f o
Ġb el
ĠSp r
Ġver l
h eim
un ter
lin e
n ew
c on
l ig
ĠI I
pon se
Ġsp iel
Ġal l
as h
ĠKir che
z ei
ie b
Ġer sch
ĠMen schen
ĠW asser
Ã ¡
ĠLand es
ĠDie se
ĠNov ember
Ġw Ã¤hrend
im e
b ahn
Ġer folg
ĠN ational
ri ff
Ġst att
Ġ %
ĠList e
ĠMus ik
ĠF ried
Ã¶ st
ell schaft
es en
ĠS ti
Ġo b
ĠF ol
Ġ Â
Ġbei den
te te
h in
Ġ18 9
ag er
t ag
č ĊĠĠĠĠĠĠĠ
ĠD ezember
l an
Ġb en
ĠD aten
Ġ3 0
ĠGesch ichte
ion en
eb ru
ĠF ahr
ebru ar
ach sen
em al
ĠĊ ĠĊ
ĠZ wei
kt u
Ġgr Ã¶ÃŁ
ĠD ar
E N
c t
ĠW ert
lem ent
re ate
ot t
ranz Ã¶s
is h
ech n
ĠAl s
ĠD urch
ĠStr a
Ġ201 0
ĠUn ternehmen
w ohn
eh mer
i pp
Ġneu en
ĠV on
Ġg anz
ĠW ien
ĠIn ter
al se
ĠR eich
stell er
Ġihr en
app end
Ġ '
r or
Ġer n
ĠIn d
ogra f
E in
M ap
st it
Ã¤n de
ĠS aison
v al
ĠSch wei
g leich
Ġ201 8
eth od
A m
a ce
ĠF r
ĠG ener
ro up
ĠT ra
Ã¤ tig
Ġd abei
equ est
K ey
a kt
los s
Ã¤ch st
m s
ĠSch ul
c o
stan ce
âĢľ .
ĠA t
ĠEin e
ĠF re
Ġst eht
ire kt
ar i
de ck
g abe
l auf
mal s
ei le
fÃ¼hr t
f te
az u
Ġf est
ĠVer lag
as k
ti f
ĠMit tel
sch utz
Ã¤t z
ĠF ebruar
âĢľ ,
Ġge b
os s
tr Ã¤
ar n
ff iz
Ġ u
k m
Ġ201 2
Ġk on
Ġ it
Ġk omm
Ġdies es
am es
ĠâĢ ł
h ol
ĠF orm
Ã¤ hn
li ent
b ew
ig ung
k ommen
ĠS c
ĠÃ Ħ
eh n
Ġ arb
Ġ201 5
re cht
ern se
ĠF uÃŁball
ym p
k on
at iv
a w
oll en
o ub
ĠN ieder
Ġ on
u tion
Ġge st
Ġ200 8
Ġ201 3
Ġ201 1
ĠMÃ¼n chen
ĠZ w
st ru
ver b
sh all
ti ert
ĠMit glied
de te
ĠH Ã¶
Ġ9 78
a ar
Ġh abe
e um
Ġv alue
ĠSch l
S T
ĠS k
Ġ ur
Ġdes sen
19 9
ĠT ag
r y
Ġz un
Ġd u
Ġ201 7
em ent
ĠAr ch
D ata
i der
kt ur
A d
ĠR om
Ġb ew
uf en
ann te
T o
Ġ201 6
u ilder
Ġ201 4
n ame
sch ule
u er
ie w
G esch
Ġ200 7
s st
um en
Ġ200 6
ĠSch au
Ġb zw
Ġ200 9
ĠPro f
ĠĠĠĠĠĠĠĠ ĠĠĠĠĠĠĠĠ
Ġw ei
s ol
Ġ >
Ġthrow s
oub le
Ġm us
ĠN amen
rei chen
ich tig
ĠE m
o te
op p
Ġs ei
h and
ar ch
it zen
O bject
nah me
R equest
ĠAr t
ĠH al
ech s
ĠW il
eu er
Ġf rÃ¼
zeu g
ĠH am
A t
rÃ¤s iden
Â Ń
lin k
Ġl ang
ÃŁ er
v ent
Ġ2 5
z ug
is k
ĠPh il
ĠS er
le gen
Ġg ab
wick lung
Ġbes onder
em en
er st
rupp en
Ã¼nd et
R E
ge h
3 0
Ġweiter e
p unkt
uch t
F ile
h ein
nis se
ei den
ĠR Ã¼ck
al ten
fahr en
ĠE d
ĠA uch
Par am
ĠC o
Ġ ro
il it
w eg
ĠM al
rie ben
len gth
sch ul
Ġal lem
in en
is mus
G e
Ġ18 8
Ġder en
ĠK arl
Ġerh ielt
c ri
Ã¤hl t
los sen
Ġh and
Ġst ell
ĠG egen
ge stellt
Ġf ranzÃ¶s
ie g
ĠG l
Ġ qu
ĠVer s
stra ÃŁe
Ġtr ue
ech sel
ĠH ol
schie d
at ive
schl uss
Ġdeutsch en
Ġn ah
ĠK n
L eben
w est
Ġs Ã¼d
ch n
an st
ig t
Ġg ut
Ã¤u de
Ġb ie
ra ft
Ġc atch
ĠArb eit
ur o
ĠPerson en
Ġson dern
ĠS al
ĠW ohn
ĠB ew
au l
f ern
i us
ti gt
ow n
ach te
M ar
Ġer reich
ein er
Ġf inden
sch er
ĠK rieg
Ã¼ b
Ġ1 1
stell en
č Ċĉ
reu z
Ġn ot
k ir
ĠD an
geb iet
ubl ik
Ġ200 5
p en
O ver
w e
A R
ĠZ usammen
ĠD u
riv ate
Ġm uss
B y
z ent
ĠL ehr
mÃ¤ ÃŁ
c es
Ġv iele
ĠB ahn
ten t
ri de
Ġbek annt
N ode
Ġh o
Ġge mein
Ġander e
Ġeh emal
Ã¼ ss
S et
ĠBer g
Ġn un
ĠL in
ĠR ep
ĠPolit iker
er y
ĠFamil ie
re chen
ĠN atur
ran k
el e
Ã¶r der
hn en
ĠF est
Gesch ichte
tr ib
th is
P ath
d orf
est er
Ġtr y
ĠBer eich
wei l
ĠD es
ĠT itel
w ig
o ge
s am
ar e
ak tiv
ur s
j ekt
h ard
w as
qu est
k rieg
im mer
Ġ at
Ġ2 4
Ã Ń
am pf
Ġp ublic
G est
Ã¤ uf
ĠF ra
ĠFried rich
Ġden en
O R
ĠWeb s
Ġ( âĢ
urr ent
Ġbef indet
ĠG ef
ĠM ill
Ġf Ã¼nf
ĠFrau en
on s
ĠDie s
Ã¶ m
ei tet
ol um
Ġc ase
ĠLeben s
Ġ200 4
gr amm
ĊĠĠĠĠĠĠĠĠ Ġ
ĠB Ã¼
Ã¶ sterreich
ar m
ĠM eister
Ġr und
amerikan ischer
ĠS eite
ur en
le gt
ĠIn form
in s
ĠSt and
a i
Ġ20 00
ĠS ystem
ĠR ad
Ġf alse
k te
z ie
ĠS ommer
Ã¤ h
ĠK r
ĠM od
ĠM ich
Ġer w
f ra
ich ten
h Ã¤lt
Ã¤n ge
as st
ĠL ie
Ġp er
re ck
Ġsoll te
Ã¼nst ler
e ad
Ġa ktu
eite te
ĠR es
A b
u per
ĠD r
Ġz ahl
ĠS tel
p s
ut ter
Over ride
glie der
ges etzt
sp ort
ĠW ahl
ĠD i
ĠI s
ĠB en
ad em
n ehmer
al if
ĠReg ion
in er
ĠP er
rei b
T ra
ĠK reis
g te
en nen
at us
ĠI l
Ġdeutsch e
ĠK ap
2 2
g aben
ur m
Gest orben
sch rift
ab el
Ġm Ã¶glich
ĠB as
4 0
ĠB ay
ĠFl ug
ĠW er
tr agen
Ġdie sen
ĠS ohn
j ahr
g or
c om
Ã¤ ft
Ã¶l ker
Ġ [
v en
Ġb oolean
Str eam
j Ã¤hr
Ġw orden
ĠEin wohn
. ,
ri te
Ġ201 9
em a
ĠL ei
Ġd i
A L
h elm
ig ht
ĠT od
6 0
ĠB el
p rÃ¤
d ings
ĠA uÃŁ
ĠH ein
Ġ or
Ã¤ re
ĠM et
Ġbeg ann
pert y
a ff
E lement
Ġ18 7
isch of
ĠSp ort
zen tr
ar y
w ort
ÃĳÃĳÃĳÃĳÃĳÃĳÃĳÃĳ ÃĳÃĳÃĳÃĳÃĳÃĳÃĳÃĳ
Ġ ,
ann ten
te chn
l u
Ġb eh
Ġer halten
b um
Ġkomm t
ĠP at
o se
s icht
Ġeben falls
ĠF ot
ec tion
Ġzun Ã¤chst
kl Ã¤r
ĠS a
enn t
ĠE is
Ġver w
ĠO n
bild ung
Ġletz ten
gl isch
Ã¼ hl
19 8
tr eten
ĠJu gend
ĠDeutsch en
pl atz
in o
er g
Ġent wick
z t
d ruck
Ġ1 00
ĠIhr e
2 5
b lem
w ert
v e
on nen
al itÃ¤t
Ġwel che
le hr
f r
Ã ³
Ġsch n
Ġau ÃŁer
ir k
ess or
P D
ĠN ame
Ġ x
Ġd azu
ĠH il
Ġ end
A N
et te
ĠÃĸ sterreich
ĠG en
c lass
ĠB Ã¼rger
M od
se e
Ġ| |
Ġander em
Ġein ige
f Ã¤l
gen ommen
fol ge
ap an
ran s
ĠB ern
Ġsch w
rei che
sp iele
Ġje weil
y l
us er
ov e
r sg
ĠAn d
is e
Ġ em
ĠFran z
at es
ĠC ar
U til
ĠK ultur
ĠB ar
Ġver Ã¶ffentlich
ernse h
Ċ ĊĠĠĠĠĠĠĠĠĠĠĠ
ĠO bj
ach ten
Ġge ht
Ġet was
ri d
In dex
u ck
Ġ2 2
om b
ĠS an
et s
ĠO st
Ġdar auf
alt ung
H and
ĠH ier
imm t
Ġh ei
is ion
il ter
+ +
k auf
ĠW eiter
op f
uff er
M an
Ġres ult
p ort
rau m
B uilder
ut t
ĠSch n
ĠLand kreis
ĠK ar
Ġge gr
au lt
den k
Ġ â
tor y
Ġein fach
ĠgroÃŁ en
A uf
Ġin ter
st off
Con fig
Ġ200 3
ĠM ag
Ġs et
ĠT er
ĠS el
in anz
l y
an ce
Ġn eben
Ġf rei
ath ol
e er
b ei
eth ode
b et
Ġ200 2
arb eit
n a
Ġk ein
rit er
ĠgroÃŁ e
S S
W ir
hr en
Ġv oll
ĠM or
Ġ200 1
ĠF ach
M essage
sch ein
ĠS eit
ĠG el
Ġ2 1
Ġ199 0
ĠN e
ĠJahr es
ber eich
ain er
ser v
F ield
ĠPro v
T ime
g ument
o ver
och en
nah men
ek te
Ġre g
ĠH eim
che ck
am ent
ĠC l
h af
ĠAl l
Ġ2 3
f urt
min ister
um s
F uÃŁball
Con text
U R
Ġin ner
ĠHer z
ĠIn tern
L E
u ft
ĠH ans
iss ion
B ei
h o
. :
an ten
la y
ĠFamil ien
it te
in de
Ã¤ ten
equ als
ĠT echn
ĠVol ks
ĠK o
4 5
ig es
f ilm
ĠW ill
ĠO bject
Ġm ir
Ġihr em
sch w
ĠF er
ĠL a
re ak
ĠSch rift
st ag
ĠB i
Ġ18 6
I I
Ġgew ann
Ġb y
e e
ic a
fÃ¼hr ung
< /
Ġge m
Ġl assen
Ġk ommen
ĠR ah
st Ã¼tz
a el
Ċ ĊĠĠĠ
ĠgehÃ¶r t
ĠGr Ã¼n
Ġw ill
it ter
Ġent sp
o int
o und
ĠT eam
ĠW ie
et ter
Ã¼ck e
ĠS eiten
Ġ ev
Ġm o
u es
l ang
ing t
ĠI ch
ĠSchau spieler
Ã¶r per
hau sen
ell er
ust r
ges amt
-- --
h le
ur ger
eich t
h eits
ar s
Ġb rit
g n
Ġab ge
Ġm Ã¼s
ĊĠĠĠĠĠĠĠĠĠĠĠĠĠĠĠĠĠĠĠĠĠĠĠĠ ĠĠĠ
a j
icht ung
wir tschaft
d ienst
b ez
ĠOl ymp
an zen
ĠB urg
č ĊĠĠĠĠĠĠĠĠĠĠĠ
nah m
Ġ2 8
ĠR u
ri m
ĠD a
able d
Ġm al
un ft
D E
st a
Ġver m
19 3
ĠHer r
Ġ5 0
Ġspiel te
Ġnah m
gesch ichte
č Ċ
Ġal len
ra g
S ervice
iel le
ĠB esch
Ġver wend
el te
ĠF all
ĠRech ts
Ġd och
ind ung
for der
es se
il om
schn itt
Ã¤ che
2 3
d ig
Ġersch ien
ĠT or
ro w
ti c
ĠJ ohn
ĠWil helm
Ġbe zeichnet
Ċ Ċĉ
a e
tiv e
Res ponse
en der
ĠP eter
Ġw Ã¼r
y r
Ġ2 6
ti schen
Ġ2 7
ĠD em
lo se
sch eid
St ate
et ten
ev Ã¶lker
I T
p rivate
w elt
M E
Ġals o
h eiten
F orm
ot he
u k
Ġst ehen
R eg
Sie he
D R
ĠGener al
ge ord
Ġ199 9
Ġh och
e ader
ĠKir chen
Ġ20 20
In fo
ti m
ilit Ã¤r
d ate
Ġg ing
w w
bau t
sch au
H rsg
l ow
ĠG o
or s
Ġbest eht
ĠBet rieb
setz ung
d ie
ĠPart ei
o x
Ġin d
Ġm ich
ĠPar is
ver ein
ograph ie
ĠD orf
ers Ã¶n
fÃ¼ g
ra k
ut h
U S
rÃ¤siden t
b y
ĠK an
ĠOr g
z ig
es onder
ne te
l ungen
2 4
ef in
Ġver st
arr iere
O f
ĠF ir
ĠSta aten
ĠY ork
Ġm achen
s w
Ġher aus
Ġauf ge
. ):
Ġw egen
um mer
ik a
Ġin ternational
ĠI t
ĠArb eits
Ġn e
Ar ray
19 7
ĠAl t
ĠAn fang
Ġp olit
h ung
T he
ĠJo se
an c
== ==
ĠRah men
* *
Ġre ch
E s
ei gt
u ter
Ġ( !
ĠS il
ar en
ĠIn stit
Ġhat ten
O Exception
ich ter
Ġmehr ere
is se
av a
ĠU hr
Ġs ol
ti sch
h Ã¤ng
ig ten
ĠEr n
r em
Ġk urz
n ungen
all en
ĠO b
utz t
t lich
ĠZ ahl
Ġsch lieÃŁ
Ġsein es
z el
ĠSch iff
Deutsch er
ĠW or
ie sen
Ġzwei ten
ei sten
Ġ ?
Ã¤t ze
rit ten
ograf ie
ĠZ entr
ĠMar k
ĠM art
om it
ĠN eben
rÃ¤ ger
rit t
sch ung
ĠP aul
Ġ199 8
ĠH eil
ti me
ĠGe org
ĠZ iel
och ter
ĠG u
En abled
ĠK Ã¶l
ĠFol ge
av on
Ġh inter
8 0
l ing
En try
v alue
Ġst ark
Ġum f
l ist
ri ften
ais er
Ġst ud
ĠUnivers ity
Ġd ah
Ġden n
il t
y ch
z ep
ĠB ad
Ġ y
ater ial
ĠH istor
Ġl og
ot or
ĠEin satz
ern e
r et
teil ung
s ion
. âĢľ
le ben
in es
g angen
re uÃŁ
Ġm ax
. )
es ser
at ten
w ard
ok en
an a
ur ation
ĠH of
Ġerst mals
Ġ2 9
olum n
G roup
Ġh istor
ar a
P erson
t hrow
s weise
Ġo ft
ĠBei spiel
i as
om in
ol e
ĠE igen
Ã¤m pf
ĠD ienst
ĠS itz
Ġaller dings
ate gor
ĠW inter
ĠD re
Ġverschieden en
Ġr el
ĠH a
ĠSch m
ich tet
ic al
lo ster
at Ã¼r
ĠWir tschaft
ĠWelt krieg
kir che
ĠF unktion
ĠSta ats
19 6
uch s
stan den
ĠW eg
ĠHam burg
ĠZ ug
ti eren
ti sche
am b
m m
w and
Ġ Ã¶sterreich
j ect
spr Ã¼n
ĠA u
p or
ier ungs
Ġ194 5
ĠWebs ite
ĠR aum
ock ey
d es
ĠgehÃ¶r te
ĠL auf
ĠB ed
Ġ198 0
k ey
Ġverwend et
Ã ĸ
Ġs etz
ĠSpiel er
esonder e
Ã¼ gel
Ġ18 5
am mer
af Ã¼r
ĠEinwohn er
la st
ak e
Ġf and
icht s
te ger
ĠT em
IN G
Ġo bject
Ġw e
lie b
Ġbe de
Ġre quest
Ġer z
ĠVer walt
19 0
au en
ein ander
ig it
ob il
A C
ĠLu ft
an gel
o ot
ĠB ru
Ġc a
h ei
Ġw eit
i ver
k ten
Ġ199 7
Ġeigen en
ck en
ig a
sk i
ĠL eist
us Ã¤tz
ĠR ef
{ @
ĠEurop a
ĠP al
Ġin stance
B er
Ġtr at
ra un
S E
ĠG ruppe
amm lung
ĠMann schaft
g ar
Ġn ame
ĠK Ã¼
ĠW ald
um ber
m b
ĠI hnen
ĠC omp
Ġ199 6
ĠB eh
lei st
ĠW olf
m l
Ġgen annt
am s
h il
ĠEr st
Ã¼nd ung
Ġ add
ck er
ĠE uro
Ġk ey
Res ource
ĠV ater
Mit glied
En t
eg t
ilom eter
ĠD ort
Ã¶r d
ĠT re
ĠUS A
ge ber
c l
om at
ĠUn d
ĠJahrhundert s
ig te
Ġw eil
arb eiter
sb esondere
tik el
tt p
9 0
t oc
> >
ĠIn ternational
2 8
et r
ĠK ur
4 8
ĠP reis
Ã¼ck en
ol oge
Ġf indet
ond on
ĠS Ã¼
ĠSta at
ĠA mer
onn ection
ĠHein rich
ĠT ro
ĠCh ar
ĠL ud
ĠP ap
č Ċĉĉ
ĠT ochter
Ġs echs
ĠAl ter
ar get
Ġweiter en
ĠE le
lich t
k a
ĠVer tr
ĠEr z
an e
Al s
ĠT our
b el
unk te
3 5
lich es
âĢ ¦
ĠMus eum
ar z
ĠRe gel
ĠR hein
te st
au r
ĠfÃ¼hr te
w issenschaft
F or
om as
Ġein mal
Ġst and
s ize
lehr er
n ot
ge f
ei er
ĠEn g
a ffen
ek tr
ĠHol z
toc ol
schlieÃŁ end
2 6
ĠMich ael
b ack
Ġo ut
ĠfÃ¼hr t
I ON
ĠM Ã¤n
ik ation
qu e
Ġsch wer
Ġd irekt
ĠD abei
wei ter
ĠGes ellschaft
7 0
ĠM eter
Ġbesonder s
Ġj etzt
Ġd avon
du z
ĠEnt wicklung
ĠmÃ¼s sen
L oc
f ass
d s
gen den
ĠG eh
Ġl ange
anis ation
res se
al k
ĠGra f
ĠD at
Ġg ilt
ĠSchwei zer
o ok
] ;
Ġ199 4
ĠSte in
ĠS ol
ĠProv inz
Ġf ast
ĠN utz
Ġ. :
ob ei
Ã ¨
iz in
s etzt
Ġ4 0
a ÃŁ
g art
w ie
auf en
Ġ199 2
Ġ( (
ĠF eld
19 5
ĠK at
ĠThe ater
h Ã¶
G ibt
l et
Ġ197 0
ĠHÃ¶ he
Ġw est
ĠGesch Ã¤ft
ĠK Ã¼nstler
ef ault
trÃ¤ ge
Ġn ieder
ser ie
Ġbie tet
t z
ĠMa x
um e
om pl
eu te
l Ã¤nd
Ã¤t te
un n
ĠAn t
c a
Ġs ehen
m Ã¶glich
uch en
O G
w Ã¼r
4 9
n ehmen
Ġ20 21
app en
ĠF rÃ¼
ic ation
pt y
ar te
ist ischen
ĠGeb Ã¤ude
F ac
F ilm
eh m
ompon ent
Ġ199 3
ĠA lex
J ahr
g s
ĠD en
sp ro
ĠC olle
l ungs
ic s
2 9
o den
ch es
all s
Ġ199 5
ĠArch ite
W ith
s eite
ĠM ath
Ġ Ã¤l
ĠD e
ĠL ondon
Ġt ype
ĠMit te
Ġunser e
ge st
D es
wei s
Ġunter schied
ĠA ss
cc ess
reib ung
g lichen
z ogen
it ten
ĠFrank reich
ĠS icher
Ġw ith
Ġer f
ĠM aler
ie gel
j a
C lient
ĠPro jekt
2 7
E m
az z
ief ert
k o
Ġb lei
l d
Å į
l og
zei tig
ĠH e
m ed
ĠGeb iet
ĠM at
ĠT yp
Ġl Ã¤
Ġviel en
ĠKomm un
ĠM Ã¶glich
eh l
ĠW e
fahr t
I C
Ġfolgen den
Ġ ...
ĠLei p
ĠPl an
V al
to String
trib ute
ĠR est
a he
att ung
ĠFuÃŁball spieler
ĠG old
I tem
Ġ _
Ġ199 1
S h
Ġm ein
or y
ig inal
Ġit alien
ĠB ef
ĠU l
ĠPro blem
Ġkl ein
et ers
ĠD on
Ġc reate
Ġarb eitete
C ode
ĠAn g
i at
ĠSch loss
ett bew
il le
Ġ18 0
ĠKon t
Ġ aktiv
ĠN r
Ġm eisten
A s
S er
Ġal les
urn al
Ġm Ã¶ch
Ġins gesamt
wend ung
Ġgegr Ã¼ndet
Ġinner halb
ĠM utter
Ġjeweil s
am a
Ã¼r z
au ch
ib li
f el
' s
ĠĠĠĠ ĠĠ
3 3
S c
ĠT ext
age ment
k au
Ã¼r k
ĠC omm
Ġt Ã¤tig
it u
Ġw echsel
s ych
Ġw obei
ĠR olle
Ã¼ ler
Ġmus ste
ĠEr geb
Ġab sol
Un ivers
ĠInform ationen
Ġgr Ã¼n
ĠStra ÃŁe
Ġan geb
en glisch
eck e
ĠFrank furt
m od
stan ts
av e
ge geben
ges etz
ĠObj ekt
Ġsp ez
b urger
rei se
ech t
ĠRom an
ĠSt utt
ĠMar kt
ĠN o
om e
4 6
- ,
il den
Ġauf grund
ak ter
ĠK aiser
Ã¤n dern
ĠKl ein
ĠG ast
ĠK ompon
ĠLud wig
f ter
ĠE v
ĠKÃ¶l n
Ġstud ierte
uch e
pr ession
ĠL iteratur
ĠB ro
t ler
ĠE p
L iefert
lau b
Ġv al
c y
ĠF arb
Ġkl einen
Ã¼t zen
lig a
la v
le ch
or ge
Ġ196 0
Ġn Ã¤ch
Ġ198 9
Ġkl eine
ĠT a
Ġl ist
Ġm eist
ĠS eine
sch lag
ord s
Ġle ben
s ystem
g ruppe
j et
ĠkÃ¶n n
ĠZwei ten
Ġd afÃ¼r
ig h
Ġ @
ir st
ĠD is
Ġp ol
ĠP ort
fl uss
put Stream
E igen
st reck
Ġer rich
richt ung
ĠB evÃ¶lker
ĠEin zel
ĠT ri
Ġl in
ĠK ant
ĠR el
lich keit
ĠBer uf
s itzen
ĠB ischof
w Ã¤r
le y
ust rie
ber ger
den t
Ã¶r t
ĠA s
ĠT el
ĠHeim at
L og
Ġl a
rei ben
sch t
verb and
ĠS ein
ĠK loster
Ġunser er
ul d
Ġz eigt
Ġh Ã¤uf
Ġent fern
N ull
lÃ¤ uf
Ã¤r en
Ġges am
Ġd an
ran ken
4 7
ĠMill ionen
Ġje der
ĠN orden
leg al
ĠW Ã¤hrend
F Ã¼r
R ef
ib le
ĠProdu ktion
A P
ĠI OException
V ers
S C
os oph
Ġ Ã¶ff
ĠF C
ĠP ark
st eil
ik en
Ġgegen Ã¼ber
b es
Ġf ile
a ir
Ġn atÃ¼r
Ġsich er
E vent
8 9
ak tion
ide o
M ethod
Ã ľ
w ehr
Ġw h
ĠVer trag
eu ch
w or
Ġ198 8
ĠO ffiz
ĠEn erg
ĠA pp
Ġk m
Ġo ffen
her e
Ġschn ell
E D
ĠK reuz
ĠAl bum
ĠMar ia
st ieg
Ġw ichtig
ĠO t
Ġn Ã¶rd
ĠPro zent
Ġb reak
ĠD am
ft ung
arb eiten
Pro perty
Ġ3 1
18 9
g o
ĠC or
ĠTh omas
Ġerfolg te
< ?
ĠPf arr
O ut
s burg
ĠE he
ĠSo zial
ĠAut or
4 3
Ġ( )
S ize
h anden
pert ies
b ed
Ġur sprÃ¼n
B au
Ġver such
Ġp rÃ¤
ĠG i
ĠH ann
f est
Ġd o
ĠI de
os it
en gth
ar ben
ĠW enn
Al l
ĠBeg inn
ĠlÃ¤ sst
m o
ĠR ec
Ar gument
ĠSchwei z
č ĊĠĠĠ
rau ch
it s
Ġverschieden e
b est
Ġk osten
k ung
it Ã¤ten
ĠG est
c ess
ĠW ieder
FuÃŁball spieler
gemein de
ĠA p
ĠD o
lo b
ĠReg ierung
Ġd eut
ĠS en
und er
her r
ĠChrist ian
adem ie
Ġsow ohl
Ġf rom
Ġw ohl
Ġbis her
ym b
shall er
ate d
ĠB is
Ġkonn ten
ĠAnd re
ĠR uss
ĠAm t
den s
mb H
i ent
iel l
eich en
Ġd ouble
Form at
ĠG ed
Ġmit tel
Ġs og
ĠH inter
eck en
ĠStutt gart
in ner
ĠK unden
ĠDie ser
ist r
ĠAr ray
spr ach
opp el
ĠschlieÃŁ lich
y d
ĠV ier
ĠSchrift steller
V or
" )
ĠSel bst
fÃ¼hr er
n ull
Ġin sbesondere
Ġex ist
te c
k tr
ĠLeip zig
Ġwechsel te
ro s
Ã¶s ung
tr itt
Ã¤ f
stell ungen
ĠK ind
Ġgeb oren
ĠEis en
k unft
Ã¼ ter
ĠK omp
ĠL es
ge gen
Ġo ber
sten s
ĠDeutsch e
Ġ #
sch iff
Res ult
deut ung
ĠD av
ĠZ ur
ti ger
ĠM ehr
ver kehr
tier te
is iert
S ystem
In ter
ĠR en
4 4
Ġf r
ag es
Mar shaller
o ben
ĠBes itz
Ġ(âĢ ł
u ild
pro du
ĠIn s
Ġhin aus
ĠC he
re ad
an ken
Ġs ub
Ġb ed
em at
Ġo p
Ġz eit
om en
Ġz usÃ¤tz
Ġk ur
ĠMart in
Ã¶st lich
ĠT ex
ĠT urn
Ġgemein sam
Ġgel ang
I ch
al y
ĠSch utz
Ġp l
z Ã¼
st elle
Ġk n
an de
Ġge geben
Ġw ahr
ÃŁ t
Ġal ten
ĠM ethode
Ġb in
ĠT ab
Ġ Ã¼b
E ine
ĠGr enz
ern en
ĠAn geb
Ġh erv
Ġf l
f an
ĠG Ã¶
Ġn ord
ĠR ichtung
ĠC lass
ĠR ot
Ġ197 2
Ġwen ig
l as
w asser
er dem
tr e
ĠR ed
re p
Ġn ie
b ank
gen t
ot s
ĠC ount
Ġ198 7
et a
ĠF il
ĠF Ã¼hr
Ġw ich
Ġsch Ã¶n
R O
sen d
cri pt
Ġvor handen
ĠG mbH
z immer
ĠStra ÃŁen
w eit
Ġm od
ĠK ilometer
Ġihn en
re f
tocol Marshaller
f re
in ation
iz ed
Ġd ata
ern er
eg r
um m
war e
am ens
ĠBo den
Ġb lieb
ĠG eld
k omm
ĠÃ¼ber nahm
m Ã¶
ĠIn sel
Ġgew Ã¤hlt
ĠB ach
gen de
A G
ĠO p
Man ager
ĠPro gramm
Ġinstance of
Ġd ien
de b
id u
ĠB ilder
ĠSÃ¼ den
h as
ĠW ein
iz ei
ĠIt alien
Ġh Ã¶ch
f ert
Ġ as
e der
Ġer klÃ¤r
pl an
Ġz ehn
Ġgen au
or gen
op er
Ġ org
Or t
ĠSch ule
schaft s
Ġern eut
g Ã¤n
Ġ198 3
geb aut
Ġbest en
ĠF ile
Ġen gl
Ġf orm
ĠW ar
Ġw oll
ĠG ut
ge hen
ĠH el
u h
ac t
Ġerreich te
S eit
Ġ198 4
O ption
ĠM ap
L and
ing le
ag s
Ġhand elt
st art
ĠOlymp ischen
Ġf re
ĠH in
R ep
ĠM er
ĠKl asse
i am
bar e
ĠJ ur
T ext
ord nung
Util s
Ġ198 6
gr ess
w agen
al z
St and
ger icht
bar en
Ã¶ ÃŁe
Param eter
es e
ĠA ben
ĠSt art
r ess
ĠK urz
ĠW ind
inz u
yn ch
3 6
ant wort
eil nehmer
ĠM il
ĠR ich
uch te
get C
Ġ198 5
val id
Ġdah er
Ġl ong
A S
5 5
p reis
Ġ195 0
sch ech
ĠIntern et
k n
ĠS til
v oll
ut zen
spiel sweise
Ġbest imm
an ad
Ġbes ser
ab hÃ¤ng
In stance
Ġf ort
sch inen
ĠW ochen
ĠD ruck
Ġn ahe
ĠK in
ist ische
ĠVer kehr
O n
ent lichen
ĠTh ema
ĠGes amt
lÃ¤ ss
Ã¤ user
O bj
Ġzw ar
Ġges p
atur e
ĠOr ts
++ )
s ub
issen schaften
ri x
ĠD enk
ĠM ont
ail le
im ent
ĠSt Ã¤d
Univers itÃ¤t
ger ufen
mann schaft
l eitung
se hen
Ġ Ã¤
Ġst art
Ġzwei te
ĠEr folg
Ġ197 9
schul lehrer
Ġ6 0
b Ã¼
ĠR ev
Ġ198 2
an ien
ĠMa in
ĠSch Ã¼ler
b eh
ĠE t
ĠN or
anst alt
ĠS am
ĠBay ern
G r
ag t
ain s
stÃ¤nd ig
ĠProf essor
ĠG ot
lin gen
hr ead
Ġj a
w ay
f Ã¼r
os sen
ĠRo bert
T yp
ĠO per
Ã¤ch lich
iv idu
Ġzahl reiche
ol ution
Ġre gel
t eid
od y
Ġge legen
4 2
en ce
ĠK or
ev el
al le
ĠA c
eich nung
ĠBe deutung
ĠHo tel
ĠReg ie
ish ockey
ĠP osition
gesch lossen
p art
Ġbest ehen
Ġm acht
Ġr uss
ĠS im
Ġm in
ĠF ort
ck e
fol gt
W elt
ĠN Ã¤
Ġerfolg reich
r Ã¤n
sch eiden
Ġeigen e
Ġm ar
m ark
Ġent stand
f s
I S
Ġw elt
Ġ{ @
eg ung
3 9
ist ik
ten s
ĠW al
Er ror
ĠO sten
Ġre cht
mÃ¤ÃŁ ig
7 5
ĠK Ã¶rper
ĠAn ton
fl Ã¤che
Ġsoll en
Ġentsp rechen
ĠverÃ¶ffentlich t
ro p
z y
Ġem pf
8 6
ĠT age
iel len
al tet
ĠT al
ĠIn nen
Eigen schaft
ĠM c
Ġst r
Ġ197 8
Ġfolgen der
8 5
t her
ibli othe
b ek
Ġnicht s
N ot
mal e
ion s
V on
ĠAn zahl
n ach
ĠH en
te gr
n o
ĠH ar
Ġerrich tet
Fac tory
w ohl
Ġ197 4
olit ik
Ġv an
c reate
h am
ĠW issenschaft
Ġein gesetzt
C O
Ġ ad
b te
ad urch
ĠSal z
ok rat
D ate
ĠVer fÃ¼g
w rite
ĠL ang
at te
ĠP fl
Ġst amm
U T
ĊĠĠĠĠĠĠĠĠĠĠĠĠĠĠĠĠĠĠĠĠĠĠĠĠ ĠĠĠĠĠĠĠĠ
ĠEn d
Ġso zial
ĠE ing
ĠBes uch
ĠRech t
in dex
Ã¤n den
Ġbe vor
ĠIl legal
ettbew erb
ri gen
sp l
Ġehemal igen
ĠOn line
m et
ĠJohann es
w o
ĠWest en
ĠZw ischen
Ã¤ ischen
Ġent standen
ue ck
Ġ198 1
st Ã¼ck
w ald
Ġent st
ym n
Ġwel ches
ack age
werk e
Ġ acht
an o
ein t
ĠC ol
( (
ĠMit glieder
un ge
y le
3 2
A ut
Ġstell t
lo ad
and id
get Name
net en
zeu ge
im al
Ġbei spielsweise
ĠN etz
hau pt
in c
ie ten
Ġn ational
âĢľ )
ĠwÃ¼r de
P l
Ġsog ar
Ġ197 5
ĠCount y
geb ung
Ġ197 6
ĠC arl
all y
ol ler
riv at
Ġst ar
en zen
pf er
ĠAm ts
ĠhÃ¤uf ig
r ist
Ã¤ chen
ĠAuf lage
ge m
ĠMit arbeiter
it i
f rei
ĠO s
H er
U N
ĠK u
ium s
7 9
f red
ĠL og
ild et
ichte te
im a
in i
Ġr Ã¶m
Ġ196 8
U r
ĠMin ister
me e
ĠF ernseh
iv al
le ge
eh ler
ĠVerwalt ungs
ic an
ymb ol
ĠB ur
ĠF el
ĠGes etz
ĠD ok
ĠBahn hof
Ġ check
ĠfrÃ¼ her
Ġs omit
ĠZ um
Ġheu tigen
ĠZ Ã¼r
Ġp ersÃ¶n
Ġer k
ĠG ar
EN T
ĠAuÃŁ erdem
ĠH ei
u el
den burg
Ġlie ÃŁ
re v
Ġsie ben
ĠC om
ul ti
ow er
Ġg ar
ĠInstit ut
ĠKrieg s
Ġdan ach
L o
Ġh Ã¶
ynch ron
Ġin dex
ĠT rans
ĠB us
Ver ein
ĠP ass
meister schaft
ĠAr tikel
ok al
ĊĠĠĠĠĠĠĠĠĠĠĠĠĠĠĠĠĠĠĠĠĠĠĠĠ ĠĠĠĠĠĠĠĠĠĠĠĠĠĠĠĠ
Å ¡
ĠEle ktr
Ġ Q
Ġm ethod
Die se
" .
Ã¤ te
ĠW o
w ind
ĠS ek
ĠM os
Ġver sch
ĠA f
Ġge ben
ĠM el
P er
Ġo ffiz
geb Ã¤ude
Ġwen iger
Em pty
ĠN ot
Ġdeut lich
Ġdam als
K on
d i
ĠHil fe
Ġ197 1
ser t
ĠSp iele
ĠStud ien
Ġso gen
U m
Ġ Ã¤hn
Ã¤hl en
tec ted
et ail
ier s
ff set
ĠFre und
Ġi r
Ġzu dem
ĠS onn
ont in
ĠS ong
ĠE ben
ĠÂ »
throw s
ĠCh arl
ĠB ot
ikan ischen
itz t
ges ellschaft
ge fÃ¼hrt
ĠT o
ĠM ilitÃ¤r
Deutsch land
ĠHal b
ĠSch wer
4 1
la den
iz iert
ĠSt ad
Ġ ung
en ter
Ġgef unden
C ount
ĠP rÃ¤
Ġ196 9
Ġdar unter
ĠVerein igten
F rom
z ess
au se
ĠD res
get S
al og
h ang
ĠDre h
ĠgehÃ¶r en
s um
tem berg
r acht
ÃĳÃĳÃĳÃĳÃĳÃĳÃĳÃĳÃĳÃĳÃĳÃĳÃĳÃĳÃĳÃĳ ÃĳÃĳÃĳÃĳÃĳÃĳÃĳÃĳÃĳÃĳÃĳÃĳÃĳÃĳÃĳÃĳ
rie ch
Ġsie he
Ġlie gen
bl ick
8 8
on en
N A
ĠR ein
Ġ197 3
Hand ler
Ġ techn
ĠV iel
pr int
Ġ196 4
ĠII I
ĠV o
pl ate
Ġger ade
Ġ(âĢ ŀ
efin ition
sh ip
ĠSpr ache
och e
deb ug
ĠS uper
ĠHerz og
fra ge
ĠB ran
rei te
7 6
ĠT on
ak te
g ra
el ten
ti tel
sp rech
un ction
au p
d o
ĠF euer
ab il
ĠEr fahr
ĠStel le
ĠEr w
iv ision
> ();
ĠH om
Ġzu vor
C E
K l
an ischen
ĠD om
b and
tr a
ĠL o
ie te
ĠA ir
irekt or
u x
ĠL age
ĠA ber
ĠB or
t temberg
ĠK raft
k el
f il
ges ehen
rei fen
ĠRei he
Ġ197 7
Ã¤t zen
d a
ol a
Ġk lass
Ġherv or
st all
ĠM aterial
Ã¼ hle
it or
br uch
la ck
G em
ĠHer ren
Ġ us
Ġz og
ĠK auf
ag ue
ĠSt u
f ield
Ġver fÃ¼
M us
f ried
Ġ up
W est
op e
schlieÃŁ lich
Vers ion
Ġs of
F A
3 1
u he
end et
t ype
ĠS achsen
F ernseh
form at
z z
Ġf ield
ĠD rei
ei der
ot z
ĠF inal
ĠP or
ĠR egen
k ungen
ex ik
zeich en
Ġgem acht
ĠMed ien
ort h
ĠP ost
H och
ĠAus bildung
ĠVerfÃ¼g ung
ĠS oc
Ġst arb
ĠP o
Ġer Ã¶ff
oc ument
A pp
ĠT est
ik e
ĠK osten
Ġi d
ĠG leich
Ġgen utzt
ĠI r
Ġbef inden
ul ar
Ġc urrent
B uffer
ect or
Ġbie ten
Ġn o
ĠIn n
ĠBru der
ĠGeschÃ¤ft s
Ġw es
Ġp ath
en e
ĠS ervice
rei bt
ĠK ategor
Ã¤d ag
Ġpro tocolMarshaller
ĠBevÃ¶lker ung
: //
ĠM otor
F rau
ĠS and
ĠEl tern
ĠEnerg ie
ĠR ud
ĠBau m
ir t
Ġver s
Â »
Ġsch war
r ach
s l
Ġbet eil
Ġam er
Ġletz te
Ã¤ s
a un
Ã¶ hn
Ġh inzu
3 8
Ċĉĉĉĉ ĉ
sch ungs
ĠG re
Con stants
ĠH or
au b
9 9
ĠSti m
ĠZ ust
ĠErn st
rich ten
yn c
it al
Ġentfern t
u sch
il la
D at
x is
en te
Ġe urop
IN D
Ġau t
ĠMÃ¤n ner
ĠC D
lei d
Ġw ollen
arb eitet
ĠAuf trag
Qu ery
ĠOrt steil
ĠG ruppen
ĠfranzÃ¶s ischen
ĊĠĠĠĠĠĠĠĠĠĠĠĠĠĠĠĠĠĠĠĠĠĠĠĠ ĠĠĠĠĠĠĠ
ien s
zeich nungen
M ail
ĠS u
ĠR und
ymn as
ĠNach t
er in
ĠF Ã¶rder
on a
ĠA G
ĠAr ten
ĠJo urnal
St atus
ur f
Â ²
ĠMin uten
ĠRei se
Ġteil weise
ik t
ĠCh em
3 7
č ĊĠĠĠĠĠĠĠĠĠĠĠĠĠĠĠ
ĠVer l
ĠJose ph
an lage
us st
c m
ĠA ward
ĠK ampf
arl ament
Ġ193 3
ei ger
ĠgrÃ¶ÃŁ ten
ĠE hren
ĠF rie
ĠGemein den
Ġein igen
spiel en
as ste
ĠV al
Con tent
Ġverb unden
Ġver lie
enn ung
j e
n ext
her ap
f Ã¤h
it ial
Ġs c
ĠD DR
ĠG ott
Ġerreich t
ĠS ex
ĠNÃ¤ he
T rans
Ġd r
ĠQu alitÃ¤t
um p
u tet
Ġ196 7
ĠBeg riff
Ġge hen
lo at
teil t
ĠVerb indung
w esen
b esch
Ġl ag
L A
Ġsoll ten
ĠL icht
6 4
An d
z ehn
ĠF inanz
Ġerw Ã¤hn
pr Ã¼
Ã §
ĠB al
ac tion
Ġl eicht
ĠSie d
Ġel ektr
as il
ĠSch Ã¶n
ow s
i os
ord in
ĠG eist
wei sen
ĠJ azz
ĠM y
an te
rei ten
Ġabsol v
Ã¤l fte
deck t
B r
Ġ196 6
f ile
ĠNach dem
6 5
ĠK ol
Ġk einen
Ġmit tler
Ġzur ueck
ĠG arten
Ġfol gte
Aus wahl
T h
ĠK opf
ativ en
Ġ reich
ier ter
0 5
m ut
p ol
s ie
ĠT ran
Ã¼l ler
P E
R ec
geh end
od es
Ġg erne
c le
as en
am eister
Ġange geben
Ġent hÃ¤lt
isse ur
a sch
Ġc m
ar ian
k rÃ¤
ĠP rÃ¤sident
Ġ193 8
M L
ĠP ra
Ġ194 0
ĠA ch
7 7
k eits
ĠR ang
stru ktur
C omponent
M ed
ĠK arriere
Ġver tr
ick en
Ġje den
Ãľ ber
ĠL Ã¶
iv en
Ġres ponse
itz e
ĠSe e
Ã¼ss el
ĠD ist
ĠEr d
Ġz ie
L ine
Å Ĥ
rit te
list e
ĠR ock
Ġtr ans
it sch
ĠArray List
âĢ Ŀ
Ġ193 9
ĠFl uss
fl ug
Ġ( =
ĠWor ld
an ger
T oken
en a
Ġd ir
ĠD ach
ĠFra ge
en g
Ġs h
ĠZÃ¼r ich
Ã¤t ten
jÃ¤hr igen
" ;
Ġn ode
C H
T E
ĠHer aus
fol ger
ĠSpiel en
ĠM e
Ġz ul
ĠAl b
En d
ĠDav id
ach er
id th
ĠSie g
U ser
ĠM eer
ad a
ei en
ĠOt to
tig ung
Un ter
3 4
Ġen g
p el
Ġdam al
ier ungen
r uf
Ġl oc
ĠBr on
Ġw issenschaft
c urrent
an y
Ġeinz el
ĠSer ie
re am
land s
ĠL ou
v est
ĠAl le
ĠS in
ud em
. <
ĠC ity
Ġstell te
eig ht
ĠJ apan
trib ut
Ġh al
o is
ĠD el
ĠM ad
Ġgleich en
Ġ196 3
d ien
Ġ Å
arb eitung
zentr um
f rau
c ont
Ġnach dem
ĠC as
ĠSt Ã¼ck
Ġbei de
ĠJ e
Ġ196 1
Ġentwick elt
f ung
hl et
rit z
St art
Ġch ar
omm and
ĠVor sitzen
ĠPhil ipp
ĠnÃ¤ch sten
i j
Ġm on
Ġk amen
Ġge k
ĠPolit ik
C all
Ġd el
ig keiten
Ġunter stÃ¼tz
Ġf er
eh len
Ġ196 5
Ge ographie
A D
H ol
ann e
Ġmehr eren
N ext
Ġauf genommen
f Ã¶r
ĠPr ess
is p
tr ue
T able
ĠB aden
ĠDam it
ĠRich ard
ĠB ek
ĠSil ber
ro ss
Ġwei ÃŁ
Ġ scha
Ġwh ile
M P
ĠB Ã¶
ut ton
Tra ce
ĠT ier
kl us
ĠAuÃŁ en
zep t
n am
it en
zeu gen
Ġ194 4
zeu gt
ĠB raun
Ġ19 20
S ub
ĠCh ina
d in
ĠW alter
om an
Ġc lass
ĠAlex ander
E T
J o
ĠM ein
p le
ĠSa int
lie ben
R I
f ord
eil en
Ġon line
Ġd Ã¼r
Ġst ellen
tern al
ĠMa ÃŁ
af en
g liche
wei g
it ch
Ġ196 2
ikan er
Ġpro duz
Ã¼r n
ĠGes und
hÃ¤lt nis
ik al
on es
ĠK om
Sp iel
F l
Ġer ster
Ã¤ um
ite d
Ġfolgen de
ang s
---- ----
ĠC al
ĠPhil osoph
ibliothe k
N ames
U L
Ġpar am
6 6
z i
Ġ te
ĠD och
ĠBerlin er
st ant
der s
ĠâĢ ¦
streck e
in ge
D ec
Ġt yp
Ġ Ð
Ġd ire
st at
is ierung
ing ungen
ru g
> (
ar f
ende te
ĠA ustr
l ern
ĠW ort
R e
Ġres ource
ĠStand ard
Mod el
ĠHann over
Ġ193 0
Ġeh er
ĠAk ademie
on ie
Ġbede uten
P ol
re c
Ġho hen
F I
G ener
Ġm achte
ĠT op
Ã¼ss eld
Ġk ompl
ĠPol izei
ĠBas is
E L
cri ption
ele te
m el
ĠFrÃ¼ h
ĠB ank
i ft
u al
re e
==== ====
Ġgew esen
west en
m on
Ġm ed
ĠH an
sp h
Ġwir k
u hr
ĠK ranken
Ĥ ¬
ĠP e
ent wicklung
Ġj apan
sch riften
Ã¼r ttemberg
Ġaus gew
W erk
ĠBÃ¼rger meister
Ġsetz te
ĠFra gen
ien ten
amerikan ische
ĠPart ner
ĠauÃŁer dem
Ġz entr
Ġwoll te
Ã¼ ch
ĠD enn
Ġge tr
ĠArb eiten
le cht
ĠW el
o o
ĠÃ¼ber n
Ã¤ us
Ġn orm
ĠWerk e
ĠS Ã¤nger
ĠMÃ¶glich keit
w art
ol den
c tor
Ġsch rieb
ial og
kau ft
Argument Exception
er r
ĠL iga
Ġ8 0
Ġgemein s
ĠDes ign
ĠKon z
Ġbes uchte
gel n
F ilter
P ackage
ĠS ub
ĠP sych
ab r
Ã¤tig keit
Ġinter ess
ĠWolf gang
de d
op y
z eiten
or ie
ag o
Ġre ad
ay er
U p
or a
hal te
Ġ195 8
O per
Ġs uper
ĠB all
ing ton
Ġihr es
C omp
Ġeben so
ag n
Ġ ra
olog ischen
Ã¼s se
setz en
ĠDies es
ĠMod ell
" ))
G es
T r
ĠF ig
Ã¤d chen
List ener
Ġcon fig
At tribute
ĠÃ¤ uÃŁ
L e
ĠPr em
ot h
Ġm eine
C hr
h an
In ner
pp er
20 18
z uf
T rÃ¤ger
Ġbest and
ĠAu gen
T Y
au sch
ic o
im men
ĠRep ublik
ĠT eile
ĠEr sten
ĠGr ab
rei sen
Ġver z
ĠSt amm
Ġ17 9
ĠÃĸ ff
ĠÂ «
Ġ3 5
ĠUnter stÃ¼tz
ĠSte uer
ĠF en
Ġk ehr
v iew
em b
Ġ195 2
Ġby te
ĠI D
Ġr em
Ġ195 6
P art
r hein
ĠW and
ĠW ider
P age
Ġal t
tag s
H eader
ĠHer mann
ĠfÃ¼hr en
i ber
ey er
Ġ194 6
Ġben Ã¶
inn t
rÃ¤s ent
A mer
Ver lag
g ien
ĠH essen
ĠUnter such
t um
ĠH Ã¤lfte
eu e
gel Ã¶st
fahr er
z ip
Ġ195 9
so zial
rie ges
Ġ194 9
ie h
ĠD ep
ĠStr ecke
ha ft
sta at
ĠDres den
W enn
ĠLe ague
In teger
ĠBr and
Ġ194 1
spr uch
str ing
ĠB rit
ĠV en
Ġver f
g ten
ĠTh emen
Gem ein
8 4
Ġth at
Ã¤nder t
S o
ĠK rit
Ġg ute
kt or
Ġspiel en
Ġsel ten
Ġson st
w egen
ĠErgeb nis
l l
ĠLin ie
ei s
l ad
ft ware
Ġpol n
Ġerz iel
N umber
T eilnehmer
ĠHau p
L O
it a
eh ens
Sp ort
and elt
ĠD eb
Ġz erst
Ex pression
Ġbeg r
Ġ ak
ĠSt unden
par k
5 9
w ill
hei ra
ĠD oppel
0 9
y a
Ġw Ã¤re
Ġr et
Ġerh Ã¤lt
Ġsp ielt
au ber
ĠP arlament
Ġver ein
etz ung
itz er
Ġunser en
aler ie
Ã¤ ss
Ġl Ã¤nger
Ġdar Ã¼ber
Ch ar
Ġf alls
rik a
Ġne un
Ġgen er
R el
ĠSchw arz
Ġb as
per atur
ĠN ik
mar shall
ec ted
ĠFir ma
au sen
Ġg l
Ġst ate
. -
z og
M et
ĠS et
Ġ );
le b
Ġbet rÃ¤
S V
v el
ĠT e
Ġl and
er ror
ĠS ow
ĠW h
Ġc omp
ĠEnt scheid
ĠInd ustrie
ĠS tern
em in
Ġz eigen
ab rik
Ġan schlieÃŁend
ĠKon tr
ĠStud ium
ĠKompon ist
o der
ĠV oll
us h
ĠK amer
Ġaktu ellen
Ġf inanz
Ġ194 8
k athol
l ar
ĠF ern
olog ische
ĠursprÃ¼n glich
k ap
ĠB und
Ġal te
ĠZ udem
ver walt
ĠSp ez
C D
K ir
k reuz
or te
zei gt
sch uss
ĠP unkt
Ġer reichen
0 1
0 6
e arch
not ation
ĠSt at
8 7
den tif
c ase
i que
ĠA ust
ĠSta ff
l am
ĠT im
Ġk aum
mar kt
L ength
u ster
ot te
un ternehmen
lie gen
Ġmo der
ĠS m
ĠVer gleich
Ċ ĊĠĠĠĠĠĠĠĠĠĠĠĠĠĠĠ
ĠIhr en
ĠAus wahl
m eld
ĠP rivat
Ġtr otz
ir ks
Ã¶ sen
ad ition
our ces
eig net
ĠL eiter
pro tected
ĠSchauspieler in
Ġ195 4
final e
ĠD Ã¼sseld
ĠP an
Ã¼ st
Ġs er
ter s
B IND
g ie
l assen
m und
Ã¤t ter
Ġk omp
ĠP op
ĠUm welt
ĠJ ac
tem ent
fÃ¶r m
Ġd ritten
Ġge d
b ie
ell a
Ġ195 7
ĠAr mee
gr Ã¼n
ĠkÃ¶nn te
ĠSchl acht
wie gend
Ġ194 3
d ata
t c
ĠmÃ¶ch te
d am
ĠPr inz
ĠDan ach
ĠPfl anzen
BIND ING
il ler
deut sch
B C
ĠL au
ul a
Ġho he
S te
Ġin put
ag d
Ä į
ĠVers ion
i ol
Ġ195 5
A ccess
N o
ol or
ĠâĢ ľ
ĠGeb urt
al es
bet rieb
ĠF uÃŁ
ĠR itter
Ġweiter hin
b eg
ĠnatÃ¼r lich
Ġ9 0
at tern
Ġn ehmen
Ġ7 0
ĠIllegal ArgumentException
Ã¶ pf
Ġmo dern
k i
ĠH all
Ġd efault
ĠTag es
te ten
ĠB d
S ON
ĠS onder
ile d
Ġsel ben
halt ung
anst altung
la ce
ĠWien er
Ġun ver
Im pl
mus eum
f in
Ã¤n gen
d aten
ungs k
ĠM ess
In t
č ĊĠĠĠĠĠ
st att
r c
Ċ ĠĠĠĠ
ĠD ann
Ġs b
Ġk athol
ĠFor schungs
n eter
ĠR os
Ġeinzel nen
ĠR at
end es
Ã¼n ze
ĠCl ub
ĠL OG
ch ar
ut ure
l Ã¶sung
ĠAk tiv
ĠCh or
ĠP ublik
Ġex ten
ĠProdu kt
ie ben
ill en
ĠVer Ã¶ffentlich
Ġ195 3
ĠgrÃ¼n dete
ĠIn teger
ĠÃ¤l ter
M S
M in
O T
ĠR unde
Ġ194 7
tr aum
Ġk ennen
T ag
t liche
ĠV ideo
lin ie
ieren den
Ġt c
ou ver
Ġstamm t
ĠOr iginal
ĠfranzÃ¶s ischer
zie hen
ref ix
ate in
ass ung
stra hl
ĠJose f
h Ã¶r
ahr en
ĠBl ick
C onnection
re quest
Ġp ass
Ã¤ch s
ĠKant on
unk ten
ĠBez eichnung
ann el
ĠEng land
Ġind ividu
O S
ĠS old
fass ung
Ġblei bt
s berg
ĠKont akt
Ġsie ht
ĠK ron
ap e
ĠHer bst
b ischof
Ġbe ein
rie f
f alen
ĠC a
Ġo ben
C ase
ĠGr Ã¼ndung
ĠPh ys
ch ester
ĠSt ar
8 3
S etzt
ĠNach folger
Ġbesch Ã¤f
s a
rÃ¤siden ten
M ax
ĠAn gel
ĠÃ¶sterreich ischer
.: .:
Ġer folgt
Ġcon text
g arten
la f
imm el
ĠReich s
Ġehemal ige
0 2
v is
ĠCh amp
ĠAmer ican
Ġ194 2
olog y
Ġj Ã¼n
imm ung
Ġorg anis
en ten
Ġrech ts
Ġver heira
Ġent halten
amil ie
ĠR a
Ã³ n
Ġhei ÃŁt
Ġer weiter
Ġpro f
Ġumf asst
ab eth
Ġj Ã¤hr
tiv en
is Empty
j o
in fo
ĠSc ien
ĠLie be
A X
ĠL Ã¼
olle ction
ĠDenk mal
h istor
ĠS w
ĠS yn
em ann
tig keit
dr ess
c lient
C T
ĠT ruppen
Ġc all
ĠverÃ¶ffentlich te
d k
d at
ĠK ern
ĠUm gebung
ĠR em
ĠA g
O L
eid el
Ġunser em
Ġwel cher
ĠJ ean
ff er
ie ur
Ġein ger
E uro
er tif
fall en
ĠEx ception
om o
leich t
ĠEr k
** **
ĠSpr ach
5 6
ĠG al
ĠStr om
W er
s ei
ĠZeit schrift
ĠK re
ĠLehr er
_ _
tern ehmer
ĠZeit punkt
Ġb ilden
ĠKategor ie
P oint
ĠC ms
Ġp rak
ĠAb geord
7 1
og le
ĠKÃ¶nig reich
ĠP il
ĠAn n
ĠPol en
ĠUnterstÃ¼tz ung
mit t
Ġinternational en
ĠUn ion
D F
st eh
b ef
k ra
at ers
y th
Ġneu er
Ġtr adition
ay s
l n
br acht
Â °
ĠN Ã¼rn
oss ible
ĠW as
ĠL Ã¤nder
ĠJ ust
o ffen
ie ÃŁen
ĠWill iam
S ource
ĠH u
ition s
ic ate
I ter
ĠD isk
ut her
ĠbetrÃ¤ gt
Ġev ent
ir m
ĠFol gen
C he
lich keiten
ub e
oc i
ĠnÃ¶rd lich
Ġg riech
ĠAr n
ĠAn na
ĠgrÃ¶ÃŁ te
ĠfranzÃ¶s ische
rei ber
Ġgew orden
Ġle dig
richt ungen
Ġerh Ã¶
a at
ran g
ĠNach bar
rech ts
m ap
ot al
ĠsÃ¼d lich
au tor
Ġent spr
ez ep
lag er
ĠW ahr
Ġp rom
ver t
ĠAb schluss
ĠerwÃ¤hn t
âĢ ŀ
ers eits
b ro
tr ainer
Config uration
Ġb ildet
Ġneu es
T em
a iled
ĠC amp
Ġtr Ã¤
k raft
get Value
ĠGl as
ĠAndre as
ĠA v
ĠE lement
Ġbek annte
ĠP unkte
E d
F F
ĠL Ã¤nge
ug h
an lagen
Ġje de
0 3
Ġbes itzt
ma ÃŁ
les en
Ġev angel
s itz
eich er
Ġwir tschaft
ĠZentr um
ĠBest and
E S
Ċ ĊĠĠĠĠĠ
ek ten
l eiter
I V
par se
i w
z us
ver tr
0 7
ĠGr Ã¶ÃŁe
pf lich
ĠVol k
Ġabsolv ierte
Ġwirk lich
ĠK al
ekt or
Ġ tem
ig ungs
ĠOrg anisation
Ġverl oren
Q L
ĠAn ti
p e
on y
Ġge stellt
Ġ195 1
low ak
at ter
Ġw ohn
Ġledig lich
Ġh alten
ĠBes onder
B ahn
ei sen
ĠOr d
pro chen
ĠAl bert
C ms
S el
g ibt
Ġn immt
Ex ec
ĠAuf gaben
ĠVerein s
Ġeinz ige
Ġentwick elte
b Ã¼rger
ĠL eitung
hal ts
be ck
ĠD ek
ĠR Ã¶
meister schaften
ĠB ack
ĠD azu
zw ischen
Ã¼ ge
Ã¼ ten
ĠM Ã¼ller
Ġge baut
Ġ5 00
ĠIhr er
Ã¤hl te
Ent ity
G B
c ing
Ã¼hr en
entr y
k an
st ud
ian a
ĠAngeb ot
ĠReg ierungs
ĠhÃ¶ her
V iew
ĠH Ã¶r
Ġen try
Fernseh serie
N ew
ĠB y
ell es
m ehr
v ider
un time
ĠK olle
Ġar e
9 5
ĠFen ster
ĠS Ã¤
x y
ĠW ol
ĠW all
<? >
b us
ĠDok ument
Ġsch loss
Ġwelt weit
k ampf
i i
Ġm inde
ĉĉ ĉĉ
hal le
8 2
Ġer war
Ġd at
yn am
Ġausge zeichnet
in ts
ĠAben d
Ġp assen
Ã¡ n
icher ung
Ġdar f
ĠprÃ¤ sen
k or
Ġb em
ĠM Ã¤dchen
ĠW ild
Ġl o
etz en
Ar ch
denk mal
ĠR ob
ra ph
gemein schaft
Ref eren
t he
rau cht
ĠKir ch
ĠMed izin
h eb
s c
ĠD Ã©
ĠStadt teil
ĠGe orge
Pro du
mus ik
j ekte
w ork
Ġwer de
Ġ193 6
ĠR h
ĠS S
ĠB on
ĠM ass
ĠG ro
gr enz
lin ge
. ");
ĠT Ã¼r
ist in
ĠEisen bahn
ĠK ey
ĠT ur
Ġarb eiten
b ten
un ion
ĠZ immer
Ġern annt
ĠH elm
get Message
Ã¼nd eten
ĠRo y
C olumn
t a
Ġm essage
7 2
ĠN orm
Ġd adurch
ĠT urm
Ġminde stens
A ction
ĠB ud
Z u
ĠP reuÃŁ
Ġi de
ow ed
bar keit
Hoch schullehrer
ĠAn schluss
atch er
ĠTeil nehmer
ĠGer man
ĠWirtschaft s
Ġgesam te
iel ten
Ġvor her
Ġ4 5
ĠBr un
Ġgesch lossen
Ġbr ingen
Ġbrit ischer
0 8
N ational
ĠStr u
Ġel ement
tig te
6 9
ĠOffiz ielle
ĠWei se
ĠTra in
] .
u a
ĠZusammen arbeit
at hlet
ĠBr emen
ishockey spieler
k arte
ĠJ ack
id t
ĠEnt wick
Ġ> =
Ġkn app
Ġb ald
org ung
egr Ã¼ndet
Ur l
Ġin dem
ĠJ ames
ger s
ah nen
B e
NA ME
ĠÃ¤l te
Ġ193 7
q l
an ische
Ġs ex
ĠAb s
Ġzahl reichen
Ġpolit ischen
0 4
S upp
Ġver k
Ġer mÃ¶glich
D urch
ari able
ymnas ium
ĠN S
Ġc om
k unde
ĠS zen
ĠEin fluss
Ġbrit ischen
Ġsof ort
Ġdes halb
get D
Ġh ol
ĠO ut
la w
i or
ce pt
ĠMen sch
ĠFor schung
Ad dress
Ġerschien en
ĠL ab
ĠBay er
S I
ĠL im
spr ache
Ġeigen tlich
ĠfrÃ¼ h
rem ove
B lock
ag te
Pro perties
ĠC ap
ĠVerb and
Con t
ti en
Ġhei ra
7 3
âĢ ĺ
ĠZeit ung
ĠJ er
Ġj Ã¼d
Ġin form
ĠP lay
ĠN icht
qu es
ĠH art
i men
all el
ĠLeist ung
Ġs etzt
8 1
ĠF ischer
Ġzul etzt
ra el
Ġ193 4
Ġgleich zeitig
am in
ser e
Ġ- >
ĠKl aus
Ġjed em
Ġst Ã¤r
M ill
s es
u c
oll ar
ĠDÃ¼sseld orf
Ġverheira tet
d et
ĠAn der
ĠGrenz e
ĠChar akter
au ern
res ult
jÃ¤hr ige
or gt
ĠMa c
rep ublik
A uch
ĠS uche
ĠT rad
Ġt Ã¤
ek tion
ikan ische
Ġaktu elle
P f
stell te
for schung
7 4
ĠRud olf
ĠM ot
pp en
ĠEs sen
Ġwen ige
st anz
ĠS l
il es
ĊĠĠĠĠĠĠĠĠ ĠĠĠĠĠ
ĠF ehler
ĠH um
v on
und le
and o
r unde
Ġ ap
ig i
ĠO pen
Ġ3 2
wissenschaft ler
ĠMar c
w urf
z ub
n ungs
Ġf iel
ri ck
ink el
Ġ rei
ĠA ktion
ĠL ong
e en
ĠVer such
zeich nis
b s
par tement
ĠGÃ¶ tt
ĠK ab
un e
Ġmar shall
et ern
Ġbef and
ĠSch les
ĠIm m
Ġch ines
Ã¤n gt
Ġbel eg
ĠtrÃ¤ gt
un sch
Ġb l
Ġst ammen
ech net
Ã¼ck s
Ġ+ =
D efinition
ab l
ĠB lack
C om
Ã¤n n
ĠFrei burg
ven tion
Ġnieder lÃ¤nd
' t
U E
ĠR and
wÃ¤r ts
ĠCharl es
cont ains
M eter
W eiter
Ġp h
ĠSt ock
ĠZu ge
ĠDi pl
lau ben
= "
ie ÃŁ
ĠG Ã¤
ĠF ac
Ġh ab
Ġein f
Ġp r
gew iesen
M on
sch lÃ¤
ĠK op
ks am
g ut
Ġge pl
ec ond
As ync
ĠLou is
č Ċĉĉĉ
der ung
Ġt arget
ww w
ĠColle ction
Ã¼ ste
ann ot
ĠAut o
tribut es
P osition
Ġaus schlieÃŁlich
b ase
h auer
ĠW ehr
ic t
L egt
ĠMon ate
ĊĠĠĠĠĠĠĠĠ ĠĠĠĠ
Ã¼ gen
By tes
ĠAus gabe
ĠZu kunft
Ġr ichtig
Ġbeg innt
Ġganz e
ĠVer wendung
Ġre c
ĠE hr
ĠJ es
Ġ euch
ver fahren
ĠAl ler
ĠProdu kte
ĠHal le
ĠRec ords
ĠzusÃ¤tz lich
p ed
K E
ĠL ied
ĠNutz ung
st ate
f unk
Ġm ap
Ð °
ic tion
n amen
ĠW erner
ĠH igh
Ġo ption
Ġschw ed
ĠFl Ã¤che
ent liche
ĠEinwohn ern
Ġdamal igen
u gen
au st
and lung
Ġh Ã¤tte
ma x
wÃ¼r dig
verwalt ung
eu cht
C ache
G egrÃ¼ndet
st Ã¤tte
ĠN ur
L evel
Ġgen ommen
spr ung
eg ment
Ġk rit
Ġgesam ten
5 4
den km
tr em
ĠAl ten
Ġ192 8
t d
mittel t
ĠfrÃ¼ hen
ge legt
den ten
ĠF Ã¤l
fl Ã¤chen
techn ik
schein lich
bau ten
bez irk
ĠS ant
ep age
Ġp aar
Ġall gemein
O ber
Ġ19 18
6 8
ĠOr gel
P r
ĠH ash
ĠVer kauf
D a
c omp
ir g
lo sen
eb ug
ĠGot tes
Ġkehr te
le hn
ĠW oche
ĠBen utz
ĠFot os
g arn
Ġh as
iz ation
f unktion
Ġp osit
ĠEv angel
L ong
ĠS atz
itu ation
h te
art s
inde st
ĠB eim
ĠH off
ick t
ĠTra iner
Ġblei ben
u z
Ġd efin
ĠJ ak
ad ata
ire d
ĠT V
A ss
ie gen
ĠÃ¶ff entlichen
Ĩ Ĵ
v o
ĠW es
iz er
Ġent scheiden
pf el
p ath
ĠS onnen
Ġo bj
auf trag
ĠEx per
ĠHoch schule
ĠBez irk
b rit
ĠL eg
ieren de
ĠDar stellung
ĠSicher heit
s Ã¤tze
umen te
west lich
Ġbede utet
Ġd est
' :
st attung
ĠP ri
ran t
Ġunter st
g a
is D
ĠJ ung
ĠZ uf
Ġper f
ĠVertr eter
Ġver d
Ġ192 9
Ã¤s ser
Ġ19 19
ĠD ivision
stru ktion
ĠBei trag
ĠAut om
m esser
ĠR iver
ri ffen
zie h
R o
ĠZ ei
sp rÃ¼
B ean
iv il
if e
Ġd unk
au pt
Ġ19 00
ĠUnternehmen s
m at
Ġf irst
W ie
Ġver lÃ¤
Ġver kauf
ĠSch lag
lo c
PD F
Ġd ich
Ġer setzt
Ġgesch rieben
ĠZentr al
ĠStaff el
6 7
w echsel
C ON
ĠRo sen
Ġbek ommen
Ġs ervice
sp art
ommer ce
C l
T ask
ĠV iz
ĠFarb e
ĠBau ern
Ġgel ten
Ġnot wend
ĠM erk
Ã¼l lt
gn ore
ĠEp is
6 3
ĠD ir
() ))
Ġex ec
ĠEl is
ver trag
sch ine
ĠT hr
Ch ild
ie fer
ĠW ander
Ġver br
ĠFinal e
Ð ¾
en sch
isch em
Ġh el
end ar
Ġben annt
1 00
T H
ed ia
Ġsch l
ĠMa schinen
F e
ĠAn lage
uf e
Ġj ava
Ġbr achte
Ġall ein
ĠHeil igen
hil fe
Ã¤dag og
! !
Ġd igit
und s
ul ation
Ã¤hr t
Ãĸ sterreich
W riter
Ġm m
ro ffen
Ġun mittel
serv ice
kl asse
ĠVerkehr s
ĠT agen
Ġ193 5
ĠTechn ik
ĠKin dern
on om
ot o
An y
Ġdien te
ĠS ar
ĠE U
Ġbel ieb
Ġpolit ische
ĠerÃ¶ff net
ĠunterstÃ¼tz t
T ER
ĠM acht
ĠAr m
ĠgroÃŁ er
ĠQu alif
tier ten
Ġ193 2
J ob
V erk
h el
ĠD or
rei he
Ġle bt
Ġumf assen
w ord
lÃ¤ss lich
6 2
ï ¿
ĠD amen
lie fert
Ġf anden
Jahr hundert
p oint
Ġ ed
ĠMus iker
stit ut
C o
ĠN amens
ul en
Typ es
ĠH eidel
Ġlin ks
\ "
Ċ Ċĉĉ
ic es
b is
ĠBl ut
| }
Ġs od
Ġer r
W Ã¤hrend
k und
st Ã¤nde
Ġlog ger
c is
z Ã¤hl
Ġr ich
Ċ ĠĠ
ĠB ill
ĠMus ic
kir chen
ĠRad io
ĠMÃ¼n ster
zahl en
f ort
im it
Ġsei en
Ġl au
Ġst ra
eich ert
ĠS ammlung
ĠL Ã¤ndern
Obj ekt
ĠT Ã¼rk
ge d
Ġm Ã¶
ĠP et
Ġ< =
Ġ* /
Ã ¸
haf en
ĠFamilien name
ĠAng riff
ĠG et
ĠAn gaben
A B
Ġerh eb
r am
ĠStim men
P ort
er ei
res ource
Ġjed es
ie ger
ĠB onn
op s
Ġj unge
Ser ver
P S
c tory
Ġk aufen
forder ungen
Ġer forder
ĠAn schlieÃŁend
Ã¶l f
G er
ass el
ĠHerr schaft
Amer ikaner
ĠB il
ĠSp anien
id a
Ġdurch gefÃ¼hrt
mÃ¤ ler
E urop
Ġn ext
u hl
wei le
ï¿ ½
ĠS icht
ĠH ir
and t
Ġp ort
g ruppen
ĠColle ge
in sel
ĠK omb
ĠG Ã¼n
Ġh ttp
L S
or ien
ĠF e
ĠVer br
wer ks
ohl en
Ã¼r gen
Ġl aut
stÃ¤nd ige
Â «
an walt
Ġf ind
ĠT at
vers ion
ĠP fer
ib r
Ġkosten los
Ġzw eit
tier ung
ĠWeiter e
on ym
ĠM iss
ĠIn ner
l s
()) );
Ã¼ m
Ġheira tete
ĠP aar
ri ge
bl att
A M
Ġf in
Ġk anad
mittel n
Ġf unktion
ĠÃ¼ber geben
alis ierung
wert ung
Ġn utzen
Ġp reuÃŁ
Ã¤l lt
5 8
W Ã¼rttemberg
p os
amerikan ischen
ĠStÃ¤d te
ĠDÃ© partement
ĠU N
ĠspÃ¤ter en
ĠFot o
ĠM ik
ĠG it
ti al
Ġk or
sh of
A c
Ġb ein
um Ã¤n
N eu
h Ã¤user
qu ar
Ġges etzt
ur a
ra w
ĠZ eichen
ock en
Ġexten ds
get R
reu en
o us
ĠT enn
ĠRuss land
denkm Ã¼nze
Ġge prÃ¤
ĠEm pf
Ã¶rder t
Ġjeweil igen
Loc ation
aup ts
ĠP rÃ¼
Ġl eich
herap ie
g ab
Ġ19 14
Ġa c
ĠBild ung
D I
Ġ ;
st ehen
ĠR ichter
ĠV is
anstalt ungen
5 3
g yp
g Ã¤nger
st Ã¤r
ĠS ingle
zeich nung
ĠHau t
gew icht
Ã¼hl en
UR L
aly se
. "
l ong
ĠE ich
ĠBÃ¼ cher
k ret
r el
Ġan s
ĠSti ftung
lÃ¤uf er
i ar
Ġ time
ĠG Ã¼ter
ĠN ic
I t
R uft
l eit
ĠO ff
ĠSch ool
haus es
alif orn
L ink
p unkte
hol z
ĠRel ig
b ung
Ġregel mÃ¤ÃŁig
H ier
ĠG ust
ĠAus stellung
bau m
it ts
ĠD igit
H el
ĠF ritz
ien en
stand s
ĠPat ienten
ĠF ield
ĠGr and
Service Response
T I
ĠF und
Ġqu alif
ĠverfÃ¼ gt
Z ur
len burg
ĠGer icht
5 7
Ġ text
Ġ user
le ger
ĠH und
lav ier
Ġ192 7
krÃ¤ fte
B and
zeich nete
Ġbeteil igt
n ehm
r and
ĠO ption
ĠVer teid
ĠL ink
Ġver treten
wind igkeit
Ġl angen
E X
Ġg uten
Ġl ast
geh Ã¶
ess el
P h
m acht
n itz
z ur
ĠF ernse
lau bt
ĠÃĦ r
rid ge
Ġgesch affen
Ge denkmÃ¼nze
eth oden
Tra cing
ĠDan iel
f ace
Ġs ize
stell ten
Ġstatt f
Ã¶ nen
Ġkl einer
ĠZusammen hang
lu ster
5 2
In put
eil t
Ġfol gt
Ġw or
Ġreg ion
ĠV ic
Ġj ungen
ĠBez irks
ĠVorsitzen der
N eben
ĠK lass
ĠNÃ¼rn berg
5 1
6 1
t lichen
is on
Ġc an
Ġdar in
Ã¼l l
Ċ ĠĊ
Ġander er
k ur
Ġ1 000
9 3
s dorf
fol gen
ĠFl or
ĠÃ¼bern ommen
ĠB ig
Ġber eit
Ġehemal iger
ĠAn ge
Ġzun ehmen
ĠComp uter
R ad
ĠSpez ial
Ġz eig
ĠR is
ha ber
p o
ĠF arben
Ġw rite
ĠL eicht
ĠC an
ĠMo dern
schau spieler
Ġh aupts
ĠIn str
Ġsol che
Ã ¢
ĠB ra
ĠW issen
P reis
Ġl ine
Ġqu ery
Ġvoll stÃ¤ndig
c ed
ĠM un
ĠChrist oph
Val ues
Ġb au
ĠT om
tr ol
Ġge bracht
ist isch
Ġangeb oten
p ossible
Ġaut omat
Ġtr agen
O ffset
Ġkl ar
ĠHand el
an i
ĠP rie
setz ungen
ĠIn f
wÃ¼rdig keiten
ach ts
ver se
ĠQu ellen
Ġentsp rech
D ir
Ġm ark
ĠLand wirtschaft
ĠÃĸ l
Ġsod ass
k r
ĠS amm
Ġt un
ĠBr em
ĠVor der
ĠBr Ã¼
ĠÃĦ n
ĠErgeb nisse
K ultur
re st
rei tet
Ġre st
ĠK ammer
ver lag
pp e
brit ann
Ġbeleg te
Ġwest lich
d ar
ĠS ter
ĠB arb
Ġfer tig
Ġge fÃ¼hrt
Ġver gleich
St ore
r ats
w en
se x
for men
AT E
ĠKarl s
K reis
d ouble
j i
ĠD ro
ĠM Ã¶
ĠN orth
anz e
Ã¼ hm
ĠW ettbewerb
ĠZ eich
sp ann
Ġhistor ischen
at ik
ĠG attung
ĠL ive
ehens wÃ¼rdigkeiten
Ġs uchen
print ln
M ethode
or ted
I f
er er
ĠE vent
gel assen
ĠWer te
O b
ig ar
ĠBas el
ĠA uff
ic y
d urch
Ã¤ den
ĠE lem
ĠGegen satz
ĠMath emat
tr ieb
Ġm einer
Ã¤n e
Ġtr e
lei tet
leg ung
sp or
ĠHÃ¶ hen
H ttp
Ġun abhÃ¤ng
ĠI V
rei g
ĠU p
Ġm ag
all owed
ĠHaupt stadt
c lose
ĠAb st
fer enz
Ġwich tige
sch m
as p
Ġst aat
ĠNach richten
ĠDreh buch
G ER
ĠL os
Ġein st
geb iete
o tion
an geb
O l
Ġs ah
gen er
um er
Gemein de
ĠW affen
age gen
ĠStru ktur
n ern
v ille
ur y
ĠSt ahl
ĠFÃ¼r st
ĠSommer spiele
G et
Ġso ur
j or
ĠGroÃŁ en
Ġ Ã¶stlich
Referen ce
ĠTrad ition
b as
mit glied
ĠSchw ar
S ession
ĠS PD
ĠM as
om ent
By te
um pf
Ġg Ã¼nst
TY PE
w issenschaften
Ġ192 5
K arriere
ĠG lock
end orf
F ol
ĠC up
od or
ĠStr af
eck lenburg
at ung
ĠB eck
Ġin tegr
ĠString Builder
ask et
Ġâ Ĥ¬
Ġup date
ĠSow jet
ĠSold aten
ei ben
Ġhaupts Ã¤chlich
N ieder
ĠFahr zeug
ĠPerson al
C ollection
b a
Ġver antwort
form ation
Tracing Enabled
Ġs w
Or g
rik t
ĠFest ival
ĠElis abeth
p hen
ti scher
ĠSt ate
Ġdi ent
Ġ ag
ĠD irektor
ĠT iere
Ã¼hr ung
ĠSchw ester
fig ur
ĠVerwalt ung
Ġver lieÃŁ
ĠPra xis
on ik
ĠM ul
scha fter
ĠWei hn
ĠReg isseur
ĠL ieb
Ġbest immt
ball spieler
d as
E l
is Any
Ġdar gestellt
etail s
T ree
ie ts
ĠS at
Ġum fang
cc ount
Ã¶r en
iter ator
ĠSoc iet
l uss
ĠC ast
Ġ3 00
ĠZust and
par e
Ġle bte
Ġrel ativ
Ġerziel te
: :
ĠUn ited
Ġ193 1
ĠGes prÃ¤
ĠNational sozial
Ġsogen annten
b uild
al a
M B
z a
II I
R A
ĠL ar
ĠT schech
b i
e ar
Ġv Ã¶l
Ġgew onnen
ĠW ach
isAny TracingEnabled
Ð ¸
ĠB ab
Ġbest e
ash ington
Ġverm ut
leist ung
st rÃ¤ger
omm ern
ĠGew inn
ĠBraun sch
u gend
ĠT Ã¤tigkeit
ist ent
ĠMittel alter
Ã¤uf er
ĠM and
g g
tr Ã¤t
Ġer ror
ĠWebs eite
Ã¼n dete
ter t
ĠW appen
O P
f rie
Ġwieder um
Ber lin
ĠProblem e
r ig
w in
alis iert
9 4
ĠS ib
ĠAd olf
Aus zeichnungen
ĠSti ft
ĠOrg anis
n ummer
ĠK lavier
Ġ} );
ĠBo x
Werk e
c er
n ey
er te
ĠL ager
Ġent lang
ĠRef orm
G ruppe
ĠS ing
ĠmÃ¶ch ten
B ase
Ġh ave
Ġbet rieben
ĠAut oren
bo x
ĠArch iv
M ode
ĠInter esse
ĠHom epage
B l
ĠI st
Ġh ielt
Ġgew innen
E G
st echn
ĠDeutsch er
Ġet c
ĠSo uth
Ġbestimm ten
ĠF ak
ĠEin fÃ¼hrung
Ġgleich nam
ach im
enz t
Bau werk
ĠTran sport
Ġvermut lich
ge g
wei te
ĠBei trÃ¤ge
ĠFÃ¼hr ung
Lo ader
m t
Ġ1 20
ĠPap st
r ing
Ġt ats
fr ist
gef Ã¤hr
Ġge z
az in
Ġmus sten
klÃ¤r ung
l Ã¤nder
ĠH oll
Ã¶ der
Ã¤nd ler
k osten
v olle
ep ar
sel ben
Ġversuch t
ĠVier tel
s achsen
ĠHinter grund
c r
ĠArchite ktur
h emal
m p
ad o
ĠBer eits
Ċĉĉĉĉ ĉĉ
Ġpar se
own load
is ierte
ind ungen
Ġitalien ischer
sub string
# #
ĠH immel
ĠR ek
Ġst ieg
Ġdar an
ĠBetrieb s
ĠerklÃ¤r t
ĠSalz burg
Ã¼n der
B oolean
u id
v ier
ĠS erv
ehr t
ĠTel ef
R eader
D ire
Ġan zu
Ġver kauft
ĠSch ne
Ġt Ã¼rk
Ġp art
ah er
T V
es h
Ġeurop Ã¤ischen
g au
Ġer inn
ĠArb eiter
C omm
er enz
ĠG rie
ĠJak ob
n ant
Ġs agte
Ġi tem
il dete
Ġ192 4
ĠFir men
F unction
z ul
by te
Verein igte
d essen
un t
F C
Ġ Ã¶
Ġf uer
ĠC re
er be
ĠW echsel
Ġg anzen
Sp ec
ĠDem okrat
I L
P olit
Ä ±
in put
ir ge
ĠLand schaft
ĠÃľ berg
med aille
Ġentsprech end
Ġb uffer
ic us
erk unft
Ġerst es
ĠS on
ĠAuf gabe
Ġverl assen
ĠFried hof
Ġâ ĨĴ
ouver ne
ĠSt off
ĠVer halten
geb racht
Ġweiter er
Ã¶st lichen
er m
ĠSp Ã¤ter
ab ase
20 17
din and
ĠH aar
iz ierte
ĠSo ftware
ĠY ou
Ġwichtig sten
Ġw ider
ti st
sp ir
ĠVer fahren
Sch wei
Ã¤ ische
ĠV ide
app ing
h och
la zz
Ġ192 6
T arget
d el
ĠN av
ĠC entr
Ġl ok
ĠSt atus
ken nen
200 7
reg ierung
9 8
ĠT own
ĠAl fred
In putStream
Ġpar ent
dr Ã¼ck
S erv
Ð µ
mÃ¶ gen
S Ã¼d
c up
Ġw ww
ot a
ĠNatur schutz
Ġer fahren
Ġbesch rieben
Ġverlie hen
britann ien
S a
ĠK arten
Val id
ĠM ount
Ġverl or
Ġ19 10
ed t
Ġst ets
av en
cript or
9 2
c ar
ĠL ok
lin ik
ĠNeu e
ĠMa il
h agen
om et
ĠAuf bau
Aut or
ieh ungen
Ġaus ger
urn ier
Ġre p
ĠĊĠĊ ĠĊ
O D
ĠwÃ¼r den
ĠJ ob
Option s
Ġs ynchron
el ement
ĠW eil
ĠR ennen
ck s
Ã© r
upp en
Ġsour ce
ĠHand els
ĠHo hen
ĠUr s
weg s
Ġir gend
ie hung
ĠKÃ¶nig s
ec ts
ĠPar am
ĠMeister schaft
in ce
Ġn ied
Ġer baut
20 16
.. ..
Ġeinz eln
Ġf ra
ist an
Mus ik
B A
Ġdarauf hin
ĠRoy al
Ġ ter
ĠS ach
Ġin zwischen
ad rat
Ċĉ ĠĠĠ
ĠH it
Ġo ther
ver stÃ¤nd
ĠG ran
ĠG ru
ĠT ype
Ġver fÃ¼g
fan ter
Ġd ec
Ġm ilitÃ¤r
ĠâĢ ļ
ĠDat ei
Ġtr an
Ġlie fert
amer ika
Ġher r
Ã¼tz t
st ern
ĠV om
Ġo per
Ġun bek
ust om
Ġzw Ã¶lf
S P
n etz
Ä ģ
ges p
ĠJu den
D ep
R ule
v an
I P
l igen
Ġun ten
Or der
mar y
ĠV ort
Ġle gte
ĠSicher heits
I s
ĠK enn
ip s
wer te
ĠSchw e
we der
fass ungs
Ġunmittel bar
D ouble
ĠH eute
Ġ192 1
ĠBez ug
ok e
minister ium
S e
ĠK rank
T hread
g ing
p ace
ĠK er
ber n
Ġge bild
ick s
ard s
AT ION
ĠdÃ¼r fen
B undes
b ul
z ern
ĠJ SON
Ġver pflich
ad el
ĠSpiel zeit
Im age
og n
ph an
ĠB ol
arch iv
w al
et ing
Ġent deckt
ĠAuf stieg
ĠermÃ¶glich t
ĠDar Ã¼ber
it ur
D P
c u
p ack
an en
ĠS or
at is
Ġ3 6
arb e
Ġausge tragen
Ġro w
ĠTem peratur
ch em
ĠIn vest
Ġr ein
20 10
Un it
o sen
st il
Ġsetz en
Ġ use
zu stellen
S k
ĠR enn
arr y
ĠUr laub
ĠVo gel
ĠSin ne
West falen
g ern
Ġaus geb
ĠAn teil
stoff e
gangen en
Ġfol gten
s m
ĠT ar
ĠW erb
ĠO pfer
19 45
Ã¤nd ig
ĠBl Ã¼ten
ĠMen ge
p osition
Ġh Ã¤lt
ver l
Ġc olumn
ĠHer steller
ichte ten
Ã¼l len
s ein
v ir
Ġarb eitet
ĠGl Ã¼ck
ĠB row
Ġunterschied lichen
sie he
Cont ainer
Ġd re
Ġs k
ĠP a
ri a
Ġbek annten
rech te
ĠFran cis
ĠE ss
ĠStand ort
Loc al
ist ry
ĠGel Ã¤nde
Ġ{ }
ĠGeburt stag
Ġprom ov
R em
c as
ie m
st ad
ar tet
Ġ19 12
str al
Ġ192 3
lob al
Ġeng ag
ĠHeidel berg
ĠP la
ĠR Ã¤
z un
ĠSchau spiel
Ġbrit ische
M M
ĠN ummer
eim ar
ĠKl assen
ĠKrit ik
ĠSociet y
or et
ĠK as
ow ski
ontin ue
ĠÃĸff entlich
P os
] ,
end s
ĠAr zt
ĠverlÃ¤ uft
ĠM ur
lie fer
red it
c ol
Ã Ħ
ĠH eer
In d
ib el
pro gramm
ĠGrund lage
Ã ½
Ã¤ ger
Ã© n
Ad resse
ler s
anz er
ĠBesch reibung
ĠChe f
gew Ã¶hn
ĠS V
Ġp riv
A ug
ĠMa inz
ĠSte fan
Ġar ch
ĠLie fer
Z eit
R ead
ten d
ĠJ agd
lin ien
ennt nis
ĠS ign
ro t
Ġge halten
ĠRev olution
ĠOr tschaft
Ġd ur
ĠG alerie
ĠGra fen
oper ation
f ur
Ġw issen
Ġsow jet
ĠIs land
ĠMat th
Ġzerst Ã¶rt
re en
ĠAb t
ĠRech te
S U
Ġ4 00
Ġwen igen
k tiv
Ġb uilder
Ġamer ikanischen
Ġentspr icht
el and
O p
ĠS end
ĠA ud
ĠD ate
ech te
Ġ15 0
Ġout put
wo od
Up date
ĠEntscheid ung
w ander
st Ã¤d
ĠB art
Ġf lieÃŁ
ĠIde en
ĠKonz ert
n ode
stell ungs
vers ammlung
Ġb lock
tig es
ĠPf lege
B is
g Ã¼l
y er
ĠK rim
ĠR ing
Ġk ultur
leist ungen
H T
ĠF in
ĠW ashington
20 12
br Ã¼cke
ĠBran denburg
Ġschwar z
UL T
ĠGÃ¶tt ingen
B ox
ĠAn wendung
Ġbe an
pr et
Ġval id
au d
ĠE reig
ĠL y
ĠL ig
ĠVer m
Ġr ule
gr am
ĠMÃ¶glich keiten
us ion
ĠIhr em
Ġentst ehen
h or
ĠB rief
ĠW unsch
ĠEr de
fra gen
ent al
ĠÃ¼ber wiegend
Ġausge stat
deut schen
Trace Component
S G
ot ten
ĠStr eit
ĠBew egung
ĠAustr alien
ĠAller dings
Ġb itte
ĠK rÃ¤
ĠG eg
Ã¶r den
Nach dem
ĠPhilosoph ie
ĠA sp
de st
ĠH ab
gang s
ĠSchm idt
L ock
ĠT ir
B esch
g rad
ch mal
ĠW issenschaften
ĠSch riften
ĠSer ver
ĠW agen
ĊĠĠĠĠĠĠĠĠĠĠĠĠĠĠĠĠ ĠĠĠĠ
pr ess
An notation
ied lung
9 6
ĠK le
Ġh eil
alis mus
et ts
ĠP ier
ĠT isch
Ġbesonder e
ĠMet all
ĠBern hard
Ġz eich
Ã¶ ss
ĠI f
Ġpro perty
gemein den
Ġmittel s
Ġin tens
Ġbr eit
ĠKn oten
ĠFer dinand
Verk ehr
ĠM Ã¤r
Ġbet re
ĠÂ §
ĠG as
ĠP rom
ĠC r
Ġf ilter
Ġ192 2
ĠW Ã¼rz
ĠHau se
ĠStu denten
Ã¶r de
ĠKomm ent
ĠS n
ik ations
ĠU ser
denk mÃ¤ler
exik on
D B
T echn
in ess
Ġw id
Ġl eitete
geb nisse
Ġkann st
m ission
er o
Ġd agegen
Ġ( ,
ĠW etter
ach tet
ĠVer lauf
Ã© s
ĠLe on
ĠLu x
ĠTod es
V AL
d or
H istor
ĠD ichter
ĠP resse
Ġge eignet
le d
ĠW ik
Ġinternational e
ĠAb schnitt
ht t
oci ation
or weg
Ġw eg
Ġg alt
ĠAb teilung
Å Ļ
ohn er
Ġersch eint
ĠStel len
ĠMor gen
Ġhoch wer
. ),
Ã¶ hne
and a
Ã¼r f
Ġges ehen
ĠBild hauer
Ġgegeben en
Ã¤ her
an isch
ĠB ir
Ã¤hn ung
echs eln
M at
ĠL oc
ĠN ahr
get Class
ĠHo use
ĠInter view
gent in
ĠAc adem
n ess
ĠZ eiten
ĠSp ann
ĠSie ger
Ġviel leicht
ĠNik ol
or der
ĠB lock
ue ber
ĠSchul en
o ÃŁ
ĠH ard
ist enz
r aten
ĠG all
ĠFl Ã¼gel
bo gen
ĠGeh eim
Ġhel fen
ĠPrie ster
E hemal
i od
k ultur
ĠauÃŁer halb
Ġ ti
20 13
ĠLeist ungs
ĠTurn ier
ge fÃ¼
Ġein gesch
20 11
ĠAll gemein
sp ar
Pro vider
ĠInform ation
ĠMann schaften
ĠBraunsch weig
ĠD E
par ator
ian o
Qu ellen
ĠUnter richt
ĠGroÃŁ britannien
( '
ĠJ os
Ġges etz
ĠWei ÃŁ
Ġex p
ĠI N
ĠjÃ¤hr lich
k lass
n ational
ĠS uch
ĠT ore
ĠL eit
iti ative
zieh ungs
L OG
M ark
ĠH on
Ġch ild
ĠsÃ¼d lichen
Ġg roup
ĠEr inner
ess ages
ĠÃ ī
ĠgehÃ¶r ten
Ġw uchs
ĠIn gen
200 8
akt or
Ã £
ur ity
Ġc lient
c el
Ä ĩ
ĠPro zess
sb ach
Ġwahr scheinlich
Ġauf gerufen
ĠDeutschland s
200 6
is c
ĠAus druck
ĠBron z
ĠGust av
A p
r t
Ġf loat
ĠEr b
ĠEin trag
Oper ation
ĠT ime
9 7
20 15
ĠIl l
bie ter
Che ck
f alse
ĠUl rich
Ġ( "
ĠV arian
ul ts
ĠAus s
Ġheu tige
ĠBeruf s
exik o
Ġ ass
it hm
ĠG ir
Ġ3 8
gel d
St adt
ĠErfahr ung
Ġd ritte
sch loss
ĠKap elle
Ġd ep
ar ischen
em pl
kon om
F uture
tig ten
bo ten
ĠIde e
ĠD Ã¤n
Ġer gÃ¤n
get eilt
Ã© e
ĠBeh andlung
ar zt
ĠF al
Al bum
meld ung
g y
ĠD ank
hr e
ĠThe ologe
lan de
sch uhe
ĠB u
Ġ19 13
Ġge mÃ¤ÃŁ
ĠGer hard
200 9
d t
k Ã¼nf
Ã ´
at o
ĠL ieder
200 5
Ġentsprechen den
W idth
ĠS eb
ĠK och
ra f
Ġl ength
att form
Ġ Ã¶ffentlich
Ġau stral
ĠEn gel
Ġpro cess
deck en
au ff
ĠB oolean
ru he
schul en
ĠB a
ab s
ĠgrÃ¶ÃŁ ere
omb in
ĠErz bischof
ĠB rau
Ġ19 11
Ġle bten
ĠGrÃ¼n den
Ġ eb
ĠM em
rei f
ik o
Ġmus ikal
ĠTh Ã¼r
ĠRe al
leg te
produ ktion
v a
ĠC oun
im il
ĠHistor iker
Ġp ost
IN E
Call back
M o
f ilter
ĠR ezep
con fig
ul pt
org anisation
ĠDaten bank
ĠhÃ¶ch sten
Z um
w ach
Ġan lÃ¤sslich
ĠLauf e
ĠS C
rei ter
sh eim
fer ence
Ġm atch
stÃ¤nd igen
Ã¤mpf en
ĠBesuch er
N O
p olitik
ĠS um
Ġj em
ĠMa ster
ĠDar m
L in
c i
em ark
ul gar
Ġeinge stellt
ĠOr dens
St ack
Ã¤hl ten
ĠArchite kt
Client Exception
I G
k opf
ĠP au
Ġitalien ischen
ĠE du
ot her
ĠErfahr ungen
ĠZ en
ĠAuf grund
Ġle er
ĠK urt
ĊĠĠĠĠĠĠĠĠ ĠĠĠĠĠĠ
Ġan ges
Ġo ff
ĠJahr zehn
P RO
ĠV iele
Ġzu gleich
Ġl etzt
ĠLeist ungen
ĠTÃ¼rk ei
ĠvÃ¶l lig
et work
ĠZ ahn
rie be
gr Ã¶ÃŁ
zip lin
Ġmoder nen
H L
i h
ĠK a
ĠVerÃ¶ffentlich ung
ĠK iel
ol er
ĠEr satz
ĠOr te
ĠMet ern
Ġprof ession
T P
V D
tr at
20 19
Ã¤hr ung
ĠFlug hafen
ĠjÃ¼n ger
Ġunterst Ã¼tzen
M atch
v ar
ĠUn ternehmer
ĠCar ol
mÃ¶glich keiten
ĠM ol
Ġh il
if ied
List e
R L
au x
Ġbet rug
f amilie
Ġder zeit
Ġab geschlossen
ĠMar ie
ĠBes atz
Par ent
âĢ¦ ]
Ġproduz iert
is en
Ġp rivate
enn fahrer
Ġgen annten
Ġgef Ã¤hr
ĊĠĠĠĠĠĠĠĠĠĠĠĠĠĠĠĠĠĠĠĠĠĠĠĠĠĠĠĠĠĠĠĠ ĠĠĠ
o ugh
u til
glie dern
an ischer
ĠS ituation
Ġs ession
ĠK anz
ir che
ĠO k
ĠSch ritt
Ġc ount
Ġval ues
gem eine
ĠrÃ¶m isch
ÃĳÃĳÃĳÃĳÃĳÃĳÃĳÃĳÃĳÃĳÃĳÃĳÃĳÃĳÃĳÃĳÃĳÃĳÃĳÃĳÃĳÃĳÃĳÃĳÃĳÃĳÃĳÃĳÃĳÃĳÃĳÃĳ ÃĳÃĳÃĳÃĳÃĳÃĳÃĳÃĳÃĳÃĳÃĳÃĳÃĳÃĳÃĳÃĳÃĳÃĳÃĳÃĳÃĳÃĳÃĳÃĳÃĳÃĳÃĳÃĳÃĳÃĳÃĳÃĳ
N ord
Ġs agt
ĠD Ã¶r
olum b
Ġverantwort lich
f abrik
her zog
ant as
ĠMon at
Ġur l
isD ebug
H E
ĠB Ã¤
ĠP eters
ĠAus land
ĠFer ien
g roup
ic ro
mer ksam
such t
ĠWider stand
< >();
Ġd Ã¤n
Ġan ti
ĠSch uhe
equ ence
Weiter e
ĠSchwe den
ĠF ein
ĠP ubl
ĠSch laf
tr ans
Ġo ffset
ĠIn halt
Ġvor bei
Er baut
ĠBild ungs
F r
Ã¶r ung
F rank
U ID
ĠP orn
Ġbek omm
ĠWir kung
++ ;
ĠSied lung
s or
ru p
Ġander s
mit h
ĠGo ogle
Ġp lan
Ġ/ *
Str a
Ġwei b
ĠKar te
ĠÃ¶sterreich ischen
ĠTex te
p olit
Ġer kennen
20 14
gesch oss
ĠSchn itt
W arn
ĠAl pen
Ġ3 3
ĠWohn ung
ĠRest au
I gnore
k omp
ĠH Ã¤user
Ġc ont
ma schinen
op tion
Ġsch lech
Ġ3 4
ĠPfarr kirche
Ġbestimm te
z ust
st uhl
ĠS dk
ĠF isch
uch ten
Ġ6 5
ett ings
ĠTeil en
Ġar gument
L abel
n s
Ġs agen
Ġz Ã¤hlt
ĠG olden
ow a
Ġc omm
Ġob wohl
glieder t
Ġgesp ielt
ei ÃŁ
sch auer
ĠL i
Iter ator
Ã¼ mer
Ã¶ se
ĠL aut
il er
Ġzu erst
amil ien
P o
ĠP unkten
ĠT ok
ra pper
Ġr en
bez ogen
I OException
w es
at al
Ġre duz
ĠB ist
ek tive
Ġat tr
ĠHen ry
sch te
Ġher gestellt
Ġverw enden
Ġstar tete
Ġloc al
Ġfin ally
reg ion
de f
ĠObj ekte
č ĊĠĠĠĠĠĠĠĠĠĠĠĠĠĠĠĠĠĠĠ
ĠH ell
ud es
th eit
teil en
ĠAd el
trÃ¤ ger
Ġweit gehend
Ġausgestat tet
F irst
ĠZ ul
ag ne
Ġmehr fach
ev ent
gesch rieben
ĠJac ob
ĠR oll
ind ustrie
ĠSh ow
N on
V P
ĠM ission
ĠVer d
Ġkompl ett
der ungen
Ġbeein fl
S O
w an
Ġw under
ĠF eder
ro und
ab les
eit ag
Ġt able
Param eters
ĠScien ce
D isk
T R
in os
Ġd ein
ar re
ĠR ath
sp er
Ġdeutsch sprach
m ack
y b
gel t
ay out
Ġber Ã¼hm
Ġbe endete
ĠHam burger
ĠSonn tag
ĠS inn
ĠNord rhein
ĠgeprÃ¤ gt
a ber
ĠH afen
ĠJ Ã¼rgen
Ġent weder
Ġmax imal
fel der
Out put
ĠSdk ClientException
D em
p ft
Ġd auer
ei sch
io us
Ã¼t te
Ġruss ischen
C al
j ava
ĠG rÃ¤
ĠT her
ĠT rau
ro chen
Ġst anden
Ã ±
UR I
G ew
b orn
l ication
tr oll
ĠVer hÃ¤ltnis
ĠKon fl
ĠHaup tr
Ã¤chs ischen
st ation
ĠS ig
ĠE st
ĠE ff
ap ter
arr en
ĠGew icht
ĠSc ott
oot ball
ĠKÃ¼ che
KE Y
d ach
ar ische
Ġn eg
Ġa v
th ur
H ash
zug s
B ild
j en
ĠL ad
Ġsp ec
ĠKap it
Ġmittler weile
Ã£ o
n ers
ie fe
ĠD ouble
ĠG rad
ĠH ttp
Ġbe ob
ĠEd ition
ĠKommun ikation
mÃ¶ glichen
ĠS em
Ġs icht
ste ck
ĠL ind
Ġl ock
Ġbr ingt
ĠZei traum
J son
ĠA str
ĠM ir
Ġ7 5
grenz e
H eight
at oren
Ġb lau
ĠK ult
ĠO ne
Ã¤l de
ĠInter essen
R ow
ĠD ien
Ġh eim
Ġan erk
rÃ¤ ume
ĠK ro
Ġk Ã¼nstler
Ġweiter es
Hol stein
P ool
z te
de p
ĠVer Ã¤nder
In valid
ard inal
Ġ190 7
Ġverst Ã¤r
ĠElem ente
V ER
d b
m ord
er weise
Ġs an
ĠEurop Ã¤ischen
hand lungen
Ä Ľ
Ġf reuen
der t
ss ystem
Ã¶s ungen
Ġ190 5
Ġsogen annte
N S
S ti
Å «
ver treten
ĠMon aten
al bum
Ġin itial
ĠK ing
orden s
ĠEhe frau
T im
ĠD ev
ĠE ck
sk y
son sten
ĠÃ¤hn lich
ĠFrÃ¼h jahr
Exec ution
c essor
Ġf Ã¤llt
ik on
Ġp erson
ĠSÃ¼d westen
ĠTeam s
ĠPrem ier
al te
el se
ĠN a
ĠN ode
Ġt op
ĠÃ¼ber tragen
Ġwest lichen
ĠFeuer wehr
p a
Ġm einen
ug ies
ack en
asil ian
ĠE g
ig ner
Ã¶r ter
Ġcon tent
ĠHoch schullehrer
ĠW a
ber eitung
Ġl os
ak er
app e
ÃŃ n
Ġk einer
ĠFor men
Param s
as er
Ġ190 8
fÃ¤l le
2 000
N ON
m ir
Ġc ode
Ġkomm un
Ġerw arb
Ġengl ischen
ĠGesund heits
ĠChamp ion
Ol ymp
y t
Ġin n
Ġ rad
Ġm ass
se ud
ĠC enter
sp iegel
ĠEin heit
ĠVor aus
Ġbek am
rech er
hand el
a ster
Ġs ystem
Ġent gegen
ĠKon zept
ĠS ec
wahl en
an er
re form
200 4
ĠHein z
G roÃŁ
L I
] );
ech ts
Ġre qu
bild ungs
ĠhÃ¶ch ste
ĠSchles wig
M A
ĠLe op
Ġ19 17
ic ago
av or
con text
ĠComm un
Ġ Ä
ĠK andid
ĠEr f
rich ter
ĠJur ist
ouverne ur
ĠÃ¼ber ra
od ing
ĠOr den
(" \
hol t
ĠFÃ¶rder ung
ĠbeschÃ¤f tigt
ĠSt ation
ĠStud io
P AR
b ad
he ute
off iz
fra struktur
den ken
Ġer stellt
Ġeinger ichtet
ĠSowjet union
B ound
ĠE ro
Ġex ception
ĠFahr zeuge
ĠZahl en
ĠTro tz
z eigen
ĠD rit
zÃ¼ ge
m atch
ed ig
ĠEurop ameister
omin iert
y g
ĠI ter
Ġver sion
Ġc o
ĠMar i
fl Ã¼gel
B utton
ĠAl tern
Ġrem ove
ĠLeicht athlet
' )
d f
t ur
t ok
ĠM ecklenburg
ĠH ub
Ġsp rach
Ã¶ff nung
Ġch rist
ĠNord osten
al b
Ġf al
ĠH yp
ĠI T
ig r
Ġge zeigt
ĠBÃ¼ ro
Wir tschaft
ĠMc C
Ġwes entlich
Ġerweiter t
ĠGÃ¤ ste
B est
il en
auf hin
fÃ¼hr en
Ġar gs
gr aben
Ã¼ h
Ġr Ã¼ck
iz enz
ĠBl att
Ver Ã¶ffentlich
ĠNetz werk
Met adata
Ġf ehlen
ĠO x
Ġhin gegen
kathol ischer
D oc
Ñ Ģ
Ġbest Ã¤
unn el
ĠM exiko
ob ile
pl Ã¤tze
ment s
Ã¤u ft
ĠLin ien
Rec ord
f on
u ell
Ġl en
Ã¤n en
ĠFre unde
obil ien
Ã¤us ern
D igit
st he
ĠR eb
Ġver schw
9 1
z wei
ĠR au
ĠIn fanter
Ġwir kte
ĠSo und
It alien
w Ã¤l
ĠSpr achen
ĠSim on
Tem plate
un c
ĠV illa
mer kungen
ĠUn garn
if ft
ĠRhein land
ĠGesund heit
st euer
tr ack
ĠC O
> ,
ĠH ill
ĠT anz
Ġsch eint
pf lege
AT A
ĠZw eit
D en
D ocument
ĠM ulti
ĠG roup
ĠI P
Ġver h
ĠSch r
ĠIn dex
az on
ĠGrie chen
ĠP ersÃ¶n
mal er
ĠAut ob
ĠgrÃ¶ÃŁ eren
ĠArchite kten
P ass
ĠTeil nahme
5 00
and te
ĠMos kau
ĠAl lt
ĠPro te
prÃ¤ sen
ĠFig ur
Ġd isk
ac ter
ĠOb serv
D el
Ġw ert
Ġl Ã¶
ĠVer antwort
Ġ190 6
ĠFr ont
ĠWe ber
sum er
c ast
h i
h orn
k rieges
ehr en
ĠMan agement
haf te
ĠF ass
ten sion
tr o
ĠZ us
af el
======== ========
Ġtre ffen
t eile
ĠPro p
ond s
ĠWir k
Ġbel egt
Ġ Î
st ream
ĠC lau
sen de
Ġ4 8
ĠLand tag
ĠVor gÃ¤nger
Al le
J uni
r is
ĠM ak
ĠN un
Ġt schech
ĠBen ed
gest altung
ĠnÃ¶rd lichen
dien ste
Ġsynchron ized
F ound
p aar
r Ã¼ck
Ã¤ st
ĠL Ã¶sung
re a
Ġge kommen
ĠgroÃŁ es
vor sitzen
ĠFr em
ĠfrÃ¼her en
pl y
bau er
ĠBei de
fur ter
Ġg o
ĠAn lagen
bl Ã¤tter
ĠArch Ã¤
b ilder
ell schaften
eu ert
ĠÃ¼ber haupt
pf en
Ġmed izin
d om
g Ã¤nge
p erson
ber ech
hÃ¶ he
ast ian
bahn hof
ab geord
Ġverb reitet
FA ULT
h aben
k y
ļ Ń
er ben
in ander
ĠB reite
Ġz Ã¤hlen
ĠK art
Ã¤n ner
Ġtr itt
ĠMar ine
Ġdien en
Ġzeig te
ĠB asket
Ġbet roffen
ĠZug ang
isDebug Enabled
ĠD auer
ĠK urs
ĠDurch messer
ĠRegion al
leid ung
ĠAn spruch
af rika
ĠBez iehungen
ĠPfarr er
Ġn amens
oren z
ĠJo achim
ĠC orn
ĠEn gl
ĠLin ks
bÃ¼ cher
T eam
ĠR ollen
hl en
ĠAuf nahme
ĠBl og
Ġkur ze
F unktion
it le
Ġb i
ĠL iter
ĠFak ult
P ER
ig keits
Ġaktu ell
Ġ[ âĢ¦]
ĠDeb Ã¼t
untime Exception
on ischen
ĠS ab
ist e
Ġf ac
ĠEin ige
ĠFranz Ã¶s
ĠErz Ã¤hl
k rit
Ġ old
Ã¤h ler
heb ung
in zen
Ġs ucht
ĠBr ig
Des criptor
ĠS ur
Ã¼nd ungs
ĠRÃ¼ck en
ĠFunktion en
Ignore Case
D ollar
Ġs org
Ġg ingen
Ġt ief
ĠAm ate
ĠAd els
Ð ½
aus stellung
ain ing
Ġb ildete
ĠD adurch
ĠEr weiter
fer tigt
wend ungen
ĠRes erv
Ġend gÃ¼l
Ġdah in
ei fen
Ã¶ ÃŁen
ĠNord westen
Ġgepl ant
ie den
ĠSch on
ĠAn h
ex ec
ĠVic tor
ĠK assel
Ġf ound
om a
ff e
Ġvor gesehen
pf licht
hrow able
Out putStream
ĠbenÃ¶ tigt
m aterial
ĠW ohl
ĠVer anstaltungen
get Key
ĠBr Ã¼cke
ĠThe odor
ĠGew alt
zun ehmen
s eit
Ġs rc
ĠE ber
ĠW Ã¤r
ĠW ett
ĠKl ima
Ġben utzt
Ġentsprechen de
iw od
D efault
c en
ut or
ell i
ak et
Ġro ot
Hel per
h em
u i
Ã ¥
ur ts
Ġc ontinue
Ġerst reck
ĠHand buch
B evÃ¶lker
K omm
ĠIn tegr
ĠNieder sachsen
ist s
lie genden
ĠSchl Ã¼ssel
ĠWÃ¼rz burg
k g
ei se
re den
id d
ĠÃĸffentlich keit
ĠP rÃ¤sidenten
ĠT ief
ĠV aters
ann en
iel en
Ch ange
ĠRÃ¼ck kehr
ĠIns gesamt
ĠSch lieÃŁ
ĠIn halte
Ġ4 2
ĠMin er
Ġgleichnam igen
n icht
ĠD aher
ab teilung
end a
onn e
Ġeinge fÃ¼hrt
un a
Ġm sg
is Entry
tr oller
Ġh Ã¤tten
ĠSt urm
Ã¤m lich
ĠSÃ¼d osten
ĠDist rikt
isEntry Enabled
d auer
h men
ei ge
Ġl ern
ri b
ĠĊĊ ĠĊ
ĠMaÃŁ nahmen
z in
scha ffen
ĠBundes republik
Ġar ray
Ad d
ĠEm il
ĠBund est
ock et
ĠÃľber setzung
Ġunterschied liche
ĠGeist licher
Ġgebild et
T op
l or
ĠK os
Ġger ing
it es
ann ter
get Type
ĠBr es
čĊ čĊĠĠĠĠĠĠĠ
tre ffen
Besch reibung
v ed
ĠB an
Ġt Ã¶
ĠFilm s
E ishockeyspieler
Ġm ust
ĠU kra
ĠKon gress
ĠS ym
Ġv is
ĠK ath
ti ere
ĠR ap
ĠCh icago
gesch Ã¤ft
ĠBest e
il s
aus schuss
Ġges ellschaft
Ġober en
fre und
s ur
st edt
ĠB ord
ul es
ĠHe ft
Ġd or
Ġw riter
ĠV iol
Ġbeg onnen
Group Name
ĠJournal ist
t yp
Ġm ensch
Ġletz ter
Ġentwick eln
ĠWeltkrieg s
Welt meisterschaft
Aug ust
Ġrech ten
Ġmein em
Ġop ti
i ro
Ġ app
Ġm el
ti z
Ġsch reiben
Ġber ichtet
Ġ ueber
ĠB ett
ol o
ĠT Ã¼b
ĠR od
Ġan hand
lei s
stit ution
ĠGeg ner
t au
sph Ã¤re
ĠTenn is
B ar
B et
k Ã¼nd
t ml
ie fen
st Ã¤tten
Ġg eist
ĠFrei zeit
p ass
ort s
iz ieren
Ġ3 7
wer den
sicht lich
ĠSonn e
k op
Ã º
D ef
R oot
k ammer
st eiger
Ġw eist
ĠD eck
ĠD ialog
Ã¶ die
Ġc onnection
Un ternehmen
Ġersch einen
f ind
i tem
k urr
ĠS ymbol
le ut
Ġauf gelÃ¶st
th or
value Of
E Class
c ia
k unst
ĠK rieges
Ġver sehen
Ġ190 9
ĠÃ¼b rigen
ĠAngel es
b oolean
Ġs ech
Ġlin ken
Ġexist iert
Ġstr ing
" ));
Ċ ĊĠĠĠĠĠĠĠĠĠĠĠĠĠĠĠĠĠĠĠ
Ġp sych
ĠAn frage
Ã¼s sen
ĠAutom obil
D AP
ann er
ĠStr ecken
Ġab geb
En g
ite inander
ĠBet eil
Ġgemeins amen
ĠG lauben
ĠF Ã¼nf
ob by
ĠLeop old
l Ã¤nge
ei tern
ĠV ik
ĠEben e
ĠH orn
ĠH erkunft
arb urg
y e
ĠL eiden
ĠEn glisch
her ren
Ġber uf
Ã¼t ze
ikan ischer
Ġ190 4
ĠKan ada
O K
ĠS us
ĠD ata
ĠM ethoden
ol ogen
Ġf eier
ĠNeu bau
Ġ189 0
Ġreg istr
m Ã¼hle
ar ray
at in
Ġin stall
ĠK aff
ach bar
Ġh ast
ĠHer bert
o ks
t al
Ġp ubl
kret Ã¤r
L age
P T
Ġ one
ĠB ass
qu ery
ill on
- )
Ġn utz
ol s
ĠAn s
ĠfÃ¼hr ten
ĠBereich en
ĠBÃ¼ hnen
hei mer
ch ten
em e
wei ht
Ġgew Ã¤hr
State ment
ĠFernse hen
htt p
i ode
Ġd ank
ri an
ĠUn abhÃ¤ng
enn e
ĠMar ien
lei hung
fÃ¼hr ten
Ġs e
ĠF le
ug in
Ġab gerufen
S ec
W ind
st eigen
gen Ã¶ss
Ġ19 15
ick e
ĠInternational en
ĠGed anken
ĠB ibliothek
Ġn Ã¤mlich
nis sen
ĠFrie den
Ã Ĺ
at alog
Ġn um
The ater
Ġrel igi
ĠAcadem y
b aus
Ġk o
Ġan gesehen
Ġt ask
Er st
ĠPart y
-------- --------
S yn
k u
ĠJ on
ĠPro jekte
ĠnÃ¤ch ste
ĠWo iwod
Ġw achsen
Ġdurch schnitt
Ġtr ug
ĠKomm ission
ĠKamer a
; ;
ĠM io
Ġl esen
war n
bew egung
geord net
ĠQualif ikation
w ischen
ir d
Ġent ity
ĠAuf ent
Ġerh oben
man agement
ĠFot ograf
fÃ¤h igkeit
Ġmodern e
z um
Ġpar ams
co ver
ennt nisse
ĠSchn ell
m ethod
ĠM und
iel ler
ĠSch ach
Ġlie f
ĠMÃ¼n ch
P lan
Ã¼ cht
Ã¤ ÃŁ
ĠM auer
Ġk auf
af e
Ġ190 2
ĠGener ation
U M
Ġv ierten
ĠR uf
ul i
Ġro t
ĠDon au
ĠGesprÃ¤ ch
al ys
ĠE ind
ĠEr schein
ks h
ek tiv
ĠBundes liga
umen ten
Ġscha ffen
ab elle
aus gabe
200 1
Ġâ ļŃ
Ġhistor ische
ĠAustr al
B i
et ch
ĠG h
ĠSte phan
Ġ q
Ġ2 50
uss ion
vers orgung
int on
rÃ¼ st
alis at
C reate
Ġm Ã¤nn
ĠL aw
Ġver gangenen
âĢľ ).
id ae
ĠEin richtung
ren nen
Par ser
At tributes
ĠPlan ung
spl atz
H ost
it ies
se qu
im ple
ĠStr and
ĠFor st
ĠRei hen
ĠFlug zeug
ĠKomb ination
ĠG ang
Ġer l
Ġc ache
ĠMod el
ĠHelm ut
ĠA st
ĠF o
tr an
ĠOber st
er ung
ĠF Ã¤h
ĠL iv
ĠL ove
Ġon ly
ĠWe ge
klus ive
p end
ĠN och
sert ation
P attern
ei ert
ig ungen
Ġstell vertreten
Ġoffiz iell
m or
Ġl eider
eu ten
Er ster
ĠerklÃ¤r te
Ġentst eht
ĠPor trÃ¤t
S egment
Ġn orweg
Ġer laubt
Ġer mÃ¶glichen
St ud
Sch riften
prÃ¼ ft
u elle
z one
Ġs ign
ĠE ur
Ġf e
ĠT ode
ĠEng agement
V is
g i
ĠR ost
op en
Ġdenn och
Ġtats Ã¤chlich
ĠL exikon
Ġh eader
In s
ĠKon s
Ġsel ber
Inter face
c ount
j ew
ar tige
em burg
ob j
ĠSti mm
Ã¨ re
ĠpersÃ¶n lichen
s in
Ġs amm
ĠM is
ĠW eimar
ĠV an
ohn t
ser ver
Ġum ben
Pro ject
Ġ190 3
f rom
st eine
ĠO ffen
Ġp os
Ġbesonder en
on ien
mod ell
k ern
r Ã¼cken
op ul
Ġab ger
ĠAss ociation
Ġkur zen
B o
a wa
et he
ĠW M
ĠZ eu
Ġunter sch
ĠLand tags
sb aden
leg ten
equals IgnoreCase
emin ar
ĠG ymnasium
ĠVer anstaltung
gel eitet
Ġen dete
Ġnah men
ĠGrÃ¼n der
wor ten
ĠGest altung
Ġchines ischen
Ġ19 16
Ġver p
Ġbes itzen
Ġne ed
ĠParam eter
w ith
ĠB ert
ĠHer stellung
Ġunterschied lich
histor iker
D u
F inal
b lock
p ost
ein s
Ġange legt
ĠErw achsen
B ody
ol z
zen e
ov a
ma schine
Ġverb esser
ĠM Ã¶n
il ien
ĠSp aÃŁ
mann s
M en
y c
ar in
Ġb uild
ĠW Ã¼r
men sion
up date
setz te
icher ungs
ĠBenutz er
H aupt
ar ia
ĠP rag
ĠL it
Ġschw ier
C ommand
v m
ĠT ru
hal ter
ĠLand schafts
akt oren
P refix
V ariable
on ial
ĠH ockey
ĠEr l
Ġ4 4
Ġerh ielten
ĠBeg r
ĠBew ert
ĠBed ingungen
if ic
ss on
Ġber ufen
str om
ĠSchl uss
ĠWeihn achts
A uth
Ġs orgen
ĠM au
ĠAb itur
gesch lagen
ĠBew eg
part ner
k as
n t
ĠK Ã¶
ĠP ok
il a
ber eit
ĠJ ed
ĠSp itzen
ĠMon ument
ĠFakult Ã¤t
h eil
or fen
Ġver legt
Ġt au
Ġgen ug
ograph ische
Ġd eine
ĠN ow
eh e
ĠÃ Ĺ
fÃ¼hr te
alen der
ĠTer min
ĠComp any
ertif icate
K o
t Ã¼mer
č Ċĉĉĉĉ
iz iner
we ge
ĠBahn strecke
Ġend lich
Ġengl ischer
b reak
ur l
Ã¤n k
Ġ5 5
ĠZu schauer
denk male
haf ten
ĠPreuÃŁ en
Warn ings
) {
reu de
ĠZw eck
Ġnahe zu
ĠSchwer punkt
ĠCD U
ĠBayer ischen
st Ã¼cke
de u
im um
Ġre f
ĠTelef on
n y
Ġb ild
ĠW in
ĠN eb
Ġver kehr
eite ten
ais s
mus iker
ĠIns eln
has Next
mitt lung
200 3
cl ub
G en
ĠF la
ĠC ode
Ġl ernen
Ġum geben
ĠBr asil
deut sche
ĠPublik um
A uÃŁ
Ġb ase
ĠO der
Ġj ob
iz ierten
ĠFÃ¤l len
P olitik
it tel
ĠKon rad
wir kungen
ĠKranken haus
F ran
M use
M essages
d is
ĠV iew
Ġvor aus
ĠWill i
ĠOrd nung
B ad
l eiten
ĠK amp
ab end
In ternal
Ġman chmal
ĠGesch ichten
ĠBau werk
geh Ã¶r
Ġform at
ĠMatth ias
" ).
B Ã¼rger
D aten
W ork
ar kt
ĠP ie
ĠStr e
Er folge
ĠQu elle
ĠBe ob
g u
ell o
ĠEr folge
ĠUn fall
ĠX ML
ĠPartei en
ĠInstit ute
ĠAktiv itÃ¤ten
Ã ĥ
as on
ap t
ĠSm art
R ange
un s
at i
Ã¼r en
steh ung
ĠBy te
g reifen
ur es
Ġf ahren
ĠJ ud
sp rechen
ges sen
Hand lung
ĠAngeb ote
ĠJust iz
H o
z ell
ĠL eute
eb ook
ĠVer gangen
Ã¤r t
Ġsp richt
ĠFor um
ĠHash Map
B undle
c oding
em ed
Ġbet rach
trÃ¤ gen
Ġreich t
ĠKarls ruhe
R ed
ĠS oll
ĠD ol
ĠG au
ĠV it
ĠZ erst
ĠEin heiten
Ch annel
ĠIs rael
ĠFil me
vir on
ich tigt
Ġel f
ĠgrÃ¶ÃŁ er
ĠIntern al
ĠOrg an
ĠOper ation
m essage
ĠL en
ĠZ ivil
Ġun er
ĠBevÃ¶lker ungs
ĠKomp osition
Supp ress
d irektor
al tete
lie s
Ġzum indest
ĠGr enzen
ĠAuf lÃ¶sung
ĠEnt fern
urop a
lig isten
ĠStel lung
z iger
ĠP u
get Id
Ġ189 9
lehr e
ĠUntersuch ungen
Ġeinzeln e
i Äĩ
w ettbewerb
el ine
ĠK athol
ail able
Ġor der
ĠHeraus geber
ĠTÃ¼b ingen
L ast
al th
ap el
ĠÃ¼ber nehmen
ĠHor st
ĠKontr olle
ĠprÃ¤sen tiert
Mill is
g ung
h u
p rÃ¤sident
Ġn umber
ĠT Ã¶ch
ver anstaltung
ĠOr tes
ĠBez iehung
scheid et
read y
ĠSam stag
Kl asse
Polit iker
ol t
ĠT au
ĠmÃ¶glich st
rÃ¤n kt
u age
Ġs Ã¤m
Ġl Ã¤uft
br ingen
ĠÃ¶ff entliche
ĠBrit ish
Pf alz
E hr
w itz
ĠK Ã¼n
ĠAn forderungen
Ã¼n den
ĠPro z
Ġbel g
lowak ei
ĠRelig ion
f ft
ĠS P
ĠS of
ur i
ir urg
Ġl Ã¤ng
hard t
Ġstar ken
ĠTrain ing
te uer
ar io
Ġst ream
ĠKon zer
ĠGroÃŁ e
Org anisation
leut nant
D ist
K urz
ĠA ktu
ĠDie ter
Ġc l
ĠEn s
teil ungen
Ġbeg innen
) ");
k om
k Ã¼rz
ĠP re
ĠL eich
zie ht
ĠPap ier
W as
ĠU RL
ĠÃ¶sterreich ische
ĠSib Tr
C A
at ing
ĠSch aden
ĠNeu en
tif ication
ĠDan eben
ĠschÃ¶n e
ĠT raum
ist ischer
Ġp hil
ĠAm ster
Ġautomat isch
B erg
ĠM isch
il de
Ġun gefÃ¤hr
Ġsp rechen
ĠÃ¤lte ste
M ich
am at
Ġn Ã¤her
Ã¶ tz
ĠR aj
eg al
ĠAn trag
ger ichts
ĠEr ich
In nen
ĠBl au
ĠIngen ieur
ĠD omin
Ġp f
Id s
ĠGer Ã¤te
ĠRe aktion
gor ithm
el a
ĠP as
ak a
ĠHaus es
hin dern
B ack
k arten
m sg
n um
w uchs
Å Ł
ĠEin sch
od urch
ĠGer ichts
schlieÃŁ en
ĠProf il
krieg s
Ġm iteinander
Ġp re
sb ez
ĠDaten schutz
Ġp ri
ĠStr ate
ĠPort ug
ĠtÃ¤ glich
Serv let
Ġbekomm t
D S
F rei
st um
Ġm aÃŁ
ĠH Ã¶ch
Ġbest ritt
ĠGes ang
ĠEx empl
Ġgelegen en
ĠWoiwod schaft
Å ¾
ĠM ach
ĠT rÃ¤ger
ĠL ine
Ġp osition
ĠSp iegel
ĠWie sbaden
Ġn Ã¶
ind ing
ĠThe ologie
ĠGegen wart
ĠImm obilien
Ġsw itch
b indung
m es
n es
o e
Ġb ar
ĠP reise
ĠT ipp
ĠSp itze
Ġet abl
Ġnational en
en gl
ĠW egen
ĠR ett
ĠSch reib
Ġ3 9
Ġzwei mal
ĠGel egen
streck en
maÃŁ nahmen
ĠS mith
Ġf ein
ran ge
elt a
ĠMar ke
ekt ar
Ġitalien ische
Ġus w
c ul
| |
ra in
lin der
anz ig
ĠSong s
W h
w ell
ĠS oph
ĠF inn
ĠN ap
ĠAr ts
ĠMar ken
Ġbet rieb
unds Ã¤tz
J an
S ehenswÃ¼rdigkeiten
ĠC amb
wei st
ug o
ord net
Ġbef ore
At om
> <
H aus
f arbe
ra te
Ġsp ort
oun ter
Ġho her
ĠGre en
m inton
Ġw odurch
Ġs ho
ĠJ a
ert al
id s
br and
tiv ity
Ġfrei en
ĊĠĠĠĠĠĠĠĠĠĠĠĠĠĠĠĠĠĠĠĠĠĠĠĠĠĠĠĠĠĠĠĠĠĠĠĠĠĠĠĠ ĠĠĠĠĠĠĠĠĠĠĠĠĠĠĠĠ
Suppress Warnings
or age
ĠSp ec
art h
ĠJuli us
Ġ189 5
Ġ187 0
Ġerz Ã¤hlt
usÃ¤tz lich
ĠChem ie
Ġnotwend ig
B as
D ar
on ische
ĠL ake
ĠC all
ĠU fer
ĠFÃ¼r sten
unter richt
Ġor iginal
ĠSan kt
ĠLauf bahn
Ġunter en
ite ktur
Ġgemeins ame
Ġzunehmen d
N LS
p ers
t arget
und ert
ĠD ef
ahr t
gr enzen
ĠPl atten
ix el
Field s
gra f
V ar
b und
ĠM r
ĠM icro
le bt
ĠL or
Ġl iter
Ġ6 4
schlÃ¤ ge
Ã¼ gt
ĠL inz
us sen
se d
ger Ã¤t
ard o
ĠzurÃ¼ck ge
Ġkathol ischen
ĠVergangen heit
B eg
E C
Ġ Ã¶stlichen
ĠVer dienst
ech ten
ett o
Ġ190 1
Jo hann
v ollen
Å Ħ
Ñ Ĥ
ĠR icht
lo h
ĠBer icht
aff el
ĠSchiff e
ĠkÃ¶nn ten
Ġexec ute
K n
k Ã¶rper
Ġz er
ĠL etz
ĠL abel
ĠRath aus
ĠS Ã¶hne
ĠB Ã¤nde
se y
sh aus
Ġverschieden er
ĠWeiter en
ĠUntersuch ung
aliforn ien
Ġw Ã¼n
ĠP red
lie d
Die ser
ĠBe am
ĠInd ien
ĠBÃ¼ hne
ĠrÃ¶m ischen
ĠSant a
as ien
acht ung
Ġda ÃŁ
ĠEm p
ĠBew ohner
viron ment
P re
ĠS au
ungs ver
ĠStra ÃŁ
Ġver urs
En um
200 2
Ġt otal
Ġp rev
ĠBer atung
icher heit
reg ister
ĠverfÃ¼g bar
ar ina
ĠB re
Ġp o
Ġtechn ischen
l v
in ia
ĠF ell
sp f
ial e
St at
Ġeigen es
ĠFrei heit
ĠÂ ·
ĠInstit ution
etr ic
Chr ist
emb le
ĠBrÃ¼ der
d own
m ag
r iss
Ġst at
ĠR am
ĠN ight
ad or
all er
pl atte
Ġ4 7
ĠThe orie
ĠLe der
Ġ189 6
cri be
Ġor ien
al em
ĠE ast
ĠT sch
ĠEin richtungen
Un able
ĠWir ken
osit ory
Ì Ī
sch ungen
Ã¤ b
ĠK e
ĠL ipp
Ġ// $
ĠGer Ã¤t
Ġ189 8
ĠEigen schaften
c lu
ei de
ĠR ay
ra ys
ĠWelt meisterschaft
Ġmod el
Ġd iff
ĠS ak
Ġver ur
hen tic
utz ung
ma il
S A
s With
Ġs orgt
Ġst Ã¤d
Sch w
ĠOb wohl
Ġwich tigen
dentif ier
ĠNationalsozial ismus
ĠBres lau
ĠA ster
Ġver hindern
ĠGeb urts
ĠTab elle
Europ ameister
ĠSeb astian
. _
st ab
ĠM ond
il ber
ĠN eum
ĠGemein der
Ġeinz igar
ĠGra z
ĠFir st
lÃ¤nd ischen
ĠAnt wort
ĠOffiz ier
Ġgar an
Ġzie ht
ĠD ampf
re gel
Ġzu stÃ¤ndig
() ).
reg isseur
zie hung
ĠBur gen
Ã¤dag oge
**** ****
ĠChampion ship
os a
ĠUn sere
ĠMar y
itÃ¤t s
Element s
ĠAs ien
Ð¾ Ð
vier tel
L iter
ĠA achen
Ġan gew
Ġbis lang
ĠKl im
ĠGemein schaft
ĠGes icht
Ġpar allel
Ġkon zentr
Ġ188 0
Spiel er
m ung
St yle
ont o
sb ruck
echs elt
ĠWind ows
fÃ¼r st
ĠInstr ument
M ath
S PD
f els
h et
k unden
ĠE arl
ĠW ag
Ġver geben
Ġstark e
ĠSÃ¤nger in
zÃ¤hl ung
ĠM assen
sp ez
Ġc al
ĠNach richt
res ponse
deck ung
Ġgest altet
ĠBus iness
Ġjapan ischen
ĠCa stell
gram me
S ign
w riter
ĠB itte
ĠT ats
ĠIn g
Ġsch rift
Ġtr ifft
ER R
Kir che
Ġumben annt
h es
ĠA R
ĠM obil
est en
ĠIn tel
ok ument
sh ausen
Ġwe der
Ġsho uld
b raun
aj a
Ġn atur
stru ctor
ĠObserv able
A ccount
d ner
p ommern
it o
Ġtr af
ĠFall s
P ri
ei he
ĠP anzer
Ġt ag
ĠAus bau
inder t
ĠQu er
ĠBef ehl
stechn ik
I M
W ert
ĠW urz
ĠL ust
Ġauf gebaut
Ġwir kt
ĠÃ¼ber w
Ġausge fÃ¼hrt
ĠMed ia
Ġgegr Ã¼ndeten
Ġzie hen
C olor
ĠT w
ĠW aren
ir n
ĊĠĠĠĠĠĠĠĠ ĊĠĠĠĠĠĠĠ
ĠDes halb
Ser ie
M eister
ĠH Ã¼gel
Ġent schieden
Ġur kund
Ab sol
ĠzusÃ¤tz liche
ĠMein ung
M eta
S eine
Ġ Ã¼
er ten
Ġv ari
he d
ĠAn f
ĠAn th
res ent
zeich nen
eig h
ĠBron ze
N r
N ov
f arben
h off
Ġw ork
par ent
me er
ition en
ĠGesch lech
ĠQu adrat
ĠIs lam
Ġâ Ī
Ġmittel alter
ĠEing ang
Ġpriv aten
L a
z ung
ĠK ais
ter e
is ation
Ġer zeugt
ĠV f
Ġ4 1
bed ingungen
send ung
akte ur
ĠInfanter ie
< >(
f ac
Ġm et
arb eitete
iert es
wir kung
Ã¶m isch
ĠKap itel
ĠViel zahl
imil ian
au ten
ĠK eller
ied elt
ĠLehr e
Ġbeh andelt
Ġversuch te
Ġser ver
Ġverpflich tet
ĠDarm stadt
t ums
ur ren
ĠFran ken
ĠGef ahr
Ġklass ischen
W rapper
st aben
Ġf ung
ĠV ar
ĠZ un
ess in
Ġunter halb
ĠOr chester
Ġdar aus
ĠRo ten
ĠBo ok
Ġreg ul
ĠStim me
Ġland wirtschaft
K W
Ġun ge
Reg ion
Kir chen
Ġerforder lich
Ġeb enda
Ġ6 00
ĠGeb rauch
st Ã¤nden
ĠE h
Ġe ff
ĠVerb esser
Ã¤mpf er
ĠDat um
ĠB ier
Ġf allen
Ġt oken
verein s
P an
a it
r ennfahrer
t x
Ñ ģ
Ġl es
Ġbesch reibt
Ġteil s
ĠKomm and
Ġben achbar
cle ar
Ġerinn ert
Ġ iter
st ock
ĠM ut
il i
Ġsch ot
asser t
ĠStud ie
Ġklein ere
ĠAmster dam
in ken
al m
ĠAug sburg
ĠRe de
ix ed
ĠNutz er
index Of
ĠDÃ¤n emark
ĠL ib
Ġer gibt
ak u
Ã¶r ungen
so ap
ĠEd el
log ger
umm ern
isp lay
ĠbestÃ¤ tigt
G o
or ten
ĠK rie
land es
ĠLebens mittel
Ġby tes
ĠstÃ¤r ker
Mat rix
Ã ł
ch est
ĠP en
lie ger
Ġsp Ã¤t
ĠBr enn
ĠTÃ¶ch ter
Ġr uh
Ġhervor ra
Stra ÃŁe
er ber
Ġauf gestellt
her steller
ĠMa y
ĠMill iar
verband es
ĠBesonder s
ĠjÃ¼d ischen
N um
ir es
ĠSt unde
Ġsch reibt
ĠTh is
D an
W il
p ul
ch ip
ĠH ig
ĠC our
ib il
Ġre ag
gesch windigkeit
Ã¶rder ung
V I
Z E
Ã¤ ure
ĠM Ã¼hl
ĠL ern
ak en
gr Ã¶ÃŁe
ĠAd am
ĠmÃ¶glich erweise
tim eter
Sc ope
ĠOp ern
sei tig
Ġd ef
ĠB os
Ġb ayer
ĠD et
Ã¶ t
ap h
ess ern
vers icherung
Ġgew Ã¼n
T itel
Ġab zu
pl atten
mit glieder
Ġsozial en
ĠMeer es
Ġport ugies
kurr enz
E M
ĠB ull
est amp
ĠAus nahme
ev ice
ĠFl Ã¤chen
ĠkÃ¶n ne
Ġseit dem
ĠRei sen
Ġspez iell
m and
ĠMil ch
m auer
iz ierung
Ġwel chem
ĠflieÃŁ t
D e
E P
b an
p ap
Ġl auf
ĠFl ag
ĠMus een
Ġen glisch
hand lung
ĠHa ft
k urs
ol i
ĠKl ub
ĠKÃ¶nig in
199 9
Ġangegeben en
zuf Ã¼hren
ĠP C
ier end
ĠIn itiative
Ġwir ken
Ġj ahr
tern e
Ġ189 3
ĠFig uren
ĠArn old
O C
i y
Ġs inn
ĠA ff
om ain
Ġr un
ĠBestand teil
v as
Ġd ate
Ġb it
ĠM ethod
de hn
Ġzu geordnet
ĠWelt krieges
Ġbr asilian
ĠInd ividu
ĠFer tig
.:.: .:.:
d y
ar o
Ġan t
Ġver n
ige m
p ool
ĠB ell
ĠP rak
Ġf inn
bo den
B eim
F ranz
h old
sch irm
ĠP ath
Ã¶ gel
ĠI dent
ab t
rÃ¤ f
ay a
Ġex tr
ĠUm setzung
ĠSer ien
ĠKÃ¼ sten
â Ĥ¬
ĠFrank furter
l Ã¤r
in ten
ĠP ian
ahl en
Ġein geb
ĠK ob
ĠH as
In stitut
ĠMan fred
Ġbisher igen
ĠSzen e
l ein
Ġd elete
st ift
und et
de burg
Ã¶ z
eh lt
ri pt
zen ten
fen ster
werk en
ĠJuni oren
ĠMuseum s
k in
Ã¼ che
ĠH y
rei strÃ¤ger
Ġsol chen
Ġbedeuten d
c opy
Ġau ÃŁen
ier er
Ġbe zeichnete
ĠGr aben
ĠSchw ier
199 8
ĠEd ward
ĠKo ordin
ĠBesitz er
F ried
on i
ut sch
ing u
la in
res sen
ĠPer sp
F alls
Ã¤ fer
ab et
Ġan genommen
ĠAus einander
ĠSchn eider
ĠMark us
ĠJes u
ĠBronz emed
f alt
m as
ber icht
Ġaus zu
ub il
Ġ18 48
Ġzwei ter
ack er
Ã¤mpf e
ĠKommun al
ĠTa schen
ĠCas ino
ĠParlament s
ĠEntwick lungs
C urrent
ĠT hread
tr ich
um in
Ġh Ã¶ren
Ã¼r zt
Ġk ombin
geb irge
olog ischer
upp orted
ĠInd ian
V ol
l Ã¶
Ġein iger
ĠGroÃŁ herzog
hÃ¤lt nisse
Jahr en
kn Ã¼
ĠStÃ¤d ten
s ource
ĠM uster
ĠSt Ã¤r
Ġc or
Ġc annot
onn ect
form ationen
gesch lecht
zÃ¼ glich
leb nis
ĠMathemat ik
n i
Ġd ro
st re
Ġs ymbol
le te
sp ace
ak ademie
ex it
Ġsp ann
pf l
ĠBet reu
ĠWerk en
ĠFr eitag
ĠInn sbruck
W E
Ġb raucht
ĠK ub
ĠH em
ĠT ob
lass ung
ĠFl ucht
Jahr e
Des cription
Ġspez ial
Ġpoln ischen
D ialog
N e
at om
ĠM ord
de gang
ĠO pp
ĠVor stand
min ist
Fe ature
c ape
n itten
ei ern
ĠD VD
ĠP DF
ĠAuf nahmen
ĠWieder auf
ĠSek unden
Q U
d ung
h Ã¤ndler
ĠB ob
ĠD iff
ĠD inge
Ġf Ã¼n
ĠVer mÃ¶gen
Ex p
IN T
Ġeinge tragen
orben en
199 6
ĠEpis ode
Ap i
P air
c al
ĠS eg
et on
ĠE ugen
ĠO z
Ġpro perties
ĠGem Ã¤lde
' );
B ew
ĠD B
ĠM ode
ver zeichnis
ĠEr ste
fahr ts
ĠBo ot
ĠÃľber sicht
Not Null
b ahnen
on st
ĠS ender
ĠP ast
ĠIn frastruktur
ĠAr men
be am
Ã¤ch er
olog isch
ĠBesch Ã¤f
Ġbestehen den
B el
] [
lich em
Ġg rau
ĠZ oll
Ġber Ã¼cks
ĠGeb iete
tt ps
jahr es
ĠAp ost
Ġoffiz iellen
D i
Ġs epar
ĠD ire
ĠL eb
Ġex trem
Pl atz
s an
ar rei
ĠAr r
inz ip
ĠFahr er
Ã³ w
ĠAng st
F iles
f ranzÃ¶s
r uss
ch te
ĠP od
tr ies
ĠAr thur
Un d
ĠÃĦ gyp
Film ografie
ĠAbgeord neten
È Ļ
ĠT onnen
us en
ĠKab in
ĠLok omo
u ay
ich ert
ĠB ade
ĠK ardinal
Ġn ominiert
ach ed
ĠEin kauf
Ġparam eters
F ahr
S um
j ob
ĠD ownload
age d
ĠKon struktion
bo ard
ĠGew erk
F re
M Ã¤rz
k amp
v es
ei r
al om
sch wer
ĠR ub
Ġ4 6
Qu eue
ĠBar on
char At
el en
ent s
ger Ã¤te
off set
ĠRes ult
ĠIll ustr
K ompon
a illen
m ond
ĠP oten
Ġver Ã¤ndert
Ġ18 50
if ication
Ar b
ĠRu h
Ber eits
ĠRegen sburg
ĠÃ¤lter en
Ġerwar tet
Ġbetrach tet
\ \
ar g
ĠR ie
ĠR umÃ¤n
ĠVer fassung
ges prochen
Ġverb indet
hol m
ĠLÃ¼ beck
ĠOx ford
F ailed
Ġb ot
Ã¤r ten
ĠFl Ã¼cht
Ġgr undsÃ¤tz
sw ald
Ġheraus gegeben
ĠFernseh serie
ĠDipl om
ĠS QL
ĠM ah
is ieren
ann i
ĠSt an
aus bildung
Ġbes aÃŁ
schn itts
Ges ellschaft
h ler
Â ³
Ã¶n e
Einz el
sta aten
ĠBru st
rÃ¤sent anten
k Ã¼ste
ĠG anz
ĠG olf
re ht
on ia
ĠJ etzt
ed y
os law
ĠHer zen
reuÃŁ en
Ġph ys
em pf
ĠW is
Ġh ell
ĠN ah
est e
Pro cess
ĠAlex and
Ġwissenschaft lichen
A v
or ph
Ġv iew
Ġl atein
Ġcon vert
Ġ189 2
val ues
ffiz ien
DE FAULT
ĠerhÃ¤lt lich
ĠNic ol
ĠD ub
ĠM ech
ĠM oment
em an
ĠT u
sp lan
An halt
Sch ema
til ler
upp e
ĠMo tiv
mo sphÃ¤re
S cript
S equence
Ċ Ċĉĉĉ
ĠW it
rit or
teil s
Ġviel fÃ¤l
ĠPol y
Ġ188 5
ĠDis sertation
Ġfre und
ĠjÃ¼n g
P ersÃ¶n
el emen
Ġein schlieÃŁlich
ĠW Ã¼n
ĠL ev
ĠSch le
Ġ4 3
Ġange zeigt
gehÃ¶ rigen
C P
v ol
at tr
Ġ1 10
ĠK il
ĠC ir
Ġzu g
ĠWei b
ĠBeh Ã¶rden
aiss ance
c z
ĠF abrik
he ber
ĠAn alyse
Qu alif
mar sch
Ã¤ng nis
ĠMod elle
anc en
ĠStaat sb
ĠD ial
ĠK un
ĠZ iele
ex p
ĠMar gar
sk a
fang s
ĠMich el
ĠKÃ¶l ner
ĠAnton io
Dat ei
ĠerhÃ¶ ht
c olumn
ein heit
Ã¼ te
ĠL iber
ĠSt att
ot ograf
ĠAus zeichnung
Not Found
L en
ĠR ab
ro id
ĠAus gang
Ã¼t t
iat eilnehmer
Ġlo ad
ĠBened ikt
b or
Ġd ist
st atus
ĠB io
ed ule
ĠReg ionen
ĠFran Ã§
ator s
199 0
ĠProf ess
K rit
y an
ch or
in str
ĠL ife
ak i
fahr zeug
check ed
bed ingt
ĠAllt ag
chip karte
P ost
un nen
ĠM eyer
Ġein zu
ol ver
ĠW ell
ĠStr eam
ĠGr Ã¼ndungs
ĠAuf tr
Ġhand le
ĠunabhÃ¤ng ig
ĠThÃ¼r ingen
Ġn ennt
ĠBi ograph
ĠKolle gen
/ *
ĠD iv
ĠM essage
ol and
ĠP oint
Ġc le
Ġ18 60
Ġvor gestellt
gr ab
erk ennung
ĠÃľ b
ĠEnt wurf
ore a
ĠNor wegen
App lication
č ĊĠĠĠĠĠĠĠĠĠĠĠĠĠĠĠĠĠĠĠĠĠĠĠ
ĠG ame
ir chen
Ġge tragen
ĠAf rika
Ġjem and
k ow
in ne
Ġb lieben
ĠH rsg
Ġden k
ri z
ĠEin s
Ġent schied
lei der
trag ung
ĠRo h
ct ure
Ġwissenschaft liche
) ).
ĠA re
if y
Con stra
ĠChe ck
ande ur
Ġverf asste
Ġperf ekt
ĠEdu ard
m ine
Ġf lie
qu elle
Ġ4 9
ip edia
ator ium
Ġaufge fÃ¼hrt
ĠInternational e
ĠJos Ã©
ĠCamb ridge
z lich
sch ten
Ġb ist
as ing
Ġn am
ĠL ew
ĠN omin
ig ur
ĠC at
Ġ/ >
ip al
Ġbeg leitet
ommer z
ĠCon tent
Ġrich tige
ĠBarb ara
w h
ĠV irg
ĠJ ungen
ig an
ĠAn dr
Ġbe ziehungs
ĊĠĠĠĠĠĠĠĠĠĠĠĠĠĠĠĠ Ġ
ĠAt hen
ĠSk ulpt
ĠKo operation
Ġparam eter
Pol icy
A F
S pr
b it
ge tr
ĠW upp
ir ch
our s
Ġdunk el
ĠGriechen land
R echts
g as
o y
ĠB em
ĠM esse
ĠE ishockeyspieler
us k
ĠV Ã¶lker
Ġan y
ÃŁ ig
Ġver anst
ver lÃ¤ss
Ġeinz igen
riff e
ĠpersÃ¶n lich
b egr
Ġs u
ent in
Ġwar um
ĠkÃ¶n ig
ĠFac ebook
Ġbeziehungs weise
ĠS ens
et enz
wei ler
ĠVer w
im eter
ĠPro j
Ġ5 1
Trans action
G raph
ĠF icus
Pro xy
ive au
ĠKÃ¼ ste
ĠGed ichte
ĠMaterial ien
ĠPier re
ĠAmate ur
ĠMÃ¼nch ner
e ff
v in
ĠS T
Ã¤ udes
ĠB am
Ġc opy
ĠAl li
ste te
Ġbas iert
ĠTown ship
Ġunter scheiden
sprech er
National mannschaft
M apping
v oke
Ġf arb
ĠH ow
Ġg Ã¼l
etz ten
Ġa ction
Ġpro p
Ġlang sam
ĠMark eting
t urm
ĠD ra
ĠK redit
ph ase
val u
ĠCo ok
Ġschwer en
ĠGleich zeitig
ĠKÃ¼n ste
B oot
S H
S ein
f ir
s Ã¤nger
ĠB it
ĠM d
Ġer lang
ĠI d
Ġp age
la c
ĠNational mannschaft
verkehr s
ĊĠĠĠĠĠĠĠĠĠĠĠĠĠĠĠĠĠĠĠĠĠĠĠĠĠĠĠĠĠĠĠĠ ĠĠĠĠĠĠĠ
ĠVerbr eitung
Ġbein hal
rup ted
r un
ĠS ud
ĠV I
ĠMit gliedern
hof en
ĠGef angen
Ġklein es
ĠTab ellen
O M
ĠG reg
Ġf rem
ĠSie ben
ĠOr ten
State Exception
Reg iment
sprÃ¼ che
Ġb uf
Ġb auen
ĠJ ena
Ġim age
atur es
ĠUnivers itÃ¤ten
ĠFrei en
B uch
Ġb ack
Ġk g
Ġle ft
Ġ8 00
Ġch em
ĠMann heim
ĠGeschÃ¤fts fÃ¼hrer
Ġamer ikanische
T est
t op
ĠB ase
ĠH ugo
ĠZ ell
Ġc lose
Ã¤nder te
ĠMittel punkt
z o
ti r
re h
ra xis
Ġsp anischen
ieb el
wohn er
ĠMik ro
D DR
ĠK am
Ġtr eten
Ġhier bei
fig uration
ĠNew s
rÃ¼st ung
M ulti
is ierten
ĠR ess
stell ig
tet t
mÃ¤ÃŁ ige
Reg istry
ĠAlt ar
Ġruss ischer
D ATA
m ie
Ġn ennen
ĠN ation
ĠEr Ã¶ffnung
Ġander es
Ġbes etzt
ĠUm gang
Al t
ĠBes etzung
low en
Ġrech te
D C
b ody
Ã¼ mm
ĠD ich
Ġer mittelt
ĠVer eine
ĠBundes ver
ĠPf arrei
ĠEurop as
out h
Ġpl atz
ontin u
C ar
F amilie
J ose
ĠJ ones
ĠO tt
ĠSt ates
ĠAn bieter
Ġc lazz
Ġj son
Ġunter wegs
ek or
An merkungen
ĠPf ad
ĠNieder lage
ĠStel l
ĠRu hr
ĠBed Ã¼rf
bes itz
Ġkomp lex
. /
Ã «
Ġd is
um b
Ġj ung
igh ts
ĠSchriftsteller in
AG E
E le
L ayout
O B
c s
ĠF unk
ĠT ak
Ġr oman
Ġ189 4
ĠKr ist
Ġmax im
ĠErk rank
C ap
v ater
ĠK ost
end o
Ã¶r g
bau en
Ġges und
Un sere
ĠGrund stÃ¼ck
ĠWei ÃŁen
use eland
Ġ187 1
ĠTechn ologie
ĠTem pel
ĠRund funk
ĠUkra ine
ĠMilliar den
ĠBronzemed aille
r ingen
isch Ã¶
amp le
Ġengl ische
Ġgetr ennt
Ġdeutschsprach igen
M W
ĠA ction
ĠD etails
Ġein s
Ġf ach
ĠL ast
get Property
Ġsch Ã¶nen
yp t
geb ieten
rau chen
Ġend et
P I
p at
on ald
ĠK alk
ĠK alifornien
ĠL ag
Ġim pl
ĠZ it
ot os
geb nis
Ġtr ain
Ġ189 7
ĠAt om
Land kreis
ĠDipl omat
Ass ign
B en
X ml
p lay
Ġb ut
ent wick
Ġab gesch
Ġsp Ã¤ten
Key s
med izin
Mus iker
H inter
ĠCh ance
imm ungen
start sWith
ĠInn ov
Ġerstreck t
ĠL ein
ĠC lient
Ġzu folge
qu alitÃ¤t
lo ud
Ġget Ã¶
for scher
ÃŃ a
ĠMet al
ĠGi pfel
Dec lar
ĊĠĠĠĠĠĠĠĠĠĠĠĠĠĠĠĠĠĠĠĠ ĉ
S ettings
r amm
te sten
ĠR iesen
Ġg olden
ĠO d
ĠZ y
ĠAn gabe
Ġbe auftrag
ĠEurop ean
Ġ188 8
gÃ¤n glich
Ġorganis iert
M ilitÃ¤r
our cen
ĠBundes staat
ĠBot schafter
Ġvertr at
Ġrequ ired
L AN
f ekt
w el
in ischen
at tet
ĠL amp
ĠVer wand
Ġbe endet
ĠSp eicher
ang es
ĠLu c
ĠGrund lagen
way s
Dire ctory
B ez
T eil
U ri
ĠM Ã©
em it
ĠT it
ĠKon zep
iss ement
def ault
Olymp iateilnehmer
h Ã¼ter
p asst
Ġh ttps
ĠZ usÃ¤tzlich
Ġst ru
li as
ĠBel gien
ĠPrinz ip
frie den
ĠVide os
B it
r ein
ach ter
ĠC am
Ġan gen
ag a
Con trol
olle y
ĠBl umen
ategor y
ĠVerÃ¶ffentlich ungen
D A
H ein
w ner
} ,
ĠB och
ĠP ower
Ġl eist
bar er
Ġoffiz ielle
Schwei z
Non Null
Ġdisk u
ĠAnh Ã¤nger
M em
ow itsch
ĠEin z
Ġat tribute
ĠVarian te
K unst
ĠH eb
ĠJ ava
Ġg ern
ver teid
geb lich
ok ens
teil te
ost on
Ġbesch Ã¤d
Ġtrotz dem
Sti ftung
I l
c tr
ie ht
Ġm er
Ġp orn
Ã¼ck t
bau te
be cken
ĠSk i
199 7
Ġoffen en
ĠÃ¤lte sten
Ġstattf inden
VAL UE
A bst
T A
ĠK Ã¶n
Ġn on
Ġzu kÃ¼nf
ĠGr amm
ĠUnter schied
pro f
ma ÃŁen
199 3
forder t
ko hol
> )
in it
au ert
se g
Ġo ver
ĠKon f
ingen ieur
ĠTour ismus
Ġdo es
ĠAlb recht
ĠKrim inal
Ġin nen
ĠL am
sp olitik
ĠFl eisch
br onn
Mod ule
ĠÅ ł
O st
R eturn
g riffen
r olle
Ġw echseln
Ġi l
Ġbesch lossen
ĠFr ucht
eier mark
ĠSoc ial
stant in
fÃ¶rm ig
M Ã¼n
Ã¤ ck
im ir
Ġsch uf
igen t
ĠVers and
ĠHistor y
E Mail
K arl
Ã¤ fte
ĠVer zeichnis
Ġr ight
ĠSie gen
ĠFranz isk
ĠBrow n
st ar
ig ger
Ġver ab
Ġver teid
Ġle hr
IT Y
ĠFrie dens
ĠF ro
ĠP ul
ĠW en
Ġsch Ã¼tzen
sk on
ĠHoch zeit
Sie g
schn itte
ĠFahr t
ĠGegen d
ĠHalb finale
ĠLab or
ĠRestau rant
( _
B B
ĠK Ã¶r
ĠL egen
Pro gramm
urs or
ĠWahl kreis
ĠProduktion s
ped ition
ĠEpis oden
ĠS av
te am
Ġv ar
ĠP riv
Ġge Ã¤ndert
wei ÃŁ
ĠKomm ando
ĠForm at
Ġnational e
abil ity
kap elle
c ause
d h
x ml
z n
ĠA x
Ġ( ;
ĠL och
Ġver boten
Ġ" /
ĠÃ ł
ĠRo hr
Ġ188 9
produ zent
Ġfre ie
dat um
Ġeinf ache
Ġkanad ischer
F L
L ang
S u
ĠB at
Ġge legt
Ġsch eiter
af ft
az if
ĠReg iment
Ġgr enzt
Ġverl etzt
ĠGott fried
N atur
ĠF ar
ĠP rim
ĠT eu
ent um
eb urg
Ġst ill
ĠÃ¼ber sch
ĠMan ager
Ġ189 1
Ġgest alten
Ġwich tiger
C or
m ont
el or
et ung
Ġf uhr
ĠVer k
etz te
zeit ung
Ġar g
ĠursprÃ¼n glichen
Ġbau te
K an
Ð º
Ġin fo
In ternational
ĠAb stand
pl ication
Ġhin ein
ĠBest ell
rep lace
vertr eter
S ow
b uffer
Ġ test
ĠK linik
ĠW inkel
sp ur
In sel
pro jekt
for mer
stra ÃŁen
Ġspiel ten
ĠPolitiker in
ĠBern d
Ġumf asste
Ġtechn ische
ĠA gr
ĠP ed
ĠW Ã¼rttemberg
ĠN ull
est and
eh end
eich ern
get Instance
)) );
on str
Ġein deu
ok us
form ance
con stants
' ,
I F
k re
r ession
Ġn ames
Ã¶ tt
Ġp reis
ver ter
ĠVer z
Ġnach hal
Ġ5 2
ĠMag deburg
bereich e
tisch es
Ġruss ische
ĠQ ue
Ġdor tigen
4 00
K inder
j an
es p
au te
ĠF F
Ġan geschlossen
ri min
ĠBest er
ĠÃĦn derungen
ĠRost ock
NotFound Exception
k al
eil er
ath on
ĠNieder l
Ġgegr Ã¼ndete
Time out
ĠDort mund
ĠÃĦr zte
ĠAutob ahn
ing ung
get T
spr uchs
Ġverst arb
f euer
m ain
t l
ol ve
ast rop
ĠRef er
ĠHÃ¶ch st
m ess
n abr
ĠP enn
is a
ĠV ari
ĠHam mer
ĠFÃ¼hr er
Ġgriech ischen
ĠMÃ¶ bel
ĠStre et
Z wischen
ie ber
ĠH Ã¶l
ro ot
ĠĊ Ġ
od a
Ġbest ell
wa ffen
ĠMo der
ĠNieder Ã¶sterreich
gn or
ĠOrganis ationen
ĠErweiter ung
S QL
ĠG ames
ĠH ey
ĠH arr
Ã¼r tel
Ġal tern
ver hÃ¤ltnis
Ġ" ,
ĠAd ler
ĠOber flÃ¤che
asse d
ĠTra g
lehn t
Ġrich tigen
ĠpreuÃŁ ischen
X ML
g round
h art
n chen
t w
Ġ est
ĠW ork
Ġ20 22
ik i
ĠSt au
St ar
Ġfor der
ĠRo ute
Ġunser es
ĠGÃ¼n ter
- /
Ġal ready
ra gen
est ern
sp reis
Ġ15 00
ĠVerein igung
Ġbegann en
AN CE
ĠAlt stadt
Ġinn ov
P C
P hil
sch i
Ġge fallen
ĠUn ser
ĠGesch mack
ĠGes am
ĠUm bau
licher weise
u ellen
ĠE N
ĠR io
ĠZ Ã¼ge
he dr
hof er
199 1
ordin ate
ĠLOG GER
Ehemal ige
P eter
U s
b al
m eter
sen der
sp unkt
wir t
sicht s
V ector
d elete
n ap
w Ã¤hnung
ĠP ots
Ġge zogen
ĠPf licht
wor fen
Ġpromov iert
nabr Ã¼ck
l itz
o ÃŁen
ĠB iele
Ġg ros
ĠAn wesen
ĠAl p
ĠInform ations
weis ung
yd ro
em als
Ġ( ),
ĠE ishockey
wei ten
Ã¶ff net
ĠRes earch
Ġgesp eichert
Ġzentr alen
Ġtradition ellen
Ġposit iv
N E
c omm
f irst
ch ern
te g
ĠH ay
ĠR et
gel s
ob el
Ġgen ieÃŁen
ĠOb last
ĠBil dern
Ġsicht bar
c an
d ist
l im
t oken
ĠB rie
ĠE uch
ĠAn zei
Ġbef Ã¶rdert
jÃ¤hr iger
angeb ot
ĠKrank heit
b ett
m otor
t ask
ie bt
ĠAus fÃ¼hrung
Ġpro blem
OR T
ĠTa geb
sprech end
Ġverbr achte
r ic
ĠS ynchron
ĠM aur
ĠT herapie
ĠN ick
ay ern
zeit schrift
CD U
J Ã¤hr
l iteratur
Ġ Ã¶rt
or men
at ische
Ġm ulti
ĠE ier
ĠR av
if est
eck t
ĠY o
ĠHand lung
Ġeh e
ĠVen edig
H e
k ul
is m
ĠMon te
Ġkon troll
ĠFel ix
ĠpersÃ¶n liche
. ).
m lich
Ġan schlieÃŁ
rat es
Ġteil nehmen
Ġerw orben
Ġsozial e
ĠFrancis co
abgeord neter
ĠBrasil ien
T hrowable
ĠP ow
ĠV il
Ġum ge
auf nahme
ĠAus stattung
20 20
ĠNach wuchs
Ġges ucht
zeug ung
Ġbeh aup
Ġ186 7
Ġversuch en
ĠGest alt
ĠDrehbuch autor
e ber
en se
sb urger
folg ung
ilom etern
ĠhÃ¶her en
M ai
in us
Ġd oc
ĠR equest
Ġh a
ra p
Ġp opul
ĠâĢ ¢
Ġst eigen
rau t
ĠRegel n
besch reibung
Ġscha ff
ĠBrem er
O F
S uch
ĠS aar
ĠN R
ĠZ er
Ġst arten
ief el
unn ing
Ġjapan ischer
Ġverkauf te
ServiceResponse Async
Ġunbek annt
K Ã¶nig
ar tigen
Ġw idth
Ġin spir
ĠK ul
ĠF reude
ĠP el
ĠP ack
gen ossen
ĠL em
Ġh ieÃŁ
eh Ã¶r
Ġverl Ã¤nger
ĠForm el
ĠSa al
ĠMehr heit
Ġwes halb
Com parator
ĠEntfern ung
F est
k w
v ard
reich er
Ã¤ch t
ĠInstitut s
Ġerr ichtete
W ei
m y
r oll
t able
ĠS ir
ĠS auer
Ġb raun
ĠO ster
Ã¼t ter
En de
Ġbeg eist
ST R
199 4
ĠTer r
ĠAbgeord neter
Ġans Ã¤ss
ĠVerÃ¤nder ungen
> ()
P O
U B
Ġd ok
ĠM u
ĠK Ã¼nst
ĠN erv
ĠC oll
ĠVer fassungs
ĠÃ¼ber setzt
Ġvor ge
Str ate
ges ellschaften
ĠWerk statt
Ġ188 6
Ġexist ieren
Ġlau tet
gehÃ¶ rige
Frank reich
ĠR untimeException
sp itze
ĠSp itz
ang o
ĠNeu stadt
Ġ188 7
mÃ¤ÃŁ igen
Ġhil ft
J ava
ĠB Ã¼r
ĠD ec
ĠH agen
ĠC ont
op Ã¤d
Ġj ur
ĠAl te
ug oslaw
Die ses
Ġbes uchen
Ġres p
bild ungen
Ġverst ehen
ĠWh ite
p c
ĠR Ã¶m
ĠVer f
iz ont
ner stag
Ġ+ +
ĠReg ister
Ġges prochen
ĠFahr rad
Ġaktiv en
M aler
l it
l ings
ĠS ache
Ġm Ã¼ndet
ĠO ver
Ġaus fÃ¼hr
Ġst atus
wer ten
ma jor
itt le
setz er
Ġzeit genÃ¶ss
ĠIr land
ĠDenn och
Muse um
ERR OR
Ġd Ã¼n
Ġ( ).
ĠG ouverneur
ĠN et
Ġ5 3
ĠMin ute
sprÃ¼n glich
prÃ¼ fung
Header s
Ġkor re
ĠSend ung
T er
sch rank
ĠK en
ĠGemein sam
yn ast
ĠspÃ¤ter e
riter ien
J ugend
ĠM arburg
Ġf Ã¶r
ĠL at
ĠJ son
Ġo st
ungs gebiet
ĠMa jor
mal en
ond issement
ĠAd d
Ġgeb lieben
199 5
Ġchar akter
o ire
Â ®
Pro zent
199 2
ĠRu he
Ġnord Ã¶stlich
ĠniederlÃ¤nd ischer
Ġeinf achen
ĠPortug al
i Ã³n
ĠF ootball
ĠAn lass
ĠUm fang
Eng ine
Jan uar
B ran
n eu
s z
an ie
al o
au g
ĠB utton
Ġin it
ĠL atein
ap i
Ġvor wiegend
Ġent h
ĠCh am
ant eil
Ġeigen er
Ġfrei will
Ġverur teilt
lÃ¤r ung
ĠĠ Ċ
Ġv oller
ĠP seud
isch t
ĠL angen
ĠV el
ĠZ ub
get String
ĠEin en
Ex tension
ial izer
Ġle hn
ĠHil fs
Log ger
ĠAward s
Ġallgemein en
ĠPfer de
ĠMail and
S ingle
ĠF ilter
ti ver
ĠH ex
ĠMet rop
ĠKloster s
ĠAben teuer
LO W
Ã¤dagog ik
ĠK y
ĠH T
ĠN am
ig in
Ã¼t ten
gew inn
ĠLe e
ele ase
ĠHerr n
ĠZug riff
Ġbestehen de
frist ig
ĠAllgemein en
Ä «
ĠĠĠĠĠĠĠĠ ĠĠĠ
ĠH ess
ĠVer arbeitung
ot yp
ĠOr der
Ġber ech
amer a
ĠGroÃŁ teil
AC T
J apan
R Ã¶misch
Ġ assert
Ã¼ re
ĠD afÃ¼r
ĠP ir
Ġp assed
ick er
of en
ĠOption al
ĠModern e
ĠVort eil
Ġheil igen
Ġd omin
ĠM att
ĠK ohl
ĠT oten
ĠL evel
og t
ĠBet on
ĠSe en
komm t
zus etzen
ĠZus atz
or fer
Ã¼ cher
Ġw Ã¤hlen
âĢ ¯
iv als
ĠPl Ã¤tze
With ServiceResponseAsync
ĠgrundsÃ¤tz lich
M ember
Ġs earch
ĠD irekt
ĠM inder
ĠF antas
tr op
Ġp attern
ĠEr wer
im ation
id o
ĠMar s
li ver
ĠBl Ã¤tter
198 9
Produ ktion
b ibliothek
r al
st oÃŁ
ĠS A
ĠT rieb
ĠL as
Ġl ei
ĠVer stÃ¤nd
men ge
ĠEr ster
ĠEr richtung
ĠBau ch
ĠGeb iets
Ġgesch Ã¼tzt
uck et
ĠBed arf
Ġgelegen e
ĠWissenschaft ler
ĠhÃ¶ here
ĠergÃ¤n zt
D is
L auf
W or
d ire
w s
or es
ĠH ektar
se kretÃ¤r
ĠSch atten
Ġl aufen
Ġp asst
Ġvor ber
auf nahmen
ĠBr uch
Ã¼nd nis
ĠEnt stehung
Ġverb essern
legen heiten
Ġkommen den
ĠGi ov
i ques
an ke
ĠB in
ĠD etail
ĠG n
Ã¶ scht
ul f
Ġauf treten
ĠZ ehn
Ġaus reich
ot ter
ot oren
âĢľ -
od ox
Ġdurch aus
sb ed
Er gebnisse
ĠMont ag
ĠKu gel
Ġmittler en
Ġgl Ã¼ck
M ain
R uss
s ession
ĠS upp
ĠA fr
der e
Ġk ennt
Ġp oint
ĠIm age
Ġmehr erer
af r
Ġspez if
ĠAutor in
ĠLÃ¶ wen
Ġzentr ale
AB LE
Ġbeinhal tet
ĠgetÃ¶ tet
S l
st on
ĠL ande
Ġt hen
Ġt mp
ĠUm feld
EN D
ĠFra ktion
druck t
Ġgeboren e
Cal endar
G E
d ing
ar isch
Ġer geben
ĠI ran
ĠC le
Ġst ren
Wil helm
R S
b Ã¶
ind ungs
opp elt
fÃ¤l lig
Ġdefin iert
dar steller
C up
D est
F OR
H eute
J uli
ĠR oss
ĠN ie
Ġzu gÃ¤nglich
Ġnach gewiesen
Ġlie b
ĠSo zi
Ġ8 5
strahl ung
Ġprof it
R ezep
au thor
ĠP S
ĠW art
tr im
end el
ĠMit tler
Pro cessor
Ġgetr offen
ĠArr ondissement
P RE
ei ra
Ġan sonsten
ru e
ens ion
pro cess
Res ources
ĠDar aufhin
AR T
Ġvorhanden en
Ġempf ehlen
ĠVerl ust
ĠverstÃ¤r kt
F B
ĠN ationen
Ġk om
ĠSch ild
ĠSch icks
Ġsch ied
Str u
Ġ5 6
Ġle gen
add All
ĠBe at
Ġklein eren
Ġgelegen tlich
ĠIllegal StateException
ĠDenkmal schutz
un es
Ġn annte
ol ph
Ġgleich e
iden z
Ġoffen bar
ĠExper ten
ĠmÃ¶ glichen
Ġlok alen
W R
ĠB om
Ġb reite
ĠH av
ĠSt Ã¼cke
ett a
Ġher um
so ft
ĠHoch schul
lauf en
ĠVerlag s
Ġwei sen
Ġ187 9
ĠMag azin
ĠCol or
omet ry
k ov
or ity
ĠD unk
em ie
ĠSte u
Ã¤u den
ĠPol iz
ĠAk tien
ĠBar ock
ĠHotel s
Ġhal b
B ef
L ie
R ock
g roÃŁ
ĠB ein
Ġi dentif
Ġan f
ĠSch ott
Ġsch wei
19 18
stell ers
ob ald
ĠBr Ã¼cken
ett ing
ĠGeb ieten
bo ok
Ġgel b
ĠLie bl
ĠPhys ik
Ġs or
is st
ion e
Ġt hr
ĠSp Ã¤t
geb oren
ĠAt mosphÃ¤re
ĠBereich e
bÃ¼rger meister
Ġdok umen
M ehr
M art
P ers
z ellen
ĠM eg
Ġin klusive
ĠG att
Ġk Ã¶rper
ĠSch lei
ĠAl les
org anis
Ġ< /
geh oben
Ġdi verse
ĠKomment ar
C ommerce
g ard
u en
v iel
ĠS he
Ġk re
Ġk Ã¼nst
ver lauf
ger t
ass au
aus s
ĠRes ource
scheid ung
Ġschwer e
ĠGraf schaft
Ġtem p
A pril
M ag
Ġ Ã¤ndern
ei be
Ġdar um
Ġbet r
hau se
ĠGrÃ¼n en
Film schauspieler
ĠMaler ei
system e
ĠKant ons
ĠOs nabrÃ¼ck
ĠWehr macht
prÃ¤sen z
Ġf rau
Ġc ol
Ġab hÃ¤ng
ite kt
ĠTer ror
ĠTex as
ĠRek ord
jen igen
BevÃ¶lker ungs
O W
c us
ä ¸
on te
ĠM uss
Ġz Ã¤hlte
ĠL Ã¶sungen
Ġh um
ĠC ent
Ġent deck
[] )
Ġwei ÃŁen
Ġ188 2
ĠMor itz
ĠTre ffen
Digit alisat
ĠClau d
ĠK ino
ĠG ab
ĠN az
uf er
pro perty
ĠKunst stoff
arm on
Ġdi ver
SE T
Ġlist ener
ĠHin weise
Ã¼st et
ĠendgÃ¼l tig
ie ck
st em
Ġaus drÃ¼ck
ĠVor bild
Ã¤nd ige
ĠsÃ¼d Ã¶stlich
ĠRechts anwalt
ĠVerantwort ung
I A
p re
z ut
Ġer folgen
ip e
Ġoption s
ur er
ĠD ay
ĠH ild
ach s
ĠSch Ã¤den
Ġst ation
LA SS
Ġ orden
sch ef
Ġer stellen
ĠSch aff
ĠâĢ Ķ
eich e
âĢľ ),
ph a
fl ow
ha i
ĠWahl en
Gener ator
lad ung
OD O
( ...
N odes
Ġw eb
Ġst abil
ungs mittel
ek tiven
ĠVor stands
bach er
Ġgel ungen
Ã¤tz ung
Ġzeit weise
Ġschwed ischen
k ar
Ġm e
ĠE ch
Ġk Ã¼rz
Ar t
Ġerfolg reichen
ĠNieder lande
ĠsÃ¼d westlich
Ġschn eller
ĠKron e
spann ung
ĠBab y
Erster wÃ¤hnung
E t
I dentifier
Ġg ro
ul er
ak es
ĠBer ge
lei ben
ĠChr on
ĠTechn ischen
Ġnord westlich
stud ium
ĠHoff mann
ĠBist um
m Ã¤ch
s ign
Î ¿
un sten
le ute
le bte
ro y
Ġl eitet
Ġnach fol
ĠKon zentr
ĠIhr es
ĠBuch staben
ĠschlieÃŁ t
ĠLes er
agn ost
ĠPrÃ¼ f
gefÃ¼ gt
L INE
T ags
Î ±
ch ange
Ã¼ se
etz ungen
Ġbe qu
aus o
ĠAr me
hl t
ĠAus zeichnungen
verb indung
ĠFest ung
ĠEinwohner zahl
ĠKategor ien
D ezember
r eit
in f
ĠG abr
ĠF ans
ĠR ats
ĠN ote
wei ch
ĠAl ben
sh ot
ĠHand werk
istr ation
ĠBrun nen
ĠTipp s
in stitut
as i
ĠF ehl
ig uren
ĠC onn
icht lich
Ġj o
ĠNach folge
Ġdar stellt
wir d
ĠOl d
ĠCorn el
f ailed
ĠD rag
ol en
Ġver setzt
Ġp refix
Ġbe zieht
In itial
Ġum s
if er
ĠVor stellung
eck ar
Ġgr und
ĠBl ues
ĠWelt meister
Ġviel er
Ġ187 4
ĠAu ge
ĠEt hn
ĠAmts zeit
ĠIter ator
tiller ie
f loat
Ã ª
ĠF red
Ġ} ;
ath an
atÃ¼r lich
ĠAmer ika
ĠKompon isten
ĠHir sch
ĠHit ler
Ġdur fte
ĠWag ner
ĠKais ers
W asser
u an
ĠB ac
Ġf Ã¼hl
ĠL izenz
Ġtr aten
Ġbest anden
minister iums
aktion en
Nov ember
a schen
b eu
f rÃ¼
ĠB oston
Ġh undert
ĠIn stall
ĠGesch windigkeit
ĠVertr ieb
ĠerÃ¶ff nete
ĠAnder e
ĠGlock en
ĠTschech ien
BevÃ¶lkerungs entwicklung
T L
k at
ar ed
ĠE th
Ġk Ã¼nf
ĠAn erkennung
arb eitern
me te
Ġ' "
jahr en
Ġsol cher
Gr und
Ġtem plate
V A
l at
ĠA gent
ĠH Ã¼
Ġal ter
alt ar
stan bul
ĠWelt meisterschaften
ĠSpr ing
ĠNe useeland
ĠschlieÃŁ en
## ##
g reg
n g
Ã¤ use
ĠR ail
ĠC anad
sen s
br ig
ĠZu cker
out put
Ġerrich ten
Ġkathol ische
Ġpass iert
ĠDrit tel
ĠBasket ball
B S
U I
ĠV ir
ĠSt ich
lie der
rau cher
ĠMotor rad
ĠHum an
ĠPrÃ¼ fung
Ġintens iv
ĠFÃ¤h igkeiten
Ġstellvertreten der
T our
o h
hr op
ĠF assung
ĠZ auber
ern ame
mer k
ĠSh op
T erm
Z wei
h ten
sch reiben
ĠB atter
Ġzu frieden
ri ver
Ġvor ne
Ġent lassen
if ier
Un ser
Ġhin ten
lu ft
193 3
Ġ reichen
it alien
ĠD ynam
ĠN u
Ġauf zu
Ġsch lecht
Ġbef ind
ĠFor ce
wir k
Ġgel angen
198 0
ĠJugend liche
tic ast
ĠWeib chen
M O
ĠL ord
ul iert
Ġc omponent
ĠOr chest
ĠKon serv
ĠRo se
Ġkur zer
ĠAust ausch
ĠOz ean
. ",
ĠG a
ail ure
Ġher unter
ĠAd resse
Ã¼nst ige
forder ung
ĠOs car
deutsch land
strahl t
g in
ĠB Ã¶r
ĠK Z
ri p
ĠBet reiber
Wir d
ĠIntern ets
ĠInf os
P al
b ein
es heim
Ġs end
Ġh ost
Ġg uter
rei ft
Ġt here
Ġsch m
Ġ188 4
193 8
Ġlern te
I E
K ap
ĠD ollar
ĠK Ã¤r
ro ck
qu al
ĠWochen ende
hoch schule
ĠGelegen heit
A k
d oc
r ight
Ä Ł
en kt
un checked
ar tig
ĠB ulgar
am i
ĠJ enn
ver k
ĠGemeinde gebiet
ĠKont in
ĠSzen en
& #
M er
ein heiten
Ġs econd
os se
amm ern
Null able
wor tet
herr schaft
ĠKauf mann
Wer degang
ĠK Ã¼r
ik at
ĠAuf l
ĠSpiel tag
Ã¤tz t
Ġbew usst
ĠSystem s
ektr um
haupt stadt
Ġdamal ige
ĠMad rid
hentic ation
A gent
st ritten
ĠF u
ĠJahr gang
ĠAm b
ĠPort al
zust and
S earch
] )
n ieder
r n
ĠR al
re y
Ġge fertigt
Ġan fangs
ĠZ o
Ġaus gebaut
ĠAn ne
all o
ĠPh ase
Ġar ab
con tent
gesetz ten
Ġjeder zeit
ĠDo ug
fre ie
On ly
F O
Ġd eb
an ti
ĠG riff
ĠL ED
Ġaus einander
Ġst il
ĠAr ab
Ġunter sucht
ial en
Ġ5 7
Ġkon f
mod el
ĠnatÃ¼r lichen
ĠPsych ologie
ĠJes us
cel ona
clu de
K omp
O ktober
ich tigen
Ġre al
ĠAus sicht
Ġ- -
Ġdies mal
ĠBo gen
ober t
ĠPf alz
Ġspez ielle
ĠVertrag s
rÃ¤sent ation
ĠHeer es
C R
b art
n ames
s cription
ĠS achen
ĠK im
ĠT ick
ĠC ob
ĠAl so
Ġbef anden
ĠOber Ã¶sterreich
ĠHil de
ĠTre ffer
irt ual
Ġschwar zen
bro chen
Ġerwar ten
ĠCollection s
kÃ¼rz ung
l aus
l isten
Ġ ep
ĠS un
us alem
ĠVer n
ĠCh allen
ph y
Ġbes ucht
Pro jekt
Sch n
war en
eig ung
ĠTex til
J vm
c ap
Ð »
ĠA cker
Ġm y
ĠK ell
ĠEin stellung
ĠAus bildungs
ĠAb stra
St affel
Ġsow eit
Ġle gt
gend es
ĠProdu zent
Ġverw endete
Ġerf Ã¼llt
Ġ{} ",
ĠCarol ina
Ġbenachbar ten
sch reibung
ĠW under
dem okrat
ĠĊĠĊ ĠĊĠĊ
fr ont
Ġwoll ten
Ġpoln ischer
ĠÃľberg ang
ĠZen timeter
ĠWilli ams
B U
M AX
ĠG rupp
ĠH arz
ant ie
ition al
Ã¼l le
ĠWest ern
Ġerk enn
ĠNS DAP
ĠGit arr
Ġfertig gestellt
exec ute
Ã¤rt ner
/ >
8 00
g ier
{ }
ĠK reu
ĠR olf
ann a
ĠO ri
ĠSt ol
Ġ18 00
Ġpro ject
ĠFran ce
Ġgleich er
ĠFrÃ¼ hl
ĠverfÃ¼ gen
Ġfunktion iert
Ġurkund lich
C ol
M I
k ont
p al
s aison
w all
as sten
Ġf inde
ĠO h
ĠSp ir
hl on
ĠTh or
ĠArbeit geber
Ġ187 7
Loc ale
Film titel
Ġausgew Ã¤hlt
Ġabger issen
C C
C lose
G ET
S ymbol
Z one
Ġ hr
Ġt hread
Ġzwei er
Ġlie fern
An not
ĠÃľber blick
kehr t
ĠStad ion
Dec imal
ĠDokument ation
ĠRett ungs
D r
o z
w inkel
Â ´
in ing
Ġk Ã¼nd
Ġl eisten
ĠBer ech
ĠMar g
Ge ografie
verein igung
Ġnorm al
Ġwirtschaft liche
ĠZuf luss
ĠEreig nisse
ĠLeichtathlet ik
ĠBiele feld
T ran
ch ild
ĠB lo
ĠD orn
de v
ĠE ver
ĠC ard
Ã¼t tel
Ġ187 6
port al
ĠDorf es
ĠGÃ¼n ther
ĠDien ste
( @
w ein
ĠB ast
am burg
ĠF as
ĠF ab
us se
ak on
Ġgen annte
ĠWest er
uff ix
ĠSer ies
Array List
Ġconfig uration
ĠVerbesser ung
K or
k Ã¶nig
ĠP ublic
ber uf
Ġj en
ĠMa schine
ĠVor bereitung
ĠRo ad
Ġbem erk
ĠIntegr ation
P lay
f u
st offen
an alyse
ĠT unnel
Ġ" );
ĠAuf tritt
Ġpro du
ĠChrist us
Ġprak tisch
Ġtran spor
mir al
U P
c il
ei ro
Ġw eite
Ġn ow
ach se
Ġg lob
ĠFrei herr
ĠX X
ĠAstr onom
VerÃ¶ffentlich ungen
R est
ĠS ei
ar ischer
ĠE UR
Ã¶ ck
ĠC op
Ġge lesen
ik ationen
he ater
Ġst Ã¤ndig
eben e
zw ungen
lan zen
Ġbed ro
ĠCharl otte
ĠDep art
b in
d ir
m essen
n d
n oten
Ġ ehren
ĠK G
ĠH end
Ġer leben
Ġzu gelassen
ĠSch mer
Ġun bedingt
Ġwar ten
Ġ186 6
AC E
ĠFÃ¼hr ungs
ĠdÃ¼r fte
eucht ung
C onn
M a
m ach
st es
ĠD al
ĠF a
ĠR ainer
ĠUn s
ill y
len z
Ġ188 3
ĠAltern ative
vorsitzen der
ĠKÃ¼nst lern
e ed
ĠD ur
Ġt ot
ech ter
Ġvor genommen
ob jekt
bar ung
Ã¤nd igen
olog ien
ace ae
opp en
Ġ186 1
Ġreduz iert
f a
ab or
se c
Ġk irch
men s
Ġunter scheidet
ool s
Ġerfolg reiche
ĠverÃ¶ffentlich ten
part ei
ĠGal ax
Jahrhundert s
ĠLieb es
endo ktor
is er
ĠV inc
he ad
ĠIn sbesondere
lie gt
land schaft
ob ject
ĠAuf merksam
zeu ger
ĠLe o
Ġger inger
ĠursprÃ¼n gliche
Ġober halb
ĠbenÃ¶ tigen
ĠKapit Ã¤n
D ivision
V om
k B
ĠS z
ĠA kt
ĠM B
ĠM es
ĠPro perty
ĠCh urch
ant a
ph one
Ġlie ben
kl ar
ĠGe denk
Ġpl Ã¶tz
frei en
ĠÄ Į
c ore
ĠAr gentin
Ġunter gebracht
Ã¤d t
ĠSpr inger
Ġ188 1
ĠNe ur
ĠBach elor
Ġschl ug
Kompon ist
Ġd on
st eig
Ġw omit
Ġs erv
re qu
burg h
Ġlie genden
ichtig ung
Ġreg ister
ĠOlymp ische
ĠGo ethe
Group s
ĠEben so
usst sein
ĠDisk ussion
ĠfÃ¼n ften
rupted Exception
ĠGiov anni
S eptember
k olle
Ġd ocument
ĠS qu
ge legen
ĠM ang
ĠC ro
ĠEr gÃ¤n
Ġj ust
enn zeichnet
Ġ" '
ian ischen
ĠAm azon
org an
Ġex pl
ĠMon ats
ĠGef Ã¼hl
wÃ¼r d
ĠEv a
ĠRen aissance
ĠDel eg
Ġjapan ische
Ġwirtschaft lichen
Ġfeier te
n ik
v inz
at ischen
Ġein heit
ĠK ann
um l
ĠZ e
Ġbe achten
br eitung
Ã¼l lung
Ġhand ler
ĠVers orgung
Ġ187 5
spl it
ĠEben falls
ĠBek annt
ĠCentr al
verstÃ¤nd lich
M e
at iver
Ġs l
et ti
ĠK el
ist a
Ġc as
Ġc ommand
ler in
Ġ18 78
pf lanzen
ht ml
amm elt
Ġ5 4
ĠEigen tÃ¼mer
ĠErinner ung
an ik
ĠM i
ĠF alle
ĠH als
Ġaus gesch
Ġun gewÃ¶hn
ĠBei spiele
ĠOl denburg
ĠBern ard
Ġerf Ã¼llen
Ġdire kten
ĠSchlieÃŁ lich
S ER
W ien
Ã ¦
st ufe
ĠH ot
Ge org
ĠÃ¤uÃŁ erst
ĠJac ques
ĠRis iko
N OT
Â §
sch ild
ĠK ohlen
tion en
19 30
Ġall eine
193 9
ĠNikol aus
ĠWupp ertal
W ar
Z entr
y wood
ein st
Ġb reiten
ĠD J
em s
ĠSt ory
Ġbe cause
gesch Ã¼tz
ĠWir d
ĠGraf ik
ĠDo ktor
komm ission
Ġverkauf en
ĠPremier minister
h ost
s rc
Ä ĥ
Ġd rit
Ġf f
ĠW Ã¶rter
ĠO f
Ã¶l z
iden t
198 8
fÃ¤l len
Ġangeb racht
g al
v ide
sch end
ir ke
ap est
ĠSp ur
od ie
ĠCh in
ov en
schie de
str eit
Ġeinge laden
Ġbew egen
ĠWo od
ĠFreund in
spart ei
R oman
p hal
ĠR E
ĠVer sch
Ġj ener
eld et
ark e
ĠCon c
Per mission
Ġbegr enzt
Ġinform ieren
ĠGabr iel
P L
b ran
an iker
ĠH enn
ĠC ra
Ġber aten
ĠSpiel s
Ġges agt
ĠSte phen
ĠWelt cup
Ġben utz
198 6
Ġzie mlich
ĠSilber medaille
U UID
c ard
o ul
r ath
ĠM etz
Ġm ore
ĠC ross
ic i
Ġst imm
alis ieren
ĠDurch fÃ¼hrung
ĠLei b
ĠnatÃ¼r liche
Disk ografie
ĠFranÃ§ ois
Ġschaff te
ĠT ax
ĠL aden
os h
Ġzum eist
ĠSÃ¼d west
ĠGef Ã¤ngnis
ĠTem plate
Ġdire kte
ĠScien ces
ĠSum me
e get
ĠK abel
om er
ĠJ eder
ĠSch all
ĠSp uren
par ks
ĠGesch ichts
ĠÃĦ hn
ele ge
ĠBar celona
ĠWor ksh
ĠZun Ã¤chst
s ver
an ia
ĠS ehenswÃ¼rdigkeiten
ĠG od
Ġh eight
Ġan g
Ġl it
Ġre ader
br unnen
oph on
ĠDis ziplin
ĠNorm al
olumb ia
j ust
k anz
ĠT auf
ĠJ ubil
Ġl anger
ri o
ĠAn sicht
ate ll
Ġum gebaut
Ġlie fer
Ġ< <
lau be
Ġwel chen
ĠVerb indungen
lex ikon
ĠInd ust
ĠHin weis
ĠMathemat iker
Ġpromov ierte
Fried rich
J SON
Ġ append
ĠA ar
ĠM Ã¼hle
Ġk ost
ĠSt ab
ap s
Ġent f
atz e
ĠJo e
ĠBau er
amt es
ĠfÃ¼hr enden
Ġch ange
Or iginal
wohn ung
stag s
ĠMax imilian
ĠSchwar zen
Schwei zer
ĠKabin ett
ĠP ers
ĠH ert
ĠO liver
Ġver g
Ġl imit
ation Exception
ĠAus wirkungen
ĠBr ut
contains Key
ĠIdent itÃ¤t
ĠRumÃ¤n ien
C K
t licher
ch a
st atic
ĠH allen
Ġver teilt
ĠSch los
ĠJahr buch
geb iets
Ġlie ÃŁen
ĠSchw ein
ĠPh ot
ĠKrieg sende
dienst kreuz
ĠKÃ¼ chen
CO DE
mut able
ĠTir ol
L ower
S L
T ro
h Ã¤usern
v oc
Ġ ol
Ġin ne
Ġm orgen
ĠT en
and eln
az itÃ¤t
ĠPl attform
fahr ten
Ġex tra
ĠSchw anz
Ġbet reibt
Id x
ĠEx istenz
ÃŃ o
Ġ187 2
Ġpolit isch
ĠÃ¤lter e
ĠWerb ung
S uper
h s
m acher
Ġm ech
Ġm ay
Ġm ake
ĠK lin
ten nis
ĠP ion
pp ich
ĠAuf ruf
if iziert
ĠMar sch
hol en
198 5
ĠSchiff s
urnal ist
schiff e
ĠÃ¼bern immt
ĠWach stum
ĠsÃ¤m tliche
ĠNiederl anden
Ġ achten
er tet
ĠM inn
ĠW Ã¤l
ĠN at
Ġge eig
Ã¤n glich
19 29
ĠAl kohol
gr Ã¼ndung
rÃ¤ umen
ĠChr isten
Ġgesch ieht
197 4
ĠRest e
ĠMerk male
A ME
on line
Ġs itzen
ĠB la
ĠE P
ti ment
ĠL ock
ĠL ibr
hen den
Con sumer
ĠBew erb
fÃ¤h ig
ĠÃĦgyp ten
ĠAufmerksam keit
v org
st ahl
ĠM aus
Ġm achten
Ġk aiser
Ġver an
get P
sh ire
Ġ6 6
)) )
Deutsch e
ĠDienst leistungen
beh Ã¶rde
ĠUp date
national spieler
ĠTok io
ĠKonfl ik
ĠUnabhÃ¤ng igkeit
e o
an th
or um
Ã¤ le
em p
us ste
ĠC H
Ġum gesetzt
ĠAus stellungen
res p
Pro f
ĠNord amerika
ĠInter pret
Ġerreich ten
yl van
andid ate
ĠWel tr
(... )");
R un
b ist
k rank
r as
at her
Ġk ont
Ġver gessen
he ader
ser ien
scha ff
Ġa ct
ĠPro tocolMarshaller
Ġthe oret
sk irche
Ġange hÃ¶r
ĠJohann a
ĠFre unden
Ġfest ge
Ġrec ord
Ġwid mete
ĠWik ipedia
Ġbeeinfl usst
ĠM ike
ĠF it
is burg
ĠAn wendungen
all iga
rie s
Ġbef est
ĠLu zern
ĠUr teil
Ġro ten
Ġaktiv e
best and
abil itÃ¤t
Ġerweiter te
Ġstra teg
ĠKonfl ikt
ĠEns emble
v arian
č ĊĠĠĠĠĠĠĠĠ
un ken
ar tikel
at isch
ĠF ire
ĠH ome
ĠL av
ig tes
ĠJahr hund
unk er
gef angen
ĠDek an
ĠEind ruck
m ethode
Ġw hen
ĠR ow
rie den
lo ÃŁ
atur en
Ġ6 3
ĠGesch enk
Ġange passt
Ġhand elte
Auf grund
spro zess
Option al
ĠSam uel
ĠLux emburg
ĠPots dam
d lich
v ideo
en ken
or i
ĠL orenz
ĠDie trich
ĠEin er
up le
aler weise
// //
lÃ¤nd ische
Ġstamm te
ĠStad tr
beg inn
ĠlÃ¶ ste
ĠSpec ial
C ertificate
F lag
ĠS omit
sch Ã¤d
ĠK rei
ĠF res
ĠR oland
ra gt
ĠSt aub
onn a
ĠThe at
wir ken
tik a
ĠKo al
ĠInnen stadt
Dat um
Pan el
D elete
sch el
Ã¼ sten
Ġv ia
ĠA ur
ĠB uffer
ĠM ig
ĠK oll
ĠT iefe
tr ieben
Ġh Ã¤ngt
Ġ18 40
ech er
ĠBer ater
Ġ5 9
Ch ain
arch ie
ĠkÃ¶nn t
frei heit
ĠMinister prÃ¤sident
UL L
Ġposit ive
Ġintegr iert
ĠNaturschutz gebiet
ĠProm otion
X T
b Ã¤
b lau
an on
al ia
ĠR eiter
ab len
ĠC ur
Ã¤r m
Ġbel iebt
197 0
ĠPosition en
Ġindividu ell
ĠgÃ¼nst ig
ĠRaj on
! âĢľ
u v
Ġ ei
al u
Ġb undes
ĠJ ens
ĠÃ¼ber zeugt
urn e
Ġ3 000
ill ing
Ġ5 8
ĠKon ferenz
man ager
ĠGra ph
Ġgest artet
Ġ187 3
ĠDon nerstag
Ġbesser e
ĠViz ep
ĠKonzer te
B aden
S onst
ĠK Ã¼hl
Ġf ehlt
ĠL inden
ĠL ight
Ġge Ã¶ffnet
Ġhier fÃ¼r
ĠTr ink
ĠGew erbe
Ġern annte
ĠVers icherungs
ĠMeister schaften
SC O
Ġstar tet
Ã¶pf e
b uilder
i oren
sch Ã¼tzen
Ġb Ã¼rger
ĠH arry
ĠW omen
Ġre port
sk ar
ail and
wend ungs
Sp ace
Mit tel
Ġgest orben
Ġ186 4
Ġverm eiden
Item s
Ġmeisten s
ĠGesetz es
ĠSek ret
Ġklass ische
ĠHaup ts
ĠRÃ¶ mer
ĠVerteid igungs
ĠPeters burg
Ġattr aktiv
o ter
s ort
ĠR ac
eb e
ĠSt eiermark
ph ys
ĠKon text
ĠJu an
198 7
Ġ186 9
ĠEng ine
Ġop tim
Ġmittler e
ĠJer usalem
Ġoption al
ĠS ed
sch icht
ĠP etr
Ġh off
ĠJ unge
Ġan n
Ġauf merksam
19 28
ens is
geben en
ĠAd min
ĠWest falen
ĠEurop Ã¤ische
ĠAt l
ĠMag n
ĠGo od
ĠTem p
ĠCor por
Frau en
ĠTim es
ĠRob in
ĠAuss age
ĠKath arina
ĠAnzei ge
ĠabhÃ¤ng ig
J e
R ev
an dern
it is
Ġi gnor
ĠÃĸ k
ĠMin i
Data Type
ĠHier bei
Ġverwend eten
ĠStil l
fÃ¶rm ige
ĠjÃ¼d ische
ĠFrem d
Ġerlang te
S an
r iger
ĠS ul
ĠA S
ĠB R
ĠP i
re uth
ĠJ Ã¶rg
ab schluss
Ġo s
eu ern
ĠBand s
ĠUniversitÃ¤t s
OR D
aff e
ĠKat alog
On line
Med ia
Ġbekannte sten
tok oll
Ġausreich end
V ideo
Î ¹
ĠA cht
ĠG etr
ĠF ast
ĠKon kurrenz
res ources
sb et
arr ier
Ġis rael
Ã¤nger ung
ĠRep ar
ĠPat rick
ĠÃĸsterreich ischen
ĠSchm uck
Vor pommern
ĠMot to
Ä Ļ
ĠA ccess
ĠK ader
ĠG az
ĠG ieÃŁen
ĠP rix
Ġk ompon
ĠAn aly
oll ow
Ġ0 1
ĠPl Ã¤ne
ĠBl ue
zahl t
ĠHerr scher
Ġausgew iesen
ĠJack son
umin ium
ur al
ĠG il
ĠG ep
ĠP ader
ĠN ep
Ġver arbeitet
ohn e
ĠBez eich
ĠTr ier
Ġkon stru
193 4
ĠKont akte
liefer ung
ĠBeteil igung
J azz
k ind
r ufen
v ens
z usammen
ĠM eld
ĠL aus
tr olle
Ġver lei
ad i
Ġl ink
Ġt olle
Ã¼hr t
ĠAb stieg
ant es
fahr ens
Sch ule
etr ics
ĠRest aur
ĠerklÃ¤r en
valid ate
Ã¤te stens
Ġsh ort
spart ner
dor fer
tw och
u den
an ts
Ġs yn
ĠG ymnas
ĠW asch
ĠSp recher
Ġtr ocken
sh ut
gesch ichten
ĠSchw imm
ĠZwei g
trÃ¤ glich
ĠÃĸsterreich s
Ġabge st
ĠComm on
ĠFel der
Ġsof ern
M otor
ĠB ow
ĠK rÃ¼
ĠSch reiben
Ã¼n de
ate l
ĠAr g
sol e
Ġem pty
ĠBad minton
ĠMÃ¤n nern
ĠEing abe
ĠmÃ¶ gliche
ĠÃĦn derung
ĠDÃ¶r fer
ĠVerstÃ¤nd nis
E hren
H alb
te in
ĠD ein
Ġk inder
ĠÃ¼ber all
ator in
glieder ung
ĠDi Ã¶z
Ġwh ich
offiz ier
hedr ale
B E
W e
ĠS E
sch rau
ĠA qu
ĠL uther
ber ater
ĠC ru
Ġp rÃ¼
org ungs
ĠKl ang
isten ce
ĠVolks zÃ¤hlung
Ġ186 8
ĠRein hard
Ġperson en
z ert
sch ritt
Ġm ex
ĠE M
ĠR Ã¼
Ġk Ã¤mpf
Ġk ommerz
ĠO m
ĠSch u
Ġbest immen
iss ing
Ġfest gelegt
ĠFranz osen
197 6
ĠKompon enten
ĠÃ¼b lich
ĠErw Ã¤hnung
fil me
fÃ¶rm igen
No tification
ĠEvangel ischen
Ġerheb lich
elemen te
H Ã¶r
k es
z iel
en ces
Ġd t
sch wei
ar gs
ĠP res
ĠT Ã¤tig
Ġbe en
ĠAb wehr
20 21
Con troller
du ktion
ĠOrt schaften
alis ierte
ST ANCE
ĠParis er
ĠKind heit
Ġged reht
O pen
e ep
r d
Ġf u
le un
ĠT ay
ĠAn meldung
qu enz
Ġab w
Ar gs
Ġseit her
ĠQu ar
Ġger iet
ĠAt lan
cy cl
ĠKol onial
ĠniederlÃ¤nd ischen
stehen den
ĠVerteid igung
Ġwunder sch
W rite
st Ã¼r
ĠP age
ĠV ill
Ġsich ern
19 20
ĠMar in
ĠMus ical
ĠBerg bau
jahr e
AL L
sw issenschaft
Ġgelang te
ĠTrain ings
ĠHoff nung
Ãĸsterreich er
Fol der
ĠEber hard
j amin
Ġn utzt
ĠP last
ber ge
re ste
Ġge arbeitet
id es
Ġgew Ã¶hn
Ġwieder holt
ĠÃľber nahme
ĠReich es
hol ung
ĠSied lungs
ĠSchwier igkeiten
ĠfÃ¶r dern
M IN
f eier
s em
al in
Ġin folge
ĠSch Ã¤d
ĠSp enden
rÃ¤ der
Ġben annte
Ġgut es
leist et
Ġak zep
Ġindividu elle
Ġindividu ellen
ynast ie
g Ã¤ng
al teten
it ro
el be
Ġzu verlÃ¤ss
olle ctor
Ġ8 8
lÃ¤ uter
ĠFre e
Ġ> >
ĠVal id
f amilien
n ischen
ĠF I
eb au
19 14
Ã¶n t
Ċĉĉ Ċĉ
rau ff
fe ature
ĠfrÃ¼ here
ĠFer r
ĠMÃ¤n nchen
ĠMun ic
Ġengag ierte
Stack Trace
ĠKandid aten
ĠSoph ie
Ġdeb Ã¼
n ur
Ġ tim
ĠA C
ĠG Ã¶r
ĠF A
ĠC ann
ĠEr klÃ¤rung
ĠJahr est
ĠStr ei
lau ch
Ġgesch lagen
buch autor
Ã¤tig te
198 1
198 3
wÃ¼r fe
Ġeurop Ã¤ische
Le ft
Ġschwed ischer
Ġsowjet ischen
ĠRuh estand
D o
Ġ ).
er ing
is hed
ion al
Ġt oll
sp rÃ¤sident
ow itz
wa ffe
Ġkon serv
hÃ¶ hung
ĠHÃ¶he punkt
Ġerinn ern
ĠNahr ung
Ġletzt lich
G C
N icht
b ell
n ten
st isch
ĠM ans
le fon
ĠH ang
ĠV i
ĠVer handlungen
ĠEr furt
19 24
gel Ã¤nde
sh ow
ĠSystem e
com pare
ĠBel ast
198 4
ĠAlter s
ĊĠĠĠĠĠĠĠĠĠĠĠĠĠĠĠĠĠĠĠĠĠĠĠĠĠĠĠĠĠĠĠĠĠĠĠĠĠĠĠĠ ĠĠĠĠĠĠĠĠ
ĠMy th
Ġvertr ieben
Ġhol te
ĠmilitÃ¤r ischen
B us
E p
K anad
T hr
V AR
g han
h ou
ĠS eminar
Ġz ogen
ol is
urn ee
ĠVor trag
Con d
Ġgen auso
ĠOber liga
ĠGrund schule
ĠJugend lichen
196 9
ĠWahr heit
ĠDokument ar
Ġbem Ã¼
Ġumfang reiche
Bound s
ĠMiner al
Ġuntersch rieb
spez if
b il
ĠS yd
ĠH amm
ĠC olumbia
19 27
ĠBer gen
Ġel eg
ĠQu ery
ĠHo sp
ĠFre der
197 5
Ã¨ s
ĠunterstÃ¼tz te
Ġhochwer tige
ĠJahrzehn ten
ĠVik tor
ĠMicro soft
: "
Ġs um
em eister
ĠK ran
Ã¤n zer
id get
Ġdar stellen
Ġ6 2
ĠSpiel ern
ĠSchw estern
ĠzurÃ¼ck gegeben
ĠDir igent
K lass
au ft
ĠM eine
ut s
Ġge g
Ġent worfen
lo k
Ġ9 5
ĠY or
ĠPar ad
Ġur i
193 1
ĠGeneral major
ĠPass ag
Ġak adem
ĠBud apest
ĠDro gen
ĠRÃ¤ ume
Ġkauf te
3 00
C I
g asse
r Ã¶
ĠW ellen
ĠW ende
om s
Ġp rivat
19 25
ĠFran ces
Ã¼l ern
zahl ung
ĠGew Ã¤sser
ĠRu der
ĠGold medaille
Ġwichtig ste
ĠCor ps
ĠFil men
UN G
Ġgepl anten
A ktu
K ilometer
ĠB enn
ĠM ei
ĠM ov
ĠG am
ĠF els
ĠF inger
ĠH ong
ĠV ul
se kten
ĠO bst
Ġbe zÃ¼glich
ĠGr Ã¶ÃŁen
Ġ6 8
Ġ7 2
red icate
ĠÃĦ m
Welt meisterschaften
ĠBam berg
d on
Ġw Ã¤chst
ĠP osten
ĠVer leihung
ĠAn trieb
Ã¶l l
ĠMill imeter
ĠBi ografie
ĠAp othe
Ġevangel ischen
Ġstaat lichen
ĠMount ain
Ġanerk annt
ĠMari Ã¤
ylvan ia
D okument
F S
Ġi den
am o
ĠK ie
ĠVer dienste
iv es
ĠRe ad
ĠSen at
opÃ¤d ie
S ION
W ill
ĠB ut
ĠM ilit
ĠF okus
ber to
ĠI stanbul
19 42
Ġnoch mals
Ġber u
res pon
Ġeigen stÃ¤ndige
ĠProdu kten
tif act
Ġinner en
ĠGrÃ¼n de
ĠTri b
zÃ¼ g
ĠInstitution en
Hinter grund
B O
W el
Ġin tern
Ġein erseits
ĠH Ã¤nde
Ġ18 15
ers dorf
Ã© d
Ġ6 1
spieler in
Ġher e
Ġern st
Ġstell ten
ĠKreis es
Ġgem Ã¼t
196 8
ĠDok umente
ĠInner en
ĠHimmel fahrt
ĠHauptr olle
ĠYo ung
F ranzÃ¶s
b ieren
Ġin vest
ach us
ra ct
ĠVer g
Ã¤t t
Ġsp anischer
per imen
ph il
An fang
ĠUr sprung
ĠBeh inder
ĠAufent halt
ĠBewert ung
g f
y o
ĠS I
ĠV alue
ĠO R
ĠZ DF
Ġbe geg
lie derung
Ġpro tected
Ġstatt dessen
ote chn
ĠHen ri
Ġleich ter
stÃ¤r ke
ĠGemeinder at
; &#
I hr
Ġm Ã¤ch
ĠK ok
ĠG reif
ti us
ĠT an
ck et
Ġl agen
ĠVer st
19 60
Ã¶r te
ige st
ov ed
ĠGesch w
Pro p
ĠAk te
hÃ¶ fe
A tt
T C
st eile
Die s
ĠEx ec
ĠBe ach
ĠMill ion
ĠErn Ã¤hrung
ĠAss istent
ced es
ĠAsp ekte
l asse
ein richtungen
Ġin to
ĠK ompl
Ġf unction
ĠO hr
min a
ĠEx pression
ĠNord west
Ġwei ÃŁe
ĠPat ri
S til
st yle
ĠS K
Ġs upp
ĠP in
ĠH eck
Ġdes selben
ver Ã¶ffentlich
ant ast
ĠZeit schriften
Ġres ults
ari at
ĠBas il
197 7
ĠEle ctr
ĠStat istik
Ġpr int
C ell
d rom
t ax
or ter
ĠG ross
and in
ĠBer ichte
ĠSpiel klasse
Ġth an
enden cy
ĠMo z
kir ch
Ġ186 3
ĠRed aktion
Ġtrans form
Ġproduz ierte
Ġged acht
ĠDemokrat ie
Rezep tion
M ENT
Ġd b
ĠS y
ĠB ibliothe
ĠL ot
ĠSt ationen
eg er
Ġr ies
og a
ĠAl len
qu ellen
ĠPar allel
Ġschn elle
Rep ort
Ġinform iert
ĠVirg inia
J ohn
w eb
ĠB ang
Ġb rauchen
Ġh aus
Ġh ef
lich ten
ab in
ent ity
ĠIn putStream
19 19
Ġmehr mals
Ġange kÃ¼nd
ĠLe asing
Ġbr ach
Ġverl ang
Ġ186 2
lÃ¤uf e
Welt meister
entry Set
ĠBundesver dienstkreuz
l Ã¤ndern
n orm
s ylvania
Ï Ħ
Ġ ord
ar is
Ġm at
Ġf iles
ĠL ittle
Ġan b
ist et
Ġbe zogen
aus geber
19 78
Ġ18 30
ĠVor les
Ad apter
schau en
Ġrel ev
des ign
ĠPubl ish
B rite
o zi
Ð ²
or o
ber s
ĠPro ject
ĠMit twoch
gesch icht
Ġzusammen gef
ĠSpr ung
ĠGÃ¶ t
ĠElektr o
ĠKanz el
ĠNap ole
ontinu ier
ĠDoug las
D am
P AT
s ing
ð Ł
au e
ge mÃ¤ÃŁ
Ã¤ g
Ġn a
ĠW itten
ĠJ Ã¤ger
Ġum stritten
lei sten
ĠMen gen
Ġgef angen
Ġ186 5
ĠKat zen
spro gramm
ĠTest ament
Dat abase
ĠPhys iker
ĠMul ticast
ĠCoun try
PersÃ¶n lichkeiten
B eh
F rÃ¼
K Ã¼nstler
N etz
S ocket
V ari
ĠL okal
tr Ã¤ch
and el
ab schnitt
Ġk rÃ¤f
Ġl eiden
Ã¤n ke
Ġ6 7
ĠNeu es
ĠFrei will
Ġaktu elles
ĠWeiter hin
ĠHeil bronn
ĠMat rix
eta ill
ĠPrÃ¤ fekt
ĠBrig ade
Ġbild eten
nap shot
en hagen
Ġauf gel
ĠEr hebung
end ing
Ġre v
pro blem
ĠUm satz
Map per
ĠCom ic
ĠÃ¤hn liche
Ġpoln ische
Cl ub
ĠberÃ¼cks ichtigt
Ġforder te
G u
M Ã¶
T O
ĠA hm
em er
ĠG lÃ¤
Ġver grÃ¶ÃŁ
ver halten
Ġvor kommen
ĠIm pl
ĠBr Ã¼ssel
Ġgew id
Ġgef Ã¤r
Ġgef Ã¶rdert
ĠKomm andeur
Ein wohner
ĠRep ort
ĠKan al
ĠKaiser reich
lad imir
IV E
ĠKaff ee
ĠdebÃ¼ tierte
s ite
ĠA ct
ĠD ass
Ġ1 15
ĠL enn
ens ure
ĠPl us
mit tag
Ġspez iellen
Ġbedeuten de
Gener al
ĠBrun o
D enk
H S
P aul
Ġd ynam
el f
ĠG rim
ĠF ox
Ġf lex
ĠZ ech
op le
19 26
19 44
ib Package
pl ibPackage
ativ es
riter ia
ĠRef erenz
Ehr ungen
ĠnÃ¶ tig
I st
M erk
c all
g Ã¤
an ch
ei mer
ĠV orm
ĠC reate
Ġr umÃ¤n
Ġander erseits
Ġlie ber
ĠQu ell
Ġausge strahlt
ĠAll gemeine
193 7
ĠKirchen gemeinde
leist ungs
ĠBaum w
Ġcall back
lehn ung
B ek
N orm
k ette
Ġw asser
Ġs ec
et tet
ab ilit
Ġp ers
wei he
Ġbei gesetzt
zen s
ĠAus gaben
ĠMar co
ĠFl ach
tag on
stru ction
Ġoft mals
fried hof
ĠBesatz ung
ĠHig hl
ĠKoordin aten
H il
Ã¤ p
ĠF uchs
ĠJ Ã¼n
ier endes
ĠSch atz
19 23
ĠMar x
Ġ7 00
Ġausge st
deck e
ĠGed icht
bÃ¼ ro
Ġoff ens
ĠbeschÃ¤d igt
F ebruar
L P
S ol
ĠS ession
Ã¼ ÃŁe
ĠR in
ĠC el
eh er
ĠEin kommen
ex ception
ĠSie ge
ĠAb b
Ġet hn
Ġgel ingt
Ġall gemeine
197 2
Ġ185 2
ĠHar ald
ĠpreuÃŁ ischer
ĠOpp osition
M al
a int
c p
s d
in stance
Ġv ol
ĠD ick
ro ad
ĠAus schuss
ĠOr ien
ĠIm mer
ĠGeb Ã¤udes
kl assen
Ġch ron
ĠCo ver
ĠSyn ag
Wind ow
Ġpersonen bezogen
p reuÃŁen
st urm
Ã¶ ger
Ġsp anische
ĠSte ve
ĠSe gel
ĠFot ografie
anc el
Ġgaran tiert
urren cy
M sg
V O
c or
ur st
ĠA tel
ĠD own
ĠK ra
ti als
ĠL ange
tr act
il me
Ġg u
ĠO ran
wei chen
ĠRes ponse
Ġabsol ut
gesetz es
Ġausgeb ildet
ĠBesatz ungs
ĠEro ber
Kirchen gebÃ¤ude
Ġdenk mal
ĠRess ourcen
J a
ĠG on
ĠE sp
and om
Ġtr op
berg s
Ġis lam
Ġverb inden
deut scher
ins eln
196 7
ll ustr
h ar
ĠM id
ĠP av
Ġg aben
ul in
ĠSt or
ĠMit arbeitern
ok er
ph ia
imm ern
ĠSta ates
ĠEx pl
ĠChr is
ĠAd vent
ĠMittel meer
ĠBot schaft
ĠChamp ions
angeb ote
ĠFal ken
Ġren ov
steck t
C luster
F ra
G ymnasium
I O
c at
c onnection
s inn
al it
Ġw Ã¤ren
ck t
Ġl ive
Ġr u
Ġa fter
Ġunter such
ĠKon stantin
spr icht
Ġgesch ickt
ĠHaus halts
verb Ã¤nde
198 2
193 6
ĠRh yth
ĠWes entlichen
f al
h ammer
at sch
ĠD efinition
ĠF ound
is l
Ġer for
Ġo pen
ĠEn kel
Ġ0 7
tif y
Ġfort an
Ġgener ate
ĠSchne e
ĠFinn land
fir ma
B atch
E ishockey
p unkten
Ġs ur
Ġs ame
ĠW ettbew
Ġer mord
ĠJ Ã¼d
Ġver folgt
ag ing
ĠIn stanz
Ġunter lag
Ġ9 6
Sch on
Ġeinge st
ĠSol o
ĠAndre a
Ġgek ennzeichnet
ĠVerband s
ĠFass ade
ĠâĪ ŀ
Ġstru ktur
Ġscheiter te
a ft
w idth
ĠM asse
ĠM usch
Ġf ehl
ab els
ra hmen
Ġ18 49
Ġbest ehend
ans as
Ġger ingen
ĠKur fÃ¼rst
G H
H ans
or er
ĠH ed
ĠH ead
re b
ist ics
Ġt our
Ġst yle
Ã¤t tern
pl Ã¤tzen
St ation
Ġlie be
rich tet
Ġ9 9
Sch war
iss ar
ond ition
ĠauÃŁer gewÃ¶hn
itu ationen
ĠPrem iere
ĠHoll ywood
stad ion
Ġverh indert
ĠGreg or
N onn
Ä ħ
an ier
Ã¤ uÃŁ
ĠB ald
ow o
ĠHand ball
ĠLehr stuhl
klÃ¤r t
ĠApp le
ĠÃ¼bergeben en
ĠÃ¶ k
Sow jet
K ur
m Ã¤nn
r ichtete
y cle
Ġh ash
ĠC hal
Ġk ontinuier
Ġge plan
Ġan notation
Ġp oten
Ġum gew
ĠPro test
ok ol
ĠMar io
ĠKl eine
pro p
ĠNeu er
Ġ% .
Ġzahl en
ĠTre ff
ĠBischof s
ĠSen ioren
ĠKu pfer
ĠAbstra ct
ĠPader born
s sen
Ġ egal
ti a
ĠR up
ĠN ag
ĠIn haber
ĠStr eifen
ĠZeit ungen
Ġen ger
bo ot
ĠSh ir
ĠVerb raucher
by tes
196 5
ĠWal es
Ġnational sozial
Names pace
ĠHu bert
Ġpassen de
ĠThr on
ĠWÃ¤r me
ĠBeweg ungs
Abst ract
? ?
C re
T S
h Ã¼tte
r ise
an ter
ĠB anken
ĠB ibel
ĠK Ã¤
Ġ0 9
ĠAt tribut
Ã¤mpf ung
ĠBef est
Fl ug
ĠlÃ¤nger e
Final e
achus etts
ĠM ix
ĠL ob
Ġge weiht
ĠO hne
ĠZ eile
ĠSch alt
ĠSch Ã¼tzen
19 21
ĠAus stellungs
if ikation
ĠGem ark
Ġhin sichtlich
tik eln
anis mus
ĠSchul d
ĠWohn ungen
ĠBen jamin
ĠBahnhof s
ĠHan se
Ġfinanz iellen
B es
P rÃ¼
m utter
p age
Ċ ĠĠĠĠĠĠ
ent z
ĠZ war
ĠU rauff
Ġl aden
eh le
ĠEr ic
eil ung
Ġbe ziehen
19 10
ĠFl otte
ĠTyp s
Ã¤ss ern
Rel ation
ĠBetreu ung
Ã¤cht nis
S ing
m Ã¤r
at ien
el y
em pty
ĠL il
tr ee
ĠV iet
ent hal
Ġan grenzen
ĠAn k
ĠAl uminium
Ġre form
ĠMin dest
Ġbesch loss
sta ates
197 9
por ary
ĠKop enhagen
ĠRav ens
A ch
S econd
ĠA le
ĠM atch
ĠK orn
ĠT am
tr ace
re ut
Ġge kauft
ĠEr be
af eln
az ine
ĠGesch lecht
eck er
ĠAut os
ĠBundes wehr
Ġeh emals
Ġhei ÃŁen
193 5
Ġland es
ĠPrinz essin
ĠDek or
ĠVerbr eit
ĠErschein ung
N etwork
S Ã¤nger
c ache
et sch
Ġn Ã¤chst
ĠP okal
ĠH D
ĠH altung
ĠT ol
ĠR eh
ehr ung
19 00
arb rÃ¼cken
lo gen
ĠGr ill
Er zeugt
stra fe
At tr
ĠSal v
Date Time
ĠHalb insel
ĠprÃ¤sen tieren
ĠLink ed
If c
Ġdiver sen
) -
E CT
u it
ein satz
ier bar
Ġl Ã¶sen
ĠÃ¼ber zeugen
ess a
per iode
ĠSpiel film
ĠRo ger
Ġfest gestellt
ĠÃĦ l
Ġentwick elten
ategor ie
ĠJur y
ĠZust immung
Ġbayer ischen
Ġleist ungs
cycl op
B ig
ĠS yr
Ġs ql
ĠA N
ĠF aktoren
ĠP ool
ĠL aub
ĉĉ ĉ
get Field
ek ing
IN STANCE
stra te
ĠEl s
ron e
ĠOn lin
Ġresource GroupName
irurg ie
ĠNomin ierung
K ind
R eich
b undes
Ġs ingle
ich e
ĠH unde
ĠU we
Ġp ut
Ġc olor
ĠEin zugs
19 22
Ã¤l ter
ĠNach lass
stan ces
amp e
ĠSÃ¼d afrika
Ġinter pret
zÃ¼ gen
ĠFel sen
Ġus ed
ĠtÃ¼rk ischen
ĠAndr Ã©
Ġlehr te
l iger
s wert
v ey
Ġk Ã¼mm
Ġt iefer
uch er
Ġbe ant
Ġ6 9
Ġeigen tlichen
ĠSe ele
ĠChrist op
rÃ¤siden tschaft
ĠArbeit nehmer
grÃ¼n den
ĠFÃ¤l le
ĠEmpf eh
Ġfal sch
ffizien z
ĠausdrÃ¼ck lich
D omain
P at
ĠB enz
ĠK ai
ĠH Ã¤
Ġge laden
Ġst eigt
ĠĊ ĊĠ
os ite
ĠEin tr
ill es
att le
Time Millis
Ġ185 8
Ġ180 3
ĠJe ff
Ġinteress iert
ĠFlor ian
ĠstÃ¤d tischen
ĠBoch um
E ben
i ologie
m ech
ĠS amen
sch lagen
as ks
ĠD ocument
ĠF ont
ĠC hl
ĠC ost
Ġg ra
Ġt ags
Ġsie gte
Ã¤hr ungs
ev or
Ġgr atis
Ver walt
ĠNeu zeit
ĠOlymp ia
gesp ielt
T or
l ige
s ql
st reifen
st het
Ġge liefert
ĠZ wer
19 40
br Ã¼ck
agen tur
ĠHand lungs
fig uren
Sie ger
Ġbevor zu
di mension
the ater
ĠViz emeister
TI ME
ĠNav y
omet rie
gehÃ¶r igkeit
ĠEh emann
ge wer
ĠB ean
ĠD efault
ĠL ow
ig ation
Ġk r
ĠZ iegel
Ã¤l le
ata illon
man uel
ĠMed ik
fÃ¤l lt
Ġschwar ze
ĠZeich nungen
ĠSing les
ĠNR W
i op
l Ã¼ck
v ik
ĠS om
ar c
ĠB eu
ĠB usch
am ts
ĠG allen
Ġge pf
ant on
ĠVor stellungen
rÃ¤s id
ĠKinder garten
code d
Ġbew eg
ose x
ĠGel ehr
ĠWie sen
Ġ185 6
M ein
Ġs im
ĠM ie
le ft
Ġer leich
ĠN ad
Ġver haf
Ġbei der
get Path
ru der
Ġbeg rÃ¼
ĠMan uel
halt ungs
ĠReich en
By Comparator
193 2
sprach ige
ĠFreund schaft
ĠverfÃ¼ gte
ĠJer sey
ĠDemokrat ischen
ĠVort eile
ĠErzÃ¤hl ungen
Ġsorg te
ĠVictor ia
Ġerkenn bar
F low
N ummer
r in
Ġd einen
ĠP ic
ĠH ut
ĠR ektor
ĠR ÃŃo
om ie
and s
ĠSch Ã¼lern
ic z
ĠLand gericht
St a
Ġman chen
ĠPer formance
Hand le
Ġgewann en
bÃ¼ hne
Ġentst amm
ĠHei de
Ġevangel ische
aliforn ia
Ġrest aur
frie s
ĠAud io
Ġabgeb rochen
G egen
j son
in ternal
Ġm obil
ol es
ĠF aust
ĠI S
ĠN ich
Ġdem okrat
Ã¤n omen
ĠAn satz
ran ts
qu ert
if iers
Ã¤hr en
Sch utz
ĠEurop e
Ġkon zip
Ġ185 9
AC K
195 8
Sh ort
zy linder
ĠHash Set
adel phia
Ġbeob achtet
dis ziplin
Franz ose
ĠWÃ¼n sche
" ),
A lex
P Ãĸ
ĠN utzen
Ġver standen
ĠU iguren
Ġr aus
ak ten
tem peratur
ian s
mann schaften
ĠKl ar
amen te
Ġeinge weiht
schul d
omb ard
ĠTechn ische
ĠWinter spiele
euch ten
Ã¤chs ische
ĠAktion en
ĠSchlaf zimmer
================ ================
U l
g ast
Ã ī
ĠE cke
Ġer o
ro hr
ĠSch enk
Ġaus geschlossen
Ġst euer
Ġc onn
ĠSp ren
ud a
ob e
str asse
Ġeigen tliche
196 3
ĠAmer ica
ĠMer cedes
ĠAf plibPackage
Ġhinzu gefÃ¼gt
wach ung
ĠverlÃ¤nger t
U RE
h lich
r ollen
w enn
x x
} .
ar mee
Ġs auber
Ġf ull
ĠV eg
Ġk ar
Ġauf geteilt
19 12
19 46
ĠMa ÃŁe
fÃ¼hr ungen
ute te
ĠBo y
ĠSÃ¼d ost
Ã¶st liche
ĠDurch schnitt
ĠZw angs
Ġerreich bar
ĠKap ital
AN D
ĠAnd roid
ĠCl aus
ĠEntscheid ungen
Ġumfassen de
ĠCentr e
Lin ie
m os
ĠE C
ĠH at
ĠH op
ĠL A
Ġh om
ĠN etwork
19 41
our t
En coding
An gabe
spr achen
ĠWohn haus
ĠSchm etter
ĠVerl Ã¤ngerung
Ġser ial
ĠKult urg
Mich ael
Mart in
b old
n ing
s f
Ġder selben
ĠA T
ĠG ute
Ã¶ he
ber atung
Ġh art
ĠSch uss
ver kauf
ĠIn schrift
Ġsch ul
tel l
pp el
auf lÃ¶sung
ĠCh ines
tem p
ip her
ener gie
ĠPar tien
ĠTr end
Ġeinge gliedert
ĠWohn ungs
ĠDu isburg
Ġbeh err
ĠBi ographie
ĠStock holm
S eite
b le
w ender
st yp
em m
ĠDie sel
eg g
ĠAn bau
ĠAr zn
Ġvor Ã¼ber
param eter
iss ionen
ĠBet roffen
ĠRÃ¼ck tritt
ĠKo hle
rim inal
beh alten
ĠChem iker
ĠDigit al
ĠVarian ten
BÃ¼rger meister
ĠExempl are
h eben
m ol
m achen
s Ã¼d
Ġ ehr
ur ist
Ġs eiten
ĠF ett
ĠE valu
ĠP ak
Ġf eiern
ĠV II
ĠJ ord
ĠU d
gr Ã¤
ĠPl Ã¤nen
Ar tikel
ade d
Ġu kra
ĠSitz e
Ġ185 1
Ġ185 7
ehm igung
Ġkosten lose
ĠFinanz ierung
Ġpassen den
ĠWeil er
Ġfung ierte
a o
c ms
i qu
Ġb ound
Ġin kl
ĠG ul
ĠG lobal
ĠF Ã¤r
Ġl abel
Ġj eg
id ad
Ġ" +
ĠAb d
ĠPl at
Pro gress
ement s
Ġbesonder er
ĠTer ritor
go ogle
geg nung
Ġbedeutend sten
R equ
Ġd ella
ern t
ĠPro perties
ick te
ĠLand gemeinde
ĠVor arl
amm lungen
ingen d
Ver tex
ĠPart ie
ĠRei fen
zentr ums
film ung
ĠSek tion
Ġwissenschaft licher
ĊĠĠĠĠ ĊĠĠĠ
zub auen
ĠArm y
A ber
A lias
F OL
n ord
x id
es er
or ges
Ġv ierte
ĠA er
ĠD un
ĠK alender
ĠW ay
ĠL ac
Ġ" .
pf alz
ahn e
res erv
fahr ung
eid et
schl Ã¼ssel
ĠRot h
Ed ge
Ġmensch lichen
Ġmaxim ale
ĠSchicks al
O ff
P okal
Ã¤ hne
Ġm em
ĠG lei
eg ate
qu alif
ack e
Ġgew isse
Ġber echnet
ĠSo ft
Er n
ied s
Ġy ou
ĠBed ien
let on
ĠÃ¼b lichen
ĠViel falt
Ġerziel en
ĠKre bs
ĠReform ation
ĠLad y
igr ation
Ġbegeist ert
ĠZub ehÃ¶r
ĠplÃ¶tz lich
W ord
ĠK av
ĠE i
Ġf Ã¤hrt
ĠW arn
ĠI tem
Ġauf w
ic on
ĠSp ace
ĠStr eich
omm un
ĠBau ten
Un garn
sport ler
lu ste
AS K
cont ainer
B und
F ach
ich en
Ġf indest
ĠT ieren
ĠL eucht
ĠN Ã¶rd
ĠO berg
ad bach
Ġt ut
19 50
tel s
Ġunter schieden
ĠGr au
ack t
ite e
Al gorithm
Un ternehmer
Ġdrei mal
Ġverst eht
190 4
End point
Ġmon at
ĠCal c
Ġdigit alen
L ehr
b rechen
d ay
g leis
n Ã¼tz
ĠK ilometern
sp ec
ĠIm per
Con stant
Ġex pression
Ġbesch rÃ¤nkt
ĠKn ochen
ĠHil f
ook ie
ĠFranzÃ¶s isch
Ġehren amt
Nonn ull
G ra
W S
ĠA mal
ĠD M
ĠR un
Ġge leitet
Ġtr afen
ĠVor schlag
ĠBo oks
vor stand
ĠPr int
ĠRep rÃ¤sentanten
ĠGen f
Ġerf Ã¤hrt
ĠzusÃ¤tz lichen
ĠKin os
ĠGre at
ĠSamm el
Ġaustral ischen
Ġchrist lichen
ĠSym pt
ĠErwachsen en
rue ft
L uft
k inder
al i
ein kommen
am ik
Ġvon einander
ĠV ector
Ġl ux
ĠAn ders
ĠStr ahl
ac ity
Ġber ichtete
ĠLandkreis es
ĠVolks republik
tic a
190 8
ĠGraf iker
Ġmoder ner
Sel ect
ĠVoraus setzungen
Ġinstall iert
L ud
L uther
O ne
er d
ĠS G
at io
Ġs ilber
ĠD eine
ĠT H
ĠW alt
ĠJ im
se h
Ġbis schen
ib l
Ġ" ";
Ġbest er
ĠBel ager
ĠWor te
ias ieger
ĠBro ad
ĠSieg fried
ĠbeschÃ¤f tigte
SI ZE
ĠAuss agen
D ur
b u
o ir
z ucht
Ġb ad
Ġein gemein
Ġein gebaut
ĠK ay
ĠP ac
Ġh e
ĠN oten
ĠN eckar
ĠVer stÃ¤r
ru st
ip eline
Ġth emat
Ã¶s ser
ĠHand y
rech nung
ĠTr ennung
Ġerfolg ten
Ġbew egt
Ġstehen den
190 1
bed arf
ĠCre ek
ĠBrow ser
Po inter
chten stein
Sec urity
Annot ations
A cc
I R
at hlon
ĠD ritte
ĠM alt
Ġz it
ĠW orm
ĠC alifornia
ĠIn sekten
auf gaben
ĠBer at
ĠAb lauf
Ġbest ellen
ĠGem Ã¼se
Ġ7 7
Ġverb lieben
ĠHaupt darsteller
anst alter
ĠDi am
190 3
ĠPfer d
verl ust
franzÃ¶s isch
R ennen
g ot
an es
et ische
ĠE li
ĠV III
ĠJ ar
ed a
Ġr Ã¤um
ĠAr sen
Ġab s
ĠBet racht
ĠBundes regierung
ĠFor scher
euer ung
Ġadd ress
iction ary
Ġarch Ã¤
ĠRezep t
ĠErl angen
Ġspezial isiert
L aut
M etric
n immt
Ġ( _
ĠC lem
her stellung
ph abet
ĠBau reihe
ign ment
ĠSaison ende
Ġ185 4
190 2
195 2
Ġangeb lich
Ġerk ennt
agn ose
ĠEreig nis
ĠKrÃ¤ fte
Vol ks
C lau
c lazz
k k
m uster
v i
v ia
Ġs ens
ĠB ug
Ġb reiter
ĠD Ã¼r
ĠP on
ĠP ixel
ĠL ichten
Ġh tml
ĠC ab
tel finale
pl es
ĠDeutsch es
ock e
Sch iff
Class Name
ĠWerk zeug
Ġgeb unden
ender t
197 3
196 6
ĠKommun ikations
ĠPreuÃŁ ischen
loc al
Ġleich te
ĠSter nen
ĠPersÃ¶n lichkeiten
Ġgewid met
Ġgeplan te
O wner
j ar
ĠK und
um ul
ĠN est
ĠU til
wei ger
ĠÃ¼ber tr
19 43
erk lÃ¤rung
Ġle vel
ĠOber bÃ¼rgermeister
Ġ13 0
ou v
ĠFor schungen
Class Loader
ĠSti pend
verb rauch
Ã¶m m
bez eichnung
ĠKind es
ĠViertel finale
alys is
Ġfe ature
ĠMonument s
ĠSyd ney
D ay
er z
ĠD Ã¼n
ĠK enntnis
ĠT y
ĠT ank
ĠL et
se Exception
ĠO skar
ĠAn walt
la fen
ĠLand rat
fl Ã¼sse
Ġgesch Ã¼tz
wirtschaft s
190 7
Ġgriech ische
ĠMÃ¤r chen
yg on
Ġbequ em
l is
m all
s orge
w ahr
z ant
es k
ĠB uk
ĠH eiden
and ten
Ġl Ã¤nd
Ġp Content
Ġc ir
get Resource
nen nung
Ã¤r er
ĠEn zy
Ġ0 4
be an
eid ung
ĠRad rennfahrer
ĠPat ent
ĠTour isten
Ġerf asst
system s
ĠWar schau
Ġkompl ette
ĠPublik ationen
Ġchines ische
Ġregion alen
ĠTemperatur en
ĠSchott land
E lem
T ube
a al
un ch
ein d
ge stellten
ĠG ol
ĠF ord
ĠV olley
ĠC af
Ġj ene
bau werk
Ġhin weg
mittel alter
ĠGen e
ĠEigen tum
Ġ180 6
gehen de
UN D
Ste p
Ġrest lichen
ĠPian ist
Ġeindeu tig
A ud
e te
č ĊĠĠĠĠĠĠĠĠĠ
ĠM Ã¼ndung
ĠR iv
Ġauf s
Ġl iber
List en
Ġmo tiv
Ġoffen e
inc ipal
ĠKriegs gefangen
Ġfield s
ÅĤ aw
leit ungen
Ġengag iert
ĠGeschlech ts
Ġ1 17
os is
Ġr ange
19 13
olog ical
ĠTh ailand
Res ults
Nach bar
Mod ell
Ġerz ielt
ĠBran chen
EL D
Ġorganis ierte
ĠErinner ungen
ĠPubl iz
ilen ame
ĠmaÃŁ geblich
ĠFlag ge
C ategory
l abel
ĠM iet
is her
ti ker
Ġh alt
ĠEin blick
gew Ã¤ch
ĠCon rad
Ġben utzen
To String
190 9
Inter val
ĠDist anz
Ġfiel en
ĠmilitÃ¤r ische
ĠKle e
Ġbeob achten
pfl anz
ĠProfess ur
Ġverhaf tet
E st
L EN
l och
or ia
ĠA uft
ĠI gn
Ġge ograph
ĠIn halts
men te
ĠEr lebnis
Ġsch lÃ¤
Qu elle
amp en
schl Ã¼sse
Ġnun mehr
ĠauÃŁer orden
othe k
Reg ie
ĠDienst ag
ĠErz bist
kn own
ĠTon y
krÃ¤ ften
ĠVorsitzen de
kathol ischen
Ġkrit isiert
nehm ern
ĠBeck er
ĠWett kampf
ĠÃ¶rt lichen
P P
a ver
k reise
au ben
ĠD og
Ġm erk
ĠG or
ĠF utter
ĠH Ã¤uf
Ġaus gel
op ran
ex ists
ĊĠĠĠĠĠĠĠĠĠĠĠĠĠĠĠĠ ĠĠĠĠĠĠ
ok u
ges prÃ¤
ĠFl ora
Ġ7 6
Er stellt
ĠJul ia
ĠCar los
Arch itektur
ĠstÃ¤r k
Ġperf ekte
ĠSat tel
ĠWiederauf bau
ĠLew is
Strate gy
F uÃŁ
G it
f uÃŁ
k ter
r s
Ġm ath
ĠK ein
ĠK ast
le vel
ĠH af
ĠN HL
ĠZ ut
ver gleich
ĠIn c
ĠIn tens
sb ild
Type Reference
Ã¤m mer
Ã¤m me
Mod us
ĠAll ein
ĠAndre w
ĠjÃ¼nger en
dep enden
Ġprev ious
Ġmittelalter lichen
ĠOh io
ĠUrauff Ã¼hrung
E v
l ach
o ti
Ġ1 13
ĠT oren
Ġl ook
qu ote
ay load
per rt
Ġpro ps
Ġ14 0
bach s
kehr en
ĠStud ies
con s
zentr ale
197 1
produ kte
FI X
ĠVorder grund
wander ung
Ġopti mal
ĠPenn sylvania
C ounter
J ECT
M ont
S en
S aison
Z ug
Ġ ul
ĠN umber
Ġver zeichnet
ad ow
Ġst ore
ĠAr rays
pr es
Ġ9 00
aut om
Ġger ufen
ĠDes igner
ĠCar lo
ĠMag d
Ġ185 5
ĠDe ath
Des c
ĠKomp etenz
orth odox
rib ution
Ġphil osoph
wh ile
Merk male
J J
W M
w issen
ĠA L
ĠM ust
ĠF usion
ĠE b
ĠH imm
ĠL ade
etz e
Ġ18 46
ĠAl f
Ġent decken
br Ã¼
sb rauch
ĠSte ink
ĠGer ade
Ġbew ir
ĠFach werk
ĠVertr auen
ĠMinister ium
Ġanti ken
Pass word
ĠKob lenz
( !
L ei
S K
n isch
w id
el ektr
ĠA TP
ĠB orn
ĠB arn
ĠK riterien
ĠF an
ĠF erner
ĠR unden
ĠR auch
Ġge p
rie t
ĠAb satz
br unn
ym m
Ġbeg leiten
ĠHand eln
ĠVol ker
ĠHeimat stadt
plan ung
parse Int
Ġerr ichteten
A ustr
R ichtung
S onder
V ier
w ich
w enden
or chester
Ġs itzt
ĠR Ã©
Ġer b
ĠJ ag
ĠC la
get Parent
ran ten
19 11
Ġ18 47
reich es
ile y
Ã¤nd ischen
ĠZu schau
ĠMed iziner
ĠInter ess
itte e
ĠMitte le
Lo ad
Ġfrau en
p rev
ĠD ark
ĠD irk
Ġm or
ĠH Ã¤ndler
In f
Ġsp aren
Ġre q
ĠNach kommen
ĠBl itz
stit u
ĠHal te
sta ats
FI LE
ĠFrÃ¼h stÃ¼ck
Ġdat iert
Ġumgew andelt
G el
f angen
h y
n ommen
ĠS v
ĠS ehr
um a
ent schieden
ĠSt ufe
Ġst et
qu is
Ġ0 8
Ġausge prÃ¤
ĠGew inner
ĠUr kunde
ĠAt hlet
Ġhand eln
Ġat om
ĠRegion alliga
Ġbed ient
Ġstaat liche
ĠAbt ei
Ġvalid ate
sper re
ĠIntel ligen
tir ol
ĠLein wand
P ap
Ġm ain
ĠW esen
Ã¶ te
ĠZ eilen
ind el
ĠAb sol
ac y
br Ã¼cken
oun try
ĠEx il
use el
Ġvoll kommen
over n
ĠHel den
aun a
rec ated
ĠRos a
ĠBon us
ĠCap t
Ġkanad ischen
kur ren
ĠFlor ida
hor st
Ġzeich net
Ġbetre ut
;; ;;
ĠAlli anz
Ġzusammengef asst
K at
L imit
V iele
i Ã¨
m i
n acht
st unden
on ic
ĠB GB
Ġb ill
ĠD IN
ĠR as
Ġver dien
Ġr ichtet
19 47
hl eten
ĠCh ancen
ĠKon stru
ĠPh o
ĠZw ecke
196 4
ĠRec ord
Â» ,
Ġloc ation
ĠNationalsozial isten
Ġbestell t
R ole
p rÃ¤sidenten
s eiten
de fin
ĠW itt
den kt
Ġer lern
om etr
Ġg eile
Ġg gf
oc us
sb es
ĠBe weis
ĠUr heber
Ġrech ter
ĠTre e
ĠTab ak
current TimeMillis
Ġdigit ale
Ġregistr iert
minist rat
Ġzug unsten
H amburg
N a
Ġ eignet
ĠS ac
ge ht
ĠD ritt
ĠW end
Ġp ur
ĠVer pflicht
geb ot
ĠAuf klÃ¤rung
St ad
Ġgen utz
Ġex perimen
Ġ8 6
ĠEx p
ĠLe er
ĠAnfang s
ĠPal ast
195 6
ĠEt appe
CO L
ĠDres dner
Ġelektr ische
Ġgez Ã¤hlt
ĠUrs ache
Absol ute
C LASS
T ab
Â ¼
ĠS lowakei
Ġb ody
ad ier
if orm
schen den
ĠSchw Ã¤b
off s
ĠBe arbeitung
sg ruppe
ĠHaupt bahnhof
Ġ% )
hand els
ĠWeiter lesen
Bau denkmal
Ġgenau e
Ġvers orgt
ĠSÃ¤ ulen
ĠdÃ¤n ischen
ÅĦ ski
M AT
h Ã¶ch
ĠA cc
ĠB uild
ĠW eich
ier re
Ġl ust
ĠVor gang
(" /
Ã¤ch te
Ġ9 1
Ã¶l be
Ġres ources
ĠGew erb
ĠChrist i
ask a
ĠRes idenz
Ġkein em
Ġind ustr
190 5
ĠAnt worten
Ġmod ule
ĠÃ¤uÃŁ er
kathol ische
ĠStruktur en
ĠCast le
beam ter
ĠSQL Exception
s ammlung
st Ã¼cken
Ã¼ ÃŁ
Ġk ap
ver g
og ramm
ĠSp rech
ĠEin tritt
stell ern
En tries
schie ÃŁen
ĠGeb Ã¤uden
Im port
ĠGer d
Ġteil en
arbeit ungs
ake te
ĠTri o
ĠGi use
evel op
Ġempf angen
ĠAnti ke
ĠEntwick lungen
ĠPri or
Ġbetre ffen
kÃ¼nf te
ĠReihen folge
ĠStrate gie
ĠFertig stellung
ĠAuftr itte
ĠArgentin ien
P resent
R und
W eiÃŁ
m isch
ĠB urn
ĠG ord
ĠG leis
Ġf ahr
ĠT ask
Ã¶ hnen
ĠIn t
Ġ18 42
los er
Pro tocol
Ġges ichert
gl as
ĠBe gegnung
ĠChr onik
Ġ12 5
ĠZu vor
Ã¤tig ung
Ġabge lehnt
Ġmod ische
Stand ard
Ġerk annt
Fernseh film
Ġnied riger
ĠLoc al
gefÃ¼ hl
ĠZeu g
ĠMisch ung
ĠPast or
Ġbeauftrag t
ĠTay lor
F eld
O UT
P ack
R et
U uid
i ftung
en ke
in ische
on omen
te ste
Ġin iti
ĠK leidung
ĠR eit
ĠJ h
Ġdes cription
im age
00 00
19 49
ĠEn cyclop
Ġ8 4
... ]
ĠBuch t
Ġro te
ĠVers ionen
Ġat tributes
Ġverst orbenen
195 7
ĠDon ald
do or
ĠDrei ÃŁig
Ġprak tische
Ġide al
ĠNamens geber
ĠEff ekt
F Ã¼gt
Z usammen
f ache
g it
l ic
Å Ľ
it ive
et scher
ĠH ung
Ġge zwungen
ĠVer ordnung
ĠVer leger
Ġ18 18
Ġa ccess
ĠMit begr
los igkeit
Res olver
ĠJuni or
ĠWohn zimmer
ĠRen ov
Ġnie mand
AX B
prof essor
I B
Q UE
p il
el er
ĠG lo
ĠP ur
ĠL Ã¼n
ĠI SO
ĠC ell
Ġk Ã¤mpfen
ĠZ ens
ĠSch e
ĠSch ienen
enn er
uss ia
ĠOber flÃ¤chen
new Instance
Ġsetz ten
ĠKomp lex
ĠKrit iker
ĠerhÃ¶ hen
Ġmusikal ische
ĠGrÃ¤ fin
MÃ¼n chen
ĠPrÃ¤fekt ur
Ġermord et
B ern
I hre
c enter
z esse
ĠB reiten
ĠF DP
Ġf ix
ĠN assau
ing ham
Ġg ere
ĠZ ellen
ĠSp ar
ĠAr k
int Value
ĠzurÃ¼ck zu
ĠEx pedition
ĠFilm fest
ĠPhil adelphia
ĠmÃ¼s se
ĠLeip ziger
ĠBef rei
resource GroupName
F amilien
b ilden
Â ½
Ġ $
sch lossen
ĠB od
ĠM esser
ĠP unk
Ġc tx
ĠEr stellung
ĠUn der
In formation
ĠEn tert
arb on
Ver b
Mann schaft
ĠOn kel
ĠHistor ischen
195 4
ĠTel ek
leid et
Ġra sch
ĠberÃ¼hm ten
Ġgesellschaft lichen
voc ation
ĠBuffer ed
andin av
D iff
H allo
R eihe
m atcher
n ow
w Ã¤
ch i
ge tragen
Ġm en
ten ts
ĠT Ã¤ter
ig ion
Ġk lin
ĠU s
ed s
Ġvor stellen
ek ul
ĠString Buffer
pro fil
Ġ7 4
ĠList en
Ġqu er
Tra iner
ĠProv inzen
uld a
ĠErw art
ĠServ ices
ĠSpann ung
Ġren omm
Jose ph
ĠSekret Ã¤r
H C
S al
b uf
ich tige
Ġm ode
ĠF eier
ĠP ay
eh me
sp eicher
ien ce
ger echnet
get E
ac c
ock er
fahr zeuge
ron en
Ġger inge
ĠLebens raum
yl l
Ġfinanz ielle
CT ION
Ġdest ination
ĠJahrzehn te
komp lex
R ender
T enn
h ain
p ern
r h
ge zogen
ĠB Ã¼ndnis
Ġden ken
Ġ18 20
Ġunter stellt
Ġab geleitet
ĠVor feld
az ar
Ġ9 3
ĠBau mann
emat ik
ĠTex ten
ĠschÃ¶n sten
ĠHerzog tum
ĠJournal isten
ĠKonz ern
Ġschwed ische
" -
B ot
X base
t Ã¤u
z eits
Ġ att
ĠZ ertif
ĠEr ziehung
lin ois
Ġbef Ã¼r
Ġ7 3
ĠSo ul
Ġ8 2
Ġern euert
jÃ¤hr ig
Ġinternational er
Method s
ĠPfl anze
ĠSchwer in
Ġzentr al
Ġevangel isch
Ġelement s
cept or
Ob wohl
Fr ame
ĠEuropameister schaften
ĠWurz eln
ĠBrie fe
Dest ination
ĠT eich
ber ichte
Ġauf gehoben
ad es
lie gende
az ier
ĠUnter schiede
Ġ16 0
Ġausge stellt
verb indungen
ĠTor onto
ĠHa ag
ĠDrit ter
Ġveranst altet
ĠPow iat
R h
f ul
j Ã¤ger
Ġd ekor
ber ts
ap elle
im o
geb ra
ef eld
wer ben
ax ophon
ren ce
row ser
196 2
ĠStern e
TER N
ĠGit arre
Hash Map
Mem ory
ĠBulgar ien
ur laub
ĠA D
ĠA tt
ĠP ension
ĠH Ã¤usern
ber gen
ul ierung
av y
ĠVor name
bo urg
Ġpar ser
ĠChrist ine
yr am
Ġleben den
Ġversch oben
ĠgrÃ¶ÃŁten teils
Ġtradition elle
Ro ute
Sa int
klass igen
Ġschwier ig
ĠAuseinander setzung
Ġdisku tiert
F in
G ef
T ri
c ent
ĠS Ã£o
ĠH us
ĠW ater
ĠL eh
ĠC y
Ġk unst
() ),
hen de
ain ment
olog in
Sp eichert
ĠSpr int
ĠGener ationen
190 6
ĠMannschaft s
ompl et
Ġtrans action
sph ase
ĠAust ria
ĠRegierungs bezirk
ĠJed och
ĠKommand ant
ĠFrÃ¼hl ing
ĠKoal ition
H om
S im
s Ã¤chsischen
au ens
it as
ĠB arr
ĠB ecken
ĠM ex
Ġf a
ik ro
ĠSch al
Ã¶r er
ĠAus gleich
ĠVor gehen
ĠJo han
Pro ps
ĠPh arm
ĠEx port
čĊ čĊĉ
gesetz te
ĠBro t
Ġsicher te
Ġbeteil igte
Hol der
Ġnorm alen
ĠBrit en
stud ien
ĠMarc el
ĠReserv e
ĠProz esse
Ġdenkmal geschÃ¼tz
L ou
s i
z ule
ar es
ĠB lei
et wa
Ġb undle
Ġb ulgar
Ġ1 18
Ġ1 14
il lo
Ġauf einander
ed el
ap ply
ĠAr ena
Ġunter richtete
bar es
lock en
ĠAk adem
ĠDat abase
Ġunterschied licher
wÃ¤r tigen
Verein igtes
ĠSand stein
ĠÃ¤uÃŁ eren
Ġrei ste
funktion Ã¤r
Ġlok ale
ĠNahr ungs
Ġweib liche
F loat
K ar
P rÃ¤sident
R ot
d ro
f Ã¶rderung
i ja
v enz
w g
ã ģ
Ġ Ã¤nderte
un ks
st einen
st one
ge x
ĠB ibli
et tel
ĠD sch
ĠD istr
ĠP ad
ĠP rÃ¤sidentschaft
iz z
spiel s
Ġ9 8
Ġ8 3
ĠBl u
Ġhier zu
ĠTr in
ĠHaus halt
new Line
Fl uss
ĠSar ah
Ġdauer haft
Ġfac tory
Ġeingemein det
B ook
C opy
D on
H eil
R aum
R hein
Ġd etaill
st ore
ĠB utter
ĠF ron
Ġf as
Ġf rag
Ġf Ã¼hlen
ĠT oken
ir us
rei hen
Ġl eiten
ĠIn valid
In halt
Ġ3 50
ĠAb schied
our i
sk o
ograf ische
ele ted
Ġfr isch
ĠExper iment
Ġzeig ten
ĠHon or
ÃĳÃĳÃĳÃĳÃĳÃĳÃĳÃĳÃĳÃĳÃĳÃĳÃĳÃĳÃĳÃĳÃĳÃĳÃĳÃĳÃĳÃĳÃĳÃĳÃĳÃĳÃĳÃĳÃĳÃĳÃĳÃĳÃĳÃĳÃĳÃĳÃĳÃĳÃĳÃĳÃĳÃĳÃĳÃĳÃĳÃĳÃĳÃĳÃĳÃĳÃĳÃĳÃĳÃĳÃĳÃĳÃĳÃĳÃĳÃĳÃĳÃĳÃĳÃĳ ÃĳÃĳÃĳÃĳÃĳÃĳÃĳÃĳÃĳÃĳÃĳÃĳÃĳÃĳÃĳÃĳÃĳÃĳÃĳÃĳÃĳÃĳÃĳÃĳÃĳÃĳÃĳÃĳÃĳÃĳÃĳÃĳÃĳÃĳÃĳÃĳÃĳÃĳÃĳÃĳÃĳÃĳÃĳÃĳÃĳÃĳÃĳÃĳÃĳÃĳÃĳÃĳÃĳÃĳÃĳÃĳÃĳÃĳÃĳÃĳÃĳÃĳÃĳÃĳ
Ġcont ainer
kriegs zeit
k Ã¼nstler
l ier
p an
in itial
ĠB uck
ĠK lagen
Ġer zeugen
ĠN eg
ĠSt ars
ster s
Ġ18 16
ock el
ĠÃľber leben
Ġu igur
ĠGef Ã¤hr
ĠGeneral leutnant
Ġhistor iques
ĠSÃ¼ ÃŁ
ĠComm ittee
ĠRuss ischen
ĠStraÃŁen bahn
ĠTal ent
ĠSalz burger
Ã¼st ung
ĠErk enntnis
Sum mary
Ġkorre kt
A f
D ienst
F ootball
b anken
l Ã¶sen
ĠS ind
or izont
am ann
Ġf otograf
ĠH obby
ĠT ODO
ĠR ey
ĠKon stanz
rich en
ĠSchw ert
ober flÃ¤che
Ġar gentin
ĠKÃ¶nig sberg
ipp e
ĠSchloss es
ĠÃ¶ff nen
Histor ische
idd le
ĠBundest ags
ĠLeiden schaft
ĠZerst Ã¶rung
ĠBeam ten
Assign able
ĠVizep rÃ¤sident
D etails
d ichte
m inal
o on
s Ã¤
s se
Ġw ann
Ã¶ hr
Ġab ges
Ġsp r
Ġre ference
ia e
ens ive
ens wert
Ã© t
sb ahn
An g
ĠGemein schafts
Ã¤u er
such e
ĠInd iana
Ġx ml
ĠHistor ische
ĠSchÃ¼ler innen
Ġbeein druck
Ġzweit es
ĠTschech os
kurren ten
A rea
D oppel
Ġd icht
ie be
Ġs cript
ĠA sh
ĠG ibt
ĠH ins
ut a
Ġge gangen
Ġr etten
ĠEr haltung
19 48
ĠPro tagon
Ġre alisiert
Ã¼hr ungen
ac ional
ult an
io den
lieÃŁ t
zeit lich
Ã¤m pft
ĠAt tribute
lÃ¤nd ischer
ĠDav is
ĠFort setzung
Ġbeteil igten
Ġte lefon
ĠInf ektion
ĠWettbewerb s
Ġweib lichen
Ele ktr
Ġentdeck te
V R
ĠS emin
ir a
ĠVer teilung
Ġst ack
Ġab gew
off er
Ġres ul
Ġbesch rieb
Ġeinge zogen
ĠCon fig
Ġfest en
Ġaufge geben
ĠHei z
Ã¤um t
ĠVersuch e
Comm on
Ġkultur ellen
ĠInnov ation
. ;
G ate
P RI
T ick
Ġ echt
ĠA gen
ĠB ul
ĠG umm
ĠP eking
ti le
ĠH alt
ĠSch uh
ĠSch iller
wei len
Ġwie s
ĠGr as
pl ic
ĠFl Ã¼ss
ĠgroÃŁ em
ĠSa arbrÃ¼cken
sw itch
Ġlehn te
ĠChristop her
FOL LOW
A SS
B ilder
F ull
W olf
g alerie
i Ã¨re
k W
k ins
ĠS erb
sch reiber
ĠF arm
ĠW y
ĠL iss
ĠJ ugoslaw
sh aber
Ã¤ch ter
Ġ8 7
ymp ath
ĠGegen stand
SS R
tic s
195 5
Part ition
Ph one
ĠSec urity
sthe orie
ĠVf B
Ġbrasilian ischer
Ã¤p st
C ent
b n
h Ã¤ngen
l inger
p Ã¤dagoge
ie de
sch war
ĠP azif
ĠR eu
re al
ver leihung
Ġunter teilt
ok a
Ġausge dehn
Ã¤nder ung
Ã¤m m
ĠSchul ter
196 1
kn oten
ĠGlauben s
Ġverurs acht
ebau ung
ĠangekÃ¼nd igt
= '
c os
h ing
m aur
s uper
ei men
Ġs ang
ĠK ad
ol der
ĠP est
ĠR och
Ġge prÃ¼ft
Ġver mittelt
enn zeichen
omm el
ĠNach frage
lei h
Ġ7 8
Ġgeh abt
amil ton
ond itions
lÃ¤ chen
Ġviel es
ĠMittel feld
bet on
DE F
UT F
Re al
Exec utor
ĠDor othe
Ġmusikal ischen
K reuz
o hle
z it
È Ľ
ã Ģ
al p
ĠB reis
ĠM Ã¤
ĠF ame
ĠE R
ĠT ap
Ġer rang
ĠC er
Ġver t
ĠSt iefel
Ġst re
Ġst op
ind lich
Ġbe arbeitet
lo ym
ĠStadt gebiet
ĠUnter kunft
Sch we
Ġ8 9
ĠEl iz
ĠSk la
Ġfrei er
bet eil
ĠTechn ology
ĠStimm ung
ĠTats ache
Ġkombin iert
b ayern
f ell
x i
| -
in th
or ed
ĠL oth
ĠN on
ĠN iveau
ĠN atÃ¼rlich
ĠAn im
ĠAn leitung
ub a
ĠBo ard
bild ner
ĠZwei ter
ĠPal Ã¤st
ĠRel ief
ĠGot ha
nehm ung
ĠCommun ity
ĠEuropameister schaft
ĠSmart phone
ĠBestell ung
ĠCont ainer
organis ationen
S oll
W issenschaft
o iden
sch les
Ġi ran
ĠL eu
ĠR ast
ach ment
ĠV in
ĠSt Ã¼r
19 17
Ġ18 45
ak eten
th us
amer ik
ĠEnt ity
Ġher zlich
ĠFilm regisseur
war f
Ġgel Ã¶scht
Ã¤uf e
Auf gelÃ¶st
ĠBesch luss
Ġheraus ra
Ġkey s
Ġstand ard
ĠKat hedrale
Sh ow
ĠVorsitzen den
Ġqualif izierte
ĠGeheim nis
ĠLokomo tiven
W appen
f inder
u uml
Ġ ew
st amm
ĠS her
Ġw ind
et ik
ĠL ook
Ġh inz
Ġt itle
ĠVer mut
St orage
Ġbek annter
Ġgesch m
Mit te
Ġpolit ischer
laub nis
Ġdan eben
ĠSim ple
Ġtyp es
rec ord
ĠLiefer ung
Ġletzt es
sthe ater
MÃ¶ gliche
A U
P R
S D
b rech
c ommerce
Î ½
ein richtung
Ġ1 16
ĠK alten
ĠN au
ĠC loud
ver arbeitung
ĠÃ¼ber liefert
ĠAus bruch
anz eigen
ĠKl etter
Ġex klus
als ieger
bo urne
ĠVerb indungs
Ã¡ r
Ġit s
Ġgest altete
Ġschw ach
bereich en
ĠStad trat
Ġdire ctory
ĠRestau rants
ĠAustral ia
ĠDunk el
Ġgrund legen
ĠFit ness
ĠGemark ung
Lud wig
D ruck
K om
in formationen
ĠA z
ol ved
ĠF unde
ĠT able
ĠT SV
om on
ĠJ ew
ĠC row
Ġg raph
Ġ18 35
ĠBer eit
ĠCh a
Ġgen Ã¼
man ischen
ari us
recht lichen
ĠFest ivals
ĠSan ierung
ĠTor ped
wissenschaft lichen
ĠDat eien
195 3
Ġfre e
ĠNÃ¼rn berger
PRO PER
Ġsamm eln
ĠStÃ¤r ke
ĠApost ol
ĠKÃ¤r nten
W ein
k ol
k orea
ĠS ev
ge gangen
Ġv irt
Ġ1 12
ol ine
Ġf icken
Ġf uture
ĠJ AXB
ĠSch rau
Ġneu esten
Ġman che
Ġpro vider
Pro file
Ġis ol
stein er
tik um
ĠBild schirm
ĠMittel n
Ġgest ern
west lichen
Ġus ing
Ġtyp ischen
ĠAnge legenheiten
Ġkultur elle
Bet rieb
Ġverbesser t
ĠÃĦm ter
S w
sch eibe
ge gn
Ã¤ ub
ĠA gn
ĠB MW
Ġin halt
ĠP ump
Ġer gab
ro d
ĠC ustom
ĠU RI
ĠSch um
ag on
esch ichte
id den
Ġa f
String Builder
ĠRo te
ĠProdu zenten
ĠAk ten
Ġeinfach er
ĠSeit dem
rag ung
Rep ository
Met al
Column s
ĠMot oren
Ġregion ale
track ing
ĠErwachsen e
pap ier
Krit ik
ĠInstall ation
requ ire
L eicht
k ilometer
ĠB ag
ĠF unction
ĠT hal
um pen
us a
Ġaus gesetzt
Ã¼n ster
Ġdurch setzen
ĠAb hÃ¤ng
Con verter
ĠSchw anger
tor hÃ¼ter
ĠEd in
ĠWer ft
UR CE
Ġentfern en
ĠEt wa
Ġentstanden en
Her r
Ġamer ikanischer
Ġstattf and
Ġausger ichtet
Bundes liga
ĠSign al
ĠErf inder
Lower Case
Ġiden tisch
ĠZuschau ern
T schech
n umber
Ġ []
Ġd avor
an aly
ĠS atell
Ġs aÃŁ
ĠB og
Ġin tel
ach ing
Ġauf geb
Ġst erben
ĠEr mitt
ĠSp ark
ĠBer Ã¼cks
Ã¤l lig
mit tler
kreis es
we en
ĠMod ul
Ġem otion
195 9
Ġentspr ingt
ĠWes er
Bi ografie
Ġprofit ieren
P op
R ows
s is
Ã °
ĠD ritten
ĠG T
ĠP ut
ĠR on
ĠI o
and al
ĠJ g
ĠU SB
ĠSch mal
eb el
op ing
ĠAr mut
Ġa cc
pl omat
ss ue
olle ct
pro zess
ĠGeb ir
Ġ7 1
ina e
Ġins zen
Ġcon f
dr ama
ĠZwei te
Ġgeb raucht
ĠKn ow
Ġvoll stÃ¤ndige
ĠGast geber
Ġbesser en
ĠNor bert
anstalt ungs
sprech ung
ĠBÃ¤ ume
ĠInternets eite
Sonst iges
Ġanb ieten
p ri
Ġ 00
ĠA quar
et o
ĠD ecken
Ġl ib
19 15
ĠAus sch
ĠCh arts
Ġber ichten
Ġfor dert
ĠMann es
schutz gebiet
Ã¼b ung
ĠRep ubl
ĠBeh and
ĠDen ken
ĠTyp en
ĠProblem en
ĠWar um
ĠHeraus forderung
quar tier
ĠEich en
ĠAtel ier
L eist
k le
l Ã©
ei z
em ar
ĠG un
ĠH Ã¼r
ĠL eut
tr echt
ĠV ieh
ĠVer schw
ĠEr nennung
im ate
ĠEin stieg
ĠAl ice
ĠPro t
ĠKon to
Ã© b
Ġgew al
be auftrag
Ġ7 9
Ar ten
ĠRechts wissenschaften
ĠAmts gericht
ĠKom Ã¶die
ĠSold at
ĠSyn th
Ġtats Ã¤ch
ĠKomment are
D evice
G leich
d ates
m u
m eier
s ieg
Ġd auert
Ġw andte
ĠM Ã¼hlen
ĠP ause
Ġf erner
le pp
ĠH C
ĠI ron
Ġst ep
op ol
id sch
ĠEin ladung
ak ul
Ġunter nahm
Ġab gel
String Utils
ĠSpiel ers
Ġbeg in
ĠÃľber ra
ĠBundes straÃŁe
ĠĊĊ ĠĊĠĊ
ash i
ĠDurch schnitts
Ġbesonder es
ho use
ĠWill en
unn able
bes itzer
189 6
Ġfl ach
Ġbedeuten den
ĠWand el
sa al
Arch Ã¤
ĠOff ice
verstÃ¤nd nis
Ġoper ation
ĠKrank heiten
ĠLux us
ĠWeimar er
ĠTru st
ĠNeum ann
fac es
verteid iger
M ass
S pl
b reite
ĠS ix
ĠS lowen
ar gument
ein trag
ĠB rian
ĠZ irk
ok raten
ĠVor lage
ian er
Sch ach
Sch lag
to Array
ĠEx tr
Ġar men
itu de
ĠAf ghan
Ġtechn isch
gra fen
Ġangegeben e
Med ien
Ġverf asst
ĠNachbar gemeinden
ĠMass achusetts
ĠCoun cil
Ġmedizin ischen
PT ION
ĠBedÃ¼rf nisse
ĠAgr ar
ĠTerr asse
ĠgefÃ¤r bt
ĠSynag oge
! )
B oden
F R
S am
c ies
n utzung
st immen
ge halt
Ġs amt
ĠB alk
ĠG ard
Ġf amil
is pr
ach el
ĠV Ã¶l
Ġh l
ĠZ one
Ġp ack
ĠAn nahme
Ġc luster
Ġgr Ã¼ndeten
str Ã¶m
zei tige
ott a
Parameter ID
ĠStu hl
ji ang
Techn ische
Ġsech sten
ĠLetz ter
ĠSkulpt uren
S ong
h ier
ĠT yr
ĠEr sch
get X
Ex pr
ĠAuf stand
ĠCh ile
Ġ9 2
ĠBundes land
ĠNieder lagen
Rec ei
Ġservice Callback
wal ts
Tim estamp
reden tials
Constra int
F k
T okens
c re
st etten
ĠS ich
ĠS ep
ĠE EG
Ġf ailed
ĠN i
ĠSp alte
ĠIm pul
lei tete
Ġgen auer
ĠGesch Ã¤fte
Ġen ge
ĠEx trem
Ġange ordnet
zw eck
ĠHei rat
Ġstate ment
ĠMem or
ĠkÃ¼nstler ische
db c
ausschuss es
ĠwÃ¼n schen
ĠHild esheim
ĠkÃ¼nd igte
ĠMitbegr Ã¼nder
M T
N ur
W o
h Ã¤n
j as
n ische
Ġd ritt
ĠS ech
ĠC os
ra c
Ġver mitteln
ĠSch i
ĠSch acht
Ġ18 43
ĠAuf sichts
pro perties
Ġ8 1
Ver band
Ġ12 00
-- ;
ĠSÃ¼d amerika
ĠDar stellungen
cl us
Ġlin ker
189 9
ĠMont age
ĠLog istik
Ġsc ope
Ġinteress ante
Ġverbr ingen
ĠPaar e
ĠRelig ions
Ġgesetz lichen
Il legal
gewÃ¤ch se
ĠB ilden
ĠB akter
ĠD FB
ĠK etten
ĠF eu
ĠF unc
ĠT um
Ġdes wegen
ed uler
scha f
ess ischen
ang le
Ġ18 14
lei dete
Ġgew orfen
sk Ã½
ĠRech nung
Ġger aten
ĠMed aille
ĠPer u
ĠWor ten
Ġ185 3
ĠhÃ¤uf iger
ĠAp i
So zial
Ġbegr Ã¼ndet
ausen de
Ġav ailable
ĠTrotz dem
tran sport
ĠDiv is
ĠOrchest ra
B al
H O
M atcher
h ut
r und
ĠS eil
re port
Ġc ap
Ġ18 21
ĠBer ger
ĠAus sehen
ek ord
ĠOr th
Ã¤nd igkeit
Ã¶ff entlichen
ais e
kl ang
Ġteil te
ĠAlbum s
print StackTrace
ĠJazz musiker
frau en
VER SION
person en
M D
g h
m d
u ge
v Ã¶gel
ur ed
Ã¼ ÃŁen
Ġb rauch
Ġi gnore
Ġm eta
ĠE id
ĠH inzu
ĠC av
Ġan spruchs
Ġver Ã¤ndern
ad s
ĠSt ufen
he et
ĠVer folgung
get Request
id ak
Ġab gelÃ¶st
of ern
Sch l
Ġch annel
Ġgef eiert
ĠDr ama
Ġverm utet
ĠSchm id
Ġmethod s
beg riff
Change d
ĠEins Ã¤tzen
ĊĠĠĠĠĠĠĠĠĠĠĠĠĠĠĠĠĠĠĠĠĉ ĠĠĠ
ĠPseud onym
C ost
P G
b ur
h ab
z weig
ï ¼
Ã¼ g
ĠH els
ĠT ai
ent ums
Ġmit ten
ahr ung
sp ol
ien te
(" ,
fl anzen
ĠRe alitÃ¤t
Ġger echt
Ġbesch reiben
ĠBest immungen
ĠUr sprÃ¼nglich
ĠKre ativ
ĠPorn o
ĠDistr ict
C L
h Ã¤nge
in sert
ĠD anzig
ĠM all
em atic
ĠF air
ĠP ommern
ĠH ass
ĠL ip
ĠEin fach
aus stattung
th ers
amm ung
Ġpro te
mit ive
zw ald
Ġbr achten
ĠSport s
Ġbeh erber
ĠZur Ã¼ck
Char acter
ĠKart off
krit iker
BevÃ¶lker ung
Meta Data
F T
S ee
T ex
o use
w ur
w achsen
Ã ¯
Ġs in
ĠF lieger
ĠE mer
ĠSch Ã¤fer
Ġr ichtete
Ġc p
end em
ĠAb sch
ĠCh art
mal erei
sk ammer
enz el
Er ste
Ã¤u ber
ĠSh ort
Ġgef ragt
ĠSchul z
ĠVers icher
ĠDo zent
bef ehl
bas is
ĠKro atien
Ġnutz te
ĠGiuse ppe
B in
X X
d l
ĠD y
ĠK upp
ĠV ogt
ĠC ass
Ġver sen
Ġl et
sp olit
Ġaus gesprochen
ĠEr ik
id i
Ġre prÃ¤sen
form ed
ide en
ĠNe apel
ĠJohn son
ĠTro cken
ĠhÃ¶ch st
Pl ugin
ĠStu dent
ĠDisk uss
Sel bst
Ġlo op
ĠniederlÃ¤nd ische
Ġqualif iziert
ĠEvent s
ĠBrau t
: ;
C an
H P
h aven
Ð ´
in voke
Ġd evice
sch Ã¼ler
ĠW ars
Ã¶ cke
ĠR Ã¤um
ĠI wan
ĠC arr
ĠC onnection
ah me
ĠSp ektrum
Ġ5 000
Ġpro xy
Ġle gend
ĠVerein igte
ĠVerb rechen
Ġ% ,
ĠDar steller
ĠÃĦ uÃŁ
sol venz
ĠWebs eiten
ĠHier zu
lÃ¤uf erin
Per iod
Ġverlie f
ĠQualitÃ¤t s
ĠLeg isl
ĠWeihn achten
Ġkeiner lei
Ġtschech ischer
AuÃŁ erdem
ymm etr
/ {
U pper
W ahl
f ix
k ong
ĠK ent
ĠF ulda
ĠH Ã¤nden
ĠR ande
ĠAr tillerie
ĠGr en
St op
ĠEnt deckung
ĠBest immung
arch itektur
ament o
ĠBetrieb ssystem
ĠErn est
ĠGu ide
ĠHar vard
Arch iv
ĠkÃ¼nstler ischen
ĠArchÃ¤ ologie
ĠWit we
Lang uage
Ġdokumen tiert
ĠTÃ¤tig keiten
ĠOberg esch
H op
T el
b org
w iesen
un er
al ben
it iv
Ġf ern
ĠR ied
Ġer setzen
ĠC in
Ġp rim
ver hÃ¤ltnisse
ĠAn st
Ġbe ur
ĠEin sÃ¤tze
Ġsp Ã¤testens
ok o
ĠMar mor
ĠVor jahr
Ġ0 5
br em
ian ce
sk e
ire ct
Ġerst mal
ĠMÃ¼n z
bew eg
ĠDr achen
ĠFlug zeuge
Ġkein es
back tracking
189 7
Argument s
alle d
ĠVen ez
ĠRem ote
ĠVerkauf s
Ġerheb t
ĠLy rik
Ġreligi Ã¶sen
ĠEdel stahl
ĠEinzugs gebiet
F er
G raf
M G
V oid
j ection
m ak
at tribute
it ation
Ġs olle
ĠA tem
ĠM eilen
ĠK au
le hen
ĠW Ã¶r
Ġer lebte
se arch
Ġan zeigen
op ath
ĠEin zug
ĠAl an
ord nen
auf ent
18 90
Ġbet reiben
ĠSte ine
ĠGrund riss
Ġselbst verstÃ¤ndlich
ha ar
ĠInter ruptedException
Ġqu adrat
AR N
ee ded
ĠComm and
189 8
Ġherv orge
gÃ¤n gen
Med iziner
ĠBÃ¶ hmen
Ġtradition ell
ĠTisch tennis
Ġdurchschnitt liche
B uild
E B
H A
l ik
p us
w Ã¶rter
y ter
Ġw Ã¤hlte
Ã¤ uren
ĠB our
ĠD est
ĠK enntnisse
ĠP os
ĠV at
ĠV Ã¶gel
ab on
ier tem
ĠIn spir
ĠEr ziehungs
ĠHaupt mann
recht liche
ĠRÃ¼ck seite
ĠGen au
ĠMag net
sprach igen
gra de
ĠHeraus forderungen
ĠLou ise
ĠKom fort
aust ausch
ĠSamm lungen
ĠKaff e
Arb eits
Ġrechte ck
ĠCorpor ation
W A
c ur
c ell
g io
r inger
Ġd einer
sch ema
Ġs egment
ĠK h
ĠW id
ĠL is
Ġp or
ff ekt
ver eine
ĠIn iti
Ġun it
ĠAn kunft
lin es
tig keiten
ĠAb ra
ian e
param s
Ġbes ieg
mit ten
res h
Ġverl ieren
reck en
ĠOp tim
ĠEntwick ler
Ġdur ften
ĠGall ery
ĠZul assung
Ġmedizin ische
Ġbetroffen en
Ã¤nk ischen
ĠVerbreit ungsgebiet
P ubl
P riv
k Ã¼hl
Ã¤ ischer
ĠB eine
Ġm uÃŁ
is Assignable
Ġer ober
om os
sp ark
ĠDie sen
eu x
ru le
Ġ18 32
pt on
oc aust
Ġgew issen
mit te
Ġres olve
ĠPr ince
ĠSc ript
Ġgem essen
Ġloc ale
kraft werk
stÃ¤d ter
Ġaustral ischer
Po ints
ĠmÃ¤nn lichen
ĠEdin burgh
N och
S R
f ranken
k ord
k ompon
Ġ art
ĠS tett
Ġs lowak
Ġf lag
ĠT akt
ĠW Ã¤hler
Ã¶ ten
rei en
eb all
Ġo ur
Ġ3 60
ĠPro gramme
ĠAus richtung
ĠGesch icht
ĠSpiel zeiten
ĠLu is
ĠStud iums
ĠWeb prÃ¤senz
dent ity
Ġpl us
Ġnie mals
Gemeinde auflÃ¶sung
ĠVerÃ¤nder ung
ĠVoraus setzung
otechn ik
o or
ĠH eu
ĠH arm
ĠL ernen
Ġver ring
sp aren
ĠAr gument
Ġvor geschlagen
ĠAus flug
ov Ã¡
ss itz
wer fen
kl opÃ¤die
ĠKunst geschichte
Mod ified
fÃ¤l ischen
Th is
Ġreich te
Ġscha fft
option s
ĠErzÃ¤hl ung
ischÃ¶ fe
K rieg
S end
U hr
b on
v gl
w Ã¤nde
ĠS econd
ur teilung
ĠK unde
ĠP eer
ĠJ am
rei tete
ĠU E
Ġst arben
ungs an
Ġ18 44
auf tritt
ĠÃ ģ
ĠMar ch
ac es
Ġbet ont
ĠY our
Ġgef Ã¤llt
schein lichkeit
key Set
ĠHel fer
ĠrÃ¶m ische
mel den
ĠStat ue
Ġnotwend igen
Ġlauf enden
ĠPersp ektive
Ġgesund heit
ĠBerÃ¼cks ichtigung
C N
H in
P ublik
T al
u dent
Ġd auern
Ġm oment
der en
Ġauf nehmen
iel les
ver anstaltungen
ah ler
Ġsch ein
Ġ18 13
iv a
ĠAus rÃ¼stung
ev oll
Al ben
ĠBl Ã¼te
ĠPh Ã¤nomen
eig n
ĠBÃ¼ chern
ĠWeiter bildung
ĠRechts an
ĠService Future
ĠJe de
ĠMarc us
Techn ik
Servlet Request
ĠAR D
ĠgewÃ¼n schten
ĠFlÃ¼cht linge
ĠSkulpt ur
ĠProj ekten
g eist
v oid
an as
Ġw Ã¶ch
ol in
tr ei
ĠN AT
Ġge lo
ĠAn sprÃ¼che
lie hen
Ġ18 37
ĠStr Ã¶m
rom an
ĠDurch bruch
ĠfrÃ¼ he
ĠDan ce
ĠKr ise
ĠLie ben
Ġzahl reicher
ĠStaats anwalt
ka sten
Ġwest liche
ĠCom edy
CE SS
ĠSied lungen
ĠStandard s
sei tige
ĠGÃ¤ sten
Ġwor auf
Ġnorweg ischen
cul ate
B UT
E SCO
P ark
R ate
j av
k Ã¤mpfe
w ende
ĠS einen
ĠB auf
et ischen
ĠE con
ĠT afel
ĠL j
ver ordnung
og ne
ang aben
Ġ18 31
her z
ĠÃľber setzer
ĠZusammen schluss
ĠRef eren
ĠFrankreich s
lÃ¤uf ig
189 4
Ġverbunden en
Ġzurueck gegeben
ĠErschein ungs
ĠKrie ger
ĠFantas y
Ġvorber eitet
F ernse
F ailure
H it
R itter
o ice
Ġd ick
un ivers
ĠK leid
ĠF avor
ir bt
Ġal ias
Ġver stÃ¤nd
ĠâĢ ĺ
ic er
la de
Ġ18 10
Ġ18 41
Ġvor an
auf lage
ac o
Ġwieder her
ĠSk y
ÃŃ k
ĠWeiter entwicklung
Ġaufge f
ĠBeruf ung
Land es
mark e
ĠVal ley
ĠBal kon
TE XT
Ġinteress ant
Ġra w
ĠPil ot
ĠYou Tube
Ġzeich nen
ĠBasket ballspieler
Ġdurchschnitt lich
ĠEinkauf s
Ġangen ehm
ĠFrances co
H erkunft
k lag
Ċ ĊĠĠĠĠĠĠĠĠĠĠĠĠĠĠĠĠĠĠĠĠĠĠĠ
ĠA ven
Ġb ran
ĠW ies
den z
ĠL od
ĠV ision
ro h
ann over
Ġt ollen
ver mÃ¶gen
ĠAn reg
Ġdurch ge
arb eiteten
rÃ¤ um
ĠFl orenz
sb ek
ĠEl f
Ġbew aff
ĠOst preuÃŁen
Ġverst orben
Ġhistor isch
ĠRegel ung
test elle
Ġmein t
Ġclass Name
auff ol
ĠOk res
Ġverbesser te
Constra ints
evelop ment
C ustom
S zene
č ĊĠ
er a
Ġw and
ĠD ob
Ġein fluss
re de
Ġh Ã¶lz
ra ÃŁe
Ġc ur
Ġ18 36
ech en
enn ame
her it
rÃ¤ g
pro ject
ĠUm stÃ¤nden
reib ungen
Ent fern
gef unden
ĠRed akteur
gehen den
ĠTrans fer
Ġerschienen en
Kultur denkmal
Ġausger Ã¼stet
ĠBrau erei
ĠBundest ag
ĠLiebl ings
L ive
ĠH ack
il o
id x
Ġvor ange
Ġgen ehm
Ġges ammelt
ĠFor est
ĠfranzÃ¶s isch
bet reiber
ĠHistor ic
195 1
Sc reen
Ġfl Ã¼ch
Ġdien ten
ĠJur a
ĠErd geschoss
Ste in
ĠgefÃ¤hr det
imple Name
ĠFell ow
Dam it
ĠHins icht
T RI
V G
Ï ģ
Ġ ðŁ
ĠG is
ĠH ahn
ĠR y
ĠV amp
ver teilung
wei lig
ang riff
Ġ18 33
Ġvor n
stra int
rech ten
AT OR
Ġverl auf
ĠLandes regierung
ĠInform atik
ymb ole
ĠBegriff e
FI ELD
Oper ator
ĠDenkmal pflege
stehen de
rel ation
ĠtÃ¼rk ischer
ĠlÃ¤ng st
ĠAx el
isAssignable From
H eim
a sten
b ury
á ¸
st ufen
it Ã©
ĠD oc
ĠW affe
ĠL ohn
Ġnach weis
la ve
ech tigkeit
Ġes sen
Ġ" ]
yp en
fer tigung
ĠÃĸ konom
eig ern
ĠVol ume
ĠUr kunden
ĠSitz ung
ĠMaler in
ĠgrÃ¼n en
Med aille
ĠCa es
Ġgriech ischer
ĠTÃ¼r en
Supp ort
schlÃ¤ gen
ĠGet rei
Ġhochwer tigen
---------------- ----------------
ĠSteu ern
schaff ung
ĠRepar atur
Ġeingest uft
C ollector
c olor
h Ã¤
h um
k andid
r unden
s u
s v
w il
es a
Ġunter brochen
ĠAuf wand
fl eisch
Ġdar auffol
ĠSchw aben
ĠSte ck
ĠBeg leitung
kon struktion
ST AT
ĠChar lie
ĠProjekt s
Ser ial
ĠBor ussia
Europameister schaft
ĠCook ies
ĠDokumentar film
ĠGord on
? )
D rei
E W
E isen
F u
F iction
H g
L ied
R ich
R Ã¼ck
m ass
ei ste
sch lei
ĠB ak
ĠB ruck
as y
ĠD eut
Ġf ilm
ĠI dentif
ĠV as
Ã¼r t
ĠC li
Ġge test
Ġmit hilfe
Ġg laub
ot herapie
ĠEr forschung
âĢľ :
Ġent s
oun ts
ĠStud ierenden
ST ART
ĠWil son
wort h
anc ed
Ã¨ ne
ĠFrÃ¼ chte
ĠErw in
Ġrem ote
kor ean
Co uld
******** ********
Cond ition
e ars
Ã ®
Ġin ternal
ĠW arm
ĠR i
il ch
Ġauf weisen
sp an
ver d
ĠAn gehÃ¶rigen
Ã¶r n
Ġvor s
rÃ¤ uch
reich t
ac cept
Ã¼t zer
lieÃŁ en
ĠBet riebe
ĠFrei stil
schn itten
aw s
ĠDr amat
zentr en
Ġjeweil ige
ĠUl m
ĠEhe paar
komm and
uel a
ĠSchÃ¶n heit
ĠCamp us
Ġevangel ischer
ĠWol ken
Ġhol en
ĠExper imen
ĠSor timent
Ġprofession elle
Ġbeeinfl ussen
ĠTrau er
Ġschwei zer
ĠClem ens
ĠMagd alen
B esonder
un te
de uten
ĠR ag
Ġge be
ĠO ste
ĠZ oo
Ġp ool
enn te
Ġgew innt
wer fer
ĠGe orges
leg ungen
ĠVerb Ã¤nde
ĠSport ler
leben s
189 2
Ġhab ilit
Ġumfang reichen
Men u
Sign ature
Ġschot tischen
ĠErkrank ung
Declar ation
f le
m auern
w urz
Ñ ĥ
ch annel
un us
ĠW oll
ĠR ug
ĠC A
ĠC ache
Ġk op
he ft
ĠIn solvenz
Ġc ell
arb eits
ĠVor sprung
ĠFl ur
teil ten
Ver breitung
Class es
aj ew
ĠDem onstr
herr n
beh Ã¶rden
ĠÃ¶ konom
ĠHaar e
Ġsk ip
Verkehr s
polit iker
ĠAuseinander setzungen
Ġlit au
Tro tz
ĠschlÃ¤ gt
B itte
f z
f ehler
f aktor
Ġz us
ĠK rak
ĠH amilton
ĠW alk
Ġer baute
Ġan alys
ĠO ft
eb t
wei tern
os k
Ġsch auen
ĠEin bau
Ġtr ock
ĠVor haben
ĠAut omat
Ġteil t
ĠFra g
ĠKr Ã¶n
check EMail
FuÃŁball trainer
ĠPark platz
fre unde
ĠChem nitz
ĠGeist es
ĠPhilipp inen
cover y
AuÃŁ en
Russ land
ĠPion ier
ĠFound ation
Ġangrenzen den
ĠRavens burg
checkEMail Adresse
k arriere
or b
Ġv ariable
ĠB iel
ĠK rau
Ã¶ pfer
Ġk ro
ĠZ ier
ver schluss
ap ur
get Attribute
ĠÃ¼ber s
ĠMit tag
ction s
ĠRech er
ĠBeg leit
ĠAt las
kon zept
RE AD
ĠBew usstsein
ĠVolks schule
ĠKÃ¼nstler in
Welt cup
ĠÃ¤hn lichen
!! !
Ac tivity
ĠUrs achen
ĠanschlieÃŁ enden
Ġnachfol genden
ĠBerech nung
Ġbevorzu gt
Listen ers
1 10
C a
H tml
P ierre
S ach
T urn
U LE
W ohn
k am
sch eiben
ĠA y
Ġm ut
Ġg riff
Ġun ivers
Ġc ollection
lin s
ĠAr tist
tel n
ĠLand s
ens ystem
fÃ¼ hl
ĠUr ban
ĠProf ession
SS ION
Resource Field
tre ff
Ġung laub
ĠFluss es
Ġide en
Ph ys
ogn ition
Ko ordinate
Ġfas zin
loym ent
Fk EMail
G old
M Ã¼nze
N un
T AG
o i
w ise
en ge
et isch
Ġm iss
ĠK ru
ĠE y
le ep
ĠT U
ĠW eit
ĠR aub
re ct
ist o
Ġl uther
Ġ" \
Ab geord
Ġschn ellen
ĠNeben fluss
ĠPlan eten
189 1
Ġnorm alerweise
steh er
ĠInner halb
ĠRis ik
ĠdÃ¤n ischer
Absol vent
ĠLegen de
autom aten
F K
s iedlung
un z
Ġf il
ĠH ef
ĠW ith
ĠL aur
Ġer zeug
Ġk reis
Ġg lauben
ul us
Ġzu geschrieben
sp ath
ien e
Ġr om
la ster
Ġsie d
ark tischen
ĠReg isse
ĠReg istr
ĠUnter lagen
imm y
ĠY am
gew achsen
ĠEx press
Ġange messen
ĠFahr zeugen
Ġ180 9
ĠNo Such
Ġdr amat
Ġelektr ischen
ĠBek ann
ĠSchlag zeuger
sex trem
ĠZeich ner
Ċĉĉĉĉĉĉ ĉ
ĠÃ¶ fter
dor ff
ĠSab ine
ĠgewÃ¤hr leisten
ĠPok er
ĠLaus anne
ĠJÃ¼n ger
ĠBreis gau
ĠLoth ar
/ -
c ommand
m aus
m otoren
w appen
Å ¼
Ġw ait
ĠD avon
ĠM ong
ĠF uss
ĠF PÃĸ
Ã¶ d
re fer
Ġst ein
Ġsch lagen
ĠMa j
ĠKl einen
Ġbef re
Ġbef asst
ĠHaupt ort
ĠCon text
Aus gabe
Ġabge geben
tieren den
herap eu
ĠPartner schaft
Ġsowjet ische
M C
h amm
h aut
Ġ echte
st op
ĠS und
ĠB ey
ĠF reis
ĠO v
ist isches
ĠZ in
ĠIn sp
ĠAn wender
Ġneu tr
ĠBau meister
stan ti
ĠBet rag
ĠHoch wasser
tag es
AR D
ĠAuÃŁ er
Ġverw altet
ĠSan ti
Ġinner e
Ġstehen de
ĠTre ppen
rÃ¤n kungen
ĠOs lo
verwalt ungs
Mill ionen
ĠGlock e
ĠSn ow
p assung
ĠS R
ar est
ĠE mail
ĠR ue
Ġden ke
Ġc ommerce
ĠUn i
vers uch
ator y
Sch edule
ogra fen
ĠJan eiro
Ã¤nder ungen
++ ]
Ġrel ation
ĠGot th
Page Link
ĠUntersuch ungs
vertr etung
ĠTur in
Rem ote
ĠThÃ¼r inger
ĠBelager ung
ĠEliz abeth
1 12
> .
V arian
b ab
c omponent
g ate
w elle
Ã¼ ben
ĠB innen
ĠD ak
ĠG ur
ĠG eis
ĠP le
ĠH ad
ĠN ar
ĠVer anstaltungs
Ġbe deckt
ord nungen
Ġsp eichern
Ġ6 55
An t
Ġges perrt
tor s
Ġviel fach
mÃ¤ ss
ĠMo tive
Ã¡ s
Ã¶rder te
ĠFest schrift
ĠRen Ã©
ĠIns zen
Ġtyp ische
Ġevent uell
ĠerhÃ¶ hte
ĠUN ESCO
cas Type
Ġneg ative
Ġmass iv
ĠLipp e
russ isch
ĠClaud ia
ĠkÃ¤mpf te
ĠErober ung
ĠViet nam
Ġmath emat
A ktiv
E U
N U
S etz
a ktu
d re
f arb
as ar
ĠD ame
ĠK reise
ĠP aket
Ã¶ konom
ĠL Ã¤ng
ĠI C
ĠV ize
ec il
19 16
if c
ev in
ieren der
An ti
Ġgesch Ã¤tzt
Ġausge geben
Ġbeh alten
LE D
ĠSteuer ung
parse Boolean
onom ie
ĠVerteid iger
cr yp
jew itsch
g ow
u tern
ĠR asse
ĠR iga
Ġan ger
ĠVer hÃ¤ltnisse
Ġ18 28
18 70
ĠNach weis
eim ittel
ĠBo ots
ĠAd miral
amp a
ĠSe eh
ĠStud ios
ĠKur se
ĠDis play
Ġlin ke
valid ator
ĠWissenschaft s
met ik
ontin ental
ĠStreit krÃ¤fte
ĠjÃ¼nger e
ĠÃ¼berra schend
Ġmel den
ĠBeob acht
ĠStraÃŁ burg
ĠglÃ¼ck lich
ĠBom ben
A fter
D uration
N ein
N or
b Ã¶r
p red
ã ĥ
ie ÃŁer
sch atz
ĠB ande
Ġb o
ĠT all
il ang
ig ers
Ġge folgt
att formen
sk lasse
En gl
ikan ten
Sch ul
iet z
ĠgroÃŁ zÃ¼g
Ch arl
schn eiden
Ein ige
ĠNutz ungs
Client Execution
Ġabsol ute
Event s
ĠAir es
ĠSow ohl
EX T
drÃ¼ck t
ĠUrs ula
wes ens
Ġbefore ClientExecution
ĠprÃ¼ fen
ĠMunic ip
ĠUE FA
A ir
L im
Z eich
w Ã¤hlen
st uf
ĠS eh
or p
ĠK anten
ĠG riech
Ã¶ ster
ĠI B
re ktur
ist ers
Ġvor gegeben
br achte
Ã¤ch ern
ĠUm zug
ĠZahl ungs
ĠHeil ig
ĠlÃ¤nger en
ĠBill y
Ġwor aufhin
ĠDreiÃŁig jÃ¤hrigen
" :
T urnier
V ID
Ï Ĥ
es ota
it us
ĠB rad
ĠD opp
ĠK iew
ĠG lob
ĠF Ã¶der
ĠP RO
Ġf liegen
ĠL ords
Ġzu gewiesen
Ġver Ã¶ffentlichen
Ġun klar
ĠEr ben
Ġ18 34
zen sion
Ġ0 6
Ġzw anzig
ĠJo urn
wohn ungen
ĠNieder schlag
ĠsÃ¼d liche
ĠMeister titel
ĠLei der
ĠGel b
Ġkurz zeitig
Ġbed ingt
fÃ¼r sten
ĠZÃ¼r cher
ĠGar antie
ĠViel leicht
meld et
getD efault
Ġhab t
ĠgÃ¼nst igen
Ġirgend wie
ĠTar if
ĠSec ret
Ġkom fort
ĠAgent ur
ĠOrien tierung
Ġseiten s
B enz
M etrics
a a
g ium
j ap
Ċ ĊĠĠĠĠĠĠĠĠ
ĠB Ã¤r
ĠD ead
Ġein iges
ut es
Ġver schl
Ġl Ã¤dt
och em
ĠEr ror
Ġ18 38
18 87
ĠIm mutable
sel ect
stÃ¤nd igkeit
ĠÂ °
deck er
Ġbew ertet
ĠProf i
ĠGef ahren
schw itz
Ġwill kommen
ĠKat astrop
ĠTurn iers
Ġmethod Name
Ġid x
meld ungen
Mon itor
Ġkanad ische
Ġanges iedelt
Ġdauer te
ĠEmp ire
Ġverab schied
Leicht athlet
B I
C annot
a er
c atch
h essen
j ugend
k Ã¶pf
č ĊĠĠĠĠĠĠĠĠĠĠĠĠĠĠĠĠĠĠĠĠĠĠĠĠĠĠĠ
ol as
ĠF lex
ĠP aw
ĠP rÃ¤sentation
sp anisch
ver antwort
Ġsch lossen
Ġab stra
ĠEn try
ĠCh Ã¢
Ġ4 50
fl Ã¼ge
Sp iele
upp er
ĠPat ient
Des ign
Ġ180 8
Sc ale
Ġbisher ige
ĠrÃ¶m ischer
ĠTo uch
ĠCamp ing
ĠAbst ammung
ĠFein d
ĠDiff eren
ĠkÃ¼nf tig
ĠGitarr ist
Z iel
g riech
l ess
p reise
ĠD R
ĠL ith
ĠJ Ã¤nner
Ġo cc
ĠSt Ã¶rungen
ĠAus lands
Ġnoch mal
ian ische
for um
ren e
ĠHoch zeits
ĠRom ane
ĠHol ocaust
Mar ia
By Id
ps ych
40 6
Kl ein
ĠPrem ium
ĠProp ag
ĠFotograf ien
ĠKamp agne
sbez irk
mag azin
ĠTob ias
ĠBeschÃ¤f tigung
D isplay
Y ear
f achen
k os
p es
st au
ĠS ey
ĠB Ã¤ren
ĠJ i
ĠC arn
ist ern
Ġc re
ĠEr hÃ¶hung
og o
ĠAb bau
par ser
18 86
Ġ0 3
Ar g
ĠDu ke
ĠGef Ã¼hle
ĠMich igan
ĠWer ks
ĠLondon er
So ftware
ĠTe ppich
ĠField Item
Ġsinn voll
ĠDub lin
Ġcas ino
B Y
G rid
H ead
L iga
f uÃŁball
s ow
w Ã¼n
Ġs enden
Ġdie jenigen
ĠK i
ĠF Ã¤hr
Ġf und
is emit
ro hung
ĠC E
rie ge
ĠAus grab
stÃ¤nd iger
uck er
rem e
Ġfile Name
ĠSen ats
Format ter
ĠVerl etzung
ĠVerl etzungen
vis or
Ġumfassen den
ĠStoff e
ĠGir l
Ã´ ne
Ġschlech ten
ĠBist ums
Ġsorg fÃ¤l
ĠSym ph
ibil itÃ¤t
Av ailable
ĠVerf asser
Ġgere gelt
maur er
B ag
O s
R ight
V E
W ald
W idget
b ra
p assen
Ġ eig
as ure
Ġm u
Ġz ivil
ĠG Ã¼nstige
ĠL iz
ĠSp er
lo v
Ġlie gende
Ġ9 7
ĠBo hr
ĠHand werks
ĠWei h
Ġeinz iger
ĠHaus halte
ĠCon stants
Ġho hem
Man agement
iat rie
189 5
Ġwahr genommen
fred akteur
Gener ic
Ġ179 8
ĠKomb in
Ac tive
ĠInstr umente
ĠSchwar ze
Ġgez ielt
ĠGru yter
Ġopti male
ĠWurz el
ĠAnth ony
exp ected
Ġcle ar
Ġil leg
ĠBezeich nungen
ĠArsen al
ĠEntert ainment
> -
D av
G S
H ome
r um
v oller
ĠB olog
ĠP ia
ĠL td
ĠN PD
ist urnier
ĠIn fo
ed o
im s
Ġ18 39
Ġex pr
als o
add ing
ĠZu hause
ĠMed aillen
ĠZwei fel
ĠSil ver
ĠTour en
ĠGesetz e
ikal ische
Ġausgew Ã¤hlten
Ġexten sion
kan al
Ġreligi Ã¶se
ĠMÃ¶n chen
T ile
b evÃ¶lker
f inanz
k eln
ie u
st ationen
ge stellte
ĠE cht
ĠH K
ĠZ ag
Ġt at
ĠAn ordnung
eut zut
Ċĉĉ ĠĠĠ
Ġsp iegel
ĠÃ ©
ĠAb bildung
ĠAb fahrt
ov on
18 89
utz er
Con f
ĠGes ellschaften
Sch m
Sch rift
ĠQu ad
ĠLe ber
ĠMÃ¼n zen
ink i
ĠMan chester
ĠTr ump
ĠLebens jahr
ĠRegel ungen
not Null
ĠLang haus
ĠJournal istin
Sport veranstaltung
ĠHÃ¶r spiel
ĠOut door
annot ation
match es
ĠBiograph isches
Ġjung er
ĠPriv ile
Ġol ymp
ĠPublish ing
ĠGÃ¶t ter
Ġdarauffol genden
eutzut age
B ra
B ass
M Ã¤nner
P OS
T ar
p refix
ĠS we
ĠB ie
Ġein gew
Ġm ach
le k
ĠW ho
ĠW rest
ĠV ektor
lich ung
ĠJ ochen
ĠIn itial
Ġr eine
ĠAl i
ĠEs c
Ġgesch w
Sp ez
ĠFor derungen
50 9
ĠX in
ĠAt hleten
ĠLie chtenstein
ĠWer be
dienst es
Ġvorhanden e
fÃ¤h ige
ĠDist rik
Ġprak tischen
loc ation
Histor y
ĠProp st
ĠgewÃ¤hr leistet
ĠOrgan ist
ĠGlÃ¤ ub
Ġgetest et
I ST
b ol
b rief
ĠW ladimir
tr es
ĠSch icht
ert ung
Ġab schloss
ac tive
ĠKon sequ
ĠFl Ã¼sse
ĠBr eit
Con structor
ian i
Ġen orm
aut omat
ĠInd ustr
ĠMag azine
US A
ĠLog o
Ġsc ale
Ġdefault Value
ĠermÃ¶glich te
ĠHart mann
Ġqualif izierten
Ġfra gen
ĠNa gel
ĠMÃ¶n ch
ĠVorles ungen
ĠWorm s
G eh
R echt
z elt
Ġd oppelt
ĠS ain
ĠK ot
ĠF at
ĠT hrowable
Ġer weitern
and ro
ĠC ott
Ġge fahren
Ġg rid
Ġp ackage
ed es
ĠEin stellungen
ĠNach mittag
ĠPl atte
Ġbes ei
Ġbes iedelt
sel f
ĠLu ise
Ġbel egen
Ġkon kr
Ġgemein nÃ¼tz
ĠIl linois
Ġor igin
ĠZahl ung
gar ter
ĠTro ck
AP I
189 3
Ġerfolgreich sten
krÃ¤ f
Ġleich ten
ĠField Location
ĠRÃ¤ umen
steuer ung
Juni oren
ĠAustral ian
Bew egung
Ġsu ccess
H ex
I con
R om
S dk
l ia
or ff
am ar
Ġn odes
ĠH ain
ĠH aw
ĠL Ã©
ĠL ett
Ġauf bew
ĠSch lÃ¤
men gen
Ġ18 25
ob i
ard i
ĠCh ild
ĠPl Ã¤tzen
ĠUnivers al
ander s
rik e
Leben s
ĠHeil ige
ĠEigen schaft
ĠGeh Ã¤use
ĠÃ¼b te
ĠGut schein
Obj ects
ĠKontr oll
Ġunmittelbar er
ĠBu en
Ġneg ativ
LI ST
ĠPersÃ¶n lichkeit
ĠtÃ¶ ten
Ġsamm elte
ĠTaschen buch
ĠHow ard
Ġtranspor tiert
ĠRac ing
B rit
D isc
u ver
un en
sch lies
ĠW ink
ĠW ichtig
Ġer werben
ĠÃ¼ber d
ord neten
ĠMar athon
Ġe ach
spr ingen
to LowerCase
ĠGe denkt
ĠCon s
con sin
ĠDu o
Ġ[ ...]
ĠFer tigung
amb a
spro jekt
Ges etz
Ġanges ichts
ĠKandid at
ibil ity
ĠErwer b
ĠfÃ¼hl t
resp ond
ĠTrink wasser
. ]
A BC
J ar
k rat
et tern
ĠK eine
ĠK ings
ĠG ros
ĠT ib
ĠL an
ĠL app
iel te
ag ert
Ġst irbt
ap o
Ġbe z
ĠSp err
En glisch
ank a
Ġviel mehr
ĠHand ballspieler
ĠfÃ¼hr ende
ĠNational en
emen tierung
ĠIs a
ĠGen ehmigung
wissenschaft liche
fass ade
Land tags
ĠRev iew
Ġsh ow
Ġnorm ale
Ġmark iert
ĠHoll and
Ġdre hte
ĠSauer stoff
G L
G ruppen
L ex
f ast
st iftung
Ġs uch
Ġi p
ĠL esen
ĠR ange
ĠR anger
Ġer g
um fang
ĠV alen
ir r
ĠVer pack
ĠAn liegen
ĠAn gehÃ¶rige
Ġwar m
ez eit
omm e
Ã¤l en
ite es
ĠKÃ¶nig lichen
ipp i
Ġerhalten en
ĠWill em
US ER
Ġangeb aut
ĠGed Ã¤chtnis
getS impleName
sie ht
Ġpass word
Ġgeschlossen en
vo gel
Ġbelieb te
Sa ale
Ġexp ected
yb rid
ĠZech e
bevÃ¶lker ung
B uf
T F
l ernen
ĠS echs
au scht
Ġw enden
Ġs ort
Ġv ideo
Ġm atcher
ĠP y
den hausen
Ġo k
get Data
che f
ekt oren
teil ungs
wa it
ĠSe ver
ĠGegen stÃ¤nde
SE CON
Ent wicklung
Ġ180 5
Ġmin im
CO MP
Ed it
Ġtime out
Rem ove
Kurz film
ĠVerdienst ordens
ĠKreu zer
ĠGreif swald
zule gen
ĠTschechos lowakei
A K
A gg
B ud
Ä Ĺ
ĠS yl
ĠM oll
ol stadt
ĠE sch
ĠH ip
ĠT Ã¤nzer
ĠW ass
ig o
ĠC lin
ĠVer anstalter
ri fft
Ġun be
ger ichte
ert o
Ġbe zeichnen
Ġ18 26
18 88
sh ort
Ġgew Ã¤hlten
ĠUm frage
eten zen
gew orfen
ĠRech en
ĠHo he
ĠCo x
Ġqu eue
ĠCl ark
Ġind ischen
Ber eich
Ġ180 7
ĠOffiz iere
struktur en
Ġgl Ã¤n
ĠNachbar n
ĠverlÃ¤ sst
Ġitem s
ĠMount ains
Bild ung
ĠEro tik
tau send
ĠErkrank ungen
PAT H
ĠMittele uropa
Setz liste
6 00
C ur
T otal
in stall
sch west
ĠB aus
ĠP aten
ĠL aser
Ġver knÃ¼
op ter
im er
ib m
ult ure
ĠGeb irge
ĠGrund stein
ĠKunst denkmÃ¤ler
ĠHoch schulen
schn ell
ott om
ĠTra ck
aw n
ĠCo us
ĠVers orgungs
ĠPat rim
ĠPaul us
ĠAf D
sl etter
emb ran
gener ate
national mannschaft
Ġaustral ische
Vis ible
ĠLandtags wahl
ĠQue en
Ġbefind lichen
D reh
h Ã¼gel
Ġ 000
st Ã¤
Ġw here
Ġs a
ĠB j
am azon
ĠG Ã¤rten
ĠH Ã¤nd
ĠL E
Ġer lebt
Ġge teilt
Ġan stelle
ul ierte
Ġzu stÃ¤ndigen
ĠSt ark
ger Ã¤ten
Ġtr ugen
St unden
ian ischer
ĠAm tes
Ġ16 00
ĠPar ks
ĠÃ¼b licherweise
ĠSek und
Ġwes entliche
ĠKol onie
ĠInner e
ĠBegr Ã¼nder
ĠâĪ Ĵ
Ġreag iert
dehn ung
ĠStatt dessen
Ġporn o
ĠJubil Ã¤um
ĠAhm ad
Ġoffens ichtlich
Ġbeherber gt
B ro
m ans
p lain
w ider
ĠS iz
ĠF euch
Ġ2 20
Ġst ieÃŁ
op fer
get Node
get Time
Ġsch ar
ĠAb kÃ¼rzung
ĠBr ett
ĠOrt steile
Ġersch ossen
alse kretÃ¤r
co der
ĠRÃ¼ck zug
Ġhistor ique
oo ks
museum s
asp iele
ĠLeon hard
Ġjahr el
lac ement
ĠgenÃ¼ gend
L ayer
a ire
m esse
ĠB eth
ĠL Ã¶s
ĠR ez
ĠSch ein
eb r
18 0
ĠFl u
lei b
Pro blem
Ġbek leidete
Ġher an
Ġeinz iges
ĠBuch es
list ener
ĠSol ar
Ġverlie bt
hÃ¶r en
durch schnitt
Bl ank
ĠAud i
Ġhil f
Ġregul Ã¤ren
ĠNicol as
ĠDiÃ¶z ese
ĠYor ker
C ast
D och
F rag
S ql
Ġ iterator
Ġs ince
Ġs Ã¤chsischen
Ġv en
ĠG uten
ĠP iz
ĠP rivate
ĠH Ã¼tte
ĠT wo
re z
re gen
ab wehr
ra pp
ĠSch ei
id ar
Ġum liegenden
ĠSie b
ĠIm p
sk op
Mit glieder
RE D
Ġbeh andeln
Ġerhalten e
ĠOn t
druck s
Ġsol ange
ĠHe art
Ġsicher lich
ĠTe en
sei tigen
__ __
ĠAbgeord nete
Child ren
ĠtÃ¼rk ische
verl etzung
krit ik
Ġverp asste
riz ona
Us age
Ġcir ca
i able
k reisen
z iele
ĠK iss
ĠK Ã¤mpfe
ĠG Ã¼rtel
ĠF rom
ti zen
tr aining
Ġer mitteln
ĠN an
Ã¼r zen
ĠSch ult
ah men
ĠAn to
ĠÃ¼ber legen
ĠÃ¼ber region
ungs weise
ĠAr min
Ġunter richtet
Ġab gebaut
pf arr
ĠCh i
av ior
18 80
Exception Constants
Ġ0 2
eim ate
amen ten
ĠTeil nehmern
hand le
ĠPhil h
File Name
ĠGl Ã¼cks
Ġerw achsen
ĠRen ten
Ġhal ben
ĠDÃ¼sseld orfer
ĠRitter gut
Ġentscheiden d
Byte Array
ĠGir ls
ĠPau lo
ĠSus anne
ĠFÃ¤h igkeit
ĠBewert ungen
ĠMd L
JÃ¤hr ige
sbed ingungen
ĠBerat ungs
N C
T ool
f onds
h ielt
h ash
p ts
un ten
st eht
Ġs uche
Ġm ember
ĠP all
ĠP lace
ĠW LAN
ĠJ r
ĠC z
Ġt okens
ĠSt Ã¼tz
ĠAn sonsten
ĠEr halt
En vironment
Ġausge legt
icher heits
ĠMo or
Ġober e
ĠÃ¤ gyp
Her ausgeber
ĠBran che
ĠKlass iker
Ġsah en
Ġpart ition
wal de
Ġspec ified
Ã¼h ungen
Ġbelg ischen
ĠAster oiden
Kan al
ĠTheat re
ĠBundesverdienstkreuz es
Verwalt ungs
Ġkonzip iert
ĠvorÃ¼ber gehend
Ġprote stan
ĠEcon om
, -
S tel
g old
ie gt
te or
au gen
ĠK leider
ĠF K
ak s
iz itÃ¤t
ine a
spr ungs
inder te
ĠVol umen
ĠRei s
ĠFol k
ĠDar in
ipp en
kon stru
echs lungs
ĠPhil ip
Ġdi plomat
ĠFolge zeit
ĠLuft waffe
osoph ie
getC urrent
ĠAch ter
âĢĿ ,
mon at
ĠWel che
Ġgener ell
dat ei
ĠVerhalten s
ĠLy on
ĠergÃ¤n zen
Gew Ã¤sser
ĠKons ul
ĠGeschlech ter
ĠDial ekt
Ġberu ht
B ur
D ER
T re
j ana
l on
Ġein setzen
ĠF eucht
Ġf ehler
ĠT s
Ã¶ ser
Ġh yp
ĠN ev
ĠN iger
ent urm
ĠfÃ¼r s
ien ne
ser tion
Ġ18 22
pp s
enn ungs
gl Ã¼ck
mar ck
ĠSe el
hau ser
ĠCon trol
ĠBuch en
ĠNational versammlung
ĠZusammen setzung
ĠSchn abel
tic al
Ġhistor ischer
ĠBro ok
ĠKreuz es
omo tive
Ġprak tiz
ĠKolle ktion
Ġhol z
Ġap i
ĠAuff assung
ĠMittelalter s
ĠWirk lichkeit
ĠjÃ¼ng ste
Hein rich
Ġ655 35
D om
H K
N am
in haber
te au
ar isches
Ġw eiten
Ġs ee
ĠK arn
ti um
ĠN O
Ġp at
ap pt
ĠAl ois
ull y
lei den
ĠQu artet
Ġgesch ah
Ġverb leiben
tif ic
Ġem p
ĠSicher ung
ĠEv olution
ĠprÃ¤ z
rist all
ĠNot wend
grenz ung
Ġap plication
ĠSchles ien
ends With
ĠBegr Ã¼ndung
ĠStan ley
Hein z
Ġenth ielt
ĠHert ha
1 13
F ont
V B
d ocument
g Ã¤rten
z ien
sch ach
Ġw ovon
Ġv olle
ĠB reak
ĠP t
re q
ĠC R
Ġge gliedert
ĠVer mittlung
ĠÃ¼ber prÃ¼ft
Ġbe enden
od ien
iz it
auf bau
Ġsp lit
Ġdeutsch es
Ġ9 4
res et
stan de
ĠGer ichte
mar ken
ĠNational park
ĠGen ossen
anc er
System atik
Ġgegeben e
rev olution
Ġfinanz iert
grÃ¼n der
ĠDigit alisat
ĠKer amik
ĠInterpret ation
ĠLiss abon
G etter
J ean
S ite
U se
n ummern
p ause
s ame
Ġd iv
Ġd oppel
ĠM obile
ĠĠĠĠĠĠĠĠ Ġ
ĠP reisen
ĠT iefen
ĠL etter
ĠI hm
Ġl at
ahr er
ben ennung
ĠSp alten
Ġ18 24
tig ungen
ĠMar shall
fl Ã¼ss
up e
Ar rays
Al low
ilder t
ĠAd v
Or dens
ĠWei den
Ġleben s
tre al
ĠNor weg
Ġwes entlichen
sl alom
ĠTat ort
ĠSem ester
Ġco uld
ĠSound track
Ġmensch liche
ĠHosp ital
Denk mal
ĠAlf ons
Absolute Path
B urg
O t
f ot
u tive
Ġ echten
ĠD eh
Ġm ache
ol ia
ĠF aktor
le f
ĠH Ã¼tten
ĠR ic
ĠV eget
ut able
Ġver mein
ĠSt urz
uf Ã¼gen
get M
ĠMa yer
Ġ17 90
olit h
Ch unk
ĠNord ost
fÃ¼ gt
ĠWei ss
ĠGra phen
ĠOl iv
zie her
ĠKultur en
ĠRu ine
All gemein
Rep rÃ¤sentanten
Her steller
Ġproduz ieren
ĠtÃ¤ glichen
Ġzeich nete
ĠRezep tion
edig lich
ĠFranzÃ¶s ischen
ĠStaatsb Ã¼rger
dependen t
R untimeException
} .<
Ġs ave
de z
ĠH arb
ĠL iver
um ph
Ġh orizont
ĠJ en
ĠSt uck
Ġr Ã¶
Ġr ief
im es
Ġsch ema
aus wahl
rit able
tig ungs
ard t
Sch wer
ĠEurop ap
Ġbeh eimate
tieren de
IC E
ĠAp oll
ĠÃĸff nung
Ã¢ n
Beg riff
ĠIllustr ationen
dev ice
ĠJahrhund erte
D abei
D isp
H or
L ook
b om
h allen
m ethoden
ĠS W
ĠS ag
as List
ĠD ag
ĠM eier
ing hausen
ann y
Ġaus reichen
im i
get In
ĠÃ¼ber arbeitete
lie ss
Ġ18 19
Ã¶r ten
if izierung
18 84
Ġbes etzten
ĠVerein ten
ograf ien
recht lich
kon ferenz
Ġsc an
Jo achim
grÃ¼n de
ĠImm un
ĠBox er
ĠTir oler
ĠNikol ai
VerÃ¶ffentlich t
inten dent
ĠMargar et
ĠKonf ession
ĠLibr ary
g Ã¼ter
u ste
w ann
ĉ ĠĠĠ
Ã¼ bt
ĠK lem
ĠK uchen
ĠF ind
ĠP ant
âĢ ²
ir l
Ġver glichen
ĠSt orm
og ie
im pl
Ġ18 29
ĠStr ess
Ġent sprach
ĠBe au
Ch em
ĠFrei heits
ĠGra v
ipp er
verb ot
Ġmus st
welt meisterschaften
ĠPlan ungs
Le ague
Ġbegr enz
ĠAktiv itÃ¤t
Ġgriech isch
Ġter m
SO URCE
Su ccess
ĠTeu fel
ĠSozi ologie
Ġhum an
C enter
N amen
S ynchron
S epar
h us
t f
ie se
sch Ã¤den
und ing
ĠD au
ĠM Ã¼
ĠF iction
ĠP rec
ĠH Ã¤r
ĠI sol
Ġg laubt
Ġsich ere
Ġr oll
ĠAn merkungen
hn er
Ġ18 12
18 83
Ġsel ect
ĠBe gegn
iden ce
Ġbesch rÃ¤n
ĠKunst historiker
ĠAt tr
RE S
ĠPal Ã¤
mÃ¶glich keit
Ã¼rz te
fest ival
gericht shof
Ġwohn te
ĠEvangel ische
ĠWissen s
VAL ID
ĠKanz lei
reden tial
ĠmÃ¤nn liche
Ġextr act
ĠVermÃ¶gen s
akes pe
ĠCaf Ã©
ĠAfghan istan
G EN
I r
R ud
n on
Ġm ul
Ġz ertif
ĠP fe
ĠL ehn
ĠR uth
âĢ ¢
and emie
Ġh Ã¶rt
ro duktion
ist iken
ĠSch ieds
eh older
mer zen
ĠPro cess
gr Ã¶ÃŁen
ĠVor gaben
ĠVor schriften
sh eit
ĠSte iner
Ġgesch afft
ĠInd ones
hol ungs
stru ct
Ġgemein t
Ġaktu alisiert
haf ter
ox id
ĠKurz film
Gr Ã¼n
gra ph
fÃ¤h igen
ĠstÃ¤r ken
ĠDebÃ¼t album
ĠGewerk schaft
ĠHend rik
ĠGon z
A A
D b
M AN
T Ã¼rk
e urop
m eyer
u y
u alitÃ¤t
st ack
es see
ĠS af
or ger
Ġs obald
ĠB ah
ĠB BC
ĠD iss
ĠD ix
ĠF ur
ĠR um
ĠR aff
il f
ĠJ immy
ell ow
ĠIn tr
ĠSp anier
aus stellungen
ĠGr ass
18 79
ett y
Ġges endet
ĠFor derung
ĠPolit ische
Ein en
Ġper man
ĠLauf zeit
Ber uf
ĠPlan et
ĠBesuch ern
ĠKu pf
ĠBot aniker
flug zeug
Ġte uer
ĠPe ople
Ġselten er
ĠKlass ik
ĠMand at
Christ ian
Liter al
Ġsor tiert
bran che
> </
M ac
S imple
Z ahl
h ow
} );
â Ī
on er
ĠS ier
el ung
Ġb atch
ĠM ore
Ġm ol
ĠT R
ĠT ast
ĠSch eiben
eb st
ri um
men d
Ġun regel
ĠAn sprech
ĠAn notation
ĠÃ¼ber prÃ¼
ĠEin trÃ¤ge
be cker
enz eit
ĠGemein det
Sch Ã¶n
ĠÃľber tragung
ĠLu kas
Ġbeh ielt
Ã³ r
ME SS
Aut o
ĠBur k
ĠDreh arbeiten
ĠLÃ¶ w
Ġverz ichtet
stud io
ĠWol ff
sprÃ¼ fung
Ġlau tete
Ã¼ll te
igar etten
ĠElem enten
:: ::
ĠKrÃ¤ uter
Ġverschw unden
ĠBeweg ungen
Ġmet adata
STR ING
Ġhr sg
ĠUd SSR
ĠDorothe a
+ "
B L
H z
L it
t in
Ċ ĠĊĠĊ
ie ge
on de
Ã¤ ule
ĠB uff
ĠK it
ĠP Ã¤dagoge
ut ing
Ġan treten
ul ieren
ĠSch ritte
Ġbe zahlen
pl us
ĠVor trÃ¤ge
ock t
ĠFran ck
ĠBau werke
Ġen gen
ON G
enden cies
ĠWei s
Ġeinz us
Deutsch es
zei tigen
ĠSer ge
ĠArbeit splatz
ĠKap azitÃ¤t
Ġ[ "
Man aged
Ġgem eldet
ĠSil v
Ġschwer er
Ġgelang t
ĠErfolg s
ĠEben en
ĠEhren bÃ¼rger
ĠHeraus gegeben
Ġverein bar
rick et
ĠGolden en
ĠWÃ¤r m
ĠFle cken
ĠCour t
ĠkÃ¶nig lichen
ĠIndust ri
feature ID
R u
f isch
sch in
Ġs ure
Ġ( +
ĠF lieÃŁ
Ġver folg
Ġc ool
18 85
ĠZeit ungs
Or gel
enk te
ief ern
Ġverl iert
Ġlang jÃ¤hrigen
ĠGast ron
ĠFil ial
has Access
ĠInnen raum
ĠMel bourne
Ġung arischen
Ges amt
ĠZimmer mann
ĠBayer ische
ĠCap it
Ġap ply
MB ER
Ð¾Ð ²
ĠVf L
ĠWorksh op
sem ester
Alex ander
ĠKav aller
ĠAbra ham
D O
E qu
al ity
ĠĠĠĠĠĠĠĠ ĠĠĠĠĠĠĠ
ĠF itz
Ġf ik
ĠH old
tr uppen
ĠN ase
ĠC her
ĠAn ruf
Ġsch arf
Ġre d
rit ter
lei ster
be er
ĠPl ant
Ġgegen einander
Ar ab
ĠY ear
Ġ10 5
ĠFilm produzent
Ġange kommen
ĠBest ehen
Ġersch lossen
lauf bahn
ĠTechn iken
Ġne useel
ĠSchiff es
Ġstud ieren
Ber echnet
mod elle
ĠDam als
ĠIde al
ĠRein igung
ĠPan el
BC I
ĠGerman y
Ġdunk len
Ġbein ahe
Ġnied rig
ĠGh ost
Ġportugies ischen
ĠPoliz isten
ĠEngine ering
ĠEncyclop edia
wÃ¤ sche
ĠSchi ffen
amazon aws
B R
F INE
M or
z onen
Ġ ^
Ġd own
ĠS ven
au cher
ĠF our
le ted
Ã¶ ver
ĠI X
us sten
ad os
zen en
ov o
St ats
our en
Ġbest Ã¤tigte
Ã¶l n
ĠUnter haltung
ank ing
ĠGroÃŁ vater
ĠBern er
oot h
ĠVertr etern
ĠKÃ¼nstler s
Ġverlie h
Ġdr auf
pol izei
Rel igion
ĠKÃ¶nigreich s
ĠPlay er
ĠTelef onn
led ge
Ġargument s
Ġberuf lichen
Theater schauspieler
ĠAster oid
Ġrestaur iert
1 20
D own
b inding
p op
Ġd ay
an schluss
ĠA PI
Ġein gel
ĠE qu
Ġf ried
ĠT otal
ĠW are
ĠR af
ĠN y
ro de
Ġge ehrt
Ġg lobal
ann is
ĠZ iff
Ġp Ã¤dagog
he orie
og g
rie gen
mer s
lie f
ob ahn
fol io
Ġweiter entwick
sb uch
ĠUnter grund
ĠGer tr
ĠHoch stift
Ġverl aufen
ĠSchl ange
Ã¤ft s
ĠnÃ¶rd liche
ĠClass ic
ĠHin dern
ĠEing angs
Ġverz ichten
Ġkehr t
ĠPil oten
ĠJed es
Bad minton
Ġschrift lich
Ġarab ischen
ĠChin as
ĠSyr ien
ĠSympt ome
clus ive
B lack
M ir
P ane
Ġd st
st al
ĠD C
ĠM ater
Ġ( Â§
ĠK ass
ĠH eid
ĠT Ã¤
Ã¶ hm
ĠL ov
ĠR inger
ĠI rak
ĠV all
Ġg reift
Ġan wes
Ġal li
Ġt her
Ġp ossible
Ġdem nach
scha den
ard in
Un s
ond a
ĠSe arch
Ġqu alit
Ġho hes
ĠHof mann
ĠHa wa
hÃ¶ fen
ĠStutt garter
Ġwahr en
Ġregel mÃ¤ÃŁigen
wind igkeits
ĠSchÃ¶n e
Ġbegr aben
ĠEntscheid ungs
ĠbeschÃ¤f tigen
Bahn hof
Ã± a
ĠKÃ¶r pers
ĠBatter ie
ĠBÃ¶r sen
Ġkost et
ĠGeschw ister
Ġnationalsozial istischen
ĠProt otyp
ReprÃ¤sentanten haus
M as
g Ã¤u
j u
Ġd ruck
ie hlt
ĠS ony
ar ing
ĠD eich
Ġin sert
ĠĠĠĠĠĠĠĠ ĠĠĠĠ
ĠK ommen
ĠG R
ĠF uture
ĠP s
ĠP ick
Ġf ran
le v
Ġge he
ĠAn wendungs
im me
Ġa fr
ĠLand schaften
ĠNach ruf
ĠAm ph
ĠStadt bezirk
eigen en
set s
gl adbach
gemein schaften
ĠCon ference
ĠFre y
Ã¤h ern
Tra ck
čĊĉĉ čĊĉ
Ġmein te
ĠPublik ation
Ġrep rÃ¤sent
Ġgolden en
Ġlei stete
ĠGatt ungen
Ġrenov iert
Ġkontinuier lich
ĠJugoslaw ien
g Ã¼rtel
w alter
sch es
sch reiten
ĠD ess
ĠK em
ĠF ul
ĠF oss
ter nen
Ġf all
ĠL P
ĠV W
ab a
Ġdes ign
Ġg Ã¤ng
ot op
ĠSp ons
tern ehm
ib us
geb ir
18 78
anz eige
ĠVor runde
ĠPl ate
zeit lichen
Ġbeg inn
Ġkl icken
str and
ĠBeg leiter
dr Ã¤ngt
ĠReich weite
Ġfest e
IT E
ĠZahl reiche
ĠAss istenz
iat ischen
ĠRot ter
rug uay
Comp uter
ĠBesonder heit
Ġide ale
ĠSl alom
Ġverd ient
ĠAuff Ã¼hrung
ĠSon st
produktion en
ĠKult us
ĠSoll te
ĠTw itter
ĠDiff erenz
ĠPed ro
. âĢĵ
H H
S ommer
j agd
z oll
in sp
in ischer
Ġw olle
ĠP L
ĠP ot
ĠP for
ĠR ade
ĠR ams
ĠR onald
Ġl ob
get Bytes
lie be
lo ok
fer ences
Ġbef reit
Ġget an
meister s
Ġcon s
ĠSe es
schlieÃŁ t
ĠFre ie
ĠJohn ny
Ġbezeichnet en
ĠGeh irn
Ġcreate d
lav a
ĠschÃ¶n er
ĠMil ler
CO MM
ĠhÃ¤ufig sten
ĠVolk es
ĠKomposition en
Ġbelg ischer
Ġthr ough
Tran sport
ĠNapole on
ĠCost a
FuÃŁ noten
ĠZut aten
! =
? âĢľ
A ff
F IN
L y
M eine
l Ã¼sse
u cc
Ġ ec
Ġ ..
ar tement
Ġw eich
Ġs uchte
ĠA j
ĠB ody
Ġin f
ĠE u
ĠP oll
ĠT un
ber eiten
Ġh erk
Ġauf wend
Ġt ab
ĠVer luste
ot es
Ġvor zu
ob a
Ġlie bt
Ġ17 89
Ġel e
Er z
ĠÃľber wachung
els on
15 0
ide os
ĠMan usk
[] []
ĠMo on
ĠSk ispr
aktiv iert
ĠStaats sekretÃ¤r
Ġerz Ã¤hlen
Ġerf uhr
Ġklass isch
ĠWall fahrts
ĠGerman istik
ĠSchlag zeug
Valid ation
ĠAns ichten
ĠChallen ger
D ynastie
M issing
i ation
ĠS ummer
ĠF eh
ĠF ink
de utet
ti ce
ĠT auch
ĠW at
Ġer led
ent wurf
ill is
ĠFl y
br ach
app y
ĠMus kel
spr inger
ĠPol ar
ĠFre undes
Ġper iod
AL OG
ĠKar in
ĠKommun e
Ġ180 4
Ġaktiv iert
Ġversuch ten
ĠOp tik
ĠClub s
Ġvergleich sweise
umer ic
ĠEff ekte
ĠClau de
ĠAusgang spunkt
instr umente
ĠHong kong
Sing les
ĠBolog na
C odes
D M
D onald
M y
l imit
Ġ eis
in itiative
Ġs erb
ĠB ock
Ġi Phone
ĠD A
ĠD raft
Ġm ater
ĠG eiger
ĠW ord
ĠZ ar
rie le
ĠVor bereit
Ġpro gramm
Ġgegen seitig
wick elt
werk statt
ĠSh akespe
Ġcon structor
ĠBel euchtung
ĠKan te
komm ando
iam i
Ġbegr Ã¼ndete
ĠEhr endoktor
ĠPok alsieger
Ġeinzigar tige
ĠPersp ektiven
Ġliefer te
ĠMagn us
ĠPlast ik
ĠVorarl berg
ĠJAXB Element
Ġbesieg te
B all
J ul
T ax
b eln
r ischen
ĠS id
sch ew
sch uh
Ġv iert
ĠD il
hr ingen
ter en
re ader
Ġbe zahlt
Ġ18 23
Ġ18 27
Ġ" \"
ĠKon d
br ingung
iss ippi
ĠzurÃ¼ck zufÃ¼hren
ĠRe eder
Ã¶ch er
ĠFrei burger
ĠTr omp
ĠBest en
Ġbew ohn
ĠVers ammlung
ĠMich ail
Ġzeit gleich
Part ei
Ġfinanz iell
vis it
Ġposit iven
Ġplan en
Top ic
ĠKonzep te
Ġverteid igen
schrau ber
E ner
N N
N et
T en
c raft
t hen
u in
Ġd ran
ie in
ĠD in
ĠD amm
Ġf Ã¶rdert
ĠH ind
ĠH ob
Ġge fordert
Ġver tik
ĠSch am
Ġaus sehen
Ġbe deut
Ġvor erst
ĠAuf satz
ev al
app ed
Ġeigen em
reu ung
ograph y
Ġarb eiteten
ines ische
ĠHin blick
Th omas
ĠÅ ½
Jo urnalist
Ġherr scht
grÃ¶ÃŁ te
ĠWiderstand sk
ĠTats Ã¤chlich
.:.:.:.: .:.:.:.:
ĠArzn eimittel
ĠHels inki
Entfern t
Leichtathlet ik
G i
L L
M el
M ore
k Ã¤
w ache
sch ub
und eten
ĠA ri
ĠB ridge
Ġein heim
Ġm obile
Ġer lÃ¤uter
Ġk andid
Ġg ross
Ġt wo
ic ense
get Local
ĠSp azier
enn amen
Ġent scheidet
ĠAuf stellung
ĠVor sitz
sh afen
Pro vinz
stan zen
ĠSh ang
ĠReich stag
opp ing
ĠVers icherung
ĠArbeit spl
ĠGen re
FuÃŁball nationalspieler
Ġabge legt
ĠSen ior
AS A
ĠGesamt wertung
Ġcomp ute
Ġdat abase
Ġvorher igen
Fol gende
Ġunbek annten
LOG GER
Ġchild ren
Komm un
Ġorien tiert
ĠBade zimmer
ĠAre al
ĠKÃ¶n ige
kre te
ĠPetr us
ĠKrÃ¼ ger
ĠWalt her
ĠAbhÃ¤ng igkeit
B asket
E K
H R
M ul
R oll
d iv
m Ã¼ller
ĠS ten
ĠS ource
as et
ĠM ahl
ĠM aul
Ġm a
Ġn Ã¼tz
ĠF ische
ĠE leg
ĠP ont
ĠW iel
ĠL ack
ĠL ediglich
Ġg old
ĠU K
Ġp our
ĠSt all
ĠSt one
Ġr s
Ġc ustom
op hen
In stances
ĠEn z
Ã¤l te
Ġ4 000
ac a
ĠPh asen
lau tern
ĠZu gehÃ¶rigkeit
Ġbew ohnt
ĠKn ie
ĠFach bereich
ichter stattung
ĠMax im
Ġexist ing
Ġrecht zeitig
ĠElektr onik
Pol y
ĠErk enntnisse
ĠOrd ner
Nieder lage
Ġprofession ellen
ĠLit auen
Ġruh ig
ĠColor ado
varian te
Sdk Internal
! ");
B elege
G TH
J etzt
P reistrÃ¤ger
x e
x FF
st itel
ar fs
ge laden
Ġw eichen
ĠA pfel
ĠB ap
Ġein sch
Ġein her
ti co
ĠL ehen
ĠR Ã¼d
ĠZ elt
qu en
Ġunter zeichnet
Ġunter ird
ib ir
18 66
Ġgeh eim
ĠBl um
ON E
reg iment
ĠReich sk
ĠGen uss
Ġhei ÃŁ
uk le
last ung
Ġmein es
ĠBoden see
Ġregel mÃ¤ÃŁige
Ġcom pare
imen sion
Ġkrit isch
ĠQualif ikations
ĠGÃ¼ter s
stÃ¤d te
ĠZweit ligisten
ĠPie tro
ĠÃ¼ brig
Pers istence
ĠkÃ¼mm ern
ĠObergesch oss
D ATE
P A
P or
S ig
T a
W al
W eimar
t zen
u de
ĠS M
at on
Ã¶ geln
ĠL ion
ĠV R
ĠN ina
Ġt x
ĠSt eiger
ĠIn stand
Ġsch me
Ġtr ace
ĠAuf lagen
setz ungs
ĠUr sprungs
Ġ(âĢ ¦
omb ination
ĠTechn ologien
Ġev alu
ĠBeh Ã¶rde
ĠAnt eile
mod ule
ĠDruck er
ĠEnd spiel
ĠMos k
funktion en
Serv ices
Ġreduz ieren
ĠMis sbrauch
Ġgros sen
Ġstet ig
PROPER TY
SdkInternal List
B inding
C ard
H al
N av
h yd
l yn
m ode
o a
ge stell
ĠG UI
ĠH ost
ĠR eut
om eter
Ġp e
ĠSt ore
ster ben
Ã¶r tlich
Ġunter b
Ġdurch fÃ¼hren
ĠCh annel
schie ben
pro vis
ĠQu art
ĠRei fe
ĠSc reen
ĠLin ux
ĠNatur park
fil men
Ġeinzel ner
betrieb nahme
ĠjÃ¤hr lichen
Ġwirtschaft lich
ĠHum bold
Ġdec ode
ĠRap per
ĠPoten z
ĠHimm els
Ġverabschied et
F ixed
H as
L es
l uther
v ari
Ã¤ ums
ĠG ent
ol y
ĠP Ã¤dagogik
ut in
all a
ĠEr m
get Parameter
get AbsolutePath
ort on
Ġbe zog
lo yd
ĠGr em
ĠKon sum
Ġgew erb
Ġ17 0
Ã¤nd ische
Ġwieder hol
Ġseiner zeit
sb ibliothek
ata ill
for dern
ĠMed ium
Mar ie
ĠGu y
Ãĸ ff
gar de
ĠMath ematic
ĠKompon ente
ĠTurn er
Ġwahr e
bÃ¼ chern
ĠFernseh film
ĠBor is
ĠEhren mitglied
kap ital
Ã¶pf ung
bef est
ĠEvangel isch
Cl ick
ĠMiss ouri
ĠViol ine
instr ument
ĠStell vertreter
ĠShir Åį
Ġerlern te
ĠAgn es
C S
K r
k loster
t mp
Ġ ten
Ġ \"
Ġw a
Ġw ord
Ġs ome
ich i
ĠM ale
ĠG Ã¼l
ol et
ĠF lie
Ġf etch
ĠV es
ro th
ĠC it
eg a
ow ice
get Tag
ĠAl m
stell ungsk
ĠMa z
18 76
ĠZeit alter
gesch nitten
Ġseit lich
wend et
Or ts
link plain
ĠKreis stadt
ĠWill y
weis ungen
fel de
ĠÃ¶ff net
Format Exception
ĠBach mann
ĠTrans action
ĠSied ler
Ġte sten
Ġcolumn s
Italien er
Ins gesamt
Ġreag ieren
Ġaufgel istet
ĠExpl os
ĠRup recht
ĠEnzy klopÃ¤die
ĠErwart ungen
Ġhabilit ierte
C r
C oll
G A
G ar
G lobal
L u
L Ã¤ufer
O der
P UT
l att
r v
w ords
sch ers
at form
ĠK olumb
ĠK evin
ol em
Ġan im
ĠU eber
ĠIn put
Ġun b
Ġj etz
Ġtr ee
lo hn
gr ammen
av ed
fÃ¼hr ende
ĠTh em
pro jekte
ĠUm benennung
Ġange griffen
bo und
Ġzusammen gestellt
ĠHaus halten
Ġ' \
Ġern euten
Ġwei ss
ĠWohn sitz
Path s
ĠLei h
ĠTer ra
Ġhinter lassen
mod us
Ġstamm ten
Ġentstanden e
Ġnational er
irt y
Sub ject
ĠWahr nehmung
ĠRis iken
ĠUrlaub s
Stra ÃŁen
kÃ¼nd igung
Qualif ikation
Ġcle an
Bran denburg
kont akte
Ġausgesch ieden
ĠSkla ven
beteil igung
D Ã¤n
S eiten
Z eitung
a endert
c odes
d n
h ib
an os
ĠS lo
ĠS egment
ĠS ultan
ar ab
ge hr
or ama
Ġw usste
ĠB ien
et al
ĠP ius
ĠP Ã¤dagog
ĠH Ã¤ft
den berg
ĠL ars
ĠR end
ĠR ass
ach tete
ĠO ch
Ġl an
Ġc ause
In tern
ĠOr din
18 81
ĠBau arbeiten
ĠUnter k
ĠTh ese
Ġbet rifft
ĠBe ein
man gel
ĠFamil y
ĠMon tr
schlieÃŁ ung
Ġkon vention
Ġlang jÃ¤hrige
bei trag
Ġ180 1
Ġsub sp
ĠAuftrag s
Ġelektr onischen
ĠBesonder heiten
Ob serv
Gate way
l ation
on struktion
Ġb itten
ĠK ate
ĠR ib
re geln
Ġh ellen
Ġh Ã¼b
ĠC lan
ĠO S
ĠSch okol
ĠIn fl
Ã¼n n
ĠSp eed
iz en
Ġunter e
ĠCh at
18 82
ĠEurop Ã¤
Ġkon sequ
ĠDu ell
ĠÃĸsterreich ische
Hand ball
Ġkurz fristig
ĠZug leich
SC H
<? >>
Sport liche
ĠjÃ¤hr liche
ĠTur k
CON T
Ġeingesch rÃ¤nkt
Ġcont ains
typ es
ĠansÃ¤ss ig
Ġbedro ht
H ar
I K
R en
j on
ie hen
st ums
Ġs am
ĠB rÃ¤
ĠM Ã¶rder
am me
ĠH i
ĠW im
ĠL utz
ier n
ĠC ord
Ġver gangen
ĠZ Ã¤hne
sp Ã¤ter
Ġst eckt
ap plication
ers atz
ĠAb kommen
ĠAuf sicht
th aus
ens or
Al b
ĠJan e
ĠMan che
ĠSÃ¼d seite
gebiet es
erg ie
ision s
Ġdah inter
ĠAs yl
ĠWein bau
Ġung arischer
Ġjeden falls
Ġverz wei
Min ister
Byte Buffer
Lin ks
ĠSchr Ã¶der
Ehr endoktor
ĠPak istan
F E
o om
s Ã¤tzen
y en
â ĨĴ
in herit
an trieb
Ġs en
Ġs ingen
ĠM am
Ġm c
Ġz iel
ĠG overn
Ġau spro
Ġf ail
is ierungs
ĠL Ã¼b
Ġst eigern
ap par
ĠÃ¼ber fÃ¼hrt
ĠAr range
ac ters
fl Ã¤ch
up Ã©
ĠBl as
stein s
Ġgel assen
ĠMenschen rechte
Ġerfolg los
ĠsÃ¼d afr
ĠStand orten
fra gt
ĠSohn es
ĠmÃ¼s ste
ĠRegierung schef
LA Y
Pr int
ĠDate Time
Jose f
Ġstren g
ĠRal f
ĠEintr acht
ĠNAT O
O ffiz
j s
al ische
sch Ã¼tze
ar et
or iginal
Ġw ild
Ġs onn
ĠB ebauung
ĠK eil
ĠG ei
ĠG Ã¼
ten ded
ĠT ee
ĠW essel
Ġg laube
ĠO den
sen z
Ġver eint
ĠZ yp
Ġt iefen
Ġum gehend
ef el
rau ÃŁen
ĠAuf hebung
Ġgew achsen
be arbeitung
Ġ7 50
ĠPar ti
ĠEl be
ĠCon serv
Ġben annten
fr em
Ġabge halten
ĠOlymp iasieger
DE X
Reg ister
ĠArbeits gemeinschaft
ĠGesellschaft s
Sh op
rÃ¤n kung
Ġzul Ã¤ss
Ġkrit isierte
Ġerheb liche
ĠSchwar zwald
Se q
Ã¼h ler
Ġtau cht
ĠSupp ort
#### ####
d iff
h ans
k ompl
ĠA hn
ĠA rea
Ġb aut
ĠG rant
ĠR umpf
tr itts
om orph
ab y
ĠO swald
ĠSch affen
ag ten
ĠIn vas
Ġsch Ã¤tz
Ġsch icken
Ġtr ag
lo y
Ġre den
ohn ern
ov ice
Ċĉĉĉĉ ĉĉĉĉ
ograph ien
23 4
Ġbede utete
ĠStaat lichen
ĠUl tra
ĠgrÃ¼n den
ĠEnerg ien
(( (
MP TY
Ġwohn en
ĠBud dh
ĠStift ungs
ÅĻ ÃŃ
ĠdÃ¤n ische
ĠVul kan
ĠHanse stadt
ouv elle
ĠSanti ago
L egen
M aterial
s zene
w n
Â ¤
Ã ²
Ġ reisen
en gt
ar p
ĠA rizona
ĠD atein
le ktu
ĠH amp
ĠSt abilitÃ¤t
ow ina
os kop
rÃ¤ te
ok ko
String s
up s
Ã¼nd lich
Ġ10 1
Ġher ab
ĠPar ag
ĠBundes kanz
ĠMon ika
so ftware
ĠSchl Ã¶sser
ĠLin ke
ĠFlug platz
com e
ĠBel grad
Ġvoll stÃ¤ndigen
Person en
hei de
Fac tor
med ien
IC H
ranken haus
ĠVerwaltungs sitz
ĠEmpf Ã¤nger
Ġsowjet ischer
Ehemal iges
ĠAdels geschlecht
ĠNam ib
ĠRestaur ierung
LEN GTH
ĠKlagen furt
ĠBakter ien
Publik ationen
) }
I X
J S
a dern
m is
m ore
t Ã¤
y y
Ġ ):
ĠS D
ĠM Ã¶r
ĠP ab
ĠL ub
ĠR eck
tr ast
tr ac
ĠO hren
Ġver folgen
os er
Ġc ls
mer kung
ass o
ĠStr ahlen
18 67
ant is
Ġbes iegt
IN FO
gew Ã¶lbe
Ch arts
ĠLu cas
ĠPr inc
ĠVerb ot
Ġern euer
Ġur auf
ĠEd itions
aktiv e
bez irks
ĠHa ftung
Ġtyp isch
ĠÃ¤uÃŁ erte
Block ing
ĠVerd acht
Ġvis it
Johann es
ĠGroÃŁherzog tum
ĠWell ness
Ġgros se
ĠPac ific
ĠEli te
M aster
V iel
V irtual
Ġd etail
ĠS ituationen
Ã¤ he
ĠA BC
as a
Ġin mitten
ĠK lage
ĠG eister
ti ces
ĠT ed
ĠL yr
ĠJ un
ĠU hren
Ġp red
Ġp Node
Ġun mÃ¶glich
ew ald
get User
ec tive
ĠAr te
Ġsp itz
ĠMit arbeit
Ġ- =
ĠAuf trÃ¤ge
inder ten
Ġen tries
Ã¤rz te
ĠCon figuration
Ã¶st licher
ĠRom a
ĠDi agnose
ĠPat tern
ĠTer rit
wand lung
ĠRef lex
Ġinstance Value
Ġkosten losen
Ġbestimm ter
ĠStad ium
Ġelektr onische
Ġabsolv iert
ĊĠĠĠĠ ĉ
ĠAnder son
Ġrei fe
ĠGottes dienst
Ġdest o
Ġexec ution
ĠunabhÃ¤ng igen
Ġschlech te
ĠGefangen en
Ġinnov ative
ĠHT ML
Ġhoff e
Kanad a
Ġentstamm te
ĠStett in
B its
P ure
b og
b els
o hr
s n
v r
er it
it Ã¤n
ĠA B
ĠD ichtung
ĠG m
ĠP Ã©
ĠW ick
Ġer teilt
Ġh igh
Ġh Ã¤ngen
Ġzu zu
Ġa ccount
ĠVor lÃ¤ufer
ĠStadt mauer
Ġe ver
fÃ¼hr ungs
Ġex akt
add ress
ĠWir bel
Ġ12 8
ĊĊ Ġ
[] {
ĠLandes hauptstadt
ĠAt tent
Ġfest stellen
ĠRad sport
čĊ ĠĠĠĠ
čĊ čĊĠĠĠĠĠĠĠĠĠĠĠ
anc y
ĠĠĠĠĠĠ ĉĉĉĉ
ĠAuÃŁen minister
Ġ179 3
Ġverein bart
Ã¶pf en
ony me
comp iler
Ð¸ Ñ
ĠByte Array
Ġfreiwill ig
Bek annte
Lou is
P ad
s icherheit
w oche
Ġ Ã¶stliche
Ġd ra
ĠS i
ĠS ams
al ischen
Ġs ehe
ĠG ia
ĠP ert
ĠH MS
ĠT et
ĠL ingu
Ġim port
Ġan dern
rei be
ĠO le
Ġver wirk
ĠU V
ĠSch ema
Ġt s
Ġun weit
ĠAn passung
Ġwir st
ĠÃ¼ber nahmen
Ġ18 17
Ġent z
yp h
Ġtr aum
ia de
ĠMar ion
Ġet liche
ĠFran ch
sb eg
Ġbeg leitete
Un ion
gew ehr
lau t
ĠDar unter
Mar kt
ĠOst see
ĠTer mine
ĠBesch werden
Ġempf ohlen
ĊĠĠĠĠĠĠĠĠĠĠĠĠĠĠĠĠĠĠĠĠĠĠĠĠĠĠĠĠĠĠĠĠĠĠĠĠĠĠĠĠ ĠĠĠ
Ġpassen d
zub ringen
Ġnotwend ige
double Value
ĠgÃ¼nst iger
Ġbean trag
Ġpubl iziert
Ġerl itt
Ġheader s
Europameister schaften
ĠBekann theit
B Ã¼
T M
b ing
p zig
ei me
Ġw on
ĠI ce
ĠV ariable
Ġauf zunehmen
ĠSch ub
ĠSch ichten
Ġp al
ang a
ass istent
Ġtr eu
18 71
fl ossen
los ure
Ġpro gress
Ġle ere
ans ion
ĠEl l
ĠMon treal
ĠPr inzen
ha elt
Ã¤ng ern
Ġall mÃ¤
Ġ> >>
ĠEm ir
jÃ¤hr iges
Ġy our
ĠSchweizer ischen
ĠAnt wer
ĠSen ator
ĠBÃ¶ den
Ġfind By
Ġac cept
Nieder lande
Ġschot tischer
marsch all
ĠÃľb ungen
sÃ¤nger in
Bef ore
Ġstation iert
ĠOR F
Requ ired
ĠNotwend igkeit
ĠHumbold t
G l
N eg
N eue
g ru
n ien
Ñ Į
er ent
on c
Ġein ver
ĠG Ã¤rtner
ĠH eld
ĠW DR
ĠC ow
Ġge form
ing st
ĠSch aum
ĠâĢ Ļ
ĠSt op
ĠDie go
pl ates
ĠOr b
if ec
ast ral
tem pt
ens eits
Ġbef asste
Ġzwischen zeitlich
Al so
ĠAd rian
ĠGer Ã¤ten
ĠPf eil
tier ter
out ube
ĠGar de
ĠPass wort
ĊĠĠĠĠĠĠĠĠĠĠĠĠĠĠĠĠĠĠĠĠĠĠĠĠĠĠĠĠĠĠĠĠĠĠĠĠĠĠĠĠ ĠĠĠĠĠĠĠ
ĠBÃ¶ hm
Jo in
Re gel
LO CK
ĠPop ular
ĠprÃ¤sen tierte
ĠMaschinen bau
ĠGericht shof
Ġgebild eten
ĠEg al
ĠHub raum
ĠNeb el
ĠFF DC
Ġbetr achten
ĠErgÃ¤n z
ĠBewerb ung
rieden heit
Sta ats
ĠVolley ball
ĠAnsprech partner
T itle
a ine
c onn
h ir
y i
un ternehmer
ĠS Ã¤chsischen
ge kommen
Ġv ollen
Ġein setz
ĠW Ã¤nde
ir ken
Ġk rank
Ġim m
rei fer
Ġo hn
ĠAn atom
rie ve
hal er
Ġab weichen
Ġent tÃ¤u
ĠAb teilungen
St aat
alt es
fl anz
sk irchen
Ã¼t ung
Ã¤nd iger
Ã¶ff nungs
Er folg
Ġgesch eiter
ĠBet ten
ĠRech nungs
Ã¤nder ten
ĠEm otion
ĠGl etscher
we alth
ĠfÃ¼nf te
ĠBas eball
ĠBÃ¼rger krieg
ĠBi ologie
Ġsol ches
Ġhinter en
ĠMehr ere
Ġerfolgreich er
ĠElektr om
Sub scription
ĠHan au
vel ope
ĠWahr scheinlichkeit
ĠAngriff e
ĠGesprÃ¤ che
Ġnorweg ischer
ĠVit amin
ĠIndian er
ĠApost el
ĠVinc ent
Ġkompon ierte
) ),
G ast
R ichter
W inter
d an
k amer
Ġs m
ĠA ccount
ĠK essel
le der
ĠH l
ĠH ugh
ĠR og
ĠR ain
Ġh ielten
ĠN BA
ĠN acional
Ġan halten
Ġzu fÃ¤llig
ug ins
Ġum welt
gr en
erk rank
ĠKon figuration
ack te
br Ã¼che
Con st
Ġ17 00
gesch Ã¤fte
fer ien
stan ten
Sch au
ĠSti ck
ĠFr Ã¶
Ad min
achte ten
LE TE
ĠWinter spielen
ĠAnt hrop
Ġklass ischer
ĠPhilipp e
Ġret val
ĠBud get
ĠHum or
Ġbelieb testen
Ġgleichnam ige
Polit ische
trans form
ĊĠĠĠĠĠĠĠĠĠĠĠĠĠĠĠĠĠĠĠĠĠĠĠĠĠĠĠĠĠĠĠĠĠĠĠĠĠĠĠĠĠĠĠĠĠĠĠĠĠĠĠĠĠĠĠĠ ĠĠĠĠĠĠĠĠĠĠĠĠĠĠĠĠ
ĠBurgen land
ĠWis consin
Ġflie hen
ĠAlli ierten
feuer wehr
ĠGab riele
ĠKontin ent
Ġkont ak
ĠErzbist um
ĠBehand lungs
ĠBuen os
I Z
J eder
S achsen
S ection
S Ã¶hne
W ieder
b ungen
f lieger
k urz
y al
Ð ¼
er ial
un fall
ur b
ĠM E
ĠK atze
Ġn ebst
ĠG ig
is ser
ĠR eturn
Ġk reuz
Ġl as
sp unkte
ah a
ĠDie t
Ã¼ber tragung
get Status
ĠÃ¼ber leben
ru h
ĠEin nahmen
Ġa ff
Ġber uh
iker in
ĠBl ind
Ġkl are
ohl t
ĠGra ham
ĠAk k
ĠFr is
ĠFr isch
verb und
ĠMet aph
key s
ĠgrÃ¼n e
produ kt
ĠAf rik
ĠAir port
ĠVal ent
And re
ĠÅ ļ
Part ner
ĠGlas gow
DI ALOG
ĠGru ben
ĠBelast ung
gÃ¤ ste
gesprÃ¤ ch
ĠPazif ik
ifec ycle
H Ã¶
P redicate
R obert
S napshot
l Ã¶s
m ischen
u gel
v om
st age
al and
sch Ã¤tzung
or de
it enk
Ġs ank
ĠM ent
ĠM AX
ĠK ick
ĠP uppen
le ans
ĠT ot
ĠW elle
ĠL eichen
ĠC ant
Ġk Ã¼r
Ġan sehen
Ġr unden
Ġre par
ust on
ĠVor kommen
lag ert
mit gliedern
heit lich
Ġth em
Ġcon trol
Ġverb lieb
Ġgef Ã¼llt
AT ED
ĠChrist ina
hand ler
Ġverw andt
uck s
anc ouver
ĠDis c
Obj ekte
ĠBall ett
Ġtem por
ĠVerband es
Ġac tive
Ġgeschaffen en
Ġrep lace
Ġnied rigen
ĠGran de
ĠMari anne
Syn drom
ĠJon athan
ĠAufent halts
ĠgÃ¼l tigen
ĠZy linder
ĠbemÃ¼ ht
ĠBetroffen en
p n
w t
at ra
ĠM P
em on
ĠK Ã¤ufer
ĠK ansas
ĠP M
ĠL enk
ĠC hen
Ġk rei
Ġge druckt
Ġan statt
ul u
Ġst immt
ungs zeit
Ġj av
ru ption
Ġent w
Ġ" ).
Ġbest ens
Ġbest attet
ĠBr et
fer red
ekt akul
ĠUS D
ĠÃĸ st
mar ine
ĠPlatz ierung
Ġgel Ã¶st
ĠMo hamm
dr unde
ipp ing
gleich en
ĠFre quenz
ĠBed rohung
ĠChar acter
wÃ¼r de
Ġ180 2
Ġkathol ischer
Ġrec ei
Ger man
Rad io
Ġvergleich bar
sex amen
Ġcomm on
ĠLi bert
Team s
Ġgesellschaft liche
Vis itor
ĠQuadrat kilometer
Ġlandwirtschaft lichen
minist ers
Krit iken
Ġmer ge
ĠQue ens
ĠStol per
gÃ¤ng ig
QUE ST
Schwe den
ĠSatell iten
ArchÃ¤ ologischer
ĠMunicip io
Ġherk Ã¶mm
( -
2 50
c ole
k Ã¤mpfen
ã Ĥ
Ġs enk
ĠD all
ĠD ecke
Ġm essen
ĠE L
ĠE cken
ĠL ug
tr itte
and ie
ĠC rist
Ã¼ber sicht
Ġj ugend
ec tic
Ġvor geschrieben
Ġunter zeichnete
ĠAus lÃ¤nder
ĠMa gen
str ument
ĠMen Ã¼
Ġeigen s
ĠAut hor
ĠTr ik
ĠFÃ¼r th
ement ation
AR Y
Ġletzten dlich
ĠBÃ¼rger schaft
ĠRel ation
Ġempf ing
ĠBruder s
Content Type
ouver n
Ġprom inen
ĠÃ¼bergeben e
ĠDE FAULT
Ġdeutschsprach ige
ĠStudio album
Ġfal sche
wÃ¤l der
ĠÃ¼brigen s
ĠCanad a
ĠMeld ung
Ġverlang t
ĠMÃ¶nchen gladbach
H alle
b eben
j ekten
å ı
Ġw ander
ĠB ann
Ġm ac
ĠE k
Ġh aupt
ĠN ob
ĠC u
ĠC urt
Ġan gewiesen
Ġal lt
Ġver sp
Ġver legte
Ġun bew
ate ur
iz ismus
Ġum gest
ek und
ĠGr Ã¶n
18 73
pr esse
sb est
Ġbeg angen
Ġres et
stand es
such ung
con vert
ĠSti rn
Ġlang uage
ĠEd mund
Ġinter nen
Reg istration
ĠGu ido
ĠBro ck
Amer ican
Max imilian
Ġstammen de
ĠHab ilit
ĠBrig itte
ĠZeu gen
Ġfinn ischen
Zentr um
ĠMinn esota
spol izei
Ġkonkr eten
D D
G alerie
Z en
m ake
s ul
s amen
s ide
t Ã¤tigkeit
} ;
ch rist
st immung
an kt
Ġs equence
Ġm ieten
Ġf lei
ĠW elten
ĠR ies
ĠEr reichen
Ġnach zu
ĠEin es
ĠAr tikeln
ĠSie mens
Ġes cape
ĠAb bruch
of ft
18 64
18 77
18 74
ĠVor gÃ¤nge
los ing
Ã¤nd ischer
Ġen coding
gew Ã¤sser
ĠMan gel
ĠSe a
ĠNew sletter
Aus bildung
Aus stattung
ĠgrÃ¶ÃŁ ter
ĠgrÃ¶ÃŁ erer
ĠSk el
Ge ometry
ĠSport arten
ĠGut achten
ĠKor ps
eiger t
ĠFrie der
ĠÅ ģ
Ġ179 4
vertr et
ĠBil anz
shof en
esh old
config uration
NS DAP
Ġchrist liche
berech tigt
array copy
Auth or
ĠBeob achtung
ĠDatenschutz erklÃ¤rung
Ġangew endet
ischÃ¶ f
schi ffen
ĠMaur ice
ĠMetrop olit
Ġbefest igt
ĠFerr ari
ĠMoz art
ĠLiver pool
) /
= \"
I llustr
h eid
j er
k asse
p Ã¤dagog
Î ·
Ġd isplay
st unde
st Ã¶rungen
el in
ĠM eist
Ġein genommen
ĠP kw
Ġf usion
is i
ĠL ep
ĠN ak
ĠC P
Ġauf steigen
ad Ã©
sp erson
Ġr ufen
Ġr ichten
Ġc ms
ĠÃ¼ber gab
ĠSp eyer
In tegr
Ġtr ennen
ĠAb sicht
per ten
cht es
Ġbeg ab
ĠEnt lassung
ĠBes iedlung
ĠLu ck
buch t
Ġgeb rÃ¤uch
ĠEm ma
hand werk
yr er
ĠVertr etung
ĠAnt arc
Sc ore
ĠKlein stadt
Ġwichtig es
ĠOs man
Ġerk rank
Ed itor
zus ehen
ĠTÃ¼r ken
ĠpreuÃŁ ische
ĠState ment
Ġdre hen
Ġdein em
Ġnorweg ische
ĠNight ing
vol umen
ĠEinz eln
ĠMov ie
Ġinterpret iert
Inf os
ĠGebir gs
ĠDiskuss ionen
ognition Exception
A g
B order
B Ã¼cher
C le
C arl
a art
b Ã¼r
f eind
p Ã¤dagogik
r Ã¤t
r Ã¶m
s yn
Ġd omain
ei tig
ar ies
Ã¤ ften
Ġi v
Ġf ilename
ĠSch af
Ġl okal
Ġp ush
ĠAn fÃ¼hrer
end igung
Ġsch einen
Ġtr eiben
ĠAus kunft
ges und
sh o
sh op
ip se
Ġe ure
Sch les
Ar n
Er mittelt
Ġen den
Ver fahren
rech ter
stÃ¤nd iges
ĠDar auf
ffiz ient
ĠPhil ologie
ĠDu ft
ĠDi mension
techn ologie
ĠDem o
ĠRein hold
ĠPe ak
laf zimmer
Org an
Ġkontroll iert
genossen schaft
ĠChallen ge
ĠungewÃ¶hn lich
ĠCommon wealth
Ġabw echslungs
ĠBefrei ung
ĠMagdalen a
bÃ¶r se
ĠCott bus
E LE
S ehr
V C
n itro
p attern
s eller
st urz
ei a
ĠS ED
te ams
Ġs lowen
ĠK app
ĠE if
ĠP ent
ĠP reistrÃ¤ger
ĠH arn
ĠW och
ĠN as
Ġg raf
ist oire
ien d
Ġun zÃ¤hl
ru pt
Ġunter einander
Ġent warf
ĠAuf treten
18 75
sb ew
Ġ13 00
ĠJul ian
ĠKunst halle
ĠGener alsekretÃ¤r
Ġlang fristig
Ge ographische
ĠGel ieb
čĊ čĊĠĠĠ
ĠGu ard
amb da
ĠWolf sburg
ĠProjekt es
Ġfr ame
Ġruss isch
ĠWal ker
aun us
CH AR
Ġausgew Ã¤hlte
Min uten
Fe atures
Ġerforder t
ĠFund ament
ĠBig Decimal
Valid ator
Ġfra gt
ĠEss ay
ĠTime Unit
ĠEdu c
arkt is
Ġgaran tieren
Ġhervorra gend
Ġnames pace
ĠRal ph
ĠKell y
Ġdrit ter
ĠWÃ¶rter buch
Spl it
inherit Doc
> ");
A UT
P rev
es ia
el tern
ĠD ing
ĠD ez
ĠD evelopment
um me
ĠJ av
Ġan al
eu gen
ind ler
ben e
eil le
get Y
mer z
Ġ18 11
ĠOr leans
ack s
ĠSti fter
ĠForm ular
ĠSc ot
ĠRom ans
bes uch
las spath
ĠErfahr ungs
ĠVal entin
Mon th
Ġqualif izieren
pack t
ĠBÃ¤ cker
PAR AM
ĠLaw rence
ĠVerwand ten
rein igung
ĠRobin son
ĠBaumw olle
Fra ktion
Ġintel ligen
Dav id
Separ ator
ectic ut
1 15
C RE
E E
J ac
M AP
N ik
P reuÃŁen
t otal
ie tet
ĠA uer
Ġb its
ĠD ikt
ĠM Ã¼ll
ĠK od
ĠH ydro
ĠT uch
ĠL isa
ĠR ott
ĠR TL
Ġh ead
Ġzu stande
Ġver teilen
ĠEn ts
18 68
Ã¶l ler
An n
geben den
wa der
eig ten
sche e
schl usst
Ġverb reitete
ĠReich stags
ĠKultur denkmale
ĠPass au
tra it
ĠAuftrag geber
jo urnalist
ĠSw iss
ĠLÃ¤nder spiel
Che f
ĠEhr e
Ġanzu zeigen
BA SE
Bundes staat
ĠlÃ¶ schen
ĠFass aden
ĠWirk ungs
ĠSchreib weise
Ġmittelalter liche
Ġnachhal tig
ĠHÃ¶l le
Ġbehaup tet
ĠzeitgenÃ¶ss ischen
ĠSchaff ung
ĠUns upported
ĠMyth ologie
ĠTerritor ium
A ktion
W ild
b ot
Ġd ebug
ĠS H
ĠB ent
as mus
ĠM Ã¼l
Ġm is
ĠF liegen
ĠF Ã¤cher
ĠE isk
ĠP om
ĠT ango
Ġer laub
and ra
Ġge mal
ĠSt Ã¶r
ĠSt umm
ĠIn zwischen
ĠVer einen
Ġaus ser
ed back
Ġst iegen
Ã¤n gel
Ġr einen
esch en
ert s
ĠStr als
ĠEn tr
ĠGr unde
Pro zess
Ġges ungen
riv e
ĠMon ster
Ġgleich geschlecht
ĠLu igi
ĠVol t
ĠVerb rauch
Ġall owed
ĠSchul den
ĠLebens weise
ĠSchm el
ĠErst ligisten
spro blem
fel den
ĠKreuz ung
Ġfre ue
Her ren
ĠLau ter
Ġpass ieren
ĠKron en
ĠÃľberg angs
ĠFin anzen
IG N
Stud ien
Ġtau send
kom Ã¶die
Ġliter arischen
ĠProfess oren
ĠNerv en
ĠHex en
names pace
ĠWorksh ops
ĠHaupts itz
ĠGetr Ã¤nke
ĠGep Ã¤ck
grÃ¤ ber
Austr alien
ĠKavaller ie
C AC
k Ã¶r
Ġ tier
Ġ Ã¤ndert
in formation
ĠM auern
ĠG iebel
ĠF ri
Ġf ur
ĠW u
den burger
ĠR equ
Ġer setzte
ab kommen
ir men
ic it
ĠAn ker
âĢľ ;
iz able
ug uay
qu er
ode st
ĠCh ief
Ã© g
Ġman geln
sb esch
Ġher z
Ġverb reite
ĠDar aus
co in
ĠStand orte
class Name
Index Of
Ġgem isch
ĠAu schwitz
ĠEle f
ĠBef Ã¶rderung
istr ator
ĠNor men
ĠOper a
ĠTo urnee
ĠHerzog s
Start seite
Ġ179 2
ĠKamer amann
Kir ch
kor ps
the orie
ĠKas ach
Ġrule Jvm
ĠLeich e
Stat istik
seg ment
ĠKonzentr ation
gelegen en
Pointer Exception
H ub
T B
b usch
f uhr
q Path
s ich
s icherung
el k
Ġb al
ĠM ob
ĠT herap
ĠI van
Ġk ub
ĠSch ull
get Text
ĠUn entschieden
iz es
Ġunter s
Ġab sch
geb unden
tig keits
wer tet
sb eh
ĠKl arin
ĠY oga
Ġen vironment
ĠgehÃ¶r enden
ĠÃĸ VP
bo y
zei le
akt ur
Ġgeb rochen
kon zep
Ab schluss
IT H
ĠUl rike
ĠDenk mall
ĠFort schritt
Trans form
ĠEhr enz
Ġumfassen d
ĠMol ek
ĠIter able
Ġabgeb ildet
Ins eln
Ġlatein ischen
ĠBem Ã¼hungen
Original titel
ĠKonflik te
ĠangehÃ¶r te
bil dern
verÃ¶ffentlich ung
Abgeord neter
F ort
I dentity
f acht
k ologie
p df
} -
Î º
Ġd elta
ein g
Ġw endet
ĠD S
ach rich
ĠN Ã¤hr
ag an
ag ramm
ungs verfahren
Ġ" )
ill i
18 60
olog isches
ĠGes ell
Ġerst aun
ĠAd olph
Ġ14 00
Ã¤u schen
ĠFrank lin
ĠSe ef
ID s
Ġdort hin
Ġverschieden sten
alis ierten
ĠNational rat
ĠSchul jahr
kon trolle
platz ierten
Ġ(! (
Group Id
Ġrel ative
ĠTre ppe
ĠHe alth
Ġexist ierte
Ġfl achen
ĠHom burg
ĠBek Ã¤mpfung
Ġsonst ige
jo in
ĠNachbar schaft
Ġinform ation
ĠEst land
Ġfrem den
Ġinspir iert
beu tel
Ġakadem ischen
Hil fs
Ġlux emburg
ĠRug by
7 00
O k
b ig
b io
c ollect
p oten
w ochen
sch ritte
au to
Ġb ud
Ġb ilder
Ġ1 11
ĠM iami
Ġz Ã¤hlten
ĠG ray
ĠP end
ĠW ed
ĠR asen
Ġge zeichnet
Ġr uft
Ġwar tet
ĠEin nahme
geb r
ĠMit teilungen
18 63
ac cess
Ġweiter lesen
ĠRo berts
ĠBo u
ĠÃľber reste
ĠVerein barung
ffiz ienten
ĠHÃ¶ hlen
Ab teilung
ĠWer ten
ĠObj ekten
Ġstark er
>> ()
lech ter
ĠTri umph
Pl us
ĠSek unde
ĠTest s
Ġchar acter
Ġunver Ã¤ndert
hÃ¶r er
ĠPil ger
Ġkor rig
Ġstattf indet
po ints
ced ure
Ġdec lar
Ġheil ige
Ġwunder bar
ĠÄ °
ĠAltern ativ
ĠAllt ags
Ġnam entlich
ĠAnwesen heit
ĠHess ischen
Wor ld
ĠMittler weile
ĠOri ent
ĠFres ken
Ġeig nen
ĠOnt ario
F arb
G rad
P seud
P andemie
R ing
W ettbewerb
f Ã¶rder
p aket
x ff
Ġ ess
ge mÃ¤
am an
ĠT enden
ĠV ie
ro g
se hr
ir i
Ġg Ã¤n
Ġg lie
rei z
rei bst
Ġl isten
ĠâĢ º
ĠSt al
Ã¤n ze
enn ten
tem plate
tem porary
set Attribute
Al tern
ystem e
ke a
ĠRe zension
ymp os
ĠHÃ¶ cke
ĠKar os
ĠBi ber
uk i
ĠBru ce
ĠPal ais
ĠPlan ungen
komm un
zy klus
ENT ER
Ġelektr on
Br ig
CH AN
Hol z
Sel ector
ĠKop ie
ĠDigit alisierung
ĠJSON Object
ĠHauptr ollen
Ġinn eh
spf licht
ĠLiebl ing
g attung
j urist
m ungs
r asse
} /
Å Ī
Ġ ~
ĠS ymbole
Ġs ing
ĠB lech
Ġb lu
ĠM old
ĠK ette
ĠG ri
ĠF ull
ĠP ist
Ġf ot
ĠR ick
ĠR aketen
om i
Ġ2 30
Ġg reifen
Ġan trat
ĠSt apel
Ġsp ont
gr unde
ek e
Ex port
ĠAb fall
fl ut
ahn sinn
li ppen
cht ung
ĠBo urg
Ã¶ÃŁ t
Ġbesch leun
ĠKÃ¶nig lich
ĠMod us
ĠRes p
ĠHel ene
IS O
ĠGar den
ĠNot fall
Comp lete
ĠPop ul
histor ische
ĠAbst immung
ĠBem erk
ĠBasil ika
ĠJord an
Ġverblieben en
ĠBuk arest
ĠLegisl atur
Bag Constraints
H of
J Ã¼rgen
g aden
o ster
Ġ ĊĠĠĠĠĠĠĠĠĠĠĠ
Ġd ek
Ġd eter
sch Ã¶n
or tiert
Ġn s
ĠP yram
ĠT ool
ĠR inge
ĠV ancouver
Ġan alog
rei fe
ic um
ver n
os o
Ġr ender
ak el
ĠPro gress
Ġsp ir
par l
18 72
Ġbest es
ĠString Utils
kl ein
Un known
Ġ10 3
fe at
Ġange h
Geb iet
Sie ben
ĠFol genden
Ġrech nen
Ġentfern ten
ĠOt her
ĠRecht sprechung
ĠDesign s
Ġ179 7
emb les
Access Exception
ĠKlass ische
ĠZul etzt
ĠKub a
Ġimpl emen
ĠSchmer z
vorg ang
Bin ary
Ġurauf gefÃ¼hrt
K A
M aj
S m
S ound
p okal
p ush
s amm
Ġd one
or ing
Ġb ucket
ĠG y
ĠG os
ĠF ick
ĠF eiert
ĠP ig
ĠP Ã¶l
ĠL agen
ĠR id
Ġauf ger
ik alen
sp rÃ¤sidenten
Ġwir ft
ĠEin leitung
Ġzur zeit
ĠEn ter
Ex ternal
ĠGr atis
ges ucht
fahr zeugen
geben e
kl ub
Ver lauf
ĠNord seite
ĠGew Ã¤hr
ĠKinder zimmer
ĠX V
Ġur uguay
Ġlang frist
ĠGef echt
ĠMod ellen
Ġschn eiden
lay er
ĠDre ieck
ĠLuft fahrt
Ã¨ res
IC ATION
Ġklein ste
ĠPort o
mo or
ĠElektr otechnik
ĠPor zell
ĠRand om
Ġdre ht
ĠBÃ¤ umen
ĠrÃ¼ck te
Daten bank
Ġorder ByComparator
Meister schaft
ĠvielfÃ¤l tigen
ĠHandwerk er
ĠKaisers lautern
PrÃ¼ ft
ĠÃĦl tere
ĠLeut nant
ĠRÃ¤um lichkeiten
univers itÃ¤t
ĠInszen ierung
L au
b rau
h all
h eight
l io
u denten
v all
y ce
es is
ĠS tend
ge gr
ĠB ens
ĠM ind
ĠM essen
Ġein ges
ĠK la
and ter
ĠV iv
Ġzu geteilt
Ġver tritt
ĠZ inn
ĠSch ar
eg ger
urch t
ĠSie gel
Ġunter liegen
ĠNach hal
ĠThe od
ĠSchw ed
Ġange trieben
ĠMed al
oss a
Ġem erit
azz o
Sc an
Ġoffen er
Ġexist s
ĠDom ain
ĠDeb atte
omo tiven
ĠJust in
Tem p
Ġbreit es
ĠÃī d
OK EN
Ġpubl izierte
Fran ce
Ġeff ektiv
ĠHy gien
Ġchem ische
Ġpopul Ã¤r
ĠRÃ¶m ischen
ĠdÃ¼n n
ĠCent ury
Ġglob alen
Ġkirch lichen
Ġact ual
Ġgeg ner
riet te
sbes itzer
ĠSchwanger schaft
ĠErmitt lungen
ĠSiz ilien
B ank
H en
K al
P ress
c amp
i u
p la
Ġ orthodox
st iegen
an us
ĠS ay
ĠS ende
or ca
Ġin tr
Ġin clude
Ġm apping
ĠF Ã¶r
Ġf air
ĠW arte
Ġer lauben
lich keits
Ġg eil
Ġg arten
Ġauf zubauen
ĠU ran
eu ter
ĠAn ten
ew ork
Ġc urr
Ġab out
Ġ" :
geb rauch
ste cken
Ġsp iele
ĠAb bildungen
if tet
Ã¤l z
omp son
br andt
af a
Ã¼nd ungen
Ġkl im
Ġbet onte
ĠBe endigung
bl Ã¤ttern
Ã¼nst ig
ĠSÃ¼d tirol
dr Ã¼cken
ĠLebens dauer
ĠSommer spielen
ĠBel eg
25 6
PD efinition
ĠHe avy
ĠTa sche
lÃ¤uf igen
Ġsub ject
Ġop tisch
ĠMinister prÃ¤sidenten
ĠKraft werk
ĠErd beben
char akter
Ġservice Name
ĠMiss issippi
umer ation
ĠLi qu
Ġinitial ize
ĠFrem den
ĠBeam ter
ĠKonzentr ations
ĠBehinder ung
Ġmoment an
D river
F ollow
R ei
k ischen
t Ã¼r
Î »
en code
ĠA fter
ĠG uer
ĠH ak
ĠL yn
ĠR ates
ro tt
ĠJ as
ĠC ricket
Ġzu grunde
ĠU t
ag i
ĠIn halten
ed lin
Ã¼n zen
ĠUn it
ĠEin wei
ĠAr c
iv alen
Ġunter halten
Ġent nommen
lo he
lo ader
ĠVor ort
ĠVor schlÃ¤ge
St atic
ĠHer stellers
app ens
ĠSpiel feld
ĠHau st
iet ung
Ġch ain
ĠBundes lÃ¤ndern
Ch ina
Ġern eute
Ġqu asi
ĠKr ypt
yl on
ĠGrÃ¼n e
bez irke
ĠOrts name
ĠHerren haus
ĠjÃ¼d ischer
ĠHigh way
Ġentscheiden den
Ac tiv
ĠEss ays
ĠUnterricht s
polit ischen
option al
ĠGolden e
ĠberÃ¼hm te
Ġwert volle
ĠSP Ãĸ
Ġfreund lich
ĠContent Type
Ġidentif iziert
Ġbeant worten
ĠGelehr ten
ĠlÃ¤nd lichen
âĪ Ĵ
ĠSier ra
ĠRotter dam
D ann
F el
T uple
W eil
c zy
w etter
ch tet
st imm
ĠS up
ĠS ara
sch eide
ĠB evor
ĠM inden
ĠK han
Ġf Ã¤l
Ġf assen
ĠH its
ĠW ern
ĠV ent
ĠC art
ĠC oc
ĠZ ucht
ell meister
Ġr as
schaft lich
ib ald
18 69
anz ahl
ast ik
ĠLand shut
(" <
fl ush
fer tigte
Ar tifact
ĠSchw immer
ograph ischen
Ġbel ast
ĠLandes amt
ĠSk ilang
ĠEd itor
ĠCo ast
ĠMod ule
ĠCms Resource
Ġdunk le
ĠEngl ish
Dar Ã¼ber
mess ungen
ĠGebiets reform
PRE FIX
Ġorden tlich
Ġkaiser lichen
ĠStÃ¼r mer
F il
P ublic
f utter
p ur
ĠD essen
ĠM ake
Ġau th
ĠH Ã¼l
ĠL ex
ĠI owa
ut schen
ĠC ath
eh in
ĠSt Ã¤nde
ĠIn betriebnahme
ĠAn gl
Ġc f
ĠEr leb
iz ien
Ġunter hÃ¤lt
gr au
ĠBer kel
net te
enz a
ĠTeil ung
stra p
Ġher ange
such en
leg ion
Ġ) ?
ĠReich sbahn
sst elle
OR K
ĠBel ieb
ĠDe te
Ġfre ut
Aut hentication
ĠGar nis
ĠMel odie
sl eiter
Ġfer tigte
ĠFern ando
Ġorganis ieren
ĠCamp bell
ynam ik
ĠBenutz ung
raw able
ĠAnge la
Ġko oper
Ġetabl ierte
Ġpo ints
Ġkonzentr iert
Ġspann ende
International e
ĠTageb uch
ĠMinder heiten
ĠDepart amento
Ġverlei ht
ĠVeg as
ĠPrec onditions
D etail
M os
P ORT
T asks
W G
u ktion
en ger
Ġd rauÃŁen
es i
ĠS ockel
el o
Ġn eeded
ol fen
gen s
ĠT in
ĠT alk
ĠL ess
tr uppe
ĠO kt
ad et
ĠVer fahrens
get First
Ġsch ien
ĠEin flÃ¼sse
gr at
urg ie
ĠAuf zeichnungen
ov iÄĩ
18 65
th iop
Ġzwei geschoss
Ġbes uchten
tor wart
schieden e
ĠPf le
ĠBay reuth
ĠEis ernen
platz es
ĠTem po
>> >
air s
fest e
ĠProgramm s
Ġhal f
Ġbedeuten der
Ġstammen den
Ġgegebenen falls
ĠHon ig
TR AN
Tim er
Ġwachsen den
ĠFla schen
Ġtrain iert
ĠHarr is
Stru cture
Ġjo in
ĠCanad ian
mach ung
ĠErgÃ¤n zung
ĠWettbew erbe
ĠPalÃ¤st ina
ĠSlowen ien
ĠTai wan
D enn
G ed
G ot
f ungen
h end
s ingle
Å ¯
et in
ĠM eth
ĠE w
ĠW ur
ĠC rit
ing ten
Ġg ast
Ġg iven
Ġan gesch
Ġver arbeiten
Ġl ohnt
Ġt iefe
ĠAn zeigen
ate m
Ġgew Ã¤hrt
Ġbef reien
inder ung
ond o
son st
ĠSh in
ĠMo os
ĠMusik ern
Ġkon krete
ĠGl anz
aktiv en
ĠBas ic
row s
ĠStaat sexamen
ĠProduktion en
ĠRuss isch
haupt mann
Ġtrans fer
Ġwohn t
ĠMensch heit
ĠBra unk
ĠInvest itionen
ĠZerst Ã¶rer
ĠSof ia
clu ded
Ġfinn ische
ĠjÃ¼ng sten
ĠKonzep tion
ĠAtlan tik
strate gie
ĠKreativ itÃ¤t
Ġschein bar
uver Ã¤n
ĠÃ¼berprÃ¼ fen
Ġ(âĢ¦ )
c luster
f la
j och
ĠH P
ĠT iger
ĠW arren
ĠN er
ĠC ON
ĠIn schriften
Ġun voll
Ġun besch
os hi
esch t
ĠSp eise
Ġj enseits
od on
rau ms
Ġdeutsch land
pr inzip
ĠFl ash
rÃ¼ der
rÃ¼ sen
ĠKl ick
ans on
Ġbek amen
ĠBundes staates
Sp anien
ĠMo ore
Ġverm ehrt
por tiert
por trÃ¤t
Ġleben d
ĠGest ein
Ġerk annte
Ġaut hen
ĠTages zeitung
ĠKirch spiel
National park
RA Y
ĠDÃ¶r fern
ĠKlim aw
Ġkonzentr ieren
ĠgÃ¼l tig
Ġproblem los
Ġkonf ron
Optional Parameter
Att achment
Landtags abgeordneter
ĠRanger s
ĠBegegn ungen
Ġlan dete
chtes gaden
D ass
G ut
G ott
O FF
S ort
f elt
p rak
Ġ ensure
ĠS agen
sch ne
au me
at um
ĠB eil
ĠB irk
Ġb at
le uten
ĠJ ama
sp uren
get Max
Ġzum al
geb Ã¤udes
pf ung
tem pel
wer de
ĠUnter brech
ĠAd j
ĠRe den
Par is
ĠPf und
ogen e
ct x
aktiv itÃ¤t
bez iehung
welt meisterschaft
geord nete
ĠDe ep
ĠRuss lands
getC olumn
ĠFel dern
alog ie
ĠAch sen
ĠbenÃ¶ tigte
ĠRem ix
ĠJob s
Ġproperty Name
Ehemal iger
ĠGrÃ¤ ber
jen ige
Dist ance
ĠReaktion en
Ġfein d
pfl anze
ĠJahrest ag
Vari ables
ĠProtagon isten
ĠSerb ien
kle ber
b iert
in chen
Ġd achte
Ġd ownload
ar us
Ġw und
Ġb ox
Ġb Ã¶hm
ĠD ave
ĠP utz
Ġau to
ĠR ent
ck ets
Ġh inger
ĠZ elle
Ġr hein
ĠAn lehnung
Ġnach trÃ¤glich
ill s
ĠCh ip
ĠKon sol
Ġ17 50
ĠTh at
Ġen code
ail y
Ġ13 5
Par allel
ĠSe elen
ĠVerb und
ĠMusik pÃ¤dagoge
OR Y
ĠAnd y
UR N
ĠmÃ¼s sten
cl one
lech ts
best immung
Ġfort gesetzt
Å¡ t
Ġdr ingend
ĠAch telfinale
Ġkompl etten
ĠFischer ei
ĠLeg ion
kur se
ĠStraf e
Ġti le
ĠzeitgenÃ¶ss ische
gewinn ung
ĠAfr ica
Sl ot
ĠWÃ¤l der
We ek
ĠgewÃ¶hn lich
ĠPubliz ist
ĠGetrei de
B or
D N
F ilme
K ol
L exikon
W N
Z un
f ers
Ġ å
ie ÃŁt
ar men
et her
et Address
Ġein stellen
ĠG E
ĠF asch
ĠP eg
ĠT arn
ĠL ungen
ĠL Ã¼tt
il fe
Ġan melden
Ġal p
ra de
Ġr ole
get Method
ĠÃ¼ber lassen
ĠAl th
Ã¤t sel
ex pression
Ġger ettet
ĠRei ÃŁ
con f
ces sed
Ġwill st
geord neten
ategor ien
des igner
ĠTab l
ĠKin of
ĠAnton ius
Pol en
Ġkomp eten
ĠSl ot
nehm lich
ĠTradition en
ĠChef trainer
ĠEngl ischen
Ġlern t
ku gel
ĠMr d
Ġ"/ "
Ġumge kehrt
italien isch
ĠRow ohlt
ĠAnaly sen
ĠIntens iv
K ategorie
M IT
P unkte
S ync
b zw
it ischen
Ġw Ã¤r
ĠG itter
ĠP ict
Ġer stellte
ĠI G
ro v
ĠJ ay
Ġl Ã¶st
sp ektive
ĠAn ger
ĠAn tik
och t
ĠSp anisch
Ġsch licht
aus gaben
Ġsie bten
Ġvor deren
ĠPro tokoll
av i
18 50
att an
Ġgeh andelt
IN DEX
min den
Ver wendung
Ġwo hin
Ġfest genommen
bew ohner
ĠDan ke
Ġ24 0
ĠGef ol
ĠRad i
ĠBas ler
ĠTer minal
ĠGeneral minister
ĠBed ingung
ĠApp lication
ĠPil z
ibr ary
ĠTenn essee
[...]
