#version: 0.2 - Trained by `huggingface/tokenizers`
e r
e n
Ġ Ġ
c h
i n
Ġ d
ĠĠ ĠĠ
i e
u n
s t
a n
e i
o n
e s
Ġ S
a l
s ch
t e
a r
a u
e in
g e
o r
un d
u r
Ã ¼
a t
Ġd er
i t
Ġ w
Ġ s
i ch
e l
Ã ¤
Ġ und
Ġ v
Ġ A
Ġ B
e t
Ġ b
a s
un g
Ġd ie
Ġ D
Ġ 1
Ġ i
Ġ M
Ġ in
e m
Ġ (
Ġ ein
a m
h r
ĠĠĠĠ ĠĠĠĠ
Ġ m
Ġ z
Ġ n
Ġ K
Ġ F
Ġ G
o l
d e
t en
ĠĠ Ġ
Ġ P
Ġ E
t er
Ġ au
Ġ f
l e
i s
g en
t i
d er
Ġ H
Ġ W
Ġ T
i sch
Ã ¶
d en
Ġ L
Ġ R
t r
i l
a ch
b er
â Ģ
Ġ er
u m
Ġ I
u s
o m
Ġv on
r e
an d
Ġ V
Ġ1 9
c k
Ġ 2
u t
Ġ h
r o
Ġ N
l ich
Ġ J
a b
i on
i er
s e
i g
Ġd en
Ã¼ r
i r
Ġ C
Ġ k
en t
Ġ ge
Ċ ĠĠĠĠĠĠĠĠ
ei t
Ġd es
ĠĠĠĠ ĠĠĠ
Ġm it
in g
Ġi m
Ġ an
Ġ g
Ã Ł
) ;
Ġd as
Ġ al
an n
r a
Ġ2 0
r ei
Ġ O
u l
Ġau f
Ġz u
f t
i st
e st
a d
s en
ĠS ch
i k
ie l
Ġv er
Ġ Z
Ġ U
e b
Ġ t
Ġ o
a hr
Ġ l
Ġi st
a g
el l
Ġf Ã¼r
Ġ p
Ċ ĠĠĠĠĠĠĠ
f f
Ġw ur
e h
i c
Ġd em
ĠS t
Ġ âĢ
s p
v er
h e
Ġ {
Ġ =
isch en
at ion
a h
w ei
i en
ich t
ĠI n
ĠV er
Ġau s
e d
ti on
Ġal s
Ġ st
o t
r i
Ġein e
Ġ Ċ
ĠD ie
o s
ĉ ĉ
e u
e g
Ġ }
Ġs ich
o w
Ã¤ n
m en
Ġwur de
Ġ r
Ġ un
er n
Ġb ei
al l
k t
in d
ĠA n
b en
e w
c e
sch a
Ġw ar
o ch
s er
g er
ei ch
a p
) ,
Ġ c
ĊĠĠĠĠĠĠĠĠ ĠĠĠ
es ch
o p
h n
ĠJ ahr
ĠE r
Ġs ein
ung en
o g
er t
ei l
Ã¼ ber
en d
Ã¼ n
i m
u b
u ch
u f
l in
e hr
0 0
or t
ge t
Ġau ch
et z
r ie
Ġw ir
e ut
isch e
ur n
a te
Ġ20 1
Ġb e
ĠS p
( )
st er
Ġ Ã¼ber
scha ft
es s
Ġn ach
Ġ sch
st en
an g
ung s
l er
l a
ur ch
m er
r an
e c
Ġ j
Ġ am
ĠU n
r u
g t
l ie
as s
eut sch
ĠE in
i d
o d
ar t
Ġb is
Ċ ĠĠĠ
Ġ1 8
au s
n en
Ġs ie
ĠA r
Ġz ur
Ġn icht
âĢ ľ
âĢ ĵ
i z
Ġ20 0
Ã¶ r
er s
Ġw er
ol l
Ġ a
et urn
ĠA l
1 9
Ġz um
I n
ĠS tr
te l
Ã¤ t
u g
e x
ĠâĢ ŀ
Ġ 3
Ġ um
Â ł
Ġwer den
Ġein er
q u
ch en
Ġ es
e ch
ĠâĢ ĵ
p e
Ġv or
a k
ĠP ro
Ġw ie
t s
ĠS ie
am e
Ã¶ n
or d
i v
Ġh at
st ell
Ġun ter
Ġd urch
i b
Ċ ĉĉ
z en
D ie
Ã¤ r
Ġwir d
ge l
h al
h l
Ġo der
Ġ ab
Ġs ind
ter n
au f
ĊĠĠĠĠĠĠĠĠ ĠĠĠĠĠĠĠĠ
ĠE n
Ġ "
Ã¼ ck
i gen
Ġi f
en n
isch er
u e
or m
Ġi hr
Ġ ent
er k
Ġein em
a ge
te t
ul l
ch e
) .
e p
h er
st e
ge b
eb en
Ġ tr
g r
ar b
k s
l o
Ġein en
ĠB er
lich en
p tion
Ġ Ã
ĊĠĠĠĠĠĠĠĠ ĠĠĠĠĠĠĠ
ah l
el t
Ġ19 9
ĠM it
ei ter
u d
Ġ /
Ã¼ hr
ier t
u p
Ġ re
n er
l and
ĠD er
ur g
Ċ ĉ
ub l
e k
r Ã¤
il d
ĠA us
ti g
p l
o k
e f
E x
u st
h o
Ġs p
r it
i ck
il l
at z
r au
( );
sp iel
i a
p ar
S tr
us s
ĠA b
o b
i ge
h en
rei ch
ĠO r
ad t
lich e
el n
a y
ĠG r
e z
ar d
Ġdas s
Ġn ew
Ġ -
i f
at ur
in z
p f
a v
wei se
ĠA uf
om m
ei ten
o hn
2 0
Ġr eturn
o de
ĠM a
ĠM ar
Ġs o
ce ption
i al
g es
ĠC h
Ġn ull
in al
an t
e y
u ÃŁ
a st
Ã¤ l
ĠL and
o v
Ġ19 8
1 8
s s
an z
Ġ 4
S t
ĠĠĠĠ Ġ
Ã¤ hr
ĠN ach
ein e
ab en
it z
a c
Ġt he
m al
at en
ĠV or
ĠD as
l ass
Ġz wei
et er
t h
l en
m e
ubl ic
on n
at h
b urg
or en
Ġo f
ĠI m
al t
Ġ/ /
p r
Ġd eutsch
Ġ +
Ex ception
te m
i p
ĠH er
ver s
rei s
p t
ro ÃŁ
Ġ 5
eit s
Ċ ĠĠĠĠĠ
. .
k en
ich te
Ġ19 7
Ġ( *
on t
e v
am m
in e
p h
o ur
y pe
Ġs ow
om p
Ġb est
Ġm ehr
p er
ber g
ĠF l
f ol
ul t
Ġn och
Ġn ur
o c
Ġn eu
Ġv om
b j
ec t
Str ing
Ġwur den
h t
Ġ 0
der n
a ck
ut z
f l
( "
ĠStr ing
at t
Ġan der
ab le
b ar
b au
ach t
en s
g l
in t
Ã ©
sch en
i le
f en
etz t
ĠD eutsch
ĠB r
Ġ19 6
it Ã¤t
ah n
ier te
it ion
b r
N ame
b e
ei ster
il m
ĠZ eit
k eit
par am
Ġz w
W eb
Ġl ie
ĠA m
ation al
el d
Ġa ber
ei m
n is
Ġge w
s k
om men
ĠP l
al ue
Ã¤ ch
Ġ1 7
i an
p en
l em
n et
r ich
l os
lin ks
Ġdie s
ĠSt adt
it er
ier en
C on
el le
r eturn
d u
a z
D er
Web links
ĠT he
i o
Q u
f ten
Ġ19 4
n e
ĠK on
Ġsow ie
Ġw eiter
Ġb er
un k
E n
f er
s h
l ei
p ublic
Ġ et
a gen
ĠG em
Ġ 9
Ġm an
Ã¼ t
Ġk Ã¶n
m ann
Ġk ann
hr ow
ĠR eg
Ġ &
i re
g esch
m it
Ġp ro
Ġ19 5
f orm
as sen
l ag
Ġ 6
d em
Ġ e
Ġb es
ei te
r es
ar k
ĊĠĠĠĠĠĠĠĠĠĠĠĠĠĠĠĠ ĠĠĠ
en z
a in
f Ã¼hr
ti v
l ung
it y
Ġd ar
ĠF ran
e gen
Ã¼ d
ol og
at er
am men
ff en
eh en
f ahr
as e
ĠJ o
ol le
Ġ gen
g lie
g lich
ol it
ei gen
E inz
h und
i te
spiel er
Ã¤n d
sch ie
Ġ le
y m
a is
Ġge gen
Ġd e
ĠG esch
st an
r Ã¼
em ber
et t
ik er
Ġ19 3
a f
i vers
t eil
ĠSp iel
ĠI S
o f
Ġ ex
p ro
Ġ el
ĠUn ter
o st
s b
Ġsein er
Ġein es
P ro
Ã¶ l
ĠSch w
ach weise
eh men
A n
ĠB ei
ĠK l
ib t
Einz eln
Ġs oll
Ġ1 5
Einzeln achweise
z eich
Ġwie der
ar l
und en
s et
ann t
ru p
Ã¼n d
ch t
Ġsein e
er v
ĠM us
T ype
Ġ1 6
ie le
ĠGem ein
hund ert
Ã¶ ff
an s
ier ung
z eit
i um
u le
lie ÃŁ
is sen
ÃŁ e
ĠB au
am en
Ġ= =
l i
Ġhat te
s el
or g
at a
ge ben
in gen
Ġ 7
ig er
ie der
Ġdie ser
in n
Ġh aben
ĠT h
o ck
sp r
B N
b all
n ah
- -
h eit
e kt
us ammen
e ck
ĠIS BN
b st
Ġg es
ĠJahr e
Ġ ich
ĠE s
ers on
ik an
Ġt h
ic e
ĠU m
m ein
og ra
ĠG es
u te
al e
al s
ie s
Ġf or
ab e
y st
S ch
Ċ ĊĠĠĠĠĠĠĠ
ell en
at or
w erk
Ġ 8
l eich
Ġbe f
ĠG eb
or f
tr ag
Ġge t
ĠJahr hundert
w a
h Ã¶r
ĠT eil
ĠÃ ľ
A r
I m
ĠU S
im m
Ġg r
A l
D as
ĠSt a
Ġzw ischen
y n
ĠkÃ¶n nen
bj ect
iter atur
ĠH au
E r
Ġb eg
ĠJahr en
L ist
U n
Ġwar en
Ġs el
ĠS o
ei st
Ġ !
ad d
in ter
w ick
1 7
e an
o ber
Ġj e
o ol
iv e
ĠEn t
k l
ĠK ir
) )
et en
Ġs eit
ie t
Ġt hrow
ar r
er en
Ã¶ s
yst em
al d
on der
f all
Ġt o
is s
Ġb et
Ġk l
Ġg roÃŁ
z eu
ĠBer lin
at ch
en er
on g
() .
ur op
m a
Ġj ed
am il
t o
on d
Ã¤ hl
ĠB l
und es
ge w
Ġf ol
Ġ Y
e qu
ĠW elt
p ut
am er
Ġ Qu
ap p
k e
h m
n ung
in der
ĠĠĠĠĠĠĠĠ ĠĠĠĠĠĠĠĠ
Ġbe k
ol d
ĠS te
Ġ <
Ġdie se
hal ten
l es
I N
ÃŁ en
t or
Ġ en
o un
f or
Ġi s
Ġzur Ã¼ck
R es
Ã¤ ter
" ,
or den
ĠUn ivers
ĠI hr
a il
at s
st ra
Ã¤ d
1 6
ĠB o
ĠAr b
V er
t schaft
ti gen
Ġd rei
o ff
Ġr es
it t
Ġ1 0
st r
or e
ĠÃľ ber
m us
" );
I d
m ent
m in
Ġbei m
y p
o hl
te x
eh t
scha ften
as ser
in den
w er
gen d
() )
ing s
ĠL ist
1 0
ei d
st and
00 0
o id
ti l
ĠW ir
an k
ĠB e
Ġd ann
la ge
Ġer sten
ex t
E R
ĠE x
Ġd am
ĠA d
rie g
Ġ and
am t
Ġ1 4
Ġer h
iel t
as se
ĠC hr
Ġh eu
or n
Ġ1 2
Ġh er
Ċĉĉ ĉ
a x
ĠP h
Ġer st
Ġge hÃ¶r
z e
al en
Ã¤ u
an gen
r om
Ġdeutsch er
Ġin t
il der
w ar
ster reich
l au
Ġg ibt
Ġal le
Ã¶ glich
i ff
Ġw enn
ation en
an der
Ġ1 3
rie d
ĠF ilm
el s
ĠO ber
Ġk onn
z u
Ã¤hr end
ĠM en
glie d
ent lich
h aus
Ġ! =
b ild
Ġg esch
ĠG er
1 2
h a
Ġth is
m eister
Ġan ge
un st
um ent
w end
ĠGemein de
hn e
ri v
fol g
stell t
ĠP ar
b t
Ġ eigen
an ge
Ġ :
ĠN eu
ĠR o
Ã¼ l
k er
Ġf inal
uÃŁ ball
f e
ĠH and
m an
ra d
G eb
Ġh ier
de x
ri ft
ĠL eben
ach en
z w
1 5
et h
rie b
() );
ach e
Ġ19 2
Ġaus ge
er e
tex t
âĢ Ļ
Ã¶n ig
v or
Ġihr e
ĠZ u
e am
Ġv iel
ist or
Ġun ser
ĠB undes
Ġjed och
k tion
L iteratur
sch l
r en
ĠÃ ĸ
b o
ein en
au er
ho f
Ġf Ã¼hr
ĠA ug
Ġd a
ĠJ an
sch e
our ce
ĠL e
r at
Ġ ch
un i
ist er
Ġel se
y s
ar ten
ie d
.. .
ig n
und e
c tion
f ig
ĠA ut
s atz
Ġs ehr
ti ge
ĠR e
Ġv oid
Ġsp Ã¤ter
ĠDeutsch land
ĠB es
en tr
Ċ Ġ
lich er
au l
ĠF rau
Ċĉĉ ĉĉ
re u
ĠG e
au t
C h
p ert
st adt
ind et
ĠB et
ur z
ĠP f
O N
ab ei
au m
ei g
t on
Ġw el
ch er
iz e
1 4
ru ck
Ġ |
st ein
7 8
in a
t es
oun t
s etz
Geb oren
Ġi hn
ĠE l
1 3
at ic
ier ten
ĠF or
ĠJ ul
i de
Ġ *
Ġet wa
i x
ur e
i den
P ar
hal b
o sten
te d
schie den
V alue
ess ion
a der
Ċ Ċ
Ġw as
a de
on e
ĠG roÃŁ
Ġh in
ĠM on
ĠF amil
O r
( ),
Ã¤r z
ge mein
o u
z er
Ġg leich
ation s
iel d
b l
ĠM in
ĠL u
ĠK Ã¶nig
tern ehmen
ĠP r
g ang
ĠP erson
ist en
u ff
S p
Ġ ar
ra y
m ar
Ġsein en
w ir
s uch
stell ung
Ġin s
Ġg er
Ġsein em
s on
ĠM Ã¼n
ĠM ann
ĠAug ust
am p
Ġdies em
M it
p on
en den
Ã¤n der
en de
r icht
Ġz usammen
ĠOr t
u ar
Ġander en
ĠGr und
ĠN ord
Ã¤ m
Ġlie gt
en k
it h
al er
un kt
gt h
C lass
ĠB and
ĠW est
ĠPl atz
ĠN ov
= =
ĠEn de
z ial
ien st
ĠJ uni
ol f
ti k
M ann
ĠVer ein
ur t
Ġver l
eit ung
Ġk eine
s g
in k
Ġim mer
Ġw o
Ġc on
ult ur
Ġ eh
rÃ¤ s
Ġber eits
Ã¤n ger
ĠM et
2 00
Â Ń
ĠH och
t t
omp on
kt ober
issen schaft
ĠS e
k ehr
Ã¶ ÃŁ
Ġsch on
rup pe
a den
or k
s o
Ġver b
Ġb esch
re d
ĠP art
[ ]
ĠM an
Ã¤ uf
ĠR ei
k reis
ĠR ech
ĠK unst
) );
ĠE urop
ais on
ĠP ol
ĠHau pt
ĊĠĠĠĠĠĠĠĠĠĠĠĠĠĠĠĠ ĠĠĠĠĠĠĠ
Ã ¡
I D
ĠFran k
h ann
Ã¶ff entlich
ĠH o
Ã¶ ch
r on
Ġer ste
f Ã¼
Ġge l
ĠMa i
al ien
ĠW ei
b ach
Ġfol gen
ĠW erk
N ach
Ġkonn te
le g
Ġsel bst
2 1
ĠS ep
ĠB ez
ĠJul i
Ġein z
tem ber
re g
Ã¼n st
u ten
Ã¤l t
ing er
Ã¼t z
ĠG ew
z ahl
Ġihr er
Ġ )
ĠM ed
Ġ19 0
tern ational
ie f
olog ie
ĠC on
ĠO ktober
ran z
la gen
gr und
ĠB ild
ĠVer b
Ġun s
Ġ& &
ĠF Ã¼r
an is
ĠV ol
ĠG ra
pr il
b ahn
m Ã¤
ĠĊ Ċ
Ġheu te
f ach
ĠPro du
f inal
ier e
ĠT r
ig keit
Ġt eil
w ahl
Ã¼r ger
ĠM Ã¤rz
Ġst atic
ĠO l
Ã¼n f
ĠS Ã¼d
st Ã¤nd
k eiten
/ /
ogra ph
Ġv ier
5 0
ĠP olit
ĠJan uar
ĠB est
op h
an den
i tel
ĠF rei
o ten
h au
Ġl etz
Ġi hm
es sen
o ut
Ã¤n g
Ġk am
mit tel
t ag
re ch
isch es
b uch
ĠI I
Ġein ge
or ben
S ie
ĠSep tember
sch lieÃŁ
in nen
er b
ĠM o
f eld
ĠSt ud
ez ember
Ġver schieden
ĠChr ist
om mer
amer ikan
e um
ĠF ried
ĠH aus
le x
Ġd ort
lin e
ess age
ool ean
Ġge f
ĠB eg
os ition
h eim
Ġp ar
c on
pon se
Ġ eben
A us
ĠA pril
D eutsch
Ġs on
un ter
Ġdam it
f o
hal t
l ig
Ġo hne
erv ice
el m
ĠLand es
. )
ĠA k
ĠNov ember
c ode
ĠJ u
alt ung
A T
ĠF ahr
Ġb r
f ang
de ut
Ġw en
ĠK omm
ĠU r
ĠS h
ich er
Ġ %
ĠJo hann
sch n
ie b
ti er
o gen
Ġneu e
fall s
ĠStr a
unk tion
Ġ X
ti m
d r
Ġ .
ĠW eb
ur r
ĠUnivers itÃ¤t
r ik
Ġb el
c c
ĠSp r
al is
ĠMus ik
Ã¼ s
Ġst att
as h
es en
im e
z ei
r y
ĠF ol
r or
zeich net
Ġal ler
1 1
ell schaft
ĠK inder
Ġw Ã¤hrend
ro up
ĠD ezember
ĊĠĠĠĠĠĠĠĠĠĠĠĠĠĠĠĠ ĠĠĠĠĠĠĠĠ
Ġ Ã¶
los s
Ã¤ tig
Ġsp iel
ĠĊ ĠĊ
ĠB uch
Ġ18 9
n ew
ĠN ew
tr y
Ġb en
Ġ Â
ck en
ĠDie se
Ġbei den
al se
ag er
gl eich
re ate
eth od
Ġer sch
em al
ach sen
Ġo b
ri ff
te te
n eh
al ter
ĠMen schen
ĠW ien
ĠKir che
ĠS aison
ĠN ational
Ġal l
kt u
kt ur
Ġer folg
stell er
ĠR eich
ĠV on
ĠEin e
ĠList e
-- --
eb ru
ĠÃ Ħ
ebru ar
ĠD ar
ĠW ert
ĠGesch ichte
Ã¤ch st
h ol
ern se
ion en
ĠIn ter
M ap
ranz Ã¶s
w ohn
Ġgr Ã¶ÃŁ
equ est
ĠT ra
ĠF re
h in
ĠW asser
l an
os s
ĠAl s
Ġ3 0
sch ule
ĠâĢ ł
c t
ĠSch l
ĠUn ternehmen
ĠD urch
E N
st it
ogra f
ĠZ wei
A m
ĠF orm
Ġer n
fÃ¼hr t
em ent
ym p
p s
mal s
E in
ĠSch ul
Ġv alue
Ġ201 0
sch utz
ot t
f te
k on
Ġneu en
ar n
l auf
č ĊĠĠĠĠĠĠĠ
m s
ĠH a
stan ce
ĠF r
ig ung
g abe
ĠA t
Ġf est
c o
h and
ire kt
Ġ on
ĠN ieder
ĠW il
A t
ech n
Ã¤ hn
Ġg anz
âĢľ ,
ĠSch wei
Ã¤n de
ĠZ w
ei le
ĠD aten
li ent
Ã¤t z
a ce
lem ent
Ġz un
b ew
ĠAr ch
Ġdies es
ti f
ĠF ebruar
Ġ201 8
u tion
n ame
Ġg ab
âĢľ .
ĠIn d
ĠG l
Ġge b
ber t
de te
Ġihr en
az u
K ey
Ġ201 1
Ġ arb
Ġ200 8
ver b
stra ÃŁe
v al
Ġm us
ĠSch au
zeu g
G esch
Ġd abei
Ġ201 2
ĠE is
k ommen
ar i
am es
Ġk on
st ru
ĠMit glied
ff iz
Ġ201 4
ĠG ener
ĠH am
eh n
s ol
ĠT ag
lin k
uch t
ĠS k
ann te
Ġ ur
Ġge st
Ġst eht
Ġ9 78
Ġ u
ĠH al
o ub
R E
Ġ it
Ġ >
R equest
Ġthrow s
v ent
Ġb ew
Ġb zw
nah me
ĠMit tel
ĠW ohn
a kt
rÃ¤s iden
as k
tr Ã¤
len gth
ĠPh il
Ġs ei
rei chen
O bject
ti ert
u ilder
ĠN amen
ĠK arl
Ġdes sen
ĠR om
ĠS er
h ein
č Ċĉ
p el
Ġ200 9
an st
at iv
Ġ '
Ġd u
oll en
o te
app end
er st
ar ch
A d
3 0
c ri
Ġ ro
Ġh abe
Ã¼nd et
Ġ2 5
ĠVer lag
Ġ201 6
ar e
Ġ201 3
ĠS a
ie w
D ata
S T
i der
fahr en
Ġf rÃ¼
ĠPro f
tr ib
ĠAr t
ĠF uÃŁball
Ġ200 7
p unkt
ĠE m
sh all
ĠH Ã¶
y te
19 9
ich tig
wick lung
ĠMÃ¼n chen
um en
ĠL ei
Ġ201 5
it zen
re cht
s w
Par am
rup pen
ie g
Ġ201 7
ĠR Ã¼ck
ĠM al
lo ck
oub le
f ern
Ġk omm
Ġn ot
ÃŁ er
Ġweiter e
Ġ( âĢ
nis se
ech s
u er
L eben
Ã¤ s
em en
Ġw ei
los sen
schie d
Ġ18 8
ĠE d
ten t
w est
Ġ1 1
Ġtr ue
us e
T o
i us
schl uss
ĠB ahn
ĠK r
d orf
Ġf inden
le gen
el e
S et
Ġst ell
ĠC o
ĠG egen
Ġf ranzÃ¶s
Ã¤hl t
riv ate
sch ul
Ġbes onder
ri de
Ġs Ã¼d
s ion
Ã¤u de
Ġerh ielt
O ver
Ã¼ b
Ġl ang
Ġdeutsch en
ech sel
a w
ĠS al
z ug
uf en
Ġn ah
in en
ĠR ep
p p
z ent
Ġ qu
at us
Ġc atch
Ġ200 6
Ġer reich
ubl ik
il it
Ã Ń
geb iet
is k
ĠZ usammen
Ġp ublic
ra ft
de ck
Ġal lem
A R
Ġh and
ol um
rie ben
Ġ200 5
th is
ĠB ew
Ġder en
ĠA uch
ĠN atur
ĠArb eit
M ar
Gesch ichte
pert y
Ġ at
ach te
Ġg ut
k ir
ĠK rieg
ig t
ĠPerson en
Ġson dern
h ard
Ã¶ m
G est
Ã¶r der
Ġv iele
ĠP er
ĠFried rich
ĠH ol
al ten
ĠK n
eu er
wei l
ti gt
c es
Ġb ie
Ġbek annt
ĠK ap
ra g
Ġeh emal
stell en
ĠS ystem
ge stellt
F ile
sch er
mÃ¤ ÃŁ
Ã¼ ss
ĠD es
A L
al if
em a
qu est
P ath
w ig
Ġ2 4
k te
ĠFl ug
v en
ĊĠĠĠĠĠĠĠĠ Ġ
ĠL ehr
O R
Ġh o
ĠH ein
Ġf alse
in er
ie h
Ġtr y
ĠFrau en
is mus
isch of
in s
k rieg
Ġsch w
est er
Ġge mein
Ġbef indet
ĠBer eich
ĠM ich
Ġander e
ich ten
Ġden en
w eg
ow n
ĠM eister
ĠS tel
Ġm uss
ĠB ay
Ġw orden
ĠG ef
N ode
ĠS c
re chen
ĠD an
Over ride
Ġ20 00
Ġ18 6
ĠDie s
s am
ar m
ĠR es
o ge
ĠReg ion
ĠSt and
T ra
Ã¤ ft
ĠF est
gr amm
ĠT itel
. ,
Ġn un
Ġk ein
le gt
Ġ18 7
h elm
eite te
ĠS eite
ĠD r
A b
am pf
im mer
glie der
ĠD i
at ive
rei b
hn en
ĠI l
Ġf Ã¼nf
Ã¤n ge
Gest orben
Ġ or
ĠAl l
ur m
urr ent
w e
w as
ch n
Ġp er
ĠD u
ĊĠĠĠĠĠĠĠĠĠĠĠĠĠĠĠĠ ĠĠĠĠĠĠĠĠĠĠĠĠĠĠĠĠ
pl atz
sp ort
ec tion
ur s
ĠPolit iker
on s
ĠBer g
uff er
2 2
ad em
neh mer
ĠW ahl
zen tr
z iel
ĠB Ã¼
ĠWeb s
e ad
Ġ200 4
Ġ20 20
Ġa ktu
ab el
ĠB ar
Ġer w
Ġer halten
reu z
Ã¤ h
ĠEin wohn
ĠL in
j ekt
ran k
c om
ei tet
sch rift
g or
ĠM od
Ġdie sen
ges etzt
as st
ĠA uÃŁ
ernse h
p ort
ĠDeutsch en
ir k
Ġr und
Ġzun Ã¤chst
j ahr
Ġbeg ann
Ã¶l ker
in o
Ġdeutsch e
Ġz ahl
4 0
Ġb oolean
ĠI s
f ra
en nen
tiv e
ĠIn form
y l
Ġsoll te
tr agen
Ã¼nst ler
ĠFran z
st off
ĠLeben s
Ġm Ã¶glich
d ings
g aben
ann ten
fig ur
c l
ĠO n
ĠK reis
ĠS ohn
ĠS ommer
f ilm
ĠR ad
c lass
ĠAl b
il ter
p rÃ¤
er y
h Ã¤lt
Ġeben falls
2 5
j Ã¤hr
ut ter
ĠSp ort
ĠM ill
a i
s icht
ĠL ie
Ġ ,
Ġb eh
le hr
ri d
A N
gl isch
ĠHer z
ei den
ut t
Ġd i
up er
f r
ĠFamil ie
b lem
kl Ã¤r
ont ain
Ġa k
ĠB el
ĠB as
ĠVer w
w ort
ĠO st
et te
ran s
h Ã¶
bild ung
ĠN ame
enn t
Ġje weil
st re
n a
ĠC ar
ĠF ach
ĠJu gend
E lement
ĠF ra
* *
ĠP at
ĠLand kreis
den k
Ġau ÃŁer
g te
z t
rau m
+ +
Ġver w
tr eten
om b
L E
G e
Ġ em
Ã¤ re
um s
Str eam
ar y
ĠB en
ĠS eit
ĠÃĸ sterreich
19 8
ĠS an
am ent
Ã¶ st
se e
Ġ201 9
Ã¼ hl
Ġletz ten
Ġres ult
is e
Ġwel che
Ġ [
fol ge
ĠW er
at es
Ġ x
ath ol
e e
Ġin ter
ig ht
ĠT od
Ã¤ us
In dex
la y
Ġent wick
Ċ ĊĠĠĠĠĠĠĠĠĠĠĠ
k a
ho de
ĠSchau spieler
Ġsch n
ĠW eiter
Ġs et
ĠIhr e
ov e
och en
Ġander em
gen ommen
u ck
Ã¼ck e
Ġ te
Ġein ige
A uf
ĠK ultur
ĠL a
arb eit
k m
op f
nah men
M et
ri te
Ġd azu
iss ion
ĠG en
ĠK ar
able d
B uilder
rei che
er g
Ġ1 00
ĠB Ã¼rger
ap an
M od
ĠH il
ĠO bject
p or
Ġh ei
ĠT er
Ġ200 3
ĠH ier
ĠH eim
on nen
ĠO bj
r sg
al itÃ¤t
ess or
o ver
T ime
ber eich
d ruck
ach ten
sp iele
Ġdar auf
tor y
st a
Ã ³
ĠG el
M essage
ĠgroÃŁ en
f Ã¤l
Ġf rei
F uÃŁball
Ġ200 1
Ġgew ann
Ġ end
Ġge gr
e er
ĠC l
č Ċ
Ġet was
< /
Ġ2 2
amerikan ischer
o und
Ġein fach
b ez
aul t
Ġver Ã¶ffentlich
g ument
b ei
ĠgroÃŁ e
in de
ĠF er
in anz
ĠHer r
d ate
B ei
Ġauf ge
v e
Ġ2 3
Ġ199 0
ĠSch rift
U til
es se
ĠAn d
y r
M an
Ġ200 2
D E
Ġ ev
H and
sch w
ĠF ot
hr en
ĠH ans
f urt
Ġ| |
ĠSch n
b et
is ion
eh l
Ġc ase
ais er
Ġk urz
Ġver m
imm t
k auf
Con text
ur en
Ġab ge
19 4
ĠS el
Ġ2 1
ĠJahr es
ĠW ill
ic a
et s
ĠIn tern
sch ein
ĠM ag
Ġn eben
ĠN e
it ter
Ġk ommen
S S
u es
P D
l ang
is h
Ġge m
ĠWil helm
ĠT eam
che ck
Ġin ner
ĠK o
ĠJ ohn
min ister
G roup
ĠOl ymp
Ġkomm t
st ag
ĠPro v
an ce
ĠW ie
av a
o se
In fo
Res ponse
Ċ ĊĠĠĠ
Ġ2 6
Ġihr em
Ġkl ein
an ten
Ġge ht
st Ã¼tz
Ġ â
ar s
or s
ind ung
Ġv oll
ell er
Ġspiel te
ĠB esch
ĠF all
U R
z ig
gesch ichte
ser v
ĠgehÃ¶r t
Ã¤ ten
Ġ2 8
ut h
ro w
ĠMar k
Ċ Ċĉ
nah m
Ġver wend
St ate
h ei
ck e
ĠD a
ur ger
B y
ord nung
ek te
ĠVol ks
z el
Ġl assen
W ir
Ġnah m
F orm
ig es
č ĊĠĠĠĠĠĠĠĠĠĠĠ
ing t
un ft
icht ung
y ch
Ã¶r per
ĠD orf
ĠO b
wir tschaft
I I
O f
2 4
m et
ĠFamil ien
Ġre g
arr iere
ĠEr z
a el
Ã¤ che
d ienst
re uÃŁ
e ader
p rivate
is se
ĠP eter
h eits
ĠD em
Ġg ing
ĠB ern
U S
ĠA p
ĠG u
re ak
a ff
lo se
S ervice
ri m
ĠKir chen
Ġent sp
u k
eich t
Ġ199 9
rÃ¤siden t
ev Ã¶lker
ah men
En abled
ĠJo se
w elt
7 0
ge ord
h le
Ġ5 0
6 0
Ġals o
ĠSta aten
M E
ĠE ur
fÃ¼hr ung
ĠSch iff
Ġbest eht
ges amt
ĠT echn
O Exception
2 3
d ig
T he
ograph ie
n ungen
Ġw ill
it te
F ield
ĠS eiten
ar en
equ als
ĠGr Ã¼n
for der
Ã¼s sen
Ġd och
ĠPar is
ompon ent
ĠS il
sch au
ĠEin satz
Ġm o
r em
Sie he
icht s
ti schen
o int
l y
bau t
ilit Ã¤r
Ġal len
Ġmehr ere
D R
setz ung
R eg
Ġh och
an c
Ġm ir
ĠF ir
I T
d ie
ti c
Ã¤ ss
ĠB i
8 0
ĠFol ge
Ġm ein
Ġst ud
ĠUnivers ity
Ġb rit
sch ung
ffiz iel
es onder
et ten
ĠA u
Ġn e
ĠBet rieb
ĠB urg
an zen
ater ial
ĊĠĠĠĠĠĠĠĠĠĠĠĠĠĠĠĠĠĠĠĠĠĠĠĠ ĠĠĠ
ĠM or
Ġm al
Ġhat ten
fÃ¼ g
Ġersch ien
Ġbe zeichnet
w w
ĠOr g
at ten
ver ein
H rsg
Ġm achen
h Ã¤ng
ograf ie
ne te
Ġzwei ten
ef in
ip p
Ġw Ã¼r
r et
Ġher aus
Ġn ame
rit ten
el te
Ġ199 8
um mer
v alue
g angen
Ġ2 7
ĠC or
Ġin ternational
ĠWir tschaft
Ġ( !
ĠT or
ĠHam burg
olum n
sch eid
ĠAn fang
ri ften
om it
ĠIn stit
ei gt
a j
ĠGener al
ot he
ers Ã¶n
t hrow
ĠI t
ti sch
ĠEr n
Ġs ol
schn itt
Ġsch lieÃŁ
ot or
es ser
il om
ĠPart ei
am b
Ġw egen
Ġp olit
ĠY ork
Ã¤t ze
ĠSta ats
Ġ ?
č Ċĉĉ
ĠH istor
ĠW eg
Ġver st
Ġst ehen
teil ung
w ert
ond on
ĠM Ã¤n
hau sen
Ġerst mals
ĠZ entr
ĠR ahmen
rÃ¤ ger
sk i
ĠP aul
en der
ĠS ti
m l
ĠZ iel
ĠN eben
.) :
z ep
Ġ2 9
ti sche
il t
== ==
ĠR ich
l ist
ig ten
Ġ194 5
B er
ĠVer s
ĠI ch
ĠR u
ĠÃ¶ sterreich
Ġden n
l ungen
Ar ray
19 3
Ġh istor
ĠArb eits
ĠW or
Deutsch er
ra k
Ġh inter
ĠM art
Ã¤m pf
Ġre ch
an a
all en
ĠB ad
ĠAl t
ĠJahrhundert s
o x
ĠL ud
b el
ĠRech ts
Ġin d
E s
spr Ã¼n
h eiten
Ġm ax
ĠR aum
ĠS itz
Ġ y
ol e
ate gor
l ow
ie sen
Ġw e
Ġo bject
ern e
ĠEinwohn er
ier ungs
ĠIn ternational
utz t
Ġm ich
ĠGe org
ĠK ont
ĠMann schaft
ĠU hr
ĠG o
w ard
ĠN r
rit er
t lich
P erson
IN G
ter s
ust r
ĠK ur
ti me
Ġst ark
ĠD re
ich tet
av on
ei sten
ĠH of
l et
ar get
ĠZ ahl
En t
ĠL auf
ĠHein rich
ĠSch loss
Ġ18 5
onn ection
Ġsein es
trib ute
ĠW ald
il le
ĠLu ft
Ġaller dings
rit t
a e
eg t
ic al
ĠgehÃ¶r te
ĠP reis
a ar
I ON
Ġc a
A C
Ġd ah
ĠMus eum
Ġverwend et
la st
an gel
En try
och ter
ein ander
ĠA mer
ĠG ruppe
ĠT em
Ġo ft
ĠF unktion
ĠSta at
Ġbe de
Ġum f
esonder e
ĠWelt krieg
ck er
ĠUS A
. âĢľ
ar a
ĠT re
Ġ18 4
h il
om in
Ġ199 6
ĠB ru
ĠW inter
lie b
ĠGra f
ĠL ondon
Ġl og
ik a
ĠW olf
{ @
ĠfÃ¼hr te
ak e
ĠE igen
ĠWebs ite
ĠBei spiel
tt p
ĠD ienst
stan den
Ã¼ gel
le ben
ĠZ ug
Mit glied
Ġ add
Ġre quest
Ġ198 0
9 0
ĠC omp
amm lung
ĠK aiser
ĠK an
l ing
ĠO t
ig it
utt g
ser ie
Ã¼nd ung
am s
om as
S E
ĠR hein
us Ã¤tz
Ġverschieden en
ĠB ed
ĠD ort
ig te
Ġf and
Ġ(âĢ ł
am mer
2 6
f el
l t
Ġtr at
Ġ199 2
ĠEn g
Ġ199 7
ig a
s weise
kir che
ĠS Ã¼
ge ber
Ġs etz
Ġin stance
ĠH eil
ĠR ef
Ġ20 21
af Ã¼r
um ber
uch s
unk te
ge f
b ack
> >
s ych
d es
ic s
Ġw eil
Ġ199 4
tik el
Ã ĸ
lich es
ĠKl ein
i as
ĠVer tr
m b
ĠL eist
te ger
au en
sp ro
2 8
Ġr el
Ġst and
k ten
Ġs pe
ĠB ischof
S er
ei er
] ;
ĠD at
et ers
res se
Ġeigen en
du z
g n
k o
sb esondere
lo ster
Ġ197 0
n ot
ek tr
schlieÃŁ end
ĠArch ite
ic ation
lehr er
ĠGesch Ã¤ft
at Ã¼r
Ġ us
ĠLei p
Ġk ey
ar te
m ed
19 6
ĠEurop a
A s
ĠF eld
ĠSpiel er
om pl
Al s
ti eren
ie gel
ĠB eh
ĠI hnen
gen den
om at
ĠS ein
Ã¼ck en
âĢ ¦
s eite
ol oge
st elle
ĠM eter
Ġweiter en
t oc
alt ungs
F or
2 7
ĠK Ã¶l
ĠMit te
Ġgen annt
ĠUn d
auf en
ĠEnt wicklung
ĠAn t
ok en
ĠMich ael
Ġs echs
a ÃŁ
arb eiter
Ġ199 5
ob ei
ĠT ro
um e
Res ource
ĠLud wig
Ġg ilt
G ibt
ĠMar kt
ilom eter
ĠGeb Ã¤ude
uch en
toc ol
pt y
au ch
Ã¶r d
u ft
ĠK Ã¼
ĠGes ellschaft
F ilm
I S
ĠA lex
ĠE le
Ġ @
ĠD abei
ĠF rÃ¼
19 7
t z
ĠS ol
ĠT our
ĠfÃ¼hr t
ob il
d s
att ung
an e
ar z
ĠEur o
ĠD is
Ġw eit
w Ã¼r
ĠP al
a ir
ĠT ochter
ĠHÃ¶ he
qu e
Ã¤s st
E m
ĠSchwei zer
urn al
Ġab sol
Pro perty
Ġt ype
ĠStra ÃŁe
J ahr
au r
19 0
ĠD on
Ġ( (
ĠSte in
I C
or y
all s
Ġw est
Ġl ange
) :
os oph
ĠP ap
Ġein mal
ĠSt uttg
w ie
Ġf ast
Ã ¨
Ġf indet
ass ung
2 9
D es
V al
eu te
pr ession
ief ert
ĠFrank reich
ĠProv inz
Ġ199 3
wei ter
ĠEr st
g s
al k
Ġd avon
w issenschaft
ĠT ext
Ġt Ã¤tig
it ten
ĠR est
ĠRe gel
Ġbesonder s
o ot
Ġs ehen
Ġf l
stan ts
ĠM ath
in es
lich t
s ize
Ġ _
ik ation
trÃ¤ ge
Ġjeweil s
lei st
cc ess
Ã¤t te
Ġarb eitete
ef ault
ĠThe ater
E D
ĠGeb iet
Ġfolgen den
az z
or ge
ĠHol z
ĠE p
Un ivers
c a
Ġ Ã¤l
age ment
---- ----
Ġm Ã¼ssen
ĠK Ã¼nstler
ĠP ark
ĠC omm
Ġd irekt
ĠA ss
ĠK at
ĠV ater
lig a
ĠH e
Ġunter schied
n ehmen
ĠPl an
Ġbie tet
un n
to String
zei tig
am a
ro s
Ġbe z
i at
s etzt
o ok
' s
r Ã¤n
u ter
ĠEin zel
leg al
Ġw obei
reib ung
figur ation
Ġj etzt
Ġo ut
ĠEr geb
E vent
Ġw echsel
ĠD en
ĠM Ã¶glich
ges etz
wei s
ĠH ann
ĠD e
iz in
F ac
ĠSch m
Ġ18 0
ĠKomm un
j ect
ĠCh ar
in ation
Ġmus ste
ĠG ast
st eil
Ġb lei
ra un
ul d
Ġ199 1
Ġviel en
ĠE v
ĠĠĠĠ ĠĠ
org anis
ĠP ort
m od
ĠB ef
ĠSo zial
g lichen
ch es
ĠC olle
ĠV ier
i ver
L oc
S ize
C lient
ig h
Ġ4 0
l ungs
ĠG eh
uch e
ĠMa x
k ey
m Ã¶glich
en glisch
al b
Ã¼ ler
Ġ196 0
ĠD av
ran ken
Ġal les
g ar
ĠU l
Ġw ith
9 9
ĠAl ter
ĠW e
Ġn Ã¤ch
Ġstud ierte
et ter
Ġc reate
den s
ak tion
ĠL iteratur
om e
ge st
19 5
L iefert
a he
ĠPro blem
t ler
Ġ198 9
ĠG old
wend ung
S c
ĠM at
S h
ĠPro jekt
k au
ĠK ant
ĠN o
it u
Ar gument
a ffen
ober t
Ġkl eine
Ġauf grund
3 5
ett bew
richt ung
Ġer f
u ster
den t
ot s
fahr t
eck e
ĠBer uf
Ġkonn ten
ĠK ompon
ge geben
rei se
ist ischen
ib le
Ġd o
Ġ Ã¶ff
Ã¼r z
Ġinner halb
ĠI OException
ec ord
f ter
g ruppe
Ġw h
6 4
ĠLeip zig
Ġk m
ĠS eine
j a
ĠS ex
Ġm eist
E igen
Ġgegr Ã¼ndet
l d
ĠN utz
ib li
Ã¤uf ig
Ã¤r en
ĠSchrift steller
Ġd an
sten s
n ull
Ġur sprÃ¼n
b urger
ĠReg ie
l Ã¤nd
st ieg
ĠV ide
Ġunser e
gemein de
ĠS en
iz ei
pert ies
c y
O G
w ehr
it s
Ġv al
Ġz eigt
Ġm eisten
Ã¤n dern
T ext
Ġf rom
her e
ĠHeim at
ĠPro zent
ĠZwei ten
3 4
W ith
Form at
ĠR olle
op pel
Ġex ist
ap pen
l og
s itzen
eu ch
Ġan geb
atur e
ĠAm t
g o
Ġl a
lich keit
w and
ĠStuttg art
ĠN orden
ĠkÃ¶n n
- ,
Ġer rich
Ã¼r k
A P
Ġn ieder
ĠInform ationen
ĠFrank furt
deut ung
Ġ( )
ĠObj ekt
sch t
w ay
w Ã¤r
ĠS icher
ĠF C
ĠA s
ĠB evÃ¶lker
yn ch
Ġins gesamt
R ef
ĠG ut
Ġp ol
s burg
ĠF il
ĠT age
la v
le ch
os it
ech t
ĠB ro
ĠTh omas
č ĊĠĠĠ
FuÃŁball spieler
b y
m o
ĠDeutsch e
ĠProdu ktion
Ġk osten
Ġd afÃ¼r
ft ung
Ã¼t zen
F Ã¼r
on a
Al l
S C
Ã¼n dete
ar ben
al le
Ġ198 8
Ġle ben
Ġerfolg te
Ġkl einen
V ers
ri x
ĠT el
Ġl ist
ĠRom an
get C
sch iff
sch lag
d i
< ?
re e
Ġje der
ĠSt art
Ã ľ
Ġschn ell
eg r
b te
an de
ĠD o
Ġw ichtig
il den
ĠD am
ĠW Ã¤hrend
ĠI de
ge gen
Ġs og
Ġl in
adem ie
Ġo p
he f
Ġ3 1
ĠR el
" )
k ung
ĠM utter
Ġges am
Ġd ouble
N ull
ik en
rei ben
Ġd eut
Ã¤ f
ig inal
Ġm Ã¶ch
ĠEis en
Ġit alien
ĠOlymp ischen
spr ach
ĠT yp
ir st
t her
Res ult
b ed
ĠL ang
k tr
ĠH inter
verb and
Ġsich er
her r
O ption
ĠG est
Ġp l
ĠB is
Ġent fern
ĠOr ts
h anden
Ġn Ã¶rd
Ġwechsel te
Ġbest en
om en
fl uss
ĠMart in
Ġgegen Ã¼ber
B au
av e
ĠPf arr
arb eiten
z immer
ĠA c
ĠschlieÃŁ lich
em at
al y
f est
ate d
9 3
er dem
Ã¤uf er
te c
ĠC lass
y d
eich en
al z
ĠM aler
war e
b est
gen t
eck en
ĠW enn
c ess
ust rie
C ode
eil nehmer
w or
ĠH ei
Ġverschieden e
put Stream
Ġ ...
en gth
ĠIn s
lo ad
ĠM il
Ġin sbesondere
stell ungen
Ġf ile
Con fig
ĠSchwei z
ĠMill ionen
ĠAn g
w agen
ĠStra ÃŁen
Ġver such
Ġk n
ĠVer trag
at te
Ġinstance of
Ġd ata
ĠG ed
ĠEn erg
ĠBes itz
ti ger
Ġ Ã¼b
ĠW ochen
O ut
ĠR ot
ĠHo tel
L A
a sch
Er ror
Ġo ffen
ĠD enk
ĠHerz og
Ã¶s ung
in ner
V or
8 5
Ġp rÃ¤
omm and
f s
3 2
ge h
Ġl Ã¤sst
Ġ198 7
Ġsow ohl
op er
art s
ĠR ed
pro du
ĠT est
Ġerreich te
Ġz usÃ¤tz
Ġern eut
ĠChrist ian
Ġb reak
lin gen
Ġge geben
ĠAr ray
ĠAut or
ĠMet hode
ĠW ieder
ĠF arb
tr itt
Ġen gl
Ã¤ chen
f an
ĠO p
ĠSch utz
ĠMar ia
M ethod
Ġw ohl
ic an
z ogen
ĠK loster
Ġ up
Param eter
is iert
pl an
mann schaft
ĠFuÃŁball spieler
ĠPro gramm
ĠS tim
Ġbis her
Ġn ord
re ad
ĠAn geb
ail le
4 5
p ol
ol ution
ĠR ichtung
Ġ as
it Ã¤ten
Ġz eit
ĠDie ser
ak ter
Ġunser er
9 5
und er
ĠAnd re
ĠG ot
ag es
Ġgel ang
6 5
Ġw ich
7 5
C omponent
ĠG eld
Ġo ber
R O
ĠS ing
ĠP ost
shall er
Ġn atÃ¼r
ac t
tiv en
Or t
ĠW ind
L og
ĠR ev
Ġgemein sam
Ġb lieb
ĠKÃ¶l n
ĠOrg anis
ium s
gr ess
Ġ198 4
f ert
ĠL es
geb aut
U N
ĠBo den
g Ã¤n
ĠK urz
In ter
j et
in dex
Ġd ien
ĠS til
Ġer klÃ¤r
ĠSÃ¼ den
Ġw ahr
Ġmit tel
ie hen
ber ger
ĠK reuz
mb H
b es
Ġlie gen
Ġ198 5
e der
u h
Ġ198 6
c reate
ĠM ehr
O n
ĠK ilometer
ĠR uss
Ġb ed
ĠBeg inn
I tem
s ystem
ĠBe deutung
ĠW al
Ġ195 0
ĠK ind
ho ck
am ens
ĠIl legal
ĠT ri
ver kehr
Ġl ong
Ã¶r t
Ġsch wer
ĠSt Ã¤d
h as
Ġb y
iz ed
Univers itÃ¤t
ĠSch ule
Ġgew Ã¤hlt
Ġhin aus
ĠÃ¼ber nahm
Ġgeb oren
M us
an ien
f ort
Ġf ort
urn ier
Ġent stand
ĠReg ierung
ĠIn sel
E ine
ĠSel bst
ĠG Ã¶
cri pt
val id
Ġ6 0
Ġwen ig
m Ã¶
Ġst r
F A
i am
ant wort
++ )
ĠH in
ĠF Ã¼hr
Ġi d
In stance
od y
St and
Ġin dex
Ġvor handen
Ġh erv
m ark
Ver ein
Ġsch Ã¶n
Mar shaller
k unft
ĠZ ur
ent lichen
ĠMa in
ĠR en
ĠZw ischen
k n
re p
ĠVer l
ĠIn nen
3 3
os sen
zeu ge
ĠM ap
ev el
w asser
au se
S eit
Å į
uch te
ĠA ir
( (
G r
ern en
ĠIntern et
Ġh Ã¶ch
Ġz ehn
l as
ĠH ar
ĠT ex
Ġf orm
um m
ĠS am
ĠF ile
ĠC ount
ad a
ĠB ilder
Ġzwei te
ĠKl asse
ĠW ein
ĠMÃ¤n ner
ĠBay ern
K l
ĠK unden
stÃ¤nd ig
or gen
issen schaften
ĠVer kehr
ern er
an ken
v oll
Ġal ten
ist r
lau b
lo b
B uffer
te gr
8 8
rau ch
Ġn ie
fÃ¼hr er
hock ey
ĠP ass
ĠSch Ã¼ler
hr ead
inz u
gesch lossen
m m
Ġ198 2
ĠE t
ri gen
ym n
ĠD ruck
ag t
ab hÃ¤ng
O bj
St atus
r ist
z ess
Ã¼ ter
Ġ{ @
tem berg
Ġzw ar
tocol Marshaller
ge hen
schul lehrer
I ch
den burg
eich nung
ĠK in
f Ã¼r
s ub
tier te
V on
ĠH el
ĠIt alien
Ã¤us er
on en
le y
ĠM ont
ernseh serie
ĠT ab
ĠW el
S ystem
t eid
w eit
ĠW issenschaft
A S
A p
sch ech
Man ager
ĠZ Ã¼r
Ġeigen e
enz e
ist ische
Ġn ahe
mÃ¤ÃŁ ig
ĠF ort
ĠO per
ĠR obert
Eigen schaft
te st
ĠJ ur
Å ¡
t temberg
u el
ak te
n o
ut zen
ym b
Ġein gesetzt
Ã¶ ÃŁe
Ġ Ã¤
b Ã¼
ĠVer anst
op p
en zen
net en
Ġ ad
ĠA ben
ĠG mbH
Ġerfolg reich
Ġzahl reiche
ue ck
en ce
se hen
ac tion
n ach
ĠOn line
Ġb in
Ġbe vor
ĠT o
Ġihn en
ĠAlb um
Ġm ethod
ĠF rie
ich ter
meister schaft
ĠTh ema
C ount
Ġ197 2
ger ufen
Ġbes ser
3 9
Ġsie he
Ġbest ehen
ion s
W elt
Ġs ub
ĠB ot
ÃŁ t
Ġhand elt
L and
Ġ198 3
le ge
ĠEn d
au sen
Ã¤n den
bar e
u ild
ĠW ar
Ġw oll
Ġnicht s
ichte te
Ġ193 8
3 8
ĠO sten
P l
Ġbest imm
werk e
i ent
ĠM os
ĠK Ã¶rper
u al
al tet
ĠK or
Ġgen au
N ot
Ġge legen
sp l
ĠAn zahl
Ġsog ar
Ġdah er
f il
ĠAm ts
Ġem pf
de b
Ġso gen
ĠBes uch
Ġ #
w ohl
ol ler
re v
U T
Ġerrich tet
er r
b ek
b ank
ĠN ot
Ġj a
riv at
Ġm in
Ġm ar
Ġent standen
Ġr Ã¶m
ĠWest en
ĠAuÃŁ erdem
ĠB ran
Ġn o
spiel sweise
Util s
eg ung
p reis
Ġst amm
ges ellschaft
bar en
ĠMit glieder
urop Ã¤
3 7
h am
ĠP osition
ad urch
Ġre gel
ettbew erb
Deutsch land
Ġ acht
ĠS achsen
ĠProf essor
y le
ĠHal b
Ġ197 9
fl Ã¤che
ĠÂ »
Fac tory
ein t
Ġst ar
Ġr uss
ontain er
ĠG i
Ġheu tigen
ynch ron
un ge
ĠStud ien
ĠZ um
pr int
Ġsoll en
la den
ĠN or
ĠKrieg s
Ġfolgen der
z y
Ġlie ÃŁ
ĠG ar
ĠN Ã¤
get Name
A ut
9 4
lei d
ĠGes amt
ont in
g ra
w o
ĠV iel
Ġ Ã¤hn
Ã¤ te
ĠO s
ibli othe
ĠS im
Ġb ild
Ġm acht
ir t
ĠInstit ut
ĠD ok
schaft s
hau pt
ĠVer fÃ¼g
ge m
ĠR ein
ĠC ol
fol gt
Ġehemal igen
all y
f rei
ge fÃ¼hrt
me e
Ġges p
Ġf r
Ġh Ã¤ufig
Ġre cht
throw s
Ġm od
ĠC arl
ĠAuf lage
re f
ikan ischen
Ġsie ben
Ġ198 1
Ã¤hl en
EN T
f re
im ent
geb ung
ĠM aterial
t ype
ow er
Ã¼ ge
h ang
Ã¤ch lich
ĠSal z
im al
Em pty
u x
ĠL og
ain er
P ack
olit ik
Ġentsp rechen
ĠEr folg
Ġgef unden
9 8
pl ate
ĠOt to
get S
Ġ197 4
ei ger
Ġso zial
Ġ197 5
Ġ197 6
ĠE ben
ĠII I
Ġ196 8
A G
ĠAr tikel
ĠK omp
ĠEr d
ĠW o
ĠMit arbeiter
iz iert
p art
Ġstell t
mal e
ĠverÃ¶ffentlich t
ĠK raft
ĠR und
ser t
ĠSp iele
D at
es e
ĠH en
w ald
ĠT rans
Ġ197 8
3 6
in c
tr e
Con tent
Ġdar unter
ĠÃ¶ st
F rau
s ie
sch eiden
T yp
an lage
Ġdan ach
ĠM er
ek tion
te chn
Ġwel ches
ĠMed ien
C all
ĠfrÃ¼ her
ĠBahn hof
Ġs omit
Ġdam als
ĠE ing
4 4
Ġs h
ĠJo urnal
ĠOrt steil
ĠF inal
st ehen
O L
u hr
ĠC om
ĠMin ister
it i
Con stants
At tribute
Ġwen iger
ĠG ott
Ġzu dem
b eh
ist ik
F l
U m
Ġn ational
ĠZ ust
Ġ196 9
8 6
h af
Ġge ben
geb Ã¤ude
ungs k
her ap
ĠL o
K on
Ġ check
ĠVerein igten
Ġbei spielsweise
irekt or
ĠN etz
fl ug
ĠGeschÃ¤ft s
ĠK osten
ĠG arten
arl ament
U p
ĠH om
ĠT al
Ġdeut lich
efin ition
Ã¤d ag
Ġger ade
ĠT a
ro p
geb ie
tec ted
T rans
ei der
Ġst art
ok al
re en
ĠDre h
Ġs c
ĠCount y
H och
an ischen
Ġver sch
ĠgehÃ¶r en
R ep
st all
ĠAuf trag
et ail
Ġf ield
iv id
C E
ol a
ĠH or
st Ã¼ck
ĠD DR
ĠK ategor
ĠRech t
ĠF el
is p
ĠAn ton
U r
and id
rei te
An d
r acht
ĠP or
ĠD rei
ĠSt ad
ffiziel le
Ġk lass
Ġc lass
Ġ Ð
ĠB us
Ċĉĉĉĉ ĉ
ĠErn st
B l
Ġh Ã¶
Ġ197 1
Ġst arb
itz t
ok rat
ut es
ĠM ilitÃ¤r
Ġel ektr
Ġer Ã¶ff
ĉĉ ĉĉ
k ungen
Ġk ur
un ction
bl ick
Ġw elt
f ord
ĠFre und
Ġ197 7
ĠEle ktr
> ();
ĠwÃ¼r de
ĠEr w
stru ktur
ĠA ch
Die se
Ġletz te
ff set
im a
Ġ(âĢ ŀ
d o
ĠfranzÃ¶s ischen
ĠRei he
il la
Ġabsol v
Ġg ar
ĠP o
Ã¤l fte
C H
ĠR ud
isse ur
j e
z i
Ġz og
eh ler
L o
Aus wahl
ymn as
le b
ot z
" .
7 6
ĠP rÃ¤
T able
ĠC as
ort h
D ate
Ġc urrent
Ġw es
schlieÃŁ lich
l eitung
Ã §
fra ge
3 1
F rom
ow s
. :
u sch
as ste
Ġbef inden
ĠL age
d ien
cri ption
Ġzu vor
G em
ten s
Ġ ung
Ġgem acht
9 6
an te
Ġverb unden
ver w
ĠStel le
ĠS onn
ĠSch Ã¶n
end et
al og
Ġver fÃ¼
Hand ler
0 5
ĠT on
ĠJose ph
ab il
ĠS and
ur f
Ġ193 3
ĠP ra
Ġp ath
gen de
ti tel
ĠM otor
ĠJohann es
ĠPhil osoph
n ext
ĠSil ber
Ġl ag
ĠP fl
b and
an ger
it al
it ial
8 4
och e
r ach
ĠS oc
ges ehen
ĠVerw altungs
lo at
d a
l am
an y
en a
ĠCh arl
zentr um
: //
enn ung
ĠRei se
Ã¶ hn
Ġsoll ten
sch inen
ĠM y
yn c
ĠK om
ul ti
St art
ĠPol izei
ĠB ank
Ġer k
Ġh inzu
ĠHil fe
m el
Ã¼s se
Ġch ar
der s
Ġstell te
ĠF euer
ar ian
form at
b ie
Ġi r
de d
ĠFor sch
Ġ Q
ul ar
la ck
âĢľ )
x is
M ail
ĠBeg riff
Ġein igen
Ã¼r ttemberg
us st
iv al
ĠEnerg ie
P er
ikan er
Ġteil weise
wei sen
Ġgen utzt
ĠG leich
ĠD res
pr Ã¼
Tra ce
Ã¤t zen
ord in
ĠGes etz
w esen
ei en
ĠB ur
Un ter
ĠVerfÃ¼g ung
f ried
Ġzur ueck
M L
ĠG ruppen
ĠâĢ ¦
ĠGemein den
en ter
ger icht
k el
f red
Ġ reich
ĠB ek
tr a
br uch
Vers ion
ĠA ber
Ġp ersÃ¶n
ĠR egen
ĠBevÃ¶lker ung
it or
ĠK arriere
ĠS ong
ĠB or
ĠHann over
ĠNach t
List ener
W erk
ĠP sych
7 4
ĠK ol
Ġr et
ei s
ĠJ azz
Ġ197 3
Ġange geben
ĠL au
ĠVerb indung
N A
z ehn
ĠBerlin er
zeu gt
ĠgrÃ¶ÃŁ ten
ĠAn ge
zeich en
ĠB aden
Ġbet eil
f Ã¶r
ĠAl le
Ġsch war
s um
Ãľ ber
ag ue
Ġbie ten
ĠZÃ¼r ich
Ġak tiv
in ge
Ġpro tocolMarshaller
Ã¤tig keit
A D
ĠK auf
as il
ĠM eer
Ã¤t ten
h an
Ã¤u ft
ĠA f
rie ch
ĠNÃ¤ he
č ĊĠĠĠĠĠĠĠĠĠĠĠĠĠĠĠ
in i
ĠE hren
teil t
ut ton
Ã¼ ch
R e
B r
T r
ĠV o
spiel en
ĠF Ã¶rder
au p
ĠA G
f Ã¤h
iv en
itz e
rei fen
Ġver lie
ect or
an o
t c
ĠSt u
ĠS in
ĠD om
ĠGr ab
zeich nungen
ĠHer ren
en te
Ġres ponse
ĠT op
ĠUnter such
Argument Exception
ro ss
ik on
ach er
am eister
Ġon line
E T
ĠG eist
ĠSpr ache
i ft
arb eitung
Ġd r
ĠEl tern
Ġmit tler
ĠRich ard
Ġn ode
ĠT ran
Ġ193 9
Ġf re
ik e
c urrent
m ut
ay er
M ed
n der
rit te
U L
i os
5 5
deck t
rich ten
. <
Ġerw Ã¤hn
M P
rei bt
on ie
arb eitet
J o
ĠSchw er
ĠB Ã¶
ĠK opf
ĠEr fahr
fol ger
Ġerreich t
P ol
ĠM ad
Ġpar am
Ġauf genommen
ĠFrÃ¼ h
z eiten
Ġherv or
l Ã¤ss
re cher
" ;
ĠM el
ĠSie d
Ã¶ pf
ĠSa int
Ã¼ hle
u tet
Ġau t
ien s
ĠAus bildung
ymb ol
W est
ĠI r
rei ten
w rite
ĠM ein
ĠJ e
ĠHer mann
ativ en
Ġer ster
Ġk ompl
Ġc m
C o
Ġver s
A mer
Ġk einen
S I
ĠMin uten
Ġb yte
rit z
ĠDes ign
F ilter
a un
c le
Ġ194 0
ĠDav id
jÃ¤hr igen
T ag
ĠS tern
ĠP rÃ¤sident
ĠL Ã¶
list e
ag n
ud em
ĠF inanz
En d
ivid u
at hl
ec ted
Ġte chn
8 9
ĠP et
IN D
Ġ19 20
Ġentfern t
Ġl eicht
as en
L e
Ġd ir
8 7
ann e
deb ug
Â ²
an w
re c
Ġam er
ĠMa ÃŁ
ĠD el
Ġtr ans
ick en
ial og
ĠFl uss
ĊĠĠĠĠĠĠĠĠĠĠĠĠĠĠĠĠĠĠĠĠĠĠĠĠ ĠĠĠĠĠĠĠ
ĠC D
Ġ196 5
rÃ¤s ent
ĠBr on
ĠAuÃŁ en
ĠS uper
Ġbei de
Ġeinz el
F I
ĠS ub
ĠS ervice
ier ungen
P E
r ic
Ġgleich en
ĠFra ge
Ġm achte
pr ess
Ġ196 7
f ile
ĠHer aus
Ā Ā
Ġwh ile
it en
Ġpro duz
f ung
Ġfol gte
ire c
ĠWerk e
ĠC al
O per
ĠR ang
Ġaus gew
st at
w ind
ann el
Ġ196 4
Ġw ollen
r uf
Ġge hen
ing ton
Ã¤ch s
v est
ĠD ach
ik t
ĠnÃ¤ch sten
h ung
ĠB ach
Ġk amen
Ġw issenschaft
Ġ( =
oc ument
tag s
Ġje den
sch riften
im men
ĠT ier
Ġ196 3
O T
ĠL ou
ĠWor ld
ĠB al
ĠW and
ĠSpiel en
Ġbede uten
d am
ĠH Ã¤lfte
z z
lie ben
T h
Ġ Å
ie ht
op e
Ġdam al
Ge ographie
geh end
b esch
k eits
Â °
ĠM c
Ġver f
eh m
Ġ194 4
Ġfolgen de
Ġd el
on es
zep t
T eilnehmer
ier ter
ĠF en
ang s
ĠJ apan
ĠH all
Ġver tr
ĠAk ademie
ieh ung
ibliothe k
ĠArray List
ĠI D
ĠDam it
Ġmehr eren
ĠRep ublik
** **
ĠEr sten
Ã¼ss eld
ĠMÃ¶glich keit
Ġre ad
Ġ196 6
Ġunter stÃ¼tz
Ġ196 1
Â »
tr ue
or ie
en e
Ġth at
ĠauÃŁer dem
od es
ĠNach dem
ende te
Ġe uropÃ¤
f ield
ĠH essen
eil en
Ġsch rieb
A B
g liche
Ġ195 8
ĠAlex ander
ĠM e
Ġr em
Ã¼ss el
ĠK ranken
ĠSer ie
o is
ĠVor sitzen
Ġsch l
Ġz ul
ru g
Ġ3 5
Ġ196 2
6 6
Ä į
ĠV al
Ġnach dem
ĠV en
rie ges
Ġgew esen
Ġ8 0
U ser
t um
> (
Ġwir k
id th
tern al
ing ungen
ck t
ag o
ik al
ey er
Ch ar
Ġ195 6
Ġbest and
Ã¼l ler
m und
olog ischen
Ġen g
ĠA ward
H eader
âĢ Ŀ
eh len
ĠCh em
ĠSchauspieler in
d in
str ing
ĠMod ell
k omm
Ã¤ um
iv ision
final e
Ġm on
ĠVer gleich
Sp iel
Ġwei ÃŁ
p le
ĠC ity
ĠF ig
Ġ193 0
Ġho hen
Ġent hÃ¤lt
ĠReich s
hei ra
Å Ĥ
Ġ7 0
ĠErgeb nis
ent wicklung
H er
Ġ scha
it ch
ĠSta ff
Ġver z
T Y
i que
Ġinter ess
Ġf er
ĠSchw arz
ontain s
ik o
ĠIn n
tig ung
Ġp r
ĠPr ess
Pack age
rech end
ĠG et
ĠBr and
ĠUnter stÃ¼tz
ĠBas is
Ð °
zeu gen
sta at
Qu ery
ĠÃ¤ uÃŁ
om an
op y
ĠÃ¼ber n
c m
st ant
ĠQu alitÃ¤t
g ten
itz er
eu e
ĠD ist
ĠBau m
ft ware
ien ten
ĠIllegal ArgumentException
l eiter
Ġge tr
ĠKon z
ĠEng land
ĠP arlament
ĠDies es
G es
ĠBru der
9 7
k ap
w art
hÃ¤lt nis
L ine
Ġl oc
N ames
ĠSie g
Ġres ource
west en
stre cke
ĠW alter
fahr er
olog ische
ĠM ess
Ġbeg r
ĠAmer ican
ĠD ep
Ġ195 2
ig keiten
mus eum
ĠVer sion
rik a
kau ft
setz en
ĠWien er
n am
ĠKont akt
ĠÃĸ ff
ĠD och
Ġj apan
ĠGes und
ĠPolit ik
ĠWolf gang
ĠL iga
so zial
ĠSchl acht
Ġm ed
Ġg l
Ġg erne
S o
Ġt yp
H ol
lin ie
ĠCh or
G ener
b ef
ĠL icht
ot te
Ġsetz te
Ã¤nder t
an ad
Ġs ex
Ġs uper
ĠP il
ĠPart ner
0 6
le cht
==== ====
7 7
l assen
ei sen
l ern
ell a
Sp ort
ĠB rie
Ġd Ã¼r
ĠB rit
ĠP rivat
hal te
Gem ein
is ierung
Ġan schlieÃŁend
ier s
aler ie
Ġeh er
Ġb as
ha ft
ele te
0 4
ay s
ĠK ampf
ĠE he
ar f
Ġ195 9
ĠF ernseh
ĠV oll
mar kt
ĠW h
Ġer r
Ġst ellen
Ġ195 7
9 2
Ĥ ¬
it sch
ĠT im
rei sen
ite d
fÃ¶r m
P r
den tif
ĠVide o
Ġk ehr
Ġt c
inn t
W enn
ol den
ĠArb eiten
r hein
Ġ ap
ĠSe e
ĠJose f
it a
Ġihr es
Ġz erst
Ġer reichen
Ġson st
tr aum
el ten
ĠSt Ã¼ck
d ata
g ien
Ã¼ gen
Ċ ĊĠĠĠĠĠĠĠĠĠĠĠĠĠĠĠ
ĠW ort
k athol
\ "
Ġ194 6
Ġd ritten
ĠS Ã¤nger
Ġentwick elt
ĠBÃ¼rger meister
ĠFir ma
C T
l ad
ĠH an
Ġsel ten
ot h
ĠHau p
Ġspe ziel
Ã¤ gt
ĠT eile
S ource
ĠB all
ĠP an
ĠR ock
zei gt
Ġv an
ĠAr mee
ay out
F ernsehserie
Ġ ra
Ġer ziel
In t
l l
ĠD eb
om et
ĠfÃ¼hr en
ĠSt unden
ĠAr ten
ĠursprÃ¼n glich
ĠStand ard
ĠK och
ĠVer f
Ġf alls
us h
In ner
" ))
ĠKant on
T rÃ¤ger
en ten
D F
L O
ĠHoch schule
or te
Ġf inanz
D ec
ĠS ek
Ġeben so
v iew
eh ens
w egen
ĠF uÃŁ
ĠR ecord
ĠZ udem
Mod el
Ġbes uchte
C O
he ck
egr Ã¼ndet
e arch
ĠB und
ition s
Im pl
em b
ĠStud ium
Ġwoll te
ĠAu gen
N o
Ġ194 1
Ġw Ã¤re
Ġs er
ill en
ĠTag es
ĠS w
č ĊĠĠĠĠĠ
wie gend
Ġer z
re quest
U E
ĠD enn
Ġben Ã¶
m on
ĠkÃ¶nn te
. -
Ċ ĊĠĠĠĠĠ
ĠLe ague
ĠLehr er
Ġgemein s
ch ar
ĠSt amm
N umber
ĠF ern
ir ks
ĠW ider
per atur
ab rik
u hl
ungs ver
Q L
ĠD oppel
ĠAus wahl
C hr
z uf
Ġge k
Ġst ate
ĠKÃ¶nig reich
au sch
v el
C omp
ĠS et
ĠTh emen
c lient
Ġm essage
ĠProdu kt
Ġ );
ĠGl as
ĠDenk mal
tem ent
richt ungen
Ġpol n
er ror
Ġ9 0
4 6
Ar ch
ĠR a
sp h
ĠFra gen
Ġ195 5
st ud
par k
ĠNach folger
Ġdar Ã¼ber
A ccess
s a
ĠKompon ist
ĠFl or
R el
T oken
Ġ organis
ĠB d
j o
l ar
ĠD Ã¼sseld
Ġtr otz
amil ie
au ber
ĠL i
Ġer weiter
ĠStr ecke
st art
ĠA ust
Ġg ute
ate in
meister schaften
Ä ģ
ah nen
gel Ã¶st
0 1
b eg
eh mer
b s
ĠZu ge
Ġn orm
Ġne un
n eter
4 8
ab r
Ġal te
Ġ194 8
Ġev ent
o der
ĠA g
ĠB raun
Ġz eigen
ĠP op
eig ht
ĠPr em
R I
Ã¤d chen
ĠÃ¤l ter
Ġl and
ĠAb geord
ĠÂ «
ho ben
Con figuration
em in
our ces
z ip
un ternehmen
ĠT ruppen
Ġbet rÃ¤
rit ik
Ġerh Ã¤lt
ĠT e
Ã¤n gen
rÃ¤siden ten
C onnection
Ġz entr
Ġm eine
pro tected
Ġaktu ellen
Ġ194 9
Ġ195 4
ĠDres den
ĠEr k
Ġ194 2
ch ester
ĠS m
olle ction
ĠP unkt
ĠL eiter
lag er
E is
Ġgen er
] .
ab l
E L
gr Ã¼n
ĠH u
S ON
k ra
ĠL Ã¤nge
ĠS yn
K ir
ĠIn teger
mar shall
N ext
Ent ity
i ol
ĠAn gel
tig keit
i j
at tern
ĠSte uer
ĠP ublik
wei g
bet rieb
g ie
Ver lag
ĠReg ierungs
o den
s ei
etz ung
heira tet
Ġent halten
ĠPh ys
Ġeinzel nen
c ing
l Ã¶sung
S V
S etzt
lich keiten
alt ungen
Ġabsolv ierte
inde stens
not ation
sch uss
ĊĠĠĠĠĠĠĠĠ ĠĠĠĠ
entr y
ĠPr inz
ĠDan ach
f in
ĠR itter
rÃ¤ fte
mit t
d et
ĠB ud
ĠEurop Ã¤
ĠverÃ¶ffentlich te
S ub
be ck
Ġ194 3
imm ung
stra hl
Ġc all
hal le
en g
st anz
ma ÃŁ
F F
ĠSt at
Ġspiel en
Ġmo der
ĠStadt teil
ĠP reuÃŁ
Ġc omp
ĠUm welt
ĠUnterstÃ¼tz ung
st att
Ġsel ben
B IND
Ġho he
Ġn ehmen
Ġal t
land s
Ex pression
in fo
ĠM ass
kl us
ĠR em
Ġver ein
A X
Ġk omp
ĠâĢ ľ
a ile
Ġm indestens
Ġ195 3
al es
ĠR h
Ġk athol
C D
c ase
Ġb l
ub e
č Ċĉĉĉ
ĠÃĦ nder
ĠInd ustrie
g arten
ir m
spr uch
ĠÃ¶sterreich ischer
BIND ING
P age
ĠKon tr
ĠL eitung
Ġsp ielt
C ON
Ġweiter hin
Ġ193 6
Ð ¾
ĠCh ina
Ġ tem
Ġj Ã¤hr
sh ip
ĠEnt scheid
eig net
ĠfranzÃ¶s ischer
m ap
ĠKategor ie
M eter
ĠS old
ĠGeb ie
M ax
d aten
ĠC ms
4 7
Ġbesch Ã¤f
ĠLin ie
ĠS u
ĊĠĠĠĠĠĠĠĠĠĠĠĠĠĠĠĠĠĠĠĠĠĠĠĠĠĠĠĠĠĠĠĠ ĠĠĠĠĠĠĠĠĠĠĠĠĠĠĠĠ
ĠNach bar
olog y
w ill
ra p
Ġex ten
Ġeinz ige
ĠBl ick
ĠWill iam
is Empty
ĠK ern
ĠL Ã¤nder
ĠBez eichnung
Ġm m
ĠR os
ĠZentr um
ĠEx ception
ĠForsch ungs
d at
i i
ĠS ow
4 9
P art
ĠW ahr
kt or
ĠGeb urt
8 3
Ð ¸
t liche
ut her
ĠJ er
om o
ou ver
ĠPol en
im it
Ã¼r n
ĠEisen bahn
i w
Ã¶ sen
Ġehemal ige
ĠH Ã¶r
0 9
ic o
gel n
Ġstamm t
l n
Ġd at
st eh
ĠAn ti
ĠG al
Ġbe ein
ĠSp ez
ĠBay er
ĠR at
Ġ5 00
ĠK amer
ĠC ap
ie ben
ĠsÃ¼d lich
P f
d k
Ġm en
ĠP a
Ġd efault
eren ce
Ġben annt
E X
y a
halt ung
Ġl Ã¤nger
20 18
ĠS onder
ĠP e
ut ure
Ġp ass
Ġinternational en
Ġj Ã¼n
Ġre c
Ġcon text
tern ehmer
Ġumf asst
k reuz
m eld
Ã¤t ter
Ġwel cher
b ischof
te ten
lie gen
k an
7 9
L ength
Ã¤hl te
ĠWirtschaft s
st o
Ġ> =
ĠLie be
ĠnatÃ¼r lich
N ew
q l
ĠA ustr
ĠFol gen
Ġunser en
Ġentwick elte
O S
Ex ec
pf er
Ġbek annte
Ġl o
ĠGr Ã¼ndung
E d
ĠVer Ã¶ffentlich
Hoch schullehrer
ul a
Ġun ver
ol or
In teger
pl ication
Ġausge zeichnet
ie ÃŁen
Ġo ben
unk ten
W er
ĠT ur
ĠSpr ach
ĠPfl anzen
la f
ĠCl ub
Ġh ol
ĠJ ung
s itz
ĠSc ien
ĠmÃ¶ch te
ĠAl bert
âĢ ŀ
end ar
ĠZeit schrift
ĠDok ument
0 7
ĠZusammen arbeit
s berg
Ġge d
E S
0 3
<? >
Ġgr Ã¼ndete
Ã¡ n
s c
Ġb ilden
Ġle dig
eid el
T em
Ġk aum
Ġge baut
ĠAb schluss
oss ible
et a
ĠJ ean
c ontains
C olumn
Ġneu es
ĠFen ster
Ġ+ =
ĠBr un
v is
fall en
ĠIhr en
Ġbes itzt
au tor
ĠN ik
ĠFor schung
ref ix
f alen
bez irk
aile d
a at
k raft
Ġp assen
dr ess
S te
Ġneu er
i or
u a
Ġs b
ag d
b us
end es
C l
h istor
Ġt arget
ell es
Ġverl oren
la w
Ã¼hr en
ĠMÃ¼n ster
Z u
tr ainer
yn am
ĠAut o
0 2
M S
k arte
deut sch
S up
ĠT urm
Ã¶ sterreich
r c
t a
Ã¼ st
ĠJ ak
Ġo ffiziel
Ġar e
Ġwirk lich
Ġsch loss
Ġledig lich
Ġerh Ã¶
Ġmo dern
ĠS uche
ĠZeit punkt
amerikan ische
8 2
Ġhei ra
âĢ ĺ
ers eits
tig te
ĠOr d
D urch
er ei
ra ph
oc i
ĠH igh
Ġer folgt
la ce
Ġtr ad
A ction
M in
b Ã¼rger
ĠJ ac
ieren den
Ġblei bt
ie ÃŁ
u gen
am in
Ġk ennen
k i
Ġge stellt
ĠP unkte
Ã³ n
trib utes
ĠerwÃ¤hn t
Ġbild et
9 1
ie m
ĠB on
Ċ ĠĠĠĠ
Ġin put
Ġern annt
o o
and elt
Pro du
rem ove
C om
Ġd est
V iew
g ut
Ġsie ht
Ġgew orden
form ation
C ms
ĠUm gebung
at ter
ĠVerein s
herap ie
5 6
7 2
ĠJ ack
z a
ĠP lay
all el
S el
Ġein ger
ĠT rad
Ġj ava
ymnas ium
Ġdes halb
Ġen try
ĠC hef
ĠO ffizielle
ĠAn schluss
leich t
ĠBest and
sen d
Ġgesch lossen
ĠAngeb ot
ĠbetrÃ¤ gt
ĠJ ames
Ġp rom
Ġ195 1
ĠGe orge
ĠW all
ff er
mus ik
Ġev angel
par tement
Pro v
ĠT Ã¼r
qu es
7 1
ber n
Ġwir tschaft
ĠSch les
hal ts
M ill
c el
t he
denk mal
k ampf
ĠD azu
ĠW ol
il ler
Ġel ement
T ree
Ġc om
zeich nis
ĠW as
ĠL ied
Ġ ed
Ġp rak
ĠOr gel
Ġ* /
ĠTra in
on y
Ġp h
s es
ĠN orm
ĠAndre as
ĠRud olf
ĠAb s
m ung
Ã ¢
ĠM ot
ĠGr Ã¶ÃŁe
Ċĉĉĉĉ ĉĉ
Ġrech ts
ahr en
r is
ĠAk tiv
Ġn ext
atch er
ĠPhil ipp
ĠD Ã©
ĠR unde
ag s
ĠAr n
Ġ193 4
ĠnÃ¶rd lich
N ational
Ġver br
for schung
und le
ot al
. ");
ĠEp is
ek ten
ĠB ab
Ġ3 2
ĠR Ã¶
4 2
an lagen
ri ck
Ġent spr
Ġ194 7
0 8
Ġst ammen
Ġh as
bar keit
ĠIn f
ĠCh amp
ĠKir ch
Ġer war
ĠBes onder
ĠD isk
Ġan z
ow ed
ĠfrÃ¼ h
ver tr
ein er
ez ep
f unk
Ġ193 7
ĠKl aus
' t
L evel
Ġt Ã¤
ĠTeil nehmer
g a
ger s
ĠfranzÃ¶s ische
L ink
b ten
w urf
stell te
res ult
ĠFried hof
v ille
ĠK al
An y
ĠgrÃ¶ÃŁ te
athl et
au ern
Ġin dem
Ġhei ÃŁt
if e
ter ator
ĠVer such
ĠStr u
k or
u he
Ġunser em
A uch
ĠN S
ĠBez irk
ĠH art
rech ts
m ehr
ĠS ant
Ġf ind
As ync
Amer ikaner
Ġgleich zeitig
i men
n ungs
ĠS Ã¤
em ann
ĠAben d
5 4
y al
Ġb ald
pro chen
ĠOrganis ation
B yte
Ġd adurch
eich er
ug h
ĠfrÃ¼ hen
ti en
ĠProdu kte
st Ã¤tte
iz ation
ĠA pp
ĠD ann
Ã¼nd eten
ekt or
ĠE lement
ĠH off
Ġje de
zw ischen
b ase
Ġg riech
Ġbef and
A ss
_ _
c er
Ġzahl reichen
Ġkn app
Ã¤dag og
iz er
stru ktion
ag te
ĠGer man
Ġgesam te
ĠGot tes
ĠL ab
Ġver heiratet
get D
rep ublik
ĠSt ock
ĠDÃ¼sseld orf
w ork
ĠN icht
ĠWei se
L egt
v o
ĠB onn
Ġm Ã¶
ĠK re
B ean
g ibt
ĠM erk
ĠIhr er
ĠzusÃ¤tz lich
ĠH um
ĠAl ten
I V
Ġs etzt
ĠI V
Ġst Ã¤r
fl Ã¤chen
gemein schaft
B e
S ession
in ts
ti al
ie ur
og le
Ġvor her
ep age
ĠD ir
etz en
Ġbrit ischen
t d
spr ache
Ġqu alif
ĠW ild
op s
ĠHer bst
P oint
ĠL ong
Ġo bj
west lich
ab eth
ent liche
Ġver k
W Ã¼rttemberg
Ġj Ã¼d
n ey
ĠE hr
Ser ver
Ã¼ ten
Ġdar f
ĠEv angel
ĠB arb
ari able
ĠAl ler
z og
Ġb em
ĠJ ust
Ġjed em
Ġf anden
Ġ19 18
Ġpro f
Ġblei ben
un time
Ġpolit ischen
ĠS onnen
5 3
r am
bau ten
ĠEinwohn ern
' )
y th
ro chen
ĠAn der
Ã¤n n
ĠAuf gaben
Ġbel eg
ĠTra iner
jÃ¤hr ige
Ġbeg innt
Ġh alten
ĠAn n
pf lich
8 1
ĠG ran
and lung
ĠEnt wick
6 7
w ord
Ã¼ck s
ĠGr and
Ġaktu elle
C ache
Ġver kauf
ak tiv
ĠAus gabe
Ġind ividu
l Ã¤ufer
ĠP ri
oll ar
ĠBen utz
ĠStaff el
b is
G egrÃ¼ndet
r unde
ĠAn na
ks am
hol z
ĠÃ¶ff entlichen
wÃ¼r dig
ge legt
ĠUn ion
rau cht
ĠDi pl
V erk
ĠZu kunft
ĠVol k
ĠHal le
Ġkosten los
lie fert
Ð µ
icher ung
ĠÃ¤l te
ĠM ik
ap e
ĠR and
Ġf iel
ĠL eg
Ġo ption
ĠL OG
T ER
Ġ193 5
red it
alif orn
m esser
Ġbr ingen
irec tory
ĠBr emen
ĠL Ã¼
ĠO ut
ĠN ur
ic ate
ĠOr iginal
Ã¶st lich
G B
Ġganz e
ĠFinal e
anw alt
D a
ĠB ack
Ġbek ommen
Ġeigen tlich
ĠK op
ick t
spr ung
c up
n amen
er tif
rei ber
schein lich
get Value
Ġ4 5
Ġ rei
ĠM Ã¤dchen
6 8
v on
st attung
stell ten
les en
Ġkehr te
f unktion
Ġn immt
Ġaus schlieÃŁlich
ĠK omb
ĠD ek
D efinition
on om
Ġein f
Ġer mÃ¶glich
Ġnot wend
Ad dress
ĠK er
mittel t
Ġzul etzt
ĠU p
F e
L ayout
u c
ĠEin fluss
ĠBild ung
Ġheira tete
Ċ Ċĉĉ
or gt
Ã¤n e
gew iesen
ĠF Ã¤l
au b
Ġh Ã¤tte
ĠVerb and
ĠprÃ¤ sen
ĠE ich
Ġ- >
Pro perties
ĠGr enze
ĠMed izin
ĠH ash
ĊĠĠĠĠĠĠĠĠ ĠĠĠĠĠ
ri ffen
ĠRecord s
1 00
L ong
Ġper f
ĠSt ar
Ġwen ige
Ġarb eiten
Tra cing
ĠhÃ¶ her
is D
ie fer
ic es
ĠColle ction
Ch ild
low ak
O ber
ĠMon ate
Ã¤ ger
ĠF und
isch em
m at
ĠBÃ¼ cher
H el
g arn
Ġc l
haus es
ĠLeist ung
ann ot
eg ment
NA ME
g Ã¤nger
h or
j ekte
ĠM Ã¼ller
ĠHand el
itu ation
ma x
at ers
-------- --------
ic t
Ġschw ed
inde st
ĠA ktion
ĠC an
Ġk aufen
iel ten
kir chen
Ġ euch
ĠCharl es
B C
Ċ ĠĠ
Ġi de
K ultur
s dorf
ĠB eim
Ãĸ sterreich
Ġh ab
ĠVerkehr s
T ask
Ġer forder
ock en
PD F
Ġup date
ĠS l
Ġ19 19
ĠSch lag
p ath
ĠT urnier
Ġdien te
7 3
Ġge br
ĠSch ool
ĠStr om
Ur l
Ġer setzt
Ġ19 00
auf trag
kl asse
ond s
ĠWeiter e
ge g
ist in
ver t
sch ine
ĠP fer
ro ffen
ĠZeit ung
wissenschaft ler
hockey spieler
Ġw ohn
ra el
eu cht
ho den
By tes
ĠBetrieb s
ww w
W eiter
Ġm ap
ec ute
ĠV iz
ĠC amp
ĠAn gaben
J ob
Ġgel ten
et ern
P h
ce pt
or ien
den ten
g ab
Ġd ire
ĠK u
Im age
ĠW ehr
ig ungs
ad ata
ĠFl Ã¤che
Ġex tr
Ġdamal igen
p unkte
s l
ĠD or
G er
ohl en
Ã¼ ste
ĠBei trag
Ġgesam ten
5 7
ĠF e
org ung
ha fen
4 1
4 3
Ġd efin
Ġk rit
Ã¤n gt
ĠAn lage
ĠMen sch
ĠF ac
ĠgroÃŁ er
ĠEm pf
ĠStÃ¤d te
ĠEs sen
k und
ĠW ander
Ġge prÃ¤
5 2
Ġge pl
Ġwelt weit
ĠEx per
au pt
ĠQu alif
Ġ192 8
zahl en
end orf
ieren de
verw altung
Ġtrad ition
Ġdurch gefÃ¼hrt
ĠChrist oph
ĠReg isseur
()) );
setz ungen
P osition
Ġp osit
Ġgen ommen
schau spieler
Ġerschien en
ĠG attung
Ġp reuÃŁ
sp art
Ġw or
Ġs od
Ġh el
tier ten
6 3
h Ã¤user
Ä ±
ĠS ib
Ġjed es
Ġehemal iger
() ))
ĠAr m
x y
ĠVer wendung
imm el
serv ice
ĠHerr schaft
k r
ĠB ill
tr ieb
ven tion
6 1
Ġs ervice
Ġwer de
ĠVertr eter
Ġ192 9
wÃ¤r ts
Obj ekt
l eit
Ġtr Ã¤gt
Ã ¸
Ġ text
lo c
lau ben
Ġmar shall
ĠunterstÃ¼tz t
Ġjeweil igen
hil fe
lo sen
Ġs ize
ĠG ust
Ġsei en
h eb
ie ger
an ische
Ġh ttp
ĠH elm
um p
Ã¼ m
Ġges etzt
P ort
ĠFahr zeug
Ä ĩ
ĠK olle
ĠV om
gew icht
| }
ur a
get Message
ĠGÃ¶ tt
5 1
p oint
ĠG it
ĠIn str
ie gen
get R
un sch
ĠR enn
Ġ19 14
ĠZ immer
Ã¤hr t
Ã¼l l
Tracing Enabled
s Ã¤tze
ĠS up
or der
mÃ¤ ler
T H
h te
ĠF ehler
ĠZ ei
scha fter
M on
ĠT hr
pf el
ĠColle ge
ĠerÃ¶ff net
in sel
Ġd ich
ĠP rÃ¼
Ġr ichtig
Ġso fort
k unde
ĠB lack
ĠM as
Service Response
ĠS zen
Ġc an
ĠK ab
6 2
Ġf in
ir g
UR L
ĠSchm id
is Any
ĠT V
ech net
ĠJ es
lin ge
K reis
eb ug
ri ge
uf e
Ġbel ieb
Ġs uchen
Ġerh eb
Ġbede utet
N eu
umen te
O l
un e
ĠM acht
ĠMus iker
ĠPat ienten
od or
ĠF ernse
ĠG Ã¤
ul ation
ĠAn schlieÃŁend
Ġpolit ische
z Ã¤hl
st ate
ĠW erner
ĠF ritz
ian a
Ġsogen annten
c tor
ĠA uff
Ġin tegr
ib el
Ġall ein
rid ge
ic tion
ĠH ill
ser e
ĠAb st
res ource
Ġb au
ĠN Ã¼rn
Ġl aut
Ġent scheiden
ĠZusammen hang
ĠR ennen
sp rÃ¼
isAny TracingEnabled
Ġl eich
techn ik
I P
b a
ĠIm m
Ġr ich
erv let
h auer
ĠF ischer
um Ã¤n
B ahn
T R
ĠH y
Un it
Ġgr Ã¼n
stit ut
din and
V AL
ra w
Ġunter st
ĠUnternehmen s
ĠS icht
ĠZ eichen
Ã¼l lt
Ġzun ehmen
ab ase
Ġverm ut
ĠLou is
ĠV ic
Ġl ast
R uft
ĠP orn
ter t
bl att
Ġbrit ischer
ĠSp anien
k ret
ĠB ig
b yte
c is
lie fer
Ġzw eit
ĠPhilosoph ie
R o
ĠR ob
ass el
t lichen
ĠD amen
ĠD igit
Ġh al
Ġun mittel
ĠMus ic
ien en
Ġregel mÃ¤ÃŁig
B ase
mittel n
aly se
5 9
er er
ĠFamilien name
st Ã¤d
ĠK ammer
ĠH eidel
Option s
ĠL eicht
ĠIn ner
ot a
ĠN amens
ĠÃ¼ber geben
Ġso ur
Jahr hundert
o tion
b rit
ĠVer kauf
ĠWei hn
Ġbeteil igt
ĠKin dern
ĠÃ¼bern ommen
D ir
I f
Ġ1 000
ĠTechn ik
H ttp
Ġ time
le hn
W ie
un ion
ĠRad io
T O
l ong
Ġd unk
Ġk or
ĠBez irks
at ik
ĠT Ã¤tigkeit
Ã¤s ser
Typ es
ĠW oche
rei he
amerikan ischen
Ġmus sten
Ġwest lich
ĠDÃ© partement
6 9
W Ã¤hrend
Ġd ur
ĠH ir
ver l
ver trag
ĠMa schinen
ĠBau ern
app ing
ĠFarb e
Â «
Ġ ag
Ġbest e
K arriere
Ã¤ den
ĠL ink
Ġstatt f
ĠW ettbewerb
ĠZ uf
ĠFÃ¼r st
Ġ} );
iff er
Ġf irst
ĠG ro
lau bt
ĠDan iel
G et
R ad
p a
und s
ĠV is
ul en
ĠFot os
ach ts
re st
Ġvermut lich
! !
Val ues
ĠNutz ung
ĠTrad ition
. "
ĠF arben
ĠL Ã¤ndern
ĠU N
Ġro w
at ung
ĠGegen satz
ĠStru ktur
ĠT at
Ġall gemein
ĠJak ob
il es
ĠVor stand
Å «
ig i
alis ierung
r ess
Ġbr achte
Ġexten ds
wÃ¼rdig keiten
f ace
g ruppen
Ġ3 00
ĠF ak
p ed
ge d
Ã¼r gen
ĠO pen
Ġver treten
eich ert
C ase
k ur
Ċ ĠĊ
Ġâ Ĥ¬
ĠerklÃ¤r t
ĠRuss land
B undes
n ern
Ġp aar
qu ire
Ġ192 7
p ossible
Ã ½
rau en
5 8
st il
Ġs ah
ĠBr Ã¼
stÃ¤nd ige
Ref erence
ĠS ec
ĠAut om
Ã¶rder t
Ġlin ks
Verein igte
ĠÃ¶st lich
Ġsod ass
Ġg Ã¼nst
Ġl ine
Ġun abhÃ¤ng
ĠspÃ¤ter en
ĠFir men
ĠDreh buch
it ts
enz t
ĊĠĠĠĠĠĠĠĠĠĠĠĠĠĠĠĠĠĠĠĠĠĠĠĠĠĠĠĠĠĠĠĠ ĠĠĠĠĠĠĠĠ
ĠVerw altung
ĠSicher heit
z ub
zeich nung
Ġvoll stÃ¤ndig
Ġumf assen
Ġz eig
ĠW agen
ver se
ĠAus stellung
ikan ische
ĠverfÃ¼ gt
Ġle bt
ļ Ń
ĠL ok
vers ion
ink el
n itz
er be
ĠS or
le ger
forder ungen
v a
ĠHeil igen
Ġl au
ĠNatur schutz
ĠArchite ktur
ĠMath emat
etail s
A M
Ä «
ar tet
ĠR ek
ĠZ eich
Ġ193 2
ĠSo ftware
ĠW eil
Ġj unge
Ġge fÃ¼hrt
ĠO ption
( '
ĠL ager
ĠSt ate
ĠE lem
Ġo ther
Ġex p
ha ber
Met hode
C ollection
S ec
st Ã¤nde
at is
Ġb uffer
ist ent
Ã¶l f
UL T
h el
ĠS atz
ĠL ive
se x
Ġentsp rechend
ehens wÃ¼rdigkeiten
Ġent st
ĠMa c
Ġsol che
ĠM Ã¶
ĠChar akter
B lock
ĠA ud
Ġn utzen
ind ungen
p ace
par se
ĠFot o
ĠeuropÃ¤ ischen
A c
ran t
Ċĉ ĠĠĠ
m p
m acht
Ġf uer
ĠW issen
wei te
d ar
ĠKarl s
r ats
ĠVer teid
sub string
Ġent lang
wei le
omm ern
Ġbet rieben
ĠDar stellung
I t
Ð ½
all owed
leg ung
ĠErgeb nisse
Werk e
b ung
ĠB rau
ĠVer br
ĠStr af
z us
ur y
ĠB ra
ĠSchw e
ĠRel ig
Ġd igit
ĠP la
N eben
ĠS ign
Ġ19 12
T arget
ĠD irektor
ĠAn teil
Ġ193 1
Ġverl or
ĠMo dern
er o
ic y
age gen
Val id
u gend
ĠS ar
Ġm et
ĠSt atus
g ing
Ã¶ nen
Ġ192 5
ĠK as
ĠC entr
Ġt un
ĠPra xis
Ġer ror
bau m
ĠHom epage
an en
ach im
P S
ĠG re
ĠE vent
ĠL im
rei g
Ġg uten
get Class
es h
ĠT urn
Ġcon fig
Ġs w
gel assen
ĠZust and
b as
Ġtr agen
Ã¼hr ung
ĠLand wirtschaft
d as
Ġst ieg
Ġbe an
Trace Component
Ġm ark
Con tr
ĠVorsitzen der
H ier
Ġb ein
ĠG Ã¼n
er te
ĠE st
Ġh ielt
iv il
Ġdar in
ieh ungs
Ber lin
ĠVier tel
c omp
d or
ĠN ic
iel le
Ġver gleich
ĠAl fred
ĠRo sen
print ln
Ã¤l lt
p ack
ri a
Ġ192 4
reg ierung
Ġaut omat
d ouble
ĠW es
ra f
ĠâĢ ļ
ei sch
il dete
med aille
Ġangeb oten
D ep
Å Ļ
in ce
ĠT agen
ler s
ĠPro zess
Ġwich tige
ĠM ul
ĠHaupt stadt
D I
ĠC up
Ġan s
Ġander er
ĠWer te
ĠBran denburg
ĠO ff
Ġt Ã¼rk
ĠInter esse
un t
Ġf unktion
Ġp ort
ro t
M ode
ĠS ammlung
ĠC re
Gemein de
I L
Ġreg ion
ĠHinter grund
u z
on ym
ĠE U
Ġ4 00
AT E
ĠSing le
Ã© r
Ġweiter er
Ġver antwort
Z ur
ĠF in
ĠL ib
ei ben
ĠA sp
ĠQu ellen
ĠN orth
ĠKÃ¶nig s
ĠSt ahl
Ġum fang
ĠGroÃŁ en
ĠDat ei
w en
ĠS ach
ehr t
Ã¼hl en
n ess
ĠH und
ĠFrei burg
gebie te
ĠD ah
ĠAng riff
aup ts
h och
ĠFer dinand
Loc al
ĠDeutsch er
Ġkl ar
ĠKomm and
ĠNational sozial
Bau werk
lei tet
Up date
Ġsour ce
O ffset
ĠS ter
ĠA v
TY PE
Ġl angen
ĠPar am
ĠW ach
ĠSold aten
T er
h emal
al a
ĠN av
schl Ã¤
E urop
ĠB ist
S P
ĠD ivision
Ġer inn
erk unft
mit glied
ĠS amm
Ġst aat
Ġber eit
Ġgesch rieben
ash ington
ĠPap st
ĠBrie f
z ur
ĠVer fahren
Ġf ilter
ĠH oll
om ent
id a
g yp
ï ¿
ĠB eck
ver anst
p osition
ĠP rie
Ġa c
s ein
ĠB il
ĠL os
ed ia
sie he
Ġin form
Ġn ied
fol gen
an geb
ti scher
ass ungs
Ġpro perty
Ġle bte
ĠProblem e
u de
Ġw rite
ges p
tier ung
ĠT om
ĠO ffiz
Ġfol gt
ĠLu x
Ġbeleg te
w echsel
Ġgew innen
ĠNeu e
ĠSchw ar
Ġpar ent
ĠGl Ã¼ck
Ġdi ent
K E
v an
ĠGes prÃ¤
d essen
Ġ19 10
B and
Ġre st
Ġgesch affen
ĠHo hen
M ark
lin ien
ok e
sel ben
zeich nete
lÃ¤nd ischen
Ġus er
ĠTel ef
ĠSoc iet
S Ã¼d
ĠK up
ĠM ur
ĠT schech
iel len
sp ann
ĠAb teilung
for men
own load
ĠIde en
ĠHand els
Ġerziel te
Ġw ww
Ġ1 20
ot o
Ġklein er
C ontainer
U M
d urch
ĠS at
ĠT enn
Ġk anad
ing le
Ġj ungen
ĠString Builder
ĠHau t
ommer ce
Ġrel ativ
eil t
Ġgleich nam
Ġeinz eln
Ġgebr acht
R eader
d el
Ġst re
= '
S e
] ,
ĠSchw ester
ĠI st
Al b
Ġch ines
reu en
Ġar ch
gef Ã¤hr
ur ity
Sch wei
j or
ĠGer icht
oper ation
A cc
g g
ĠP rom
E l
st Ã¤r
um pf
Ġh aupts
Ġt ats
tel l
ĠAuf gabe
ichte ten
ĠSpez ial
m t
ĠÂ §
Ġfer tig
ĠK ey
S G
ĠS n
ĠL ieb
vers ammlung
Ġbest immt
ĠSti ftung
Ġl ok
ĠUn ited
ĠMet all
Param eters
C omm
ĠVor der
Ġ ;
ĠBr em
bo gen
Ġs k
ĠSo uth
AT ION
Ġver lieÃŁ
r el
ĠJ ob
Ġan zu
Ġc olumn
ĠAuf stieg
d f
Ġein st
ra te
iz ierte
ĠÃĸ l
s achsen
az in
minister ium
P olit
Ġs agte
ent al
ist ry
Ã¼t te
ĠSpiel zeit
Ñ Ģ
rech te
Ġs ynchron
ĠĊĠĊ ĠĊ
fan ter
Ġbestimm ten
r ing
ĠG rie
ĠT ype
= "
an i
ĠBer eits
gang s
c ol
p o
ĠS uch
Ã¼ck t
ĠUr s
h agen
on ik
ĠL ig
brit ann
m ethod
y pen
Ã¶r en
alis iert
ĠSchul en
Ġwichtig sten
M en
au st
ti st
ĠFlug zeug
ï¿ ½
N ieder
r and
um er
io us
Ġausge tragen
D O
or a
gent in
b uild
ĠR Ã¤
ĠVer ordnung
Ġitalien ischer
Ġr ein
ĠEin trag
Ġhistor ischen
Ġver kauft
Ġ192 1
ĠGel Ã¤nde
Str a
n ummer
Ġh ave
ĠWei ÃŁ
an ischer
ĠIn vest
ev ent
ĠTem peratur
n ode
ĠH ard
II I
wo od
or et
ĠR is
ĠR iver
sp ir
ĠRef orm
r ig
st rÃ¤ger
ĠS V
ĠE ro
Ġo per
par e
ĠNach richten
ĠHau se
ĠÃĦ r
Ġet c
ouver ne
c ar
Ġ ti
ĠLand schaft
Ã¤nd ig
Call back
v ier
w issenschaften
Ġs e
rei tet
Ġun bek
n ant
o us
p os
Ã¼ hm
ask et
ĠZentr al
c lose
i ar
Ġw ider
ĠR ing
ĠRev olution
ĠWider stand
ĠW echsel
ard s
ĠMar c
ĠSte fan
ec if
fer enz
pro gramm
ĠBl ut
ĠWebs eite
ĠMa il
Ġprom ov
le d
ĠT Ã¼rk
sb ach
f ur
ĠN ummer
Verk ehr
Ġer l
Ġbesch rieben
Ġâ ļŃ
d t
Ã £
Ã Ħ
it ur
ist isch
ĠSp Ã¤ter
ĠMa inz
pr et
Ġlog ger
I s
ĠD ro
ver fahren
iter ator
Ġdar an
ĠAd olf
cript or
T E
Ã¶ hne
ĠEl is
G ruppe
in put
ĠL ex
ĠO x
ĠDar m
ĠG as
ĠKap elle
ĠÃĸff entlich
F C
a ster
ad o
Aus zeichnungen
Ġwen igen
ĠM ol
ad rat
Ġver d
ĠStand ort
O b
Ã© s
Ġi tem
Ġm ag
Ġm atch
Or g
ĠV ort
ĠTran sport
Ġhaupts Ã¤chlich
ĠH eute
tig ten
Ġzerst Ã¶rt
Ġtr e
ĠMen ge
ĠStim men
f rie
ĠT isch
Ã¤nd ler
ĠAll gemein
Ġp art
ken nen
ĠPerson al
P reis
z ern
Ã¼n der
Ġd ec
ess el
ĠEin fÃ¼hrung
ĠRo yal
Ġdarauf hin
st uhl
ĠAn w
20 17
St adt
ĠHer steller
ĠBes atz
Ġaus ger
Ġ ter
Ġent deckt
gangen en
ĠSin ne
f alse
y g
Ġd re
ĠM and
ĠK lass
ĠPf lege
Ġval id
ĠP au
gen er
ĠZ en
ĠTh Ã¼r
ĠÃľ berg
b ul
l Ã¤nder
ĠHÃ¶ hen
ĠS PD
ĠArb eiter
b i
ĠC O
Ġge bild
ĠO pfer
ĠOr te
ĠAuf bau
Aut or
R A
ĠG alerie
ennt nis
W riter
sch m
ĠJ SON
Ġp rivate
Ġ192 6
Ġverl Ã¤uft
v olle
as er
ĠMann schaften
R ecord
Or der
Ad resse
ĠDem okrat
n y
ver lag
ĠBo x
rik t
mÃ¶ gen
Z um
c ount
ĠC ast
ĠBesch reibung
T V
g y
P RO
i Äĩ
ieh ungen
w in
Ġwieder um
E hemal
ver stÃ¤nd
la zz
lo cken
len burg
Ġm ilitÃ¤r
Ġer fahren
geb racht
ĠGr enz
Ġausge stat
ĠAc adem
u id
is on
Ġl ength
In put
klÃ¤r ung
Ġmein er
N O
ad el
Ġunter such
lav ier
ĠKonz ert
B esch
st ern
Ġver fÃ¼g
art h
pl y
br Ã¼cke
neh m
ĠSchwe den
e ar
z ul
Ġbr eit
stoff e
ĠE du
gel d
ĠKl assen
Nach dem
Lo ader
Ġverlie hen
ĠAller dings
ĠS end
ĠM iss
ĠUl rich
ĠFÃ¼hr ung
g au
ĠK iel
ĠLe op
Ã ´
ĠM Ã¤r
ot ten
Ġ3 6
Ġ< =
ĠComp uter
T hread
ĠU ser
ĠBez ug
wahl en
wind igkeit
L abel
de st
ĠSommer spiele
B is
j ava
s m
or weg
ĠR ath
In putStream
ĠBern hard
il ian
geb nisse
th ur
ĠGew inn
Ġarb eitet
ĠK a
ĠF isch
Ġan ti
Ġr ule
Ġfol gten
ied lung
c as
u en
gesch oss
ĠBei trÃ¤ge
S U
ĠG all
ĠE ss
Ġp riv
Ġverl assen
olum b
sch te
ic ro
Ġges ehen
B ild
ĠG ru
ĠP eters
ĠH ab
ide o
m atch
ĠW ashington
gemein den
Oper ation
I OException
Ġv Ã¶l
Ġin zwischen
us ion
anz e
bild ungs
ĠMeister schaft
Ġeng ag
ĠBeruf s
ĠK Ã¶
ĠFran cis
Ġd agegen
ĠT ar
av en
c ed
sp or
Qu ellen
ĠÃ¶sterreich ischen
arian te
ist enz
ĠZ eiten
ep ar
ĠY ou
Ġbek annten
ĠSociet y
Ġtr an
Ġlie fert
bahn hof
T im
ĠP ubl
ĠR ec
ĠÃ ī
F unction
et ts
Ġz eich
Ġ192 3
H E
z iehen
et ing
Ġ192 2
ĠHo use
ĠKomm ent
ĠHeidel berg
T echn
ĠI f
ĠAn wendung
ĠAr zt
Ġch ild
F rank
an isch
ĠW erb
ĠBr Ã¼cke
Ġkann st
Ñ Ĥ
ĠG rÃ¤
tig es
werk s
Ã¼tz t
leist ung
ĠmÃ¶ch ten
ĠD ichter
ohn er
Ġerst es
Ġunmittel bar
n etz
ĠC a
Ġaus geb
eim ar
Ġbet re
Ġversuch t
ontin ue
R em
S k
and t
Ġst ets
ĠSalz burg
britann ien
st echn
ĠB lock
ĠSp ann
Ġgew onnen
ĠwÃ¼r den
ĠGust av
ĠSow jet
au d
at al
ĠT rau
el ement
ĠF al
Ġer baut
mit h
hol t
ĠStel len
ĠM un
Ġt op
ĠEn gl
lob al
L in
Ã© e
ĠGer hard
we der
ĠVo gel
Ã¤chs ischen
m ission
Ġver pflich
ech te
sh eim
wer te
Ġmittel s
F ol
P ool
Ġpar se
ĠDar Ã¼ber
r aten
Ġer gÃ¤n
Ġzu gleich
ĠOr tschaft
glie dern
asket ball
S ti
b orn
ĠD ate
ĠR eb
Ġg alt
ĠgrÃ¶ÃŁ ere
ĠFest ival
em pl
l uss
w ander
Ġder zeit
ĠD E
ĠÃ¼ber wiegend
arr y
ĠArch iv
ĠSer ver
ĠW unsch
f ilter
Ġ eb
Ġ ass
ĠK urt
Ġir gend
S a
ue ber
20 10
ĠRech te
Ġeinge stellt
ĠLeist ungen
k rÃ¤fte
ge fÃ¼
ĠK rim
ed t
20 13
deut schen
leist ungen
ĠStu denten
k opf
ho uld
por ted
Ġf e
ick s
ĠAut oren
Ġc lient
ĠLe on
Ġschwar z
m ir
u ell
Ġs icht
In d
Ġ3 8
ĠMa ster
fel der
Ġval ues
teil en
echs eln
ĠCar ol
Ã¤us ern
Ġbrit ische
R ule
Ñ ģ
ĠP resse
Ġl etzt
Ġbet rug
ĠGrund lage
C al
ĠL y
and te
ĠMor gen
ĠE reig
Ġle gte
R ead
ĠS C
sch weig
Ġge z
leg te
ĠObj ekte
ĠrÃ¶m isch
Z eit
194 5
u til
ĠS S
ĠK enn
ĠSch riften
Ġheu tige
Ġqu ery
I M
ĠW affen
Ġh Ã¤lt
Ġzw Ã¶lf
Ġersch eint
omb in
ĠBesuch er
ho fen
ĠNÃ¼rn berg
st Ã¤tten
ĠM ount
lie der
Ġf lieÃŁ
ĠW etter
ik ations
Ol ymp
ĠD ank
ĠK rank
Prov ider
H istor
T P
ch em
ar zt
ĠM em
Ġg anzen
sp er
ap ter
az on
equ ence
ER R
ĠRich ter
ĠIde e
de f
Ġ3 3
qu ar
ĠJu den
au x
ĠStr eit
ĠSti ft
Ġb uilder
ĠK ult
av ax
ĠBild ungs
ĠGÃ¶tt ingen
R ec
p hen
Ã¼r f
Ġex ception
Ġ190 8
arch iv
ĠK ritik
Ġar gs
ĠArch Ã¤
Ġwahr scheinlich
ĠH on
sp ar
Ġ{ }
Ġ15 0
ĠRe al
ĠIs land
g ern
ĠM ex
ĠT ore
20 12
fr ist
Ġamer ikanischen
c i
ĠW issenschaften
Ġ19 13
Ġge halten
ĠVer lauf
zu stellen
ĠP ier
ord s
ĠUnter richt
Ġges etz
ĠBas el
ĠSicher heits
M atch
ar re
Ġbe endete
Ġgen annten
ĠInter view
Ã£ o
ĠB ir
ĠMat th
ĠjÃ¤hr lich
f assung
ĠD ev
ĊĠĠĠĠĠĠĠĠ ĠĠĠĠĠĠ
gew Ã¶hn
ĠermÃ¶glich t
H L
Ġw eg
Ġz Ã¤hlt
ir ge
ru he
k rieges
n icht
st ation
Ġw id
Ã¼l len
Ġunterschied lichen
. ),
sch loss
ĠH it
ĠgehÃ¶r ten
mar y
lan de
Ġinternational e
R L
ab s
20 16
FA ULT
n ational
schul en
wert ung
produ ktion
iti ative
ĠÃĦnder ung
A pp
ĠH eer
ĠÃ Ĺ
Ġher r
Ġsetz en
Ġgegeben en
P os
g asse
ĠG Ã¼ter
ĠE ck
Ġauf gerufen
ĠKn oten
ĠauÃŁer halb
West falen
Ã¶ ss
tr Ã¤t
Ġt able
denk mÃ¤ler
ĠSied lung
Ġmen sch
P o
ar ischen
ĠUn ternehmer
ĠW appen
St ore
amer ika
Ã¤hn ung
ĠhÃ¶ch sten
d ach
Ġd ep
ĠK arten
as p
is ierte
rie be
kon om
ĠdÃ¼r fen
ĠGeburt stag
Ã¶ der
ĠEn gel
ĠFl Ã¼gel
Ġ190 7
k unst
ach tet
List e
ĠLauf e
m ack
n s
ch mal
ĠK os
is Entry
Ġk ultur
ĠIn halt
ĠAb t
20 14
Ġbesonder e
ĠW Ã¼rz
and a
Ġre p
fra struktur
ĠEntscheid ung
isEntry Enabled
arr en
ĠPort ug
k lass
ĠS on
at rix
ĠD Ã¶r
hr e
tr at
ert ung
ĠHen ry
Exec ution
ĠK lin
ĠL eit
gr aben
al te
fra gen
ĠB ett
Ġin itial
ĠJ agd
ed ig
j i
ĠSie ger
Ġmehr fach
i od
Ġw uchs
Ġin tens
ĠN a
ĠVer m
av or
20 11
ĠBew egung
leid ung
ĠB row
Ġ/ *
ack en
eck lenburg
gn ore
ĠArchite kt
ĠS ituation
ĠOr dens
H T
ĠGra fen
O p
ĠF ass
ir us
gr am
zip lin
Ġhel fen
Ã¼ mer
ip s
bo ten
Mus ik
c r
ĠM ission
ĠF eder
il en
Ġl eitete
end s
Ġent stehen
ĠVor gÃ¤nger
ĠThe ologe
Ġentspr icht
sh a
An notation
ĠPro te
ett ings
ĠFlug hafen
ĠIl l
ĠgeprÃ¤ gt
Ġausgestat tet
ei ÃŁ
ar tige
Ġge mÃ¤ÃŁ
ĠMet ern
Ġkompl ett
it es
ow ski
ĠKap it
ĀĀ ĀĀ
D B
Z E
Ġ19 11
P an
Ġun ten
gr Ã¶ÃŁ
Ġmoder nen
D P
Ã¤n ner
č Ċĉĉĉĉ
ĠVer Ã¤nder
mer ksam
ac ter
ĠGew icht
C ommand
w an
Ġdar gestellt
Ġob wohl
h em
ĠS eb
ig r
ĠWir kung
ĠHein z
ĠL ad
ĠSt off
Ġwir kte
ĠHa fen
ĠMittel alter
ĠsÃ¼d lichen
< >();
ro at
ĠVor aus
bie ter
r t
Ã¶ ÃŁen
Ġander s
ĠE hef
rei ter
ht t
alis mus
Ġher gestellt
f abrik
g Ã¼l
k tiv
ĠB Ã¤
ĠEr de
Er baut
weg s
Ġerw arb
ir l
Ã¶r ung
omm un
++ ;
Ġstar tete
un a
ĠO k
ĠErfahr ungen
ĠjÃ¼n ger
Ġunterst Ã¼tzen
p end
Ġd ritte
ec ts
Ġbek am
Ġbel egt
Ġs agt
arb urg
Ġle er
Ġch rist
ĠFor men
Ġat tr
ĠTod es
k g
at o
ĠAus s
eit ag
ag ne
Ġp sych
ust om
ĠMar ie
ĠIhr em
D igit
ĠI P
Ġdeutsch sprach
Ġber uf
Ġproduz iert
o ffen
ĠV iele
ĠKon fl
ĠFahr zeuge
Ġbr ingt
l Ã¤uf
ĠN ahr
ĠErz bischof
ĠMos kau
ie den
ĠM ay
uch ten
ĠAss oci
ĠFrÃ¼h jahr
L ock
Ġer kennen
ig ner
Ġge eignet
200 7
Ġmax imal
ĠSib Tr
O P
k y
ĠT ime
Ã¶r de
rÃ¤ ume
Ġ Ã¶ffentlich
Ġg roup
20 15
stre am
B oolean
it le
ĠT iere
Ġg ingen
ĠSch ne
rÃ¤ f
ĠG olden
Ġan erk
ĠVer d
ĠVer halten
F uture
ber eitung
ĠJ os
or ten
ĠK lavier
tr ans
bo x
ĠDeutschland s
ĠKomm ission
ĠHam burger
Ġhoch wer
] );
et work
Ġcon tent
ĠWohn ung
meld ung
ĠLeop old
G ER
Ġ( ,
Ġviel leicht
dien ste
Ġbeein fl
ĠG eg
ist an
Ġsch lech
anst alt
ĠP ersÃ¶n
amil ien
ĠBl Ã¼ten
ĠGroÃŁ britannien
h i
ĠB ass
ĠL aut
ĠEr inner
Ġre duz
ĠgrÃ¶ÃŁ eren
ĠRes erv
Ġverantwort lich
N on
or age
Ġein gesch
ĠG reen
par ator
Ġan ges
att form
glieder t
un c
at oren
ff e
ess ages
orden s
Ġengl ischen
ĠSchles wig
W arn
ĠH Ã¤user
J son
ĠB an
ĠR oll
re fer
ĠTeil en
Ġfin ally
ud es
F r
Ġent gegen
ĠAuf grund
Kl asse
ĠD Ã¤n
ĠSchmid t
k ultur
in ess
ĠB ol
Ġab geschlossen
Weiter e
5 00
B A
ĠH ttp
pf lege
ĠBeh andlung
Ġsogen annte
w ach
ĠW M
ic ago
ger ichts
ĠĊĊ ĠĊ
mÃ¶glich keiten
lÃ¤ss lich
Ġw issen
Ġb itte
em e
Param s
T op
m ord
Ġj em
stell ungs
Ã¤l de
anz er
ĠBundes liga
Ġout put
C heck
ar ische
de cken
ĠE g
ir che
ĠZ ahn
Ġvor bei
ĠInform ation
ĠNik ol
p erson
on ischen
Ġ3 4
ĠMÃ¶glich keiten
ĠKon rad
ĠRef er
ĠRest au
k osten
ĠS em
ĠD rit
Ġge zeigt
Ġkomm un
ĠSchn itt
B ox
M o
ĠK andid
ĠW ohl
200 9
ĠHistor iker
ĠDon au
oot ball
Ġk Ã¼nstler
ĠEr b
ĠFer ien
ĠElis abeth
ur i
ĠFil me
isD ebug
d b
ĠE ber
ĠT her
ĠL oc
rei f
ul ts
ell o
ĠAut ob
ĠFr em
ĠFÃ¶rder ung
st eiger
UR I
st ift
ĠS inn
Ġf loat
Ã¶r ter
gr enze
arb e
ĠKon s
t eile
Ġ ehr
Ġl Ã¶
Ã¤mpf en
F irst
l Ã¶
Ġ Ä
Ã¤ her
ĠC lau
op tion
ĠAus druck
ant as
Ġle bten
200 8
ĠM ir
ĠL em
ult Ã¤t
ĠBr asil
ĠSchau spiel
ĠRÃ¼ck en
ĠLie fer
M A
ĠI T
Ġh eim
oun ter
hand el
Ġc ount
Ġbest Ã¤
bau er
Ġerst re
l or
o y
ĠKon gress
ĠHaup tr
G roÃŁ
J uni
Ġs agen
ĠF le
ro und
iz ieren
Ã¤hr ung
haf te
sp iegel
con text
ĠFr ont
hei mer
Ġg o
Ġ190 6
ĠGesund heits
k op
z ust
ĠS ur
ĠJahr zehn
ĠUr laub
Ġentsprechen den
D en
D ef
Ġhin gegen
ĠTro tz
ĠComm un
ĠMax im
Ġruss ischen
Ġsynchron ized
ĠÃ¼ber tragen
onn e
hand lungen
Client Exception
ĠDeb Ã¼t
t ok
Ã© n
af rika
Ġd auer
ĠT ir
ĠT anz
ĠL ind
ĠL ieder
ĠIn fanter
get eilt
ak er
up date
ĠAd el
i ber
n ers
Ġw under
200 6
Out put
Ġb ildete
ĠR am
ĠI N
ĠNeu en
ĠKar te
ĠArchite kten
Ġkur ze
L OG
ĠL am
ann en
Ġp ost
ĠBron z
ĠEhef rau
ĠR au
ĠV it
ĠMar ine
St ack
gra f
A ug
it hm
el se
em ark
Ġo ff
af el
ĠÃľber setzung
ĠÃ¤hn lich
ĠLeicht athlet
2 000
B utton
I G
Ã¼ h
Ġf ound
ĠSch ritt
Wir tschaft
bÃ¼ cher
ĠSÃ¼d westen
Ġmus ikal
Ġgesp ielt
Ġwei b
ĠGo ogle
ĠPfarr kirche
ĠSonn tag
ĠvÃ¶l lig
D ouble
ol er
Ġur l
Ġitalien ischen
ĠPrie ster
F ound
Ġs ession
ĠT Ã¼b
ĠL aw
ĠLin ien
ĠVeranst altungen
ĠJournal ist
ĠFeuer wehr
D isk
man agement
ĠInter essen
ĠFranz Ã¶s
ĠTeam s
Ġweit gehend
ĠAustr alien
ĠKomb ination
ĠN ode
up pen
ob j
ss ystem
Hel per
B est
p olit
t ml
Ġo ffset
stÃ¤nd igen
N ord
b ilder
el and
Ġent weder
pl Ã¤tze
ĠThe odor
ĠHei de
k omp
p olitik
au ff
ĠK ing
ĠStr e
th eit
I terator
g roup
er weise
sch auer
ar kt
om a
Ġzu erst
Ġver p
ĠLeist ungs
ĠFernse hen
Ġs ucht
ĠAl pen
Ġgef Ã¤hr
ĠDaten bank
ĠScien ce
lie s
ĠGer ichts
Ġerweiter t
ĠElem ente
B ound
f amilie
i ode
Ġ old
ĠZ eu
Ġp ubl
ren nen
Ġrem ove
k urr
v ed
an er
Ġb uf
ĠSch ach
vor sitzen
ĠNord osten
ĠGrÃ¼n den
Ġwes entlich
ĠVic tor
isDebug Enabled
P AR
un ehmen
ĠB yte
ĠF reu
il a
ĠV illa
ĠMon at
gem eine
Ġ use
ut or
iel l
ĠÃ¼ber haupt
men sion
Ã¤hl ten
ouverne ur
ĠD ouble
ĠP unkten
Ġver h
Ġverst Ã¤r
ĠfrÃ¼her en
H ash
g rad
u it
on ien
Ġw ert
Ġ190 9
omin iert
ĠB a
Ġz Ã¤hlen
Ġ19 17
Ġp erson
V D
W idth
Ã º
Ġbet roffen
ĠZei traum
ĠK ron
ĠBundes republik
untime Exception
E Class
ĠT ok
gesch Ã¤ft
Ġh il
in us
Ġn amens
In valid
B evÃ¶lker
sp ek
sb aden
ĠGew alt
ĠBraun schweig
U ID
Ġange legt
ĠEurop ameister
m aterial
ei se
ĠGeh eim
Hol stein
ĠVerÃ¶ffentlich ung
i tem
Ġd Ã¤n
den ken
Ġl ock
ĠIn dex
Ch ange
ĠBayer ischen
fur ter
re form
ĠSpr achen
ĠRhein land
d is
l eiten
ur es
Ġzeig te
- )
g Ã¤nge
Ã¼ cht
ĠD auer
ĠAuf nahme
En um
Ã¶ff nung
ĠStud io
ĠOb serv
Tem plate
ĠZ ul
ĠMin er
ĠFunktion en
h men
ind ustrie
ĠAus land
ite ktur
Ã¶s ungen
fÃ¤l le
T I
st Ã¼cke
Ġh eil
Ġbestimm te
ĠS dk
ra gen
Ġsch eint
Ġ6 5
ĠTeil nahme
Met adata
Ġk o
Ġr Ã¼ck
Ã¶r den
St yle
Ġsow jet
ĠNord rhein
ĠStel lung
Ġlin ken
a it
c od
ĠZ us
Ġc o
ĠAl tern
Ġbek omm
ĠBe am
isp lay
=' \
D is
Ġb lau
ten sion
il ien
om ain
Ġweiter es
son sten
ĠBew eg
ĠH immel
ĠEin ige
rich ter
ĠJo achim
ĠZw eit
Ġmittler weile
ĠPreuÃŁ en
D oc
p ft
ges sen
ĠKon zept
reg ion
Ġverw enden
ĠNetz werk
z wei
| |
ei fen
Ġau str
Ġp lan
Ġwest lichen
t op
Ġ( "
ĠP rag
ate ur
ĠnÃ¤ch ste
gest altung
b oolean
m auer
č ĊĠĠĠĠĠĠĠĠĠĠĠĠĠĠĠĠĠĠĠ
Ġge h
gesch rieben
hÃ¶ he
ĠEben e
er in
ĠE ind
Ġsp rach
ĠLand tag
ĠSchiff e
ĠTex te
Ġn utz
ist e
end a
k Ã¼nf
Ã¤ng nis
ĠKÃ¼ che
ĠMaÃŁ nahmen
g u
Ġd is
ĠB re
ĠD ien
Ġm ass
ug in
ho ff
ob ile
mann s
Par ent
Ġeinger ichtet
ĠMon aten
Loc ation
mÃ¶ glichen
in zen
ĠV an
eu ten
ĠBer icht
Ġar gument
ĠVeranst altung
ĠB reite
sp recher
prÃ¤ sen
ĠSdk ClientException
s ur
on ische
Ġs up
o sen
ĠG rad
ĠE ff
ĠW ett
ĠVer hÃ¤ltnis
ick e
ast ian
ĠPart y
ĠMan agement
Ã «
ĠD adurch
ĠP u
ĠStr ecken
her zog
Ġ7 5
Al le
ĠBÃ¼ ro
N S
Ġf ehl
ard inal
bew egung
j en
Ġd isk
mer kungen
ĠBest e
Ã¤ st
ĠD ata
Ġm sg
ĠR ezep
ĠIn gen
ÃŃ n
P ER
ĠUn garn
ul pt
The ater
ĠIns gesamt
Ġstr ing
G ew
i ro
Ã¤n en
ak et
fer tigt
200 5
zug s
b ad
Ġ19 16
Ġa v
ock ey
ĠWelt meisterschaft
ĠÃĸffentlich keit
ol s
Ġer stellt
Ġvor gesehen
ĠEm il
Trans action
ĠA st
ĠM ach
ĠSt ation
Ġkein er
ĠFig ur
It alien
V ER
in ander
ĠBild hauer
ĠC enter
Ch annel
Ġ190 5
Ġunterschied liche
H ost
z in
Ġ one
Ġv is
Ġst anden
hÃ¶ rigen
bez ogen
Stra ÃŁe
Ġb ar
ĠM auer
am at
ĠL Ã¶sung
il de
sp ur
wei ht
iz enz
ĠFl eisch
sk y
ĠEuropÃ¤ ischen
ĠP S
ĠRegion al
tre ffen
ĠPrem ier
ĠDarm stadt
Ġs ystem
ow a
Ġbe ob
hard t
ĠInternational en
ĠErfahr ung
Ã ¥
Ġ q
ĠS au
Ġm ust
ĠK athol
Ġ19 15
hal ter
ĠCh icago
Ver Ã¶ffentlich
Ġ189 0
Ġdien en
ĠbeschÃ¤f tigt
Ġprof ession
p pen
Ã ±
Ã¶ die
ĠVer gangen
og n
ĠfÃ¼hr ten
ĠKap itel
> ,
ĠT ief
ver treten
ĠVer antwort
lie genden
ĠFor st
Ġop ti
Ġd ein
Ġd or
us er
ĠNieder sachsen
Ġschw ier
Ġtre ffen
B i
Ġf ehlen
Ġver schw
akt or
S eine
ĠS ab
off iz
Ġ190 4
trÃ¤ ger
ĠhÃ¶ch ste
ĠGÃ¤ ste
c essor
ĠP aar
ĠP ots
Ġ3 7
wend ungen
ĠStra ÃŁ
ĠFrie den
ĠG roup
fl Ã¼gel
s in
v ir
st eigen
ĠR ap
il s
ĠV iol
ul es
ĠSch laf
Besch reibung
c en
ĠA re
Ġb i
ĠD B
ind ing
Ã¤h ler
ĠUntersuch ungen
**** ****
Ġgebild et
o z
Ġl esen
ĠEr f
ĠGest altung
ĠnÃ¶rd lichen
z ell
ĠW ag
Ġr en
Ġc onnection
ĠBet eil
ĠBeg r
ĊĠĠĠĠĠĠĠĠĠĠĠĠĠĠĠĠĠĠĠĠĠĠĠĠĠĠĠĠĠĠĠĠ ĠĠĠ
State ment
Des criptor
Org anis
L ast
ĠS ig
Ã¶ t
ma schinen
ĠNord westen
cl ub
ĠWill i
ĠWeltkrieg s
ĠÃ¼b rigen
Ġgleichnam igen
ei tern
Ã¼ g
Ã¤ b
ĠEin heit
Ġtr itt
ĠForm el
co ver
======== ========
iw od
D A
Ġn eg
Ġeinge fÃ¼hrt
Ġ ueber
ab teilung
se ud
get Type
oren z
Ġber Ã¼hm
organis ation
ĠFak ultÃ¤t
T eam
o ben
Ä Ľ
st euer
ĠM ak
ĠP ian
Group Name
G V
l v
Ġs ec
gel t
if ft
Ġdah in
D efault
ein s
Ġlie f
fÃ¼hr en
ĠRe aktion
Ġentsprechen de
Ġw eist
ĠD ialog
ĠAn frage
ĠgroÃŁ es
alis at
ĠKommun ikation
Ġform at
ĠGesund heit
w ischen
ĠB ob
mal er
Ġber ufen
ain ing
Ġger ing
kathol ischer
p ap
wir kungen
sicht lich
ill on
ĠAb schnitt
At tributes
Ġexist iert
Ġmed izin
ĠBund est
ĠB ord
ĠK ais
le ut
Ġge kommen
ĠIn tegr
Alb um
H o
En g
Ġeinz ig
prÃ¼ ft
ĠUntersuch ung
ĠWeihn achts
ar io
au th
ol z
ten d
Ġver kehr
Ġp op
ĠBl og
Ġs ech
ber ech
ri an
Ġab geb
ĠGra z
ĠSchwer punkt
ĠS um
ĠWir k
ĠRei hen
ĠPfarr er
Ð¾ Ð
ĠTÃ¼b ingen
V is
Ġ rad
Ĩ Ĵ
ie fe
st ad
auf hin
Ġverb esser
Ġnah men
R ow
ĠR od
ab les
ĠC amb
ĠÃ¼ber ra
Ġ4 8
tr an
scha ffen
Ġaktu ell
ĠZug ang
ĠF ein
ck s
Ġp hil
setz te
D ollar
er ben
im ple
Ã¼ck lich
Ġpro cess
At om
P attern
Ġver sion
Ġl os
Sch riften
ĠOber st
ĠBez iehungen
Ġengl ischer
p rÃ¤sident
he ute
int on
ĠParam eter
get Key
enn fahrer
hrow able
Ġfor der
Ã¼ glich
ĠB ell
tr oll
ĠEr satz
200 4
K urz
d auer
ĠR ost
ĠJ on
ĠO ne
Ġsp richt
ĠOrg an
D ist
Ã¤ ÃŁ
lig isten
Ġunterschied lich
ĠAcadem y
B et
o ugh
at alog
ĠAuf ent
sb ez
kret Ã¤r
aus schuss
ĠMet hoden
ĠWie sbaden
sum er
Ġzu ge
ĠEr ich
uss ion
Un ternehmen
Ġb lock
as on
Ġm einen
ser ver
z Ã¼ge
ie fen
ĠS mith
Ġf eier
Ġh eader
ĠJ Ã¼rgen
ĠSch lieÃŁ
qu ery
ĠOr den
ock et
Er st
ĠGroÃŁ e
reg ister
V P
ĠS ym
Ġk auf
pf licht
ĠThe ologie
ĠBei de
ĠSh ow
ĠSonn e
B ar
F unktion
it ies
Ġs hould
ĠP rÃ¤sidenten
Ġl ern
St ud
ĠHoch schullehrer
ĠBereich en
Met a
čĊ čĊĠĠĠĠĠĠĠ
ĠGrie chen
Ġs amm
Ġv ierten
ĠA str
Ã¼nd ungs
ĠDah er
S ervlet
k arten
geord net
ĠComp any
Ġober en
w al
Ġf Ã¤llt
Ġg eist
ĠEng agement
ĠWe ge
ĠHeraus geber
W il
Ġs ign
ĠK urs
il er
Ġber ichtet
Ġpar ams
ÃŃ a
D S
t ur
ĠS us
ĠC y
Ġbeg onnen
hand lung
ĠZahl en
ĠWÃ¼rz burg
M B
ĠT rÃ¤ger
ab elle
ĠFilm s
D el
W ind
p ost
ĠD eck
ĠH ub
ĠEdu ard
or es
ĠK anz
ĠT it
Ġsel ber
ĠDurch messer
Ġrech ten
Welt meisterschaft
Ġtats Ã¤chlich
D ar
ĠR ollen
ite inander
ĠRath aus
Ġn orweg
ter e
Ġp orn
Ġben ach
value Of
ĠBenutz er
em ie
ĠG ymnasium
Ġl eider
war n
Ġben utzt
mod ell
in os
ĠSch on
ĠÃ¼ber w
Ġab gerufen
ĠMar ien
alen der
ĠSchl uss
ĠBrit ish
Ġs an
ĠK assel
ĠW in
ĠKl ima
ĠBez iehung
ennt nisse
ĠJur ist
ĠJac ob
ĠSt urm
ĠRÃ¼ck kehr
Ġn um
ĠHer bert
ĠGeist licher
Ġs org
Ġf al
() ).
ech ts
L age
c ia
Ġf ac
Ġver geben
Ġver gangenen
eg al
ĠOper ation
ĠAngel es
ĠR icht
ĠLand tags
Er folge
Ġro ot
sert ation
ĠQualif ikation
W ork
w es
z te
z one
ur ts
ĠB ibliothek
Ġt ief
Ġst Ã¤d
ĠHer stellung
ĠSim on
rÃ¤sent anten
b ahnen
r Ã¼ck
ĠP DF
ĠH ob
Ġt schech
ĠSp iegel
lei hung
spl atz
Ġgemeins amen
L I
st he
ei ge
on ial
or fen
ĠAn spruch
ib il
Ġ190 2
ĠSam stag
Ġloc al
A uth
Ġn Ã¶
ĠW Ã¤r
pl atte
Ã¤m lich
ĠRei sen
Ċ ĊĠĠĠĠĠĠĠĠĠĠĠĠĠĠĠĠĠĠĠ
ti z
ĠV iew
ĠQu er
lehr e
ĠErz Ã¤hl
ĠWo iwod
ĠCas ino
Ġin stall
ak a
ĠPro z
ĠSÃ¼d osten
ch est
ĠS erv
ar ray
tiv ity
Ġ190 3
ĠLin ks
unn el
part ner
ĠTelef on
e en
ĠH erkunft
il ber
ĠJ ud
ĠAn trag
ip pe
Er ster
ĠJuni oren
ĠFre unde
ĠEn glisch
Ġtr ug
IN E
ĠNeu bau
ograph ische
Ã¨ re
n es
t x
ĠK rieges
ĠU kra
Ser ie
y e
ĠN un
all er
ran ge
ĠUn abhÃ¤ng
Ġent ity
bl Ã¤tter
Ġgepl ant
P T
Ġh Ã¤tten
ĠMon ument
ĠPartei en
maÃŁ nahmen
g reifen
ĠM ecklenburg
ĠJ ed
geord neter
aliforn ien
Ġsw itch
> <
R oot
al ys
ĠD ampf
Ġum ben
Ġar ray
ĠWind ows
h aben
ĠK ath
Ġel f
Ġbef ore
Mill is
Ġ org
ĠS oph
ĠF Ã¼nf
ĠP ir
enn e
Sch ema
krieg s
ĠMod el
ĠCor ona
fÃ¤h igkeit
leb nis
ĠFig uren
ohn t
klus ive
ul gar
af e
S ehenswÃ¼rdigkeiten
Ġer laubt
eu ert
sw ing
AB LE
N r
ann ter
ĠEin richtung
Ġzum indest
Ġdurch schnitt
200 3
dentif ier
Pf alz
B undle
D em
f ind
er ten
ĠSch reib
Ġen dete
Ġmax im
ĠOx ford
Ġaustr al
f rom
m essage
ĠL ine
lin der
ĠWelt krieges
ĠAd els
Ġersch einen
Ġend gÃ¼l
ĠLauf bahn
Ġan hand
Warn ings
C olor
w uchs
Ġm el
ĠL en
ĠSer ien
) {
h orn
Ġp os
Ġex ecute
steh ung
ord net
gr ab
ĠHand buch
ĠFrei zeit
Ã¶rder ung
ĠHe ft
u ste
v ol
aus stellung
ho st
Ġzwei mal
ĠFÃ¼r sten
A uÃŁ
ĠSp aÃŁ
pl atten
Ġ190 1
trÃ¤ gen
ĠÃ¶ff entliche
ĠOp ern
L iter
er ber
ĠE ch
ĠW a
ex p
ĠAngeb ote
vier tel
ERR OR
Ã¼r en
Ġc ontinue
Ġ189 9
ĠPap ier
P O
Å ¾
Ġh ast
Ġp osition
ph an
ekt ar
ĠQu elle
ĠEx empl
ĠAd resse
E C
F ran
ber eit
Ġver sehen
Ġsp ort
Ġ6 4
Ġausge fÃ¼hrt
Ġro t
ĠbenÃ¶ tigt
F inal
ĠR aj
ab et
ot her
ĠAuf lÃ¶sung
Ġpro perties
D aten
H aupt
Ã¶ se
ig ungen
Ġvor aus
ĠBew ohner
DE FAULT
p reuÃŁ
at om
ap pe
arb eitete
Field s
ĠKarls ruhe
Ġm Ã¤nn
ist ischer
Ġl Ã¤ng
ĠEr schein
iz ierten
In s
Ġverb reitet
194 6
ĠAssoci ation
D ocument
o ks
p ers
ĠD ef
ĠW eimar
ĠR ab
ĠkÃ¶n ne
deut sche
ĠDan eben
Sup press
P olitik
ĠW it
ĠAb itur
ĠOr chester
ĠKan ada
ĠSm art
c ause
ol ogen
ver ter
Ġre f
ĠSo und
wer den
Ġ184 8
obil ien
ĠHash Map
heb ung
G en
ĠStr and
Ġet abl
Ġentwick eln
ĠInstit ute
ĠEigen schaften
ĠVergangen heit
b n
m Ã¼hle
un s
ĠK Ã¼n
ist s
id s
ĠIntern al
Ġhistor ische
ĠK e
Ġt Ã¶
ex it
K an
M eister
Ð º
ch ner
ĠA R
se qu
Ġbes itzen
ĠRo ten
ĠLex ikon
ei ert
Ġn Ã¤mlich
Ġf reuen
200 1
ĠNew s
F amilie
P ass
ĠM ulti
ĠAn s
ĠPro jekte
denk male
VAL UE
t Ã¼mer
Ġw achsen
Ġc al
ĠEr l
ĠEin richtungen
hl en
ĠEd ition
Ġkur zen
rap per
ĠB ade
ĠM r
ul i
ĠAr ts
Ġ4 2
ĠAd am
ĠTer min
Polit iker
u elle
Ã¶ z
ĠGrÃ¼n der
mitt lung
C reate
l ot
se d
ĠC ode
ri b
ĠkÃ¶n ig
ĠProf il
ĠmÃ¶glich st
Ġdenn och
ĠBevÃ¶lker ungs
S ign
ie ten
Ġb ase
gr enzen
ĠEd ward
Out putStream
B Ã¼rger
Ġ187 0
ĠÃ¶sterreich ische
Ġklass ischen
ĠGesprÃ¤ ch
K o
f ft
k u
ĠB ier
ĠT raum
Ġc ode
stit ution
Ad d
ĠSant a
Ġeinzeln e
B ad
ĠL iv
ĠV ik
ĠC r
ug o
ĠBl att
D C
p ul
z ung
ĠM is
umen ten
Ap plication
ĠDist rikt
leut nant
st edt
ĠG ang
ĠP ok
iz iner
fÃ¼hr ten
ĠStaat sb
Ġversuch te
ĠWoiwod schaft
k ern
al em
al tete
Ã¼ te
ĠN ow
E G
ĠT Ã¶ch
fÃ¼hr te
st atus
ĠM und
sp rech
Ġum geben
iert es
Ġerh ielten
bo ard
ĠBahn strecke
ĠTrain ing
er ung
ĠSp itze
od urch
Ġor ien
ĠMuseum s
' :
D e
\ \
Ġn atur
ĠG lei
.. ..
Ġne ed
KE Y
b ro
k om
ĠL it
ann a
ĠSch aden
Ġp ri
ĠAn h
ĠAus bau
Ġgew Ã¤hr
sh aus
Ġon ly
ĠKamer a
p ass
at in
ra in
ĠEn s
Ġsp Ã¤t
ment s
ĠJuli us
ĠBar on
ĠS of
at i
iel en
ĠMar y
ĠEnt fern
schlÃ¤ ge
ĠGeg ner
Ġw odurch
ĠM io
ĠG lauben
ĠL A
Ġer mÃ¶glichen
ĠMar ke
ĠIs rael
Ġzunehmen d
ar tigen
ĠH ell
Ã¼n den
Ġbest ritt
Par ser
ĠN och
ĠâĢ ¢
ĠAr r
ĠThe orie
Ġ189 8
Ġreich t
Eis hockeyspieler
k Ã¼nd
ĠB y
ĠF ield
Ġun er
ĠZw eck
B ody
T A
w itz
st um
Ġ3 9
Ġkon zentr
ĠRund funk
ĠFÃ¤l len
b aus
ĠS Ã¶hne
el en
ĠW egen
ĊĠĠĠĠĠĠĠĠ ĊĠĠĠĠĠĠĠ
ĠSch r
Ġgen ug
ha ften
amp le
âĢ¦ ]
ĠBron ze
n t
Ġz er
ĠP reise
Ġbis lang
Ġbeg innen
leg ten
tif ication
stre cken
sta aten
V ariable
ĠM ech
Ġt otal
ss on
at ing
ĠB oolean
ĠR Ã¶m
ĠU RL
ĠGesch ichten
fÃ¼r st
Organis ation
r Ã¼cken
ol o
ĠL abel
sp rechen
ĠIn halte
ĠEr weiter
ec ial
ĠWeiter en
ĠAnt wort
Suppress Warnings
b uffer
g i
m es
Ġd ank
ĠH ockey
ĠL ake
htt p
j ew
in it
ĠT own
ig keits
ĠPro p
ild es
ont o
ikan ischer
ĠGegen wart
Inter face
ĠViel zahl
Ġser ver
de u
ĠL iter
Ġ2 50
ir n
ort s
ek tiv
ĠNach richt
Ġnotwend ig
B erg
C or
z if
Ã ł
ã ģ
ar ina
ĠG locken
le bt
ber icht
ĠO ffen
Ġp f
Ġ5 5
ĠLei den
ĠerklÃ¤r te
D AP
ur l
ĠB art
tr ich
me er
Ġda ÃŁ
Ġmein em
histor iker
kurr enz
cod ing
st eine
ĠM ethod
Ġf ahren
ĠW ell
aus gabe
ĠEm p
Ġstar ken
Ġs orgen
eh e
ger Ã¤te
ĠWir ken
wor ten
ĠOrd nung
Pan el
f on
Ġs inn
Ġn umber
ĠP ast
ir d
est amp
ks h
ĠOr tes
Ġnahe zu
Ġf Ã¼n
wei st
Ġges ellschaft
Ã¤tz lich
Reg istry
Pl atz
sp f
gel eitet
Ġ6 00
read y
t arget
v ar
ĠM icro
ĠL ove
ell schaften
ak u
asser t
' );
ĠE ast
Ġoffiziel l
ĠInstr ument
ĠAutom obil
S egment
n um
ĠV aters
ĠVer dienst
our t
res ponse
ĠHa ar
Ġbesonder en
Ġpr int
Ġerinn ert
d irektor
m or
ĠM id
tr ack
Ġh alb
ann er
Ġsch reiben
igen t
Ġbet rieb
sph Ã¤re
F rei
P RE
ĠB asketball
gen Ã¶ss
ĠW Ã¼r
ĠC os
zen e
br ingen
has Next
asil ian
Ġscha ffen
B as
et he
ĠH Ã¼gel
ip ps
ail able
ĠInd ien
Jo hann
Ġkathol ischen
f rau
k in
m inton
v m
ĠW aren
re den
ĠC oun
Ġan gesehen
ĠFran ken
Ġstell vertreten
alb um
ĠGed anken
ĠTa schen
Å Ħ
al th
Ã¼ pf
ĠD inge
Ġ4 4
ĠTh is
Ġ8 00
lÃ¤nd ische
ĠKranken haus
B ack
Ġm iteinander
ĠN ah
In ternal
ĠGr enzen
fen ster
str om
verein s
ĠBru st
ĠTÃ¼rk ei
Aug ust
L S
m ond
ĠS ak
ĠS emin
ĠF Ã¤h
Ġan schlieÃŁ
ahr t
Ġun gefÃ¤hr
Ġsp rechen
St at
ĠBau werk
unter richt
ĠKr ist
Ġor der
Ġor iginal
Ġreg istr
ĠtÃ¤ glich
Ġentst eht
b lock
ru e
Ġman chmal
teil ungen
Reg ion
Ġwe der
" ));
gesch lagen
ĠzurÃ¼ck ge
ĠBed ingungen
lowak ei
) ");
al ia
se y
ĠEr folge
teil s
so ap
ĠStud ie
ĠBrÃ¼ der
Ġs Ã¤m
ub il
Ġtr ain
ild et
Ġstre am
P lan
ĠP res
ug ies
Die ser
Jahr en
osit ory
ĠKomp osition
Ġmodern e
ĠStre et
B o
P I
Ġz iehen
ab end
ial e
urop a
ĠgrÃ¶ÃŁ er
ĠOb wohl
ĠAbgeord neten
Ġph ys
ĠjÃ¼d ischen
l Ã¤nge
ein heit
ĠC heck
ĠEin sch
ct ure
Ġho her
ĠErw achsen
ĠAktiv itÃ¤ten
ĠMik ro
ĠT u
ĠN eum
ĠAr thur
ais s
Ġbet rach
wir kung
ei he
ar rei
op en
ĠMar ken
ĠReg ionen
eite ten
gor ithm
ĠBesitz er
arian ten
Ġerforder lich
D est
w ettbewerb
ti ere
ĠAug sburg
st ab
ĠA ktu
Ġab ger
rit or
ĠAm ster
ĠZu schauer
Ġus w
b indung
k ammer
z um
in ken
ĠT sch
Ã¶ gel
ĠAn lagen
ĠLand schafts
ĠBet reu
ĠX ML
AR S
ĠWe ber
ĠParlament s
ĠSowjet union
ich tigt
ĠR ail
ach ed
Ġp rev
ap h
ĠPl atten
Ġpar allel
hÃ¶ rige
Ġeb enda
M O
ĠM isch
ĠHand werk
hol m
ĠCD U
ĠNationalsozial ismus
m sg
ent hal
ĠEin heiten
ĠBo ok
ĠLe der
Ġverschieden er
Ġgelegen en
emb le
ĠP C
ĠH orn
ĠSp itzen
ĊĠĠĠĠĠĠĠĠĠĠĠĠĠĠĠĠ ĠĠĠĠ
zeich nen
ĠschÃ¶n e
cle ar
v as
Ġw Ã¼n
ĠB ert
ĠM i
etz ten
ĠGel egen
Ġstark e
ĠMaterial ien
zÃ¤hl ung
D ialog
c ast
z eigen
ch ip
ier end
sen s
rit iker
Ġ188 0
ĠBÃ¼ hnen
usÃ¤tz lich
ĠIns eln
Ġumben annt
ĠM au
ĠV ar
Ġj avax
Ġtr af
hin dern
veranst altung
# #
b reak
ĠS ymbol
ĠK art
Ã¶ ck
geb nis
Ġ4 3
ĠVide os
m ie
ĠF inn
ĠP re
Ġzu stÃ¤ndig
ĠZ erst
sk a
con fig
ĠFahr er
k ow
Ê ¿
Ġer hoben
erk ennung
sh ausen
Sch w
ĠPlan ung
b an
em it
de gang
mar sch
iffer enz
R ange
S QL
ĠL eute
ĠR uf
tr o
ĠC am
ĠUn fall
pf l
Ġpro p
iss ement
Ġar g
ĠHistor y
Des cription
fre und
k as
u age
em burg
ĠMed ia
ĠAt hl
Europ ameister
Ġbenach bar
m ag
et ch
ĠEr ste
Ġunter halb
her ren
land es
ĠFl ucht
ĠGer Ã¤te
b ody
f els
et on
Ġ1 10
Ã¤r ten
reg isseur
Ġmod el
ĠSeb astian
h ler
ĠS ud
em ed
ĠG reg
us sen
ĠV el
Ġauf gelÃ¶st
ell i
ĠFall s
rÃ¤n kt
ĠStim me
ĠÃ¶st lichen
ĠEpis ode
M M
st arts
Ġt oken
Ġc ache
ma il
Ġteil s
tim eter
ĠTer r
L a
W h
y t
akte ur
Ġland wirtschaft
Ã¶ tz
ĠSt unde
ige m
ma schine
200 2
ĠProduktion s
ĠHelm ut
ĠOffiz ier
S yn
r ang
z iger
ĠM assen
Ġl iter
ĠAn f
Ġgegr Ã¼ndeten
ĠrÃ¶m ischen
Ġpriv aten
K ompon
P refix
U I
d own
s ource
te uer
Ġer zeugt
lass ung
Un able
scheid et
ĠStÃ¤d ten
ĠEpis oden
F ernseh
O C
p ommern
ib r
auf nahme
ĠSe ele
ĠSan kt
Ap i
ĠAf rika
in f
Ġl en
ĠSie ben
acht ung
Ġ189 5
ĠNutz er
ĠMatth ias
sch irm
Ġm aÃŁ
mit glieder
ĠHaus es
ĠDat um
Film ografie
Ġbedeuten d
ĠCamb ridge
ĠP red
ĠJ a
ĠC orn
ov a
ĠKÃ¶nig in
icher ungs
ĠGef angen
ĠMeer es
ĠverfÃ¼g bar
ĠM ord
ĠM ond
ĠN eb
ĠAn forderungen
folg ung
ix el
Ġparam eter
iehungs weise
ĠT ats
ĠC ost
sen de
os a
Ġunter sch
val u
Ġfrei en
S pr
Ġw riter
Ġan t
est en
ĠHalb finale
ĠbestÃ¤ tigt
G o
ĠD omin
ĠM d
Ġk ombin
Ã¼t t
Ġeigen es
Ã¤dag oge
J an
M ember
R Ã¶m
Ġan gew
ĠAus nahme
ator ium
ĠBe ob
vir on
M apping
y er
sch uhe
Ġun ge
ĠGes ang
B eg
d ung
ar in
Ġb ot
um b
ick er
ĠSchn ell
iat eilnehmer
Ġjapan ischen
ĠPublik um
un Ã¤chst
ger Ã¤t
ĠAlex and
ĠpersÃ¶n lichen
ĠObserv able
E hr
Å Ł
en gl
ĠP od
ĠT hread
Ġzu geordnet
Ã¼t ten
ĠEx tr
ĠGew erk
H aus
ar ter
Ġl atein
ĠBo ot
Ġ189 7
F ailed
h et
ĠS oll
ĠT ode
Ġtr ifft
Ġen glisch
SE T
ĠKommun al
ĠChamp ion
> )
D an
Ġein geb
ĠT w
ra ys
Ġ189 6
ĠMil ch
Ġnational en
ĠR y
eb ook
Ġst at
Ġ18 50
ĠAus einander
itÃ¤t s
Ġeinz igen
ĠSchl Ã¼ssel
P ersÃ¶n
ĠSt att
ĠFor um
Ġur kund
ĠBesch Ã¤f
ĠSÃ¤nger in
ĠTenn is
Ġn Ã¤her
ĠGemein schaft
ĠGener ation
ĠLehr e
ĠÃ¤lte ste
R ed
h Ã¤ndler
Ġd ate
de hn
ir es
ĠIn itiative
Ġ[ âĢ¦]
Jahr e
ĠKontr olle
J Ã¤hr
P ri
Ġo st
etz te
ok ument
ĠEd el
Ab sol
minister iums
Ġwich tigen
char At
gram me
B el
k al
ĠL ast
Ġt ask
Ġj ob
olog ischer
ĠHa ft
quire d
V ol
ar ia
ab t
ĠGeb urts
ĠNational mannschaft
ĠMein ung
Ġpoln ischen
ĠTÃ¶ch ter
h Ã¼ter
k ul
al m
ĠI d
elt a
anz ig
orben en
D ER
au ten
Ġv ari
ĠD etails
ĠIn frastruktur
lie d
echs elt
ĠSchn eider
check ed
Ġbez iehungsweise
p ool
Ġd eine
ĠW en
Ġver legt
Ġp re
Ġreg ul
ĠBarb ara
ĠPots dam
ĠK redit
Ġt ag
rup p
bo den
ĠFrie dens
Ġsozial en
Ges ellschaft
B eim
H ein
n ov
ver zeichnis
Ġsch rift
Ġletz ter
Element s
zuf Ã¼hren
ĠstÃ¤r ker
h u
st aben
ĠL inz
ĠN ap
ĠJ ena
ip al
ĠQu adrat
anc en
Kir chen
on st
ĠM eyer
ĠU fer
Ġent schieden
ied elt
ordin ate
Ġgriech ischen
Ġautomat isch
L en
c z
h eil
| -
st Ã¤nden
Ã¼ gt
ĠSt Ã¤r
ĠBot schafter
ĠSong s
ar o
Ġl auf
ĠIn g
ĠBer atung
Ġ4 6
Ġparam eters
Ġerz Ã¤hlt
S equence
n i
t yp
v oke
ĠD ol
Ġf ein
inder t
ieb el
Ġâ ĨĴ
ĠTab elle
r uss
Ġh Ã¶ren
Ġc annot
id ae
ĊĠĠĠĠĠĠĠĠĠĠĠĠĠĠĠĠ Ġ
Ġent schied
vers orgung
fahr ts
ĠMann heim
ĠVerb esser
ĠKÃ¼n ste
T itel
t l
ĠB u
ĠDie ter
âĢľ ).
ech ten
tern e
Reg iment
ĠTab ellen
National mannschaft
ĠB ase
Ġin nen
ĠW Ã¼rttemberg
re gel
ak ademie
ĠRes ult
ĠFot ograf
Ġbekomm t
G E
b und
k unden
ĠF ernsehserie
ĠMit gliedern
Ġ189 3
Ġrel igi
F ranz
d y
it o
ĠM arburg
ĠF la
zen ten
til ler
ĠFr eitag
Ġtechn ischen
ĠunabhÃ¤ng ig
n itten
ĠD et
Ġl Ã¤uft
Ġwel chem
deck ung
sei tig
Ġerstre ckt
chip karte
ĠM Ã¶n
le te
ĠBr enn
Ã¼t ze
ĠGef ahr
Ã¤mpf e
ontin u
ĠEing ang
Ġspeziel l
ĠDÃ¤n emark
Ġb ayer
ĠK eller
lo h
ay a
ĠAp ost
Ã¤mpf er
SI ZE
Acc ount
s up
ei ste
ĠA ff
ĠB io
ĠM esse
Ġl ernen
ĠDaten schutz
log ger
ĠHor st
M ath
s ign
ĠH eb
ĠO tt
wei ler
ĠEin s
tel s
Ġ" ,
Ġseit dem
Ġhand le
ĠMÃ¶ bel
X ml
d ner
ĠS z
ĠB it
ĠH Ã¶ch
sp ez
trag ung
ĠGer Ã¤t
ĠDis sertation
verband es
ĠÃ¤lter en
ĠBist um
ch ten
on i
ĠL ot
Ġver ur
Ġdar aus
lÃ¤nd ischer
A F
Ġver hindern
ko hol
bed ingt
ĠHotel s
abil ity
Ġangegeben en
ĠAmster dam
ĠF a
f alt
und ert
ĠT eu
sp lan
X ML
k Ã¶rper
ĠS auer
ar tig
Ġn ominiert
ĠP ed
ĠO z
la in
Ġsp ann
be am
Qu alif
Ġs or
ĠK ost
ĠL or
ir urg
ver ordnung
ay ern
ev ice
Ber eits
Ġgemeins ame
x ml
est e
ĠZ ivil
ip pen
ĠBr ig
ĠGesch mack
ĠDes halb
ĠLok omo
ĠThÃ¼r ingen
W ert
ĠL ust
il i
ĠFrank furter
umm ern
omet ry
ĠJust iz
v es
ar g
Ġver urs
ond issement
Ġbeh andelt
ĠzusÃ¤tz liche
U ri
ĠS ynchron
ĠK Ã¶r
is ation
Ġauf gebaut
ap el
c opy
ĠM u
ĠM ode
olog isch
Einz el
cri be
Ġklein ere
ĠAs ien
Olymp iateilnehmer
s eit
In nen
aff el
ĠPor trÃ¤t
B B
W as
f ranzÃ¶s
r iss
v ollen
z unehmen
es p
Ġb lieben
ĠW ik
ĠV ariante
Ġsch uf
Ã¤r ung
Con stra
ĠMag de
ĠkÃ¶nn ten
way s
ĠerhÃ¤lt lich
M atrix
b raun
ĠB itte
ĠM ut
ĠE ugen
Ġj ung
ass au
ĠWelt cup
setz er
F alls
m ont
ĠF ell
ĠAn wesen
Ġj son
ges prochen
be cken
Ġbesch reibt
Ġgest altet
ĠDipl om
ĠprÃ¤sen tiert
D u
S um
f ac
er a
ur o
Ġp o
Ġe ff
ĠBl au
Kir che
viron ment
b or
in ia
Ġs rc
ĠK alifornien
Ġau ÃŁen
sen der
ĠĊ Ġ
im eter
ĠLebens mittel
ĠursprÃ¼n glichen
Ġbas iert
ĠMex iko
Ã¤ fte
ĠF I
ĠC at
20 19
ĠFl Ã¼cht
ĠGemein der
ĠVen edig
au ert
ĠG rau
ĠR umÃ¤n
ĠV il
Ġim age
ul f
ĠSt ates
Ġzwei ter
for scher
AT A
ĠSek unden
Chr ist
ĠMathemat ik
M essages
k Ã¼rz
Ġb ut
Ġb uild
ĠK amp
Ġj ahr
ĠAr men
gr Ã¶ÃŁe
rup ted
ĠÃľber sicht
ĠRelig ion
B ew
I gnore
P ost
t al
t able
ĠE h
ĠH as
Ġg Ã¼l
eich e
ĠAus zeichnung
ĠMar i
vers icherung
ĠKon zer
ĠEnt wurf
199 9
f arben
al om
Ġbes etzt
ore a
Ġmittel alter
Dat ei
Ġlo ad
ĠK am
ĠUn sere
ĠSpiel tag
ĠGed ichte
AG E
ĠL ife
ĠPf ad
index Of
M ich
re h
ĠV Ã¶lker
ĠÃ¼ber nehmen
ĠIs lam
starts With
F ahr
F ried
N e
c al
ĠB om
Ġver n
Ġst atus
Ġber Ã¼cks
rÃ¼ st
ett o
Ġbesch Ã¤d
ĠBen ed
ĠOb last
Ġrech te
Ã¢ te
ĠArr ondissement
/ *
K n
ĠR io
ition en
Ġgew Ã¼n
ĠÂ ·
Mod if
Ġbestehen den
Ġsicht bar
C ap
Ġ( ;
ĠK ul
ol ver
ĠP ower
ĠC all
ver teid
aus bildung
ĠStel l
AN CE
Ġverpflich tet
Ġ app
ĠA achen
Ġb raucht
ĠK aff
ĠR ie
Ġc le
ĠSp ur
Ex tension
ĠGr amm
Ġ4 1
ĠUnter schied
Ġviel fÃ¤l
Ã¤m m
Ġ187 1
Ġaufge fÃ¼hrt
ĠflieÃŁ t
te am
Ġan lÃ¤sslich
ra gt
he d
get Property
Ġsch reibt
utz ung
ĠRe de
P air
sch Ã¶n
Ġn ennt
ad or
Ġl es
Ġsp Ã¤ten
br and
icher heit
akt oren
Ġend lich
Ġkomp lex
ĠS QL
em an
iz ont
Ar b
ĠMÃ¼n chner
ĠMich el
bed ingungen
ĠMehr heit
Fe ature
H eight
m otor
on str
Ã¼r zt
Ġwir ken
Ġvor ge
Ġab gesch
Ex p
onn ect
Ġgegr Ã¼ndete
ausen d
Not Null
g as
er tet
Ġsch eiter
war en
Ġch em
M ilitÃ¤r
j an
Ġein schlieÃŁlich
Ġf uhr
ĠW is
ĠInstit ution
Ġsol chen
ĠInfanter ie
S PD
t ums
ĠD ownload
Ġver anst
Pro cess
ĠGeb rauch
ategor y
Cal endar
. /
C A
M ain
ĠB och
ĠG anz
Ġbe endet
Ġbe cause
lie ger
ath on
Ã¼t ter
cl ude
State Exception
ĠBus iness
Ġbetrach tet
D irectory
O K
ĠAn alyse
ak i
ob el
ĠReg ister
ĠBest ell
ĠImm obilien
in ischen
ĠH ess
lich em
Ġim pl
pro perty
zeit ung
stra ÃŁen
Ġby tes
ĠNic ol
c ul
} ,
sch i
Ġf allen
ĠH ow
um in
ĠBab y
R W
r ingen
Ġd elete
al ts
ĠZ oll
ator s
Ġeh e
ĠMan fred
ĠBestand teil
" ).
c s
Ã¤ ub
Ġr un
inz ip
Ġverb indet
ĠFahr rad
ĠAt hen
ĠSa ar
Mus eum
Ġs orgt
Ġf ung
ĠT oten
ĠN omin
Ġ/ >
Ġle hr
out h
Ġheraus gegeben
Ġengl ische
Frank reich
k Ã¼ste
aj a
st on
te sten
ur ren
ĠM obil
ĠL eb
and ten
ĠAn dr
Ã¶r ungen
up p
Ġ4 9
mal en
An halt
ĠCon tent
Loc ale
Ġerwar tet
n d
Ġw ork
ĠA x
Ġer lang
Ġc lose
ess in
ĠKon struktion
ĠGem Ã¤lde
ĠGe denk
zei ge
ĠKo operation
fÃ¶rm ig
ĠEntwick lungs
ĠLÃ¼ beck
O st
el emen
ĠM Ã¼hl
ĠK rÃ¤
ĠHer zen
form ationen
min ist
Ġange zeigt
fang s
ĠNieder lage
ĠBÃ¼ hne
ĠBrasil ien
B S
d ing
ĠK ub
ist o
ĠFrei heit
val ues
ĠPass ag
Ġvertr at
in ten
in ne
ĠP ie
ĠP oint
Ġgr unds
ĠHil fs
Ġgetr ennt
cel ona
ĠPfer de
r al
ich ert
ĠW urz
ĠL ob
ĠR ett
ĠEr wer
ĠOr ten
Qu eue
ĠDort mund
E P
H e
M Ã¤rz
r ol
ä ¸
Ġwir kt
ess ern
Ã¤r t
ĠFl Ã¤chen
ĠHerr n
Ġverf asste
Ġperf ekt
ĠFrancis co
ĠBronz emed
V ar
Ã¤ udes
ĠK Ã¶n
ĠStr ate
ial izer
ĠGes icht
Ġschw eren
def ault
E CT
] [
l itz
Ġ5 2
ack er
< >(
el ine
Ġn am
Ġbes aÃŁ
ĠUm setzung
Ġbeg leitet
ĠBesonder s
T S
sch wer
ĠC lient
In sel
ive au
Ġorganis iert
ĠAbgeord neter
Wil helm
b al
ĠVer zeichnis
)) );
ĠPf arrei
K arl
h es
Ġv ar
ĠD orn
re y
ÃŁ ig
ĠIngen ieur
D i
ĠM ang
ĠF unk
ĠP en
eil er
ĠPl Ã¤tze
Ã¤ch er
ĠMon te
ĠmÃ¶glich erweise
hÃ¤lt nisse
K W
ei de
is ieren
ĠH rsg
Ġk g
Ġunter en
Ġsh ort
k urs
Ġ ol
Ã¼ che
Ġw echseln
Ġz ieht
Ġer mittelt
ĠUn ser
Ġsp anischen
Ġange p
Ġbel g
Co V
Ġwissenschaft lichen
m and
ĠF o
ĠJ etzt
ĠO pp
Ġre ag
par ent
Ġat tribute
Ġgar an
f ir
ent um
get Id
her steller
hÃ¶r igkeit
Ġte st
ĠInternational e
ĠGeschÃ¤fts fÃ¼hrer
ĠVerf assung
Ġoffiziel len
S cript
a illen
Ġein iger
Ġaus zu
Ġr uh
ate ll
Ġnach hal
ĠAuf nahmen
ĠGrund lagen
199 8
st em
ĠJ ava
res sen
tt ps
ĠMan ager
Ġ189 1
Ġspe zial
Pol icy
st ock
Ã¤ ck
ĠD ich
hr op
Ġc omm
ens ion
ĠBundes staat
riff e
ĠForm at
we ge
Ġwich tiger
Ġjem and
D ur
T est
f ekt
Ġ Ã¼
ĠM etz
atur es
199 0
ĠFir st
ĠGleich zeitig
stant in
ĠjÃ¼n g
c tr
ĠH em
ĠT onnen
wei ten
ĠAn th
Ġc ol
pl it
ian o
An merkungen
ĠRo hr
ĠWei b
con stants
K unst
st eig
ĠR ay
rei strÃ¤ger
Ġbe zeichnete
Ġsch ied
Pro ject
ĠTra g
Spiel er
L auf
e ff
m as
Ġs epar
el or
ĠT rieb
Ġan y
stell ig
Ġab zu
our s
B ez
r olle
w s
ĠK rie
ĠT ak
tr ee
la c
ĠAl li
Ġpro v
werk en
eig h
ix ed
Ġverl Ã¤nger
ĠCon tr
Ġ186 0
ĠPrinz ip
Ġ iter
ĠD ur
Ġan genommen
ot oren
fer ence
ry pt
ĠTem pel
gÃ¤n glich
u i
ĠO der
ĠZ iele
sp rechend
bau en
pro cess
ĠSte phan
ĠGef Ã¤ngnis
Ġchines ischen
p at
v ater
ag a
Ġst ru
ĠÃ¼ber sch
Un d
Hand lung
A k
el a
ĠM ah
sp unkt
ĠAus gang
ain s
ĠHand ball
Ġeinge tragen
wohn er
Key s
' ,
b it
k ov
k ont
m ine
Ġd ist
und et
ĠB Ã¶r
ing ung
Ġauf gestellt
Ġc omponent
ĠSp recher
In stitut
sb ed
ĠWerk en
ĠRegen sburg
ĠWh ite
Ġerr ichtete
Ġport ugies
Ġdeutschsprach igen
ĠR al
Ġk ir
ĠVer n
sk l
ĠBef ehl
Ġstattf inden
ĠKrim inal
A v
Ġd ef
ei r
ĠS av
ĠK ob
ĠSch mer
ĠSp ir
ĠGemeinde gebiet
Ġpl atz
S ettings
g riffen
ĠT ob
ent in
Ġver Ã¤ndert
aus s
ĠAl te
ĠGr Ã¼ndungs
ant a
ĠSchw ier
Ġget Ã¶
Ġ189 4
ĠBel gien
ĠMark eting
ĠRu h
ĠChem ie
ĠWag ner
- /
ĠB em
ĠE arl
ĠR ess
ĠR untimeException
us en
ĠN ull
Ġver teid
ĠEr Ã¶ffnung
ug os
az if
ĠFre e
ĠTer ror
med izin
Ġtem plate
ĠD ec
em pf
ĠOr chest
ĠÃľ b
imm ungen
ĠAll tag
ĠMod elle
Ġdo es
ĠÅ ł
ĠVerÃ¤nder ungen
N um
S ein
ĠK ardinal
ir c
Ġst ill
Ġc or
ĠFrei en
Ġ188 9
verkehr s
K ap
S pe
Ġ Ã¶rt
ĠS eg
ĠB Ã¤nde
Ġzu g
ĠBr es
ĠAm ateur
Ġspiel ten
ffiz ien
jÃ¤hr iger
ĠMark us
agn ost
T C
on ic
on ia
ĠD ub
ĠF ar
ĠStr ahl
ĠVerein igung
ĠNieder l
ĠFer tig
ĠPier re
G raph
in ett
ĠV I
ĠZ it
Ġo ffizielle
stan bul
ĠWelt meisterschaften
Ã¤nder te
ĠSk i
ST R
ĠpreuÃŁ ischen
ĠKup fer
l ein
Ã ĥ
ch ange
ĠB utton
ĠK le
Ã¶ ger
ĠVer mÃ¶gen
Ġunter scheiden
gel s
Id s
Ġhier bei
Ġklein es
Ġdunk el
t urm
u ccess
ch te
ĠD irekt
Ġm e
ĠG au
ĠEin kauf
Ġvor wiegend
ard o
Ġgleich e
199 7
Ġend et
unn ing
ĠSchriftsteller in
Z wischen
ĠL ande
Ġden k
ĠZ o
ĠZ y
ak en
ĠMin ute
ele ase
Ġbeh aup
ĠKÃ¼ sten
Ã ª
ĠS P
Ġb auen
ĠF ilter
Ġ20 22
iz ierung
ĠGesch lech
ĠGes am
Ġbisher igen
Ġrich tige
E Mail
w ith
ol i
ĠH ugo
us se
Ġent lassen
Dec lar
> ()
y ball
Ã Ĺ
ĠT herapie
ĠL ag
ri p
ĠEurop ean
ĠSa al
Ġverst ehen
hoch schule
C ar
ch or
ĠP rak
ĠP anzer
Ġo ver
Ġp reis
ĠAl p
Ġ189 2
jahr es
ĠFÃ¼hr er
Not Found
ĠAmts zeit
ĠDipl omat
Schwei z
ĠB ull
Ġi l
Ġh ieÃŁ
ent s
ite kt
bes itz
dat um
E M
c olumn
l im
s an
ĠS ens
et ung
Ġb ack
ut sch
up pert
ign ment
Ġhin ein
ĠBar celona
ĠTour ismus
ĠerhÃ¶ ht
ĉ ĠĠĠ
Ġf rem
ĠH eck
ĠL ev
ind ungs
ĠEis hockey
199 6
Ġtrotz dem
ĠGebie te
ver lÃ¤ss
ĠAuf tr
sk o
Ġ15 00
Ġ188 8
g reg
ĠK alk
ĠL ar
ĠR ub
ĠÃ¼ber setzt
Ġvor gestellt
if y
Ġander es
ĠUm gang
ĠÃĦ gyp
ĠPolitiker in
Ġwissenschaft liche
ĠPhys ik
N ov
ge tr
ĠG olf
ĠP as
Ġp age
ow o
Ġtr eten
Ġ4 7
Ġpro blem
ĠSpr inger
Ã¤ ure
ĠĠĠĠĠĠĠĠ ĠĠĠ
ĠH ey
ĠL egen
ĠV irg
Ġge Ã¤ndert
ann i
ĠZ er
Ġher unter
ĠInform ations
r ein
Ġ orden
ĠK il
ra xis
ĠVer eine
Ġsch Ã¶nen
Ġ" /
hen tic
ĠBundes wehr
Ġ187 5
ĠBi ograph
M Ã¼n
O F
P hil
g round
ĠB os
ĠL angen
tr ies
ĠO ster
og t
ĠKl im
verb indung
ĠBed Ã¼rf
gebie ten
besch reibung
ĠP ath
ap est
St affel
lei der
ost on
Null able
ĠVerÃ¶ffentlich ungen
ĠPortug al
W or
r un
ĠS ender
or ph
ĠD iv
ĠF u
ĠR oss
sp olitik
ĠAn bieter
ĠOr der
ĠMa schine
our cen
nis sen
ĠpersÃ¶n lich
ĠDrehbuch autor
B oot
F re
b egr
f a
s ing
w el
ĠB enz
ĠB ibel
Ġin fo
ĠF abrik
ent wick
ast rop
ĠWei ÃŁen
ĠMo tiv
Ġ188 5
Ġ186 6
ar gs
le ute
est and
ĠSp eicher
qu alitÃ¤t
ĠFahr t
stud ium
ĠAutob ahn
g ung
ĠB at
Ġf lie
ĠNach wuchs
ĠBr uch
ĠLu c
[] )
ĠGegen d
D DR
w riter
re ht
Ġr oman
Ġ5 1
schlieÃŁ en
With ServiceResponse
Ġfre und
Sti ftung
WithServiceResponse Async
em als
Ġh a
Ġunter b
sk on
sb urger
ĠEurop as
ĠAlt ar
ĠDenkmal schutz
ĠVerbr eitung
Ehemal ige
S A
S H
p al
ĠK en
re a
Ġal ready
geb irge
Ġbest ell
sw ald
ĠPsych ologie
Ã¢te au
F O
W rapper
h s
p lay
sch ten
ĠN ation
ig an
ep p
geb lich
schn itte
ĠZus atz
b ibliothek
i ques
m eter
n ap
v iel
Ġ est
Ġd ro
ĠH ig
ĠR et
ĠI dent
mÃ¤ÃŁ ige
Ġ187 9
ĠMat rix
produ zent
ĠInf ektion
B ef
st ufe
sp ace
ot ograf
ĠPol y
ĠRes earch
vertr eter
ĠJos Ã©
Ġpop ul
ĠBronzemed aille
. _
E le
t Ã¤
ĠM att
ĠG ouverneur
Ġum s
stechn ik
t au
Ġm y
ĠP ack
ĠH ay
ĠW end
se g
im ir
âĢľ -
ĠAuf l
ĠFran Ã§
stru ctor
low en
Ã¤dagog ik
I l
ĠD ial
Ġaus dr
ĠAus stattung
20 20
ĠAm azon
pro v
Ġ188 4
rag ment
Ġverst arb
ĠKÃ¶l ner
Ġruss ischer
iar den
ĠA ction
ĠL ern
ĠMar gar
ĠRes ource
Ġbegann en
ĠIllegal StateException
B it
n eu
Ġk ont
ĠNach folge
199 1
LA SS
ĠK Ã¤
ĠF ab
ĠP ow
eich ern
me te
bau te
Ġoffen en
ĠInn ov
Ġunbek annt
Ġpromov iert
ĠIll ustr
F iles
N OT
ĠG a
ĠT ay
Ġg rau
ĠIm age
ĠAm b
ĠRo h
Sp ec
ĠÃ¤lte sten
R ezep
s Ã¤nger
ĠM uster
ĠUm bau
off set
irt ual
ĠInstitut s
( _
ĠA C
ĠA ster
Ġn ennen
ĠP enn
ĠH ektar
ĠN ote
Ġan gen
ver k
ĠVer z
Ġst ren
li ver
ĠSc ott
ĠWahl en
Ġeinf ache
Ġbau te
Ġbein hal
ĠG ame
ti ver
eh end
Ġdurch aus
auf bau
ek or
ĠMa jor
af r
ĠNeu stadt
ĠInd ian
n g
Ī Ĵ
at tet
ut s
ĠJ son
Ġge tragen
men s
Ġsch ot
Ġ5 3
af ft
ĠBes etzung
Ġ188 6
mo sphÃ¤re
aiss ance
M ehr
R echts
r amm
Ċ Ċĉĉĉ
ĠA fr
ĠD VD
Ġf ach
age d
licher weise
ĠHam mer
ĠMittel punkt
Non Null
: :
r ics
an ie
ĠR iesen
ĠN u
fahr zeug
Pro zent
Pro xy
Ġbesch lossen
ĠVerlag s
port al
Ġnord westlich
Â ³
ĠL at
ĠC op
Ġk om
ĠSch le
ĠAn gabe
Ġwar um
ĠSp Ã¤t
ĠAuf sicht
Ġges und
ĠBundes ver
igh ts
ĠWilli ams
or ity
us alem
so ft
schn itts
ĠHoff mann
p aar
v ard
Ġ( ).
ĠF F
ĠW ork
Ġh ell
Ġh Ã¤uf
res ent
ĠAlt stadt
ĠNor wegen
Ġwes halb
kap elle
I dentifier
r oll
v in
ie bt
ge legen
ĠD ra
Ġi dentif
ĠV ari
Ġh ttps
Ġg ro
wei ÃŁ
get Instance
ĠKl ub
Ġges ucht
ĠspÃ¤ter e
Ġbr asilian
ĠWel tr
Ġverkauf te
ĠKais ers
M aler
Z one
ĠK y
Ġer gibt
ow itsch
ĠMar s
Ã¤nd ige
Ignore Case
Ð »
Ġg olden
ĠSch uhe
ĠBe geg
ĠAk tien
ĠBar ock
ĠGi pfel
ĠGÃ¼n ther
A bst
L ang
T eil
ĠF ootball
le bte
ru st
ph ase
Ã¤ch t
Ġange hÃ¶r
ĠFer r
ĠRu hr
Ġverbr achte
ĠExper ten
angeb ot
ĠMagde burg
T L
ĠL as
St ar
fahr ten
yn ast
ĠBl umen
J apan
K omm
m acher
o ung
Ġw Ã¤hlen
ĠB la
ĠM ie
ĠG ab
ĠSt an
ant eil
ĠKon zep
Ġcon figuration
ĠPer spek
Ġamer ikanische
ĠRost ock
R eturn
i oren
k ischen
ĠL atein
Ġunter wegs
Ġsp ecif
Ġid x
ĠhÃ¶her en
4 00
H inter
K inder
s cription
u ellen
ĠG irl
ĠR equest
se kretÃ¤r
qu al
teil te
min istr
ĠOs car
Ġhervor ra
BevÃ¶lker ungs
Ġ assert
Ã¼ mm
sp reis
ay load
fl ow
jahr en
Ġitalien ische
Ġbestehen de
ĠRestau rant
M ulti
p c
isch Ã¶
eh le
ĠGemein sam
199 4
bereich e
weis ung
Land kreis
Ġruss ische
ĠFel ix
Ġrec ord
Ġdisk u
ĠS ARS
Ġb rau
tr im
Ġl eist
rit ter
pro f
Ġscha ff
ĠArn old
a fen
an on
ar tikel
ĠM essage
ĠT au
se c
Ġsch Ã¼tzen
Ġa ction
wir t
Ġgest alten
Ġerw orben
Fl ug
ĠDenn och
Contr ol
ĠEntfern ung
f loat
k Ã¶nig
ei ern
ar ed
Ġn on
ĠF ro
ĠW art
Ġre ader
Ġex pl
Res ources
ĠKo ordin
Ġklein eren
ĠBeh Ã¶rden
Ġc lazz
qu elle
lo ud
ill ing
ma ÃŁen
Ġeigen er
Class Name
ĠWahl kreis
ĠKÃ¼ ste
Ġnational e
Ġjapan ischer
ertif icate
Ter m
z lich
ĠĠ Ċ
et enz
Ġein deu
ach ter
Ġdes cription
Ġst arten
ĠAn im
ĠSh op
ĠNieder Ã¶sterreich
ĠsÃ¼d westlich
ĊĠĠĠĠĠĠĠĠĠĠĠĠĠĠĠĠĠĠĠĠĠĠĠĠĠĠĠĠĠĠĠĠĠĠĠĠĠĠĠĠĠĠĠĠĠĠĠĠ ĠĠĠĠĠĠĠĠĠĠĠĠĠĠĠĠ
ĠFreu de
S uch
b ein
Ġn ames
ier er
ĠAn erkennung
ĠPro j
herr schaft
Ġsozial e
ĠÃĦnder ungen
ĠE M
is a
ang es
Er gebnisse
Ġverl etzt
contains Key
ĠBesatz ungs
U P
Ġv iew
ĠK ohl
ĠG n
Ġc opy
Ã¶r dern
ok us
St ation
ingen ieur
ĠPh ot
ha i
Ġgel angen
ĠQ ue
ĠBur gen
ĠRek ord
M em
T hrowable
f irst
ĠM aur
Ġnach fol
ĠAd ler
LO W
Ġrich tigen
D on
M ai
r ight
ol ve
ĠL ein
Ġan geschlossen
Ġbe auftrag
ĠMar g
gesch icht
pro jekt
ĠReich es
Mod ule
ande ur
bÃ¼rger meister
R est
Ġein s
Ġm er
gen ossen
ach s
ĠSch atten
ed ule
ri min
men ge
Ġber ech
gesch windigkeit
ĠEnt stehung
ĠGroÃŁ teil
ĠNieder lande
Ġak tiven
AC T
wor fen
ĠGebie ts
ĠKolle gen
Ġdor tigen
ĠChampion ship
w ner
Ġz Ã¤hlte
ĠG ames
ĠH yp
ĠI terator
Ġzu folge
he ber
Ã¶r g
Ex pr
Ġex ec
Ġkurz er
ĠTre ffen
eier mark
ĠLi ber
ĠErk rank
ĠDokument ar
P eter
T ro
ch ern
ei ro
au te
at tr
Ġl aufen
ĠIn stall
Ġbe qu
ĠVertr ieb
. ).
o h
as ien
ĠK el
Ġt hen
Ġ5 4
Al t
mus iker
Ġgesch Ã¼tzt
199 5
ĠKategor ien
D r
ĠS ul
ĠZ usÃ¤tzlich
Ġst eigen
Ġbeg eist
Ġmittler en
ĠPrÃ¼ f
Ġlok alen
RÃ¶m isch
e ber
u ay
ĠB R
Ġein zu
ol and
ol ph
Ġver ab
Ġaus fÃ¼hr
ĠAr ab
reich er
ĠUm feld
ĠAd d
ĠAt om
Ġlang sam
Array List
Ġzentr alen
ĠLeichtathlet ik
g ger
g roÃŁ
r as
or fer
ĠF ehl
ĠZ ehn
Ġl eitet
In ternational
ob ject
Ġgr enzt
bild ungen
fil me
Ġempf ehlen
Ġdefin iert
ĠGriechen land
J ose
er z
sp itze
rau cher
Ġ8 5
Ġposit iv
Eng ine
al ition
Ġs ymbol
ĠD ay
ĠP ublic
ĠN ick
Ġl imit
Ġaus gesch
ri z
ĠEin z
Ġre quired
rat es
Header s
H Ã¶r
c u
Â ´
Ġd Ã¼n
ĠP riv
Ġauf treten
ĠSch all
Ġ18 78
ĠStr eam
qu enz
ĠFranz isk
tisch es
H eute
au g
ĠA cc
Ġb it
eh Ã¶r
Ġum gebaut
ĠGroÃŁ herzog
ĠHoch zeit
Ġkommen den
Ġumf asste
ĠAng st
ĠTest ament
rep lace
ĠKapit Ã¤n
M sg
h ielt
Ġw eite
Ġb ist
Ġin spir
ĠH ildes
Ġaus reich
Ġwei ÃŁen
Ġ186 7
Ġdi verse
fÃ¤l lig
ĠMÃ¤n n
ĠHin weise
ĠKrank heit
L ie
W ei
c ard
f euer
k olle
l u
Ġb reite
ĠD iff
ol t
alt ar
ĠFl ag
ire d
spieler in
fe ature
Ġerfolg reichen
forder t
gesetz ten
usst sein
Ġkathol ische
Ġkor re
Men u
frie den
olumb ia
N atur
b eu
â Ĥ¬
an ke
ĠJ ungen
ĠVor bild
Ġ< /
ĠsÃ¼d Ã¶stlich
ĠPort al
ĠOrganis ationen
Produ ktion
B en
b in
n ik
n ieder
ĠM oment
Ġh ost
ĠJ ones
ob ald
ĠFac ebook
auth or
B ran
am ik
Ġm Ã¼ndet
ĠP oten
ĠL och
um an
ĠC he
Ġk Ã¼nf
all o
get P
Mus iker
prÃ¼ fung
Wer degang
ĠmÃ¶ glichen
ĠSend ung
ĠUkra ine
J ava
or men
ĠA gent
is ierten
ĠÃ ł
lei ben
oph on
ĠEis hockeyspieler
riter ien
m ach
ĠW Ã¼n
ĠSt ich
Ġc as
ert o
eben e
bar er
zeit schrift
iden z
glieder ung
Ġexist ieren
Ġvorhanden en
Ġtechn ische
iem lich
Ġeinf achen
Digit alisat
A V
B uch
and emie
Ġg ern
ap s
ĠAb stand
Ã¤l te
ĠUnivers itÃ¤ten
tell igen
c ape
j ob
w ell
w Ã¤hnung
ĠI stanbul
ro id
he ad
rie f
ner stag
Ġgen annte
asse d
ĠHand lung
bo ok
R ev
ĠS omit
Ġver boten
uff ix
ĠKompon isten
ĠWissenschaft ler
Dat um
ĠBud apest
Ġlau tet
gefÃ¼ gt
ĠgetÃ¶ tet
BevÃ¶lkerungs entwicklung
C urrent
R uss
b ran
as i
tr op
ex ecute
ĠAb stra
Sch ule
ĠBo gen
ĠPf licht
ĠSe en
Ġteil nehmen
Ġgeb lieben
ĠerÃ¶ff nete
ĠMad rid
ĠLab or
I F
k w
s z
Ġ Ã¤ndern
an ia
il me
Ġk Ã¶rper
Ġt au
Ġt mp
ial en
eld et
ĠDi Ã¶z
ĠVort eil
( @
b ett
n oten
Ġd ok
un checked
Ġp ack
lin es
Ġtr op
ĠAus bildungs
Ã¤ch te
ĠOl denburg
ĠMo der
Ġspe zif
gesetz es
ĠWehr macht
NotFound Exception
l ings
ĠS ir
Ġs earch
am i
ĠW alt
ĠEin en
form ance
ĠOber flÃ¤che
ĠRu he
sprÃ¼n glich
ĠAben teuer
ĠCost a
k ar
Ġf arb
isch t
Ġg ros
he et
ĠSp uren
ĠAus zeichnungen
Ġ7 4
Ġ< <
ĠMaler ei
ĠDep art
Ġfunktion iert
l isten
Ġal tern
Ġc ommand
ĠWelt meister
zeug ung
Time out
Ġschl ug
ĠJer usalem
lehn t
an dern
Ġzu gÃ¤nglich
19 18
Ġre al
Ġbef Ã¶rdert
for mer
ĠBek annt
UL L
Ġextr em
ĠDrit tel
ĠOz ean
ĠSp itz
od ox
ĠRo ute
ĠGef Ã¼hl
Ġ187 4
ĠZug riff
ĠSzen e
M W
Ä ĥ
ĠL ew
ĠL etz
ro ot
Ġge legt
Ġst Ã¤ndig
gew inn
ĠProdu zent
ĠFr ucht
ĠSk ulpt
Ġwei sen
mÃ¤ÃŁ igen
ĠMeister schaften
ĠAlb recht
ĠTechn ologie
sprÃ¼ che
Ġdur fte
ĠF antas
ĠP ers
ĠE th
ĠR ainer
ĠVer k
ap i
stell ers
Ġdies mal
IN T
ĠChrist us
Film schauspieler
Log ger
ĠKomment ar
Kompon ist
Jan uar
b Ã¶
ĠB lo
ĠK ra
ĠL et
Ġge zogen
ĠFran ce
wer ten
ĠGrund stÃ¼ck
ĊĠĠĠĠĠĠĠĠĠĠĠĠĠĠĠĠĠĠĠĠĠĠĠĠĠĠĠĠĠĠĠĠ ĠĠĠĠĠĠĠ
Sc ope
tiller ie
F OR
m ess
t w
ĠM Ã©
Ġn ow
ig tes
Ġaus einander
ĠEr ster
199 2
ped ition
Ġans Ã¤ss
it ro
ed y
ĠEr richtung
Ã¤l der
wir k
Ġ188 3
Ge ografie
Ġlist ener
ĠKloster s
ĠTex til
CD U
ĠKlin ik
S an
k re
sch ild
sch reiben
or um
ĠB ein
ĠB Ã¼nd
ĠH ome
eb urg
Ġgr und
add All
ĠÃĸ k
ĠĊĠĊ ĠĊĠĊ
equals IgnoreCase
Ġgeboren e
ĠAnton io
ĠpersÃ¶n liche
ĠOption al
ĠHoll y
yg on
ĠNikol aus
prÃ¤sen z
r ennfahrer
ĠK ohlen
ĠL Ã¶sungen
Ġer stellen
ing u
Ġst abil
ang o
id x
ĠThe at
ĠZu cker
Ġverb essern
ichtig ung
aktion en
zust and
ĠfÃ¼n ften
rupted Exception
B us
ĠD afÃ¼r
sb ruck
Pro gramm
wir d
Ġ> >
Ġgelegen tlich
Ġgrunds Ã¤tzlich
W E
W ien
h old
Ġin klusive
ĠL izenz
Ġge eig
Ġg uter
ik at
etz ungen
ak es
ĠMit tler
Ġbest anden
Ã¤nd igen
yd ro
opp elt
ĠPorn o
ĠProm otion
ĠergÃ¤n zt
ĠL aden
Ġt hr
ĠVer arbeitung
Ġtr aten
olog ien
li as
itt le
ĠPh ase
Ġhin ten
Ġ186 8
On ly
Ġbenachbar ten
S ow
t in
ĠB oston
ach us
ab geordneter
Ġp refix
ver hÃ¤ltnis
fre ie
strahl ung
sto ÃŁ
preuÃŁ en
E t
k amp
in str
Ġs end
ĠH enn
Ġge fallen
ĠSch u
Ġt hread
ĠReg iment
Ġpro du
ĠVerb indungen
ĠKap ital
Ã³ w
Ġnord Ã¶stlich
ĠLes er
ĠVorstand s
ĠCentr al
dor fer
M ag
ĠB Ã¼r
ĠH als
Ġan f
ĠSo zi
urs or
F est
Ġb reiten
ĠO ri
Ġst ation
ĠEr furt
Un sere
Ġ188 7
ĠSen at
Ġoffen bar
Com parator
ĠBrow n
C P
F lag
M art
g ier
Ġ Î
ĠA gr
Ġver sen
ĠAn ne
Ġj ur
ĠCh ance
Ġ5 6
iss ar
ĠWerk statt
Ã¤tz t
ĠSystem s
Ġdi ver
ĠDis ziplin
ĠAutor in
fÃ¤h ig
Ġfre ie
M AX
s or
in stitut
Ġb raun
ĠK ann
ĠP rix
im um
Ġnach gewiesen
ĠAus sicht
Ã¶l l
ĠWochen ende
ĠScien ces
ĠÄ Į
S ep
S earch
d elete
g al
ĠK ino
ĠG att
ĠN ationen
ĠSch ott
Ġa fter
ĠAl ters
gesch ichten
ĠBereich e
Ã¤mpf ung
ĠEben so
ĠAllgemein en
d ir
Ġw idth
ab els
ĠZ ub
Ġsch lecht
arb eitern
br eitung
Ġlie ÃŁen
ett ing
)) )
Ġunser es
ĠHoch schul
198 9
uck et
druck t
Ġbez ieht
Ġoption s
dar steller
C ol
C up
T our
n ames
Ġ reichen
Ġge g
Ġl ink
id o
Ġ18 30
onn a
iden t
ĠGra ph
Ġzeit weise
Ġzentr ale
Ġfe ature
ĠBres lau
ie ck
an iker
ĠS ache
ĠP seud
Ġp oint
atur en
ath an
Ġ186 4
ĠEinwohner zahl
atÃ¼r lich
ĠLÃ¶ wen
ĠVerf assungs
Ġehr en
m y
ĠK ader
Ã¶ scht
Ġr ight
Ġa cc
ep pe
ĠGr Ã¶ÃŁen
ĠRo ad
Ġgesp eichert
ĠhÃ¶ here
ĠSoc ial
ĠBil dern
Ġverur teilt
J SON
ĠS ei
ein richtungen
ĠD rag
ĠD ynam
ĠC ro
sp rÃ¤sident
ĠJahr hund
Ġ18 00
Ġum ge
anz eigen
ĠUm fang
ĠHal te
ST ANCE
S L
S O
sch wei
ĠC ross
end o
Die ses
Ã¶ff net
amt es
ĠFor der
Ġgleich er
ĠSer ies
Wir d
gn or
Le ft
ĠModern e
ĠZen timeter
J uli
un sten
sch rau
Ġm ulti
is l
Ġk aiser
Ġt here
wei ch
Ġ+ +
ph ys
Ġbef ind
Sie g
Ġ188 2
Ġchar akter
ĠdÃ¼r fte
Ġdok umen
J ugend
U B
h Ã¤usern
ĠB am
ĠV f
ig in
ĠSch los
ĠZ auber
Ġp asst
ĠAn zeige
ĠAl les
Ġlie fer
ĠBe ach
ĠLe o
ĠBuch staben
199 3
Ġ187 6
scheid ung
ĠschlieÃŁ en
ektr um
Ġgelegen e
tok oll
V O
f arbe
h art
s v
Ġin nov
ĠH av
Ġan n
ĠSch icks
get String
Ġmehr erer
iele feld
ĠLe e
ĠOrt schaften
fÃ¤l len
EX T
ĠLieb es
K Ã¶nig
st atic
sch icht
et ti
ĠG ieÃŁen
ĠT un
auf nahmen
ide os
ĠursprÃ¼n gliche
W ar
k B
w all
ĠP rim
Ġab hÃ¤ng
rau t
Ġ' "
Ġ187 2
Ġgetr offen
ĠJes us
ĠMiner al
ĠHÃ¶ch st
ĠG h
Ġal ter
all iga
ungs gebiet
In itial
eck t
ĠPf alz
ĠHaupt bahnhof
ĠCol or
sto ffen
Schwei zer
b uf
k ommand
Ã¤ use
Ġm ech
ĠAr gentin
Ġ" );
Ġent deck
ĠÃľber nahme
ĠNe ur
ĠDorf es
urnal ist
/ >
A ktu
st ritten
sch end
Ġz iemlich
Ġn annte
ĠK Ã¼nst
ĠP ul
Ġver gessen
Ġp attern
ĠVer stÃ¤nd
Ġle gen
ĠBau er
Ġbet r
Ġher um
Ġgel ungen
Ġkon troll
haupt stadt
ĠSilber medaille
ĠBrun nen
rÃ¼st ung
umin ium
ĠF as
ĠW asch
est ern
ĠâĢ Ķ
Ġzum eist
Ġtr ocken
Ġbes ucht
ĠProf ess
use eland
ĠMÃ¤n nern
ĠDo ktor
ĠBrem er
Ġintens iv
ĠS I
Ġw hen
Ġ( ),
Ġf Ã¼hl
is en
ĠZ unÃ¤chst
ver lauf
ĠEin stellung
tel le
org an
Ġversuch en
ĠEben falls
Ġtem p
ĠPrÃ¼ fung
Ġuntersuch t
merksam keit
ĠClau d
I ter
V I
Ġd omin
ĠS qu
at ische
Ġk ennt
Ġbe en
Ã¤nger ung
ĠPol iz
ĠCo ok
ĠGraf schaft
strahl t
ĠGÃ¼n ter
Ã¼ cher
ĠE ier
ĠSch lei
Ġp assed
ĠVer dienste
ĠFest ung
Ġerrich ten
ĠMont ag
ĠÃ¤lter e
V ector
c or
Ġin ne
he dr
ation Exception
Ġent f
if ic
Ġwoll ten
ĠGott fried
igr ation
Ġlern te
C lose
K ind
m ol
Ì Ī
Ġan fangs
Ġpolit isch
ĠTok io
N odes
d ist
s ession
w h
ĠS y
Ã¼ se
ĠK un
ĠO hr
ht ml
stand s
Ġgel b
OR T
Ġ187 7
ĠMag azin
ĠGi ov
ĠSek ret
zus etzen
ĠHit ler
J ohn
n abr
Ġd on
ĠP osten
Ġzu gelassen
Ġzu kÃ¼nf
rie s
ĠAus fÃ¼hrung
En de
Ġhand elte
Ġzeit genÃ¶ss
liefer ung
ĠEreig nisse
ĠMaxim ilian
ĠNiederl anden
F L
k at
ĠF red
ĠO m
Ġbe achten
gr enz
IT Y
AC K
Gr und
komm t
Ġintegr iert
ĠKonfl ik
ugos law
G u
l iteratur
p us
Ġw eb
ĠC le
ĠSch aff
ik ationen
ĠSt au
ĠKon stanz
Ġbew usst
ĠHerr scher
---------------- ----------------
ĠSzen en
B ek
m os
st ahl
al o
Ġ5 7
ĠVers orgung
send ung
Ġerwar ten
ĠTschech ien
ĠVerbesser ung
R oman
a schen
n ischen
r eit
ich tigen
Ġin it
ĠF ans
ĠG il
Ġer o
Ġan sonsten
eb e
ĠAn sicht
Ġ- -
ĠBest er
ĠÃĦ hn
ĠDar aufhin
sw issenschaft
Ġabge st
Ġwh ich
schiff e
ĠDo ug
frei en
Tag s
nabr Ã¼ck
ĠG ymnas
ĠL inden
op Ã¤d
ĠAl kohol
Ã¤r m
Ġ6 8
ĠBei spiele
Ge org
verein igung
ĠCor por
AC E
ĠStad tr
Erster wÃ¤hnung
D ezember
E p
] )
l ach
w inkel
ĠE UR
ĠL ock
and om
ĠSt ab
ĠBr ut
Con d
ĠVers and
ĠBach elor
Ġdamal ige
Ġschwed ischen
eucht ung
ĠFrem d
ĠGelegen heit
e o
k anz
l Ã©
s aison
Ġg u
ĠDie trich
Ġ} ;
mer k
ob jekt
ĠKon zentr
Ġbes uchen
Ã¤u den
ĠReich stag
ĠPat rick
ĠKant ons
Ġspeziel le
Ä Ł
ein heiten
ĠR och
ĠCh allen
res pon
ĠEx istenz
ĠMill iarden
ĠKont akte
ĠVerl ust
frei heit
rÃ¤sent ation
Ġnorm al
Ġdest ination
ĠKath arina
M otor
O ktober
ĠF ound
Ġer geben
ir ke
ak on
erk l
lo k
up le
ire ct
sb et
Ġerreich ten
spro zess
ĠRest e
Jahrhundert s
ĠKommand o
P andemie
ĠD ollar
ĠM inder
ĠL ange
ĠR on
Ã¼n de
land schaft
ĠAb b
ĠAb d
Ġgen ieÃŁen
ĠÃľber blick
ĠKunst stoff
ĠWo od
lad ung
deutsch land
jen igen
ĠM uss
ĠP age
ber uf
ĠJ ubil
Ar t
wend ungs
Ġviel er
met hode
ĠBed arf
ĠVertrag s
ĠStad ion
Ġproduz ierte
Ġwid mete
Ġbeinhal tet
Ġm Ã¼s
ro h
ĠN am
ion ier
Ġ3 000
Ã¤r n
ĠAuf ruf
ĠGrÃ¼n en
ĠschlieÃŁ t
ĠKauf mann
ĠNaturschutz gebiet
ĠMail and
ĠEind ruck
( ...
A pril
p re
{ }
Ġ ep
ĠF alle
ĠJ Ã¤ger
ĠZ Ã¼ge
ĠGesch ichts
Ġges prochen
ĠChr isten
ĠInter pret
best and
Ġurkund lich
M e
ĠF it
Ġge lesen
ĠSt ory
Ġun bedingt
oll ow
ill y
burg h
amm ern
ma jor
ĠLie bl
fr ont
ĠFrÃ¼ hl
Ġverkauf en
ĠMathemat iker
z n
ch a
ĠT ax
he ader
Ġlie genden
ĠFil men
ĠverfÃ¼ gen
fÃ¶rm igen
Ġwirtschaft lichen
Ġpromov ierte
ĠErinner ung
ĠRaj on
V om
sch rank
Ġv oller
ĠD etail
ĠAl ben
lo ÃŁ
Str ate
ĠVor stellung
Ġdar um
Ġle ft
ĠSchw anz
RE D
Ġ188 1
Ġop tim
ĠWach stum
spann ung
N ON
i Ã³n
ĠR eh
Ġk Ã¼nd
Ġk inder
Ġge fertigt
ern ame
Ġsch m
ĠPro perty
gel Ã¤nde
sh ire
Ġ186 1
ĠRot h
Ġausgew Ã¤hlt
ĠInn sbruck
t licher
Ð ²
am burg
ĠN ight
Ġj ust
Ġlie b
ail ure
hau se
Ad apter
ĠGraf ik
wor tet
ĠgÃ¼nst ig
v oc
Ġf inde
ber atung
Ġer folgen
re uth
ĠN RW
ĠO liver
ste ck
sk ar
ĠGesch enk
Ã¶l z
ĠBl Ã¤tter
ĠFrei will
Ã¤tig te
ĠArbeit geber
Ġsol cher
Ġangeb racht
Ġbem erk
ĠLux emburg
Ġkanad ischer
Ġhil ft
Dest ination
achus etts
st immen
ur al
ĠW under
Ġer leben
ĠSch mal
ĠSt Ã¼cke
geb oren
Ġsp anischer
ges ellschaften
br onn
ĠKon kurrenz
ĠSÃ¼d west
EN D
Ġverw endete
Ġschn eller
Ġerweiter te
ĀĀĀĀ ĀĀĀĀ
Ġreduz iert
ĠendgÃ¼l tig
ĠW Ã¶rter
Ġan bie
ĠO ver
Ġsch wei
Ġj o
if iziert
Ġgr atis
ĠEx pression
ĠFreund in
ĠInf os
ĠStock holm
ĠWeib chen
K or
f u
al u
Ġi den
ĠH Ã¤
res p
man ager
ĠHier bei
Ġschwer e
valid ate
Ġtradition ellen
" :
8 00
ĠS v
al i
ĠF assung
Ġh undert
ĠN erv
ent ity
od ie
ĠBr Ã¼cken
lex ikon
arch ie
ele ge
Ġ186 2
Ġem pty
Sh ort
ĠUp date
vorsitzen der
ĠTay lor
Q U
z ut
sch ef
Ġv ia
ĠB ast
ĠD J
ĠH agen
ult an
Ġlie fern
ĠBl ues
Ġcon vert
ĠUr teil
hol en
ĠFre der
ĠFra ktion
ĠBern d
193 3
ĠRegel n
ĠSen ioren
cy cl
Vor pommern
abr iel
at her
ĠR up
ĠR ac
ĠSch reiben
Ġo s
tel n
ĠTr ier
ĠX X
kir ch
yl van
ĠRechts anwalt
ĠTem plate
mod el
ĠCarol ina
ĠAnh Ã¤nger
Fried rich
Ġangep asst
M er
t oken
ĠK G
ĠK av
ber eitet
ĠV alle
eg er
wa ffe
Ġak tive
ĠStraÃŁen bahn
) ).
T ran
z o
un nen
and eln
ĠN at
Ġaus gebaut
scha ff
ser ien
ĠAuf merksamkeit
ph y
Ċĉĉĉĉ ĉĉĉĉ
ĠRes ponse
tic ast
ĠHir sch
d h
k rank
in ing
Ã¼ re
ĠG riff
ĠE cke
ĠC olumbia
Ġst imm
os se
Ġ" '
ok ens
Str u
ĠVor bereitung
Ġstamm te
Ġfertig gestellt
ĠMun ic
ĠIntegr ation
J azz
i ftung
l uft
Ġ1 15
ĠF air
ĠP el
ĠJ ens
ab len
Ã¼l le
ĠMet ro
Ġern annte
Ġbew egen
AL L
Ġ187 3
ĠTechn ischen
Ġober halb
ĠEt hn
Ġscheiter te
B U
S ingle
W R
f rÃ¼
Ġ hr
ch ild
Ġd eb
is st
ĠJ eder
Ġge weiht
ph il
Ġgew Ã¶hn
Ã¡ r
Ġerfolg reiche
ĠIntern ets
ilom etern
ĠKÃ¼ chen
ĠAss istent
spl it
ĠÃ¤uÃŁ erst
ĠAust ausch
A ME
ð Ł
ĠB ie
ĠR olf
ĠC ru
os h
Ġr u
Ġunter gebracht
ĠOber Ã¶sterreich
Ġwel chen
ĠWest falen
ĠRep rÃ¤sentanten
ĠSystem e
Film titel
Ġkir ch
F B
V ID
c p
k ind
z ellen
an ik
ĠT en
ĠKl ang
ĠBau ch
con tent
Ġfest gelegt
Ġgest artet
Ġreg ister
ĠAmer ika
ĠCollection s
c ap
Ġd t
ĠD unk
ĠM inn
em s
ĠT an
ĠL evel
ĠEr gÃ¤n
ud a
ac y
Ġ5 9
ens is
Ġdar stellt
geben en
kl ar
ĠfÃ¼hr enden
ĠAu ge
ĠEv a
ehm igung
ĠVal id
ĠverstÃ¤r kt
ĠSmart ph
ĠHildes heim
L ex
en kt
de v
ĠIn sbesondere
ech ter
az ar
Ġ6 2
ĠFrei herr
ĠAt lan
AR T
Ġpl Ã¶tz
ĠÃ¼b lich
Ġausgew iesen
Dec imal
P L
ĠAn lass
In formation
ĠPl Ã¤ne
schie de
ond ition
198 0
198 6
ĠInnen stadt
Ġmensch lichen
ĠVerantwort ung
ynast ie
S ocket
ĠA S
ĠV ill
Ġver setzt
Ġver arbeitet
ri o
lie gt
Ċĉĉ Ċĉ
if est
att le
ĠPl attform
Ġle hn
Ġle gt
hÃ¶ fe
Ġverwend eten
ĠSchlieÃŁ lich
Â §
Ġt olle
ech er
ĠBer ech
ok ol
ĠKon stantin
Ġgesch ieht
Ġch ange
sw ert
Ġ186 5
Ġpass iert
ĠJes u
kÃ¼rz ung
N onn
P al
S aison
c omm
ĠS un
Ġin to
ĠN est
Ġzu frieden
ĠKon f
ark e
ĠJo e
gend es
ĠPar ad
alis ierte
Map per
ĠInd ividu
ĠKr one
Ã¨ s
Ġbesser e
ĠKandid aten
ĠlÃ¶ ste
Ġfeier te
ĠBened ikt
ĠB uffer
Ġin folge
Ġf inn
ĠT O
ĠL ord
um l
re b
ro y
Ġ18 15
âĢľ ),
Ã¶n t
wir ken
such t
ĠGew erbe
198 7
ĠGo ethe
Ġschwar zen
Ġallgemein en
Ġbeeinfl usst
W S
n orm
ĠS achen
ĠE N
Ġauf zu
icht lich
Ġc ap
Ġvor der
hl t
ian ischen
ĠKl eine
arr ier
lau be
Auf grund
ĠKompon enten
Option al
On line
ĠTrain ings
nap sh
o ul
s ite
st es
te in
ĠT auf
ro ck
ig ger
ĠC onn
ĠJahr buch
rÃ¤ der
ĠMar sch
Or iginal
Ġger inger
lauf en
forder ung
SC O
Ġbegr enzt
ĠHaup ts
ĠAnder e
ĠHeer es
ĠErweiter ung
it ation
Ġs yn
ĠO h
Ġver teilt
ĠEr lebnis
ĠAuf tritt
eck er
ĠSchiff s
ĠEigen tÃ¼mer
Frau en
ĠDisk ussion
ĠAuss age
sch ritt
ĠM eg
Ġm ake
ti ment
ĠW ende
Ã¶ te
ĠBer ge
Ġzwei er
Ġar ab
ĠMet al
alis ieren
ĠAt mosphÃ¤re
Ã¤te stens
ĠMy th
Ġschwed ischer
c il
ĠM es
ĠK Ã¼hl
ĠE uch
ĠW uppert
lich ten
Ġk Ã¼rz
Ġl abel
Ġl eisten
ĠIn stanz
aus o
ĠSie gen
spr achen
ĠAd mir
kehr t
ĠVerb raucher
Ġerf Ã¼llt
gebie ts
ĠCharl otte
ĠGebie ten
ĠmÃ¶ gliche
ĠRÃ¤ ume
Ġheil igen
O pen
U s
W asser
r in
an ti
em p
rÃ¤ umen
ph a
Ã¼l lung
ĠMon ats
Mit tel
Ġeinge st
193 8
ĠElektr o
ĠEuropÃ¤ ische
Ã¼st et
|| (
Ġabger issen
B rite
F S
H alb
W ill
ĠS T
ĠD own
ĠM ig
ĠP ool
Ġf rauen
ĠJ ar
ĠSt eiermark
ĠIm pl
Pro cessor
Sch n
arch itektur
193 9
Welt meisterschaften
ĠDel eg
ĠLib r
Wind ow
ein kommen
Ġw asser
ĠM ike
ĠH ot
ĠV ul
ĠSch ild
ĠMar in
ĠY oung
Ġ% .
wÃ¼r d
Ġtrans action
ĠJac ques
A gent
B eh
C C
D elete
r ischen
ĠS ession
de p
ĠP ek
ĠH T
ĠT am
ĠR Ã©
ri ver
Ġun gewÃ¶hn
gr Ã¼ndung
ĠLand rat
IN STANCE
ĠNeu es
Deutsch e
ĠRep ar
ĠÃ¼bern immt
ĠVerteid igung
Ġletzt lich
Ġphil osoph
S onst
f eier
j ust
Ġ ei
al it
Ġein heit
ĠL eich
00 00
Ġex per
ĠSchw Ã¤b
ĠGed icht
ĠAward s
ĠDokument ation
ĠGit arr
Ġerheb lich
ĠWeil er
Disk ografie
D ay
O B
T hr
l s
r ollen
È Ļ
Ġ append
ar ischer
he ater
ĠStern e
ĠNahr ung
ĠVictor ia
ĠBoch um
V ier
c us
h Ã¼tte
u an
Ġw Ã¤chst
ĠL aus
ĠJ unge
Ġex tra
ĠBew ertung
Mod ell
ĠTex as
ĠIr land
ĠViz ep
spart ei
ĠCre ek
Ġd oc
Ġm ay
ĠF els
us k
ĠC ho
Ġl anger
Ġ6 3
Ã¤d t
Ã¼l ern
jahr e
198 3
ĠVolks zÃ¤hlung
ĠHin weis
Ġwirtschaft liche
ĠEber hard
V ari
c ore
ĠB ow
Ġb undes
ĠO f
ler in
Ġvor ne
Ġunter scheidet
ĠWir d
bach er
ĠOl d
ĠJu an
Ġgewann en
ĠBischof s
ĠEing abe
K omp
N etwork
k ol
ĠF ord
ab schluss
ĠSt ief
Ġre v
Ġgef angen
ĠJugend liche
Group Layout
ĠKan al
Ġrel ev
ĠWahr heit
ĠDÃ¶r fer
ĠKonfl ikt
ĠMicro soft
w idth
ĠA ar
ĠD ick
Ġ( _
ĠR ow
ĠR eiter
ĠSch Ã¤den
Ġl ive
ĠVer handlungen
Ġwar ten
ĠEin er
19 70
Ġ6 6
dem okrat
ym met
An not
ĠWest ern
out put
deck e
ĠKont in
Ġdire kten
VerÃ¶ffentlich ungen
C I
K lass
o zi
z ant
sch el
ĠK ok
ĠH Ã¼
ĠH arr
ĠR ats
ul iert
ĠAn trieb
enn zeichnet
pro p
Un ser
deut scher
Ġ186 3
wÃ¼r fe
ĠRegierungs bezirk
ĠÃĦr zte
national spieler
ĠAstr onom
ĠNap ole
Ġausreich end
H il
b ist
g Ã¤ng
w ein
Ġm achten
ĠSt ol
od a
ib l
hen den
Ġso fern
Ġthe oret
ĠBrun o
Ġ{} ",
ĠUnabhÃ¤ng igkeit
C ell
S ing
S ymbol
l igen
s inn
Ġ achten
sch ungs
it iv
ĠF res
Ġg lob
ĠAus wirkungen
len z
Ġsow eit
ian s
spr uchs
ĠSta ates
zw ungen
ĠBet on
ĠÃĦ m
ĠFel der
Ġprak tisch
ĠNS DAP
R C
d oc
l abel
y b
Ã¶ tt
Ġk ompon
ik i
Ġver lei
Ġaus geschlossen
id es
ĠAus gaben
Ġ9 9
fahr ens
ĠWohn haus
Ġanerk annt
ĠsÃ¤m tliche
PersÃ¶n lichkeiten
Nonn ull
L uft
N icht
Q UE
d om
č ĊĠĠĠĠĠĠĠĠ
Ġw omit
ĠD efinition
ĠT ipps
Ġk Ã¤mpf
Ġdes selben
ot os
ĠÃ¼ber all
amm elt
ire ktion
gesch lecht
Pro jekt
org ungs
eid ung
ĠRo se
Ġhier fÃ¼r
ĠRe ad
ĠCon rad
ĠSÃ¼d afrika
Ġbel iebt
ĠWohn ungs
198 8
Ġjeder zeit
Final e
ĠRumÃ¤n ien
ĠbeschÃ¤d igt
ĠHolly wood
Z wei
f ass
ĠK oll
ĠK orn
ĠT ick
ĠL okal
ĠN assau
rau ff
ĠGesch windigkeit
Ġex pression
pro blem
eck ar
Ġgesch lagen
Ġstatt dessen
ĠNorm al
Ġschaff te
b il
x id
z ert
on te
it alien
ĠM B
Ġp ers
ĠEr m
ĠSp e
Pro p
ĠBl ue
amer a
ĠMin i
Ġger iet
ĠHoch stift
ĠÃĸsterreich ischen
198 4
Sec urity
. ",
as sten
ĠK Z
urn e
Ġlie ben
buch autor
schul d
Ġ186 9
ĠOs nabrÃ¼ck
ĠErw Ã¤hnung
Ġprof it
L AN
z usammen
Ġm ore
ĠT Ã¤tig
ĠJ Ã¼n
Ġr ies
ĠGesch lecht
eig ung
ĠSpr int
sta ates
uld a
ĠnatÃ¼r lichen
Ġmittler e
No tification
Ass ign
Ġerlang te
M ENT
ab or
ex ception
gr Ã¤
Ġnoch mals
Ġges agt
ĠHand y
ĠCon c
ommer ziel
ĠSk la
Ġinform iert
ĠEns emble
b art
ber s
ĠN i
Ġst rate
eu ern
iv als
ĠBer ater
Ġ5 8
stan ces
ĠTh or
ĠPar allel
Ġerf Ã¼llen
ĠpreuÃŁ ischer
If c
Ehr ungen
S am
r iger
Ġf ree
ĠR ober
rei ft
Ġj en
Ġ18 40
ho fer
ant es
ĠVor trag
Ġbef est
ĠzurÃ¼ck gegeben
Ġur i
Ġverm eiden
di mension
ĠGal ax
ĠDek or
TI ME
G ET
R ock
ĠB in
ĠW S
ĠL orenz
Ġh aus
ĠAus stellungen
sh ow
olle yball
ĠBet reiber
Ġger ingen
ĠSe gel
ĠKat alog
Ġbez ogen
ĠSied lungs
ĠBeam ten
ĠGiov anni
ylvan ia
G H
P A
m d
Ġm Ã¤ch
ro ad
ĠN ie
ot herapie
ĠAn k
iss ing
Ġeh emals
red icate
ĠMittel meer
Ġfrei will
ĠBern ard
ĠRein hard
ĠbenÃ¶ tigen
Ġhol te
Ġoption al
ĠnÃ¶ tig
B aden
ĠP in
Ġf unction
ĠT ol
ĠT unnel
Ġp oten
Ġber aten
Ġwieder holt
Ġall eine
198 5
ĠGold medaille
ĠMotor rad
Med ia
Ġjapan ische
hor st
Contr oller
Ġarch Ã¤
ĠPeters burg
ĠPubl ish
ĠBeteil igung
B O
o e
ĠA ccess
Ġn Ã¤chst
ĠP ho
ĠR eit
ĠR av
ber ater
ĠC ur
Ġge pf
Ġauf gel
ers dorf
19 20
gesch Ã¼tz
ĠTre ffer
ĠRest aur
ĠSam uel
fÃ¶rm ige
entry Set
ei be
ĠG abriel
ĠW inkel
ĠC ann
Ġk ost
ĠZ ell
lem ens
aler weise
ĠNahr ungs
c onnection
ã Ĥ
Ġd ocument
un ken
st ar
et tet
tr ace
Ġer mord
Ġver an
ic z
get T
ĠPl at
ren ce
ĠDurch fÃ¼hrung
ĠKreis es
Ġevangel ischen
ĠLOG GER
verstÃ¤nd lich
b uilder
l at
m ain
o ÃŁ
ĠS atell
ur er
ĠW ater
ĠL ED
Ġum gesetzt
zen s
du ktion
off s
zahl ung
ĠChrist op
ĠSchul z
ĠInd ust
Ġro ten
ĠRep ort
ĠerklÃ¤r en
ĠKol onial
Gener al
Z entr
ĠS ed
ĠA cht
ĠM ans
ĠF ast
Ġst ra
os ite
Ã¤n omen
19 14
ĠY or
ĠSchm uck
ĠDir igent
frist ig
urren cy
B es
d rom
g f
k es
p rÃ¤sidenten
ĠE valu
ĠH arry
ist ics
Ġp rÃ¼
ĠEin kommen
ĠAl so
ĠJugend lichen
ĠMor itz
ĠErn Ã¤hrung
ompl et
Ġmeisten s
omet rie
ĠJahrzehn ten
ĠRett ungs
g Ã¤
Â ®
en hagen
an alyse
ĠF an
ĠP ader
Ġauf merksam
Ġl agen
Ã¤n zer
Ġa ct
ĠTr ink
Ġben utz
Ġben annte
Ein wohner
ĠKrieg sende
film ung
ĠTre e
ĠkÃ¶nn t
Dat abase
inc ipal
ĠMerk male
ĠHum an
dor ff
roat ien
elemen te
ĠVirg inia
S ol
d lich
e get
ĠA le
ĠB ielefeld
Ã¤n glich
Ġc onn
uf er
Con verter
ĠDien ste
ĠÃĦgyp ten
3 00
< ='\
> ='\
R un
a wa
k ette
Ġ tim
ĠS he
ar isch
ĠB ald
em m
ier endes
ul er
enn bar
fÃ¼hr ungen
ĠUm satz
wa ffen
bo ot
Ã¡ s
Ġgef Ã¶rdert
dienst kreuz
ĠTim es
Ġpoln ischer
ĠEvangel ischen
Ġkauf te
Ġlehr te
ĠAbstra ct
r ufen
ĠS E
ĠB atter
and s
ist et
ĠIn schrift
ĠPro test
Er n
Ġat om
ĠEle ctr
ĠBef est
ĠSyn ag
gesp ielt
GV Bl
g le
w id
Ġs ur
Ġv ol
ĠD un
ĠR E
ach ing
ĠN ar
ion e
ir chen
ad i
ĠAl len
ĠAl uminium
form ed
Ġel eg
Ġ7 00
ĠGeb Ã¤udes
Ġbew eg
ĠDienst leistungen
Ġus ed
beg inn
ĠSign al
S uper
U UID
ĠD efault
ĠW omen
tr ieben
ĠZ DF
ĠEr klÃ¤rung
lin ik
20 21
ĠMar io
Ġbef anden
iet z
ĠChr on
ĠFre unden
ĠFranz osen
ĠBi ographie
197 5
ĠStat istik
ĠKÃ¼nst lern
F ach
c all
r us
sch Ã¼tzen
ĠV i
ĠO d
Ġbei der
Ġ7 2
man ischen
Ġverl ang
ĠDon nerstag
Ġfort an
ĠAnti ke
Ġbekannte sten
Cl uster
ĠtÃ¼rk ischen
ĠBesatz ung
ĠPremier minister
ĠAufent halt
Ġstellvertreten der
tw och
C ommerce
H C
P re
Ġ ).
ĠG lock
ĠW ick
Ġge liefert
ĠZeit schriften
sk irche
Ġ9 5
olog ical
ĠQu ell
ĠSte u
gef angen
ĠHÃ¶he punkt
ĠHalb insel
ĠKop enhagen
ĠabhÃ¤ng ig
n ur
is burg
ĠH op
ĠH Ã¤nd
ĠL ight
Ġt ot
ĠVer sch
Ã¤l ter
Ġle vel
Ġwichtig ste
Ġbild eten
ĠCom ic
ĠFÃ¤l le
Ġumfang reiche
Ġhochwer tige
ĠGreg or
Nov ember
N orm
b old
m ech
ĠB ang
ĠM ov
ĠM alt
us ste
ĠC reate
ĠAn aly
ran ts
ĠAr me
up pe
ack e
Con sumer
ĠEx pl
ĠAt trib
Ġhei ÃŁen
schau en
abil itÃ¤t
ĠGet rÃ¤n
Ġleich ter
stÃ¤r ke
ĠHauptr olle
) -
h ar
on line
ich e
ĠP last
Ġvor genommen
ho ven
ĠAb stieg
ant on
inder ung
ĠNord amerika
Ġbr ach
Tra iner
ĠRis iko
ilen ame
ĠBeweg ungs
Ġmaxim ale
ĠFÃ¤h igkeiten
Ġstru ktur
B ay
Ã¤ fer
ĠG Ã¶r
Ġh off
Ġh eight
Ġge kauft
ĠZ e
ver gleich
end ing
ĠPro tocolMarshaller
St a
Ġbest immen
Ġmehr mals
gl as
man uel
Ġgel ingt
ĠUniversitÃ¤t s
Ġte le
ias ieger
197 9
ĠVerl Ã¤ngerung
ĠJur y
ĠÃ¤hn liche
Ġklass ische
ĠBaum w
aliforn ia
ĠSchwar zen
ĠAltern ative
(... )");
B E
ĠS her
Ġge laden
zw ald
ĠMan uel
ĠSpr ing
ÃŃ o
ĠBel ast
ĠMot to
Kirchen gebÃ¤ude
el be
ĠM asse
em er
ĠK ie
ĠG Ã¼
ĠG allen
re ste
and o
ic it
Ã¤tz ung
spro gramm
Ġposit ive
Lin ie
Ġchrist lichen
F ra
j amin
ĠSch Ã¤d
ĠSpiel film
ĠEurop e
ĠBerg bau
zentr ums
Ġstar tet
A U
G ymnasium
O ne
S ION
s ylvania
ĠS iz
ĠS ehenswÃ¼rdigkeiten
Ġf Ã¶rdern
le un
ĠC ob
ĠAn st
op ter
pl es
ĠAb lauf
Ġ6 7
ĠTr ennung
ĠKat zen
ĠGot ha
ĠRen aissance
? ?
P C
g ast
w eb
em eister
ĠP av
ĠE sp
ĠMit arbeitern
ack t
ĠSa arb
ĠTer ritor
ĠTyp s
ĠnatÃ¼r liche
UN G
system e
Ġerinn ern
ĠverlÃ¤nger t
F OL
J e
M Ã¶
P lay
in ternal
sch war
Ã¼ sten
Ġs ql
ĠV ector
Ġh om
Ġl it
Ġum stritten
lo gen
pf alz
ĠHand lungs
ĠMill imeter
Ġak zep
ĠWie sen
ĠKirchen gemeinde
ĠWor ksh
ĠEng ine
pol izei
Ã¶pf e
athl on
ĠPreuÃŁ ischen
ĠRos a
p unkten
er d
Ġb ad
Ġb Ã¼rger
ĠL ow
ĠR auch
ra c
ĠO hne
Ġver haf
ov ed
Ã¤uf e
anis mus
Ġindividu ell
ĠAsp ekte
ĠstÃ¤d tischen
F rÃ¼
O ff
h y
p ern
ĠS ech
ĠF inger
ĠE ver
ĠJ Ã¶rg
Ġk re
Ġsich ern
19 28
ĠIm mer
ens ure
ĠKn ochen
bez eichnung
ĠKur fÃ¼rst
Ġged reht
Ġstaat lichen
ĠDemokrat ischen
Po inter
ĠVik tor
W el
Ċ ĠĠĠĠĠĠ
ĠM eld
ĠM Ã¼hle
ĠK im
ten nis
ger t
Ã¶n e
ohn e
ĠWohn ungen
com pare
ĠverÃ¶ffentlich ten
Hand le
spart ner
n isch
} .
Ã¼ ÃŁ
ĠH ead
ĠC H
ag ing
ĠVer st
ĉĉ ĉ
ert ungen
ĠSp ecial
ĠPl us
An fang
Sch l
ĠBew erb
ĠNe useeland
ĠRed aktion
ĠEt appe
stehen den
Ġcall back
Ġpassen de
ĠJack son
ĠÃľberg ang
f amilien
s orge
s ql
ĠK Ã¼r
Ġh ef
ĠVer leihung
etz e
ĠSp ark
ĠAb satz
ac ity
ip edia
Ġbest ehend
Pro f
Ġ8 8
Ġ13 0
ĠBad minton
Ġ184 9
ĠĠĠĠĠĠ ĉĉĉĉ
Ġnieder lÃ¤ndischen
fir ma
! âĢľ
C OL
W rite
Ġs eiten
ĠD al
ĠT ank
Ġg aben
tel finale
Die s
Ã¤hr en
los igkeit
ĠSchw ein
ĠSh ort
lan zen
Ġhand ler
ĠBot schaft
Ġengag ierte
ĠSchwier igkeiten
; ;
f ranken
v ey
Ġein erseits
ĠG or
ĠG od
Ġf lex
ti ker
ach se
Ġent worfen
ho ut
ĠMar co
per iode
Sch utz
Ġfest ge
ĠViel falt
Ġbedeuten de
ĠVerband s
Ãĸsterreich er
ĠFranÃ§ ois
ĠMÃ¤nn chen
ĠS yd
ĠD ass
ĠE i
ĠN et
Ġt oll
ĠSt or
pf lanzen
ens ive
Ġaktu elles
ĠWeiter hin
Ġ185 7
Ġfinanz iellen
ĠEro tik
ontinu ier
W e
b ieren
g in
ã ĥ
Ġd ynam
ei ra
ein richtung
ĠH ung
ro hr
iel ler
Ġl ook
ho use
ĠGem ark
Ġseit her
str eit
Ġgesch ickt
Gener ator
Ġged acht
Ġdeb Ã¼
C onn
c an
l it
ĠS om
el y
ĠH Ã¶l
tr olle
ĠV alue
eb au
Ġst op
Ġr umÃ¤n
iz ist
Ġlie be
Ġpro tected
legen heiten
part ei
ĠMinister ium
ĠMinister prÃ¤sident
ĠeuropÃ¤ ische
Eis hockey
ĠThr on
offiz ier
J vm
S ER
c at
l is
r ische
r ise
Ġm orgen
Ġf u
ti us
Ġver grÃ¶ÃŁ
ok u
Ġander erseits
ĠAd vent
ĠWerk zeug
ĠKo alition
ĠunterstÃ¼tz te
ĠFlor a
ĠbeschÃ¤f tigte
Ġrest aur
Bound s
Ġdenk mal
Sep tember
at iver
ĠA ur
ĠD ein
am ing
Ġm ex
re ck
ion al
Ġsie gte
param eter
Ġ6 1
ĠQu ery
ĠfrÃ¼ here
ĠOst preuÃŁen
des ign
zy linder
beh Ã¶rde
Ġpassen den
Fernseh film
Rezep tion
L uther
M D
U l
sch reibung
Ã¤ uÃŁ
is m
om ie
Ġk rÃ¤f
19 30
Ġab w
St orage
ĠDeutsch es
Ġ7 1
Sch iff
Ġch ron
ĠWohn zimmer
ĠAmer ica
Item s
ĠBahnhof s
ĠmilitÃ¤r ischen
R ennen
ĠA z
ed el
ĠPro ject
Ã¼hr t
Ġbet reibt
str asse
ĠBe at
war f
lau ch
Ġeinge laden
Ġstell ten
ĠJournal isten
fried hof
mut able
Ċĉĉĉĉĉĉ ĉ
ĠWes entlichen
nehm ern
ĠMÃ¤r chen
ĠRuh estand
D o
z ucht
Ã ī
Ġin tern
Ġn a
ĠH ex
ĠT iefe
Ġt our
ic i
ĠIn c
get F
19 26
qu ote
rich tet
Ver w
Ġausge strahlt
ĠÃ¼b lichen
Ġschwar ze
ĠJe ff
Ġrei ste
ĠKab inett
spez if
ĠOpp osition
D am
I hr
P aul
u v
á ¸
Ġd b
un en
Ã¼ ÃŁe
ĠH allen
ĠC alifornia
Ġzu verlÃ¤ss
urn ee
ĠSp ren
bar ung
Ġdar stellen
kl assen
Id x
Ġ14 0
ĠBi ografie
ĠCor ps
leist ungs
ĠWal es
ĠAud io
Ġabgeb rochen
a int
h ut
es er
ĠC ent
Ġp ut
get Resource
ĠBr Ã¼ssel
mit tag
Ġat tributes
ĠFach werk
ĠGeneral major
Ġgelang te
stud ien
ĠRob in
ĠKult urg
Ġfehl t
sup ported
ĠVerstÃ¤nd nis
M I
h ammer
Ġein gebaut
ĠE y
ĠH amm
ĠW ay
ab on
ĠO bst
Ġbei gesetzt
get X
Ġj ener
19 10
ĠAb wehr
ĠFl ach
ĠSpiel s
ĠLandkreis es
ĠÃĸsterreich s
ĠSti pend
ĠSol o
ĠChamp ions
ĠMul ticast
Ġinform ieren
ĠReform ation
z Ã¼g
ĠW itt
Ġh Ã¤ngt
ĠN ich
ĠJ ord
ig ation
ĠIn haber
ĠAn meldung
Ã¤t t
Ġbest ellen
ĠKon serv
sb es
Ġth an
ĠAk k
ement s
ĠBef rei
ĠVoraus setzungen
ĠSum me
i op
t ax
is er
ĠT ap
ĠL uther
ĠR oland
ow itz
id d
ĠNeu er
ĠPr int
ĠGew inner
ĠZwei te
ĠTre ff
ĠPrÃ¤ fekt
Per mission
ĠHu bert
ĠjÃ¼d ische
ĠKer amik
ĠJed och
F ranzÃ¶s
H S
I st
s st
Ġs im
ĠA cker
ier bar
ĠSch Ã¼lern
id ad
Ġum gew
br ig
ĠFran ces
ett a
ĠSpiel klasse
Ã¶s ser
ond a
ĠTr end
ĠMo z
Ġbeh err
Ġbez iehen
ĠPublik ationen
ĠRÃ¶ mer
ĠÃ¶rt lichen
L ehr
M G
h arm
or er
ĠB urn
ĠH arm
tr Ã¤ch
ĠV II
ĠC arr
ĠCh urch
Er zeugt
zeu ger
Ġhin sichtlich
ĠStud ies
ĠÃ¶ k
Ġgest orben
Ġvertr ieben
ĠPhys iker
ĠZuf luss
ĠExempl are
ĠberÃ¼cks ichtigt
Ã¤cht nis
C olle
H O
N ummer
n ord
s rc
Ã ¦
Ġd ella
at isch
ich en
ĠA qu
ĠK alender
ĠF ont
ĠP ac
ĠI ran
Ġge ograph
Ġge Ã¶ffnet
Ġl Ã¤nd
ĠMit twoch
ĠIhr es
Ġeigen tlichen
Ġch annel
ĠAut os
Ch Ã¢teau
Ġcon tr
Ġkon serv
Ġschn elle
Ġkosten lose
kn Ã¼pf
Ã¤chs ische
Ġresource GroupName
kathol ische
Ġerziel en
Ġperson en
ĠStaatsb Ã¼rger
R S
m utter
ir a
ĠAn wendungen
aus geber
Ġent decken
Ġher e
ĠPr ince
Ġverb inden
oss a
sol v
ÃŃ k
Ġgut es
198 2
Ġaufge geben
Argument s
ĠMot oren
ĠstÃ¤r k
X base
b org
i y
w ur
in th
ĠM iet
ĠR ied
Ġver g
Ġo pen
Ġr ange
ĠBer gen
if er
Ġen ger
ĠRo ger
Ã¤tig ung
ask a
wirtschaft s
bÃ¼ ro
End point
Names pace
ĠHigh way
lieder ung
Ġverh indert
ĠPast or
b le
i ologie
r ath
st het
ĠK ell
Ġf f
ĠH Ã¤nde
ĠW itten
ber ge
19 78
ste ckt
Ġber u
Ġ16 0
stand es
ĠFor ce
ĠSpr ung
194 4
ĠGrÃ¼n de
itu ationen
Ġspeziel len
Ġpoln ische
ĠEich en
Ġausgeb ildet
ĠFass ade
H tml
m Ã¤nn
n acht
s ort
t ot
or chester
Ġs itzen
ĠA ct
Ġz ogen
ĠG ep
ĠH altung
ĠR eu
ĠC af
Ġan grenzen
ra ck
ĠO skar
ist a
ĠCh ines
Ã¤hr ungs
ou v
Ġzusammen gef
Ġbesch loss
ĠCor on
Welt meister
Ġregion alen
ĠSym ph
ĠKonzer te
ĠBundesver dienstkreuz
F uÃŁ
F ER
s d
Ġ ord
Ġin kl
ĠK ai
ĠF ame
ĠZ iegel
wei chen
og a
Ġres p
ĠChr is
tif y
ĠPer g
Ġentwick elten
ĠKin os
ĠBon us
VAL ID
ĠÃ¼bergeben en
rauff Ã¼hrung
P at
R et
Ġd oppel
ĠB erk
ĠF ire
ĠG rim
lin ois
iv es
ĠBer at
ill es
Ġ0 1
Ã© d
stit u
ativ es
ĠLehr stuhl
OR D
ĠMill ion
AN D
ĠKind heit
ĠKu gel
ĠCentr e
Ġm obil
ĠF okus
ĠL ittle
ĠAr g
schl Ã¼sse
sport ler
čĊ čĊĉ
let on
TER N
Ġgepl anten
ĠTir ol
Ġdiver sen
cycl op
f Ã¶rderung
h eben
i pe
ol en
ĠE mer
ĠH Ã¤usern
ĠC ass
ĠSch atz
ĠU til
Ġst il
oc us
ĠStadt gebiet
ĠMen gen
tik eln
Ġbesonder er
ĠÃ¶ff nen
ĠHerzog tum
ĠPosition en
ĠDek an
ced es
ĠSauer stoff
G ef
b Ã¤
Ã¤ le
ĠD ahl
hr ingen
ĠG ross
ĠH els
ĠZ war
ute te
ator in
Ġ% )
Ã¶m m
Ġ185 6
sprach ige
ĠVerteid igungs
ĠOk res
pfl anz
ĠPader born
ĠdebÃ¼ tierte
m essen
er ing
or i
ĠB usch
de pen
Ġf ailed
om os
ĠN utzen
ĠN HL
ub a
ĠSp enden
ĠÃ¼ber zeugt
unk er
ĠPart ie
figur en
iction ary
ĠInner en
BÃ¼rger meister
Ġausdr Ã¼cklich
ĠSchott land
L aut
p il
s em
st eile
at io
ĠB enn
ĠP okal
19 22
Ġlie ber
bo urg
At tr
hÃ¶ hung
Verein igtes
ĠFreund schaft
ĠFinn land
L P
P ers
P AT
sch Ã¤d
ĠA TP
ti le
Ġauf s
Ġl eiten
Ġp df
ĠIn putStream
Ã¶r te
ĠKon text
Ġber ichtete
ingen d
ĠEl iz
Ġwei ÃŁe
klÃ¤r t
ĠBel ager
197 4
ĠZust immung
ĠMass achusetts
Ġindividu ellen
loc al
ĠIdent itÃ¤t
ĠZub ehÃ¶r
C LASS
p age
Ġsch ul
In f
qu ellen
ĠGr ill
ĠSo ft
ĠOber liga
Ġern st
trÃ¤ glich
rim inal
Ã¤ss ern
Ġ180 6
ĠTel ek
ĠSing les
ĠStil l
ĠDok umente
Ġexp ected
ĠBrau erei
JÃ¤hr ige
Mart in
D ivision
D okument
H ans
S en
S til
h lich
Ġ ul
st iftung
ge stellten
Ġn utzt
ĠT Ã¤ter
ĠU d
rie den
St ad
Ġkon f
Ġbez Ã¼glich
ĠStim m
ĠverfÃ¼ gte
kathol ischen
ĠHan se
ĠApp le
ĠPersÃ¶n lichkeiten
Stack Trace
U C
n Ã¼tz
or ter
em pty
ti als
ĠW ellen
ĠN umber
Ġk Ã¼nst
ĠSch enk
ind el
Ã¤l le
sh ut
ĠGem Ã¼se
ĠSchul d
ĠHeide gger
ĠRess ourcen
B ig
F ebruar
b lau
p rev
Ġw Ã¤ren
ĠB od
ĠK abel
ĠP ot
is hed
Ġ18 13
fahr ung
Ġ8 2
ĠauÃŁer gewÃ¶hn
Ġinter pret
ĠParis er
leist et
ĠCorn el
franzÃ¶s isch
Ġverhaf tet
as ks
Ġin vest
ĠW esen
ĠV eg
wei he
ĠStr ei
auf lÃ¶sung
Ġpro ject
Ġgen auso
hand elt
197 6
Ã¼rz te
ĠForsch ungen
Ġschwier ig
ĠWuppert al
A rea
R ender
S l
f ache
s Ã¼d
ĠS yr
it ive
Ġb ound
ab schnitt
ĠC ontainer
Ġk ontinuier
Ġg ra
ĠĊ ĊĠ
An gabe
Ġ7 6
Ġdrei mal
Sp ace
Ġ185 8
ĠTem p
PRO PER
Ġoff ens
Ġprev ious
ĠGemeinder at
Ġbrau chen
ĠSekret Ã¤r
S erv
e ep
v ens
ĠB ul
ĠW id
Ġh l
Ġp rivat
19 19
pr esse
Ġ6 9
pro perties
List en
aut om
Ġger inge
neh mung
Ġkon stru
Ġinner en
ose x
Ġy ou
196 9
ĠHen ri
Ġbem Ã¼
Ã¤rt ner
Ġehren amt
M ein
M ont
P rÃ¼
g ard
k k
r Ã¶
st einen
ehr en
verb Ã¤nde
rÃ¤siden tschaft
ĠCo ver
Ġx ml
Ġ185 4
ĠGesetz es
kan al
ĠHoff nung
adel ph
ĠGrÃ¤ fin
ĠDiff eren
19 50
19 11
qu ert
Ġvor kommen
rit iken
Ġeinge gliedert
con s
198 1
ĠAu ft
ĠAndre w
Sel ect
ĠLink ed
ĠArchÃ¤ ologie
ĠDoug las
voc ation
: "
S eite
Ä Ļ
ĠI tem
Ġver folgt
19 24
ĠVor stellungen
fl Ã¼sse
ax ophon
ĠJul ia
Ġtran spor
rue ft
A lex
F low
Ġ 00
au ben
Ġm ain
ĠK ompl
ĠL ichten
ĠR iv
ĠDie sel
Ġr Ã¤um
eich nungen
ĠEr be
eil ung
ĠSp ar
qu is
ĠEn kel
Ch ain
ĠBet racht
hol ung
Ġzahl en
Ġ185 2
ĠMc C
ĠViertel finale
Ġstaat liche
Ġvalid ate
Ġbestell t
Ġbequ em
o ÃŁen
v org
w ahr
st u
an ts
ĠT able
Ġk ommerziel
ĠZ ut
id sch
pl Ã¤tzen
par ks
Ġ0 4
br Ã¼ck
fahr zeuge
Ver b
Ġnun mehr
ĠKo hle
UN D
Ġhinzu gefÃ¼gt
LO C
ĠDigit al
ĠNomin ierung
ĠArgentin ien
E hren
M a
o ti
ge mÃ¤ÃŁ
ĠB anken
ĠP y
ĠE b
ra ct
ĠJahr gang
ĠEr mitt
ak tive
ek tive
Ġis rael
ĠGer a
ĠAk te
ograf ische
Ã¶st lichen
ĠHar ald
M erk
N E
P op
R eich
R hein
m Ã¤r
st etten
ĠB ulgar
le ft
ĠN ep
Ġk ar
Ġg raph
Ġver zeichnet
ĠU we
sp ital
19 13
Ġex pr
tor hÃ¼ter
ĠProdu kten
ĠHaus halts
ĠRÃ¼ck tritt
ĠMag n
Ġ185 9
ĠBro t
plan ung
Ġinteress iert
Ġloc ale
Ġgaran tiert
Ġleist ungs
o use
en ces
an ier
ĠS A
ar c
ĠN oten
Ġ18 14
amm lungen
ata illon
ĠAd ministr
ĠChr onik
sol e
Ġerreich bar
ĠDr amat
ĠFlor ida
Ġland es
Ġanti ken
exp ected
m all
Ġv ierte
ĠF eier
Ġf Ã¤hrt
re al
eh er
ĠAn satz
Ġ18 20
ĠLu zern
tik a
Sie ger
ĠKomm andeur
Ġverst eht
kn own
Ġevangel ische
ĠAnw alt
Ġforder te
ĠSoph ie
Franz ose
ĠAndr Ã©
B und
o ter
v ideo
ĠS K
ĠS amen
it as
ĠG on
ĠP ak
Ġan notation
19 29
Ġtr ee
ahl en
ĠMus ical
ĠGew Ã¤sser
++ ]
fel de
ĠAndre a
Ġindividu elle
ĠTemperatur en
hentic ation
Hinter grund
E v
H or
ĠM ei
den kt
ĠV orm
Ġ" .
ĠAus schuss
reich es
az itÃ¤t
mit ive
isten ce
Ġfest gestellt
ĠRep ubl
ĠAll gemeine
ĠBen jamin
Des c
AS K
Ġkompl ette
ĠStruktur en
angeb ote
ĠBetreu ung
( !
K ur
b ury
c ache
f ailed
st ufen
al teten
ĠB uck
am o
se h
Ġver dien
19 25
Ġu kra
Ġak adem
geord nete
ĠWinter spiele
ĠVeranst altungs
Ġgek ennzeichnet
ĠAbt ei
! =
R eihe
V A
Ġi gnor
ĠF ron
Ġer leich
Ġer for
ĠV inc
ĠN az
ĠC our
ed s
tion en
og ramm
ĠSpiel ern
ĠBau ten
mar ken
Ġgeb unden
ĠSitz e
ĠComm and
agn ose
lad imir
ĠPrinz essin
ĠEh emann
B ern
r d
ĠM eine
um a
id ak
her stellung
Ġre d
mit tler
Ã¶l be
ĠBo oks
ĠEx p
chn ik
Ġgem Ã¼t
193 4
Ġbed ient
ĠSand stein
ĠZeich nungen
ĠVort eile
O W
T or
b ayern
h ten
t Ã©
ĠA kt
ĠM aus
ra hmen
ien ce
og o
19 60
Ġunter schieden
enn er
ho se
ĠCh a
ĠFl otte
ĠGesch w
ade d
rÃ¤s id
ĠGo od
ĠZahl ungs
dent ity
eta ill
ĊĠĠĠĠĠĠĠĠĠĠĠĠĠĠĠĠĠĠĠĠĠĠĠĠĠĠĠĠĠĠĠĠĠĠĠĠĠĠĠĠ ĠĠĠ
Dep enden
Ġsowjet ischen
K rieg
L ower
en ke
an ter
on omen
Ġs ens
ĠM atch
ic us
ĠPro perties
Ġunter lag
af eln
ĠSchw imm
ied s
ink i
zahl t
ĠLei b
ĠOlymp ia
aff e
ĠCap t
Ġsorg te
ĠProz esse
Ġbegeist ert
I hre
R F
R equ
ein satz
ĠG reif
ĠH at
ach el
ĠC ock
ul in
ĠSch Ã¼tzen
ĠZ eile
Ġt iefer
ran ten
Ġvor Ã¼ber
ren ten
ĠFor scher
ins eln
ĠGel ehr
ÅĤ aw
kriegs zeit
ĠOrchest ra
opÃ¤d ie
ĠPek ing
adelph ia
H om
N etz
O M
j ection
Ġb ody
ĠD ecken
ĠV ieh
Ġauf w
Ã¤l dern
ev or
Ã¼t tel
ĠBundes regierung
Ġverb lieben
Ġ185 5
197 1
current Time
Ġdire kte
ĠCO VID
ĠCast le
ĠSemin ar
napsh ot
L INE
S im
s ieg
ĠB Ã¤r
ĠD ocument
Ġein gemein
ĠL av
ĠV ogt
ir en
ra ÃŁe
ad ier
ĠU E
sp ark
Ġun it
19 12
los er
ĠGest alt
ĠGÃ¶ t
Ġherv orge
Ġvers orgt
ĠEro ber
ĠFranzÃ¶s isch
Ġexper imen
F amilien
G egen
c ontainer
f al
f rauen
l och
r n
Ġder selben
Ġv irt
Ġ1 17
Ġau th
ĠO berg
Ġ" ";
ĠString Buffer
ĠSte ink
Ġbew egt
ĠGu ide
193 6
ĠDis ney
wÃ¤r tigen
Ġbevor zu
Ġentst amm
ĠErwachsen en
Sow jet
m i
w enn
in ische
it iert
ĠB arn
ĠL eh
ĠI ron
ab ilit
Ġan ger
Ġr aus
ĠSp er
ĠEin tr
Ã¤t tern
Ġgew id
ĠSte phen
ĠOber bÃ¼rgermeister
ĠNeu zeit
ĠBet roffen
ĠWil son
Ġaufge hoben
Group s
ĠAp othe
di ent
Ġwissenschaft licher
================ ================
ĠHig hl
ĠBam berg
A f
A ber
ĠD ritte
ĠK und
ĠO ran
Ġver standen
ĠÃ¼ber zeugen
av irus
ant ast
Un garn
stra te
ĠPar tien
Sp ecif
ĠDes igner
US A
ĠGu y
Ġoft mals
Event s
Ġoffen e
FI X
CON T
ĠprÃ¤sen tieren
ĠVorder grund
FOL LOW
E lem
T schech
a al
r ichtete
ĠR ÃŃo
ad bach
ĠZ eilen
ĠVer leger
ph abet
ĠKon ferenz
Ġerfolg ten
ĠPat ri
196 7
Arch itektur
ĠHash Set
Bundes liga
Ġnied riger
PT ION
T F
l Ã¤ndern
Ñ ĥ
au ft
Ġs um
ĠD oc
ĠE con
ĠJ im
ĠJ Ã¼d
ben e
tem p
(" /
gl eis
Ġgew isse
En coding
Er stellt
schl Ã¼ssel
Ġar gentin
Ġra sch
lehn ung
Top ic
ĠB ut
et sch
Ġm ath
ĠH ut
esch ichte
op ol
ĠEr ic
ĠEr hebung
ĠCh am
ĠFl Ã¼ss
sk Ã½
pro fil
spr icht
Sch we
ĠQu ar
inder ten
Ġres ults
ĠMag az
ĠSÃ¼ ÃŁ
197 7
ĠÃ¤uÃŁ er
Ġerr ichteten
') ||(
ĠNav y
verteid iger
D enk
D ienst
P okal
an ch
Ġs auber
ĠN ad
ĠEn zy
pro zess
ĠBo hr
ĠNord west
ĠHaus halt
ĠPer formance
itu de
emat ik
Ġnie mand
Med ien
ĠFinanz ierung
ĠSÃ¤ ulen
ĠSter nen
Ġfung ierte
Abst ract
V ideo
d ichte
l inger
un ks
st unden
ich tige
ĠK ein
ĠG ard
ĠL iss
ĠL ook
se kten
ver Ã¶ffentlich
Ġ5 000
ĠPl Ã¤nen
Ġ9 00
ĠÃľber leben
kehr en
197 3
Lo ad
ĠErk enntnis
ĠRh yth
ĠBrau t
ĠMonument s
ĠTats ache
ĠBestell ung
" -
st urm
Ġm erk
Ġge arbeitet
Ġt ut
Ġst yle
ĠAn bau
nen nung
ĠCh ancen
Sch war
ĠÃľber setzer
ron en
ĠMed ik
Ġgest ern
ĠDienst ag
196 8
ĊĠĠĠĠ ĊĠĠĠ
rib ution
hedr ale
Ġermord et
ĠChristop her
K Ã¼nstler
l iger
en ken
ĠS G
or o
ĠR ic
ĠC oll
eg g
ern t
ok er
ĠLand gemeinde
Ġ9 6
ener gie
eid et
ĠAlb ums
SS ION
ĠStaat liche
196 6
Sc reen
Ġelektr ische
ĠAustr al
Ġcl uster
Ġopti mal
I B
I O
Ġ1 14
ĠM usch
ĠH ahn
Ġer ober
ĠC lemens
ste te
ho u
ĠIm pul
br unnen
res erv
Ġth emat
Ã¤m mer
Ġteil en
hand els
bet eil
evel op
Ġerz ielt
ĠFlor ian
ĠViz emeister
leit ungen
ĠRelig ions
Ġkanad ischen
Ġbetre ffen
Ġveranst altet
M al
d ay
ie be
Ġs ame
ĠB rian
ĠF usion
ĠP ension
Ġf ull
ĠL eu
ber eiten
Ġl ust
pl omat
Ġ8 1
ĠGer d
Ġeigen tliche
ĠJuni or
ari at
sw itch
ĠAnfang s
197 2
by tes
ĠzusÃ¤tz lichen
Ġempf angen
Ġnational sozial
Ġperf ekte
ĠGit arre
ĠDemokrat ie
ĠSchlaf zimmer
Ġporn o
ĠInstitution en
endo ktor
solv enz
S al
r s
s ammlung
ĠB ean
am ts
ĠF aktoren
ĠP rivate
Ġf indest
Ġer wer
Ġk Ã¼mm
ĠAr rays
ĠAl i
Ġre q
enz el
ĠSchw estern
Ġres ources
Ġange kÃ¼nd
Ġeigen stÃ¤ndige
ĠZw angs
ĠNationalsozial isten
ĠjÃ¼nger en
M IN
V E
l aus
z Ã¼gen
ĠK h
ĠP on
ĠP ant
ĠL ohn
ĠC ell
ver arbeitung
ien e
() ),
Ã¶r n
br unn
ais e
ĠMus een
Ar gs
Ġbeg leiten
Res ults
Ã¤m me
ĠRegion alliga
Met ric
anc el
Rep ort
ĠgrÃ¶ÃŁten teils
komm ission
ĠPri or
Ġengag iert
ĠWerb ung
W eiÃŁ
k W
v Ã¶gel
st isch
ĠS ektion
ĠB ug
ĠG ir
Ã¼r mer
Ġg gf
Ġl eiden
Ġp ool
men te
Ġbe geg
la fen
Ġausge prÃ¤
Ġeinge weiht
ĠauÃŁer orden
ĠAp pl
ĠRu der
ĠWor te
ĠDen ken
Ġgenau e
Ġkrit isiert
ĠEuropameister schaft
Ġnutz te
Ġsech sten
ĠAuseinander setzung
B uf
c lazz
g ow
h essen
k ter
v ia
st immung
Ã¤ p
ĠV arianten
ĠU rauffÃ¼hrung
Ġ18 18
ĠStr eifen
ĠÃĦ l
verb indungen
Ġabsol ut
Ġfinanz ielle
Ġqualif izierte
Ġzeich net
ĠPian ist
Ġuntersch rieb
A ud
f ul
ĠK ast
ĠK etten
ĠG un
ĠJ Ã¤nner
Ġge leitet
ik ro
ang riff
ĠEin zugs
qu alif
auf tritt
ĠEn cyclop
Pro gress
Sch on
ĠMed aille
ĠDav is
Ġmod if
Ġclass Name
ĠPrem iere
Fol der
ĠPenn sylvania
I A
Ġ []
ĠA N
ĠD og
ĠF eu
ing ham
ĠZ ertif
ic on
end el
aus stattung
19 21
Ġtr afen
ĠEnt ity
tif act
Ġfrei er
ĠVers icherungs
fest ival
ĠMer cedes
Rel ation
ĠUrs ache
frie s
ĠDrit ter
Kurz film
K ar
j son
k rÃ¤
y c
Ġm Ã¼sse
Ġh arm
Ġge plan
Ġst ore
ĠUn der
olit h
amen te
bild ner
Ġange ordnet
Ã¤nder ung
mittel alter
ele ted
ĠSeit dem
190 5
Sh ow
system s
ĠGeist es
ungsver fahren
ĠArm y
Ġleich te
verl ust
Ġverbesser t
Ġbedeutend sten
H z
P ap
T ax
k orea
s Ã¤
Ġ egal
Ġd auert
at tribute
ĠT ool
Ã¶ he
Ġan alys
eg ate
Ġa ccess
ord nungen
ĠVor lage
Ġbest er
olog in
stra fe
ĠMin dest
zentr en
194 2
193 1
ĠZÃ¼r cher
sa al
Ed it
ĠEntwick lungen
ĠSn ow
wach ung
Ġbeob achtet
a ver
b ell
le hen
ĠH ang
ĠW Ã¶r
ĠN iveau
ic ations
ver g
ĠIn valid
ĠVer folgung
Ġc ontainer
Ġc tx
agen tur
Ġ7 7
min a
ĠEx ec
Ġstehen den
ĠAnt worten
Ġdat iert
zub auen
ĠEreig nis
******** ********
ĠStÃ¤r ke
S Ã¤nger
s Ã¤chsischen
Ñ ı
Ġ eignet
in as
Ġd irectory
ge ht
el er
ĠD au
ĠP ur
ĠP eer
ĠH ert
Ġge gangen
Ġver mitteln
Ġaus gel
lo hn
ĠBer Ã¼cks
ĠOr ien
bar es
Ġbeg rÃ¼
Ġ12 5
ĠSan ierung
Mod us
ĠHil f
Ġ184 7
ĠSim ple
ĠBÃ¶ hmen
Oper ator
ĠVerbr eit
Tim estamp
Absol ute
l ige
y cle
z ieh
sch ema
Ġm or
ĠF uchs
ĠW arn
ĠL eucht
ĠN ag
scha f
Ġsch ema
Ġ" +
lo ym
ĠBer ichte
ĠOr th
ov iÄĩ
zw eck
Ġall gemeine
Ġbeh erber
ĠErz iehung
ĠBed ien
Char acter
ĠDist anz
kur renten
Meta Data
ĠMisch ung
Ġzusammengef asst
ur laub
it is
Ġb ill
19 27
stell ern
ĠMa j
Ġ0 7
ĠJan eiro
halt ungs
Ġeinfach er
Ġverm utet
ĠJohn son
193 5
Ġ184 6
Ġsetz ten
Ġerk ennbar
ĠSchne e
M C
M T
s ver
x x
ĠS Ã£o
ĠS ultan
ĠM ilit
ĠF ett
ĠP ad
Ġauf einander
ĠSt aub
op le
Ġab ges
lei sten
res ources
rech nung
ĠMo or
ĠAk adem
ĠJohann a
ĠGef Ã¤hr
ĠGen f
190 2
sph ase
resource GroupName
Ġrest lichen
ĠLokomo tiven
ĠKaff ee
ĠKob lenz
Ġumgew andelt
b undes
n ow
Ã ®
ch annel
ĠF erner
se Exception
ĠC er
Ġauf geteilt
ĠAn ders
Ã¼n ster
Ġbe ant
ok raten
pf en
ĠMa ÃŁe
tem peratur
ens wert
ĠBl itz
ĠEl s
Ġ) ?
ĠDurch schnitt
stru ction
Ġ185 1
190 8
ĠDo zent
ĠWand el
stÃ¤d ter
ĠStraÃŁ burg
Ġsamm eln
Ġdenkmal geschÃ¼tz
H err
L ud
R h
ĠB ey
ĠW ettbew
om on
Ġden ken
Ġl Ã¶sen
op ran
ĠAl ber
Ġqu er
196 2
ĠHei z
gehen de
Land es
ĠBran chen
ĠNor bert
Ġgener ate
Ġfal sch
Ġiden tisch
B atch
D omain
F Ã¼gt
K ilometer
y an
Ġ ðŁ
ein g
ĠD IN
ĠF ulda
ig ion
ĠO ch
Ġp Content
ech e
sk ap
Ġ8 3
imm ern
Ġis lam
ĠWest er
bach s
Ġro b
ĠSti ck
Ber uf
ĠEigen tum
ĠLeip ziger
196 3
ĠComm on
Ġdan eben
dis ziplin
ĠplÃ¶tz lich
Ġpersonen bezogen
C opy
D oppel
n immt
t Ã¤u
ĠS eil
sch lagen
au e
el in
ĠD est
Ġ1 16
am ann
ĠK ro
ĠF A
ĠG ol
ĠT ieren
ĠIn t
ate way
ok o
ial ize
rich en
west lichen
Ġhand eln
ĠOn lin
ĠGen e
196 5
Ġ180 3
ĠFÃ¼hr ungs
Stand ard
ĠVorsitzen de
ĠSyn th
ĠGre at
ĠLux us
Ġgez Ã¤hlt
ibil ity
Vol ks
ĠDokumentar film
Ã¤rn ten
Ġstrate g
ĠUE FA
C re
k ins
m achen
s f
z esse
in stance
ĠD Ã¼r
ĠF unction
ĠH ed
ĠT ypen
ĠÃ¼ber tr
arb on
ia e
ĠCon s
ĠUr sprung
geord neten
ategor ie
195 5
ĠBeck er
ĠLad y
ĠErschein ungs
ĠFF DC
ĠSchicks al
Cond ition
Strate gy
ĠSaarb rÃ¼cken
D ruck
g alerie
on c
ĠB utter
ĠK reu
ĠH Ã¼tten
ĠT oren
ĠR unden
ĠMar x
ĠSchw anger
ail and
tim ierung
wohn ung
ĠDi am
omb ard
sta ats
194 3
193 2
193 7
uel a
ĠEntscheid ungen
Ġausger ichtet
ĠSpann ung
Juni oren
Bi ografie
AuÃŁ erdem
ĠFound ation
1 10
A ch
S B
f uÃŁ
h ing
Ġd icht
Ġd einen
ĠK leidung
ĠF unde
ĠP ommern
ĠE P
Ã¶ hnen
ut a
ex ists
enn zeichen
ĠVor gehen
pr es
ans as
Ġges ichert
ĠBl u
ĠEx il
ĠWei s
ĠGew erb
aun a
rec ated
ĠSamm el
ĠmilitÃ¤r ische
Ġletzt es
ĠZeu g
Ġmedizin ischen
ĠErzÃ¤hl ungen
R und
c ms
č ĊĠĠĠĠĠĠĠĠĠĠĠĠĠĠĠĠĠĠĠĠĠĠĠ
st Ã¼cken
an es
Ġf iles
ĠH D
Ġh art
ĠC hl
ad ow
ĠMet rop
ender t
Ġangeb lich
Ġsicher te
ĠKind es
Ġmoder ner
cept or
Ġdigit alen
ĠTschech os
ĠSat tel
ĠRefer enz
Ġol ymp
ĠWalt her
F eld
i Ã¨
ar es
Ġs in
ĠA T
Ġf eiern
ti a
Ġvon einander
and el
ĠC ra
ĠC onnection
rei hen
Ġ3 50
ĠAus gleich
ĠAb hÃ¤ng
Ġpro ps
ĠPar ks
ĠEl f
Sp eichert
Nach bar
ĠSaison ende
Ã¼b ung
ĠAuss agen
ĠRail way
currentTime Millis
B al
S D
i ffen
k Ã¤mpfe
n ommen
p Ã¤dagoge
ĠB rad
ĠB uk
ĠD istr
Ġst ack
19 00
berg s
be an
iss ionen
Ġres ul
str Ã¶m
tag es
ĠCar los
Ġhistor ique
ĠPark er
ĠWar schau
bef ehl
ĠTe en
Exec utor
Ġumfassen de
Ġoper ation
ĠRestau rants
ĠmaÃŁ geblich
wh ile
ĠBuffer ed
ĠHels inki
A ustr
S or
d on
ur ist
ĠB reis
ĠSch ienen
Ġdem okrat
Ġst eigt
ĠSp alte
ĠAr tillerie
19 40
19 23
atz e
Ġ7 3
ĠzurÃ¼ck zu
ĠRech nung
kon struktion
ĠHa w
ĠPhil adelphia
zentr ale
ĠOst tim
Ġverst orbenen
ĠUl m
Aut o
beg riff
ĠInner e
ĠBegr Ã¼ndung
Ġregistr iert
Ele ktr
ĠSyd ney
L imit
M as
P rÃ¤sident
c am
at ischen
ĠK rÃ¼
ĠG lobal
Ġer gab
get Path
ige st
ine a
Con stant
ĠMed iziner
ps ych
LE D
ĠSol ar
ĠBro ad
beh alten
Ġversch oben
ĠPfer d
bas is
sha ber
ĠServ ices
ĠFit ness
Ġeingest uft
J J
T ube
d re
h Ã¤nge
Ġ $
Ġi ll
ĠK ent
Ġh e
ĠSie ge
geb ot
ĠVor arl
Ġgesch Ã¼tz
Ã¤s se
Ġind ustr
Ġmon at
ĠNachbar gemeinden
ĠHon or
wal de
Ġfac tory
B in
B ot
C ounter
F in
K reuz
R ing
c os
f angen
Ġs egment
Ã¤ hne
ĠA y
ĠA tem
ĠT res
Ġk op
Ġt itle
ien ne
im age
ĠÃ¼ber liefert
omm el
ian er
Ver tex
ĠZw ecke
ĠSport s
ament o
ĠGeneral leutnant
ĠVers ionen
ĠEt wa
ĠFort setzung
ĠKom Ã¶die
ĠVorsitzen den
ĠSieg fried
Arch Ã¤
ĠAust ria
ĠKre bs
sex tr
Ġkombin iert
ĠSQL Exception
Ġeindeu tig
H ead
S K
T urnier
Ġd iff
Ġf lag
ĠT ask
Ġge prÃ¼ft
rei de
Ġl iber
lie gende
ĠGr as
ip io
(" \
ĠKl ar
Ġen code
Class Loader
ĠVol ker
ĠSk y
ox id
ĠPlan eten
ĠGast geber
UT F
Ġanbie ten
A g
H eil
a ft
ĠD Ã¼n
Ġm oment
ĠK riterien
ĠH unde
Ġauf nehmen
ĠSch acht
ĠVer pflicht
Ġ18 16
gl os
ĠZeit ungen
Ġ8 4
ĠHand eln
ĠKÃ¶nig sberg
ĠReich en
Ġfest e
ake te
ĠKommun ikations
Ġnieder lÃ¤ndischer
ĠKons ul
pap ier
ĠZerst Ã¶rung
i h
i qu
Ġ echt
Ġd ekor
it tel
Ġs amt
ĠW y
Ġer b
ĠU s
im ation
Ã¼hr ungen
lei h
lei dete
ĠUnter schiede
tag on
othe k
Ġhistor iques
ĠTre ppen
euch ten
ĠErw in
Ġelement s
Child ren
ĠWÃ¤r me
MÃ¼n chen
v i
ĠS yl
sch lossen
ĠSch uh
ĠSt ars
Ġst euer
ĠEr stellung
ĠCh arts
ĠVor gang
ĠVor feld
Ġgew orfen
lei tete
Pro tocol
ĠÃľber ra
ĠBe arbeitung
ĠMann es
Ġkon zip
DE F
ĠFot ografie
Ġpl us
ontin ental
ĊĠĠĠĠĠĠĠĠĠĠĠĠĠĠĠĠĠĠĠĠĠĠĠĠĠĠĠĠĠĠĠĠĠĠĠĠĠĠĠĠĠĠĠĠĠĠĠĠ ĠĠĠĠĠĠĠĠ
ĠlÃ¤nger e
ĠLeg isl
ĠWeihn achten
Ġlok ale
Ġsk ip
ĠTar if
ĠWeimar er
ĠErl angen
Ġrechte ck
ĠFrÃ¼hl ing
ĠGemark ung
D evice
c ies
m atcher
ĠA L
ĠA tel
ĠM all
Ġf ix
ĠR un
Ġer lebte
ĠJ g
uch er
ĠPl ant
Ġman chen
ĠSchul ter
fÃ¤l lt
tic a
Sc ale
bed arf
Ġfield s
orth odox
ĠTon y
ĠBrie fe
ĠKomment are
ĠMem or
ĠRezep t
ĠAthl eten
Ġdisku tiert
ĠFantas y
I E
R aum
ĠB BC
et isch
ĠM esser
ĠP s
ĠP ixel
um ul
eb all
ver halten
ru der
Ġbis schen
ĠAr mut
ĠVor name
ock e
ĠLu is
ĠInter ess
Ġgest altete
194 1
ĠHistor ischen
Bau denkmal
leid et
Ġtyp ischen
ĠWett kampf
tran sport
W M
p op
Å Ľ
Ã¼ pft
ĠB og
ĠK ay
ĠG ord
ĠSt ore
ehr ung
ang aben
Ġre alisiert
pl ung
ĠLand gericht
Ġ0 8
ĠCon fig
ĠBest immung
ĠDu isburg
190 7
ĠWel traum
ĠSalz burger
ĠFel sen
ĠMount ain
cover y
ĠErschein ung
T ab
x i
or ff
ĠB uild
ĠK rÃ¤fte
ĠL ip
um or
ĠIn solvenz
iz za
ak ten
Ġ8 7
ober flÃ¤che
Ġins zen
Mit te
tik um
Ġbesch rÃ¤nkt
ĠZwei g
ĠCar lo
ĠProv inzen
Ġerf Ã¤hrt
ĠGut s
produ kte
ĠErw art
ĠanschlieÃŁ enden
ĠInstall ation
K ritik
n umber
s uper
al p
Ã¼ ben
ĠK ritiker
ĠP ic
ĠAl f
ĠLand s
ĠNach lass
Ġgen utz
inder te
ĠBo y
ĠAt tribute
ĠfranzÃ¶s isch
ĠOn kel
By Comparator
ĠStaats anwalt
Ġ185 3
ĠKaiser reich
190 3
imple Name
ĠAR D
V iele
l Ã¶sen
Ġd avor
Ġs l
ĠN ev
ĠIn spir
ĠEin blick
ges prÃ¤
Mann schaft
Ġcon f
ĠWer ft
ĠTro cken
ĠTri o
ĠChem iker
AX B
ĠAktion en
person en
Ġspezial isiert
ĠAufsicht s
Ġkorre kt
A lias
R ichtung
Z usammen
ĠB uen
im s
ess ischen
Ġ18 32
ĠIm per
br Ã¼cken
Ġbef Ã¼r
Res olver
Ġhier zu
ĠLandes regierung
ĠTechn ology
Ber eich
ĠDon ald
laub nis
TR AN
ĠDro gen
Ġbeob achten
Ġren omm
ĠAthl et
irurg ie
ĠTob ias
ffizien z
I R
M atcher
r ession
ĠS ten
ber gen
ber ichte
ro d
Ġk ap
ĠSch um
ĠSt ationen
ĠVer teilung
ot tes
id i
19 17
Ã¤r er
auf gaben
ĠAus bruch
mann schaften
Ġ7 8
-- ;
ĠZu vor
ĠDat abase
ĠPal ast
ĠTex ten
bÃ¼ hne
irec tor
Ġschwed ische
Ġtradition elle
ĠVerkauf s
Ġdur ften
veranst altungen
Ġbayer ischen
Constra int
ĠAx el
A tt
E SCO
F ootball
J a
R itter
R ows
k tive
Ġ Ê¿
ĠS ehr
it Ã©
ĠB ibli
Ġ1 13
Ġf ahr
ĠO v
Ġr ichtet
get E
Ġsp r
ac ional
ĠVor jahr
param s
ĠSte ve
Ġ12 00
ĠSÃ¼d ost
ĠBuch t
ka sten
ĠGen ehmigung
ĠVolks republik
go ogle
ĠKriegs gefangen
Ġerk ennt
ĠCamp us
ĠSamm lungen
Fr ame
ĠReihen folge
ĠKoordin aten
ĠDiÃ¶z ese
ĠEliz abeth
Ġeingemein det
ĠBerÃ¼cks ichtigung
K at
c ent
en se
ĠD ame
ĠM ix
ĠF avor
ĠF unc
ĠH C
ĠH ost
re z
Ġh or
Ġt x
ed a
ĠAn reg
ĠEr sch
Ġdurch setzen
Ġre form
ĠVor schlag
Ġausge stellt
ash i
Ġben utzen
ĠBesch luss
ĠVertr auen
Ġorganis ierte
ĠOff ice
Ġbetre ut
wander ung
beam ter
ĠVizep rÃ¤sident
ĠSynag oge
ĠPrÃ¤fekt ur
H in
Ð ´
un er
or p
ĠB ecken
ĠD ritt
Ġ1 18
ĠP ause
le vel
ĠR ak
ĠZ wer
Ġman che
Ġausge dehn
ĠRes idenz
reib ungen
194 8
Ġvoll kommen
Ġheraus ra
ĠKommun e
195 2
Ġfr isch
Ġdigit ale
Ġweib liche
Ġren ov
ĠGlauben s
C ategory
G el
j Ã¤ger
m ass
t ask
ĠP rÃ¤sidentschaft
ĠH imm
ĠT all
ĠN eg
Ã¼r zen
io den
res et
Ġle g
ĠList en
ĠOber flÃ¤chen
Ġger aten
sg ruppe
ĠProdu zenten
ĠChrist i
ĠÃĦ uÃŁ
Ġfest en
ĠArbeit nehmer
ĠDr ama
Ġem otion
ĠWissenschaft s
Ġinteress ante
ĠÃ¤uÃŁ eren
Ste p
ĠPok als
ĠAuftr itte
MÃ¶ gliche
P reuÃŁ
Z ug
c onn
k am
k ompon
p red
es ota
Ġs ang
Ġs itzt
ĠF utter
ĠG ibt
ĠP unk
Ġver mittelt
Ġc ir
rie t
In halt
Ġunter nahm
Ġre port
ĠVor les
Qu elle
ock el
Ġit s
jÃ¤hr ig
ĠTour isten
bes itzer
Ġverp asste
kÃ¼nf te
Ġzug unsten
Merk male
Ġgeplan te
L ou
M ass
N or
W olf
h ier
h aut
s eiten
Ġs erv
Ġs ilber
ĠK enntnis
ĠJ enn
ĠEr nennung
Ġbe arbeitet
mer s
Ġ9 1
ain ment
sb ild
ule gen
ator y
ĠGeb Ã¤uden
ĠEx pedition
ĠBand s
ĠVerb indungs
ĠChrist ine
ĠHa wa
ĠAll ein
Ġabge lehnt
Rep ository
ĠSin f
ĠPil oten
ĠBrit en
esh old
ĠCorpor ation
B enz
I con
R ight
k os
o iden
p ri
ĠR as
ier tem
Ġk r
Ġk reis
ĠZ ens
ĠKon stru
ĠRei s
190 4
Kl ein
fÃ¼r sten
ĠAust rag
Ġweib lichen
B ook
H g
J ECT
R ot
a ire
d ater
ĠS ev
ĠS lowakei
ĠP aket
ĠE C
ĠL ade
ĠC irc
ĠSch icht
ag on
ĠVer mut
Ġst et
Ġsp iegel
sb ek
oun ts
eig n
ĠAk ten
ĠZwei ter
Ġgeb raucht
ĠHeimat stadt
alle d
Ġbed ro
ĠKomp lex
FI LE
ĠNamens geber
Ġumfang reichen
h us
Ä ħ
st reifen
ĠB ibliothe
de uten
ier re
ĠC el
ent schieden
Ġg eile
Ġl ib
ff ekt
Ã¤l lig
ĠNach kommen
ĠInter ruptedException
ĠMag d
ĠDat eien
Ġbedeuten den
Hol der
Ġhol z
ĠerhÃ¶ hen
ĠBist ums
Techn ische
option s
Ġlauf enden
Annot ations
ĠÃĦm ter
j ar
Ġ ew
ĠB MW
ĠD eine
ĠM Ã¼ndung
Ġf rag
is her
ĠT afel
get Time
Ġ3 60
Ġab gel
Ġab geleitet
ĠEn tert
orm s
Ġsp anische
Ġber echnet
Er ste
ĊĠĠĠĠĠĠĠĠĠĠĠĠĠĠĠĠĠĠĠĠĠĠĠĠ ĠĠĠĠ
kon zept
Ġbew ir
Data Type
ĠDres dner
ĠAnge hÃ¶rigen
Ġentspr ingt
Sonst iges
G raf
L eicht
W ahl
y o
el ektr
Ġm ut
ĠP azif
tr echt
Ġh ash
ĠN au
ad s
ĠU RI
Ġp fl
get Field
lo y
if ikation
ĠMar mor
res h
Ġgen auer
Ġ8 6
sche e
ĠSh ar
ĠSchloss es
196 4
195 7
Ġerf asst
Ġzweit es
Ob wohl
Rem ote
lÃ¤uf e
ĠdÃ¤n ischen
ibil itÃ¤t
Ġmittelalter lichen
ĠBegeg nung
ĠkÃ¼nd igte
u uml
Ġw andte
Ġb reiter
Ġm ach
ĠG ros
ĠP ay
ĠE R
ĠH alt
ĠV as
ĠJ am
ĠSch uss
ĠEr forschung
Ġj ene
ĠMit begr
schie ÃŁen
deck er
yl on
Ġabge geben
ĠErz bist
ĠWor ten
Ġunterschied licher
195 3
Ġleben den
ĠTri b
ĠSchÃ¶n e
ĠFrÃ¼h stÃ¼ck
Ac tive
ĠEvent s
Ġgesetz lichen
ĠBrow ser
Hash Map
ĠAgent ur
ĠBÃ¼nd nis
ĠTO DO
B ank
z eits
Î ±
in voke
ĠS ac
ein d
Ġm em
ĠF DP
ĠT eich
ĠR Ã¤um
and lungs
ann over
Ġl et
wei len
ĠPro gramme
Ġunter teilt
Ġab gew
Ġab gelÃ¶st
ĠCh at
String Utils
az ier
Ġgen Ã¼
we en
Ġmo tiv
195 6
ausen de
Pl ugin
Ġstattf and
ĠSec urity
gefÃ¼ hl
ĠBom ben
S w
ei ver
ge gangen
ten ts
ĠN atÃ¼rlich
Ġl aden
ĠIn sekten
op hen
ĠEin tritt
iz z
Ġab s
be auftrag
Ã¤ch ter
Ġe ach
ĠBau reihe
ĠGer tr
Ġausge st
Ġgef Ã¤r
ĠAt tr
ĠDem onstr
Ġhistor isch
ĠHeil bronn
ĠClass ic
Parameter ID
ĠJur a
UT E
ĠDrei ÃŁig
grÃ¼n den
ĠJer sey
Ġerl Ã¤u
ĠWit we
ĠhÃ¤uf iger
ĠOh io
ĠBelager ung
ĠDistr ict
B R
z it
Ġs enden
as et
ĠP ionier
ĠI C
om eter
Ġauf weisen
ĠSch al
eb r
per rt
lieÃŁ t
ĠCon text
ĠĊĊ ĠĊĠĊ
Ġeinge zogen
ee ded
ĠHistor ische
Ġstand ard
aller ie
ĠkÃ¶nig lichen
Mich ael
G leich
P resent
S ee
a ber
g io
l on
Ġd isplay
es ien
or ges
Ġw ait
Ġer zeugen
ĠC ab
ĠIn halts
im o
ĠAus stellungs
ĠCh i
ite e
ĠRo y
red akteur
ĠBew usstsein
Ġabsol ute
Ġloc ation
Ġap plication
Ġdat abase
Ġtradition ell
ĠVerÃ¤nder ung
Ġbetroffen en
BevÃ¶lker ung
ĠBundest ags
stad ion
ĠHob by
ĠTÃ¤tig keiten
F T
T ex
in formationen
Ġd auern
ie u
st yle
ĠG Ã¤rten
aus wahl
ib m
ĠAb sol
ip her
Ġ8 9
Ġis ol
bo und
Auf gelÃ¶st
welt meisterschaften
gÃ¤n gen
ĠWar um
Ġerr ang
Ġevangel isch
ĠkÃ¼nstler ische
ÅĦ ski
Hein z
evelop ment
C lau
F loat
H allo
b reite
Ġ \"
ĠS ho
ĠK roatien
ĠF lex
der e
Ġver Ã¤ndern
ĠAn zeigen
iz en
bau werk
Ġpro te
ĠJul ian
ĠGrund schule
Ġteil te
ĠMittel feld
ĠSal v
ĠTechn ische
ĠTor onto
Ġ184 5
ĠAir es
ĠLou ise
sei tige
Ġmusikal ische
ĠGeheim nis
ĠberÃ¼hm ten
R M
S ql
T ool
c ur
c enter
z ien
sch les
sch west
Ġs olle
ĠB our
ĠH arz
ver leihung
Ġr ichtete
ap ur
Ġc ause
ang le
Ġ18 34
Ġa fr
Ġunter richtete
ip eline
schen den
Ġgr Ã¼ndeten
Un ternehmer
ĠRo te
such e
Ġkein em
ĠKont o
fel den
195 8
ĠMil ler
Ġgelang t
Welt cup
ĠrÃ¶m ische
Ġreich te
ĠChem nitz
bef est
ĠSchles ien
ĠEins Ã¤tzen
" ),
S ach
b on
ĠS ymb
Ġw ann
ĠB ag
ĠB ah
Ġz us
ĠK ilometern
Ġge p
Ġge zwungen
Ġmit ten
sp eicher
ĠIn telligen
Ġaus gesetzt
Ġvor stellen
ek ord
ĠAb bau
Pro file
amer ik
for um
stein er
ĠDar steller
Ġbew aff
Ġro te
Ġkey s
190 1
190 9
ĠKonz ern
Ġzeig ten
ĠAud i
Histor ische
ĠReserv e
sbez irk
Ġinstall iert
Ġbeauftrag t
A fter
f inder
l ik
m uster
ĠS af
ar mee
ĠG ute
ĠT ib
ĠL oth
Ġver r
ĠEin sÃ¤tze
ĠAus grab
ĠGr aben
ant ie
sb ahn
rech ung
yl l
ĠBas il
ĠLau b
ĠZeu gen
ĠBundest ag
Ġaustral ischen
ĠSkla ven
= \"
D isplay
H eim
m Ã¤ch
sch reiber
ur teilung
Ġs aÃŁ
Ã¤ sche
ĠP le
ĠW oll
Ġc ur
ĠÃ ©
ac o
Ã© b
ian ce
zeit lich
ĠPh Ã¤nomen
Ġgesch m
dr ama
195 4
ĠWieder aufbau
Rep rÃ¤sentanten
Ġerk annt
ĠThÃ¼r inger
ĠAnth ony
D etails
W issenschaft
l ess
al in
Ġw here
ol as
ĠP os
ĠW ies
ĠR ektor
om s
Ġh alt
ĠC row
Ġk roat
Ġg rid
Ġwie s
ick te
ĠMar ch
ack te
lei b
ĠEx port
ĠDar stellungen
ĠTer m
ĠAnd roid
SS R
ĠschÃ¶n sten
Ġbeteil igten
ĠPil ot
Cl ub
Ġmusikal ischen
Ġnachfol genden
ĠEcon om
F er
G S
L ied
W ohn
c omponent
p pe
Ċ ĊĠĠĠĠĠĠĠĠ
ĠG R
ĠT oken
Ġg ere
id den
ord nen
pt on
Sch rift
Ġhin weg
Ġger echt
aw s
ĠWeiter entwicklung
arbeit ungs
Ġvoll stÃ¤ndige
196 1
match es
Ġgeh abt
Ġkeiner lei
prof essor
ĠSmartph one
ebau ung
G l
G ra
O wner
T ri
V oid
a o
c re
k Ã¼nstler
w issen
ar is
ĠB orn
et ische
ĠF uss
ĠG ul
Ġf amil
ĠR uth
and in
ĠJ ag
Ġan treten
ver kauf
ĠAr k
ex ec
Ġdurch ge
vers ation
Class es
ĠUr ban
ott om
recht lichen
ĠAuÃŁ er
ĠProblem en
ĠStad trat
rec ord
ĠHan au
Ġtime out
ĠLoc al
ĠEff ekt
ĠTerr asse
Lud wig
T x
f inanz
v oid
Ġ art
et ik
Ġer lern
ĠI wan
ĠV in
Ġk lin
Ġ18 35
ire ction
hÃ¶r en
ĠBet riebe
ĠBild schirm
schutz gebiet
ace ae
bereich en
ĠMark graf
190 6
Ġfl ach
ĠComm itte
ĠKomp etenz
ĠErinner ungen
ĠRac ing
Listen ers
loym ent
C ertificate
Ġ Ã¤nderte
Ġd own
ĠS ha
ĠM P
il ation
Ġk unst
Ġg arten
eu x
Ġun bew
Ġsp Ã¤testens
ac es
Ġ0 2
ĠBr eit
ogra fen
Ã¤m pft
ĠZusammen schluss
rem e
Inter val
Ġverlie f
Â» ,
ĠVen ez
the ater
Ġprak tische
Ġfiel en
Ac tivity
ĠKult us
ĠTrotz dem
ĠCoun cil
ĠGeschlech ts
ĠPow iat
erkl Ã¤rung
PROPER TY
b rechen
g han
h ain
k ab
k lag
st yp
au ens
ĠA tt
ĠP yr
le k
ĠH Ã¼tte
ien te
Ġc olor
end em
ĠFl orenz
off er
ĠBundes straÃŁe
ĠStud iums
hand le
por ary
ehl ungen
Ser ial
AP I
ĠLang haus
ĠHar vard
ĠSchÃ¼ler innen
Ġelektr ischen
Ġverbunden en
IV E
stÃ¤d te
ĠTat ort
ĠTown ship
N LS
k reise
m ode
ĠH Ã¼r
ĠH ins
ĠH Ã¤nden
ĠW alk
ĠC in
ĠC ustom
ĠVer schw
Ġunter stellt
Ċĉĉ ĠĠĠ
ĠSchw aben
ĠgroÃŁ em
ĠBl Ã¼te
mÃ¤ ss
ĠUr sprÃ¼nglich
dr Ã¼ckt
ĠKinder garten
ĠErz iehungs
tic al
ĠInstr umente
ĠUN ESCO
Ġdurchschnitt lich
Ġcas ino
H amburg
T RI
h Ã¤ngen
r unden
in itial
ie de
ĠK leid
ĠT yr
Ã¶ ten
ĠN etwork
ĠVer g
Ġbe zeugt
ĠSp ektrum
ib us
ib Package
pl ibPackage
hen de
ĠCh ile
vers uch
ev in
br em
Ar g
gew Ã¤ch
ĠFilm regisseur
ĠGer ade
ĠHaupt mann
hau ser
ĠRad rennfahrer
Ġgem essen
Ġ184 1
Ġus ing
ĠPlan et
Ġentfern en
ĠRen ov
mel de
Med aille
ĠHu ber
Ġide al
Ro ute
Sa int
Ġkultur ellen
ĠEuropameister schaften
ĠPublish ing
U uid
h ash
r isch
st ore
ĠB ann
Ġb ran
ĠM ent
ĠF Ã¤hr
Ġan sehen
ĠSt Ã¼tz
ap ply
ĠAr zn
19 16
Ġre prÃ¤sen
ĠAus richtung
tem pt
Ġdar auff
Ġ7 9
IN VALID
Ã¤u er
new Instance
ĠWeiter bildung
stehen de
Date Time
Ġbeteil igte
ĠmÃ¤nn lichen
Constra ints
ĠBenz in
ĠCoron avirus
Ġgewid met
ĠB ande
ĠG uten
ĠE F
ĠH Ã¤ndler
re quire
ĠN on
ir gs
Ġl ux
he orie
ec tive
lo v
ef eld
ĠAuf wand
Ġgew issen
als o
con f
Ġern euert
uk le
ĠVers icher
tieren den
Des ign
ĠDe ath
ĠMont age
ĠRem ote
parse Int
Ã´ ne
ĠJahrzehn te
Ġverbesser te
Sign ature
## ##
ĠFertig stellung
Ġentdeck te
ĠClaud ia
D isp
i Ã¨re
k Ã¶pf
u y
ie her
st au
ei ved
Ġv ariable
ĠA gn
ĠB arr
ĠD ritten
Ġin halt
Ġf ur
Ġf ran
ĠL Ã¼n
re ct
ĠN iger
ĠN Ã¶rd
Ġk Ã¤mpfen
etz liste
Ġunter richtet
ep s
ĠReg istr
Ar tikel
Ġviel es
ĠLebens raum
list ener
unn able
Ġ180 8
Ġmethod Name
ĠBek Ã¤mpfung
Techn ik
mag azin
ĠTheat re
ĠBuen os
G it
P ublik
w ich
ein trag
Ġw Ã¶ch
Ġw Ã¤hlte
ĠM Ã¼hlen
ĠK ran
de fin
ĠW Ã¤hler
ĠC ant
ĠO ft
Ġst erben
iz a
kreis es
ĠMitte le
andid ate
ĠBur k
Th omas
Ġrem ote
Column s
ĠMarc us
Bet rieb
Arb eits
ĠValle y
1 12
N a
k inder
Ġd etaill
al ben
ur b
ĠB reiten
ĠJ AXB
ĠZ ellen
ĠVor sprung
Ġ9 8
An t
use el
ĠErn est
gesetz te
ĠRev iew
Eis en
ĊĠĠĠĠĠĠĠĠĠĠĠĠ ĉĠĠĠ
ĠAnder son
funktion Ã¤r
ĠAuff Ã¼hrung
ĠMol ek
minist rat
Ġgrund legen
S ite
W A
W ord
u den
w ise
Ġd st
st one
ĠL eut
ĠL Ã¤ng
Ġge test
Ġdes wegen
ĠSt ufe
Ġsch ein
Ġj eg
rit ische
ĠAb schied
ĠAuf klÃ¤rung
Ġ0 5
ĠPl atte
Ġ9 2
ĠRei fen
ĠHaupt ort
ĠNieder lagen
ĠFlug zeuge
ĠIl linois
Ġ184 2
gef unden
ĠStim mung
Ġsh ow
Ã¤um t
So zial
Ġevent uell
Ġhol en
ĠerhÃ¶ hte
artet t
ĠtÃ¼rk ischer
Servlet Request
Pass word
kont akte
ĠBedÃ¼rf nisse
autom aten
Ġerwer ben
F ernse
G C
p reise
x FF
z elt
ĠS tet
ge halt
Ġge folgt
Ġver t
ĠIn iti
get Attribute
ĠAl m
18 99
Ġ0 9
ĠRe alitÃ¤t
Ġger ufen
Ġbesch rieb
ĠKn ow
194 7
wissenschaft lichen
CH AN
Ġangegeben e
Arch iv
Gemeinde auflÃ¶sung
ĠRepar atur
F k
G old
P R
W appen
d ates
f onds
h ers
m il
Ġw and
ĠA sh
ĠM eier
ĠF oss
Ġf Ã¼hlen
ĠI ter
om er
get Request
ĠAl ice
sel ect
Al gorithm
leg ungen
ief ern
Ã¤ft s
ĠPat ent
ĠAir lines
gra fen
ĠDenkmal pflege
Ph one
Ġwor auf
ĠSab ine
ĠÃ¼berra schend
Ġdurchschnitt liche
e ge
h Ã¶ch
u der
Ã ¯
en ge
et wa
ĠF ox
Ġf otograf
ĠW eit
ĠC art
ĠC ord
ĠC loud
ul ierung
sp aren
ĠAn ordnung
get Parent
inz uf
Ã¤nd ischen
ĠDurch bruch
verb rauch
ĠMod ul
ĠSport ler
Ġâ ĪĴ
Ġpolit ischer
ĠSitz ung
ĠStu dent
Ġtyp es
emin ar
ĠFal ken
Ġkultur elle
Ġdauer te
ĠFreu den
Sum mary
ĠEinkauf s
ĠLein wand
ĠWÃ¼n sche
Ġbeherber gt
F ont
H erkunft
R Ã¼ck
S epar
T al
V G
d an
f achen
n utzung
ĠA ven
ĠB eine
ĠH ef
ĠH inzu
ĠL j
ĠL aser
ĠN E
ir r
rei en
ĠAn kunft
ster s
gr en
if orm
18 90
Ġbesch reiben
aw t
Ġinner e
met hoden
Ent fern
Ġadd ress
print StackTrace
ĠRitter gut
ĠYou Tube
ĠEdel stahl
ĠFerr ari
O UT
S end
s im
ĠB ock
ĠK Ã¤rnten
ĠG T
ĠP est
is pr
ĠT SV
ĠV ize
ro th
sp an
Con f
Ã¤nd igkeit
ĠSpiel zeiten
ank a
ĠÃĸ konom
ĠHaupt darsteller
ĠAt las
emen tierung
Ġqu adrat
ĠMich igan
Man agement
Ġmein t
Ġ184 3
ĠStuttg arter
ĠRed akteur
Ġnie mals
Ġscha fft
Bild ung
Hein rich
sko je
ĠAgr ar
ĠInternets eite
Ġdarauff ol
w ider
sch es
ĠD eut
Ġf ilm
ĠV III
lin s
ess a
ĠEin zug
ord neten
ĠNach frage
wer fer
ĠBe weis
Ġviel mehr
Ġgel Ã¶scht
kon stru
ĠAt l
Start seite
verstÃ¤nd nis
sha fen
Ġsec ond
ĠCommitte e
B oden
T el
o fen
ei b
on isch
ge tragen
Ã¼ ÃŁen
ĠA gen
ĠF uture
ĠG umm
ĠH eiden
ĠL ernen
tr es
ĠI hm
ĠZ wick
ĠIn sp
ĠUn i
ĠEin ladung
ĠStr eich
ĠBest immungen
Ġgef Ã¤llt
Aus gabe
ĠZusammen setzung
euer ung
ĠGen au
194 9
ĠLondon er
ĠEigen schaft
rÃ¤n kungen
ĠRel ief
getS impleName
Re al
ĠSchwer in
CO MP
Ġnorm alen
EL D
ĠHÃ¶r spiel
ĠSor timent
skl asse
Mem ory
Tro tz
Assign able
/ {
L eist
L EN
b ab
m otoren
Ċ ĊĠĠĠĠĠĠĠĠĠĠĠĠĠĠĠĠĠĠĠĠĠĠĠ
Ġd ritt
st op
ĠG ius
ĠH ag
ĠL ap
ent urm
eh me
os k
Ġber ichten
ĠSte iner
ymp ath
ĠAp i
sprach igen
ĠRen Ã©
onom ie
Ġextr act
Ġdauer haft
ĠOrgan ist
sthe ater
ĠLeiden schaft
ĠCoun try
K om
k Ã¼hl
m auern
n ische
p assung
z iehung
} );
ĠL il
and al
ĠJ i
ĠSch eiben
ah me
ĠEr haltung
Ġnach weis
ĠFl y
Ġet hn
Ġgen ehm
ĠSte ine
Ġqu eue
ĠLie ben
gehen den
ĠHel den
Ġzurueck gegeben
ĠJe de
Co uld
Ġinteress ant
Ġbegr aben
ĠFernseh film
Ph ys
Ã¼ll te
ĠFle cken
F iction
b Ã¼r
c ommerce
u cc
ĠB akter
ĠK eine
ĠG rupp
Ġf as
Ġf icken
ĠC arn
ĠSch alt
eh lung
ĠIn itial
Ġun ivers
ĠAn nahme
Ġsch lossen
Ġ18 37
Ġvor ange
rÃ¤ um
ĠMar cel
ĠSh ang
ĠProf i
Ġschw ach
dienst es
mark e
Ġbesser en
ĠAmts gericht
Ġtrans form
Ġqualif iziert
ĠVoraus setzung
ausschuss es
Ġverurs acht
ĠPassag iere
ĠProj ekten
ĠPseud onym
ĠBreis gau
B ag
R oll
S oll
o ir
v ik
ur gen
ĠA er
ĠD all
Ġm uÃŁ
ĠG egrÃ¼ndet
ĠP ick
ĠE qu
ti um
ĠH Ã¤r
Ġg riff
ĠSch ub
Ġt at
Ġr etten
ĠÃ¼ber prÃ¼
ĠCh ild
ĠKr amer
ĠWill en
riter ia
ĠKÃ¼nstler in
Ġsc ope
Mill ionen
ĠEvangel ische
ĠInternal Xbase
Il legal
ReprÃ¤sentanten haus
D ATA
L ive
L iga
m u
an trieb
Ġw ind
Ġer lebt
re q
ĠV Ã¶gel
ri um
enn te
En tries
sb eg
Ã¶l ler
Ġres olve
ĠDurch schnitts
verb ot
File Name
ĠGot th
kn oten
Ã¼st ung
ĠWol ken
ĠDisk uss
Ġnotwend igen
ĠStreit krÃ¤fte
sprech ung
> .
C R
D och
D reh
R ole
S plit
au scht
it hout
ĠK ru
le der
ĠH i
ĠW im
ĠL td
um pen
ĠI gn
ell s
Ġp at
String Builder
ĠKl einen
Ġbef asst
ĠWei ss
ĠMo tive
Ġgef eiert
Ġbr achten
ĠTra ck
ĠGegen stand
ĠMeister titel
check EMail
ĠNeben fluss
Ġdien ten
valid ator
Jo achim
Sup port
Ġtats Ã¤ch
ĠBÃ¤ ume
ĠkÃ¼nstler ischen
db c
ĠTeu fel
Ġliefer te
ĠEnzy kl
checkEMail Adresse
F ull
f assungs
h aven
ĠS ix
ĠD y
Ġf erner
Ġdes ign
ĠSp ace
auf lage
ard in
mal erei
Ġ9 3
Ã¼t zer
Ġgesch Ã¤tzt
ĠGraf iker
Ġentstanden en
Ġsc ale
struktur en
Ġzeich nen
ĠLy on
ĠErzÃ¤hl ung
ĠAlli anz
sbed ingungen
bran che
ĠErober ung
N ur
U hr
U se
W o
in haber
Ġd einer
es k
Ġ1 12
Ġin iti
ĠT ai
ĠL ov
ĠL aur
um pe
ĠV iet
ro v
se arch
Ġt ags
ĠVer hÃ¤ltnisse
Ġc ollection
rie ge
Ġ18 10
Ġ18 21
che f
ob e
ss itz
ĠGesch Ã¤fte
ett y
to Array
ĠÃľber tragung
ĠBundes land
Ch arl
Ġverl auf
ĠVerb rechen
ĠUr kunde
ĠfrÃ¼ he
Ġerhalten en
ĠHil de
over n
fÃ¤l ischen
DE X
ĠRechts wissenschaften
Ġ184 4
osoph ie
organis ationen
gra ph
tre ff
ĠVerf asser
Ġgez ielt
ĠBeweg ungen
Fk EMail
. ;
> ");
D rei
I ST
W ein
c ommand
h Ã¤n
k ord
k ritiker
p ir
sch ew
Ġs ingle
ĠB ak
ĠW arm
om orph
ĠO ste
ĠSch ein
Ġst arben
Ex tr
ĠCh annel
18 98
amm ung
ĠSpiel ers
ĠUm stÃ¤nden
schn eiden
ĠHier zu
Ġinternational er
ĠFrankreich s
ĠKat hedrale
Ġbegr Ã¼ndet
grÃ¼n de
ĠVersuch e
Ġsinn voll
ĠApost ol
ĠStrate gie
ĠInnov ation
ĠkÃ¤mpf te
Ġtele fon
ĠVerbreit ungsgebiet
ĠMitbegr Ã¼nder
B order
T enn
r um
Ġs erb
ĠB auf
de z
ĠW are
ĠL an
Ġer fol
ĠSch ult
Ġbe ur
Ã¶r se
Ġes sen
enn ungs
Ġre ference
ov Ã¡
18 89
be cker
ĠSchw ert
wer fen
stÃ¤nd iger
ĠUr heber
ĠKat astrop
Client Execution
195 1
Ġmod ule
flug zeug
Ġqualif izieren
Ġservice Callback
Ġbefore ClientExecution
reden tials
lac ement
ĠSkulpt uren
B urg
N un
b og
h ab
p Ã¤dagogik
ĠS ey
te or
Ġb o
ĠK unde
ĠH us
ĠR ies
rei tete
Ġauf gew
ĠSch ema
ĠSch Ã¤fer
ĠZ one
Ġr eine
Ġ18 38
Ġneu esten
of ern
Ġbeg in
Ver band
ĠLe er
ĠSÃ¼d amerika
Ġverw altet
Ġkurz zeitig
Ġgem eldet
key Set
ĠErd geschoss
ĠHeraus forderungen
ĠBarb ar
ĠGran de
Ġleich ten
ĠergÃ¤n zen
VER SION
ĠWurz eln
Jose ph
, -
ei mer
Ġein gew
ĠF ri
ĠH l
ĠH eu
ĠW eich
ĠSch iller
ĠEr halt
ĠUn gl
Ġent hielt
Ġent warf
Ã¤l en
ĠUnter grund
Al ben
Ġsel ect
Ver ordnung
bo urne
ĠOl iv
ĠSÃ¼d ti
ST AT
ĠFlug platz
ĠOn t
ĠMag net
Theater schauspieler
ĠLandtags wahl
ĠGewerk schaft
Ġangen ehm
? )
C an
D av
G rid
P riv
k arriere
Ġ ec
ĠS lowen
et o
Ã¶ ster
Ġge lo
Ġo ur
sp olit
Ġum liegenden
tern ehm
ĠIS O
Ġausge geben
ograph ischen
Hand ball
fre unde
CT ION
sprÃ¼ fung
sper re
Ġforder t
track ing
ĠNeum ann
Ġseiten s
Ã¤p st
G lobal
H ome
P ark
j avax
m aur
ie ber
un z
st age
ĠS erb
sch eibe
Ġs m
ĠB alk
and tschaft
Ġh erk
sp ol
ri pt
la de
Ġ18 39
iz itÃ¤t
arb eits
Ġsp eichern
reich t
18 92
Im port
Ver anst
Ġcon s
ĠX II
Ġwei ss
Met rics
row s
ĠVers orgungs
ĠEnd spiel
ĠlÃ¤ng st
ĠErwachsen e
dev ice
ĠDreiÃŁig jÃ¤hrigen
> </
H ex
L Ã¤ufer
M AT
O t
b eben
m isch
Å ĳ
ge x
ĠB ridge
Ġm ember
ĠG Ã¼l
ĠL ith
ĠSch ichten
ĠSt eiger
ob i
if c
18 82
Ġneu tr
ĠPl Ã¤tzen
lei den
ĠHau st
ond itions
lau bte
ĠMÃ¼n zen
kon ferenz
Ġfl Ã¼ch
ĠKom fort
AB C
ĠPublik ation
komp lex
ĠwÃ¼n schen
ĠAuseinander setzungen
ĠStatt dessen
ĠPerspek tive
Ġdokumen tiert
ĠFrances co
ĠangekÃ¼nd igt
o or
ĠS ind
al ing
te ste
Ġm ode
ĠF aust
ĠT y
Ġo cc
ver d
Ġc ommun
im i
get M
lie hen
ak tiven
gr Ã¶ÃŁen
ĠAus sehen
ĠJo urn
Ġle gend
Ġverb leiben
ĠVol umen
Deutsch es
schn itten
omb ination
ĠPark platz
ĠBeruf ung
ĠRuss ischen
rev olution
ĠAnge legenheiten
Ġschl Ã¤gt
Gener ic
ungsver ordnung
Ġzeich nete
ĠCommun ity
ĠProp ag
ĠFell ow
ĠRal f
ĠQue en
B ud
P refer
T ABLE
c ole
t mp
u ge
sch Ã¼ler
et ischen
ĠK rau
ĠL is
ĠR ey
ĠJ ugoslaw
se k
ĠSch Ã¶pf
ĠSp err
Ġsch auen
ov o
Ġ// $
fl eisch
ĠBr et
ĠJo han
ĠQu art
Ġerst mal
ĠGe denkt
ĠProf ession
ĠPal Ã¤
Ġlin ker
ĠHei rat
gra de
ĠPfl anze
Ġap ply
ĠErk enntnisse
ĠTÃ¼r en
vertr etung
ĠSl ot
ĠGru ben
Po ints
Ġwunder schÃ¶n
grenz ung
schaff ung
ĠErm land
B Y
R om
st ationen
sch Ã¤den
Ã¤ g
Ġein iges
Ġh Ã¶lz
ab b
ul ationen
ĠSt ufen
im pl
id t
iz it
Ġvor s
av ior
ĠPl ate
Ã¤ch ern
En vironment
Ġges ammelt
Ġgef ragt
schn ell
wohn ungen
Mar ie
evÃ¶lker ung
rist all
ĠÃ¤hn lichen
ĠNachbar n
Part ition
Ã¤dagog ischen
ĠermÃ¶glich te
ĠDor othe
ĠImm un
LOG GER
Declar ation
Lower Case
A K
B inding
E B
g Ã¼nst
h Ã¼gel
p es
s schutz
Ġs Ã¤chsischen
Ġs plit
ĠA ri
ĠD irk
Ġm eta
ĠF ind
ĠR ange
ab a
Ġge be
op fer
St unden
Ġbest Ã¤tigte
pro ject
Ġbek leidete
ĠBet rag
Ġ| =
AT ED
recht liche
Met al
Ġbisher ige
ĠInnen raum
ĠStu hl
Med iziner
ikal ische
ĠBesonder heit
ĠEntwick ler
ĠgÃ¼nst igen
national mannschaft
Ġkom fort
H K
L ook
S etzliste
c atch
f ix
z oll
in sert
Ġd omain
an as
Ã¼ chen
ĠF itz
ĠF lieger
ĠG is
le ep
ĠT Ã¤nzer
ĠR ade
Ġl eiste
ĠIn put
Ġst ein
ĠEin fach
ĠEin stieg
Ã¶r er
Ã¶r ten
19 15
enn ame
geb ra
ia de
ĠNach weis
ĠTeil nehmern
row ser
anc y
Ġgl Ã¼cklich
Ed ge
vo gel
ĠSchwar zwald
ĠgefÃ¤hr det
Vis ible
Bad minton
ĠDiv is
Ġausgesch ieden
Ġtrop ischen
Ġlehn te
ĠEinzugs gebiet
A gg
K as
S ynchron
Z eich
b ing
w il
Å ¼
un te
ĠD ob
ĠD ark
ĠG itter
den z
ĠI sol
ent z
ĠSch iffen
Ġp rim
ver mÃ¶gen
Ġab gebaut
pl ier
ĠVor trÃ¤ge
ĠReg isse
Ġbes ieg
ĠSchw ed
spr ingen
ĠHoch wasser
con sin
ĠUr kunden
co der
figur ations
Ġbeh alten
Ġdi plomat
uck s
ĠBetrieb ssystem
ĠRegel ungen
ĠViel leicht
ĠSchÃ¶n heit
ĠSold at
Ġhab ilit
Ġhal ben
Ġnorweg ischer
ĠStell vertreter
ĠLew is
! )
D b
i ad
i ak
Ġ echten
ch i
sch lei
Ġb rauch
ĠF ur
Ġf ern
ĠH ind
ĠR um
Ġer baute
ĠSch ar
ĠDie sen
ass o
Ã¤t sel
ĠPro tagon
olle ct
ĠGesch icht
ander s
ĠRe chen
ĠVol ume
ĠRÃ¼ck zug
Ġbesonder es
ĠPat rim
Ġaufge f
ĠRegel ung
ĠKurz film
ĠKor ps
Ġverf asst
ĠWettbewerb s
ĠSec ret
Ġbeeinfl ussen
Ġgesellschaft lichen
fac es
a ÃŁen
w n
Â ¼
Ċ ĊĠ
ei hen
it us
Ġs ank
ĠA quar
ĠM ayer
ĠH ad
ĠW ichtig
ĠC ow
sp ekt
Ġaus gesprochen
Ġun klar
ĠAn liegen
Ġdeutsch es
ĠMo os
ĠFre y
ĠHistor ic
195 9
Ġexist ing
ĠProduktion en
ĠhÃ¶ch st
ĠTo uch
ĠBegriff e
Ġbegr Ã¼ndete
ĠElem enten
ĠEngl ish
Ġmensch liche
Ġanges iedelt
Ġpubl iziert
Change d
ĠErwer b
ĠCaf Ã©
C hef
a id
y ter
or ia
Ġw eich
el ey
Ã¤ ser
ĠB ischÃ¶
Ġin ternal
ĠK itz
ol stadt
le ck
ĠR aub
il lo
ck et
ĠC li
Ġal li
ist ern
ĠSch ieds
ĠIn tens
uf a
Ġ/ **
ip per
los ure
kl ang
ĠBe au
ĠEx press
Ġausge legt
ĠWebs eiten
čĊĉĉ čĊĉ
Ġwest liche
Ġlin ke
ĠIns zen
Gr Ã¼n
fil men
ĠOs lo
ĠLog o
ĠKraft werk
ĠHeraus forderung
So ftware
ĠGlas gow
Ġprak tischen
Ġqualif izierten
Ġide en
ĠDigit alisat
ĠKanz el
Ko ordinate
russ isch
ĠMetro pol
Ġbevorzu gt
gewÃ¤ch se
A ir
a ktu
m eier
s ow
ei p
ĠS ich
ĠS id
Ġw on
ĠK lagen
ĠN eckar
Ġan stelle
Ġzu gewiesen
ĠU A
Ġaus b
ĠAn leitung
ungs zeit
Ġ18 36
zen sion
Ġ" \"
lo ok
amm ad
Ġbet reiben
ograph y
ĠÃ¶ konom
ĠNe apel
spro blem
getC olumn
ĠService Future
Ġlo op
ĠgrÃ¼n en
ĠKrank heiten
klass igen
ĠErf inder
alys is
Ġunterb rochen
ĠLetz ter
ĠAdmir al
Ġmath emat
Z eitung
Ġb undle
ĠD eh
ĠK iss
ĠP un
Ġf il
ĠC ard
Ġan spruchs
ĠSch okol
Ġp ur
ind lich
ĠEr ik
iz ien
Ġvor an
geb r
tig keiten
18 91
th ers
our i
ark tischen
stan de
ĠUnter kunft
ĠTh em
Ġbek annter
Ġviel fach
... ]
AL OG
ĠPat ient
ĠLuft waffe
ĠBro ck
ĠAf plibPackage
meld ungen
ĠSar ah
ĠFÃ¤h igkeit
ĠRal ph
Ġangrenzen den
ĠAtel ier
Ġcir ca
T M
h Ã¤ngt
k eln
l Ã¤ufig
z weig
sch reiten
ar gument
ĠB ilden
ĠD ecke
Ġf all
ĠR Ã¼
ĠI b
ver antwort
ĠIn vas
ĠVer stÃ¤r
get Text
ang a
Ġa f
rÃ¤ uch
ĠAb bildung
ob ahn
ian ischer
heit lich
Ġen ge
Ġange messen
ĠGra phen
Ġbel egen
ĠEd mund
UR CE
Ġrech ter
Ġliegen de
ĠWel che
ĠPor sche
do or
ĠSied lungen
Ġevangel ischer
Ġverbr ingen
ĠHum bold
ĠLim burg
Ġregion ale
ĠWirk lichkeit
Ġgetest et
N ein
X X
a er
k ilometer
r one
Ġ å
un fall
ĠA mal
ĠB Ã©
ĠB lei
ĠK han
Ã¶ d
Ġge fahren
wei tern
ungs ort
ĠAl an
lo yd
ok a
18 96
St op
Ġnoch mal
ahn e
sk ammer
ĠBuch en
ĠRÃ¼ck seite
cl us
uck er
anger s
ĠFluss es
ĠKandid at
Ġopti male
steuer ung
Ġmedizin ische
Ġjung er
ĠLegen de
ĠMargar et
ĠKav allerie
ĠTschechos lowakei
T AG
st hal
ĠS einen
ĠD M
ĠP ut
le p
ĠJ ew
ĠU K
Ġt ollen
och em
ate l
ĠStr Ã¶m
ex tr
Ġ" ]
ĠAus flug
Exception Constants
ĠKon d
Ġbes iedelt
ĠUnter lagen
Ġar men
OR Y
Ã¤h ern
Ġzahl reicher
Ġhei ÃŁ
Ent wicklung
ĠBro ok
Method s
Ġdefault Value
Ġgriech ische
funktion en
ĠKomb in
ĠWes er
led ge
Ehemal iges
ĠTrink wasser
C S
D ynastie
S lot
b inding
b evÃ¶lkerung
Å ¯
st amm
ĠS Ã¤chsischen
Ġw eiten
ĠB arth
am ar
ol is
ĠE cht
Ã¶ konom
Ġdem nach
wei lig
ger Ã¤ten
im es
Ġ18 29
ĠBer eit
ĠAus sch
Ġsp ec
18 94
(" ,
ĠY am
ĠSte ck
ĠUnivers al
ĠGrund riss
Ġbesch rÃ¤n
ĠTr in
Ġ% ,
zei tige
Ġgemein nÃ¼tz
FuÃŁball trainer
Ġstud ieren
ĠVerl uste
Ġmen u
ĠPa are
ĠGolden en
ĠSoll te
ĠStief el
ĠNapole on
ĠSiz ilien
ĠS ier
Ġf ra
um fang
re de
re ut
Ġge teilt
eb t
Ġl Ã¤dt
ĠÃ¼ber prÃ¼ft
ĠPro tot
pl us
ac a
ition al
sk e
ĠSchw ab
ĠKr Ã¶n
ĠCl aus
schw itz
back tracking
Fl uss
ĠdÃ¤n ischer
ĠAster oiden
feature ID
Ġbefind lichen
Dam it
M ac
S dk
e ars
w Ã¶rter
en code
Ġb ilder
ĠM obile
ĠF K
ĠF euch
Ġf Ã¶rder
ĠH ong
ĠL esen
ĠC ache
ist ers
ist isches
ĠVer pack
ot ter
Ġbe deckt
Ġsie d
ĠAr ena
ĠStr ess
ĠGr atis
ĠUnter b
ĠTh ailand
ĠY our
ina e
ĠFahr zeugen
ĠWeb prÃ¤senz
ĠFre quenz
Ein ige
Ġho hem
ĠFest schrift
ĠInform atik
ĠÃĸsterreich ische
tieren de
ĠDis c
lÃ¤nd isch
ĠGesamt wertung
ĠStandard s
steh er
Ġbeein druck
ĠExper imen
Ġdre hte
ĠZul assung
ĠGlei s
Beg riff
ĠBÃ¶r sen
grÃ¤ ber
Colle ctor
ĠOberg esch
N och
d ies
k le
k reisen
l imit
o on
w Ã¤nde
Ġ echte
Ġs ince
ĠC hal
ard t
Ġ17 00
ym ph
Sch ach
ĠSe elen
ĠMo h
hand werk
ĠGener ationen
ĠGut schein
ĠÃ¤ gyp
Per iod
ĠMess ung
Rel igion
Bundes staat
ĠKommand ant
Ġchines ische
Ġnorweg ischen
ĠEmp ire
Ġspecif ied
resp ond
ĠprÃ¼ fen
ĠBerat ungs
B esonder
F u
H ar
u ver
w enden
Ġ iterator
am azon
ĠH end
ĠW rest
ĠL ett
ĠZ in
lie ss
aus stellungen
ĠCh ap
18 93
ĠAm tes
mit te
bo hr
eig ern
such ung
ĠHoch zeits
ĠÂ °
ĠFre ie
ĠKr aus
čĊ čĊĠĠĠĠĠĠĠĠĠĠĠ
ĠHeil ige
ĠTrans fer
Ġverlie h
emb ran
Ġgener ell
ĠTur in
ĠQualif ikations
dehn ung
STR ING
Bef ore
Russ land
ĠLibr ary
ĠGitarr ist
Ġleiste te
P ubl
p ause
ï ¼
Ġ att
sch ungen
sch mer
ĠK evin
ĠG az
ol ine
ĠR ick
ĠR asse
ent ums
Ġp or
ĠSp eyer
Ġ18 25
Ġent s
ĠVor runde
Ã¶ff entlichen
Sp anien
Ġverl ieren
ĠCon stants
ĠTr ik
ĠFrei stil
ĠInd ones
Leben s
ĠsÃ¼d liche
ĠBÃ¼ chern
class Name
ĠVers ammlung
Ġind ischen
ĠHe art
ĠnÃ¶rd liche
ĠVerl etzung
CE SS
ĠCal endar
Ġzentr al
ĠGerman y
Ġcolumn s
ĠTisch tennis
Lin ks
gerichts hof
ĠClau de
ogn ition
Europameister schaft
ĠErkrank ung
ĠInterpret ation
Ġrestaur iert
ĠJord an
Assignable From
> -
B itte
M at
g eist
m esse
o i
v oller
č ĊĠ
Ġ arr
Ġd ay
ĠS ag
sch eiben
Ġs uchte
Ġv ideo
as ar
as ure
ĠM inden
ol es
de c
ĠR TL
ĠI B
ĠV ision
Ã¼r me
Ġge gliedert
ul arb
Ġt her
ĠVer mittlung
os kop
ĠAn tik
ce p
rie gen
Ġ18 28
ĠAr tist
Ġvor n
Ġ0 6
Ġ9 4
sel f
Ġ' \
Ġerhalten e
Ġschn ellen
ME SS
tic s
ĠPaul us
ĠOt her
not Null
ĠNo Such
ĠÃ¼b te
ĠrÃ¶m ischer
ĠLog istik
Ġnorm alerweise
Ġnotwend ige
ĠTrau er
ĠLy rik
Ġav ailable
Ġschwei zer
ĠMunic ipio
ĠMinn esota
andin av
M aster
O s
V M
e j
Ñ ĭ
ĠA hr
ĠK enntnisse
ĠT auch
il ang
ĠV ektor
ig o
ff el
Ġst ieÃŁ
os ion
Ġsch icken
Ġ18 17
Ġtr ugen
up l
Ã¶s ungs
wer pen
ilder t
ĠKunst denkmÃ¤ler
ĠPhil ip
AR D
Ġbeh andeln
Ġ180 9
Ġsicher lich
ĠGar den
stud io
ĠBud get
Kultur denkmal
ĠRÃ¶m ischen
ĠVerdienst ordens
Lang uage
Ġerfol glos
p ush
s yn
Ã¼ bt
ĠD ifferenz
ĠM eilen
ĠG lo
ĠP ict
ĠH ip
ĠR eturn
ad in
ĠfÃ¼r s
ver eine
ĠAr te
ĠSie mens
gr ammen
ĠÃ ģ
ĠAb sch
18 80
Ġ4 000
ĠUm zug
Er z
Ġres et
Ġersch lossen
ĠLei der
mÃ¶ bel
ĠHin dern
opp ing
ĠBran che
Ġanz eigen
ÅĻ ÃŃ
ĠjÃ¼nger e
polit iker
Ġhil f
sthe orie
ĠSoph ia
Ġregul Ã¤ren
ĠRav ens
ĠBundesverdienstkreuz es
ĠBulgar ien
R ect
i ation
on er
al ische
Ġs ing
ĠA D
ĠD L
ĠD il
ĠK au
ĠT ast
ĠV iv
ut ing
ro g
ul ieren
ad Ã©
ĠSch rau
ĠSt urz
ver hÃ¤ltnisse
ru it
Ġ18 19
Ġ18 24
18 88
az y
En glisch
ĠMus kel
Type Reference
lieÃŁ en
kl ein
Ver fahren
ĠRei fe
ĠWei h
ĠMed aillen
ĠX I
ĠEd in
wort h
ĠGeorg ia
ĠAuftrag geber
ĠUntersuch ungs
Ġdr amat
Byte Array
Byte Buffer
ĠAuff assung
ĠZeich ner
ĠUrs ula
ĠGru yter
quar tier
ĠFass aden
Ġorien tiert
ĠFlÃ¼cht linge
1 20
B ilder
H as
h Ã¤
j ugend
Ð ¼
ĠS i
ĠS echs
ar ab
ĠK rei
ol in
tr aining
ach ment
Ã¼r t
ot herap
ri f
ĠAn notation
ep pen
if ier
ont act
ĠFl u
Ã¤nd iger
teil ungs
Ver breitung
Ġher zlich
ĠArch ive
Ã¤ss ig
let ter
ĠRev ision
ĠVerl etzungen
ĠPan or
ĊĠĠĠĠĠĠĠĠĠĠĠĠ ĊĠĠĠĠĠĠĠĠĠĠĠ
Ġwor aufhin
Ġsah en
ĠtÃ¼rk ische
produktion en
ĠBrig ade
Ġcle ar
ĠHow ard
FuÃŁ noten
dater es
C L
G L
I r
P G
a a
k andid
l eister
s i
s ied
v gl
sch lies
it Ã¤n
Ġs uche
ĠB j
ĠF Ã¤r
ĠP oll
ĠP reisen
Ġer setzen
ĠI rak
ĠI dentif
ĠV olleyball
ed o
og ne
arb eiteten
ho b
18 85
ĠIm mutable
fl Ã¼ge
ĠGemein det
ĠgroÃŁ zÃ¼g
old ing
Ġen orm
str ument
ĠFamil y
Sp iele
ĠNord ost
ĠFr isch
RE AD
Ġbew ertet
ĠPer u
ĠMannschaft s
ĠProjekt s
herr n
Ġexten sion
getD efault
aust ausch
ĠAre al
ĠSym pt
Ġsamm elte
ĠTerr assen
Leicht athlet
T urn
w ende
z onen
Ġv en
ĠM Ã¤
ĠW ho
ĠT H
ĠT R
ĠT ee
ĠT hrowable
Ã¶ cke
ĠZ ier
Ġvor bereitet
18 95
ac tive
ĠVor haben
teil ten
Pro ps
ĠEnt deckung
ĠKir k
els on
ĠZu schau
aut omat
ĠRom ane
Ġkein es
ĠFrÃ¼ chte
Ġ180 7
Ġwes entlichen
ĠDÃ¼sseld orfer
Ste in
Ġide ale
Ġposit iven
ĠInner halb
ĠGesprÃ¤ che
ĠFranzÃ¶s ischen
Absol vent
ĠKÃ¶r pers
Ġverab schied
Separ ator
G EN
U RE
g riff
m ak
Î ¿
Ġi gnore
ĠM essen
Ġin f
ĠT U
ĠL enn
ir bt
ĠC P
Ġan wes
sp Ã¤ter
art a
if ication
ĠNach ruf
Ġex klus
ĠUm frage
Sch lag
Al ignment
to LowerCase
ĠBo ard
ĠLe ber
ĠFor est
ĠStud ios
ĠBeg leit
sw issenschaften
Ġerw achsen
ĠZahl ung
Ġ180 4
ĠPass au
Ġamer ikanischer
âĢĿ ,
kraft werk
ĠAbst ammung
ĠHoll and
Verkehr s
ĠPau lo
Modif ied
ĠkÃ¼nf tig
Ġberu ht
ĠZut aten
Ġdarauffol genden
J B
T Ã¼rk
o hr
an aly
ĠS ucht
Ġv s
et scher
ĠD avon
ĠD evelopment
ĠM uh
ĠK ick
ĠL ack
Ġo k
ĠDie go
la ster
uss ia
18 87
Ã¼nd lich
ĠAd v
ign y
Ġeinz iger
Ġlang jÃ¤hrigen
ĠDu o
ĠGen ossen
Ġstehen de
ĠSen ats
ĠhÃ¤ufig sten
Ġwes entliche
Her steller
ĠSow ohl
ĠVerteid iger
ĠCa es
ĠTw itter
ĠDunk el
ĠLiss abon
S ong
g Ã¼r
Ġd ruck
un ivers
sch uh
Ġin sert
ĠL E
ĠL yn
ĠC z
ĠIn fo
ĠAn sonsten
Ġc p
ĠEin stellungen
ĠAr gument
In v
Ġtr ock
Ġpro gress
Ġ16 00
ĠSo ul
add ing
oun try
ĠPar ti
ĠGrund stein
Ġverl iert
Ġselbst verstÃ¤ndlich
ĠMed ium
Ġqu alit
ĠFach bereich
bez irke
iat rie
rick et
kor ean
Nieder lage
ĠRÃ¤ umen
ĠGrÃ¤ ber
ĠDorn b
ĠBerech nung
ouv elle
D abei
N amen
s icherheit
t hen
w Ã¤hlen
ĠA pfel
Ġb ulgar
Ġi bn
Ġ( Â§
Ġn odes
ĠF loat
Ġf uture
and ie
ĠZ irk
Ġp al
os ia
ĠAn wendungs
Ġbe enden
ĠOr b
ĠPl att
Ġ17 94
fer tigung
mit ten
stan zen
ĠPh arm
ĠBeg leiter
dr unde
Ġur auf
ĠSan ti
ĠWer be
druck s
ĠGel b
ĠAnt eile
wissenschaft liche
ook ie
ĠErfolg s
ĠAnge hÃ¶rige
Ġverz ichten
Max im
vis or
ĠHy per
!! !
Valid ation
Ġunmittelbar er
ĠMd L
ĠAlli ierten
ĠGius eppe
amazon aws
C ast
E ben
S zene
Z iel
p ie
u is
Ġd evice
on struktion
Ġm iss
ĠF reis
ĠL ac
ĠC her
ĠC av
Ġge heim
Ġal ias
ver teilung
ĠJahr t
ak s
ĠMar athon
ieren der
set Property
set Text
ke a
sw eg
AR N
Ber echnet
spro jekt
Ġober e
sie ht
Ġselten er
ĠNÃ¼rn berger
ĠGall ery
Sa ale
ĠLeon hard
ĠHess ischen
mach ung
ĠErmitt lungen
ĠEntert ainment
ĠLoth ar
ĠHins icht
E E
S uccess
d iv
g ru
l ia
o hle
p an
w iesen
} .<
ĠM ob
ĠK Ã¤ufer
ĠR ug
eb el
Ġ18 27
Ġ18 31
ĠGr en
ĠNach hal
ĠNach mittag
sb rauch
ĠBe et
Ã¤u ber
Ch em
Ġpar ser
Ein en
ĠInd ustr
ĠCo ach
OR DER
Ġinter nen
ĠRu ine
Sh op
Ġung laub
ĠCal c
Ġtyp ische
Sel bst
ĠNeb el
ĠKÃ¶n ige
ĠProfess ur
ĠGord on
+ "
1 13
6 00
M Ã¤nner
S Ã¶hne
r und
È Ľ
Ð ¹
st uf
ĠD ess
ĠM ust
ĠM ake
Ġf ehler
Ġer zeug
ĠV Ã¶l
Ġg ast
Ġ18 33
her it
ĠMa z
pr ise
fl u
ĠZeit alter
Ġzw anzig
Ġ9 7
Pro blem
ĠĠĠĠĠĠĠĠĠĠĠĠĠĠĠĠ ĠĠĠĠĠĠĠĠĠĠĠĠĠĠĠĠ
AT OR
ĠFr acht
Mar ia
ĠDan ce
ĠFest ivals
leben s
ĠAnt hrop
Format ter
ĠErd beben
ĠPra ger
ĠBek ann
Ġerheb t
asp iele
Ġsup ported
Ġverschw unden
AuÃŁ en
ĠKart off
ĠStan ley
H A
c ell
â ĪĴ
Ġd iv
Ġm apping
ĠF arm
ĠV es
Ġver stÃ¤nd
Ġaus reichen
Ġr om
get Bytes
ov on
Ġ17 0
sb uch
ock er
ĠVerein ten
ĠWeiter lesen
ĠWill y
Ġmin im
ĠKosten los
mel den
ĠDesign s
Ġgl Ã¼ck
Ġfinanz iert
Ġerz Ã¤hlen
ĠSteuer ung
ĠBayer ische
Ġnied rigen
Ġausger Ã¼stet
ĠCarol ine
Syn drom
ĠSchmer z
ĠPokals ieger
ĠHawa ii
ĠgenÃ¼ gend
Ġprote stan
č Ċĉĉĉĉĉ
in stall
ar ing
ĠĠĠĠĠĠĠĠ ĠĠĠĠĠĠĠ
ĠF rag
ĠT hal
ĠC la
ĠC ON
sen z
ap pt
hn er
get Data
Ġvor gegeben
auf ent
Ġgew innt
ian ische
Ġbes etzten
set s
Ġbeg leitete
mar ine
lauf bahn
hei de
amb ia
ĠWinter spielen
Ġvorhanden e
AS A
ĠSek und
cas Type
Ġneg ative
Ġtschech ischer
Ġreligi Ã¶sen
chten stein
ĠPed ro
ĠContr ol
Ġportugies ischen
ĠLiebl ings
Ġherk Ã¶mm
B asketball
C annot
M Bl
R enn
p lain
s is
st im
ĠM am
ĠM Ã¼ll
ol ved
Ġh tml
ĠN AT
ĠU hren
ien d
ĠÃ¼ber arbeitete
ĠBer ger
ĠAb ra
18 84
ĠVor sitz
sk raft
eten zen
ĠRe eder
ĠEl l
ĠSe el
ĠWohn en
ĠEd gar
IT E
ĠLuft fahrt
ĠSen ior
Ref eren
produ kt
Ġtechn isch
ĠBal kon
Ġgeschlossen en
Histor y
Ġschlech ten
ĠLiefer ung
Ġplan en
izont al
HÃ¶r spiel
N av
a sten
k ische
in sp
ie se
ĠS we
ĠS ams
Ġs ure
Ġb atch
Ġm obile
ĠP rÃ¤sentation
ĠE mail
Ġf liegen
ĠN ort
ĠJ ochen
ĠC ourt
Ġauf wend
ĠU eber
ahr ung
Ġst Ã¼rzte
ru le
ĠEin trÃ¤ge
ef el
rit able
ĠGr Ã¶n
ac cept
ikan ten
Sch ul
wa it
ON G
ĠVerein igte
ĠHoch schulen
Ġeinz iges
stÃ¤nd igkeit
Ġkon kr
ĠStaats ange
Ġverst orben
ĠRechts anw
mod elle
Ġgegeben e
ĠKol onie
ĠAf rik
ĠEhren bÃ¼rger
Jo in
Pr int
Ġcomp ute
Ġmark iert
isto tel
Bran denburg
ĠRober ts
Sta ats
ĠSinf onie
D own
W N
b eln
k ritik
m Ã¼ller
ge zogen
ĠM Ã¶rder
em ar
ĠF our
ĠF asch
Ġf ik
ĠR eut
ĠR iga
re ktur
ĠSch ritte
os is
ĠEr ben
ĠÃ¼ber ein
Ġj etz
Ġ18 12
Ġent w
ĠOrt steile
ĠUr spr
ĠPhil harm
ĠCl ar
ĠOlymp iasieger
Ġhistor ischer
mod ule
spl Ã¤tze
ĠGesetz e
ĠlÃ¤nger en
ĠKirch spiel
ĠEvangel isch
ĠgewÃ¤hr leisten
ĠFI FA
ĠgewÃ¼n schten
Sdk Internal
J ean
f ire
un ternehmer
at ro
as a
em atic
Ġm atcher
ĠK rak
is AssignableFrom
Ġer weitern
ĠC ott
Ġver dient
ĠEin bau
Ġunter ird
Ġent sprach
Ġ17 98
Ar ten
ĠY ear
ĠSe arch
ĠWerk s
ĠVerb und
schn eider
zei tigen
ĠNieder schlag
ĠBew ertungen
cl one
Ge ometry
schein lichkeit
Ġbez og
ĠAch ter
ĠPartner schaft
ĠRem ix
ĠEhr enz
ĠCa stell
Kan ada
ĠSchr Ã¶der
cul ate
Ġprov ider
kre te
ĠLaus anne
gÃ¤ ste
beteil igung
ĠHumbold t
K S
ĠS ain
sch ers
ĠD FB
Ġein gel
us sten
ĠC anad
Ġr ief
eil le
ech tigkeit
zen en
18 97
18 83
ĠVor schriften
ĠVor bereit
fl ossen
br achte
sk op
Ġange kommen
vor stand
Ch unk
ON E
ĠDar in
Ġor igin
ĠMath ilde
ĠGast ron
All gemein
tre al
ĠPor zell
Th is
mon at
ĠAbgeord nete
Ġerschienen en
ĠKÃ¶ hler
cr ement
ĠSem ester
Ã¼h ungen
ĠSynchron sprecher
ĠJahrhund erte
Ġkost et
ĠGreif swald
) }
B uild
S onder
T ick
V irtual
g ei
g Ã¤rten
n ing
s iedlung
u ti
un ten
Ã¤ umen
ĠSch uppen
ah a
Ġst ep
ri fft
Ġun be
ger echnet
ĠEr ror
get Absolute
la ve
her z
th aus
ĠGer ichte
ĠFrei heits
ĠSc reen
fr Ã¤n
Ġjeweil ige
US ER
ĠSchiff es
Reg ie
Ġmein te
ĠFil ial
Ġbed ingt
Ġstamm ten
Ġstate ment
ĠPrem ium
Ġumfassen den
ĠUrs achen
NO DE
ĠWurz el
Ġverteid igen
Ġschot tischen
ĠfÃ¼hl t
Ġoffens ichtlich
ĠEncyclop edia
Ġd ick
st Ã¶rungen
es a
Ġs ome
as List
ĠK Ã¤mpfe
ĠF rom
ĠG riech
Ġf ail
ĠR ast
Ġk andid
Ġver wirk
ger ichte
Ġc ms
Ġsch laf
ĠAl ois
In tern
ĠPro gress
ĠMit tag
ĠAus rÃ¼stung
ens ystem
ĠBau werke
amen ten
ĠDem oc
ĠZug leich
ĠAnt werpen
ĠSicher ung
ĠJournal istin
ĠDist rik
sei tigen
iffer ent
Ñģ ÑĤ
Ġberuf lichen
Ġhochwer tigen
ĠWik ipedia
Ġbelg ischen
Ġreag iert
Av ailable
lok omo
ĠSatell iten
SdkInternal List
G etter
S m
j u
č ĊĠĠĠĠĠĠĠĠĠ
ĠD sch
Ġz iel
ĠK ot
ĠW ladimir
ĠW orms
Ġ2 20
Ġh ielten
Ġc ontains
In stances
urg ie
ob a
En gl
fÃ¼hr ende
ĠGeb irge
ĠUS B
imm y
gew orfen
ĠÃľber reste
iden ce
Or ts
such en
ĠNational en
ĠEv olution
ĠTal ent
ĠHart mann
ĠMerk ur
Ġwohn en
sl alom
grÃ¶ÃŁ te
ĠPersÃ¶n lichkeit
ĠSus anne
Ġgesund heit
fass ade
I dentity
P ierre
b urn
h um
o a
Ġd ownload
ĠM AX
ĠK anten
ĠP ia
ĠE id
ĠL ehn
Ġden ke
Ġver wei
rie ve
Ġ" \
18 71
Ġ17 90
stan ti
An ti
ĠÃľber setz
ide en
Ã¤nder ungen
Ġgel Ã¶st
alse kretÃ¤r
ĠKn ie
Ġabge halten
ĠMarkt platz
Ġmethod s
Ġung arischen
Ġgl Ã¤n
Sport veranstaltung
Ġorganis ieren
Prov inz
lÃ¤ufer in
BC I
raw able
Ġunbek annten
Ġitem s
Ġter m
Rem ove
Ġanges ichts
ĠPir aten
Ġmel den
Ġstren g
ĠSchmal spur
Tran sport
Ġfas zin
ĠEdin burgh
. âĢĵ
7 00
T re
T itle
W ieder
f ehler
k urz
r v
s ame
au me
Ġs uch
el f
Ġm ol
Ġh uman
Ġmit hilfe
Ġan halten
ĠSch e
Ġl uther
he ft
Ġsch lagen
be arbeitung
Ġbef reit
app ed
rom an
ĠGroÃŁ er
ĠRech er
Aus bildung
ĠRom a
ĠVolks schule
23 4
Fac tor
Ġ180 5
ĠschÃ¶n er
Land tags
Ġabsolv iert
Pol en
Ġnied rig
ĠHab ilit
ĠBefrei ung
depen dent
d l
g h
k Ã¶r
r Ã¶m
t age
Ġ eig
ge laden
Ġs ave
Ġein heim
Ġm g
ĠW ass
ĠL ehen
ĠR ande
ĠV eget
ĠN ULL
Ġo hn
get Node
Ġbe zahlen
âĢľ :
18 86
18 81
Ġgew erb
alen a
ĠKunst geschichte
pp ed
Ġper iod
ĠKar ib
FuÃŁball nationalspieler
ĠGeh Ã¤use
ĠZur Ã¼ck
Up per
FI ELD
ays ia
Comp uter
ĠPop ular
Page Link
ĠjÃ¤hr liche
Ġprofession elle
ĠBade zimmer
marsch all
typ es
Ġjahr el
ĠBiograph isches
Ġgolden en
ĠPriv ile
ĠMyth ologie
Ern st
sbes itzer
ĠlÃ¤nd lichen
Entfern t
H of
K ommun
L ife
R echt
d io
j on
ei bung
te ams
ar est
Ġein fluss
ĠT Ã¤
ĠJ un
Ġg lauben
ist urnier
ĠâĢ º
ah ler
Ġbe zeichnen
ĠÃ¼ber nahmen
Ã¤l z
be er
ĠKon sequ
Ġbet ont
ĠQu ad
app y
ĠBo ots
fÃ¼ hl
lig ht
ograf ien
ĠZwei fel
RE S
FuÃŁball torhÃ¼ter
Ġabge legt
ĠTechn ologien
Reg istr
aj ew
ĠNot wend
haf ter
CO DE
dat ei
ĠWahr nehmung
Ġstammen de
imen sion
ĠSchlag zeuger
ĠHy b
Ġvis it
ĠFein d
ĠAufent halts
ĠMÃ¶n chen
ĠjÃ¼ng ste
gelegen en
schrau ber
ĠJubil Ã¤um
ĠJÃ¼n ger
krÃ¤ ften
ĠÃ¼berprÃ¼ fen
T ier
T ile
W id
f Ã¶rder
g Ã¼ter
Ġ ell
ĠS ED
ge stellte
ĠK arn
ĠP for
Ġf und
ĠL Ã©
il f
Ġg iven
Ġr s
ĠAn halt
get Parameter
rÃ¤ g
ĠLand schaften
St ats
ev al
ev oll
Con structor
sh ort
gesch Ã¤fte
ĠPr inzen
ĠHaus halte
ĠMittel n
ĠBas eball
hÃ¶ fen
ĠOlymp ische
ĠTor ped
SE CON
Ġversuch ten
Ġempf ohlen
ĠTa sche
Pol y
ĠQualitÃ¤t s
ĠStat ue
ĠKontr oll
Ass oci
J ul
Y ear
s sen
á ¹
ĠS eh
Ã¤ ums
Ġf rau
ĠH ohl
ĠN acional
ĠJ h
Ġ18 26
Ġab schloss
ĠVor ort
Ġseiner zeit
Ġwieder her
ĠGroÃŁ vater
ST ART
Ġper man
ĠKreis stadt
ĠMos k
Ġdr auf
Jo urnalist
Amer ican
Ġdest o
the orie
verl etzung
ends With
rein igung
Sing les
A ktion
P OS
b anken
h eight
i Å¡
er ungen
sch ach
sch atz
Ã¤ ule
ĠB ody
as y
ĠD ead
ĠK ate
ĠH ers
ĠT s
ĠJ ay
ĠâĢ ĺ
Ġun regel
Ġsch ar
Ġsp aren
ĠAuf stand
ac cess
oc aust
fl Ã¼ss
eigen en
ĠEs c
ĠGes ell
Ġ10 1
ĠAd olph
orn o
Ġgesch w
ĠHand lungen
Ã¤nder ten
[] {
fÃ¼ gt
out ube
rech ten
ĠKar os
ĠFer tigung
ĠGu ard
Ġnieder lÃ¤ndische
ĠBot aniker
Ġnational er
Ġelektr onischen
Ġaktiv iert
ĠEhren mitglied
annot ation
ĠWissen s
schlÃ¤ gen
agnost ik
Ġvorder en
PAT H
Schwe den
ĠAbhÃ¤ng igkeit
Ġfran Ã§
Publik ationen
L abels
M AP
W ild
p x
Ġ ..
an us
te le
ur st
Ġn Ã¼tz
ĠK reise
ĠP all
ĠP RO
ĠL enz
ĠC hen
Ġg laubt
Ġver Ã¶ffentlichen
Ġp s
Ġr andom
Ġc re
ĠSp ons
od s
br ingung
ite es
Ġges perrt
reu ung
ĠPlatz ierung
Ġall mÃ¤
stru ct
ĠBÃ¼rger krieg
Ġgem isch
ĠRef lex
Ġzeit gleich
FI G
ĠBig Decimal
Ġchild ren
Ð¾Ð ²
ĠKomposition en
bil dern
Alex ander
f ull
l Ã¼ck
Ġ ess
ĠS ituationen
ĠB ond
em on
am me
ĠK lage
ĠK olumb
ĠF lieÃŁ
ĠP aten
ĠR in
Ġer mitteln
re ader
ĠO S
ver folgung
lie sen
Ġvor geschlagen
tig ungen
ĠAb fahrt
ez eit
omm e
pr om
meister s
ogen e
ĠStand orten
ĠDi mension
ĠLebens jahr
ĠBeh Ã¶rde
ĠDis play
ĠBef Ã¶rderung
mÃ¶glich keit
ĠGut achten
ĠÃ¼b licherweise
MP TY
Ġproduz ieren
ĠPil ger
Ġwirtschaft lich
ĠtÃ¤ glichen
Ġirgend wie
ĠgewÃ¤hr leistet
Ġcle an
ĠKrie ger
Ġil leg
ĠOri ent
Serv ices
H R
R untimeException
p rak
at sch
ĠB iel
ĠD ag
Ġm ater
Ġz ivil
ĠH its
um ph
lich keits
sp anisch
aus gaben
ok ko
av ier
ĠMa ine
Ġgew Ã¤hlten
ĠCon figuration
ĠSchul den
Ġaktu alisiert
Ġbeh ielt
bez irks
Ġsol ange
ĠKur se
Ãĸ ff
ranken haus
<? >>
ĠprÃ¤ z
ĠHin blick
kn Ã¼pft
bÃ¼ chern
Sport ler
ĠAustr alia
ĠKre ativ
Ġwohn te
ĠUnterricht s
ĠKohlen stoff
ĠUd SSR
E qu
P or
P UT
Z en
b rief
k rÃ¤f
l ernen
l uther
t otal
Ġ 000
in formation
Ġd one
es see
ar isches
Ġw ord
Ġdie jenigen
ĠF aktor
ĠW ars
ĠL ess
ĠL utz
Ġge he
ĠAn sprÃ¼che
Ġc ool
Ġvor erst
pl ates
ho tel
Ġel e
ĠBau arbeiten
gew erb
Ġben annten
ĠMitglied schaft
ĠCo us
čĊ ĠĠĠĠ
ĠStaats sekretÃ¤r
Her ausgeber
vis it
ĠInterview s
Ġneg ativ
LI ST
Liter al
ĠKrist all
Dur ation
ĠJahrhund erten
Fra ktion
G ast
k ologie
m ore
p assen
p refix
w elle
ĠS ource
ĠB GB
ĠD ak
ĠG am
ĠE k
Ġau spro
ist iken
Ġver ring
ĠDie t
ow ka
ĠAn ime
Ġwar m
ap ti
esch ule
ĠEr hÃ¶hung
Ġwir st
Ġvor zu
Ġab stra
auf tr
ill ons
ĠAb sicht
Ġen tries
ĠEl be
ĠEurop ap
echs lungs
ĠEd itions
ces sed
Ġte sten
Ġte uer
ĠFolge zeit
ipp i
iam i
ĠVeranst alter
Dec l
ĠCap it
ĠÃľberg angs
ĠPassag ier
ĠVermÃ¶gen s
seg ment
Ġidentif iziert
ĠEth ik
ĠReichstag s
Ġact ual
H igh
R obert
T uple
k Ã¤
t Ã¤tigkeit
un ch
ĠB aus
ĠB innen
ĠG UI
ti ce
Ġer setzte
ĠI X
Ġge handelt
Ġver gangen
ĠZ ar
Ġp ush
ew ald
ungs weise
ĠSie gel
enn amen
br ach
ĠLu ise
ĠLu kas
ĠTr ump
con vert
ĠInd iana
ari us
Ġstark er
Ġwahr en
ĠWein bau
ĠOs man
ĠAuftrag s
verw altungs
ĠPsych otherapie
ĠÃ¤uÃŁ erte
Sub scription
ĠPok er
ĠCos m
ĠBeob acht
ĠBeschÃ¤f tigung
ĠReprÃ¤sentanten hauses
ĠvorÃ¼ber gehend
E ner
F ort
Ñ Į
ĠB uff
ĠH ass
ĠH ugh
ĠT iefen
ĠV at
ul us
os er
Ġun weit
Ġc f
fl ikt
mit gliedern
set Attribute
gemein schaften
amp a
ĠMan che
ĠCon serv
ĠFriedrich s
ĠDi agnose
stre ck
ĠHerr schafts
ĠBi ologie
ĠLudwig sburg
oot h
yd rau
umm el
ĠJoseph us
fÃ¤h ige
ĠGottes dienst
ĠPubl izist
Lou is
W F
W ait
m ans
s amen
Ċ ĠĊĠĊ
al ischen
Ġw enden
Ġv olle
ĠM ez
Ġein setzen
ĠF ull
ĠP end
ĠW Ã¤nde
re gen
ĠN ak
Ġl an
ĠIn tr
ĠVer einen
Ġst irbt
Ġr Ã¶
ĠSp alten
ĠAr ist
qu en
Ġle ere
pro vis
zeit lichen
Ġges endet
gew Ã¶lbe
ĠQu al
ĠJan e
ĠGe orges
Par allel
Ġverschieden sten
ĠBuch es
Ġbew erten
ĠGegen stÃ¤nde
Ġ180 2
Ġleben s
has Access
(( (
ĠRa im
ĠZuge hÃ¶rigkeit
durch schnitt
Ġerl itt
Ġschlech ter
ĠlÃ¶ schen
berech tigt
ĠGirl s
ĠMetrop olit
A qu
C ore
W al
g Ã¤u
g riech
w ann
w Ã¼n
à ¤
Ġ ),
ĠS alt
ge mÃ¤
or ed
Ã¤ be
Ġm is
ĠC ash
Ġge boten
Ġzu stÃ¤ndigen
ot es
Ġ} ,
ĠAn atom
la k
lie f
ak ul
ill i
ohn en
lag ert
Ġbes ei
yp ern
ĠgehÃ¶r enden
ĠSe eh
ĠHaupt straÃŁe
ĠBeg leitung
ĠGeh irn
getC urrent
Ġpass word
ĠTÃ¼r ken
Ã¤dagog ische
Ġvorher igen
Ġbelieb testen
Ġerheb liche
Ġbean trag
Ġvergleich sweise
Ġco uld
Stud ien
ĠAns ichten
ĠGefangen schaft
ĠWis consin
ĠAusgang spunkt
sem ester
ĠSyr ien
P rev
R ud
f isch
es is
ĠS tif
ĠD opp
Ġf usion
ĠL ey
and ro
ir ts
Ġt okens
sp ath
get Status
id ar
fl Ã¤ch
Ar ab
iss a
Ġ10 5
ĠMan tel
recht lich
platz ierten
Reg ister
ĠBi ber
ĠZahl reiche
ĠTest s
ĠTo ul
Ġchar acter
Ġret val
ĠKÃ¶nigreich s
ĠLi bert
ĠZimmer mann
ĠBÃ¤ cker
VerÃ¶ffentlich t
Ġdein em
Auth or
Ġbrasilian ischer
B I
B lack
H P
L egen
P ane
W inter
a dern
an os
ĠG eister
ter nen
Ġf air
ĠH eid
ĠW at
ĠW ink
Ġer teilt
ro tt
Ġauf geb
Ġauf bew
ĠZ ag
Ġl ohnt
ĠSt uck
men gen
Ġr unden
op t
Ġ" "
ue z
if tet
av i
St aat
los ing
Ã¶ff nungs
Ġ7 50
Ar n
stra int
Mit glieder
Ã¤m ter
ĠSe es
ĠHo spital
con tr
Ġgemein t
ĠDr achen
ĠBas ic
rÃ¤n kung
Ġschwer er
Ġad ded
ĠEing angs
Ġeinzel ner
ĠÅ ½
Ġverz wei
ĠPlay er
ĠExper iment
Mon itor
ĠZweit ligisten
ĠTaschen buch
ĠFla schen
ĠSozi ologie
Ġbetr achten
Ġaufgel istet
ĠYor ker
ĠJAXB Element
N C
k ompl
n est
y y
ie hlt
ĠG E
ĠE w
ĠE cken
ĠT ell
ĠL Ã¼tt
ĠR og
ĠR umpf
ĠC urt
Ġge ehrt
ser ba
pe kt
ĠPro cess
Ġent tÃ¤u
par ed
pf arr
Ġ0 3
utz er
Al tern
Ġange meld
ĠPol ar
ĠLandes hauptstadt
kon zep
amb a
ĠBru ce
ĠErst ligisten
ĠRen ten
Ġerfolgreich sten
ĠGar de
Ġsc an
Table Name
Ġbegr enz
Pr ice
ĠTur b
DI ALOG
ĠAngriff e
Ġkanad ische
ĠJSON Object
Ñģ Ðº
ĠLaw rence
ĠByte Array
ĠtÃ¶ ten
ĠangehÃ¶r te
ĠFlag ge
ĠMagaz ine
serba idsch
k loster
ĠM S
Ã¶ hm
Ġver schl
ĠAn ruf
im er
ib ri
18 78
eim ate
Ġgegen einander
ĠUnter haltung
ĠVerb Ã¤nde
con figuration
ĠCl ara
As String
ĠIde al
Trans form
Ġkompl etten
Ġtyp isch
ĠPan el
ĠGran it
word s
Ġmet adata
Ġbein ahe
ĠKanz lei
Ġnames pace
ĠErkrank ungen
ĠStaatsbÃ¼rger schaft
ĠLegisl atur
TRI B
1 15
C AC
J Ã¼rgen
f aktor
k asse
l yn
or b
ĠA fter
Ġi Phone
ĠM Ã¼
ĠM ehl
is emit
ĠW LAN
Ã¶ h
il o
ro se
Ġge hei
ad es
ĠSch af
Ġ18 22
tet t
18 64
ĠFl ur
ian i
rÃ¼ der
sb l
ĠÃľber setzungen
ĠKunst historiker
ĠFol k
Ġarb eiteten
Ġdazu ge
Ġung arischer
ĠHir n
ĠSchwar ze
ĠAnw ender
ĠMand at
Ġdep enden
edig lich
oler anz
ĠMid d
aph ys
Qualif ikation
isto ire
ĠForder ungen
ĀĀĀĀĀĀĀĀ ĀĀĀĀĀĀĀĀ
Ġprofit ieren
Ġgepf legt
ĠEngine ering
ĠDifferen tial
ĠgefÃ¤r bt
ĠSymb ole
C ustom
M el
M ad
M ore
f uÃŁball
h ans
n ischer
o ine
or ger
Ġs obald
Ġein her
ĠF ick
ĠP fe
ĠR af
ĠN O
ĠC E
ĠU t
ger te
ĠBl as
ĠMon treal
ĠWert ung
ĠGl anz
ĠGl Ã¤ub
link plain
ĠBahn steig
ĠGen re
ĠVertr etung
gar de
ĠMaler in
ĠAir port
ĠFrie der
gem Ã¤lde
ĠEben en
Content Type
Ġelektr onische
ĠEst land
ĠKlass iker
ĠJon as
ĠKost Ã¼m
ĠVul kan
ĠHÃ¤nd el
G ruppen
N eue
R ich
Z ahl
n itro
p attern
Ġ \
st al
Ġv iert
ĠB oll
et tel
ĠM ahl
Ġm essen
ĠF Ã¶der
ĠZ ig
Ġaus sehen
Ġr as
Ġr einen
ĠUn ternehm
ĠStr als
ges ucht
18 70
18 75
Ã© es
Sch Ã¶n
Ġbef asste
IN DEX
ĠBo eing
ĠFilm produzent
ĠfÃ¼hr ende
ĠHo he
Ġteil t
ĠPhil ippe
uck y
ĠTechn iken
anc ouver
Ġbede utete
Ser ializer
ĠÃ¶ff net
ĠRot ter
System atik
loc ation
Ġsorg fÃ¤l
Christ ian
Ġpopul Ã¤r
ĠPerspek tiven
names pace
ĠGlock e
ĠPlast ik
Pointer Exception
Denk mal
ĠkÃ¼mm ern
Ġgere gelt
Ġurauf gefÃ¼hrt
A A
D D
L y
O FF
V B
f unction
g ium
n ien
z Ã¼glich
Ġ ĊĠĠĠĠĠĠĠĠĠĠĠ
sch in
Ġs ee
Ã¤ ften
ĠG eiger
ĠP i
re port
ĠV alen
Ġim m
Ġg Ã¤ng
Ġver eint
ag ert
ed es
ĠAn merkungen
ĠAn passung
Ġvor nehm
ĠMa st
ĠLand graf
anz eige
ac ters
gl adbach
hÃ¶r er
amil y
ĠSchl Ã¶sser
ĠGener ald
arch y
ĠLin col
Ġbeh eimate
ĠKultur en
anc ed
uttg art
med ien
Ġentstanden e
eiger t
ektion en
Ġbedeuten der
Ġap i
jo urnalist
Ġanz us
Ġentscheiden d
rel ation
Meister schaft
kom Ã¶die
ĠAster oid
ĠKonzep te
ĠHT ML
ĠSpren g
ĠOsttim or
A ktiv
C W
K r
a ine
d ampf
f it
v om
ĠS egment
sch ritte
ĠB elle
ĠK ass
ĠK uchen
ĠP aw
Ġh igh
Ġan al
Ġzu stande
Ġp red
ot ti
Ġr oll
ap o
esch en
Ġsch mer
18 79
ile y
Sch edule
Ġbef re
Ar rays
Ġgesch ah
Ġgesch afft
ĠNeu tr
ĠZu hause
ĠKÃ¶nig lichen
Ġbel ast
Ġersch ossen
ĠKan te
Ġwahr genommen
ĠHerren haus
museum s
Block ing
ĠSchmer zen
ĠZy linder
zut age
Ġhr sg
ĠBaumw olle
ĠUrspr ungs
G eh
a endert
s ide
v ariante
Ġw ander
el ung
ĠB ien
ĠD C
Ġein setz
ĠK i
ĠF eiert
Ġf ragen
ĠW ord
ĠL anc
ĊĠĠĠĠĠĠĠĠ ĠĠ
Ġzu geschrieben
eut zutage
ster b
Ġum gest
geb Ã¼hren
Ċĉ ĠĠĠĠĠĠĠ
stein s
ĠMÃ¼n z
enk te
ĠVerb ot
ĠSÃ¼d seite
ĠHÃ¶ hle
weis ungen
leb nisse
ĠDep ression
grÃ¼n der
Ġgriech isch
ĠstÃ¤r ken
ĠSl alom
Comm on
Ġeingesch rÃ¤nkt
array copy
jew itsch
Ġsor tiert
ĠBegeg nungen
ĠFreder ick
/ -
H op
I K
P P
R T
S imple
Ġ tier
en gt
Ġd oppelt
Ġs onn
Ġi v
ĠG ib
ten ded
Ġf ilename
is ierungs
ĠR ib
om atic
Ġan trat
Ġver mein
ĠSt all
ver schluss
Ġaus ser
Ġsich ere
ster ben
lie be
Ġsie bten
Ã¶r tlich
stell ter
ep er
rÃ¤ u
ĠAus lands
spr inger
Ġen gen
Ġen coding
ĠSchl ange
ĠHa are
ĠKr ise
ĠTo y
ĠGi ft
ĠCom edy
ĠLau ren
Ġhab t
ĠCamp ing
ĠGÃ¤ sten
ĠEngl ischen
wes ens
ĠJed es
ĠLot hringen
G ar
M or
M ach
W alter
v ing
Ġd ritter
st ack
st imm
ĠS AP
ur k
ĠB indung
Ġein sch
Ġz Ã¤hlten
ĠK eil
ĠF len
ĠF eucht
ĠP lace
le uten
ĠV all
ig s
ĠSt abilitÃ¤t
ot ing
Ġbe deut
stell ungsk
Ġ13 00
riv e
Ġgeb rÃ¤uch
ĠAp ps
uk i
Ġwill kommen
IT H
Ġ180 1
mod if
Ġangeb aut
ĠAir bus
Ġklass ischer
Ġbeein trÃ¤ch
ĠWall fahrts
ĠWol ff
Ġanzu zeigen
ĠBir ken
ĠRy an
ĠAtlan tik
( -
B ER
C enter
G ed
f ers
ĠM Ã¼tter
Ġm u
ĠP Ã¤dagoge
Ġf etch
ĠT ru
ĠL iver
ĠI F
Ġk B
Ġk rank
eit h
Ġl ob
eh in
ĠSt one
ĠâĢ Ļ
Ġr ender
ap plication
Ġc ommerce
Ġnach zu
ĠVor lauf
dem ar
Ġkl icken
ĠÃľber lieferung
ction s
ĠGra ham
buch t
bew eg
Ġwichtig es
Ġdeut liche
ther ap
ĠMel bourne
ĠAuÃŁen minister
ĠHeraus gegeben
ĠjÃ¤hr lichen
Part ei
lowak ischen
ĠSup port
Ġdunk len
ĠTurn er
ĠÃī d
ĠMount ains
Ġinitial ize
ĠmÃ¤nn liche
Kan al
ĠGebiets reform
Ġgeeig neten
schwar z
ĠMoz art
ĠTelek om
ĠZuschau ern
R untime
c olor
i ja
j agd
an schluss
ĠS F
ĠD iss
ĠK essel
ĠK leider
ĠG ei
ĠH ack
ĠT wo
ĠL ars
ĠR i
ĠR ez
ĠV ie
Ġst eigern
eg a
Ġc ontain
op el
ĠJahr est
ert s
Ġj ens
ĠEin flÃ¼sse
tig ungs
Ex per
omm ission
Ġ17 89
bl ut
Ġzusammen gestellt
Ġverl Ã¤sst
ĠWei den
ograph ien
ĠBel eg
IC HT
ĠDe te
ĠVerwaltungs sitz
Sport liche
Ġra w
sto ÃŁen
ĠTelef onn
gener ate
Ġrep rÃ¤sent
ĠDebÃ¼t album
ĠrÃ¼ck te
ĠWÃ¤r m
Ġreligi Ã¶se
schi ffen
ĠSkulpt ur
Ġkaiser lichen
ĠSchwanger schaft
maur er
Ġhabilit ierte
Leichtathlet ik
F ailure
W all
W ords
t ail
ĠS M
ĠĠĠĠĠĠĠĠ ĠĠĠĠ
ĠG iebel
ĠH tml
ĠW Ã¶l
ĠL ost
ĠL yr
op ath
ĠSp rech
Ġsch mal
ĠEn ter
erk rank
Ġsp ont
fl ush
(" -
ĠAm ate
Ġ17 50
Ġ17 93
Ġpro gramm
Ã¶l n
add ress
ĠAd ress
Or dens
ĠSe ver
ĠGef ahren
com e
Ġ[ "
Ġhinter en
spro du
IC E
ĠKompon ente
ĠAs yl
oo ks
aktiv iert
ĠKab ar
Â« ,
wander er
Ã± a
ĠAre a
ĠForder ung
ĠErgÃ¤n z
Ġverlei hen
Ġverlang t
Ġstet ig
D iff
S napshot
W ald
b els
p osten
ĠS ven
ĠS ervlet
und ing
Ġb itten
ĠG und
ĠG ent
ĠP utz
Ġf rÃ¤n
ti zen
ĠT rÃ¼
ĠT enden
Ġl okal
ĠSt Ã¶rungen
esch t
ug s
up s
ov ice
enz a
Ġwieder hol
Ġget an
ĠLu cas
son st
ĠX V
dr Ã¤ngt
ĠDi abet
ĠRad sport
čĊ čĊĠĠĠ
ĠPal Ã¤st
ĠChar acter
ĠDam als
ĠBesitz ungen
Ġklass isch
Ġerk annte
ops is
ĠSor ten
ĠBil anz
Dar Ã¼ber
Ġlatein ischen
ĠMÃ¶n ch
Ġchem ischen
ĠDial ekt
afr ikanischen
Ġgros se
kanz ler
Us age
ĠPac ific
ĠViet nam
ĠJugoslaw ien
Agg reg
Maxim ilian
A Z
B Ã¼
F ilme
I ts
P ublic
c f
i able
z ulegen
Ã ²
ch rist
st urz
ĠS cript
ĠE X
ĠL od
ab y
ir men
Ġp e
sp unkte
ĠAn sprech
ben ennung
ĠÃ¼ber legen
ĠEn ts
ĠAb fall
our en
Ġpro xy
add Component
app el
Ġher an
50 9
ĠMenschen rechte
ott a
kon s
Ġkon sequ
LE MENT
Ġkurz em
Ġmein es
ĠMor ris
Ġsol ches
ĠKÃ¼nstler s
ĠKreuz ung
Obj ects
ĠBesuch ern
Ġausgew Ã¤hlte
ĠbeschÃ¤f tigen
ĠGit arren
ĠÃ¼bergeben e
ĠunabhÃ¤ng igen
Ġlau tete
ĠMittelalter s
Ġchrist liche
Ġpubl izierte
ĠRezep tion
ĠJon athan
Qualif ied
Ġimpl emen
Ġkompon ierte
ĠOrien tierung
F el
P sych
S ection
n ummern
u sten
st eht
ĠA hm
am ed
ĠĠĠĠĠĠĠĠ Ġ
Ġf ried
le ted
ĠW ith
us a
ad ron
ĠSch aum
Ġp lay
Ġc ell
rie le
mer kung
ĠEin nahme
ĠSie b
stell bar
18 74
Ã© l
ong o
ĠAd ams
ĠFilm fest
Ġange griffen
Ã¡ k
ĠMo hr
ĠChrist ina
gleich en
ĠNational versammlung
ement ation
hand ler
Ġlang jÃ¤hrige
Ge ographische
ĠCl ark
ĠBru ders
ĠPal ais
Ã¨ ne
Ġerf uhr
leb ten
Ġnorm ale
Ġpass ieren
ĠGerman istik
zub ilden
Ġvergleich en
ĠKaff e
ĠChallen ger
Optional Parameter
Ġerlern te
A ff
D etail
M eine
R en
k Ã¤mpfen
v all
ĠS tem
Ã¤ ge
ĠD anzig
ĠF ul
ĠG lob
ĠW Ã¤lder
ĠL ub
Ġh ead
Ġg reift
ĠZ elt
ĠAn stieg
op ro
In it
Ġunter einander
Ġtr eu
Ġtr ace
ĠAuf hebung
ĠMar ion
Ġbet rifft
10 5
Ġher ab
ĠPr inc
ID E
ĠNational rat
ĠDar unter
ĠStand orte
utt a
Index Of
erg ie
bet on
ĠRu inen
Ġexist ierte
ande d
ĠGed Ã¤chtnis
ĠProgramm s
Bl ank
Ġverlie bt
Ġverz ichtet
ĠStoff e
Ġeinzig artige
Ġaustral ischer
anon ical
ĠGatt ungen
SO URCE
ĠChallen ge
ĠOnt ario
ĠLincol n
G N
P N
h ow
y k
Ġ Ã¤ndert
Ġd ra
an h
ĠM igration
ĠK assen
ĠK ette
ĠH ain
ĠW etz
ĠN Ã¤hr
ĠC ontinental
ing hausen
ik ern
ĠZ ucht
Ġsich eren
ĠÃ¼ber gab
ĠAr min
ĠGr em
ast ral
ator ische
Ġeigen em
ID I
ĠDar lehen
ĠMich ail
schw anz
ĠVertr etern
Format Exception
Ġregel mÃ¤ÃŁige
Tem p
ĠEhr e
ĠSchlag zeug
Ð½ Ð¸
Se q
Ġnachhal tig
ĠGeschlech ter
prov inz
ĠKonzentr ation
Bay MBl
Ġnationalsozial istischen
D ev
E ach
S ehr
n ote
p n
s eller
Ġ ensure
ĠS ummer
Ġs en
Ġs lot
ĠB eth
ĠG ian
ĠP ont
ĠP eng
ĠE if
ĠW affe
ĠL Ã¤ufer
Ġh Ã¤ngen
Ġan dern
Ġver glichen
sp uren
eg ation
ĠUn supported
ĠAr tikeln
Ġunter zeichnet
ĠAb bruch
if izierung
ahn sinn
Ġber lin
amil ton
gew Ã¤sser
ĠOber pfalz
wend et
ĠAut omat
ĠBes iedlung
Ġverl aufen
reg on
ĠOl sen
ĠHol ocaust
fra gt
Ġrel ative
Ġfl achen
haupt mann
ĠGott lieb
ĠAnge la
Ġdr ingend
ĠEntscheid ungs
ĠAbst immung
Rad io
ĠOffiz iere
Comm it
ites pace
Gew Ã¤sser
Ins gesamt
Stat istik
ĠÃľb ungen
feuer wehr
Ġgros sen
FER RED
G ateway
L it
j ap
z ten
sch ne
Ġw ovon
ĠB ehr
ĠK iew
ĠH eld
ro de
ĠN OT
ĠAn to
Ġwar tet
Ġ4 50
ĠKl ick
ĠGeb irgs
Er mittelt
ĠBe end
Ġerst aun
ĠFilm em
dr Ã¼ck
ĠNatur park
ĠFach hochschule
ĠGu ido
Person en
Ġad ap
ichter stattung
Ġbestimm ter
sie ger
ĠÅ Į
ĠGet reide
Ġprak tiz
Mon th
Ġhal f
ĠJob s
Ġreduz ieren
Ġetabl iert
minist ers
riz ona
ĠWÃ¶rter buch
ĠAbra ham
? âĢľ
B all
E valu
S uffix
V en
k ante
o ires
st ums
sch Ã¼tze
ĠM ale
ĠM auern
Ġm ac
Ġm ache
ĠK ad
om bo
ĠJ r
ĠSch affen
Ġsch arf
ĠPro ben
Ġunter nehmen
Ġtr aum
up dateres
Ġsp ir
ard i
ip ment
br Ã¼che
ĠStadt bezirk
Ġth em
ren e
ĠBest en
ĠKr as
ĠArbeit splatz
ĠBel euchtung
ĠStaat lichen
ĠBeh andlungs
ĠAnt arc
ĠAss istenz
mod us
wand lung
bes uch
Pl us
ĠMos a
beh Ã¶rden
ĠCas par
Br ig
fÃ¤h igen
emb les
ĠTages zeitung
Ġerweiter ten
Part ner
ĠAsp ekt
Fran ce
Ġlandwirtschaft liche
Wor ker
ĠSpe ed
Einwohner entwicklung
ArchÃ¤ ologischer
ĠErwart ungen
getAbsolute Path
G ut
S achsen
W ettbewerb
e te
h end
y z
ĠS L
ĠS ug
at ra
Ã¤ he
ĠG uer
ĠT uch
ĠR Ã¼d
and ra
ĠN ummern
ir i
ir s
Ġk alt
ĠZ oo
Ġp Node
ĠUn it
iz es
Ġunter halten
ĠAus lÃ¤nder
ust on
ĠAuf stellung
18 76
ip er
amm ler
ult ure
sh op
enz eit
ais en
wick elt
ĠBl ind
tor wart
str and
ha elt
[] []
ĠUr b
icher heits
tent wicklung
ĠBÃ¼rger schaft
iat ischen
ĠSchm el
Ġwahr e
Ġregel mÃ¤ÃŁigen
Ġfr ame
Um welt
kap itel
EX CE
ĠBenutz ung
ĠVolk es
ĠprÃ¤sen tierte
mat rix
Tim er
Europameister schaften
ĠExtr em
sÃ¤nger in
ĠDepart ment
ĠRestaur ierung
ĠErscheinungs bild
Ġbedro ht
Ġbesieg te
ufa ktur
ĠInvas ion
C ard
M aterial
d amer
s ig
s zene
u alitÃ¤t
w rap
w Ã¤lder
es i
Ġs u
ĠD ez
ĠH ydro
ĠW ern
ĠR ain
um me
ĠI o
Ġh Ã¼b
ĠC ricket
Ġver folgen
Ġl as
get Max
ĠÃ¼ber region
Ġunter e
Ġtr ag
Ã¤l ern
ĠVor schlÃ¤ge
Ġzwei geschoss
ĠBau meister
werk statt
schl usst
ide d
Ġeinz us
ĠMo on
rik e
ĠReich weite
Ġmus st
ĠSk ispr
ĠGef allen
cl uster
Ġ(! (
IC ATION
Obj ekte
ĠAf D
Ġausgew Ã¤hlten
Ġser ial
ĠCan ada
ĠTurnier s
ĠgÃ¼nst iger
Ġac tive
ÑĢ Ð°
ĠWiderstand sk
process Exception
ĠSchu bert
Lex ikon
Norm al
Ġkonzip iert
Ġverabschied et
F all
F ollow
L es
L ib
f ungen
t urnier
in ischer
st iegen
Ġw ild
ĠB ac
ĠM iami
ĠT akt
ĠL ediglich
ĠR eim
Ġer led
ĠC ad
Ġk rei
Ġk ind
ĠSch ull
Ġl i
ag ten
Ġj ugend
Ġ" ."
Ġent h
Ġsp ace
av y
18 77
ĠHer ford
iker in
ĠPh asen
schlieÃŁ t
ĠHaus halten
Ġkon krete
ĠFest ungs
cl u
met ter
Ġhinter lassen
Ġrel ation
ĠSen ator
ĠTrans action
ĠBall ett
Cl ick
Ġfind By
ĠFund ament
ĠSec ond
Nieder lande
Stra ÃŁen
vorsitzen de
Ġheader s
Ġetabl ierte
Ġeff ektiv
ĠgÃ¼l tigen
ĠNicol as
Ġruh ig
ĠDepart amento
ĠVf L
ĠGeschw ister
ĠPazif ik
ĠSier ra
B ayern
G O
f arb
h allen
p oten
q Path
ch ain
Ġd Ã©
st unde
ei tig
ar men
au gen
ge kommen
it Ã¤r
ĠD ing
Ġin neh
Ġf Ã¤l
ĠR ott
ig ers
Ġsch einen
ĠCh ief
Ġbest attet
att an
ĠGes ellschaften
Ġher ange
Ġgesch nitten
ĠfÃ¼nf te
ĠAmer ikaner
ĠHeil ig
ĠTro ck
azz o
wÃ¤r tig
ĠAf ghan
Le ague
Ġkehr t
Ġunver Ã¤ndert
gÃ¤ng ig
QUE ST
ĠStick stoff
Austr alien
Bin ary
Ġrenov iert
eip zig
A UT
G i
M ir
O der
W eil
g st
m ake
u gel
u tive
it at
ĠA ra
ĠM ahn
ĠH arb
ĠW ilder
Ġh Ã¶rt
Ġge druckt
Ġg reifen
Ġal b
ist ing
Ġl ack
ed uler
Ġun zÃ¤hl
rÃ¤ te
fol io
Sch wer
ĠBez eichnungen
ĠHa ag
ĠPer iode
ĠBay reuth
ĠKur fÃ¼rsten
wÃ¼r de
Ġbas ierend
ĠEhe paar
Produ ct
ony me
ĠAktiv itÃ¤t
ĠPhilipp inen
ĠNa gel
Ġargument s
kÃ¼nd igung
PRE FIX
Ġtrain iert
ĠTrieb wagen
akes pe
Ġarab ischen
Verw altungs
ĠAuft akt
Ġmoment an
ĠWeih bischof
clu ded
B ass
N UM
T okens
f la
i Äį
l Ã¼sse
m ahl
m eyer
ĠS und
ĠB eil
ĠB evor
Ġn eeded
ĠT I
Ã¶ p
ĠC ir
Ġge zeichnet
Ġver teilen
ĠZ Ã¼nd
he x
Ġst orage
Ġc ustom
ĠSp lit
ec tr
ĠAr c
enn ten
ast ik
ĠVor gaben
able Future
Con st
Ġweiter entwick
trag s
ĠVerb rauch
ĠHÃ¶ hlen
ĠKr em
Ġor ient
ĠAll tags
ĠHeim spiel
Ġbezeichnet en
ĠHof mann
ĠWolf sburg
fel dern
Ġkosten losen
ĠWal deck
Hol z
Kir ch
Ġed ition
ĠEich st
Bahn hof
ĠBox er
ĠdÃ¤n ische
ĠÃ¼brigen s
DA Y
PO ST
Ġkont ak
Ġthr ough
Ġversen kt
Bek annte
Ġinterpret iert
PrÃ¼ ft
ĠVorarl berg
PreuÃŁ en
Ġkonkr eten
Ġohn ehin
Ġell ip
) ),
E V
f utter
h on
n on
s ingle
u ktion
er es
as mus
ĠD R
ĠM ind
ĠK ings
Ġf a
is ser
ĠL enk
ĠR angers
ach stan
re geln
ĠJ en
Ġk Ã¼r
Ġg lobal
rei bst
ĠO P
Ġt iefen
ĠSt Ã¼rmer
ser tion
get Local
get First
ĠEin es
ĠOr n
av ed
ĠCh ur
Ġe ure
stan ten
Ġbeg inn
Ġbeg angen
ĠGer Ã¤ten
Ch ina
Ġger man
Ã¤m mung
verb und
Ġem er
ĠSil v
tic le
euch te
ĠWal ker
irt y
Ġrecht zeitig
ĠLau ra
ĠMass age
CON N
ĠChef trainer
Ġbelieb ten
ĠgrÃ¼n den
ĠHund ert
Europ a
ĠEg al
ĠBegr Ã¼nder
ĠAdels geschlecht
ĠRail road
ĠGefangen en
Ġmittelalter liche
Cap acity
ĠObergesch oss
? ,
B ro
B its
G Bl
K EN
t as
t itle
z ew
» ¿
Î ¹
ï »¿
ie in
st itel
ĠS ad
Ġs uccess
ĠB Ã¤ren
ĠD raft
ĠK it
ol y
ĠT ango
re am
ro st
lich ung
ĠC rist
Ġan gewiesen
Ġg laube
Ġver folg
ell ow
all a
ru ption
ĠAuf lagen
ĠMar ina
18 0
Ġdeutsch land
vers uche
ĠBr ett
Sch au
Ġ12 8
eig ten
Ġgel assen
ĠMo ore
Ġern euten
ĠWohn sitz
40 6
ĠOst see
ĠTer rit
ĠDav e
ĠOrts name
ĠOper a
ĠStaff eln
ĠWh it
ĠFÃ¼rst entum
Ġarch itekt
Ġti le
ĠEss ay
ĠGolden e
ĠHub raum
ĠWell ness
ĠSP Ãĸ
phys ik
ĠmÃ¼s ste
ĠRup recht
Hil fs
Ġabw echslungs
ĠRak eten
ĠHimm els
ĠErzbist um
ĠRÃ¤um lichkeiten
I Z
S tel
v ari
w etter
Ġ eis
as is
ĠG Ã¤n
ĠL ungen
tr itts
ĠN it
ĠN iem
ĠSch la
ik ate
Ġp arlament
ĠSt Ã¤nde
Ġun b
Ġun voll
ind ler
ĠSp in
Ġent scheidet
Ex ternal
ĠAb bildungen
ay e
18 67
ac c
ha ar
mar ck
Ġzusammen geschlossen
Ġgef Ã¼llt
ĠMusik pÃ¤dagoge
achte ten
ĠSommer spielen
ĠAc adÃ©
ĠschÃ¶n es
ĠKor respon
Ġclass es
ĠElektr onik
Ġwissenschaft lich
ĠbenÃ¶ tigte
ĠRh ynch
CON FIG
ĠEmpf Ã¤nger
Ġgleichnam ige
dest ination
Bew egung
verg ne
Ġill ustr
ĠMemor ial
ĠBakter ien
C le
F il
K aiser
M ON
S u
b om
d ingen
g on
i u
v arianten
w t
ge hr
ĠD essen
ĠG overn
de utet
ĠW ich
ĠT epp
ĠJ immy
ig raph
ĠC T
Ġauf weist
ĠSch irm
ag nen
all ery
og ie
Ã¼n n
get Y
Ġsch me
Ġent z
ode st
ĠVor kommen
Ġgew achsen
dem ann
of a
Ġgesch ehen
reu de
aut Ã©
ograf ischen
ST ATE
Tra ck
ĠLauf zeit
ĠComm ons
ĠPlan ungs
Sc an
ĠPet ra
Ġkathol ischer
histor ische
ĠLit auen
Ġdist ance
ĠansÃ¤ss ig
Ġstation iert
ĠDisziplin en
kommand o
Ġrev olution
ĠMalt a
ĠTres or
clus ive
ĠBeend igung
! ");
G TH
P reistrÃ¤ger
g ieb
k ong
r asse
s feld
Ä Ĺ
in itiative
Ġs ort
Ġs ite
ĠB ent
ĠB eute
ul ierte
Ġp ossible
ert al
end ung
ĠSp azier
ang liste
rau ÃŁen
ĠAuf trÃ¤ge
ĠVor lÃ¤ufer
sb ibliothek
Ġen den
for dern
ĠzurÃ¼ck zufÃ¼hren
ĠÃľber wachung
Ġverb lieb
ash ion
ĠAt tent
ĠPhil ologie
Mar athon
Ġdah inter
ĠTro phy
air s
ĠPort o
ĠHerzog s
ĠOrganis ations
ĠDruck er
Pack et
ĠÃ¶st liche
ĠDom ain
ĠSchwer punkte
ĠBÃ¶ den
ĠVal entin
ĠÃ¤lter er
Ġkrit isierte
Ġag ain
Ġrule Jvm
Ġmass iv
Ġlandwirtschaft lichen
Ġliter arischen
ĠIndust ri
Ġhoff e
ĠDiskuss ionen
B ind
L ayer
P redicate
p raxis
r ong
st rich
ĠD j
ĠD ichtung
Ġz ertif
ĠK orea
Ġau to
Ġf Ã¶rdert
ĠL ahn
ĠV eter
ĠN as
ĠJ ungs
ig u
Ġan im
Ġdem onstr
ot op
ĠPro tokoll
ĠEn try
ick el
18 73
ĠNach kriegszeit
ĠFl Ã¼sse
acht al
ĠStadt mauer
Ġet liche
Ar mee
ĠEnt lassung
ĠBo ote
Ġgesch eiter
Ġange trieben
Or gel
ĠMan gel
ĠMusik ern
ĠGener als
ĠGef Ã¼hle
ĠKreuz es
ĠbenÃ¶ tigten
Ġbelieb te
ĠDE FAULT
ĠKos mos
arkt is
Ġprofession ellen
ĠBeschÃ¤f tigten
ĠAnwesen heit
ĠGab riele
genossen schaft
ĠGÃ¶t ter
inzuf Ã¼gen
ĠShang hai
B L
B elege
D ann
H a
V oll
f aser
r ice
x ff
ĠS D
Ġb at
Ġb uchen
ĠD atein
ĠK em
le v
ĠL Ã¼b
Ġk reuz
Ġan aly
Ġg ross
ĠSch Ã¼tz
he w
ow sk
scha den
Ġ18 11
ĠAr range
Ġsp itz
ĠAb kommen
th iop
ĠZeit ungs
Un known
ĠAug uste
ĠGl Ã¼cks
ĠMal aysia
ĠGef echt
Ġschn eiden
ĠKommun en
ĠChar lie
ĠNutz ungs
alle e
Ġpl ugin
Ġempf ing
ĠDok umenten
ĠTrans l
ĠKosten lose
Sel ector
ĠVerd acht
trans form
Bel gien
ĠKamp agne
ĠgÃ¼l tig
Ġinspir iert
Ġkontinuier lich
ĠAgn es
Ġwon ach
ĠPorzell an
E ind
G R
H ER
f as
g it
k redit
p in
r h
s eil
w ochen
Ġd ialog
Ġw a
Ġw asch
el o
Ã¤ uren
et al
Ġb ibl
ĠM Ã¼l
ĠG aul
ĠE L
Ã¶ geln
ro it
ĠN T
ier n
ir ges
ĠC A
Ġmit unter
Ġg lieder
rei fer
ĠÃ¼ber fÃ¼hrt
schaft lich
ĠMit teilungen
ĠMa gen
18 66
18 68
ĠVor gÃ¤nge
eter min
sb ew
Ġkl are
15 0
ĠPf und
ĠMod ule
Ġletzten dlich
Ġ[ ...]
Man aged
anc er
ipp ing
ĠArbeits gemeinschaft
bel ast
Ġexist s
nach lÃ¤ss
ĠDreh arbeiten
ĠNorm andie
ĠVerhalten s
ĠHauptr ollen
ĠUrlaub s
ĠSof ia
Ġangew endet
Ġschrift lich
ĠMang a
Ġinnov ative
ĠFreiwill igen
ĠMeld ung
ĠStaatsanwalt schaft
Nor wegen
ĠallmÃ¤ hlich
Ġlan dete
1 14
C he
C RE
D N
D Ã¤n
E U
J ac
M s
M issing
b zw
d ocument
f ische
j as
w appen
en burg
ei bt
es ia
ar us
at ible
Ġw eichen
Ġw endet
Ã¤ tigen
ĠA hn
Ġb utton
ĠM organ
Ġin tr
Ġin formation
ĠG Ã¤rtner
ĠP Ã©
ĠH Ã¼l
ro hung
ĠN ase
ent scheid
ĠSt apel
Ġst iegen
Ġc ondition
Ġ18 23
In tegr
qu er
ek tiven
Un ion
Ã¤u ter
ĠOber befehl
ĠBet ten
ĠKo oper
ĠAp oll
ĠSchweizer ischen
bed ien
UN K
ĠBoden see
Br Ã¼cke
Pr incipal
ĠOrd nungs
Comm ent
Ġtop ic
ĠKathol ische
Ġsport lichen
Johann es
Pri mary
Ġpack age
ĠzeitgenÃ¶ss ischen
ĠLiebl ing
ĠSchwÃ¤b isch
Zentr um
ĠWorksh op
wirtschafts lehre
Requ ired
ĠVerpflicht ung
ĠEnzykl opÃ¤die
ĠSanti ago
C arl
F inanz
K ult
S M
T a
f ast
t hal
u in
w oche
} -
Â ½
Ġ ĊĠĠĠĠĠĠĠ
in herit
un it
on ischer
ge gr
Ġb al
Ġm at
ĠG eis
ĠP Ã¶l
ĠT in
ĠR id
us ia
ĠV ancouver
ro ute
ĠO kt
Ġauf steigen
Ġver tik
Ġl at
ic um
ver n
Ġst eckt
ert um
Ġtr eiben
pf ad
Ġbest es
ĠFl ei
ĠKon figuration
ystem e
ĠÃľber legungen
Ġwo hin
ĠSe a
ĠOl iven
Ã¤ng ern
ĠLandes liga
ĠFr Ã¶
ĠLei h
ĠBel ieb
Ã³ r
ĠCl uster
bet rag
ĠJohn ny
Ġne useel
ĠKaiser in
wÃ¼r fen
verband s
ĠHel fer
Ġruss isch
ĠAch telfinale
ĠLÃ¤nder spiel
Ġbekannte ste
Ġanz ub
Ġfe at
htt ps
ĠByte Buffer
Ġkonzentr ierte
ĠMari anne
ĠBem Ã¼hungen
Ġhervorra gend
ĠGil bert
ĠKontin ent
Ġentstamm te
Mas uren
EXCE PTION
F ragment
G alerie
S eiten
T en
h eid
n ÃŃ
w achsen
Ġd ek
ĠS W
ĠK omit
ĠF ix
ten burg
ĠL P
ĠR asen
ĠV ariable
Ġh inger
Ġk ub
Ã¤n ke
Ġr ichten
Ġr uft
Ġun mÃ¶glich
ĠAn fÃ¼hrer
ĠEin nahmen
Ġre den
ĠGr on
tem plate
Ġe ver
fahr ungen
ĠUS D
Al low
ĠAd j
schl acht
Ã¤m men
Sie ben
ĠStra ft
stit ute
ĠSer ge
gebiet es
Ab geordneter
ĠRad i
ĠGen uss
Ġev alu
Ġâ Ī
ĠKat al
Ġerk ran
ĠBÃ¶ hl
Ġsonst igen
ĠKontr ast
Ġcom pare
Ġkrit isch
ĠMaschinen bau
ĠFak ten
ĠEdu c
Ġrep lace
Ġabgeb ildet
ĠBÃ¶r se
Jose f
ĠKonflik te
ĠKonf ession
ĠHaupts itz
ĠImpl ementierung
Ġtranspor tiert
ĠAusgrab ungen
ĠIter able
C ur
C odes
g ymnasium
st ich
ĠS orge
ĠA PI
et y
am as
ĠK uck
ĠG rid
ti p
ĠL azar
ĠI van
lich te
Ġg old
Ġauf zunehmen
ĠAn ten
ĠEr Ã¶ffnungs
ehr te
ĠAus wertung
rau ms
Ġthe y
lei hen
gesch nitten
ĠJo y
Ġres erv
ĠEl len
ĠLu ck
Ġverb reitete
Ġdort hin
ĠLandes amt
Ġgest richen
ĠPer f
ĠKn ight
Bei spiele
Ġy our
ĠRef eren
ĠKlein stadt
lech ter
best imm
ĠNor weg
ĠPo sen
Arch itekt
ĠLÃ¼ becker
ĠCharakter e
Ġdec ode
Ġsign ature
ĠBy tes
ĠBasketball spieler
Ġcap t
Ġlit au
B ucket
C ols
H Ã¶
I p
J s
g aden
j ekten
k alender
w ache
y les
ĠS ay
it im
Ġw Ã¤r
ĠB ebauung
ĠD in
em bl
am pe
ĠK ut
ĠG aler
ĠP reistrÃ¤ger
Ġf arben
ĠL ayout
ĠL isa
ĠV ien
ĠJ as
Ġver sp
ĠZ a
ĠSt Ã¶r
os c
ĠAn gl
ass istent
gel ung
br ett
Ġges ungen
Ġbeg ab
ĠBo ys
lau t
lau tern
aut obahn
ĠSh akespe
Mar kt
ĠDu ft
ĠDu ke
ĠTour en
ĠTab ak
fil es
Ġsonst ige
ĠClub s
send ungen
Ġprom inen
ĠKop ie
ĠBeam ter
Ġchem ische
ĠKub a
ĠKÃ¤ se
Ġgeg ner
ĠPak istan
Dav id
ĠBekann theit
ĠNAT O
D arm
G A
M il
P K
P Ãĸ
R a
R ules
S Y
k Ã¼r
Ċ Ċĉĉĉĉ
st Ã¤tigkeit
or is
Ġw olle
ĠD eg
ĠD NA
Ġein genommen
ĠG os
ĠP kw
ĠH urr
ir ken
ul s
Ġt ausend
ed lin
ri ppen
qu et
gel b
if iers
ĠMa ck
Web site
pro ps
ĠUnter scheidung
ĠTh om
ĠMan chester
ĠBest ehen
ĠBuch ung
ĠgrÃ¶ÃŁ ter
ĠCo ast
sam keit
Ġverm ehrt
Ġne ver
ĠIt al
last ung
ĠKan on
fest e
ĠStad ium
Ãľber setzer
âĢĿ .
Ġpassen d
kor ps
ĠpreuÃŁ ische
Ġservice Name
ĠKolle ktion
ĠTradition en
Ġrow s
sex amen
Ġdeutschsprach ige
ĠSchreib weise
ĠNull PointerException
ĠDub lin
ĠBlo od
ĠKonzentr ations
ĠSpark asse
ĠNotwend igkeit
Ġvornehm lich
N ote
P unkte
h ir
Î ½
ç ļ
on us
sch alter
Ġb eb
ĠF rit
ĠE manuel
ĠW enzel
ĠT alk
and ter
Ġauf zubauen
Ġzu fÃ¤llig
Ġo wner
Ġaus lÃ¤ndischen
eu gen
Ġr aum
Ã¼ber tragung
end eten
ĠÃ¼ber leben
ĠÃ¼ber lassen
od ien
iz ismus
ug ins
Ġvor zeitig
ĠPro ph
ĠBer cht
Ġgew Ã¤hrt
ian e
az it
set Name
geben e
ald o
ong ol
Ġger ettet
ĠPart ners
ĠSchul jahr
ĠIs a
ĠPat tern
ĠPat ron
ĠHel ene
ĠGar c
ĠFel dern
ĠBor ussia
Ġjeden falls
ĠÃĸff nungs
ĠVoll zeit
betrieb s
ĠChef redakteur
Ġverkauf ten
Fe atures
stÃ¤d t
Ġpart ition
Ġgebild eten
Ġwunder bar
Ġsowjet ische
Ġdor tige
Ġverkehr en
ĠHandwerk er
ĠgewÃ¼n schte
ĠMaur ice
ĠBelast ung
ĠWorksh ops
ĠWitten berg
TERN AL
Ã©b ec
ĠMittele uropa
ĠRhynch osia
D M
J ust
b ot
c odes
l ib
v ideos
Å Ī
Ġd rit
ie ge
ar ien
au to
Ġi p
ĠM eist
ĠK amin
ĠT et
ĠT ote
Ã¶ ser
ĠL eichen
ĠN Y
ab ad
esch er
get Next
Ġsch ien
ĠEin wei
gr unde
anz ahl
Ġzw eck
ans icht
Ġausge liefert
ĠBundes ministerium
ĠGe ometrie
ĠKÃ¶nig lich
isten ten
ĠOl den
ĠPolit ische
new Builder
ĠHol stein
fra ktion
ĠSohn es
ĠWer den
ĠKar in
PD efinition
stag s
welt meisterschaft
ĠwÃ¼r ttemberg
arte ten
Ġfl Ã¼ss
ĠComm ission
Ġexist ent
Ġleben d
ĠFrie s
ĠÃ¤hn elt
ĠRein igung
komm un
ĠSw inger
Ġverein bar
ĠEmpf ang
ĠBill y
Ġdre hen
ĠMaster s
NS DAP
Ġmel dete
Ġkonzentr iert
Ġkomplex en
ĠVern unft
ĠBem erk
BU G
Ġverblieben en
ĠKlagen furt
Ġjens eits
H en
L im
T W
l ab
ĠB ienen
ĠD ikt
ĠM oll
Ġn eb
ĠG ert
ach tete
re cken
Ġ2 30
Ġden kt
Ġst immt
ĠSp anier
ec tic
Ġzum al
ĠAb teilungen
ĠAuf nahm
ĠLand haus
Ġbest ens
int Value
Ġ17 92
sb est
sb esch
ĠBl an
app ings
Ã¤u schen
AT TRIB
alis ierten
kon zert
ĠMitglied s
ffiz ient
ĠWohn platz
ĠEd die
Ġverw andt
Ġwill st
ĠTor hÃ¼ter
ĠDre am
fre quenz
ĠMinister prÃ¤sidenten
rug uay
Ġverz Ã¶ger
ĠMess ages
ĠDeb atte
ĠNachbar schaft
ynam ik
Min ister
ĠFe ature
Ob serv
Ġdec lar
ĠKenn zeichen
Ġherr scht
ĠBÃ¤ umen
Ġnorweg ische
Ġfal sche
ĠSaar land
Ġkirch lichen
ĠGalax y
ĠVeg as
ĠGon z
Ġakadem ischen
rÃ¤sid ium
ĠAlf ons
ĠGul den
ĠLiver pool
C ho
D om
M AR
W eimar
b ol
k leid
m Ã¼n
p la
ĠS age
ĠS ack
Ġw usste
ĠB reak
Ġb Ã¶hm
ĠM ey
Ġin valid
Ġein richten
ĠP rec
gen au
ĠT ed
ĠN ancy
ent wurf
ra h
Ġt ab
Ġt wo
Ġp ayload
Ġst mt
Ġzur zeit
Ġab weichen
Ġ" ).
ĠVor fahren
ĠHer stellers
(" <
ĠSpiel feld
ĠSchw immer
ĠKl etter
gew ehr
ĠMen Ã¼
ĠBundes rat
ĠPf eil
ĠHa ftung
legen heit
ĠSchn abel
ĠEp ik
ĠBef rag
ĠTo urn
deb Ã¼t
Ġfinanz iell
Arch ive
ĠPe ople
Ger man
ĠPorn os
polit ischen
ĠKron en
ĠZul etzt
jen ige
ĠProp st
eigh ts
ĠContr oller
Ġorden tlich
ĠAfr ican
ACT ION
ĠMig uel
1 000
C as
G rad
p aket
u j
w i
w Ã¤sche
Ð ĵ
Ñ ĩ
Ġ ten
on de
ar ium
Ġw ay
ĠB lech
ĠD um
ĠD amm
ĠD ictionary
Ġm ul
ĠK Ã¤mpfen
ĠP eg
ĠT herap
ĠV ir
Ġh ellen
ĠC lin
ing ten
ĠSt op
ĠSt anis
sp rÃ¤sidenten
kt oren
Die ter
auf wand
ĠIm port
sb eh
Ġgesch icht
Ch or
ĠRech ner
schlieÃŁ ung
unter schied
co in
Ġerw ies
bez iehung
ĠZentr ale
spro zesse
Ġby zant
ĠPass wort
beh andlung
ĠAch se
ĠMotor sport
Ġfre ue
ĠSied ler
Ġcm d
jo in
ĠRis ik
ĠKathol iken
Ġsan iert
vol umen
ĠAnf Ã¤ngen
ĠEintr acht
verÃ¶ffentlich ung
ognition Exception
ĠKarib ik
ĠAnsprech partner
' re
H essen
i Ã©
o j
r ien
s achen
y i
Ġ ener
Ġ reisen
ĠS O
ĠM E
Ġin terne
ti mer
ĠH Ã¼b
ĠR inge
ro k
ĠC ec
ĠO fen
ĠZ eche
ed back
all oc
och t
ub s
ru h
ĠEin leitung
âĢľ ;
Ġunter hÃ¤lt
tig keits
ĠCh ange
sk osten
Ġ17 91
olog isches
ans ion
geben den
Ġ10 2
ĠList ener
entr ick
Ġteil genommen
ĠStud ierenden
ote chnik
ĠSa ale
ĠFuÃŁball verein
ĠGegen teil
por tiert
ĠObj ekten
ĠAnd y
>> ()
Ġentfern ten
ĠChristian e
ĠKin of
Ġerfolgreich er
CH AR
Ġvergleich bar
umer ic
ĠBol iv
option al
Italien er
ĠErf Ã¼llung
Dist ribution
Ġaustral ische
ĠspÃ¤t go
Ġkonzentr ieren
Pri mitive
ĠInfektion sschutz
Rechts anwalt
ĠBerk eley
Stad ion
schles ien
K ritiken
M y
S ig
V iel
V ert
V ors
b Ã¤ren
f w
s ib
Ġd os
Ġd achte
ie tet
ĠS ockel
sch eine
ar fs
ĠA den
ĠB eu
ĠM ater
Ġin mitten
ĠE u
ĠL auen
ĠL ords
ĠR inger
ĠR aff
Ġer obert
ĠJ ap
Ġge omet
Ġg raf
ĠAn ger
auf gabe
ĠMit arbeit
ĠGr unde
ĠCh an
18 72
ĠBr Ã¼ck
Ġber uh
eigen schaften
ĠSchw immen
ator iums
ĠBl um
ĠQu in
Ver wendung
Ġeinz uf
Ġvier mal
Aus stattung
ĠDar aus
hol ungs
ct x
are te
Ġho hes
ĊĠĠĠĠĠĠĠĠĠĠĠĠĠĠĠĠĠĠĠĠĠĠĠĠĠĠĠĠĠĠĠĠ ĠĠĠĠ
ĠBÃ¼ ch
por ter
ĠNe un
ĠTo urnee
Ges amt
ĠKamer amann
__ __
Ġbeleg ten
zub ringen
Ġmet all
ĠTenn essee
ĠStatt halter
Ġbehaup tet
Ġherunter laden
Komm ission
Ġann Ã¤hern
ĠCru z
ĠAtl anta
LEN GTH
zoll ern
ĠSams ung
çļ Ħ
P seud
S ek
k ok
t Ã¼rk
u eller
å ı
en ix
Ġd ei
an kt
ĠS ax
ĠB E
ĠK E
ĠK um
Ġf lei
ĠR eck
and lungen
Ġzu grunde
ist ic
Ġaus gelÃ¶st
ungs an
ru pt
ĠAr sen
Ġab gesehen
Ġre par
Ġre konstru
ĠAuf zeichnungen
Ġpro j
ond o
Ġen c
fe der
bo y
Ġch unk
ĠMon tr
ĠFre undes
Ein satz
Ġmus lim
ĠSk ilang
Ġbew ohnt
ĠKap azitÃ¤t
sicht s
ĠSil ver
ĠKat astral
ĠHe alth
lav a
ĠSing apur
umm film
ĠAnge stellten
Ã¶pf er
Ġverz ichtete
ĠOrd ner
Ġstammen den
Ober e
ĠgeprÃ¤ gten
ĠStraf e
po ints
Ġko oper
Ġko ordin
Ġsowjet ischer
ĠViol in
ĠRicht linien
ĠjÃ¼ng sten
telle ktu
ĠCook ies
ĠErgÃ¤n zung
ĠKonstantin opel
Ġfu hren
ĠMagd alena
ĠIntelligen z
ĠWrest ling
2 50
P il
e NS
g b
h Ã¤lfte
m asse
ĉ ĠĠĠĠĠĠĉĉĉĉ
sch ichten
or ca
Ġi ran
Ġein gesetzten
Ġm a
ter m
Ġf ot
is Trace
ĠT il
ĠV amp
Ġh aupt
ro u
ĠJ ahn
ĠC amil
Ġge fordert
Ġan not
Ġg eil
Ġver legte
Ġver weist
ĠIn zwischen
Ġsch Ã¤tz
ru hen
ru ine
Ġa ff
ste cken
gr au
rit ing
ĠAb kÃ¼rzung
18 49
ĠVor wort
Ġpro b
schie ben
Ġgr enz
Un ique
Ġen v
Ġ13 5
ĠRe zension
schieden e
ID s
ĠFol genden
kon trolle
Ġfest genommen
ĠGener alsekretÃ¤r
ĠEm ma
ĠRep ository
ĠGel ieb
ĠHann s
ĠEt appen
rach ter
MP S
ĠMc K
ĠCms Resource
Ed itor
orien tierte
ĠgrÃ¼n e
ĠDigit alisierung
Ġumfassen d
Ġheim ischen
Ġschrift liche
ĠvielfÃ¤l tigen
Ġgro b
gewinn ung
Ġschein bar
inherit Doc
F INE
L L
R andom
W egen
h ib
Ã¼ ster
at on
Ġund er
Ġm ann
ĠF loh
ĠG ur
ĠP Ã¤dagogik
ĠH Ã¤ft
ĠL etzt
ĠC ase
ĠC omponent
Ġnach ts
ĠUn gar
Ġunter s
Ġ17 80
Ġ17 97
ĠKon go
gesch ehen
ĠFran co
Ġgegen seitig
pro be
ĠUnter seite
Pro zess
ĠBo urg
ĠBundes staates
Par is
bl Ã¼
ĠÃĦ sthet
ĠLang strecken
ĠRot hen
ĠOp tik
Ġsub sp
Ġgefunden en
ĠMe teor
Ġinteress ierte
ĠFund platz
ĠEmpf ehlungen
loc ale
ĠFin anzen
Ġdre ht
Ġschlech te
ĠCommun autÃ©
ĠRay mond
ĠdÃ¼n n
ĠPoliz isten
Ġabgest immt
ĠVorles ungen
) ",
B Ã¼cher
D ATE
E qual
F G
b inder
Ġd eu
Ġd ran
ĠS ony
ar tement
ge fahr
Ġb ind
Ġi kea
Ġin clude
am an
ĠK f
ĠF ang
ĠH uss
ĠR assen
Ġl itt
ĠVer trÃ¤ge
op ing
ĠEr laubnis
schaft liche
qu ir
Ġdurch zufÃ¼hren
ia c
18 69
ĠHer man
Ġ17 95
fer enzen
gesch ritten
ĠTh ese
iss ippi
gew al
ĠGroÃŁ es
ĠCon ference
alis ation
ĠEis ernen
Ã¤s sen
Ġdi agnost
ĠBel g
por te
ĠRaum fahrt
hil fen
SE SSION
med ia
Ġfort gesetzt
ĠJazz musiker
Ġfre ut
ĠBÃ¶ hm
ĠVerband es
Ġerforder lichen
ĠRis iken
ĠHon ig
Ġberuf liche
polit ische
ĠberÃ¼hm te
ĠberÃ¼cks ichtigen
Ġmer ge
ĠFreiwill ige
ĠgewÃ¶hn lich
ĠSteu ern
ĠTerritor ium
ĠGelehr ten
schmer zen
Ġschlaf zimmer
B rit
j ak
v et
ch ise
at form
Ġs cript
ĠA B
ĠM Ã¡
Ġin haf
Ġm s
[...]
