{"<s>":0,"<pad>":1,"</s>":2,"<unk>":3,"<mask>":4,"!":5,"\"":6,"#":7,"$":8,"%":9,"&":10,"'":11,"(":12,")":13,"*":14,"+":15,",":16,"-":17,".":18,"/":19,"0":20,"1":21,"2":22,"3":23,"4":24,"5":25,"6":26,"7":27,"8":28,"9":29,":":30,";":31,"<":32,"=":33,">":34,"?":35,"@":36,"A":37,"B":38,"C":39,"D":40,"E":41,"F":42,"G":43,"H":44,"I":45,"J":46,"K":47,"L":48,"M":49,"N":50,"O":51,"P":52,"Q":53,"R":54,"S":55,"T":56,"U":57,"V":58,"W":59,"X":60,"Y":61,"Z":62,"[":63,"\\":64,"]":65,"^":66,"_":67,"`":68,"a":69,"b":70,"c":71,"d":72,"e":73,"f":74,"g":75,"h":76,"i":77,"j":78,"k":79,"l":80,"m":81,"n":82,"o":83,"p":84,"q":85,"r":86,"s":87,"t":88,"u":89,"v":90,"w":91,"x":92,"y":93,"z":94,"{":95,"|":96,"}":97,"~":98,"¡":99,"¢":100,"£":101,"¤":102,"¥":103,"¦":104,"§":105,"¨":106,"©":107,"ª":108,"«":109,"¬":110,"®":111,"¯":112,"°":113,"±":114,"²":115,"³":116,"´":117,"µ":118,"¶":119,"·":120,"¸":121,"¹":122,"º":123,"»":124,"¼":125,"½":126,"¾":127,"¿":128,"À":129,"Á":130,"Â":131,"Ã":132,"Ä":133,"Å":134,"Æ":135,"Ç":136,"È":137,"É":138,"Ê":139,"Ë":140,"Ì":141,"Í":142,"Î":143,"Ï":144,"Ð":145,"Ñ":146,"Ò":147,"Ó":148,"Ô":149,"Õ":150,"Ö":151,"×":152,"Ø":153,"Ù":154,"Ú":155,"Û":156,"Ü":157,"Ý":158,"Þ":159,"ß":160,"à":161,"á":162,"â":163,"ã":164,"ä":165,"å":166,"æ":167,"ç":168,"è":169,"é":170,"ê":171,"ë":172,"ì":173,"í":174,"î":175,"ï":176,"ð":177,"ñ":178,"ò":179,"ó":180,"ô":181,"õ":182,"ö":183,"÷":184,"ø":185,"ù":186,"ú":187,"û":188,"ü":189,"ý":190,"þ":191,"ÿ":192,"Ā":193,"ā":194,"Ă":195,"ă":196,"Ą":197,"ą":198,"Ć":199,"ć":200,"Ĉ":201,"ĉ":202,"Ċ":203,"ċ":204,"Č":205,"č":206,"Ď":207,"ď":208,"Đ":209,"đ":210,"Ē":211,"ē":212,"Ĕ":213,"ĕ":214,"Ė":215,"ė":216,"Ę":217,"ę":218,"Ě":219,"ě":220,"Ĝ":221,"ĝ":222,"Ğ":223,"ğ":224,"Ġ":225,"ġ":226,"Ģ":227,"ģ":228,"Ĥ":229,"ĥ":230,"Ħ":231,"ħ":232,"Ĩ":233,"ĩ":234,"Ī":235,"ī":236,"Ĭ":237,"ĭ":238,"Į":239,"į":240,"İ":241,"ı":242,"Ĳ":243,"ĳ":244,"Ĵ":245,"ĵ":246,"Ķ":247,"ķ":248,"ĸ":249,"Ĺ":250,"ĺ":251,"Ļ":252,"ļ":253,"Ľ":254,"ľ":255,"Ŀ":256,"ŀ":257,"Ł":258,"ł":259,"Ń":260,"ĠĠ":261,"ĠĠĠĠ":262,"ĠĠĠ":263,"ĠĠĠĠĠĠĠĠ":264,"er":265,"on":266,"ĠĠĠĠĠĠĠ":267,"re":268,"in":269,"at":270,"ĉĉ":271,"Ġ=":272,"se":273,"st":274,"th":275,"en":276,"or":277,"ĠĠĠĠĠĠĠĠĠĠĠ":278,"al":279,"Ġ$":280,"ion":281,"le":282,"ar":283,"Ġ{":284,");":285,"is":286,"et":287,"ur":288,"de":289,"ct":290,"an":291,"if":292,"Ġf":293,"me":294,"Ġn":295,"Ġc":296,"ce":297,"Ġ(":298,"Ġre":299,"ro":300,"it":301,"Ġ}":302,"->":303,"Ġt":304,"ing":305,"Ġth":306,"un":307,"ent":308,"ue":309,"urn":310,"ĠĠĠĠĠĠĠĠĠĠĠĠĠĠĠ":311,"turn":312,"Ġp":313,"()":314,"get":315,"ut":316,"Ġif":317,"Ġ'":318,"as":319,"es":320,"ame":321,"ul":322,"ch":323,"ed":324,"Ġs":325,"il":326,"el":327,"li":328,"lo":329,"pt":330,"Ġ\"":331,"ex":332,"Ġin":333,"ad":334,"id":335,"ate":336,"Ġo":337,"Ġb":338,"ra":339,"pe":341,"this":342,"Ġthe":343,"ag":344,"Ġreturn":345,"ction":346,"tr":347,"co":348,"Ġa":349,"Ġse":350,"ĠĠĠĠĠĠĠĠĠĠĠĠĠĠĠĠ":351,"fi":352,"ĉĉĉ":353,"Ġm":354,"Ġd":355,"ck":356,"//":358,"am":359,"val":360,"ot":361,"ew":362,"Ġw":363,"ub":364,"err":365,"ab":366,"Ġ:":367,"ption":368,"str":369,"um":370,"ation":371,"em":372,"ype":373,"ĠĠĠĠĠ":374,"ont":375,"In":376,"))":377,"ss":378,"ata":379,"čĊ":380,"--":381,"ol":382,"and":383,"ode":384,"ap":385,"Ġto":386,"ey":387,"ter":388,"ĉĉĉĉ":389,"ĠĠĠĠĠĠĠĠĠĠĠĠĠĠĠĠĠĠĠ":390,"',":391,"ext":392,"ult":393,"('":394,"ect":395,"set":396,"Ġ*":397,"age":398,"unction":399,"up":400,"ri":401,"Ġis":403,"om":404,"ull":405,"name":406,"Ġself":407,"ers":408,"ĠS":409,"ass":410,"Ġfor":411,"ath":412,"Ġ//":413,"();":415,"return":416,"def":417,"able":418,"us":419,"value":420,"Ġ==":422,"end":423,"Ġ+":424,"aram":425,"Ġnew":426,"(\"":427,"ic":428,"Ex":429,"Ġ0":430,"ist":431,"Re":432,"od":433,"Ġerr":435,"ile":436,"int":437,"Ġv":438,"Name":439,"Ġh":440,"ray":441,"all":442,"res":443,"Ġ!":444,"ment":445,"ase":446,"Ġst":447,"key":448,"ig":449,"Ġl":451,"\",":452,"ve":453,"):":454,"ublic":455,"put":456,"Ġel":458,"pl":459,"to":460,"ĠT":461,"im":462,"iz":463,"que":464,"Ġof":465,"ime":466,"Ġfunction":467,"per":468,"Ġnull":469,"one":470,"Ġ#":471,"con":472,"lass":473,"ĠC":474,"qu":475,"he":476,"for":477,"::":478,"public":479,"fig":481,"Ġelse":482,"nt":483,"Ġe":484,"ver":485,"ception":486,"array":487,"arg":488,"Ġ!=":489,"vi":490,"quest":491,"string":492,"art":493,"Ġ1":494,"po":495,"Ġ[":496,"Ġ&":497,"add":498,"Ġtr":499,"ort":500,"row":501,"ack":502,"pro":503,"Ġ.":504,"')":505,"ach":506,"our":507,"St":508,"pon":509,"Ġres":510,"bject":511,"Ġnot":512,"self":513,"atch":515,"eld":516,"ace":517,"Exception":518,"ĠA":519,"der":520,"Val":522,"ĠN":523,"Ġ=>":524,"ance":526,"fo":527,"ser":528,"ith":529,"Ġthis":530,"Ġex":531,"ource":532,"alse":533,"Err":534,"Ġr":535,"Ġg":536,"Ġbe":537,"ay":538,"ang":540,"type":541,"ir":542,"Ġand":543,"data":544,"te":545,"ĠĠĠĠĠĠĠĠĠĠĠĠĠĠĠĠĠĠĠĠĠĠĠ":546,"Type":547,"Ġget":548,"ain":549,"._":550,"Con":551,"----":552,"Id":553,"Ġ)":554,"unc":555,"Ġcon":556,"out":557,"log":558,"ize":559,"ow":560,"Ġ-":561,"De":562,"rom":563,"unt":564,"file":565,"Ġ_":566,"param":567,"ib":568,"ine":569,"String":570,"dex":571,"list":572,"ĠI":573,"rent":574,"Error":575,"Pro":576,"Res":577,"path":578,"form":579,"cont":580,"Ġpro":581,"),":582,"app":583,"ity":584,"Value":585,"Ġde":586,"ponse":587,"ord":588,"oc":589,"Ġas":591,"ht":592,"List":593,"ore":594,"ip":595,"Ġ<":596,"ak":597,"stance":598,"ire":599,"ĠF":600,"Ġ&&":601,"Ġvalue":602,"sh":603,"rit":604,"Cont":605,"En":606,"com":607,"Ġor":608,"ind":609,"Ġi":610,"ure":611,"ff":612,"args":613,"ĠP":614,"pre":615,"ault":616,"Ġit":618,"())":619,"ĠĠĠĠĠĠĠĠĠ":620,"eng":621,"To":622,"ax":623,"Ġarray":625,"ition":626,"bu":627,"lement":628,"vent":629,"inal":630,"Ġ|":631,"cess":632,"Ġ>":633,"Ġ%":634,"Ġcont":636,"port":637,"ans":638,"und":639,"ator":640,"reate":641,"ER":642,"ory":643,"ery":644,"ĠM":645,"Ġthrow":646,"ield":647,"ument":648,"op":649,"ength":650,"col":651,"Ġname":652,"\")":653,"use":654,"Ġme":655,"ild":656,"ute":657,"ies":658,"Ġfalse":659,"':":660,"Key":661,"ule":662,"Ar":663,"Ġint":664,"ust":665,"class":666,"user":667,"valid":668,"(),":669,"Ġerror":670,"ĠString":671,"act":672,"00":673,"ial":674,"roup":675,"ken":676,"ON":677,"code":678,"Ġstring":679,"oo":680,"Ġdata":681,"Data":682,"ĠR":683,"ast":684,"IN":685,"sc":686,"ĉĉĉĉĉ":687,"Ġan":688,"trib":689,"odel":690,"Ġtrue":691,"url":692,"Ġstat":693,"Ġch":694,"ail":695,"];":696,"ign":697,"Ġ(!":698,"pert":699,"Ġfile":700,"date":701,").":702,"lient":703,"Object":704,"lock":705,"ader":706,"Ġcom":707,"cl":708,"ger":709,"var":710,"().":711,"Ġwh":712,"Ġwith":713,"default":714,"Ġset":715,"ID":716,"ive":718,"Ġj":719,"Lo":721,"Ġvar":722,"File":723,"==":724,"');":725,"Ġstr":726,"ise":727,"ange":728,"Ġ`":729,"Path":730,"ĠD":731,"new":732,"ber":733,"ess":734,"iv":735,"..":736,"],":737,"ĠĠĠĠĠĠĠĠĠĠĠĠĠĠĠĠĠĠĠĠĠĠĠĠĠĠĠĠĠĠĠĠ":738,"Ġ2":740,"Ġon":741,"config":742,"ated":743,"function":744,"Ġkey":745,"low":746,"cur":747,"\");":748,"os":749,"ple":750,"[]":751,"ly":753,"sp":754,"loc":755,"ilter":756,"Request":757,"Ġresult":758,"ener":759,"result":760,"Ch":761,"pp":762,"());":765,"Ġlist":766,"Ġ||":767,"Com":768,"tem":769,"Bu":770,"));":771,"Ġfrom":772,"load":773,"ost":774,"Ġ?":775,"Ser":776,"Ġout":777,"ence":778,"ler":779,"Ġ);":780,"Param":782,"read":783,"Class":784,"Ġ@":785,"Set":786,"Un":787,"AT":788,"ill":789,"Config":790,"Ġwe":791,"orm":792,"ph":793,"])":794,"Ġun":795,"back":796,"field":797,"ec":799,"query":800,"ry":801,"lect":802,"ml":803,"tp":804,"pec":805,"ant":806,"Ġstatic":807,"length":808,"format":809,"At":810,"di":811,"append":812,"mo":813,"ne":814,"ork":815,"ary":816,"rite":817,"uth":818,"son":819,"Ġ/":820,"Ġal":821,"heck":822,"Ġk":823,"ST":824,"RE":825,"By":826,"Ġat":827,"request":828,"pa":829,"error":830,"ash":831,"Ġy":832,"ms":833,"Ġend":835,"Ġby":836,"Ġ\\":837,"**":838,"pos":839,"Ġtry":840,"Ġcase":841,"Node":843,"ound":844,"not":845,"options":846,"ream":847,"Ġthat":848,"ask":849,"dd":850,"arget":852,"Ġdo":853,"Ġlog":854,"Get":855,"ache":856,"oid":857,"Ġx":858,"pty":859,"ac":860,"Ġpre":861,"tern":862,"ded":863,"of":864,"Se":865,"umber":866,"fer":867,"ĠO":868,"item":869,"ere":870,"Ġsh":871,"Tr":872,"index":873,"time":874,"Ġra":875,"Ġim":876,"ĠĠĠĠĠĠ":877,"ens":878,"perty":879,"ave":880,"ĠL":881,"Ġtype":882,"count":883,"Col":884,"Time":885,"abel":886,"ert":887,"ide":888,"sub":889,"reak":890,"Ġadd":891,"atus":892,"ĠIn":893,"Ġuse":894,"face":896,"Ġparam":897,"Ġfinal":898,"ug":899,"ink":900,"ĠW":901,"ount":902,"node":903,"__":904,"Ġlen":905,"yn":906,"red":908,"UR":909,"ool":910,"ĠThe":911,"Ġtime":912,"fix":913,"size":914,"mit":915,"ĠH":916,"LE":917,"yp":918,"';":919,"irect":920,"Ġpath":921,"info":922,"None":923,"Ġ[]":924,"Ġinstance":925,"tribute":926,"mand":927,"ight":928,"ge":929,"Map":930,"Ġcol":931,"min":932,"Def":934,">>":935,"OR":936,"ĠB":937,"av":938,"eter":939,"--------":940,"oin":941,"nd":942,"lection":943,"Field":944,"ected":945,"Context":946,"ress":947,"Response":948,"Info":949,"Ġrequest":950,"Ġare":953,"Ġvoid":954,"ll":955,"Ġ->":956,"ings":957,"ake":958,"ME":959,"uration":960,"eters":961,"ĠE":962,"Ġen":963,"ong":964,"start":965,"{}":966,"place":967,"ard":968,"params":969,"Mess":970,"scri":971,"Ġcur":972,"Ġid":973,"case":974,"Ġobject":976,"ob":977,"ther":978,"ject":979,"arch":981,"by":982,"ffer":983,"own":984,"\":":985,"Ġup":986,"].":988,"Qu":989,"ep":990,"Ġbu":991,"vel":992,"cept":993,"Index":994,"AR":995,"Ġser":997,"line":998,"Ġle":999,"dir":1000,"try":1001,"word":1003,"ainer":1004,"Ġconfig":1005,"Array":1006,"ations":1007,"AL":1008,"ilder":1009,"create":1010,"ody":1011,"nection":1012,"empty":1013,"Element":1014,"ĠIf":1015,"Add":1016,"Ġnode":1017,"lete":1019,"eturn":1020,"ccess":1021,"content":1022,"prot":1024,"map":1025,"action":1026,"object":1027,"cri":1028,"response":1030,"est":1031,"uld":1032,"Log":1033,"ree":1034,"Ġdefault":1035,"SE":1037,"match":1038,"Ġ+=":1039,"Arg":1041,"oolean":1042,"Message":1043,"loat":1044,"mt":1045,"++":1046,"Ġall":1047,"Ġsub":1048,"ren":1049,"instance":1051,"Ġbreak":1052,"plate":1053,"Ġ{}":1054,"He":1055,"='":1056,"space":1057,"Service":1058,"null":1059,"text":1060,"table":1061,"iss":1062,"input":1063,"py":1064,"che":1065,"quire":1066,"Ġcan":1067,"ĉĉĉĉĉĉ":1068,"ĠG":1069,"utes":1070,"ists":1071,"DE":1073,"Ġwill":1074,"ĠU":1075,"Ġmethod":1076,"ific":1077,"group":1078,"eta":1079,"ename":1080,"tes":1081,"ages":1082,"ference":1083,"lose":1084,"ates":1085,"ĠTr":1086,"State":1087,"move":1088,"Ġapp":1091,"ĠJ":1092,"pi":1094,"'.":1095,"Event":1096,"\\\\":1097,"bo":1098,"ctx":1099,"ann":1100,"[\"":1101,"Ġro":1102,"argument":1103,"Ġcheck":1104,"print":1105,"local":1106,"point":1107,"ample":1109,"Ġfield":1110,"model":1111,"par":1112,"aders":1113,"reg":1114,"Ġcatch":1115,"64":1116,"protected":1117,"ags":1118,"rol":1119,"ĠĠĠĠĠĠĠĠĠĠĠĠĠ":1120,"message":1122,"work":1123,"Resource":1124,"Im":1125,"idth":1126,"riter":1127,"Code":1130,"Client":1131,"Ġcreate":1132,"Ġresponse":1134,"token":1135,"ok":1136,"Ġso":1138,"yst":1139,"method":1140,"max":1141,"event":1142,"Ġ3":1144,"ĠĠĠĠĠĠĠĠĠĠĠĠ":1145,"Group":1146,"Ġstart":1148,"private":1149,"Ġhe":1150,"plit":1151,"ilename":1152,"iable":1153,"Ġrange":1154,"ĠTh":1155,"ension":1156,"Ġdi":1157,"ttp":1158,"=\"":1159,"write":1160,"ystem":1161,"context":1162,"Ġuser":1163,"EN":1164,"obj":1165,"Result":1167,"Item":1168,"Ġne":1169,"Form":1170,"entity":1171,"Ġu":1172,"be":1173,"defin":1174,"abled":1175,"state":1176,"Input":1177,"Out":1178,"mat":1179,"Me":1180,"Ġcurrent":1181,"Ġhas":1182,"pect":1184,"current":1185,"ps":1186,"Ġoptions":1187,"Ġspec":1188,"ION":1190,"base":1191,"ite":1193,"Of":1194,"Ġindex":1195,"vert":1196,"ude":1197,"trans":1198,"adata":1199,"til":1200,"Query":1201,"ocument":1202,"Ġ*/":1203,"ĠAr":1204,"oint":1205,"filter":1206,"ape":1207,"Token":1208,"so":1209,"Ġext":1210,"Ġinput":1212,"entry":1213,"User":1214,"ook":1215,"tributes":1216,"Not":1218,"ify":1219,"Ġno":1220,"ĠRe":1221,"With":1222,"md":1223,"Or":1224,"ref":1227,"An":1228,"arn":1229,"chem":1230,"len":1231,"URL":1233,"ified":1234,"Size":1235,"version":1236,"irst":1237,"Builder":1238,"((":1239,"Table":1240,"final":1242,"ync":1243,"output":1244,"db":1245,"New":1246,"let":1247,"]);":1248,"====":1250,"yle":1251,"ffset":1252,"ql":1253,"AN":1254,"check":1255,"'t":1256,"ature":1257,"debug":1258,"Stream":1259,"Up":1260,"ix":1261,"perties":1262,"##":1263,"tra":1264,"Ġoutput":1265,"ote":1266,"itle":1267,"ĠReturn":1268,"from":1269,"ush":1270,"ĠSet":1271,"cre":1272,"sed":1274,"Ġmax":1275,"ft":1276,"values":1277,"Ġcl":1278,"iew":1279,"SS":1280,"Loc":1281,"\";":1282,"we":1283,"attr":1284,"inue":1285,"ces":1286,"client":1287,"Ġpublic":1291,"replace":1292,"ĠV":1293,"IT":1294,"CT":1295,"rig":1296,"Method":1297,"parse":1298,"Ġclass":1299,"rc":1300,"mp":1301,"Ġinstanceof":1302,"Pre":1303,"Property":1304,"ron":1306,"json":1307,"Ġthrows":1309,"annel":1310,"Util":1311,"gra":1312,"Ġmatch":1313,"ifier":1314,"has":1315,"From":1316,"Content":1317,"Ġitem":1318,"Ġcontext":1319,"dict":1320,"join":1321,"Ġline":1322,"Options":1323,"iled":1324,"column":1325,"ized":1326,"Ġargs":1327,"ĠTrue":1328,"resource":1329,"ternal":1331,"Status":1332,"num":1333,"Des":1334,"lob":1336,"parent":1339,"its":1341,"Tra":1342,"Valid":1343,"enc":1344,"Ġstate":1346,"ply":1347,"http":1348,"Ġvalid":1350,"ses":1351,"pression":1352,"Instance":1353,"ally":1354,"Manager":1355,"mb":1356,"Interface":1357,"cs":1358,"ark":1360,"Ġ});":1361,"Ġreg":1362,"ustom":1363,"label":1365,"old":1366,"Ġvalues":1367,"Argument":1368,"rap":1369,"For":1370,"order":1371,"Ġcall":1372,"ĠList":1373,"dis":1374,"Ġhave":1375,"lat":1376,"ution":1377,"ĠObject":1378,"'s":1380,"ments":1382,"Ġass":1383,"Model":1384,"attern":1385,"source":1386,"limit":1387,"Params":1388,"auth":1389,"Ġ4":1391,"Ġos":1393,"Ġmust":1394,"vid":1395,"ĠCon":1396,"RO":1397,"Ġmessage":1398,"Ġparse":1399,"view":1400,"Ġtrans":1401,"Count":1402,"ner":1403,"ister":1404,"LO":1405,"Trans":1406,"sg":1407,"update":1408,"Default":1409,"Ġread":1410,"Ġboolean":1411,"...":1412,"fe":1413,"True":1414,"Ġevent":1415,"Ġz":1416,"Ġret":1417,"cal":1418,"ING":1419,"ugin":1420,"Override":1421,"},":1422,"ors":1423,"pen":1424,"Sub":1426,"are":1427,"'))":1428,"clude":1429,"status":1430,"keys":1431,"Ġsup":1432,"Sh":1433,"PE":1434,"ĠĊ":1435,"iter":1436,"ĠThis":1437,"Attribute":1438,"Ġnum":1439,"Version":1440,"\".":1441,"ys":1443,"target":1444,"req":1445,"Le":1447,"part":1450,"Ġ>>>":1451,"itial":1454,"ud":1455,"Column":1456,"element":1457,"next":1458,"util":1460,"Ġelement":1461,"32":1462,"Ġmake":1463,"CE":1464,"itch":1465,"api":1466,"Ġurl":1467,"Output":1468,"UT":1470,"exists":1471,"Ġwhile":1472,"Text":1474,"Th":1475,"Var":1476,"Ġbase":1477,"\\\"":1478,"mer":1479,"Entry":1480,"Date":1481,"AP":1482,"cache":1483,"Handler":1484,"ld":1486,"last":1487,"lay":1488,"Url":1489,"ĠFalse":1490,"tocol":1491,"Ġprint":1492,"raw":1493,"ich":1494,"wh":1496,"iven":1497,"block":1499,"ual":1500,"As":1501,"ell":1502,"Ġtarget":1503,"sw":1504,"CO":1505,"call":1506,"10":1507,"sum":1508,"ines":1509,"stant":1510,"Ġparent":1511,"ia":1512,"tag":1513,"ĠĠĠĠĠĠĠĠĠĠ":1514,"Ġlo":1515,"Ġargument":1516,"Ro":1517,"split":1518,"Ġquery":1519,"ume":1520,"Ġone":1521,"Ġformat":1522,"Str":1523,"ract":1524,"Ġcode":1525,"False":1526,"Ġresource":1527,"mon":1528,"Ġonly":1529,"stat":1530,"UL":1531,"Ġnumber":1533,"DO":1534,"pend":1535,"Ġshould":1536,"Ġdis":1538,"page":1539,"cript":1540,"GE":1541,"Ġfirst":1542,"ie":1544,"led":1545,"Ġ((":1546,"Ġmodel":1547,"older":1549,"FI":1550,"SON":1551,"child":1552,"ding":1553,"otal":1554,"ish":1555,"]))":1557,"Reg":1558,"Int":1559,"service":1560,"Ġsource":1562,"lib":1563,"Ġpos":1565,"Ġco":1566,"pr":1567,"Ġparams":1568,"Ġfound":1569,"link":1570,"msg":1571,"Ġpl":1572,"Em":1573,"Ġfloat":1574,"Enabled":1576,"Buffer":1577,"fir":1579,"vider":1580,"TY":1581,"Ġus":1582,"Ġtoken":1583,"orage":1584,"Ġtext":1585,"Ġrun":1586,"scription":1587,"etwork":1588,"fter":1589,"do":1590,"Ġmin":1591,"Ġcount":1593,"fl":1595,"Ġversion":1596,"Ġ>=":1597,"Format":1598,"select":1599,"find":1600,"leg":1601,"ission":1602,"io":1603,"gr":1605,"Ġany":1606,"omain":1607,"host":1608,"ible":1609,"ĠĠĠĠĠĠĠĠĠĠĠĠĠĠ":1610,"Ġother":1611,"play":1612,"Dir":1613,"][":1615,"End":1616,"post":1617,"TT":1618,"sent":1619,"Filter":1620,"01":1621,"Line":1622,"){":1623,"struct":1624,"teger":1625,"char":1626,"Ġac":1627,"Ġcontinue":1628,"byte":1629,"module":1631,"ause":1632,"Ġnext":1633,"Cache":1634,"TE":1635,"Ġcontent":1636,"ke":1637,"amp":1638,"body":1639,"items":1640,"Ġwhen":1641,"istr":1642,"no":1643,"Ġjson":1644,"Ġgiven":1645,"ĠEx":1647,"ĠX":1648,"Ġmap":1649,"All":1650,"defined":1654,"Auth":1655,"remove":1656,"ĠGet":1657,"App":1658,"Ġwhich":1659,"ved":1660,"Pos":1661,"Ġrow":1664,"equals":1665,"unk":1666,"ML":1667,"image":1668,"root":1669,"Invalid":1670,"Source":1671,"uri":1672,"headers":1673,"Ġpart":1674,"conn":1675,"LA":1676,"process":1677,"On":1679,"Ġsize":1680,"AME":1682,"Parameter":1685,"Start":1686,"Ġfilter":1688,"Ġcolumn":1689,"filename":1690,"Ġused":1691,"ization":1692,"files":1693,"getName":1694,"Ġ'/":1696,"ret":1698,"apt":1699,"ous":1700,"Ġupdate":1702,"ical":1703,"true":1704,"opy":1705,"Ġlogger":1706,"++)":1707,"untime":1708,"</":1709,"container":1710,"html":1711,"\"))":1712,"Ġtable":1713,"Ent":1714,"etch":1715,"Ġdict":1716,"fields":1717,"Ġgroup":1718,"store":1719,"Ġprocess":1720,"Ġappend":1721,"mary":1722,"Ġ<=":1723,"session":1724,"ĠValue":1725,"Ġobj":1726,"Ġdef":1727,"ains":1728,"Tag":1729,"Header":1731,"xy":1732,"Ġclient":1733,"ns":1734,"://":1737,"ession":1738,"CH":1739,"uccess":1740,"Ġerrors":1742,"Dis":1743,"Ġfind":1744,"Ġbut":1745,"Page":1747,"Block":1748,"View":1749,"core":1750,"itions":1751,"close":1752,"Ġhttp":1753,"pected":1754,"Ġservice":1757,"offset":1758,"run":1759,"Ġdoes":1760,"command":1761,"Be":1763,"Ġlast":1764,"Child":1765,"uple":1767,"location":1768,"Ġoff":1769,"ready":1770,"Action":1771,"ick":1774,"ĠFile":1775,"ification":1776,"vis":1777,"ĠSt":1779,"Factory":1780,"Ref":1781,"Number":1782,"build":1783,"Ġchar":1784,"12":1785,"pare":1786,"uster":1787,"apping":1788,"uto":1789,"comp":1790,"Cl":1791,"Ġ5":1792,"UN":1793,"})":1794,"right":1795,"ou":1797,"uid":1798,"toString":1799,"Ġtra":1800,"ATE":1801,"posit":1802,"ĠArray":1803,"lobal":1804,"Ġblock":1805,"property":1806,"printf":1807,"Length":1808,"Ġcal":1809,"Configuration":1810,"logger":1811,"resh":1812,"Ġneed":1815,"etail":1816,"ĠException":1817,"AD":1818,"Ġad":1819,"ported":1820,"Ġlength":1821,"width":1822,"Null":1823,"coding":1824,"inter":1825,"Ġcallback":1826,"Image":1827,"Update":1828,"Ġ...":1829,"Component":1830,"Ġimage":1831,"Entity":1832,"Ad":1833,"Ġval":1834,"sign":1835,"Ġwas":1836,"Ġper":1837,"queue":1839,"delete":1840,"ting":1841,"Session":1842,"stream":1843,"xml":1844,"ative":1845,"Ġeach":1846,"og":1847,"Al":1848,"OException":1849,"Ġact":1850,"server":1852,"Connection":1853,"ingle":1854,"template":1855,"Ġok":1856,"UE":1857,"Ġthen":1858,"prefix":1859,"hash":1861,"search":1862,"ĠPro":1863,"bs":1864,"header":1865,"first":1866,"Ġmsg":1867,"DB":1868,"with":1869,".'":1870,"Ġempty":1871,"Ġref":1872,"olve":1873,"rix":1874,"TYPE":1875,"Ġlocal":1876,"exp":1877,"ination":1878,"lower":1879,"ĠCom":1880,"title":1881,"ures":1882,"LI":1883,"izer":1884,"record":1886,"notation":1887,"df":1888,"Pl":1889,"lot":1890,"cle":1891,"Rule":1893,"Ġexist":1894,"Access":1895,"alt":1896,"Local":1897,"mod":1898,"ector":1899,"Spec":1900,"ayload":1901,"Ġload":1902,"And":1903,"----------------":1904,"Ġchild":1905,"Check":1906,"Base":1907,"ma":1908,"Server":1909,"Cur":1910,"push":1911,"gs":1912,"Empty":1913,"raph":1915,"ArgumentException":1917,"Part":1918,"Ġentry":1919,"undle":1920,"Ġcommand":1921,"Is":1922,"ove":1923,"pace":1924,"NAME":1925,"CON":1926,"throw":1927,"itor":1928,"Values":1929,"Create":1930,"Row":1931,"<?":1932,"ids":1933,"PO":1934,"callback":1935,"Ġwork":1936,"****":1937,"ava":1938,"number":1939,"Read":1940,"ted":1941,"sort":1942,"can":1943,"Ġwrite":1944,"Container":1945,"Ġimport":1946,"IP":1947,"16":1948,"arr":1949,"ailable":1951,"ĠWe":1952,"Names":1953,"Ġremove":1954,")))":1955,"Ġinto":1957,"Ġfiles":1958,"Ġlong":1959,"Command":1960,"Lock":1961,"cent":1962,"level":1963,"ategory":1964,"ating":1965,"names":1966,"aw":1967,"sql":1969,"Ġ]":1970,"Ġpoint":1971,"ĠDe":1973,"Address":1974,"cul":1975,"iff":1976,"Ġ};":1977,"Utils":1978,"Option":1979,"viron":1982,"No":1983,"types":1984,"ton":1985,"ient":1987,"Ġspecified":1988,"idd":1989,"spec":1990,"Ġiter":1992,"encode":1993,"Bytes":1994,"Definition":1995,"Ġax":1996,"Ġfl":1997,"Task":1998,"Ġ/*":1999,"Point":2000,"FA":2001,"gn":2002,"way":2003,"Ġlabel":2004,"Ġauth":2006,"NO":2007,"Call":2008,"ox":2009,"KE":2010,"Ġorder":2011,"MA":2012,"Ġq":2013,"The":2014,"attributes":2016,"If":2017,"az":2018,"float":2019,"ignore":2020,"Ġ\"\"":2021,"Ġalready":2022,"Types":2023,"Co":2024,"bin":2025,"Next":2026,"doc":2027,"Ġback":2028,"========":2029,"SER":2030,"Ġ/**":2031,"exception":2033,"Ġinter":2034,"Ġoffset":2036,"Writer":2037,"connection":2038,"Char":2039,"MP":2040,"box":2041,"legal":2042,"ias":2044,"cor":2045,"ities":2046,"ĉĠĠĠ":2047,"VER":2048,"OP":2049,"email":2050,"lease":2051,"Ġbyte":2053,"Ġreq":2055,"ice":2056,"ict":2057,"Ġhandle":2058,"DI":2059,"Ġaction":2060,"Body":2061,"parameters":2062,"Ġserver":2063,"Link":2064,"TR":2065,"Match":2066,"Return":2067,"####":2068,"ential":2069,"ĠSe":2070,"else":2072,"Hash":2073,"rule":2075,"Ġsession":2076,"andom":2077,"Ġsw":2078,"copy":2079,"rypt":2080,"Ġprotocol":2081,"igh":2082,"Level":2083,"Function":2084,"getS":2085,"Ġdouble":2086,"Ġsign":2087,"sup":2088,"Ġmodule":2089,"Record":2091,"Ġbuild":2093,"etime":2094,"warn":2095,"Ġtag":2096,"formation":2097,"rid":2098,"tx":2099,"Label":2100,"issing":2101,"ility":2102,"ĠType":2103,"false":2104,"Ġrecord":2105,"fg":2106,"Ġtask":2107,"Ġ6":2108,"open":2110,"Ġstatus":2111,"shape":2112,"Ġrule":2113,"color":2114,"Select":2115,"ymb":2116,"Trace":2117,"Ġ},":2118,"dat":2119,"stants":2120,"Ġav":2122,"TH":2124,"Ġap":2125,"style":2127,"handle":2128,"pan":2129,"down":2130,"Ġheader":2131,"address":2132,"Ġparameters":2133,"Ġroot":2134,"idx":2135,"sl":2136,"buf":2137,"send":2138,"merge":2139,"olume":2140,"mode":2142,"Ac":2143,"Collection":2144,"ging":2145,"Ġcache":2146,"ymbol":2148,"env":2149,"Ġcor":2150,"Rel":2151,"()))":2152,"ĠParam":2153,"Ġthere":2154,"tml":2155,"buffer":2156,"ĠĠĠĠĠĠĠĠĠĠĠĠĠĠĠĠĠĠĠĠ":2158,"ulti":2160,"Mode":2161,"ek":2162,"Metadata":2163,"Ġvariable":2164,"SI":2165,"11":2166,"Template":2167,"Ġinst":2168,"ique":2169,"emp":2170,"FF":2171,"Ġopen":2173,"very":2174,"attribute":2175,"tc":2176,"NT":2177,"top":2178,"Rem":2179,"php":2180,"Job":2181,"test":2182,"ĠY":2183,"task":2184,"imple":2185,"Ġparameter":2186,"Ġdest":2187,"river":2188,"Package":2189,"Ġarg":2190,"ta":2191,"Iter":2193,"Ġ10":2194,"Ġhost":2195,"Ġarguments":2196,"lem":2197,"25":2198,"cmd":2199,"script":2200,"Max":2201,"Found":2202,"break":2203,"(_":2204,"src":2205,"ear":2206,"Fields":2207,"les":2209,"Expression":2210,"Marshaller":2211,"Ġusing":2212,"iginal":2213,"Ġstream":2214,"Ġfe":2217,"pack":2218,"cat":2219,"Ġresults":2221,"net":2222,"We":2223,"unter":2224,"ĠUn":2225,"Ġover":2226,"ran":2227,"Ġold":2229,"Ġdelete":2230,"round":2231,"mem":2232,"ĠIOException":2234,"Order":2235,"fs":2236,"istry":2238,"pop":2239,"Target":2240,"position":2241,"Ġcre":2242,"Ġassert":2243,"Reference":2245,"Ġ(*":2246,"000":2247,"Ġconn":2248,"Fl":2250,"Exec":2251,"Ġind":2252,"Ġconnection":2253,"etric":2254,"ift":2255,"Rout":2256,"ĠAdd":2257,"etails":2258,"sing":2259,"Prefix":2260,"init":2262,"Listener":2263,"AC":2264,"Offset":2265,"Byte":2266,"Mem":2267,"da":2268,"Ġdate":2269,"ĠJSON":2270,"full":2271,"where":2272,"uf":2273,"QL":2274,"Ġinfo":2275,"serial":2276,"Ġbefore":2277,"Provider":2278,"Ġed":2279,"ĠCheck":2280,"Ext":2281,"Ġbytes":2283,"imension":2284,"Ġfilename":2285,"option":2286,"Ġconvert":2287,"Do":2288,"04":2289,"Ġpass":2290,"gin":2292,"ĠSer":2293,"aining":2294,"cy":2295,"Properties":2297,"namespace":2298,"anges":2299,"TER":2300,"ics":2302,"({":2303,"bind":2304,"Ġcomp":2305,"Debug":2306,"day":2307,"Ġsort":2308,"ends":2309,"interface":2310,"EX":2311,"Write":2312,"Ġ',":2313,"ĠLO":2314,"air":2315,"Sup":2316,"Ġag":2317,"cho":2318,"AB":2319,"PI":2321,"Host":2322,"ĠCol":2323,"Ġstrings":2324,"('/":2325,"Ġ8":2326,"Ġexception":2328,"dest":2329,"Root":2330,"parator":2331,"Act":2332,"SC":2333,"ts":2334,"iod":2335,"ULT":2336,"Per":2337,"Ġpage":2338,"Store":2339,"Ġinitial":2341,"Ġproperty":2342,"ĠIllegal":2343,"meta":2344,"pth":2345,"Reader":2346,"the":2347,"imum":2348,"tmp":2349,"Ġkeys":2350,"atrix":2351,"route":2352,"Stat":2353,"Work":2354,"flow":2355,"stack":2356,"amples":2357,"utton":2358,"plugin":2359,"bl":2360,"PAR":2361,"URI":2362,"ED":2363,"ning":2364,"ĠClass":2366,"gle":2367,"oci":2369,"Ġjob":2370,"Ġrequired":2371,"Ġsame":2372,"settings":2376,"uch":2377,"ĠMap":2378,"height":2379,"ĠID":2380,"OL":2381,"pc":2382,"Ġselect":2383,"Port":2384,"ugh":2385,"ERR":2387,"du":2388,"Delete":2389,"Document":2390,"tree":2391,"nder":2393,"Ġ('":2394,"other":2395,"rapper":2396,"Parameters":2397,"ĠNew":2398,"Process":2399,"Ġdirectory":2400,"Ġ--":2401,"vironment":2402,"gram":2403,"Ġstore":2404,"any":2405,"99":2406,"opt":2407,"Tree":2408,"render":2409,"Width":2410,"press":2411,"Http":2412,"Parent":2414,"Ġ\"\\":2415,"component":2416,"Helper":2417,"Keys":2418,"HTTP":2419,"ten":2420,"EL":2422,"Run":2424,"thon":2425,"frame":2427,"assed":2429,"matches":2430,"Ġqu":2431,"Ġbuffer":2433,"switch":2435,"left":2436,"Ġport":2437,"Ġsend":2438,"Ġinterface":2439,"vers":2440,"Ġyou":2441,"Ġoptional":2443,"Ġ\"/":2444,"gress":2445,"Case":2446,"metadata":2447,"org":2448,"getMessage":2449,"Ġtri":2450,"Ass":2452,"TI":2453,"ached":2455,"Ġmay":2456,"rop":2457,"job":2458,"ared":2459,"loud":2460,"Back":2461,"decode":2462,"Ġexp":2464,"bytes":2465,"18":2466,"save":2467,"Ġfin":2469,"schema":2470,"nap":2471,"Variable":2472,"roll":2473,"static":2474,"Ġmod":2475,"Ġhash":2476,"password":2477,"errors":2478,"Ġthan":2479,"Ġattribute":2480,"verse":2481,"handler":2482,"Ġnon":2483,"Ġswitch":2484,"channel":2486,">();":2487,"results":2488,"sole":2489,"Ġfields":2490,"mark":2491,"ĠParameters":2492,"section":2493,"Ġdb":2494,"Ġafter":2495,"plement":2496,"Ġbeen":2497,"utils":2498,"Ag":2499,"Ġbody":2500,"AM":2501,"straint":2502,"Meta":2503,"validate":2504,"range":2505,"Ġpy":2506,"VAL":2507,"Callback":2508,"Frame":2509,"Ġmode":2510,"now":2511,"Ġsearch":2512,"aster":2513,"ln":2514,"Args":2515,"Ġ'%":2516,"pattern":2517,"Logger":2518,"ĠLOG":2519,"Min":2520,"custom":2521,"ĠAn":2522,"amb":2523,"Load":2524,"Ġcopy":2525,"ero":2526,"project":2528,"Que":2529,"ged":2530,"Ġtemplate":2531,"apter":2532,"ux":2533,"less":2534,"ank":2536,"Ġmore":2539,"js":2540,"shot":2541,"istance":2542,"Ġprefix":2543,"Ġnames":2544,"0000":2545,"Ġver":2546,"ODO":2547,"lines":2548,"Attributes":2550,"getValue":2551,"aded":2553,"Ġwhere":2554,"DING":2556,"Inter":2557,"Sign":2558,"SH":2559,"ices":2560,"ince":2561,"ĠprotocolMarshaller":2562,"ublish":2563,"ome":2564,"document":2565,"Ġregister":2566,"parts":2568,"Ġtuple":2569,"go":2570,"variable":2571,"uture":2572,"Num":2573,"Fe":2574,"ender":2575,"esc":2576,"Mod":2579,"ĠCont":2580,"ĠK":2581,"ĠError":2582,"ĠCh":2583,"ertific":2584,"Ġlink":2585,"ade":2588,"execute":2589,"Style":2590,"Range":2591,"afe":2592,"Ġdocument":2593,"ĠCreate":2595,"itional":2596,"Ġab":2597,"register":2598,"acter":2599,"ater":2600,")]":2602,"02":2603,"ym":2604,"Stack":2605,"Ġ'\\":2607,"active":2608,"Ġconfiguration":2609,"ular":2610,"abs":2611,"rect":2612,"cli":2613,"access":2615,"columns":2616,"rel":2617,"API":2618,"ynch":2619,"Module":2620,".\"":2621,"Ġpassed":2622,"comment":2623,"Ġtimeout":2624,"Parser":2625,"Ġsrc":2626,"step":2627,"Timeout":2628,".\");":2629,"ds":2631,"KEY":2632,"Ġ<<":2633,"Ġsuper":2634,"JSON":2635,"mission":2636,"Ġsome":2637,"ii":2638,"Ed":2639,"Failed":2640,"Ġcustom":2641,"Obj":2642,"Ġform":2643,"Ġ\"%":2644,"Files":2645,"present":2646,"wise":2647,"uffix":2649,"System":2650,"Ġtest":2651,"sets":2653,"ins":2654,"Ġapi":2655,"collection":2656,"olver":2657,"Ġent":2658,"ward":2659,"Len":2660,"long":2661,"Settings":2662,"Conn":2663,"Ġexec":2665,"Ġlet":2666,"Ġlevel":2667,"Ġview":2668,"properties":2669,"Ġattr":2670,"Ġ),":2671,")(":2672,"Ġexists":2673,"Ġtop":2674,"ranch":2675,"div":2676,"ENT":2677,"ĠData":2678,"BIN":2680,"Location":2681,"Ġclose":2682,"description":2683,"tt":2684,"Ġlimit":2685,"Can":2686,"Ġ()":2687,"------":2688,"timeout":2689,"Height":2690,"ories":2691,"Identifier":2692,"ynchron":2693,"ĉĉĊ":2694,"domain":2695,"contains":2696,"definition":2697,"temp":2698,"Build":2699,"Parse":2700,"Policy":2701,"Unit":2702,"++;":2703,"napshot":2705,"pha":2706,"FAULT":2707,"Ġ'\"":2708,"PA":2710,"atures":2712,"Close":2713,"ambda":2714,"PRO":2715,"bar":2716,"ump":2717,"Position":2719,"Operation":2721,"Ġparser":2723,"ĠEn":2724,"ordin":2725,"total":2726,"ollow":2727,"Ġcontainer":2728,">(":2730,"cker":2731,"Integer":2732,"rs":2733,"role":2734,"Ġheaders":2735,"trim":2736,"points":2738,"Ġop":2739,"riteria":2740,"ĠArrayList":2741,"Non":2742,"imal":2743,"children":2744,"Ġstruct":2745,"rt":2746,"wait":2747,"Ġreference":2749,"ATION":2750,"Ġtc":2751,"wo":2752,"IL":2753,"oto":2754,"cing":2755,"Ġcmd":2756,"Ids":2757,"HP":2758,"Color":2760,"Queue":2761,"=>":2762,"cls":2763,"heet":2765,"Ġchannel":2766,"Constants":2767,"parser":2768,"serv":2770,"tags":2771,"Ġctx":2772,"invalid":2773,"Ġreturned":2774,"Ġignore":2775,"Ġaddress":2776,"ERROR":2777,"icon":2778,"Ġtemp":2779,"Ġ..":2780,"Warn":2781,"Ġcomponent":2782,"inary":2783,"Ġoption":2784,"Channel":2785,"GET":2787,"Current":2788,"24":2789,"show":2790,"alias":2791,"ions":2792,"ords":2793,"ĠMath":2794,"cause":2795,"Ġ\",":2796,"ĠTODO":2797,"Ġdir":2798,"ULL":2799,"ely":2800,"Ġfull":2801,"ĠURL":2802,"Ġdoc":2803,"Ġinclude":2804,"ĠAt":2805,"()));":2806,"Schema":2807,"ĠFor":2809,"Ġhere":2810,"fetch":2811,"isEmpty":2812,"make":2813,"20":2814,"ason":2815,"graph":2816,"expected":2818,"ĠSystem":2820,"inst":2821,"Ġreturns":2822,"ertificate":2823,"package":2824,"]:":2826,"exec":2828,"Ġtypes":2829,"marshall":2830,"extension":2831,"Ġmem":2832,"Directory":2833,"Ġcolor":2834,"Ġproject":2835,"fin":2836,"Ġjust":2837,"Json":2838,"ware":2839,"Pool":2840,"Ġfailed":2841,"Loader":2842,"Last":2844,"cer":2845,"55":2846,"change":2847,"tokens":2848,"rows":2849,"});":2850,"...)":2851,"etrics":2852,"med":2853,"ĠKey":2854,"connect":2855,"language":2857,"application":2858,"Ġinit":2859,"Ġproperties":2860,"Controller":2861,"MO":2862,"ween":2863,"Ġits":2864,"valu":2865,"Ġnow":2867,"Ġhandler":2868,"ww":2870,"Description":2871,"stop":2873,"Ġlook":2874,"Ġdon":2875,"ĠDefault":2876,"prop":2877,"umer":2878,"Ġfail":2882,"continue":2883,"over":2884,"conf":2885,"Ġreplace":2886,"Namespace":2889,"Ġdat":2890,"dition":2891,"bed":2892,"Ġwidth":2894,"Ġph":2895,"Ġsingle":2896,"Async":2899,"Api":2900,"Ġ})":2902,"').":2903,"Ġtotal":2904,"Search":2905,"username":2906,"Ġdevice":2907,"BINDING":2908,"relation":2910,"Ġrender":2911,"ws":2912,"Impl":2913,"Ġprovided":2914,"Ġitems":2915,"Ġnormal":2916,"UP":2917,"Ġpo":2918,"Ġnamespace":2919,"device":2920,"ä¸":2921,"]]":2922,"UM":2923,"site":2925,"Storage":2926,"idden":2928,"Wh":2929,"ND":2930,"(!":2931,"Ġposition":2932,"Ġsc":2933,")),":2934,"ĠInvalid":2935,"Ġavailable":2936,"ancel":2937,"\").":2938,"Ġstep":2939,"getId":2940,"scope":2941,"known":2942,"15":2943,"Ġcannot":2944,"ĠNot":2945,"rad":2946,"ĠIllegalArgumentException":2947,"Role":2948,"nodes":2949,"Ġgener":2950,"Iterator":2951,"Ġright":2952,"ground":2953,"locale":2954,"her":2955,"Ġscope":2956,"Ġvalidate":2957,"Ġmetadata":2958,"Ġraw":2959,"controller":2961,"Ġobjects":2962,"bound":2963,"Ġsave":2964,"Ġdictionary":2965,"Ġ\"\",":2967,"lv":2969,"Cms":2970,"greg":2971,"exit":2972,"Ġcls":2973,"NotFound":2974,"Ġ'<":2975,"Ġpost":2976,"OK":2977,"ĠNo":2978,"IG":2979,"dk":2980,"Application":2981,"Ġtmp":2982,"Ġgenerate":2983,"af":2984,"contents":2985,"Ġsb":2986,"card":2987,"Ġaccess":2988,"pol":2989,"Ġpattern":2990,"ries":2991,"iler":2992,"Ġstop":2993,"className":2994,"Ġinvalid":2996,"igr":2997,"eded":2998,"Ġbo":2999,"Long":3002,"manager":3003,"Ġleft":3004,"admin":3005,"gen":3006,"GER":3007,"olution":3008,"Uri":3009,"Ġdatabase":3012,"Ġattributes":3013,"Ġresp":3014,"Ġbound":3015,"LOG":3016,"ĠDo":3017,"otype":3018,"Ġexecute":3019,"insert":3020,"iant":3021,"ower":3022,"Inner":3023,"lang":3024,"Ġbecause":3026,"trace":3027,"POST":3029,"Any":3031,"bit":3032,"''":3033,"Post":3034,"vision":3035,"endar":3036,"Account":3037,"OT":3039,"nel":3040,"normal":3041,"Bundle":3043,"ĠCms":3045,"account":3047,"structor":3048,"STR":3049,"untimeException":3050,"Lim":3051,"Addr":3052,"apply":3053,"14":3054,"13":3055,"sumer":3056,"gor":3057,"Items":3058,"clear":3059,"axis":3060,"bers":3061,"Extension":3062,"vm":3063,"Route":3064,"Descriptor":3065,"ET":3066,"zone":3067,"Ġbuf":3068,"Del":3069,"(\"\\":3070,"Ġ7":3073,"Change":3074,"Msg":3075,"\"),":3076,"Ġentity":3077,"ier":3078,"ABLE":3079,"Ġinformation":3080,"ability":3081,"Ġnodes":3082,"Headers":3083,"Device":3084,"category":3085,"ls":3086,"Ġsequence":3087,"include":3088,"Ġsum":3090,"main":3091,"19":3092,"Pattern":3093,"Ġmark":3094,"<?>":3095,"web":3096,"only":3097,"QU":3098,"icode":3099,"ired":3100,"(\"%":3101,"ĠTo":3102,"Ġskip":3103,"ng":3104,"IS":3106,"initial":3107,"Ġthread":3108,"ĠValid":3109,"ĠDate":3110,"ES":3111,"resp":3112,"ites":3113,"reference":3114,"cc":3115,"Annotation":3117,"gorith":3118,"Ġframe":3121,"Ġdown":3124,"Ġpassword":3125,"CA":3126,"UID":3127,"Transaction":3128,"HT":3129,"ection":3130,"Ġallow":3131,"Ġwant":3132,"First":3133,"mask":3135,"angle":3136,"Ġcreated":3137,"cell":3138,"Cal":3139,"Ġstyle":3140,"alk":3141,"Ġsys":3142,"Ġstd":3143,"LS":3144,"head":3145,"Ġpar":3146,"ven":3147,"Copy":3148,"Ġdefined":3149,"ĠInteger":3150,"parameter":3151,"Exp":3153,"storage":3156,"builder":3157,"Ġschema":3158,"my":3159,"Ġlines":3160,"Ġ,":3161,"direct":3162,"US":3163,"Ġsuccess":3165,"ges":3166,"getClass":3168,"Ġob":3169,"Cre":3170,"utable":3171,"resolve":3173,"Handle":3174,"system":3175,"09":3176,"batch":3177,"////":3179,"tool":3180,"Ġopt":3181,"ither":3182,"Ġem":3184,"cr":3185,"Doc":3186,"lig":3187,"substring":3188,"Ġaxis":3190,"leted":3191,"Ġlocation":3192,"generate":3193,"ĠAPI":3194,"Execution":3195,"33":3197,"NS":3198,"directory":3200,"itude":3201,"Ġexisting":3203,"author":3204,"sv":3205,"Ġelements":3206,"TA":3207,"Ġglobal":3208,"Ġchange":3209,"PAT":3210,"failed":3211,"Ġidx":3213,"Ġoriginal":3215,"double":3216,"culate":3217,"wn":3218,"qui":3219,"Ġ\".":3220,"alog":3221,"Repository":3222,"Ġthem":3223,"identifier":3224,"Ph":3225,"Scope":3226,"ship":3229,"ĠConfig":3230,"Ġplugin":3231,"INT":3232,"Ġheight":3233,"Ġcollection":3234,"Nodes":3235,"Ġrepresent":3236,"ĠHash":3237,"Ġgo":3238,"Cluster":3239,"ĠUp":3240,"ĠIm":3242,"Join":3243,"Mon":3244,"Ġsettings":3245,"Ġpack":3246,"addr":3247,"Ġar":3248,"Database":3249,"FO":3250,"gnore":3251,"CTION":3252,"sm":3253,"Ġchunk":3254,"MENT":3255,"dr":3256,"Bound":3257,"IC":3258,"********":3259,"Mapping":3261,"Ġserial":3262,"cp":3263,"sor":3265,"ful":3266,"member":3269,"Ġshape":3272,"oice":3273,"boolean":3274,"Vis":3275,"Ġprevious":3276,"entication":3277,"indexOf":3278,"bose":3279,"network":3280,"Ġtitle":3281,"payload":3282,"words":3283,"Ġ\"'":3284,"Ġsplit":3285,"Ġnetwork":3286,"Unable":3289,"Control":3291,"DEFAULT":3292,"ced":3293,"success":3294,"css":3298,"Internal":3299,"Open":3300,"Plugin":3303,"Ġextension":3304,"Alias":3305,"icate":3306,"Ġhelp":3308,"Ġ(\"":3309,"Top":3312,"ending":3313,"Ġcolumns":3314,"ĠCollection":3315,"Ġdirect":3316,"side":3317,"Bind":3320,"Statement":3321,"ĠNode":3322,"gorithm":3323,"span":3324,"configuration":3325,"Endpoint":3326,"zip":3327,"Network":3328,"groups":3329,"Ġexpected":3330,"MS":3331,"marshal":3332,"Ġextends":3333,"Ab":3334,"Ġfinally":3335,"imer":3336,"adding":3340,"Tags":3341,"auto":3342,"println":3344,"SQL":3346,"eep":3347,"ways":3348,"Ġmarshall":3349,"Results":3350,"Ġwait":3351,"Ġcons":3352,"Us":3354,"Ġlib":3358,"required":3359,"ĠZ":3360,"ision":3361,"Ġwindow":3362,"Comp":3363,"Ġextract":3364,"getType":3365,"diff":3367,"Ġqueue":3368,"Ġcalled":3369,"layer":3370,"Ġip":3372,"Ġtrim":3375,"Ġloop":3376,"Ġalso":3378,"Limit":3379,"verter":3380,"Ġenv":3381,"ured":3382,"Ġbuilder":3384,"Bean":3386,"iddle":3387,"Ġsp":3388,"Ġshow":3390,"product":3391,"aly":3392,"ignment":3393,"Ġstack":3394,"ĠQ":3396,"Ġrequire":3397,"tempt":3399,"Ġtx":3400,"Ġgraph":3401,"Columns":3402,"Ġtwo":3403,"unit":3404,"Custom":3406,"display":3407,"Box":3408,"voke":3409,"Ġbetween":3411,"Project":3412,"Ġfollow":3413,"Ġsure":3414,"Ġhtml":3415,"andid":3417,"\">":3418,"ĠRem":3419,"Domain":3420,"cour":3421,"One":3422,"]+":3423,"PRE":3424,"ĠLog":3425,"Gener":3426,"########":3427,"ensure":3428,"Ġvis":3429,"notations":3430,"Web":3431,"Struct":3432,"shift":3433,"Registry":3434,"book":3435,"Ġmeta":3436,"Each":3437,"Ġprob":3438,"Ġencode":3439,"enter":3440,"grid":3441,"Ġpackage":3442,"convert":3443,"async":3444,"grade":3445,"PER":3446,"chunk":3447,"profile":3448,"Ġbatch":3450,"FOR":3451,"ily":3452,"writer":3453,"Ġtree":3456,"Ġ9":3457,"ĠSh":3459,"resources":3460,"tom":3461,"ement":3462,"dim":3463,"Ġcell":3464,"Permission":3465,"Send":3466,"}/":3467,"17":3468,"stats":3469,"ises":3470,"UB":3471,"scale":3472,"Ġdone":3473,"FILE":3474,"VE":3478,"folder":3479,"weight":3480,"Only":3482,"respon":3483,"Elements":3484,"Agent":3485,"ĠRequest":3486,"BU":3487,"So":3488,"term":3489,"22":3490,"RA":3491,"utor":3494,"ometry":3495,"Sec":3496,"irt":3498,"ynam":3499,"Title":3500,"Core":3501,"pped":3502,"escape":3503,"Tx":3504,"Ġsystem":3505,"OD":3506,"actions":3508,"Ġour":3509,"vals":3510,"Ġapply":3511,"writ":3512,"serialize":3513,"tries":3514,"database":3515,"Ġoperation":3516,"Space":3517,"Resources":3518,"ha":3519,"Ġcontain":3520,"Ġdf":3521,"Red":3522,"Constraint":3523,"fra":3525,"Sum":3526,"ped":3527,"ĠTime":3528,"Ġimplement":3529,"aml":3530,"(\"/":3531,"HE":3532,"igest":3533,"ian":3534,"Ġlock":3535,"ifiers":3536,"Ġaccount":3537,"global":3538,"ensor":3540,"Ġmatrix":3541,"edia":3542,"Button":3543,"Serial":3544,"Ġconf":3545,"Cell":3546,")));":3547,"cast":3548,"Ġthey":3549,"Ġio":3551,"Ġdescription":3552,"wd":3553,"Ġpe":3555,"ixed":3556,"Ġfeature":3557,"Thread":3558,"ose":3559,"mag":3561,"Tracing":3563,"just":3564,"Duration":3565,"Ġdebug":3566,"socket":3567,"Proxy":3569,"XML":3570,"Ġencoding":3573,"Ġspace":3574,"found":3575,"report":3576,"Ġword":3577,"import":3578,"Layout":3579,"Bucket":3582,"classes":3584,"Ġmo":3585,"ping":3586,"engine":3587,"Ġinsert":3588,"ĠHttp":3589,"man":3591,"Ġsince":3592,"br":3593,"Raw":3594,"Ġsupported":3595,"Ġ100":3596,"Ġ12":3597,"light":3598,"Ġlogging":3599,"Ġ++":3601,"gl":3602,"iterator":3603,"================":3604,"pool":3605,"Ġsee":3606,"warning":3607,"hook":3608,"Password":3609,"igin":3610,"sec":3611,"timestamp":3612,"proxy":3613,"olved":3614,"labels":3615,"ui":3616,"flags":3617,"ServiceResponse":3618,"ĠAl":3619,"ĠDE":3621,"Ġcontains":3622,"Ġpayload":3623,"}.":3625,"80":3626,"original":3627,"irtual":3628,"chain":3630,"Ġweight":3632,"after":3633,"VALUE":3634,"Ġsim":3635,"ATOR":3636,"supported":3637,"Ġtags":3638,"Ġfetch":3639,"transform":3640,"Ġresolve":3641,"feature":3642,"75":3643,"Graph":3644,"Ġthrough":3645,"asure":3646,"events":3647,"Ġloc":3648,"Ġmon":3650,"rec":3651,"Window":3652,"Ġcould":3654,"Mo":3655,"Locale":3656,"Ġsample":3657,"ipel":3658,"Op":3660,"gp":3661,"DS":3662,"Ġprop":3665,"DateTime":3666,"CP":3667,"expr":3668,"ateway":3670,"Ġjava":3671,"Ġsection":3672,"Ġexpression":3673,"azz":3675,"scribe":3677,"Render":3678,"menu":3679,"ialog":3680,"ĠTrans":3681,"=(":3682,"Ġxml":3684,"Ġpoints":3685,"require":3686,"board":3687,"window":3688,"Ġbegin":3689,"force":3690,"30":3691,"dates":3692,"Ġclean":3693,"Ġinstead":3694,"safe":3695,"Attr":3697,"media":3698,"Ġsynchron":3700,"Dest":3701,"Ġdisplay":3702,"encoding":3704,"acy":3706,"ef":3707,"ATA":3708,"ottom":3709,"Ġextra":3710,"Ġgen":3711,"rowser":3712,"Ġuri":3713,"Ġmissing":3714,"cover":3715,"Events":3716,"Pointer":3717,"/*":3718,"Script":3719,"ĠNULL":3720,"provider":3721,"Atom":3722,"ĠMess":3723,"ookie":3724,"ĠStringBuilder":3725,"plic":3726,"edit":3727,"clean":3728,"Ġcluster":3730,"Ignore":3732,"Ġsecond":3733,"Ġput":3734,"wner":3735,"ĠField":3737,"ius":3738,"zer":3740,"Messages":3741,"Ġremote":3743,"CK":3744,"Double":3745,"Required":3746,"Active":3747,"Ġ':":3748,"NON":3749,"ĠOn":3750,"Generator":3751,"TracingEnabled":3752,"ĠIt":3753,"plates":3757,"Ġ(_":3758,"Ġtransform":3759,"seq":3760,"Sequence":3761,"isAny":3763,"ually":3764,"Ġdoesn":3765,"Ġadded":3766,".*":3767,"Ġrows":3768,"Ġrel":3769,"Boolean":3772,"messages":3773,".\",":3774,"Fail":3775,"Ġconsole":3776,"icle":3778,"ClassName":3779,"getKey":3780,"Ġsm":3781,"Ifc":3782,"reset":3783,"Ġcb":3784,"ĠResponse":3785,"Ġlike":3786,"dev":3787,"}}":3788,"lied":3789,"ĠService":3790,"Mark":3791,"isAnyTracingEnabled":3792,"--------------------------------":3794,"fill":3795,"AGE":3797,"Db":3799,"Av":3800,"policy":3801,"track":3802,"Ġ16":3803,"Ġparsed":3804,"Enum":3805,"Ġunit":3806,"Has":3807,"ling":3808,"OM":3809,"ca":3811,"Ġrandom":3812,"COL":3813,".(":3814,"umb":3815,"bro":3816,"Ġpair":3818,"};":3819,"year":3820,"quote":3821,"ĠUser":3822,"AS":3823,"ural":3824,"Ġwarn":3825,"used":3826,"Relation":3828,"ĠOptional":3829,"jection":3830,"cluded":3831,"TIME":3832,"real":3833,"condition":3834,"crement":3835,"Volume":3836,"oly":3837,"ĠIter":3839,"Ġsorted":3842,"\"));":3843,"https":3844,"Wrapper":3845,"SET":3846,"Remove":3847,"ZE":3848,"Ġeither":3849,"month":3850,"extra":3851,"button":3852,"Folder":3853,"mapping":3854,"elements":3855,"WS":3856,"Language":3857,"ik":3858,"ĠReg":3859,"bucket":3860,"expression":3861,"non":3862,"()),":3863,"Ġmask":3865,"ipeline":3866,"forEach":3867,"erson":3869,"Left":3870,"ĠÐ":3871,"getP":3872,"fp":3873,"font":3874,"35":3875,"AX":3877,"PATH":3878,"Ġ[\"":3879,"Ġbind":3880,"img":3883,"ipe":3884,"prev":3885,"SO":3887,"Ġbased":3888,"Author":3889,"random":3890,"off":3891,"||":3892,"subject":3893,"aint":3894,"Ġday":3895,"Xml":3896,"Security":3897,"commit":3898,"Ġdet":3899,"plet":3900,"Describe":3901,"InputStream":3903,"ibility":3904,"chan":3905,"Ġ;":3906,"ĠHTTP":3907,"gener":3908,"cessed":3909,"Ġct":3910,"created":3911,"upper":3912,"ffect":3913,"depth":3914,"itive":3915,"Ġflag":3916,"Profile":3917,"ho":3918,"ithub":3920,"ĠInput":3921,"Chain":3922,"Ġmain":3923,"ty":3924,"Ġparts":3925,"remote":3926,"Ġwhether":3927,"Groups":3928,"mine":3929,"Ġbit":3930,"Ġmatches":3931,"mail":3932,"uc":3933,"Product":3934,"owner":3936,"java":3937,"Ġwriter":3938,"Ġaccept":3939,"Float":3940,"px":3941,"INE":3942,"Ġlayer":3943,"getC":3944,"cd":3945,"alys":3946,"Email":3948,"Ġotherwise":3949,"={":3950,"ĠNote":3951,"ĠMe":3952,"optional":3953,"Ne":3954,"SION":3955,"ators":3956,"driver":3959,"Sync":3961,"Errors":3962,"Ġhttps":3963,"operation":3964,"Ġreset":3965,"Day":3966,"desc":3967,"roy":3968,"Kind":3969,"Identity":3970,"Interval":3973,"isting":3974,"Ap":3975,"Ġroute":3976,"endpoint":3977,"ĠPre":3979,"acters":3981,"RI":3982,"Ġwithout":3983,"ĠParse":3984,"USER":3986,"Ġ')":3987,"Ġpossible":3988,"before":3989,"Ġstorage":3990,"layout":3991,"ROM":3992,"Ġsql":3993,"unique":3994,"tract":3996,"Ġreport":3997,"ĠSee":4000,"34":4001,"voc":4002,"alle":4003,"ifest":4004,"LECT":4006,"IO":4007,"loader":4008,"Segment":4009,"ĠConvert":4010,"ĠUpdate":4011,"Member":4012,"inner":4013,":\"":4015,"getM":4016,"getInstance":4018,"Sc":4019,"Html":4020,"allow":4021,"short":4022,"ORY":4025,"TraceComponent":4026,"repo":4027,"PC":4028,"ĠInternal":4029,"dt":4030,".,":4032,"Ġet":4033,"factory":4034,"100":4036,"QUE":4037,"Ġmultiple":4038,"ense":4041,"ĠPy":4042,"assign":4043,"Ġevents":4045,"requ":4046,"wer":4047,"cap":4048,"Ġallowed":4049,"=%":4050,"ane":4051,"pid":4052,"Ġlabels":4053,"ClientException":4054,"Ġexample":4055,"ĠWh":4056,"Batch":4057,"skip":4058,"Ġcorrect":4059,"loaded":4060,"Details":4061,"then":4062,"60":4063,"udi":4066,"ĠName":4067,"stmt":4068,"helper":4069,"ives":4070,"Ġge":4071,"Ġpop":4072,"uuid":4074,"ORT":4075,"cb":4078,"common":4079,"Ġforce":4083,"HER":4084,"Ġabs":4085,"internal":4086,"Ġinteger":4087,"ases":4088,"()).":4089,"Ġendpoint":4090,"parsed":4091,"Ġapplication":4092,"Ġdomain":4093,"Step":4094,"ĠPHP":4095,"TO":4096,"Validation":4097,"amily":4098,"Ġdimension":4099,"verage":4100,"lap":4101,"Ġdifferent":4103,"gre":4104,"Lower":4105,"Ġ-=":4106,"Ġterm":4107,"Ġtrace":4108,"oot":4109,"Ġbucket":4110,"sig":4111,"arm":4112,"Could":4113,"ACK":4114,"login":4115,"Ġkeep":4116,"ANG":4117,"BO":4118,"Pair":4119,"Ġagain":4120,"install":4121,"XT":4122,"Future":4123,"Ġvariables":4124,"ving":4125,"Ġprofile":4126,"ynamic":4127,"counter":4128,"Ġscript":4130,"ĠUse":4131,"lex":4132,"Ġsent":4133,"Ġtransaction":4134,"flag":4135,"Feature":4136,"sequence":4137,"DER":4138,"help":4139,"matrix":4140,"sn":4141,"formed":4142,"fail":4143,"Ġunique":4145,"Ġsupport":4147,"VI":4148,"Ġnet":4149,"sen":4150,"Short":4151,"checked":4153,"LASS":4154,"anner":4155,"losure":4156,"alpha":4157,"Exists":4158,"Ġ>>":4160,"<>();":4161,"ifact":4162,"Ġdecode":4163,"Ġmerge":4164,"Ġbl":4165,"Adapter":4166,"rules":4167,"Driver":4168,"symbol":4169,"Ġrequests":4170,"Ġfs":4171,"Children":4172,"ĠIN":4177,"After":4178,"Ġcommon":4179,"atio":4181,"Ver":4183,"ĠPath":4185,"'re":4186,"CS":4187,"OF":4188,"mar":4189,"Idx":4190,"Ġfollowing":4192,"agent":4193,"CHE":4194,"rest":4195,"users":4196,"ross":4197,"apped":4198,"cluster":4201,"prepare":4204,"ordinates":4205,"ixel":4206,"Ġmethods":4207,"Timestamp":4208,"Ġgrid":4209,"DATE":4210,"Ġ'/'":4211,"Ġzip":4213,"dist":4214,"Zone":4215,"Auto":4216,"This":4217,"Ġscale":4218,"Ġyour":4219,"acity":4221,"Ġprev":4222,"Ġreal":4223,"ALL":4224,"Down":4225,"alysis":4226,"Full":4227,"Ġpresent":4228,"Ġusername":4231,"aved":4233,"tf":4234,"Ġregion":4236,"Ġbeing":4237,"accept":4238,"Stats":4239,"gb":4240,"SERVER":4242,"Sort":4243,"atic":4244,"Ġchain":4245,"pair":4246,"seconds":4247,"Ġdataset":4248,"pass":4249,"Comment":4251,"nb":4252,"ITY":4253,"wrap":4256,"Ġactive":4257,"IF":4258,"Ġevery":4259,"Ġproxy":4260,"Bl":4262,"Admin":4263,"Ðµ":4264,"Ġpool":4265,"isDebug":4267,"Ġdistance":4268,"ECT":4269,"region":4270,"Ġdestination":4271,"rag":4272,"GroupName":4273,"delta":4274,"leep":4275,"ulate":4276,"Ġactual":4277,"ves":4278,"Ġprivate":4280,"Ġensure":4281,"(-":4282,"sk":4283,"LOW":4287,"ategories":4288,"ĠRemove":4290,"Ġmapping":4291,"Ġtokens":4292,"Ġplace":4293,"Ġbinary":4294,"Art":4295,"Rows":4296,"ested":4297,"ĠApp":4298,"Total":4299,"orter":4300,"Ġjoin":4301,"Engine":4302,"ube":4303,"Ġpaths":4304,"Ġspecific":4307,"sync":4308,"Ġmessages":4309,"Ġclear":4310,"rv":4311,"creen":4313,"ĠSdk":4315,"compare":4316,"Ð°":4317,"alled":4320,"flat":4321,"ĠIP":4323,"Ġsocket":4324,"MM":4326,"åı":4327,"Ġauto":4328,"Condition":4330,"bundle":4331,"Ġneeded":4332,"getProperty":4333,"ãģ":4334,"enabled":4335,"Parts":4337,"HERE":4338,"primary":4340,"look":4341,"reader":4342,"center":4343,"Tri":4344,"Resolver":4345,"lin":4346,"Selector":4347,"SIZE":4349,"&&":4350,"extract":4351,"Category":4353,"Ġsynchronized":4355,"MAX":4356,"DATA":4357,"getAttribute":4358,"Warnings":4359,"Right":4360,"Ġconnect":4362,"ider":4363,"Ġlat":4364,"publish":4365,"Cannot":4366,"Matrix":4367,"ĠĠĠĠĉ":4368,"Pack":4370,"NOT":4371,"anel":4372,"ferred":4374,"proto":4376,"ĠSdkClientException":4377,"tab":4378,"eam":4379,"concat":4380,"Term":4381,"td":4382,"ilt":4383,"interval":4384,"control":4385,"ĠNumber":4386,"Flag":4387,"Ġshort":4388,"Ġchildren":4389,"ĠQuery":4390,"ĠAND":4391,"validator":4392,"ĠOut":4393,"Ġalways":4395,"mu":4396,"Split":4397,"56":4398,"rate":4399,"Ġrunning":4400,"Transform":4401,"loop":4402,"PUT":4404,"ĠXML":4405,"Menu":4406,"ĠMessage":4407,"repository":4408,"ĠBoolean":4409,"sb":4410,"assert":4411,"ied":4413,"Use":4415,"Ġzero":4416,"Ġboth":4417,"thread":4418,"isEntry":4419,"Certificate":4421,"Ġexit":4422,"Print":4423,"IOException":4424,"PARATOR":4425,"Ġidentifier":4426,"(@":4427,")/":4428,"Ð¾":4429,"dst":4430,"Ġcomment":4431,"isEntryEnabled":4432,"LETE":4433,"Ġthese":4434,"ĠRuntimeException":4435,"operator":4437,"36":4438,"ale":4439,"Ġremoved":4440,"akes":4441,"Ġcharacter":4442,"50":4443,"ĠAttribute":4444,"Ġrole":4445,"Expr":4446,"flush":4447,"txt":4448,"Ġdel":4449,"ĠLoc":4452,"Ġwithin":4453,"Wrap":4454,"ading":4455,"Ġli":4456,"ĠJson":4457,"MAT":4458,"Success":4459,"Ġman":4460,"Ġseconds":4461,"AND":4463,"andidate":4465,"DIR":4466,"Region":4467,"çļ":4468,"area":4469,"isDebugEnabled":4470,"DF":4471,"Ġinternal":4472,"ycle":4473,"Ġbel":4476,"çļĦ":4477,"oft":4478,"Ġresources":4479,"Ġreader":4481,"40":4483,"period":4484,"Socket":4486,"complete":4487,"Paths":4488,"transaction":4489,"SEPARATOR":4490,"struction":4491,"Widget":4492,"ĠDB":4493,"Public":4494,"cm":4495,"Ġedge":4497,"Multi":4498,"Layer":4499,"utdown":4500,"valueOf":4501,"ĠAss":4502,"Counter":4503,"27":4504,"Ġtheir":4505,"EXT":4506,"Ġweb":4507,")).":4510,"ident":4512,"Ġcfg":4513,"cu":4514,"izes":4515,"Ġupdated":4516,"archive":4517,"Ġpermission":4519,"Remote":4521,"ĠRE":4522,"SP":4523,"Unknown":4524,"charAt":4525,"Ġiss":4526,"Ġwould":4528,"hex":4529,"Ġ'\\\\":4530,"trigger":4532,"ues":4534,"Ġsl":4536,"Global":4537,"dom":4538,"holder":4539,"vas":4541,"Ġdiff":4542,"uring":4545,"Ġmy":4546,"Ġentries":4548,"selected":4549,"Encode":4550,"second":4551,"Ge":4553,"atom":4554,")}":4555,"alth":4556,"()]":4557,"OUT":4558,"Ġatom":4560,"Ġsig":4563,"Ġsegment":4564,"39":4565,"HTML":4567,"Methods":4568,"udio":4569,"ĠRead":4570,"Ġflags":4572,"hs":4573,"ished":4574,"Fin":4575,"PT":4576,"Ġlistener":4577,"ze":4578,"Ġ\")":4580,"Ġcommit":4581,"OutputStream":4582,"Servlet":4583,"Ġrest":4584,"ĠForm":4585,"Ġsymbol":4586,"Initial":4587,"ARN":4588,"200":4590,"Ġorg":4592,"STAT":4594,"Encoding":4595,"ops":4596,"Ġtimestamp":4597,"available":4599,"export":4600,"Ġcompute":4601,"Ġenvironment":4603,"Ġemail":4604,"PARAM":4605,":%":4606,"38":4607,"upload":4608,"Ptr":4609,"cursor":4611,"Ġhigh":4612,"Ġperform":4613,"Ġassign":4614,"Ġabout":4615,"Flags":4616,"Ġchanged":4617,"Strategy":4619,"Ġsite":4621,"Pe":4622,"Ġrad":4623,"Arguments":4624,"SELECT":4625,"Ġstats":4626,"Ġ\"+":4627,"Ġchanges":4628,"ĠRa":4629,"Orig":4630,"Before":4631,"gest":4632,"www":4633,"allowed":4634,"Rules":4635,"while":4639,"UTF":4640,"destination":4641,"Cap":4642,"Tool":4644,"EClass":4645,"Secret":4646,"ĠValidate":4648,"Snapshot":4649,"peat":4650,"Ġarr":4651,"Ġ\"\";":4653,"IM":4654,"math":4655,"emit":4656,"Objects":4658,"ĠEvent":4659,"CR":4660,"cookie":4662,"Media":4663,"('\\":4664,"åĪ":4665,"igit":4666,"CLASS":4667,"aj":4668,"Ġmean":4669,"ASE":4671,"icro":4672,"Ġsignature":4674,"SSION":4676,"Ġcert":4677,"Ġwhat":4678,"details":4679,"mac":4680,"regex":4681,"Missing":4682,"Ġmatching":4683,"ĠMethod":4684,"Ġ\"-":4685,"END":4686,"Ġbest":4687,"FIX":4688,"istics":4689,"Ġident":4691,"Cloud":4692,"igration":4693,"illis":4694,"covery":4695,"Display":4696,"Conf":4697,"previous":4698,"ĠSQL":4699,"Sql":4700,"Ġdst":4702,"annotation":4705,"Metric":4706,"ordinate":4707,"ones":4708,"06":4709,"Ġrelation":4710,"Ġasync":4711,"Ġdelta":4712,"SA":4713,"getRequest":4714,"HO":4715,"Vector":4716,"Suppress":4717,"BUG":4718,"Ġ//$":4719,"edge":4720,"Ġ200":4721,"ets":4722,"protocol":4723,"77":4725,"statement":4726,"Ġfig":4727,"sq":4728,"Desc":4730,"Ġfolder":4731,"Ġrelative":4734,"256":4735,"transl":4736,"Mapper":4737,"Ġmd":4738,"ĠMake":4739,"constraint":4740,"Ġindent":4741,"ĠFROM":4742,"Test":4743,"unch":4746,"Ġselected":4748,"prom":4749,"getData":4750,"Filename":4751,"ness":4752,"URE":4754,"ĠSib":4755,"NotFoundException":4756,"Tokens":4757,"metric":4758,"Ġmaximum":4759,"Are":4760,"exc":4761,"lier":4762,"atalog":4763,"clus":4764,"ĠLong":4765,"Ġmemory":4766,"dot":4768,"Ġuntil":4769,"binary":4770,"ĠArg":4771,"ĠObservable":4772,"Section":4773,"28":4774,"/{":4776,"GP":4777,"begin":4779,"ited":4780,"Ġunder":4781,"single":4782,"ĠLOGGER":4783,"FileName":4784,"Ġspecify":4785,"dec":4786,"Ġcontrol":4787,"VERSION":4788,"CODE":4789,"Modified":4790,"compile":4792,"done":4793,"rand":4794,"getPath":4795,"det":4796,"QUEST":4797,"clone":4799,"strap":4800,"cloud":4801,"kind":4802,"Rate":4803,"Ġauthor":4804,"Ġrequested":4805,"Ġtrigger":4806,"Ġvalidation":4807,"multi":4808,"cached":4810,"ĠSibTr":4812,"cas":4813,"git":4814,"Ġfra":4815,"Ġcursor":4816,"*/":4817,"Put":4818,"Ġmulti":4819,"Pod":4820,"ĠOpen":4821,"ĠByte":4822,"Classes":4823,"IB":4824,"draw":4825,"UUID":4826,"props":4827,"ĠUtil":4828,"Ġlower":4829,"cons":4830,"Ġexc":4831,"Register":4832,"plat":4833,"El":4834,"Sw":4835,"xff":4836,"Report":4837,"scheme":4838,"segment":4839,"Ġsuch":4840,"Notification":4841,"METHOD":4842,"Ġcharacters":4845,"vc":4846,"Site":4847,"Ġretry":4848,"TEXT":4849,"tl":4850,"Ġrec":4852,"SuppressWarnings":4853,"google":4854,"201":4855,"Wait":4856,"INFO":4857,"Ġgot":4859,"enable":4861,"Ġlon":4862,"leton":4863,"ene":4864,"toArray":4866,"fd":4867,"ulation":4868,"oom":4869,"66":4871,"ĠHashMap":4872,"Ġperiod":4873,"rapped":4874,"Ġcontents":4875,"dn":4876,"branch":4877,"days":4879,"ours":4880,"Ġ\"<":4881,"Init":4882,"DA":4883,"Ġevalu":4884,"Ġleast":4886,"Convert":4887,"Ġcomplete":4888,"Ġprovider":4889,"shop":4890,"ĠOr":4891,"Ġhow":4892,"ĠCal":4894,"ti":4895,"Abstract":4896,"Optional":4898,"ĠToken":4900,"FS":4901,"Edit":4902,"fieldName":4903,"_.":4904,"fileName":4905,"ĠResource":4906,"hasNext":4907,"ryption":4909,"Ġdesc":4910,"Find":4911,"ison":4912,"Ġdefinition":4915,"ram":4916,"score":4917,"Ġlanguage":4918,"come":4919,"inv":4921,"gon":4922,"duration":4925,"currency":4926,"ole":4929,"setAttribute":4931,"ANCE":4932,"signature":4933,"Ġway":4934,"gt":4935,"Ġdepth":4936,"ĠRun":4939,"ĠDelete":4940,"Ġprot":4941,"Simple":4942,"vs":4943,"ĠElement":4947,"Proto":4948,"ĠBase":4949,"Ġmember":4950,"Period":4952,"Ġ';":4953,"master":4954,"Ġwere":4955,"spect":4956,"ĠIndex":4957,"VALID":4961,"catch":4963,"listener":4964,"MIN":4967,"features":4968,"Ax":4969,"release":4970,"ee":4971,"Import":4972,"Flow":4973,"Ġprops":4974,"CRE":4976,"Validator":4977,"mi":4978,"ITE":4979,"Math":4980,"Ġ(%":4981,"Signature":4982,"21":4984,"dimension":4985,"(){":4986,"dump":4987,"Font":4988,"Symbol":4990,"Operator":4991,"Summary":4992,"rain":4993,"Ġclone":4994,"ĠET":4995,"Ind":4996,"Ġneeds":4997,"Ġvector":4998,"ĠDis":4999,"Formatter":5000,"Ġrepo":5001,"Commit":5002,"Insert":5003,"incip":5004,"FT":5006,"Bit":5007,"Ġmeans":5008,"ALSE":5010,"Grid":5011,"updated":5012,"Month":5013,"signed":5014,"Ġkeyword":5015,"spe":5016,"Ġbranch":5019,"UI":5021,"getConfig":5022,"super":5024,"Ġexternal":5025,"indent":5026,"Ġter":5027,"ĉĊ":5029,"ather":5031,"generator":5033,"29":5034,"Ġgroups":5035,"OS":5036,"lim":5038,"Ġstatement":5039,"26":5040,"Usage":5041,"Ġredirect":5042,"Throwable":5044,"Single":5045,"uce":5046,"><":5047,"ĠArgument":5048,"lookup":5049,"changed":5050,"Series":5052,"mut":5053,"activ":5054,"tn":5055,"Inst":5057,"ĠOutput":5058,"appings":5059,"Over":5060,"NotNull":5061,"Ġsetting":5062,"REQUEST":5063,"xx":5064,"tw":5065,"Ġverify":5066,"vocation":5068,"Ġinterval":5071,"onical":5073,"Ġadditional":5075,"iling":5076,"Price":5077,"attach":5078,"Destination":5080,"BE":5081,"Ġequal":5082,"Ġdisable":5083,"NE":5084,"Ġmath":5086,"priority":5087,"Ġavoid":5088,"Ġ^":5089,"05":5090,"Ġnote":5091,"raft":5093,"Ġmove":5095,"startsWith":5096,"Allowed":5098,"watch":5099,"Protocol":5100,"Where":5101,"Ġoverride":5102,"entries":5104,"Ġfill":5106,"Env":5107,"oll":5108,"Ġdetails":5110,"ssl":5111,"Word":5112,"Ġcp":5113,"ĠURI":5115,"ĠModel":5116,")*":5118,"Ġvia":5119,"Ġannotation":5120,"Environment":5121,"codes":5122,"Ġbin":5124,"chor":5125,"Common":5126,"Ġstructure":5127,"Ġ1000":5128,"tick":5130,"ele":5131,"Ġalias":5132,"Par":5133,"structure":5134,"iver":5136,"Ġcore":5137,"Ġcondition":5138,"incipal":5139,"Direct":5140,"cel":5142,"23":5143,"Ġindices":5144,"ĠFunction":5145,"modified":5146,"03":5147,"links":5148,"Ġinstall":5149,"ĠBuild":5150,"parison":5153,"Ġpolicy":5154,"aving":5156,"ĠAuth":5157,"ond":5158,")\",":5160,"Ġdefin":5161,"Ġ{},":5162,"alan":5163,"ART":5164,"ĠST":5165,"amount":5166,"Ð¸":5167,"STRING":5168,"ociation":5169,"Ġruntime":5170,"Ġmat":5171,"////////":5172,"Ġart":5173,"Ġassume":5174,"ifc":5175,"NG":5177,"Now":5178,"Binding":5179,"LL":5180,"<>(":5183,"Ġtrain":5184,"Ġcontroller":5185,"Ġcached":5186,"Props":5187,"Stop":5189,"rpc":5190,"ĠNO":5191,"ĠDouble":5192,"ĠOther":5193,"Ġseries":5194,"emon":5195,"()[":5197,"Ġupload":5199,"services":5200,"fully":5201,"Ġcalculate":5202,"Bag":5203,"ks":5205,"Upload":5206,"Ġmetric":5207,"AA":5209,"itespace":5210,"Constraints":5211,"identity":5213,"CF":5214,"selector":5215,"sym":5216,"Changed":5217,"Ġlookup":5218,"Ġalpha":5219,"Bar":5220,"distance":5221,"Validate":5223,":\\":5225,"OB":5228,"train":5229,"Ġtoo":5230,"Ġdist":5231,"Di":5232,"Ġids":5233,"Assign":5235,"Temp":5236,"Rec":5237,"ao":5239,"Ġsetup":5240,"sd":5241,"Ġyet":5242,"ĠFind":5244,"Ġ):":5245,"Ġpush":5247,"Ġtimes":5248,"Ġbox":5249,"Det":5250,"RuntimeException":5251,"/**":5252,"Ġtrack":5253,"Replace":5254,"pires":5257,"CESS":5259,"åĲ":5260,"ĠTable":5261,"Ġclasses":5263,"ÑĤ":5264,"Processor":5265,"Converter":5266,"ony":5268,"Ġ\"_":5269,"Calendar":5270,"adapter":5272,"FIG":5273,"normalize":5275,"Look":5277,"LOB":5278,"Vertex":5280,"Ġduration":5281,"Memory":5282,"Millis":5283,"ATTR":5285,"fit":5286,"44":5287,"Prop":5288,"ĠSub":5289,"HEAD":5290,"variant":5291,"losing":5292,"reen":5293,"mutable":5294,"Ġbundle":5295,"runtime":5296,"ĠInt":5297,"ker":5298,"validation":5299,"none":5301,"security":5306,"Equal":5307,"Ġinitialize":5308,"xf":5309,"Dimension":5310,"ĠOnly":5311,"cop":5312,"StateException":5313,"Ġcap":5315,"Ġfuture":5316,"uted":5318,"Ġround":5319,"Ġdraw":5320,"Warning":5321,"ĠPython":5322,"CL":5323,"Man":5325,"NonNull":5326,"Watch":5327,"aries":5328,"existing":5329,"Ġseq":5331,"prob":5332,"ilities":5333,"Ġgenerated":5334,"allel":5335,"ifications":5336,"AUT":5338,"ĠLink":5339,"Ġattrs":5340,"Decimal":5341,"Ġdownload":5342,"boot":5344,"Ġwrapper":5346,"Loop":5347,"bits":5348,"Ġsuffix":5349,"Ġcause":5350,"Cert":5352,"Ġfactory":5353,"Ġmag":5354,"IDs":5355,">\\":5357,"Ġiterator":5361,"cum":5362,"Arr":5363,"urface":5364,"rb":5365,"Ġoperator":5366,"Ġrules":5368,"Login":5369,"MD":5370,"Decode":5371,"aws":5372,"ById":5373,"ĠHE":5374,"DEBUG":5375,"JECT":5378,"Fra":5379,"Ġ201":5381,"comm":5382,"Ġstandard":5383,"NLS":5384,"progress":5386,"ĠWhen":5387,"Ġprogress":5388,"MODE":5389,"Lib":5390,"Virtual":5391,"ĠBuffer":5392,"free":5393,"Annotations":5394,"ä»":5395,"Ġyear":5396,"elem":5397,"signal":5398,"Ġ20":5401,"Ġdeleted":5407,"Ġrecords":5409,"ĠClient":5410,"Ġfunctions":5411,"Ip":5412,"Scale":5413,"Ġ32":5414,"TL":5416,"ĠGener":5418,"Ġstored":5419,"getUser":5420,"Consumer":5421,"Ġfix":5422,"Ġexpr":5424,"Metrics":5426,"Bad":5427,"Binary":5428,"ĠAb":5430,"Ġ){":5431,")-":5433,"Ġenabled":5434,"SK":5435,"Ġconversion":5436,"Ġreason":5439,"88":5440,"Available":5442,"Ġfont":5443,"Ġassociated":5444,"Entries":5446,"Nullable":5447,"></":5448,"endor":5449,"tableName":5450,"Bounds":5451,"Ġbits":5452,"high":5453,"Ġanother":5454,"Ġfeatures":5455,"pad":5456,"Ġsubject":5457,"Ġ\");":5458,"chars":5459,"cut":5460,"Sl":5461,"Hook":5462,"see":5463,"Ġmost":5464,"('.":5465,"ĠCommand":5468,"imation":5469,"Ġfit":5470,"filePath":5471,"DELETE":5472,"Java":5476,"Subject":5477,"ĠCall":5478,"ĠWrite":5479,"Ġns":5481,"****************":5482,"azy":5483,"Ġsync":5484,"Ġsimple":5485,"ents":5487,"Labels":5489,"Pr":5490,"rong":5491,"ga":5493,"ĠFilter":5494,"Ġhead":5495,"ively":5496,"Ġexpect":5497,"Ġinstances":5498,"37":5499,"rant":5500,"Area":5501,"Connect":5503,"na":5504,"Ġattach":5506,"Failure":5507,"Second":5508,"Ġca":5509,"Created":5510,"ention":5511,")){":5512,"Ġcancel":5513,"Inv":5514,"Save":5515,"fast":5516,"Ident":5518,"setup":5519,"Primary":5520,"pared":5523,"ough":5524,"Ġgenerator":5525,"ĠDI":5526,"Ġtem":5527,"compute":5528,"Ġpixel":5529,"Chunk":5531,"Ġmonth":5532,"sha":5533,"mm":5534,"images":5535,"Ġdim":5538,"Progress":5540,"Owner":5541,"Ġclazz":5542,"MI":5545,"asc":5546,"kw":5548,"cf":5549,"ĠStr":5550,"olt":5551,"TableName":5552,"origin":5555,"zero":5556,"registry":5557,"uff":5558,"norm":5559,"Ġaddr":5560,"STATUS":5561,"ters":5562,"Ġdetermine":5563,"Ġstill":5564,"ĠImage":5565,"otes":5566,"Ġmight":5567,"UND":5569,"curr":5571,"'ll":5573,"Gateway":5574,"atible":5576,"Ġpartition":5578,"getParent":5579,"Ġ'.'":5580,"Accept":5581,"Ġdid":5583,"Org":5584,"Ġdirection":5586,"Ġalt":5587,"cos":5588,"mitted":5589,"IgnoreCase":5590,"Ġknow":5591,"Ġattempt":5594,"Ġproduct":5597,"Ġimg":5598,"topic":5599,"Ġloaded":5600,"Vars":5601,"Ġnothing":5604,"Ġnormalize":5605,"Ġproto":5608,"Normal":5610,"Setting":5611,"86":5614,"Ġå":5615,"ãĤ":5616,"verbose":5617,"Ġcounter":5618,"Ġlocale":5619,"eds":5620,"Ġrelease":5622,"Ġprepare":5623,"Ġprovide":5624,"lon":5625,"ĠProtocol":5626,"Locator":5627,"Ġcenter":5628,"Ġelem":5629,"Cookie":5630,"visit":5631,"ula":5634,"ales":5636,"Rect":5637,"Services":5638,"Points":5639,"FIELD":5640,"Literal":5641,"memory":5642,"getDefault":5643,"Ġfilters":5644,"Panel":5645,"download":5646,"=\\\"":5647,"reverse":5648,"ongo":5650,"ĠState":5651,"eno":5653,"SL":5656,"separator":5657,"Done":5658,"home":5659,"Std":5660,">,":5661,"Ġretrieve":5662,"getString":5663,"Diff":5665,"tegr":5666,"Ġabove":5667,"EOL":5668,"Place":5669,"Year":5670,"gers":5671,"Ġscore":5672,"worker":5675,"Contents":5676,"ĠStart":5677,"*(":5678,"Ġtake":5679,"Big":5680,"etermin":5681,"logging":5682,"Ġorigin":5684,"Ġinputs":5686,"ĠChar":5687,"Ġonce":5688,"LowerCase":5689,"Activity":5690,"Fetch":5691,"Ġencoded":5693,"hy":5694,"iate":5695,"Ġamount":5696,"Private":5700,"DD":5703,"31":5704,"isArray":5705,"Ġcategory":5707,"Ġduring":5708,"FIN":5709,"+\"":5711,"Ġmer":5712,"Icon":5714,"Ġpr":5715,">)":5716,"CONFIG":5717,"Ġscan":5718,"è¯":5719,"æĸ":5720,"Mask":5721,"Payload":5723,"ĠPh":5724,"FilePath":5725,"!=":5726,"appendChild":5727,"Ġcollect":5728,"Real":5729,"Information":5730,"iation":5732,"Apply":5735,"ferences":5736,"Arch":5738,"iform":5739,"Ġregistered":5740,"Selection":5741,"Ġrepository":5742,"ables":5743,"Ġ|=":5744,"ãĥ":5745,"getField":5747,"Ġprimary":5748,"ridge":5749,"dc":5750,"Rep":5751,"Ġcompare":5754,"yy":5756,"XX":5758,"cms":5759,"Ġmanager":5760,"Ġconstraint":5761,"collect":5762,"IVE":5763,"INST":5764,"xe":5765,"blocks":5766,"Ð½":5767,"NUM":5768,"RED":5769,"Ġupper":5770,"Comparator":5771,"APP":5773,"Runtime":5774,"Ġmany":5775,"Ġts":5777,"Buf":5778,"History":5779,"roid":5781,">()":5782,"border":5783,"rot":5784,"align":5785,"Ġmodels":5786,"Ġ))":5787,"ĠContent":5789,"Filters":5790,"nan":5791,"Transport":5792,"Ġconsider":5793,"history":5794,"echo":5795,"DC":5796,"ĠAd":5798,"Ġbean":5801,"Ġexclude":5803,"45":5805,"Edge":5806,"æķ":5808,"retry":5809,"ĠSo":5811,"ĠWeb":5812,"Ġvm":5813,"Ġspecial":5814,"Authorization":5817,"Ġbutton":5818,"ĠLoad":5819,"Ġhex":5821,"Ġzone":5822,"isto":5823,"Ġusers":5824,"ĠIllegalStateException":5825,"Reflection":5826,"fire":5827,"Ġstrip":5829,"Listeners":5830,"invoke":5832,"ulk":5834,"Ġsnapshot":5836,"Ġimages":5837,"48":5838,"Track":5840,"Ġregex":5841,"Ġoccur":5843,"Ġdt":5844,"WN":5846,"Ġdefine":5847,"sect":5848,"ĠText":5850,"sorted":5851,"void":5852,"Cmd":5854,"ACT":5857,"Suffix":5858,"ĠServer":5859,"sens":5863,"alf":5864,"Ġkind":5865,"ĠOR":5866,"Support":5867,"ars":5868,"ULE":5869,"Elem":5870,"LINE":5871,"ToString":5872,"ĠRuntime":5873,"ĠProcess":5874,"ideo":5875,"æľ":5876,"STATE":5877,"eval":5879,"Ġclick":5880,"unchecked":5881,"Ġnecessary":5882,"Lines":5883,"Ġdirectly":5884,"Ġalgorithm":5885,"ĠIs":5887,"ĠOtherwise":5888,"abilities":5889,"stit":5890,"ĠHT":5891,"Ġexport":5892,"getCurrent":5893,"Ġdisk":5895,"TAG":5896,"addAll":5897,"metrics":5898,"ĠResult":5899,"BY":5901,"################":5902,"relative":5903,"ctr":5904,"(\",":5905,"ango":5906,"SESSION":5907,"Character":5908,"Ġbelow":5909,"sid":5910,"Plan":5911,"ampa":5912,"Ġ60":5913,"Go":5915,"Ġlater":5916,"INTER":5919,"getResource":5920,"Authentication":5921,"ampaign":5922,"OPTION":5923,"Ġnamed":5924,"contentType":5925,"loor":5926,"ĠTR":5927,"Ġvert":5929,"cancel":5930,"Ġinner":5931,"Static":5934,"Tab":5937,"Req":5938,"Sp":5939,"Ġbro":5941,"dl":5942,"ĠNOT":5943,"sqrt":5944,"Ġlayout":5945,"pending":5946,"ĠFI":5947,"ĠAll":5948,"Ġrot":5950,"ĠCan":5951,"iance":5952,"ÑĢ":5955,"disable":5956,"Ġ'{}":5957,"Ġreverse":5958,"Ġlogin":5959,"Amount":5960,"isValid":5961,"bad":5962,"Ġfactor":5963,"(':":5964,"Dat":5966,"VAR":5967,"lan":5968,"Ġtile":5970,"reply":5973,"CONT":5975,"Such":5976,"ĠStream":5977,"scan":5980,"encoded":5982,"Ġcalling":5983,"IST":5985,"Ġlow":5986,"Ġvariant":5987,"toLowerCase":5988,"--;":5990,"Axis":5991,"GB":5994,"png":5995,"Fac":5996,"ĠIO":5997,"Schedule":5999,"Ġder":6000,"Deployment":6001,"ats":6002,"Opt":6003,"istic":6004,"enum":6005,"click":6007,"Ġcomponents":6008,"SU":6009,"wp":6010,"equalsIgnoreCase":6011,"plan":6012,"Asset":6013,"containsKey":6014,"velope":6016,"Ġcurrently":6018,"Exit":6019,"}\",":6020,"Ġ24":6021,"Ġexecution":6023,"Ġprotected":6024,"Ġreceived":6025,"views":6026,"orig":6027,"ĠIterator":6028,"Publish":6030,"Ġtab":6031,"Ġpublish":6032,"note":6033,"255":6034,"Ġsepar":6036,"getParameter":6037,"Cor":6038,"FOL":6040,"Ġgre":6041,"Ġtopic":6042,"Credentials":6044,"Ġpacket":6046,"Ġremaining":6049,"Redirect":6050,"delay":6051,"ini":6053,"Ġselection":6054,"lab":6055,"Ġ\";":6056,"Ġeven":6057,"Dialog":6058,"met":6059,"hip":6061,"zz":6063,"pdf":6066,"aging":6067,"Peer":6070,"78":6071,"bb":6072,"COMP":6073,"ĠAS":6074,"Ġwrap":6076,"ĠPage":6077,"binding":6078,"del":6080,"DataType":6081,"Serializer":6082,"ilar":6083,"Show":6086,"Ġconstructor":6088,"Structure":6089,"59":6093,"READ":6094,"Ġrequires":6095,"EC":6097,"Ġmaster":6098,"Ġignored":6099,"Ġhref":6100,"[(":6101,"formatter":6102,"Instances":6103,"charset":6104,"Ġflow":6105,"Ġthreshold":6106,"PREFIX":6107,"Topic":6108,"AG":6110,"Ġclosed":6112,"Upper":6113,"editor":6114,"ĠSpec":6115,"ĠCo":6116,"SD":6117,"partition":6118,"Ġemit":6119,"win":6120,"Ġds":6123,"correct":6124,"crypted":6125,"Sk":6127,"SSL":6128,"Background":6129,"Ġ{}\",":6130,"Ġarrays":6132,"Lookup":6134,"Ter":6135,"(\"[":6136,"WE":6138,"sim":6139,"Ġengine":6140,"Ġregistry":6141,"unknown":6142,"MB":6143,"example":6144,"Ġfailure":6145,"bottom":6146,"wt":6147,">>>":6148,"ĠDEFAULT":6149,"running":6150,"Ġside":6152,"ONE":6153,"Ġtre":6154,"background":6155,"padding":6156,"FORMAT":6158,"Ġstarting":6159,"DT":6161,"cn":6162,"Card":6164,"Ġwatch":6165,"ByName":6167,"JS":6168,"Ġprocessing":6170,"ĠApi":6171,"ĠHandle":6172,"compiler":6174,"ĠRes":6177,"ĠProperty":6178,"Matcher":6180,"âĢ":6181,"08":6183,"Uuid":6184,"Ġthose":6185,"pointer":6186,"Ġagent":6187,"SY":6188,"Ġwords":6189,"ĠCode":6190,"ĠHTML":6191,"schedule":6192,"Ġdec":6193,"ĠAbstract":6196,"ĠBe":6197,"uses":6199,"Visible":6200,"actual":6201,"digest":6202,"Ġrs":6204,"Ġ\\\"":6205,"Ñģ":6209,"Cursor":6210,"Ġowner":6211,"WithServiceResponseAsync":6213,"WARN":6215,"49":6216,"Absolute":6218,"Ret":6219,">\"":6220,"509":6221,"Ġinside":6223,"UST":6225,"sTo":6226,"ĠThread":6227,"<<":6230,"Ġselector":6233,"Declaration":6234,"setValue":6235,"Transfer":6236,"UTE":6237,"Factor":6238,"ARY":6239,"visible":6241,"au":6242,"Ġpod":6243,"Ġpadding":6246,"Ġreply":6249,"Ġdriver":6250,"Holder":6251,"aa":6252,"scriber":6253,"ipher":6256,"Ġminimum":6257,"Depth":6258,"Ctx":6259,"GR":6260,"Ġ255":6261,"Ġ\":":6262,"Ġ15":6263,"getB":6265,"MetaData":6266,"[])":6268,"Jvm":6269,"Variables":6270,"Implement":6271,"RES":6273,"ĠEnt":6274,"bot":6275,"CI":6276,"Ġmodified":6279,"Ġcredentials":6281,"Ġoptim":6282,"MT":6284,"slot":6286,"Unique":6287,"Ġwell":6288,"ĠSE":6290,"tasks":6291,"should":6292,"è¿":6293,"LY":6295,"Detail":6298,"Machine":6299,"Ð¾Ð":6303,"NULL":6304,"ĠSimple":6306,"Arn":6307,"Ġdiv":6308,"Ġhappen":6309,"Ġcurr":6311,"Executor":6312,"Ġpeer":6313,"Ġedit":6318,")?":6320,"Ġcalls":6321,"WR":6323,"ĠAny":6326,"StackTrace":6328,"Ġes":6329,"Ġmetrics":6330,"ĠOrder":6331,"æķ°":6332,"Po":6334,"uggest":6335,"Weight":6336,"Actions":6338,"Ġbounds":6339,"matcher":6342,"Subscription":6343,"xc":6344,"clusive":6345,"Net":6346,"simple":6347,"Ġsafe":6349,"nn":6350,"etter":6351,"Ġless":6352,"Ġblocks":6354,"FC":6355,"Strings":6358,"ĠĠĊ":6360,"alloc":6361,"Ġown":6362,"AUTH":6363,"ants":6365,"sleep":6367,"ĠContext":6369,"Ġrate":6370,"OKEN":6371,"transport":6372,"Partition":6373,"Permissions":6374,"Ġknown":6375,"ContentType":6378,"Worker":6380,"ĠConnection":6381,"jo":6384,"att":6385,"External":6386,"Constant":6387,"herit":6388,"si":6390,"ArrayList":6391,"POS":6392,"tile":6393,"keep":6395,"Ġsecret":6396,"aff":6397,"ĠLA":6398,"Ġtool":6400,"plain":6401,"Ġisn":6402,"external":6404,"Separator":6405,"Timer":6407,"ock":6408,"TS":6409,"Ġcommands":6410,"Ġboot":6411,"best":6412,"Complete":6415,"submit":6416,"Exist":6417,"Mock":6418,"Help":6421,"resolved":6422,"Ġplatform":6423,"Seconds":6425,"Ġedges":6427,"Ġnested":6428,"adow":6429,"Ġproper":6430,"redicate":6431,"Ġetc":6433,"Ġsym":6435,"Ġworker":6436,"Ġdot":6437,"AV":6439,"ĠCache":6440,"defaultValue":6442,"nest":6444,"Generic":6446,"Ġmb":6447,"DOM":6449,"udo":6450,"ĠVar":6451,"Packet":6452,"pm":6453,"Ġtasks":6454,"gu":6456,"Ġpointer":6458,"Disk":6462,"Rad":6463,"uer":6464,"Unexpected":6466,"chart":6467,"Ġnumbers":6468,"Ġissue":6469,"Ġconfigured":6470,"car":6471,"Many":6472,"Ġuuid":6473,"getTime":6474,"illing":6475,"76":6477,"Ġdelay":6479,"notify":6480,"Encoder":6481,"processor":6483,"Span":6484,"Roles":6485,"Ġsaved":6488,"BR":6489,"atype":6490,"Draw":6492,"DR":6494,"Expected":6495,"Regex":6496,"Ġexplicit":6497,"Ġexact":6499,"Ġrepresentation":6500,"destroy":6501,"Head":6503,"ĠView":6504,"Ġ64":6505,"Ob":6507,"als":6508,"Ġrefresh":6510,"Ġhy":6511,"Ġconstruct":6512,"Users":6513,"Ġcertificate":6514,"Week":6515,"ĠLe":6517,"Lat":6518,"lev":6519,"PROPER":6520,"tracking":6521,"Bits":6522,"Sets":6524,"HEADER":6525,"Ġmedia":6526,"Iss":6528,"Mail":6529,"Ġnever":6530,"ĠAc":6536,"coming":6537,"ĠclassName":6538,"Handlers":6539,"Ġdrop":6540,"ĠDateTime":6541,"video":6542,"Ġut":6544,"Ġenable":6546,"ĠFl":6547,"Ġ\"$":6548,"COM":6550,"ĠInitial":6552,"ĠAs":6553,"Constructor":6554,"Ġserialize":6555,"TABLE":6556,"CLI":6560,"INSTANCE":6561,"xFF":6562,"Ġlibrary":6563,"You":6566,"Ġsecurity":6567,"ĠCollections":6568,"ĠBig":6569,"getQuery":6570,"ĠEntity":6571,"ATED":6572,"IGHT":6574,"illi":6575,"sr":6577,"unct":6578,"ĠFirst":6580,"Export":6581,"dirs":6582,"Versions":6584,"era":6585,"åŃ":6586,"dater":6589,"LOGGER":6591,"Clause":6593,",\"":6595,"Ġtyp":6596,"ĠPer":6597,"Ġadmin":6598,"Random":6601,"Ġexceptions":6603,"ĠTask":6604,"Selected":6605,"Backup":6606,"SOURCE":6607,"sin":6608,"Extra":6609,"ocus":6610,"Ġ\"/\"":6611,"Dispatcher":6612,"Ġbar":6613,"ĠSto":6614,"Seq":6616,"Retry":6617,"Ġseparator":6620,"Named":6621,"Delay":6622,"ĠAssert":6623,"Ġprocessed":6624,"activity":6625,"ĠRef":6626,"Gen":6627,"constructor":6629,"bre":6630,"xa":6631,"ĠRed":6632,"LAB":6633,"andidates":6634,"Contact":6636,"gy":6637,"vector":6638,"entrySet":6641,"ĠThere":6642,"Pass":6644,"Ġ).":6645,"xid":6646,"ĠConfiguration":6647,"LIST":6648,"Ġfast":6650,"Ġleg":6651,"Ġservices":6652,"Ġ*=":6653,"Ġinv":6654,"Ġ30":6657,"Currency":6658,"Ġeffect":6659,"snapshot":6660,"Ġabsolute":6662,"coll":6663,"Ġæ":6664,"Install":6665,"46":6666,"Shared":6667,"team":6668,"Tuple":6669,"gregation":6670,"Ġ~":6671,"pet":6672,"Ġnorm":6673,"ĠTry":6674,"Ġparsing":6675,"Ġdescriptor":6676,"Commerce":6677,"ĠCON":6679,"Ġpad":6680,"Ġsmall":6687,"Ġusage":6688,"ITH":6689,"GRO":6690,"START":6692,"ĠOS":6693,"ĠPl":6694,"TRAN":6695,"Append":6696,"Scheme":6697,"Ġsomething":6698,"Records":6699,"Align":6700,"Ġdimensions":6702,"Ġ'?":6704,"Ġincluded":6706,"Click":6709,"(...)\");":6710,"Release":6711,"Ġrect":6713,"REF":6714,"Ġmatched":6716,"ĠProtocolMarshaller":6717,"CHAR":6720,"aut":6724,"ĠWork":6725,"ĠDocument":6726,"grad":6728,"Trigger":6729,"GS":6730,"Ġprevent":6731,"Ġspan":6733,"ĠHe":6734,"umbnail":6735,"newInstance":6736,"Ġradius":6737,"stor":6738,"Renderer":6739,"Pages":6741,"Ġactiv":6744,"ĠNe":6745,"ci":6746,"fac":6747,"Ġactually":6750,"lies":6751,"Ġpatch":6753,"subscription":6754,"Members":6756,"ividual":6758,"Into":6759,"ĠNull":6760,"acl":6761,"Ġagainst":6767,"evalu":6768,"ĠPoint":6769,"Attachment":6771,"ĠTree":6773,"Google":6774,"Ġangle":6775,"inger":6776,"closed":6777,"Attach":6778,"Ġdesired":6779,"ĠMatch":6780,"Ġescape":6782,"Transl":6783,"oler":6786,"jav":6787,"çĶ":6788,"aker":6789,"Scroll":6790,"Ġdue":6793,"jected":6795,"segments":6796,"Ġasset":6797,"atest":6798,"Ġpersist":6799,"getE":6802,"Ġ(!(":6803,"MESSAGE":6804,"Ġblob":6805,"Tables":6806,"Cons":6807,"FOLLOW":6810,"Ġunknown":6811,"90":6812,"inu":6813,"ĠCur":6814,"getNode":6815,"LOCK":6817,"matched":6818,"Algorithm":6819,"ĠSend":6820,"================================":6822,"Ġsummary":6823,"Ġchecks":6824,"initialize":6827,"åħ":6828,"Ġpending":6829,"BASE":6833,"Marker":6834,"hr":6835,"ism":6836,"Ġps":6839,"Ġforward":6840,"Ġgra":6841,"Ġconfigure":6842,"getFile":6843,"ĠOperation":6844,"Main":6845,"Ġactions":6846,"Lang":6847,"Ġgrad":6848,"ĠBlock":6849,"PRI":6850,"getCode":6851,"Blocks":6853,"AF":6855,"Mut":6856,"ĠYou":6857,"Ġprogram":6860,"Ġcreating":6861,"UNT":6862,"Router":6863,"SUB":6865,"ka":6867,"Ġrelated":6868,"Tasks":6869,"setName":6870,"Tick":6871,"Ġ11":6872,"LED":6873,"walk":6874,"xd":6875,"Hex":6876,"amma":6877,".)":6878,"tz":6879,"(\"<":6880,"RAY":6881,"atal":6882,"HA":6883,"58":6884,"PORT":6885,"ium":6886,"otential":6888,"Ġpid":6890,"native":6892,"47":6893,"icket":6894,"++]":6895,"Execute":6896,"Ġimplementation":6897,"(\"-":6898,"Ġnegative":6900,"Present":6901,"Ġexpand":6902,"Monitor":6903,"MIT":6907,"propertyName":6908,"Ġmachine":6910,"iso":6911,"versation":6913,"Foreign":6915,"Branch":6916,"ĠPri":6917,"Ġdump":6918,"VICE":6920,"Ġvirtual":6921,"VM":6922,"screen":6923,"Codes":6924,"Ġmut":6926,"ĠGe":6927,"Cancel":6928,"Sheet":6929,"Team":6931,"Ġrc":6932,"Running":6933,"Ġgit":6934,"Ġarchive":6935,"Reset":6936,"Ġcookie":6938,"Measure":6939,"LOC":6940,"REG":6941,"Scan":6943,"Ġmarker":6947,"å®":6948,"Ġidentity":6951,"ĠRout":6953,"connected":6954,"Ġcir":6955,"Ġauthentication":6959,"Include":6960,"erial":6961,"mg":6962,"Ġpartial":6963,"Nonnull":6965,"Allow":6967,"els":6968,"ĠcaseIfc":6969,"ĠSchema":6970,"Distance":6971,"ike":6973,"bean":6974,"porter":6977,"getMethod":6978,"Ġalign":6979,"clazz":6980,"Ġconsumer":6981,"ceed":6982,"....":6984,"å¤":6985,"Ġbig":6986,"Ġorig":6988,"Ġscheme":6991,"versions":6993,"ĠVersion":6994,"Zero":6996,"phi":6998,"42":6999,"Ġstmt":7000,"fc":7001,"Ġseed":7002,"Ġdependency":7004,"ĠOption":7005,"PL":7006,"consumer":7009,"ĠIS":7010,"Ġmembers":7011,"07":7012,"Ġresolved":7013,"typ":7018,"Ġcases":7019,"Ġlin":7020,"illed":7021,"WARNING":7022,"SHA":7024,"filtered":7025,"DEX":7030,"servers":7031,"Ġreading":7032,"Ġslot":7033,"Ġdependencies":7034,"LENGTH":7035,"]));":7036,"tip":7039,"seek":7040,"Dataset":7041,"ĠAct":7042,"EObject":7043,"getEntity":7045,"Ġtick":7046,"Ġpercent":7048,"Fragment":7049,"FE":7050,"Ġproc":7052,"ĠSession":7054,"Ġvisit":7055,"Ġstrict":7056,"ĠGroup":7057,"bus":7059,"ĠWith":7060,"Ġvertex":7061,"Ġshared":7063,"Criteria":7064,"Ġitself":7065,"equal":7066,"Ġbad":7068,"fa":7069,"ster":7070,"MPTY":7071,"Username":7072,"getResponse":7073,"EM":7074,"getContext":7077,"Ġversions":7078,"additional":7079,"Ġsec":7080,"ĠJob":7081,"getService":7082,"fragment":7083,"Ġlinks":7087,"eq":7088,"mult":7089,"arb":7090,"ĠON":7091,"95":7094,"ClassLoader":7098,"ĠSearch":7099,"Ġpermissions":7102,"userId":7103,"oring":7105,"Ġalloc":7106,"Css":7107,"special":7108,"radius":7109,"Ġsk":7110,"ado":7112,"crease":7114,"Ġwritten":7115,"ĠInputStream":7116,"aug":7117,"Ġfixed":7120,"/\"":7121,"Revision":7122,"ĠConstants":7123,"Push":7124,"Ġarea":7125,"pn":7126,"PS":7130,"ares":7131,"INVALID":7132,"getContent":7133,"forward":7134,"Shop":7136,"Ġproblem":7138,"Ġfire":7141,"Utility":7144,"ota":7147,"ĠSI":7148,"Bus":7149,"virt":7150,"ainers":7151,"43":7152,"67":7153,"Ġmac":7154,"Ġsn":7156,"ov":7157,"Ġicon":7158,"Ġtw":7159,"Unsupported":7160,"Ġschedule":7162,"marker":7163,"Bro":7164,"ĠLinked":7165,"big":7166,"FieldName":7168,"mediate":7170,"Geometry":7171,"inc":7174,"SV":7177,"Dependency":7182,"Ġpositive":7184,"dro":7185,")\"":7186,"]).":7187,"imate":7190,"getX":7192,"disk":7193,"bounds":7194,"IZ":7197,"Ġhistory":7198,"ĠCre":7199,"Priority":7200,"EventListener":7201,"Ġbackground":7203,"CC":7204,"Ġcharset":7207,"Screen":7208,"Ġshift":7209,"Ġformatted":7210,"gate":7212,"NODE":7213,"mapper":7214,"Score":7216,"ands":7217,"Ġpriority":7218,"ĠHashSet":7219,"Fixed":7220,"ROOT":7222,"Ġfiltered":7224,"Collector":7226,"ilation":7227,"timer":7228,"Ġretval":7230,"ĠFormat":7231,"Ġeditor":7232,"UPDATE":7233,"SPACE":7237,"Ġcast":7239,"cod":7240,"Defaults":7241,"ably":7242,"MAP":7244,"()}":7245,"ĠNow":7246,"Supported":7247,"dep":7249,"Assert":7250,"Ġmerged":7251,"Archive":7252,"iki":7255,"More":7258,"Merge":7261,"TOKEN":7262,"Hint":7264,"phone":7265,"Es":7266,"\",\"":7267,"Ġrestore":7268,"Reason":7270,"atory":7271,"NONE":7272,"ĠBuffered":7275,"iet":7276,"Ġbottom":7277,"Ġ</":7279,"ITION":7281,"ceptor":7282,"plicit":7283,"Ġ':'":7285,"Ġcaller":7286,"shared":7287,"Standard":7289,"SR":7292,"Ġanalysis":7293,"lc":7294,"Ġstarted":7295,"Sel":7296,"Updated":7298,"Illegal":7301,"Tem":7302,"Ġadjust":7303,"Ġcandidate":7304,"ĠHtml":7305,"Begin":7306,"commerce":7307,"Ġpur":7308,"iness":7309,"Balancer":7312,"Editor":7315,"Ġflush":7317,"Ġbinding":7319,"Definitions":7322,"ĠColor":7323,"URN":7324,"Visitor":7325,"(\".":7326,"izing":7327,"ĠExpression":7329,"Matches":7330,"65":7331,"Sample":7332,"asis":7335,"aps":7337,"Ġloader":7338,"descriptor":7339,"Country":7340,"Links":7341,"âĶ":7342,"Components":7344,"Ġsuccessfully":7345,"urnal":7346,"Ġtables":7347,"person":7349,"ĠresourceGroupName":7350,"PTION":7351,"aterial":7352,"standard":7353,"cnt":7356,"'\",":7357,"Ġjs":7358,"Ġkw":7360,"cid":7361,"Ġfree":7362,"ailability":7363,"Ġsources":7364,"lide":7367,"Ġmenu":7368,"Origin":7373,"Health":7374,"Ġgreater":7375,"ascript":7378,"Shape":7379,"CUR":7383,"Assignment":7385,"ever":7386,"ĠColumn":7387,"Patch":7388,"Artifact":7389,"aking":7390,"jobs":7391,"Basic":7392,"Ġeval":7394,"istent":7396,"Ġsy":7397,"Ġmapped":7399,"Ġden":7400,"Entities":7402,"got":7406,"Ġsat":7407,"ĠItem":7408,"Tile":7409,"Ġnotification":7410,"ĠLocal":7411,"agraph":7412,"calendar":7413,"Slot":7415,"ros":7418,"Decoder":7419,"getText":7421,"EVENT":7422,"eff":7423,"ĠSup":7425,"ird":7426,"CACHE":7428,"loser":7429,"Evalu":7431,"izable":7432,"Master":7433,"Ġdisabled":7434,"aces":7435,"USE":7436,"Ġconstant":7437,"Ġconnected":7438,"Ġoperations":7439,"aves":7441,"Ġmodify":7443,"ĠWindow":7445,"ĠVector":7447,"Program":7448,"Ġanything":7449,"detail":7450,"Reply":7451,"SECON":7452,"ANGE":7460,"Ġseen":7462,"Ġdev":7463,"Ġgeometry":7464,"Ġgu":7465,"ae":7466,"Addresses":7467,"ĠExec":7468,"ĠAp":7469,"II":7470,"getConnection":7471,"PROPERTY":7472,"methodName":7473,"amps":7475,"Conversion":7476,"inf":7478,"ically":7479,"Ġworking":7480,"getObject":7481,"dp":7482,"strument":7483,"ble":7486,"tail":7487,"Closed":7488,"Lex":7489,"ring":7490,"backtracking":7491,"||(":7493,"reserve":7496,"85":7497,"Feed":7498,"Ġdigest":7501,"rank":7502,"Ġchars":7504,"Ġinvoke":7505,"Js":7508,"!!":7509,"serializer":7513,"Ġhelper":7514,"ij":7516,"Ġ::":7518,"parseInt":7522,"ĠMem":7523,"Ġcatalog":7527,"Indent":7528,"ĠParameter":7530,"ral":7531,"Ġbackup":7532,"è®":7533,"HashMap":7534,"Extensions":7535,"GL":7537,"nc":7538,"Ġrank":7540,"ios":7543,"ĠArrays":7544,"1000":7545,"Ġnone":7547,"Ġmet":7548,"Functions":7549,"Ġiv":7550,"getAll":7551,"sy":7552,"ColumnName":7554,"Ġhostname":7555,"Direction":7556,"aler":7558,"loss":7559,"shell":7561,"Ġwin":7563,"Ġ[-":7564,"riterion":7569,"nl":7570,"remaining":7571,"Ġpol":7572,"Ġdetermin":7573,"Words":7574,"ĠStringBuffer":7576,"kit":7577,"dm":7579,"Ġtermin":7581,"aren":7583,"Border":7585,"igrations":7587,"Ġadapter":7588,"wards":7589,"Ġbasic":7591,"ORDER":7593,"Workspace":7594,"aper":7596,"97":7600,"ĠAccess":7601,"ulator":7602,"ette":7606,"front":7607,"ĠBy":7609,"Ð»":7611,"ĠRel":7612,"ĠBack":7613,"cripts":7614,"ceeded":7615,"getTable":7616,"ips":7617,"arc":7618,"ric":7622,"Ġlang":7624,"pear":7626,"è¡":7629,"Ġcols":7631,"ĠVAL":7633,"Ġcr":7634,"LOAD":7635,"ards":7637,"ons":7638,"Ġ\".\"":7641,"States":7643,"Ġsolution":7644,"Ġwrong":7645,"Ġwrapped":7646,"Arrays":7647,"ĠSkip":7648,"sender":7649,"æĺ":7650,"Threshold":7651,"ĠPO":7652,"Ġcs":7653,"ĠPrint":7656,"Ġnormalized":7657,"Rest":7659,"ez":7661,"Association":7663,"ittle":7665,"BER":7666,"ĠStatus":7668,"LAY":7669,"ĠTag":7674,"Ġcc":7675,"Break":7676,"Deleted":7677,"geometry":7679,"Syntax":7680,"Div":7681,"Src":7683,"ĠAction":7684,"Ġsegments":7685,"Logging":7686,"Stmt":7687,"getLocal":7688,"Capacity":7689,"Must":7691,"OBJECT":7692,"ĠContainer":7694,"Organization":7696,"ĠDi":7698,"Enable":7699,"Units":7700,"åĬ":7702,"ĠInter":7704,"Ġformatter":7705,"Super":7706,"Sent":7709,"ĠDon":7710,"ĠAlso":7711,"WORD":7712,"listeners":7713,"ĠClose":7714,"Person":7715,"Ġam":7716,"Ġcss":7719,"Ġscreen":7720,"ONG":7722,"soft":7723,"ĠSign":7725,"Ġglob":7726,"Ġlv":7728,"ĠmethodName":7729,"nav":7730,"increment":7731,"Pop":7732,"ooth":7734,"Ġtransport":7738,"getElement":7740,"ç»":7741,"plica":7745,"Models":7747,"CONTENT":7748,"Decl":7749,"Bin":7750,"Segments":7751,"ARRAY":7752,"singleton":7753,"Clean":7755,"~~":7758,"uman":7759,"!\");":7760,"Off":7761,"ĠRecord":7762,"41":7766,"Modules":7767,"Old":7770,"Ġreferences":7771,"Ġ50":7772,"orph":7773,"ĠMax":7775,"Final":7777,"Ġcompleted":7778,"Registration":7779,"Const":7780,"IGN":7781,"'ve":7782,">\");":7784,"ASC":7787,"Using":7788,"TypeName":7789,"Workflow":7790,"DataSource":7793,"GROUP":7796,"Ġgene":7800,"zen":7802,"orth":7805,"Ġchecked":7806,"Platform":7807,"Dom":7810,"amazon":7815,"ev":7816,"processed":7818,"rev":7820,"ADD":7822,"Ġtransition":7824,"Ġartifact":7825,"ĠfileName":7827,"ĠdefaultValue":7828,"Ġdom":7829,"Requests":7830,"Ġinstant":7831,"96":7833,"aming":7834,"ĠStore":7835,"asy":7836,"Generated":7838,"finder":7841,"It":7844,"ĠQu":7845,"ĠCl":7846,"Ġdays":7847,"jax":7850,"Void":7851,"Contract":7852,"Relationship":7853,"ĠFunc":7856,"FORM":7857,"ORM":7859,"Pay":7860,"tre":7861,"ĠLook":7862,"arning":7863,"Ġms":7866,"shutdown":7867,"ech":7868,"ĠValidation":7871,"adapt":7872,"Ġuid":7873,"ĠLogger":7874,"ĠUtils":7877,"Ġtimer":7878,"Ġaround":7879,"Blank":7881,"Xbase":7882,"Hy":7883,"Ġenum":7885,"Processing":7886,"Ġquote":7888,"agn":7889,"()];":7890,"rp":7891,"ĠXml":7894,"Original":7895,"Ġaltern":7898,"ĠSave":7902,"EOF":7903,"ivery":7904,"ĠMon":7906,"Ġ1024":7907,"esis":7908,"Chart":7911,"Zip":7912,"dependency":7915,"Closure":7916,"oment":7917,"ĠSerial":7918,"LIN":7919,"Ġchecking":7920,"Ok":7921,"Used":7922,"_(":7924,"implement":7925,"seg":7926,"addChild":7927,"Transformer":7928,"cue":7929,"chat":7930,"rus":7931,"stage":7932,"cuit":7933,"arrow":7936,"mes":7937,"Ġatt":7938,"Flush":7939,"ational":7940,"Previous":7941,"Ġcos":7943,"Chars":7944,"Mount":7945,"endsWith":7947,"amera":7948,"Ġenter":7949,"ĠPlease":7950,"beat":7951,"dbc":7953,"foot":7954,"Predicate":7955,"Ġmis":7957,"ENCE":7958,"Changes":7959,"Ġenough":7960,"ĠSort":7963,"Ġchart":7964,"98":7968,"NaN":7970,"Ġvars":7971,"throws":7972,"Ġadding":7973,"ĠJava":7974,"Ġhold":7976,"priv":7977,"lt":7980,"Variant":7981,"most":7983,"Ġnotify":7984,"Ġprior":7987,"alert":7988,"ivot":7989,"rem":7991,"resourceGroupName":7992,"floor":7994,"ĠLine":7998,"ĠImport":8000,"getLogger":8001,"ĠDOM":8002,"Download":8003,"getSession":8004,"printStackTrace":8005,"RENT":8008,"Infos":8010,"ĠStop":8011,"ĠMust":8015,"Digest":8016,"Ġincrement":8018,"monitor":8019,"Connector":8022,"Gu":8023,"fw":8027,"Dependencies":8029,"Ġfinish":8030,"Ġscroll":8031,"must":8032,"using":8036,"Ġtemporary":8038,"ĠUN":8039,"pin":8040,"Sig":8043,"Ġtail":8046,"ĠCO":8047,"(((":8050,"Ġlonger":8051,"configure":8057,"Jobs":8058,"CB":8063,"constants":8064,"avel":8065,"Ġmatcher":8066,"ru":8067,"ĠCompute":8068,"äº":8071,"128":8073,"Ġready":8077,"æĪ":8079,"ised":8080,"COMM":8081,"CREATE":8085,"Ġbrowser":8086,"ventory":8087,"ĠGraph":8090,"Cols":8091,"DED":8092,"Ġmanifest":8094,"AsString":8095,"notNull":8096,"asket":8098,"Defined":8099,"ĠDatabase":8100,"syn":8102,"Activ":8103,"Ġsuccessful":8104,"dating":8107,"digit":8108,"Ã©":8109,"optim":8110,"Ġevaluate":8111,"ĠSw":8112,"Attrs":8113,"iq":8114,"Ġroll":8115,"ĠRegister":8116,"Multiple":8117,"INDEX":8119,"city":8120,"StringUtils":8121,"ãĢ":8122,"mun":8124,"converter":8128,"ĠMulti":8129,"phase":8130,"Related":8135,"ĠNoSuch":8136,"Sm":8137,"Ġ13":8138,"Home":8141,"Ġlisteners":8143,"Ops":8144,"cycle":8145,"ua":8146,"Ġ500":8148,"æĹ":8150,"Ġpredicate":8151,"mc":8152,"Move":8153,"70":8154,"under":8156,"Assignable":8157,"impl":8158,"war":8161,"keySet":8162,"XY":8163,"UNI":8164,"Ġteam":8165,"ĠReference":8166,"ajor":8167,"enario":8168,"Ġsens":8170,"WA":8173,"setProperty":8174,"ĠSource":8175,"ĠFloat":8176,"Ġep":8181,"Ġcover":8182,"Catalog":8183,"itter":8185,"Ġinterpol":8186,"aching":8187,"Ġpopulate":8191,"mx":8195,"Note":8196,"HOST":8198,"pur":8199,"ĠVer":8201,"OFF":8202,"æĸĩ":8204,"ĠThrowable":8206,"IV":8208,"Ġfragment":8210,"Ġbug":8212,"Ġvalidator":8214,"den":8216,"quent":8217,"Ġintegr":8218,"COUNT":8221,"IE":8224,"DAY":8227,"Drop":8229,"={}":8232,"plier":8233,"userAgent":8234,"ems":8235,"ARD":8236,"Replication":8238,"cir":8239,"hood":8240,"TypeReference":8241,"TERN":8248,"stitution":8250,"Prob":8251,"Git":8252,"ores":8253,"ä½":8255,"Ġstage":8256,"Dev":8257,"Pending":8259,"getNext":8260,"Ġtraining":8261,"Ġpub":8262,"Ġturn":8265,"gene":8266,"getF":8267,"Ġev":8268,"Other":8269,"ByteArray":8270,"Ġ']":8271,"since":8272,"getMax":8273,"Ġdx":8274,"Specification":8275,"Pipeline":8278,"çĶ¨":8281,"ĠCopy":8283,"gg":8284,"Ġcent":8285,"ĠMAX":8287,"finish":8288,"resse":8291,"Ġdelimiter":8292,"Ġfinished":8294,"Cost":8295,"ager":8296,"ĠTra":8297,"Ġeverything":8298,"Blob":8299,"Mappings":8300,"Percent":8303,"vertex":8304,"sel":8305,"Ġdynamic":8307,"Ġtransl":8309,"Plugins":8310,"currentTimeMillis":8311,"Ġ'[":8312,"Ġgl":8314,"ĠMo":8316,"izations":8317,"more":8324,"MOD":8325,"Sdk":8326,"Ġanswer":8327,"srv":8329,"åĽ":8330,"ĠBY":8331,"Boot":8332,"ĠSQLException":8334,"Native":8335,"Ġobtain":8338,"ĠModule":8340,"Leg":8341,"AXB":8342,"Credential":8343,"agger":8344,"Ġsyntax":8346,"aken":8347,"54":8348,"Ġ\"]":8349,"ĠProperties":8350,"Ġinitialized":8351,"ĠMod":8353,"Ġsubscription":8354,"GEN":8357,"TEMP":8359,"Vert":8360,"prox":8361,"failure":8362,"ServletRequest":8365,"____":8367,"Stage":8372,"Ġsyn":8373,"ĠOne":8374,"Refresh":8376,"ĠFF":8378,"ĠComp":8379,"mass":8382,"PAGE":8384,"wall":8385,"ĠHow":8388,"ĠDO":8389,"BACK":8390,"ĠAfplibPackage":8392,"ĠImmutable":8393,"High":8394,"asource":8396,"Console":8397,"Grant":8398,"bos":8400,"StringBuilder":8403,"Mouse":8405,"Ġgeneric":8406,"Ġfact":8407,"Browser":8409,"Ġduplicate":8410,"LIMIT":8411,"Ġhidden":8412,"Ġ)?":8413,"Ġborder":8414,"acc":8416,"SARL":8417,"IR":8419,"Ġpages":8420,"Ġannotations":8421,"Indexes":8422,"revision":8425,"Ġdestroy":8426,"power":8428,"rep":8429,"ANT":8431,"Configs":8432,"Ġmade":8434,"Den":8435,"Scheduler":8436,"ĠFe":8438,"Conditions":8439,"Forward":8440,"References":8441,"Delta":8442,"ERY":8444,"Ġenc":8445,"Ġele":8446,"Tracker":8447,"Center":8448,"ĠApplication":8450,"ji":8451,"LD":8454,"Angle":8455,"Ġ[[":8456,"Delivery":8457,"=='":8458,"Invocation":8460,"bc":8462,"Ġcriteria":8463,"AMETER":8464,"Features":8465,"Ġsep":8467,"ĠAnnotation":8468,"Received":8469,"setText":8473,"ibm":8476,"ookies":8477,"Ġpower":8480,"500":8481,"icles":8482,"tas":8485,"Alloc":8487,"TODO":8488,"Notify":8492,"HttpRequest":8494,"Rot":8495,"icator":8496,"zon":8497,"PK":8498,"panel":8500,"ialect":8501,"poll":8503,"player":8505,"68":8506,"72":8509,"execution":8510,"getColumn":8512,"Keyword":8513,"acing":8514,"otion":8517,"Manifest":8518,"Ġ14":8520,"Ġsv":8523,"Ġpull":8524,"PR":8526,"ä»¶":8530,"Ġnative":8531,"Accessor":8532,"wg":8533,"Ġterms":8535,":\",":8536,"Attempt":8539,"////////////////":8540,"getModel":8541,"PrimaryKey":8543,"Encryption":8544,"ĠMark":8547,"Ġactivity":8548,"Finder":8550,"KNO":8551,"Ġssl":8552,"Hub":8554,"ĠEX":8555,"gable":8558,"Deprecated":8562,"ðĳ":8564,"getClient":8565,"ðĳĦ":8566,"Ġcop":8567,"Ġbetter":8568,"ByComparator":8569,"ba":8571,"CD":8573,"possible":8574,"ĠIgnore":8575,"ĠLE":8577,"Ġgood":8578,"dap":8580,"game":8581,"Compiler":8582,"Pixel":8583,"getError":8584,"Follow":8586,"bank":8587,"Indices":8588,"getRoot":8590,"Ġmonitor":8591,"aven":8594,"ĠTemplate":8595,"wig":8598,"future":8599,"yes":8600,"Ġmult":8601,"EMPTY":8602,"AccessToken":8603,"Ġdialog":8604,"ĠIterable":8609,"UTC":8610,"onymous":8613,"ĠruleJvm":8614,"Ġmicro":8621,"Ġdecor":8622,"getLast":8626,"dialog":8629,"Without":8630,"Ġdep":8631,"Principal":8632,"Fix":8633,"ACTION":8636,"ĠComponent":8637,"Ġpt":8639,"ĠIDs":8641,"Ġwaiting":8643,"Ready":8644,"activate":8647,"getSource":8648,"Ġcar":8649,"Ġ','":8650,"Ġarch":8652,"79":8655,"Safe":8657,"Setup":8658,"Coord":8659,"green":8660,"ello":8661,"ä¸į":8662,"former":8664,"Ġreplacement":8665,"when":8668,"Relative":8669,"Managed":8670,"Ġworks":8671,"Distribution":8674,"52":8675,"Since":8676,"Templates":8680,"CSS":8682,"Pane":8683,"Ġentities":8684,"Updates":8686,"sa":8687,"Ġcalendar":8688,"(\"\",":8690,"cha":8692,"Ġlex":8693,"TagName":8694,"Ġhit":8695,"artbeat":8696,"plus":8698,"74":8700,"ELEMENT":8702,"las":8703,"ffic":8706,"ante":8708,"Ġserialized":8710,"ĠCP":8712,"Ġloading":8713,"Ġlarge":8714,"awt":8717,"Ġdecimal":8719,"RET":8721,"Ġmaybe":8722,"Ġcond":8723,"Ms":8724,"ĠBad":8725,"NA":8727,"Loaded":8728,"53":8731,"Ġcross":8732,"ĠProject":8733,"OW":8736,"Example":8737,"CLO":8739,"LEFT":8740,"Escape":8741,"ffff":8742,"getHeader":8743,"\"+":8745,"blog":8746,"TRY":8748,"Ġhandling":8749,"getBase":8751,"imeType":8756,"getFirst":8757,"ĠStorage":8758,"Ġ!(":8761,"Ġtrying":8762,"Ratio":8764,"Ġjobs":8768,"igu":8772,"Ġdeployment":8773,"Pub":8777,"Ġreduce":8778,"TOP":8779,"Ġexecutor":8780,"Ġ');":8781,"going":8782,"Modifier":8783,"Ġshutdown":8785,"Added":8786,"Side":8787,"Ġwhole":8789,"apes":8791,"Transition":8792,"Operations":8794,"Ġconnections":8795,"Ġcost":8796,"mis":8797,"Cond":8799,"authentication":8801,"setData":8802,"POINT":8803,"Ġtranslate":8804,"Ġcontact":8805,"Uniform":8806,"Ġcreation":8807,"Phone":8808,"getAbsolute":8810,"lying":8811,"arest":8812,"pred":8813,"Subnet":8817,"Ġcleanup":8818,"ĠTransaction":8819,"tar":8820,"Ġconverter":8822,"izers":8823,"posal":8824,"IAL":8825,"gi":8826,"ĠNetwork":8827,"Ġiterate":8829,"84":8831,"Ġvisible":8832,"Book":8836,"Associ":8839,"COR":8841,"TRA":8845,"QUERY":8847,"Ġreceive":8848,"MAN":8851,"ools":8852,"Disabled":8853,"mapped":8856,"Ġcountry":8858,"unlock":8859,">=":8861,"ĠVariable":8862,"ĠWindows":8864,"Mer":8865,"Iterable":8866,"æŀ":8868,"Ġbus":8869,"dependent":8871,"nit":8872,"Geo":8874,"ĠserviceCallback":8875,"ummy":8876,"getSimpleName":8877,"-'":8879,"rd":8880,"apsed":8881,"Compare":8883,"Ġauthorization":8885,"RM":8886,"allenge":8889,"Ġplan":8890,"FIL":8893,"Free":8894,"404":8897,"Ġparallel":8899,"Images":8900,"BYTE":8902,"Ġcanvas":8903,"ĠNAME":8904,"respond":8907,"å¼":8908,"ĠTuple":8909,"Tax":8911,"newLine":8913,"PageLink":8914,"Ġotherlv":8916,"Started":8918,"Library":8919,"literal":8920,"ASS":8922,"predicate":8924,"getter":8925,"62":8929,"describe":8930,"Dist":8931,"Composite":8936,"Ġcompiler":8937,"Statistics":8940,"Fill":8943,"ĠFIX":8944,"ĠPAR":8945,"ĠGit":8949,"ifiable":8951,"ĠPost":8952,"EW":8953,"responses":8955,"Ġvery":8956,"TIMEOUT":8957,"Dynamic":8958,"oned":8959,"rott":8962,"Ġdy":8963,"Ġla":8964,"nr":8965,"Ġss":8967,"Ġcm":8969,"evaluate":8971,"ClientExecution":8972,"framework":8974,"Primitive":8976,"Charset":8977,"finite":8978,"phabet":8985,"atial":8989,"major":8990,"Hidden":8992,"imen":8993,"agnost":8994,"Round":8996,"ĠbeforeClientExecution":8999,"Ġblank":9000,"}\";":9006,"Ġ19":9007,"ĠInstance":9008,"Ġstarts":9009,"icip":9012,"isAssignable":9014,"Ġsu":9017,"tax":9019,"ĠId":9020,"NUMBER":9021,"onto":9022,"Ġest":9026,"Cached":9028,"rive":9030,"Ġ{@":9031,"ByteBuffer":9033,"Equals":9034,"Termin":9037,"getStatus":9038,"Ġgetting":9039,"MSG":9040,"BB":9041,"Connected":9042,"jar":9044,"Ġgets":9045,"}\");":9046,"Ġcat":9047,"Ġbot":9048,"ĠUI":9050,"PARAMETER":9054,"Ġchecksum":9056,"ĠOp":9060,"Ġ(-":9061,"Ġsur":9062,"cedure":9063,"getBytes":9064,"Ġseg":9065,"arraycopy":9066,"otherlv":9070,"ĠFFDC":9071,"asList":9075,"Logs":9077,"la":9078,"69":9082,"ĠCustom":9083,"Locked":9084,"ĠChannel":9087,"OPEN":9089,"Prev":9090,"Partial":9091,"æĺ¯":9092,"FFFF":9094,"Whitespace":9095,"Ġwon":9097,"Padding":9098,"hi":9099,"Ġmapper":9103,"getInt":9104,"UpperCase":9106,"PM":9107,"Ġtz":9108,"Ġ'('":9109,"ĠInternalSARL":9110,"Ġdigits":9112,"rection":9114,"Blocking":9116,"ols":9117,"ĠServiceFuture":9119,"itation":9121,"My":9123,"Ð°Ð":9124,"Family":9126,"Ġresolution":9128,"ĠUnsupported":9131,"ä¸º":9134,"ital":9136,"columnName":9137,"Dot":9141,"LATE":9142,"Ġvs":9144,"ĠThese":9145,"ĠSecurity":9149,"ĠByteArray":9151,"FINE":9152,"perform":9154,"urther":9157,"Ġplay":9158,"LF":9160,"SERVICE":9162,"Fire":9165,"Tmp":9166,"IFC":9170,"UD":9171,"Ġgeo":9173,"WITH":9175,"57":9178,"unnel":9179,"ReturnType":9180,"Ġgoing":9182,"Ġminutes":9184,"Checker":9185,"Curve":9186,"Ġcalc":9187,"eli":9189,"LEVEL":9190,"ai":9194,"atives":9197,"getWidth":9198,"Ġequ":9199,"Ġ?>":9201,"COLOR":9202,"FromString":9203,"Front":9204,"RESOURCE":9206,"star":9208,"Ġweek":9210,"amazonaws":9214,"Ġpatterns":9217,"based":9218,"Ġthreads":9219,"xs":9221,"ĠRoute":9223,"ĠPattern":9224,"ality":9225,"ads":9226,"COLUMN":9227,"Ġ(@":9228,"ĠBit":9229,"Bo":9231,"tm":9232,"jac":9237,"Ġfront":9238,"Signal":9239,"Getter":9240,"ĠMatrix":9241,"89":9242,"Ġfall":9244,"ĠIfc":9245,"ĠNotes":9247,"casType":9248,"fr":9249,"general":9252,"ĠEntry":9253,"uting":9254,"ĠCR":9255,"ä¸Ģ":9256,"Ġaff":9257,"ior":9258,"ĠUUID":9260,"cular":9261,"Ñĥ":9263,"Ġws":9264,"GroupId":9265,"isAssignableFrom":9266,"itemap":9267,"Mac":9268,"KNOWN":9270,"ĠfieldName":9271,"forum":9272,"Ġsin":9274,"Ġ)*":9276,"ĠDescribe":9277,"same":9280,"Ġund":9281,"Ġol":9283,"ĠWait":9284,"ĠnewValue":9288,"pow":9289,"getItem":9290,"61":9292,"Runner":9294,"WT":9296,"Ġhour":9298,"Ġans":9302,"NC":9305,"ĠInst":9309,"ĠPRO":9310,"eps":9311,"getVersion":9312,"Inline":9313,"æį":9315,"ĠJAXB":9317,"Scaling":9318,"anchor":9319,"Ġable":9322,".<":9326,"atar":9327,"ĠTest":9328,"Ġhome":9329,"ĠAddress":9330,"Persistence":9332,"Prot":9334,"Ġcomplex":9336,"avor":9337,"pull":9338,"aring":9339,"Ġpolygon":9340,"ocity":9343,"Ġboundary":9344,"swing":9345,"EP":9346,"ĠHas":9347,"Adresse":9348,"Jar":9349,"getHost":9350,"tein":9351,"ĠAR":9353,"Ġacc":9354,"ĠCurrent":9356,"Video":9357,"Ġincludes":9363,"Sim":9364,"Ġprompt":9366,"ooter":9367,"band":9368,"lik":9374,"ĠCalendar":9375,"LT":9376,"ĠKEY":9377,"Ġliteral":9378,"Resolve":9380,"Ġdeep":9381,"serviceName":9382,"Ġvertices":9383,"FR":9385,"Ġcn":9386,",.":9387,"Numeric":9392,"Ġouter":9393,"Try":9395,"Tools":9397,"Ġclosing":9398,"Ġdr":9400,"Ġcms":9407,"Ġcommerce":9409,"Stamp":9411,"Days":9413,"Ġrep":9414,"INIT":9415,"Ġreally":9417,"Ġvideo":9418,"FILTER":9419,"pie":9420,"bra":9421,"getElements":9423,"Ġ\":\"":9424,"Ġfully":9425,"Mult":9426,"Ġrecover":9427,"Connections":9428,"sur":9433,"Ġcy":9436,"Ġ400":9437,"Ġrand":9440,"Alpha":9442,"ĠgetAll":9444,"lr":9448,"sat":9449,"ĠStandard":9450,"Endpoints":9451,"Pull":9452,"Ġfac":9455,"Ġthree":9456,"wrapped":9458,"ĠfindBy":9459,"Creation":9461,"getTarget":9462,"?)":9463,"Ġ\"\");":9465,"RETURN":9468,"Launch":9469,"Same":9470,"Ġmu":9471,"termin":9473,"Ġhard":9474,"pixel":9475,"à¤":9476,"ĠAnd":9478,"NumberOf":9479,"CN":9483,"Soft":9484,"Ġii":9486,"Focus":9490,"PP":9491,"Ġshard":9493,"Ġlinear":9494,"Ġstrategy":9496,"Issue":9497,"ĠserviceName":9501,"Windows":9502,"ĠRepository":9503,"Syn":9505,"thers":9506,"wind":9507,"setType":9508,"Ġ\"\\\\":9509,"getStart":9511,"ĠSelect":9512,"DIS":9513,"seen":9515,"FOUND":9516,"Ġ18":9518,"ĠCloud":9520,"EAR":9521,"getResult":9524,"getChild":9525,"Behavior":9526,"Self":9527,"Ġcard":9528,"Quantity":9530,"Review":9532,"Ġpanel":9533,"Ġevt":9534,"cipher":9537,"Ġgr":9538,"Persistent":9539,"63":9541,"Ġmid":9545,"ErrorCode":9547,"Ġwriting":9548,"Switch":9549,"support":9551,"Ġassignment":9553,"Ġjavax":9558,"--)":9559,"tor":9563,"JB":9564,"por":9565,"Enter":9566,"Ġcf":9570,"ĠruleX":9571,"ACL":9572,"ĠRender":9574,"ious":9576,"Ġsheet":9581,"Ġoccurred":9582,"lp":9589,"ĠCommon":9590,"PH":9592,"ilon":9593,"stand":9595,"Ġlisten":9596,"Ġ\"</":9599,"Shard":9601,"Sources":9604,"ĠSY":9605,"ÐµÐ":9606,"ATTRIBUTE":9607,"Like":9610,"Ġbr":9612,"MON":9614,"wiki":9617,"Ġ\"[":9618,"<?>>":9619,"Matching":9620,"bi":9621,"transfer":9622,"listen":9626,"ĠDes":9627,"aged":9629,"getIndex":9633,"Ġtransfer":9635,"ĠLabel":9636,"ĠJSONObject":9637,"ILED":9641,"ĠEd":9642,"completed":9643,"ĠUs":9645,"annot":9647,"VO":9648,"Age":9649,"nu":9652,"(\"\\\\":9653,"ĠCharacter":9655,"ĠGET":9658,"Views":9659,"51":9660,"ĠEm":9661,"Ġaudio":9663,"kt":9665,"Ġer":9671,"WORK":9674,"Ġklass":9676,"cross":9678,"FormatException":9679,"Ġtranslation":9680,"Vi":9681,"ides":9682,"flip":9685,"Texture":9686,"Ġmc":9689,"Cir":9691,"peek":9692,"aches":9693,"Ġalert":9695,"Pur":9696,"Sn":9701,"vo":9702,"PASS":9704,"Ġred":9705,"vey":9706,"room":9707,"presentation":9708,"Lexer":9709,"ORE":9710,"Ġmass":9712,"ĠTH":9715,"[]{":9726,"isNot":9727,"rome":9728,"Ġsubmit":9731,"Cells":9732,"evt":9734,"ITS":9735,"decl":9736,"CHECK":9739,"Ġjar":9742,"Completed":9743,"ja":9744,"Lifecycle":9747,"Ġzoom":9750,"AMP":9751,"Migration":9754,"Resp":9757,"Cause":9759,"Expressions":9762,"Ġreached":9765,"Ġpoly":9769,"ĠConn":9770,"Ġadapt":9771,"lee":9775,"Modify":9776,"getAbsolutePath":9784,"getIn":9785,"featureID":9786,"sf":9787,"newValue":9789,"ĠAtom":9793,"(\"$":9795,"ĠgetValue":9797,"idence":9798,"åľ":9799,"Shipping":9800,"WIDTH":9801,"RGB":9802,"ampler":9806,"åŃĹ":9807,"ration":9808,"Callable":9810,"Ġperson":9812,"Ġexperiment":9814,"Audit":9815,"Ġff":9817,"(\":":9818,"Preference":9820,"ĠMessages":9822,"Share":9824,"ĠCore":9825,"GO":9832,"Operand":9833,"Digits":9836,"Ġanchor":9841,"ĠParser":9842,"TRUE":9845,"FFER":9852,"FER":9853,"pf":9854,"ĠUrl":9856,"ĠPOST":9858,"Interfaces":9861,"Ġcut":9865,"complex":9867,"Ġderiv":9869,"intValue":9871,"Analysis":9872,"Than":9873,"ĠBasic":9878,"Ġrev":9880,"Ġserializer":9881,"ACCESS":9883,"lastIndexOf":9884,"Digit":9885,"ĠMin":9887,"ĠUTF":9889,"ĠME":9890,"Removed":9891,"ĠRandom":9892,"RS":9893,"hit":9896,"toUpperCase":9898,"éĢ":9899,"SECONDS":9902,"Phase":9904,"Ġ\"\\\"":9905,"Delegate":9906,"Ġdecoded":9907,"WH":9908,"Ġ404":9909,"findBy":9914,"Ġresolver":9916,"ĠOptions":9917,"ENTITY":9918,"ĠTypes":9919,"Ġrhs":9920,"Encoded":9921,"Ġsi":9923,"umeration":9925,"QUAL":9926,"Ġtouch":9932,"Kernel":9934,"isk":9935,"Ġworkspace":9936,"Targets":9938,"Ġ128":9940,"CAP":9943,"))))":9944,"ĠSets":9945,"Ġseparate":9947,"ĠPut":9948,"(\"{":9949,"********************************":9950,"Ġquestion":9951,"ĠSSL":9954,"Existing":9956,"gether":9959,"pus":9960,"Additional":9961,"ISO":9962,"isNull":9964,"ĠGoogle":9965,"Ġce":9966,"getToken":9967,"Ġimp":9972,"There":9973,"æī":9974,"Policies":9976,"ĠByteBuffer":9979,"getCache":9980,"æľī":9982,"dy":9983,"Ġcoll":9985,"lb":9986,"Mgr":9989,"addElement":9990,"Ġdescribe":9995,"87":9996,"(\"#":9997,"Polygon":9998,"exchange":9999,"Ns":10003,"Ġsa":10005,"Ġask":10006,"SPE":10007,"ABLED":10009,"Ġcare":10010,"Ġbook":10011,"ĠStringUtils":10015,"Leaf":10017,"ught":10019,"Ticket":10020,"Union":10022,"Ġrm":10024,"Counts":10026,"Ġdro":10030,"IME":10033,"RESS":10034,"400":10035,"ĠgridBagConstraints":10036,"ivers":10038,"Envelope":10039,"åº":10041,"/(":10042,"isIn":10043,"IPv":10044,"ĠTimeUnit":10046,"SdkInternal":10047,"Roll":10048,"getStatusCode":10049,"Ġ40":10052,"EK":10055,"synchron":10057,"ĠIPv":10058,"live":10059,"ians":10065,"union":10066,"Ġ\"(":10067,"Restore":10068,"Ġ25":10070,"CM":10072,"Already":10073,"getPage":10075,"getHeight":10076,"Sibling":10077,"å½":10078,"Ġmail":10079,"Bindings":10080,"Radius":10081,"Ġpin":10087,"ĠAppend":10089,"Bottom":10090,"Light":10091,"des":10092,"Ġextended":10094,"ĠReset":10096,"Coordinate":10097,"FLAG":10099,"82":10100,"etic":10101,"ĠMedia":10106,"ĠBigDecimal":10109,"RT":10112,"[][]":10116,"Inputs":10118,"ĠGP":10119,"Ġifc":10120,"Specific":10122,"consume":10123,"ĠJAXBElement":10124,"za":10125,"SdkInternalList":10128,"compatible":10129,"Interceptor":10131,"ĠFin":10132,"Creator":10136,"Ranges":10137,"PointerException":10139,"ĠGo":10140,"Ġmv":10141,"Dump":10144,"PATTERN":10145,"Codec":10151,"Ġdigit":10153,"Exceptions":10154,"bel":10157,"mv":10160,"prior":10161,"Ġlight":10168,"æł":10171,"SUCCESS":10172,"SIGN":10174,"ERS":10175,"anded":10176,"Ġpie":10180,"Low":10183,"Force":10184,"Ġtor":10186,"mix":10189,"73":10190,"bidden":10191,"ĠLocale":10197,"OUTPUT":10198,"Ġfamily":10199,"prise":10200,"ĠJS":10201,"Txn":10202,"ĠQueue":10203,"Enc":10204,"nextToken":10205,"71":10206,"SM":10207,"Deploy":10210,"ĠImp":10211,"serve":10214,"retrieve":10217,"áŀ":10218,"ĠChange":10219,"integr":10221,"Ġcandidates":10222,"Dirs":10223,"obile":10225,"600":10228,"Visibility":10237,"esh":10241,"Management":10245,"dataType":10247,"å¯":10249,"Ġsq":10250,"REE":10251,"ĠTrace":10255,"AccessException":10258,"audit":10259,"ĠSome":10260,"typeName":10261,"Until":10263,"()]);":10266,"getIdentifier":10267,"Ra":10268,"Ord":10269,"modify":10270,"ĠNormal":10273,"'m":10274,"Sender":10275,"Ġcipher":10276,"asing":10279,"Ġ\").":10282,"MODULE":10284,"ä¸ª":10285,"vol":10286,"getSub":10289,"ĠDictionary":10290,"deg":10294,"NEW":10295,"Ġil":10297,"Integr":10298,"Ġmt":10304,"Finished":10305,"uck":10307,"LOAT":10308,"NoSuch":10309,"getState":10312,"UBLE":10313,"Categories":10315,"Tokenizer":10316,"Ġpb":10319,"æİ":10324,"ĠCH":10325,"Ġ();":10328,"ĠRule":10329,"Devices":10330,"bulk":10331,"executor":10338,"Ġband":10343,"OutOf":10345,"FAIL":10346,"getView":10348,"nitro":10349,"FileSystem":10350,"rier":10351,"DESC":10352,"ĠRegion":10353,"getUri":10354,"Cast":10358,"àº":10359,"Extended":10371,"ĠAg":10374,"ĠEOF":10375,"MATCH":10376,"Ġmanaged":10379,"Discount":10382,"ORMAL":10388,"Animation":10389,"Ġcanonical":10392,"Ġhist":10394,"essage":10396,"ç½":10398,"Ġinc":10399,"Ġmuch":10400,"icker":10401,"UserId":10404,"DateFormat":10405,"Swap":10406,"ĠServlet":10408,"getProperties":10410,"getLine":10413,"ĠHandler":10414,"uber":10415,"Resolution":10417,"ONT":10418,"Alt":10420,"Ġpc":10421,"getLength":10422,"TRANS":10424,"anned":10428,"ĠisValid":10431,"ĠWS":10432,"minute":10433,"RUN":10436,"Ġhalf":10439,"Destroy":10442,"ĠReflection":10443,"rum":10446,"nov":10447,"æĹ¶":10450,"strong":10452,"ĠSplit":10453,"herited":10454,"ĠPart":10455,"ĠSequence":10456,"ĠInternalXbase":10457,"WRITE":10458,"GENER":10468,"Ġinterfaces":10469,"Ġec":10473,"Ġdelegate":10474,"ĠEnum":10476,"Loading":10478,"Ġ256":10479,"Ġdc":10481,"SED":10485,"ĠLoop":10487,"Ġunderlying":10488,"Ġcompletion":10489,"Maps":10492,"Ġaut":10494,"çĽ":10496,"capacity":10498,"ĠPreconditions":10506,"RESULT":10508,"Aff":10511,"groupId":10512,"Ġrenderer":10513,"Ġgeneral":10514,"ĠfilePath":10515,"Ġsock":10517,"Checksum":10518,"Keep":10520,"istency":10524,"Urls":10525,"ĠDevice":10526,"ĠCmsResource":10527,"Alignment":10528,"isDirectory":10529,"altern":10530,"Ġhad":10534,"ARCH":10539,"Ñı":10541,"MAC":10543,"Ġcapacity":10544,"éĩ":10546,"isTrace":10547,"ĠUnicode":10548,"Dictionary":10549,"CONNECT":10552,"stone":10553,"BA":10555,"fil":10557,"illar":10558,"DK":10560,"Preview":10561,"Ġ(((":10566,"Ġpa":10568,"Providers":10571,"Containers":10572,"compareTo":10573,"Scheduled":10574,"information":10575,"Reserved":10578,"icense":10579,"Ġprocessor":10580,"Ports":10581,"Poly":10583,"Dim":10586,"Ġpi":10588,"Margin":10590,"Tex":10595,"tim":10596,"Numbers":10599,"ĠSET":10600,"Sorted":10601,"rupt":10604,"ENTER":10605,"spaces":10607,"bf":10608,"dv":10609,"Upgrade":10610,"ĠRemote":10611,"ĠCSS":10612,"NN":10613,"Ġnc":10614,"jb":10615,"81":10616,"Terminal":10618,"rift":10619,"Ġleaf":10623,"pu":10626,"ners":10627,"getSize":10628,"Availability":10630,"Ġhours":10631,"WithHttpInfo":10641,"93":10642,">>()":10644,"was":10648,"Ġmiddle":10649,"åĩ":10650,"trip":10651,"pat":10653,"Ġocc":10655,"iving":10656,"Expired":10659,"Ġ90":10660,"AW":10662,"ãĢĤ":10663,"ĠMy":10666,"94":10668,"Ġnv":10670,"ĠGeo":10673,")\");":10674,"delegate":10676,"RIGHT":10678,"lio":10680,"92":10682,"Bot":10683,"Ġreload":10684,"Choice":10686,"ĠBean":10687,"Ġdeclared":10692,"Registered":10696,"auge":10697,"Pipe":10707,"setDefault":10709,"oad":10712,"()){":10715,"grammarAccess":10716,"Bootstrap":10717,"IDE":10718,"Touch":10723,"ĠInsert":10724,"Alive":10725,"Finish":10728,"Pairs":10729,"Accessible":10730,"Channels":10735,"ĠInit":10736,"Ġè":10737,"<=":10743,"bridge":10744,"ĠPlugin":10749,"FAILED":10752,"Ġdidn":10757,"Mis":10759,"getLocale":10762,"ĠtableName":10767,"Ġexpressions":10771,"vention":10775,"replaceAll":10781,"ĠStruct":10782,"inherit":10784,"qPath":10785,"UNKNOWN":10786,"usion":10788,"osen":10790,"Scanner":10791,"Ġbs":10794,"Ġcontinu":10799,"Shutdown":10801,"getApplication":10803,"ATURE":10804,"83":10805,"trl":10806,"ARG":10809,"Aware":10811,"Requested":10817,"ĠLocation":10818,"ĠTarget":10819,"ĠCor":10821,"Ġ^=":10822,"ĠShort":10824,"Ġvi":10826,"OrCreate":10827,"Starting":10828,"Ġpast":10829,"Ġends":10831,"ĠOK":10832,"Ġperformance":10833,"getEnd":10835,"Ġroom":10836,"Broker":10837,"Ġplain":10839,"Face":10840,"Ring":10841,"Ñĭ":10842,"Ġbb":10843,"ONLY":10844,"ĠTri":10850,"numberOf":10851,"afka":10853,"Terms":10857,"getT":10858,"ĠSTR":10861,"CHANGE":10862,"LAN":10863,"Ġ21":10866,"åĨ":10872,"ored":10874,"isLog":10878,"åĮ":10886,"åį":10887,"Ġgetter":10889,"Ġcurrency":10890,"stock":10892,"Pin":10893,"ErrorException":10894,"OFFSET":10896,"inity":10897,"soap":10898,"Ġlegend":10899,"Framework":10900,"ATCH":10902,"setId":10906,"tep":10915,"Creating":10917,"Ġdeserialize":10920,"ĠFrom":10921,"ĠEnd":10922,"rotate":10924,"EST":10925,"SING":10926,"how":10927,"anging":10930,"irs":10931,"getG":10933,"irth":10934,"Ġembedded":10938,"StringUtil":10940,"\":\"":10943,"klass":10944,"getAnnotation":10946,"Parsed":10947,"Ġquant":10948,"anger":10951,"BUFFER":10956,"FACT":10961,"Dao":10967,"Surface":10970,"ĠEND":10972,"ĠNotification":10977,"Bitmap":10978,"Ġfar":10981,"127":10983,"Fast":10984,"123":10987,"Observer":10988,"getA":10989,"Dec":10992,"ĠNullPointerException":10995,"chrom":10996,"DN":10998,"001":10999,"TEMPLATE":11002,"Instruction":11003,"rich":11005,"Ġchat":11006,"flex":11007,"FALSE":11008,"getMin":11009,"ĠRow":11012,"ParseException":11014,"Ġcod":11016,"Checked":11018,"orer":11020,"Based":11022,"âĢĻ":11023,"MIL":11024,"REFER":11027,"Rpc":11031,"Increment":11032,"ĠLet":11033,"Lambda":11034,"ĠClear":11035,"anning":11036,"MX":11042,"Edges":11043,"Ġscheduler":11046,"Lists":11047,"ROW":11048,"Configurations":11049,"ĠASC":11052,"Ġexchange":11053,"REAM":11054,"ResponseBody":11055,"EE":11056,"getParameters":11064,"ĠlocalVar":11065,"Ġlive":11066,"Ġrelevant":11067,"General":11072,"STEM":11074,"IES":11076,"ĠDescription":11077,"è¡Į":11080,"Thing":11085,"RESP":11086,"lider":11091,"Shift":11094,"VIEW":11095,"OC":11097,"ä¿":11099,"Instant":11101,"Ġho":11102,"ServletResponse":11104,"Extractor":11108,"ConfigurationException":11110,"ern":11111,"HttpClient":11113,"Buffered":11119,"Live":11125,"Slash":11133,"Actual":11136,"å°":11138,"OPER":11140,"(()":11141,"allocate":11148,"CONTEXT":11149,"Streams":11154,"ä¸Ń":11155,"EXCEPTION":11159,"Ġmp":11160,"getY":11161,"ĠBinary":11163,"Ġ31":11164,"nick":11165,"ĠScript":11166,"ĠClosure":11167,"une":11168,"ĠBatch":11170,"Cat":11171,"Completion":11172,"Collections":11173,"qq":11174,"1024":11177,"ĠPerform":11180,"ĠpropertyName":11181,"ĠUP":11186,"IMP":11189,"ico":11190,"Ġfocus":11192,"getDocument":11193,"ReadOnly":11194,"ah":11195,"Ð¸Ð":11197,"ĠWill":11198,"MASK":11199,"101":11201,"Ġproblems":11202,"Exchange":11207,"ĠXXX":11208,"ĠconvertTo":11209,"Invoke":11211,"atter":11212,"TypeEnum":11213,"ĠHost":11214,"visor":11215,"Complex":11218,"clusion":11222,"imap":11227,"here":11230,"requireNonNull":11231,"ĠMetadata":11233,"Lon":11234,"Ġswap":11235,"ĠAuthor":11236,"¦Ĥ":11237,"Ġservlet":11238,"ĠUsed":11239,"Ġ!!":11241,"ellow":11249,"wave":11250,"LES":11251,"getComponent":11252,"ĠInterruptedException":11254,"Ġ'='":11255,"Intent":11256,"Writable":11257,"BAD":11258,"phan":11260,"world":11261,"REN":11262,"atoms":11263,"Privile":11271,"mas":11272,"Pure":11276,"Ġtopology":11277,"REL":11280,"but":11282,"itable":11289,"NORE":11290,"Ġscanner":11291,"Ġplayer":11292,"Shadow":11296,"VR":11302,"ased":11304,"fx":11305,"getAttributes":11309,"ih":11310,"ä¼":11311,"ĠorderByComparator":11314,"ĠBind":11317,"ora":11321,"ĠEN":11325,"Med":11328,"isters":11329,"Ġprincipal":11332,"ĠEnvironment":11335,"Ġoper":11338,"Ġfol":11341,"ĠHeader":11343,"Ġdetail":11349,"ĠLay":11354,"ĠStack":11357,"Facet":11358,"SB":11360,"Game":11363,"Ġbond":11364,"ONSE":11365,"Ġvol":11366,"Ġ-->":11369,"Immutable":11371,"plicas":11372,"fsp":11374,"parable":11376,"Ġmoment":11381,"Feat":11382,"ĠSim":11383,"ĠCA":11384,"OrUpdate":11385,"URATION":11388,"Ġtxn":11389,"Packages":11391,"nm":11393,"ĠPar":11394,"ĠPos":11395,"hat":11398,"SQLException":11401,"Temporary":11404,"ained":11407,"999":11408,"MARY":11409,"Discovery":11417,"finally":11418,"(...":11420,"Remaining":11422,"Ġâ":11424,"Ġ80":11427,"ĠcontentType":11428,"iles":11429,"hard":11435,"ĠTYPE":11436,"ĠGrid":11439,"versal":11440,"æĿ":11441,"RC":11445,"Anchor":11446,"iteration":11447,"Ġ180":11451,"rawler":11454,"Bond":11455,"eNS":11456,"SN":11460,"vl":11461,"Ġsel":11464,"ResultSet":11465,"ience":11466,"Ġconsume":11468,"verb":11469,"Maximum":11471,"NORMAL":11472,"newBuilder":11474,"tracker":11475,"Throw":11476,"Ġgame":11479,"neg":11480,"Exclude":11481,"FACE":11482,"mk":11483,"Player":11484,"getChildren":11486,"FORE":11488,"ĠZip":11489,"Audio":11490,"Injection":11494,"Alert":11496,"Two":11497,"ĠFactory":11498,"Ġpred":11504,"ĠAuto":11508,"Ġ%.":11513,"512":11517,"Ġthrown":11519,"[],":11524,"aily":11526,"Ġsen":11527,"ĠSalt":11528,"Hour":11529,"getConfiguration":11530,"parallel":11532,"agg":11534,"ĠPort":11535,"ĠReport":11539,"Flat":11541,"DEFIN":11542,"urer":11543,"ĠFast":11544,"Plain":11545,"Supplier":11546,"91":11548,"eras":11549,"ĠHttpResponse":11550,"Ġhyper":11551,"Typed":11552,"PROTO":11554,"protobuf":11555,"MethodName":11556,"Hosts":11557,"ĠCount":11559,"ĠFrame":11566,"MONTH":11569,"Known":11571,"Ã¡":11572,"apache":11573,"ĠOutputStream":11574,"DAT":11575,"Sid":11576,"ĠLinkedList":11578,"Ġpoll":11584,"LOCAL":11588,"Ġir":11589,"HAND":11591,"getTitle":11592,"Der":11598,"Insn":11599,"Ġlazy":11600,"folio":11601,"Ġdesign":11602,"rab":11604,"park":11607,"stud":11613,"ĠWalk":11615,"Ġexpiration":11619,"ĠTimeout":11620,"Producer":11622,"Formats":11625,"isation":11627,"ĠGeneric":11630,"Candidate":11631,"ĠDb":11632,"setHeader":11634,"Met":11639,"Sur":11644,"ĠCallback":11646,"nbsp":11647,"Ġpm":11649,"Ġchrom":11650,"Adjust":11651,"Inf":11653,"Train":11654,"fall":11656,"land":11657,"Dr":11662,"OperationException":11666,"getEPackage":11667,"ANN":11669,"reement":11671,"ARE":11674,"Locations":11675,"swap":11679,"Ġcredential":11680,"ALLOW":11681,"Pol":11684,"ÑĮ":11685,"Ġintern":11686,"ĠRange":11687,"PACK":11688,"Material":11691,"hasMore":11694,"When":11695,"Play":11696,"Boundary":11697,"Ġexcluded":11698,"Ġeig":11700,"Secure":11703,"TypeId":11705,"Ġpp":11707,"ĠVis":11710,"Setter":11712,"QualifiedName":11713,"Ġrefer":11714,"ĠFlow":11722,"AK":11724,"ĠPass":11725,"ĠSm":11728,"ĠWrit":11729,"updateresource":11731,"addContent":11736,"åľ¨":11738,"setContent":11739,"processException":11740,"ĠFeature":11741,"Ġrem":11746,"Utilities":11748,"Else":11750,"ĠMeta":11753,"ĠClassLoader":11754,"ĠLevel":11755,"Authority":11757,",-":11758,"Ġwave":11759,"Sem":11764,"Sink":11765,"elm":11766,"ĠCluster":11767,"Bracket":11768,"ĠSymbol":11770,"getEClass":11772,"Ġverb":11776,"Ġorganization":11777,"ĠAuthentication":11778,"Ġpw":11780,"Ġlb":11781,"Initialized":11785,"Duplicate":11786,"FLOAT":11787,"ĠEl":11789,"getEClassifiers":11790,"Effect":11791,"tran":11792,"ĠAccount":11794,"ĠMove":11795,"Spl":11796,"OLD":11798,"Aggreg":11801,"Times":11803,"Ġminute":11804,"ĠFuture":11806,"Ġbg":11811,";}":11813,"ĠClean":11815,"Cart":11819,"Rollback":11821,"ĠDisplay":11822,"ARGET":11826,"Servers":11829,"wi":11830,"INTERNAL":11832,"<?,":11840,"terminal":11842,"Io":11843,"Tail":11845,"ĠFound":11846,"180":11851,"ĠShow":11852,"arbon":11853,"INPUT":11856,"bt":11857,"eg":11858,"ĠISO":11860,"ni":11862,"ibl":11864,"ĠNet":11866,"ĠRect":11867,"Drag":11869,"AI":11873,"InterruptedException":11876,"getBundle":11882,"ĠgroupId":11884,"Zoom":11890,"ORIZ":11891,"Resolved":11897,"Ġreceiver":11898,"ĠMatcher":11899,"ĠSetup":11905,"ĠPack":11909,"ĠLock":11912,"ĠSec":11915,"ibration":11918,"Ġcheckpoint":11920,"Steps":11921,"Ġnm":11923,"forName":11926,"ĠÐ¿":11928,"Recovery":11929,"adaptor":11931,"ĠGeneral":11936,"2018":11939,"ĠCOM":11941,"Modifiers":11943,"ĠDebug":11945,"getSchema":11948,"design":11950,"Ca":11954,"åĢ":11956,"ç¬":11957,"coin":11958,"Ġatoms":11962,"Linked":11966,"vr":11967,"ĠEmpty":11971,"Cycle":11973,"Grad":11975,"illa":11976,"ICAL":11978,"Press":11979,"Mag":11982,"Ġ(;":11983,"Receive":11984,"setTime":11987,"ACTIVE":11989,"Ġordering":11990,"theEObject":11991,"Ġcd":11993,"Ġaz":11994,"ĠUnknown":11996,"ĠStep":12003,"CODING":12004,"Sens":12006,"Ġbuff":12007,"Fs":12008,"MenuItem":12010,"Basket":12011,"Ġworld":12015,"Between":12017,"oa":12023,"currentThread":12024,"ĠDown":12025,"éĹ":12026,"Ġmajor":12028,"ĠObjects":12029,"getDescription":12031,"Ġcommun":12033,"Ġprimitive":12034,"DOUBLE":12036,"arp":12037,"ĠMapping":12038,"Ġplus":12040,"imp":12044,"bold":12048,"ĠTO":12049,"GT":12050,"review":12051,"ĠCOL":12052,"Capture":12056,"deprecated":12057,"getNamespace":12062,"Ġaux":12063,"Ġ&=":12064,"ĠDel":12070,"hot":12073,"LONG":12076,"ĠBuilder":12078,"Ġminor":12080,"ĠRFC":12084,"ÐµÐ½":12085,"SYSTEM":12087,"ĠConnect":12089,"isLoggable":12090,"Ġspl":12091,"ĠgetS":12092,"Ġ\\\"\"":12093,"ju":12096,"ĠGu":12097,"RESPONSE":12103,"getDatabase":12106,"LB":12108,"toBlocking":12110,"Ġsubstitution":12111,"Ġpropag":12113,"Ġalternative":12118,"dh":12119,"ĠLo":12120,"Propag":12123,"DOWN":12127,"ĠUnion":12132,"Rank":12133,"Ġcnt":12134,"tests":12137,"æ³":12138,"buff":12140,"<?>)":12146,"aux":12148,"Detector":12150,"oi":12154,"prof":12155,"Clock":12159,"stitute":12160,"TreeNode":12162,"Hierarchy":12166,"ĠPackage":12167,"RequestException":12168,"[]>":12172,"ILD":12173,"ĠCallable":12175,"bid":12176,"Ġnu":12178,"Seed":12179,"osa":12182,"tri":12185,"EDEFAULT":12187,"amil":12189,"DataSet":12190,"Ġalle":12191,"Ġscopes":12195,"Unsigned":12196,"Multipart":12199,"éĻ":12201,"getJ":12202,"ĠEC":12204,"icipant":12207,"ulus":12208,"PROP":12211,"RULE":12217,"ĠCLASS":12219,"ĠDoc":12220,"DEN":12221,"ĠSO":12231,"Ġtransformer":12234,"Nav":12236,"FieldType":12238,"Shell":12240,"mul":12241,"ĠAli":12242,"Ġctrl":12243,"EventType":12246,"declared":12247,"MediaType":12250,"ĠBox":12253,"rans":12255,"ĠSingle":12258,"Ġunion":12259,"Ġ17":12268,"LAST":12271,"ansion":12274,"Hist":12276,"ExecutionException":12279,"Ġmsgs":12284,"fm":12286,"getLog":12287,"setStatus":12288,"spl":12291,"ĠPlot":12292,"YEAR":12294,"ĠcheckNotNull":12295,"Ġmix":12297,"getPort":12299,"eh":12302,"Ġhealth":12304,"FL":12305,"ĠNon":12306,"ĠSeries":12308,">/":12309,"BC":12312,"Ġpot":12313,"Prefixes":12316,"Ġna":12317,"Ġgc":12320,"Altern":12322,"ĠOver":12330,"ĠFiles":12331,"AndSet":12332,"Ġanimation":12335,"ĠStatement":12338,"onds":12339,"ĠPair":12349,"ĠDirectory":12354,"ĠProxy":12355,"OG":12356,"Sizes":12357,"nat":12359,"ĠRelation":12360,"HR":12361,"ĠImplement":12364,"Ġins":12366,"LC":12375,"ĠDraw":12384,"\")))":12385,"PASSWORD":12389,"Orient":12390,"Ġsuggest":12391,"Replica":12392,"ĠPop":12395,"STAMP":12396,"Cr":12400,"addTo":12401,"ainter":12402,"Special":12403,"synchronized":12404,"Canvas":12407,"Ġmaterial":12408,"ĠNext":12409,"å¾":12415,"isFile":12416,"getTableName":12417,"())))":12418,"ople":12426,"STORE":12430,"Deep":12435,"Listen":12436,"ITLE":12441,"Levels":12444,"Micro":12445,"Ġanno":12450,"PUBLIC":12452,"ĠConst":12458,"getRaw":12459,"ĠExecution":12461,"Preferences":12465,"ä¹":12466,"Ġtp":12472,"ĠtoString":12483,"MARK":12484,"ĠDS":12485,"ana":12491,"Ġioe":12492,"ĠgetClass":12500,"ĠOvh":12501,"associate":12510,"ctor":12512,"BS":12516,"Reporter":12522,"Draft":12524,"iny":12526,"ĠSize":12531,"Ġcookies":12534,"++){":12538,"getLong":12542,"LEN":12545,"Reverse":12546,"ĠERROR":12547,"Characters":12549,"ĠConstraint":12551,"km":12553,"Ġcmp":12554,"ĠCell":12561,"Minimum":12562,"300":12564,"javax":12566,"pot":12571,"Indexed":12576,"Placement":12583,"kl":12588,"Ġte":12590,"æĪĲ":12593,"Ġstud":12595,"çĲ":12597,"getSite":12599,"ĠTerm":12602,"NER":12611,"Ġtm":12612,"doubleValue":12613,"gth":12614,"Ġhuman":12618,"material":12619,"esting":12622,"Descriptors":12623,"Ġrollback":12624,"VED":12626,"Ġide":12627,"ĠNum":12631,"Ġnor":12633,"etAddress":12635,"ĠDet":12637,"ĠKeep":12638,"getNum":12641,"Observable":12644,"}-":12645,"İ·":12649,"Identifiers":12654,"hub":12658,"ilio":12659,"AU":12665,"Ġpay":12667,"ĠMissing":12668,"ĠCons":12670,"getDate":12673,"ication":12675,"ĠController":12677,"getOutput":12679,"Readable":12680,"uv":12681,"Analyzer":12690,"arer":12694,"ĠValidator":12696,"Ġtim":12699,"ĠProduct":12700,"OptionalParameter":12701,"books":12706,"VS":12707,"iw":12708,"è§":12709,"Ġ\"-\"":12710,"Idle":12713,"STY":12714,"fine":12716,"NET":12717,"aria":12718,"ĠgetDefault":12720,"Chat":12726,"\\\"\");":12728,"ĠSV":12730,"Navigation":12731,"Ġletter":12739,"Best":12740,"ances":12742,"RuleCall":12746,"Ġequals":12753,"Receiver":12758,"åī":12761,"Written":12763,"ufact":12765,"Phrase":12767,"FG":12770,"Ġhorizontal":12774,"lis":12780,"Ġaggreg":12782,"FK":12784,"OVER":12787,"getRecord":12788,"ĠFOR":12789,"ĠAv":12795,"OrEmpty":12798,"Negative":12800,"ĠApiException":12805,"Ġrb":12809,"ĠMan":12814,"_\"":12816,"ĠInstall":12817,"Spaces":12823,"Fault":12824,"offer":12826,"half":12827,"instant":12828,"ĠSocket":12834,"ĠStyle":12837,"fold":12838,"éĶ":12839,"ĠSyntax":12850,"getTimestamp":12856,"training":12862,"ĠEvalu":12869,"isor":12870,"Ġclosure":12871,"Ġ'>":12873,"ĠSc":12874,"ĠNothing":12875,"fft":12880,"news":12881,"Ġci":12886,"Ġur":12891,"Problem":12893,"BYTES":12895,"Prepare":12899,"Answer":12903,"jcasType":12904,"ĠRunnable":12905,"jj":12906,"adoc":12907,"ĠnumberOf":12908,"MC":12910,"QName":12911,"¦Ĥæŀľ":12914,"2000":12917,"isNaN":12919,"acer":12922,"Ġti":12923,"........":12927,"ĠByteArrayOutputStream":12936,"problem":12937,"Faces":12939,"ĠBufferedReader":12943,"CURRENT":12944,"utation":12945,"Pdf":12948,"Trust":12950,"ming":12956,"anza":12957,"ĠCSV":12958,"ĠXPath":12959,"getDeclared":12962,"XPath":12964,"getClassName":12973,"Ġesc":12977,"ĠGenerator":12981,"Mean":12982,"los":12986,"imit":12987,"ari":12989,"apiVersion":12990,"192":12991,"CLOSE":12996,"nextPageLink":12997,"ĠControl":13001,"pause":13009,"Ġfc":13013,"Ġwho":13015,"Ðº":13017,"DP":13018,"gui":13020,"Ġbi":13021,"Ġneg":13023,"CPDefinition":13027,"ĠBundle":13030,"PropertyName":13031,"ĠBytes":13035,"Ġcum":13039,"jpg":13040,"ĠSAX":13043,"ĠAmazon":13045,"./":13049,"Ġ23":13050,"ENCODING":13051,"Ġcodec":13058,"ĠNeed":13059,"MILLI":13061,"alg":13062,"Lazy":13065,"oper":13067,"Ł¥":13070,"ĠOpenCms":13073,"LOCATION":13075,"Ġinstrument":13076,"Ġsess":13077,"ĠDomain":13078,"Ġearly":13082,"mol":13087,"Ġpat":13090,"¦ģ":13092,"()-":13093,"StartTime":13094,"Mu":13096,"servlet":13098,"ĠArt":13100,"UCT":13105,"va":13108,"kg":13111,"Ġsom":13112,"Ġ00":13114,"Parallel":13117,"UMENT":13118,"Ġtrust":13119,"Ġ48":13121,"EQUAL":13124,"æĮ":13129,"ĠParseException":13131,"drools":13132,"Horizontal":13133,"tau":13136,"Ġba":13137,"ĠPo":13140,"ERT":13141,"ĠMIN":13145,"ĠstartTime":13147,"ĠFileInputStream":13148,"ĠDest":13153,"!\",":13156,"ĠDev":13157,"Documents":13158,"Ġvisited":13159,"ĠExtension":13161,"Ġmot":13163,"TM":13164,"appId":13165,"SEC":13167,"isEnabled":13169,"amodel":13170,"getD":13174,"Ġring":13176,"Indicator":13178,"STREAM":13180,"Generation":13184,"Rendering":13188,"Frequency":13191,"æĶ":13193,"ancy":13194,"ĠgetInstance":13195,"Bridge":13198,"Under":13200,"ĠEPackage":13201,"Ġinf":13204,"ATIVE":13205,"GUI":13206,"ĠHere":13214,"Ġpriv":13216,"HS":13218,"Buffers":13220,"TASK":13221,"Fleet":13222,"orn":13223,"bn":13232,"ErrorMessage":13233,"Mirror":13236,"su":13237,"explicit":13239,"EEnum":13242,"ominator":13243,"ĠSql":13244,"CALL":13247,"verted":13248,"feat":13249,"White":13259,"ĠFix":13260,"AttributeValue":13261,"Linear":13262,"+)":13263,"rack":13264,"Ġfun":13269,"Ġcomparator":13270,"CONNECTION":13278,";)":13279,"via":13282,"Lab":13287,"ouse":13292,"ĠArr":13295,"Mapped":13297,"setRequest":13298,"Asc":13299,"Power":13300,"aggreg":13306,"SECOND":13309,"Ġstar":13316,"ĠMaximum":13318,">.":13319,"ĠActive":13320,"ĠJust":13324,"genes":13326,"Ġ\"'\");":13327,"ĠÑģ":13328,"Precision":13329,"addListener":13335,"ENABLED":13336,"Conversation":13338,"uro":13343,"ĠCertificate":13344,"icast":13349,"Ġorientation":13350,"getTask":13358,"isPresent":13361,"vie":13362,"HashSet":13363,"Ġha":13367,"ĠOUT":13368,"ĠBut":13369,"Cent":13372,"NL":13373,"eres":13374,"Gate":13376,"ZIP":13377,"ĠRO":13380,"FailedException":13381,"Directories":13387,"iser":13389,"Ġcas":13390,"oting":13391,"ĠDat":13392,"Bug":13393,"Sat":13397,"XA":13398,"HttpResponse":13400,"REFERENCE":13402,"Samples":13404,"ç±":13405,"marks":13406,"Threads":13407,"Ġbuffers":13411,"getRow":13414,"OfWeek":13415,"TITLE":13418,"æŃ":13419,"getApi":13424,"radio":13425,"Hyper":13429,"Journal":13430,"Conditional":13434,"ĠIF":13436,"house":13437,"rh":13438,"Ġvisitor":13440,"ĠEClass":13443,"İ·åıĸ":13444,"Ġprojects":13446,"Sep":13449,"zzle":13450,"ĠVirtual":13453,"ĠLanguage":13460,"Exact":13464,"ĠBl":13466,"anno":13467,"pel":13470,"uli":13475,"Criterion":13479,"ĠEObject":13484,"zed":13486,"ceptors":13487,"ĠFFDCFilter":13495,"Formal":13497,"BigDecimal":13508,"ĠâĢ":13511,"getCause":13515,"ĠUnit":13516,"GC":13517,"OutOfBoundsException":13520,"ĠFS":13531,"Ġda":13536,"Ġnr":13537,"adj":13538,"Ġ28":13540,"())));":13541,"ĠAfter":13543,"SW":13546,"Ġhi":13550,"getAction":13558,"TP":13564,"Ġpdf":13565,"Ġinjection":13567,"ĠAx":13568,"Buttons":13569,"INGS":13570,"ising":13573,"abu":13578,"Processed":13579,"Ġ204":13580,"ĠInstant":13581,"mutation":13583,"XmlElement":13584,"Curl":13585,"Room":13587,"é¡":13592,"setMax":13598,"phen":13599,"Offsets":13600,"Ġ\",\"":13601,"ĠDBConstants":13605,"??":13610,"ĠDataset":13612,"verg":13614,"bd":13617,"organ":13618,"Working":13628,"Minutes":13629,"ERO":13631,"readLine":13632,"station":13636,"eto":13637,"Ġintent":13639,"lets":13640,"Ġcomposite":13643,"equ":13647,"STOP":13649,"Ġ'|":13651,"ĠSym":13659,"ovy":13661,"isions":13664,"ĠSite":13666,"ĠAN":13668,"ĠResources":13676,"getServer":13680,"FFIX":13682,"ĠnodeList":13685,"ĠdefaultCase":13686,"Proposal":13688,"iding":13691,"Sensitive":13695,"wa":13696,"ITEM":13698,"Paint":13699,"Ln":13705,"ServiceName":13707,"\")));":13708,"ĠgetType":13713,"PROCESS":13718,"elt":13723,"Gro":13730,"cam":13731,"Collectors":13739,";\");":13740,"sun":13742,"ãģ®":13749,"Dro":13750,"()+":13755,"Plus":13759,"Ġ'::":13763,"ApiException":13770,"ĠRecognitionException":13771,"Optim":13773,"eth":13774,"Inventory":13775,"Quick":13776,"setParent":13784,"ĠTop":13785,"Ġeg":13793,"Ġalter":13800,"ĠUri":13801,"Ġcarry":13802,"FIRST":13805,"ĠGeometry":13808,"Hit":13810,"ki":13814,"ĠCounter":13818,"ĠAsync":13819,"Attempts":13820,"ĠRest":13821,"Business":13822,"EXEC":13823,"ĠLogging":13824,"uda":13828,"getGroup":13829,"Classifier":13833,"ĠAdmin":13834,"ListItem":13836,"ĠMember":13840,"MF":13841,"Rob":13842,"ĠIdentifier":13843,"ĠPush":13845,"Clazz":13846,"Bank":13849,"Ġmg":13850,"ĠAttributes":13852,"Preferred":13854,"adoop":13856,"ĠgetProperty":13859,"Ġ300":13860,"ĠPredicate":13862,"DEV":13864,"Checkpoint":13867,"setEnabled":13871,"ĠfeatureID":13872,"ĠCoordinate":13874,"Minute":13877,"ĠBigInteger":13878,"=\");":13879,"ino":13880,"ĠAtomic":13886,"ĠgetIfc":13887,"mobile":13896,"Na":13900,"(\"\");":13908,"checkNotNull":13909,"Ñĩ":13912,"Ġalphabet":13915,"ĠEmail":13916,"toList":13920,"Reduce":13925,"bul":13926,"ky":13927,"111":13933,"ĠSection":13936,"æģ":13939,"ĠDNS":13943,"ĠOb":13944,"Sip":13945,"Gradient":13954,"ĠJsonObject":13955,"KV":13957,"oe":13959,"ament":13965,"HttpServletRequest":13971,"Ġ22":13979,"Hints":13983,"ĠBE":13984,"Mat":13987,"ularity":13990,"Picker":13991,"Ġ360":14001,"ĠchildNode":14002,"Ġtokenizer":14007,"Ġclasspath":14010,"ĠMO":14015,"fort":14019,"into":14020,"Ġann":14021,"Ġinvocation":14023,"Ġaudit":14024,"Suite":14029,"Ġcx":14030,"STYLE":14035,"ima":14036,"hn":14049,"ĠCraft":14050,"________":14052,"ali":14058,"Ġ'>'":14062,"è¦ģ":14070,"PROJECT":14073,"Ġsplits":14075,"will":14078,"Ġ07":14080,"Less":14083,"Ġ26":14085,"Ġoffer":14089,"Ġdependent":14091,"Rev":14095,"shut":14096,"NodeType":14105,"=\"+":14106,"Partitions":14108,"åĪĨ":14113,"BaseUrl":14116,"mess":14118,"ĠTransform":14121,"Ġnat":14127,"Cross":14129,"CLA":14132,"setAccessible":14135,"bag":14141,"Ġfa":14142,"ĠOperator":14144,"subscriptionId":14146,"ancell":14150,"ĠCompletableFuture":14151,"BOOLEAN":14154,"!\"":14155,"Maker":14156,"Ġdatasource":14159,"brand":14160,"ĠUnsupportedOperationException":14161,"Orientation":14162,"getProject":14164,"CHANNEL":14170,"SCOPE":14171,"ç¼":14173,"Ġimpl":14177,"JSONObject":14178,"SINGLE":14181,"Ġ10000":14188,"APPLICATION":14192,"Unset":14195,"Ġscheduled":14204,"getInput":14205,"ĠinputStream":14206,"ĠINDArray":14211,"Band":14214,"PID":14215,"hd":14216,"Ġescap":14217,"ĠDuration":14228,"ĠclassLoader":14238,"mot":14243,"agram":14245,"ĠWriter":14250,"è½":14251,"(\"</":14252,"Representation":14253,"uge":14255,"fromResponse":14256,"ĠServiceCallback":14268,"Integration":14270,"town":14271,"LastModified":14273,"IllegalArgumentException":14275,"Got":14279,"voice":14287,"ĠFileOutputStream":14291,"ICK":14296,"ĠAL":14299,"Ġlittle":14304,"ĠCould":14305,"Vpc":14309,"onym":14310,"writing":14312,"EncodingException":14316,"SPECI":14317,"ĠRegistry":14320,"ĠScan":14327,"isTraceOn":14337,"Ġ)=>":14339,"lug":14345,"ĠALL":14350,"DOCUMENT":14352,"ĠDrop":14354,"ny":14356,"ĠPool":14358,"Arc":14363,"ĠHy":14364,"ĠExp":14365,"toByteArray":14371,"BIT":14373,"CY":14374,"ĠScreen":14376,"SUFFIX":14387,"ĠgetUser":14388,"portal":14390,"Fit":14394,"vest":14396,"ĠMutable":14397,"UTION":14398,"ĠGlobal":14400,"Ġ'<'":14401,"ĠSetting":14403,"å¸":14405,"Ġinfer":14406,"ĠCharSequence":14411,"ein":14413,"ĠgetCurrent":14415,"ĠRoot":14416,"Life":14421,"getLocation":14430,"getCanonical":14431,"Letter":14435,"TC":14436,"omer":14438,"IND":14439,"ĠDimension":14440,"DL":14442,"...\");":14443,"Mobile":14449,"enk":14453,"getTotal":14458,"getR":14464,"ĠresourceName":14465,"<>":14471,"ĠWord":14476,"sip":14479,"Ws":14483,"management":14484,"åĪ°":14487,"ILE":14488,"ĠuserId":14494,"DM":14499,"ĠTemp":14502,"elf":14503,"ĠnextPageLink":14506,"Reload":14509,"Datum":14510,"Ġum":14512,"Drawable":14514,"even":14515,"ordinal":14519,"ĠOpt":14520,"JOB":14524,"BEGIN":14526,"IX":14527,"Gray":14529,"Comparison":14530,"ĠLast":14531,"Ġblack":14534,"Embedded":14536,"Ts":14538,"putAll":14542,"ĠPolicy":14543,"384":14545,"arl":14548,"Hdr":14551,"vd":14552,"alter":14553,"Tok":14554,"URLConnection":14555,"ĠUpload":14566,"Serialization":14567,"Ġannotated":14570,"ĠLists":14571,"Ġpersistent":14573,"rat":14580,"ĠMag":14581,"Ġhand":14588,"oken":14592,"Concept":14593,"ĠFire":14594,"Training":14597,"getAtom":14599,"See":14601,"ObjectName":14606,"Absent":14608,"ĠSpecial":14612,"miss":14619,"SEVER":14621,"MPS":14622,"ĠMemory":14623,"sib":14625,"Ġ---":14627,"ĠSN":14638,"ĠMetric":14639,"Unary":14640,"spi":14646,"ethod":14654,"Ġprom":14656,"Ġdp":14664,"Cookies":14666,"ĠRES":14668,"population":14669,"xi":14670,"ĠÐ½":14673,"Gra":14678,"KB":14679,"RW":14680,"ĠThat":14683,"getStyle":14686,"BoundingBox":14690,"palette":14691,"rapp":14692,"plane":14696,"ĠDATA":14697,"AndGet":14698,"110":14702,"Ġmm":14705,"ĠinstanceValue":14706,"checkArgument":14709,"medium":14711,"Physical":14712,"455":14713,"Disposition":14715,"Publisher":14716,"Scene":14721,"getReference":14722,"ĠPdf":14723,"ĠCommerce":14729,"ĠAre":14734,"Ġupon":14735,"UAL":14736,"modifiable":14737,"Positive":14738,"Mutable":14740,"Pa":14741,"ANNOT":14746,"lastModified":14747,"Heap":14750,"waitFor":14755,"ODY":14760,"ĠImmutableList":14768,"appa":14770,"ĠBo":14771,"ĠLinkedHashMap":14775,"FAILURE":14776,"FD":14777,"Ġ?,":14781,"ĠEJB":14782,"Ġll":14785,"ĠTCP":14786,"Ġkm":14787,"ĠtypeName":14793,"æĢ":14799,"ĠSum":14803,"ĠgetName":14804,"Oper":14811,"BigInteger":14813,"ĠTHE":14818,"Epoch":14820,"Kit":14821,"Gre":14831,"PG":14834,"ĠSync":14836,"ĠÐ²":14838,"ĠMenu":14839,"ARGUMENT":14847,"Executable":14850,"NumberFormatException":14853,"ĥ½":14856,"ĠForce":14858,"Possible":14859,"STATIC":14860,"Att":14868,"Ð´":14870,"ĠpushFollow":14871,"getBoolean":14877,"FACTORY":14882,"pressed":14883,"Ġdie":14885,"ĠSignature":14893,"Compound":14895,">>(":14897,"pal":14900,"ToAdd":14902,"QNAME":14905,"quis":14910,"Ġdbc":14913,"è·":14918,"orb":14919,"Ġshadow":14921,"tv":14927,"getSystem":14929,"Ġnav":14934,"fox":14936,"Major":14938,"arter":14940,"Anno":14942,"-\"":14945,"comparator":14946,"TIES":14949,"ili":14952,"Orm":14954,"DEFINED":14956,"RF":14957,"ĠPublish":14958,"rg":14961,"icky":14963,"ĠLib":14968,"addBody":14972,"ĠVoid":14975,"Symbols":14976,"ĠjcasType":14977,"Beans":14979,"ĠRGB":14981,"Defs":14982,"Graphics":14984,"CONSTRAINT":14988,"Ssl":14989,"Ġrecovery":14991,"uni":14992,"ĠTrigger":14993,"Ġsip":14996,"qn":14999,"Ġist":15000,"ĠBound":15005,"alty":15007,"ĠFull":15011,"ĠgetResource":15021,"isNotEmpty":15026,"116":15027,"UG":15028,"InstanceId":15030,"getClassLoader":15031,"204":15032,"eye":15034,"Ġholder":15038,"OptionValue":15042,"labor":15043,"ille":15045,"ĠScal":15046,"Outer":15049,"++,":15054,"Atoms":15055,"getLocalized":15057,"casFeat":15067,"logo":15068,"Ġamb":15072,"ĠCondition":15074,"bond":15077,"ĠInfo":15079,"Ð²":15082,"iro":15087,"anc":15088,"MethodException":15093,"Structural":15101,"Os":15102,"Ġstation":15105,"ĠdataType":15106,"ĠWatch":15108,"Design":15109,"Priv":15110,"PARENT":15111,"UserSegment":15114,"dag":15118,"methodBuilder":15119,"datum":15122,"ĠRaw":15124,"Ð¾Ð²":15126,"isBlank":15128,"ĠChild":15129,"ras":15132,"ĠTIME":15141,"ĠArch":15145,"MET":15149,"Runnable":15151,"enkins":15153,"ĠÃ":15156,"ĠstartIndex":15159,"sz":15160,"ĠSettings":15172,"Performed":15174,"flatMap":15177,"ĠruleXExpression":15178,"HOUR":15184,"Lng":15185,"è´":15190,"UNIT":15192,"Serialized":15197,"Ant":15198,"stem":15200,"ĠManaged":15202,"CENTER":15205,"Ġpf":15206,"copyOf":15207,"ĠTimestamp":15210,"Ð°Ð½":15211,"Modification":15214,"Car":15215,"Ġphoto":15217,"removeAll":15223,"Was":15227,"utive":15228,"recover":15229,"Ã³":15235,"ĠgetLog":15242,"Topology":15243,"XmlElementDecl":15247,"ĠJs":15250,"TV":15253,"Ġcle":15254,"ĠClassNotFoundException":15255,"OfMonth":15263,"hh":15268,"nic":15270,"âĪ":15275,"ĠConsumer":15277,"ĠEngine":15278,"800":15282,"hand":15283,"HH":15290,"leader":15291,"_;":15294,"ĠinitialValue":15297,"ĠManager":15303,"getOwner":15308,"Decision":15309,"033":15312,"instrument":15315,"odes":15318,"ĠPK":15319,"andra":15321,"Ġmess":15322,"Ġspecies":15331,"Sessions":15332,"MISS":15338,"gh":15341,"Pie":15345,"nextElement":15347,"ĠSP":15353,"ĠTransformer":15357,"ĠResultSet":15358,"ĠScope":15364,"kin":15366,"Ġcamera":15367,"ĠFlag":15375,"Ġ())":15379,"Ġstand":15380,"AccountName":15393,"rappers":15395,"Ġthrowable":15402,"Editable":15405,"PN":15407,"ĠdataSource":15408,"wk":15410,"probe":15413,"IsSet":15415,"xsd":15419,"ĠDirect":15421,"ĠHttpServletRequest":15431,"125":15434,"Initializer":15436,"FileSize":15441,"MBean":15446,"QueryParams":15450,".:":15454,"ĠTake":15455,"writeInt":15466,"graf":15467,"eig":15476,"ĠLat":15477,"ORITY":15478,"ĠConstant":15480,"lm":15486,"VID":15490,"faces":15491,"IfAbsent":15497,"ÑģÑĤ":15499,"DISPLAY":15500,"Ġcapt":15501,"ĠEMPTY":15502,"ĠBufferedImage":15503,"sphere":15504,"ĠserverName":15505,"spark":15509,"readInt":15519,"160":15524,"FEATURE":15527,"ĠLex":15530,"InProgress":15534,"TargetException":15539,"Agg":15540,"Ġ127":15541,"Sy":15543,"ClassInfo":15544,"cks":15550,"standing":15557,"ĠPr":15558,"ĠProvider":15561,"addHeader":15562,"sth":15568,"Ġmi":15569,"Jav":15572,"ordinator":15580,"ä¸Ĭ":15586,"PriceList":15592,"Ġtot":15597,"ĠComment":15603,"ĠAsset":15605,"ĠReader":15608,"basis":15611,"dw":15612,"CmsObject":15614,"getOffset":15617,"ĠPointer":15618,"Ġé":15626,"Notation":15628,"ĠFont":15633,"ĠCase":15637,"sky":15640,"HexString":15648,"ĠND":15651,"å¹":15654,"aser":15655,"ĠIss":15657,"hib":15660,"tex":15661,"ResourceException":15663,"hashCode":15665,"================================================================":15668,"ĠDefinition":15671,"Seen":15673,"ĠSample":15674,"spot":15676,"fee":15677,"getIts":15679,"getJob":15680,"DEF":15686,"Transformation":15693,"hasMoreElements":15696,"ĠVER":15698,"sam":15701,"ulations":15702,"Ins":15703,"ĠCharset":15706,"ĠCPU":15707,"trust":15709,"Serializable":15712,"SocketAddress":15718,"ined":15724,"Ġyears":15728,"Dto":15729,"Ġbank":15730,"Nanos":15732,"Ġtbl":15733,"ĠConstructor":15738,"FormalParameter":15739,"(\"*":15742,"ĠsetValue":15743,"åĲĪ":15747,"Dem":15748,"LER":15749,"çŃ":15750,"Ps":15755,"Decor":15756,"WithAnnotations":15760,"Tim":15761,"kn":15762,"ensive":15764,"BufferSize":15765,"à´":15769,"journal":15775,"ĠDownload":15776,"ĠMain":15780,"CORE":15781,"tele":15790,"Ordered":15791,"102":15800,"ĠInterval":15802,"ĠSVG":15803,"USH":15804,"ĠExtra":15806,"AccessControl":15808,"ĦçĲĨ":15809,"Beta":15817,"bill":15818,"Ġeasy":15822,"DEP":15830,"ĠProfile":15832,"ina":15833,"Rectangle":15843,"Win":15845,"ĠIdentity":15846,"ĠSER":15859,"Dates":15861,"ħį":15862,"News":15863,"temporary":15864,"online":15867,"ĠOP":15869,"SF":15872,"å¿":15873,"numRows":15874,"getCount":15878,"ĠUtility":15885,"Station":15891,"Pal":15896,"rogate":15897,"sensor":15900,"ĠfetchBy":15906,"ç©":15910,"ĠVolt":15911,"FLOW":15915,"sem":15916,"ims":15918,"120":15921,"isInstance":15936,"Replicas":15937,"hl":15940,"unding":15943,"199":15945,"interrupt":15946,"UNIQUE":15954,"ZERO":15955,"Ġ...,":15958,"getLocalizedMessage":15961,"Ġbitmap":15964,"ĠRectangle":15968,"å±":15969,"Camera":15972,"getN":15973,"ATER":15974,"ĠLayout":15981,"ĠTw":15989,"OrderByComparator":15998,"ĠActivity":15999,"MER":16000,"ITER":16001,"lu":16002,"Poll":16008,"Ġgas":16018,"Sentence":16021,"Ġalternate":16022,"SinglePageAsync":16024,"itors":16025,"ods":16026,"Acc":16029,"ĠpackageName":16030,"ĠRepositoryException":16031,"ĠSp":16033,"();)":16038,"htable":16039,"ipp":16040,"HN":16043,"fork":16046,"CharArray":16048,"ĠSTAT":16050,"Ġ2016":16051,"¨¡":16062,"Highlight":16068,"hold":16072,"orum":16073,"Pad":16082,"ĠVec":16086,"ĠretVal":16091,"ĠSTATE":16095,"Cover":16096,"ĠProb":16102,"IGH":16105,"Ġeng":16107,"eration":16108,"getInputStream":16114,"ĠInterface":16115,"ĠStat":16116,"ILITY":16117,"SG":16121,"sto":16127,"JsonObject":16130,"gun":16132,"ĠOffset":16133,"Ġtau":16135,"tour":16136,"PRIMARY":16145,"forcer":16147,"cies":16151,"getAs":16155,"umps":16156,"105":16157,"CmsResource":16167,"getRequestContext":16168,"Ġhandshake":16170,"ĠAlways":16174,"anode":16179,"Keyboard":16180,"ĠqPath":16181,"ĠgetString":16187,"åİ":16194,"Ġblue":16199,"çī":16204,"Quiet":16205,"Privileged":16207,"addParameter":16218,"KeyStore":16219,"Ġ\")\");":16223,"ĠMojo":16224,"ĠInvocation":16228,"apiClient":16231,"<?>[]":16232,"ĠExport":16236,"ç§":16244,"getAddress":16260,"ils":16262,"ElementType":16265,"ei":16268,"Ġrd":16272,"getID":16277,"RL":16281,"ĠDir":16284,"Tier":16287,"uit":16291,"setLength":16292,"chors":16296,"Ġ/>":16306,"ĠindexOf":16312,"åŀ":16314,"Ġfinder":16317,"ĠInputStreamReader":16320,"Meter":16322,"ĠCF":16326,"yer":16329,"ĠInternalX":16331,"Norm":16333,"ndi":16335,"Ġfr":16336,"Ġwor":16337,"istant":16338,"ĠCookie":16343,"emptyList":16345,"ĠInternalXbaseWithAnnotations":16350,"Ġmol":16351,"ĠDMatrix":16353,"ĠBO":16354,"++];":16355,"ĠUnique":16356,"isNullOrEmpty":16358,"Ġì":16359,"album":16361,"Ġdes":16363,"(\"\\\"":16365,"ĠDynamic":16366,"GridBagConstraints":16367,"ĠHttpServletResponse":16369,"Hard":16371,"CharSequence":16374,"Ġfactors":16376,"ĠStrip":16383,"PROPERTIES":16385,"Raster":16387,"ĠLazy":16388,"about":16397,"DELIMIT":16398,"çł":16403,"Ġ36":16412,"Chaincode":16413,"Tip":16415,"setString":16418,">>();":16419,"Annotated":16421,"ĠSecret":16423,"---":16425,"ClassNotFoundException":16426,"ĠDay":16433,"ĠcolumnName":16434,"ĠPDF":16438,"EXPI":16451,"PDF":16455,"iller":16460,"ĠtheEObject":16461,"]\"":16465,"Ġuni":16468,"112":16472,"eb":16474,"alarm":16475,"ulse":16476,"ĠCRE":16477,"Ġwa":16482,"Ġul":16486,"ĠSuccess":16487,"ĠRET":16488,"aco":16503,"ĠProgress":16506,"ĠNamed":16508,"194":16514,"PureXbase":16516,"utter":16527,"Soap":16529,"moment":16535,"TextField":16540,"ĠShape":16542,"undera":16544,"IFI":16545,"vat":16546,"Ġsound":16548,"awn":16552,"ä»¥":16554,"Descr":16559,"è¾":16563,"atern":16567,"ĠSTRING":16569,"gets":16571,"Ġ34":16572,"ĠProto":16573,"Vol":16579,"ĠTimer":16582,"BL":16592,"sex":16593,"Ġreplica":16596,"Am":16604,"BUT":16605,"ĠMode":16613,"SECTION":16616,"114":16618,"FN":16621,"Bundler":16628,"RMaj":16632,"Amazon":16633,"Ġever":16635,"ATTRIBUTES":16639,"getSuper":16647,"Painter":16650,"Su":16659,"amer":16660,"ĠEdge":16662,"uler":16663,"SEVERE":16666,"don":16667,"starts":16669,"Ġ512":16672,"Ġtax":16675,"icated":16676,"DOC":16677,"Enumeration":16679,"Ġ2015":16682,"Stock":16688,"ĠSupport":16690,"opencms":16693,"Frames":16694,"uk":16700,"ĠMay":16701,"ying":16708,"abb":16710,"quot":16711,"redu":16712,"ĠSegment":16713,"ĠattributeName":16714,"tunnel":16716,"Ġinterpret":16721,"ups":16725,"Slots":16730,"ĠCmsException":16734,"Ġ27":16746,"ORD":16747,"ĠMD":16750,"Ġfeat":16753,"Ġeigen":16754,"Ġnom":16755,"ĠEnumeration":16761,"ÐµÑĢ":16763,"gas":16766,"Deleg":16768,"PackageName":16772,"ĠgetObject":16778,"inputStream":16780,"ĠLogin":16782,"primitive":16798,"PD":16802,"JavaScript":16809,"RESOL":16810,"ĠJSONArray":16814,"MISSING":16816,"Ġorgan":16826,"ĠServiceResponse":16835,"ĠStrings":16838,"flu":16840,"TypeInfo":16842,"Ġpaint":16849,"Ġmanagement":16850,"Declared":16851,"ĠPRE":16852,"ĠPag":16859,"ChangeListener":16861,"Ð¼":16863,"prov":16864,"ung":16874,"Bi":16880,"INFIN":16888,"tend":16892,"orrow":16893,"Ġaf":16894,"ĠBoot":16897,"Ġaccessor":16898,"Speed":16899,"Minor":16901,"ĠDataType":16905,"202":16906,"ĠHO":16909,"ISH":16913,"ĠRouter":16921,"Half":16923,"LM":16924,"onic":16940,"Ġgrow":16941,"168":16946,"ĠPosition":16947,"012":16956,"ÐµÐ¼":16959,"lag":16961,"ĠMat":16964,"ALIAS":16965,"ĠFore":16981,"antom":16987,"LineString":16988,"Black":16998,"ĠSorted":17000,"ĠCOMP":17001,"èĥ½":17005,"ĠSH":17007,"ITIVE":17010,"iam":17018,"Ġ{//":17022,"å§":17032,"Deserializer":17039,"ĠlistBy":17043,"UV":17048,"ĠInternalPureXbase":17054,"Actor":17057,">(_":17058,"Ġnvae":17063,"alphabet":17064,"getLeft":17065,"getNumberOf":17066,"liferay":17072,">>,":17077,"Verb":17079,"ÐµÑĤ":17080,"AE":17082,"Ġxx":17084,"ĠDriver":17087,"echn":17093,"Exclusive":17097,"Explicit":17100,"zy":17104,"antic":17107,"Gl":17114,"ĠChain":17115,"Macro":17117,"Procedure":17119,"getMain":17120,"UC":17124,"Alarm":17126,"orElse":17131,"Monitoring":17141,"ĠCN":17145,"æĸ°":17147,"kk":17148,"ocket":17149,"logp":17152,"ĠAUT":17157,"Online":17159,"ĠComparator":17160,"World":17163,"âķ":17164,"ris":17170,"Ġdh":17171,"*,":17182,"ology":17185,"ety":17186,"ĠFA":17189,"ĠPrivate":17192,"odo":17194,"Ġ29":17198,"nano":17204,"ĠHtmlTree":17205,"rast":17214,"Ġ401":17218,"ĠSubject":17219,"oli":17222,"Ġpen":17223,"ĠShared":17232,"alm":17237,"Building":17240,"zk":17241,"108":17256,"MR":17265,"Classpath":17268,"ĠRelease":17271,"GN":17277,"ĠLimit":17279,"ĠEvents":17285,"ĠVolume":17287,"Star":17292,"Ġsemi":17297,"ĠGen":17299,"Bel":17303,"tur":17304,"raster":17305,"RequestData":17307,"trait":17317,"ĠSecond":17318,"Weights":17320,"HK":17326,"ĠDistr":17327,"Ġ600":17329,"ĠgetField":17332,"Registr":17350,"115":17352,"CONFIGURATION":17354,"LeafNode":17355,"Ã£":17357,"ValueType":17359,"Coll":17360,"ĠWeek":17366,"ĠModelNode":17367,"...\"":17371,"Appender":17372,"ĠTransfer":17374,"MG":17377,"may":17378,"Ġ99":17379,"Singleton":17386,"Seg":17389,"ĠES":17390,"Ġ45":17391,"ANCH":17395,"VIS":17396,"bw":17397,"getRight":17402,"iden":17403,"Android":17405,"ĠlocalVarReturnType":17415,"å·":17416,"Te":17420,"çĤ":17424,"frag":17428,"Ä±":17430,"ifs":17431,"ĠSD":17433,"ĠwaitFor":17437,"DELIMITER":17441,"ĠZone":17446,"INTERFACE":17447,"getDouble":17450,"HEL":17457,"ails":17466,"unmodifiable":17471,"Ġperf":17473,"Af":17475,"ÃŃ":17478,"ĠRound":17479,"AsStream":17481,"reporter":17484,"isEvent":17485,"acle":17487,"ENDING":17488,"Ġ44":17489,"RON":17493,"ä¾":17494,"ĠgetPersistence":17495,"ica":17504,"ĠWhere":17506,"CANCE":17518,"ustr":17520,"longValue":17527,"ember":17530,"Ġ33":17535,"CompositeNode":17538,"getRemote":17541,"ĠPel":17544,"ĠIllegalAccessException":17545,"NEG":17546,"ada":17549,"^(":17555,"kle":17556,"Chooser":17558,"ACC":17559,"2015":17564,"Synchron":17566,"InBytes":17567,"(\"\"))":17568,"ĠCarbon":17569,"ĠMail":17579,"Bundles":17582,"Wish":17586,"Ġma":17588,"789":17593,"ĠElse":17595,"NodeList":17598,"uxio":17604,"ĠTrack":17606,"Ð¾Ð»":17612,"tu":17614,"ĠAP":17616,"Portlet":17620,"Dep":17629,"StartIndex":17631,"Ġslots":17632,"MW":17643,"ĠUpdates":17646,"ĠMtas":17653,"OO":17662,"RB":17663,"hop":17668,"rees":17669,"getResources":17670,"ĠPrintWriter":17675,"addProperty":17681,"oter":17692,"aught":17708,"ĠLinear":17709,"Flex":17711,"lit":17712,"tell":17713,"Ġdeg":17715,"Ġdu":17721,"VC":17726,"PEG":17732,"Dns":17737,"Mutation":17739,"ĠServletException":17748,"paper":17750,"°ĥ":17751,"nextInt":17755,"Ġ\"]\");":17757,"MAG":17762,"æ®":17768,"RecognitionException":17776,"ĠStringTokenizer":17777,"ĠWhat":17779,"generation":17784,"oy":17785,"irm":17787,"jvm":17793,"***":17796,"Toolbar":17800,"DOT":17806,"DRL":17808,"ĠByteArrayInputStream":17809,"Ġ2000":17816,"iber":17824,"Ġalarm":17826,"Ġleaving":17827,"atts":17835,"ĠgetContent":17838,"allele":17842,"wide":17845,"Ã¤":17846,"ĠTer":17847,".</":17850,"eo":17852,"rib":17856,"Ġtran":17858,"ľĢ":17872,"PRESSION":17874,"ĠKeys":17876,"ĠThrow":17878,"Tar":17883,"Ġonline":17887,"ĠZero":17890,"MBER":17895,"Classification":17899,"pio":17900,"Least":17902,"ights":17909,"Ġattack":17918,"DAO":17925,"ĠThey":17929,"ĠInternalXtext":17932,"NotEmpty":17939,"ĠMySQL":17942,"outs":17946,"ĠKeyboard":17947,"ĠOrig":17952,"booleanValue":17954,"ĠAC":17961,"AddParam":17963,"BN":17965,"DEL":17967,"éĿ":17971,"ĠMac":17973,"dog":17975,"ĠPeriod":17978,"ĠPacket":17987,"Ġhot":17998,"Ari":18003,"ĠeDataType":18004,"æ±":18007,"Gallery":18012,"ĠerrorMessage":18015,"INFINITY":18020,"ĠTotal":18027,"ĠTAG":18028,"gau":18031,"ĠHelp":18035,"gov":18040,"FINDER":18042,"ĠTRACE":18046,"nz":18050,"sch":18057,"edu":18058,"STER":18059,"Workplace":18062,"acon":18064,"ĠDevFailed":18070,"iom":18074,"TRANSACTION":18079,"Spi":18081,"getScheme":18085,"FieldSeq":18094,"ĠEV":18095,"ĠProgram":18096,"gal":18103,"Processors":18106,"Pixels":18109,"ĠAgent":18111,"Typ":18112,"ç®":18114,"inet":18120,"parseLong":18123,"ĠSAXException":18127,"639":18128,"Ast":18129,"ĠBody":18134,"Ġ35":18135,"Ġminus":18137,"Prom":18142,"urst":18145,"IDS":18149,"rates":18155,"à¨":18157,"getChannel":18158,"toCharArray":18159,"Spot":18161,"Pick":18164,"Will":18165,"Ġque":18166,"getEntry":18168,"igs":18169,"Ora":18186,"umin":18188,"ResourceBundle":18197,":\");":18201,"ĠendIndex":18206,"150":18209,"Circle":18211,"getFormatted":18212,"AZ":18218,"Far":18219,"zier":18220,"ĠDestination":18228,"Li":18229,"Mixed":18230,"vir":18231,"ĠGrab":18233,"hed":18236,"ĠSM":18240,"newArrayList":18241,"103":18243,"ĠDependency":18246,"Circuit":18257,"chi":18259,"ĠTE":18262,"Tran":18263,"aret":18264,"ĠXMLStream":18268,"dem":18274,"ĠTreeMap":18278,"èĩ":18281,"Ġinform":18288,"Cop":18292,"Ø§":18294,"ãĥ¼":18297,"mal":18300,"rew":18301,"ĠÐ¾":18304,"Ġsolid":18307,"ĠInf":18315,"ResourceGroup":18316,"AIN":18322,"getColor":18323,"ĠDef":18329,"operationType":18333,"iri":18337,"addresource":18340,"numCols":18343,"ĠTransl":18346,"ĠCommit":18350,"196":18351,"ãĤĴ":18353,"AlgorithmException":18354,"aid":18357,"itr":18359,"Ġdatum":18362,"isNotBlank":18373,"Cas":18375,"ĠOk":18377,"ensus":18378,"Nr":18382,"marshaller":18384,"dent":18396,"Ġled":18401,"BI":18407,"ModelElement":18408,"Grammar":18409,"Viable":18410,"getDeclaringClass":18416,"ĠruleJvmFormalParameter":18417,"City":18419,"liest":18423,"fos":18424,"lam":18427,"REQ":18432,"Ġpara":18439,"yr":18443,"Buff":18450,"Experiment":18458,"jp":18468,"Memo":18474,"Ġportlet":18475,"çº":18487,"ira":18493,"ye":18494,"cycl":18499,"orient":18503,"ĠgetRequest":18504,"ĠAnaly":18505,"GG":18508,"gender":18509,"ĠDer":18511,"dispose":18512,"107":18514,"Board":18517,"ĠTeam":18521,"ĠSwitch":18527,"uris":18532,"ĠÐ¸":18537,"SecurityException":18545,"]\");":18547,"abi":18549,"rip":18551,"Ġdeleg":18552,"INF":18553,"ĠEF":18554,"ĠPrimitive":18561,"izedType":18567,"ĠPersistence":18570,"ĠIssue":18573,"Glob":18575,"JK":18576,"Managers":18577,"è±":18578,"LET":18579,"Party":18587,"etSocketAddress":18592,"setColor":18593,"Eng":18594,"ĠMAP":18595,"cardinality":18598,"EB":18601,"ĠComparable":18605,"Ã£o":18608,"Jsp":18610,"()+\"":18617,"ĠRew":18619,"Ġ2017":18624,"Ġbed":18628,"Ð¿":18632,"IllegalAccessException":18636,"getExpression":18640,"Ġbmd":18641,"Quant":18642,"ViableAltException":18654,"ĠuserName":18659,"Instrument":18665,"åĿ":18682,"Ġpas":18683,"getParameterTypes":18687,"omb":18690,"Ġneur":18692,"ĠExecutor":18696,"LP":18700,"ĠMore":18711,"ĠEL":18715,"ãĢģ":18718,"ĠMojoExecutionException":18724,"{|":18726,"250":18730,"Ð°ÑĤ":18731,"STRUCT":18738,"WEEK":18747,"ulu":18751,"HI":18758,"nes":18759,"áŁ":18760,"water":18770,"texts":18775,"2017":18778,"ĠSignal":18788,"Ġlos":18792,"ĠPlatform":18796,"ĠGO":18797,"tended":18799,"ĠSTART":18800,"Ġ59":18810,"Aut":18811,"dig":18819,"kers":18820,"setVisible":18825,"109":18828,"getL":18829,"MTAS":18836,"Ġhel":18838,"Ġlag":18839,"ĠOB":18840,"Ġ[{}]":18844,"à¥":18846,"ĠQU":18847,"Ġprof":18848,"bat":18853,"jdbc":18854,"ĠCir":18856,"ĠaccountName":18858,"Organ":18859,"asString":18867,"Neg":18878,"iationException":18879,"RAD":18886,"aro":18887,"ĠcheckArgument":18896,"ĠclientId":18898,"(\"/\"))":18902,"Ren":18904,"ban":18905,"gml":18906,"Ġfil":18907,"ĠBro":18911,"XXX":18912,"orde":18923,"IFT":18927,"ãĤĭ":18929,"FB":18932,"ByteString":18934,"ball":18937,"NoneMatch":18939,"rn":18950,"hm":18960,"ĠFileNotFoundException":18966,"ules":18971,"Ġjournal":18972,";\"":18977,"Radio":18982,"Localization":18989,"ĠLoggingUtil":18994,"iability":18995,"ĠSpl":18996,"Ġimmediate":18998,"semantics":19003,"èĢ":19005,"Ġ63":19011,"ĠTurn":19019,"RequestContext":19022,"ĠappId":19023,"Ġoffline":19025,"getReturnType":19028,"XmlContent":19032,"ĠPartition":19043,"gem":19047,"ĠTool":19050,"updateresources":19054,"PING":19056,"olog":19057,"OfDay":19060,"That":19061,"Ġanim":19072,"ĠPhone":19076,"Pi":19078,"ĠSS":19079,"ĠnewInstance":19080,"ĠSimpleDateFormat":19083,"bon":19085,"xxx":19091,"Keeper":19095,"SAX":19096,"Inbound":19097,"ĠTwo":19099,"Ġml":19105,"Ġhd":19106,"Wave":19110,"PoolSize":19113,"MOVE":19114,"Ñħ":19117,"Ġ403":19122,"Quietly":19126,"iel":19127,"occ":19130,"sso":19141,"also":19153,"ĠXA":19155,"403":19164,"Ġ2018":19165,"Ep":19167,"Ġoptimal":19171,"ĠFeed":19175,"dos":19178,"ValuePair":19181,"Probe":19191,"Dummy":19212,"ĠTransport":19217,"Ev":19218,"ĠTags":19222,"getFirstChild":19229,"ĠStringWriter":19234,"ĠÐº":19249,"Ġillegal":19250,"ĠTile":19252,"Lost":19255,"ĠversionId":19272,"Charsets":19274,"Dependent":19278,"ĠScreenConstants":19280,"EJB":19282,"loadClass":19300,"disp":19301,"Ġ42":19302,"tel":19305,"ĠLayer":19311,"401":19312,"bone":19313,"ete":19315,"omit":19317,"Ġta":19323,"isEventEnabled":19328,"Mass":19329,"Rich":19330,"ĠRight":19333,"ĠHigh":19335,"ĠÑĤ":19338,"ĠCard":19340,"night":19346,"Ġbra":19348,"Plane":19349,"VOL":19352,"Minus":19358,"ĠParent":19364,"pes":19374,"Ã¶":19375,"Brand":19380,"Tw":19390,"ĠFlat":19393,"REPORT":19394,"Ġminim":19396,"ConnectionFactory":19397,"Compat":19398,"estra":19405,":</":19420,"hers":19421,"Ann":19423,"IMPORT":19427,"getBean":19429,"ĠSoft":19431,"á»":19436,"party":19437,"Ġ57":19438,"ĠArchive":19445,"ĠcreateOrUpdate":19448,"ĠChart":19453,"ToUse":19459,"Ġkl":19460,"EventAttributes":19462,"HC":19465,"âĸ":19476,"ĠSC":19477,"ĠlocalName":19480,"Hits":19485,"Reaction":19487,"ĠFolder":19489,"ĠBitmap":19492,"aled":19495,"æ¬":19501,"ĠTab":19510,"MILLISECONDS":19515,"à·":19519,"Ġpan":19521,"?\"":19530,"ĠButton":19535,"Ġhar":19555,"getPoint":19561,"ĠJMS":19564,"ĠKind":19577,"inder":19583,"ints":19585,"addresources":19586,"Ġrat":19588,"ĠIAtom":19589,"ĠDiff":19590,"ogen":19593,"ľĢè¦ģ":19595,"ICON":19605,"Arns":19606,"Ġinterceptor":19607,"setS":19614,"ĠgetOrCreate":19616,"Ordering":19619,"CmsStringUtil":19621,"dynam":19626,"nam":19628,"»ĺ":19629,"Ġwater":19630,"ĠFields":19638,"ĠSuper":19639,"åĬ¨":19640,"Ġgran":19644,"ĠPolygon":19645,"ĠDom":19647,"Ã¼":19649,"Ġvers":19651,"»ĺè®¤":19655,"Equ":19665,"197":19667,"ĠgrammarAccess":19669,"rub":19673,"ĠOF":19675,"2016":19678,"Hz":19687,"PF":19688,"å»":19689,"Ġtur":19690,"104":19692,"ĠApiResponse":19694,"Ã§":19698,"ĠPlace":19705,"132":19710,"225":19711,"Mix":19712,"meter":19713,"çİ":19714,"ACTER":19720,"mkdirs":19722,"iment":19733,"Ġship":19735,"isInfoEnabled":19738,"isplay":19739,"ĠsessionId":19743,"RG":19747,"imens":19751,"ĠBi":19754,"195":19756,"cher":19762,"ĠNS":19764,"eclipse":19766,"ĠAnalysis":19770,"Ġ92":19771,"personal":19772,"ĠJavaScript":19773,"Ļ¨":19774,"ĠLinux":19778,"Ġwind":19804,"ĠMP":19805,"say":19812,"vin":19813,"Ġorient":19816,"OrEnum":19819,"ĠConcurrent":19820,"Ġminimal":19822,"ika":19824,"brief":19826,"é¢":19836,"Ġair":19838,"ĠGRO":19839,"Website":19840,"æľ¬":19843,"ea":19846,"ĠTem":19848,"ĴĮ":19856,"ĠEvery":19861,"ĠGot":19862,"Ġ56":19864,"ĠÐ´":19865,"106":19871,"dur":19877,"ĠInjection":19880,"StoreException":19883,"Cy":19884,"Mul":19885,"wid":19887,"roat":19890,"getDestination":19892,"rawtypes":19895,"Spatial":19897,"Led":19898,"gies":19899,"gos":19900,"CmsException":19905,"alem":19908,"Colon":19910,"uren":19920,"URLException":19922,"ĠUnix":19923,"gro":19934,"Ġfrag":19935,"ĠChunk":19937,"Ġ2014":19940,"Ġsam":19953,"ĠAD":19954,"SPI":19962,"ĠCatalog":19966,"ĠgetChild":19967,"ĠPoly":19968,"ĠMult":19969,"ĠoutputStream":19972,"FONT":19981,"Green":19982,"je":19983,"Ġlbl":19985,"toHexString":19986,"ĠIR":19987,"isTraceEnabled":19994,"ĠPE":19997,"Ġck":20005,"anim":20018,"igo":20023,"ALOG":20025,"ISS":20031,"ĠComplex":20038,"Ġju":20050,"CV":20054,"æ¯":20055,"ĠPerson":20058,"147":20063,"TF":20067,"bio":20068,"æı":20069,"ĠMAC":20071,"ĠManagement":20072,"ĠHH":20076,"Ġmanip":20089,"JC":20094,"ĠruleOp":20102,"!!!!":20104,"ĠMinimum":20105,"student":20106,"ĠapiClient":20116,"²¡":20121,"sph":20122,"ĠAndroid":20128,"InMillis":20132,"ĠSpan":20133,"Derived":20142,"ManagerFactory":20147,"Ġdisp":20148,"decessor":20152,"aver":20159,"StringBuffer":20161,"classLoader":20172,"newLeafNode":20173,"WI":20177,"openg":20181,"ĠJSONException":20185,"bands":20191,"aton":20192,"ĠAbs":20193,"117":20205,"itations":20210,"Ġfrac":20219,"Ele":20220,"æĽ":20224,"ĠPol":20227,"InfoList":20229,"writeObject":20230,"ParserOrEnum":20233,"ParserOrEnumRuleCall":20236,"Ġsem":20237,"Dead":20240,"solid":20243,"ĠåĪ":20246,"ĠGL":20252,"ĠContentType":20253,"ĠAri":20257,"ĠPatch":20259,"getFormat":20267,"igma":20269,"Stand":20270,"ĠMis":20280,"ĠWorkflow":20286,"*)":20287,"AddOn":20289,"----------------------------------------------------------------":20293,"UnsupportedEncodingException":20298,"224":20300,"kid":20301,"rote":20311,"getRuntime":20312,"ided":20323,"die":20331,"Anim":20332,"imed":20351,"hal":20357,"ko":20358,"ĠBackend":20368,"Ti":20373,"zu":20375,"ĠChoice":20381,"SIST":20389,"ĠHA":20399,"otope":20402,"å¤§":20405,"Friendly":20406,"ĠBorder":20410,"ĠShop":20412,"hole":20413,"ĠIntent":20414,"Ð·":20422,"ĠIo":20425,"ĠPay":20426,"Fed":20437,"listFiles":20453,"uns":20464,"enda":20465,"ASK":20472,"getSuperclass":20473,"Ġtele":20475,"Mes":20485,"Ġrunnable":20493,"away":20494,"ĠAst":20498,"Ġrisk":20499,"{}]":20504,"ĠCAS":20515,"ĠDIS":20516,"Way":20520,"Intro":20543,"eper":20549,"ingException":20553,"ĠWritable":20564,"ExecutorService":20568,"ĠTransition":20578,"Smart":20582,"Ġcrit":20586,"Fax":20598,"urity":20599,"Ġtv":20600,"ĠvalueType":20602,"ĠNd":20612,"ĠAdapter":20619,"iffer":20626,"Ġpres":20627,"(\"(":20628,"ĠOrg":20635,"/>":20637,"Formation":20641,"HostName":20642,"Ġche":20645,"ĠInetAddress":20654,"Inclusive":20663,"ĠJar":20665,"Ġphot":20670,"VA":20672,"Indirect":20685,"Ġeth":20686,"ETA":20689,"ÑĪ":20695,"ĠresultSet":20697,"writeLock":20700,"teams":20707,"har":20713,"Ġdoi":20718,"Ġorth":20742,"ToIndex":20743,"Ġradio":20746,"MEMBER":20759,"Sensor":20764,"ĠRo":20771,"LEX":20778,"ThreadPool":20780,"GMT":20783,"Hi":20784,"Pat":20798,"Ġve":20800,"Ġ65":20804,"Jms":20812,"Ġ(),":20814,"registr":20817,"ĠListener":20819,"2010":20822,"Ġ70":20834,"getCanonicalName":20842,"Tunnel":20843,"sol":20849,"oline":20851,"æĭ":20864,"quisition":20874,"Br":20875,"TEN":20876,"ĠSK":20878,"Ġ58":20881,"144":20883,"Serie":20891,"ICE":20898,"Jdbc":20908,"getSymbol":20916,"Ð»Ð¸":20921,"Animator":20930,"checkState":20931,"Histor":20940,"LV":20949,"newCompositeNode":20953,"ĠQuick":20959,"Ġmillis":20961,"ElementException":20962,"ĠGC":20963,"afterParserOrEnumRuleCall":20968,"Ġgrand":20972,"Ġâİ":20982,"ĠPublic":20990,"ParserRuleCall":21002,"division":21007,"AO":21011,"ĠAF":21014,"jcas":21022,"ĠRate":21027,"âĢĿ":21032,"squareup":21034,"ĠSelection":21039,"ĠNative":21043,"ĠSerializer":21050,"ĠTS":21051,"2014":21056,"ĠUsers":21070,"GV":21073,"ç¤":21074,"Ġ120":21076,"Ġpeople":21086,"ĠSip":21093,"okhttp":21096,"Installation":21102,"Ġmiss":21108,")((":21115,"Va":21117,"ches":21118,"Ġspe":21119,"ĠTango":21121,"ĠdatabaseName":21125,"ĠSerializable":21126,"ĠGra":21142,"ĠER":21175,"HashCode":21178,"119":21185,"ĠMer":21191,"Substitution":21193,"doclet":21194,"ĠLinkedHashSet":21197,"Ġom":21199,"Ġ[{}]\",":21213,"tier":21215,"ĠBug":21216,"360":21227,">());":21228,"ĠCent":21230,"ĠBU":21231,"fus":21241,"ĠhasNext":21245,"ĠIndexOutOfBoundsException":21250,"getRootPath":21251,"nanoTime":21252,"ĠAudio":21257,"Ġcity":21264,"ResourceInner":21268,"Ġ38":21270,"TimeSeries":21291,"345":21306,"ĠPROPER":21308,"iy":21309,"Ġfis":21310,"Ġbonds":21312,"ĠJvm":21314,"ĠComposite":21315,"ĠTypeToken":21316,"FeatureCall":21324,"ĠIOUtils":21326,"ĠpEntity":21330,"Ġou":21331,"ĠrequireNonNull":21335,"IQ":21340,"JMS":21341,"Ġai":21343,"ĠAssoci":21351,"Ġnatural":21353,"ama":21357,"NextSinglePageAsync":21363,"Blog":21371,"ĠGray":21377,"ĠConf":21378,"Ġ123":21384,"ĠPub":21391,"ĠArea":21399,"164":21400,"ĠAV":21408,"ĠPod":21411,"WL":21417,"Ġstudent":21429,"²¡æľī":21432,"NB":21435,"ano":21437,"adv":21438,"Ġgallery":21440,"isted":21452,"002":21453,"à¶":21485,"tech":21487,"interest":21493,"DeviceType":21494,"Foreground":21495,"Pow":21498,"life":21506,"rosa":21507,"ados":21524,"neur":21527,"HttpServletResponse":21530,"putInt":21535,"ĠPur":21546,"ĠPipeline":21547,"ĠMW":21548,"ejs":21571,"ĠCap":21574,"ãģĦ":21576,"ĠActiv":21578,"gte":21581,"ĠMB":21586,"Ġ39":21587,"Ġadv":21589,"èµ":21596,"ĠExtended":21603,"ĠentityType":21605,"IAtomContainer":21610,"Sprint":21618,"erg":21619,"ĠAudit":21623,"Ġga":21624,"Ð¾Ð´":21629,"à¸":21632,"Ġ250":21634,"Ang":21635,"either":21660,"Express":21661,"ĠJsp":21665,"ulner":21673,"ĠPER":21675,"traits":21676,"Alter":21679,"vserver":21685,"spring":21689,"ĠcreateModelElement":21692,"ĠConversion":21694,"(\"}\");":21699,"ĠWarn":21701,"parseDouble":21702,"ĠComplete":21705,"vy":21709,"Ġei":21716,"beam":21718,"ĠjsonObject":21729,"EDataType":21731,"NP":21732,"reme":21733,"Ġtex":21734,"ĠBreak":21736,"SUCH":21740,"INVOKE":21741,"ResponseInner":21750,"ColumnNames":21752,"getDimension":21758,"Imp":21762,"Ġ'::'":21766,"ĠBinding":21777,"casFeatCode":21778,"Ġ().":21782,"uts":21784,"chip":21785,"acher":21786,"ĠPull":21788,"ĠPlan":21789,"ãģĻ":21793,"Equality":21794,"Sharing":21803,"148":21804,"Ġstudy":21809,"-(":21810,"ĠRot":21814,"west":21821,"§è¡Į":21822,"fu":21829,"ĠFaces":21833,"Blue":21838,"ĠGitLab":21839,"getFormattedMessage":21841,"Gas":21843,"ĠFree":21848,"ĠMaps":21853,"ªĮ":21859,"isAnnotation":21860,"ĠjobId":21871,"Ġbusiness":21876,"Enclosing":21878,"ĠifNoneMatch":21883,"Chem":21885,"122":21890,"nor":21899,"ĠBus":21906,"ĠLeft":21909,"Ġenclosing":21911,"XExpression":21913,"Ġtier":21917,"ResultInner":21925,"WER":21931,"fers":21932,"men":21933,"ague":21934,"issa":21937,"IAtom":21943,"æµ":21944,"ervice":21945,"ĠMock":21950,"ĠcheckState":21951,"ĠNoViableAltException":21955,"compareAndSet":21968,"Aux":21975,"ador":21979,"ĠVert":21983,"ĠNE":21994,"Portal":21998,"building":22005,"ĠÑ":22011,"versations":22016,"dao":22027,"166":22039,"raining":22043,"uary":22046,"LogRecord":22050,"opengis":22055,"far":22056,"instr":22058,"uu":22071,"tee":22074,"ategor":22077,"IVED":22086,"htt":22092,"Pen":22100,"ĠFinal":22104,"WK":22116,"ĠPrivile":22123,"ĠCC":22133,"124":22147,"126":22148,"outube":22160,"Widths":22165,"Ð¾ÑĢ":22167,"Ġsoftware":22170,"eid":22172,"ç¨":22173,"egg":22196,"ĠPerm":22202,"DBConstants":22205,"Ġot":22214,"ĠRad":22234,"getResourceAsStream":22241,"GA":22242,"JO":22243,"\"-":22253,"isson":22256,"ipment":22262,"ĠOptim":22270,"vere":22274,"Ġsol":22305,"Ġdos":22306,"220":22311,"millis":22314,"ĠPe":22320,"ĠÐ·":22325,"ãģ«":22328,"iu":22330,"ĠCart":22333,"oxid":22337,"elo":22346,"ĠqueryString":22351,"ĠbufferSize":22352,"BG":22357,"fly":22358,"iFieldSeq":22359,"intern":22364,"STRACT":22374,"ÐµÐ½Ð¸":22381,"Ġpu":22384,"acks":22385,"ĠSA":22394,"ĠAT":22395,"Software":22399,"HD":22400,"ĵį":22403,"Ġhl":22406,"nos":22418,"ĠDid":22423,"ĠStreet":22426,"121":22427,"WAS":22432,"Good":22437,"ĠLang":22447,";&":22452,"Sound":22453,"£Ģ":22456,"ĠRemoteException":22470,"urb":22473,"lar":22481,"psimPackage":22494,"!)":22495,"mor":22496,"Ġdao":22500,"ĠKernel":22506,"155":22512,"Nat":22513,"Vfs":22514,"Ġtransparent":22519,"IA":22526,"ç´":22527,"ĠBar":22536,"han":22545,"Ġmeter":22547,"ford":22548,"pushFollow":22569,"Ġ61":22570,"ĠSpace":22581,"readObject":22584,"ĠEnter":22590,"ife":22602,"ĠGateway":22610,"ĠSafe":22629,"ĠDro":22632,"ĠAltern":22634,"113":22641,"ClickListener":22644,"ĠâĶ":22659,"Standards":22697,"Ljava":22699,"Ġtap":22700,"ĠJournal":22702,"orderByComparator":22708,"halt":22713,"130":22723,"Gene":22726,"ĠwriteString":22735,"Alternative":22739,"CAC":22740,"fish":22742,"Ġbaos":22750,"ĠÎ":22753,"ĠSpark":22756,"eting":22770,"ãģĹ":22798,"ĠCustomer":22804,"admanager":22807,"Ġwebsite":22809,"RDD":22829,"isease":22839,"ĠInformation":22841,"SEGMENT":22842,"DBID":22853,"140":22856,"ĠBackup":22859,"getActual":22864,"Ġni":22871,"Colour":22893,"Deriv":22900,"INode":22906,"Hold":22910,"osp":22916,"Ġpermanent":22924,"137":22930,"ova":22932,"Ð±":22937,"yna":22943,"oku":22944,"PropertyType":22946,"Cut":22954,"Just":22955,"¶Ī":22956,"atan":22957,"ĠAjax":22961,"Ġ101":22969,"ĠLeg":22975,"ĠSIMP":22976,"MV":22981,"gens":23012,"Ġcam":23014,"Ġdur":23017,"ãģĮ":23021,"grab":23026,"Oracle":23031,"ĠCert":23032,"lia":23043,"ĠMicro":23044,"song":23046,"WithHeaders":23049,"ĠcompanyId":23055,"ĠStage":23064,"Nu":23071,"SHIFT":23078,"strand":23084,"Ġhr":23085,"Ġ37":23103,"ĠChrono":23109,"ÑĢÐ°Ð":23112,"ĠSDVariable":23116,"lac":23118,"andi":23119,"Ġ150":23121,"NextWithServiceResponseAsync":23126,"ĠSupplier":23129,"Ġcu":23135,"003":23140,"ĠRoll":23142,";;":23155,"Don":23156,"ktop":23158,"118":23161,"dal":23164,"ĠTele":23168,"ĠIcon":23183,"ĠAttr":23189,"HtmlTag":23191,"TB":23195,"ĠVideo":23201,"ĠCollector":23203,"OURCE":23217,"ateur":23220,"007":23222,"Ġles":23224,"ĠmaxLength":23226,"ĠIntegr":23245,"136":23248,"getDisplay":23254,"Ġmorph":23256,"ĠEdit":23271,"EndIndex":23275,"ABSTRACT":23277,"ĠJC":23283,"167":23286,"ABC":23287,"ĠSecure":23291,"mos":23294,"Ñİ":23295,"Longs":23302,"imes":23313,"Ġcomm":23314,"ĠDec":23318,"ami":23340,"...]":23344,"139":23349,"Multiplier":23359,"Ġran":23364,"Ġ47":23367,"Ġ51":23369,"CHANGED":23377,"kes":23379,"ĠMAR":23383,"respondent":23387,"ç«":23393,"partner":23398,"129":23399,"ĠLocalDate":23405,"Tango":23407,"ĠSl":23420,"ĠQR":23426,"seller":23438,"ĠCmsResourceFilter":23439,"ĠTrim":23440,"ĠisSet":23443,"Stud":23446,"æĬ":23458,"htm":23461,"FFDC":23467,"abil":23473,"ĠExcel":23479,")^":23483,"ÑĨ":23485,"ifer":23486,"ĠLike":23494,"ĠGUI":23495,"Lit":23504,"Ġ199":23505,"Ġ41":23508,"152":23514,"Hand":23519,"135":23528,"Ġ97":23529,"setFont":23539,"ĠFace":23542,"aud":23552,"omp":23557,"ATT":23559,"ruption":23565,"ĠMS":23587,"ĠHex":23590,"ledge":23592,"159":23610,"ario":23614,"ĠÂ":23623,"Ġ52":23628,"ĠtaskId":23630,"ĠCL":23641,"beg":23644,"Works":23646,"BetaApi":23651,"ito":23674,"Ġwall":23676,"Gr":23687,"Ġland":23696,"NotificationTemplate":23705,"uel":23732,"264":23746,"Autom":23747,"CW":23748,"iner":23749,"iful":23750,"awr":23755,"Ġang":23773,"SiteRoot":23779,"Occ":23790,"ĠPaged":23798,"lene":23800,"Costs":23807,"010":23809,"Volt":23812,"getKind":23815,"hel":23826,"ourc":23828,"156":23833,"ĠTraceComponent":23834,"Guid":23837,"ham":23838,"Ġgraphics":23848,"ĠTwitter":23853,"eleted":23855,"ĠBits":23863,"software":23869,"ĠNu":23878,"ĠStd":23883,"Hot":23909,"ĠPR":23914,"XL":23927,"such":23928,"àµ":23929,"ĥ¨":23930,"169":23937,"Ġ95":23953,"ĠRuns":23954,"InetAddress":23962,"annotationType":23972,"ZK":23980,"ĠCountry":24001,"ĠSIResourceException":24002,"ĠMonitor":24019,"|-":24026,"Ġmobile":24028,"Ġtechn":24043,"ableType":24045,"plans":24046,"Ġregistr":24049,"ĠMask":24064,"DES":24067,"2001":24071,"ury":24095,"ĠDialog":24099,"ester":24100,"ĠForward":24103,"Ġfalls":24108,"Its":24110,"Turn":24111,"rue":24112,"Ġson":24119,"ĠGE":24128,"ĠJav":24129,"bare":24141,"assis":24146,"ĠmethodNames":24150,"240":24155,"ĠÐ¼":24157,"Wiki":24163,"208":24168,"172":24170,"fol":24176,"raf":24179,"ĠCast":24181,"Ġposs":24189,"Jan":24196,"Ġincl":24198,"Ġ75":24208,"Mot":24215,"elete":24216,"ĠContract":24221,"ĠDistribution":24224,"JDBC":24226,"Water":24228,"Ġ(~":24231,"Ġjedis":24236,"Para":24243,"jk":24246,"ĠSyn":24249,"oph":24262,"ĠAtlas":24266,"łéĻ¤":24273,"158":24281,"Ð½Ñĭ":24283,"ĠTranslation":24303,"ĠFlags":24307,"ements":24316,"Ġach":24335,"Performance":24348,"èĬ":24352,"ĠTyp":24357,"Ġbeg":24359,"singletonList":24370,"ĠXMLStreamException":24373,"CWSIP":24375,"ĠTOP":24381,"ĠPL":24384,"ĠMaven":24385,"254":24391,"DJ":24402,"abol":24407,"ĠPick":24411,"Ġkn":24412,"Ġlit":24426,"ĠPrivileged":24439,"oda":24443,"ĠGame":24462,"bol":24475,"ugar":24479,"ĠNT":24497,"ĠFra":24499,"tereo":24519,"2013":24530,"çķ":24538,"quet":24541,"Ġserv":24543,"ief":24545,"151":24547,"2006":24549,"ĠMozuUrl":24553,"ura":24558,"åĳ":24570,"emma":24575,"ĠIBond":24579,"ĠPA":24580,"ĠBin":24581,"Ġgem":24596,"dings":24609,"well":24610,"Occurrence":24634,"sal":24635,"ĠCr":24636,"yl":24645,"ÛĮ":24646,"187":24653,"134":24655,"ĠHealth":24659,"Jo":24663,"Ġ46":24671,"Ġ...)":24672,"bow":24681,"Lexicon":24697,"jet":24703,"Ľå»º":24704,"184":24715,"installation":24716,"zi":24725,"TypeArguments":24729,"Ġ5000":24736,"ĠbyteArray":24737,"unds":24751,"ĠEqu":24752,"ItemStream":24753,"earch":24765,"ences":24772,"ORDERED":24775,"ĠPeer":24784,"Ġjp":24786,"ĠListen":24789,"Ġtrait":24790,"142":24792,"Ten":24803,"ĠCatch":24808,"ĠjPanel":24809,"ĠLi":24810,"Ġpolar":24813,"ĠMoney":24815,"ĠMost":24819,"ĠDisk":24822,"ĠSmart":24824,"601":24826,"ĠSent":24833,"ĠLibrary":24839,".]":24841,"320":24850,"Human":24865,"æĥ":24867,"asp":24868,"PropertyDefinition":24887,"ãģ¦":24895,"Let":24920,"<?>,":24935,"ibr":24944,"bert":24945,"138":24947,"getStackTrace":24979,"ĠCouch":24981,"EF":24992,"ĠkeyStore":24998,"ĠBranch":25001,"ĠgetC":25014,"Office":25016,"Solid":25036,"ĠEvaluation":25040,"146":25049,"ĠElements":25053,"pres":25062,"Ġnls":25064,"ROL":25069,"149":25074,"phas":25085,"ĠTransformation":25091,"edy":25099,"Ġhh":25100,"ĠOrient":25119,"Sketch":25128,"ĠAnt":25137,"omo":25159,"ĠIG":25160,"ĠFall":25162,"Molecule":25174,"Ã¨":25180,"ĠKafka":25190,"ĠFramework":25197,"underaMetadata":25198,"WM":25199,"¤æĸŃ":25200,"INS":25207,"FX":25225,"dia":25243,"xen":25252,"ago":25255,"ĠRemember":25259,"CARD":25269,"Pan":25270,"Ġmes":25288,"Ġlegal":25322,"ĠForeign":25324,"ĠLess":25335,"Tor":25343,"Ġblog":25345,"WebApp":25357,"Fa":25363,"Ġmind":25371,"ĠClick":25373,"ĠCond":25379,"iko":25413,"writeEnd":25425,"365":25430,"TypeEClass":25443,"ĠVi":25447,"179":25450,"sax":25462,"Tap":25478,"ĠMA":25491,"ĠBrowser":25494,"157":25499,"ĠMaster":25519,"ãģª":25528,"Ñī":25541,"ĠTor":25545,"ĠCloseable":25556,"wik":25565,"Ġant":25573,"ĠTermin":25589,"743":25591,"Ġbeans":25597,"ĠGive":25600,"paration":25602,"spector":25608,"ĠDelta":25613,"ĠManifest":25614,"Mel":25615,"nice":25616,"ara":25617,"adresse":25618,"rise":25621,"La":25638,"rock":25642,"rown":25645,"302":25658,"ley":25661,"Ġ2019":25677,"Nm":25679,"ĠSem":25683,"ĠUS":25691,"Vo":25700,"ãĥ³":25713,"incrementAndGet":25717,"ĠLight":25727,"700":25737,"Near":25739,"ĠReal":25751,"Ġ72":25758,"Die":25763,"iem":25765,"Ã°":25766,".-":25780,"hu":25781,"ĠEditor":25797,"?,":25821,"EA":25822,"ĠMigration":25834,"ĠPhase":25841,"Est":25846,"Motion":25847,"ãĥĥ":25859,"è¨":25865,"ĠJan":25871,"ĠHeat":25875,"burn":25879,"ķãĤ":25880,"ĠJDBC":25883,"Ġparty":25886,"binder":25887,"ãĤ¹":25890,"çĽ´":25891,"iak":25895,"ĠNames":25898,"Fap":25915,"ku":25917,"ĠMV":25920,"ĠStringBundler":25921,"anks":25930,"bas":25941,"cz":25942,"yen":25943,"åł":25944,"ĠCas":25946,"203":25955,"RU":25965,"2012":25971,"ãĥ«":25972,"Ġgreat":25989,"Ġ53":26001,"IFIER":26006,"staff":26009,"205":26029,"ReqVars":26034,"ĠPlain":26035,"encer":26050,"ĠservletContext":26056,"IUS":26058,"ĠAff":26067,"Ġ365":26069,"Ġæĺ":26075,"interpret":26076,"sis":26081,"ZZ":26108,"erty":26112,"ĠLa":26139,"Ġten":26152,"Logo":26159,"Ð¾Ð¼":26163,"unst":26168,"MESS":26173,"ollar":26182,"EG":26190,"ĠFac":26198,"AndNext":26205,"165":26206,"ELL":26207,"ĠRegular":26209,"hst":26217,"áº":26218,"arct":26219,"ots":26248,"ĠOld":26275,"Division":26285,"áĥ":26293,"Ġsch":26294,"ibly":26295,"osh":26305,"uz":26306,"ĠÑĥ":26307,"Gran":26324,"yg":26344,"nio":26360,"Ġ49":26375,"éĽ":26414,"ĠAng":26424,"131":26425,"ĠUnder":26443,"ãģ¯":26447,"charts":26450,"Sin":26457,"ien":26458,"rust":26459,"ÙĪ":26461,"aby":26463,"ĠMet":26469,"ĠAttributeValue":26479,"ĠGreen":26492,"wit":26500,"ĠAB":26502,"ĠOff":26508,"ĠGraphics":26517,"DV":26523,"Ø±":26524,"ĠONE":26525,"133":26538,"ĠYear":26562,"ĠCar":26571,"Construction":26573,"ĠPress":26574,"ĠPlay":26575,"Ð½Ð¾":26580,"hang":26589,"Ġwid":26594,".;":26604,"Ġforum":26611,"Ġjo":26616,"Kam":26629,"çĻ":26633,"alo":26634,"uter":26635,"ĠHave":26637,"ĠDTM":26659,"Son":26676,"storm":26680,"ĠYour":26690,"BOT":26700,"outputStream":26706,"Ġmini":26708,"Ġrelax":26713,"ĠFormula":26716,"ĠcpDefinition":26717,"Ġ(<":26725,"apse":26731,"aware":26735,"Bio":26748,"RNA":26750,"Ġåħ":26760,"Books":26762,"198":26774,"ĠServices":26775,"Digital":26779,"ĠParallel":26780,"gridx":26793,"177":26798,"ĠâĢľ":26802,"ĠCD":26807,"ĠFlash":26820,"Ġau":26830,"Street":26831,"cription":26835,"Metal":26854,"235":26856,"UX":26857,"Wi":26858,"oning":26859,"ĠDr":26865,"ĠEscape":26866,"ĠTypeDesc":26869,"SIENT":26870,"Ġå¤":26872,"Ð¾Ð±":26873,"ĠScheduled":26875,"yo":26885,"178":26892,"ski":26895,"Ġideal":26901,"amento":26903,"unge":26908,"oute":26912,"LayoutParams":26916,"Ġwer":26928,"ĠDC":26929,"143":26936,"176":26938,"videos":26941,"gis":26949,"Ġhalt":26951,"Ġgold":26952,"154":26960,"174":26962,"ServiceResponseWithHeaders":26963,"éĺ":26973,"umi":26976,"ĠAcc":26977,"PrevAndNext":26994,"aur":27001,"ĠDial":27007,"ĠInv":27008,"ĠFirefox":27022,"ĵįä½ľ":27026,"ena":27028,"orted":27032,"ventions":27033,"avy":27036,"amt":27053,"eur":27064,"ĠFactor":27068,"berg":27069,"elling":27071,"dz":27080,"craft":27094,"145":27109,"FINEST":27112,"ĠCross":27121,"ĠMc":27123,"COMPAT":27131,"autos":27132,"5000":27136,"BM":27137,"WF":27139,"Ġhis":27141,"Ġgal":27190,"ĠOper":27192,"ideos":27193,"MessageFormat":27194,"gridy":27200,"ĠÐ±":27202,"ogram":27210,"ĠRet":27216,"Prof":27237,"ĠLim":27244,"186":27249,"Ġessent":27254,"Bill":27258,"isp":27260,"301":27284,"dB":27287,"ades":27304,"ĠSoy":27309,"Bon":27312,"hb":27313,"Ġbos":27315,"ãĥĪ":27333,"appy":27344,"170":27349,"ASURE":27351,"Er":27358,"ĠTools":27364,"ĠShell":27370,"wor":27377,"¿½":27378,"stars":27379,"ĠFit":27385,"234":27403,"Amb":27404,"Insets":27408,"ĠWorld":27411,"CES":27414,"ĠWin":27436,"Ol":27447,"WC":27448,"prim":27463,"188":27468,"2019":27471,"232":27475,"Ġdynam":27500,"ĠAsk":27504,"ĠTheme":27506,"arden":27507,"Parallelism":27518,"Halt":27520,"ste":27523,"212":27542,"Rand":27543,"Ġfut":27545,"hasAccess":27549,"209":27556,"Air":27566,"uls":27569,"ĠPower":27571,"Learning":27574,"206":27580,"Permanent":27590,"Facebook":27591,"Rat":27597,"seud":27599,"Internet":27600,"uet":27617,"ams":27621,"ĠMut":27626,"005":27627,"adin":27650,"Ġcomb":27652,"gf":27667,"ÙĨ":27668,"refer":27670,"elia":27672,"ĠSales":27673,"acts":27678,"Demo":27698,"bal":27701,"ĠEng":27713,"Ġå°":27715,"KS":27721,"ĠVal":27744,"ĠSom":27749,"ĠRevision":27754,"182":27760,"306":27763,"ames":27775,"ofs":27779,"TraceElement":27782,"Ġ192":27790,"ensemble":27795,"quer":27797,"ĠLif":27799,"ĠGT":27801,"Intern":27830,"ried":27831,"ivo":27833,"ĠBC":27835,"cean":27853,"ĠCommun":27864,"ĠKNX":27867,"national":27882,"AnnotationValue":27897,"Ġæī":27900,"aka":27911,"238":27925,"Mi":27926,"jcr":27943,"kel":27944,"CommerceDiscount":27957,"Hop":27964,"gran":27978,"UDE":27984,"Ġstim":27990,"ĠCover":27991,"ĠII":28019,"222":28028,"Album":28041,"ĠMono":28051,"ĠPrincipal":28054,"Sun":28058,"visitMethod":28078,"enders":28091,"Und":28093,"CallArguments":28099,"189":28101,"Ġpersonal":28144,"aga":28153,"ĠSn":28156,"ĠCensus":28157,"ĠMachine":28159,"2009":28167,"GU":28173,"opa":28178,"181":28185,"ĠToo":28198,"roman":28202,"West":28223,"Ãł":28225,"pton":28228,"Ġ85":28238,"Ġí":28250,"Ġtube":28253,"ãģ§":28265,"Ġlife":28272,"Ġstory":28278,"May":28309,"Ġeb":28315,"ĠcaseIfcObject":28326,"Ġmotor":28354,"ĠOriginal":28357,"Capt":28360,"Tech":28361,"ois":28364,"è¶":28366,"trad":28368,"ĠLF":28408,"ĠKB":28414,"ĠCanvas":28418,"ï¿½":28427,"kf":28458,"»åĬł":28460,"ani":28462,"ĠRunning":28478,"½æķ°":28486,"Ð¾Ðº":28497,"£ĢæŁ¥":28502,"Fk":28503,"these":28522,"oles":28533,"Ġsus":28537,"Ġhg":28539,"ĠFragment":28557,"stra":28565,"getO":28568,"phon":28574,"auss":28584,"Wall":28592,"iers":28593,"ĠSynchron":28598,"ĠIV":28600,"Ġrobust":28605,"153":28612,"hedral":28624,"gold":28627,"Ġmpx":28631,"emb":28632,"anta":28636,"kr":28663,"ĠPa":28667,"ĠMaterial":28668,"ĠDN":28670,"ĠOf":28673,"ĠOct":28674,"ensation":28675,"ĠJenkins":28676,"ĠExchange":28681,"185":28686,"ĠinternalRequest":28688,"TRANSIENT":28690,"236":28698,"ipro":28702,"ifPresent":28705,"works":28714,"191":28722,"ĠLower":28743,"ĠUpgrade":28747,"ĠItems":28752,"!!!":28753,"ĠProblem":28757,"422":28760,"·»åĬł":28766,"ëĭ":28767,"agen":28769,"ĠRS":28772,"ĠChem":28779,"music":28792,"yt":28793,"zo":28794,"ays":28797,"ĠOrganization":28813,"putShort":28819,"rass":28835,"ering":28837,"Ġtrunc":28838,"ĠAddition":28844,"Pet":28859,"Ġflex":28861,"Ġbio":28863,"Ġextr":28865,"phy":28869,"¢«":28885,"ĠBio":28887,"Ġ55":28890,"ĠDeal":28891,"Ð½Ð°":28896,"Computer":28899,"Â°":28902,"Declar":28907,"ĠPin":28908,"ĠRA":28910,"ContextFactory":28912,"Ġprim":28917,"lace":28933,"ĠFront":28940,"Ġpartner":28949,"ĠFacebook":28957,"Bands":28960,"PLAY":28962,"zn":28966,"Ġsuspend":28968,"ĠFamily":28970,"BV":28987,"ĠFTP":28995,"ĠCPDefinition":29020,"Land":29027,"Tube":29028,"elen":29031,"ĠScore":29060,"ĠGrad":29065,"âĢĵ":29071,"´åĲĪ":29083,"ĠWrong":29093,"bee":29096,"ChannelConstants":29099,"Ġvo":29117,"ĠRT":29119,"ĠBook":29121,"Ġ96":29128,"éķ":29137,"ĠÄ":29159,"ĠCT":29162,"rightOperand":29172,"ĠVisual":29188,"motor":29190,"Ð¶":29197,"ĠCE":29202,"ĠEffect":29206,"Ã³n":29224,"Mar":29226,"edValue":29230,"abler":29233,"ĠWave":29267,"NetworkGateway":29271,"rez":29291,"DSL":29304,"ĠModels":29306,"thin":29316,"SCRI":29328,"ãĤ¤":29333,"ĠBounding":29341,"210":29346,"ĠMed":29350,"ĠMouse":29363,"éĴ":29376,"ĠRC":29380,"ĠHistory":29383,"MEASURE":29384,"ĠJo":29385,"375":29399,"ĠBIT":29409,"ifcStructural":29421,"ĠDER":29442,"anti":29445,"gam":29474,"stick":29476,"Ġmen":29480,"disc":29519,"Ã§Ã£o":29532,"211":29534,"gebra":29544,"ĠCircuit":29557,"wal":29565,"Deg":29569,"ãĤ¯":29581,"Ġæł":29582,"eu":29589,"æ¡":29591,"Ġwar":29595,"Ùħ":29623,"ĠSU":29627,"ATILE":29632,".[":29655,"JD":29656,"bàº":29689,"ĠCampaign":29695,"ĠNorm":29696,"ĠChat":29708,"ĠHyper":29723,"ĠÐ·Ð°Ð":29725,"VP":29727,"190":29745,"Ġlim":29749,"Ġ2010":29782,"ĠBroadcast":29790,"230":29792,"FV":29793,"Mc":29795,"oire":29796,"Beg":29809,"ogene":29810,"Tod":29822,"setIts":29827,"ĠChe":29828,"ĠTrust":29835,"207":29838,"Ġ2012":29841,"à®":29856,"333":29871,"2004":29875,"yi":29886,"ita":29889,"ActionListener":29897,"ya":29913,"asi":29916,"ĠTell":29917,"ĠDist":29922,"urs":29953,"terior":29956,"ĠSi":29958,"ĠACT":29960,"But":29980,"rade":29986,"Ġ43":29994,"AUGE":30009,"ĠScanner":30010,"getReturn":30018,"ĠSafari":30022,"ĠDot":30025,"GED":30027,"ĠPlural":30032,"Hybrid":30035,"ĠCrypt":30049,"USD":30064,"&#":30076,"Amt":30077,"ĠEc":30087,"162":30090,"Ġcool":30110,"urnament":30112,"ĠWE":30119,"Ð¾ÑĤ":30127,"Cle":30138,"athon":30150,"Regional":30170,"265":30171,"ifcRel":30172,"games":30177,"åģ":30185,"ĠFed":30192,"ĠOur":30193,"Frag":30210,"Ġprov":30218,"Ð¸ÑĤ":30232,"ecord":30253,"ĠWildcard":30254,"ĠSIConnection":30266,"autom":30273,"fan":30275,"ĺì":30277,"Ġsex":30279,"ĠBB":30284,"ĠGB":30285,"163":30295,"BIND":30297,"Episode":30311,"bing":30313,"amed":30316,"ĠIts":30321,"Atlas":30322,"iton":30351,"Ġtan":30353,"quart":30358,"ĠNever":30375,"/-":30382,"Ġ01":30394,"Ġ197":30396,"ĠDen":30400,"itative":30426,"ĠStarts":30446,"Ġlose":30454,"RY":30486,"ĠIndividual":30498,"Ġcomputer":30512,"ĠFO":30535,"Ġpour":30565,"ido":30567,"ĠMount":30572,"175":30581,"æ»":30593,"Ġexpl":30602,"Ġ62":30612,"ĠAnimation":30614,"uml":30634,"splitter":30649,"ãģŁ":30658,"linder":30659,"Multicast":30662,"ĠLegacy":30665,"Ġsocial":30673,"Ġshop":30675,"239":30700,"åŁ":30704,"anon":30705,"Ġwild":30706,"ĠDT":30708,"ĠBel":30713,"ĠEnglish":30731,">-":30733,"Moment":30735,"Ġbrand":30739,"tek":30742,"yan":30763,"ettes":30765,"226":30780,"Planar":30785,"ĠMarker":30793,"214":30802,"3000":30803,"æº":30805,"SEG":30815,"233":30839,"báŀ":30842,"ĠERR":30845,"ato":30846,"ĠArc":30859,"ĠSeek":30864,"1970":30867,"etty":30886,"ilde":30890,"ĠCompilation":30906,"VOLATILE":30910,"GW":30915,"ori":30918,"ĠRep":30928,"161":30933,"akt":30952,"Ġ76":30958,"inn":30969,"ĠPing":30974,"ĠTerminal":30989,"bang":30996,"ĠLab":31009,"ĠIntern":31010,"ĠrowKey":31017,"2011":31027,"osc":31035,"Ãº":31036,"Øª":31037,"eca":31045,"ĠDeep":31050,"GenericType":31058,"War":31066,"Ŀå§ĭ":31071,"ationException":31073,"ĠPH":31075,"141":31087,"Ban":31101,"Jcr":31103,"Lin":31104,"ben":31105,"ĠIde":31183,"ĠPublisher":31202,"iat":31209,"ĠSat":31214,"ĠTT":31215,"IDENT":31217,"173":31226,"ĠbeanClass":31232,"ĠDesign":31234,"ĠLabels":31235,"idade":31247,"Ġmit":31249,"Ġdcm":31250,"oney":31273,"onte":31276,"ĠFE":31280,"opes":31283,"Comm":31285,"Spring":31308,"lor":31311,"ÅĽ":31312,"Ġtrend":31325,"ĠâĢĵ":31328,"ĠStatistics":31331,"steam":31343,"imeter":31352,"ĠHard":31355,"ĠEM":31356,"ProfileDef":31362,"eigen":31367,"hose":31370,"pil":31371,"Ġhom":31381,"ĠGal":31386,"Ġ202":31415,"ills":31417,"183":31427,"ÅĤ":31443,"ĠCB":31452,"redo":31456,"inheritDoc":31477,"Ġmir":31489,"TypeRef":31492,"ĠGPS":31498,"Ġ301":31500,"olds":31502,"Ġ68":31509,"GM":31526,"spir":31542,"ĠInternet":31544,"opsis":31555,"Ġç":31567,"ĠSF":31572,"ĠQuant":31599,"ĠSelf":31615,"ĠGrant":31621,"ĠIntro":31632,"rode":31656,"ĠTar":31660,"ĠRuby":31662,"ĠjsonGenerator":31665,"NR":31685,"ĠCa":31716,"Universal":31718,"ĠHidden":31721,"Ġ54":31726,"Teams":31734,"ĠBackground":31735,"ÐºÐ°":31739,"Protein":31745,"ocal":31746,"DERIVED":31757,"ente":31772,"igraph":31780,"ĠJBBP":31786,"systems":31798,"Ġ2013":31805,"900":31811,"Si":31816,"eme":31817,"éģ":31821,"apon":31830,"Ġmed":31833,"Ġtoler":31864,"ĠCMS":31867,"608":31883,"jan":31896,"stan":31899,"ĠSolr":31903,"ican":31904,"ĠHead":31911,"ĠGlob":31913,"yd":31931,"Ġnap":31934,"Ġbas":31938,"ĠAggreg":31958,"%.":31962,"getCms":31971,"ĠInner":31975,"ĠHome":31976,"Edition":31984,"urm":32002,"ĠSk":32003,"idel":32008,"portlet":32041,"ExpressionAccess":32052,"èģ":32072,"Personal":32094,"omi":32107,"ĠSID":32108,"ĠcaseIfcRoot":32129,"Ġpor":32175,"ĠPV":32186,"GENERATED":32213,"iot":32224,"getJvm":32226,"extr":32227,"Ð°ÑĢ":32240,"Ġ2011":32241,"ĠPanel":32265,"âľ":32295,"éļ":32296,"ometric":32302,"ĠNA":32303,"acted":32307,"Ġanalog":32308,"Wind":32334,"bird":32335,"tens":32336,"enn":32338,"ional":32339,"Ġfrequent":32340,"Ġeh":32347,"Ġå¯":32362,"anda":32378,"ĠTM":32381,"ĠRoad":32384,"015":32393,"Cube":32411,"Grab":32412,"³Ð¾":32418,"Ġew":32419,"ĠSPI":32428,"ĠTick":32430,"Ġextreme":32440,"clipse":32464,"Ð¹":32475,"obar":32484,"Ġ999":32510,"Ġgi":32513,"ipes":32515,"ĠDNA":32519,"386":32530,"ilo":32541,"Prov":32543,"eph":32577,"ĠAir":32581,"ronym":32588,"çº¿":32607,"Bas":32610,"het":32615,"à»":32618,"institute":32629,"374":32634,"How":32647,"KW":32648,"Ma":32649,"ãģ¾":32673,"ĠTouch":32698,"ĠLow":32705,"248":32715,"270":32719,"450":32729,"429":32730,"ĠPlayer":32743,"257":32751,"193":32752,"Ġ102":32787,"Sas":32811,"WO":32812,"stab":32813,"aph":32816,"ĠTs":32818,"Ġ66":32826,"Ġpassive":32828,"2008":32831,"231":32833,"ometer":32850,"igen":32851,"ĠPad":32854,"Mol":32878,"Music":32879,"ĠSocial":32887,"Ġhb":32888,"Advisor":32900,"ĠWorks":32907,"ĠCompact":32911,"Anti":32912,"kam":32919,"íĺ":32921,"atlas":32924,"deck":32925,"ĠInc":32936,"ĠInstrument":32937,"Prec":32942,".):":32964,"Ġfre":32967,"Aud":33006,"deb":33010,"JLabel":33047,"Ġmor":33054,"ema":33056,"Ġher":33059,"ibernate":33063,"ĠLED":33070,"ĠWA":33071,"hom":33103,"æ¸":33105,"Ĭ¶":33106,"ĠCron":33112,"ĠIp":33114,"Ġinternet":33138,"amin":33148,"Ġhal":33151,"ĠMIL":33154,"245":33171,"Ġë":33193,"itro":33195,"ĠSlot":33198,"Arm":33200,"arna":33205,"Ġ98":33214,"oh":33238,"ĠSender":33242,"ĠSensor":33243,"ĠPoll":33245,"Road":33250,"HtmlStyle":33255,"Sch":33268,"uy":33269,"asks":33276,"ĠEs":33277,"Ġ69":33283,"Ġchem":33312,"Har":33328,"Pres":33329,"Wild":33331,"Ĥ¡":33334,"ĠPM":33340,"ĠTax":33373,"Energy":33375,"etra":33404,"edition":33408,"eller":33409,"ocks":33426,"quir":33446,"ati":33515,"Ġdans":33520,"ĠMini":33524,"ĠREG":33541,"ĠåŃ":33542,"EU":33597,"bom":33599,"ĠBear":33613,"ikes":33623,"ĠAssociation":33625,"IBLE":33626,"Ŀå§ĭåĮĸ":33631,"NEL":33635,"¹éħį":33638,"emale":33642,"Geometric":33669,"315":33672,"East":33673,"FH":33674,"rup":33675,"327":33696,"Mal":33714,"Miss":33715,"MessageInfo":33728,"oke":33731,"rets":33734,"cyc":33739,"215":33756,"ĠDetails":33769,"warf":33792,"ìĿ":33805,"Ġill":33806,"upro":33811,"223":33831,"eline":33846,"ĠRAM":33852,"ĠVol":33858,"Also":33864,"228":33867,"CHANGEABLE":33876,"Ġlack":33932,"ĠED":33939,"ĠCredit":33963,"æĻ":33973,"ĠÌ":33974,"Ġhem":33984,"Ġpositives":33998,"ĠKill":34002,"obo":34037,"Ġ110":34070,"Ġgn":34071,"Ġkam":34079,"ĠExperiment":34084,"Ãµ":34117,"Ġru":34125,"UNSETTABLE":34135,"405":34138,"Electric":34152,"275":34155,"yc":34159,"ĠTC":34165,"ĠAssociate":34195,"456":34198,"Ġnational":34204,"ĠTe":34211,"Ġcha":34216,"isher":34222,"UNSET":34223,"ĠGuide":34245,"ĠMass":34261,"ĠDigit":34262,"oggle":34270,"yte":34295,"illy":34299,"379":34317,"213":34333,"å¢":34339,"Ġlas":34344,"ĠIM":34346,"296":34362,"North":34378,"aters":34382,"ĠSte":34386,"ĠAsc":34389,"ĠWi":34395,"Tom":34422,"¡®":34423,"ĠCop":34431,"ĠExpress":34449,"262":34458,"ĠlocalVarQueryParams":34467,"hyp":34479,"Ġtour":34485,"ulture":34486,"ĠPS":34495,"offs":34514,"2007":34519,"anie":34533,"itrus":34534,"ĠBot":34547,"ĠProt":34556,"Ġdigital":34573,"ĠOrigin":34575,"Ha":34581,"zing":34584,"DIST":34601,"KA":34618,"National":34619,"âµ":34622,"ĠÃ©":34623,"Ġ:)":34626,"Refer":34629,"ARK":34643,"252":34652,"ĠÃł":34667,"Ide":34675,"Sam":34676,"ebug":34679,"çľ":34682,"iger":34690,"neo":34692,"Vict":34718,"mak":34720,"spf":34730,"171":34754,"1999":34774,"getOther":34782,"Ġeff":34790,"JA":34823,"Ġà¤":34827,"rivate":34834,"Ĭ¶æĢģ":34864,"TION":34866,"ķĨ":34868,"ĠHist":34882,"Mini":34885,"ĠFluid":34895,"Ïģ":34909,"à©":34910,"icular":34914,"ĠMobile":34922,"253":34931,"ICS":34939,"ĠOrd":34942,"ç¥":34967,"Bud":34977,"ĠUSB":34981,"kern":35000,"ĠStreaming":35001,"Publishing":35002,"ĠæĹ":35004,"ĠPortal":35011,"ĠIT":35029,"Systems":35034,"244":35035,"ringe":35046,"NU":35052,"orno":35057,"ĠLive":35071,"icht":35077,"EEE":35093,"Hel":35102,"280":35146,"GH":35147,"oration":35150,"ĠCenter":35152,"ĠMET":35158,"Ġkr":35162,"ongs":35163,"ĠUni":35174,"303":35180,"ĠÐŁ":35182,"ĠâĪ":35189,"ĠCurl":35208,"ĠAnother":35210,"Ġconc":35212,"ĠMAN":35214,"258":35224,"Ġ126":35231,"ĠSwift":35237,"fre":35250,"ĠRational":35258,"Ġune":35261,"ĠCentre":35289,"Ġeid":35305,"ĠWas":35311,"DIALOG":35320,"oner":35346,"eler":35350,"ĠCour":35357,"addy":35360,"246":35374,"MN":35399,"igar":35413,"ĠCS":35414,"liner":35434,"288":35435,"260":35444,"jam":35450,"ĠSun":35458,"ĠCy":35462,"liste":35464,"ĠHo":35468,"Prem":35473,"Fol":35510,"ĠSur":35517,"Ġanti":35522,"Ð¸Ð½":35547,"KI":35568,"Â©":35573,"Fi":35619,"Fund":35620,"gent":35621,"sse":35623,"ĠIns":35637,"Ġ67":35646,"ĠdB":35673,"ĠMar":35679,"ĠJFapChannelConstants":35688,"ĠMatches":35702,"itel":35725,"Ho":35772,"mir":35778,"ĠNa":35782,"ĠRec":35797,"ĠStand":35801,"Ð¾Ð¹":35812,"ĠGridBagConstraints":35821,"440":35832,"urch":35837,"Ġ(=":35839,"aba":35841,"oman":35843,"ĠABC":35846,"ĠPi":35849,"spar":35850,"ĠRefer":35855,"750":35871,"Bra":35883,"Ir":35885,"isc":35890,"Ġamt":35891,"ĠEasy":35902,"ĠFutures":35950,"Ġmaximal":35958,"ĠðĳĦ":35986,"ĠTim":35990,"Ġball":36032,"hread":36070,"Ġcaptcha":36075,"idge":36078,"ĠDiv":36087,"ĠHack":36090,"309":36120,"Bal":36122,"ĠIon":36140,"iente":36152,"lift":36174,"rog":36180,"ĠTicket":36185,"ĠPixel":36188,"ĠWordPress":36215,"isi":36228,"ĠSci":36232,"had":36278,"yz":36280,"Ġintr":36284,"006":36287,"ĠImages":36304,"307":36305,"447":36309,"311":36319,"ento":36327,"Ġ79":36346,"Ni":36360,"VV":36401,"ĠmVisitor":36410,"ando":36411,"ãģ¨":36440,"ĠDA":36475,"ĠDH":36476,"bigDecimalValue":36492,"978":36509,"kan":36514,"wild":36516,"¹æį®":36518,"ĠSpring":36526,"Community":36559,"Ġtel":36569,"ĠiOS":36577,"oster":36585,"Ġedition":36592,"RepresentationItem":36610,"IFICATION":36614,"Cam":36616,"bis":36618,"getMsg":36624,"IndexOf":36637,"Ġnumer":36643,"hier":36681,"sta":36684,"Ġ(+":36686,"Ġsed":36692,"ĠPropag":36708,"zend":36731,"ĠDEL":36742,"archar":36746,"Ġformal":36757,"229":36763,"Sib":36786,"Ø¯":36792,"cow":36797,"ĠTrain":36800,"ĠTraining":36801,"Ġdisc":36820,"IBM":36837,"ril":36861,"rings":36862,"una":36866,"ida":36867,"ĠMix":36875,"ĠMutation":36876,"Ġwest":36883,"ĠGUID":36888,"ĠVI":36889,"ĠApache":36911,"Sal":36928,"bes":36929,"tro":36931,"oni":36933,"Ġ240":36948,"ĠStub":36958,"227":36965,"ĠMovie":36970,"ĠâĢĺ":36975,"ober":36984,"Ġnam":36988,"ĠSMS":36992,"ENS":37008,"ĠReading":37010,"IfcRel":37022,"²Ī":37038,"oro":37041,"ĠCM":37048,"ĠDublin":37055,"ĠVT":37109,"ĠÐ½Ð°":37134,"camp":37147,"ĠStates":37180,"247":37190,"ãĥ©":37198,"217":37206,"Pas":37207,"stru":37215,"ĠSpa":37217,"008":37226,"Ġ3000":37230,"HB":37259,"uis":37263,"alts":37285,"Ð¾Ñģ":37296,"277":37298,"Ġbet":37320,"Ġvirt":37324,"Ġgro":37326,"ĠFork":37331,"ĠDesc":37338,"CHAN":37349,"uo":37390,"Ãª":37441,"ĠPerformance":37480,"aq":37487,"edItem":37490,"umen":37492,"imax":37495,"Ġ410":37508,"rer":37552,"Â§":37553,"Nov":37573,"protostuff":37580,"Ð¾Ð½":37642,"237":37644,"dyuproject":37652,"ACH":37662,"ÅŁ":37668,"Ġmusic":37675,"ĠSch":37679,"Ġdem":37685,"ĠOT":37691,"ÑĦ":37735,"idad":37741,"ications":37745,"ĠNavigation":37748,"Ġsal":37801,"Et":37847,"«ĺ":37855,"Ġpal":37858,"Ġmach":37863,"ĠPause":37870,"Ġkern":37879,"Ġ91":37891,"Ġè§":37901,"ĠOpera":37908,"pers":37916,"Ġaud":37924,"Partner":37937,"305":37946,"268":37951,"ancial":37962,"HG":37967,"mart":37972,"ĠSide":37977,"Ġhor":37980,"Ġå½":38007,"amilton":38017,"²Īíĺ¸":38025,"Ġbis":38036,"Ġ!!!":38040,"294":38080,"UK":38096,"Ut":38097,"rist":38104,"Ġå®":38134,"ĠLeaf":38135,"hou":38152,"uma":38166,"Ġvideos":38167,"Ġ146":38169,"serie":38170,"ĠFax":38171,"Ġ270":38176,"348":38194,"ĠPhoto":38197,"ãĥķãĤ":38198,"idu":38221,"ĠGre":38236,"ĠPrice":38251,"ĠEarth":38261,"Ġfavor":38278,"ums":38281,"Ġtrad":38286,"ĠProm":38294,"bye":38299,"Ġ88":38309,"gression":38314,"bur":38340,"esi":38346,"ĠBR":38362,"TRI":38371,"ĠcaseIfcObjectDefinition":38397,".).":38398,"Fan":38400,"Ø³":38407,"ening":38408,"Ġ112":38419,"ĠEnterprise":38468,"igi":38491,"ĠLen":38502,"ĠWiki":38504,"ĠChemical":38523,"iar":38548,"loy":38557,"emat":38559,"Ġ122":38563,"igned":38566,"Ġå¼":38594,"Che":38613,"ÙĦ":38620,"ìĦ":38621,"ĠMT":38631,"995":38649,"ĠMagic":38672,"bright":38684,"jm":38685,"ekt":38707,"?!":38728,"Ġ(...)":38737,"Ġwww":38741,"Ġje":38749,"Ġ160":38759,"356":38762,"Fitting":38773,"Ou":38786,"å¡":38787,"ĠAdvanced":38829,"ĠShopping":38844,"kh":38849,"è£":38851,"iders":38854,"ĠOracle":38862,"Ð³":38902,"cep":38905,"ãĥª":38946,"ĠMicrosoft":38967,"ĠKE":38978,"icer":38983,"Ð¸Ðº":39014,"Fr":39024,"wy":39029,"ĠSpin":39041,"rane":39066,"bling":39067,"lok":39102,"ĠdÃ©":39103,"Ġ125":39107,"444":39137,"Helm":39159,"mach":39166,"ĠHand":39176,"South":39200,"366":39205,"Ġlie":39206,"³»":39229,"orPeriod":39232,"Ġov":39237,"ĠJulian":39251,"Ġ84":39262,"Wikipedia":39278,"Ġfan":39288,"Ġjcr":39301,"Timex":39306,"periodInfo":39326,"ãĤ¿":39329,"Â·":39352,"ady":39360,"ĠSass":39363,"Ġ254":39368,"ĠWind":39372,"ĠGene":39374,"241":39389,"358":39391,"Ġneuron":39401,"getDialog":39419,"ĠPaint":39428,"Beat":39442,"ĠDeleg":39444,"Ġrig":39480,"Ġpil":39483,"Ġdam":39487,"emann":39488,"pps":39494,"TimeMillis":39497,"ĠGl":39499,"éĵ":39543,"ê°":39544,"Ġben":39548,"strat":39551,"plant":39553,"ĠNEXT":39554,"2003":39576,"Sa":39602,"law":39603,"ipa":39625,"phys":39629,"Ġ108":39633,"357":39638,"éĤ":39663,"Ġhyp":39670,"ĠAA":39673,"ĠMM":39675,"Charts":39713,"Games":39718,"-)":39728,"425":39729,"pent":39732,"rut":39733,"ìŀ":39737,"ala":39740,"rio":39749,"ĠAM":39751,"parameterTo":39778,"286":39783,"ĠResolution":39786,"ĠInternational":39807,"jack":39815,"ðŁ":39818,"ingo":39821,"rac":39823,"Ġkub":39830,"Ġ82":39845,"2005":39859,"Az":39883,"gex":39884,"aze":39908,"Acid":39910,"ĠKV":39911,"zeug":39918,"Connects":39922,"isa":39942,"ĠQuad":39986,"ĠSoftware":39995,"Ray":40002,"âĢľ":40052,"Ã¢":40081,"strom":40082,"antics":40099,"ĠBand":40102,"Ball":40138,"SIP":40141,"Ġthr":40150,"Ġpet":40151,"ilit":40155,"POL":40174,"Liste":40216,"ĠPC":40217,"ĠRen":40219,"cribe":40223,"218":40311,"hell":40317,"289":40371,"Motor":40391,"Ġ1970":40394,"Gi":40396,"åĵ":40405,"Ġbill":40411,"ĠProp":40425,"uw":40460,"ĠAck":40473,"ĠRecords":40513,"vit":40538,"nose":40563,"Hal":40600,"ĠSquare":40618,"Ġdeck":40621,"009":40624,"obe":40627,"Ġarm":40646,"ĠPhysical":40654,"ĠBehavior":40656,"ĠEarly":40668,"bor":40679,"Ã´":40680,".),":40740,"sbox":40744,"Ø¨":40747,"ĠRank":40761,"340":40789,"Ġgames":40802,"ĠBusiness":40806,"Four":40810,"hem":40815,"iga":40829,"imm":40830,"ashion":40843,"ĠElem":40846,"ĠMarket":40871,"Ak":40882,"omy":40895,"Ġ78":40927,"ĠGuard":40942,"ĠSymphony":40943,"Ġhistor":41015,"ĠTemplates":41020,"Aug":41025,"Dur":41026,"avi":41031,"cts":41042,"Ġtun":41044,"ĠSleep":41049,"Ġ111":41052,"ĠAut":41053,"251":41074,"370":41082,"evice":41103,"erb":41113,"ettings":41114,"enty":41116,"lov":41121,"Ġqm":41151,"243":41153,"Ġ1900":41172,"qi":41188,"zers":41189,"thr":41191,"ĠSingular":41196,"ĠClip":41198,"Pu":41263,"ç¾":41269,"ĠRich":41277,"yang":41340,"ista":41352,"formance":41357,"Adv":41374,"Ġ71":41381,"ĠGeneration":41391,"ĠBlocks":41392,"ÑģÑĤÐ²":41406,"aurus":41414,"IFIED":41422,"yx":41427,"riz":41437,"Ġja":41447,"ĠStill":41455,"242":41462,"Ġ77":41465,"330":41467,"ĠINST":41475,"ĠæĪ":41476,"1998":41487,"ival":41504,"Ġ198":41518,"anga":41523,"inks":41532,"ĠBank":41534,"ĠEst":41536,"ĠReview":41539,"ĠLogic":41550,"ĠPrior":41559,"dam":41584,"ipart":41600,"ARL":41607,"ãĤ·":41631,"hor":41654,"kal":41655,"still":41657,"ĠDM":41673,"ĠHer":41678,"materials":41711,"310":41717,"wan":41722,"¾ç¤º":41724,"Äħ":41725,"Å¡":41726,"roc":41728,"expl":41730,"aban":41732,"ĠVO":41749,"ĠNews":41761,"406":41768,"ĠLinks":41772,"oss":41801,"pex":41802,"aling":41804,"utr":41808,"Ġwo":41811,"ĠAlt":41851,"ĠWhy":41857,"elected":41875,"FM":41886,"FUN":41887,"Tur":41890,"350":41933,"ĠFeatures":41942,"Ġka":41990,"ĠHC":41993,"ĠBridge":41994,"Ġblind":42010,"Basis":42034,"KT":42038,"Ġmus":42051,"ows":42059,"ĠUniversal":42086,"Ġ73":42093,"284":42105,"joy":42110,"ĠTriple":42115,"ĠGuild":42116,"ï¿½ï¿½":42124,"aire":42132,"Ġflexible":42139,"Ġpseud":42140,"Ġtheory":42142,"ĠCut":42150,"ĠPotential":42152,"ofa":42159,"ĠBest":42162,"ĠGr":42164,"ÑĢÐ°":42198,"Ģàº":42228,"263":42270,"Ã©e":42279,"à»Ģàº":42298,"Â»":42307,"287":42353,"sey":42394,"ĠRB":42409,"ĠEr":42415,"planet":42450,"ĠRedu":42455,"Ġinternational":42464,"ĠSmall":42465,"ìķ":42488,"Ġein":42496,"ĠRay":42500,"334":42524,"2002":42533,"Ġ2008":42535,"Ġult":42569,"ĠMotion":42586,"ĠDrag":42592,"Ġ74":42618,"FACET":42638,",...":42649,"Hat":42653,"bet":42656,"ĠLines":42674,"ĠBag":42676,"Ġphys":42696,"503":42707,"Ġìķ":42731,"HL":42742,"rowd":42760,"ĠAm":42762,"TemplateElement":42783,"ĠBlack":42808,"æŁ":42827,"eway":42833,"appe":42835,"ĠSky":42837,"ĠEv":42856,"Ġå¾":42886,"ĠåĽ":42887,"lands":42911,"sport":42912,"Ġsib":42920,"Ġak":42924,"Ġmar":42925,"dere":42933,"astern":42952,"Informations":42984,"æĦ":42999,"sea":43000,"1900":43046,"ãģķãĤ":43051,"ĠDiscovery":43056,"355":43081,"kul":43087,"ĠSW":43095,"aya":43097,"ĠPs":43101,"Ġ107":43120,"ĠcaseIfcStructural":43137,"finger":43163,"ires":43164,"ĠRaster":43190,"ĠRNA":43191,"nummer":43200,"ĠAnn":43209,"Ġ93":43215,"272":43220,"ĠCalc":43221,"267":43222,"ĠSummer":43236,"Carlo":43237,"Cool":43243,"åĥ":43253,"Ġpers":43255,"Ġog":43258,"Ġmission":43261,"ĠPan":43267,"memberCallArguments":43301,"ĠQuart":43312,"ĠCopyright":43313,"ĠGood":43317,"HM":43337,"Lu":43338,"USS":43339,"sil":43344,"à¯":43345,"æ°":43346,"iname":43348,"otions":43356,"Ġ116":43362,"ĠAW":43363,"Ensemble":43366,"ĠHouse":43373,"naire":43395,"Ur":43425,"mus":43428,"empl":43435,"ĠLimited":43494,"312":43497,"ean":43501,"Äģ":43506,"Ĥ¬":43507,"Ġfair":43509,"Ġamazon":43513,"Ġmaxim":43536,"354":43558,"starter":43572,"ĠMacro":43581,"ĠSpot":43610,"ĠDD":43623,"computer":43669,"oshi":43670,"ĠAmb":43690,"ĠNumer":43691,"276":43719,"ĠcaseIfcProduct":43725,"Ġrespons":43728,"Ġevolution":43732,"aus":43754,"cen":43755,"Ġ02":43766,"Forum":43785,"338":43799,"Ġ94":43805,"John":43835,"%,":43839,"Ly":43842,"Sz":43844,"gency":43848,"rake":43855,"CEPTION":43880,"ĠExplorer":43881,"ĠCentral":43928,"266":43933,"VD":43935,"itan":43938,"Ġmak":43944,"Ġwarm":43945,"ĠRock":43953,"REC":43956,"ĠWhite":43985,"ĠBitcoin":44007,"ĠChef":44015,"Bed":44022,"farm":44029,"Ġhier":44045,"Ġasp":44048,"ĠConcept":44062,"467":44086,"Ġsynonym":44090,"ĠâĨ":44093,"aciÃ³n":44099,"Eth":44102,"horn":44106,"ÄŁ":44108,"amine":44113,"Ġ130":44123,"ĠPrec":44127,"INER":44130,"Ġ87":44157,"elev":44174,"ĠScene":44191,"480":44200,"èª":44208,"ģè®¸":44209,"Ġpend":44214,"asin":44216,"Ġ133":44224,"Ġ800":44243,"ÑĢÑĥ":44264,"Ram":44285,"Ġmal":44296,"icity":44299,"ĠMC":44308,"398":44340,"ĠâĢĶ":44352,"è¾¾":44355,"zw":44369,"éŁ":44371,"isations":44375,"iti":44377,"stances":44388,"reatest":44390,"Ġko":44399,"ĠæĮ":44432,"Ġâī":44438,"ĠSy":44463,"ĠAI":44466,"ĠMot":44468,"Ġkg":44475,"ĠCompany":44490,"ĠEngineering":44534,"VB":44551,"held":44555,"adr":44566,"ĠTern":44573,"ĠAtt":44576,"ĠIQ":44578,"ĠPaper":44579,"ĠDR":44583,"anns":44588,"mobil":44626,"hend":44646,"ĠHuman":44683,"ĠXX":44698,"297":44712,"trainer":44713,"imento":44734,"ãĤ·ãĥ":44741,"420":44742,"Ġfu":44752,"agon":44755,"agonal":44756,"ĠWF":44774,"ĠToast":44795,"ISBN":44796,"ĠCommons":44815,"Sport":44833,"Ĥ¨":44837,"cke":44847,"ĠSam":44849,"ĠHal":44866,"ĠHub":44867,"ScreenRecord":44905,"Nic":44923,"Ã±":44927,"ining":44929,"ĠCod":44946,"ffe":44953,"ĠAlter":44991,"ĠApple":45001,"Ġviol":45006,"BH":45019,"Spe":45027,"aku":45054,"290":45095,"Emb":45124,"ARS":45155,"396":45182,"376":45186,"ĠTrie":45197,"Equipment":45203,"ĠShip":45268,"boards":45269,"261":45277,"§Ģ":45311,"Ġ136":45320,"Ġsupp":45337,"ĠNotebook":45360,"ĠCircle":45378,"uh":45392,"ĠAns":45408,"ĠKL":45446,"ĠPhrase":45457,"Ġakt":45507,"ĠNN":45514,"objectclass":45526,"ĠUniform":45539,"875":45580,"ìĹ":45586,"omatic":45590,"Serv":45606,"ĠAlpha":45636,"ĠcaseIfcType":45653,"ĠCommunication":45673,"ĠPauli":45674,"Ga":45680,"hum":45684,"Sil":45759,"ological":45767,"ĠTY":45785,"industr":45794,"Ġforest":45804,"AFE":45843,"Associates":45849,"???":45853,"iper":45874,"king":45875,"Ġbes":45887,"ĠDJ":45900,"Ġ224":45901,"ĠBalance":45908,"Ġ2009":45933,"ĠRadio":45954,"chron":45970,"lie":45971,"Ġses":45974,"ott":45975,"Ð¾Ð³Ð¾":46040,"Persons":46043,"Mill":46068,"jn":46072,"Ùĩ":46075,"èī":46076,"ĠIdent":46077,"ĠSuch":46084,"Ġ144":46090,"ĠBeta":46108,"ĠBlue":46175,"unger":46195,"ola":46203,"ĠABS":46211,"ĠLP":46220,"ĠServers":46242,"Ġ900":46247,"ĠPayPal":46271,"zes":46289,"eda":46305,"Ġ135":46313,"Stick":46315,"ĠMixed":46320,"ĠBlog":46328,"ĠKam":46347,"ĠAnalytics":46377,"å¥":46394,"ĠSR":46402,"ĠBinder":46416,"Ġneutral":46421,"ĠBlade":46452,"phe":46466,"mech":46471,"rim":46478,"tore":46481,"ĠrÃ©":46486,"ĠHour":46495,"ĠåĬ":46537,"Ð¸Ð¹":46547,"cus":46568,"Ġ140":46585,"Ġextern":46586,"ĠGallery":46600,"kept":46616,"506":46638,"school":46662,"Cab":46682,"ael":46685,"bord":46686,"ĠGuest":46722,"ĠEnergy":46747,"Ġgeographic":46767,"Äį":46784,"ald":46786,"rick":46796,"ĠTi":46799,"osm":46808,"Ġimm":46812,"Ġ???":46851,"ĠBu":46890,"asa":46899,"ĠRidge":46912,"505":46953,"Ñĸ":46991,"mel":46995,"Ġber":46997,"ĠNom":47004,"ĠGas":47017,"ĠQuote":47071,"ĠIntegration":47092,"Ķ¯":47109,"onne":47110,"atr":47111,"oma":47125,"Ġstress":47130,"ĠHighlight":47199,"iche":47221,"ope":47223,"ought":47224,"Ã«":47227,"stag":47230,"emin":47236,"Ġharm":47240,"Ġek":47241,"ĠWater":47247,"ĠBA":47248,"ĠColl":47270,"Ġ89":47271,"®ä¿¡":47346,"Ġsac":47350,"Ġdeb":47359,"annon":47375,"Miner":47397,"ĠSwing":47421,"Dark":47450,"Wo":47454,"ÄĻ":47459,"ĠAi":47472,"ĠMu":47476,"ĠGrow":47482,"283":47524,"293":47525,"æľĪ":47529,"-/":47552,"ÐŁ":47560,"Ġsta":47579,"ĠNav":47581,"owski":47583,"ĠThird":47597,"ĠClients":47621,"ĠWorking":47627,"dalib":47642,"ĠDigital":47645,"road":47663,"ematic":47669,"ĠSink":47672,"ĠTV":47675,"ĠIsl":47679,"ERN":47682,"iva":47686,"ĠProbe":47702,"regionMatches":47717,"Mor":47763,"urne":47772,"ĠLap":47794,"ĠEurope":47796,"ĠGem":47798,"ĠAssembly":47846,"ĠShows":47859,"iac":47877,"Ġ....":47903,"ĠPP":47911,"ĠThree":47922,"League":47925,"ĠKe":47939,"wins":47992,"ulli":47995,"341":48053,"Fitness":48094,"ĠCamera":48110,"acha":48113,"osis":48120,"ĠReporter":48129,"Ġ81":48136,"Ġ2007":48154,"598":48159,"ĠWikipedia":48196,"ë¦":48211,"ilm":48220,"ĠRoom":48228,"Ġuna":48230,"ĠUA":48240,"453":48271,"ĠÂ«":48290,"Ã½":48313,"à¹":48314,"isl":48317,"ĠTur":48325,"ĠEp":48340,"Beam":48350,"Ġ106":48359,"MSB":48364,"ĠShadow":48366,"irty":48367,"446":48376,"Interpret":48394,"YS":48407,"otic":48418,"ride":48420,"ige":48423,"ĠNg":48428,"ĠEsc":48447,"Ġregener":48454,"ĠStud":48457,"550":48466,"407":48477,"ACE":48528,"WG":48530,"aal":48531,"vex":48535,"yb":48537,"endo":48548,"Ġ06":48549,"ĠIEEE":48557,"ĠDrive":48565,"Ġ83":48598,"ĠåĨ":48612,"ĠInstallation":48628,"HV":48642,"gur":48647,"mill":48649,"Ã¸":48653,"Ġ124":48674,"ĠLiberty":48728,"ĠSolar":48763,"ĠVoice":48782,"ĠOrgan":48840,"ĠOperations":48880,"ĠLCD":48881,"Ġ86":48904,"ĠZK":48907,"techn":48938,"IAS":48953,"hol":48962,"ıľ":48966,"uta":48970,"esp":48972,"Ġsil":48973,"abe":48976,"Ġresid":48982,"ĠLik":48998,"Ġ;)":49041,"Ġåľ":49049,"MU":49077,"¿æį¢":49086,"Ã¦":49087,"Ð¡":49088,"elle":49097,"ĠSound":49103,"ĠSpeed":49104,"ĠTom":49108,"quil":49109,"ĠBing":49124,"ĠGate":49126,"Ġlinker":49144,"ĠæĽ":49168,"aun":49212,"ĠFlex":49235,"Chr":49241,"REM":49242,"Lig":49320,"helm":49325,"ĠÏ":49334,"Ġinn":49345,"Ġdas":49346,"Still":49354,"ĠRing":49363,"ĠFoundation":49421,"san":49453,"Äĥ":49457,"ona":49458,"urney":49461,"Ġá":49564,"oms":49578,"ĠMoment":49589,"KK":49675,"ĠRob":49703,"Ġcompl":49704,"ANK":49719,"marathon":49748,"ĠRotation":49781,"Å¾":49808,"itz":49812,"ĠBL":49842,"wei":49852,"ĠStartup":49895,"ĠÃĹ":49919,"Ox":49940,"Ãĥ":49947,"PreDefined":49981,"Ġ2006":50011,"å¹´":50032,"Dav":50051,"mast":50060,"rone":50063,"iones":50066,"Ġconcern":50083,"ĠDSL":50087,"Ġkin":50088,"ĠLarge":50092,"ĠHandling":50094,"ĠEg":50095,"ĠJO":50101,"ĠAlarm":50131,"IBILITY":50137,"ĠStock":50143,"Ġìŀ":50164,"ĠMonitoring":50169,"hir":50182,"è¦":50186,"Ġrequ":50189,"Death":50215,"ĠDem":50220,"ĠHar":50226,"1904":50253,"281":50263,"£Ģæµĭ":50286,"gar":50310,"ìĭ":50320,"semin":50321,"anz":50324,"ĠSL":50336,"ĠDaily":50356,"Ġ220":50357,"ĠWy":50365,"geot":50366,"Ġlegit":50367,"ĠJR":50369,"451":50415,"ĠíĮ":50438,"dens":50454,"urt":50458,"abo":50464,"ĠSa":50466,"ĠPot":50480,"ĠQuantum":50552,"643":50614,"Pf":50685,"fund":50692,"ĠÑĢÐ°Ð":50699,"Ġnicht":50704,"Rein":50715,"ĠFL":50723,"Ġ4000":50743,"Ġåİ":50776,"ıľåįķ":50811,"ķÑģÐ»Ð¸":50827,"elly":50840,"asso":50845,"Ġdemonstr":50853,"ĠFH":50854,"ĠPred":50855,"Ġ105":50884,"opter":50886,"ĠReceiver":50926,"Her":50948,"µëĭĪëĭ¤":50957,"ÙĬ":50958,"ĠCle":50978,"ĠWell":50994,"013":51010,"387":51031,"ĠHardware":51069,"415":51077,"HF":51079,"Ka":51081,"Ã¬":51092,"ÐĶ":51093,"ĬµëĭĪëĭ¤":51095,"Ġmech":51126,";;;;":51205,"Grand":51215,"Extr":51239,"ĠNorth":51243,"chef":51261,"Ġåį":51303,"ĠæŃ":51308,"ĠNeur":51310,"hav":51344,"çĦ":51347,"Ġê":51348,"pez":51353,"Ġintel":51372,"ĠBed":51380,"ĠEcho":51381,"ĠcaseIfcDistribution":51441,"402":51482,"Ber":51484,"Sus":51489,"ìĽ":51497,"ĠãĤ":51498,"iture":51502,"ĠPIN":51526,"STE":51530,"ĠEthernet":51535,"458":51585,"House":51622,"Ã¹":51636,"â´":51637,"ĠCity":51654,"Ġ114":51657,"Ġ700":51700,"ĠTests":51721,"ĠRadius":51735,"struktur":51744,"ÄĽ":51765,"Î±":51766,"âİ":51767,"tournament":51780,"imin":51781,"ÐµÑģ":51846,"aires":51865,"Ġhistorique":51883,"VN":51894,"nik":51896,"ħë":51902,"uper":51920,"quist":51926,"ĠWho":51944,"ĠJasper":51948,"writeStart":51949,"Ġabsolut":51984,"zeit":51987,"ottille":52000,"ĠEngland":52001,"Forschung":52002,"ĠRaiffeisenbank":52003,"andro":52004,"ĠKassel":52005,"ĠKen":52006,"Entwicklung":52007,"ĠAuftrieb":52008,"chten":52009,"ĠDienstleistung":52010,"ĠWimpern":52011,"KÃ¼nst":52012,"opp":52013,"ĠanzuschlieÃŁen":52014,"grundlage":52015,"ĠUniversitÃ¤ts":52016,"Ġemigrierte":52017,"Ġdpa":52018,"Ġignor":52019,"ĠSubstant":52020,"ÏĤ":52021,"Ġbeliebten":52022,"Ġbesucht":52023,"Geburtstag":52024,"ĠNachbar":52025,"ĠTep":52026,"Ġerwerben":52027,"ĠnÃ¶tige":52028,"ĠMichaels":52029,"Ġfester":52030,"mez":52031,"ĠAussterben":52032,"ĠbegrÃ¼nden":52033,"asens":52034,"ĠEinheim":52035,"chtung":52036,"ĠDonald":52037,"ĠPaprika":52038,"ĠThrough":52039,"ĠLey":52040,"ĠRadweg":52041,"architekt":52042,"staatlichen":52043,"ĠRelief":52044,"beziehung":52045,"ĠWilden":52046,"KÃ¶ln":52047,"efe":52048,"Zuerst":52049,"ĠRegal":52050,"ĠermÃ¶glicht":52051,"ĠRohstoff":52052,"Disc":52053,"Ġfirmierte":52054,"ĠGerd":52055,"Ġchilen":52056,"rey":52057,"fonds":52058,"ĠHirten":52059,"ĠMoss":52060,"ĠAnblick":52061,"verfahrens":52062,"ĠInvestment":52063,"ieÃŁe":52064,"ĠWeltkrieges":52065,"Ġverur":52066,"ikaner":52067,"ĠGambia":52068,"Ã¤hert":52069,"ĠGmina":52070,"armee":52071,"evÃ¶lkerung":52072,"ĠKonstante":52073,"ĠJahrzehnt":52074,"hattan":52075,"ĠBrÃ¼ck":52076,"ĠVolkshochschule":52077,"ĠElm":52078,"ĠUND":52079,"ĠtÃ¶ten":52080,"ĠPolen":52081,"bliche":52082,"Ġtraditionell":52083,"ĠTrumps":52084,"âĢĺ)":52085,"oble":52086,"ĠZÃ¼nd":52087,"ĠFederation":52088,"ĠEwig":52089,"olitik":52090,"Ġrechtfertigen":52091,"ĠVoraussetzungen":52092,"ĠLeichtathletik":52093,"ĠHerausgabe":52094,"ĠMiguel":52095,"Ġzukommen":52096,"Ġzerr":52097,"ĠNordhausen":52098,"Ġmuss":52099,"ographen":52100,"stein":52101,"ĠSeite":52102,"Ġbelasten":52103,"Ġvergangenen":52104,"ĠKet":52105,"schau":52106,"Ġdeine":52107,"ĠDav":52108,"ĠPill":52109,"ĠLour":52110,"ĠGentlem":52111,"ĠvorwÃ¤rts":52112,"ĠstÃ¶bern":52113,"ilitÃ¤r":52114,"Ã¤testens":52115,"gekr":52116,"tendant":52117,"ĠAnthony":52118,"Ġpension":52119,"partie":52120,"ĠAbenteuer":52121,"eicht":52122,"ĠKreuzes":52123,"Ã¤len":52124,"politiker":52125,"ĠMillionen":52126,"ĠKnei":52127,"Ġ174":52128,"Ġwechselnden":52129,"ĠAufnahmen":52130,"ĠWeltbild":52131,"ĠNennung":52132,"ĠDelaware":52133,"Ġflach":52134,"gerichten":52135,"Ġverdr":52136,"ĠfÃ¤l":52137,"ĠZweikampf":52138,"Ġ1888":52139,"itÃ©":52140,"Ġmiteinander":52141,"Ã¼den":52142,"Wittenberg":52143,"uckets":52144,"ĠKro":52145,"ĠOhren":52146,"sgeschichte":52147,"leichterung":52148,"ĠAlbany":52149,"ĠKaufmanns":52150,"Ġaufgeben":52151,"Ġholz":52152,"eigt":52153,"ĠInfanterie":52154,"Ġgemacht":52155,"ĠNathan":52156,"ĠAltarbild":52157,"Ġ%).":52158,"Ġanwendbar":52159,"ĠSB":52160,"ĠErzÃ¤hl":52161,"ĠIllinois":52162,"Ġverpflichten":52163,"ĠMadrid":52164,"Ġbrit":52165,"ĠÃ¼berreicht":52166,"ĠTall":52167,"ĠLieber":52168,"partien":52169,"ĠVorrunde":52170,"sbeg":52171,"ĠMorris":52172,"welche":52173,"Ġpoten":52174,"zende":52175,"eistert":52176,"Ġarchiv":52177,"lias":52178,"fÃ¤hre":52179,"orte":52180,"ĠWarschauer":52181,"ĠGutshof":52182,"ĠKu":52183,"stÃ¤ndigkeit":52184,"Vertrag":52185,"ĠChristus":52186,"ĠViert":52187,"Ġstaatlich":52188,"Brigade":52189,"Ġeingeschaltet":52190,"Ã¼ste":52191,"gio":52192,"Ġabsoluter":52193,"ĠSchau":52194,"ĠKampf":52195,"erred":52196,"orientierung":52197,"CAA":52198,"ĠBerges":52199,"ĠZensus":52200,"ĠStraÃŁenviertel":52201,"Ġ179":52202,"StÃ¤dtepartnerschaften":52203,"ĠJab":52204,"ĠBremerhaven":52205,"ĠPeder":52206,"enken":52207,"Ġpartei":52208,"ĠflÃ¤chen":52209,"rifft":52210,"ĠÃ¤gyptischen":52211,"ĠFinnland":52212,"ĠArbeiter":52213,"urnier":52214,"ĠGelenk":52215,"ĠMagazins":52216,"ielt":52217,"faktoren":52218,"Ġ210":52219,"ĠPutin":52220,
[...]
