#version: 0.2 - Trained by `huggingface/tokenizers`
e r
e n
Ġ Ġ
i n
c h
Ġ d
Ġ a
e s
o n
\ \
u n
i s
ĠĠ ĠĠ
Ġ t
i t
a n
i e
Ġ s
o r
a t
Ġ w
a r
r e
a l
t e
Ġ S
h e
Ġ b
u r
l e
\\ \\
g e
a s
Ġ f
Ġ in
i ch
Ġ e
un d
Ġ m
u s
Ã ¼
Ġ A
Ġd er
in g
Ġ v
Ġ B
Ġa n
e l
Ġ o
i l
r o
Ġ und
s t
i on
Ã ¤
Ġt he
Ġ M
Ġ n
Ġ D
d e
Ġ p
Ġ c
Ġ 1
t er
i g
un g
Ġ h
Ġ (
en t
a m
o l
u t
Ġ P
Ġ T
Ġe in
i m
o m
Ġ F
Ġd ie
i c
Ġ G
ĠĠĠĠ ĠĠĠĠ
\\\\ \\\\
Ġ E
Ġ K
â Ģ
Ġ I
Ġ z
e t
r a
e d
Ġ W
s ch
Ġ H
Ġan d
e m
t en
h r
ĠĠ Ġ
Ġ R
Ġt o
Ġ g
u m
Ġ L
Ġo f
d er
Ġb e
Ġ C
u f
is ch
is t
i r
b er
Ġ l
Ã ¶
an d
e it
Ġ 2
a ch
u l
Ġt h
d en
Ġ N
Ġ er
Ġ V
c k
i er
Ġ k
Ġ J
e in
Ġa l
Ġv on
Ġ1 9
o t
i v
a b
l ich
Ġ re
at ion
i f
c t
Ġd en
er s
Ġ ge
g en
Ã¼ r
ĠS t
es t
\\\\\\\\ \\\\\\\\
a d
Ġd es
Ġ im
o w
c e
o s
u ch
Ċ ĠĠĠĠĠĠĠĠ
Ġ O
Ġm it
i k
Ġ2 0
es s
Ġ y
ĠĠĠĠ ĠĠĠ
Ġs t
an n
l a
i d
as s
Ġ U
i es
Ã Ł
al l
) ;
Ġf or
t s
Ġ âĢ
Ġ is
v er
o u
Ġa uf
k t
Ġz u
ie l
Ġ Z
p p
ĠS ch
Ġv er
t h
ĠI n
w e
b en
i en
a f
Ġ ist
Ġ on
a h
Ġf Ã¼r
a y
Ġd as
Ġn e
ich t
Ġ r
n e
o p
l l
it h
o ur
Ġd em
Ġ un
a g
Ċ ĠĠĠĠĠĠĠ
at e
Ġal s
Ġw ur
er e
a u
isch en
Ġ =
Ġ {
o g
a hr
s te
or t
il l
in d
o d
Ġa us
Ġd e
p t
s e
m en
ĠA n
t r
a v
u b
q u
z e
Ġw ith
er t
Ġp ro
Ġein e
Ġs ich
s p
\\\\\\\\\\\\\\\\ \\\\\\\\\\\\\\\\
a k
ĠR e
Ġ j
i b
l y
0 0
a us
en d
ĉ ĉ
Ã¤ n
Ġ i
Ġ }
Ġ Ċ
Ġwur de
e b
el l
Ġw h
u g
ĠV er
ar t
er n
o ch
Ġw ar
) ,
Ġ20 1
Ġs e
Ġy ou
a p
r an
f f
in e
Ġth at
Ġ it
es ch
sch af
h t
ĠE r
ĠD ie
ung en
Ġs ein
ĊĠĠĠĠĠĠĠĠ ĠĠĠ
Ġa b
g er
p e
r u
ĠB e
h n
Ã¼ ber
Ġs ch
ig en
ge t
o k
a ge
Ġ he
am e
m er
Ã¼ n
Ġ le
u p
m ent
âĢ Ļ
Ġbe i
Ġc on
an g
Ġa m
i z
ĠT he
Ġa uch
isch e
Ġa s
ĠU n
Ġw ir
f or
t ur
u d
Ġa re
Ġe x
Ġ or
an t
ro m
u e
s en
om p
Ġ 3
Ġw e
. .
it y
ur ch
ĠS p
us t
ar d
Ġ Ã¼ber
b e
o st
i al
iv e
o v
Ġn ach
ol l
( )
ut sch
g r
Ġs o
l in
ĠA r
Ġ ch
ung s
h en
r ie
i p
a in
ĠJ ahr
Ġa t
k s
âĢ ľ
Ġm e
as t
Ġd ies
Ã¤ t
I n
i a
l ie
n en
h l
Ġb is
Ġ "
Ġ20 0
ĠL e
i le
Ġth is
is e
ĠâĢ ĵ
Ġ1 8
Ġn icht
Ġs ie
ĠP ro
ic k
Ġs p
ĠD e
i de
h er
Ġ if
or d
Ġw er
r it
Ġz ur
Ã¶ r
u re
Ġal l
schaf t
Ċ ĠĠĠ
te d
f er
Ġ es
o c
Ġw as
tur n
Ġz um
av e
om e
Ġy our
ĠS ie
Ġ um
1 9
Ġ -
et z
ĠâĢ ŀ
l o
âĢ ĵ
Ġ ent
i ge
Ġwer den
p r
ĠE in
m e
Ġne w
h o
j e
ch en
ĠE n
Ġein er
ab le
ter n
or e
pt ion
Â ł
ĠA l
Ġb y
Ġw ie
Ġv or
Ġh at
) .
ar k
l ass
ul l
h al
Ġf rom
il d
ct ion
\\\\\\\\\\\\\\\\\\\\\\\\\\\\\\\\ \\\\\\\\\\\\\\\\\\\\\\\\\\\\\\\\
Ġo der
d u
en n
Ġun ter
ic e
a ck
Ġs ind
Ã¤ r
er v
ier t
om m
Ġwir d
Ã¶ n
Ġd urch
i re
ĊĠĠĠĠĠĠĠĠ ĠĠĠĠĠĠĠĠ
it e
ĠT e
Ċ ĉĉ
r ing
n er
ub l
te l
o ut
Ã¼ ck
f t
on t
Ġh ave
l and
isch er
Ġ us
Ġm an
us s
ĠT h
Ġ en
ĠG e
el t
o b
D ie
Ġein em
ch e
ul t
it ion
z en
Ġw ill
w er
ge l
Ġ /
te ll
i an
p er
i o
b eit
ĠN e
ge b
ĠS e
ĠA us
st en
Ġc an
Ġ 4
Ġein en
m al
a uf
l at
g t
Ġ19 9
ĠC h
g es
ĠM it
re ich
lich en
s s
a c
Ġ Ã
ig n
S t
k e
Ġw or
ro w
ig ht
for m
Ã¼ hr
ĊĠĠĠĠĠĠĠĠ ĠĠĠĠĠĠĠ
p h
ĠD er
ah l
ĠW e
as e
at ur
Ġr es
o un
is ter
Ġn ot
E x
l er
r y
at h
a il
ĠA b
ĠO r
im e
en s
u te
on g
f e
p ar
Ġt e
x t
ur g
u ÃŁ
o ok
Ċ ĉ
Ġ 5
Ġp r
in al
ĠG r
e ar
m p
( );
Ġs h
ar e
2 0
l os
ĠB er
Ġa d
lich e
o hn
on e
ad t
ĠA uf
all y
Ġd ass
ch t
' s
Ġc omp
o de
at er
Ġge t
ich te
Ġ Y
de m
c c
Ġa r
ĠH e
Ġh as
Ġb es
k eit
el n
R e
t z
de t
t o
ubl ic
ce ption
l an
ation al
Ġre turn
f en
1 8
we ise
ĠM ar
an ce
T he
ation s
re i
te il
ĠP r
Ġ19 8
ul d
st er
is s
Ġn ull
Ġw o
Ġz w
in z
je ct
ĠV or
al t
ak e
h re
ab e
re is
ĠL and
in t
ĠM e
ĠD as
th er
ĠN ach
Ã¤ hr
Ġi hr
t w
ing s
Ġ &
Ġ up
Ġo ut
am m
at en
a ut
i ent
am p
ĠĠĠĠ Ġ
a z
ab en
ol og
Ġ 0
s er
Ġh er
em ber
at ed
iv ers
Ġd o
Ġ +
c l
Ġn ur
Ġ/ /
he it
.. .
S tr
it z
al s
ĠUn ter
Ġ 6
on d
re e
Ġo ur
Ġ qu
Ġg en
Ex ception
Ġ19 7
s h
or en
a pp
f ol
ĠI m
b urg
ier te
ro ÃŁ
Ġn och
- -
k en
Ġg o
ier en
y pe
te t
Ġde utsch
Ġw eit
kt ion
an s
t ra
Ġf e
ĠH er
der n
e y
ch n
Ġs ow
Ġ ro
Ġme hr
os e
m s
l es
ĠZ eit
om men
ers on
an z
ol le
it er
r i
Ġ 9
Ã ©
Ċ ĠĠĠĠĠ
ow n
Ã¤ l
ber g
ar y
ut z
ol d
p ro
Ġb ut
or y
or s
Ġv om
z eit
f l
a ct
Ġt ra
d r
on s
iel er
ĠA m
ig h
Ġ( *
ĠF l
us e
ig er
ne h
ein e
\\\\\\\\\\\\\\\\\\\\\\\\\\\\\\\\\\\\\\\\\\\\\\\\\\\\\\\\\\\\\\\\ \\\\\\\\\\\\\\\\\\\\\\\\\\\\\\\\\\\\\\\\\\\\\\\\\\\\\\\\\\\\\\\\
Str ing
al e
( "
Ġwur den
ent s
ĠF or
Ġp er
ĠB r
Ġ19 6
at t
Ġm y
g an
ĠSt ring
it t
we i
v el
o ck
ĠDe utsch
ik e
y ste
Ġa ber
Ġthe ir
Ġm ore
Ġon e
r en
Q u
in k
ib t
ste ll
r Ã¤
u en
at ch
er en
Ġ1 7
ic al
v e
Ġb et
a de
Ġl ie
al ue
am il
il m
Ġs te
is h
b ar
Ġa pp
el d
l d
i um
b le
y s
b r
Ġal le
i ze
le ich
ĠF ran
Ġ 7
D er
is ten
W eb
Ġge w
Ġk ann
Ġk Ã¶n
a x
or n
Ġf r
N ame
ĠSt adt
at a
Ġb est
in n
E n
Ġc o
ion s
A n
te m
ze ich
Ġ19 4
ie d
Ġ 8
par am
re at
Ġals o
es e
lin ks
ĠRe g
f Ã¼hr
re turn
f in
Ġsow ie
st and
Ġf in
oun t
p ublic
m ann
on n
Ġ1 5
ol it
t t
Ġe v
Ġab out
en g
it Ã¤t
la g
s el
et h
ah n
an ge
Web links
n is
f ahr
Ġb er
r if
ĊĠĠĠĠĠĠĠĠĠĠĠĠĠĠĠĠ ĠĠĠ
o f
Ã¤ ch
u le
etz t
Ġd ar
h Ã¶r
Ġ19 5
Ġ ich
Ġcon t
g lich
r at
D e
og ra
C on
P ro
Ġwh ich
b all
ĠP ar
Ġge gen
ĠI t
Ġthe y
ter s
ĠG em
der s
ie t
c es
re d
Ġof f
im m
u pp
Ġg es
Ġin s
Ġ1 6
ier ung
ĠG esch
y n
ig t
o le
Ġs pe
ĠU S
ik er
ig keit
am men
Ã¼ d
et t
Ġ1 0
Ġo b
Ġj ed
âĢ Ŀ
m it
a i
ah re
n et
m in
p ort
Ã¤n d
Ġg r
el le
Ġy ear
Ġh is
g lie
und en
ay s
s k
Ġt ime
Ġbe en
s et
Ġh aben
Ġwie der
ie le
a w
m an
an k
l ung
is sen
ĠI S
ann t
ar beit
Ġp la
a ce
Ġs oll
ĠS o
w o
ĠS te
Ġ19 3
Ġwor k
00 0
at or
g esch
Ġp re
y p
i x
h und
E inz
l ine
Ġsein er
Ã¶ ff
Ġein es
at z
ie w
ĠF ra
r es
eit e
Ġsein e
Ġz wei
p ut
Ġk n
h aus
lat z
b st
lie ÃŁ
er k
ov e
o h
am en
ess ion
ĠG es
Ġdies er
ach weise
el s
u de
Ġan y
Ġre c
ĠE s
eln achweise
Einz elnachweise
ĠUn ivers
or k
in ter
I N
o ber
ur op
erv ice
ĠD ies
a is
Ġi hre
ir st
ÃŁ e
o ff
Ġc om
o ol
Ġin ter
Ġ= =
ĠkÃ¶n nen
ru pp
Ġhat te
B N
yste m
u er
Ġs el
us ammen
ik an
ĠK on
ge ben
ach t
ĠJ ahre
m ein
ĠP h
or f
ĠE x
ĠGem ein
at s
Ġp art
d ition
U n
ĠIS BN
ĠG eb
Ġd is
ĠF re
Ġs ome
el y
id ent
Ġ Qu
am er
sch e
Ċ ĊĠĠĠĠĠĠĠ
1 7
Ġ .
Ġe l
ar n
T ype
1 0
Ġs c
D as
n ah
Ġo ver
ir t
S ch
Ġwh o
u al
le d
f all
ĠK ar
T h
Ġb o
E r
Ã¤ hl
ent lich
A r
B e
t on
ĠÃ ľ
al d
Ġ *
ĠJahr hund
h m
ĠM us
Ġn o
c om
Ġin t
ĠA d
p l
Ġa cc
ĠâĢ ľ
le ment
if f
E R
ent r
Ġ !
ĠTe il
Ġo ther
at ing
Ġth row
L e
ĠU m
ie der
Ġ1 2
Ã¶ l
Ġe tw
i der
ĠO b
ĠC hr
t es
Ġs eit
form ation
Ġzw ischen
gen d
e k
ĠJahr en
in s
Ġl ike
ĠK ir
) )
ĠB o
Ġf ol
at es
Ġbe g
iel d
Ġpro v
aus e
hal ten
p ert
" ,
r on
ur n
ver y
en de
Ġg roÃŁ
le g
Ġp e
ĠB l
Ġun s
ĠG ra
Ġ |
iter atur
ĠSp iel
Ġc l
Ã¶ s
Ġwar en
Ġpro du
Ġd am
f r
ing en
Ġ <
a ir
ĠW elt
in der
en e
Ġp ar
Ġv ers
ĠSch w
os s
Ã¤ s
in a
eit en
ĠT ra
Ġdies e
eit s
sch en
= =
omm un
our ce
ĠB es
Ġ :
und es
la ge
ĠAr beit
b au
ou g
m a
ĠBer lin
Ġ1 4
Ġhe l
Ġbe k
V er
c ial
o und
Ġst ud
R es
as h
un k
ĠTh is
g s
Ġwh en
en z
neh men
() .
en den
u es
Ġzur Ã¼ck
a um
o id
qu est
Ġin d
Ġj ust
ĠNe w
Ġre g
Ġp h
ot h
c o
ug h
v ent
ell en
um ent
a gen
ic es
Ã¤ d
1 6
o us
ic s
ĠM an
I d
h and
uch t
is te
au pt
Ġne ed
Ġj e
en er
st ra
p iel
ĠG er
de d
le in
Ġd ann
f Ã¼
I m
1 5
ran s
Ġth ere
A l
y m
Ã¤ ter
tr y
Ġ1 3
ĠÃľ ber
c re
f ter
on der
p s
le t
Ġbe im
b o
or g
Ġer sten
ĠA ut
ĠS h
Ġit s
Ġw enn
Ġb u
ĊĠĠĠĠĠĠĠĠĠĠĠĠĠĠĠĠ ĠĠĠĠĠĠĠĠ
ge w
Ġa g
Ġin cl
is m
Ġl ook
ro up
" );
he im
Ġthe m
sch ie
Ġbe c
schaf ten
ĠM en
c ess
Ġh ow
p f
Ġt r
ÃŁ en
k l
ĠA ll
() )
Ġst at
if e
io us
Ã¶ glich
if ic
h ne
Ġf inal
c ted
d ay
ĠJ un
Ġw el
ur r
ic t
ĠJ an
O N
Ġin to
tell t
ru ck
Ġg ibt
Ġer st
re am
1 2
Ġh and
Ġh ier
Ġf irst
Ġge hÃ¶r
ĠT r
op le
Ġd r
g l
Ċĉĉ ĉ
al en
c ed
ĠA ug
Ġm us
Ġ ra
v ers
Ġwh at
ĠSt a
iv er
p en
ĠE l
i den
' t
und e
ro und
l Ã¤
ot t
r ich
ra y
il der
Ġm ost
o y
Ġth an
Ġd rei
ut ion
Ġg esch
a der
ĠH and
ĠB au
ĠM in
ag es
i pp
de x
en k
ĠJ ul
tern ational
fol g
le x
ra g
ĠP f
Ġh o
ier ten
Ġ201 8
Ã¤hr end
ar b
uÃŁ ball
ĠF r
ĠLe ben
sp ieler
Ġel se
\\\\\\\\\\\\\\\\\\\\\\\\\\\\\\\\\\\\\\\\\\\\\\\\\\\\\\\\\\\\\\\\\\\\\\\\\\\\\\\\\\\\\\\\\\\\\\\\\\\\\\\\\\\\\\\\\\\\\\\\\\\\\\\\ \\\\\\\\\\\\\\\\\\\\\\\\\\\\\\\\\\\\\\\\\\\\\\\\\\\\\\\\\\\\\\\\\\\\\\\\\\\\\\\\\\\\\\\\\\\\\\\\\\\\\\\\\\\\\\\\\\\\\\\\\\\\\\\\
Ġin st
Ġm ake
ib le
Ġ! =
ĠZ u
Ġw ere
ow er
an der
Ġk onn
Ġv iel
e p
Ã¼ t
ĠN ov
glie d
Ġ19 2
ĠO ber
c on
ra ch
wer k
Ġge b
Ġus e
Ġse hr
ar m
Ġth ro
it ies
am t
Ġh ad
Ġg er
m at
z ial
en ce
ĠAr t
L ist
w ard
-- --
C h
un st
f ig
al k
ĠM ed
Ġd a
ĠSt ud
() );
/ /
rie b
ogra ph
ĠÃ ĸ
Ġwo uld
ĠGemein de
ĠJahrhund ert
Ġdeutsch er
ur t
Ġl oc
Ġjed och
1 4
f ul
ĠE urop
ist or
b ild
ĠB undes
lo ck
in ess
Ġ '
ch er
Ġz e
Ġb el
am es
Ġ Â
sp r
Ġpe ople
Ã¤l t
ĠC ar
Ġf Ã¼hr
ul ar
s on
Ġon ly
abe i
ĠH o
Ġe very
v or
ar ten
Ġs ho
p on
ster reich
ass en
Ġs et
it s
Ġver b
te xt
ass er
Ġkn ow
Ġd ire
ĠC on
ĠSt ra
ad d
eb s
Ġweit er
O b
ĠN or
s o
1 3
iel t
G eb
ĠIn d
Ġf ind
ĠM on
Ġan ge
Ġer h
ĠDeutsch land
os ition
at ive
Ġb ack
ĠF amil
me ister
Ġdes ign
it al
L iteratur
f ach
Ġw ell
gr Ã¼n
7 8
em ent
Ġi hn
p la
5 0
re m
ĠP e
c y
re it
z w
ĠChr ist
au er
P ar
ĠAug ust
Ġsp Ã¤ter
eng th
ĠB et
ĠP ol
urr ent
ig ung
a kt
Ġm ay
ich er
am s
Ġv oid
ul tur
i qu
w n
schie den
n ung
ien ce
Ġs he
Ġg u
ch ts
Ġa ct
Ġp l
us iness
je kt
iv en
ate g
Ġg leich
Ġst r
Ġcon s
Ġs upp
ĠB and
ĠAn d
O r
hal b
ĠF ilm
tem ber
ur z
ĠP erson
Ġim mer
lich er
Ã¶n ig
u z
ĠGr und
Ġh in
Ġver y
il s
( ),
Ċĉĉ ĉĉ
e c
ĠZ w
ost en
Ġhel p
F or
ing er
ĠM ann
in er
Ċ Ġ
Ġsch on
ĠM Ã¼n
eit er
âĢ ¦
2 00
Ġetw a
ro l
un ter
ĠO n
a id
Ġdies em
ir k
uÃŁ er
ĠY ou
schaf ts
Ġ [
Ġ3 0
hal t
Ġsein em
Ġm ach
Ġ X
b ach
ĠVer ein
Ġas s
W e
er g
ĠK l
c ri
o te
re g
as ed
ier e
ar r
ĠF e
Ġun ser
Ġver w
ho f
Ġsein en
Ġe igen
Ã¤r z
b l
ut h
Geb oren
ĠPro du
A T
as k
an y
Ġf l
M it
il ity
N e
ist r
ess en
Ġand eren
ĠFran k
u ck
ol f
Ġc re
Ġt wo
ge mein
vel op
um ber
ke hr
Ġle tz
ie f
ĠVer b
ar s
g est
ĠG roÃŁ
ĠSe p
ĠF rie
r icht
re ad
it ed
eth od
Ċ Ċ
Ġz usammen
ct or
st it
pr il
T e
k te
Ġein z
ĠW er
Ġs ol
uf t
k er
et s
sch l
ien st
Ġs m
if fer
a den
ĠM al
Ġd own
Ġber eits
b es
Ġyear s
Ã¶ ÃŁ
Ġex per
ĠN ord
ĠP latz
Ġs ub
o od
o int
Ġman y
g ang
Ã¼ tz
ĠNov ember
i or
Ġb l
v en
is ion
a ul
Ġlie gt
ich ts
a ur
ĠH aus
Ġs on
V alue
Ã¶ ch
I D
s atz
Ġre m
st adt
Ġb esch
Ġthro ugh
Â Ń
op h
Ã¤n der
un kt
Ġh igh
ĠSep tember
if t
1 1
for e
Ġk eine
ra d
ten s
Ġer w
Ġer ste
Ġt ry
ĠEn de
is en
ag er
Ġin v
ĠR es
ĠH aupt
ĊĠĠĠĠĠĠĠĠĠĠĠĠĠĠĠĠ ĠĠĠĠĠĠĠ
Ġs erv
ck en
Ġm in
Ġsel bst
f o
Ġp ublic
Ġ201 7
Ġh ome
Ġa kt
p or
ĠN ational
ur s
ĠJan u
Ġs uch
w ick
ste in
oug h
Ġ end
as ch
Ġch e
Ã¤n g
a j
ĠV ol
Ġst and
Ġ )
Ġbes te
Ã¶ff entlich
ct s
ĠV ers
ar i
he l
Ġre ad
us tr
ff e
Ġth ese
. )
m Ã¤
w ohn
la gen
C lass
Ġihr er
ĠA pril
) );
ment s
ze ug
ic a
rupp e
Ġe ben
kt ober
ar ch
f te
it el
r or
es en
an ts
we g
Ġa fter
ĠI hr
z ahl
G e
lo ad
Ġbec ause
la uf
2 1
M ann
ĠK Ã¶nig
ne w
issen schaft
al le
es ter
ak ing
ĠW h
ess age
ĠS c
ĠH och
pon se
Ġpro f
N ach
in nen
Ġp erson
ru e
S e
u k
Ġund er
oh ann
m ar
Ġb r
ais on
Ã¤n ger
ut en
ĠJun i
Ġd ort
Ġn ow
ĠB ild
Ã¼n st
ĠF Ã¼r
Ġhe ute
ĠJ u
Ġ201 6
Ġm on
olog ie
e ich
ĠC l
Ġgo od
ĠM et
ĠI s
iv ate
ĠK unst
v al
Ġm ark
isch es
Ġkonn te
ĠP olit
f ang
Ġfol gen
k reis
ation en
ow s
Ã ¡
S T
iz ed
Ġpla y
ĠIn ter
3 0
Ġde c
l i
Ġ19 0
ĠI I
gr und
w ay
E N
ĠD es
s g
Ġc ol
S ie
Ġa v
w alt
re t
ĠJul i
Ġ201 5
ĠM ai
ĠK inder
Ġg reat
Ġl ong
ust om
mit tel
f inal
Ġf ree
al ity
al th
v iew
at ure
Ġo hne
d s
Ã¼ s
Ġse e
al ien
ran z
Ġf re
le ct
Ġ2 5
Ġm ed
ĠBe i
f eld
ĠB ar
amer ikan
Ġw rit
ĠO ktober
Ġa c
Ġne ue
Ġ ,
Ġv alue
Ġw ay
Ġver schieden
Ġte chn
Ġi hm
Ġstat ic
Ġw en
o ten
[ ]
Ġdam it
Ġb re
un ktion
Ġge l
Ġv ier
st r
ur ing
ebs ite
ĠM Ã¤rz
al if
we iz
stell ung
ot her
gan is
i ÃŁ
ĠĊ Ċ
o gen
Ġd ay
Ġ& &
Ġon line
up er
Ġge f
st ru
Ġ201 0
z ie
b t
Ġ1 1
af f
e x
eb ru
o in
Ġwh ile
Ġar t
iss ion
Ġ201 2
Ġ201 4
ĠS Ã¼d
Ġwh ere
o ver
p art
Ġk am
ĠU r
l ic
Ġb usiness
Ġk ein
iv es
b uch
ĠD r
Ġk e
Ġs om
A R
fall s
ck e
ĠĠĠĠĠĠĠĠ ĠĠĠĠĠĠĠĠ
ĠMus ik
Ġ201 1
A us
mal s
Ġd el
ess e
ĠS er
Ġl ang
in o
Ã¼ h
b ahn
ĠB uch
Ġall er
um s
Ġp ass
ĠC he
omp on
c ode
ction s
le ase
ĠJ ohann
l ig
sch lieÃŁ
pert y
ĠJanu ar
Ġk lein
le it
Ġb en
ĠMen schen
ĠS pe
ĠA mer
Ġaus ge
Ã¼n d
il it
ĠOr t
O R
w ahl
Ġch ar
er y
Ġ2 4
ĠG ener
Ġbe fin
ole an
Ġe m
Ġc ar
ĠM ark
Ġwor ld
Ġth en
Ġsch w
tra g
ĠA s
w ert
il t
ra ft
Ġ1 00
or ben
ĠA t
Ã¼r ger
l en
Ġ %
z ember
Ġm o
ĠLand es
Ġst att
ĠI f
zeich net
Ġ201 3
Ġs k
im p
rie g
ĠUnter nehmen
z u
ĠF ebru
ĠPro f
Ġh ere
Ġde velop
Ġev en
Ġres ult
al se
k a
f ra
ber t
De utsch
Ġer folg
Th is
H e
ach sen
Ġincl ud
in es
tr ib
ater ial
ĠDies e
Ġsp iel
ĠH ol
Ġgr Ã¶ÃŁ
t ag
z ug
Ġne uen
ism us
Ġse c
Ġg ra
ĠF ol
od y
Ġo wn
rif t
ro ss
Ġw ant
Ġd u
ou ble
A t
a ar
T o
ot s
ĠW il
ĠV on
Ġw Ã¤hrend
h ol
ill ion
K ey
Ġco uld
A m
Ġs er
de te
ĠGesch ichte
ĠS k
Ġc ase
Ġd iffer
ĠW est
sp iel
w end
Ġand er
Ġer sch
Ġ >
st Ã¤nd
Ġ ur
ĠF ahr
Ġ200 9
om en
Ġt rue
Ġin formation
Ġpro gr
Ġbei den
ig te
b and
un n
kt ur
ern se
z ent
w w
Ġi de
Ġte il
ie b
ĠW or
Ġ200 8
ĠL iste
at her
ell schaft
he d
ch s
ĠAl s
in ce
ĠKir che
Ġus ed
Ġ18 9
Ġl ast
Ġst art
al ter
ro p
Ġv is
ĠDe zember
sh all
cc ess
Ġh abe
l ing
Ob ject
t re
ain t
Ġt rans
Ġ ...
he mal
ĠCh ar
A N
ĠE ine
ranz Ã¶s
is k
Ġf est
o hl
los s
ĠC omp
ic an
Ġf amil
Ġs ervice
iv ing
Ġd on
ĠD urch
Ã¶ st
ĠM o
b y
is piel
k auf
Ġm ade
i us
Ġd abei
ĠO ff
ĠW ien
u ter
neh mer
Ġs aid
Ġste ht
ĠD aten
Ġn ame
Ġt ake
ĠAr ch
Ġf ile
ĠW ert
. ,
o pp
ĠP art
Ġ200 7
Ġe ing
fÃ¼hr t
sch n
ed er
s etz
ĠRe ich
Ã¤ch st
u ge
f a
ĠS aison
Ġm od
Ġs ur
ĠS al
âĢľ ,
Ġbe fore
g abe
Ġihr en
Ġp ol
Ġto p
ĠÃ Ħ
ĠMit tel
ĠP l
le gen
h in
Ġc lass
ĠM ich
Ġs u
w are
om an
ach e
ĠĊ ĠĊ
g leich
Ġprov ide
Ġar beit
ĠPh il
nah me
Ġst ar
Ġsho uld
2 5
Ġb ook
re cht
olog y
Ġm uch
ĠUnivers itÃ¤t
in ing
A L
ig es
ing le
qu ire
ĠW ir
âĢľ .
ut t
it zen
ĠUnivers ity
Ã¤n de
n ame
p ieler
sch utz
Ġdies es
19 9
Ġp lan
y l
as on
ĠI hre
Ġr ight
Ġ x
Ã¼ ss
age ment
ĠH am
Ġe as
oll ow
Ã¤t z
Ġe t
ik a
k ommen
ĠB ere
ĠJ ohn
R E
le te
la ck
Ġfin den
um e
č ĊĠĠĠĠĠĠĠ
f ort
Ã¤ hn
Ġe mp
ĠK r
Ġch ild
ĠSch ul
be i
Ġ #
m ed
M ap
Ġ u
ide o
Ġz un
ĠReg ion
Ġk ey
as ter
Ġc atch
an st
Ġg ut
ichte t
s ol
Ã¼n f
f ern
ogra f
ĠK n
ist s
Ġ $
ail able
ĠMit glied
lin k
Ġ9 78
Ġ200 6
los sen
Ġl ife
Ġg ab
az u
fahr en
Ġein fach
Ġd ata
Ġein ge
B y
Ġgen er
ĠH Ã¶
le gt
all s
om mer
ak es
ĠFebru ar
Ġf ound
Ġc omm
out h
č Ċĉ
sp ort
ĠN amen
ip s
ĠG l
sch ule
ĠL in
ĠC o
uf en
ĠW asser
ĠâĢ ł
f ass
ran k
ĠF uÃŁball
ĠD ar
ĠEn tw
G esch
iqu e
es ten
um mer
ges tellt
E in
4 0
b in
Ġc ustom
p unkt
tell en
l ength
Ġb ed
ĠV ert
Ġthrow s
le kt
he in
im es
v an
D ata
y r
ĠW ohn
Ġb zw
Ġof fer
Ġbek annt
ĠB ay
ĠEn t
rupp en
ĠB est
Ġb ie
e h
ĠT od
* *
M ar
Ġen g
a e
Ġc urrent
u x
u gen
ĠP at
== ==
ich ten
Ġe ach
8 0
Ġpr es
Ġg est
ĠA uch
6 0
Ġp ost
en der
2 2
hn en
Ġdes sen
Ġc olle
omm t
Ġweit ere
ĠG u
ĠVer lag
al er
p os
Ġad d
Ġg anz
Ġc oun
Ġalle m
ar z
Ã¤ ude
ĠSch weiz
Ġpro cess
ĠMÃ¼n chen
Ġc le
ĠA ss
Re quest
oll en
ear ch
id es
Ġdeutsch en
Ã Ń
ĠD an
ĠL ie
Ġm uss
il le
Ġs ign
Ġder en
ĠN atur
y le
Ġp ra
u ally
Ġbe ing
re ch
Ġson dern
Ġbe f
Ġa round
ĠB Ã¼
dr ich
Ġ5 0
P ath
Ġre al
ĠR ad
hr en
Ã¤hl t
app end
an gen
it Ã¤
stra ÃŁe
O ver
Ġn umber
Ġm ein
ap an
ĠM ag
s w
ch sel
ĠP er
ĠFra uen
rie ben
Ġb ring
ie g
Ġn un
ĠIn tern
ĠFor m
ĠR Ã¼ck
ĠSt and
de ut
ĠJ e
ab el
ĠE d
ĠS an
los e
Ġ20 00
Ġv iele
Ġ200 5
st off
ubl ik
Ġdo es
A b
ly mp
ĠR o
Ġl og
Ġsh ow
ain s
im mer
Ġge mein
re ib
ĠY ork
ĠB as
ig ten
uf fer
Ġr est
w ays
Ġs Ã¼d
Ġf ranzÃ¶s
Ġf un
schl uss
Ġand ere
and en
ess er
t he
iv id
Ġm ir
th is
Ġs l
Ġc ommun
ĠZ usammen
Ġag ain
ra gen
irt schaft
ĠSt re
ge d
all en
Ġerh ielt
in en
hr er
k on
T ra
Ġcre ate
Ġ2 2
Ġw icht
sch ied
en ter
ĊĠĠĠĠĠĠĠĠ Ġ
ĠGe w
\\\\\\\\\\\\\\\\\\\\\\\\\\\\\\\\\\\\\\\\\\\\\\\\\\\\\\\\\\\\\\\\\\\\\\\\\\\\\\\\\\\\\\\\\\\\\\\\\\\\\\\\\\\\\\\\\\\\\\\\\\\\\\\\\\\\\\\\\\\\\\\\\\\\\\\\\\\\\\\\\\\\\\\\\\\\\\\\\\\\\\\\\\\\\\\\\\\\\\\\\\\\\\\\\\\\\\\\\\\\\\\\\\\\\\\\\\\\\\\\\\\\\\\\\\\\\\\\ \\\\\\\\\\\\\\\\\\\\\\\\\\\\\\\\\\\\\\\\\\\\\\\\\\\\\\\\\\\\\\\\\\\\\\\\\\\\\\\\\\\\\\\\\\\\\\\\\\\\\\\\\\\\\\\\\\\\\\\\\\\\\\\\\\\\\\\\\\\\\\\\\\\\\\\\\\\\\\\\\\\\\\\\\\\\\\\\\\\\\\\\\\\\\\\\\\\\\\\\\\\\\\\\\\\\\\\\\\\\\\\\\\\\\\\\\\\\\\\\\\\\\\\\\\\\\\\\
cri ption
sp e
Ã¤ us
c a
S et
ĠM ot
ann te
Ġwe ek
ĠSch l
z er
and s
mÃ¤ ÃŁ
ut ter
Ġche ck
ĠA pp
t il
lass e
us h
F ile
ir che
Ġs ite
Ġn ah
Le ben
a ÃŁ
Ġin ternational
A d
rie d
A s
z iel
Ġc are
w ork
Ġp at
ĠBere ich
Ġl o
ĠH ein
ĠW ar
ĠKar l
ĠF est
im al
we en
S S
n ess
ĠB re
Ġ2 1
Ġd id
ard s
Ġn or
ĠS eite
Ġav ailable
E D
h Ã¤lt
reich en
om in
ĠE m
kt or
Ġ2 3
use um
il es
Ġf alse
Ġl ar
ĠOr ts
Ġ201 9
D F
ro om
Ġdiffer ent
Ġa ut
al b
Ġe hemal
Ġl ist
re uz
c i
Ġm ar
d orf
d ings
Ġp olit
lass en
Ġf Ã¼nf
aus pieler
gr amm
ĠM od
ck er
Ġpla ce
Ġth ink
ĠW ill
a un
Ã¶r der
c ing
am ent
Ġth ose
ĠTe chn
ord s
geb iet
ĠPerson en
ĠK ont
Ġp os
al y
ĠN ieder
Gesch ichte
itt le
ĠM at
h af
w ig
Ã ³
re chen
d ate
I T
Ġs ystem
k ten
g ra
Ġv al
o ge
tell er
et ail
Ġob ject
ĠW erk
uf f
ĠLeben s
Ã¼ hl
le i
ĠMe ister
Ã¤ uf
r ic
h ard
b ack
ct ive
Ġr und
nis se
Ġt er
a el
ro ll
Ġfor m
m et
op e
Ġbu ild
it ter
I t
r ide
ĠP aul
j Ã¤hr
7 0
Ġden en
Ġf ollow
Ġg roup
s am
Ġre ally
Ġ200 4
ĠP re
ĠT ag
ut es
ĠFrie drich
Ġl ove
it te
Ġc a
Ġc our
um en
Ġv ar
Ġm al
ĠK ultur
i as
ĠT er
ĠJu gend
Ġan n
C ont
Ġm ov
as st
C l
or ts
2 3
Ġm Ã¶glich
ĠP ort
ath ol
sch ul
Ġph ot
Ġpro ject
ap e
Ġbefin det
Ã¤ re
Ġus ing
Ġne xt
4 5
ĠBer g
ĠGe gen
Ġdies en
te te
ass e
bild ung
Ġbet ween
ĠSt r
och en
ernse h
us ch
N ode
Ġ18 8
Ġg ar
Ġb oth
ĠDeutsch en
B u
Ġh im
M e
our n
ĠSp ort
st ag
ĠD u
le y
ra um
Ġz ahl
Ġk on
al ten
ĠW ahl
l ang
ĠFamil ie
c lass
ĠIn stit
glie der
Ġt ype
ig inal
ĠK ap
n a
Ġer halten
ĠIn ternational
ĠT o
rit t
ĠB ra
et ing
la ub
ĠPolit iker
Ã¶ m
ff en
Ġ Ð
Ã¤n ge
Ġc al
Ġje we
Ġsh ort
kl Ã¤r
Ġper fe
ĠB el
p latz
grÃ¼n det
i at
ap er
Ġwor den
um n
ĠS ohn
ĠEntw ick
Ġse x
Ġinclud ing
Ġexper ience
y ch
ĠF il
ent en
Ġfr ien
+ +
h ung
Ġst ill
ĠK reis
Ġsoll te
igh ts
ond on
A C
Ġo pen
ĠG o
wohn er
ĠB ut
ur y
ĠN ame
ĠAl b
Ġletz ten
Ġf ast
L E
f ts
ĠM y
Over ride
G est
s icht
ĠK om
Ġge ht
Ġb as
sh ip
g aben
ĠEn g
Ġeben falls
lich keit
Ġsm all
fig ur
it or
Ġserv ices
Ġ â
enn t
ch es
lo b
isch of
---- ----
b ed
re en
ĠT itel
dr ess
Ġzun Ã¤chst
Ġetw as
ĠC olle
U R
fÃ¼hr ung
Ġwel che
Ġbeg ann
er st
an e
ĠF ot
I f
ĠF ach
Ġent sp
Ġdeutsch e
Ġcomp any
Ġbo olean
Ġm ich
ĠF in
sch rift
Ġent stand
at us
is hed
ĠD on
Ġdis c
r sg
c le
f Ã¤
Ġein ige
o ot
ĠB en
ĠM or
A M
m us
om at
ĠH ier
Ġv iew
av a
Ã¼ l
ess or
ann ten
Ġfamil y
Ġse i
ĠB ahn
Ġdar auf
Ġm ax
ĠC ont
A uf
Ġincl ude
Ã¤s ident
Ġo per
Ġro om
Gest orben
en det
onder e
S p
In dex
Ġakt u
alt ung
uch en
hel m
de ck
Ġsch n
ĠPro v
am a
Ġf ull
A ll
Ġim port
lo y
ĠI ch
Ġ2 8
Ġapp ro
Ġent wick
M an
Ċ ĊĠĠĠĠĠĠĠĠĠĠĠ
Ġsch ool
j ahr
E lement
Ġc or
ĠO st
Ġmon th
ĠL a
ĠFran z
ĠS ystem
ir l
Ġs ame
amp f
Ġd i
ĠP ark
ĠC ol
ho de
sel f
oc i
Ġ200 3
ir d
St ream
Ġprof ession
Ġ200 1
av ing
Ġor der
Ġ199 0
Ġb ra
Ġbre ak
Ġa uÃŁer
Ġ4 0
on nen
able d
Ġhe alth
ĠOb ject
it es
Ġne u
ĠS eit
ĠWelt k
Ġev ent
U S
v ed
Ġ2 6
al es
ĠH el
Ġc all
ĠL ist
Ġre quire
ell er
< /
uch s
amerikan ischer
is se
Ã¼ b
ĠPar is
ĠN o
Ġfe w
Ġcont in
Ġst ark
z entr
et te
er ts
IN G
Ã¶l ker
f urt
ĠFra u
an ad
ot he
g te
h a
ber eich
ĠH ans
Ã¼nst ler
op f
fer ence
la y
ĠE ur
Ã¶ sterreich
ĠRe chts
imm t
ol ution
Ġp op
Ġsupp ort
iv al
uÃŁ en
Ã¤ m
Ġv oll
Ġre quest
min ister
F uÃŁball
b et
ĠD em
2 4
Ġth ree
Ġver Ã¶ffentlich
Ġander em
Ġb il
: //
um p
ame ter
Ġge m
l ess
d ruck
Ġd uring
Ġh istor
im at
Ġspe c
Ġl assen
ies en
sch w
o x
Ġre ce
ĠgroÃŁ e
Ġf ield
Ġper form
Ġspe cial
ĠPe ter
ir on
f ilm
an a
ĠIn formation
I C
M od
Ġm ust
e qu
ĠAn t
Ã¶glich keit
Ġf act
Ã¼ck e
Ċ ĊĠĠĠ
iz ation
ĠS il
Ġh app
z t
Ġver l
Con text
e ver
en nen
ur es
ĠB i
ne y
d o
ĠL ondon
ĠS he
Ã¤ che
ĠN ot
Ġte am
gen ommen
reich e
id s
Ġk ommt
W ith
Ġ2 7
se e
Ġne ben
Ġd azu
Ġle arn
Ġind ivid
Ġre t
Ġgew ann
Ġk ommen
Ġm ember
st Ã¼tz
Ġh och
Ġ200 2
Ã¼s sen
at ter
Ġat t
th ing
Ã¤ ft
den s
T ime
or ge
Ġare a
ĠBe g
A S
I I
on ders
la u
ĠH ar
rit er
ĠHer z
ĠgroÃŁ en
Ã¶ t
c er
Ġm et
ĠJahr es
Ġ( âĢ
ĠP reis
M et
rie gs
it u
ĠD re
Ġqu ality
ĠB ern
ĠÃĸ sterreich
H and
for der
F ield
ĠLand kreis
Ġlook ing
Ġd och
v es
af fen
ĠH il
ĠB esch
Ġch o
ĠB ed
ourn al
te gr
P r
oss ible
ar ly
O n
Ġin ner
em p
ĠM art
Ġw ater
Ġo ption
ic ally
M essage
Ġall en
iet y
oc ol
I S
w or
Ġeing es
ar te
Ġal ways
Ġre lat
z ogen
Ġpro ble
Ġmach en
Ġm en
ĠKir chen
ĠS el
ch te
or ie
ĠT or
ver t
Ġihre m
Ġloc al
Ġs w
O f
Ġim p
Ġk urz
Ġl ittle
Ġst or
g n
ient s
ĠO lymp
Ġe ffe
D ies
Ġgo ing
ĠB Ã¼rger
ĠJ ose
Ġfe el
č Ċĉĉ
ĠThe y
9 0
k m
il ter
teil ung
our ces
z el
ich ter
Ġm ethod
pr ession
ĠgehÃ¶r t
ur ger
um m
sch ein
ik t
Ġfr Ã¼
ent ial
nah men
our s
tr Ã¤
ĠC or
ĠK at
we is
ĠVol ks
Ġp ay
Ġst ate
7 5
b ook
ro s
Ġb ig
Ġo ld
Ġs imp
2 8
Ġpro m
ub e
atur es
igkeit en
Ġ20 20
pr ess
Bu ilder
č ĊĠĠĠĠĠĠĠĠĠĠĠ
Ġab sol
Ġex p
Ġg ing
Ġauf ge
ĠGener al
ĊĠĠĠĠĠĠĠĠĠĠĠĠĠĠĠĠĠĠĠĠĠĠĠĠ ĠĠĠ
wer b
Ġf lo
2 6
ar get
Ġ199 9
ount y
iz iel
Ġ| |
3 5
f re
Ġer r
Ġj ob
d ing
ind ung
ĠR ah
Re g
. "
Ġb ro
m ut
Ġ est
ĠEin satz
Ċ Ċĉ
Ġn ie
ĠD o
Ġg ot
D R
ĠZ e
e te
Ġle vel
Ġ18 6
tt p
Ġor gan
Ġg row
E s
Ġbe h
c r
! !
uch e
Ġt yp
gesch ichte
ĠD i
s ych
un t
st re
c ont
ĠI hnen
Ġto o
du c
ĠSch rif
Ġ2 9
ĠC ity
ĠD orf
g ument
ĠTh ere
Ġ ?
ĠU hr
Ġex c
el te
Ġ Q
Ġher aus
D es
on es
in ner
Ġw Ã¼r
Ġc r
ĠHer r
ĠS ol
g ar
m m
d ienst
ver ein
fÃ¼ g
ĠD av
ges amt
Res ponse
Ġcon ne
I ON
č Ċ
ĠFamil ien
ĠG en
ĠUS A
ach en
Ġste hen
equ als
ig ital
pr ivate
ĠPar te
ers Ã¶n
ĠH ow
ĠD a
Ġsch lieÃŁ
Ġpart ic
Ġwith out
ur en
m ark
Ġden n
ft ware
ĠSta ats
Ġs ince
le ine
au g
19 8
Ġbeste ht
ĠFor sch
Ã¤ mp
z ig
ĠP al
il ome
ĠGr Ã¼n
u h
Ã¶r per
ent ly
fa ult
ĠM ain
om as
Ġw ebsite
Ġc ome
ĠF ar
Ġto day
) :
Ġke ep
w h
ĠSch m
Ġg ame
ce pt
ĠB urg
fol ge
Ġt ro
Ġspiel te
Ġersch ien
Ġs ure
lat t
ĠWe g
Ġnah m
Ġm ind
p re
ĠNe ben
Ġth ings
gan gen
Ġab ge
Ġ199 8
ur m
9 9
Ġ @
ĠMich ael
Ġwe gen
Ġis s
icht ung
S h
le ben
Ġin c
Ġbe zeichnet
S ervice
Ġapp lic
Ġhat ten
4 8
ĠR ed
Ġl ine
g o
ra cht
ab r
Ã¤t ze
ĠSch auspieler
ĠP lan
ĠWor ld
Ġd ouble
ĠIn s
f el
ĠL auf
rit ten
ĠS eiten
il y
op s
if ied
j oy
on y
Ġbe aut
ĠBet rieb
Ġd ating
A P
haus en
ĠT our
Ġpro te
eth ing
ill s
ĠAmer ican
ĠD is
em s
ĠSe e
Ġo pp
Ġc ost
Ġacc ess
il en
ĠAn fang
ĠSta aten
ĠD ire
le tz
ul ts
ar l
f ert
H rsg
Ġch ange
Ġt re
Ġl ot
h Ã¤ng
ere i
3 3
Ġe qu
ĠR uss
ĠB ad
de utsch
Ġk omp
ne te
Ġerst mals
ĠAus tr
ĠOn line
D E
Ġb rit
ig a
ll en
it ive
ch ten
rÃ¤ ger
w elt
ier s
Sie he
Ð ¾
one y
v Ã¶lker
ĠR aum
ĠUn d
ile d
it ing
Ġp ower
ist ory
ĠSp ieler
ĠRah men
Ġh ol
ĠTe am
ĠZ iel
tel le
ĠâĢ ¦
ik el
d ie
w and
ĠA ir
ke y
ar en
Ġsec ond
w ort
Ġad v
m b
ĠB ro
et en
ĠWil helm
En abled
Ġ199 7
En try
pert ies
ĠFl ug
Ġzw eiten
Ġqu est
is iert
Ġd ah
at Ã¼r
Ġwith in
ograph ie
w issenschaft
k un
an te
Ġhe ad
ĠZ ahl
ĠTe xt
Ġs uper
Ġ( !
O Exception
Ġs ize
th row
. âĢĿ
Ġl in
d es
ik en
ĠS outh
Ġho use
Ð °
Ġab le
ĠAl t
um b
utz t
heit en
schn itt
ilit Ã¤r
ĠGe org
Ã¤s ent
7 6
uch te
w est
Ġm ain
Be i
ein ander
Ġaller dings
iv ed
n ot
Ġd av
Ġh ard
ĠS m
C ol
E T
in ation
Ġer ne
Ġprodu cts
Ġle t
In fo
2 9
Ġs ay
b el
ĠI l
ent al
gr iff
ĠEur o
ĠI de
o ung
och ter
af Ã¼r
ĠHam burg
ĠS en
um an
Ġmehr ere
ĠF all
ĠHein rich
an ten
Ġle ad
Ġd ays
rit e
ost er
Ġsein es
G roup
ĠA lex
ge ord
ĠW ebsite
ĠT re
in c
e hen
Ġbet ter
v alue
y d
ĠW ith
ĠK ais
Ġ199 6
ĠW ind
Ġm ult
ĠC om
ĠA kt
Ġ198 0
Ġa uth
Ġimport ant
Ġinter est
entr al
.) :
en a
den k
ur f
Ġ194 5
eng l
Ġr un
os en
Ġl a
ĠBe ispiel
Ġsom ething
ograf ie
ĠFol ge
um er
Ġh inter
ĠF unktion
ab ility
op er
Ġj etzt
az z
ĠIntern et
l og
t ocol
Ġwe il
Ġf ac
Ġeigen en
s weise
tre ten
ĠM ay
Ġof t
Ġex ist
ir m
ĠG ruppe
Ġ199 4
ĠHo tel
. âĢľ
ĠS ommer
ier ungs
ĠLe ist
Ġer reich
Ġein mal
ĠK la
p lan
Ġeas y
Ġbe w
ic le
spr Ã¼n
Ġp ut
P erson
ĠD ort
ĠK o
Ġverschieden en
h am
it ch
Ġg ive
ĠEr st
if ul
ver b
Ġn ational
ĠG ar
ĠÂ »
Ġd an
Ġse hen
W h
Ġp age
ĠL u
Ġde fin
N ot
Ġl ight
ĠW inter
n ungen
4 9
Deutsch er
ĠG old
Ġc ert
Ġinv est
und er
Ġall es
ion al
yste ms
Ġwork ing
ra che
Ġstud ents
Ġ18 5
Ġpra ct
lie b
es h
Ġe ff
il igen
ĠNe u
Ġb in
Ar ray
b aut
am b
pt y
lich es
Ġverw endet
Ã¤ fts
Ġad dition
{ @
Ã ¨
Ġw est
ar a
2 7
E S
il la
Ġres earch
ĠK Ã¼
Ġm Ã¼ssen
ic y
oug ht
Ġs tell
ĠChrist ian
Ġt est
ĠW ald
ge ber
3 6
ĠJahrhund erts
Ġdire kt
Ġre f
Ġperfe ct
ĠC ounty
i am
ĠSch ool
Ġg ilt
Ġuns ere
irt schafts
Ġhe ut
trib ute
Ġa ir
ĠZ ug
Ġlar ge
ĠC omm
Ġf and
m l
Ġg l
Ġmus ic
Y ou
Ġ197 0
ĠDes ign
Ġt urn
ĠS ervice
Ã¤s st
ĠD ienst
Ġs etz
ĠL ud
Ġan t
Ġin cre
ĠF er
Ġcomp lete
ĠEntwick lung
v iron
Ġo pt
ĠD en
3 8
l ungen
Ġchild ren
ĠR oman
ut ure
ra w
heit s
Ġ199 5
ĠG ed
Al s
pla y
Ġan other
Ġl ange
ĠgehÃ¶r te
ĠEr n
ĠT ro
Ġ199 2
os oph
and id
Ġre l
bes ondere
p ublik
Ġp ort
ĠGeb Ã¤ude
d f
19 6
Ġ6 0
Ġm aking
ĠT yp
em pl
i j
if y
ĠSch n
nah m
z y
a at
Ġe d
it ten
ĠF eld
s ize
ĠK Ã¶l
ĠArch ite
Ġbie tet
ganis ation
ĠEurop a
ib li
ĠEr z
Ġin it
Ð µ
ĠP ra
Ġgen annt
ĠGra f
Ġinst ance
i ol
ort un
Ġweit eren
Ġs af
amm lung
g al
ĠC lass
Ġl at
lich t
Ġco ver
Ġc ap
ilome ter
E C
ĠR el
Ġk m
ĠRe gel
unk te
ĠW olf
Ġen gl
ĠD abei
Ġse chs
zeich nung
" .
R O
au p
ĠEin wohner
ur ity
ĠM Ã¤n
L O
3 2
ĠHÃ¶ he
etail s
Ġmark et
ĠO ur
d a
reib ung
P h
st ance
ĠT ochter
ĠM ont
ĠfÃ¼hr te
Ġen joy
7 7
ĠF C
k irche
red it
Ġjed er
Ġact iv
stell en
ĠfÃ¼hr t
aj or
Ġt Ã¤t
Ġt rat
b urger
Mit glied
schlieÃŁ end
Ġprogr am
us Ã¤tz
ig ent
Ġv an
we hr
Ġim pro
ĠO l
a uch
ĠM illion
E m
ĠArbeit s
Ġneed s
ĠR hein
Ġbes onders
ĠLe ip
C omp
Ð ¸
ĠVer walt
ĠNor th
ct ure
p end
ut s
St ate
ĠG el
ul ation
ĠR ober
for d
il er
Ġunter schied
Ã¤ ss
an c
ĠM ax
oc us
4 6
cri pt
e le
ĠS Ã¼
h end
ĠF ir
Ġsu ccess
Ġdav on
3 9
le hrer
Ġm ag
Ġ3 1
Ã¶r d
Ã ĸ
te ger
Ġviel en
as es
ĠS itz
ĠMit te
Ġtra dition
Ġw omen
arbeit er
Ġto t
ĠJ o
7 9
amp le
row n
Ġfin det
l le
Un ivers
> >
al og
Ġjewe ils
ĠTh omas
ĠS ein
Ġbu y
Ġp ath
is ierung
Ã¼ck en
Ġv ideo
Ġc reat
ĠK e
L A
ĠA g
ag s
Ġ ident
ik ation
Ġne ver
ĠEr w
ĠK omp
ĠR u
ist ischen
ĠH ome
im ent
ĠE he
Ġse arch
st ants
lig a
Ġ199 3
ĠSte in
ain er
wend ung
w irtschaft
] ;
19 0
Ġs ingle
V al
Ġ18 0
Ġperson al
Ġl aw
rei ben
g lichen
ie gel
ific ation
re if
ĠStra ÃŁe
Ġb ased
ĠUn ited
L oc
ĠB ank
ĠPro ble
Ġm ight
ra u
ob il
ĠH of
f s
Ġte xt
Ġ196 0
Ġ Ã¶sterreich
mer ikan
ab or
S er
Ġn on
ĠH istor
au en
ver n
In ter
tell ung
t ing
ĠkÃ¶n n
ĠFrank reich
ĠN r
G ibt
Ġm Ã¶ch
Ġm atch
Ã¼ ll
teil t
pro du
' m
ĠK ommun
ĠEin zel
ar ing
ĠP ap
L og
st ant
leg al
fe hl
lob al
Ġf ood
sk i
Ġof fen
ĠSchweiz er
ĠK omm
Ġk leine
ĠMar kt
Ġl ess
ar ed
Res ult
Ġde v
gr ess
z irk
Ã¤t te
ĠSo zial
de ten
Ġlie gen
Ġcons ider
ĠHol z
figur ation
Ġse ver
is ed
Ġ198 9
ĠC as
Ġ199 1
ser ie
iz in
geb aut
Ġwor ks
ran sport
le v
ge ther
ĠMe ter
ĠS oc
S o
Ġprodu ct
mb H
viron ment
4 4
ĠV ater
ward s
ĠBer uf
ĠFrank furt
ill er
is ing
Ġh al
pe ct
her r
Ġal ong
part ment
Ġ _
ĠE is
ĠR est
ĠM Ã¶glichkeit
im men
i ate
ab l
Ġr ange
ĠEr geb
Ġp ack
ĠW eb
Ġschn ell
E L
ĠO p
l Ã¤nd
Ġre view
ok en
ĠSe x
ĠMar ia
zeit ig
et work
' re
ĠWe i
ĠRe i
st att
C O
Ġb ody
Ġres p
ĠU l
ord ing
Ġarbeit ete
le ist
read y
ĠH igh
ze pt
ĠEn erg
ult ure
Ã¼ gel
ĠA fr
ag ue
richt ung
Ġ20 21
ĠE p
ĠThe ater
u el
Ġ Ã¤l
Ã¼ ler
Ġme isten
W ir
ĠS w
ĠâĢ ĺ
Ġoff ers
5 5
lie gen
Ġge grÃ¼ndet
k n
und s
Ġinner halb
l ungs
ĠâĢ Ķ
ĠL uft
ĠK lein
con om
Ġgr Ã¼n
Ġmus ste
ĠĠĠĠ ĠĠ
ter t
Ġpro perty
ĠPr Ã¤sident
ĠProdu ktion
Ġwo bei
Ġn atur
ĠPro zent
V ers
ut ions
pr Ã¤
ĠInformation en
act ory
ief ert
qu e
ĠLud wig
Ġd afÃ¼r
Ġre du
Ġdire ct
ĠH in
eit ung
al itÃ¤t
Ġl and
ĠRe c
Ġklein en
ĠM a
v oll
Ġw all
ĠM er
Ġk l
ib r
kun ft
' ve
ĠTe x
B er
ver band
Ġ Ã¶ff
et ter
ĠJ apan
es ent
ĠN utz
C H
Ġunser er
P re
th ers
Res ource
b ol
Pro perty
ĠR ich
3 4
ire d
S c
te chn
ac ter
l ow
ĠAnd re
ĠP ost
ut or
ett be
g ing
ran ken
w ie
ĠM c
sche id
ĠM useum
Ã¼r z
Ã¤r en
Ġ( (
ĠW ie
ĠGes ellschaft
te ile
le ge
Ġfolgen den
ĠT age
An d
ĠS am
Ġunder stand
Ġn a
ĠEn gl
Ã¼t zen
ach er
og le
oc ument
7 4
F ilm
ĠP ass
b est
v ious
Ġcommun ity
ĠD am
Ġr icht
Ġwe chsel
ĠB y
Ġcon c
Ġcont rol
ĠGesch Ã¤fts
h men
ĠB eit
Ġle ft
id ge
m od
Ġfe atures
8 8
S ize
Ġto gether
Ġbis her
Ġde ut
ĠLe hr
ĠT rans
ĠK rieg
3 1
W er
ĠMart in
rÃ¤ gt
Ġbeaut iful
Ġa way
ĠPro jekt
X X
ent ion
Ġall ow
ĠG mbH
to String
ĠZ we
m itt
ĠtÃ¤t ig
f ield
ro du
Ġsich er
ĠT V
ĠEurop e
Ġw eb
Un ter
Ġf our
os p
U N
i ber
I ch
Ġas k
FuÃŁball spieler
Ġ ir
ĠAn geb
isten er
us try
C ode
m on
Ġn Ã¤ch
ra b
Ã¤n dern
ĠMann schaft
n ov
Ġk osten
ĠO per
i od
Ġle ben
Ġl ive
op y
Ġn atÃ¼r
f est
ok ument
P D
ĠB rit
id ing
Ġcle an
O T
h Ã¶
ch an
Ġb ar
ou p
Ġres ponse
A pp
. :
ts teller
v ille
ĠSch loss
I M
ing ton
Ġs og
- ,
Ġges am
Ġl im
Ġer n
ge f
ĠP DF
anst alt
Ġc ity
Ġdevelop ment
Ġkonn ten
ĠW ochen
shall er
ĠM utter
Ġstud ierte
Ġze igt
ĠProv inz
Ġvis it
A D
L iefert
ten d
ll t
Ġdes cription
ĠschlieÃŁ lich
ĠH all
Ġer m
ĠOb jekt
Ġbel ow
ĠW Ã¤hrend
Ġ198 8
s c
ĠS eine
Ġl Ã¤sst
ab ly
Ġcour se
am mer
Ġk ind
Ġex tra
Cl ient
ĠR om
Ġdown load
ĠKais er
fahr t
F Ã¼r
M ethod
Ġd ist
Ġim age
z Ã¼
Ġt reat
Ġj a
Te xt
Ġgemein sam
b s
Ã ľ
Ġcon dition
Ġcont ent
ĠS icher
ĠK le
ure d
Ġf ar
Ġp ubl
A G
Ġp oint
3 7
ak en
ick en
Ã¼ f
ĠK unden
Ġg irl
ĠB ischof
Ġfollow ing
i os
ĠI OException
ĠGeb iet
an ze
ĠK in
Ġent fern
a pt
ĠZw eiten
ĠK ind
ĠInd ustr
Ġp ast
Ġn Ã¶rd
ĠH inter
Ġl ov
g art
engl isch
T r
dem ie
ompon ent
ĠH ann
Ġf av
ĠW al
ber ger
D ate
U T
Ġbes ten
sch er
Ġe lement
Ġre pr
ĠMin ister
ĠJ ust
pp er
auf en
, âĢĿ
==== ====
z immer
ĠMillion en
ib e
Ġme ist
ĠDeutsch e
F rom
ĠM il
tern al
Ġins gesamt
n ull
Ġz eit
Ġal ready
ĠT est
ĠB ur
Ġo cc
Ġit alien
a ction
Ġcon f
Ġwo hl
ir at
l am
geben en
c ol
ĠB ilder
gemein de
unn ing
Ġeinz el
ĠStra ÃŁen
ic ks
od es
9 5
ĠK reuz
ag n
ĠPro gramm
ie ve
ion en
ob ile
ĠLeip zig
Ġur sprÃ¼n
rif ten
Ġmo der
ĠW enn
itÃ¤ ts
it chen
ĠC D
ĠN Ã¤
c ent
Ġdel iver
Ġgegen Ã¼ber
E igen
fl uss
ge gen
ĠK ompon
ĠBeg inn
ĠR olle
ĠSt art
Ġerfolg te
Ġz we
ĠK ant
ĠH or
ĠV ier
Ġauf grund
ĠAut or
Mar shaller
Ġb it
Ġverschieden e
j et
ĠMe hr
y er
itz er
ĠO t
etz ung
ag t
ĠHe imat
ĠKÃ¶l n
Ġfor t
Ġh aving
Ġwicht ig
Ġs yn
ĠL ang
ĠF rei
Ġs im
Ġm aterial
Ġh Ã¤uf
ene f
Ġe duc
le b
Ã¶r t
r ist
Ġemp loy
G r
Ġp ot
ĠL iteratur
ĠK ur
on a
Ġin tegr
Ġsch wer
.. ..
en zen
ĠL og
\\\\\\\\\\\\\\\\\\\\\\\\\\\\\\\\\\\\\\\\\\\\\\\\\\\\\\\\\\\\\\\\\\\\\\\\\\\\\\\\\\\\\\\\\\\\\\\\\\\\\\\\\\\\\\\\\\\\\\\\\\\\\\\\\\\\\\\\\\\\\\\\\\\\\\\\\\\\\\\\\\\\\\\\\\\\\\\\\\\\\\\\\\\\\\\\\\\\\\\\\\\\\\\\\\\\\\\\\\\\\\\\\\\\\\\\\\\\\\\\\\\\\\\\\\\\\\\\\\\\\\\\\\\\\\\\\\\\\\\\\\\\\\\\\\\\\\\\\\\\\\\\\\\\\\\\\\\\\\\\\\\\\\\\\\\\\\\\\\\\\\\\\\\\\\\\\\\\\\\\\\\\\\\\\\\\\\\\\\\\\\\\\\\\\\\\\\\\\\\\\\\\\\\\\\\\\\\\\\\\\\\\\\\\\\\\\\\\\\\\\\\\\\\\\\\\\\\\\\\\\\\\\\\\\\\\\\\\\\\\\\\\\\\\\\\\\\\\\\\\\\\\\\\\\\\\ \\\\\\\\\\\\\\\\\\\\\\\\\\\\\\\\\\\\\\\\\\\\\\\\\\\\\\\\\\\\\\\\\\\\\\\\\\\\\\\\\\\\\\\\\\\\\\\\\\\\\\\\\\\\\\\\\\\\\\\\\\\\\\\\\\\\\\\\\\\\\\\\\\\\\\\\\\\\\\\\\\\\\\\\\\\\\\\\\\\\\\\\\\\\\\\\\\\\\\\\\\\\\\\\\\\\\\\\\\\\\\\\\\\\\\\\\\\\\\\\\\\\\\\\\\\\\\\\\\\\\\\\\\\\\\\\\\\\\\\\\\\\\\\\\\\\\\\\\\\\\\\\\\\\\\\\\\\\\\\\\\\\\\\\\\\\\\\\\\\\\\\\\\\\\\\\\\\\\\\\\\\\\\\\\\\\\\\\\\\\\\\\\\\\\\\\\\\\\\\\\\\\\\\\\\\\\\\\\\\\\\\\\\\\\\\\\\\\\\\\\\\\\\\\\\\\\\\\\\\\\\\\\\\\\\\\\\\\\\\\\\\\\\\\\\\\\\\\\\\\\\\\\\\\\\\\
ĠK Ã¼nstler
Ġin dex
ĠSt utt
es ted
Ġd est
ĠT op
Ã¶s ung
ĠWeltk rieg
is on
Ġ198 7
z ess
ĠTh ese
Ġm oney
ĠJ ournal
je kte
Ġre p
Ġen s
Ġopp ortun
ĠV e
ĠRober t
ar ian
an de
ĠReg ie
Ġagain st
Ġins besondere
Ġser ies
Ġn ight
iv ely
a it
Ġp lease
Ġwh y
arbeit en
ol oge
ern en
ibli othe
iv ision
ĠSch iff
it ze
Ġcont act
ĠSta at
Ġt imes
Ġmo dern
Ġt able
k o
Ġwen ig
Ġbeg inn
O ut
Ġs ide
ĠFuÃŁball spieler
Ġun til
Ġpr ivate
a ktion
ĠBo den
Ġ Ã¤
h an
ak ter
w Ã¤r
sch lag
Ġv ol
ĠZ eich
h as
ĠF Ã¼hr
l as
Ġ198 6
Ġm acht
id ay
ĠPf arr
Ġw he
ĠB lack
og n
ĠDies er
V or
ĠW hen
ĠSel bst
ĠM ap
ĠD enk
ent wick
Ġcomp an
N ull
m el
Ġw ind
ĠO ne
Ġso cial
Ġac ross
ĠD ruck
ab les
af en
Ġn ieder
Ġh erv
fÃ¼hr er
Ġle d
Ġsow ohl
ast ic
ĠGer man
itÃ¤ ten
U t
ĠT Ã¼r
tocol Marshaller
E ine
r Ã¤n
ĠAr ray
Ġp ossible
For mat
Ġc los
ĠH en
Ġst yle
Con fig
Ġm akes
F A
ĠS ub
em in
ĠG eld
ict ion
Ġan geb
b ie
ĠE mp
ĠBe vÃ¶lker
h aupt
as tr
Ġf ocus
8 6
Ġet c
ĠDav id
ĠCh ina
es te
Ġo ber
st ieg
w eit
ĠMet hode
b Ã¼
Ġer klÃ¤r
tel s
Ġgeb oren
Ġerne ut
ĠEn d
ĠF ile
T yp
Ġwechsel te
7 2
Ġof ten
j a
in i
ĠS uper
č ĊĠĠĠ
ĠH ers
ĠB ru
ic o
Ġp osition
E vent
put Stream
ĠA uÃŁer
Ġzw eite
ĠAm t
ann el
a ders
Ġbec ome
Ġpres ent
ĠAlb um
f ace
Ġ198 3
il nehmer
ein en
ang es
Ġl ow
Ġen c
Ġ ess
Ġn ichts
lÃ¤ uf
s etzt
ip l
Ġm ot
Ġhin aus
ĠB aum
Ġgen au
b re
Ġcom es
B r
Ġ198 5
val id
zie h
ac y
al z
ĠE isen
ĠW ieder
ĠBe deut
" )
Ġihn en
++ )
v olution
an zen
Ġsp ace
im a
f an
Ġver kauf
Ġ195 0
Ġ id
Ġan s
ge hen
age d
Ġd ate
or gen
Ġinst all
ur ance
ym n
ium s
C E
ĠSt ate
o o
Ġ( )
En t
Ġpr ice
Ã¶ ÃŁe
Ġver st
ĠR ein
ĠL es
Ġze hn
ĠOlymp ischen
Ġe ver
Ġar ch
Ġzw ar
Ġst ory
Er ror
ĠG et
ĠB is
Ġqu ick
rich ten
Ġb lieb
8 9
am ens
Ġdah er
Ã¤n den
< ?
ĠSt at
bar en
w ald
Ġs ource
la den
alif orn
Ġsever al
p reis
s ub
ĠR ock
ĠChe m
be k
ĠSch ule
b u
te mp
ĠW eit
8 5
v ier
' ll
ĠD ate
ĠThe ma
Ġy oung
ant wort
ab hÃ¤ng
Ġ198 4
ch ron
ĠZ um
Ġme et
ach ten
4 2
s erv
Ġoff ic
Univers itÃ¤t
ĠM aterial
S pe
land s
Ġus er
h or
ĠSch utz
w agen
ĠA ben
ĠK ol
19 5
ck s
och e
ĠVor s
Ġindivid u
ĠS and
iv at
ĠSchrif tsteller
ĠK ilometer
ian s
ĠBay ern
il ities
Ġsh are
ich en
Ġbl og
ĠR ot
b ank
ĠW issen
s ide
Ġm essage
ĠFl or
ĠSt ar
ĠC an
Ġal ten
sp ir
al ys
hl er
E M
wo od
S eit
ail le
Ġind ustry
Ġcol or
ĠM ore
ĠProf essor
P S
ĊĠĠĠĠĠĠĠĠĠĠĠĠĠĠĠĠĠĠĠĠĠĠĠĠ ĠĠĠĠĠĠĠĠĠĠĠĠĠĠĠĠ
ĠR ichtung
Ġerfolg reich
stell ungen
ĠBes uch
ĠK lasse
leit ung
EN T
Ġfrien d
p iele
ĠC al
7 1
in ge
Ġph ys
Ġe lect
ĠAn ton
app en
hl en
ĠT urn
Ã¤ch lich
ĠI r
Ar gument
le f
an ien
ĠÃ¼ber nahm
ord nung
ern er
ĠNor den
ne ction
ĠZ ur
ĠVer fÃ¼g
O ption
ut zen
Ġ198 2
h ip
ĠD own
ĠZ entr
Ġ ung
ĠS yn
id d
Ġun ique
Ġb lack
ĠSp iele
um ents
Ġ8 0
Ġz usÃ¤tz
Ġh Ã¶ch
Ġgew Ã¤hlt
Ġprov ides
Ġw ahr
g in
an ks
Ġprofession al
ĠP an
Ġor iginal
ĠReg ierung
Ġm om
Ġna he
Ġsog ar
ĠA p
ĠA k
ĠIn nen
F actory
ĠM os
ord in
Ġ197 9
Ġl ink
Ġerreich te
Ġre port
tr itt
Ġcoun try
f red
4 3
fol gt
ĠMot or
v is
Ġgel ang
ĠW eiter
ĠW irtschafts
Ġeigen e
ĠSt ad
ok e
Ġvor hand
in dex
Ã¤ chen
as er
Ġto ol
uf act
Ã¼r t
Ġcal led
pr int
ĠD om
ĠM el
ĠSch Ã¼ler
7 3
Ġ9 0
Ġkn own
Ġbe ispiel
fra ge
im s
ag o
om et
co ver
Ġ197 2
fl Ã¤che
Ġnor mal
Ġth ough
ze uge
Ġp o
ĠF ernseh
ir chen
Ġw oll
Ġse le
Ġme ans
wo hl
ĠK urz
mann schaft
ĠParte i
ĠD at
ĠL ou
Ġget ting
Ġstud y
g ruppe
ĠMit glieder
ho ck
Ġb enef
Ġd re
re icht
Ġbe vor
ar f
ĠT ur
ell ing
Ġent ry
ĠStutt gart
b are
z us
Man ager
h ang
ran ge
ĠB or
Ġl iving
Ġmod el
Ã¶st lich
ist ik
Ġj oin
ic ation
Ã¤us er
ung sp
Ġth ing
ain ing
ann ot
Ġ3 5
c el
ĠD istr
ul a
F ernseh
Ġm ajor
a iled
ĠSt Ã¤d
ĠZw ischen
M L
J ahr
g Ã¤n
Ġge ben
I L
Ġd one
I mp
_ _
Ġo p
em per
Ġre gel
Ġ198 1
c omp
ĠP osition
Ġso zial
ungs k
Ġgo vern
Ġwrit e
Ġstar ted
ap s
ag ing
an o
In stance
Ġm ass
or den
Ġeinges etzt
O L
g g
ĠZ Ã¼r
Ġad dress
O S
z a
Ġdesign ed
ĠR em
W elt
Ð ½
Ġn ord
get ragen
te id
c ome
un sch
ak te
Ġsoll en
Ġhand elt
B au
s uch
ak er
ĠIl legal
ge geben
schul lehrer
ad urch
opp el
ĠA G
ĠAn zahl
Ġmember s
ĠB u
wer ke
form at
b or
geb ung
zeich nungen
ges etz
ist ische
V on
Ġspec ific
Â »
ĠPr ess
ĠverÃ¶ffentlich t
b ug
Ġc ent
ien en
Ġ197 8
ift ung
ĠCl ub
f asst
ĠIn sel
Ch ar
es tern
Ġf ur
Ã¤ ischen
zeich en
ĠD el
sche iden
or m
ĠF inal
Ver ein
ym bol
Ġdeut lich
ĠS ong
ste lle
ic ro
d i
Ã¼ ter
ab y
lan zen
gesch lossen
st Ã¼ck
ck t
ges ellschaft
ĠIt alien
L and
Ġzahl reiche
id el
ĠS im
yn am
St and
ĠBedeut ung
he mat
Ġp urch
ĠColle ge
Eigen schaft
T rans
Ġstr ateg
Ġehemal igen
Ut ils
ok al
ww w
ĠE igen
Ġbest imm
B C
Ġres ults
kehr s
re ibt
Ñ Ģ
Ĥ ¬
id a
Ġp ersÃ¶n
am in
Ġapp ear
pla ce
ab in
ĠA ber
we gen
eh men
mÃ¤ÃŁ ig
es tens
Ã¼ss eld
Ġc m
Ġst ra
cre ate
Ġeng ine
ide os
asch inen
Ġcompan ies
r ess
ute t
ing t
Ġh om
ĠI mp
l ad
led ge
ĠM iss
ĠAl ter
z ir
iz iert
w asser
stell t
Ġfrien ds
Par ameter
ĠMit arbeiter
an ces
ĠC enter
ĠT al
if fe
Ġse ason
ĠTh at
Ã¤hl en
g ent
en ze
Ġs tellt
c is
Ġide as
Ġentsp rechen
ichte te
al tet
ĠOrts teil
i ra
Ġh inz
Ġr uss
v est
ĠS ant
Ġd at
b ung
Ġbeste hen
ran t
ĠG ast
ĠCar l
ĠHo use
Ġc amp
ger ufen
ĠII I
ĠJohann es
ĠV iel
6 5
l ast
un ction
Ġwel ches
ĠH al
ĠC oun
it a
Con stants
C he
ĠArt ikel
ĠF el
y e
it en
Ġw atch
Ġh Ã¶
m ost
Ġp ie
Ġg re
ĠfrÃ¼ her
ein t
ell s
Ġso gen
ĠWh at
hock ey
Ġsimp le
Ġ197 5
** **
ĠR iver
Ġ197 6
Ġlie ÃŁ
un e
ĠwÃ¼r de
ĠSÃ¼ den
ra uch
ĠAn n
Ġbeispiel sweise
ĠMed ien
ĠM ad
L o
ĠFre und
ĠK riegs
ue ck
ĠO sten
Ġor ganis
6 4
ch ester
Ġp df
ay er
pe cted
rie f
n ers
C ount
empl ate
Ġzu dem
Ġen vironment
âĢ ĺ
me e
Ġinstance of
ĠVerfÃ¼g ung
Ġin put
ro t
Ġsie ben
Ġres ource
ĠJose ph
Ġbie ten
ge fÃ¼hrt
ann e
Ġex ec
Ġw alk
St atus
âĢ Ķ
as en
Ã¼s se
Ġv e
ol den
Ġver sch
Ġs n
ĠE lekt
Ġacc ount
ĠStud ien
Ġe urop
Ġtra vel
Ġger ade
n am
Ġ7 0
Ġfolgen der
Ġw elt
20 18
itz t
Ġproble m
leg te
Dies e
ĠR und
Ġtra ining
Em pty
Ġtechn ology
Ġcomp uter
H och
ĠS achsen
le iter
ĠHerz og
ĠK Ã¶rper
olit ik
ring en
Ġh ours
Ġver fÃ¼
Ġdam als
Ġc ode
ĠW as
Ġ196 9
k or
ĠK ateg
Ġerr ichtet
ĠE ing
ĠR ang
ri x
g a
fÃ¤ h
ettbe werb
Or t
F l
ĠDe c
Ġm iss
Ne w
ĠAuÃŁer dem
ĠV al
Ġ197 4
t ime
is c
C omponent
W est
n ach
Ġ{ @
Ġa cht
Ġw id
ĠT ab
Ġt alk
ĠW el
ĠgehÃ¶r en
e ign
ĠAuf lage
throw s
ĠH a
ĠS erv
itu ation
H er
Ġs ett
or ed
ĠP et
fl ug
U r
b an
er ing
sche ch
P ack
ĠK auf
ĠK osten
ĠW esten
P er
ch ter
en en
Ã¶ hn
Ã¤d ag
, "
it le
4 7
Ġc la
w rite
Ġc lose
ĠH alb
Ġst amm
Ġinv ol
s b
ip le
Ġheut igen
ĠP lay
hr te
ĠHil fe
Ġf it
ĠL age
Ġle icht
4 1
ient en
Ġwen iger
e e
Ġh istory
ul es
Ġrel ations
ok rat
Ġman agement
ĠN etz
Ġletz te
w ind
ĠM ill
I V
Ġwir k
ci ally
Ġmit t
Ġ197 3
ĠG od
ĠK raft
Ġf ilm
ĠK or
Ġen ough
Ġ Ã¤hn
Ġc ard
Ġfr ont
e ded
ĠEng land
ymn as
Ġoff iziel
ĠMÃ¤n ner
Ġb lock
ĠW ein
ĠG est
il led
Ġ197 1
Ġem ail
it ure
ĠJ es
Ġvers ion
Ġbuild ing
Ġdan ach
Ċ ĠĠĠĠ
ĠB ook
geb Ã¤ude
x is
Ġloc ated
M S
ĠG arten
oin ts
ĠÃ¶ff ent
Ġer k
O G
tur es
Ġsom it
ĠSch ne
ĠM ass
setz ung
haf t
ĠhÃ¤uf ig
B uffer
ĠSal z
I P
Ġs ug
Ġge hen
sp rach
get Name
ĠE ben
ĠS on
Ġpro tocolMarshaller
Ġin form
p ol
ĠLe ague
C all
Ġd ir
s eit
Ġs en
or ies
br uch
rach te
Ġfe ature
ĠG Ã¶
ĠSt ates
op t
em a
Ġ Å
av en
hand lung
Ġmed ia
ide d
Ġw ollen
ish ing
ĠJ ack
Ġsie he
Ġ196 8
fin ition
weg ung
Deutsch land
B o
ĠF ort
Ġ196 4
( (
ĠEr folg
Ã¤t zen
Vers ion
9 8
la ger
Ġ197 7
s eite
Ġgef unden
ĠgrÃ¶ÃŁ ten
Ġre cht
9 6
ar tet
ĠG ruppen
Ġcustom ers
Ġpop ular
ĠC r
ier ter
rol le
Ġa w
ĠGr Ã¼nd
Ġcomm on
ĠVert rag
ik al
0 5
ĠMin uten
Ã¼r d
ĠReich s
air s
ĠVerein igten
Ġle b
Ġgem acht
> ();
Ġm illion
ĠB Ã¶
i ar
ĠS et
ĠN ow
pp ing
ĠAl le
amer a
ĠPol ize
Ġvar ious
w in
ier ungen
I tem
S ystem
Ġbe de
Ġoff ice
ĠP la
Ġk ur
Ġwe iÃŁ
Ã¤ h
Ġo thers
ĠEl tern
ĠRei he
P ol
Ġbefin den
Ġaut omat
Ġtot al
g liche
Ġzu vor
ĠFin anz
Å Ĥ
as ing
ibliothe k
ĠS telle
ĠD ach
an lage
as chen
c m
ain ed
im um
ĠAm ts
ĠDre h
or ted
ĠEr fahr
oci ation
Ġoption s
U L
Ġw on
IN D
tem berg
Ġdar unter
Ġz ie
Ġdisc uss
U p
s burg
Ġent hÃ¤lt
Ġqu alif
Ġl ag
ĠC ommun
Ġer Ã¶ff
ib ility
Ġcl ick
Ġger ne
Ġk lass
ĠZ ust
S te
g ment
Ġne ar
Ã¼h le
Ġb ath
k r
final e
bl ick
ach ing
Ġjed en
ĊĠĠĠĠĠĠĠĠĠĠĠĠĠĠĠĠĠĠĠĠĠĠĠĠ ĠĠĠĠĠĠĠĠ
Ġm at
ĠAustr al
Ñ Ĥ
geb ie
Ġst ay
ien s
Ã¤t igkeit
Ġauth or
i ro
ĠfranzÃ¶s ischen
Ġme an
ĠAus bildung
le men
at ors
z z
ĠO pen
Ġcom fort
Ċĉĉĉĉ ĉ
t ype
ĠD Ã¼sseld
ĠP sych
Ġmin utes
Ġperform ance
on en
ĠA ka
Ġst ru
m as
ĠL Ã¼
Ġy et
ĠSch wer
Ġex pl
imm ung
Ġevery thing
Ġrequire d
U m
Ġsch Ã¶n
Ġe conom
ĠN ie
Ġcolle ction
Ġf uture
Ġe arly
et ten
Ġabsol v
Ġresp ons
ge m
ĠKar r
ir es
F e
v ing
ens ion
Ġp ur
Ġer reicht
os sen
Ġ(âĢ ł
Ġon ce
lÃ¤ ss
Â ²
urn iture
ĠJ ur
ĠRich ard
im ate
ĠRe ise
ĠEr d
b esch
ĠB aden
arbeit et
ĠGes amt
ful ly
p age
Ġt arget
Ġexper ien
Å ¡
ges etzt
k an
ial og
ĠPh ys
for sch
Ġm eine
schlieÃŁ lich
Ġh uman
ĉĉ ĉĉ
Ġsoll ten
ĠS u
ad s
ĠA ward
Ġgleich en
g round
ĠP rem
ĠO ut
Ġcon text
mal e
Ġa ud
ĠS aint
Ġh ost
ĠG roup
ĠFr Ã¼h
u age
v a
Ñ ģ
ang s
anad a
Ġk itchen
ĠNÃ¤ he
ĠD enn
ĠT on
ĠV o
Ġne ues
Ġwh ite
k el
g ere
Ġ193 3
h il
Ġw onder
Ġl ik
ĠCh amp
Ð¾ Ð
Ġre por
ĠI D
iv il
Ġinclud es
Ġfun ction
Ġle ast
aff el
un ge
ol a
Ġ4 5
fol gen
Ġcontin ue
Ġherv or
ne xt
M us
d in
k le
ĠHer aus
Ġ196 7
ĠOt to
i w
Ġc oup
ien te
ste hen
ĠK re
¿ ½
est s
Ġen erg
Th ere
Ġd istr
ĠM ac
Ã §
Ġh ttp
f ried
Ġein igen
Ġg ute
c ement
ĠJ azz
sp iele
o der
ĠM ilitÃ¤r
ĠD DR
ĠE hren
Ġact ually
Ã¼ss el
d t
Ġz og
Ġ(âĢ ŀ
Ġr Ã¶m
ï ¿½
ĠR os
Ġth ought
Ġverb unden
Ġlin ks
Ġa ff
w ord
ĠAr ten
ĠT her
Ã¼l t
Ġcert ain
T oken
at ers
Ġh ig
-------- --------
ĠF le
Ã¤l fte
Ġapplic ation
] .
ĠIn n
Ġex t
ĠG ot
ĠU p
Ġ( =
ĠVerb indung
or es
w ill
ĠZÃ¼r ich
Ġreg ion
ĊĠĠĠĠĠĠĠĠĠĠĠĠĠĠĠĠĠĠĠĠĠĠĠĠ ĠĠĠĠĠĠĠ
Ãľ ber
le icht
vent ion
ĠP o
Ġpre par
Ġmonth s
ĠVerwalt ungs
che ck
ĠG ott
M ed
g y
Ġb le
ges ehen
Ġgen utzt
ĠAn gel
ra el
zentr um
W hen
Ġg ames
lie ben
Ġd iff
ze hn
te cted
ig ungs
ist ry
ĠY our
Ġerw Ã¤hn
us st
ze ugen
Ġe lekt
ĠL o
Ġst ore
or a
ĠL iga
ĠK an
ik on
Ġfav or
ĠM ult
jÃ¤hr igen
ĠR ud
enn ung
u a
Ġkein en
Ġakt iv
ĠErn st
Ġh ab
ĠW irk
Ġrec ommen
K on
ĠW issenschaft
ĠAr m
deck t
9 3
Ġzur ueck
ĠPr es
ĠÂ «
ĠJ ames
Ġag o
č ĊĠĠĠĠĠĠĠĠĠĠĠĠĠĠĠ
Ġf alls
Ġdo ing
ĠBerlin er
ith er
ra in
G ener
ik o
Ġst arb
par te
Ġr en
Ġde al
O ff
ho ut
l ant
os ph
an cial
Ġs end
ĠB ach
ĠUnter stÃ¼tz
ĠD och
entwick lung
it i
f rei
Ġbei de
Ġc ame
ht t
Ġpartic ular
G B
Ġam ong
Ġw issenschaft
ĠFl uss
Ġdoes n
Ġho he
Ġunser en
ĠM ein
ĠK opf
rit te
ĠD eb
Ġl ock
Ġann oun
S E
Aus wahl
Ġhe iÃŁ
Ã¤t ten
âĢ¦ ]
ĠVors itzen
Ġ5 00
6 6
W enn
ĠF ree
Ġne g
ĠPhil osoph
Ġlat est
Ġh old
letz t
on ie
Ġ193 9
ĠG leich
Ġentfern t
f ile
aup ts
ĠR ob
rÃ¤ ge
arbeit ung
O ur
Ġcre ated
Ġstell te
t d
ĠB ot
Ġc ur
sch iff
Ġpro b
Ġnew s
Ġteil weise
f Ã¼r
Ġs ays
at iv
Ġto ok
Ġare as
Ġre d
f il
Ã¶ ll
I G
Ġn ode
ĠC amp
ĠJ ung
ĠMus ic
Ġunter stÃ¼tz
Ġs il
Ġs tellen
Ġf rei
Re c
tag s
Ġp an
st ud
em ents
ĠV ideo
Ġ193 8
or der
tr ieb
r am
Ġbe teil
ger icht
Ġev ents
Ġf ace
ĠJun e
âĢľ )
Ġman ufact
Tra ce
ĠKarr iere
Ġb ad
Ġre ason
Ã¤n gen
. -
l ist
ĠC ent
we isen
ĠHer mann
leit et
S C
ĠS l
ĠF en
ou d
zeit en
Å į
de bug
ĠKont akt
Ġm em
ch ar
Ġnach dem
ip ment
St at
Ġg iven
ct ors
Ġ196 2
Qu ery
Ġ196 6
Ġv ia
ĠB all
ĠMe er
G em
b ro
r hein
Ġp ic
ĠF Ã¶rder
Ġ196 5
Ġinter ess
S V
w esen
ĠSer ie
v in
ĠB ill
Ġflo or
p ark
st ate
ĠT ier
Ġdid n
ĠG al
ame ters
O per
m ission
Ġd Ã¼r
Ġm ap
ĠAut o
# #
us ive
yn c
Hand ler
Ġ- -
f ar
Â °
k i
Ġin tern
Ã¶r m
meister schaft
as te
ĠHe il
istr ation
r uf
En d
ĠSie g
Ġpr im
ktion en
arr iere
Ġd etails
Ġ193 0
ĠD ay
ĠW ol
1 00
0 9
ter e
ist ic
Ġd ue
ĠArray List
ĠB al
Ġsel f
ĠS in
Ġk amen
he t
ĠPhil ipp
Ġf ive
ĠGeb urt
ĠDam it
c ase
m und
le ased
Ġde p
Ġdam al
ĠBevÃ¶lker ung
C D
ĠF ig
ĠC la
Ġauf genommen
Ġcl ient
A ss
L istener
Ġa ge
Ġa ction
Ġper iod
cre t
ĠAlex ander
Ġnatur al
ĠO ct
ren g
ĠGe f
ĠGe ist
oot ball
tr ue
rit z
Ġen ter
aler ie
er in
Ġp ick
ĠP il
ĠSp ring
8 4
A ccess
r Ã¼
ĠSt unden
ĠGo ogle
ĠBahn hof
Pro du
ĠPart ner
Ã¼rt temberg
. <
ĠD res
Ġst aff
ran g
iden ce
ĠM r
Ġer ster
Ġp lat
ĠF uÃŁ
ĠFra gen
Ġ194 0
Ġ196 3
Ġentwick elt
S ub
ĠkÃ¶nn te
f ten
w irk
ig lich
av y
Ġso ftware
Ġad min
end es
an ger
ĠB ack
sch riften
U til
c urrent
ad o
ame ister
ĠSp rache
ĠnÃ¤ch sten
Ġaus gest
iz es
an ken
ĠPolit ik
as il
Ġab ove
ĠNew s
ĠK ampf
ĠSt Ã¼ck
ug hout
ask et
Ġ19 20
ĠA ugen
Ġse en
Ġex ten
oll ar
ab eth
f ix
ad a
Ġ194 4
ele br
Ġwrit ing
Ġvoll stÃ¤nd
ich ert
ĠA ct
i h
ĠP lat
Ġfolgen de
ĠNach dem
fass ung
Ġd ivers
ĠHer ren
Ġquest ions
0 1
k und
Ġam az
Ġfol gte
ĠSpiel en
Ġin nov
" ;
it ar
o on
ĠGes und
H ol
u ed
ĠI ll
Ġcon stru
omm and
z we
ĠR at
Ġs at
Ġiss ues
le tt
hal ts
0 6
C hr
ĠNach t
Ġv o
ĠO s
ĠIhr en
ich e
ĠP op
ĠR oy
Ġ3 2
olog ische
Ġho hen
Ġbr and
ĠWill iam
p ass
Ġl ength
fol ger
ig entlich
ĠI d
ab ase
Ġex ception
hal te
h ing
ĠGe orge
Ġmach te
Mod el
Ġk ont
ĠSie d
Ġv eh
Ġc ra
ĠSe c
ie ÃŁ
ĠM aÃŁ
et y
ĠRe ad
9 2
ach ed
Ġal t
0 8
Ġa ch
us ion
isse ur
ĠS a
Ġp aper
P E
am ed
ell ow
ĠFol gen
Argument Exception
ĠFe uer
z iert
ĠU K
ĠW and
ĠR en
as ure
ĠH Ã¤lfte
ar th
Ġspe ziel
Ġbo x
n es
ĠfÃ¼hr en
St art
bo ard
or te
Ã¼ ste
ĠR Ã¤
ĠL icht
ian a
Ġass ist
ĠB rown
ges tell
ĠEr sten
net en
0 2
T able
d am
Ġne hmen
z i
Ġc ook
Ġdar Ã¼ber
m Ã¶
ĠS Ã¤nger
Ġe her
iz er
Ġat tra
Ġread ing
zie hung
ĠB ud
ĠKl oster
ĠCh or
Ġup date
Ġloc ation
ĠAn ge
aus ch
x y
ĠBas is
ĠA fter
C olle
ĠW o
Ġb i
Ġhapp en
ge hend
ĠThe men
gr am
ĠBr on
olog ischen
ĠB und
ĠN ik
end s
ĠWer ke
Ġfr Ã¼h
Col umn
Ã¶ ne
Ġby te
ĠUnter such
Ġbest and
ĠW ash
be ck
Ġgew esen
lie d
is es
if en
Ġson st
Ġfin ally
af t
com ing
ieren den
ĠEx per
ĠWien er
k ret
Ġ row
ĠSil ber
ĠmÃ¶ch te
Ġt aking
ĠArbeit en
Cont ent
Ġsch rieb
ĠDies es
c il
Ġcomp et
Ġ196 1
Ġpre vious
ĠA re
Ġw ww
Ġw Ã¤re
Ġl ater
ĠSte uer
mar kt
B ut
L ine
ĠFrie d
ĠEnerg ie
Ġ ill
ade d
Ġze igen
Ġf ert
ill en
z ip
Ġb esser
Ġver lie
Ġde fault
Ġunser em
he ad
ĠL Ã¶
ir c
Ġins urance
ĠÃĸ ff
Ġeben so
st ring
ĠGemein den
9 4
en ces
zeug t
s ie
la w
Ġpr ess
Ġsome one
Ġspiel en
me hr
Ġh air
Te ilnehmer
Ã¤nder t
u hl
gen cy
ĠUn ion
A B
ĠRe cht
tt y
t est
Ġk om
it ts
ĠRe al
Ġ[ âĢ¦]
ĠJe an
Ġn etwork
ĠWolf gang
ze igt
Ä į
Ġs ale
neh m
ĠAuf trag
ing ungen
Ã¤ te
ĠM ess
ot a
S ource
ĠGes etz
so zial
Ġge legen
Ġwh ole
ail y
Ġ194 6
ĠA cc
ĠE lement
ir th
t c
Ġd igital
ĠA uss
ĠD ann
Ġh ope
ĠV oll
Ġ195 6
u c
Ġf und
y a
ĠInstit ut
v on
ĠBr and
Ġwirk lich
ĠP lease
Ġihr es
ĠA th
el ten
ĠK ons
Ġ195 2
p aper
ĠFra ge
Ġvers te
ĠDÃ¼sseld orf
0 3
ĠP ublik
ann ing
Ġstr ong
ĠAr mee
Ġsp ielt
ĠSch e
ĠT om
om ot
Ġch allen
Ġpr iv
ĠZu dem
Ġhal f
M A
Ġmehr eren
Ġprovide d
Ġaktu ellen
Ġerh Ã¤lt
irat et
b um
ed en
sch au
Ġto ur
ĠC ons
ĠProdu kt
alys is
ĠnatÃ¼r lich
= "
ot o
Ġhe art
Ġre chts
icher ung
ĠK ranken
ist ent
mar shall
le cht
Ġc ount
Ã¤d chen
Ġver d
Ġ195 8
Ġchar acter
ent ry
Ġc as
ĠE t
ed ule
Ġtra in
F F
ic ate
em e
Ġsetz te
E X
S port
is ted
ĠA st
ĠBru der
rie ges
Ġrest aur
T R
ĠL aw
Ġal te
ot te
ĠBes itz
ict ure
iv ity
fahr er
h ib
ut her
Ġw ide
Ġens ure
Q L
l ern
w art
w issen
Ġar r
af fe
Ġc annot
Ġer reichen
ĠVers ion
b Ã¼rger
ĠK ing
ho ben
ĠStud ium
ĠauÃŁer dem
g u
ĠM ond
sch t
ĠRe publik
anst altung
iz ing
gew iesen
ing les
g as
Ġw ent
ĠJ ac
Ġad ded
ĠBe griff
Ġex ample
Ge ographie
ĠErgeb nis
i pe
ĠB ig
Ġqu ite
n o
Ġe p
ĠA uÃŁen
S ON
Ġthro ughout
m o
ĠW ild
Ġne eded
it sch
Ġs ystems
zir ks
ĠBl ick
Ġ );
Ġver he
Ã¤nd ig
ĠIhr er
Ġenerg y
re ten
ĠB on
Ġevery one
Ġgovern ment
B IND
ver kehr
ell ent
reit en
Ġf ul
Ġf ire
Ġm er
ĠI st
Ġval id
Ġa merikan
idd le
S D
ra chen
G es
al a
af r
rit ik
u hr
bin ation
ĠHow ever
Ġs ong
ig ner
ĠL at
Ġver ein
Ġh ot
sch uss
ĠAl bert
Ġ194 9
Â ®
ĠGr and
res ult
Ġph one
BIND ING
ĠSt ock
ĠAus wahl
ĠHann over
Ċ ĊĠĠĠĠĠĠĠĠĠĠĠĠĠĠĠ
ic les
olog ical
I s
Ġtro tz
ĠRest aur
il ar
Ne xt
ann er
Ġsp an
Ġ194 8
Ġben Ã¶t
ĠFir ma
L ength
N umber
ĠL ong
Ġle g
if fen
Ġv ari
ĠC re
Ã¶ sen
all ow
Ex pression
rÃ¤ fte
ĠC our
Ġ Ã¼b
Ġ195 9
Ġcurrent ly
Ġcho ose
Ġwoll te
Ġt w
an gel
Ġan schlieÃŁend
ĠG i
Ġpr int
D at
ĠF und
au ern
Ġread y
Ġentstand en
Ġj apan
M in
Ġp orn
Ġup d
Ġbu ilt
ch ange
N ames
l im
ĠA v
Ġr ate
Con nection
ut il
tr ie
ĠÃ¼ber n
D ire
ĠS at
Ġit ems
Ġ194 1
Ġgemein s
h ab
Ġd ig
Ġt un
> (
Ġrec ord
ĠR unde
ĠM as
ĠVer gleich
Ġ195 4
an ted
Ġz erst
ĠW ebs
pro tected
ĠAka demie
ĠEn ts
bet rieb
Ġ Ã¼
Ġp ain
ĠL oc
lan gen
anden burg
Ġse par
ĠEr k
AM E
em b
In t
In ner
Ġpartic ip
ition s
ter m
ĠC am
Ġst ream
Ġver m
ak a
Ġeinzel nen
Pack age
Ġs ens
ig in
ĠKon z
van gel
U ser
k athol
y ear
P art
Ġw ohn
st a
ĠF ace
Ġra d
Ġso fort
Ġstand ard
ĠF rom
Ġide a
pp en
Ġro le
Ã³ n
ur al
ĠB usiness
Ġproble ms
l iste
Ġth er
ĠU N
Ġ195 3
f Ã¤l
at ic
ĠH essen
aun ch
l it
v o
ĠU s
Ġpart y
ĠIllegal ArgumentException
Ċ ĊĠĠĠĠĠ
ĠM ount
Ġst re
pe cially
Ġcl ients
Ġk athol
s m
Ġm ove
ĠRe gen
ĠPf lanzen
Ġgeb aut
ĠC up
At tribute
ver walt
Ġent ire
Ġo ben
ĠH ere
ĠLe hrer
Ġent halten
Fernseh serie
5 6
b ra
st all
ĠD oppel
richt ungen
or ten
ĠSch la
ĠTe ile
ĠStadt teil
ĠSchw arz
N o
f alen
Ġknow ledge
ĠBe k
Ġf ix
ay out
ĠS Ã¤
ĠH y
ĠR a
b aum
Ġe ither
Ġal most
Ġcle ar
us ter
An y
Ġwel cher
ĠAngeb ot
Ġm m
Ġ195 5
0 4
ar ts
Ġp ark
Ar ch
Ver lag
ograph y
Ġt ax
z uf
st art
Ġim ages
Ġpar ts
Ġt c
at ten
ĠDown load
Ã¼ll er
ĠT ages
ou ver
ĠLie be
Ġd ritten
ĠI T
T Y
Ġer ziel
etz en
c ast
Ġbesch Ã¤ft
ĠPr ivat
amerikan ische
rech end
in fo
Ġs ites
Ġtra ck
Ġsh ows
Ġsel ten
ĠGeb ie
hÃ¤lt nis
v ey
ĠSt il
Ġit em
F ilter
ĠS onder
Ġ> =
Ġappro ach
ĠS old
ĠA ud
ĠW ider
ver age
Ġres ources
ĠPr inz
ĠV ir
tr ies
wert ung
Ġcustom er
u it
Ġs ales
ĠK lass
Ġ195 7
wohn ern
g arten
ĠW all
ĠMe x
ĠLou is
ĠV is
ĠSc ience
Ġwhe ther
V iew
Ġ3 6
pr Ã¤sident
Ġ194 7
ro ffen
fall en
w esten
Ã ¢
th ough
Ġbes uchte
č Ċĉĉĉ
Ġsie ht
ĠLin ie
Z u
om b
bo x
T rÃ¤ger
cl ient
ĠGra b
F rau
Ġint rodu
Ġkosten los
8 7
Ġk ennen
ca dem
ĠKateg orie
ran sp
gel Ã¶st
Ġins ide
p ack
ĠG att
Ġer z
aus t
Ġb ase
ĠK al
ĠW ort
Ġfin anz
do or
Ġsimp ly
ĠW alter
Ġ3 00
ĠAmer ica
ĠStand ard
Ġindivid ual
l Ã¶sung
Ġt aken
ĠS ingle
Ġreg ister
ĠSchauspieler in
\ "
Ġd og
âĢ ŀ
Ġpat tern
Ġeduc ation
ĠAb s
ĠH is
Ġe le
re quest
Ġweiter hin
P age
u ell
ĠD okument
lichkeit en
b ark
Ġge k
Ġj Ã¤hr
ĠUm welt
ĠheiÃŁ t
T V
ir ate
Ġfur ther
ĠUnterstÃ¼tz ung
ĠL eitung
Ġbe deut
get C
ĠOr iginal
trÃ¤ ge
un ch
ĠH Ã¶r
Ġs we
gr enz
Ġwall paper
p lat
ĠS n
le ted
Ġto wn
um Ã¤n
Ġne un
Ġrelat ed
Ġvorhand en
p oint
asket ball
ĠL os
meister schaften
Ġphot os
Ġmitt ler
9 7
Ġp aint
Ġge geben
Ġr ule
Ġmind estens
Ġopportun ity
Ġg lobal
get S
iqu es
Ġquest ion
ĠSt ru
Ġrece ived
ĠBÃ¼rger meister
rie ch
ĠEnt scheid
Ġso on
ĠMan agement
unter nehmen
ĠK as
Ġer folgt
Ġvar iety
aliforn ia
h y
ĠL im
Ġfor mat
Ġrece ive
ĠKompon ist
F I
M ax
i est
ĠSt amm
au b
ĠIm m
ĠDenk mal
Ġb us
Ġge d
ĠCar ol
Ġsec urity
stre cke
Ġlead ing
techn ik
is Empty
Ġe uch
end ar
ĠursprÃ¼n glich
G et
ĠMal er
ĠWash ington
ĠS ow
ĠAn na
Ã¤t ter
Ġco ol
0 7
d ata
q l
ĠGr Ã¶ÃŁe
Ġ194 3
ĠGl as
ĠAben d
Ġpr Ã¤sent
ĠAss ociation
8 3
O D
f Ã¶rm
at iven
Ġf ra
Ġl on
ĠO f
ap ter
mus ik
8 2
Ġf urniture
Ġc elebr
mer k
spr uch
wh ere
S P
Ġd et
re cher
ĠD ivision
ĠH art
Ġch em
Ġm obile
Ã¤ cht
Ġerh Ã¶
Ġp oss
Ġble ibt
Gem ein
B lock
ĠL eiter
Ġes pecially
Ġ195 1
Ġl iter
Ġun ver
ond s
Pro v
Ġreg ul
ĠT at
Ġbes onder
k arte
Ġc y
ic kt
Ġde f
ĠM ath
ĠE ast
ct ing
M ail
S etzt
r im
ĠS ign
se hen
ĠDan ach
be zirk
ho use
Ġsk ills
ĠStre cke
Ġgener al
e ks
fer enz
orn ing
V D
n d
ĠF ern
ĠL Ã¤nge
ĠG as
ĠComp any
Ġpos ted
in ts
ĠA cadem
ĠE U
Ġplan s
R el
ie ÃŁen
ĠL ove
Ġany thing
ĠZentr um
Ġpol n
ĠgrÃ¼n dete
ĠBrit ish
Ġw ays
Con figuration
ĠStre et
t schaft
ĠT emp
Ġz uf
ĠZu ge
wie gend
h ers
p ath
Ã¼r n
d ung
ĠFran cis
ber e
az on
9 1
b ischof
on om
ac es
m ap
Ġt akes
ĠI N
Ex ec
ĠVerein s
O P
ĠG reen
Sch w
end ing
Ġpre tty
ĠEx ception
ĠUm gebung
k unde
er r
Ġb em
Ġabsolv ierte
Ġent w
o den
ĠT ime
ĠG re
Ġrec ent
ĠChar les
ĠForsch ungs
5 00
b i
z og
Ġs ession
at ory
Ġb lo
Ġne uer
ĠSp r
Ġje de
ĠFest ival
g ten
gel n
piel t
r unde
te ten
les en
ĠZeit schrift
ĠBo x
Ġdec or
ur ren
ĠT w
ĠH D
Ġk aum
u he
ĠG ut
ĠJ ob
Ġhe ld
halt ung
ĠN ur
se qu
Ġcon tra
hl t
ĠKla us
ĠMar ch
ibr ary
ot ion
Ġrem ove
P oint
ste ad
ĠPol en
M y
f amil
Ġc enter
Ġbe ge
Ã¼hr en
ĠJose f
ĠW ahr
Ġpra kt
K E
l ers
In teger
ĠD or
in put
ĠG Ã¤
ĠR and
ieren de
ĠverÃ¶ffentlich te
ĠIndustr ie
O M
ic ated
Ġr unning
Ġbet rÃ¤gt
Ġproject s
Ġus ers
G ra
Ġgew orden
Ġinternational en
Ġval ues
T ag
ĠB d
Ġbel ieve
Ġamaz ing
ĠS omm
ic ult
Ġst op
spiel en
L ink
chn et
Ġcom mer
Ġ ;
ĠL OG
ĠNach folger
Me ter
ĠerwÃ¤hn t
ĠL ive
gen er
trib utes
Ġehemal ige
ĠAn g
ĠEngl ish
er o
Ġrec ently
Ġtry ing
Ġsk in
ĠFot os
Ġopt im
w ner
er ror
ĠW oche
ĠOr d
ĠTra iner
Ġeinz ige
Ġext rem
Ġs le
ĠD isk
Ġum fasst
Ġ194 2
Ġam ount
Ġin dem
Ġzu ge
ĠKir ch
Ġm Ã¶
ĠSch Ã¶n
ĠDres den
Ġt ell
ĠPr Ã¤
ĠKÃ¶nig reich
N ational
rem ove
k ap
Ġsign ific
Ġb ott
F C
F r
ĠB us
Ġj Ã¼d
Ġsub ject
Typ es
Ġpic tures
i i
Ġw es
il det
rei ber
r c
ĠH u
Ġwo od
unk ten
ĠProdu kte
ĠTeil nehmer
gen de
Ġj Ã¼n
De finition
Ġgesch lossen
te x
zw ischen
ĠC ast
Ġer ror
Ġcon fig
lei ben
E d
l ong
Ġz ust
ĠW ell
iziel le
ĠC ap
ĠIn teger
Ġj ava
Ġ193 6
ĠEs sen
Ġtyp es
te in
ĠK ern
if iz
Re ad
Ã¤hl te
ĠfranzÃ¶s ische
Â «
ie ur
Ġpar ent
ĠGl Ã¼ck
aug h
A uch
ĠE v
Ġest abl
k reuz
ĠBe zeichnung
ro id
O C
Ġs etzt
or ing
ir n
Ġbes itzt
imm el
Ġprov iding
kt iv
erv e
ĠVert re
Ġb ald
Ġk ids
ĠHe alth
Ġhapp y
ĠK ey
Ġgleich zeitig
Ġbook s
o e
Ġd adurch
Ġe igentlich
ĠVer l
Ġkn app
Ġbring en
Ġdiff icult
ĠR itter
ien ste
pro chen
Ġter m
ĠInstit ute
or ien
re ise
Ġmit tel
ĠVer d
ĠM use
ĠSoc iety
Ġp ool
Ġverl oren
b ased
hen s
ite te
Imp l
ne ter
Ġfin ancial
ap ie
ĠZeit ung
Ġper cent
asch ine
i ally
ĠH off
5 4
Ġth ird
ib el
ĠEurope an
ĠL ink
ĠZeit punkt
Ġgra ph
Ġp aar
ĠT ruppen
Ġbe ein
Ġsel ben
ĠBay er
os h
ĠâĢ ļ
ag te
Ġw anted
Ã¶ ss
ĠAb schluss
Ġfr esh
Hoch schullehrer
Pro perties
Ġmark eting
cont ains
Ã¼f ung
ĠFen ster
. ");
ĠP C
ĠP unkte
ĠJu den
Ġm ix
Ġn immt
ĠP unkt
ad ata
Ġje dem
Ġc redit
ir it
Ġstud ent
ĠMod ell
f unktion
ĠL Ã¤nder
ĠSt rom
Ġ* /
ymnas ium
Ġs ave
ĠS uche
lin ie
Ġwer de
ĠWh ite
Ġstamm t
ig r
id th
Ġwar m
Ġdar f
Ġges tellt
ĠMat hemat
A cc
H el
Ġin spir
zen e
Ġmom ent
k om
u elle
Ġp icture
Ġg anze
Ġne cess
jÃ¤hr ige
ĠFace book
c ul
Ġconc ern
ĠU R
ho od
Ġ193 4
Ch ild
re chts
w al
ĠB il
ĠW in
Ã¤dag og
ĠIn vest
ĠAl so
teil en
Ġs ix
ĠKÃ¶nig s
Ġausge zeichnet
D a
Ġbed room
Ġs od
ĠOr ganisation
wissenschaft ler
Ġtreat ment
ĠKant on
ĠS C
Ġdr ive
ĠgrÃ¶ÃŁ te
" ))
S I
Ġst ock
all ery
ill ing
Ġstor age
ĠRel ig
d k
t itel
Ġb ud
ĊĠĠĠĠĠĠĠĠ ĠĠĠĠĠ
ĠNach bar
Ġapp ly
ĠN icht
Ġste p
D is
Ġt ask
Ġso und
ĠOr gan
Ġ+ =
Ġcor re
is ierte
Ġn ice
yste me
ĠBes te
ĠIs land
Ġe mer
ĠAkt iv
S upp
Ġf il
ĠP fer
ĠH om
Ã¤r k
fl Ã¤chen
Ġâ Ĥ¬
uch ten
Ġev angel
Ar t
Ġmed ical
Ġled iglich
ĠC alifornia
Ġp sych
itt ing
Ġcom ing
Ã¤d t
T H
ud es
Ent ity
j ust
p ted
Ġf ig
c as
ach ts
ash ion
5 9
Ġex pect
Ġus ually
vers ion
fass te
d om
ide t
Ġcomm it
forsch ung
U E
ers eits
Ġlook s
Ġconne ction
5 8
l ament
Ġb leiben
uf e
Ã¤n gt
Ġfl ow
Ġs ent
ĠS atur
ĠU ms
Ġd ocument
Ã¤ um
Ġh on
id t
ĠMÃ¼n ster
J ob
st anz
Ġdes halb
Ġch anges
an lagen
Ã¤ ten
ĠF arb
ĠAl ten
ĠnÃ¶rd lich
5 3
d own
Ġw a
ang ing
ĠBr un
zie hen
ĠZusammen arbeit
Ġpract ice
P f
le m
ad el
Ġex act
Ã¡ n
ĠsÃ¼d lich
D urch
Ġt ransport
sp ro
ĠVer Ã¶ffentlich
Ġdis play
Ġacc ording
Ġequ ipment
ĠM em
Ġp ers
astr u
on ym
ĠSp rach
Ã¼ ge
Ġal tern
Ġsch loss
Ġart icle
m ot
Ġre lig
Ġro ad
oper ation
Ġfavor ite
irate te
ar ter
b ase
Ã¶ p
tr at
ĠfranzÃ¶s ischer
Ġb ere
Ġun ivers
Ġcol umn
Ġinit ial
w a
Ā Ā
la v
ĠZ usch
Ġvor her
ĠWe ise
Ġcom ment
Ġcho ice
ĠAndre as
Ġw ord
U M
ĠS upp
Ġ193 5
Ġbil den
g or
Ġs b
fra u
Ġeffe ct
osp ital
I ter
Ġgu ide
Ġbil det
Ġactiv ities
ĠT own
Ġinclude d
ĠFar be
anstalt ungen
ĠD azu
Ġsaf e
ĠCh urch
Ġ193 7
fr astru
Ġbek ommen
au ber
Ġ- >
rei he
Ġaktu elle
m ax
Ġc oll
rÃ¤ s
Ġzahl reichen
s ere
Ġc aus
ĠF ass
Ġlearn ing
v ol
ĠH aut
chn ung
Ġpolit ischen
w ith
ĠJ er
ĠAus gabe
Ġcomp on
ĠfrÃ¼ hen
Ġf all
Ġto uch
Ġfor ward
Ġde g
Ġpro perties
P e
Ġl os
Ġreg ular
k lasse
Ã¼n ft
or gt
Ġp oints
ed s
ĠAut om
Ġeas ily
Ġaddition al
ĠT im
Ã¤n n
get Value
ict or
Ġan z
Ġd ro
Ã¤ch s
Ad dress
Ġans wer
Ġarbeit en
ĠÃ¶ffent lichen
6 8
O ne
g ien
w en
Ġd ur
Ġde b
In d
ĠD igital
Ġex tens
ĠHer bst
st aat
Ġout side
ĠTra dition
ĠMed izin
ist in
Ġverhe iratet
um in
Ġout put
ĠSo ftware
gemein schaft
ã ģ
ar es
ĠH an
Ġst ammen
ĠGÃ¶ tt
Ġs ummer
ĠF irst
la us
lin ge
Pro cess
ĠWei hn
() ))
ĠDe partment
Ġsol utions
Ġcoup le
5 2
ĠIn c
b us
Ä ģ
is ode
Ġt old
ad es
ĠSchl acht
ĠS tern
ĠI V
ĠP orn
oun ts
Ċĉĉĉĉ ĉĉ
ĠS und
ph one
ĠMar y
ĠSicher heit
ar ge
ĠL ake
Ã¼r gen
Ġern annt
ĠhÃ¶ her
f unk
Ġ rom
ĠM Ã¤dchen
c ies
at tet
isch em
Ġse em
Ġke hrte
Ġ1 000
Ġsp ort
Ġber eit
Ġd oc
ur l
ĠH alle
ĠJ ak
hr t
ĠPerson al
ĠDan iel
Ġiss ue
Ġeff ic
Ġgesam te
ĠK er
A merikan
ĠS V
av es
ĠHoch schule
Ġbeh ind
Ġf anden
ĠW ed
ĠVer kauf
lic ation
L ong
b orn
Ġd ra
ĠS ter
setz en
ĠRad io
Ġyour self
As ync
Ġentwick elte
ick et
w el
Ġle ader
Ġf iel
Ġm el
Ġh alten
ĠAn schluss
ĠUnternehmen s
Ġrepr esent
g arn
ĊĠĠĠĠĠĠĠĠ ĠĠĠĠ
5 7
p hen
Ð »
Ġpl ant
Ġemp f
ĠServ ices
ipp ing
i ÃŁen
r ug
Ġd ich
ĠAb geord
at ely
ĠD ipl
ĠW ass
dr esse
Ġind ustr
ĠPres ident
c up
Ġt itle
20 17
Ġreg ard
Ġimp act
Ġerm Ã¶glich
M on
Ġbath room
Ġin fo
Ġz entr
Ġro und
Ġmar shall
Ġall ows
pr Ã¼
Ġ4 00
ĠBl Ã¼
Ġoffic ial
ie gen
Ġbeginn t
ĠGrÃ¼nd ung
Ã ¸
6 7
M ark
l ingen
Ã¼ gen
ĠA ch
ĠM aster
ab s
ĠÃ¤l tes
Ġricht ig
Ã¼ cht
ĠSch les
An not
ĠVol k
w an
Ġver k
ks am
ĠEx p
T hre
ber eit
we chs
tra gen
ie ger
Ġc rit
Ġr isk
Ġbel ieb
h le
Ġs ort
re publik
ĠHe im
as y
sch lÃ¤
if ier
Ġprodu ction
gew icht
pos it
Ġprob ably
P at
n der
Ĩ Ĵ
Ġzu letzt
Ġser ver
at ung
ur a
ĠC ms
ov ers
ĠProble m
wissen schaften
8 1
pp ed
end ung
ĠVer wendung
ĠQu alif
ĠKin dern
verwalt ung
k y
ĠBr Ã¼
ĠFe hler
ĠA f
ĠE vangel
att le
W ie
ime ter
G er
ĠC oll
ĠZ wei
k unden
ĠN ic
end orf
Ġrem ov
htt p
Ġl aut
vers e
ĠInd ia
Ġhigh ly
Ġl ives
Ġsol ution
ell o
Ġex pert
ĠOct ober
we chsel
ĠFot o
ĠGot tes
Ġc ut
ren ch
E O
Ġpr ior
By tes
ĠFinal e
g ibt
p a
ĠSomm ers
d aten
Ġd om
Ġf unktion
Ġl ate
Ġd raw
ĠE th
ist an
ĠV en
lau ben
B ahn
Ð º
ĠS onnen
Ġdes cr
ĠVer kehrs
Ġnot wend
Ġh or
ĠK olle
w s
id ung
mut lich
Ġsignific ant
ic ago
ed ia
Ġre in
ĠReg ierungs
ĠChe ck
Ġsim ilar
bu ild
ĠS ome
ĠT urm
ver fahren
Ġl aunch
Ġ19 00
abr ik
ind ing
z Ã¤hl
Ġm aint
st ream
ĠL ied
ian o
ĠQu alitÃ¤t
Ġf iles
zeich nis
ĠA ust
Ġg round
Ġis n
ĠSh ow
Ġs al
ĠS ur
as ten
ĠG reat
ĠZ immer
Ġrec ogn
ĠBest and
Ġexc ellent
Ġh Ã¤tte
sp er
org ung
at al
ĠBe im
Ġwe eks
F irst
ens ive
ĠunterstÃ¼tz t
und le
ĠAr n
Ġw oman
Ġ19 19
om s
Ġbo ard
y es
st Ã¤tte
Ġ19 18
Ġsc reen
Le gt
Ġide al
Ġgrow th
Ġme chan
Ġup load
c ape
ĠAn s
Ġincre ase
Ġbede utet
Ġre fer
Ġsch l
| }
Ġm atter
b it
m useum
Ġst ring
reit et
ĠComp uter
ĠOff izielle
ĠÃ¶sterreich ischer
statt ung
Ġplat form
Ġf lex
ĠL ife
T ER
Ġo il
ĠE dition
ĠK u
ĠW ork
Ġgen ommen
p ers
ha ber
ĠQ ue
Ċ ĠĠ
ĠM att
ĠF ak
Ġer he
ĠSch lag
ien d
ĠKar ten
C ache
P ort
l s
un ion
ot ing
ĠLe icht
ĠFar ben
b as
Ċ Ċĉĉ
ĠB onn
Ġdis cover
ist ics
Ġk aufen
ĠAuf gaben
schein lich
af e
Ġaus gew
get Message
aut or
ĠBeit rag
\\\\\\\\\\\\\\\\\\\\\\\\\\\\\\\\\\\\\\\\\\\\\\\\\\\\\\\\\\\\\\\\\\\\\\\\\\\\\\\\\\\\\\\\\\\\\\\\\\\\\\\\\\\\\\\\\\\\\\\\\\\\\\\\\\\\\\\\\\\\\\\\\\\\\\\\\\\\\\\\\\\\\\\\\\\\\\\\\\\\\\\\\\\\\\\\\\\\\\\\\\\\\\\\\\\\\\\\\\\\\\\\\\\\\\\\\\\\\\\\\\\\\\\\\\\\\\\\\\\\\\\\\\\\\\\\\\\\\\\\\\\\\\\\\\\\\\\\\\\\\\\\\\\\\\\\\\\\\\\\\\\\\\\\\\\\\\\\\\\\\\\\\\\\\\\\\\\\\\\\\\\\\\\\\\\\\\\\\\\\\\\\\\\\\\\\\\\\\\\\\\\\\\\\\\\\\\\\\\\\\\\\\\\\\\\\\\\\\\\\\\\\\\\\\\\\\\\\\\\\\\\\\\\\\\\\\\\\\\\\\\\\\\\\\\\\\\\\\\\\\\\\\\\\\\\\\\\\\\\\\\\\\\\\\\\\\\\\\\\\\\\\\\\\\\\\\\\\\\\\\\\\\\\\\\\\\\\\\\\\\\\\\\\\\\\\\\\\\\\\\\\\\\\\\\\\\\\\\\\\\\\\\\\\\\\\\\\\\\\\\\\\\\\\\\\\\\\\\\\\\\\\\\\\\\\\\\\\\\\\\\\\\\\\\\\\\\\\\\\\\\\\\\\\\\\\\\\\\\\\\\\\\\\\\\\\\\\\\\\\\\\\\\\\\\\\\\\\\\\\\\\\\\\\\\\\\\\\\\\\\\\\\\\\\\\\\\\\\\\\\\\\\\\\\\\\\\\\\\\\\\\\\\\\\\\\\\\\\\\\\\\\\\\\\\\\\\\\\\\\\\\\\\\\\\\\\\\\\\\\\\\\\\\\\\\\\\\\\\\\\\\\\\\\\\\\\\\\\\\\\\\\\\\\\\\\\\\\\\\\\\\\\\\\\\\\\\\\\\\\\\\\\\\\\\\\\\\\\\\\\\\\\\\\\\\\\\\\\\\\\\\\\\\\\\\\\\\\\\\\\\\\ \\\\\\\\\\\\\\\\\\\\\\\\\\\\\\\\\\\\\\\\\\\\\\\\\\\\\\\\\\\\\\\\\\\\\\\\\\\\\\\\\\\\\\\\\\\\\\\\\\\\\\\\\\\\\\\\\\\\\\\\\\\\\\\\\\\\\\\\\\\\\\\\\\\\\\\\\\\\\\\\\\\\\\\\\\\\\\\\\\\\\\\\\\\\\\\\\\\\\\\\\\\\\\\\\\\\\\\\\\\\\\\\\\\\\\\\\\\\\\\\\\\\\\\\\\\\\\\\\\\\\\\\\\\\\\\\\\\\\\\\\\\\\\\\\\\\\\\\\\\\\\\\\\\\\\\\\\\\\\\\\\\\\\\\\\\\\\\\\\\\\\\\\\\\\\\\\\\\\\\\\\\\\\\\\\\\\\\\\\\\\\\\\\\\\\\\\\\\\\\\\\\\\\\\\\\\\\\\\\\\\\\\\\\\\\\\\\\\\\\\\\\\\\\\\\\\\\\\\\\\\\\\\\\\\\\\\\\\\\\\\\\\\\\\\\\\\\\\\\\\\\\\\\\\\\\\\\\\\\\\\\\\\\\\\\\\\\\\\\\\\\\\\\\\\\\\\\\\\\\\\\\\\\\\\\\\\\\\\\\\\\\\\\\\\\\\\\\\\\\\\\\\\\\\\\\\\\\\\\\\\\\\\\\\\\\\\\\\\\\\\\\\\\\\\\\\\\\\\\\\\\\\\\\\\\\\\\\\\\\\\\\\\\\\\\\\\\\\\\\\\\\\\\\\\\\\\\\\\\\\\\\\\\\\\\\\\\\\\\\\\\\\\\\\\\\\\\\\\\\\\\\\\\\\\\\\\\\\\\\\\\\\\\\\\\\\\\\\\\\\\\\\\\\\\\\\\\\\\\\\\\\\\\\\\\\\\\\\\\\\\\\\\\\\\\\\\\\\\\\\\\\\\\\\\\\\\\\\\\\\\\\\\\\\\\\\\\\\\\\\\\\\\\\\\\\\\\\\\\\\\\\\\\\\\\\\\\\\\\\\\\\\\\\\\\\\\\\\\\\\\\\\\\\\\\\\\\\\\\\\\\\\\\\\\\\\\\\\\\\\\\\\\\\\\\\\\\\\\\\\\\\\
D S
Ġb al
Ġre lease
ĠRes earch
pend ent
6 3
at alog
Ġst ation
ĠAn lage
<? >
h istor
Ġch rist
app ing
ad y
Ġ192 9
ĠO k
ĠO ption
at o
ĠL ager
Ġme eting
ĠJul y
Ġass oci
aly se
n amen
p ret
Ġwir tschaft
Ġbef and
u gend
Ġd iente
Ġge grÃ¼n
Ge grÃ¼ndet
Ġpubl ished
lef on
ĠW ies
ah nen
Ġin tens
Be an
g ers
ĠH ard
Ġde ep
Ġpro p
ĠBe zirk
Ġgesam ten
re u
ath let
ĠgroÃŁ er
ie fer
Ġre qu
ĠMon ate
Ġpl us
Ġd ed
ĠWe hr
Ġhow ever
utt ing
ĠF eder
ĠSt off
Ġjewe iligen
denk mal
5 1
ug ht
ho den
Ġzw eit
Ġcondition s
Ġw in
ug s
ĠFre ib
ĠS onn
ĠP ers
ul en
ĠSt affel
eld ung
P l
ir ch
ĠMen sch
Ġwelt weit
Ġc ause
au x
Ġalle in
P osition
b rit
ĠS ho
Ġm orning
ĠD Ã©
Ġk rit
Ġbrit ischer
Ġmaterial s
ĠR ou
hil fe
k au
Ġc opy
Ġhe iratete
ĠRoy al
r id
Ġ193 2
Ġprogr ams
wÃ¤r ts
bark eit
Ġd ein
ĠT enn
b is
au te
Ġse ems
Ġcl ub
str ument
Ã¼hl en
ĠS icht
ĠL ux
Ġse lect
Ġwe ight
hol z
Ġg reen
iz ier
ĠBl og
Ġben annt
cript or
d is
k ampf
ig ungen
ĠI P
ĠJ ud
Ġro t
Ġwrit ten
Ġgar den
D eb
ĠA c
ĠF ischer
Ġpart ners
ĠBen utz
ĠS ym
as c
Ġer forder
ĠSt reit
Ġj unge
lie fert
ĠS ar
ĠW irtschaft
Ġent scheiden
Ġrecommen d
le is
stand s
forder ungen
Ġregel mÃ¤ÃŁig
C ase
E urop
T ree
w es
Ġn utzen
Ã¶ nen
ĠPol y
ĠT it
we ile
ĠDe v
pro f
Ġange geben
C o
K ultur
] ,
p unkte
ĠG ran
Ġwrit er
Ġin fl
Ġh und
ĠE ss
wer ks
ĠIs rael
mittel t
Ġwen ige
Ġdamal igen
m atch
op en
ind est
ak ers
ĠM erk
ab il
Ġhand le
Ã¤ u
Ġ< =
s ystem
u id
ipp ed
ĠzusÃ¤tz lich
ut n
ĠBe zirks
Ġ3 3
Ġdo or
Ġphot o
Ġpurch ase
C ms
r est
Ġbe legte
ĠN et
h inder
Ġall gemein
Ġpre m
r um
ĠD rei
ĠT Ã¤tigkeit
ĠR et
Le vel
Ġt im
ĠH ash
ĠNe ub
ĠFr iday
ĠWeit ere
A fter
b ody
ic ip
ateg ory
Ġplay ing
d ire
k omp
o is
ĠAll er
Ġin de
ĠM and
Ġg uten
ian ce
ĠBild ung
Ġpos itive
ĠPart y
Ġapplic ations
ĠRuss land
lemen te
ĠW ander
D ir
a ign
Ġlang uage
er weise
Ġd iv
Ġw ed
im inal
Ġany one
Ġph il
umen te
unt ime
u ert
ĠG ro
ĠR oll
ĠZusammen hang
w ir
ĠP ower
ĠSt ahl
Ġex pected
ĠEin fluss
ken nen
s a
ĠT ransport
Ġdr ess
Ġlik ely
Ġan im
Ġl ower
AT E
ĠM ur
Ġer baut
Ġver z
ĠEisen bahn
6 2
ag d
AT ION
6 1
B ar
ĠW ach
Ġunter st
ĠInd ian
Jahr hund
T ask
Ġg lass
alle l
Ġgel ten
ĠWind ows
Ġtool s
Ġbe ach
Ġmein er
v olle
ĠM icro
ĠAn schlieÃŁend
Ġdev ice
A uth
or th
ĠN Ã¼rn
se c
Ġdurch gefÃ¼hrt
ĠBau ern
M atch
Ġ1 20
om a
for men
laub t
F re
Ġst reng
Ġnot hing
ĠHe idel
ultur al
Ġaktu ell
Ġsaf ety
Val id
ĠF ritz
ĠEin wohnern
oh ol
it able
ĠAn gaben
reif en
======== ========
R em
l n
Ġw ords
Ġle ave
ð Ł
Ġf ail
Ġaus schlieÃŁlich
Ã© r
al ing
ĠAr ts
Ġjed es
E is
H ow
w ell
ĠK ra
Ġl oss
inc ip
Ġb and
Ġun abhÃ¤ng
Ġt rÃ¤gt
st Ã¤nde
ist rat
ĠBeruf s
ĠS aar
ĠFl ugh
Ġho tel
A ction
ige m
ĠmÃ¶ch ten
k raft
ĠRec ords
ĠGeburt stag
i ders
Ã¼ m
ĠW erner
Ġwork ed
Ġpol icy
ĠNutz ung
Ġgirl s
Ġpot ential
Ġlon ger
H T
S U
h Ã¤user
Ġf ant
Ġl Ã¤nger
ĠAus stellung
ĠZu kunft
ĠLeist ung
ĠFir men
Ã¤ llt
Ġer inn
rif f
spr ung
ar io
ĠGr enze
ma ÃŁ
ĠTex as
wind igkeit
ĠRud olf
t a
is er
R A
ĠH ause
Ġf irm
heim er
Ġmult iple
Ġtradition al
Ġpar ents
Ġsw itch
C ON
D r
ĠOr gel
Ã¶rder t
Ġbrit ischen
ĠPolize i
W riter
fr ont
ch em
Ġa ffe
Ġexten ds
Ġh uge
ĠN amens
Ã¤hr t
fÃ¼ hl
Im age
Ġrem ember
ĠM ail
Ġge fÃ¼hrt
By te
ĠS amm
Ġca pt
ĠForsch ung
ĠAcadem y
ĠC le
ot es
Ġun mittel
ĠMag az
ĠRo ad
P DF
se x
ĠBre men
Wh at
Ġd ise
Ġ15 0
mÃ¤ ler
Ġgra du
p at
ct ory
ĠBe ach
ĠBÃ¼ cher
" :
d y
Ġv ac
Ġre leased
pl ant
ĠTod es
Ġimpro ve
Ġs un
ess ages
St ra
l ation
Ġse ction
Ġ192 8
sw Ã¼rd
ĠVertre ter
C T
H E
| |
Ġd aily
ĠP ublic
od ing
imp le
van ced
Ġpolit ische
S A
Amerikan er
if est
ĠCh in
Ġsuch en
Ġsl ow
ĠStru ktur
S G
p erson
ff ic
Re ader
ĠPh ot
Ġcare er
Ãĸ sterreich
E l
an i
ks h
Ġplay ers
ĠS ach
ĠM aschinen
Ġge prÃ¤
Re ference
Ġter ms
a ber
ĠK ohl
Ġg riech
ĠMus iker
Ġder zeit
ĠP rom
Ġdec ided
Ġt hr
ter min
ent y
Ġup on
f ur
Ġc ross
ĠT emper
ĠH ill
ĠL et
ĠY ear
Ġquick ly
Ġhinz u
mittel n
Ġeffe ctive
an geb
g ruppen
ĠD amen
Ob jekt
k ont
ĠC y
ĠspÃ¤ter en
ĠPra xis
is abeth
ĠS om
im ar
Ne ben
ĠIde en
temp or
ur er
em ble
tt ps
ikan ischen
Ġmus sten
ĠverfÃ¼ gt
Ġh um
ĠW etter
Ġful ly
H ier
Ġcomp lex
ĠD ata
N AME
ĠS uch
ĠS ammlung
Ġges etzt
Ser ver
ĠSatur day
D A
č ĊĠĠĠĠĠ
ĠS atz
ĠB a
ut ive
ĠT ype
ĠG ood
ĠLe g
Ġte ach
ĠSpe zial
U s
W Ã¼rttemberg
ind ungen
Ġfe ed
g Ã¤nger
Ġt Ã¤
Ġe inger
hal le
chn ik
Ġlo ad
Ġsug gest
or et
ĠVorsitzen der
Ġim m
ien ces
Ġpass ed
Ġkl ar
m ont
Ġklein er
Ġzun ehmen
ĠS T
ig ation
Ġl isten
Ã¶ der
ab et
we ig
over n
Ġangeb oten
m esser
Ġge ts
ĠTechn ik
ĠErgeb nisse
Ġt ats
ĠP ubl
ial e
ound s
ĠG Ã¼n
Ġl angen
Ġer setzt
Ġor igin
aupts Ã¤chlich
Ġpr ices
S piel
Ġb irth
ra ct
Ġhig her
trie ben
m ie
an walt
ĠSt iftung
ĠCh icago
ĠFl Ã¤che
Ġgesch rieben
Ã¼t te
Ġ192 4
Ġmach ine
Ġarch ite
k ra
and a
ĠSp an
ink el
ĠK enn
Ġg ro
qu ence
hen swÃ¼rd
Ġpie ce
p ose
r is
ĠA tt
N A
R uft
Ġt en
ĠSt atus
ĠPro zess
Ġsh op
ĠHe iligen
Ġ ign
Ġne igh
pf licht
Tra cing
i ben
ĠSt an
Ġun it
In put
on str
al u
Ġr ather
Ġp le
ĠerklÃ¤r t
Ġo l
Ġf ilter
ahr en
Ġse ien
Ġex pla
Ġfin ish
Ġpre uÃŁ
P os
s l
z if
ĠF ound
Re f
ĠerÃ¶ff net
b ul
d at
pr ise
Ġro ll
ĠGer ichts
m osph
Ġb rachte
Ġle gal
ĠChrist oph
Par am
ĠvollstÃ¤nd ig
g ab
w ide
ĠS ib
od or
Ġre pla
ĠSt ation
ran ch
Ġdar an
Ġschw arz
6 9
ge legt
ĠM Ã¼ller
ĠH on
Ġon es
Ġerw eit
ĠStÃ¤d te
p i
ar ante
Ġde ath
ĠRe volution
lin ik
Loc al
T P
Ġinter ested
h och
Ġ19 14
ot ten
Ġ3 4
Un it
Ġehemal iger
ĠÃ¼ br
Ġsod ass
R ad
m y
ĠD ir
B A
Ġf a
ten ded
ob by
20 15
Ã© s
west lich
Ġschw ed
ĠGegen satz
Ur l
in y
Ġw ish
am ing
age gen
Ġ192 5
Z ur
Ġb reit
Ġn ames
ĠZ uf
ĠHaupt stadt
He ader
Ġrelat iv
ĠFamilien name
O ber
Ġs an
Ġw ider
ĠDe velop
inn ing
ĠHinter grund
Ġw issen
ĠF ernse
ĠSte fan
Ã¶l f
Ġlog ger
Ġimp lement
S ession
Ġ192 7
Ġdistr ib
h ere
ĠM ik
ĠM acht
Ġl ux
Ġbet re
Ġs qu
ĠT agen
Ġer f
haus es
ĠMat th
ĠVier tel
F amil
d ar
le ger
Ã¼ hm
ĠFÃ¼r st
l or
ĠL ab
ĠSch le
Ġwichtig sten
eign et
ĠChamp ion
en te
Ġf air
ĠPat ienten
Ã¤uf er
ĠFried hof
Ġver gleich
Ġent lang
leg ung
ĠÃĸ l
ĠChar akter
ie fe
Ġs ah
Ġs agte
and t
ĠAb teilung
ĠWer te
Service Response
Ġsogen annten
ĠAb st
Ġlevel s
W ork
in os
ist isch
Ġveh icle
M P
Ġre ach
ĠL Ã¤ndern
ĠMed ia
ĠM Ã¶
ak s
ĠNe ue
ĠL ig
Ġwicht ige
Ġgroup s
ĠMar ie
Ġspe ed
Ä ĩ
te uer
all er
ick er
Ġstat us
stit ut
tert ain
henswÃ¼rd igkeiten
el a
lan k
Ġgeb racht
XX XX
parte ment
ĠR ing
Ġg Ã¼nst
Ã¼r k
ĠRe is
ĠKom ment
Ġâ ĨĴ
Ġbeteil igt
D P
ul s
Ġfor mer
ĠVert ra
ess el
Ġch ance
por ate
ĠInter esse
aug ht
Ġsyn chron
B l
d urch
Ġbe hand
ĠBl ue
Ġin j
ac ity
Ġact ive
allow ed
w itz
Ġa k
ass el
ĠZ us
ib ly
ĠBl ut
ĠPort ug
Met hode
Ġorgan ization
u ted
Ċ ĠĊ
ver stÃ¤nd
ĠStud io
ĠS un
Ġe dition
if ts
Ġum fang
amp les
Ġcoun tries
Ġsele ction
L S
P reis
p osition
gel d
ĠÃĦ r
il i
ĠL ok
Ġex cl
Ġtr ip
ĠJanu ary
Ġabsol ute
ĠKla vier
Ġb ank
Ġp red
ĠB ul
ĠC ode
pe kt
Ġsch edule
Ġbest Ã¤t
ĠÂ £
Ġask ed
V ari
it ial
ĠV ictor
ĠZ ahn
Ġ4 8
Ã© e
ĠNational sozial
Ġsuccess ful
ĠE vent
Ġj ungen
rÃ¤s ident
as che
ru it
ĠBer eits
Ġgew innen
Ġbeg in
Ġmov ie
ĠErz Ã¤hl
Ġbenef its
W Ã¤hrend
ĠL ast
Ġinterest ing
tr al
res ource
Ġpat ients
Ã¤ss er
ĠWebs eite
ĠR enn
iel ten
ĠVer fahren
cle ar
Ġse ek
Ġdar in
Ġintern et
Ġan alysis
Ġle bt
fin den
m acht
be w
Ġgo al
zeich nete
()) );
Ġdevelop ed
Ġ} );
Ġwor th
Ġkann st
Ġeing esch
leist ung
aw a
Ġbesch rieben
ĠEng ine
Colle ction
E G
Ġ Ã¶stlich
Ġm ount
ĠM ach
amerikan ischen
ĠDire ktor
Ġh ttps
mit glied
klÃ¤r ung
ĠDreh buch
Ġar ray
Ġqu ery
n ummer
Ġd unk
ĠSp anien
Ġeurop Ã¤ischen
Ġg ives
ĠSt immen
ff er
be g
Ġg anzen
P olit
ĠW ettbewerb
ik ations
los en
ĠÃ¼bern ommen
in den
Ġex am
St ore
pro gramm
ock et
gang s
ĠHerr schaft
B undes
ĠS S
Ġh it
ĠE st
sp rache
lÃ¤ uft
ĠZeich en
Ġcommer cial
C om
Ġf oot
Ġn omin
ĠV iew
rat s
zahl en
ĠArchite ktur
West falen
V AL
b our
sch auspieler
pp e
St ud
ĠMar c
Ġ7 5
ĠÃ¤l ter
Ġdirect ly
g ner
Ġh auptsÃ¤chlich
Ber lin
ĠdÃ¼r fen
Tracing Enabled
ĠT isch
im er
schaf ter
ĠAt lant
K arriere
r ong
el la
Ġ3 8
ĠEin fÃ¼hrung
Ġm id
Ġver antwort
Ġd ream
Ġer fÃ¼
ors itzen
Ġinst ru
Ġbel ie
rech te
ĊĠĠĠĠĠĠĠĠ ĠĠĠĠĠĠ
Ġhel ps
ĠVerwalt ung
hockey spieler
kret Ã¤r
o oth
r t
ĠS PD
Ġver treten
ĠPro gram
ese hen
Ġhand s
Ġdec ision
n itz
Ġs aw
Ġviel leicht
Ã¼tz t
med aille
ĠProble me
Ġwonder ful
ul y
ah er
ĠAn th
ĠAl fred
mÃ¶ gen
ĠM un
Ġoffer ing
ĠGew inn
ĠSm art
Ġd omin
au d
ick ets
spr icht
ĠAngel es
utn ant
f ilter
ĠP a
ic ations
ĠWe chsel
Ġverkauf t
ĠM ost
ers ey
D I
bild ungs
reit ung
ĠMet all
Ġitalien ischer
ĠS um
ĠD ro
Ġh ous
Ġbet rieben
Ġ193 1
b latt
ĠG olden
ach im
Ġst ieg
Ġtra gen
ren nen
Ġweiter er
ĠApp le
Ġa verage
is Any
Ġv irt
20 12
ĠCol or
p ossible
ĠF isch
ĠC all
Ġpro per
Ġwe g
ĠOr ganis
Ġsol che
UL T
ĠB lock
ĠV an
stoff e
Ġl ic
ier re
Ġpart ner
R et
Ġan aly
ĠFahr zeug
ĠGatt ung
ĠB ol
la x
we gs
tra iner
Ġpl anning
stru ktur
Ġunterschied lichen
isAny TracingEnabled
E P
g on
m ond
Ġ192 6
so ft
Ġcreat ing
e ben
f ast
Ġh our
ĠT able
Ġab ility
Ġoff set
alle y
ĠJohn son
Ä ±
ĠGe h
Ġpos it
Ġnie dr
j o
ĠNach richten
ĠFr ont
For m
ĠZust and
Ġ Ã¶
ĠG alerie
ĠE lect
ĠAm azon
ĠWh ile
ĠDar stellung
Ġverl or
ĠPap st
B ase
le hn
ul pt
ĠN ummer
Ġleb te
n ern
v ement
ĠAn tw
ĠSchw ester
Ġander er
ĠNatur schutz
ch ner
Ġein st
ic on
by te
ĠJes us
ĠGÃ¤ ste
h old
r d
as ons
Ġn ov
ĠL i
and o
ĠVer teid
Ġatt ention
ĠHome page
Lo ader
Ġinvol ved
ĠSund ay
c an
y ing
ĠD ub
Ġst aat
cre en
Ġcomfort able
Ġnecess ary
k ord
Ġe he
Ġan ges
ĠT ri
ree k
app er
Ġnieder lÃ¤nd
f rom
w eite
ĠG ust
Ġges etz
stru ktion
Verein igte
ate ur
ĠAr zt
ĠPe ters
Ġgleich nam
ustr ie
II I
Ġdefin it
Ġconstru ction
is ation
Ġfor get
ĠKar te
Ġstat ement
sub string
' )
L ast
ĠE very
ĠHe ute
ĠDeutsch er
Ġsm art
Ġreview s
gef Ã¤hr
n ungs
Ġ19 10
ĠBo ard
ĠSpiel zeit
Ġm other
ĠAn der
dr Ã¼ck
br Ã¼cke
ron ic
Ġc andid
ĠR Ã¶
ĠR ichter
Ġver g
Ġown ers
Ġlar gest
Ġlim it
Ġver fÃ¼g
ĠBr andenburg
ch mal
Ġb uffer
Ã¼ che
Ġh Ã¤lt
ĠL eit
ĠL aur
iz en
lin es
sel ben
ĠHand els
20 16
akt iv
Che ck
n ational
ĠS Ã¶
Ġc irc
Ã¼ck sicht
Ġser ious
Ġsetz en
S Ã¼d
f le
or fer
Ġb itte
il a
Ġg ift
Ã¶r en
ign ment
ĠSold aten
tempor ary
R ule
Ġw under
ĠS em
ĠJ SON
Ġim med
ver lag
Ġfr ame
ĠTemper atur
w ar
in ks
ĠA R
Ã¤ ische
ĠW omen
ĠAn teil
Ġprogr ess
ĠColle ction
a dem
Ġd ient
ĠIn tegr
Ġsupp l
reg ierung
ĠGesund heit
ĠJak ob
ĠAller dings
k in
y mp
ĠS ing
ed y
Ġl ost
Ġ{ }
get Class
Ġelement s
ĠAustral ia
d as
ĠAn wendung
ĠLand schafts
ĠEl isabeth
Cont ainer
e es
n ode
w ach
is ieren
ĠBild ungs
zieh ungs
K reis
ĠUr s
zieh ungen
Ġbestimm ten
A X
Aus zeichnungen
an cy
Ġar g
ĠPr ies
Ġfol gt
ĠBÃ¼ ro
gangen en
ĠA ff
Ġg ere
Ġso ft
r al
Ġc ell
ow a
ow ski
Ġste ts
Ġpla ces
ĠStud enten
F ol
Ġro ot
Ġbring t
Ġrelations hip
Ġannoun ced
ĠK rank
Ġver mutlich
T arget
V ER
Ġm aster
ĠH und
Ġver pf
ĠMan ager
Ġstart ing
' d
Z eit
un i
st ation
ze p
Ġgrow ing
ĠLeist ungen
Ġstru cture
w ise
Ġf ine
Ġc abin
ĠO ver
ĠÃĦ nder
Ġfert ig
r ight
ar p
ra p
wer te
fra gen
A ut
ĠB ett
ĠM ission
ack s
rif ft
Ġob t
Ġwest lich
un te
ck len
oun ter
ond ition
Ġwieder um
ĠE duc
Ġand ers
Ġcom b
k irchen
Ġb aby
ĠW agen
ĠMar ien
ĠSer ver
Ġweek end
Ġactiv ity
ĠGÃ¶tt ingen
id ents
Wer ke
Option s
Deb ug
Ġh ielt
ĠC entral
Ġit self
ĠPf lege
ĠGrund lage
ĠBesuch er
ĠPhilosoph ie
y les
ĠA P
ĠEin s
ĠGes pr
ĠAd min
g ut
Ġe arn
Ġv ideos
ĠâĢ ¢
Ġlie fert
fr ist
ĠSpe cial
ĠHeidel berg
el ine
bo ten
Ġ192 1
Ġcomplete ly
Gemein de
l oc
ĠE xt
ĠZ entral
Ġab s
ĠLe x
Ġcl oth
Ġcar ry
Ġin zwischen
Ã¼ st
rie den
ĠPar lament
M at
ĠA ktion
ĠAuf gabe
Ġcolle ge
f Ã¤lt
t i
ĠS us
pr Ã¤sent
ichte ten
Ġ6 5
D B
O W
h ips
r ies
Ġw ait
Ġor d
ĠMann schaften
Ġstor ies
ĠSoc ial
H ttp
Ġ3 9
ĠLe on
ĠIhre m
Ġexperien ced
h agen
ĠT schech
ĠG lock
In s
ĠBesch reibung
Ġcamp aign
gebie te
Ġk or
ĠWe iÃŁ
ĠFran ce
m ore
Ã ½
Ġs us
ber s
os ed
ĠHand el
ĠHo hen
ĠBetrieb s
leist ungen
ĠNie ders
Ġb all
Ġv iol
ĠK os
ik i
Ġm il
ĠD ol
ĠT anz
ĠW ood
Ġch ines
Ġbest immt
gew Ã¶hn
Ġdesign s
ĠStand ort
Ġenc our
G ruppe
f alse
ĠR og
ĠQu ellen
Bau werk
Ġs old
ĠMÃ¶glichkeit en
ĠCour t
Ġt emp
Ġs agen
Ġsp Ã¤t
re f
ĠS tellen
us ed
ĠH it
ĠL ind
20 14
ĠChrist mas
ĠOff ice
g le
ĠT iere
Ġg esehen
Ġun ten
Ġvers ucht
ĠSc ott
B and
S erv
S yn
Ġg old
ĠGroÃŁ en
esen ted
ĠCas ino
print ln
ĠSant a
ific ate
kon om
minister ium
Spe c
brit ann
ĠGr enz
Ġ192 2
Ġeng ag
ĠFÃ¼hr ung
ĠhÃ¶ch sten
. ),
er er
Ġlim ited
c lose
ĠS P
ĠV om
lan z
ms el
roll er
ĠFer ien
Ġd ry
Ġe th
ĠO x
ĠIn t
ĠTra ining
itte e
ĠE igent
ag ne
uck y
F unction
Å Ļ
st uhl
ĠU ser
Ġgo es
Ġhel fen
Ġac cept
ĠRegion al
Ġrequire ments
Ã ´
th ur
lie fer
ĠOp fer
Ġfinanz iel
Ġunterst Ã¼tzen
P ass
Ġ Î
Ġ ult
it ag
us te
Ġver t
Ġgew onnen
ennt nis
UR L
L abel
ar ies
ĠB la
ĠD E
Ġc ulture
ĠE re
ĠR ennen
Ġerst es
Ġ192 3
ĠCoun cil
g rad
an ders
olog ies
pf lege
lÃ¤uf er
Ġindividu als
S ec
m and
ing u
Ġn et
ĠC anada
glie dern
ĠÂ §
ĠBeit rÃ¤ge
w ander
Ġn ature
Ġc ases
Ġaus getragen
Ġarbeit et
C re
Ã Ħ
Ġd ynam
Ġver lassen
wer be
res p
ĠAut oren
200 8
m aterial
o z
r ick
Ġh y
Ġge halten
Ġsub s
ĠCent re
k osten
al led
Ġver lieÃŁ
Ġde pend
ĠÃ ī
Ġzw Ã¶lf
Ġg iving
ĠHen ry
Ġk anad
ĠPro ject
aut en
Par ams
ĠSchul en
ĠÃ¤ uÃŁer
ĠIn f
Ġar gument
ock ey
ĠId ent
ĠS up
Ġf arm
De fault
Ġcons ult
ĠUR L
g ern
ro y
ĠC O
ist ance
ĠV illa
Ġgesch affen
Ġsom et
hol t
ĠLie fer
ĠGel Ã¤nde
Ġ q
is ions
ĠK ritik
Ġwe ather
Ġso uth
ĠMen ge
Ġinst it
Ġsupp ly
B S
N ieder
ĠA N
Ġmit tels
ĠAfr ica
Ġstreng th
h te
im ension
ĠF al
ĠLe op
Ġerschien en
Ġerziel te
p al
Ġg as
Ġro ck
Ġmethod s
Ġexist ing
ĠTurn ier
N on
d ouble
it ation
Ġf ab
ĠD omin
Ġl es
ĠReg isseur
Ġag re
C A
Ġw ild
ist a
Ġbek am
Ġcost s
ĠermÃ¶glich t
B ox
O K
s itz
s ervice
ĠD arm
ĠK urt
ĠR od
ĠGe heim
Ġbl ue
Ġbas ic
ĠSm ith
ĠDec ember
n s
ĠB rief
ion e
ĠE hr
ĠR icht
Ġbe gan
Ġher r
Ġbusiness es
Val ues
it ur
ĠF Ã¤
Ġth ous
ĠMo der
M ill
ĠBe zug
Ġent h
omm ern
ĠVerb and
gent in
m Ã¶glichkeit
Ġf uer
ĠV ort
geb racht
20 13
Trace Component
P an
Ġb row
ro ck
zen s
Ġze ich
ĠFreib urg
msel ves
ir us
ĠO h
Ġ/ *
geb nisse
Ġcons um
ĠMo dern
I A
l ike
t liche
cklen burg
? ?
Ġt al
lauf en
Ġprom ov
tertain ment
E hemal
ĠM aur
ĠC orn
Ġor ient
b ilder
re in
Ġin kl
Ġl au
Ġhistor ischen
D en
h u
o ÃŁ
r as
ĠV arian
Ġunmittel bar
ĠP ay
ĠR is
tr ans
Ġbes ondere
imat ely
c ia
j i
ig an
Ġcont ains
Ġno te
Ġentsp rechend
Ġe ye
ĠB Ã¤
Ġthe mselves
im me
gr Ã¶ÃŁ
ĠwÃ¼r den
Thre ad
ĠB asketball
et ts
Ġl en
ĠO pt
ĠIde e
T E
v i
ĠT hr
ĠH aw
ĠV ize
Ġmy self
m d
at i
ĠVer lauf
St adt
Ġwen igen
S k
ĠInter view
yd ro
T op
l Ã¤nder
p an
Ġ Ã¶st
Ġt ag
it ness
Ġb ill
am ous
ĠP ok
Ġab geschlossen
Ġhe ll
Ġad vert
r Ã¤t
ĠW ater
ĠÃ Ĺ
ven ue
ĠSer ies
Ġer fahren
Ġ19 12
ot al
ĠAl tern
ĠTe le
ĠString Builder
Ġmein en
m iss
ĠD VD
Ġh il
ĠP aar
ĠZeit en
ĠBes atz
Ġbec ame
schul en
D o
Ã º
Ġst uff
ĠRe chte
ĠBe handlung
Ġrep air
Ġexact ly
W eit
Ġv Ã¶ll
ne ur
Ġent deckt
Ġus es
ail s
ĠĊĠĊ ĠĊ
Ġwahr scheinlich
Rec ord
F ound
m es
ĠB ist
be zogen
ĠHers teller
ĠElekt ro
Ġd agegen
il lage
our ney
lin ien
h i
Ġp en
ĠJ on
Ġle gte
Nach dem
Z um
ĠT hen
ĠF ert
sie he
Ġwed ding
Ġin stead
ĠA C
ic ed
ze ption
ak ed
ĠGer hard
Ġkomp lett
ĠFlor ida
Annot ation
Ã ±
ĠD ouble
gy pt
ĠSow jet
Ġge mÃ¤ÃŁ
ĠVer halten
Ġsch le
Ġ3 7
In putStream
elt a
ĠAut ob
Ã¤mp fen
B esch
j en
j ob
ug in
ĠSp Ã¤ter
20 11
com es
ĠauÃŁer halb
ĠLeist ungs
Ġopportun ities
Up date
ar ischen
and om
ĠFak ult
Ġh ar
vers ammlung
Ġverw ende
Ġver lÃ¤uft
ne ct
ĠAuf stieg
Ġmehr fach
Ġfol gten
ĠBas el
ĠSin ne
} ,
Ġb orn
ĠD et
sh aus
ĠAd am
Ġstar tete
ĠSch aus
ub s
lie der
ĠPro p
rÃ¤ ume
ek te
Ġav oid
or al
Ġm ention
ĠR ose
ad rat
ger ichts
w riter
ĠP or
ĠW he
Ġ19 11
Ġhe ar
s es
Ġt emper
ĠWill i
T er
c s
ĠD ank
ĠR ay
Ġsp orts
20 10
Ġev alu
ĠAll gemein
ĠMin er
Par ent
Ġhoch wert
**** ****
ĠPrem ier
ĠÃĸff entlich
h auer
on st
us er
ĠIn dex
Ġsur round
ĠS emin
Ġ19 13
zip lin
Ġo wner
ĠT ar
ĠG Ã¼ter
ĠK ore
ĠH istory
Ġun bek
ĠTh Ã¼r
Ġout door
r ik
Ġj em
uss ion
Ġgef Ã¤hr
ĠKomm ission
bie ter
ĠNik ol
ĠP ack
m eldung
Ġp et
Ġpre c
Ġcorre ct
ĠNÃ¼rn berg
P RO
f ung
il ing
ĠG overn
Ġunter s
ph an
ĠChr on
ĠNord rhein
Ð ²
or ial
ĠS av
ĠS ituation
Ġb ul
st at
Ġmus ikal
iti ative
( '
A utor
F rank
h ost
i ant
Ġp ages
em it
ĠL ib
Ġer gÃ¤n
Ġent stehen
amer ika
Sch weiz
Ġback ground
g roup
Ġher gestellt
Qu ellen
ĠOb jekte
bo gen
Ġinternational e
in ed
Ġh arm
ĠSie ger
ĠAuf bau
Ġtrans fer
ĠM om
ĠV iele
Ġaus tral
ac ters
Ġdivers e
ir ge
par se
Ġverb reitet
Or der
ĠBar bar
Call back
ar zen
im in
ĠW unsch
ier n
ĠIn ner
Ġgr and
ilit ary
ĠH ir
Ġl ok
br idge
IN E
Ġverw enden
Ġzerst Ã¶rt
ĠSchla f
g au
k lass
ĠM ol
ver trag
ĠRe p
iz ations
200 9
Ġ190 5
ĠK ammer
ĠN ote
ick e
Ġs and
bl ing
Ġsen se
p olitik
ĠD ra
ĠG ene
ĠR am
Ġth read
Ġle er
Ã¤r t
form ations
hand lungen
ĠMod el
Ġ( "
Ã¶s ungen
ĠDeutschland s
Ġche ap
ĠgrÃ¶ÃŁ ere
Ġmov ing
Ġhom es
B ild
ĠP fe
rie be
ri pt
ĠgehÃ¶r ten
ĠUr laub
ĠMond ay
Ġd ark
ub il
ze igen
Ġres ol
ĠUnivers itÃ¤ts
Ġplay er
Ġfamil ies
ĠDar Ã¼ber
denk mÃ¤ler
Con stra
Ġgu arante
Ġphys ical
I R
T A
ĠA sp
st ern
Ġroom s
Ġverpf lich
an ischen
Ġl Ã¤ng
Ġl ots
Ġun be
ĠHÃ¶ hen
ĠsÃ¼d lichen
ĠTro tz
Ġconsider ed
ĠjÃ¤hr lich
T ION
f ind
un s
Ġ4 2
Ġf lieÃŁ
Ġde ad
Ġex press
ĠOr dens
isten z
ĠEurop Ã¤ischen
Ġlet ter
britann ien
m ess
Ġp f
ĠP en
ĠK amer
la h
ĠKon k
2 000
Ġf ashion
Ġz Ã¤hlt
et ch
if er
tur m
fl ow
Ġdis k
ĠW ohl
oh le
ĠChe f
ÃŃ n
Ġhealth y
Ġest ate
ĠKonz ert
C al
Ã¤ den
art ige
Ġpr Ã¤
pro cess
ied lung
Ġschool s
deutsch en
ĠErfahr ungen
A ug
C P
l v
Ġs ymbol
Ġf em
Ġge eignet
ĠVer anstaltungen
Ġ4 4
ĠAuf nahme
Ġann ual
ĠDÃ© partement
it ude
ĠG irl
Ġl Ã¤
ĠSch rift
fass ungs
Ġf lat
Ġm iddle
ĠUn garn
Ġwe ar
ĠAnd roid
Off set
Ġsomet imes
Ġm ilitÃ¤r
ĠW estern
ĠL ine
Ġk Ã¼nstler
ĠVor aus
ĠCont in
Ġwind ow
L iste
Ġd Ã¤n
ĠF rench
ue ber
ost on
Ġlo an
ĠFlugh afen
n ow
Ġs agt
ver treten
ĠBe wegung
Ġsp ot
ĠSchrif ten
Ġunderstand ing
ĠWeihn achts
at te
re al
ĠC ook
Ġauf gerufen
ste ht
Ġaus geb
ĠWohn ung
ĠDem okrat
Des criptor
ĠH uman
ĠC ross
ĠO ld
ĠTe ams
ĠAd olf
Ġbrit ische
kn own
ĠJac ob
Ġres olution
Ġcreat ive
e hm
t or
Ġcon du
gr iffen
y ond
19 45
Ġ5 5
Ġpre fer
ĠMeister schaft
Ġsat is
H L
ar ische
ĠB an
ĠC ard
os a
Ġst age
ĠEn gel
âĢĿ .
Ġmod els
Ġbeh av
B is
Ã £
Ġd ritte
ĠT ore
ĠEr inner
Ġbek annten
ĠMor gen
en se
ĠBe w
B es
p m
Ġc ast
ĠG ame
Ã¶ pf
ĠÃ¼ber wiegend
Ã© n
wei ÃŁ
Ã¤nd ler
Ġview s
Ġheut ige
Client Exception
c ap
de cken
ĠK ath
ĠK urs
mer ksam
Ġinter view
ĠOb serv
Ġverlie hen
< >();
j ava
Ġdig it
ĠD Ã¶r
ĠH afen
ĠN S
ĠJ ava
ĠMar ine
Ġob j
Id ent
ĠZw eit
L ock
Ġs av
ĠFebru ary
unn y
ĠCommun ity
G ER
k opf
Ġ Ã¶ffentlich
Ġw ert
ĠL y
ĠBundes liga
ĠArchite kten
l uss
Ċ ĊĠĠĠĠĠĠĠĠĠĠĠĠĠĠĠĠĠĠĠ
Ġit er
ĠOr te
Ġges pielt
ĠGra fen
Ġnor th
Ph one
D on
n ing
ĠF un
Ġbet rach
ĠMon at
Ġstr ess
im ed
ĠR h
ĠN av
ap y
ry pt
fel der
baut en
Ġeconom ic
TY PE
M en
k rÃ¤fte
Ġer kennen
ĠJahr zehn
d essen
f Ã¶rder
ĠL ook
ĠEin trag
Ġdarauf hin
al ed
ĠD Ã¤n
Ġste el
let ter
Ġs icht
Ġto wards
ann ung
ĠIn gen
iz ierte
Ġsp end
bed ingungen
Ġess ential
p ool
Ġent spricht
ĠSchm idt
ĠBlÃ¼ ten
F ra
b a
Ġb atter
ess ions
Ġst Ã¤r
ĠHe er
Ġfre qu
f ree
Ġt ree
an er
ten ance
ĠUn der
ix el
iat ely
ĠAustr alien
Ġd auer
Ġs ell
ĠG lobal
ign ed
eiter te
i ation
Ġc ash
ĠChar l
Ġdeliver y
zus tellen
M ult
in ary
Ġm ill
ĠW alk
ident ial
urs day
Ġthink ing
ĠLauf e
ĠFrÃ¼h jahr
z ul
ĠT ok
ĠC at
Ġ6 4
ĠSo und
icher ungs
is Entry
Ġw uchs
Ġbe ob
ran ce
gr enze
ĠMe tern
stell er
ĠArbeit er
Ġelekt r
isEntry Enabled
Ċĉ ĠĠĠ
Ġgen annten
Ġplay ed
J son
O lymp
R ow
V is
p ace
el f
Ġacc ur
ĠOrt schaft
ĠDire ctor
Ġemploy ees
g Ã¼lt
at ives
Ġzu gleich
gemein den
m ethod
ĠB ibliothek
ĠR ath
up s
ĠgrÃ¶ÃŁ eren
ĠPl us
ĠKap it
Ã¤ her
Ġdar gestellt
Ġrepor ted
c or
ĠS eb
ĠB it
Ġg alt
ĠSh op
Ġerw arb
ĠDaten bank
x x
Ġzu erst
ill on
ĠArch iv
Ġmoder nen
G roÃŁ
m t
m Ã¼hle
ĠD rit
ĠR ub
ho ff
En g
Ġmittler weile
Ġt ips
Ġs ucht
ĠK ron
Ġeinges tellt
Ġadv ant
Ġsett ing
ĠgeprÃ¤ gt
ĠLauf bahn
ĠhÃ¶ch ste
Ġsele cted
ĠSim on
ĠVir gin
M ode
w Ã¼r
ĠVer kehr
arz t
Met adata
b ungen
b aden
g yp
h ow
p olit
ĠW appen
Ġle ider
Ġersch eint
on ia
st he
ĠK och
ĠW affen
Ġbet rug
Ġdr ink
Prov ider
B erg
Ġn umer
Ġc ards
ĠH ab
ĠR y
ous ly
Ġcontin u
augh ter
al te
ra pper
ĠAd d
B ack
w arn
re ci
st Ã¤tten
ĠR ost
Ġcon ven
ĠBern hard
Ġ ..
un ehmen
ĠK iel
os is
ĠLe e
ĠAus druck
ĠFer din
Ġlov ed
is Debug
ĠEr de
iz eit
Ġber Ã¼hm
Ġsc ience
ol er
ĠG ames
ĠK andid
ĠH aft
cl ude
Ġdeutsch sprach
Mus ik
ĠWirk ung
b lock
ar kt
ĠK el
ind ustrie
Ġcon trib
ĠAl pen
Bo olean
b ad
ĠE ll
ĠL ar
Ġbe legt
ĠÃ¼ber haupt
Ġbut ton
aj a
Ġbott om
ĠF ield
Ġob wohl
mit ted
Ġopen ing
Ġs ingles
Ġso c
Ġtra de
tem pt
Er baut
Ġze igte
Ġeffe cts
Ġcoll abor
e lement
ĠS dk
je kten
ĠFor men
arb on
Ġhigh est
arl ier
Ġp al
Ġl esen
Ġre ve
Ġhe ard
Ġded icated
T S
Ä Ľ
ĠD iss
ĠC ustom
Ġfre uen
ĠErfahr ung
C omm
Ġ il
as ion
ann en
ont o
lan de
200 7
gor ith
P ool
os ite
af ft
Ġhe at
Ġsel ber
ĠKon zept
Ġmax imal
g ot
r Ã¼ck
Ġw rong
Ã¤ ure
Ġre v
Ġch urch
Ġsow jet
Ġdire ctor
Ġsynchron ized
ic ine
Ġ2 50
lo ok
Ġent gegen
anz er
Ġ190 8
Des cription
unsch weig
ĠVo gel
D em
Ġa spe
ĠP ot
auf trag
part ner
ĠStr ateg
Ġprim ary
à ¤
ĠAn griff
Ġsp ring
Ġsc ient
ipp s
ĠTex te
- )
er c
Ã¼ ÃŁ
est ra
ill y
ĠOr chester
ĠAuf grund
teil s
mann s
ett ings
Ġphot ograph
Ġdeg ree
Ġerweit ert
Ġc ru
be wegung
ĠVor der
ĠKon fl
Ġdefinit ely
ĠSdk ClientException
P O
g ie
p ost
Ġd ining
on ial
ol es
ĠCh ild
Par ser
Ġchange d
ĠÃĸffentlich keit
W arn
n etz
il ien
ro chen
St ack
Ġjob s
afr ika
posit ory
ĠM ake
ĠV ar
ck ing
Ġge tr
Ã¼n sch
Ver Ã¶ffentlich
us en
el and
ĠH immel
rie chen
tell igen
ĠSchw eden
Ġsho pping
Ġ190 7
Ã¤hn ung
ĠIntern al
Ġmot or
I B
č ĊĠĠĠĠĠĠĠĠĠĠĠĠĠĠĠĠĠĠĠ
Ġn amed
ol o
ĠF ire
id den
ĠBe ge
ĠFor um
ĠKon zer
Ġprodu ziert
ĠMark eting
Ġprogr amm
ĠSied lung
Ġextrem ely
Ġverantwort lich
ie den
Ã¼ ne
Ġre ich
icht lich
Ġ6 00
act ive
ĠUl rich
Ġpur pose
re y
ĠB ass
ĠF lo
ic ing
ĠEr b
ĠEin ige
ĠHein z
ĠKarl s
Ġmult i
ĠR ab
latt form
Col or
ĠEre ign
A ct
H o
W ind
] );
le hr
ein s
Ġge gebenen
qu is
ser ver
Ġmein em
Ġir gend
zÃ¼ ge
ĠWissen schaften
ur i
ĠD etails
ĠN a
est ination
Ġart ist
Ġoffer ed
Ġausgest attet
Ġentw eder
D ouble
k arten
z one
ak et
Ġex hib
Ġbeen dete
Ġdescr ib
] [
ĠS inn
Ġm is
Ã¼ mer
ĠB ob
ĠL aut
ĠC are
se ud
In valid
ĠHistor iker
ĠvÃ¶ll ig
b aus
t op
ĠA wards
iz enz
ĠLand wirtschaft
stell ungs
UR I
fÃ¤h igkeit
Ã ł
ĠB ir
ĠG ru
ĠW M
ĠEntscheid ung
Ġdise ase
l ar
Ġprodu z
Ġbu ilder
M E
c ause
t y
em por
ĠSch ritt
Ġinnov ative
ĠDevelop ment
as ks
ĠIn halte
Ġsh ape
nes day
h orn
es is
Ġcol ors
ĠErz bischof
ĠRhein land
Ġblo od
ĠLeop old
ĠF alls
ĠVer Ã¤nder
ĠUnter nehmer
ĠÃľ berg
Ġkein er
Ġhol iday
ĠSonn tag
fur ter
Ġ ðŁ
Ġh op
ĠL ight
Ġ19 17
Ã¶r ung
Ġpre vent
Ġgu ys
200 6
ĠHam burger
Ġpolit ical
Ġbro ad
famil ie
Ġt ief
af el
ne e
ĠLe vel
ĠOr ient
ĠTra in
Ġlin ken
Weit ere
l ings
Ġa f
ĠG reg
Ġl ines
Al bum
200 5
Ġclass ic
glieder t
ĠJo achim
ĠKommun ikation
W idth
p enden
z te
Ġf al
Ġv ict
ic ul
ĠR osen
Ġge zeigt
Ġum fass
stand ing
ĠFre unde
Ġpack age
Ġbeginn ing
ĠChem ie
Ġsogen annte
ĠÃ¤hn lich
Ġamerikan ischen
je w
zug s
ĠDistr ict
Ġd etail
at oren
re l
ro te
ĠV iol
ĠBe ide
Ġacc omp
ues day
Ġconne ct
Ġw ife
il ian
Ġsp ent
omm od
âĢĿ ,
ĠGust av
h aps
ĠH orn
ĠL ord
Ġl ands
Ġhelp ing
in det
Ġt ried
Ġin sp
Ġan erk
ĠZ ent
ly ing
ĠWe ge
Ġcomp leted
leg ten
Ġass ess
Ġappro x
b ibliothek
Ġsch eint
Ġra ce
stit ution
ĠDaten schutz
ĠÃ¶sterreich ischen
Iter ator
Ġaus ger
qu es
Ġch at
Ġqu ant
Ġdist ance
Ġtats Ã¤chlich
ĠEduc ation
is a
ĠC a
Ġar gs
ĠTr ump
Ġeinz ig
ĠEm il
Ġdev ices
Ġentsprechen den
b il
Ġt Ã¼rk
ĠF ind
Ġr Ã¼ck
ĠAn y
ĠArch Ã¤
ĠIns gesamt
ĠTh anks
pl Ã¤tze
Ġruss ischen
Stat ement
Ġc op
Ġh ast
ov a
ĠHers tellung
ĠSalz burg
Ġrespons ible
ĠCarol ina
ĠM ie
ĠP oint
ĠF inn
ĠbeschÃ¤ft igt
A re
ĠA qu
Ġk auf
ab elle
ĠÃ¼ber tragen
io de
ĠReg ister
Ġadv ice
Ġstrateg y
KE Y
b ell
k ts
m ack
ste iger
ust ain
iert es
Ġeff ort
ĠSchaus piel
Ġf rag
ĠW Ã¼rz
Ġre lax
aus schuss
ĠSp aÃŁ
Ġent ity
wor ks
Ġfriend ly
gem eine
Ġill ustr
Ġm ission
Ġp ush
ĠP enn
Ġpro pos
ommer ce
Ġprote ction
Ġkur ze
ĠAn frage
Ġmax im
!! !
Ġverst Ã¤r
Ġach ie
A dresse
ĠS of
us band
ĠB ran
ol z
ber eitung
Ver b
Ġtrans form
ĠMittel alter
lev ant
ĠrÃ¶m isch
ĠFakult Ã¤t
W as
k unst
ur ts
Ġc lin
ĠK en
Ġg ingen
Ġst ates
Ġr ich
ĠVer antwort
ho fen
Ġob serv
ĠMon aten
Ġstra ight
omot ive
V ol
Ġs ym
if ik
ad or
Ã¤hl ten
fr iend
Ġinvest ment
ĠSommers piele
c u
k ul
Ã ¥
Ġn ut
ĠIn halt
Ġpar se
kl us
Ġserv e
Ġfield s
n y
r ig
en kt
Ġf ill
ĠL iter
Ġl Ã¶
tra gs
ĠGes ell
Ġbo y
Ã¤us ern
++ ;
Ġunterschied liche
Ġbestimm te
M B
Q ue
Ġ Ä
ĠM ethod
ed ition
Ġre li
ĠEin heit
Ġ4 3
akt or
Ġac adem
Ġassoci ated
D oc
D isk
M o
Ġs em
ĠP od
ĠE ach
ĠTh ursday
gesch rieben
Ġerst re
Ġflo at
Ġleb ten
Ġbud get
ĠN ight
ab teilung
ĠThe ologe
Ġsp irit
Ġpass ion
Ġpower ful
ĠnÃ¤ch ste
Oper ation
N r
ĠD auer
Ã¶ d
og a
Ġaff ord
G u
es ome
ĠFl Ã¼gel
Ġhin gegen
Ġpol ice
ĠGrÃ¼n den
ĠBron ze
or age
ĠK ab
ĠEr satz
Ã¶ff nung
Ġwel come
Ġmen sch
ĠnÃ¶rd lichen
ĠImm obil
A F
ĠR oss
ber n
ĠMain z
Out put
ĠH Ã¤user
ĠL ieder
ce ed
ĠAn ders
Ġoper ation
Ġregard ing
O p
Ġc amera
ĠP ersÃ¶n
ĠT imes
Ġg ran
rom e
ĠLin ien
liegen den
ĠGerman y
B et
Ġw and
Ã¼r en
Ã¤n en
ĠGr Ã¤
I F
k g
ĠS ab
ĠB ab
Ġc old
ĠF ant
ĠE ind
ĠH ttp
Ġne arly
ag az
ip es
ĠAb schnitt
Ġdr iving
ĠFranz Ã¶s
Ġtre ffen
ĠKÃ¼ che
I OException
Ġk ommun
Ġle itete
Ġset s
Ġcent ury
ĠSchles wig
N S
f lo
Ġf Ã¤llt
Ġ( ,
Ã¶r ter
ĠQu al
w ischen
Ã ĥ
Ñ ĥ
re hens
ĠS ig
ĠEr schein
ov en
ĠY oung
con text
Ch ange
n g
te i
ay a
Ġapp reci
Ġprofession als
Ġfeel ing
ĠFrancis co
ĠFound ation
H ash
Ġf ight
ĠIt al
ĠLin ks
## ##
ĠSec urity
c opy
ĠK ong
ĠL Ã¶sung
id ae
Ġ4 9
Ch annel
wÃ¤r t
ĊĠĠĠĠĠĠĠĠĠĠĠĠĠĠĠĠĠĠĠĠĠĠĠĠĠĠĠĠĠĠĠĠĠĠĠĠĠĠĠĠ ĠĠĠĠĠĠĠĠĠĠĠĠĠĠĠĠ
D C
ro ugh
ĠE ich
ĠH ell
ĠL en
ĠThe odor
ĠFre itag
Ġgra de
cr ibe
frastru ktur
it is
Ġf ans
ĠP age
Ġinc red
ĠSam stag
ĠCD U
u ern
ĠNe uen
lat ed
Ġro b
Ġber uf
Ġelect ric
c are
w uchs
z in
Ġwe ib
ĠInternational en
fan ter
fÃ¤l le
merk ungen
Ã£ o
S he
Ġge kommen
ĠEn s
hÃ¶r den
Ġvers ehen
Ġverb ess
reg ion
roll en
Ġchallen ge
ĠD ur
ĠG olf
ĠC ho
ktion s
ĠIs lam
ĠMicro soft
G o
ar ray
ĠH ot
Ġg ren
Ġre chten
Ġr ights
Ġsp rach
Ġrepor ts
ĠSib Tr
F uture
Ġw ants
sch m
Ġr ent
ĠAn ne
ĠTeil en
stra hl
Ġnumber s
Ġober en
Ġupd ated
ĠÃ¼br igen
R ange
Ġs ituation
im it
Ġim press
ĠVer anstaltung
Ġfe et
Ġprodu ce
Ġtr uly
son sten
Ġchar acters
ĠFunktion en
LO G
ĠErw achsen
ĠH ig
ĠC ra
ĠJ Ã¼rgen
ĠVer hÃ¤ltnis
Ġinter ior
Ġprof it
unn el
setz ungen
is ierten
ĠN ode
ahr t
ĠHoch zeit
ĠCol umb
ĠDeb Ã¼t
ĠFerdin and
k rieg
Ġ uk
ĠP unkten
sch loss
ste dt
Ġcon cept
lÃ¤ss lich
ĠPublik um
isDebug Enabled
ĠH T
em ark
ein d
ĠRe view
wer ken
arch iv
wahl en
Ġe igent
Ġh a
Ã¶ se
ĠJ os
Ġfor der
con fig
ĠĊĊ ĠĊ
wh ile
Ġwest lichen
Ġpie ces
iw od
or ient
Ġf uck
ĠL am
ite ktur
ĠPr esse
hand el
ĠPre ise
i ot
k ultur
Ġl ack
tel n
ĠAus land
Ġgo als
Ġbeg onnen
ĠOper ation
C ons
ĠA M
ĠV ideos
Ġwas n
anz ig
Ġben ach
haf te
ĠArchite kt
ĊĠĠĠĠĠĠĠĠĠĠĠĠĠĠĠĠĠĠĠĠĠĠĠĠĠĠĠĠĠĠĠĠ ĠĠĠ
ĠFÃ¶rder ung
P ER
te hung
ic ious
ĠBe ziehungen
Ġad vent
ĠGesch ichten
bl Ã¤tter
mar sch
Ġbro ught
ĠFig ur
Ġwes entlich
ĠB aus
ro at
Ġwir kte
ke i
Ġco ffe
ĠGroÃŁ britannien
k omm
Ì Ī
â Ĥ¬
re form
ĠA rab
ĠN ahr
Ġun er
ĠQu er
Ġpol y
Ġbas is
kathol ischer
Ġerhe b
c en
ĠS au
ĠD aher
ent ur
ĠE lemente
Ġsch reiben
Ġmet al
ĠWider stand
ĠWed nesday
Å ¾
Ġb ur
Ġn amens
res h
Ġpar ameters
Ġsec ure
c ert
č Ċĉĉĉĉ
Ġg ave
ĠBr Ã¼cke
Ġthan ks
ĠBundes republik
Ġeas ier
ĠTechn ology
g Ã¤nge
Ġs org
Ġn ation
ig ger
Ġres pect
im ens
et he
ĠW ett
get Key
Ġvor bei
enn fahrer
Ġman ager
Ġengl ischen
Ġredu ce
c raft
w all
ĠB oston
Ġal bum
ĠIn strument
Ġdr iver
ĠÂ ·
Ġnah men
Ġcap ital
Ġdest ination
Ġhund red
Ġp air
Ġpro ced
Ġj ud
Ġte ams
En um
ĠPer form
mitt lung
ĠJournal ist
T emplate
Ġin f
ĠB ell
ĠF ootball
Ġbe an
ĠN etwork
th a
ap el
pr iate
atur ing
app e
gew and
Ġstand en
Loc ation
H aus
m ir
or ganisation
ĠK ard
Ġbe in
Ġver schw
Ã¤n ner
V P
ĠP rag
Ġz Ã¤hlen
Ġse ch
Ġhe im
Ġger ing
ĠKap elle
ĠBarbar a
Ġd ienen
Ġer stellt
ly wood
Ã¤r ke
Ġbek annte
Ġstell vertreten
U ID
ĠT uesday
ĠG ymnasium
Ġim ag
ĠSie ben
leg ant
Ġ190 9
ĠfrÃ¼her en
4 00
P lan
he ute
ĠM ode
ĠH ub
Al le
Ġmay be
por ation
Ġturn ed
ĠMos kau
Ġdat abase
C R
Ġt ransp
ĠM ir
Ġl ernen
ĠKon gress
Ġprov ider
Ġbeaut y
Ġallow ed
bÃ¼ cher
> ,
E Class
t ok
Ġm ode
st Ã¼cke
Ġeigen stÃ¤nd
Ġprof ile
Ã¤m lich
ĠGest altung
ĠVerÃ¶ffentlich ung
> <
b al
s berg
Ġch annel
Ġuse ful
fang s
Ġeinge fÃ¼hrt
Ġdi agn
Ġpay ment
Ġmoder ne
ĠL au
Ã¶ ÃŁen
ak i
ĠAl ters
ĠBer atung
Ġaut o
Ġpop ul
Ġret ail
ĠZusch auer
at ik
âĢ ¢
ĠR umÃ¤n
Ġweit gehend
ĠTeil nahme
ĠMark e
ĠErw eiter
bere cht
Ġestabl ished
b on
Ġm iles
ĠT el
ĠK art
ĠW ag
ĠV ari
ĠAn spruch
Ġi Phone
ĠÃ¼ber geben
ĠgroÃŁ es
ĠBre ite
ĠDate i
Ġsle ep
Ġs in
or ph
ĠR oh
ĠTra um
Ġsol id
wend ungen
ĠWeltk riegs
Ġbil dete
Besch reibung
F L
G en
ĠS ystems
ent in
ag ra
ĠRe fer
ĠStra f
k u
ĠS qu
ĠT sch
ach tet
ĠPro z
Ġprote cted
ĠK anz
ann ed
ĠRe port
Ġdenn och
ĠProduktion s
FA ULT
Ġmean ing
Pat tern
Ġgleichnam igen
z ur
ĠS tell
ĠThe orie
n icht
Ġf amous
ĠM ah
ĠK Ã¤
ann ter
Ġsch affen
Ġman chmal
ĠGes am
Ġclass es
ĠKn oten
ĠSchl uss
B i
ra ys
ben e
ĠRe v
ĠPr im
Ġacc ommod
ĠNord osten
Ġben utzt
Ġocc ur
Ġcoffe e
N ord
ĠR aj
ach te
Ġre ader
Ġre ference
ĠHe ad
zeit ung
ĠPries ter
ĠNieders achsen
v ents
at om
ĠM P
Ġcon vers
ĠSp orts
ip fel
wer ten
sk y
lig isten
Ġeffic ient
m ail
ut ing
ĠN R
ĠHer bert
ĠBereich en
bre ak
ĠSchwer punkt
n iss
v orsitzen
Ġe yes
Ġj ourney
Er ster
let te
Ġweiter es
Ġur l
Ġincre asing
F unktion
V e
it o
ĠD iv
Ġc at
Ġh ers
ĠV aters
ĠSp iegel
Ġstud ies
Ġ190 6
Ġschw ier
ĠAngeb ote
ĠPfarr er
ĠpersÃ¶n lichen
R ed
n t
ä ¸
el or
Ġ8 00
K lasse
P R
h Ã¤nger
Ġe at
st ad
Ġl isted
tens ion
Ġ190 4
Ġtechn ical
mÃ¶glichkeit en
P AR
ĠF air
ĠSch lieÃŁ
ĠAn dr
rÃ¤ ft
fÃ¼hr en
set s
ĠmÃ¶glich st
Ġbeein fl
B el
C ar
an ch
he bung
et ze
ĠH oll
ĠR ail
ĠAd els
por ts
ĠMet hoden
Ġentwick eln
wirk ungen
b ing
u ellen
Ġt emplate
or dens
Ġf le
ĠB lo
ĠD iffer
ul f
Ġgu ests
ĠMuse ums
ĠBayer ischen
kra ine
Ġf ather
ĠH aar
Ġwe ist
ĠSp itzen
ĠHe ft
Ġentsprechen de
Exec ution
p ite
ar ator
Ġf elt
ĠBe ck
Pro ject
Par ameters
Group Name
Ġstre et
i xt
p o
r and
as ts
ĠA ccess
Ġh usband
ĠK amp
Ġl ern
Ã¶ tz
ĠV alley
ow e
Ġcan cer
Ġ4 6
Er st
ĠFamil y
Ġact ual
ĠFil ms
asil ian
Chr ist
F inal
S L
ĠA u
ĠB M
Ġc ars
Ġer laubt
id o
ĠOr der
fe ct
ĠRÃ¼ck en
M ich
t able
v ollen
Ġa ward
ĠS low
Ġh Ã¤tten
ĠF ood
Ġman ual
Ġges pe
Ġsur face
Ġcour t
ĠPfarr kirche
ĠBu ild
L iter
Ġ5 2
Te chn
F in
ĠL ibrary
ĠSt ift
Ġr ules
Ġde cl
lin der
ĊĠĠĠĠĠĠĠĠĠĠĠĠĠĠĠĠ ĠĠĠĠ
ĠVor gÃ¤nger
Ã¤hr ung
Ġtr ust
Ġchar ge
Ġfac ilities
Ġitalien ischen
Ġn um
ol ar
ĠP in
ĠN un
ĠJ a
Ġme as
cl es
Ġfin ished
rat es
Ġnahe zu
ĠHeraus geber
Ġcas ino
J an
Z E
h aben
or gan
ung er
Ġver gangenen
Ġr ates
ert ation
Ġme asure
ĠBr ig
Ġover all
hard t
ĠBra unschweig
ĠZahl en
ĠQualif ikation
" ).
N O
er te
ro ad
gen Ã¶ss
we ge
sp ace
ĠGe walt
fre und
ĠPap ier
n um
is her
Ġb ag
Ġn Ã¶t
ĠRe aktion
ru he
Ġ4 7
ĠEx ec
Ġerm Ã¶
ĠJur ist
in zen
Ġt ritt
ĠD ialog
ap ers
Ġman age
H aupt
J e
Ġd eine
el er
il de
Ġun ge
Ġad vanced
Dire ctory
er em
ĠL abor
ĠUn abhÃ¤ng
wer den
Ġauth ent
term ine
untime Exception
B ad
is piele
ol en
ĠO R
Ġhe ight
ath on
Ã¤l de
Th ese
val u
ĠSÃ¼d westen
ĠRestaur ant
E W
M ot
l ife
Ġh off
ĠI ran
Ġres erv
reg ister
ĠGroÃŁ e
Ġmon itor
Ġprote ct
ĠEhe frau
Unter nehmen
Ġswe et
Ġinfl uen
W erk
u um
ĠD J
Ġp aid
Ġg rat
Ġcon vert
Ġen dete
Ġbes itzen
Ġprodu ced
Ġpar ams
ex ec
Ġlo ans
Ġbenef it
Ġeinger ichtet
F ailed
Ġ ut
Ã¤ b
ast ian
Ġ4 1
ĠMed ical
Ġend gÃ¼lt
Ġs up
ar ily
Ġn Ã¤mlich
ĠW a
ĠN ap
Ġsp rechen
me er
Ġphil osoph
B ook
Ä «
Ġc ore
Ġqu e
ĠGew icht
ungsp ro
hy th
) {
z iger
ĠE ck
Ã¶ die
iv als
ĠMe cklenburg
man agement
Ġdam age
ĠMan y
Ġange legt
ĠFahr zeuge
ĠZug ang
ĠA ction
ĠSp itze
erk l
alen der
Ġtechn iques
C C
he m
ĠD adurch
Ġdem onstr
for mer
wer ben
Ġsh ared
De f
ĠEurop ameister
Ġ' \
ĠVers uch
Ġkur zen
ĠMaÃŁ nahmen
Ã¤chs ischen
Ġs itu
Ġfe hl
ĠGra d
Ġreg istr
ĠStra ÃŁ
prÃ¼ ft
ĠBrÃ¼ der
N ow
k ur
Ġs amm
ĠD ichter
ĠL ot
gel t
ĠWar en
hÃ¶ he
" ));
U B
Ã¤ ger
Ġqu al
Ġdiffer ence
Ġtop ic
ĠSicher heits
Ġbesonder en
ĠermÃ¶ glichen
L age
W el
b ett
an ische
Ġm Ã¤nn
Ġan hand
ĠP ath
Ġl it
ab geord
ĠFrie den
ĠS ud
Ġb la
el se
Ġc entral
we il
art igen
Ġab gerufen
ĠBe teil
In nen
ĠLe arn
urn ier
ĠfÃ¼hr ten
Ġhig hl
Ġvo ice
Ġimmed iately
ĠM isch
ĠR uf
Ġse ven
Ġsch Ã¶ne
auf hin
Dies er
ĠLeicht athlet
ĠN omin
Ġge plant
Ġwe chs
Ġvor gesehen
Ġ ueber
ĠM auer
um pf
ĠU se
Ġum ben
hÃ¶r de
Ġexper ts
Ġserv ed
c ount
f alt
ĠB aby
ĠK rieges
Ã¼r f
Ġauf gebaut
sc ar
Hel per
t yp
ar ze
ĠC ert
ann a
co very
ĠPf ar
Ġatt ack
ĠGrÃ¼n der
ĠBy te
it ors
st on
ow l
ĠO pp
ĠUn sere
Ã¤r ung
ĠNe ust
200 4
legen heit
ĠAst ron
L ayout
de burg
ol i
ĠH ockey
ĠPar ameter
ĠFr Ã¼
Ġstand ards
Ġmax imum
umm ary
Ġdah in
igr ation
Ġ util
re c
ĠS oph
el ess
Ġk ulture
Ġlie f
ĠFre izeit
yl van
Ġpat ient
Me ister
Ġexperien ces
P A
v ar
Ġde lete
ster dam
ĠOber st
U I
Ġw ebs
ĠK redit
ap h
unter richt
f abrik
ĠM ov
ĠP ow
ĠK y
ĠJ ersey
ĠBe ziehung
ĠPro te
ĠTh read
ĠHoch schullehrer
gra de
ĠKom bination
fÃ¤ ll
A V
Å «
Ġe arlier
ĠM ut
Ġpro ud
stand en
Ġ189 0
haf ten
value Of
Ġexist iert
ĠUntersuch ungen
Ġchallen ges
ĠOx ford
g reg
r un
ar ina
ĠB ang
ĠK Ã¼nst
Ġmit einander
ste uer
aus gabe
gr enzen
ĠPr iv
čĊ čĊĠĠĠĠĠĠĠ
Ġcompon ent
S pieler
on ien
ĠS tellung
ĠK athol
ĠI ter
Ġr at
Ã¼n det
Ġsc ale
ĠPre uÃŁen
Ġach ieve
Ġthous ands
D ollar
L a
i Ã¨
le bt
ĠN ick
ĠBer icht
sh ips
ĠJuli us
Ġunterschied lich
zÃ¼ glich
c ons
â Ķ
Ġb ot
ĠE qu
ĠL uf
ĠSch on
ER R
ĠGeist licher
Ġol der
ĠPro jekte
The ater
ĠChr is
bo den
bo olean
ĠPrÃ¤sident en
Ġoffiziel l
r in
ã Ĥ
Ġn ar
ĠL etz
ĠSch iffe
Ġj ur
int on
De c
piel en
ĠCont ent
ĠWo iwod
Ġgemeins amen
Ð ´
Ġin n
ĠD B
ent um
ĠL abel
ĠIm age
ĠKon rad
ĠAd el
icher heit
ĠEnt fern
Ġcoun ter
Ġzie hen
F il
is oden
ol is
ĠT wo
ĠF ord
Ġbe yond
aus stellung
Ġle it
ĠA dr
ĠP ic
ĠG lauben
ĠJ ed
Ġdem and
Ġch air
Sch riften
ĠHash Map
k ow
ĠH ug
ess in
ph y
Ġshe l
ennt nisse
Polit iker
Ġa head
Ġb ess
ĠL ittle
ĠO ther
ans as
Ġbek ommt
fÃ¼ ll
Ġart ists
ĠDurch messer
ĠFil me
ĠSÃ¶ hne
un a
ĠM atch
ĠG ang
ĠJ agd
oc ation
ĠTe lefon
ĠMe yer
Ġ190 3
Ġess ay
ĠSong s
ĠBund est
Aug ust
H ome
ã ĥ
Ġw inter
Ġf ahren
ĠA gr
Ã¼n fte
ĠCon ference
Ã¤ng nis
P L
in u
est amp
ĠLand schaft
Be vÃ¶lker
Ġmov ed
Pf alz
ĠFÃ¤ llen
o ul
t um
st ab
Ġde termin
tr ast
Ġfind ing
grÃ¼n der
i y
Ġg olden
ad ies
ag a
ack en
ĠWies baden
k Ã¼nd
ĠO der
Ġwh ose
ĠÃľber setzung
Ġend lich
It alien
ĠFlug zeug
ĠEigen schaften
d b
ĠW Ã¤r
Ġab geb
Ġex change
ĠLe ute
bau er
k re
w is
ĠW es
Ġth ank
Ġge ist
ver anstaltung
we b
iz iner
ĠSp ace
ession al
ĠGer icht
ĠProdu zent
geord net
ĠDort mund
Ġer b
ĠAb itur
Ġcom bin
---------------- ----------------
ĠtÃ¤ glich
Ġ1 10
ĠJ ena
Ġdurch schnitt
ĠStud ie
Ġpl astic
ĠKl ost
ĠGener ation
gra f
bed ingt
Ġstark en
Ġfact ory
w ater
ie fen
Ġf ung
ĠB ade
Ġent steht
Ð¸ Ñ
lam ents
ouver neur
Jahrhund ert
ĠWilli ams
M ore
a ill
w as
z ust
ar in
Ġv ierten
ĠP ast
ard o
ĠAl k
gra ben
ĠComm ission
Ġgre ater
G E
r amm
Ġl ab
ein anders
Ġ19 15
if el
her zog
ograph ische
Ġmed izin
Ġhistor ische
ĠGed anken
D u
k ins
Ġd rop
an en
ĠC ost
ĠSt ore
ĠO tt
ĠAus nahme
Er folge
gest altung
ĠFrei heit
R oot
T ags
c al
ĠF ull
ĊĠĠĠĠĠĠĠĠĠĠĠĠĠĠĠĠ Ġ
sche idet
Ġsur v
alb um
ĠRei hen
ĠFig uren
Ġneigh bor
Ġw ine
ar g
ich ern
ĠF Ã¤h
ĠK lassen
Ġis land
we ist
Ġcon ference
Ġsh own
wei ht
Ġel f
ĠzurÃ¼ck ge
Ġgeb ildet
quire d
Ã¶m isch
lev ision
ĠjÃ¼d ischen
as ien
ĠB och
ĠB latt
Ġre asons
ug u
ĠAuf ent
... )
fl Ã¼gel
ĠNord westen
bahn hof
unds Ã¤tz
e ch
k riegs
Ġf an
ĠL ED
ĠBes itzer
aliforn ien
Hol stein
ĠTw itter
Ġrequ ires
Ġs rc
ic ial
ĠE ven
ĠK assel
ĠC ru
Ġal ter
Ġfor ce
ĠLe iden
ĠMit arbeit
Ġrelations hips
i ÃŁe
z ub
Ã «
Ġs Ã¤m
Ã¼ mm
ĠT ax
ab ilities
Ġsp richt
ĠZeit raum
Ġber ufen
akte ur
r iss
ch ip
is tet
Ã¼ ch
ĠR oten
Ġk new
Ġ19 16
Ġhe avy
Ġpr incip
hÃ¶r igen
cre te
ĠSon ne
ĠPortug al
gyp ten
B est
M ain
Ġd ish
qu ery
ell i
ĠThe ologie
ĠMar gar
IT Y
Ġmot iv
histor iker
r aten
Å Ħ
ch ild
ĠA S
ĠH as
ĠU fer
ĠWe imar
res ponse
ĠInstit ution
ĠHar ry
Ġorgan izations
ĠAfr ican
Ġexec ute
3 00
r asch
Ġn utz
ĠK affe
Ã¤t t
Ġgen ug
Ġtr ug
Ġpress ure
ĠSowjet union
J ul
s ource
or row
sch uhe
Ġer hoben
ungs ver
20 19
sh ire
Ġber ichtet
ĠFernse hen
oren z
Ġkon zentr
Ġcertain ly
b und
ĠT ats
ĠT rÃ¤ger
zen en
ĠParte ien
ĠDistr ikt
ĠK a
ĠR on
Ġbe ant
ot ional
Ġge z
ĠVer gangen
onn a
ĠRo om
ĠMein ung
ĠChin ese
K irche
k ore
ate ver
ger Ã¤t
Ġat tempt
Ġsp read
Ġdr ug
Ġ190 2
ĠMark en
ĠerklÃ¤r te
cel ona
ĠEben e
f it
à ¸
un es
ĠP red
sch ne
Ġho her
ĠProf il
Ġeven ing
spe kt
ĠHotel s
ĠSchn ell
Ġeinzel ne
rÃ¤n k
ĠAntw ort
l ight
Ġs ources
Ġf ot
ĠM ike
ĠT u
ĠT Ã¶ch
ra k
get Type
ĠEin richtung
row able
Ġste ps
Ġbeg innen
Ġpe ace
Ġverschieden er
ĠBek annt
N or
p asst
Ġb on
ĠP ac
ĠT ob
ĠK op
ĠN Y
200 1
ĠFÃ¼r sten
hin dern
Ġmain tenance
ĠbenÃ¶t igt
ĠRath aus
J uni
d el
or p
we ight
Ġgew Ã¤hr
ĠSÃ¼d osten
Wh ile
ĠZwe ck
leb nis
ĠNetz werk
ĠÃ¶ffent liche
l u
Ġt rifft
Ġv s
ro h
ĠF ab
ĠG riechen
ĠL ag
Ġre levant
zeich nen
so ap
200 3
ĠSer ien
ĠHel mut
Ġincre ased
Ġlov ely
ĠKranken haus
Ġnotwend ig
ĠWÃ¼rz burg
Ġd aughter
Ġre icht
ĠVer st
200 2
Ġrem ote
Warn ings
D ocument
I ST
Ġa partment
Ġc ock
ce p
ru pted
fÃ¼hr te
ĠSchl Ã¼ssel
ĠÃ¤ uÃŁ
is at
Ġs uffer
Ġw al
us sen
Ã¤ ll
ĠAn aly
ger Ã¤te
Ġcon stant
ĠOb wohl
Cont rol
Ġsay ing
ĠHalb finale
Ġpan el
ĠUntersuch ung
Ġan gesehen
am at
ĠF lag
Ġz er
ĠBe wohner
ĠEd el
Ġve get
v as
z ern
Â ´
ĠE R
ĠV el
ĠBe ob
Ġ18 80
Ġvor aus
Ġpr esented
ĠAm sterdam
ock en
Ġcont ain
part ments
Ġcommun ication
Ġexp and
Ġexc iting
ĠMc C
ĠBenutz er
S eine
k ern
ĠB Ã¼r
st ar
em ed
ĠN ar
ĠJ ones
ĠGr amm
upp er
ipp e
ĠCl ick
omet ry
w urf
st ances
Ġg ather
Ġl i
Ġge plan
In ternal
ĠPe ople
zie ht
ĠKont rolle
Ġappro priate
log ger
ĠkÃ¶nn ten
Ġrestaur ant
Supp ress
D om
c ore
ĠT aschen
ĠW it
Ġsch reibt
Te am
Ġcol our
Ġwa iting
Ġs orgen
ĠD ing
Ġc ache
ĠT a
if iziert
ĠAr thur
iter ator
Ġed ge
Ġerz Ã¤hlt
k Ã¼rz
o ben
ol ogen
ist ischer
ĠGr enzen
Be im
ĠInd ien
lei hung
Ġautomat isch
S cript
k ammer
Ġc ategory
Ġl abel
ĠHand buch
ĠX ML
P olitik
sk a
Ġadd ing
Ġneg ative
Ġaltern ative
Vari able
ĠD ist
ĠP S
ĠO d
Ġauf gelÃ¶st
ĠÃ¼ber nehmen
wer tet
fÃ¼hr ten
ĠRÃ¼ck kehr
ĠTer min
al em
ĠS her
ĠGe gner
Ġges ellschaft
Ġoper ations
Ġinit i
ĠRou te
e vent
w ing
ĠF ast
ĠC H
sen z
St yle
Ġad just
Ã¤l le
ĠFor st
He ight
ĠAfr ika
Ġsozial en
Ġkathol ischen
L C
ĠS ak
Ġin ternal
Ã¤ st
ĠP ed
ĠT Ã¼b
ĠZ ivil
iz ieren
ath an
ĠLand tags
oin ted
Ġplan ts
Welt meisterschaft
Ġfant astic
Ġerinn ert
ĠverfÃ¼g bar
' ,
at re
ĠW ord
Ġj ournal
Ph il
ĠMount ain
Ġrelig i
Ġt schech
it em
Ġf at
je ction
Ġsh ower
ms g
AR T
Ġbig gest
ĠOrd nung
Ġwebs ites
H istor
Ġb illion
Ġm icro
ĠM Ã¤r
ĠF arm
sch le
ĠVor stand
fÃ¼ gt
ĠJo e
ĠKomp osition
ĠNationalsozial ismus
P C
Ġs ample
Ġf allen
am i
mer ican
Ġcomp rehens
Ã¤nd ige
Ġexc ited
ĠprÃ¤sent iert
b uffer
st al
ĠM Ã¶n
ĠR ollen
art ig
ĠEin richtungen
Ã© t
Or ganisation
ĠSc iences
Ġcap acity
plat te
B as
n itten
Ġs um
ĠK Ã¶
ĠK amera
ĠU t
Ġsch Ã¶nen
Ġcom ments
ĠGra ph
Ġ190 1
Ġ189 9
ĠDan eben
Ġnor weg
Met a
lÃ¤nd ischen
ĠEngl isch
ĠSÃ¤nger in
ĀĀ ĀĀ
ĠTenn is
ĠImmobil ien
k urs
n or
Ġn Ã¤her
ĠP os
ĠK up
gesch lagen
Ġpar allel
Ġclos ed
p et
u an
ĠVer dienst
ĠBe am
sen s
ĠGeb urts
irt y
ĠDes halb
z ell
ĠM ix
ĠG it
ier end
ĠSch ach
ĠIn nov
Ġby tes
Ġunter en
ĠOr ch
Ġte aching
yn ast
Ġ' \\
Ġsupp orted
Ad d
Ġbra in
rÃ¼ st
ĠGespr Ã¤ch
or fen
Ġw achsen
ĠS ince
ĠM id
Ġh ospital
Ġg allery
ĠIn fanter
ĠBe weg
ok er
ĠUn fall
Ã¤nd igen
kauf t
deutsch e
But ton
ĠVergangen heit
8 00
k es
m aschinen
Ġd ank
ĠD inge
ĠK anada
ĠN och
iel le
Ã¼n sche
Ġsh all
Ġrec ords
Un d
Ġsc en
ĠÃ¤ltes te
ĠLex ikon
D ar
y t
on i
Ġm sg
us ted
ĠB itte
ĠH eb
Ġus w
ph a
ĠSan kt
Ġmov ies
Ġcover ed
Ġzwe imal
Pol icy
sta aten
p id
Ð ¼
Ġb rach
ĠM und
ĠL it
Ġver ur
ĠVer letz
ĠAuf lÃ¶sung
ĠBahn strecke
Ø §
Ġte en
Un able
Ġdire ction
Ġsm ooth
ĠStr and
Ġident ify
Ġcrit ical
B ody
W il
ar o
ĠC over
ĠZ un
Ġver geben
ste igen
aus end
ht ml
ĠJuni oren
ÃŃ a
Ser ie
ĠIll ustr
F OR
m essage
ĠS QL
ing ham
Ġc e
ĠP M
ĠE ffe
ĠW atch
Ġle aders
ĠCh allen
Ġ0 1
Ġtra ffic
ĠGra z
ĠTr ib
Ġfre und
App lication
Ġclick ing
gestell ten
ylvan ia
l Ã¶
ï ¼
Ġs inn
or i
Ġin nen
Ġv en
Ġthe me
ik es
Ġon to
tr an
get reten
Ġzum indest
ĠMich el
Ġfollow ed
Ġworks h
urren z
H ost
K W
on ic
Ġt oll
or ff
Ġw eder
Ġb uf
ent lichen
ĠW ho
ĠR ena
Ġse cret
pe ctive
Ġcon temporary
ĠBr asil
ator ium
Ġklein es
ĠKap ital
ĠVirgin ia
L in
an ded
ĠSt ory
ce an
Ġr ank
ĠFran ken
Ġinst ant
Ġengl ischer
ĠWoiwod schaft
ĠS yd
Ġm ut
ies e
Ġun its
Ġunter sch
ĠMit gliedern
Ġad ult
Ġbo und
Ġvers uchte
Ġinst r
Ġrem ain
Ġdevelop ing
Ġcolle ct
ĠBed ingungen
Ã¤mp fer
ĠAustral ian
D own
W or
a ctions
ĠF ur
od urch
ĠDe ck
Se quence
Pre fix
Ġaw esome
st Ã¤nden
Ġver urs
ĠIn itiative
ien cy
iz z
fen ster
199 9
Ġengine ering
lad ung
ĠGesund heits
m i
s ur
Ġs ing
Ã¼ p
ĠT ay
im en
sch uld
Ġst opp
ĠPar laments
val ues
ĠSchne ider
al tete
ĠB row
ĠE ber
ist ant
eb all
Ã¤r ten
ĠEx empl
Ge w
ordin ate
z um
ĠS ens
Ġan schlieÃŁ
ut ch
ĠZ erst
sp recher
Ġsh aring
ĠAm b
ĠFor mat
Ġ8 5
ĠQu elle
Ġstr ug
ĠSchn itt
plat ten
ĠMatth ias
D ialog
j an
o ter
ĠM ord
ĠRe public
At tributes
Ġhim self
E hr
ĠB ord
ab end
ĠSt ream
ĠU kraine
Ġun gefÃ¤hr
Ġab ger
up date
ĠFl ucht
Ġbest ritt
Ġland wirtschaft
Ġcompet ition
T O
s ichts
ĠA achen
ĠB io
ĠF ore
ĠL eder
ĠL iber
Ã¶ z
ĠAn forderungen
mal er
Ġcons umer
ex it
ino is
ĠJe ff
Ġcor ner
ĠMil ch
ĠgegrÃ¼n deten
P latz
Ġw rote
Ġfor ms
Ġ5 4
ĠStre cken
Ġstark e
Out putStream
schlÃ¤ ge
p her
en ken
it at
ĠS y
st Ã¤d
Ġat tend
Ġad apt
ett ing
usÃ¤tz lich
ĠStÃ¤d ten
ĠCoun try
Ġklass ischen
Ð¾Ð ²
J ahre
im ents
ial s
reich er
alt y
olog ischer
ons erv
ĠInd ivid
ĠTer r
rÃ¤n kt
Ġelekt ron
Ġerforder lich
v y
Ġt it
ĠB os
ĠW ay
qu enz
ĠOr den
ĠJan e
ĠBar celona
Ġem pty
ĠEng agement
Ġstor es
prÃ¤sent anten
ĠA L
ĠA le
Ġp assen
Ġl auf
ere ien
Ġab ges
fÃ¼hr ungen
Id s
Se henswÃ¼rdigkeiten
schn itts
ĠBen ed
Ġview ed
Ġinvest ig
ĠComm ittee
ĠMinister prÃ¤sident
sb ruck
ĠRost ock
Ġumben annt
st il
ĠL td
ĠAn lagen
() ).
teil ungen
Ġ189 8
Ġgest altet
riter ia
ĠEp isode
ĠMill iar
ĠAktiv itÃ¤ten
I gn
ed om
au ert
ĠSp rachen
Ġent schieden
Ġbet roffen
Ġgu y
Ġletz ter
ĠMet al
Ab sol
Ġgelegen en
Ġzunehmen d
T C
m inton
Ä ĥ
ch or
ĠS af
Ġm ilitary
ĠB ier
ĠM ajor
ĠK Ã¼n
Ġauf gestellt
ĠPro perty
Ġ5 1
ĠNach richt
Ã¼t ze
ĠJapan ese
Ġclean ing
ĠDarm stadt
s ein
Ġw odurch
Ġsh ap
vers icherung
Ġausge fÃ¼hrt
Ġfem ale
N ov
S ingle
W E
d on
s ite
ber icht
ĠFl Ã¼cht
ĠMin i
Ġmov ement
ĠAir port
ĠCam bridge
P ost
a illen
st aben
we ich
ring t
Ġdo pp
Ġbet rieb
Ġpl enty
Ġeigen es
urf Ã¼r
ĠViel zahl
Ġparticular ly
SD AP
Ġmittel alter
. ).
K urz
S QL
Ġal though
ĠSch reib
ĠEr ich
ĠSte phan
Ġpract ices
ĠWieder auf
mot or
Ġbehand elt
Ġsoc iety
Suppress Warnings
L ook
g reif
t arget
w ettbewerb
â Ħ
Ġloc ations
Ġest im
Ġinc or
ĠFeuer wehr
Ġadvant age
g red
Ġb lieben
ĠK ob
ĠBo olean
Ġsex y
B O
le hre
Ġc overs
Ġde termine
utz ung
ĠMot iv
H ere
K irchen
P lease
or b
us es
Ġre ag
Ġaus reich
Ġda ÃŁ
ĠTod ay
ĠDon au
Ġvol ume
ĠWeit eren
ĠTab elle
Ġmaint ain
P res
p ot
Ġc ir
ĠP ie
ĠE conom
ĠH ay
ver lÃ¤ss
aut hor
Ġcom bination
Ġseit dem
ĠLebens mittel
Ġkeep ing
Ġengl isch
Ġexpl ore
ĠErk rank
i Äĩ
u ar
ĠGe fahr
ĠAm ateur
IN T
p aar
Ġf ach
Ġg one
ot yp
ĠEr ste
Ġman aged
Ġte le
ĠGer Ã¤t
Ã¼t ten
199 8
ĠKo operation
Ġbuy ing
P al
ĠI ts
ĠR E
ip end
Ġpr in
... ]
isten ce
ais er
uz z
ĠBild hauer
Ġsex ual
Ġpop ulation
verband es
Ġren ov
Ġmem ory
t own
re ck
Ġsp ann
Ġsh ip
cl ub
cy cl
mus iker
reu ung
ĠÃ¶st lichen
F alls
O st
Ġbe grenz
Ġge he
Ã¼r zt
ĠSt unde
Ġcon figuration
iz ien
Ġex pos
Ġco ach
grÃ¼n dung
ĠHaus es
Ġfre ien
Field s
Trans action
C urrent
V ar
ĠG anz
kt op
Ġsc ene
Ġverb indet
ĠMon te
Ġstar ts
Ġet abl
ĠWeltk rieges
ĠPlan ung
des ign
ĠNutz er
Ġsen ior
S earch
z ert
Ã ª
ĠT ief
ĠV it
ad ing
ĠAn im
Ġqu arter
upp en
ĠKÃ¶nig in
Ġwicht igen
Ġbra ucht
ĠRelig ion
Ġnomin iert
zep te
ĠIngen ieur
p ap
ĠS oll
ĠL as
Ġse a
Ġbis lang
ĠOr tes
Ġlie be
De cl
Ġcould n
Ġgar ant
Ġinstall ation
ĠPhys ik
Ġfig ure
a ult
b ahnen
d ach
or ia
le ction
Ġf lag
ĠP ian
ĠP ots
Ġnot ice
An halt
Ver kehr
ĠPre uÃŁ
ĠGegen wart
ĠM io
ĠF ans
Ġk g
ub a
ert al
ĠWe gen
Ġcour ses
ĠMax im
Stra ÃŁe
m aschine
Ġb ist
Ġver hindern
ub le
Ġsch rift
gesch oss
Ġart icles
Ġsur pr
has Next
ĠerhÃ¤lt lich
chip karte
N ON
t ml
ĠIn formations
ight ly
Ġber Ã¼cksicht
ĠAll tag
Ġcent re
ĠEing ang
Ġsong s
k rit
on ne
ĠK il
ĠH arr
ĠGesch le
ĠRes ult
ST R
med izin
ĠAnton io
ĠDat um
Europ ameister
B ere
J ust
c ient
f ir
Ġ iron
Ġs orgt
Ġc alls
Ġh aven
ĠEr folge
Ġro of
Ġsc ore
Ġprocess es
ĠBesch Ã¤ft
F ahr
b ay
ĠB ull
ĠK ost
ĠH yp
âĢľ ).
geb nis
hol m
ĠBevÃ¶lker ungs
Ġbenach bar
ĠM obil
ĠD C
Ġc it
ter y
em ann
den burg
Ġdar aus
Ġhelp ed
Ġcomm and
Ġfact ors
Ġpriv aten
ĠTÃ¶ch ter
D ur
as tern
Ġc ream
ĠG il
ĠK eller
um es
Ġk o
ĠSt urm
pr Ã¼fung
Ġunter wegs
Ġspe ct
ĠBes onder
ĠBÃ¼ ch
Ġbring s
Ġcommun ities
ĠGar den
ĠNeub au
B Ã¼rger
k Ã¶rper
o ire
u ters
Ġb auen
ver ter
ĠTh ank
ĠÃ ł
Ġte acher
Re chts
app y
ĠHand ball
ĠFrie dens
Ġbesch reibt
N OT
e f
z unehmen
Ġb ought
ur ers
ĠP ierre
âĢ ĭ
ver zeichnis
Ġex pression
Ġange zeigt
ĠInter essen
leit en
ĠMag deburg
Ġann ot
Ġinc ome
Ġricht ige
Ġzie ht
Ġcontra ct
Ġfab ric
K ompon
P lay
Ġp ow
Ġzu g
Ġver kehr
Ġde te
land es
ĠSe kunden
Ġcomp ared
ake i
Ġsc r
Th at
Ġfre ie
Ġpost s
ĠAlex and
Ġant i
resp ond
ĠAutob ahn
ĠNikol aus
: :
H S
w Ã¤l
Ġf ish
Ġh Ã¶ren
sch rank
ĠH um
Ġdes k
ĠSch we
ĠSch ott
ĠSe cret
Ġget ragen
imm ing
ĠMan fred
ĠgrÃ¶ÃŁ er
ĠEd ward
Inter face
iate ilnehmer
ĠFle isch
s ylvania
ĠG all
ĠL ust
Ġal one
ĠRe form
ĠFrank furter
uck s
Ġpres ident
ĠKÃ¼ sten
ĠAutom obil
c ar
m auer
st rom
ig s
ĠE du
ĠC anad
Ġr uh
Ġle ather
Ġum geben
ph ia
iss ance
ĠFl Ã¤chen
Ġerw artet
deck ung
LO W
ĠRu he
ĠTÃ¼r kei
itar re
Ġspeziel l
\\\\\\\\\\\\\\\\\\\\\\\\\\\\\\\\\\\\\\\\\\\\\\\\\\\\\\\\\\\\\\\\\\\\\\\\\\\\\\\\\\\\\\\\\\\\\\\\\\\\\\\\\\\\\\\\\\\\\\\\\\\\\\\\\\\\\\\\\\\\\\\\\\\\\\\\\\\\\\\\\\\\\\\\\\\\\\\\\\\\\\\\\\\\\\\\\\\\\\\\\\\\\\\\\\\\\\\\\\\\\\\\\\\\\\\\\\\\\\\\\\\\\\\\\\\\\\\\\\\\\\\\\\\\\\\\\\\\\\\\\\\\\\\\\\\\\\\\\\\\\\\\\\\\\\\\\\\\\\\\\\\\\\\\\\\\\\\\\\\\\\\\\\\\\\\\\\\\\\\\\\\\\\\\\\\\\\\\\\\\\\\\\\\\\\\\\\\\\\\\\\\\\\\\\\\\\\\\\\\\\\\\\\\\\\\\\\\\\\\\\\\\\\\\\\\\\\\\\\\\\\\\\\\\\\\\\\\\\\\\\\\\\\\\\\\\\\\\\\\\\\\\\\\\\\\\\\\\\\\\\\\\\\\\\\\\\\\\\\\\\\\\\\\\\\\\\\\\\\\\\\\\\\\\\\\\\\\\\\\\\\\\\\\\\\\\\\\\\\\\\\\\\\\\\\\\\\\\\\\\\\\\\\\\\\\\\\\\\\\\\\\\\\\\\\\\\\\\\\\\\\\\\\\\\\\\\\\\\\\\\\\\\\\\\\\\\\\\\\\\\\\\\\\\\\\\\\\\\\\\\\\\\\\\\\\\\\\\\\\\\\\\\\\\\\\\\\\\\\\\\\\\\\\\\\\\\\\\\\\\\\\\\\\\\\\\\\\\\\\\\\\\\\\\\\\\\\\\\\\\\\\\\\\\\\\\\\\\\\\\\\\\\\\\\\\\\\\\\\\\\\\\\\\\\\\\\\\\\\\\\\\\\\\\\\\\\\\\\\\\\\\\\\\\\\\\\\\\\\\\\\\\\\\\\\\\\\\\\\\\\\\\\\\\\\\\\\\\\\\\\\\\\\\\\\\\\\\\\\\\\\\\\\\\\\\\\\\\\\\\\\\\\\\\\\\\\\\\\\\\\\\\\\\\\\\\\\\\\\\\\\\\\\\\\\\\\\\\\\\\\\\\\\\\\\\\\\\\\\\\\\\\\\\\\\\\\\\\\\\\\\\\\\\\\\\\\\\\\\\\\\\\\\\\\\\\\\\\\\\\\\\\\\\\\\\\\\\\\\\\\\\\\\\\\\\\\\\\\\\\\\\\\\\\\\\\\\\\\\\\\\\\\\\\\\\\\\\\\\\\\\\\\\\\\\\\\\\\\\\\\\\\\\\\\\\\\\\\\\\\\\\\\\\\\\\\\\\\\\\\\\\\\\\\\\\\\\\\\\\\\\\\\\\\\\\\\\\\\\\\\\\\\\\\\\\\\\\\\\\\\\\\\\\\\\\\\\\\\\\\\\\\\\\\\\\\\\\\\\\\\\\\\\\\\\\\\\\\\\\\\\\\\\\\\\\\\\\\\\\\\\\\\\\\\\\\\\\\\\\\\\\\\\\\\\\\\\\\\\\\\\\\\\\\\\\\\\\\\\\\\\\\\\\\\\\\\\\\\\\\\\\\\\\\\\\\\\\\\\\\\\\\\\\\\\\\\\\\\\\\\\\\\\\\\\\\\\\\\\\\\\\\\\\\\\\\\\\\\\\\\\\\\\\\\\\\\\\\\\\\\\\\\\\\\\\\\\\\\\\\\\\\\\\\\\\\\\\\\\\\\\\\\\\\\\\\\\\\\\\\\\\\\\\\\\\\\\\\\\\\\\\\\\\\\\\\\\\\\\\\\\\\\\\\\\\\\\\\\\\\\\\\\\\\\\\\\\\\\\\\\\\\\\\\\\\\\\\\\\\\\\\\\\\\\\\\\\\\\\\\\\\\\\\\\\\\\\\\\\\\\\\\\\\\\\\\\\\\\\\\\\\\\\\\\\\\\\\\\\\\\\\\\\\\\\\\\\\\\\\\\\\\\\\\\\\\\\\\\\\\\\\\\\\\\\\\\\\\\\\\\\\\\\\\\\\\\\\\\\\\\\\\\\\\\\\\\\\\\\\\\\\\\\\\\\\\\\\\\\\\\\\\\\\\\\\\\\\\\\\\\\\\\\\\\\\\\\\\\\\\\\\\\\\\\\\\\\\\\\\\\\\\\\\\\\\\\\\\\\\\\\\\\\\\ \\\\\\\\\\\\\\\\\\\\\\\\\\\\\\\\\\\\\\\\\\\\\\\\\\\\\\\\\\\\\\\\\\\\\\\\\\\\\\\\\\\\\\\\\\\\\\\\\\\\\\\\\\\\\\\\\\\\\\\\\\\\\\\\\\\\\\\\\\\\\\\\\\\\\\\\\\\\\\\\\\\\\\\\\\\\\\\\\\\\\\\\\\\\\\\\\\\\\\\\\\\\\\\\\\\\\\\\\\\\\\\\\\\\\\\\\\\\\\\\\\\\\\\\\\\\\\\\\\\\\\\\\\\\\\\\\\\\\\\\\\\\\\\\\\\\\\\\\\\\\\\\\\\\\\\\\\\\\\\\\\\\\\\\\\\\\\\\\\\\\\\\\\\\\\\\\\\\\\\\\\\\\\\\\\\\\\\\\\\\\\\\\\\\\\\\\\\\\\\\\\\\\\\\\\\\\\\\\\\\\\\\\\\\\\\\\\\\\\\\\\\\\\\\\\\\\\\\\\\\\\\\\\\\\\\\\\\\\\\\\\\\\\\\\\\\\\\\\\\\\\\\\\\\\\\\\\\\\\\\\\\\\\\\\\\\\\\\\\\\\\\\\\\\\\\\\\\\\\\\\\\\\\\\\\\\\\\\\\\\\\\\\\\\\\\\\\\\\\\\\\\\\\\\\\\\\\\\\\\\\\\\\\\\\\\\\\\\\\\\\\\\\\\\\\\\\\\\\\\\\\\\\\\\\\\\\\\\\\\\\\\\\\\\\\\\\\\\\\\\\\\\\\\\\\\\\\\\\\\\\\\\\\\\\\\\\\\\\\\\\\\\\\\\\\\\\\\\\\\\\\\\\\\\\\\\\\\\\\\\\\\\\\\\\\\\\\\\\\\\\\\\\\\\\\\\\\\\\\\\\\\\\\\\\\\\\\\\\\\\\\\\\\\\\\\\\\\\\\\\\\\\\\\\\\\\\\\\\\\\\\\\\\\\\\\\\\\\\\\\\\\\\\\\\\\\\\\\\\\\\\\\\\\\\\\\\\\\\\\\\\\\\\\\\\\\\\\\\\\\\\\\\\\\\\\\\\\\\\\\\\\\\\\\\\\\\\\\\\\\\\\\\\\\\\\\\\\\\\\\\\\\\\\\\\\\\\\\\\\\\\\\\\\\\\\\\\\\\\\\\\\\\\\\\\\\\\\\\\\\\\\\\\\\\\\\\\\\\\\\\\\\\\\\\\\\\\\\\\\\\\\\\\\\\\\\\\\\\\\\\\\\\\\\\\\\\\\\\\\\\\\\\\\\\\\\\\\\\\\\\\\\\\\\\\\\\\\\\\\\\\\\\\\\\\\\\\\\\\\\\\\\\\\\\\\\\\\\\\\\\\\\\\\\\\\\\\\\\\\\\\\\\\\\\\\\\\\\\\\\\\\\\\\\\\\\\\\\\\\\\\\\\\\\\\\\\\\\\\\\\\\\\\\\\\\\\\\\\\\\\\\\\\\\\\\\\\\\\\\\\\\\\\\\\\\\\\\\\\\\\\\\\\\\\\\\\\\\\\\\\\\\\\\\\\\\\\\\\\\\\\\\\\\\\\\\\\\\\\\\\\\\\\\\\\\\\\\\\\\\\\\\\\\\\\\\\\\\\\\\\\\\\\\\\\\\\\\\\\\\\\\\\\\\\\\\\\\\\\\\\\\\\\\\\\\\\\\\\\\\\\\\\\\\\\\\\\\\\\\\\\\\\\\\\\\\\\\\\\\\\\\\\\\\\\\\\\\\\\\\\\\\\\\\\\\\\\\\\\\\\\\\\\\\\\\\\\\\\\\\\\\\\\\\\\\\\\\\\\\\\\\\\\\\\\\\\\\\\\\\\\\\\\\\\\\\\\\\\\\\\\\\\\\\\\\\\\\\\\\\\\\\\\\\\\\\\\\\\\\\\\\\\\\\\\\\\\\\\\\\\\\\\\\\\\\\\\\\\\\\\\\\\\\\\\\\\\\\\\\\\\\\\\\\\\\\\\\\\\\\\\\\\\\\\\\\\\\\\\\\\\\\\\\\\\\\\\\\\\\\\\\\\\\\\\\\\\\\\\\\\\\\\\\\\\\\\\\\\\\\\\\\\\\\\\\\\\\\\\\\\\\\\\\\\\\\\\\\\\\\\\\\\\\\\\\\\\\\\\\\\\\\\\\\\\\\\\\\\\\\\\\\\\\\\\\\\\\\\\\\\\\\\\\\\\\\\\\\\\\\\\\\\\\\\\\\\\\\\\\\\\\\\\\\
S ep
c os
Ġein schlieÃŁlich
Ġk os
Ġst Ã¤dt
Ġat tribute
Ġwel chem
Ġeinz igen
verein s
produ ktion
f ers
Ġh ook
ĠJ enn
Ġvor gestellt
ack er
ĠWe il
Ġlook ed
rich ter
Ġcla im
Ġzust Ã¤ndig
ĠTÃ¼b ingen
âĦ ¢
c ard
Ġf la
Ġf ootball
ĠK Ã¶n
if act
Ġver legt
Ġen h
Ġsh ot
acht ung
ĠGer Ã¤te
trag ung
Ġbeh aup
Ġdirect ory
Ġtalk ing
ĠSeb astian
Ġnumer ous
S ign
S ettings
ĠS ir
ĠR ett
Ġto ken
age l
tes ten
Ġlar ger
ĠFernseh serie
ĠlÃ¤ uft
F B
Ã Ĺ
he dr
Ġb ayer
ĠF ro
Ã¶ ck
ĠIn stall
ĠAn f
ĠAn trag
fol io
ĠMann schafts
ask a
Ġpo or
Ġwissenschaft liche
far ben
f ranzÃ¶s
Ñ Į
re w
as p
Ġe ight
ĠW en
ĠL ieb
Ġ5 6
Ġgr undsÃ¤tz
Ġtechn ischen
Ġgener ation
ĠGu ide
ĠTer m
ĠÃ¶sterreich ische
Ġwalk ing
M M
i op
s ing
Ġs ustain
ier er
ateg ories
esent lichen
Ġapprox imately
J ohann
J ava
O B
T ube
c ious
or ation
st ock
Ġwir kt
Ġ5 3
hÃ¶r ige
bach er
ĠPort al
Ġpract ical
Ġlaw s
ĠEp isoden
Ber eits
Acc ount
d h
k la
Ġs ter
st atus
Ġ20 22
ĠZ ul
Ġver n
ap os
Ġ18 48
ĠMit t
ĠNach wuchs
ĠZu cker
ĠOn ce
Ġvis itor
Film ografie
ĠursprÃ¼n glichen
Ġschwer en
far be
Ġdom ain
el be
Ġein s
ĠVer mÃ¶gen
gr iffe
ĠCh ance
St ar
Ġnational en
Cre ate
A kt
o es
ur o
ig sten
ol s
la f
Ġver Ã¤ndert
ri age
Ġhier bei
Ġregister ed
ĠZus atz
ĠbestÃ¤t igt
! )
W irtschaft
Ġw ire
ad ow
ĠO scar
Ġtra f
ĠBr enn
Ġvisit ors
Ġwind ows
ĠerhÃ¶ ht
p atch
ĠK im
ĠW Ã¼r
ĠR al
ĠC lin
schaf fen
ieb el
hÃ¤lt nisse
ĠEntwick lungs
Mill is
H i
w eiter
Ġt ail
Ġs ister
Ã¼ gt
Ġaus ges
ĠDie ter
ĠHer kunft
Ġpar ameter
Ġass ert
ĠKl im
AG E
M ember
o ted
ic ians
ĠG abr
ĠE N
ĠR ol
ĠC ur
ÃŁ ig
Ġres idents
Ġerh ielten
ĠWh y
Key s
ĠCont rol
denk male
ĠRund funk
Ġwid th
ĠInn sbruck
Ġveh icles
ĠUms etzung
ĠB le
ĠT i
ĠT onnen
ĠR ow
Ġer ot
ein heit
An t
ĠGes ang
stra ct
ĠKn ow
Ġbedeut end
ĠjÃ¼n ger
Ġcompon ents
mosph Ã¤re
N um
W ert
f irst
r ate
Ã¶ tet
Ġst one
Ġver tra
men d
ĠRe de
ru pt
get Id
ang a
ĠLe hre
Ġ18 70
je kts
Ġtra ding
Ġbel g
Ġspiel ten
Ġcor porate
Ġpoln ischen
Ġe arth
ĠN u
ĠSt imme
fahr zeug
urop a
pf ul
ĠVerb esser
Ġaut om
Ġkomp lex
best and
Ġricht igen
ĠMik ro
K n
al o
ĠB lan
Ġc ells
kt ar
ĠEin kauf
ĠGemein der
ĠKl ima
Ġeben da
Ġprocess ing
EC T
Ġmag az
ĠArm y
B en
c la
e per
ĠK ent
ĊĠĠĠĠĠĠĠĠ ĊĠĠĠĠĠĠĠ
Se gment
ĠAs ien
Ġ189 6
ĠPlat ten
Ġinde pendent
ĠÃ¤lter en
Ġverpflich tet
D ER
ĠB at
ĠN ah
av or
olog isch
Ġviel fÃ¤lt
ĠGef angen
l Ã¤nge
le ts
le ute
as i
Ġo k
ĠD og
Ġg ern
ik ing
Ġzu geordnet
ĠAl te
ph il
Pro f
Ġmin ute
ĠLu c
adel phia
ĠChampion ship
e xt
r us
re me
Ġp ull
Ġk id
ograph ic
ret ch
orben en
Ġ189 4
Ġconne cted
ĠHor st
h art
Ġv ision
ir urg
Ġch ain
me ter
Ġspe zial
Ġgest alten
cont ent
ĠpersÃ¶n lich
Ġrad io
ĠAng st
National mannschaft
g han
m lich
Ġt ruck
te am
ĠK ult
Ġsp lit
Ã¶r dern
Ġbeg leitet
Ġreg ional
Ġur kund
Ġcal cul
ĠBro ok
t lich
w ich
Ġein iger
ĠK alk
ct ures
be an
ĠEin heiten
ĠWe ek
arbeit ete
ĠBo ot
Ġeff orts
Ġop in
ĠPfer de
ĠObserv able
t x
y ball
ĠP ul
ak u
ĠBe at
The y
ĠInstit uts
Ġnov el
Que ue
D aten
e ps
Ġt aste
ĠS ymbol
est ic
ess ed
ĠBe aut
Ġwir ken
St iftung
burg h
ĠSchw ier
ĠG ab
ĠN ull
Ġre place
la ut
ester day
199 6
Jahr en
Ġkom bin
Ġabsolute ly
C ommand
L en
S uch
U P
ĠD ich
Ġr ing
ss on
Ġar m
Ġ15 00
ĠOff en
Ġgener ally
Ġmiss ing
Ġgemeins ame
R S
r ical
ver tre
Ġ18 60
Ġres ume
let ten
ĠMark us
Ġvol unte
Ġwissenschaft lichen
ĠflieÃŁ t
K l
in it
Ġf ailed
Ã¼ se
Ġan gen
Ġp ul
Ġde als
for scher
ob j
Ġind ic
P o
u v
re gel
Ġg Ã¼lt
Ġnach halt
Ġ18 50
fin der
wirk ung
C L
ar ded
ĠK alifornien
ein er
la ce
Ġwar um
Ġex ter
Ġvor ge
ob ject
Ġsh ipping
Ġapp e
Ġges ucht
ĠVerb reitung
ĠJust iz
ĠMathemat ik
âĶ Ģ
p ra
s upp
Ġc ities
Ġc ivil
ĠL ock
Ġbe coming
ach us
Ġdes igner
all iga
Ġle gend
iz ont
ord net
Ar g
ape ut
Ġbisher igen
Ġtrotz dem
Ġwechs eln
t ten
Ġh alb
ĠK rit
ĠR he
ĠJ etzt
Ġre chte
ikan ische
Ġag ree
Ġsee ing
Ã¼nd ung
ĠVerlag s
Ġflow ers
ĠUnabhÃ¤ng igkeit
A bst
B it
D an
R est
S a
Y our
ĠT en
Ġfor eign
pt on
lo aded
ĠAus gang
ĠLand tag
ĠkÃ¶n ne
Sch ema
Ã¤mp fe
Ġseek ing
T our
Ġn ennen
Ġein getragen
sch wer
ĠEin sch
Ġar en
iqu id
ĠWor ksh
Ġoper ating
__ __
zÃ¤hl ung
M apping
k amp
y ll
Ġm ail
ol ge
sch irm
ĠZ y
sp art
ĠMar i
Ġfe aturing
ĠQu adrat
Ġsu it
umm ern
ĠJes u
folgen den
zuf Ã¼hren
onom ie
ĠSyd ney
v ater
Ġf ear
ĠB em
ĠB art
od ies
ĠAr r
Ġcomp ar
ism ar
ĠWahl kreis
Ġbas iert
Reg ion
ĠRu hr
seit ig
Ġsepar ate
Ġdet ailed
ĠOh io
Ġsatis f
fÃ¶rder ung
D igital
Ġa p
Ġf rem
Ġm aÃŁ
ĠL ow
ir ing
os ing
ĠZ oll
th en
ĠVer trieb
leg entlich
Ġsett ings
Ġpark ing
Ġcommit ted
W rapper
j or
Ġer zeugt
Ġden k
ĠVer wand
ĠAus zeichnung
sh ot
ĠFor ce
ĠFran Ã§
ĠGesch ichts
ĠAkt ien
ĠFÃ¼hr er
Ġeconom y
ĠMex iko
S m
Ġ( ;
pt op
get Property
ĠUn ser
ac ing
br and
Ġspe ak
ikan er
AT A
ĠBar on
ĠWir ken
Ġshow ing
ĠMod elle
ĠWei ÃŁen
ĠzusÃ¤tz liche
ĠÅ ł
Ġprepar ed
ĠunabhÃ¤ng ig
erc ise
F ranz
v ice
es k
ol as
ĠF A
em burg
ĠR un
Ġre form
ell es
yste men
Ġbeen det
Ġpla ced
Ġtest ing
State Exception
C an
T od
d auer
al m
st um
de hn
ĠE UR
ĠN eb
Ġst yl
Ġsch lecht
iz abeth
ile y
Ġinter pret
Ġange gebenen
ĠRes erv
ĠPat rick
ĠOp ern
Ġdist in
Ġprepar e
B undle
e i
Ã¤ ne
ĠH unde
ck et
ĠPr Ã¼f
ool s
con stants
bes itz
Hand lung
agaz in
A v
ic ian
ir ts
Ġbes aÃŁ
lan ze
ĠRegion en
fehl en
ĠMad rid
besch reibung
Ġverste hen
Ġindustr ial
ifest yle
Ġcomprehens ive
ĠB Ã¤nde
ĠM d
ĠD ynam
ĠT ode
Ġl ay
ap est
Ġunter r
ner stag
Ġ9 5
. /
b Ã¼t
m acher
Ġs elling
he il
ent hal
ĠF unk
Ġunter halb
Ġper man
mit glieder
ĠGeb rauch
ĠMin ute
Ġmed ium
ĠFahr er
Ġsign ed
Ġbestehen den
B re
H O
p c
Ġt empor
ĠK linik
Ġst ick
iel len
ĠSch aden
Ġse ctor
Ġ" /
ob el
ĠVers and
Ġ189 5
Ġopen ed
ube hÃ¶r
ĠEnerg y
ĠDipl om
ĠArn old
ĠW art
ĠH rsg
Ġzu k
ang o
Ã¶r ungen
int age
Ġev idence
ĠBau werk
ĠEurop as
Ġperfe kt
fre ie
Ġoffen en
Ġoffiziel len
Ġdoc uments
ĠMilliar den
z usch
ĠK ul
ĠL eb
qu er
Ġsch ied
Ġle aving
ĠUnter richt
loy ment
ĠPrinz ip
Gra ph
ĠBestand teil
ĠDÃ¤n emark
le vel
Ġin gred
ĠB atter
lie f
imm ungen
Ġknow s
Ġ189 3
Ġfav our
Ġjoin ed
Ġremov ed
F S
ĠT ake
Ġdie d
ic ies
ĠK rÃ¤
Ġbe zeichnete
qu em
end o
gr Ã¶ÃŁe
Ġzw eiter
ĠUm gang
AN D
aun a
Not Found
Ġenjoy ed
ĊĠĠĠĠĠĠĠĠĠĠĠĠĠĠĠĠĠĠĠĠĠĠĠĠĠĠĠĠĠĠĠĠĠĠĠĠĠĠĠĠ ĠĠĠĠĠĠĠĠ
ĠrÃ¶m ischen
check ed
R uss
h Ã¼tte
Ġan genommen
ĠD oug
ĠD rag
ĠT rom
ĠK rie
ĠIn frastruktur
Ġch amp
gesch windigkeit
formation en
ĠTor onto
ĠMehr heit
Ġsn ow
ĠLoc al
ĠQue en
Ret urn
Ġinsp ired
F O
W ill
ur b
Ġe legant
Ã¤ udes
ul ate
ug ies
Ġ/ >
Ã¤ch er
Ġbus y
D ay
z lich
ĠS ort
Ġf arb
ĠG a
Ġl ayout
ĠN az
ĠSt ill
Ã¶r g
ĠAus einanders
En gl
Ġgef ert
Ġstatt finden
ĠmÃ¶glich erweise
wor th
Ġa im
Ġa uÃŁen
ĠM ember
Ġp reis
ĠH Ã¶ch
ag ers
ĠOr ten
ins on
199 0
ĠBÃ¼ hne
jÃ¤hr iger
Sc ope
Ġchines ischen
Ġbatter y
Olymp iateilnehmer
I E
v m
Ġb urn
ĠB ase
de gang
Ġcomp r
Ġcomp are
Ġgener ate
.: .:
Ġmat hemat
ĠGal ax
ĠMex ico
Ġafford able
P ersÃ¶n
p le
ĠW urz
ĠH em
ĠH ospital
Ġre le
Ġis ol
ern ame
Ġch anging
Ġ9 9
Ġhel pful
Ġander es
Ġreli able
u i
Å Ł
re h
ĠS auer
Ġc red
ĠN on
ĠHe iz
Ġbes etzt
wert ungen
ĠÃĦ gypten
Ġlat ein
Ġjeder zeit
ĠEngine ering
Ġbein hal
te ms
Ġein geb
ĠR oth
ĠR uh
Ġer lang
ver l
Ġr andom
Un sere
ĠFre ude
ĠHol lywood
ĠPolitiker in
jahr es
Ġsozial e
Ã¤dag oge
char At
D el
k Ã¼ste
w Ã¼rd
ĠE rot
ĠE arth
ĠR ess
ĠL ein
ĠL ern
Ġre ality
ĠInternational e
Ġerr ichtete
ĠComm on
mitt ag
' );
M ilitÃ¤r
h es
r ics
Ġt on
ĠB ag
ra ucht
ĠH aupts
ĠL av
ĠC EO
erk ennung
Ġser ial
199 4
ĠEntw urf
ĠTer rit
forder ung
VAL UE
ĠMom ent
Ġdeutschsprach igen
S PD
k ind
ie ht
Ġn am
ĠC apt
isch Ã¶
Ġi P
ov ed
her ren
out s
ĠNe um
ĠHe x
Ġ7 2
ĠAut hor
Ġke pt
setz te
Ġoption al
ĠCor poration
ĠAlt stadt
Ġrun s
. _
R oman
ĠB alk
ĠM i
Ġg ain
Ġj son
ĠVer eine
etz ten
ĠAus bildungs
ges ell
Ġstud io
ĠFe hl
Ġsol chen
Ã¤nder te
ĠMark et
Ġersch einen
ĠKr iminal
rech ung
ĠTab ellen
Ġaud ience
hers teller
Ġcaus ed
ĠDiss ertation
ĠHug o
h ou
Ġw om
ĠM aschine
Ġn av
ĠW ik
ok us
uss y
ail and
ĠVor arl
OR T
ĠKr ist
ĠjÃ¼n g
Pe ter
J ohn
Ġt ickets
ĠS ache
ĠM ak
ĠJ im
ĠVer arbeitung
Ġhe ader
Ã¼n den
iz ierten
Ġmen u
ĠOl iver
ĠMaterial ien
ĠFel ix
Serv let
Ġs au
or ter
ĠA T
Ã¤ fte
ĠD un
ĠT ransp
ĠK Ã¶r
ik as
art ier
Ġse at
ied elt
He ute
AL L
ĠKommun al
Ġverkauf te
ĠTay lor
Z e
Ġ 00
ĠD ollar
est and
sp rÃ¤sident
ĠVer n
Ġle aves
ĠÃ¼ber sch
auf nahme
lan ge
Ġkey s
Ġbew usst
Ġcover age
IM E
Ġitalien ische
ĠJack son
Dat um
Process or
Eis hockeyspieler
achus etts
( _
R o
Ġf illed
ra f
Ġl abor
ĠIn g
ĠRe quest
In ternational
Ġ6 6
Ġfl ight
ĠMet rop
199 5
fort un
Ġlux ury
Q U
b ury
Ġd ance
us se
ĠB in
Ġc ultural
ĠC reek
esch oss
reg isseur
Ġbr ands
Ġtechn ologies
Ġlearn ed
ĠPerform ance
p ommern
w irtschafts
le cted
uf er
Ġer mittelt
ĠV ie
ĠV Ã¶lker
Ġver f
ĠEr Ã¶ffnung
Ġapp oint
Ġ189 7
atÃ¼r lich
Ġlight ing
ĠColumb ia
Ġ ice
Ġr ide
ĠAn bieter
Ġunter scheiden
ĠPr int
bar er
Ġbr ight
Ġklein ere
Ġtop ics
ĠPl Ã¤tze
Ġhapp ens
ĠIns eln
Fe ature
Ġbal ance
r s
ar ia
st arts
ig it
ĠC P
ak istan
Ġent schied
ĠGe fÃ¼hl
ĠUnter schied
stell te
Al t
Ġaufge fÃ¼hrt
ĠSouth ern
Ġfocus ed
ĠBook s
N atur
r uss
Ġf eder
ĠE M
Ġg ay
Ġfor mal
ĠZ iele
ly n
ĠGe gend
ĠAus stattung
Ġper haps
ĠBes onders
Ġvis ual
stant in
Ġexpert ise
Ġposit iv
ĠGovern ment
- /
C la
M art
j u
ĠP anzer
ĠT emplate
ĠR io
ver teid
ĠRe f
geb irge
ĠSe arch
zeit schrift
ĠPh ase
Ġ188 5
mod ell
Ġjem and
C ert
Ñ ĭ
ĠB our
ĠH alt
ĠV ent
ĠSch uld
we iler
ag on
Ġ0 4
Ar beit
ipp en
ĠMich igan
Sp an
ĠHil fs
aka demie
Ġbege ister
Ġo s
Ã¤ ck
ĠK am
ĠL A
Ġver ab
Qu alif
Ġfin de
Ġserv ing
ĠOff izier
ĠNieder lage
ĠSil ver
On line
weis ung
Ges ellschaft
Mat rix
Ġcombin ed
Z wischen
Ġd okument
ie ck
st amm
ĠH ess
all o
Ġle gen
In stitut
gel s
ph ase
ĠFre ien
Ġeigen er
ĠMont ag
anc en
bour ne
M Ã¤rz
c omm
k w
ĠV iet
ĠJ ungen
ĠIn de
lie gt
)) );
stru ction
wor fen
ziehungs weise
ĠÃĦnder ungen
e ing
Ġ Ã¶rt
ch a
ro ph
ĠF ein
Ġl ayer
ĠN umber
th aus
qu elle
rÃ¤ umen
Ġgleich e
riter ien
Ġtre ten
ĠGrÃ¼nd ungs
ĠBach elor
Ã¤dagog ik
H ein
e ister
Ġw inning
ĠS zene
Ġb rief
Ġp asst
ĠH ong
ĠL uther
ĠBundes wehr
Ġbesch lossen
At om
Ġwicht iger
orge ous
Ġaud io
$ $
< >(
K o
b te
Ġd ou
an ie
ie ber
Ġp latz
ĠP ur
uch er
ant on
rit ing
Ġher um
ĠWelt meisterschaft
Ã³ w
ĠAnt i
ĠHigh way
Ġrestaur ants
Ġanim als
S ein
È Ļ
el en
il ige
teil te
Ġdis app
AN CE
gestell te
": "
Ġrepla cement
Ġbetrach tet
G S
M essages
O pen
h Ã¼ter
i ess
{ }
is or
Ġr u
Ġaus gesch
Ġde fe
ze ige
ĠAr men
ĠNe ur
An merkungen
ĠOn ly
Ġsu itable
trÃ¤ ger
Ġcr is
ĠWochen ende
htt ps
p in
ĠB Ã¶r
ĠL em
ber ry
Ġdo ors
Ġcont ainer
aw n
Ġsur vey
ĠBÃ¼ hnen
Ġprevious ly
Ġjapan ischen
ĠgegrÃ¼n dete
J Ã¤hr
l ate
Ġg laub
Ġver me
Ġso unds
atur en
ĠHe y
Ġapp l
Ġwork ers
Ã¶ff net
Ġpar am
Ġtr end
ipp er
ĠPol ice
Sie g
ĠAs ia
ĠFil mp
Log ger
Ġwatch ing
Ġenvironment al
Ġleader ship
I X
c z
k at
n ischen
al and
ĠT y
Ġer l
ĠV ill
Ġr ub
ast ik
lie hen
ĠGe werk
Ġ5 7
igh ted
Ã¼t ter
maÃŁ nahmen
ĠWhe ther
ĠHig hl
L auf
Ġdie t
ud a
ĠSp recher
irt ual
Ġra in
Ġgl Ã¼ck
Ġopt imal
Ġdisk ut
Ġacadem ic
V I
ch o
an bul
re ht
Ġc utting
ĠW ales
ĠSch uhe
ĠAn hÃ¤nger
Ġwas te
Ġbes uchen
vers orgung
Ġworld wide
ĠFahr t
ĠBed Ã¼rf
Ġfac ility
dire ktor
Ġtemper ature
b ut
is tern
ur ies
Ġv irus
iz za
In sel
ĠGrund stÃ¼ck
ĠIll inois
Ġlaunch ed
> )
F est
P RE
Ġa rab
ĠT H
ic er
ra gt
ĠR ap
ann i
bau en
ific ations
index Of
fÃ¶rm ig
Ġrom ant
Ġbirth day
Ġerstre ckt
ĠJos Ã©
X ML
o ir
Ġ icon
Ġw Ã¤hlen
Ġo d
Ġp ray
ĠE g
ist rÃ¤ger
Ã¶ ten
ach s
ger y
Ġthere fore
ĠEnts tehung
Ġin fe
ĠK Ã¼hl
ĠL ike
Ġbe ziehungsweise
Ġl ibrary
Ġge Ã¤ndert
aus bildung
art ikel
ens es
ĠAuf nahmen
reat ive
Ġrec ipe
ĠKunst stoff
deutsch land
Ġadmin istrat
Ġflex ible
Ehemal ige
A pi
D DR
H inter
P aul
im ir
ĠN iger
ĠO ster
ron en
ĠVerein igung
ĠSc ot
Ġ188 8
ĠHerr n
ĠGrÃ¼n en
kun fts
ĠBur gen
ĠKrank heit
ĠGabr iel
Ġa ware
st reit
Ġthe oret
ĠD id
de fault
Ġc row
Ġk inder
Ġde partment
Ġgen ieÃŁen
act or
ĠSte ve
ĠRes ource
ĠSyn chron
Ġoffiziel le
ĠGÃ¼n ter
ĠM iddle
ĠE ugen
Ġl ose
ĠBe f
Ġges und
Ġpart ies
Ġacc essor
ĠMann heim
Ġbr asilian
Ġsl ot
bereich e
ĠSchne e
bÃ¼rger meister
Non Null
Ċ Ċĉĉĉ
Ġ upper
al i
ĠA sh
um ps
ĠL ady
Ġver teid
ĠEin en
fen se
ĠMe chan
En c
ĠWelt cup
ĠJe w
rÃ¼st ung
o or
us alem
ĠF ac
ĠK Ã¤r
um a
ĠL iving
ĠN ation
iv a
ĠSch mer
ĠSp ann
ĠLe o
stra fe
ĠNor wegen
akt oren
ĠProf ess
ĠBel gien
Ġsmall er
go ing
ĠKais ers
Ġupd ates
Ġextens ive
Ġconven ient
H P
Ġaus fÃ¼hr
Ġte ils
stell ig
ĠAll es
Ġange hÃ¶r
Ġmark ets
Ġ189 2
199 2
Ġorganis iert
EX T
ĠVarian te
J apan
c ohol
Ġd inner
ie ten
ĠJ ord
ĠZ o
Ġver fasste
Ġne ck
Ġar range
Ġqu iet
Ġapp ar
Ġapp lied
igt es
schn itte
ĠJugend liche
ĠFil ter
ĠGeschÃ¤fts fÃ¼hrer
Ġep isode
dat um
ĠKomment ar
Ġsicht bar
Eng ine
K omp
c at
k ov
Ġd b
Ġa th
und et
ĠB R
ĠF F
ĠK urfÃ¼r
ĠN ass
Ġsp Ã¤ten
etz te
ĠCh ief
ĠOb last
ĠBo gen
ĠBl ues
Ġ: )
ĠMÃ¼n chner
str umente
m ain
ĠD ream
ĠAn alyse
Ġam b
ĠAus bau
ĠhÃ¶her en
Constra ints
Ġgetr ennt
ĠQual itÃ¤ts
v iel
ĠA ster
Ġn ennt
ĠT s
ĠF Ã¼nf
Ġre pe
ers dorf
Ġver anst
ĠÃ¼ber setzt
Ġpr ivat
ĠKon f
ĠGrund lagen
Ġ189 1
Ġvis iting
ĠIntern ets
Ġcontin ues
ĠstÃ¤r ker
n i
ĠM inder
Ġg lob
ĠL inz
Ġr umÃ¤n
ran e
Ġab gesch
Ġ6 3
ĠMus ter
ĠBes etzung
cy cle
yr am
Ġkommen den
umin ium
Ġprem ium
miss ions
ĠKard inal
K arl
Ġa gency
Ġt at
Ġm ort
Ġm ental
ĠM essage
ĠD ark
Ġc os
ĠE P
Ġst ack
ĠBr es
Ġag ent
sw ers
ĠGeorg ia
leb te
Ġassist ance
ĠL Ã¶sungen
ĠN in
Ġro ute
Ġdar um
ĠInter ess
Ġval u
Ġerreich ten
ĠEing abe
Ġhil ft
ĠRumÃ¤n ien
ch i
he ber
ĠM aus
ist ing
Ġl ights
Ġer gibt
Ġr ental
mp el
br Ã¼cken
ĠSchw anz
ĠTra g
ĠBundes ver
Ġhinz uge
Ġruss ische
Ġbehav ior
V E
Ð ¹
Ġst arten
ass ung
our cen
tern oon
ĠPr ivate
ĠPhil adelphia
Reg istry
ĠLes er
ĠDenn och
ĠGebie ten
ĠÃ¤ltes ten
S l
ol t
ĠG allery
ĠN OT
ib l
ĠBo y
ĠHand werk
Date i
ĠPla ce
Ġfunktion iert
W R
ĠL or
Ġver boten
ste chnik
Ġ18 00
lÃ¤ ne
ĠHand lung
ĠStud ies
ĠIhr es
ĠKÃ¼ ste
ĠAud io
ĠKohl en
Ġadvert ising
ĠThÃ¼r ingen
ĠKarls ruhe
ĠWag ner
Ġzuk Ã¼nft
h ai
ĠS E
ĠP y
ĠT ree
ste ig
hen den
ĠGesch mack
Ġmin imum
Ġeinfach e
Sp ace
ĠAndre w
Ġmass ive
Ġintrodu ced
Ġpaint ing
ERR OR
t im
on ischen
or ganis
Ġp ump
ra uf
ct ural
ant o
ive au
Ġum ge
Ġinst alled
ĠNor mal
Ġgu est
Ġteach ers
ĠAllgemein en
Ign ore
R Ã¶misch
f ot
f els
h s
Ġs izes
Ġb rown
ĠE mer
ĠAn wesen
ĠVer stÃ¤nd
Ġsch uf
inz ip
ĠTechn ologie
ĠpreuÃŁ ischen
ĠMÃ¶ bel
z ellen
ĠB ou
ĠD ating
Ġein deut
sp latz
och em
Ġdo ctor
bes itzer
Ġdec ide
Ġ188 6
On ly
ĠDire kt
Not Null
Ġrecommen ded
ĠSec ond
ĠAre a
ĠKolle gen
ĠEntfern ung
T L
t ree
is emit
Ġt ile
ĠW end
ĠC A
isch t
tr ich
sp arte
me te
par ent
Ġcomp la
app ed
ĠBundes staat
Ġunser es
ĠAlt ar
ĠEnts p
M O
it age
an teil
st ore
ĠD ick
ig ar
ĠH at
ĠRe isen
Ã¤n k
ĠAb t
br onn
Ġgew Ã¼nsch
ĠCo ast
Ġspec ies
Ġrepr Ã¤sent
ĠGleich zeitig
ĠDipl omat
E very
v ard
or ney
ĠP u
ĠH ad
ĠV I
Ġk ennt
Ġ" ,
ĠGesch windigkeit
ĠUS B
Ġverw and
199 7
ĠDon ald
jahr en
Ġbreak fast
ĠBot schafter
Ġextens ion
ĠSchlag zeug
ĠColor ado
S ow
W ien
g ung
t te
Ġs it
ĠH Ã¤
ĠN at
ste ine
Ġj u
Ġcomp l
Ġapp s
ĠGemein schaft
Ġbegann en
Ġengl ische
ĠKomm and
ĠKant ons
ĠBron z
Ġkathol ische
H A
K unst
Ġf Ã¼hl
lich em
ĠEr ic
hl on
erv ation
land en
inn es
ma ÃŁen
ĠOber flÃ¤che
Ġhin ten
ret ung
Ġmar ried
ĠHel m
AB LE
Ġpriv acy
d ir
l ik
Ġo st
Ġc ry
ĠR untimeException
ul ations
ĠJ son
Ġy outh
Ġch ron
Ġsc ript
", "
co in
ĠAll en
ĠWer ken
RE E
UL L
ĠPenn sylvania
: .
C ommerce
b ringen
le ucht
ĠM assen
ĠD ok
ĠL ad
Ġbe comes
ĠN am
ĠO S
ik um
ĠBe fehl
gr Ã¤
Ġmy ster
aw ay
ĠKon struktion
ma jor
Ġtr uth
kl ar
ĠStud ent
Ġ188 9
ĠStad ion
Auth or
ar ks
ĠS yr
Ġan g
st one
ĠF a
ĠE uch
Ġer ober
Ġwh atever
Ġnot es
br id
Un ser
Ã¤hl er
Ġvers uchen
bau te
mÃ¤ÃŁ ige
ĠDem oc
Ġprom ote
Comp arator
ĠpersÃ¶n liche
Ġsqu are
ĠPots dam
C or
Ġan lÃ¤sslich
ĠM u
ud ing
sen de
tw och
ĠSh ort
Ġra w
Ġgesch Ã¼tzt
urs or
zahl ung
Ġtrans action
ĠKateg orien
ĠerÃ¶ff nete
ĠLÃ¼ beck
Ġhappen ed
Ġspan ischen
Ġpattern s
================ ================
g ow
it as
em an
ĠAn gabe
sp ec
AC K
Ġexist ieren
Sep tember
w eiten
un ft
is lat
al ition
te en
ĠB Ã¼nd
sch icht
ĠSt ich
ap i
ĠArbeit geber
ĠPf alz
ĠMittel punkt
Ġzie mlich
Ġzuf olge
XXXX XXXX
Ġaspe cts
strahl ung
B aden
p ie
re ffen
ĠB rad
Ġn annte
ĠN avy
20 20
Ġste igen
haus e
ĠKon zentr
ĠEl izabeth
199 1
Element s
Ġperform ed
ĠTre ffen
B B
T im
T est
m ung
ļ Ń
Ġv illage
st ers
ĠF our
et enz
Ġsch Ã¼tzen
ĠEn ter
ĠGe legenheit
ĠCh am
ĠFor der
Ġpass word
Ġadv ance
col umn
Ġpo et
ĠExper ten
on te
it ro
or ry
ĠH als
Ã¶ he
ul ated
ungs s
Ġbes ucht
fahr ts
Ġlang sam
ĠFot ograf
ĠschlieÃŁ en
ĠRuss ian
ĠMagaz ine
S O
V ert
h Ã¤ndler
m or
re es
ĠS K
Ġm g
Ġm outh
ĠD afÃ¼r
ĠV og
In itial
reis en
use ums
ĠAug sburg
ĠspÃ¤ter e
Ġsecond s
ĠMult i
ĠCre ate
ĠRog er
h ar
s ession
Ġd Ã¼n
ĠA D
Ġst Ã¤ndig
sp l
Ã¼n schen
ĠNe ues
Ġ5 8
ĠFre m
Al so
Ġmin or
fÃ¤ llen
Ġocc asion
emb ly
Ġmittler en
ĠmÃ¶ glichen
lehn t
ĠKÃ¼n ste
S ome
V O
an ia
ĠB om
ĠH av
Ġre ar
ark e
iss ar
rich ts
Ġexp ensive
ĠhÃ¶ here
ĠCla ud
Ġspeziel le
ĠLOG GER
ĠBist um
K an
Ġt a
ĠM ade
ĠM Ã¼hle
Ġc up
ĠT R
op her
Ġen ded
tem per
ĠPf ad
stre cken
MA X
ĠSupp ort
Ġfeed back
H z
e ff
k ar
y ard
in yl
ĠK un
Ġl aufen
ĠIn v
sp ring
Ġdies mal
Ġ18 79
hal ter
Ġad ults
ĠNach folge
sche f
iden z
Ġerw orben
ĠAmer ika
stag ram
With ServiceResponse
ĠSen ior
Ġzentr ale
Ġexcl usive
Ġmention ed
Ġgespe ichert
WithServiceResponse Async
B U
l ere
Ġ Ã¤ndern
ĠW Ã¼rttemberg
Ġver hinder
Ġum fasste
inter est
licher weise
ĠVerb rauch
ĠVers icherungs
Ġlog o
ĠDi am
mod el
Ġeduc ational
Ġmajor ity
ĠEben so
ĠGef Ã¤ngnis
ĠGebie te
ĠBil dern
ĠAbgeord neten
ĠInf os
Ġneighbor hood
ĠEdu ard
> ()
M T
b ound
in us
ĠH amm
ir aten
Ġer leben
ĠZ ell
Ġen able
fahr ten
Res ources
bild ungen
Ġtechn ische
Ġeinfach en
Ġstrateg ies
gorith m
ĠBened ikt
B uch
F ran
es a
ĠM uss
ĠL ange
ĠC op
Ġge e
we et
qu alitÃ¤t
ĠBe hÃ¶rden
Ġfe e
Ġother wise
ĠBl umen
let ion
ex p
ĠLie bes
Dies es
gebie ten
Fr ame
ĠVerÃ¶ffentlich ungen
abet es
beg inn
NotFound Exception
D estination
] )
k as
ch nen
Ġt rop
ol id
ĠF as
ĠV alue
od a
orn o
ĠFre ist
Se e
Ġestabl ish
Ċĉĉĉĉĉĉ ĉ
S u
T ro
b ein
g age
w idth
re tt
al ia
Ġf uhr
Ġund erg
ĠT oten
ĠF an
ĠH end
Ġex ercise
Ġor g
Ġme ant
ĠBr uch
ced es
folg ung
ĠYou Tube
Ġbesch Ã¤d
AC E
ĠVictor ia
ĠKore a
d ro
Ġt utor
re land
Ġb ike
ĠB rie
st yle
ic ans
ĠE ff
ĠSt u
Ã¼n der
ĠÃ¼ber w
ho fer
ĠGes icht
Ġgeb lieben
Ġdort igen
Ġsur gery
Ġnor m
ĠBed arf
ilen ame
Ġdiscuss ion
Ġgriech ischen
Pan el
âĶĢ âĶĢ
Ġl istener
Ġex amples
ans ion
ĠGemein sam
ĠUm fang
oth ing
ĠNational mannschaft
ĠCl ient
Ġdel icious
bin sel
Ġfun ctions
ĠPort rÃ¤t
forder t
ĠTher apie
ĠRegen sburg
! "
at is
ĠD OC
ĠK oll
Ġk it
ĠVer fassung
gesch Ã¤ft
ĠUnivers itÃ¤ten
stra ÃŁen
Ġfa ith
Famil ie
A A
ĠS endung
ĠB alt
ĠF aust
ĠK G
Ġge zogen
ver kehrs
get String
Ser ial
Ġgeboren e
ĠSchriftsteller in
Ġunivers ity
b Ã¶
i oren
Ġd oll
us ste
ĠA z
Ġan zu
Ġher unter
(" \
ĠSpiel tag
ocol ate
Ġwoll ten
gÃ¤n glich
F lag
h arm
p red
Ġan f
Ġj ump
ĠEr richtung
Ġ3 60
ĠSp irit
ĠIS O
co der
Ġgel ungen
Ġbef Ã¶rdert
Ġ188 7
ĠBra un
ĠWissenschaft ler
Ġobt ain
ĠTrain ings
e v
x id
| -
Ġm essages
ĠM B
ill o
ĠVer zeichnis
lass ung
ĠWe ib
ĠAb d
pro p
Er gebnisse
Ġbra uchen
Ġzeit weise
ĠFrei herr
Ġfix ed
Ġverur teilt
ĠCanad ian
/ *
L P
S ince
Ġm ist
Ġp urs
men ge
ĠVor stands
Ġges agt
Ġany where
com mer
ĠÃľber nahme
Ġverl Ã¤ng
Ġzeit genÃ¶ss
Ġgelegen e
Ġinkl usive
gesell schaften
e g
Ġe ar
st ufe
ol ph
ĠL ed
ĠZ usÃ¤tzlich
ĠĊ Ġ
ĠGem Ã¤lde
Ġreg istration
mÃ¤ÃŁ igen
Ġ188 4
aren ess
hoch schule
Ġaf ternoon
I O
is burg
ĠB ert
ĠD unk
ĠT an
ĠR ie
Ġbe er
ĠSt aff
os low
Ġauf treten
sp ur
ĠAr z
Ġges te
Ġrec o
ĠÃľber sicht
spr uchs
ĠPol icy
ĠVerb ands
OR E
Ġdefin ed
iam i
ĠIllegal StateException
IV E
bro chen
verstÃ¤nd lich
Ġwunder sch
ĠIntegr ation
ĠBrasil ien
F iles
Ä Ļ
Ġt mp
Ġv ieler
ĠB urn
ĠE tw
Ġl iber
ĠAn st
Ġpro test
iz ens
iz ona
ast rop
ĠAb stand
ĠAuf tritt
ĠPr ix
ĠHer zen
Ġlie fern
ĠGroÃŁ teil
Ġakt ual
minister iums
Ġnational e
Ġinspir ation
Ġemer gency
ĠPers pekt
Ġdescrib ed
ĠgrundsÃ¤tz lich
vertre ter
ĠH Ã¼gel
ĠC ro
ĠJ ubil
Ġge legt
gen ossen
Ġver trat
ĠBe cause
be am
pr ene
ĠAl though
Ġte levision
Ġinter face
ĠWelt meisterschaften
Ġhin ein
ĠBro ad
Ġinform ieren
Ġdistr ict
Ġallgemein en
merksam keit
' :
L ang
o ÃŁen
w Ã¤hnung
ĠB iele
Ġan fangs
ot ton
Ġge h
os law
Ġaus gebaut
Ġsp ons
ĠSe a
pro perty
Ġra ised
Ġmost ly
Ġspecific ally
Ġposs ibly
ĠCast le
cep ts
h ome
Ġf uel
ĠK ai
Ġk Ã¼rz
sp lit
ĠSp itz
Ġ5 9
Ġreturn ed
Ġteil nehmen
Ġbuild ings
stud ium
Ġzuf rieden
ĠMagaz in
ĠSemin ar
g i
u ers
Ġa st
Ġf ruit
Ġm Ã¼s
ĠB oth
ĠG ipfel
ĠH Ã¼
ĠC os
ib et
geb lich
olle yball
En tw
Ġges p
Ġ< /
Ġtr aten
ĠBau er
Ġmin i
ĠKÃ¶l ner
Ġautomat ically
ĠSpring er
ĠBrun o
ĠNeust adt
U ri
ĠSch au
Ġne ut
Ġwe isen
ĠBr ust
bo ot
Ġgu ess
oph on
199 3
Ġimpro vement
ĠEis hockey
Ġappear ance
n oten
t ax
Ñ ı
ĠS ummer
Ġn u
Ġex tre
ust on
ĠÃľber blick
ĠAlb recht
Ġperfect ly
Ġverst arb
Ġcompet itive
Ġenh ance
Ġaccessor ies
J ose
i able
Ê ¿
ĠF u
ĠF ed
ĠF ox
ĠG au
Ġk Ã¤mp
gen cies
op Ã¤d
aus o
oun ted
uff ix
Ġzentr alen
Ġvac ation
Ġpromov iert
ĠCharl otte
a ver
l isten
n chen
is st
Ġb aute
ĠT ipps
ĠK abin
ĠW under
ĠBr idge
gew inn
ĠMag n
Ñģ ÑĤ
Ġkont roll
angeb ot
c all
ut y
ĠG Ã¼
ed ig
Ġst unning
ver lauf
our i
Ġab gest
fe uer
pro v
ĠSte phen
ĠAt om
ĠSk y
setz er
yl on
ragen de
Ġschn eller
Ġwes halb
ĠJer usalem
Ġdistrib ution
ĠKlost ers
ynast ie
ĠInfanter ie
B M
C up
K Ã¶nig
T itel
j amin
n ur
in ken
Ġa u
Ġv ul
ĠW ars
ĠH agen
ul in
ĠThe ir
ĠSp Ã¤t
ĠTh or
ĠMar g
own ed
Pro xy
Ġgr id
ĠTr ink
arb y
Ġdog s
Ġbeinhal tet
n ight
v ens
ĠH ond
Ġwar ten
Ġen tertainment
ĠChr isten
arr ier
Te il
por ter
ĠBuch staben
ĠZe hn
ĠGraf ik
Ġappear s
contains Key
Ġcabin et
ĠItal ian
Ġconvers ation
abgeord neter
E ach
p op
y o
Ġm ale
ĠM oh
ĠT ai
ver g
Ġun tern
Ġun bedingt
od ox
Ã¼ck t
spr Ã¼che
Ġgar age
Ġtre es
ĠGed ichte
ĠHin weise
ĠStraÃŁen bahn
Gener al
ĠGebie ts
ĠDenkmal schutz
Ġaccur ate
C ap
c in
y ers
Ġt olle
Ġf unds
Ġin spe
Ġp utting
Ġh yp
ĠG n
Ġto ward
ĠL yr
Ġde ck
sp rech
sen der
ĠSp ur
Ġvor be
Pro gramm
port al
ĠWelt meister
Ġgu ter
uck er
ĠGest alt
ĠUp date
ĠLÃ¶ wen
Jahrhund erts
ĠDrehbuch autor
ĠAltern ative
jen igen
i pt
in sel
an alyse
ent liche
ĠR ats
ot ions
ĠVer g
Ġen det
pro ble
ikan ischer
ĠÃĸ k
ĠMon ats
Ne u
ĠTer ror
athol ic
Ġimport ance
Ġallow ing
ĠUms atz
K om
S ET
Ġe hren
ĠM obile
Ġc art
ĠP as
ĠT rieb
ĠG ymnas
et a
ĠSch all
ĠAl ben
ult y
ĠAus fÃ¼hrung
amm ern
Ġakt iven
ĠFahr rad
ĠForm el
the t
ĠGraf schaft
ande ur
Ġpresent ation
Ġmanufact uring
frastru cture
ĠVertra gs
frist ig
ĠCorn el
R ock
Î ¿
Ġf ly
Ġan imal
ent ially
ĠK itchen
Ġz Ã¤hlte
kt ive
hen de
igh ter
ĠColle ctions
Ġtot ally
OD O
ĠEns emble
Ġverbess ern
F OL
R un
Ġf aster
Ġe ating
el ing
am o
im b
ĠG un
ĠL uk
Ġst ain
ien ne
Ġvor wiegend
Ġ6 2
Ġpres ence
lÃ¤nd ische
ĠIst anbul
Ġdunk el
ĠVerÃ¤nder ungen
k Ã¶nig
k rank
m ach
p rechen
ĠS ite
ĠC R
Ġl an
ul der
Ġre aders
Ġre volution
id i
Ġsch ott
be cken
In v
tet t
ĠGroÃŁ herzog
Ġbef ind
ĠBereich e
Ġther apy
ĠTemp el
ĠBul gar
c our
r ische
an ischer
ĠB arn
ĠD uring
ĠT oy
ĠI gn
ĠH ave
Ġl ust
Ã¶ gel
Ġer geben
Ġer folgen
Ġver letzt
for ce
ĠLe wis
ĠTh ailand
ohn t
ual itÃ¤t
ĠKl ub
Ġrem aining
wor tet
s ort
č ĊĠĠĠĠĠĠĠĠ
ĠĠ Ċ
ĠS ender
Ġan gew
ut ors
ĠP R
ic it
sp ar
oc al
Ġwor ry
Ġte a
los ed
Ġwel chen
Ġpl Ã¶tz
Ġrem ains
ĠJu an
Ġur ban
ĠRegel n
ĠErweiter ung
l iteratur
x ml
Ġb order
ĠM A
ic i
Ġst yles
ak on
Ġcon crete
los ure
Ġpla ys
fÃ¼ llt
spieler in
ĠZw angs
deck te
ĠDi Ã¶z
ĠSam uel
ĠMass achusetts
ĠAcc ount
ĠSpan ish
Cal endar
A tt
J ugend
ro b
Ã¤ use
ĠM esse
ig l
ĠC ob
Ġst ir
pp ich
ate way
Ã¼n de
ĠEx c
legen heiten
Ġcontin ued
sprÃ¼n glich
ĠOrganis ationen
Abst ract
B ay
Ġd ipl
us che
ĠA lo
Ġv ent
Ġer stellen
ĠV ide
af fte
wei he
ĠFre der
Ġacc ident
ĠBl Ã¤tter
Ġklein eren
Ġsur f
Ġbro ther
Ġ186 7
Ġlead s
ĠKÃ¼ chen
Ġelect ronic
ĠEben falls
ĠerfÃ¼ llt
Ġhundred s
starts With
Ġreco very
A gent
F rie
b indung
p es
p il
ĠM eine
Ġge legentlich
Ġr ies
ĠPr Ã¼fung
Ġco ast
Ġgr und
ĠEx press
ams ung
ĠVerb indungen
Ġbeste hend
ĠUr teil
Ġfamil iar
ĠJugend lichen
ĠGed enk
opt ion
Ġhous ing
ĠergÃ¤n zt
ĠDrit tel
J SON
ĠSt Ã¼cke
ip edia
Ġdurch aus
ult an
ĠSe en
Ġpre gn
ĠKomm ando
Ġdamal ige
Ġproper ly
Ġgren zt
h av
Ġa ctions
Ġt arge
ĠP av
ĠK Z
ĠR olf
ĠV inc
Ġst ars
ĠAn lass
ĠAr k
lie ger
to o
igkeit s
ĠCl oud
Ġfact or
ĠEis hockeyspieler
Ġsil ver
Ġcommit ment
ĠAust ausch
Ġcandid ates
Ġleit et
ĠPac ific
B ag
M ai
Z one
Ġc ute
ĠH op
ĠL izenz
ĠSt ab
Ġj oint
be hÃ¶rde
ĠAuf merksamkeit
ri um
Be fore
Me hr
ĠCor ps
ĠVal id
ĠAth let
Ġhous es
ĠVerantwort ung
ĠSchlieÃŁ lich
V om
on line
ĠO ze
Ġum s
ĠMar burg
Ġrec over
Ġperson en
Ġheraus gegeben
Ġocc up
Ġfit ness
Ġingred ients
Î ±
č ĊĠĠĠĠĠĠĠĠĠĠĠĠĠĠĠĠĠĠĠĠĠĠĠ
Ġan geschlossen
ĠM Ã¼hl
ĠL yn
ĠN ationen
ĠV f
ind ungs
gr id
Ġfe es
ĠFor est
ĠRegion alliga
Ġshow ed
Ġphot ography
omot iven
ĠBon us
ĠMiner al
re place
de cke
Ġc raft
ĠJ oh
ĠSch ild
ah m
ĠVer w
ĠNe ck
lat es
Ġgu itar
ĠGo ethe
ĠTour ismus
A ud
B ounds
F ar
M iss
Ī Ĵ
un checked
at ische
ĠS achen
ro g
Ġ( ),
ĠW upp
Ġdes ire
ĠO N
ĠIn spir
get Instance
ian e
Str u
ole c
Ġsc ope
ĠschlieÃŁ t
ĠSchiff s
Ġsug ar
ĠDokument ation
Acc ording
ĠKaffe e
ĠGriechen land
B ig
c ers
Ġto ugh
ĠSch Ã¼l
ien ds
ĠEr m
ail ability
ute te
ĠVor teil
Ġ9 00
Ġ[ ...]
Ġsub mit
Ã¡ s
Ġgel b
ĠAss oci
ĠRo hr
met hode
ĠDon nerstag
Ġdeliver ed
ĠBaum w
ĠTschech ien
Ġa gr
as ant
ĠA x
ĠB enn
om er
Ġth us
Ġim pl
ah a
ĠLe ib
ens us
ĠUm bau
ĠNieder Ã¶sterreich
ĠAben teuer
Ġjapan ischer
ifiz ierung
ĠRelig ions
ĠMatt he
ĠGÃ¼n ther
ĠViertel finale
Ġlau tet
Ident ifier
M Ã¼n
n ik
u ber
v ia
an th
re uth
ĠF alle
sch ritt
ver k
Ġzu verlÃ¤ss
ĠVer fassungs
Ġent lassen
Ġvor ne
Ġbes tellen
Str ateg
Ġro ut
Ċĉĉĉĉ ĉĉĉĉ
He aders
ĠHier bei
Pr im
ĠSen at
ĠPass ag
Tod ay
N LS
at ible
ĠS zenen
as is
Ġm Ã¼ndet
ĠM all
ĠF red
Ġl anger
ot ic
men s
mal en
Ġar ts
ĠFran ces
Ġown ed
ilome tern
ĠSchm uck
ĠEind ruck
B I
O ktober
w ords
Ġd az
Ġm ess
ĠA ar
Ġan swers
ro d
am ik
Ġk ick
Ġhe iligen
Ġam t
Ex p
ende d
ĠJun ior
stru ctor
ĠAt mosphÃ¤re
ĠProf essional
yr ight
Ġtro cken
ĠDis ney
LA SS
ĠverfÃ¼ gen
ĠbenÃ¶t igen
ĠFass ung
Ġintens iv
ĠHon or
W ird
k k
Ġt ables
de lete
Ġ( ).
ĠP el
ĠT ony
ĠJ ar
Ġ18 71
Ġres idential
amm elt
Einz el
off set
ĠTra vel
zahl t
uk i
ĠKat alog
Ġb attle
Ã¼ re
st op
st ritten
ĠD ance
Ġp m
ĠR eit
ĠR Ã¶m
ĠL aden
ĠL okal
Ã¶ scht
Ġk Ã¼nft
ĠSt one
Ġmin im
Ġdec isions
ĠSk ulpt
Ġbef re
Mus iker
open hagen
I l
K inder
Â ³
ĠS G
Ġm ac
ro ot
st atic
ĠM ind
ĠK ino
Ġg orgeous
ĠSch icks
ĠSch atten
Ã© d
Ã¤tz t
Ġcall ing
Time out
iction ary
Ġans Ã¤ss
ĠWehr macht
Frank reich
ĠverstÃ¤r kt
Ġsym pt
Erster wÃ¤hnung
P air
w ird
Ġt ags
Ġf ellow
ĠM ort
ig ers
Ã¤t igkeiten
ĠVor stellung
alt ar
Ġ6 8
ingen ieur
Ġho tels
ĠSar ah
Ġaccomp l
ĠAlk ohol
Kompon ist
/ >
M I
g roÃŁ
k olle
Ġan sonsten
st ahl
ĠH arm
ĠV i
ein st
Ġge fallen
ĠBe cker
get R
ph ones
Ġsh ares
ĠGesch Ã¤ft
Ġob vious
ĠHoch schul
ĠWerk statt
198 9
Ġport ugies
Null able
ĠAmts zeit
Gener ator
bereit et
wechs elt
ĠSom it
ĠsÃ¤m tliche
' .
? )
W S
Z eich
Ġa ges
Ġe cht
ir ds
Ġl if
ok ol
oh ne
Ġverb rachte
ĠJohann a
Ġschw arzen
ĠWil son
ĠSal es
Film schauspieler
ĠKauf mann
Ġcla ims
Ġexten ded
Ã¤u den
ĠAnder e
ĠExec utive
fortun ately
A pril
F i
K ap
Ġm orgen
il ation
Ġp leased
ĠR ainer
ĠPro cess
Ã© l
Ġvers etzt
ĠTr ier
ader born
Ġevery day
Ġpass iert
Ġ188 2
Ġvoll er
ĠNorth ern
Ġ{} ",
Ġunbek annt
ĠKath arina
ĠendgÃ¼lt ig
ĠAstron om
H Ã¶r
M er
M useum
ĠS z
Ġp ed
Ġc urr
ĠT HE
Ġz ul
sch ild
Ġbe achten
Ġver arbeitet
ĠAn erkennung
Ġwe iÃŁen
Ġfe els
ĠFr ucht
Ġeinge laden
sw ald
ĠKap itel
Auf grund
ĠBern ard
Ġkurz er
ĠDis c
bÃ¼ ro
Land kreis
kap elle
kÃ¼rz ung
Ã ¦
or ded
re chnung
Ġm ont
ĠT ank
ĠO range
Ġver teilt
tr itte
ungs entwicklung
ĠDe ad
fer ences
ĠMar sch
ĠEx pression
ER S
// //
ĠSpe icher
Ġobject s
ĠAbgeord neter
Ġincred ible
exec ute
a a
us hed
ĠA er
ĠK und
ĠI reland
Ġg olf
ist ungs
ann els
ĠZ ut
sp iegel
Ġnach gewiesen
ĠAus gaben
amp s
amp en
ogra pher
Th rowable
ĠNieder lande
ĠAutor in
Ġwhe el
CD U
B E
L isten
b ten
i he
l ach
ĠB ald
Ġbe grÃ¼n
Ġbe zieht
ĠO hne
Ġse gment
ip her
Ã¶n t
ĠBer ge
ond iss
igh ten
off s
hol en
Ġsl ightly
ĠBud apest
ĠLink ed
Ġdur fte
Ġeffic iency
ĠEth n
Ġcandid ate
k B
he et
ab schluss
if orm
ĠIn stagram
Ġ3 000
tel finale
eld ungen
Ġfl u
ĠRes erve
ĠfÃ¼nf ten
Ġdefin iert
fÃ¤h ig
Ġdiscover ed
ĠChild ren
ĠBronz emed
C S
N odes
r ufen
Ġa chten
Ġf o
ĠM is
ĠVor bild
ĠWer be
Ġdec ades
ĠBar ock
Ġschw ere
Ġcho ices
Ġed itor
ĠClass ic
ĠÃĦr zte
Ġinstit ution
Ġagre ement
ĠIter ator
( ...)
K lass
h Ã¤ngen
Ġb undes
Ġm anner
Ġer richten
Ġre ichen
ib ilities
ĠWe ber
Ġget Ã¶tet
ĠBes ter
Ġerw arten
Ge ografie
Ã¤nger ung
AC T
ĠBern d
haupt stadt
ĠKan al
ĠSn ow
Ġdynam ic
erkl Ã¤rung
Ġ ).
Ġt end
ie gs
ĠB am
ĠB lau
Ġbe quem
and al
ĠN erv
we ar
Ġun gewÃ¶hn
Ġ3 50
ĠGe werbe
ob jekt
pro jekt
Ġbo ys
Le ft
Ġshe et
Ġgood s
Array List
Ġintegr iert
Ġgraph ic
ĠPorn o
Ġvirt ual
Ġencour age
Ġresol ve
Ġgrat is
f indung
s um
st het
ĠH ild
Ġk Ã¶rper
Ġwe aring
Ġcl oud
ĠCon gress
Ob j
Ġpol icies
Ġspec ified
ĠDis ziplin
ĠAp othe
ĠContin ue
innes ota
A lex
W ar
g Ã¤ng
m ade
v ideo
Ġan bie
ĠIn se
se y
ĠAr gentin
ungs gebiet
Ġ18 75
Ġum gebaut
St affel
Ġup coming
tra ce
Ġprov iders
ron ik
Ġgleich er
Ġcre ation
ĠDar aufhin
Ġbring ing
book s
Ġtradition ellen
ĠFreund in
Ġclin ical
l enz
v et
Ġd iss
ĠS end
ĠA dresse
ĠB ath
ĠW y
Ġbe at
Ġout standing
old ing
Ġber aten
Ġra pid
kehr t
zeug ung
Se lect
Ġchar akter
Ġsign s
ĠBut ton
ĠBi ograph
valid ator
Ġcla zz
Ġrespons ibility
Ġscient ific
ĠBM W
S an
f ill
g asse
Ġm ob
ĠB uck
ĠB ody
ĠJ eder
âĢľ -
Ġgen et
Ġbo ot
zw ungen
ĠMittel meer
ĠDo ktor
Gr und
Ġthough ts
ĠAcc ording
Dat abase
rupted Exception
Ġfeder al
V A
i ors
i Ã³n
z ing
an isch
al ters
ĠL och
ĠC her
ĠN ag
Ġre ached
all as
ĠTr end
code d
verein igung
wh at
Ġhold ing
Ġinj ury
Ġlok alen
A merican
P rÃ¤sident
X ml
d est
in stance
il st
ĠF els
ĠG ouverneur
Ġst retch
19 33
ĠEn vironment
olog ien
Ġwould n
EN D
Ġsearch ing
Ġvorhand enen
Ġlands cape
ĠHÃ¶ch st
U l
f ue
ĉ ĠĠĠ
Ġa ka
ĠP ut
id ays
ĠDe f
IN ST
stoff en
ĠEm ail
ĠBel g
ĠInnen stadt
Ġbestehen de
Ġwid mete
ĠChamp ions
Ġlic ense
Ġn ative
Ġh ieÃŁ
em y
Ġme x
Ġ0 2
Res ol
stit ute
Ã¤tz ung
ĠWar schau
ĠKat zen
prÃ¤ senz
Ġarr ived
ĠSign al
Ġhon est
Ġsurround ing
ĠAnders on
flo at
ĠWÃ¤r me
E qu
K at
ã Ģ
it als
ĠS A
ĠD orn
Ġp apers
ĠK ids
et ime
pp t
ĠHe art
Ġsow eit
Ġlie ÃŁen
Ġ12 5
ek ing
Ġgreat est
Ġemp fehlen
ĠsÃ¼d Ã¶stlich
Ġhistor ical
Ġtyp ically
ĠSchm itt
Ġbevor zug
comp are
Ġkor re
M ENT
k ommand
l uft
s dorf
un ks
ĠG rupp
ĠG ross
af Ã©
Ġaus drÃ¼ck
ia c
ĠEn tertainment
ss ystem
Ġalle ine
Ġ7 00
Ġdar stellt
Pro zent
ĠUm feld
Ġober halb
Ġcook ing
ĠHit ler
Mich ael
S ymbol
â ĸ
Ġh os
os c
âĢľ ),
out put
ĠSe henswÃ¼rdigkeiten
auf nahmen
Ex tension
Ġ6 1
Ġ7 6
En de
put ation
Ġerfolg reichen
ĠsÃ¼d westlich
ĠRÃ¤ ume
Ġamerikan ische
Ġfra uen
Ġconcern s
E p
M em
or ough
Ġf ein
Ġthe ory
ĠP ool
ĠL is
ĠV ul
Ġge langen
ĠBe ispiele
Ġent worfen
Ã¤r m
lex ikon
Ġbel ief
Ġcle arly
ĠDi agn
Ġmeisten s
ĠKup fer
Ġt asks
le ft
ĠM S
Ġn ine
Ġal cohol
ad r
ĠO m
ĠTe lef
ac o
ac ious
oun ge
Ġmehr erer
sel ves
ĠWahl en
Ġaccess ible
ĠSm all
verb indung
Ġimpro ved
ĠKons erv
ĠjÃ¼d ische
Ġfail ure
D av
S uper
b art
m os
Ġa fr
on de
us k
Ã¶ tt
Ġzu gÃ¤nglich
Ġde bt
ĠRe zept
ĠRe kord
ib il
Ġat mosph
Ġ0 9
Ġ+ +
ose x
fahr ens
man uel
ĠPh arm
ĠMan chester
schie de
ĠInter pret
ommer ziel
ĠLeip ziger
Ġmatch es
Ã¢ te
Ġcaus es
BevÃ¶lker ungsentwicklung
D i
H ans
M sg
d raw
h ana
es heim
Ġt ast
re iter
ach es
Ġy esterday
ver hÃ¤ltnis
19 80
hal f
Ġunter lag
Ġwill ing
ĠCh a
ĠAd ler
Ġben annte
mus ter
Ġmonth ly
ĠRechts anwalt
Loc ale
gÃ¤n z
Ġbenachbar ten
c olle
Â ½
Ġc lock
Ġein heit
ĠE le
ĠL uz
ĠSch Ã¤d
sp h
ĠAr izona
Ġch arm
Ġ0 7
ĠEx istenz
ĠJun ge
Ġdr ivers
Or iginal
Ġakt ive
arch itektur
ĠKr one
Ġ188 1
ij a
ĠerklÃ¤r en
Ġqualif ied
nehm ern
Ġrecogn ized
Ġchrist lichen
C ustom
c ort
h au
n ieder
w inkel
er a
ĠM ig
ic us
ĠR av
Ġk Ã¼nd
ĠO berg
aus chen
ĠEr mitt
ĠDe finition
par ks
ĠMat rix
fil me
ĠEv ents
ĠGlock en
Fra uen
Ġgefert igt
ĠViet nam
Ġf inn
Ġan alys
ĠD ampf
ĠP seud
Ġl unch
Ġst il
Ġst Ã¤rk
ĠIn fe
tr im
Ġj ack
Ã¤n glich
ok es
ĠCh air
Ġ6 9
Ġgen e
hÃ¶r igkeit
ĠHam mer
ĠGu ard
ĠTechn ischen
wh ich
Ġhard ware
ĠMer cedes
ĠKompon isten
Ġadmin istration
Ġpromov ierte
niss es
ĠArr ondiss
ĠBiele feld
U se
e ber
f and
le ten
Ġin tr
Ġsp aces
Ġ// $
br Ã¼ck
ĠBl u
Ġ< <
ĠSchw imm
Ġfest gelegt
the ater
ĠverÃ¶ffentlich ten
Pr ess
ĠdÃ¼r fte
ĠMathemat iker
ĠMail and
national spieler
ĠZent imeter
P ers
e ck
r Ã¶
in ne
ĠB utter
ĠF I
ach el
ow itsch
od ge
ang le
ĠMit twoch
ĠUr ban
ĠAustr ia
ĠHin weis
Film titel
ĠRestaur ants
Ã¶p fe
ĠNahr ungs
F ollow
t ario
or er
Ã¼ ÃŁe
ĠB ow
ic als
ĠC ry
ĠAn meldung
Ġle hn
Ġum gesetzt
ĠGemeinde gebiet
Ã¡ r
ĠSpe kt
ĠNieder landen
ĠSol ar
ĠnatÃ¼r lichen
Ġmanufact urer
ĠHoff mann
ĠMem orial
Ġofficial s
ĠVen edig
Ġin ne
Ġm ine
ĠP iet
sch iffe
ik te
Ġsch affte
Ġle ichter
ĠPro test
ĠNe use
Ġ0 5
Ġfe ierte
ĠBr ut
Ġmin imal
ĠBre mer
Ġnord westlich
ĠFel der
Ġfrei will
Ġfund ament
Ġerinn ern
Ġverwende te
ĠRena issance
ĠVerbesser ung
E B
I st
d ale
k anz
l itz
Ġs itzen
ĠT iefe
ĠG oth
ĠV ision
ib ution
rit ter
ĠAus zeichnungen
ĠAus wirkungen
ĠHe ktar
reat iv
ĠDes igner
ĠSÃ¼d west
ĠMeister schaften
Ġprote in
Ġsim pl
Ġangeb racht
ĠSyn ag
Eis hockey
ĠNomin ierung
B ound
n ames
p unkten
Ġs itting
or chester
and y
Ġk illed
Ġver lang
ĠÃ¼ber all
be zeichnung
ĠAuf ruf
dem okrat
Ġ7 7
Ġ8 8
Ġstand ing
Ġerfolg reiche
Ġ188 3
Ġ186 1
ĠDav is
ĠCom ic
Ġref lect
Inter ior
Ġmatch ing
zi ologie
ĠVerl ust
ĠOption al
commer ce
M aler
g Ã¤
v arian
Ġl ived
ĠN ad
ĠO bst
men te
Ġget roffen
ĠPr ime
Ġacc ounts
lÃ¤ uter
ĠInd ones
At tr
Ġgest artet
Ġmir ror
ĠursprÃ¼n gliche
Ġfil ms
Ġwirtschaft liche
Ġcloth es
ĠPremier minister
( @
A c
a al
h ent
r ennfahrer
Ġs ud
ĠS ul
ĠC ann
ad bach
kt oren
od ie
Ġsch m
Ġor ange
Ġ18 78
Ġte x
Re port
gesch lecht
Ġpre fix
add All
Ġmach ten
ĠStock holm
Ġak zept
Ġunters ucht
Ġanerk annt
Ġappreci ate
Ġlern te
) -
B ra
d ies
Ġd ates
Ġt ab
Ġw asser
Ã¼ chen
Ã¤ sche
ĠP ick
ĠG T
ĠK leine
ach ter
Ġth ick
ĠJ am
ĠJ Ã¼n
Ġpro min
Ġ} ;
ĠVer z
ial en
ĠY es
ĠMar s
pf lanzen
Ġtr ial
Ġche ese
ilit ation
hol der
ĠSen ioren
herr schaft
gebie ts
Ġdep th
ĠProm otion
ĠHir sch
ĠDoug las
L ab
M any
al in
ĠK ann
ĠK lin
se kretÃ¤r
me chan
ĠGe or
Ġ0 8
Ge org
Ġem otional
ĠAss istent
Ġbef est
Ġdan ger
ĠHers tell
valid ate
Ġmanufact urers
ĠSa al
ĠGi ov
ĠFÃ¤h igkeiten
Ġvalu able
P red
V ID
e ist
k ommun
ar isch
Ġp ure
Ġp ink
ĠE cke
ĠH enn
ul er
if ff
Ġge pf
ĠHe ide
cl uding
sh ow
Ã¤ch te
ĠMan uel
Ġsol cher
ĠReich es
fre ien
iller ie
ĠÃ¤l tere
ĠColl ins
Ġtal ent
shaus en
Ġmagaz ine
j son
y c
Ġ Ø
in v
Ġt om
an on
ĠS ed
ĠS amen
im i
ĠG on
ĠE sper
Ġum f
ĠkÃ¶n ig
gesch icht
Ġsho es
Ġdire kten
Ġpres ents
ĠÃĸsterreich ischen
Ġresp ond
Ġask ing
ĠMotor rad
ĠPeters burg
Ġguarante e
ĠKonk urrenz
Ġpersonen bezogen
in stitut
he ll
le utnant
ĠB uffer
ĠM iami
Ġh Ã¤ngt
ĠK ub
ra it
ĠW ellen
ĠH inz
Ġge lesen
Ġun w
Ġj ener
ĠÃ¼ber zeugt
lo be
out ube
ĠGr Ã¶ÃŁen
Ġbo at
ende te
ĠAut os
ex ception
ex pected
ĠPl ant
pos es
ĠPra kt
Ġfund ing
ĠSym ph
zust and
t Ã¤
es ents
Ã¼ ft
ĠA uge
ĠM ust
ĠG utsch
ĠW i
ĠW arn
ĠN SDAP
ier endes
ĠSt ick
la p
ĠRe par
ĠEr ster
Ġex ternal
19 18
etz ungen
ital ien
Ġfl ower
Ġâ ļŃ
ĠVe gas
ĠKu gel
Ġple asure
ĠAdmin istration
ĠKapit Ã¤n
Ġabger issen
Ġurkund lich
A ber
c ur
le un
Ġf Ã¶rdern
ĠA cker
ent h
ĠE C
Ġth reat
ĠSt ars
all eng
ĠSch reiben
ĠVer k
ĠDe kor
ign et
ĠPr ince
Ġmus ical
Ġmed icine
ĠNatur al
Ġgewann en
pre uÃŁen
Ġcelebr ate
Ġmount ain
Ġverg essen
Ġverwende ten
Schweiz er
ĠNap ole
ï¼ Į
F ree
S w
a ire
w aren
or able
Ġin vent
Ġm ur
us ing
Ġan sch
Ġp in
ĠE arl
ĠAn zeige
ĠSp uren
Ġ18 74
Ġsh ift
ĠHe ck
ĠMar x
Ġfe hlt
ĠUS D
man ager
gesch Ã¼tz
Ġ13 0
Class Name
Ġfre ige
Ġgef angen
film ung
Ġrelat ive
Ġappear ed
loc al
d ig
Ġd ick
Ġb reiten
ĠM etz
ĠP L
sch ung
ow o
ok o
Ġsp ending
Ġen han
Ġqu er
pro zess
ble iben
fin ed
Ġhier fÃ¼r
Ġsol o
ĠRes ponse
fa iled
Ġmass age
Ġnord Ã¶stlich
Ġbeein druck
Ġstellvertreten der
Jan uar
ĠKÃ¼nst lern
6 00
M ath
c enter
s yn
un ters
ĠS ingles
ing ers
ĠM iller
Ġp il
ĠĠĠĠĠĠĠĠ ĠĠĠ
ier mark
Ġis rael
ĠSch Ã¤
Ġr ene
Ġle isten
19 70
Ġunter scheidet
ph abet
Ġbeg ins
ĠFr Ã¼hl
ĠBet on
Or ts
Ġlo op
Ġleben s
Ġverkauf en
Ġintrodu ction
Ġprakt isch
liefer ung
Ve ctor
Nov ember
ĠTi rol
A ustr
O F
d oc
n ten
ĠG uts
Ġbe wegen
Ġk irch
we gt
ĠNe uer
fol gs
Ġlie ben
imm y
Ġcl imate
Ġra us
Ġgesch ieht
ĠSk la
ĠKe vin
Ġinform iert
Ã¼ste t
ĠÃ¼b lich
ĠÃ¤uÃŁer st
ĠModer ne
Ġf oll
ĠF abrik
ĠW Ã¶rter
ĠR ent
ĠÃ¼ber zeugen
ĠGr iff
chn ungs
ren ce
lieÃŁ en
ĠAd vent
ict ions
ĠJul ia
Ġ186 8
ĠRed aktion
Ġerk enn
ĠPsych ologie
ĠHu bert
ĠGit arr
M ost
b Ã¤
g nung
} .
ro hr
ĠD ass
ĠG y
ĠC ell
ber atung
Ġst imm
Ġhe ft
Ġch osen
Ġgen annte
tra ck
Ġfe hlen
ĠOber flÃ¤chen
ĠEurop Ã¤ische
Ġkon k
ĠBen jamin
ĠMÃ¤n nern
ĠkÃ¶nn t
ĠDisk ussion
Ġausgew Ã¤hlt
Ġschwed ischen
Ġdepend ing
Ġenth us
Ġfavour ite
B Ã¼
H am
b ur
c ue
v org
Ġt ur
Ġt ub
Ġm ent
Ã¤ hne
ĠE va
ĠR ies
ĠL ith
ce pted
iel l
ste chn
ĠEin kommen
Ġvor genommen
ian ischen
ĠCh annel
ĠPr ior
cl ing
Ġgen auso
ĠfÃ¼hr enden
Ġmach ines
ĠLin den
Ġsign ature
Ġgrow n
Ã¨ s
scheid ung
Ġerm or
Ġindividu elle
ĠLim ited
Ġged acht
Ġcy cle
ĠWahr heit
ĠSing ap
ĠBesatz ungs
vorsitzen der
E E
r ent
z it
re lated
he ben
Ġe gal
om on
ĠK orn
ĠH ope
ĠL isten
ĠL angen
ĠZ it
pp ers
Ġne ur
icht ig
ĠAn sicht
ĠBe wertung
ĠEin stellung
fahr zeuge
ĠQu ell
Ġsupp lement
ĠHaus halts
ĠKont akte
pre c
Ġident ity
emin ar
Ġpurch ased
Ġfeature d
ĠVerd ienste
Ġgraph ics
Ġwirtschaft lichen
ĠRol and
(...) ");
M C
P op
m Ã¤nn
t al
z ut
or ch
Ġp oll
ig i
ĠP aderborn
av ax
Ġat tributes
ĠPro tocolMarshaller
gel Ã¤nde
ĠAb out
fe ature
Ġsh ut
rÃ¤ um
Ġges prochen
ĠOb ama
Ġra il
Ġbre ath
Ġ% .
Ġhost ing
Ġappoint ment
M al
T emp
b ring
Ġa men
ĠD I
Ġy ellow
ou is
Ġle gt
Ġzum eist
Ġbut ter
Ġ7 4
ĠX X
ĠGew inner
ĠDorf es
ĠBischof s
ĠGott fried
Ġarchite cture
d ays
or o
ĠS ony
Ġm as
ĠB eth
Ġn ack
ĠD etail
ĠF itness
ĠK h
ĠK ader
ĠH ind
ber uf
Ġl ifestyle
ĠZ auber
ĠZ ubehÃ¶r
Ġver an
ap shot
Ġso fern
St ation
ler in
fe ier
ĠBr ian
Ġbest anden
ĠBet reiber
bl ings
ĠRes te
ĠBra u
Ġsupport ing
Mod ule
ĠGeneral major
ĠTre ff
ĠTre ffer
Ġredu ziert
Ġve ter
ĠHoff nung
Ġinstru ctions
Ġprin ted
S H
V ideo
h Ã¤usern
r ors
Ġv ote
st rÃ¤ger
ĠH ed
Ġg rad
Ġk Ã¼nst
Ġre pl
Ġge Ã¶ffnet
Ġsich ern
Ġex cept
Ġ6 7
Ġtra il
Ġstand s
Ġgel ingt
esse e
Ġappro ved
198 7
ĠHall owe
Ġintegr ated
ĠStat istik
vier tel
ĠKonfl ikt
ĠOrch estra
J o
g f
u ages
Ġa ben
Ġin tended
Ã¼ pf
ĠA ur
ol in
ĠP RO
im on
ĠF uchs
iv ia
ers te
Ġsch eiterte
Ġor th
ĠMar shall
ĠPr ice
ĠEx pl
mat ik
Ġdisc ount
Ġredu z
Ġruss ischer
Ġaw areness
lieder ung
inu ier
Ignore Case
Frie drich
er ie
Ġh aus
Ġh alt
ĠP ont
ĠT ry
ic z
ĠK abel
sch Ã¤d
den ken
if iers
la de
ĠSch aff
ĠEr lebnis
Ġ18 73
ĠVor teile
tes te
ĠAs ian
ĠSk i
wend ungs
ĠÃĦ hn
Ġmar riage
ĠFil men
ĠIde as
zus etzen
famil ien
ĠExp edition
ĠAnth ony
Ġconsum ers
ĠHaw ai
Ġadvent ure
Ġausreich end
endo ktor
Ġs ac
ge h
ĠA cht
Ġv ital
ĠH ung
ach ment
ab len
ĠAn trieb
ug oslaw
In formation
ĠCh ile
ens burg
ep ing
Ġverb esser
Ġmod ule
ĠMot to
Ã¼l le
ĠEinwohner zahl
Ġern annte
Ġrepr esents
ĠAuss age
Ġpartners hip
ĠZun Ã¤chst
ĠVerstÃ¤nd nis
B ern
I tems
r ischen
or um
ĠS ac
ĠD ocument
Ġbe wohn
ĠJ Ã¶rg
Ġfor ec
ĠEr klÃ¤rung
iz ist
ĠSp er
Ġ18 40
ĠAus sch
20 21
ĠBer ater
ivers ary
ĠFre unden
Res ults
Ġresearch ers
ĠDienst leistungen
Ġsuccess fully
Ġless ons
Wer degang
ĠKind heit
ĠIr land
ĠMel bourne
Ġorigin ally
ĠEreign isse
Dec imal
D etails
H ar
K e
g ert
Ä ħ
ĠD ienste
ĠD NA
ĠK ro
ĠR ain
ul iert
os k
sp unkt
ine a
Ġab hÃ¤ng
Ġ18 76
Ġ5 000
ĠAuf l
Ġgesch lagen
Ġger inge
Ġke eps
Ġern st
Ġeurop Ã¤ische
ĠSilber medaille
ĠExt ra
ĠFert ig
ĠDÃ¶r fer
telligen ce
W eiter
W rite
m Ã¶glich
ĠP ad
ĠF inger
ĠIn tel
Ġat ten
Ġ18 72
ĠBer gen
ĠIt aly
ĠKon stanz
ĠFre md
gend es
wohn ung
Ġmon at
Ġoffen bar
Ġspeziel len
Ġtrain ed
ĠLat ein
ĠPfer d
Ġumfang reiche
ĠSchlaf zimmer
ĠPfar rei
B ER
K ar
g ard
s ql
Ġw et
Ġw Ã¤chst
ĠD ave
ĠE ver
sch te
ĠH ang
ĠL an
Ġdes c
ĠZ ert
Ġr are
qu alif
ru ption
Ġor ders
ip er
ĠDe ath
Ġent f
du ate
Sch ule
Ġger iet
iven ess
Ġbre ite
ĠSpe ed
ĠWest falen
ĠPart ners
Ġstar tet
Ġequ ipped
ĠPra ct
Ġkosten lose
ĠTown ship
Ġign ore
ĠGreg or
O pt
a ine
in de
Ġm Ã¤cht
sp itze
ĠSie ge
ĠSie gen
Ġent decken
Ġad s
als o
Ġ9 6
ĠFor ts
lag ert
ĠGeb Ã¤udes
ĠChrist us
hel ms
ĠAt trib
Ġtro uble
ĠAndre a
ĠFrei will
ĠTemperatur en
ĠHeer es
ĠBoch um
FOL LOW
F ind
M Ã¶
M apper
T I
t l
Ã¼ ÃŁen
ing ly
ĠD R
Ġein gebaut
ĠN AS
ne ys
og ramm
ens wert
pro ject
Con ne
Ġel imin
ĠMal erei
alle utnant
Ġschw arze
Ġtrans ition
werb ung
Ġliegen den
Ġconf idence
omet imes
wal de
Ġult imate
ĠÄ Į
ĠNR W
Ġinstr ument
Ġverme iden
Ġs essions
ĠB ry
ent ity
ĠR out
Ġbe it
ĠN an
Ġver lei
sp reis
ĠRe formation
Ã¤n zer
Ġch airs
Ġ18 15
Ġ18 77
Ġ8 4
ator in
ĠMor itz
ĠHar ald
Ġabsol ut
ĠZe ug
Ġorgan ic
grenz ung
ĠerfÃ¼ llen
ĠNaturschutz gebiet
******** ********
ixt ure
ĠHallowe en
D O
F ont
J oin
N et
N icht
W ell
o use
Ġb at
Ġf u
ĠP lÃ¤ne
ĠF unction
ann y
Ġj ung
Ġex port
Ã¶r te
Ġour selves
Ġbest immen
Ġ' "
ĠCon nect
Ġdel la
Ġ> >
ĠKn ochen
ĠFranz osen
ournal ist
ĠTyp s
ĊĠĠĠĠĠĠĠĠĠĠĠĠĠĠĠĠĠĠĠĠĠĠĠĠĠĠĠĠĠĠĠĠ ĠĠĠĠĠĠĠ
ĠKandid aten
Ġerlang te
ĠBronzemed aille
H C
Ã ¯
he iz
Ġ1 15
ĠG ord
Ġz ip
Ġg ros
ĠC irc
Ġk rÃ¤ft
ou te
ĠEin er
ĠWe iler
Ġlie ber
hol ung
ĠWohn zimmer
Ġbef anden
Ġequ al
LO C
bu ilder
isc ons
ĠWass ers
Ġsuppl ies
alleng ing
l abel
ĠS imple
Ġv ary
ĠB enz
Ġc aught
ĠF okus
ĠE sp
ĠC ass
ĠC hen
iel en
Ġso fa
off izier
Ġsupp orts
Ġbr ill
fra uen
ĠWir d
ush ing
Ġcare fully
trÃ¤ gen
Ġinterest s
Ġair port
Ġlov es
Ġindividu ell
Pol y
Ass ign
ĠAth en
ĠSat ell
SI ZE
ĠKonzer te
Ġwom it
Entw ick
Ġf ro
ier bar
la in
ĠU C
ĠNe xt
ĠAb stract
Ġmehr mals
Ġhand ler
Ġpass ende
Ġem ph
ĠDo zent
Welt meisterschaften
Ġexec utive
Ġausgest ra
Ġschedule d
ĠGirl s
ĠErinner ung
ĠJahrzehn ten
Wind ow
Kirchen gebÃ¤ude
ĠArrondiss ement
G A
in th
he ater
Ã¤ ts
ĠP akistan
ĠE valu
and in
ab schnitt
ĠZ DF
Ġr an
ĠTe uf
geb oren
ĠMit be
Ġhand elte
rol og
ĠNord amerika
Ġgef Ã¶rdert
Ġsk ip
DE FAULT
Ġbede uten
Ġbem erk
Ġkanad ischer
Jul i
s end
s rc
al is
ĠS ke
Ġin frastructure
ĠA ge
ĠK ansas
ĠC ount
ĠN y
ere cht
Ġaus geschlossen
Ġhe iÃŁen
ĠVor lage
amil ton
ĠGesch enk
ank a
Ġpre v
ĠAd ams
Ġpolit isch
ĠHar vard
wor ld
Ġbro ken
ĠSol o
Fl ug
Oper ator
ĠlÃ¶ ste
ĠRaj on
W A
a o
d orfer
t oken
Ġs ides
ĠS ax
Ġv it
ĠK av
ĠW itt
Ġat om
Ġgew Ã¶hn
Ġspe zif
leg ation
ellen ce
Ġfound ed
ane ben
Ġstell ten
Ġconc entr
frei heit
entry Set
Ġregular ly
ĠberÃ¼cksicht igt
supp orted
er ung
Ġf lav
ĠF lex
ĠF REE
ĠH Ã¤nde
ĠH ills
Ġl yr
Ġse quence
per iode
ĠOr th
Ġra ise
Ġkind s
ĠHT ML
ĠnÃ¶t ig
ĠMitarbeit ern
N C
R ender
j ahre
ic ts
ĠW itten
Ġbe her
Ã¶ ger
Ġr ise
ĠIm mer
Pro jekt
ĠPar ks
Le x
ĠTra ck
ĠOber liga
ĠKl ang
ĠProdu kten
ĠVers orgung
Ġmot ion
Ġklass ische
ĠbeschÃ¤ft igte
ĠFeder al
Ġmeas ures
M ont
er al
ĠM E
ĠV iz
ĠJ Ã¼d
Ġre venue
ess a
Ġpro xy
Ġvor der
row s
Ġ9 8
Ġrec orded
)) )
gl ing
ĠWh ere
ĠĊĠĊ ĠĊĠĊ
Ġcal endar
ĠZug riff
Ġpur poses
gere chnet
ĠMeer es
ĠVerl Ã¤ngerung
D am
Ġ ~
Ġan cient
ol ine
Ã¶ te
gr at
Ġ" );
Ġ7 8
Ġber u
ĠSte el
ĠBundes land
Ġgut es
Ġcolle cted
Ġgem Ã¼t
Sh op
iol oge
Ġfour th
ĠnatÃ¼r liche
rim in
Ġdeb Ã¼t
Ġschl ug
Ġhund ert
ĠVize prÃ¤sident
Mot or
Ġinfluen ce
leucht ung
A uÃŁer
s Ã¤tze
Ã ī
as sten
ĠB ein
ĠD IN
Ġ( _
im age
ĠG lass
Ġfor um
af eln
Ġr ender
ap olis
ĠWe is
con f
Ġcall back
Ġsw imming
ential s
Ġtest s
Ġzwe ier
ĠZeich nungen
ĠEt appe
Ġworksh op
A g
G ET
L AN
W M
W asser
b uf
c am
Ġt icket
ĠB apt
ĠB ibliothe
ĠM ul
Ġbe ar
Ġent re
ĠBer at
ĠSo ft
res te
ĠKon text
ĠAd dition
Ġ186 4
Ġ186 6
ĠIns besondere
Ġturn s
UN D
ĠverlÃ¤ng ert
S ER
U C
u is
v ements
ĠS ession
ĠB og
ĠAl i
ĠAus stellungen
Ġset up
Ġfound ation
ĠCont act
Ġerr ors
ĠRuss ia
Ġkont akt
Ġaffe ct
Ġexpla in
ĠElect ric
ĠBesatz ung
ĠInner en
Disk ografie
c ell
Ġa gencies
Ġv olle
ĠM az
ĠD M
ĠP lattform
um ul
and el
ĠIn haber
ag entur
ĠSp ark
Ġad j
Ġreturn s
rÃ¤ gen
tag on
Ġgra u
ĠSal v
ĠParis er
Ġ186 5
Ġdefin ition
ĠRu der
leist ungs
UN G
Ġemploy ee
lÃ¤uf e
Ġdescr ibe
Ġmil k
Ġopin ion
Mart in
B und
I hr
P ay
S chn
j ack
Î ¹
Ġs hr
Ġdes selben
ver letz
Ġnoch mals
iger ung
ĠSpiel klasse
hand lungs
Ġdr ugs
Ġerw eiterte
weiz er
Ġben ch
ĠKommun ikations
ĠHen ri
Ġparticip ants
ĠÃ¶ k
Sec urity
ĠAsp ekte
ĠAndr Ã©
ĠSchwier igkeiten
ĠFranÃ§ ois
S il
á »
Ġs ad
ĠM asse
ĠF reis
ĠW inkel
ĠR au
ber ater
Ġk onserv
Ġge kauft
Ġdes pite
id met
ĠSch Ã¤den
Ġver grÃ¶ÃŁ
Ġne arby
Ġun less
art a
ĠEr gÃ¤nz
lin ed
Ġme at
je cted
ian z
ĠMar io
ĠVor bereitung
az itÃ¤t
ĠUnter richts
Ġapp end
De zember
Ġwieder holt
entr um
Ġpl anned
ĠBot an
prof essor
Ġfertig gestellt
Ġcloth ing
Ġsus p
Ter m
ĠRett ungs
! âĢľ
S ol
g ments
m aking
ĠP unk
ĠI ron
ĠC ab
ĠRe prÃ¤sentanten
Ġj oy
ĠVer y
ĠAr me
Ġ" '
ĠDe fault
ahl en
ond itions
Ġ8 9
Ġ14 0
ĠPf licht
ĠMed icine
ĠDurch fÃ¼hrung
cr ib
Ġhouse hold
Ġoffen e
Ġpubl ish
ĠBrun nen
ĠEvangel ischen
leis tet
Fol der
ĠRis iko
iscons in
S eite
Ġw alls
ĠG ieÃŁen
Ġk ing
Ġge laden
Ġhe aring
Ġch allenging
Ġum stritten
los igkeit
Ġbet reibt
Ġ8 7
let scher
ari at
mÃ¤ cht
ĠFest ung
ĠKreis es
Ġoper ate
Ã¨ re
ĠPosition en
Ġged reht
ĠSpr ung
ĠWeib chen
B R
z ed
or ders
Ġb an
ĠP A
ĠG or
ir al
ĠJ ag
ru p
ok ing
19 14
upp e
bo y
ĠHand y
Ġreal ize
Ġzahl en
Ġhistor ic
Ġkomp lette
zy kl
Ġmag net
ĠKrieg sende
ĠRein hard
Ġstamm te
ĠÃ¼bern immt
ĠLux emburg
ĠEigent Ã¼mer
Ġbegrenz t
f unction
j ar
k ommt
s u
s Ã¤nger
ĠS ysteme
ĠS amsung
ĠA venue
Ġan grenzen
st ift
ru gen
enn zeichnet
ĠAb sol
ize i
An fang
hand elt
ĠSer ge
OR D
Ġchar ges
haf tet
itu ationen
198 6
ify ing
Ġpoln ische
wir ken
n Ã¼tz
Ġt ube
Ġt iny
ar ischer
ĠB orn
Ġp od
ĠT ask
ĠF ont
Ġz ero
Ġer leich
ĠZ Ã¼ge
qu ar
ĠBe hinder
ĠPro perties
19 30
ĠAb wehr
Ġste igt
Ġ8 2
ĠSÃ¼d afrika
Ġsk ill
Cl ick
ĠKirchen gemeinde
Ġsignificant ly
Ġimplement ation
en ke
st unden
ĠP ier
ĠR och
Ġg al
Ġg ross
ul ous
gen den
ad i
Ġcon sequ
ĠThe atre
Ġch ocolate
Ġlie fer
bar ung
inn ers
De p
leg ate
ĠArbeit sk
ĠHo uston
Ġpl ate
Ġbl ow
198 4
produ kte
Ġdest roy
Ġbedroom s
angeb ote
ĠOpt im
Ġreve aled
Ġbess ere
ĠRuh estand
H il
Ġd ental
Ġb ags
ge mÃ¤ÃŁ
Ġin ch
ion ier
ĠP az
Ġg ifts
ĠJ ury
Ġauf s
Ġpro spe
Ġ18 30
Ġsie gte
oc o
19 38
ĠAb lauf
ĠPh oto
Ġger inger
AR D
Ġur i
Ġfest gestellt
ĠMy th
ĠauÃŁer gewÃ¶hn
ĠZe aland
equals IgnoreCase
CO L
Ġinnov ation
fÃ¶rm igen
ĠmÃ¶ gliche
ĠSoph ie
H R
P AT
k ette
as a
us ten
Ġv ollen
Ġn erv
ĠF ollow
ĠF ellow
ĠK ay
ĠL aus
ĠDie trich
19 20
land schaft
ĠMo on
Ġpost ing
bed ded
fel de
ĠIde al
Ġcert ified
ĠComm and
Ġinteress iert
ĠStruktur en
ĠSqu are
ĠMitt ler
Hinter grund
D okument
n isch
Ġd t
ar ation
Ã¤ p
ĠG reif
ĠE cht
Ġg un
Ġbe zÃ¼glich
ber ge
Ġauf merksam
ĠSch u
19 39
ĠAuf klÃ¤rung
ĠFe ier
other apie
Ð° Ð½
Ġexpect ations
ĠKob lenz
B rite
F ach
m isch
Ġt ap
Ã¤ le
ĠM ans
Ġh idden
ĠK Ã¼r
ĠW ettbe
ĠC ott
Ġauf w
Ġse qu
me ier
ĠTe en
az y
ett i
ateg orie
Ġdisc ip
Ġiss ued
Ġsuper ior
Ġauth ors
Ġconsider ing
ĠTest ament
Ġbeob achtet
gewand elt
S al
U uid
f ound
w ein
Ġs alt
ent z
ĠG ard
ĠW Ã¤l
em pf
ĠL iv
ĠL ob
Ġk ompon
ĠSt att
ak ten
Ġwar rant
ĠBe an
Ġso le
Ġsp l
Ġunter gebracht
Ġqu otes
amen te
ĠFre il
Ġange passt
Ġsol ar
[] )
ĠÃĦ m
Ġzuge lassen
Ġaffe cted
ĠAtlant a
Cons umer
S n
m utter
en ters
Ġt um
ĠB arb
ĠD est
Ġc orn
ĠV ikt
ĠIn format
Ġr iver
ĠEr be
Ġcon fl
ĠAr g
Ġ" +
ĠOn tario
Ġletz tlich
ĠWer bung
ĠPart ien
Ġatt ached
Ġpay ing
Ġmain ly
ĠHÃ¶he punkt
col or
ĠMill imeter
ĠÃ¼b lichen
Ġtw ice
Ġeffect ively
Ġengag ierte
ĠstÃ¤dt ischen
C ounter
F ail
Ġin folge
Ġm un
ĠD ein
Ġp ill
ĠR up
Ġl aden
ill es
Ã¼n en
Ġme al
ĠEin fach
ĠAl ice
Ġ7 1
ins ichtlich
Class Loader
Ġhealth care
Reg iment
Ġtyp ical
Not ification
Ġstrateg ic
Ġsorg te
imens ions
w irt
an ing
Ġm ature
ĠM es
ĠM ong
Ġp un
Ġc able
ĠP osten
ĠL ov
Ġl as
Ġver p
ĠSp ar
ĠAr ena
Ġbis schen
berg s
ĠTr ust
Ġdr amat
Ġfest ival
Sh ort
Ġprogram me
ĠZwe ig
ĠKompon enten
Ġparticip ate
ĠStan ley
ĠVerteid igungs
ĠMaxim ilian
Ġdenk mal
ĠplÃ¶tz lich
Ġatmosph ere
% .
F R
L uft
S onst
h aut
ar gs
ge legen
ĠB ug
ĠM innesota
ĠL P
ĠN O
ĠV illage
Ġge weiht
Ġst abil
Ġcon ver
Ġex ists
oc ate
omm ission
ĠCh i
ong s
Ġins ert
yp en
ĠQu ality
ĠHaupt rolle
ĠUr sprung
akes pe
Ġevent ually
plan ung
Ġident ified
ĠMult ic
ĠSied lungs
Ġerziel en
ĠPrinz essin
fir ma
INST ANCE
Ġd auert
re ll
Ġm ic
ĠB BC
st es
st Ã¤rke
ĠI C
Ġz ogen
Ġch apter
ĠSpiel s
ĠBes tellung
stag s
figur en
loy d
ĠHistor ic
IL L
ĠHerzog tum
iro ler
Ġpick ed
Ġvari able
ĠÃĦnder ung
Ġuntersch rieb
Ġannot ation
ĠdebÃ¼t ierte
f angen
s cription
er ed
ĠB auch
ĠF ly
ĠE state
ĠC ole
ĠAn bau
ick y
ĠÃ ©
Ġqu ote
imm ern
sk ar
ĠKinder garten
ias ieger
Ġbra un
yd ra
ĠLehr stuhl
gef angen
Ġfort an
ĠEmp fehl
Ġhold s
bas is
Final e
Ġsympt oms
. ",
F eld
L aut
v ision
Ġv ib
ĠB uk
Ġp atch
ĠW ende
ĠW iesen
ĠH ob
ĠL orenz
ĠC in
ĠC urt
ab a
ĠSt aub
Ġ7 3
ĠzurÃ¼ck gegeben
Ġfre edom
Ġ186 2
Ġcr iminal
ĠAnfang s
ĠFer r
Ġkont inuier
ĠJac ques
abil itÃ¤t
Wel come
Ġgarant iert
Ġbegeister t
Bag Constraints
a er
c p
p ed
en cy
Ġb Ã¼rger
Ġp ussy
Ġc riteria
Ġh ole
ic ient
ĠK ick
ed ing
Ġg am
ĠC ivil
ĠJ ens
Ġsch la
enn is
ĠCh at
De lete
ĠGem Ã¼se
Ġgu id
Ġserv es
ĠCamp us
Ġverste ht
ĠCons ult
Ġbrow ser
Ġsowjet ischen
VerÃ¶ffentlich ungen
Ġbon us
ĠWupp ertal
c us
in ent
Ġf ell
Ġin tel
ĠK alender
ĠL ack
ĠBe fore
ac ted
St re
Ex pr
ĠVor stellungen
ĠTra de
ĠOrt schaften
Ġkon stru
dienst kreuz
ĠTour isten
Inter val
Ġconf irm
ĠViel falt
Ġbege g
ĠAf ghan
Ġstaat lichen
Ġproduz ierte
ĠFant asy
ĠBuild ing
Digital isat
opÃ¤d ie
p iegel
Ġh ire
ol ith
sch Ã¼tzen
ĠH ass
Ġg gf
ĠâĢ Ļ
we be
sp rechen
ĠLe h
ĠMar co
Ã¤hr en
Ġ0 6
pro b
Ġdire kte
sg ruppe
bed arf
ĠÃĸsterreich s
ĠHil f
198 3
ĠText il
ĠIr ish
Dis play
ĠÃľberg ang
Ġimpress ive
ĠBeteil igung
Ehr ungen
A K
m il
t as
Ġf f
Ġe ast
ĠG umm
ĠH af
ĠC er
Ġge arbeitet
Ġr ichtet
Ġus ual
ĠBr Ã¼cken
org ungs
ĠStand ards
ĠBas il
Ġfac ing
ĠMa ÃŁe
ĠLat in
Ġlic ens
Ġcollabor ation
ĠðŁ ĺ
ĠeigenstÃ¤nd ige
F ranzÃ¶s
S imple
Ġw ann
Ġv ierte
Ġv illa
ĠB ah
ĠD al
ĠD aily
ĠE astern
ir ms
ĠDie go
ĠAl uminium
ĠAb stieg
Ġsh ops
ĠOber Ã¶sterreich
Ġtechn ique
ĠFin ancial
IC E
unt ing
198 8
ĠGrÃ¼n de
196 8
Ġconc ert
ĠKol onial
ĠWeiter hin
ĠunterstÃ¼tz te
Ġvalid ate
bra un
Ġhon or
ĠVarian ten
ĠTok io
ĠAufent halt
m ill
Ð ³
er ial
Ġd icht
ĠS i
ĠB usch
Ġc ounty
am ar
Ġr id
ĠRe ife
Ġwh om
Ġcomp lic
ĠPr Ã¤sent
De penden
ĠQu ery
Ġtr ends
Ġvis ited
iges etzt
Ġsign al
ĠDu isburg
Ġperfe kte
trÃ¤ glich
Ġhol te
Ġinteress ant
Ed ge
Are a
Ġnut rit
Ġproced ures
k andid
Ġw ies
ĠS D
ĠA y
Ġc arbon
ol stadt
ĠH Ã¶l
ist o
ct ic
ĠSt ationen
est on
ow itz
end el
ĠEin ladung
ĠAus stellungs
sh ut
ĠFl Ã¼ss
min a
sk on
ĠUnivers al
Be k
Ġseit her
ĠMan ufact
ĠAll gemeine
ĠHand lungs
Aus gabe
Ġmo ist
ĠWohn haus
ĠBi ografie
ĠHerr scher
Sh ow
aktion en
ĠMas ters
Ġele ction
Exec utor
urren cy
ĠMerk male
Ġcabin ets
Ġkauf te
Ġproced ure
Ð¸Ñ ĩ
L INE
S en
n el
n ic
ĠS itze
ĠS ultan
ĠB ibel
Ġan al
ĠM Ã¼hlen
ĠT ap
ĠE ro
ĠK ne
ĠW ick
ver halten
Ġver zeichnet
ag an
Ġas sets
Ġro ten
ĠEl s
Ġeing est
Ġ186 9
ĠIndustr ial
Vor pommern
ĠWissen schafts
Column s
Ġviol ence
izien z
ĠPian ist
V ier
d ner
ĠF la
ic ted
Ġk ommerziel
Ġst im
ver gleich
ĠSch enk
ĠRe b
ĠUn it
ĠAr c
ite e
Ġte lefon
Ġtra ce
)) ))
ĠSpiel ern
schlieÃŁ en
Ġfest ge
ĠWohn ungen
ĠDienst ag
ĊĠĠĠĠ ĊĠĠĠ
Ġattra ctive
ĠAP I
Constra int
Ġeigent lichen
K or
P M
b undes
Ġs ql
at ischen
Ġb ranch
ĠA tem
ĠP s
ĠP est
ĠT auf
ĠN HL
ran che
Ġab wechs
Ã¼n scht
Ġch ief
me yer
ĠAl f
ĠIm per
ĠGeb ir
Ġ12 00
ĠMed ik
Ġstatt dessen
Ġ180 6
fehl er
ĠMiss ouri
ĠverfÃ¼ gte
Ste p
ĠFrÃ¼h stÃ¼ck
fÃ¶rm ige
ĠSter nen
Ġaktuell es
Ġguarante ed
ugu ay
Ġstyl ish
B lack
F T
J a
ĠH altung
Ġk aiser
ĠIn schrift
ĠEr furt
ob i
ĠAus schuss
St orage
elle d
gesch ichten
Ġrec ipes
ĠDies el
ĠTr ennung
Mit tel
arch ie
Ġdel ay
Ġhol z
Ġoft mals
liegen de
hor st
Ġgeplan ten
Dom ain
Ġperman ent
Ġchamp ion
ĠSchÃ¼l ern
g ast
k Ã¤
m ass
Ġt ut
ar ett
ĠB ock
ĠP ho
hr ung
ĠC ome
Ġge druck
ĠO ran
Ġver trieben
qu ality
aus geber
Ġso ul
ĠGe fÃ¼
Ġwo oden
Th anks
Ġprof iles
Ġbil deten
Ġcr ime
Ġ185 8
Ġposition s
ĠHal binsel
sm ith
Pass word
ĠVoraus setzungen
Ġassess ment
ĠMÃ¤r chen
ĠBres lau
Ġentre prene
L ie
O wner
e he
on ed
Ġt ight
Ġb read
ĠW are
Ġg od
ĠC ore
ck te
af ter
Ġsch e
Ġsch ne
ang hai
ast ung
Ġum gewandelt
ĠAl an
Ċĉĉ Ċĉ
Ã¼hr t
Ã¤hr ungs
ĠStadt gebiet
Ġ8 1
iker in
min der
Ġprov en
ĠTr ip
schl Ã¼ssel
Ġbesch loss
Ã¶m m
ĠFranz isk
ĠHow ard
Ðµ Ð½
ĠPrem ium
Med ia
Ġcra zy
nehm ung
ĠThr on
Ġbeeinfl usst
ĠEber hard
Ġcit izens
L ife
U RE
k rÃ¤
Ġo h
am ann
ĠF lan
ĠF res
ĠW asch
ĠC ock
ĠN oten
ĠSt yle
ver d
ĠJahr buch
cl udes
Ġfr isch
con nection
Ġexper iment
ĠDr ive
Ġgest orben
Ġschn elle
AS E
deutsch er
ĠOl denburg
ĠWeiter lesen
ĠDat abase
kor de
wach ung
mir al
ĠLeichtathlet ik
temper atur
Ġehren amt
ĠGiov anni
D ivision
F low
S pr
Ġw inner
ra ut
ĠJ ay
Ġex cess
Ġwe iÃŁe
Ex tra
att ung
ĠPh Ã¤n
Deutsch e
ĠSee le
ĠBoden see
ĠKing dom
Ġdom estic
ĠMisch ung
s ingle
Ġd ent
Ã¼ ten
ro ff
lich ten
Ġden ken
ĠAn wendungen
Ġwe alth
auf lÃ¶sung
Re zeption
ĠZeit schriften
Ġ7 9
ĠGem ark
Ġ16 0
ĠCar los
room s
Pr ice
Option al
ĠSmart phone
Ġfrequ ently
ĠFinn land
Ġmensch lichen
Ġconstant ly
L at
M erk
Ã °
Ï Ħ
Ġb ow
Ġc odes
Ġbe zogen
ĠZ er
ag ram
Ġent ries
Ġvor Ã¼ber
att an
ys ik
ĠAmer icans
Ġcar ried
fa ction
198 5
ĠSchm itz
ĠEhe mann
ĠFlor ian
Ġlink ed
Ġspan ischer
Ġporn o
ĠFass ade
ĠSym pt
ĠJew ish
J azz
R ight
V iele
l och
s inn
u tel
y ou
un ken
ie ge
Ġh all
ĠP ixel
ed el
ĠR ange
Ġge g
est het
ĠZ one
ĠZ iegel
Ġver folgt
qu ir
ĠRe zens
Ġbekannt esten
sicht lich
ĠBad minton
Ġwichtig ste
bÃ¼ ch
Ġlik es
eme ister
TER N
ĠProgram me
ymp ath
Stack Trace
Sow jet
S K
in ity
al teten
Ġb ond
Ġf er
Ġm ask
ra hmen
ĠR as
ĠL ade
Ġbe herr
ein richtungen
Ġr is
ĠBe arbeitung
enn er
Ġman aging
reich es
ĠBer ichte
Ġsub mitted
ĠWor te
kon struktion
ĠKo ordin
Ġentfern en
ĠJournal isten
Ġresource GroupName
Ġmitt lere
IG N
ĠprÃ¤sent ieren
Pl ugin
ĠGemeinder at
D b
F ebru
O h
b ist
c atch
n acht
er d
re volution
ĠF itz
ĠR ic
gen s
ĠSt ol
ĠCh rom
ri or
ĠSchw arzen
urrent en
Ġinv ited
ĠMag net
EL D
rÃ¤n ke
ĠStad ium
ĠRem ote
ĠÃ¤hn liche
prof it
[ /
y an
Ġf unny
ĠA tel
ĠD ame
de f
Ġc ro
Ġc erem
ĠT alk
im ental
ĠL ac
ĠN atÃ¼rlich
Ġk Ã¼mm
op ath
Ã¤t igung
Ġnot iced
Re al
Ġ0 3
Con stant
res ources
ĠKon ferenz
Ġvers ions
ĠPart ie
Ġkon zip
ĠPil ot
ĠWach stum
ĠKomment are
Ã¤rt ner
Ġausgeb ildet
Ġspirit ual
w id
Ġw itness
ge ist
Ġf Ã¼
ĠB ismar
Ġn Ã¤chst
ĠK rÃ¤fte
ĠSch los
sp ann
ĉĉ ĉ
ust ic
ser ien
Ġspe aking
ĠSpiel film
ĠSta ates
Ch ain
Ġverb lieben
Ġange kÃ¼nd
ĠBar th
ĠSer b
kon stru
If c
ival ent
Ġcreat es
ĠJust ice
idel ines
ÅĤ aw
Ġjapan ische
ĠVerteid igung
ĠErwachsen en
Ġforder te
Ġverab schie
E hren
F ootball
S el
n b
o ft
p fe
w enn
in um
ĠS ide
ro vers
et tet
hr ase
ĠR auch
Ġbe gr
ĠAr rays
Ġvor kommen
Ex per
Ex press
old s
Ġste uer
mann schaften
Ġra di
ĠKl ar
Ġem otion
Ġdevelop ers
ĠMo z
ĠPat ent
Ġrest r
ĠÐ ¿
198 1
go ogle
Ġmom ents
Ġgelang te
ĠFreund schaft
Ġwissenschaft licher
ĠErk enntnis
PersÃ¶n lichkeiten
/ -
D istr
P T
t age
Ġa id
ĠB od
st oÃŁ
ĠD y
ĠG lÃ¤
ĠG leis
ĠI ss
Ġy ard
Ġfor ces
Ġaus einander
ĠVer f
get Path
Ġwas h
St a
Ã¤l ter
Ġ8 6
Ã¶l be
ĠStud ios
On ce
Ġ185 5
Ġ185 7
ĠRos a
Ġexception al
ĠfrÃ¼h ere
ĠAN D
Comm on
ĠChallen ge
ĠiP ad
M AT
n ische
z ucht
Å Ľ
Ġb ab
ĠB B
ig or
ĠK openhagen
Ġk ap
ĠIn putStream
19 75
19 71
ĠTe e
Ġte eth
ond o
eng ers
Er zeugt
Ġgra b
Ġherv orge
Ġcapt ure
ĠSum me
Ġinstit utions
cycl op
ĠKurfÃ¼r st
? "
b rechen
s ed
Â §
Ġt ells
le e
ĠB lat
de p
Ġh l
ĠF Ã¤lle
ĠC ON
Ġpro ps
ov o
String Utils
Ġges tern
ron ics
Ġverb inden
ĠChrist opher
str ateg
Ġander erseits
Ã¤us ch
stre ifen
ĠZahl ungs
Ġfac ilit
ĠOper a
sc ale
Ġemploy ment
ĠVe ter
ĠVorsitzen de
ĠBot schaft
Ġanaly t
ĠDist anz
r ia
u ben
Ġd ual
an cing
Ġs oph
Ã¼ g
ĠB E
ĠB uff
ĠD anzig
Ġ1 13
Ġh art
ĠF Ã¤r
ĠF uss
ĠG ift
ra pped
ĠW Ã¼nsche
ĠH au
ĠH arb
ĠJ i
Ġaus zu
tz t
rÃ¤ der
Ġ10 1
ĠKon stantin
Ġsc re
ĠMed aille
Ġben utzen
stÃ¤nd ig
spe zif
ĠGen f
ĠGold medaille
hÃ¶ hung
Ġsil ber
gram me
Ġevangel ische
Ġdeg rees
Down load
Ġagr ic
K ind
N etwork
T or
z ule
Ġe ase
ĠB ret
ĠF DP
ik eln
Ġde cre
Ġunter schieden
ĠTh ree
ĠLand s
ĠMon ument
eiter ten
ffe kt
Ġoffic er
Ġgre w
Rem ote
ti rol
Men u
clude d
Ġeigent liche
ĠHoll and
ĠJoh an
M ein
h lich
k ter
it Ã©
ĠB auten
st age
ĠM aj
ĠSt reich
ver w
ĠIn halts
Ġpro of
Ġor din
Ġat tr
Ġ18 49
19 60
Ġ9 2
Ġ9 3
Ġ9 4
ĠOber bÃ¼rgermeister
buch autor
Ġfile d
verb Ã¤nde
Ġ185 4
ĠÃ¶ff nen
ĠTrans fer
ĠZust immung
ĠWeihn achten
Ġmill ions
Liter al
Ġverhinder t
andin av
B oot
P ark
n ord
un nen
Ġw Ã¤ren
re ff
om aten
ĠW ester
Ġl ift
ĠJ r
Ġge ile
Ġge heim
Ġle iden
ĠDe ep
Ġes cape
19 76
wer ber
man ischen
