#version: 0.2 - Trained by `huggingface/tokenizers`
e r
Ġ Ġ
e n
c h
i n
Ġ d
ĠĠ ĠĠ
i e
u n
s t
a n
e i
o n
e s
Ġ S
a l
t e
s ch
a r
e in
g e
a u
o r
un d
u r
Ã ¼
a t
Ġd er
i t
Ġ w
Ġ s
i ch
e l
Ã ¤
Ġ und
Ġ v
Ġ A
Ġ B
e t
Ġ b
a s
Ġd ie
un g
Ġ D
Ġ i
Ġ 1
Ġ M
Ġ in
e m
Ġ (
Ġ ein
a m
ĠĠĠĠ ĠĠĠĠ
h r
Ġ m
Ġ z
Ġ n
Ġ K
ĠĠ Ġ
Ġ G
Ġ F
o l
d e
t en
Ġ E
Ġ P
t er
Ġ f
Ġ au
l e
i s
g en
t i
d er
Ġ H
Ġ T
Ġ W
Ġ R
Ġ L
i sch
Ã ¶
d en
t r
i l
a ch
b er
â Ģ
u m
Ġ er
Ġ I
u s
o m
r e
Ġv on
an d
Ġ V
Ġ 2
c k
Ġ1 9
Ġ h
r o
u t
Ġ N
Ġ J
l ich
i on
a b
i er
s e
i g
Ġd en
Ã¼ r
Ġ C
i r
Ġ k
Ċ ĠĠĠĠĠĠĠĠ
en t
Ġ ge
ei t
ĠĠĠĠ ĠĠĠ
in g
Ġd es
Ġm it
Ġi m
Ġ g
Ġ an
) ;
Ã Ł
Ġd as
Ġ al
r a
an n
r ei
Ġ2 0
Ġ O
u l
Ġau f
Ġz u
i st
f t
e st
ie l
i k
a d
Ġ t
s en
e b
Ġ Z
Ġv er
ĠS ch
Ġ o
Ġ U
Ġ l
Ġi st
a g
a hr
Ċ ĠĠĠĠĠĠĠ
Ġf Ã¼r
Ġ p
el l
i c
f f
h e
Ġw ur
Ġ =
ĠS t
e h
Ġd em
s p
Ġ {
Ġ âĢ
v er
at ion
isch en
w ei
a h
ich t
ĠI n
i en
ĠV er
Ġau s
e d
ti on
Ġal s
Ġ st
ĉ ĉ
Ġ Ċ
o t
Ġein e
r i
Ġ }
e u
ĠD ie
Ġs ich
o w
m en
e g
Ġwur de
o s
Ã¤ n
er n
Ġ r
Ġ un
al l
Ġb ei
c e
k t
e w
ĠA n
b en
sch a
in d
Ġ c
Ġw ar
s er
ei ch
g er
o ch
ĊĠĠĠĠĠĠĠĠ ĠĠĠ
a p
es ch
h n
o p
) ,
ĠE r
o g
Ġs ein
ĠJ ahr
er t
en d
ung en
Ã¼ n
ei l
Ã¼ ber
i m
u b
u ch
l in
ge t
0 0
u f
e hr
or t
Ġau ch
a te
et z
ur n
Ġw ir
Ġ20 1
( )
es s
ĠS p
scha ft
st er
r ie
isch e
Ġb e
Ġ Ã¼ber
Ġn ach
e ut
l er
st en
Ġ sch
an g
ung s
ur ch
e c
m er
Ġ j
l a
Ġ am
g t
r u
ĠU n
r an
l ie
i d
ĠE in
as s
au s
o d
Ġb is
ar t
Ċ ĠĠĠ
Ġn icht
Ġs ie
n en
âĢ ľ
ĠA r
Ġz ur
eut sch
et urn
âĢ ĵ
Ġ20 0
ol l
Ġ a
Ġ1 8
i z
er s
ĠS tr
Ġw er
Ã¶ r
1 9
ĠA l
I n
te l
Ġz um
Ã¤ t
u g
ĠâĢ ŀ
Â ł
e x
Ġ 3
e ch
Ġ um
Ġein er
q u
Ġwer den
Ġ es
p e
ch en
t s
Ġv or
Ġw ie
ĠS ie
ĠP ro
i v
Ċ ĉĉ
a k
i b
am e
Ã¶ n
Ġh at
z en
D ie
Ġun ter
st ell
Ġwir d
h l
Ã¤ r
Ġd urch
Ġ "
ĠâĢ ĵ
ĊĠĠĠĠĠĠĠĠ ĠĠĠĠĠĠĠĠ
ge l
Ġi f
u e
Ġ ab
or d
ter n
h al
Ġo der
or m
i gen
Ġs ind
en n
ĠE n
au f
Ġi hr
Ġ ent
Ã¼ ck
a ge
ul l
h er
k s
) .
Ġein em
ĊĠĠĠĠĠĠĠĠ ĠĠĠĠĠĠĠ
e p
te t
ch e
isch er
l o
eb en
Ġ /
ar b
ĠB er
g r
Ġ tr
ge b
st e
p tion
Ġein en
el t
Ġ re
ei ter
lich en
ĠM it
ier t
ah l
Ġ Ã
er k
ur g
Ã¼ hr
Ġ19 9
u d
ĠD er
Ġ -
n er
Ċ ĉ
ub l
o de
us s
il d
p r
p l
E x
o k
l and
ti g
u st
e k
( );
at z
il l
e f
u p
p ar
sp iel
i ck
S tr
r it
ĠG r
i a
o b
ĠA us
ĠA b
i ge
h en
ad t
ĠO r
ar d
rei ch
el n
o f
r au
Ġn ew
Ġs p
lich e
Ġdas s
in z
e z
ĠM a
i f
o hn
at ur
p f
wei se
om m
ei ten
e y
ĠA uf
a v
Ġr eturn
g es
Ġn ull
ce ption
in al
a y
Ġ 4
ĠC h
2 0
i al
o v
1 8
t h
a st
ĠM ar
S t
s s
Ã¤ l
an z
ĠĠĠĠ Ġ
a c
ein e
u ÃŁ
Ġt he
it z
Ã¤ hr
i p
Ġ/ /
ĠN ach
Ġ19 8
ab en
Ġ +
r Ã¤
m al
Ġz wei
ĠL and
rei s
ĠD as
l en
et er
at h
an t
Ġs o
b urg
ubl ic
ĠV or
at en
m e
Ġo f
l ass
Ex ception
or en
on n
ĠI m
te m
eit s
. .
al t
ver s
Ġ 5
o ur
p t
ĠH er
k en
Ċ ĠĠĠĠĠ
y pe
p h
b j
o c
a ck
ro ÃŁ
ec t
e v
ich te
Ġ19 7
am m
Ġ 0
p er
in e
ul t
Ġn ur
Ġn eu
Ġb est
Str ing
om p
f ol
( "
h t
Ġn och
Ġs ow
Ġm ehr
on t
ĠF l
ber g
i le
Ġd eutsch
ĠStr ing
f l
Ġ( *
Ġwur den
en s
at t
b au
der n
ab le
Ġv om
Ġan der
l eich
Ġ19 6
il m
ach t
ĠB r
b ar
ut z
b r
in t
etz t
a f
ation al
sch en
ier te
N ame
s h
it Ã¤t
Ã ©
it ion
ei ster
el d
Ã¤ ch
ĠZ eit
al ue
par am
W eb
Ġz w
r eturn
ei m
Ġa ber
ĠD eutsch
Ġl ie
l em
ah n
i an
ĠP l
om men
k eit
b e
C on
n et
Ġge w
s k
lin ks
p en
el le
ĠA m
n is
a z
E n
ĠSt adt
D er
d u
Web links
Ġdie s
Ġ1 7
it er
ĠG em
ier en
Ġm an
l ei
n e
Ġw eiter
Ġb er
p ublic
d r
i o
un k
Q u
Ġ19 4
ĊĠĠĠĠĠĠĠĠĠĠĠĠĠĠĠĠ ĠĠĠ
ĠT he
Ġ e
Ġp ro
a gen
Ġsow ie
l os
o ck
i re
as e
Ġ 9
l ag
m ann
hr ow
Ġk Ã¶n
f ten
Ġ et
Ġk ann
Ġb es
ĠK on
Ã¼ t
f orm
at er
m it
f er
Ġ &
Ġ19 5
ĠR eg
d em
ti v
Ġ 6
g esch
ei te
a in
en z
as sen
Ã¼ d
f Ã¼hr
l ung
Ġ gen
ar k
e gen
am men
eh en
Ġd ar
ĠF ran
it y
P ro
ff en
ol og
Ã¶ l
Ġge gen
ĠJ o
E inz
ol le
et h
ei gen
Ã¤n d
ie s
i te
ĠSp iel
Ġ le
st an
g lie
sch ie
ol it
Ġd e
ĠG esch
r Ã¼
g lich
et t
h und
p ro
ik er
Ġ1 5
ach weise
T ype
w er
eh men
ĠB ei
ĠGem ein
Ġ el
f ahr
spiel er
Ġsein er
ib t
ĠK l
Einz eln
i vers
o st
Ġ ex
z eich
Einzeln achweise
t eil
ÃŁ e
A n
or f
y m
Ġwie der
er v
Ġs oll
ru p
em ber
und en
is sen
Ġein es
Ġ19 3
l i
lie ÃŁ
a is
ch t
an s
ĠI S
am en
Ġsein e
b all
Ġ1 6
ĠT h
Ġt h
e kt
i um
z eit
ĠUn ter
ĠM us
ie le
Ġ= =
or g
ig er
r es
Ġ ich
ier ung
ann t
Ġh aben
at a
s et
ge ben
ar l
Ã¼n d
ĠB au
hund ert
Ã¶ ff
ie der
Ċ ĊĠĠĠĠĠĠĠ
Ġdie ser
u le
ic e
in gen
us ammen
Ġhat te
Ġg es
b st
S ch
s b
u te
ĠJahr e
ĠG es
in n
Ġ 7
at or
Ġf or
ĠE s
m ein
e ck
ers on
B N
n ah
h eit
sp r
y st
ra f
ĠU m
s el
bj ect
ĠG eb
ell en
ĠIS BN
ik an
al s
Ġ 8
al e
ĠR o
Ġge t
Ġbe f
E r
A l
im m
h Ã¶r
ab e
on g
w a
I m
D as
ĠkÃ¶n nen
A r
ĠT eil
ĠJahr hundert
Ġzw ischen
Ġg r
1 7
iter atur
tr ag
L ist
Ġ !
e an
ĠÃ ľ
ar r
y n
Ġt o
Ġb eg
w ar
ĠJahr en
is s
Ġj e
Ġs el
ĠS o
et en
w ick
) )
g l
in ter
ĠH au
p ut
yst em
U n
ie t
at ch
Ġs eit
Ġt hrow
f all
ĠB l
k l
ĠBer lin
ap p
I N
Ġwar en
Ã¤ hl
iv e
ĠK ir
ei st
am il
ĠEn t
Ġk l
ĠB o
on der
Ġ en
ol d
ad d
ĠU S
1 6
st r
m a
ur op
ĠSt a
Ġb et
Ġj ed
k e
e qu
() .
- -
t or
al d
Ġg roÃŁ
Ġf ol
Ġ Qu
o ff
h m
en er
t o
ĠW elt
" ,
ge w
l es
Ã¶ s
Ġi s
Ġ <
Ġ Y
Ġdie se
Ġ .
z eu
f en
Ġzur Ã¼ck
und es
ĠS te
ĠAr b
on d
Ġr es
or e
Ġer h
or n
er en
m ent
in der
ÃŁ en
am er
Ã¤ ter
Ġ1 0
Ġbe k
" );
R es
ĠĠĠĠĠĠĠĠ ĠĠĠĠĠĠĠĠ
Ġd rei
ĠUn ivers
f or
w erk
ĠL ist
y p
r ich
m us
a il
hal ten
at s
st ra
te x
o ol
ĠI hr
o un
o hl
Ġbei m
ing s
t schaft
in den
ti gen
it t
Ã¤ d
st and
am t
Ġer sten
scha ften
() )
iel t
ĠP h
Ġd ann
ti l
ĠB e
eh t
ĠF ilm
V er
ei d
E R
z e
al en
Ġ1 4
Ġ and
or den
ĠÃľ ber
Ã¤ u
I d
gen d
ĠE x
o id
ĠW ir
Ċĉĉ ĉ
Ġge hÃ¶r
1 0
00 0
Ġh er
n ung
an k
rie g
Ġd am
m in
Ġ1 2
l au
Ġer st
Ġh eu
Ġin t
il der
h aus
Ġ1 3
ex t
Ġth is
as ser
Ã¤hr end
Ġ! =
Ġ :
1 5
Ġw enn
Ġg ibt
ĠC hr
fol g
ĠGemein de
la ge
Ġf inal
b t
m eister
Ġal le
ation en
um ent
w end
z u
glie d
ent lich
el s
Ġ eigen
Ã¶ glich
ĠN eu
hn e
an gen
uÃŁ ball
an der
b ild
r om
ach e
ĠM en
a x
stell t
Ġh ier
r en
Ã¼ l
ster reich
k er
tex t
ĠG er
ist or
Ġg esch
() );
ĠO ber
G eb
Ġk onn
Ġan ge
an ge
o ber
Ġaus ge
de x
und e
f ig
ri v
e am
ĠP ar
Ġ19 2
ĠL eben
ein en
Ġihr e
k tion
as se
Ġjed och
L iteratur
z w
Ġun ser
i ff
v or
ĠSch w
l t
ach en
un st
ĠH and
Ċĉĉ ĉĉ
c tion
Ġv iel
r at
ĠZ u
Ġ ch
âĢ Ļ
ĠL e
m an
O N
y s
ri ft
ĠÃ ĸ
ĠA ug
rie b
C h
ĠB undes
en tr
re u
t on
sch l
ist er
b o
Ġf Ã¼hr
a der
z er
our ce
ĠJ an
Ġd a
iel d
ab ei
Ġel se
ĠE l
ĠOr t
un i
ĠA d
f e
ĠA ut
Ġsp Ã¤ter
er e
ie d
.. .
ĠG e
iz e
ess ion
ig n
s atz
Ġ |
Ġv oid
Ġs ehr
p ert
ĠB es
ĠF or
in a
ra ph
h of
ti ge
Ġw el
Ã¶n ig
lich er
V alue
1 2
ind et
ar ten
au er
O r
Geb oren
ra d
it h
st ein
sch e
ier ten
Ġi hn
o u
Ċ Ġ
7 8
ĠP f
ru ck
schie den
ĠB et
at ic
ur e
ĠDeutsch land
ĠF rau
on e
ĠM Ã¼n
au m
au t
st adt
s etz
Ġg leich
ĠF rie
ĠR e
( ),
te d
oun t
ra y
Ġdeutsch er
ĠB and
ĠF amil
m ar
P ar
ge mein
1 4
i de
hal b
S p
tern ehmen
Ġet wa
ei g
i x
Ġin s
ĠJ ul
Ċ Ċ
o sten
ĠP r
/ /
Ġw as
b l
re ch
Ġsein en
ation s
w ir
ĠM on
1 3
gt h
Ġ *
ĠPl atz
a de
stell ung
ĠP erson
ur z
i den
g ang
ĠR ech
en de
ĠL u
Ġh in
ĠW est
ĠM ann
s g
ist en
Ġz usammen
Ã¤r z
Ġ ar
Ġg er
Ġdies em
t es
Ġlie gt
Ġc on
ĠM in
Ġsein em
un kt
al er
s on
ĠGr und
ĠG roÃŁ
ĠAug ust
en den
Ã¤n der
ien st
) );
Ġim mer
Ġw o
am p
ĠEn de
M it
b ach
u ff
M ann
p on
Ġsch on
ĠN ord
ĠVer ein
u ar
2 00
Ġk eine
Ġber eits
issen schaft
ĠM an
Ã¶ ch
Ġb esch
t t
k ehr
Ġver l
ĊĠĠĠĠĠĠĠĠĠĠĠĠĠĠĠĠ ĠĠĠĠĠĠĠ
[ ]
ult ur
s uch
Ã¶ ÃŁ
ĠJ uni
eit ung
ber t
rup pe
Ġver b
Ã¤n ger
Ġander en
ĠK Ã¶nig
z ial
ĠN ov
in k
ur t
ol f
ĠP ol
en k
ĠE urop
Ã¤ uf
s o
kt ober
ĠS h
a den
or k
C lass
ais on
ĠR ei
h ann
= =
Ġer ste
Ã¤l t
ĠW ei
r on
ĠFran k
f Ã¼
Ã¶ff entlich
ĠF Ã¼r
Ġun s
omp on
tern ational
ĠT r
Ġsel bst
ing er
Ã ¡
k reis
ĠB est
le g
Ã¼n st
ĠC on
ĠB ez
z ahl
o ut
Ġ eh
Ã¼t z
N ach
Ġ )
re g
Ġfol gen
olog ie
Ã¼r ger
ĠP art
ĠMa i
Ã¤ m
Ġge l
ich er
f inal
ĠM ed
re d
ĠPro du
ti k
ĠF rei
Ġkonn te
Ġihr er
ie f
ĠHau pt
ĠĊ Ċ
ĠJul i
ier e
k eiten
u ten
la gen
al ien
ĠS Ã¼d
ĠVer b
2 1
m Ã¤
ĠS ep
Ġt eil
h a
ĠâĢ ł
tem ber
ĠK unst
I D
ĠO ktober
ĠS e
Ġheu te
Ġv ier
in nen
h eim
f ach
Ġein z
gr und
ĠH och
S ie
r icht
Ġst atic
ig keit
tr y
o ten
f eld
Ġp ar
5 0
ĠG ew
. )
ĠV ol
st Ã¤nd
i tel
Ġ& &
mit tel
erv ice
ti er
ĠH o
Ġver schieden
Ġ19 0
an is
ĠB ild
b ahn
es sen
b uch
ĠH aus
f o
Ġl etz
w alt
pr il
Ã¼n f
c ode
ĠSt ud
re ate
w ahl
Ġd ort
Ġein ge
ĠJ u
an den
ĠJan uar
Ã¤ s
Ġge f
Ġ eben
Ġ %
ĠP olit
ĠMus ik
lin e
Ġi hm
le x
ĠChr ist
Ġk am
c on
Ġo hne
ĠM Ã¤rz
Ġb r
Ġs on
og raph
ĠO l
or ben
sch lieÃŁ
A T
ĠW erk
Ã¼ s
el m
Ġw en
os ition
l ig
om mer
ĠJo hann
Ġdam it
D eutsch
Ġneu e
ĠW eb
ĠA k
ĠStr a
1 1
lo ck
ran z
un ter
ess age
unk tion
h au
ĠM o
Ã¤n g
r or
pon se
ĠSep tember
al is
ez ember
ĠUnivers itÃ¤t
A us
ĠList e
isch es
fall s
Ġal ler
sch n
ag er
c c
ĠB eg
o gen
ell schaft
Ġ X
ĠK inder
op h
hal t
al se
r ik
ĠA pril
ie b
ĠB uch
ĠF ol
c t
de ut
ĠI I
f ang
zeich net
ĠU r
es en
ĠN ational
r y
em al
Ġw Ã¤hrend
ĠK omm
Ġal l
er b
ĠNov ember
ern se
Ġer folg
Ġb el
st it
Ġsp iel
w ohn
E N
K ey
ĠN ew
amer ikan
ĠLand es
z ei
ĠSp r
Ġst att
im e
ĠĊ ĠĊ
ĠS aison
ti m
a ce
ch er
ion en
te te
ĠD ar
Ġ '
ot t
n ew
Ã¶ st
ĠG l
ro up
ĠUn ternehmen
Ġbei den
p p
Ġo b
ĠKir che
ur r
ĠD ezember
stan ce
ĊĠĠĠĠĠĠĠĠĠĠĠĠĠĠĠĠ ĠĠĠĠĠĠĠĠ
ĠF re
kt u
lem ent
stell er
h ol
ĠDie se
k on
ool ean
ĠGesch ichte
ĠW ert
ĠAl s
eth od
m s
e um
ĠK reis
t ag
as h
app end
č ĊĠĠĠĠĠĠĠ
Ġb en
Ġ Â
ach sen
is h
Ġer sch
kt ur
equ est
Ġ3 0
Ġgr Ã¶ÃŁ
âĢľ ,
ĠIn ter
Ã¤ch st
ĠMen schen
eb ru
Ġv alue
ĠZ wei
ĠF ahr
h in
Ġ18 9
ebru ar
l an
og raf
č Ċĉ
ech n
ĠT ra
Ã¤ tig
al ter
ĠV on
g leich
a ar
ĠD urch
stra ÃŁe
ĠZ w
Ġ201 0
E in
Ã¤ hn
M ap
c o
ĠEin e
em ent
ĠF r
O bject
ĠR eich
mal s
A m
ri ff
Ġg anz
ti f
Ġer n
Ġ201 1
Ġneu en
ĠW asser
ĠIn d
Ġd abei
Ġ on
Ġf est
ar n
Ġm us
ire kt
fÃ¼hr t
de ck
rÃ¤ s
eh mer
eh n
a w
ĠSch l
ĠT ag
los s
ĠF orm
Ġd u
f te
Ġihr en
âĢľ .
ĠW il
ff iz
ĠH am
os s
Ġ >
az u
Ġ arb
es se
as k
l auf
sh all
Ġz un
D ata
b ew
v al
ĠF ebruar
ĠSch ul
ĠSch wei
Ġ200 8
Ġ201 8
ĠL ei
Ġ u
li ent
u tion
ĠMit tel
n ame
sch ule
Ġg ab
am es
Ã¤t z
g abe
Ġ ur
ĠA t
Ġ201 2
S T
k ommen
Ġ200 9
u ilder
Ġk on
de te
v ent
len gth
Ġdies es
ar i
h and
ym p
Ġthrow s
ĠD aten
ĠMit glied
lin k
Ġst eht
ei le
A t
G esch
ĠMÃ¼n chen
ĠN ieder
ĠPro f
Ġge b
a kt
ver b
at iv
ĠÃ Ħ
Ã¤n de
ie w
c ri
ĠVer lag
s ol
ig ung
ĠW ien
st ru
Ġ201 6
Ġ201 5
oll en
Ġs ei
ranz Ã¶s
Ġ9 78
ĠAr ch
R E
R equest
ĠE m
ĠH al
Ġh abe
Ġf rÃ¼
Ġ it
ĠF uÃŁball
ti ert
Ġdes sen
Ġ201 4
re cht
Ġ200 7
Ġ201 3
wick lung
ar ch
rei chen
h o
Ġb ew
d orf
Ġge st
19 9
nah me
ich tig
ĠG ener
er st
ĠN amen
3 0
sch utz
it zen
T o
ann te
Ġk omm
Ġb zw
Ġ ro
Ġ201 7
y te
i der
ĠR om
P ath
Ġtr ue
zeu g
i us
uch t
p unkt
rup pen
ĠH Ã¶
o ub
ĠS k
ĠS er
Ġ2 5
dr ich
ĠW ohn
ech s
tr Ã¤
Ġerh ielt
ĠVer s
Ã¼nd et
F ile
p s
us e
Ã¤hl t
Ġl ang
Ã¤u de
-- --
ĠM al
th is
g or
Ã Ń
Ġ200 6
is k
fahr en
S et
um en
tr ib
nis se
il it
le gen
Ġc atch
M ar
an st
Ġn ah
ĠPh il
Ġ qu
p el
Ġf inden
u er
z ug
o te
ĠK arl
ĠK n
schl uss
ie g
in en
h ein
ÃŁ er
Ġweiter e
Ġer reich
est er
L eben
ĠSch au
Ġw ei
ĠD u
oub le
ech sel
Ġn ot
Ġs Ã¼d
ĠA uch
A L
Ġbes onder
Ġh and
ig t
riv ate
eu er
Ġg ut
Ġder en
ĠC o
ri de
ĠB ahn
Ġ1 1
Ã¼ ss
ĠR ep
au l
ĠK r
los sen
z ent
ĠE d
ĠR Ã¼ck
ĠAr t
N ode
Ġal lem
schie d
Ġeh emal
uf en
Ġst ell
ti gt
ach te
ĠZ usammen
is mus
e ad
ow n
O ver
Ġson dern
ein er
Ġdeutsch en
geb iet
Ġh o
Ġ18 8
f ern
w eg
Ġ200 5
ĠB ew
ĠH ol
rie ben
Ġf alse
al if
ge stellt
Ġander e
ĠG egen
wei l
ra ft
ĠArb eit
Ġ at
c es
w e
Par am
sch ul
Gesch ichte
em en
ĠS al
Ġp ublic
ubl ik
Ġm uss
in er
ran k
ĠD an
qu est
ĠM ich
reu z
ĠS c
ĠK rieg
al ten
O R
z iel
Ã¶r der
ĠN atur
h ard
T ra
Ã¼ b
ar e
Ã¶ m
j ekt
stell en
ĠL ehr
ĠPerson en
ĠI l
Ġtr y
Ġb ie
rei b
ten t
ĠBer eich
pert y
k rieg
in s
Ġ2 4
im mer
ch n
Ġn un
el e
ol um
ĠF est
sch er
ĠS tel
Ġbef indet
G est
at us
Ġv iele
f ra
ĠM eister
ad em
ĠT itel
mÃ¤ ÃŁ
Ġbek annt
w est
ĠB ay
k ir
ernse h
at ive
ĠC ar
ĠD es
p ort
ĠFrie drich
ĠFl ug
Ġge mein
ĠF ra
Over ride
ur s
ĠR es
re chen
ĠReg ion
ei tet
s am
fig ur
ĠM ill
ĠG ef
Ã¤ h
on s
ges etzt
k te
ĠFamil ie
ĠEin wohn
ĠS eite
ĠD r
ie h
isch of
ĠBer g
ĠWeb s
Ã¤ ft
pl atz
Ã¤n ge
ĠDie s
ĊĠĠĠĠĠĠĠĠ Ġ
c om
ĠB Ã¼
en nen
A b
u ck
ĠLeben s
Ġ18 6
Ã¶l ker
Ġ20 00
ĠSt and
eite te
ĠS a
ri d
Ġb oolean
ĠK ap
w as
ei den
urr ent
Ġf Ã¼nf
Ġer w
Ġc ase
4 0
ĠL in
ĠP er
re ck
2 2
o ge
Gest orben
tr agen
b um
ich ten
Ã ³
am pf
f ilm
Ġf ranzÃ¶s
ĠS ystem
Ġ or
gr amm
ĠSp ort
Ġa ktu
h Ã¤lt
em a
ĠFrau en
ĠM od
hn en
Ġ200 4
ĠI s
ab el
in o
v en
tiv e
ĊĠĠĠĠĠĠĠĠĠĠĠĠĠĠĠĠ ĠĠĠĠĠĠĠĠĠĠĠĠĠĠĠĠ
h elm
zen tr
w ig
as st
ĠS ohn
ĠA uÃŁ
E lement
Ġzun Ã¤chst
Ġp er
ov e
ĠH ein
ar y
b lem
Ġsoll te
g te
sp ort
A R
Ġeben falls
Ġw orden
Ġ201 9
c lass
M an
Ġz ahl
ar m
le gt
f r
glie der
ran s
Ġ18 7
. ,
Ċ ĊĠĠĠĠĠĠĠĠĠĠĠ
Ġr und
uff er
ut ter
ĠIn form
Ġden en
Ġres ult
ĠB as
ĠE is
A d
Ã¤ re
Â Ń
ĠM et
ĠDeutsch en
d ings
er g
Ġdie sen
ĠD i
j ahr
st off
ir k
In dex
L E
n ehmer
ĠW er
ess or
ĠW ahl
Ġdeutsch e
ĠN ame
bild ung
ĠG raf
Ġbeg ann
Ã¼nst ler
Ã¶ sterreich
j Ã¤hr
w ert
ĠB Ã¼rger
au lt
a i
ri te
Ġd i
sch rift
ĠB el
ĠB ar
Ġsch n
enn t
ĠS an
Ã¼ hl
ont ain
ĠL ie
Ġm Ã¶glich
Str eam
ĠR ad
Ġje weil
U til
w ort
g aben
gl isch
r sg
ĠO n
us er
Ġwel che
A N
ur m
Ġletz ten
Ġ1 00
Ġa k
a ff
ĠM ag
G e
ĠPolit iker
Ã¤ che
2 5
ĠP at
et te
Ġb eh
kl Ã¤r
at es
ĠFran z
19 8
l u
o und
tor y
Ġer halten
ath ol
tr eten
fol ge
ec tion
able d
Ġau ÃŁer
la y
Ġs et
M od
eth ode
h Ã¶
Ġ ,
ĠO st
ĠJu gend
ĠO bj
F uÃŁball
ĠÃĸ sterreich
ĠT od
ber eich
B uilder
Ġ te
ann ten
Ġ em
Ġd azu
alt ung
iss ion
ĠO bject
Ġver w
z t
le hr
gen ommen
ĠF ach
ig ht
v e
sch ein
ĠS ommer
Ġ2 1
Ġh ei
ĠB en
er y
ĠF ot
rÃ¤s iden
Ġent wick
k m
l y
g ument
an ce
Ġ2 2
Ġ200 1
Ġander em
Ġge gr
A uf
ĠGr Ã¼n
Ġgew ann
ut t
M essage
+ +
il ter
Con text
Ġ end
č Ċĉĉ
Ġein ige
Ġk ein
F ield
z ig
Ġein fach
e e
ĠS eit
H and
och en
arb eit
D R
Ġver Ã¶ffentlich
hr en
ĠHer z
ĠK ultur
ĠH ier
I T
Ġ200 3
p or
Ġ â
B ei
om b
Ġ( âĢ
ĠIhr e
den k
Ġn eben
ĠSch n
Ġ x
ĠB ern
Ġ2 3
f Ã¤l
imm t
U R
ach ten
ĠW eiter
o se
in anz
sch w
Ġin ter
ĠG el
an ten
op f
Ġ200 2
et s
ĠT er
on nen
ĠJ ohn
rau m
Ġsch w
T ime
Ġge ht
4 5
o ver
< /
Ġet was
Ġdar auf
o int
ĠK ar
b ei
ĠLand kreis
a j
up er
Ġk ommen
ic a
ra g
St ate
B y
y l
al itÃ¤t
nah men
Ġ [
ate gor
Ġkomm t
ĠG en
is e
am ent
Ġ ev
Ġ199 0
Ġauf ge
ĠgroÃŁ e
k auf
U S
č Ċ
e ader
Ġihr em
d ruck
l ow
um s
st Ã¼tz
sp iele
ĠL a
rei che
In fo
ges amt
l ang
ip p
ĠH eim
h af
che ck
ĠS el
ser v
b ez
in de
st ag
ĠD orf
ap an
ĠgehÃ¶r t
č ĊĠĠĠĠĠĠĠĠĠĠĠ
it ter
ell er
* *
Ġ| |
d ienst
w ard
ĠH ans
ĠB esch
av a
b et
Ġw ill
ĠJahr es
ĠW ill
Ġ2 6
Ġin ner
Ġge m
ef in
Ġnah m
ĠSch rift
o x
ri m
ar s
P D
Ġf rei
h ei
ĠN e
u es
h eits
2 3
ĠAn d
En abled
ĠgroÃŁ en
se e
Ċ Ċĉ
is ion
orm at
H rsg
d ig
Ġl assen
S ervice
gesch ichte
ĠIn tern
f urt
z el
Ġre g
ĠF er
p rivate
ĠPro v
Ġver wend
ut h
ĠHer r
ĠP eter
icht s
e er
ĠT eam
ĠT echn
u k
Res ponse
st a
h le
nah m
ek te
T he
Ċ ĊĠĠĠ
ĠIn stit
d ate
n a
w w
ĠS il
un ft
et ter
ti c
Ġab ge
ĠE ur
a el
Ġg ing
Ġver m
Ġm ir
Ġ y
re ak
ev Ã¶lker
Ġv oll
ĠH il
ro w
ĠC l
or s
Ġd och
an zen
icht ung
wir tschaft
Ġ2 8
ĠEr z
ĠI ch
ĠMar k
rit er
ur ger
ot he
ur en
Ã¼ck e
Ġ20 20
ie sen
sch eid
Ġ199 9
ĠS eiten
ah men
ĠK o
R eg
Ã¶r per
lo se
sch au
om in
En try
il om
ĠArb eits
equ als
W ir
ĠOl ymp
7 0
arr iere
ing t
ig es
Ġw Ã¼r
Ã¤t ze
ĠJo se
6 0
en der
Ġ5 0
ffiz iel
Ã¤ ten
r em
Ġals o
ĠAl l
ĠD a
Ġn e
ti schen
ĠWil helm
Ġm Ã¼s
ĠSta aten
Ġspiel te
bau t
D E
n ungen
S S
all s
ilit Ã¤r
M E
Ġm o
Ġm al
Ġbe zeichnet
Ġent sp
an c
I I
fÃ¼hr ung
ĠF ir
ĠFamil ien
eich t
um mer
ĠO b
ĠKir chen
ust r
is se
ind ung
O f
.) :
Sie he
a e
min ister
l ist
ĠFol ge
ĠH istor
Ġzwei ten
ĠRech ts
Ġp olit
Ġm ich
Ġal len
ĠHam burg
ge ord
v alue
ĠEin satz
ĠVol ks
setz ung
ĠA u
Ġbest eht
Ġher aus
es onder
ĠG o
t hrow
ograph ie
sch ung
ri ften
Ar ray
ĊĠĠĠĠĠĠĠĠĠĠĠĠĠĠĠĠĠĠĠĠĠĠĠĠ ĠĠĠ
w elt
Ġc reate
ĠD em
Ġ2 7
schn itt
ĠA p
w issenschaft
rit ten
d ie
for der
Ġin d
ĠB i
ĠT or
Ġersch ien
ĠSchau spieler
t lich
ĠR aum
Ġver st
Ġhat ten
rÃ¤ ger
ers Ã¶n
ĠR ahmen
ne te
Ġst ud
k a
teil ung
O Exception
y ch
Ġw egen
ater ial
Ġm achen
IN G
l ungen
ĠG u
ĠAn fang
ĠM art
A C
amerikan ischer
Ġsch lieÃŁ
Ġh och
4 8
ra k
it te
ĠR u
ver ein
ĠIn ternational
19 3
fÃ¼ g
ĠB urg
y r
ĠM or
m b
an gel
ĠWir tschaft
ig ten
om it
ĠM Ã¤n
ei gt
Ġk urz
h eiten
el te
ser ie
all en
ĠgehÃ¶r te
ĠR ich
r et
Ġin ternational
ti sch
ĠZ iel
ĠEinwohn er
h Ã¤ng
B er
ĠBet rieb
Deutsch er
Ġerst mals
Ġ ?
ĠZ ahl
Ġst ehen
ĠUnivers ity
Ġmehr ere
Ġ199 8
ograf ie
S E
Ġo bject
olum n
Ġl og
Ã¤ ss
Ġm ax
ĠI t
ĠU hr
ĠMann schaft
Ġ( !
Ġh istor
G roup
ĠN eben
ĠK ais
Ġre ch
ond on
ĠLei p
E s
ĠS itz
um ber
ĠY ork
Ġw e
k ten
ok en
sk i
rit t
ĠWelt krieg
P erson
ik a
Ġst ark
ĠK Ã¶l
2 4
Ġd ah
ĠW or
Ġverwend et
s ion
utz t
Ġ18 5
m l
ĠOr g
ĠH eil
ĠSch m
Ġs ol
ĠGe org
I ON
d es
ĠB ad
Ġaller dings
ĠZ entr
ĠPar is
am b
{ @
Ġh inter
lie b
ic al
ĠT re
ti me
ĠP aul
av on
8 0
Ġ2 9
ĠK ur
Ġden n
ompon ent
ĠL auf
Ġre quest
ĠW eg
ar a
och ter
ĠEr n
Ġin stance
et ten
2 9
ã ĥ
ein ander
Ġverschieden en
g angen
s icht
ĠLu ft
ern e
ig it
ĠAl t
oc ol
l ing
b el
ei sten
lo ster
w and
Ġn ame
uch s
at ten
es ser
ĠVer walt
Ġ194 5
s weise
ĠT em
ĠA mer
Ġum f
Ġb rit
g n
il le
ich tet
ĠR ef
] ;
il t
ĠE igen
Ġsein es
Ġf and
stan den
ĠW inter
ck er
re uÃŁ
esonder e
ĠK at
eg t
ock ey
ĠGener al
am mer
ĠG ruppe
spr Ã¼n
z ep
Ġk ey
. âĢľ
Ġw ith
== ==
ĠPart ei
Ġr el
F ilm
Ġ198 0
am s
ĠC omp
hau sen
ig a
ti sche
te ger
I C
t ocol
ĠP reis
ĠSta ats
ĠD re
ĠW ar
ĠSpiel er
ar get
ĠS ol
Al s
Ġ199 6
i as
o ot
Ã¤m pf
le ben
Ġw eil
ier ungs
Ġo ft
ĠEr st
ie gel
ĠHein rich
Ġs etz
2 6
> >
ĠF unktion
Mit glied
ĠJahrhundert s
ak e
Ã¤s st
ilom eter
Ġ _
ĠBei spiel
um e
us Ã¤tz
ĠAl ter
ĠEn g
Ġtr at
l et
at Ã¼r
ge f
ei er
ĠUn d
k ey
Ġs pe
ĠN r
t z
ĠSch iff
ĠGes ellschaft
pr Ã¤
kir che
ĠGesch Ã¤ft
ic ation
af Ã¼r
b ack
ĠT our
2 8
ĠF eld
ĠH a
ot or
Ġc a
pr ession
Ġgen annt
Ġbe de
Ġ199 7
Ġeigen en
2 7
la st
ic s
s w
Ġ Ã¶sterreich
an a
ĠS ti
Ġ197 0
ĠZ ug
sp ro
En t
trib ute
f el
f rie
ig te
ĠWebs ite
D es
ĠfÃ¼hr te
ĠD ienst
ĠD ort
ĠK ont
h il
ĠS Ã¼
au en
or y
unk te
sb esondere
ĠW olf
ĠB ru
Ã¶r d
ob ei
u ter
Ã ĸ
ol e
ĠB ed
Ġein mal
ĠMich ael
f ass
ĠL eist
g ar
19 6
ĠEnt wicklung
Ġs echs
o ok
ti eren
G ibt
n ot
an ad
Ġweiter en
arb eiter
ĠEurop a
lich es
ge ber
om as
Ã¼ck en
om pl
ĠP ort
ob il
Ġst and
or ge
reib ung
ĠB eh
w Ã¼r
st elle
in es
ĠM at
19 7
ĠM eter
l og
ĠD abei
ĠVer tr
ĠMit te
Ã¼ gel
ra un
Ã¼nd ung
F or
schlieÃŁ end
ĠE le
Ġf ast
Ġo ut
ĠGeb Ã¤ude
ol oge
tt p
Ġd irekt
ĠV ater
ef ault
Ã ¨
s ize
Ġ4 0
art s
uch en
w ie
j ect
ĠH of
ack age
ĠEur o
g s
du z
ĠStra ÃŁe
ĠL ondon
figur ation
tik el
ĠL ud
Res ource
eu te
9 0
Ġw eit
eh m
19 0
Ġ199 4
F ac
ĠfÃ¼hr t
ĠR hein
lehr er
Ġs ehen
stan ts
onn ection
au r
ĠE v
ĠLeip zig
et ers
auf en
A s
ĠUS A
al k
age ment
ĠHÃ¶ he
Ġ199 2
) :
Ġt ype
Ġn ie
gen den
ĠSta at
C lient
qu e
ief ert
amm lung
ĠPro blem
ĠThe ater
ĠRom an
et r
ĠT ochter
wei ter
Ġab sol
ĠD at
ĠPro jekt
ĠArch ite
Ġbesonder s
ĠG old
a ÃŁ
c l
i ver
ĠKl ein
Ġ @
ĠK Ã¼
Ã¤ f
ĠHol z
ĠMus eum
it u
ĠF all
Ġw obei
o den
ĠR est
urn al
Ġd avon
en glisch
lich t
pt y
ĠRe gel
ĠReg ie
ĠAn t
ĠD av
st eil
i at
c a
it ten
ist ischen
Ġsch wer
Ġg ilt
un n
am a
om at
Ġl ange
ib li
O G
ĠSchwei zer
' s
ĠB ischof
ĠC omm
l d
ge st
ĠPl an
E D
ĠAl bum
pert ies
ĠKomm un
g art
m ed
Ġw echsel
4 9
ĠF rÃ¼
4 3
ik ation
l ungs
trÃ¤ ge
Ġ199 5
ĠP al
ĠProv inz
ĠM Ã¶glich
lei st
ar te
Ġal les
J ahr
Ġ #
att ung
ĠmÃ¼s sen
ĠSch loss
ĠT ro
lig a
Ġmus ste
ĠF C
Ġjeweil s
Ġf indet
Ġw est
Ġ196 0
E m
ĠN o
V al
Ġ199 1
ĠH e
ran ken
S ize
n ehmen
Pro perty
Ġ20 21
k o
ĠI hnen
leg al
Ã¤t te
Ġ Ã¤l
iz in
d s
war z
ĠEin zel
Ġ add
ig h
s etzt
ĠD on
ĠE p
E vent
Ġj etzt
ĠCh ar
Ġins gesamt
wend ung
a ir
b y
richt ung
om e
ĠD en
k au
ek tr
a ffen
zei tig
ĠW ald
rei se
ett bew
S h
Ġunter schied
S er
Ġn Ã¤ch
L oc
Ġarb eitete
Ġ( (
ĠA ss
ul d
s ych
la v
Ġ Ð
s ystem
al le
ck en
to String
Ġfolgen den
l Ã¤nd
ch es
ĠMar kt
ĠGeb iet
L iefert
ĠT ext
Ġgegr Ã¼ndet
Ġbie tet
Ġ199 3
cc ess
Ġl ist
z ogen
âĢ ¦
t ler
Ġb lei
Un ivers
Ġt Ã¤tig
3 5
gemein de
eh l
ĠN utz
anis ation
ĠP ap
ĠFrank reich
ĠD o
ĠK Ã¼nstler
ĠSt utt
Ġstud ierte
ak tion
ib le
geben en
F ormat
ĠU l
ĠA lex
au ch
W ith
ĠW ie
ĠW Ã¤hrend
g lichen
eck e
ĠG eh
ro s
ĠC olle
Ġv al
le ch
Ġan geb
S c
ĠG ast
Ġk m
wei s
Ã¤r en
mb H
Ã¤n dern
ĠEr geb
rÃ¤siden t
4 6
ĠProdu ktion
ĠA s
ĠT yp
Ġl in
j a
ust rie
a he
s burg
g ruppe
den t
ĠObj ekt
m Ã¶glich
ĠkÃ¶n n
Ar gument
ĠZwei ten
Ġ18 0
E igen
ĠMa x
ĠB evÃ¶lker
Ġ198 9
Ġkl ein
FuÃŁball spieler
ĠS icher
ag es
ĠM ath
ĠS ein
Ã¤uf ig
y d
Ġinner halb
ĠH ar
ĠFrank furt
8 9
Ġviel en
st ieg
ges etz
os it
Ġauf grund
C ode
ĠBer uf
Ġd an
m od
Ġd o
ĠR en
ĠD is
ĠK ompon
ate d
I S
ide o
ĠM utter
ĠSchrift steller
ĠK ant
ĠW e
Ġer f
op pel
Ġges am
A P
Ġkl eine
ĠEis en
4 7
V ers
Ġm ein
ĠKais er
ig inal
Ġm eisten
itz er
Ġunser e
Ġm Ã¶ch
ĠL iteratur
Ġ Ã¶ff
Er ror
19 5
f est
- ,
ĠP ark
iz ei
b urger
ĠD e
Ġer rich
ĠI OException
Ġb y
ĠB ro
Ġm eist
ap pen
Ġje der
ĠR olle
ĠStra ÃŁen
ĠV ier
sch t
k ung
fahr t
en gth
ĠSte in
ĠT age
t her
in ation
sch lag
Ã ľ
Ġschn ell
shall er
ĠPro zent
Ġkl einen
ak ter
av e
ĠS eine
an e
< ?
st reck
ĠR ec
M ethod
ĠKÃ¶l n
c ess
uch e
g o
Ġw h
adem ie
Ġo p
ik en
it s
az z
ĠInform ationen
Ġ ad
cri pt
c y
lau b
ĠH ann
Ġ3 1
an de
i ent
ĠR ot
18 9
R ef
Ġd eut
ĠG mbH
f ter
Ġw ichtig
Ġs og
sten s
Ġgegen Ã¼ber
C O
he f
ĠMill ionen
Ġf rom
ĠR el
fl uss
Ã¼ ler
b es
ĠB is
is iert
her e
ĠMart in
Ġn ieder
Ġ as
Ġd afÃ¼r
Ġgr Ã¼n
w Ã¤r
R O
O ut
Ġn Ã¶rd
Con fig
Ġl a
ĠLud wig
ĠTh omas
ver kehr
ord s
Ġerfolg te
an te
Ġl Ã¤sst
Ã¼t zen
h anden
u ft
Ġd ouble
ĠG ra
Ġsich er
ech t
Al l
ĠD am
ĠR ed
Ġw ohl
w ehr
ĠF il
her r
ĠschlieÃŁ lich
Ġent fern
ĠG ut
Ġk ur
Ġf l
Ġwechsel te
L og
f Ã¼r
te c
eu ch
s itzen
il den
mann schaft
ĠI de
ĠAuÃŁ er
ĠK loster
ĠMar ia
Ã¼r z
Ġf ile
Ã¶s ung
os oph
om en
Ġl ong
en ce
Ġz eigt
b ed
lich keit
Ġk n
hr ead
3 3
ĠW enn
Ġkonn ten
T ext
k tr
N ull
ĠAm t
ĠĠĠĠ ĠĠ
f an
um m
eck en
P ackage
Mar shaller
ĠDeutsch e
n ull
ĠZ eich
b est
Ġur sprÃ¼n
ĠM ethode
ĠOr ts
z immer
i am
ĠN orden
ĠM aler
ĠPf arr
ĠAut or
Ã¼ ter
F Ã¼r
Ġex ist
ĠAr ray
pro du
Ġbis her
ĠHeim at
Ġver such
Ġ198 8
ĠBeg inn
Ġb reak
Ġst r
ge h
ĠSo zial
Ġk osten
Ã¤uf er
ĠStutt gart
ĠK reuz
ir st
ĠB ef
M us
deut ung
ĠVer trag
I tem
Man ager
z ie
ĠH inter
al y
Or t
ĠT el
Ġbest en
s l
A G
rei ben
ar ben
Ġle ben
ord nung
Ġp l
verb and
ĠEn erg
Ã¤ chen
war e
ĠS tim
Ġs ub
Ġverschieden e
Res ult
Util s
ĠA c
in ner
ĠC lass
ĠR ichtung
ion s
ĠK ilometer
č ĊĠĠĠ
---- ----
ĠF arb
Ġz usÃ¤tz
ge gen
fÃ¼hr er
ĠW ieder
te gr
tocol Marshaller
ĠChrist ian
Ġn atÃ¼r
ĠW al
ĠDie ser
Ġunser er
Ġp ol
ĠO p
O n
s eite
ĠSchwei z
u h
op er
und er
ac t
spr ach
em at
op p
ĠBo den
Ġin sbesondere
le y
Ġgeb oren
B au
j et
r Ã¤n
O bj
k unft
yn ch
urn ier
U N
am ens
f ert
lo ad
m o
Ġ ...
ist r
ge geben
ĠO t
ev el
ern er
ĠIn s
4 4
re ad
ol ution
ĠK ind
St and
Ġb lieb
arb eiten
l as
ĠGr enz
issen schaften
ĠM ehr
ĠW ochen
s ub
h as
iz ed
Ġinstance of
ĠG est
In stance
ĠZw ischen
u he
Ġgemein sam
ĠM ap
Ġo ffen
i ft
w ay
Ġsch Ã¶n
Ġvor handen
Ġerreich te
u ild
3 6
ategor ie
M et
Ġp rÃ¤
ĠBay ern
Ġ198 4
ĠSch ule
Ġ Ã¼b
meister schaft
ĠÃ¼ber nahm
ĠC or
" )
ĠK unden
put Stream
Ġern eut
ĠT ex
In ter
ernseh serie
Ġb ed
C omponent
ĠOlymp ischen
ge hen
ber ger
ĠS en
Ã¶st lich
Ġein gesetzt
ĠO per
Ġj a
Ġgew Ã¤hlt
anst alt
V or
en zen
Ġsow ohl
Ã¶r t
atur e
omm and
ĠH in
re p
al z
ĠK in
ĠSel bst
I ch
tier te
E ine
ĠIl legal
Ġent stand
Ã¼r k
Ġ198 7
Ġhin aus
ĠFuÃŁball spieler
at te
y le
ĠB ilder
Ġo ber
ĠT est
re e
ibli othe
Ġn ord
3 9
gr ess
it Ã¤ten
ti ger
L and
Ġak tiv
ĠHo tel
Ġz ehn
F l
ot s
ĠE t
ĠZ ur
ing le
Ġmit tel
val id
3 2
ĠW ein
tr itt
Ġwen ig
ĠT ri
Ġz eit
ĠHer ren
Univers itÃ¤t
os sen
ĠG eld
gen t
Ġal ten
ĠAn g
Ġzw ar
e der
den s
stell ungen
Ġ198 6
efin ition
ĠGes amt
ĠR uss
ĠMÃ¤n ner
z ess
z Ã¼
Ġ( )
all y
C H
ĠT ab
ĠD DR
ĠR ev
Ġlie gen
ĠSch utz
ĠM il
ĠAnd re
++ )
in c
ÃŁ t
ern en
Ġh Ã¶ch
8 8
Ġd ien
ĠF Ã¼hr
ag t
A S
Ġ up
O ption
p reis
Ġs pr
Ã¤ user
Ġen gl
ri x
ent lichen
ag s
dr ess
Ġbes ser
Ġgel ang
C ount
ĠHerz og
k n
sch iff
Ġit alien
( (
Ġd ata
ĠG Ã¶
ac tion
W elt
Ġ195 0
fl Ã¤che
re f
it ial
Ġb in
ĠD om
Ġsoll en
an ken
ĠF ort
R ep
Ġw ahr
iv al
Ġzwei te
m m
ic an
ĠInstit ut
Ġ Ã¤
sp l
ul ar
ĠF ile
eil nehmer
in dex
H er
Ġm in
eh ler
eg r
lin gen
ĠBe deutung
ĠD res
3 7
ont in
Eigen schaft
ĠProf essor
ym n
geb aut
Ġerfolg reich
w agen
lo b
Fac tory
N ot
ĠL es
Ã¤ch lich
se hen
stÃ¤nd ig
b Ã¼
c ase
g Ã¤n
ĠJ ur
G r
r ist
z z
ĠH el
ue ck
Ġf ort
ger icht
Ġh erv
ĠW ind
ut zen
Ġhand elt
ĠP osition
a sch
Ġm acht
V on
Ġw oll
Ġdah er
Ġm ar
ĠSt Ã¤d
ant wort
Ġ6 0
Ġf ield
od y
ĠAn geb
ĠOn line
ĠSÃ¼ den
Ġw ich
ĠA ward
Ġge legen
ĠKl asse
ĠG ot
sch ech
ri gen
ĠC ol
ich ter
ĠD ruck
Ġ{ @
Ġ198 3
uch te
ĠPro gramm
schul lehrer
spiel sweise
ĠD enk
U T
Ġer klÃ¤r
v oll
ĠIn sel
Ġbest imm
ĠVer kehr
Ġ org
ĠA ben
ĠL og
b ank
inz u
Ġehemal igen
ro p
Ġ198 5
Ġerrich tet
S ystem
ist ik
Ġent standen
rau ch
w ohl
Ġ197 2
8 5
or gen
ĠL ang
Ġm od
Ġihn en
ĠAuÃŁer dem
ĠG ed
ĠS am
ĠBes uch
ge m
8 6
a un
net en
ium s
ĠIntern et
L o
h am
schaft s
4 2
c reate
Ġeigen e
Ġges p
ĠP fl
ĠC ount
get C
ĠEr folg
ish ockey
Ġsog ar
F A
b ol
Ã¤ ischen
Param eter
ĠP ass
ĠS til
ĠN Ã¤
Ġ acht
ĠK urz
P l
ab hÃ¤ng
Ġbest ehen
ist ische
ĠAn zahl
ontain er
ĠS ong
ail le
ĠBahn hof
Ã¶ ÃŁe
B uffer
ĠIt alien
tec ted
ĠRo bert
get Name
zeu ge
S eit
ĠReg ierung
ettbew erb
Ġbe vor
sen d
mÃ¤ÃŁ ig
w ald
de b
T rans
ges ellschaft
7 5
throw s
la den
Ġgen au
f c
t eid
u al
ynch ron
ĠS ex
gesch lossen
ĠOrt steil
Ġem pf
Ġnicht s
d a
b te
Ġp ath
ĠSp iele
fol gt
ĠT on
itz t
ĠfrÃ¼ her
E L
ĠS im
ad urch
ur f
ikan ischen
Ċĉĉĉĉ ĉ
ĠT o
Ġwen iger
Ġ198 2
al tet
Ġn ahe
geb Ã¤ude
an ien
t ype
ĠA ir
ger ufen
Ġfolgen der
ĠverÃ¶ffentlich t
ĠwÃ¼r de
Ġin dex
Ġzahl reiche
ĠH om
Å ¡
ĠW issenschaft
s um
ĠVer fÃ¼g
bar en
b eh
ĠIn nen
Ã¤n den
te st
ĠH ei
ĠO sten
pr int
ĠEn d
Ver ein
ĠG ott
o od
Ġ Ã¤hn
A p
it or
un ction
Con stants
ĠZ um
9 9
den burg
un ge
eg ung
7 6
z y
Ġre gel
ir t
on en
es e
m ark
ĠS ek
f re
Ġsie he
n ach
Ġso zial
ichte te
Ġ196 8
T yp
ok rat
ĠMit arbeiter
fra ge
w asser
ĠC arl
A ut
ĠC om
m Ã¶
Ġst ar
Deutsch land
u el
Ġ check
sch eiden
ĠT al
Ġst art
Ġbei spielsweise
bl ick
och e
ol ler
ĠM ilitÃ¤r
ĠÂ »
im ent
ĠMa in
Ġdeut lich
f ile
Ġb ild
ĠK or
Ġheu tigen
ĠTh ema
ok al
Ġdan ach
ge fÃ¼hrt
n o
olit ik
ĠB us
ĠT rans
ar en
Ġn ational
Ġh Ã¤ufig
ĠSt art
ĠHal b
Hand ler
Ã¤hl en
Ã¼r t
b ek
F rom
ĠE ing
Ġr Ã¶m
w eit
ĠSt ad
ti tel
Ġsie ben
ĠWest en
Ġstell t
Em pty
Ð ¾
ĠM aterial
br uch
ĠVerein igten
ĠVerwalt ungs
Ġentsp rechen
f rei
op e
s c
s ie
ĠSil ber
ĠM ont
Ġge ben
K l
U r
Ġh Ã¶
St atus
Ġm ethod
eich nung
Ġ197 5
au se
ĠK omp
EN T
st ehen
ĠSch Ã¼ler
ĠAuf lage
Ġdam als
ĠR und
iz iert
ĠFre und
geb ie
as en
ĠG ruppen
ik t
st Ã¼ck
te chn
Ġwel ches
Ġgef unden
ow er
Ġ197 4
tem berg
6 4
h ang
Ġso gen
ĠB or
ĠEr d
ĠAr tikel
Ġ196 9
Ã¤ te
ĠKrieg s
ĠRei he
Ġi d
ffiziel le
b and
Ġc urrent
ĠF euer
ĠN or
ĠS achsen
ĠB ur
geb ung
me e
an ischen
Ġst amm
ĠB ot
P E
ĠP or
Ġver fÃ¼
ĠG leich
ĠH or
et ail
ĠL au
ĠN etz
mal e
ĠAn ton
> ();
f il
on a
Ġs omit
le ge
en ter
ĠStel le
pl an
Ġ197 9
bar e
ĠgehÃ¶r en
im al
lei d
Ġlie ÃŁ
Ġn o
ĠK osten
Ġzu dem
r acht
3 1
ein t
ĠFl uss
ain er
d i
Ġd r
ag ue
m et
ĠE ben
k el
get S
âĢľ )
ei der
Ġ198 1
ĠW el
ĠZ Ã¼r
ĠRech t
ĠP ost
U p
ĠEr w
Ġpro tocolMarshaller
u hr
ĠGeschÃ¤ft s
" .
ĠM os
ĠK raft
Ġ197 1
yn c
Tra ce
Ġ Q
Ġre cht
ul ti
Die se
ak te
Ġ197 6
4 1
ĠZ ust
Ġ(âĢ ŀ
ĠJohann es
ĠR egen
ĠII I
ĠSch Ã¶n
Ġf re
ĠL age
stru ktur
Ġf r
tr e
ĠFor sch
L A
Ġ197 3
p art
ĠM er
ĠEle ktr
d o
Ġger ade
ff set
Ã¤d ag
ĠS and
ĠMit glieder
Ã¼ hle
ĠP o
ort h
ĠBerlin er
ot z
her ap
Ġ197 8
in i
ĠG ar
F C
pl ate
al og
A D
R ec
ei ger
ĠD rei
hau pt
k ungen
ĠR ud
is p
re en
ser t
iv ision
ĠJo urnal
Ġp ersÃ¶n
ĠM el
D ate
ĠStud ien
" ;
Aus wahl
ĠK Ã¶rper
ĠSch wer
Ġdar unter
ĠD ok
ĠDre h
ĠA f
der s
re v
Ġe urop
Ġ us
ik e
ĠVer l
F rau
gen de
ĠV iel
form at
Ġabsol v
ĠM y
Ġzu vor
Å Ĥ
sch inen
3 8
rei te
IN D
Ġi r
werk e
it i
ĠA ber
Ġbef inden
ĠPol izei
w or
ges ehen
ĠAm ts
ĠMed ien
H och
5 5
G em
Ġs h
zeich nungen
w rite
ĠFrie d
C E
U m
ĠL o
ĠS oc
ĠSie d
Ãľ ber
Ġl ag
ĠSt u
ĠSal z
ft ung
irekt or
Ġer Ã¶ff
au p
z ehn
ĠG arten
Ġz og
ing ton
ĠGemein den
Ġs of
Ġg ar
ĠVerfÃ¼g ung
f s
t c
im a
iv id
Ã¤u ft
K on
7 9
ach er
riv at
Ġn ode
Ġ196 4
ĠH en
ĠDav id
and id
rei fen
ĠMin ister
: //
ĠP rÃ¤
Ġgem acht
ow s
Vers ion
en te
Ġw elt
ier ungen
Ġver lie
Ġc lass
Ġ196 5
Ġerw Ã¤hn
ĠB ran
Ġver sch
Ã¤t zen
ĠCount y
x is
as ste
zeich en
ĠNÃ¤ he
ã Ĥ
ĠK auf
Ġein igen
ymn as
f ord
Ġ196 7
ĠBevÃ¶lker ung
ĠRich ard
M ail
Ð °
Ġzur ueck
Ġgen utzt
v est
b esch
ĠI r
Ġst arb
ĠG i
arb eitet
Ġs c
ei en
ĠB Ã¶
ol a
Ġk lass
Ġer k
Ġr uss
ĠK om
teil t
ĠK arriere
de d
Ġbet eil
Ã¤ us
Ã¤l fte
schlieÃŁ lich
6 5
end et
am eister
An d
isse ur
ungs k
Ġverb unden
ĠF el
ĠRei se
oc ument
spiel en
f Ã¤h
rei bt
itz e
Ġ193 9
pr ess
Ġerreich t
Ġw ollen
ĠD el
sp rech
ĠErn st
Ã¤t ten
Ġletz te
ial og
Ġ196 6
ĠN ot
arl ament
ten s
ĠBr on
o in
ck e
frie d
L e
pr Ã¼
Ċĉĉĉĉ ĉĉ
Ġte chn
At tribute
N A
ĠP ra
ĠE hren
Ġbie ten
d ien
Ġ197 7
w esen
F I
Ġw es
ĠR ein
ibliothe k
ik al
0 5
D at
en e
Ġ reich
ĠF inal
ĠF inanz
ĠD ist
Ġch ar
ĠEl tern
ikan er
P ol
Ã¶ hn
ĠJose ph
in ge
n am
Å į
ĠgrÃ¶ÃŁ ten
ĠF Ã¶rder
arb eitung
7 7
ut ton
fl ug
cri ption
Argument Exception
ĠB al
f red
Ġ193 3
lo at
ĠS ervice
Ġw issenschaft
Ġ Å
ik on
ĠT a
st all
it al
ĠAus bildung
Ġpar am
an lage
l eitung
Ġ( =
ut es
ĠA G
Ġge hen
Ġmit tler
Ġsoll ten
deck t
ĠEnerg ie
W est
u x
Ã §
il la
Ġh inzu
id th
ite d
ĠHil fe
Ġel ektr
Ġentfern t
Ġb yte
Ġk einen
ord in
w ind
En d
ab il
M L
ĠB aden
enn ung
ĠWor ld
Â »
G ener
rich ten
ĠOt to
ĠV o
ien s
C all
ĠAn ge
Ġ(âĢ ł
T Y
f ield
c le
us h
ĠS onn
Ġer ziel
ĠDres den
wei sen
en a
Ġon line
Ã¼s se
re c
Ġres ponse
Con tent
ĠfranzÃ¶s ischen
Ġteil weise
M ed
. <
or ie
ĠT op
list e
k eits
p ol
ĠM Ã¼l
ire c
Mod el
Ġ ung
tiv en
re am
streck e
n ext
z i
eu e
Ġth at
Ã¼ss eld
ell a
List ener
as il
P er
W erk
ro ss
ĠCh em
Ġgleich en
L ine
U L
ĠGr ab
ĠEr fahr
ĠAuf trag
T able
ĠVerb indung
T r
Ġr et
L O
ĠnÃ¤ch sten
_ _
Ġau t
us st
deb ug
Ġz ie
ĠR ang
Ġbei de
zeu gen
ĠMin uten
Ġfol gte
Ġc m
T h
ann e
B r
5 9
ĠS ub
. :
ĠC as
ĠGl as
ĠArray List
u tet
ra p
Ġd ir
ar ian
Ġnach dem
ĠFra ge
zentr um
rei ten
iv en
ĠMa ÃŁ
ĠGes und
Ã¼rt temberg
Ġent hÃ¤lt
st at
ende te
Ġ193 0
Ġunter stÃ¼tz
i os
Ġl eicht
rit te
ĠK ranken
tr ue
ect or
Ġen g
an y
ym bol
jÃ¤hr igen
it en
ĠAk ademie
Ġ scha
Ġwir k
Ge ographie
ĠAl le
Ã¤tig keit
ĠSpiel en
ĠGes etz
geh end
Ġherv or
E S
Ġk ompl
ag n
ativ en
Â ²
ĠF en
ĠJ e
ĠNach dem
ĠHer mann
Ġam er
ĠWerk e
ĠBeg riff
an ger
lie ben
Ġje den
ĠW h
Ġl oc
ĠP op
sch riften
ĠC D
T oken
ĠT ran
ĠBÃ¼rger meister
o is
Ã¤ um
Ġ196 2
ĠJ apan
Ġfolgen de
ier ter
ĠL icht
S o
Ġeinz el
ĠSer ie
Un ter
ĠM otor
ĠK ampf
Ġ3 5
Ġ195 6
m ut
ĠPolit ik
ĠS u
Ġt c
Ġver s
Ġauf genommen
ele te
ik o
ud em
ĠCh arl
zeu gt
c m
ĠAr ten
Ġstell te
Ġ196 1
O per
an o
ĠS in
Ġ196 3
Ġh al
hei ra
F ilter
N umber
c urrent
Ã¼ss el
3 4
ĠB ank
tr a
Ġk amen
ĠB rit
ĠHer aus
Ġbest and
H eader
W enn
ĠK opf
ier s
ĠauÃŁer dem
ĠDam it
g ten
den tif
ĠK ol
Ġst ate
z ip
ĠW ort
ĠR ock
Ġho hen
Ġr em
ay er
ĠDes ign
Sp iel
not ation
ĠMÃ¶glich keit
0 1
R I
ivid u
Ġpro duz
Ġ193 8
ang s
R e
Ġd el
ĠM e
ĠSa int
Ä į
Ġres ource
p le
M P
r uf
fol ger
Im pl
ĠW and
g liche
eh len
O T
Ġm achte
ĠA pp
str ing
Ġz ul
aler ie
k i
ĠA ch
ĠD enn
ĠFrÃ¼ h
ĠL i
ĊĠĠĠĠĠĠĠĠĠĠĠĠĠĠĠĠĠĠĠĠĠĠĠĠ ĠĠĠĠĠĠĠ
ĠEng land
> (
er r
ĠC ms
ĠWolf gang
Ġ19 20
Ġ195 8
ĠQu alitÃ¤t
F F
ĠD och
ĠZÃ¼r ich
ĠH all
Ġwh ile
ĠK an
ĠH Ã¤lfte
ent wicklung
ĠNach t
Ġtr ans
pf er
Ð µ
C hr
z eiten
or a
Ġver tr
ĠB ach
Ġ194 4
ĠIn n
Ġst ellen
In t
ĠSie g
ĠHann over
ĠR a
ec ted
it a
N ext
Ġer ster
f ung
is ierung
ĠSt amm
ĠSpr ache
z uf
ĠD ep
ĠBes itz
af en
ĠG eist
la ck
ĠVor sitzen
ĠM ad
ĠM eer
pro tected
h ung
Ġaus gew
Ĥ ¬
Ġge tr
ĠPart ner
inn t
rik a
sta at
ĠÃĸ ff
olog ische
ĠM c
Ġmehr eren
k rÃ¤
Ġver z
m el
Ġz erst
ĠL iga
ĠJ azz
ĠBas is
Ġgew esen
Ġdam al
eil en
Ġeh er
Ġm ed
he ck
ĠP rÃ¤sident
Ġsch rieb
Ġihr es
tig ung
ĠB ek
Ġg erne
Sp ort
kau ft
ĠPr ess
ĠJose f
A mer
im men
ĠM ein
ĠI D
ien ten
op y
ĠLe ague
l Ã¤ss
ĠL Ã¶
6 6
Ċ ĊĠĠĠĠĠĠĠĠĠĠĠĠĠĠĠ
ĠD ach
ĠL eiter
Ġk ehr
ĠR at
eh ens
Ġd Ã¼r
Ġs e
ĠEr sten
so zial
our ces
b ie
ĠC ity
U ser
ĠR os
Ġbeg r
Ġ8 0
Ch ar
ĠIllegal ArgumentException
tern al
ĠB raun
ey er
rie ges
final e
ĠH essen
H ol
ĠB und
ing ungen
kt or
per atur
w art
ĠAl b
Ġwei ÃŁ
ĠS em
mar shall
f Ã¶r
ĠR em
ĠL ou
sh ip
ieh ung
Ġspe ziel
. -
k ap
č ĊĠĠĠĠĠĠĠĠĠĠĠĠĠĠĠ
hÃ¤lt nis
ch ester
Ġm eine
ĠSt unden
ĠÃ¼ber n
ĠTag es
ĠBru der
T rÃ¤ger
ĠF ernseh
ver walt
rie ch
Ġsp ielt
O L
er ror
wei g
ol den
Ġf alls
Con figuration
Ġdar Ã¼ber
A B
i que
ft ware
Ġ195 9
ĠUnter stÃ¼tz
Ã¼ ch
ĠK ategorie
ontain s
P art
t um
ĠD eb
v el
Ġm on
In ner
ĠFir ma
ĠSte uer
ĠÃ¤ uÃŁ
Ġsetz te
ĠUnter such
L ength
N ames
ĠVer gleich
St art
Ġf er
ĠAuÃŁ en
ot h
gel Ã¶st
Ġw Ã¤re
ill en
ĠArb eiten
F ernsehserie
hl et
ĠSt Ã¼ck
ick en
Ġinter ess
Ġson st
Ġt yp
Ġ195 7
G es
ru g
ĠHau p
on es
ĠS uper
8 7
ĠBr and
ĠRep ublik
u sch
ĠStr ecke
ig keiten
od es
Ġgen er
Ġer reichen
Ġwoll te
Ã¤ch s
c el
Ġ ap
st ant
it ch
Ġ194 0
Ġentwick elt
Ex pression
C T
h an
Gem ein
sch uss
Ġne un
k reuz
Ġs er
ĠD Ã¼sseld
Ġl and
] .
ar f
ha ft
o der
rit z
B IND
P age
st ud
ĠB d
Ġtr otz
ĠCh ina
setz en
tag s
ĠT ier
ĠW o
ĠP sych
ĠS Ã¤nger
anst altung
ĠD oppel
ĠR unde
st art
ĠP il
Ġ194 1
zep t
Ġg ute
ĠPhil osoph
E T
S ub
P r
le b
ĠW ol
ile d
low ak
ĠAu gen
Ġer z
BIND ING
ĠSc ien
ĠDies es
ir ks
Ġbede uten
m und
ĠStud ium
Ġb as
ei s
ĠF uÃŁ
ĠC al
Ġ194 2
9 5
ĠB all
Ġd ritten
ter s
entr y
C omp
get D
v iew
In teger
N o
k omm
ĠP unkt
Ġ195 2
ĠV ideo
Ġg l
ĠAlex ander
ĠVers ion
ĠA ustr
Ġeben so
âĢ Ŀ
Ġk athol
rei sen
8 4
at tern
ĠSt ate
ĠPr em
Ã¤nder t
ach tet
west en
m on
ĠV oll
Ġal t
ĠEr k
l assen
ĠFra gen
ĠErgeb nis
ĠCh or
Ã¤d chen
l ern
s em
Ð ¸
S e
j e
ĠSe e
olog ischen
0 6
Ġbes uchte
ĠInd ustrie
Ġan schlieÃŁend
ĠMod ell
Ġn orm
Ġsel ten
ĠProdu kt
ĠK rit
icher ung
w egen
ĠP arlament
ag o
etz ung
hal te
ĠkÃ¶nn te
ĠV en
Ġ194 6
T eilnehmer
Ġho he
Ġbet rÃ¤
zei gt
re quest
Ġp ass
l n
Ġf inanz
Ġ194 9
Ġgemein s
ĠÃ¤l ter
o ben
le cht
ĠW ider
k athol
au sch
ĠE he
ab rik
ĠÂ «
Ã¤ gt
Ġc omp
Ex ec
Ġver f
eich er
ĠAus wahl
Ã³ n
gel n
P oint
mar kt
ĠAr mee
Ġaktu ellen
Ġre ad
Ġspiel en
ĠAmer ican
r c
ĠWill iam
M eter
Ġc om
d am
el ten
par k
M S
c ing
0 9
la ce
" ))
om an
Ġal te
ĠZ udem
Ġbesch Ã¤f
ĠOr d
Ġ195 5
D F
ĠS et
Ġ194 3
==== ====
0 7
ub e
b eg
ĠKon z
ĠPr inz
wie gend
eig ht
l ar
ĠT im
A ccess
ĠK amer
ĠS old
unk ten
ĠTh emen
ĠDan ach
** **
r hein
Ġs uper
8 3
un ternehmen
ĠfÃ¼hr en
ĠMÃ¼n ster
or te
Ġben Ã¶
ĠKont akt
ch ar
Ã¶ sen
Ġge d
ĠZu ge
ĠGeb ie
ĠForsch ungs
h istor
ab r
Ġsch l
ĠReich s
č ĊĠĠĠĠĠ
Ġge pl
heira tet
d ata
Ġ tem
K ir
ĊĠĠĠĠĠĠĠĠ ĠĠĠĠ
R el
Ver lag
Ċ ĊĠĠĠĠĠ
ĠP an
Ġge k
Ġ194 8
ĠSta ff
S etzt
Ġf orm
ĠBez eichnung
Ġex ten
l l
ĠF ern
ĠA ust
Ġz entr
ĠCl ub
stra hl
tem ent
ition s
ĠS m
it sch
ann el
ĠKant on
ĠV al
0 3
g ien
Ġabsolv ierte
ĠH an
ĠL Ã¤nder
Ã¤n gen
pl ication
ĠBr un
ĠLehr er
lin ie
gr Ã¼n
mus ik
ĠursprÃ¼n glich
Ġ ra
ekt or
ĠBau m
Ġz eigen
ĠKompon ist
ĠF ig
om o
kl us
ĠWirtschaft s
ber n
Ġev ent
J o
y a
Pro perties
ĠEnt scheid
ĠPfl anzen
te ten
C olle
Ã¤t ter
gr enz
ĠS yn
land s
Ġ );
ĠT eile
lich keiten
al es
Ġge geben
fall en
b us
C ache
in fo
Ġd efault
Ġer r
au sen
Ġun ver
iz er
l Ã¶sung
ic o
Ġ+ =
t liche
lie gen
eren ce
Ġcon text
C ON
u ster
ĠA g
ĠP res
ĠP lay
ĠL ied
Ġent halten
c lient
7 1
V iew
ĠSt at
ĠSp ez
la f
atch er
wissenschaft ler
S V
ĠW alter
en ten
st att
n eter
be ck
Ġwel cher
Ġeinzel nen
ĠW all
Ġwirk lich
Ġer weiter
C D
0 8
b ischof
ĠNach bar
ĠGeb urt
Ġin put
7 2
ĠSch lag
ĠerwÃ¤hn t
ĠStr u
a iled
ĠM ess
Ġn ehmen
Ġerh Ã¤lt
meister schaften
ĠPhil ipp
ĠS tern
Ġc all
ug h
ĠP ublik
ot o
S I
Ġorg anis
ĠSch warz
tig keit
amil ie
oss ible
d aten
on ie
Ġo ffiziel
sp h
Ġ195 4
Pro du
ĠnatÃ¼r lich
fÃ¶r m
E X
ĠStadt teil
Ġehemal ige
t a
Ġbes itzt
en g
ĠJ er
fass ung
s ei
ay s
Ġel ement
st eh
ĠBl ick
Ġmo dern
ĠA uss
ab eth
S C
f alen
s dorf
v is
ĠKon tr
ĠW ahr
og le
m eld
ã ģ
Ã¼ ge
is Empty
ĠD ann
ĠL Ã¤nge
ut her
Ġj apan
Ġunser en
Â °
Ġver ein
ĠStand ard
ĠLin ie
Ġev angel
Ã¼ st
dr esse
ĠJ es
yn am
ĠEx ception
s a
tr aum
Ġ7 0
ĠL OG
W er
ĠSchauspieler in
ĠK al
ot al
20 18
richt ungen
rem ove
E d
S ON
Ar ch
ĠmÃ¶ch te
i ol
Ġb ilden
and elt
ĠIn teger
ĠZeit schrift
ĠS w
ĠP rivat
ĠverÃ¶ffentlich te
<? >
d at
ĠVer Ã¶ffentlich
ĠDenk mal
oll ar
fahr er
9 3
ĠPh ys
ĠJ ean
ĠLie be
ĠD amen
ff er
ap e
z og
ĠT ruppen
ĠS ow
Ġ195 3
ĠKÃ¶nig reich
ĠSchl acht
Ġ193 6
t he
Ġge baut
Ġj Ã¤hr
ĠNach folger
Qu ery
v on
Ġweiter hin
d k
hal le
Ġen try
Ġar e
i j
D efinition
ate in
ĠJ ames
and s
at ers
ri ck
ĠB ud
em ann
Ġj ava
Ġhei ÃŁt
č Ċĉĉĉ
ĠG al
Ġj Ã¼n
ĠGe orge
C onnection
st o
Ġk ennen
rÃ¤s ent
zie hen
ĠUnterstÃ¼tz ung
Ġneu es
ĠEisen bahn
0 2
T ER
ĠBl Ã¼
S te
m ap
u hl
ĠR Ã¶
Ġk omp
Ġneu er
ĠPol en
br acht
Ġmo der
au tor
ut ure
k arte
âĢ ŀ
6 7
ĠE lement
ĠUm welt
ĠsÃ¼d lich
ĠFen ster
C ms
il ler
Ġp rom
ĠZeit punkt
bet rieb
g arten
Ġsie ht
ĠR itter
o o
ĠO ffizielle
Ã¤hl te
ĠFor schung
Hoch schullehrer
ĠR h
Ġ194 7
ĠAn n
olog y
w urf
ei sen
ĠB ack
ĠH Ã¶r
Ġ195 1
Ġle dig
S up
Ġo ben
ĠMa inz
ĊĠĠĠĠĠĠĠĠĠĠĠĠĠĠĠĠĠĠĠĠĠĠĠĠĠĠĠĠĠĠĠĠ ĠĠĠĠĠĠĠĠĠĠĠĠĠĠĠĠ
L evel
am in
n ungs
ie ger
ĠAb schluss
S ource
u a
ĠB rie
Ġer folgt
mit t
Ġinternational en
i w
inde stens
\ "
ag d
Ã¡ n
ĠZentr um
ĠGr Ã¼ndung
Ġeigen tlich
Z u
ou ver
s itz
ĠAn ti
S el
ĠS onder
ir m
Ġausge zeichnet
ĠFol gen
ĠgrÃ¼n dete
ot te
ass ung
Ġw ohn
ĠW as
Ã¶ pf
Ġblei bt
ow ed
w ill
Ġ9 0
ie ben
ĊĠĠĠĠĠĠĠĠ ĠĠĠĠĠ
Ġpol n
Ġerh Ã¶
tr ainer
ieren den
ĠZusammen arbeit
Q L
k an
Ġbild et
. ");
ĠT Ã¼r
ĠGot tes
r unde
ĠâĢ ¦
l ad
deut sch
Ġstamm t
A X
ļ Ń
Ġd est
ĠD azu
imm ung
Ġhei ra
ĠSt ar
Ġsch loss
spr uch
ĠH um
ĠH igh
C om
ter ator
ĠL eitung
Ġk aum
Ġm essage
Ġ3 2
ĠK ern
end es
on y
ol or
amerikan ische
Ġh ol
Ġm indestens
Ġl Ã¤nger
ĠbetrÃ¤ gt
F e
N ational
eg ment
Ġre c
An y
6 2
Ġein ger
s berg
Ġn immt
M ax
v ider
ers eits
Ġsel ben
i i
l am
au b
ĠKl aus
Ġrech ts
ĠnÃ¶rd lich
Ġent spr
ĠGer man
Ad dress
Ġledig lich
N ew
i or
ĠAn gel
ĠVerein s
Ġgesam te
Ġl o
ĠDok ument
D a
ie ÃŁen
Ã¤ ger
Ġumf asst
wÃ¼r dig
M in
z us
ĠIhr en
ĠP e
Ġp h
Ġbr ingen
ĠDÃ¼sseld orf
Ċ Ċĉĉ
ĠAn schluss
et a
tern ehmer
ĠAb geord
P f
S ession
Ċ ĠĠ
ĠUm gebung
Ġbel eg
an lagen
mus eum
ic tion
ĠAben d
7 3
ĠH elm
zw ischen
M ill
l eiter
âĢ ĺ
ĠâĢ ľ
Ġ> =
ĠP unkte
ĠL ong
f unk
ĠN orm
la w
Ġj Ã¼d
v ille
Ġs etzt
Ġb l
ĠE hr
tig te
form ation
ref ix
ĠL ab
Ċ ĠĠĠĠ
ah nen
Ġ4 5
bar keit
Ġern annt
Ġpolit ischen
' t
Ġpro f
d et
lag er
halt ung
ww w
Ġ- >
leich t
Ġeinz ige
zeich nis
b ro
Ġ5 00
ĠfrÃ¼ h
Ġentwick elte
V erk
ĠO pen
ĠC hef
Ent ity
b Ã¼rger
Ġbe ein
Ġh as
ĠJ ung
pr Ã¤s
Ġvor her
ĠTra in
Ġp rak
ĠhÃ¶ her
ĠVer such
U E
hal ts
verwalt ung
h eb
ul a
D urch
Ġd adurch
Ġ19 18
k or
Ġgew orden
ĠAl bert
6 9
c ontains
ĠF ehler
ab l
As ync
alif orn
Ġd at
ĠR un
Ã¼nd eten
eig net
6 8
Ġst ammen
A c
P ort
Ã¼hr en
ez ep
Ġo ption
d in
au ern
ahr en
ic t
Ã¼ck s
Ġkn app
p ath
ĠT urm
ymnas ium
ti en
ĠAn na
f unktion
Ġm ap
Ã ¸
ell es
Ġ ed
ĠH art
k ra
st anz
ek ten
trib utes
s m
Ä ģ
et ern
ĠEnt wick
Ch ild
q l
ek tion
Ġverl oren
C olumn
ĠÃ¶sterreich ischer
ĠK u
im it
Ġ193 4
ĠzusÃ¤tz lich
ĠGrenz e
O S
w ork
ĠP reuÃŁ
ĠC amp
ĠEp is
z ub
get Message
ĠS Ã¤
B e
Ġver heiratet
ma ÃŁ
ĠIhr er
ie ur
ĠM Ã¤dchen
Ġp assen
z a
ĠVol k
denk mal
ĠL Ã¼
for schung
L egt
res ult
Ġbek annte
Ñ Ģ
ic ate
ĠOr gel
pf lich
Ġgleich zeitig
L ong
ĠZ ei
T em
Ġv an
ĠK op
ĠT e
ĠSch les
ĠSpr ach
ĠgrÃ¶ÃŁ te
k raft
Ġje de
ĠWei se
' :
b ten
ĠR and
ĠAr n
s Ã¤tze
Ġt arget
By tes
oc i
bau ten
Ġunser em
Ġin dem
ĠH eid
ĠQu alif
ĠHoch schule
st ate
on om
ĠW ild
Ġbeg innt
den ten
ĠÃ¶ff entlichen
Ġd ich
Ġ193 7
ĠG Ã¤
ĠAl ler
ep age
Ġer war
ĠJ ust
ag te
ĠL eg
ĠCh amp
ock en
Ġzahl reichen
j ekte
ĠN ik
ĠZ immer
ie ÃŁ
jÃ¤hr ige
W eiter
g ibt
au ber
Ġh alten
all el
ĠOr iginal
ven tion
Ġb em
ĠC ap
ĠReg ierungs
ĠH u
Ġver k
ĠRud olf
0 4
ĠT urnier
rei ber
8 1
b is
ĠKir ch
ĠAk tiv
Ġtr ad
spr ung
ĠBez irk
Ġganz e
7 4
6 3
A ction
a at
k ampf
ĠB on
lo c
Ð ½
Ã¤dag og
Ġkehr te
Ur l
T ag
b ef
ĠS S
Ġarb eiten
egr Ã¼ndet
6 1
end ar
ĠZeit ung
ĠWien er
Ġwir tschaft
par tement
ĠAus gabe
fl Ã¤chen
ĠGr Ã¶ÃŁe
gew icht
I V
ĠS ant
Ġf iel
get Value
ĠHal le
Ġf ind
ĠH ash
Ġt Ã¤
Ġben annt
bez irk
Ġdes halb
G B
stell te
Ġmar shall
ĠM ass
ĠT rad
ĠUn ion
Ġa c
um Ã¤n
Ġs b
ĠMa schinen
ohl en
9 2
A uch
ic es
Ġgesch lossen
Tra cing
ra el
ks am
ĠMÃ¼l ler
ĠK er
y th
ĠRo y
Ġp aar
B lock
ĠN icht
Ġange geben
schein lich
m ehr
gemein schaft
ĠTra iner
ĠBay er
i men
Ġst Ã¤r
() ))
ĠBes onder
s es
ak tiv
| }
an ische
ĠfrÃ¼ hen
Ã¤n n
D ec
ĠB eim
ĠD or
ĠW oche
Ġver d
k r
st Ã¤tte
ĠAl ten
ĠMed izin
I L
eu cht
ad ata
ĠTeil nehmer
w ord
pro chen
er tif
Ã¼r n
u c
ĠA ktion
ist in
ungs ver
hol z
irec tory
T H
ĠM iss
ĠN ur
Ġge stellt
ĠVer wendung
Ġs ex
ĠM as
Str a
ĠP et
ĠI V
ĠHer bst
ĠEv angel
T ree
ari able
Ġd ire
Ġk rit
ĠEm pf
9 8
M on
ann ot
Ġp r
5 2
ĠB ill
ĠIn str
lie fert
ĠAngeb ot
n amen
org ung
ĠAndre as
m at
ĠD ek
ĠStr om
rau cht
Ġheira tete
m p
ĠS uche
ĠFl Ã¤che
ĠT V
Ġdar f
ĠF Ã¤l
B yte
ĠT om
etz en
stit ut
Ġl ine
rech ts
ian a
Ãĸ sterreich
Ġh ab
lau ben
Ġerziel te
n der
n itz
ĠSch ool
ĠSt ock
ver t
ĠOrg anisation
S D
ĠEinwohn ern
qu es
ip s
kl asse
Ġind ividu
ec ute
mittel t
wert ung
Ġâ ļŃ
ĠP ri
rep ublik
B ahn
b orn
Ġ euch
ĠM erk
ĠF ischer
Ġh Ã¤tte
Ġso ur
ĠZu kunft
Ġaktu elle
Ġs ervice
and lung
ĠAb s
ire d
bl att
O ber
b le
ĠProdu kte
Ġsof ort
Ġn ext
ver tr
iel ten
Ġ193 5
Ã¤n gt
ĠgroÃŁ er
Ġall gemein
Ġqu alif
ĠFried hof
ĠF e
ĠfranzÃ¶s ische
il es
ĠO s
ishockey spieler
9 4
C ase
ĠK olle
Ġjed em
ĠChrist oph
Ġgesam ten
le ger
ir g
Ġver br
ĠMus ic
NA ME
Ġer mÃ¶glich
ĠJ ac
Ġzul etzt
ĠK lav
ĠW erner
ech net
ĠGÃ¶ tt
ĠP rÃ¼
ĠT ur
ĠEs sen
Ġein f
is Any
ĉĉ ĉĉ
5 8
Ġb ald
ĠG ran
ĠO ut
de f
A M
or gt
z Ã¤hl
Ġp osit
arr y
Ġbek ommen
Ġwen ige
ĠK re
Tracing Enabled
ĠEx per
Ġd efin
ĠB onn
ick t
j o
ie gen
rei he
ce pt
er ei
Ã¼ gen
Ġbef and
mÃ¤ ler
Ã¤hr t
ma x
c is
Ã ¢
un ion
Ã¤s ser
st attung
haus es
PD F
ĠHerr schaft
herap ie
B C
l Ã¤ufer
isAny TracingEnabled
ĠAut o
ib r
haf en
Ġ19 00
TY PE
ĠStru ktur
c tor
an walt
ĠV ic
Ġr ichtig
ĠAn der
lo sen
Ġblei ben
T ask
par se
amerikan ischen
Ġerschien en
Amer ikaner
ic y
8 2
Ġsei en
Ã¼r gen
ĠSchm id
ĠVerkehr s
5 6
Ġwer de
ĠFl or
ĠColle ction
ĠD isk
ĠF ernse
ĠV is
ĠBr Ã¼
v o
Ġaus schlieÃŁlich
5 3
au pt
g ie
l s
¿ ½
Ġf anden
g arn
h Ã¤user
ĠAr m
zahl en
igit alis
ĠunterstÃ¼tz t
end orf
Obj ekt
r am
t d
ent liche
p unkte
ĠMen sch
Ġjeweil igen
ĠD Ã©
ĠJ ak
les en
ĠStaff el
ĠUnternehmen s
ĠTechn ik
ĠB eck
Ã¼l lt
ĠHeil igen
ï ¿½
ĠBau ern
ĠMon ate
ĠJ ack
Ġdien te
H el
b ase
Ñ Ĥ
uf e
ĠBild ung
ĠRec ords
wÃ¤r ts
G egrÃ¼ndet
Ġm Ã¶
Ġbest e
P h
ĠG it
ĠE ich
g ut
Ġ192 8
itu ation
ge legt
at hlet
ĠF und
wei le
ĠEin fluss
if e
gew iesen
stru ktion
eich en
Ġ user
Ġs ize
Ġre st
ge g
ĠD ir
ter ie
qu ar
ĠHand el
ĠfranzÃ¶s ischer
ĠDi pl
K ultur
k und
imm el
A ss
J ob
ĠBei trag
()) );
Ġall ein
t lichen
ĠL ager
Ġw rite
ĠRo sen
aup ts
ĠR ob
Ġr ich
Ġ192 9
ask et
5 1
5 7
bau m
Ġehemal iger
ĠFest ival
ĠBr emen
Ġgen ommen
Ġges etzt
Ġbrit ischen
ĠS zen
Ġm m
9 6
ĠAn schlieÃŁend
ĠFot o
ro ffen
ĠÃ¤l te
Ġi de
serv ice
Ġ19 19
k unde
Ġk aufen
ond s
auf trag
inde st
w en
ĠF ac
Ġh el
ĠAuf gaben
ĠPort ug
Ġdamal igen
l ong
n ey
Ġgr und
ĠLou is
ĠS onnen
Ġer forder
Ġbet r
ĠFot os
C o
b yte
tr ol
ĠV iz
ad a
Ġun mittel
ink el
Ġbede utet
Typ es
wÃ¼rdig keiten
I fc
Ġc an
lu ster
Jahr hundert
W Ã¼rttemberg
ĠIm m
ĠWeiter e
ĠFinal e
sh of
b ung
g Ã¤nger
Ġent scheiden
ĠspÃ¤ter en
R uft
ĠS l
Ġm en
eb ug
lin ge
ĠFrei burg
g a
ig ungs
stell ten
ĠKin dern
5 4
ĠM ission
ĠL ink
ig i
ĠRad io
anstalt ungen
rid ge
ĠP aar
Ġer setzt
U M
ĠM Ã¶
um p
ĠprÃ¤ sen
ĠverfÃ¼ gt
Ġver kauf
sp rÃ¼
ĠS ing
Ġf in
umen te
is D
ĠR ek
Ġlin ks
un sch
or der
l eit
Ġf unktion
ĠBr em
ĠFarb e
ĠStÃ¤d te
L ink
leg ung
ĠS atz
ĠVertr eter
ĠD ivision
isch em
Ġzw eit
Ġgleich nam
ommer ce
D I
R ule
u gen
Ġ ;
or ien
ĠUn ited
Ġbr achte
c omp
ĠIn f
ĠGer icht
ĠFÃ¼r st
west lich
Ġh aupts
ĠN amens
ĠZ uf
aly se
ĠB ig
id a
iz ation
spr ache
ri ge
1 00
ĠS or
K E
Ã¶l f
Ġdurch gefÃ¼hrt
print ln
ehens wÃ¼rdigkeiten
Ġs od
Ġf irst
Ġ rei
ĠG et
and t
Ġo bj
es h
ĠLeist ung
Ġsour ce
w issenschaften
le hn
iv il
ĠJu den
N eu
p oint
Ġm ark
ĠAn gaben
Ġnot wend
g raf
sp art
Ġtr Ã¤gt
app ing
V AL
W ie
ĠG attung
ĠL Ã¤ndern
Ġkl einer
b s
sch uhe
Ġh ttp
Ġge prÃ¤
er o
cript or
Ġwelt weit
! !
scha fter
R eader
G er
ĠEl is
ĠS ib
ĠBez irks
Ġumf assen
T V
x y
ĠZusammen hang
techn ik
ĠM ot
Ġl au
ri ffen
Ġpolit ische
ĠMat th
O P
ĠG lock
schl Ã¤
anad a
ieren de
ĠH off
Ġjed es
Ġup date
UL T
H ier
ĠR enn
Ġp ort
ĠCharl es
Ã¼ ste
Ġi tem
ĠR iver
ĠPat ienten
om ent
ĠChar akter
M ethode
b as
f ekt
N eben
a ster
l Ã¤nder
ĠVor stand
Ġle bt
Ġm ag
ĠE g
ent al
Ġ193 2
Ã¶rder t
ĠBen utz
i ar
ĠN orth
Ġent st
ĠWebs eite
in sel
ĠS ingle
Ser ver
Ġg uten
9 7
Ġl angen
all owed
.. ..
res ource
Ġ192 5
ĠNutz ung
Ġkosten los
p ossible
ist ent
erv let
Trace Component
setz ungen
stÃ¤nd ige
ĠS V
Ã© r
ĠK omb
ĠW ander
ĠColle ge
ĠB arb
Ġge fÃ¼hrt
ĠSch war
ikan ische
Ġstatt f
Service Response
ĠFamilien name
Ġn utzen
ĠT agen
Ġer ror
Ġge bracht
Ġbel ieb
sub string
o tion
ĠS icht
ul en
ĠAn teil
iden t
O l
f ace
Ġl eich
eth oden
ĠWer te
B ean
Ġ1 000
Ã¤n e
etail s
Ġ19 14
Ġl aut
Ġzun ehmen
Ġbeleg te
asket ball
Ġhaupts Ã¤chlich
ra te
eich ert
ĠerÃ¶ff net
d ar
ĠAn lage
Ġerh eb
schau spieler
ĠProblem e
L S
T hread
at ik
Ġw or
Ġs ah
ĠDan iel
tier ten
um pf
ĠReg isseur
tier ung
k ret
ul ation
op s
ĠSold aten
Ġtrad ition
g ab
h te
ĊĠĠĠĠĠĠĠĠĠĠĠĠĠĠĠĠĠĠĠĠĠĠĠĠĠĠĠĠĠĠĠĠ ĠĠĠĠĠĠĠĠ
K arriere
el berg
ĠB lack
ter t
Ġg riech
ĠVer br
ĠVer kauf
ĠH y
ad o
art h
ib el
Ġex tr
Sp ec
Ġbeteil igt
Gemein de
D ir
m t
Ġin tegr
ĠF ritz
ser e
ĠAut om
Ġ* /
ĠComp uter
Ġregel mÃ¤ÃŁig
E l
ĠPerson al
W Ã¤hrend
r el
ĠB ra
ĠW ettbewerb
ĠVerwalt ung
it ts
ĠG Ã¼n
ĠF ak
ti al
ach ts
ĠStr af
ĠNational sozial
S a
h auer
Ġgel ten
c up
R em
ie fer
Ġj unge
Ġtr agen
ĠSicher heit
ĠS ar
ay out
Ã¤l lt
Ġschw ed
ĠK ab
fol gen
ĠAb st
ĠÃ¼bern ommen
ĠL ig
h emal
ĠFir men
ĠL ive
AT ION
UR L
ĠVier tel
ĠKlav ier
ĠG ust
Ġt un
pf el
ĠPra xis
M ode
ĠC ast
ler s
Ġmus sten
S P
g yp
m esser
ĠP rie
mittel n
st il
Ġb uffer
ĠH ir
Loc al
E urop
ĠRef orm
h agen
ĠB ab
ver se
Ã¼n der
Ġkl ar
own load
k ur
Ġ time
rei tet
ĠZeich en
or et
= "
st Ã¤d
ĠH und
ĠW ehr
Ġexten ds
tr ieb
rÃ¤siden ten
P reis
on ym
ĠT enn
Ġver antwort
ĠAus stellung
Werk e
R o
Z ur
Ġb ein
ĠD irektor
w o
Ġd ur
st rÃ¤ger
ĠO ffiz
kir chen
h och
z ur
ĠG ro
ĠW ach
ĠSp anien
orf en
ĠMus iker
ĠDar stellung
W riter
p ace
ĠR Ã¤
ĠN av
ĠErgeb nisse
ĠMath emat
er in
ĠMa c
ĠT Ã¤tigkeit
ĠBÃ¼ cher
Ġvoll stÃ¤ndig
An notation
ĠQu ellen
Ġpar ent
ĠMo dern
ĠDreh buch
Ċ ĠĊ
ĠM un
ĠC up
ĠG Ã¼ter
eil t
Â «
ĠT urn
ĠSo uth
n ehm
ge d
Ġj ungen
in put
Ġro w
B undes
ĠP fer
St ore
Ġ< =
iff er
ĠT hr
Ġan s
ass el
Ġgesch rieben
T R
Ġz eig
wer ks
zeich nung
Ã¼hl en
Ã ½
ist ry
Ġsod ass
w al
Ġk or
vers ion
Ġfol gt
ĠHom epage
ĠZust and
ĠR is
Ġl ast
Verk ehr
P osition
Ġh ave
Ġ192 7
bo x
Ġhistor ischen
p osition
ĠJ ob
ien en
St adt
sch ine
ĠO ption
Ġander er
Ġs ynchron
hil fe
R ad
ĠL eicht
ĠNeu e
ĠTrad ition
Ġ ag
ĠSt ahl
rik t
ĠA uff
ĠK lass
Ġcon fig
forder ungen
I P
ĠM acht
ĠW issen
wei te
Ġein st
ĠIn vest
ĠNatur schutz
Ġentsp rech
gebie te
Ġd unk
mit glied
Ġangeb oten
N ieder
ĠWei hn
ĠVorsitzen der
ĠM ik
Ġ} );
Ġf uer
st Ã¤nde
ĠS at
ur y
ĠK ey
ĠE vent
ĠHinter grund
Ġch ines
g ruppen
C l
w echsel
ĠW agen
ĠW ies
lau bt
ĠW es
ĠO ff
ĠâĢ ļ
Ñ ģ
Ġs uchen
Ġb au
Ġent lang
ĠBer eits
r is
ver lag
Ġreg ion
Val id
Ġ Ã¶stlich
Ġf e
ĠIn ner
ed ia
mar y
ĠBas el
ĠM and
Ġin itial
Ã¼n dete
F unction
at ung
Ġwest lich
Ä «
ĠR ing
ĠW eil
la zz
Ġverl or
ĠGew inn
h or
anz er
lÃ¤nd ischen
Ġ text
et ing
ĠString Builder
Ġweiter er
ett ings
Ġâ Ĥ¬
ĠZentr al
ĠT schech
ĠSpiel zeit
ĠBei trÃ¤ge
ab ase
f ort
ĠSp Ã¤ter
ĠLand wirtschaft
ĠTem peratur
Ġeurop Ã¤ischen
un e
age gen
ĠMeister schaft
wind igkeit
Colle ction
al a
ĠN Ã¼rn
ĠVer teid
red it
Ġg anzen
sp ann
ĠFahr zeug
ĠL ok
Ã¼ck t
P olit
S Ã¼d
b rit
d el
Å Ļ
on ik
od or
AT E
ĠHau t
Verein igte
O b
ĠE U
om et
Ġber eit
Ġpro perty
fer enz
ĠSo ftware
I t
Ġv Ã¶l
ĠInter esse
ĠRuss land
ĠS up
ĠR oll
rei g
sel ben
B and
D O
ĠC orn
Ġp art
ind ungen
if ied
Or der
r ing
Ġin form
Ġver gleich
Ġunter st
ard s
ĠT at
ĠL y
H ttp
In put
ĠStu denten
ĠE lem
iel le
ec ts
ĠW echsel
ĠVer fahren
Ġdar an
klÃ¤r ung
F orm
sch m
ges p
iet y
ĠRich ter
Ġsol che
c lose
in ce
ĠS ter
Ġver treten
ĠAuf stieg
lei tet
ĠBest and
Ġverm ut
-------- --------
sie he
r ats
Ã £
ĠH oll
il dete
Ġg Ã¼nst
az in
Im age
ĠRel ig
ĠIde en
ĠW etter
Ġun abhÃ¤ng
ĠBetrieb s
l igen
Ġ3 00
Ð¾ Ð
au st
ust om
vers ammlung
Ber lin
Ġir gend
T E
ĠDeutsch er
ĠStand ort
Mus ik
T arget
c er
y pen
ĠRev olution
ĠSpez ial
ĠK ammer
ĠR ennen
ĠBo x
ĠÃĦ r
Ġc olumn
Ref erence
b a
Ġver lieÃŁ
erk unft
ĠGegen satz
ĠDÃ© partement
B ase
ar re
par e
Aus zeichnungen
Ġdi ent
ĠS ach
get Class
Ġbe an
mit h
ieh ungs
Stra ÃŁe
Ġh ielt
Ġst ieg
ĠPro zess
Ġgew innen
zeich nete
Ġ192 6
B est
n ern
Ġs agte
Ġerst es
ĠKarl s
Ã¼ hm
Ġfol gten
Ġrel ativ
c ol
ĠG re
ĠC entr
Ġo ther
av en
Ġaut omat
9 1
S G
Ġp reuÃŁ
ĠSte fan
Ġzerst Ã¶rt
Ã¶ nen
ĠU p
for men
T er
f alse
ĠIs land
fass ungs
Ġwichtig sten
O ffset
an geb
Ġt ats
ehr t
enz t
Ġ192 4
ĠMet all
ĠwÃ¼r den
w in
Sch wei
ÃŃ n
ĠStim men
ach im
Ġr ein
Ġbrit ischer
Ġprom ov
M en
el ement
ĠB il
ĠD ro
Ġvermut lich
ĠI st
ĠBesch reibung
N O
S ec
20 17
Lo ader
m acht
as p
ĠF arben
ĠL os
Ġfer tig
ĠSt off
geb nisse
ĠArchite ktur
Ġbestimm ten
Ġver kauft
Ġl ok
gef Ã¤hr
n ess
ĠElis abeth
G ruppe
ĠP a
St ack
Ġwich tige
ĠerklÃ¤r t
D ep
à ®
ra w
ran t
e ar
st Ã¤r
ĠB ist
Ġbet rieben
ĠArb eiter
Ġsogen annten
ĠM ex
Ã¼hr ung
ĠGr and
d urch
Ã¼ m
gang s
Ġarb eitet
ennt nis
Ġer l
Or g
Ġw ww
ĠPar am
d essen
ĠL ex
E hemal
ĠA v
ĠFran cis
. "
C omm
I s
lin ien
Ġgesch affen
ĠDem okrat
Up date
v olle
Ã¤ ische
anz e
ĠNach richten
st ed
ĠF in
ĠW affen
ĠN ummer
ĠGroÃŁ en
ĠArch iv
M ark
Ġeng ag
z ul
Ġs k
ĠM Ã¤r
ĠC an
Ġan zu
ad rat
ur ity
iel len
ĠK rank
Ġeinz eln
er te
gel assen
ĠmÃ¶ch ten
G et
Ġ ter
ot a
Ġversuch t
h el
lin ik
ĠN a
ĠN ic
Ġdar in
ĠY ou
ĠS amm
Ġwieder um
Ġbesch rieben
b uild
in ar
ĠK up
ĠH aar
Ġausge tragen
ha ber
Ġval id
F ol
u til
ro t
Ġch ild
ontin ue
p ed
ĠAut oren
ĠWei ÃŁ
B ox
ĠG ir
ĠO pfer
ver l
ĠMann schaften
Z eit
at is
ti st
ĠAb teilung
Ġpar se
Ã Ħ
Ġle bte
j or
un t
ĠL ieb
geb racht
ĠDar m
Ġlog ger
ist isch
gesch oss
A cc
S U
gen er
Ġer inn
ah er
ess el
ac ter
Par ent
krÃ¤ fte
A pp
ĠK arten
ĠL im
ĠC O
Ġ Ã¶
ĠS ec
Ġf ormat
Ġlie fert
ĠHau se
Ġd igit
el and
ĠDat ei
or fer
ĠA sp
ĠA ud
ver trag
kon om
med aille
Ġet c
Ã¤nd ler
Ġin zwischen
ĠC re
19 45
ĠHaupt stadt
in ts
ĠW erb
ut or
Ġge bild
fr ist
Ġdarauf hin
Bau werk
T echn
n ational
ow ski
Ġverl Ã¤uft
Ġmus ikal
Ġentsprech end
C ontainer
er er
ĠMa y
Ġ1 20
ĠH it
ri a
ess ages
sh eim
d as
is Entry
ĠH eute
isEntry Enabled
ĠM em
Ġo per
Ġ192 2
K reis
Å «
Ġb uilder
ĠĊĠĊ ĠĊ
gn ore
ĠFÃ¼hr ung
Ġ4 00
Ġgew onnen
( '
Ġd ec
Ã¤ den
ĠAc adem
d ouble
an i
ĠSch ne
ĠTel ef
Ġzw Ã¶lf
Ġar gs
alis iert
l uss
ĠUr s
Ġer baut
ĠPap st
ĠB u
ĠW issenschaften
um er
Un it
Option s
n ode
ĠG alerie
ĠV om
denk mÃ¤ler
Ġs w
Ã¶r en
Ã¼t te
ash ington
g au
ĠM ul
o us
ĠBern hard
ĠGel Ã¤nde
Ġverl assen
Ġm einer
Ġum fang
iter ator
ĠKn oten
ĠBlÃ¼ ten
ĠT ar
Ġh Ã¤lt
ĠStr eit
Ġausge stat
ouver ne
n etz
ĠOr tschaft
Ġverlie hen
it hm
reu en
Ã¤hn ung
ĠMittel alter
H T
R ow
ĠSt atus
Ġent deckt
gemein den
iz ierte
ĠÃĦ nder
\ \
f ur
Ä ±
ĠMa il
B l
z ern
ĠG all
ĠP rom
ap ter
R un
ĠWider stand
ĠV ort
Ġ19 10
ĠÃ Ĺ
fer ence
Ġ192 3
c i
Ġk anad
Ã ±
Ġkann st
deut schen
omin iert
Ġunmittel bar
ar tet
ĠJ SON
er be
ĠL eit
we der
B esch
ti scher
Ġbest immt
ĠÃĸ l
ieh ungen
ok e
Ġex p
d b
and a
ĠZ eiten
ech ts
ĠVerb and
Val ues
L ock
sch weig
gr am
S k
ĠG ru
omm ern
ĠKl assen
ĠAl fred
pl y
ĠAd olf
ĠS uch
Ġw issen
n ummer
ĠS ammlung
ĠSchw ester
Ġbr eit
ĠKomm and
arch iv
G ER
Ġg roup
tig ten
ĠOr te
ĠVor der
st ift
Ġ3 3
ied lung
ĠAng riff
Ġg alt
ack en
pro gramm
Ġ193 1
ĠÃĸff entlich
d t
s achsen
ger s
Pro vider
Ġwen igen
stoff e
ĠBeruf s
ĠSin ne
ĠK as
ĠLe op
ĠSchau spiel
Ġsetz en
ĠM ur
ver fahren
Ġst ets
Ġun bek
v a
v ar
ĠK rim
Ġheu tige
T P
se x
Ġaus ger
II I
Aut or
H H
ĠS ign
at rix
ann ien
Ġver fÃ¼g
minister ium
ĠOrg anis
ei ben
ĠHand els
ĠSoc iety
b ul
g ing
ĠS n
de st
ĠÃ¼ber wiegend
Ã¶ hne
20 16
Ã¤nd ig
ĠGo ogle
ĠKrit ik
T O
in ess
ik ations
ĠBesuch er
20 13
ĠBez ug
ĠSow jet
din and
ĠÃľ berg
ĠStel len
ĠPres se
R ead
Ġst aat
reg ierung
P RO
ĠD ate
ĠLeist ungen
P os
b i
g ern
ĠEin fÃ¼hrung
gangen en
ĠGeburt stag
gr Ã¶ÃŁ
ĠAuf bau
ĠLand schaft
s or
Ã ´
ĠSch riften
S ti
ĠP orn
tr Ã¤t
ue ber
ide os
fel der
ĠRoy al
T op
z in
Ġge gebenen
sp ar
ĠDar Ã¼ber
hol t
Ġmittel s
ĠD Ã¶r
il en
uch ten
Ġbe endete
Ã© e
ĠHam burger
D P
v ier
ch em
st ern
st euer
ĠS on
20 11
ĠBl ut
Ã¼l l
leg te
ĠTran sport
re form
ĠKap elle
Ġm ilitÃ¤r
ot ten
A dresse
u id
ĠHo use
ĠSti ftung
Ã¶ der
ĠEin trag
20 10
ĠD ichter
ĠT ore
ĠEr de
zu stellen
R L
ur a
Ġsch war
ĠAuf gabe
und le
Ġw ider
lie der
Ġtr e
20 15
ĠGraf en
ĠS ym
Ġw eg
ĠL ieder
ĠSp ann
weg s
leist ung
alis ierung
UR I
n ant
u gend
Ġf ilter
ĠLu x
as er
ĠP au
ĠU ser
oot ball
ĠJak ob
k osten
st echn
ĠD Ã¤n
Ġge halten
Ġun ten
st uhl
at al
ĠR am
il ian
Ã¶st lichen
ĠSicher heits
Ã£ o
L abel
ĠK och
Ġ3 8
th ur
ht t
bo gen
e den
f rau
j ava
Ġtr an
ick s
ĠMar c
ĠgehÃ¶r ten
Ã¼l len
w ood
ĠS C
lie fer
io us
ĠK ult
re st
ab les
ĠVer m
Ġ ti
Ġver pflich
Ġ3 6
wer te
West falen
Call back
B ound
o ffen
Ġder zeit
20 14
ĠSchul en
F rank
k lass
ar ia
ĠP ubl
ĠEn gel
ohn er
ken nen
ĠIn tegr
pr et
sk y
Ġout put
ĠT Ã¼rk
ichte ten
teil en
rech te
Ä ĩ
ĠH on
Ã¶ ss
ĠB rau
ĠHo hen
C heck
it le
el se
ĠM ount
Ġauf gerufen
ĠK enn
Ġz Ã¤hlt
ep ar
ĠgrÃ¶ÃŁ ere
] );
d is
s ein
v an
arr en
ĠBew egung
Ġd re
Ġin tens
ĠP eters
tig es
ĠMa ster
ĠKomm ent
ĠT ype
w ander
equ ence
ĠFlug hafen
ĠGrÃ¼n der
c as
ĠB row
ĠH ard
Ġer fahren
Ġl ength
sp or
Ġ192 1
ĠauÃŁer halb
ĠVer halten
Ġpro cess
ĠLe on
ĠRech te
Ã¼ mer
Ġl eitete
ĠKÃ¶nig s
State ment
us ion
ĠVer lauf
Ġbet re
ĠAustr alien
g roup
Ġd agegen
ie m
ĠW appen
Ġar ch
Nach dem
stÃ¤nd igen
Ġamer ikanischen
Ġ eb
au x
Qu ellen
ho ben
R oot
m atch
ĠG roup
ĠR ath
sp ir
Ġob wohl
ĠInter view
an en
Ġh eil
ĠAn wendung
ĠGes pr
an ischer
Ġk ultur
ĠAr zt
ĠGl Ã¼ck
p os
ĠB ir
ĠH ab
ĠWir kung
ĠSied lung
ĠScien ce
ĠGust av
g Ã¼l
In putStream
st ad
ĠT isch
ĠermÃ¶glich t
ge fÃ¼
ĠM ol
ĠF al
ĠW unsch
tr at
Ġp riv
gel d
ĠÃ ī
List e
ĠHÃ¶ hen
ĠArchite kten
ĠE ss
ĠBran denburg
Ġr ule
Ġval ues
H istor
Ġn eg
ĠP la
Ġer le
Ġ19 12
Z um
r and
it ur
amer ika
ĠRe al
Ġar gument
ĠP unkten
Ġt op
ĠEn gl
F ound
I M
Ġ19 13
ĠN ode
Ġur l
st he
ĠD ank
ĠT her
ĠV arian
ĠSie ger
Ġgesp ielt
Ġentspr icht
Ġfin ally
. ),
h i
Ġf lieÃŁ
ĠW ashington
Ġle gte
p o
ĠAb t
Ġqu ery
ĠjÃ¤hr lich
ĠSch laf
Ġaus geb
ĠEntscheid ung
I terator
Ġz eich
ĠE reig
20 12
Ġbek omm
ĠÂ §
ar tige
Ġs icht
ĠE du
amil ien
Ġher r
H L
ĠU N
Ġa v
echs eln
ĠAll gemein
B A
ĠB a
ĠF eder
tr ans
ind ustrie
Ã¶r de
ech te
ĠdÃ¼r fen
ĠB Ã¤
em pl
ĠAuf grund
ĠDeutschland s
ĠPhilosoph ie
Weiter e
B is
c essor
w an
Ġs agen
Ġle er
glie dern
ĠMÃ¶glich keiten
att form
Ġ15 0
g u
Ġd ritte
ĠAller dings
h u
Ġ ass
Ġw uchs
ĠK a
ĠF reu
ĠT iere
ab s
Ġt Ã¼rk
In d
Ġsp ec
sb ach
leist ungen
Ġwahr scheinlich
gem eine
L OG
ch mal
Ã¤ her
ĠL ad
ĠIn fan
Ġander s
ĠPf lege
Client Exception
produ ktion
zip lin
ĠBrie f
sch te
ĠSch uhe
ĠAm ate
deck en
ol s
Ġch rist
ĠGrund lage
ĠIde e
vers icherung
eim ar
man agement
b aden
w es
Ġbek annten
ĠIl l
d ach
k g
is ierte
ĠH ill
eit ag
az on
ĠHistor iker
Ġer gÃ¤n
Ġc omm
Ġvor bei
i od
ĠG eg
ĠH eer
Ġl etzt
ĠObj ekte
Ġhel fen
Ġent stehen
ĠSer ver
Ã¼r f
Ġbek am
it es
ĠG as
ĠJ os
Ġsch warz
ĠMor gen
hef rau
ĠvÃ¶l lig
Ġd Ã¤n
rie d
Ġviel leicht
ĠSchmid t
] ,
Ġ3 4
Ã© s
ĠSti ft
ĠhÃ¶ch sten
Ġproduz iert
meld ung
ĠPrie ster
d f
ur es
Ã¤ st
ak a
Ġab geschlossen
r t
Ġver p
ĠS end
get eilt
reg ion
Ġinternational e
lob al
k ultur
ig r
Ġkompl ett
Ġverantwort lich
z un
Ġw id
Ġbe z
ud es
ĠFer ien
ĠLauf e
i ber
ĠS um
ĠS eb
tiv ity
Ġdar gestellt
Param s
Ġausgestat tet
L in
ĠS PD
ĠB at
Ġge mÃ¤ÃŁ
Con stra
fra gen
ĠLie fer
ĠFer dinand
ĠUl rich
O p
ĠE ck
prÃ¤ sen
ĠBeh andlung
dien ste
Ġgleichnam igen
c u
sp er
ĠTh Ã¼r
Er baut
Ġher gestellt
ĠEurop Ã¤ischen
ĠD E
ĠR eb
rÃ¤ ume
Ġgen annten
Ġ190 8
mÃ¶ gen
ĠTro tz
ĠGesund heits
ĠKonz ert
grenz e
B utton
ĠK ing
bild ungs
FA ULT
ĠÃ¤hn lich
Ġm atch
ĠI f
Ġmittler weile
< >();
P attern
Ã º
ĠW ohl
ĠHer steller
Ġdeutsch sprach
ĠBest e
fra struktur
gent in
k opf
mer ksam
ĠFl Ã¼gel
ĠUr laub
Ġmax imal
ĠjÃ¼n ger
i tem
o ugh
il s
ĠComm un
ad el
elt a
Ġunterschied lichen
Oper ation
c ount
ĠZ us
ĠEr inner
end s
od ing
Ġre qu
br Ã¼cke
oin ts
ei sch
atur es
ĠÃ¶sterreich ischen
brit annien
D el
b ad
c ed
em ark
Ġan ges
af rika
Ġges ehen
ĠSh ow
ĠGÃ¶tt ingen
em e
Ġm einen
ff e
ĠGer hard
Ã¼tz t
ĠStud io
ĠHeid elberg
m ission
zug s
ĠRegion al
g g
h orn
ĠT ime
Ġle bten
Ġkomm un
ĠCar ol
leid ung
ed ig
Ġbesonder e
s ur
Ġb itte
ĠEr b
lie s
In valid
Ġges etz
ĠSib Tr
F uture
ĠG olden
ist enz
ev ent
Ġeinge stellt
Ġrem ove
ĠS ituation
ĠD ev
ĠE hefrau
th eit
ar zt
ĠK urt
scha ffen
ĠAb schnitt
Ġs ession
is on
Ġh il
Ã© n
Ã¤hl ten
ĠMen ge
200 6
ĠFlug zeug
ĠRes erv
aff el
por ted
ĠOb serv
A ug
Ä Ľ
ĠB lock
ĠSch ritt
Ġstar tete
w Ã¤l
Ġs agt
Ġbr ingt
oper ation
ar ischen
ĠJahr zehn
Ã¤chs ischen
ten d
Ġzu gleich
Ġbe ob
ĠErz bischof
Ġsynchron ized
o sen
Ġd ep
ĠS dk
sch auer
Ġo ffset
ob ile
F r
h men
s Ã¤tz
ĠG au
ĠIn halt
Ġsch lech
Ġbet rug
ĠH Ã¤user
Ġan erk
ĠZ ahn
Ġp rivate
Al bum
k Ã¼nf
st Ã¤tten
at o
ĠA str
ĠF ass
il er
Ġwir kte
rie be
Ġmehr fach
glieder t
D oc
g rad
ĠL ind
Ġzu erst
Ġt able
ĠZ en
ĠNeu bau
Ġb lock
ĠL oc
ĠThe ologe
fÃ¤l le
Out put
w all
st ation
' )
h ler
j en
re a
ĠO x
ĠrÃ¶m isch
B ild
M atch
ĠP C
ĠL Ã¶sung
pl Ã¤tze
200 7
ĠgeprÃ¤ gt
Ol ymp
m ord
ĠM ir
Ġh eim
Ġg ingen
Ġsogen annte
m ethod
Ġf ra
ĠSchn itt
ĠLeop old
l Ã¤uf
ĠG rie
olum b
gest altung
ĠErfahr ungen
ĠbeschÃ¤f tigt
ĠSp iegel
Ġ6 5
ĠsÃ¼d lichen
ĠFrÃ¼h jahr
ĠSdk ClientException
ĠK ron
ĠT anz
Ġo ff
ult Ã¤t
se ud
len burg
C ommand
or weg
ĠGesund heit
T im
Ġc ount
Ch ange
wahl en
Ġ{ }
ĠAus druck
ss ystem
k rieges
ul ts
ĠVor aus
af el
En um
k tiv
sp iegel
ĠM i
200 9
Ġbestimm te
f amilie
w ach
Ġ( "
ĠR ezep
Ġ19 17
onn e
Ġlin ken
Ġkur ze
ĠHaup tr
I G
y g
Ġ Ä
Ġ19 11
Ġ4 8
ĠTeil en
Ġersch eint
ĠFr em
ĠH immel
ĠVer hÃ¤ltnis
ĠSo und
ĠMon at
Ġcon tent
ĠgrÃ¶ÃŁ eren
ĠWohn ung
Ġp lan
Des criptor
ĠGÃ¤ ste
m ack
st ream
an isch
Ġge h
Ġj em
Ã¤l de
ĠBr asil
ĠKon fl
ĠBraun schweig
Ġunterst Ã¼tzen
D B
f abrik
ĠE ber
Ã¶r den
Ġunter such
ĠInform ation
ĠRest au
igitalis at
V is
n ers
Ġk Ã¼nstler
ĠGrÃ¼n den
Ã¤us ern
I OException
P S
p erson
ĠC r
Ġge zeigt
ĠUn ternehmer
gesch rieben
ĠFor men
ĠLeist ungs
ĠGeh eim
Ġex ception
er ben
ĠL aw
ian o
gew Ã¶hn
ĠHein z
p end
z ust
Ġf ound
Ġk einer
Ġc ode
al te
Ġp sych
ĠAuf nahme
ĠBundes liga
E Class
ĠTeil nahme
ĠEurop ameister
Ġwei b
ĠTeam s
Ġmoder nen
g y
ĠVer d
Ã¤n en
ĠFor st
Ġengl ischen
Ġitalien ischer
ĠFeuer wehr
P an
W arn
ĠK iel
ĠG reen
Ġge z
Ġl ock
ver stÃ¤nd
ĠKar te
Ã¶ se
Ġ7 5
ĠDeb Ã¼t
Exec ution
Ġprof ession
Ġre p
ĠErz Ã¤hl
Ã¤mpf en
ĠSchles wig
ĠE st
he ute
2 000
Ġw under
ier re
Ġp ost
Ġent weder
ĠSchw eden
ĠAut ob
ĠRef er
ĠVo gel
D isk
N on
f ilter
ĠK ard
ĠT rau
and te
con text
Ġbrit ische
Ġloc al
Ġd auer
ĠDaten bank
The ater
Ġverst Ã¤r
N ON
t op
Ġ Ã¶ffentlich
ĠMar ie
Ġsow jet
Wir tschaft
ĠAss oci
Met adata
v ir
ĠS aar
rei ter
men sion
Ġerw arb
ĠP rag
ĠL am
ir che
Ġc ontinue
dentif ier
Ġ3 7
ĠĊĊ ĠĊ
ĠGew icht
ĠNÃ¼rn berg
ĠK rÃ¤
bo ten
ĠLin ien
++ ;
ri an
Ġre duz
Ġhin gegen
Ġbel egt
ĠVerÃ¶ffentlich ung
b ilder
k om
k op
ĠB asketball
ĠUn garn
rich ter
rech er
omb in
V ER
r aten
Par ser
Ġb lau
n s
ĠF isch
ĠI T
Ġ190 5
ĠZw eit
mÃ¶glich keiten
G roÃŁ
W ei
Ġr en
m aterial
Ġer stellt
200 5
A uth
or age
iel l
Ġl os
ĠIn iti
Ġweiter es
ĠNord rhein
Ġgef Ã¤hr
Ġweit gehend
B oolean
un a
Ġs ystem
Ġerweiter t
J uni
ck t
ĠJ Ã¼rgen
ver treten
ĠVor gÃ¤nger
p hen
ĠN ahr
end a
ĠMon aten
Ã¤h ler
ĠArchite kt
et work
Ġge eignet
arb e
ĠMan agement
ĠKommun ikation
ĠMax im
osit ory
bÃ¼ cher
E G
at oren
ĠIn gen
ĠÃ¼ber haupt
akt or
schul en
Ġentsprechen den
Hel per
ĠB ass
Ġc lient
op ul
Ġent gegen
son sten
ĠMet ern
T I
Ġ one
in os
au ff
ĠO k
ru he
ĠKon gress
ĠVers icher
D ollar
k urr
Ġn amens
ĠC at
200 8
o e
ĠS mith
Ġw ert
ĠH orn
Ġp erson
Ġunterschied liche
Ġeinger ichtet
I FC
ĠZ ul
eck lenburg
Rec ord
ĠBron z
Ġd ein
Ġf Ã¤llt
ĠÃ¼ber tragen
ĠBes atz
Ġ190 6
Welt meisterschaft
W idth
ĠB ett
Ġm ass
ĠH afen
ĠI fc
ĠC oun
og n
Ġ/ *
alis mus
hr e
ist e
ĠVer Ã¤nder
ĠÃ¼ber ra
av or
Ġhoch wer
D en
ĠD ialog
ĠM und
ĠH ell
ro chen
ĠC a
ĠMaÃŁ nahmen
k omp
et ts
ĠD rit
ĠR ay
ĠL aut
op tion
ĠSalz burg
ĠK Ã¶
ol er
iz ieren
Ġ4 2
isD ebug
ip pe
ph an
lan de
ersÃ¶n lichkeiten
ĠAcadem y
o y
Ġz Ã¤hlen
ĠV illa
D efault
u z
ach ter
ĠSch r
Ġl esen
ag ne
ekt ar
rap per
ie den
Ġverb reitet
ĠBild ungs
hei mer
ĠRhein land
sch loss
Ġm ust
ĠT own
Ġerst reck
Ġwes entlich
g Ã¤nge
un c
ĠD ol
ĠStr e
ĠStr ecken
In s
V D
p ft
Ġ5 5
ĠWelt meisterschaft
ĠErfahr ung
Ġbest Ã¤
ĠBei de
ĠFre unde
haf te
h aben
ur l
Ã¶s ungen
čĊ čĊĠĠĠĠĠĠĠ
j i
ten sion
pf lege
Ġber Ã¼hm
Ã¼s sen
ĠBund est
Ġs ec
ĠB ol
ĠB ier
ĠB yte
ĠBild hauer
t ok
Ġd isk
ĠR ost
auf hin
oren z
Ġverw enden
om a
ic ro
Ã¤m lich
Ġstr ing
ĠVic tor
rei f
Ġsch eint
ĠEin heit
ĠInter essen
M O
at i
ul es
ĠAl pen
ĠFÃ¶rder ung
H ash
ie fe
Ġs ech
ĠV iele
ĠJ agd
ĠC lau
ĠEr satz
ĠAl tern
ĠfrÃ¼her en
ĠFernse hen
c ia
k unst
ĠS ab
ig ner
ert ung
ĠPro te
hl en
ĠBet eil
p olit
Ġan ti
Ġ3 9
Ġat tr
ĠSonn tag
f on
Ġb uf
as on
ĠM id
ĠK andid
Ġf ac
ĠÃ¼ber geben
bau er
A F
m ung
ĠD ouble
den ken
get Key
ĠMar ien
wend ungen
ouverne ur
Ġau str
00 00
ĠPfarr kirche
ĠDist rikt
K urz
ĠB ob
ĠG rad
mer kungen
Ġdah in
isDebug Enabled
Ġer kennen
Ã¶r ung
ĠUnter richt
Ġ190 9
Ġzeig te
ĠB ibliothek
Ġber uf
kathol ischer
ĠZei traum
ĠNik ol
T eam
k y
ĠS inn
ĠH ttp
ro und
ĠN un
ss on
Ã¤hr ung
ock et
orden s
ĠSchl uss
> ,
i ode
ir ge
ĠAn dr
ex it
ĠBron ze
t ur
Ġh Ã¤tten
ĠSch lieÃŁ
par ator
sum er
Besch reibung
D ef
Ġp re
hand lungen
ĠSommer spiele
Ġmen sch
Ġf loat
ĠW Ã¼r
ber ech
ann ter
ill on
Ġlie f
At tributes
heb ung
ĠI N
org anisation
Ġar ray
ĠTod es
ĠhÃ¶ch ste
ĠS ur
Ġm sg
ĠIns gesamt
ĠTex te
Ġb ildete
gr aben
ĠJo achim
Sch riften
ĠIhr em
ĠGroÃŁ britannien
ĠnÃ¤ch ste
p ass
Ġ q
ĊĠĠĠĠĠĠĠĠ ĠĠĠĠĠĠ
stell ungs
th or
ĠWir k
ĠPfarr er
B evÃ¶lker
C al
M A
is en
tr ich
il ien
ĠO ster
ser ver
ĠFilm s
ĠOp ern
ĠBrit ish
z eigen
ĠT ir
ĠFranz Ã¶s
F irst
p olitik
z te
ĠVer anstaltungen
ĠSÃ¼d westen
bez ogen
n y
t ml
tr oller
u ell
Ã¶ die
ĠSt ation
her zog
En g
Ġ190 7
ĠBÃ¼ ro
st eigen
Ġh eader
iz enz
Ġvor gesehen
pf licht
Ġ ehr
ĠKon zept
ĠElem ente
Ġd or
ĠW a
ab elle
ĠNetz werk
Ġv ierten
ĠT Ã¼b
Ġne ed
P T
Ġd is
ĠS us
Ã¶r ter
mal er
ant as
hÃ¶ rigen
Group Name
Ġitalien ischen
ei ert
ĠG lauben
ĠF ein
Ġbet roffen
ĠEben e
s d
Ġ ueber
al ys
ĠEr l
ĠCh ic
ĠHer bert
hand el
al b
et on
ĠW Ã¼rz
ĠZ eu
ĠAn frage
Ġc ache
if ft
ĠWeltkrieg s
ĠÃĸffentlich keit
" ));
t x
w ischen
Ġ( ,
Ã¶ ÃŁen
ri p
ĠAl lt
Ã¶ff nung
ĠnÃ¶rd lichen
ĠÃ¼b rigen
Trans action
ĠMos kau
KE Y
Ġl ern
ĠEin ige
lei hung
D S
in ander
al em
ĠG lei
Ġl Ã¶
hrow able
zÃ¼ ge
L age
ĠR ab
ber eitung
ist an
war n
Ġbeein fl
ei fen
ĠS erv
ĠK athol
eu ert
get Type
aus stellung
ĠWe ge
W ind
ter e
om ain
reg ister
ho uld
au d
ur i
Ã¼ cht
Ġn ominiert
Ã¤n ner
ĠFot ograf
Ġt ief
Ġver h
co ver
Ġgebild et
ach bar
ab geord
Ġge kommen
ek tiv
ĠAus land
ĠOr dens
Er ster
ĠPart y
lig isten
Ġnah men
ab teilung
uÃŁ er
ĠHen ry
ĠFak ultÃ¤t
M o
m ag
Ġn Ã¤mlich
ĠO ffen
eu ten
up pen
ĠLauf bahn
al bum
ck s
value Of
n icht
Ã ¥
an er
ĠK anz
ĠE ro
akte ur
aliforn ien
L ayout
st Ã¼cke
D em
ĠSch reib
ĠIn dex
ap pe
Ġber ufen
fÃ¼hr en
ĠSÃ¼d osten
Param eters
hÃ¶ he
Hol stein
B Ã¼rger
L ast
e en
Ġb uild
sen de
ite ktur
Ġben utzt
Ã¨ re
ell schaften
wei ht
Ġsch reiben
Ġre f
Ċĉ ĠĠĠ
Al le
vor sitzen
ĠKap it
ut sch
Ġwest lichen
w uchs
z um
ĠM ethoden
ĠVer antwort
ĠHer stellung
Er st
ĠBÃ¼ hnen
Ġend gÃ¼l
P AR
er weise
ur ts
ĠF ield
Ġf ehlen
ĠI P
Ġk o
fer tigt
Loc ation
k ammer
ĠH ub
ĠT ok
ĠInternational en
Met a
N ord
Ġf eier
bl Ã¤tter
ĠNord osten
ĠZahl en
spl atz
ĠJur ist
fur ter
H ost
k Ã¶rper
al th
tr oll
time Exception
H E
ĠE ff
D ouble
č ĊĠĠĠĠĠĠĠĠĠĠĠĠĠĠĠĠĠĠĠ
st eiger
ĠG ang
im ple
k rit
Ġb i
ĠP ok
ass au
ĠLand tags
S egment
il a
ĠVer anstaltung
ĠWies baden
ĠD adurch
Ġin n
ĠRÃ¼ck kehr
ĠD aher
Ġver schw
Ġum ben
ĠPro z
ĠBr Ã¼cke
Ġen dete
Ġger ing
ĠNord westen
con fig
ĠFahr zeuge
fÃ¤h igkeit
Å ¾
in zen
ei tern
or es
ĠR aj
br ingen
wir kungen
ĠMod el
ĠFil me
Tem plate
w ith
ĠP u
ĠC am
ist s
ĠBo ok
p ack
read y
isp lay
F inal
c oding
Ġ use
Ã¶ tz
ohn t
ĠLand tag
Ã¼nd ungs
Ġsel ber
ĠOber st
sted t
Ġst anden
ran ge
Ġentsprechen de
ĠInstr ument
it ies
Ġn utz
ĠSchwer punkt
P ER
ĠB reite
ĠEin richtung
ĠBl og
ĠAd el
Ġw achsen
Ġl eider
ĠEr weiter
fl Ã¼gel
h em
Ð º
ar ray
Ġr Ã¼ck
lie genden
ak er
20 19
Sch ema
ĠSm art
iw od
R A
et he
ĠV an
Ġver sehen
od urch
ĠKÃ¼ che
ĠHash Map
ĠNationalsozial ismus
B ar
Ġw eist
ĠM is
ti z
ĠEm il
ĠRÃ¼ck en
ĠDarm stadt
B ack
K omm
ges sen
Ġaktu ell
geord net
G ew
ch ner
st eine
Ã¤ ÃŁ
ĠBundes republik
ĠFr ont
Ser ie
lowak ei
c r
r Ã¼cken
ei se
Ġs rc
Ġb ase
Ġp ubl
up date
ĠKomm ission
in ne
ĠK os
ĠW ett
bahn hof
lÃ¤nd ische
f ind
ĠD eck
ĠSp ec
200 3
Ġrech ten
Ã¼r en
enn fahrer
gesch Ã¤ft
Er folge
ĠLex ikon
d ition
p a
ĠM ah
ĠR icht
ont o
ĠThe odor
ikan ischer
Ġs hould
Ġn umber
ĠAd els
ĠImm obil
P ool
p aar
ĠK assel
re den
ĠV iol
Ġp f
Ġro ot
H aus
U ID
ĠH erkunft
ĠW it
ann er
ĠMar y
Ġeinge fÃ¼hrt
E ishockeyspieler
T A
Ġw riter
ĠA st
ist ischer
() ).
aus schuss
Ġ4 4
======== ========
Ċ ĊĠĠĠĠĠĠĠĠĠĠĠĠĠĠĠĠĠĠĠ
Ġs ucht
ob j
ĠNeu en
Ġ190 4
ĠJournal ist
F unktion
c en
m Ã¼hle
Ġein gesch
ort s
ĠGr enzen
Ġ4 9
mÃ¶ glichen
htt p
ei r
ĠBl att
ĠAd am
ĠQualif ikation
zun ehmen
S ehenswÃ¼rdigkeiten
ĠK ath
ĠJ on
ed ikt
iz ierten
Ġbes itzen
ĠfÃ¼hr ten
ĠOrt es
ĠBes itzer
ĠWeihn achts
Ġw odurch
ĠV aters
ot her
ĠStr and
Ġtr ug
Ġel f
sb ez
ĠInstit ute
Ġop ti
D ist
ĠD auer
Ġf al
ĠAn s
ĠThe ologie
ail able
Ġmax im
Pl atz
Ġmed izin
ĠU RL
ell o
ĠBo ol
Ġeinz ig
ĠDurch messer
ĠAngel es
h ost
ig ungen
ak et
St yle
ite inander
ĠHe ft
Ġunterschied lich
ĠBevÃ¶lker ungs
Ġspr icht
Ġ19 15
uss ion
200 2
ĠComp any
ĠHelm ut
D u
č Ċĉĉĉĉ
Ġver kehr
Ġp hil
ĠBr enn
bo den
ĠFÃ¼r sten
ĠHoch schullehrer
ĠJac ob
b oolean
ol z
ra in
ul gar
ek tive
Ġmein em
lÃ¤ss lich
ĠPublik um
Pf alz
ĠParam eter
E Object
Z E
â Ļ
Ġm et
ĠK rieges
ick e
ĠArch Ã¤
tre ffen
Ġaustr al
5 00
Ġ old
St at
fÃ¼r st
Ġv is
Ġm Ã¤nn
Ġh ast
iel en
Ġbeg innen
ĠMin er
sert ation
D ocument
R ed
ĠK e
ir d
Ġg eist
prÃ¼ ft
Ġtats Ã¤chlich
V ol
ĠS ens
ĠR od
ĠC ode
IN E
hand lung
Ġdien en
Ġscha ffen
k ern
z iger
ar z
ĠP DF
Ġt au
ĠSp itzen
Ġ rad
Ġs ign
Ġp os
ri b
ĠEin s
her ren
Ġber ichtet
Ġfor der
Ġbeg onnen
ĠStra ÃŁ
B i
Ġm el
ĠR au
scheid et
ĠSong s
ĠN omin
ver anstaltung
bo ard
Ġexist iert
k ow
ĠAn trag
c ast
ĠM Ã¶n
ĠV ik
ĠSch on
Ġl en
our t
af e
Ġober en
ĠSowjet union
C reate
Ä ĥ
ig keits
Ġc al
enn e
Ġzwei mal
ĠBez iehungen
ĠStel lung
histor iker
F ran
Ġkon zentr
ĠBahn strecke
kret Ã¤r
ĠB art
ĠK am
ĠC enter
Ġzu ge
ĠEr folge
iz iner
sicht lich
ĠTÃ¼b ingen
ĠD ien
Ġc o
St ud
ĠOper ation
) {
D is
l or
w ell
ĠK art
Ġex ecute
Ġpar ams
stit ution
ĠZug ang
Ġmod el
Polit iker
Ġtre ffen
W il
j ew
ra ys
eb el
ĠAuf ent
Ġ6 4
ĠGer ichts
Des cription
ĠHeraus geber
ĠBool ean
Ġ Î
gr enzen
mann s
Ã¤ng nis
ĠKranken haus
ĠM r
ĠN och
se qu
ĠAn spruch
Un ternehmen
ĠBereich en
Ġdenn och
f els
Ġn Ã¶
ĠPro jekte
ĊĠĠĠĠĠĠĠĠĠĠĠĠĠĠĠĠ ĠĠĠĠ
rit or
200 4
ĠGew alt
bie ter
l Ã¤nge
ĠS ig
ĠP rÃ¤sidenten
gen Ã¶ss
Ġt schech
ĠUn abhÃ¤ng
Ġdurch schnitt
ment s
ĠÃľber setzung
deut sche
ĠSim on
V P
] [
m essage
ol ogen
ĠE ast
eg al
up p
cle ar
ĠMar ken
Ġruss ischen
- )
ĠB ade
am at
ul pt
ĠPro p
pl atten
ĠJuli us
ĠNieder sachsen
ĊĠĠĠĠĠĠĠĠĠĠĠĠĠĠĠĠĠĠĠĠĠĠĠĠĠĠĠĠĠĠĠĠ ĠĠĠ
ategor ien
ĠbenÃ¶ tigt
on ischen
ĠJuni oren
Ġverb esser
ĠT ru
Ġan hand
Ġr un
off iz
Ã¶rder ung
Ġspr ach
I f
J son
S ettings
k as
y c
ĠQu er
ĠRei hen
ograph ische
b aus
f in
ein s
ĠT w
tr ack
ĠSp aÃŁ
Ġverschieden er
ĠGener ation
ĠChamp ion
ĠGeg ner
S ervlet
ĠK anada
ĠL iter
op en
ib il
ĠFrie den
Out putStream
Ġkur zen
Ġoffiziel l
ĠBrÃ¼ der
ĠTenn is
M B
Ġ4 3
ĠFrei zeit
ĠLeicht athlet
at ing
Ġs org
ĠF ernsehserie
Ġauf gelÃ¶st
Ġver gangenen
ĠFran ken
ore a
ĠP re
ĠN eum
ĠJ a
ĠEr ich
ial e
ma il
ĠEx empl
ĠEng agement
ĠFig ur
steh ung
Ġbekomm t
o ks
Ġb ar
ĠG ymnasium
etz ten
setz te
ĠT ak
ĠV iew
Ap plication
ĠPreuÃŁ en
ĠFÃ¤l len
c lu
d own
ich tigt
ĠF le
ĠW eimar
Ġst ream
ĠPrem ier
m ir
ar ische
ĠW ag
pl atte
ĠOrg an
ĠOrd nung
Ġentst eht
ĠChic ago
al ia
et ch
ĠVer gangen
Ġc onnection
so ap
Ġon ly
E hr
ren nen
200 1
gor ithm
ĠLin ks
ĠKomb ination
P re
b chen
Ġzu stÃ¤ndig
all er
ub il
arb urg
Ġange legt
ĠHand buch
Ġersch einen
ĠSan kt
ĠIntern al
Chr ist
ĠGeist licher
U I
ĠT Ã¶ch
Ġst Ã¤d
ĠAr ts
ip ps
At om
ĠkÃ¶nn ten
ĠKamer a
Ġv ari
ĠW in
Ã¼ck lich
ĠGemein der
Ch annel
rÃ¤sent anten
n es
Ġs an
ĠT it
ĠT ief
Ġvor ge
ĠRe aktion
Ġstell vertreten
krieg s
Ġrel igi
P olitik
ä ¸
Ġf ahren
ĠZw eck
ĠSchl Ã¼ssel
Ġentwick eln
k urs
ĠM ak
Ġin stall
ĠR ollen
Ġt otal
Ġtr itt
Ġgen ug
ĠTh is
ĠQu elle
ĠAug sburg
ĠX ML
ĠWill i
log ger
ĠWo iwod
It alien
m sg
r Ã¼ck
t au
ĠE ind
ĠDie ter
ind ing
Ġ4 7
Ver Ã¶ffentlich
ĠRund funk
H aupt
ĠD ampf
ĠU kra
Ġ4 6
Ġerh ielten
Ġ190 3
ĠRes ult
Ġor iginal
ĠPortug al
schlÃ¤ ge
b reak
c ul
z one
Ġab geb
ĠAuf lÃ¶sung
we ge
SE T
**** ****
V ariable
u age
w ettbewerb
ĠJ ed
wei ler
ĠStud ie
ĠKap itel
Ġkathol ischen
Ġmodern e
k arten
ar in
il ber
ĠZ un
ap el
ĠgroÃŁ es
ĠGroÃŁ e
ĠFunktion en
Ġeinzeln e
B ody
k u
ĠD ef
ĠD ata
ber eit
ĠBez iehung
ĠBeg r
ĠInfan terie
ĠK Ã¼n
Ġver sion
Ġp osition
wer den
ER R
bew egung
ĠObserv able
F ernseh
ĠA R
ĠM ulti
ab end
Ġparam eters
ĠBayer ischen
Aug ust
ĠW M
ast ian
trÃ¤ ger
ĠIs rael
N r
Ð »
Ġun er
Ġerh oben
ĠmÃ¶glich st
ĠWeiter en
ĠInstit ution
ĠBenutz er
B as
t Ã¼mer
ĠM isch
em ie
ach ed
In ternal
Ġreich t
Ġgepl ant
Warn ings
G en
N S
o z
ĠD omin
ĠSam stag
ĠSant a
sÃ¤tz lich
t eile
st um
Ġschw ier
S eine
h s
o ir
y e
z ell
ann en
ĠEin heiten
ĠCas ino
ĠEdu ard
S ign
ug in
ech an
ay a
klus ive
ĠMatth ias
Org anisation
g reifen
ĠA ktu
ĠB an
ĠL ove
Ġsp ort
ĠBew eg
ĠBew ohner
unn el
Kl asse
part ner
zÃ¤hl ung
B ag
M eister
N LS
z if
er ber
ĠR ap
id s
ĠEin richtungen
L I
ĠR uf
ĠL ust
Ġan gesehen
R echts
is ation
Ġer laubt
Ġan gew
ĠSp itze
Ġzum indest
vers orgung
D e
gesch lagen
ĠBe ob
Ġumben annt
M apping
at in
ĠM auer
Ġn um
le ut
Ã¶ t
wei ÃŁ
ĠThe orie
ĠgrÃ¶ÃŁ er
Ġro t
ĠEd ward
ennt nisse
ĠMag de
Fe ature
b or
eb ook
Ġbest ritt
Inter face
Constra ints
kurr enz
ĠL is
Ġab gerufen
Ġges ellschaft
P ass
ĠD B
ĠW Ã¤r
b lock
Ġd ef
ĠB re
ĠB ord
Ġp ri
hÃ¶ rige
ĠGed anken
B et
ĠL eute
ĠMar ke
Ġman chmal
alen der
f ft
ĠF Ã¤h
ier er
ĠKon s
ĠGer Ã¤te
ix el
Ġ189 0
ĠGest altung
k in
ar io
ĠSt Ã¤r
s eit
ĠK redit
ad or
ĠTer min
ĠEpis oden
W as
g ra
s in
ie ten
hal ter
Ġpro perties
sta aten
Ġhistor ische
ĠAngeb ote
mitt lung
f rom
ĠP en
ĠW ik
Ġl Ã¤uft
Ġ187 0
Ġser ver
ĠAn lagen
ĠzurÃ¼ck ge
ĠDan eben
ĠschÃ¶n e
u elle
ĠB ell
Ã¶ z
ĠC amb
Ġcreate Ifc
ĠHa ft
al tete
Ġ// $
ĠMon ument
ĠKr ist
D C
M essages
Ġg o
Ġver geben
rup p
Sup press
V ar
b ahnen
h eil
ie fen
ĠF Ã¼nf
de u
ĠT rÃ¤ger
ĠEr schein
ĠBÃ¼ hne
ĠEigen schaften
Ġstar ken
Ġerz Ã¤hlt
ĠL ib
Ġ19 16
Ġab ger
ĠLei den
ĠUntersuch ungen
t al
Ġt Ã¶
Ã¼n den
Ġunter sch
ĠSer ien
ol o
Ġbef ore
sc ar
ĠJust iz
ĠAktiv itÃ¤ten
Ġs amm
Ġ2 50
ĠEr f
ĠAb itur
nis sen
Ġor der
Mill is
F ailed
P lan
Ã¼ pf
Ġw Ã¼n
ige m
ĠKl ima
ĠMed ia
Ġland wirtschaft
ĠVergangen heit
W ork
or ten
ĠP reise
ĠC heck
// //
Ġ190 1
Ġ189 8
B ad
t arget
Ġd ate
ĠK urs
ĠF ell
ĠNational mannschaft
ĠUntersuch ung
ĠM au
ĠT ats
ĠT hread
ĠBer icht
ĠLebens mittel
Ġby tes
B en
F ranz
l eiten
Ġm aÃŁ
Kir chen
s ource
y an
Ġbesonder en
ĠSchn ell
ĠBed ingungen
ĠPap ier
X ml
v ed
er ten
ĠS Ã¶hne
ĠF alls
ĊĠĠĠĠĠĠĠĠ ĊĠĠĠĠĠĠĠ
ul i
gel eitet
urop a
ĠFr eitag
ĠProduktion s
ĠerklÃ¤r te
Ġzunehmen d
Ġm iteinander
ti ere
sen der
ĠFor um
Ġ190 2
ĠEd ition
ĠAutom obil
t ums
Ġp orn
ĠEn sem
arb eitete
ĠBo ot
Ġho her
ĠPor trÃ¤t
wor ten
m auer
Ġd eine
Ġb ayer
Ġf Ã¼n
Ġf reuen
etz te
aus gabe
Ġet abl
ĠMeer es
ĠV it
se y
Ġauf gestellt
Ġt oken
Ġj ob
Ġben achbar
Ġ189 9
Ã¶m isch
ĠstÃ¤r ker
ĠWÃ¼rz burg
D ar
D ialog
z wei
il i
ĠAr thur
Pro ject
asser t
zie ht
ĠrÃ¶m ischen
ĠSonn e
M atrix
} ,
ch ip
ks h
leg ten
unter richt
ĠSpr achen
trÃ¤ gen
Reg ion
c opy
d ung
ĠW egen
ma schinen
ĠHaus es
ĠSchriftsteller in
ĠChem ie
Spiel er
Ġsw itch
z ung
fÃ¼hr te
Ġsozial en
ĠjÃ¼d ischen
D irectory
v ol
ĠD igit
gr ab
ĠMar ine
int on
ĠLe der
Ġn Ã¤her
wei st
olog ischer
ĠWir ken
verein s
M ich
d y
r ig
ĠJ ud
aus bildung
B erg
Ã ł
ich en
ĠT au
Ġk auf
Ġt ask
ĠOr ch
fÃ¼hr ten
ompon ist
denk male
Ġgemeins amen
f ir
Ĩ Ĵ
Ġl ernen
Ġ18 48
gel t
ĠLand schafts
ĠGel egen
ĠPlan ung
Ġnahe zu
ĠAssoci ation
ĠWoiwod schaft
c ard
ĠK ro
ĠL abel
tr an
Ġvor aus
ĠBe am
ĠSpr inger
Ġgest altet
Ġgegr Ã¼ndeten
b indung
ĠZ erst
ĠZ ivil
ĠU fer
ord net
ĠRo ten
Un able
ĠEnt wurf
setz er
Ġur kund
ĠWind ows
L a
h Ã¼ter
ch ten
ĠB ert
Ġb ut
ĠK ost
ĠH ockey
ĠIn tel
Ġeigen es
tim eter
Jo hann
C ap
ĠOb wohl
ĠKommun al
Ġzie hen
Ġgemeins ame
SD AP
" ).
p ers
on ien
le d
ĠL iv
il de
sp ur
itÃ¤t s
ĠkÃ¶n ne
has Next
Ġengl ischer
ĠpersÃ¶n lichen
vier tel
ĠP ast
ĠP ader
ĠP anzer
ĠSte phan
ĠZu schauer
Field s
Ġversuch te
ver zeichnis
ĠVer dienst
ĠKon rad
ator ium
ĠMan fred
sph Ã¤re
ĠtÃ¤ glich
Europ ameister
Ġeb enda
P air
i Äĩ
p ap
ĠH Ã¼gel
Ġver legt
ĠSch ild
ow a
Ġ5 1
ĠGeb urts
ĠGef ahr
DE FAULT
umm ern
Ġgelegen en
ĠGrie chen
Suppress Warnings
b al
y t
Ã ĥ
Ġs orgen
ĠG reg
ĠO ne
Ġ4 1
res ponse
Ġausge fÃ¼hrt
ĠÃ¶sterreich ische
ĠRath aus
ĠStre et
m ond
in ia
tr o
ĠV el
ĠV Ã¶lker
Ġt ag
ĠIn frastruktur
Ġc l
Ġsch rift
ĠInd ien
ĠProf il
ĠEd el
ĠParlament s
m and
tr ies
iert es
Ġ189 6
ĠKomp osition
ĠS P
ol ver
Ã¶ ck
Ġl Ã¤ng
ug ies
Ġbet rieb
Ab sol
ĠSchn eider
ĠDon au
ĠEntwick lungs
D DR
a ber
ar rei
Ġa cc
qu ery
ĠMich el
Ġend lich
ĠGra z
bed ingungen
ordin ate
' );
L auf
S A
d ner
at om
ĠSt att
ĠKon zer
ĠReg ister
Ġreg istr
Pol icy
prÃ¤s ident
ĠC all
ell i
ĠIn halte
Ġbis lang
Element s
ĠAnt wort
ĠMex iko
Ġn orweg
ĠP ir
Ġtr af
ĠWelt krieges
umen ten
lehr e
ĠBus iness
Ġf ein
ĠH ug
sp unkt
Ġun gefÃ¤hr
Ġunter halb
ĠRo ute
ĠCD U
ĠJes u
Ġerforder lich
ĠDÃ¤n emark
E C
ar kt
at alog
ĠM eyer
ĠAn f
Ġ5 2
Ġar g
ĠErw achsen
Ġklass ischen
VAL UE
) ");
ĠS of
Ã¼ gt
ĠK amp
de gang
ess in
Ã¤mpf er
ĠTrain ing
maÃŁ nahmen
gram me
al m
ĠM io
sk a
Ã¼t ze
ĠBl au
ĠFahr er
ĠBar on
ĠOx ford
ar ina
ĠT raum
ahr t
ĠGes ang
Ġ8 00
akt oren
B eg
p ost
he d
Sch w
fre und
H o
em ed
ĠE arl
sp ez
Ġsp rechen
Qu eue
ĠBau werk
ĠGegen wart
asil ian
Ġautomat isch
on ial
ĠS au
Ġb ot
rei strÃ¤ger
ĠOr chester
wir kung
K arl
v in
Ġb ack
land es
hen tic
ĠÃ¶ff entliche
Ġnational en
ĠLÃ¼ beck
k Ã¼nd
Ġz er
ĠK alifornien
ĠIn g
Ġunter en
ĠGes icht
ĠWh ite
B o
b n
h off
ber icht
Ġan schlieÃŁ
ĠO der
sh aus
amp le
ĠÃ¤lter en
char At
Ã¤ fer
ĠEn glisch
Ġent ity
ild et
ĠEnt fern
ĠSÃ¤nger in
ĠTÃ¶ch ter
P refix
k ul
en gl
ar g
ĠH ektar
sp rechen
ied elt
ĠStel l
ĠAp ost
verkehr s
ĠViel zahl
ertif icate
d auer
p ul
t yp
u en
ei he
le te
Ġer zeugt
lie d
par ent
lass ung
ain ing
Ġpar allel
Ġparam eter
ĠOffiz ier
ĠK eller
sp ace
Ġst at
Ġc le
anz ig
ĠFl Ã¤chen
Ġda ÃŁ
ĠFrei en
hin dern
Ġor ien
Hand lung
cl ub
P O
ev ice
ĠAs ien
k Ã¼rz
ĠD ownload
ĠM ach
em it
id ae
Ġent w
ĠGemein schaft
Ad d
Fl uss
chip karte
D aten
l ot
m es
sch irm
Ġv ar
ĠP ie
Ġge tragen
âĢľ ).
ĠAus bau
fen ster
reg isseur
Reg istry
F alls
g ung
in it
st aben
ĠP oint
Ġspiel ten
lÃ¤nd ischer
verband es
r iss
Ġf ung
ire ct
Ã¼t t
str om
haf ten
zuf Ã¼hren
st ab
im eter
ster dam
ĠQu adrat
wohn er
hol m
IT Y
aj a
ĠLok omo
L iter
T itel
er ung
ech ten
Ġent schied
ay ern
ĠEx tr
ĠverfÃ¼g bar
G raph
n i
Å Ħ
ei ge
ĠM assen
ĠR umÃ¤n
est amp
(" \
ĠBr es
res ent
Ġwe der
Ġnotwend ig
Ġerinn ert
ĠTelef on
h Ã¤ndler
w itz
Ġd elete
Ġan y
echs elt
ĠKarls ruhe
ĠAmate ur
I dentifier
S H
Ã ª
ĠM ond
Ġin fo
ĠK rie
ĠR al
LO W
ĠAn forderungen
ov a
Film ografie
ĠM ethod
ĠM obil
Ġein geb
ĠP ed
ĠL eb
Ġzu geordnet
zen e
Ġsp ann
Ġsp Ã¤t
Un d
199 9
Ġstark e
ĠWar en
ĠE h
Ġsch ied
Ex p
mus iker
Ġfrei en
D an
st atus
ar tigen
ein heit
ab et
Ġsch reibt
ĊĠĠĠĠĠĠĠĠĠĠĠĠĠĠĠĠ Ġ
zeich nen
teil ungen
ĠDat um
Not Found
c s
j ob
Ã¤ ub
ĠNutz er
ĠMil ch
Ġspeziel l
ei de
sch wer
Ã¼ h
Ġb lieben
end el
ĠOr den
ĠPl atten
Id s
ix ed
def ault
F rei
st re
Ġan genommen
ĠUn fall
Ġwel chem
ĠKÃ¶l ner
D ur
c al
i ro
n chen
ĠP ath
Ġh Ã¶ren
acht ung
Ġletz ter
ĠMaterial ien
Ġbas iert
Ġverpflich tet
N um
n t
Ã¤ b
ĠM ecklenburg
ber ts
ĠN S
ell s
os a
ĠSp eicher
ĠMar s
Ġd ank
Ġs up
ĠA ff
ĠL en
Ġauf gebaut
Ġp age
Ã¶n e
Ġange gebenen
ĠFir st
ĠDis sertation
National mannschaft
N E
Ġer mÃ¶glichen
ab t
ĠBest er
ĠDipl om
b ibliothek
ĠI d
ĠBer atung
Ġgew Ã¼n
ĠKl ub
Ġmittel alter
ĠImmobil ien
leut nant
O st
S yn
ĠT sch
ĠL ast
a it
b ran
h es
Ġver ur
ĠGr amm
rid Bag
ĠStim me
B el
D est
K W
K rit
w riter
â Ĥ¬
Ġin nen
sen s
Ber eits
ĠSchiff e
ĠTÃ¼rk ei
Ġver urs
Ġber Ã¼cks
ĠGesch ichten
aff e
AG E
D A
S pr
n um
ĠSt ates
ĠÃ¼ber w
In stitut
eite ten
til ler
ĠRe de
Time out
rev ious
Ġl iter
lin der
ĠAus nahme
tif ication
ĠDes halb
Ġd ist
or ph
ĠB uck
ĠP red
ais er
ĠHistor y
iat eilnehmer
cel ona
I gnore
J an
ĠS oll
Ġein iger
ĠSch ach
Ġum geben
An halt
Ġch em
Ġbesch reibt
ĠLehr e
Ġ186 0
ĠTab elle
< >(
G E
s Ã¤nger
Ġ Ã¼
ag g
ak ademie
zen ten
Ġseit dem
ĠAf rika
S O
S equence
U ri
b ody
ir urg
Ġgew Ã¤hr
Ġdar aus
for scher
ĠGeschÃ¤fts fÃ¼hrer
ĠMein ung
K o
R ange
on ia
get Property
utz ung
ĠRo hr
ĠMÃ¼n chner
ĠÃ¤lte ste
( _
Ã «
ĠH ow
ĠStr ate
ĠInd ian
Ġaufge fÃ¼hrt
ĠKontr olle
ĠbestÃ¤ tigt
I l
Ġ app
Ġ1 10
Ġin tern
ĠP ian
ĠP ots
ĠT ode
ing u
hard t
Ġper f
rÃ¤n kt
Dat ei
Pan el
f ranzÃ¶s
w el
ĠD ub
ĠD inge
ĠP od
ĠW Ã¼rttemberg
ĠZ er
Ġent schieden
Ġtr ifft
onn ect
ĠReg ionen
ĠAward s
ĠEing ang
Ġtechn ischen
ã Ģ
au ert
ex p
Ġpriv aten
vir on
F rie
d h
us en
ig an
ĠPl Ã¤tze
mit glieder
Ġ< <
ĠflieÃŁ t
H ein
H eight
b und
k unden
ĠL or
Ġver hindern
sp f
sp lan
ĠNach richt
sb ruck
ĠÃĦ gyp
cri be
usÃ¤tz lich
ĠPrinz ip
ĠBarb ara
: :
P ri
c an
ĠA achen
ĠN ow
ĠÃ¼ber nehmen
rÃ¤ f
ĠEm p
Ġlo ad
O K
st ock
Ġer lang
ĠCh urch
ais s
ĠZus atz
M M
j an
ier end
Ġst ru
get Id
ĠMit gliedern
ĠSpiel tag
Ġen glisch
ĠPartei en
Ġnie dr
Ġwissenschaft lichen
> <
m ont
und ert
if ication
St affel
me er
Con trol
ĠLi ber
C olor
a illen
b uffer
ĠB y
ĠL it
Ã¼r zt
Ġ189 7
Jahr en
Ġwich tigen
ĠHalb finale
ĠBot schafter
ĠKard inal
P ost
R eturn
ĠL ine
Ġe ff
Ġus w
ĠBrasil ien
ĠR on
um in
ĠFl ucht
ĠFrank furter
ieb el
ĠStÃ¤d ten
Kir che
Ġjapan ischen
ĠEpis ode
K n
in ary
Ġs Ã¤m
Ġp opul
zeit ung
zÃ¼ glich
ontin u
o ul
ĠM icro
ĠAus gang
ĠRo h
ĠFer tig
ĠzusÃ¤tz liche
ĠIns eln
ĠFig uren
ĠFrancis co
in us
on ische
sch i
Ġn atur
ĠP as
ĠH Ã¶ch
ĠSt unde
ĠUm setzung
ĠMark eting
Ġsol chen
ĠWe ber
Ã¤dag oge
iehungs weise
v ollen
Ġn am
ĠEin sch
lo h
âĢ¦ ]
bed ingt
S um
s up
ur o
Ġs inn
ĠL as
ĠJ ungen
ot ograf
ow o
la in
her steller
Ġ189 5
Ã³ w
ĠFÃ¼hr er
ĠJes us
B eim
ĠS ender
te uer
Ġw ork
Ġb ist
Ġb auen
Ġf rem
ĠL ot
ĠJ ena
os law
ĠMar i
our s
Ġbes aÃŁ
ĠForm at
val u
ĠBesch Ã¤f
ĠGlock en
ĠMathemat ik
ĠF ro
ĠN ah
eh lt
Die ser
ĠFl Ã¼cht
ĠBr ig
Pro cess
ĠPh ot
mar sch
Ehemal ige
Ġerstreck t
F amilie
ĠAn h
Ġe he
form ance
Ġwissenschaft liche
D igitalisat
in ken
ĠB it
ste te
Ġzie ht
iar den
B B
n itten
ĠB ull
ĠK ob
Ġzwei ter
Reg iment
Ges ellschaft
Ġbetr achtet
f arben
ĠB om
ĠT oten
ĠV ir
ĠO z
sk l
Ġeinz igen
k Ã¼ste
r olle
Ġau ÃŁen
re h
ri z
la c
iz ierung
ant eil
ator s
icher heit
ĠWieder auf
ĠRost ock
m as
ti r
re gel
ver teid
ĠForm el
Ġbisher igen
W ert
e arch
Ã Ĺ
Ġb rau
us alem
Ġan t
Ġj ung
Ã¶r ungen
age d
Ġ5 3
af r
An merkungen
imm ungen
hof en
tt ps
ĠKÃ¶nig in
ĠStaat sb
Land kreis
A v
F re
M ain
c olumn
st arts
Ġs epar
ĠA ction
Ġun ge
ĠEin kauf
ĠAus einander
ĠVerb esser
S pe
Ġ Ã¶stlichen
ĠM oment
ĠW en
ĠSch aden
Ġl atein
Ġwir ken
ĠGeb rauch
deck ung
State Exception
m inton
ar tig
ĠD iv
In itial
qu elle
trag ung
ĠPf arrei
anc en
ĠErk rank
C ol
m ine
Ċ Ċĉĉĉ
ĠS ul
Ġr uh
ĠGem Ã¤lde
ĠRei sen
ĠMark us
Ġklein ere
ĠGleich zeitig
Ġoffiziel len
ĠBab y
ĠD et
ĠM ord
em burg
ĠR oss
inder t
reuÃŁ en
Ġchines ischen
D i
ĠM ut
Ġst atus
Ã¤r t
ges prochen
ĠFl eisch
Ġander es
Ġhier bei
eig h
streck en
ĠQ ue
ĠSeb astian
ĠIngen ieur
v as
ĠN ull
eh end
Ġ188 0
ĠRegen sburg
b it
e ff
ĠF inn
de hn
Ġc annot
ĠAl li
ak u
ĠGesch lech
[] )
fang s
val ues
m otor
ch ange
ett o
min ist
Ġange p
out h
hÃ¤lt nisse
ridBag Constraints
F iles
r un
s ession
ĠS QL
au ten
Ġs or
est en
get Instance
Ġvor gestellt
ĠMod elle
M ath
w s
Ġ( ;
Ġf allen
Ġden k
Ġt mp
ĠkÃ¶n ig
ĠHand lung
199 6
Ġ187 1
Ġbeh andelt
Ġverst ehen
S uch
ÃŁ ig
Ġo ver
og t
ma schine
ry pt
ĠBru st
sei tig
ĠerhÃ¶ ht
ĠMagde burg
U B
c z
n g
Å Ł
ĠK ohlen
ĠG olf
Qu alif
Ã¤mpf e
b raun
m lich
ĠS ak
Ġs orgt
Ġf arb
ĠH ed
ann i
get String
ip pen
199 8
viron ment
J Ã¤hr
Ġg rau
In nen
ĠOr ten
ph ase
Ġbesch Ã¤d
orben en
ĠHor st
abil ity
omet ry
ĠGespr Ã¤ch
Ġbez iehungsweise
F OR
S PD
men s
ĠAus zeichnung
ĠÃľber sicht
Sie g
con stants
leb nis
t able
ĠV I
Ġim pl
ĠSt urm
Ġaus zu
Ġc lose
ob el
ĠAm sterdam
Ġcon vert
ĠSek unden
AB LE
ĠGebie ts
B ez
B undle
ĠK ul
ĠF la
ĠZ oll
ath on
ĠKup fer
el emen
ĠT herapie
In sel
ĠBundes staat
ĠEurop ean
low en
ĠDort mund
ĠÅ ł
Ġerwar tet
b an
f ac
ĠV ar
Ġbes etzt
rup ted
Ġange zeigt
Ġviel fÃ¤l
ĠBar celona
ĠInternational e
Frank reich
u ccess
ĠR ol
Ġver Ã¤ndert
Ġsch eiter
Ġ6 00
ond ition
Ġverb indet
Ġeinge tragen
ĠSpr ing
Ġhervor ra
Ġrich tige
ĠThÃ¼r ingen
ĠKÃ¼n ste
P o
b ett
ĠF ootball
folg ung
ĠSchw ier
O ff
W rapper
h et
t urm
ĠK alk
Ġal ready
ri ver
end o
olog isch
ĠTab ellen
Ġtrotz dem
Ġverbr achte
iffer enz
Ã¤ udes
ĠW urz
ess ern
az if
ĠBe ach
ĠMo tiv
stru ctor
ĠTem pel
Sc ope
ĠursprÃ¼n glichen
Ġw idth
ĠHal te
Not Null
ĠCamb ridge
f alt
in ischen
ich ert
el ine
Ġb raucht
ĠL inden
ĠVer zeichnis
Ġkomp lex
r ang
ĠS ynchron
ĠS ymbol
Ġm er
Ġn on
ĠL ake
ĠFrei heit
E P
M ilitÃ¤r
ĠP rim
ĠVer w
ob by
ĠAuf nahmen
ĠBest ell
ct ure
ĠAng st
Ġfre und
ĠTa schen
ĠBist um
ĠChampion ship
ĠPader born
F est
W h
ĠL ande
ĠL ife
ver lÃ¤ss
ep p
Ġre ag
ob ald
Ġbesch lossen
Ġschwer en
L ang
ĠL ein
ĠL egen
Ġ20 22
Ap i
ĠD orn
hr op
ĠK y
ĠF abrik
ĠR ie
Ġer mittelt
ĠĊ Ġ
Ã¤r ung
ĠGr Ã¼ndungs
if y
199 7
ĠTechn ologie
Ġdeutschsprach igen
Olymp iateilnehmer
ĠG ab
ĠF lie
ĠUn sere
if est
ĠMar gar
Ġ5 4
Ġpro blem
n d
ĠM esse
Ġin it
ĠJ etzt
Ġc lazz
ĠAl p
Ġ" ,
ok ument
Ad apter
ĠRelig ion
NotFound Exception
J ava
l v
ĠM Ã¼hl
Ġn ennt
us sen
ĠV irg
Ġk ombin
sp olitik
ĠEr ste
ĠMo der
Ġhand le
ĠTer r
ĠpersÃ¶n lich
Ġpoln ischen
Acc ount
ĠD ollar
Ġein schlieÃŁlich
ĠStr eam
gr Ã¶ÃŁe
ĠNach wuchs
ief el
Ġerr ichtete
v es
ĠV inc
teil s
ĠWei ÃŁen
ĠWei bchen
Ġ189 2
Jahr e
ĠB itte
erk ennung
rÃ¼ st
pro f
jahr es
fÃ¶rm ig
E M
O F
T est
ĠM amm
is burg
pf l
Ġspe zial
ande ur
ĠAbgeord neten
F ahr
x ml
te am
ĠB iele
ĠL ar
Ġg Ã¼l
eich e
Ġwir kt
Ã¶r g
Ã¤r ten
li as
Ã¤nder te
Ġteil s
ĠKolle gen
st on
or ff
ĠM ode
rau t
Ġsp Ã¤ten
ial izer
gesch windigkeit
Einz el
ĠGesch mack
ffiz ien
ĠInn sbruck
Ġbedeuten d
r amm
v ater
Ã¤ fte
ĠA ster
Ġim age
ag a
os se
ĠUn ser
ĠNach folge
Ġher unter
ĠCon tent
ĠWahl kreis
Ġreg ul
c ause
ĠF unk
Ġbe zeichnete
ĠBet reu
ĠFranz isk
Ġtem p
ĠMÃ¶ bel
ĠMik ro
B it
M em
u ay
w Ã¤hnung
st Ã¤nden
ĠS ir
re y
ut s
tel s
Ġgleich e
AC T
ĠjÃ¼n g
E Mail
F L
b egr
Ġi l
ĠH em
lo k
20 20
Ġ5 6
ĠKon struktion
ain s
Data Type
Ġend et
Ġjem and
d irektor
ĠS oph
Ġl es
Ġst ation
ĠDie trich
Ã¤dagog ik
Ġpromov iert
C A
M er
ch te
el or
ĠR ats
In ternational
ok us
mod ell
sprech end
ĠVerbr eitung
ĠVarian te
Ġdor tigen
P hil
S QL
V I
h old
ĠD ich
ol ve
Ġ/ >
Ġges und
ĠDaten schutz
ĠInform ations
Se arch
ĠVen edig
ĠKrim inal
A bst
ch or
et ung
Ġn ennen
ĠH ess
Ġl auf
he dr
ĠAr r
ĠSa al
ĠerhÃ¤lt lich
ĠVerÃ¶ffentlich ungen
Ġrequ ired
H inter
on st
on str
Ġg ern
ĠVer fassungs
ĠSie ben
Ġsp anischen
oun ter
bach er
Ġ189 4
ĠAlb recht
hoch schule
ĠBestand teil
. /
ĠB io
ent um
Ġ18 50
qu enz
Ġverl Ã¤nger
Key s
ÃŃ a
n ik
r oll
al om
ĠM uster
ĠH T
Ġver n
Ġo st
Ġgegr Ã¼ndete
ĠBern d
besch reibung
ĠBesonder s
ĠAllt ag
S ein
ĠB Ã¤nde
Ġsch uf
stell ig
ĠPol y
bereich e
ĠMuseum s
Ġgetr ennt
ĠunabhÃ¤ng ig
ĠIniti ative
B uch
Ġv iew
se c
Ġunter wegs
of en
iss ement
ive au
way s
ko hol
r uss
ĠG anz
ger ichts
geb nis
ip al
)) );
riter ien
Ġph ys
el a
ĠB ase
ĠD ur
ĠK linik
ĠH Ã¶l
ĠPro j
ĠSchw anz
Ġscha ff
B ew
m acher
st em
Ġer gibt
ig ger
eich ern
Ar b
ĠGraf schaft
ĠHerr n
Ġvertr at
ĠArn old
Ġport ugies
H e
c tr
ie ht
ĠB em
ĠB Ã¼r
Ġver anst
Ġa ction
Ã¶r dern
wir t
ĠVertr ieb
Ġdo es
J ose
in str
Ġd ro
ol i
ĠH as
ĠC op
Ġo ffizielle
ib l
pro cess
schn itts
ST R
rep lace
ĠprÃ¤sen tiert
M aler
i h
Ġm ulti
ĠH ig
Ġver ab
Ġwar um
Ġbe endet
ak en
Ġab gesch
geb lich
Ġ5 7
P I
ei ern
Ġge fallen
ĠZ iele
id o
pl it
ĠAus stattung
ĠGef Ã¤ngnis
ĠNe use
etr ic
ĠAlex and
Ġgriech ischen
Ġsicht bar
inz ip
Ġ+ +
ĠMin ute
produ zent
spl it
m eter
ĠD etails
tr ieben
ĠN ick
ĠO scar
he ber
be am
Ġpro p
Ġbeg leitet
asse d
Ġlang sam
ĠmÃ¶glich erweise
Ġklein es
Ġempf ehlen
ĠNor wegen
ĠIntegr ation
. ).
st raf
ĠR et
ĠR ett
ĠAn im
Ġle hr
Ġoption s
M ulti
ĠN assau
ak i
mal en
Ġbel g
ĠRu hr
ĠStad ion
ĠhÃ¶her en
ĠS ud
ĠB ein
ĠK Ã¶n
ĠG raph
is ieren
ĠH arr
re ht
ed y
Ġunter scheiden
br and
ĠWerk en
ĠTra g
ĠAt om
ategor y
sprech er
ĠKrank heit
ĠBres lau
C ar
ĠM ie
Ã¶ ger
Ġst ill
ĠAn alyse
ĠHam mer
Ġ186 6
Z wischen
l ein
r al
sch ten
ĠG ame
ent s
ĠVer eine
ed ule
ĠGemeinde gebiet
ĠAk tien
index Of
Ġverf asste
strahl ung
ĠB la
re al
ĠV il
Ġk Ã¼
ĠAn gabe
ĠÃ¼ber sch
stan bul
ĠY o
ĠBes etzung
ĠWil son
Ġoffen en
ĠRun timeException
K ategorie
in ett
ĠE ugen
ĠSch ott
ĠAn wesen
ger Ã¤t
bau te
ĠVerein igung
schlieÃŁ en
ĠDrehbuch autor
ped ition
ĠF ast
lich em
sp reis
ver k
ĠVer z
Ġj ahr
Ġab zu
tet t
Ġ189 3
ĠKo operation
Ġexist ieren
stechn ik
ĠE ishockey
ĠO pp
Ex tension
if ic
ack er
ĠSc ott
Ġbeh aup
check ed
ĠRu he
Ġbestehen den
ĠSend ung
- /
C I
M I
m or
n ieder
t w
Ġan f
lie gt
ick er
ĠKon zep
ĠNew s
Ġte st
Ġpl atz
ĠInstitut s
on i
ĠR equest
ĠC onn
Ġsch m
ph one
sb urger
Ã¶ gel
Ġj ur
St ar
ĠPol iz
ĠGew erk
ĠPer sp
ilom etern
ĠBronz emed
8 00
em pf
ĠC he
ĠCh ance
ĠHer zen
Ġle ft
teil te
ĠBundes ver
Ġ188 6
ĠDenn och
ĠExper ten
Ġrich tigen
ĠNic ol
au te
ĠG ouverneur
ĠO tt
ĠSt ich
Ġtr ain
ahl en
ma ÃŁen
stra ÃŁen
ĠspÃ¤ter e
F O
N OT
X ML
Ã¼ se
Ã¤ ber
ĠK ategorien
ĠV ideos
werk en
ĠHotel s
stud ium
ĠJer usalem
ĠPrÃ¼ f
s Ã¤
ĠM etz
ĠR ess
ĠN ation
ĠN ap
est ra
ek or
ĠOr der
Ġ15 00
frie den
N e
S ep
T eil
h y
ch ern
ĠF ar
ĠVer arbeitung
Ġdurch aus
spieler in
riff e
AC E
ĠKais ers
ĠAlt ar
ĠGott fried
Ġeinf ache
Schwei z
ĠHug o
D ER
R Ã¶misch
S cript
g as
r ic
und et
Ġh ell
Ġzu g
Ġ" );
ĠUnter schied
Ġange hÃ¶r
Ġgest alten
irt ual
dat um
ĠFac ebook
ĠAutob ahn
Wil helm
P L
ĠR ail
ger Ã¤te
igen t
ĠMann heim
ST AN
ĠMet rop
ĠRu h
Ass ign
starts With
f arbe
o ire
v oke
at ter
ĠM ang
ĠL angen
ild es
for mer
Ġdisk u
Ignore Case
M e
b ungen
f loat
m ess
Ġd b
Ġein deu
ĠP ower
Ġf uhr
is ierten
Ġt here
ĠVer mÃ¶gen
bau en
ĠLu c
jÃ¤hr iger
ĠBi ograph
ĠScien ces
Sti ftung
i ques
ĠD ra
ĠT eu
all iga
ĠHand ball
ĠGef angen
p ommern
v m
| -
ĠD ec
ĠL inz
ĠL ev
Ġc ol
ĠAl les
pro perty
Ġgr enzt
ĠSk i
ERR OR
/ *
an ie
ĠD VD
ĠP ul
ĠT u
ĠR Ã¶m
ent wick
ĠEr Ã¶ffnung
ob ject
Ġ[ âĢ¦]
bes itz
Ġstattf inden
f u
n eu
ĠM ans
ĠBeh Ã¶rden
ĠKant ons
herr schaft
ĠerÃ¶ff nete
Ġverkauf te
Ġheil igen
M ember
Ġw echseln
ĠT ob
est e
Ġnach hal
aus s
Ã¤ch er
Ġpro du
Ã¼t ten
Ã¤nd igen
ĠGesch ichts
Ġch ange
ĠRechts anwalt
H Ã¶r
ï ¼
ie bt
st ufe
form ationen
Ġorganis iert
> )
p pen
p ool
Ġ Ã¶rt
ĠS av
le ute
ir n
Ġt hread
Ġst eigen
Ġc or
iz ont
gel s
Ġre ader
ĠAus zeichnungen
ĠPf ad
Ġhin ein
199 0
L en
Ġh ttps
Ã¤n k
lo ÃŁ
ner stag
mo sphÃ¤re
Ġfre ie
stant in
ĠIll ustr
F B
P eter
g i
in stitut
aus o
Ġlist ener
ĠCol or
Ġgar an
ĠRek ord
ĠBrow n
ĠWag ner
T hrowable
l Ã¶
č ĊĠĠĠĠĠĠĠĠ
Ġz Ã¤hlte
Ġge Ã¤ndert
Ġvor wiegend
199 4
Ġ188 8
ĠBen edikt
Mus eum
ĠAllgemein en
ĠB utton
Ġg olden
Ġp reis
auf nahme
af ft
d elete
z lich
ĠS auer
ĠB am
ĠD ynam
Ġk g
men ge
ges ellschaften
Pro zent
Ġat tribute
ĠDo ktor
ĠLÃ¶ wen
Produ ktion
C or
F ra
M art
w inkel
ĠD irekt
ĠSch le
Ġaus fÃ¼hr
ĠEin en
ex ecute
fl ow
ĠMon te
ĠMittel punkt
Ġspe zif
EX T
ĠFreu de
ĠJos Ã©
ĉ ĠĠĠ
ĠW Ã¼n
ĠSt an
ap elle
ub a
Ġsch Ã¶nen
ĠUnivers itÃ¤ten
ĠNieder l
Ġgeboren e
bÃ¼rger meister
Ġfunktion iert
C P
y ball
Ġ ol
ro y
Ġan lÃ¤sslich
wei ten
etz ungen
up pert
Str u
li ver
199 5
ĠGegen d
ĠKÃ¼ ste
mod el
Ġbein hal
u ellen
er z
ch ild
ĠD ay
ĠK Ã¶r
ĠH yp
ĠAm azon
yn ast
On ly
opp elt
Ġgelegen e
ĠPots dam
ĠB och
Ġh a
ĠâĢ Ķ
ph ys
off set
Ġrech te
ĠKÃ¼ sten
Ġnational e
ĠInn ov
ĠPhys ik
p c
ĠS ei
am ik
Ġm Ã¼ndet
Ġp o
ĠEr wer
gl as
ĠProf ess
ĠMont ag
gebie ten
ĠÃĦnder ungen
d on
g riffen
s ign
Ġ orden
ĠP ierre
Ġal tern
Ġaus reich
ĠAn th
ĠÃ ł
reich er
Ã¤nd ige
sb ed
Al t
Ġ188 5
ĠGest alt
Le ft
Ġlok alen
prÃ¤sen z
: "
ar ed
ĠG att
ĠP el
ĠP age
ig in
Ġent lassen
ingen ieur
ond issement
ĠSer ies
ĠWahl en
ĠOb last
Ġverst arb
ĠBed arf
Ġvorhanden en
Ġkathol ische
Ġposit iv
Ġlau tet
clu de
ĠA cc
gen ossen
ĠGroÃŁ herzog
Ġumf asste
ĠIllegal StateException
ĠGebie te
ĠÃ¤lte sten
p re
p lay
Ġm e
ĠP ow
rie f
ite kt
Ġex ec
Null able
ar o
Ã¤ ck
Ġk ompon
Ġ" /
Ġtr aten
ast rop
ĠWelt cup
gn or
Ġaktiv en
as ien
Ġein s
ĠE ishockeyspieler
ĠC y
Ġc ap
ru e
ĠFrie dens
ames pace
verb indung
AL L
ĠFra ktion
unn ing
Ġhil ft
W or
l itz
Ġ assert
au thor
Ġst arten
Ã¼t ter
ĠEnt stehung
Ġcon figuration
ĠGrund lagen
Ġbr asilian
ĠVerlag s
med izin
. _
m ain
u i
ĠK Ã¼nst
Ġge zogen
eck t
ĠRo ad
ĠPh ase
ĠMill iarden
Film titel
Ġkur zer
ĠUkra ine
E p
N odes
ei ÃŁ
ĠK le
ĠR iesen
tr im
Ġk ir
Er gebnisse
Ġteil nehmen
ĠGÃ¼n ter
I A
m y
Ġw eb
am i
Ġh ieÃŁ
ent in
Ġver teid
ĠVer k
ak es
ost on
ĠTour ismus
Ġsozial e
ĠFel ix
Ġhal b
ĠBrem er
Erster wÃ¤hnung
4 00
b old
ĠS T
ĠK G
ĠK ohl
ĠP est
ĠP oten
ĠW art
ĠL at
fahr ts
ĠMan ager
ĠFre e
Ġ188 9
Header s
au g
se d
Ġc olle
ĠAus bildungs
Ġ5 9
ĠGer Ã¤t
ĠGroÃŁ teil
ĠSÃ¼d west
199 2
sprÃ¼n glich
With ServiceResponse
ĠBur gen
ĠGi pfel
lehn t
WithServiceResponse Async
Â ³
or ity
ĠA fr
ĠF F
ĠAuf tr
Ġ189 1
ĠNieder lage
ĠKr one
Ġerw orben
Ġp assed
ug oslaw
Ġtr eten
Ġget Ã¶
gew inn
Ġher um
rat es
fr ont
Ġnord Ã¶stlich
B us
F lag
N ov
S ingle
ĠP enn
ĠZ Ã¼ge
ĠSp Ã¤t
ĠSp itz
Ġent deck
ĠBr uch
Ġat om
Ġper fekt
sto ÃŁ
A k
U s
] )
it o
Ġg ro
Ġl eist
he ad
ĠMit tler
olog ien
org an
Ġbef Ã¶rdert
min istr
ĠSh op
ha i
Gr und
Ter m
abgeord neter
M Ã¤rz
e ber
ĠA qu
Ġein zu
ra xis
ĠAr men
wend ungs
uff ix
Ġengl ische
Ġdefin iert
ĠRestau rant
tiller ie
ĠBiele feld
O C
v ard
sch rank
ge legen
ing ung
Ġg ros
ĠVer wand
od a
lo ud
Pro xy
Ġle hn
ĠSte u
ĠTr ier
ĠOl denburg
ĠVers and
Ġunbek annt
k ommand
Ġd Ã¼n
ie ck
ĠP S
ĠC lient
Ġk om
Ġp oint
19 18
sh ausen
ĠHand werk
ĠFahr t
Ġerreich ten
igh ts
weis ung
Non Null
H eute
k ar
s an
ĠK un
ĠK ell
ĠL ew
tel n
ĠFl ag
ĠRo se
ĠWelt meisterschaften
Ġdi ver
Ġzentr alen
Ġgrund sÃ¤tzlich
E le
d ing
Ì Ī
er a
te sten
ĠA x
ĠP seud
ĠT onnen
isch Ã¶
Ġr ight
alt ar
Ġ5 8
uck et
Ge ografie
ĠAutor in
Ġtechn ische
ĠDep art
ĠAbgeord neter
ĠLab or
Ġallgemein en
f irst
Ġf ach
ĠC ro
Ġt hr
ĠEr ster
ĠZu cker
ĠMehr heit
ĠWel tr
Ġchar akter
Ġtem plate
ĠLOG GER
dar steller
de p
ĠV f
icht lich
Ġ} ;
me te
ĠBau er
Ġur i
Ġbau te
angeb ot
C ommerce
K omponist
M Ã¼n
w h
ĠP ublic
ul f
Ġt hen
ĠVer fassung
ĠSp ir
ĠNeu stadt
Ġdi verse
ĠPolitiker in
Ġzie mlich
CD U
ĠGÃ¼n ther
> ()
T ro
ĠD ial
ĠK ino
um an
Ġl ei
qu alitÃ¤t
Ġent h
ett ing
Ġmittler en
Ġamer ikanische
ĠSzen e
ĠArr ondissement
B ran
T ags
Ġd eb
st atic
Ġi dentif
Ġh Ã¤uf
eh Ã¶r
eil er
Ġsch lecht
our cen
ĠGrund stÃ¼ck
Ġ187 9
Ġâ ĨĴ
Wer degang
Cal endar
Eng ine
C up
Ġg uter
Ġauf treten
199 1
Ġ187 5
ĠEinwohner zahl
ĠpersÃ¶n liche
ĠCorn wall
K Ã¶nig
M ehr
Ä Ļ
at ische
ĠH rsg
ĠN az
ver ter
ĠFran Ã§
amer a
Ġreg ister
atÃ¼r lich
Ġbestehen de
Ġwes halb
Ġdunk el
en kt
st ar
em an
ĠJ ava
ik i
Ġl eitet
ĠUm gang
Ġbegann en
P RE
ĠS y
ĠD afÃ¼r
Ġn annte
ĠW ood
ro id
est ern
ap i
ĠKompon isten
Ġzeit genÃ¶ss
Ġwich tiger
ĠpreuÃŁ ischen
Ġ Ã¤ndern
Ġs ymbol
Ã¤ use
ĠL em
est and
ĠAn zei
Ġsch ot
Ġges ucht
OR T
ĠVorstand s
Ġkor re
D r
c il
i Ã³n
on z
Ġw Ã¤hlen
ĠK il
Ġer stellen
ĠI terator
Ġge legt
Ġbest ell
ens ion
ĠKl im
Ġgelegen tlich
ĠAmts zeit
sto ffen
B oot
E t
G o
Ġ ).
ĠĠ Ċ
Ġ( ).
us se
Ġan gen
ĠUm bau
ĠOber flÃ¤che
Ã¤tz t
ĠBel gien
ĠverfÃ¼ gen
ĠRÃ¤ ume
Ġans Ã¤ss
ĠF assung
is m
is er
ĠH eb
ĠT rieb
ĠN u
ĠN ote
ĠSch aff
end ing
ĠÃ¼ber setzt
ang es
Ġunser es
mÃ¤ÃŁ ige
forder t
tisch es
ĠRegel n
P al
ar c
ĠM att
Ġer geben
pl ic
Ġ8 5
ĠHoch zeit
Ġerfolg reichen
glieder ung
ĠMat rix
agn ost
ĠmÃ¶ glichen
K inder
u an
Ġn ow
Ġitalien ische
ĠPass ag
sprÃ¼ che
S ow
d ir
d ist
ĠO m
Ġl aufen
bar er
Ġverb essern
ĠEurop as
ĠHÃ¶ch st
ĠW ater
Ġ6 1
Ã¶l z
ĠGes am
198 9
yd ro
ĠSoc ial
Ġeinf achen
ĠNaturschutz gebiet
aiss ance
P lay
g lei
k w
Ġ iter
ĠS z
Ġw eite
ĠA dresse
Ġ1 15
ĠH ome
Ã¶ scht
sp itze
ov en
ĠBl ues
Res ources
ĠFr ucht
ĠsÃ¼d westlich
Ġ188 4
send ung
ĠAnton io
M ag
k B
ĠS eg
ĠF res
Ġver boten
eben e
atur en
IN T
Ġ188 1
spro zess
Ġklein eren
ĠBef ehl
Ġzeit weise
ĠProm otion
ĠendgÃ¼l tig
R est
c ap
p ri
Ġ hr
es p
ĠJ ubil
Ġc opy
pro jekt
Ġeigen er
ĠDar aufhin
ĠRes earch
ĠEv a
aktion en
ĠOz ean
{ }
ĠL evel
Ġbe zieht
Ġvor ber
ĠLe e
wir k
Ġwei sen
ĠDorf es
Array List
Film schauspieler
Ġversuch en
ĠTex til
gefÃ¼ gt
ĠergÃ¤n zt
p at
r ight
ĠM u
se g
Ġzu kÃ¼nf
Ġst ren
br Ã¼
Ġber ech
add All
ĠFor der
fÃ¤l len
Ġgetr offen
x x
sch wei
at her
ĠM essage
ĠK oll
ĠF ans
ĠH ey
ĠW is
ĠAl ben
ĠTh or
Ġhin ten
ĠHil fs
LA SS
ĠGi ov
ĊĠĠĠĠĠĠĠĠĠĠĠĠĠĠĠĠĠĠĠĠĠĠĠĠĠĠĠĠĠĠĠĠĠĠĠĠĠĠĠĠĠĠĠĠĠĠĠĠ ĠĠĠĠĠĠĠĠĠĠĠĠĠĠĠĠ
g round
à ¯
or men
ĠB ibel
ĠM B
ĠM arburg
ĠT ax
he ater
Ġbe en
ack t
schn itte
jahr en
ĠGraf ik
ĠTex as
ĠfÃ¼n ften
Q U
Â ®
ĠD J
ĠF ab
ĠF ehl
Ġp asst
ĠAr z
ĠMar g
ĠAmer ika
sw ald
frie s
ĠBed Ã¼rf
ĠGed ichte
ĠHum an
c all
ĠR io
Ġum ge
Pro cessor
ĠhÃ¶ here
( ...
I ter
k re
n orm
v inz
ar gs
ĠW ork
ach s
ber uf
ab or
hÃ¶r igkeit
Ġbeg eist
itt le
Ġurkund lich
c omm
h Ã¤usern
sch icht
Ġan geschlossen
âĢľ -
br onn
ĠCo ok
ĠPort al
ĠWissenschaft ler
em in
ol ph
Ġf inn
ĠR olf
tr ace
zeug ung
ĠMag azin
Com parator
Ġextr em
Ġverur teilt
J apan
ĠA gent
ĠF ilter
ĠL Ã¶sungen
ĠZ y
Ã¤ch t
Pro jekt
ĠProdu zent
ĠX X
ĠSa arb
Ġkommen den
equals IgnoreCase
F S
o h
r ingen
s ichts
w ner
ĠS ache
ĠZ usÃ¤tzlich
Ġver ste
ĠEin z
ĠBe geg
ĠGe denk
gesetz ten
prÃ¼ fung
contains Key
ĠVerÃ¤nder ungen
/ >
un s
ĠS he
ĠC ross
Ġaus dr
im um
geb irge
Sch ule
ĠdÃ¼r fte
zus etzen
ĠBronzemed aille
' ,
B aden
C C
ich e
isch t
tr op
Ġst yle
Ġunter gebracht
ĠMa jor
ĠBl umen
bild ungen
gÃ¤n glich
ĠDenkmal schutz
Jahrhundert s
BevÃ¶lker ungs
C lose
c ape
s ver
ð Ł
st ritten
ik ationen
licher weise
Ġ187 4
ĠIntern ets
tic ast
Ġzentr ale
ĠSzen en
Ġbenachbar ten
R oman
Ġb raun
urn e
Ġre al
ĠMa schine
Ġwei ÃŁen
ĠMÃ¤n nchen
Ġgesp eichert
S ymbol
l ings
Ġd oc
ĠE th
ĠT auf
Ã¶ tt
ĠN et
ĠJ eder
Ġk ennt
Ġk Ã¶rper
Ġdies mal
ĠBereich e
ĠRes ource
ĠGef Ã¼hl
eier mark
ĠVort eil
ĠKomment ar
R ezep
st immen
Ã¤ g
ĠC ur
ĠO h
ĠZ o
lei ben
ober t
Ġ186 7
ĠLes er
ĠÃĦgyp ten
Ġw hen
el en
tr ee
Ġan sonsten
Ġzu folge
ot os
ĠBe at
ĠBuch staben
ĠNieder lande
minister iums
ĠPrÃ¼ fung
Ġ est
ĠM eg
Ġf inde
Ġh ost
Ġbe auftrag
Ġbe cause
Ġj son
auf nahmen
ep pe
wer ten
ĠAlt stadt
Loc ale
ĠDo ug
Mus iker
ĠBrun o
ĠHit ler
ĠZen timeter
b ein
t ot
Ã¤ ser
ĠV ari
ĠSch all
ĠAr me
ĠAl te
ud a
Ar t
Log ger
ĠGal ax
ĠDipl omat
spann ung
ĠErweiter ung
rÃ¼st ung
K unst
ch a
Ġd omin
st ahl
an on
ĠG a
il me
ĠN ationen
ire ktion
ĠGemein sam
Ã¶ff net
hau se
lu ft
Ġjeder zeit
ĠWochen ende
Ġwoll ten
ĠSchlieÃŁ lich
ĠS I
ĠR ub
ĠL ern
op Ã¤d
ech anis
ĠAus fÃ¼hrung
ĠAb stand
Ġbes uchen
fahr zeug
iss ar
ĠKunst stoff
ĠTre ffen
ĠAlter s
Ġober halb
Ġruss ische
ĠOrganis ationen
Ġlern te
ĠNomin ierung
Ġin spir
ĠI stanbul
us k
Ġan fangs
ann a
eu ern
ill aria
ĠVor bild
zeit schrift
Ġges agt
ĠOrt schaften
ĠTer ritor
193 3
ãĥ ¼
ĠRÃ¶ mer
deutsch land
ĠverstÃ¤r kt
y er
Ñ ĥ
an ke
al it
ĠC ru
Ġauf zu
ĠZ it
ind ungs
Ġc as
Ġunter scheidet
ĠAuf l
ĠZun Ã¤chst
kÃ¼rz ung
ĠA z
Ġin klusive
Ġm y
Ġver setzt
he ader
Ġr oman
mer k
Ã© d
Ã¡ s
Ġpolit isch
Ġruss ischer
at tet
ĠR och
ĠN ight
iv als
Pro gramm
ĠBl Ã¤tter
ĠMin i
ĠTem plate
Ġpl Ã¶tz
gebie ts
T our
U P
on line
Ġw omit
ĠC ir
ĠO f
ow itsch
ĠJahr hund
ech er
Ã¤u den
ĠSÃ¼d afrika
mÃ¤ÃŁ igen
scheid ung
ĠIr land
Ġpass iert
ĠGriechen land
N atur
T hr
r eit
Ġd ok
el be
ĠK ader
ĠH ex
ĠH arry
ĠW itten
se kretÃ¤r
ĠSch mer
lie hen
ĠBr Ã¼cken
sh ire
AR T
druck t
ĠStraÃŁen bahn
Ġwirtschaft lichen
Ġintens iv
ĠÄ Į
n oten
ur al
ti ver
ĠL aden
ĠÃ¼ber all
Ġ18 00
Die ses
Ġkon troll
ĠSek tion
B O
B eh
r as
Ġ reichen
em als
ĠP ool
ĠW under
Ġer folgen
ĠN R
Ġan n
ĠVer f
Ġst op
ĠEin kommen
ht ml
Ġbes ucht
Ġgen ieÃŁen
Ġverl etzt
ĠNieder Ã¶sterreich
urs or
ĠStad tr
Gener ator
ĠBrun nen
merksam keit
ĠS un
ĠK Ã¼hl
eb urg
Ġnach fol
Ċĉĉ Ċĉ
ant es
ĠBundes wehr
bo ok
Ġgeb lieben
port al
Ġheraus gegeben
ĠBach elor
jen igen
ĠSpec ial
ĠgetÃ¶ tet
M AX
s rc
un checked
ĠVer n
ri min
ek tiven
ĠIm age
ĠWest falen
out put
199 3
abr iel
n ap
z ut
ĠM aur
um b
ĠKon zentr
ĠGesch windigkeit
ĠQu ell
ĠWelt meister
ĠChr isten
deck e
Ġ186 1
ĠCentr al
ĠAstr onom
M ENT
W E
l isten
Ġb it
ver lauf
Ġsch Ã¼tzen
ill ing
ay load
br eitung
ian ischen
ĠModern e
ĠDÃ¶r fer
Jan uar
O ktober
Ġw and
Ġn ied
ĠK Ã¤r
Ġf rau
ĠL etz
ĠV i
lo v
ĠUm satz
ĠCon c
EN D
Ġ188 7
ĠAust ausch
ĠWehr macht
frist ig
ĠMaxim ilian
sch reibung
ein heiten
ĠB ow
ĠF ord
ĠW ell
ĠV ill
eb e
ĠVer stÃ¤nd
ate ll
br ig
arr ier
ĠfÃ¼hr enden
ĠPf licht
Ġgel b
Ġhand elte
Ġschn eller
P ers
c ore
k amp
ation Exception
oll ow
Ġtr ocken
Ġlie b
ĠUm feld
Ġviel er
AT A
ĠEigen tÃ¼mer
ĠWilli ams
ĠS ech
ĠIn sbesondere
ĠEin er
ĠChr on
con tent
ĠschlieÃŁ en
des ign
ĠAben teuer
Schwei zer
Ġ ep
at isch
as i
ĠL atein
ov Ã¡
ĠKl ang
lan zen
ĠAt hen
ĠFreund in
ĠEben so
kap elle
ĠÃ¤lter e
C urrent
O M
O pen
h ar
ĠM inder
Ġf Ã¼hl
ĠN am
ĠSp ur
St ation
Ġlie ÃŁen
ĠAm b
ĠAd ler
Ġgleich er
ĠVers orgung
ĠZug riff
lad ung
un nen
ei ro
Ġ( _
ĠT R
ro h
im ir
od ox
pf lanzen
schie de
ĠChrist us
ĠFahr rad
ĠGo od
L ie
R ock
k olle
as sten
ĠP rak
ĠT Ã¤tig
Ġdar um
Ġle vel
ĠUm fang
Un sere
Or iginal
Ġ' "
BevÃ¶lkerungs entwicklung
B ef
D elete
ĠB Ã¶r
ĠK el
Ġge fertigt
ĠPf alz
Ġbew egen
fÃ¤h ig
rupted Exception
F OL
st es
ĠO liver
Ġgen auso
ma jor
ĠIs lam
ĠDi Ã¶z
ĠTechn ischen
Ġausgew Ã¤hlt
W ien
l im
m Ã¤ch
te in
Ġb reite
ĠK im
ĠP L
ĠI dent
Ġab hÃ¤ng
rau cher
onn a
Ġbef est
wir d
so ft
ĠSied lungs
bro chen
Ġschaff te
P ersÃ¶nlichkeiten
w idth
ĠB lo
Ġm ay
ĠG n
ĠO ver
Ġver an
all o
amt es
ĠHoch schul
ĠLie bl
ĠGo ethe
Ġsol cher
ĠHin weise
ĠDokument ar
ĠDokument ation
ĠBil dern
ĠClau d
ĠNikol aus
b Ã¤
al i
at ischen
ĠB R
ĠF ound
ĠH Ã¼
ĠH amm
ĠL izenz
tr olle
ser ien
Ġum gebaut
burg h
sh ot
wa ffen
lex ikon
ele ase
ĠÃĦr zte
ĠEreig nisse
D ivision
P C
f amilien
Ġ achten
ĠE ver
ĠT ick
ĠT ay
ĠN at
ĠZ ub
ĠIn stall
stell ers
ĠFl Ã¼ss
ĊĠĠĠĠĠĠĠĠĠĠĠĠĠĠĠĠĠĠĠĠĠĠĠĠĠĠĠĠĠĠĠĠ ĠĠĠĠĠĠĠ
ĠVerl ust
beg inn
strahl t
Ġd ocument
ĠA gr
ĠF alle
is st
ĠL ichten
ro ot
ent hal
ĠZ ehn
Ġun bedingt
ok ens
Ġbest ehend
eld et
En de
ommer ziel
Ġbew usst
ĠMag n
198 6
urnal ist
ĠKloster s
ĠMun ic
ĠErinner ung
Ġfeier te
endo ktor
b uf
ĠT en
Ġl ink
Ġp refix
ers dorf
ĠJo e
)) )
ĠÃľber blick
ĠVerb indungen
Ġ186 8
ĠKÃ¼ chen
ĠDon nerstag
haupt stadt
SI ZE
ĠMamm illaria
A ktu
M ai
l Ã©
s ite
v iel
ĠB os
Ġin to
ĠF u
Ġver gessen
ĠPl Ã¤ne
ĠPl attform
gend es
ĠFil men
ĠPfer de
âĻ Ĥ
e get
k anz
Î ±
ar tikel
ĠF it
ĠP ersÃ¶n
ĠSch u
ĠSp ren
ĠAuf merksamkeit
Ġhand ler
chn ik
ĠTre ffer
ĠKauf mann
Ġnorm al
ĠMerk male
ĠHoff mann
B S
T ran
w eb
Ð ²
un es
ĠV iet
ab els
Ġst rate
Ġc omponent
Ġc ommand
amm ern
Ġbest anden
lauf en
Ġak tive
Wir d
193 9
Z entr
g roÃŁ
ĠS omit
Ġp rÃ¼
Ġum gew
kehr t
ĠÂ ·
ĠsÃ¼d Ã¶stlich
ĠNe ur
ĠEben falls
vorsitzen der
ĠGelegen heit
c or
ĠS E
ĠR ey
ĠL ord
Ġer leben
urn ee
Ġ6 3
ark e
Ġhier fÃ¼r
ĠKat zen
Ġoffen bar
fir ma
s f
Â §
Ã¼ re
ĠH ot
ĠH ead
ĠAl kohol
Ġum s
Ġent f
ĠCh allen
ip er
Ġgen annte
Ġgel angen
ĠGew erbe
ichtig ung
ĠSek ret
ĠDrit tel
Ġinn ov
ĠRumÃ¤n ien
Frie drich
M sg
S an
W ar
Ġaus gesch
ant a
org anis
iss ing
Ġse arch
ĠAuss icht
ĠSum me
Final e
A K
in f
et ti
ĠE uch
ab schluss
Ġk ost
Ġ18 40
if iziert
sk on
ĠBei spiele
Ġges prochen
ĠQu ar
ĠGrÃ¼n en
yl van
Ġspeziel le
ĠKÃ¼nst lern
h art
i pe
un sten
an dern
at tr
Ġv ia
ĠK ast
Ġf f
ĠJ un
Ġ18 30
arb eitern
ard o
Ġzwei er
ĠFran ce
ĠRo berts
Ġgesch ieht
Ein wohner
ĠAt lan
ĠBew ertung
Ġintegr iert
tw och
b Ã¶
j ust
in stance
ĠD unk
ĠL ehn
re qu
ĠN SDAP
ir ke
ĠAn bieter
ap s
ĠEr richtung
len z
Ġlie fern
lei der
Sch n
ail ure
198 5
ĠJugend liche
ĠGebie ten
Ġdur fte
j Ã¤ger
k ind
v ideo
an ia
Ġm ake
ĠG riff
ĠW ellen
Ġaus einander
Ġzum eist
ohn e
ath an
Ġmehr erer
ĠOl d
Ġall eine
Ġ186 4
Ġy ou
ĠschlieÃŁ t
ĠMathemat iker
ĠHoll y
Ġpromov ierte
f ession
g al
t l
ĠB uk
et enz
ĠSch lei
Ġp attern
ot oren
Con sumer
ĠWir d
ĠUniversitÃ¤t s
ĠSystem e
Ġ187 2
Ġschwer e
Ġevangel ischen
ĠTrain ings
ĠOption al
Ġehr en
ĠYo ung
Ġdok umen
? ?
C ur
H ans
R ev
S L
c p
k at
s inn
st eig
ĠT ank
re uth
ra gen
id d
ech en
Ã¼l le
oph on
ĠÃĦ hn
ĠRep ort
ĠEt hn
ĠCollection s
Wind ow
ĠEntfern ung
B es
S ER
f ailed
l abel
Ġd on
ĠJ ones
Ġbe achten
ial en
amm elt
Ġbef ind
ĠMon ats
ĠLei b
ĠTer ror
ĠMaler ei
fre ie
Ġrec ord
Disk ografie
Ġbrau chen
A gent
W asser
l iteratur
en hagen
sch ritt
Ġm ex
ĠH agen
Ġst imm
Ġbe qu
ĠAl ph
ĠLe o
Ã¤nger ung
ÃŃ o
ĠAmer ica
On line
ĠMad rid
HH HH
ĠVerantwort ung
Ġerlang te
STAN CE
v ey
Ġ ei
ĠB oston
ĠD etail
ti ment
Ġk Ã¼nd
ĠSt Ã¼cke
ob jekt
bar ung
Ġ9 9
Ġ6 2
ĠMeister schaften
ĠKur fÃ¼rst
Ġwid mete
ĠBeteil igung
m ethode
sch ungs
ĠM Ã¼hle
Ġk rÃ¤f
pl ib
Ġth an
CO L
Ġschwed ischen
national spieler
Ġbeinhal tet
č ĊĠĠĠĠĠĠĠĠĠ
Ġv oller
ĠB ang
ĠH ay
Ġh eight
Ġst Ã¤ndig
Ġj ust
org ungs
Ġ186 9
ĠKo ordin
gef angen
Ġerf Ã¼llt
ibr ary
ĠEnsem ble
h ammer
ĠM uss
ĠAn erkennung
Ã¼n de
Ġa ct
ĠBer ge
ĠAuf tritt
av ax
spr uchs
ĠInd ust
ĠVolks zÃ¤hlung
Ġreduz iert
plib Package
Z wei
a wa
k es
Ġs end
ĠB ie
Ġm orgen
Ġf Ã¶rdern
Ġh aus
eit ungs
ĠZ ell
ĠSt ol
ĠSt ory
ĠVer dienste
Ġaus gebaut
eg er
ĠPro perty
Ġ" '
oc ation
man ager
ĠRep rÃ¤sentanten
ĠEng ine
wÃ¼r fe
valid ate
Ġprak tisch
Ġbem erk
vertr eter
ĠKonfl ik
z ellen
an th
ĠD iff
ĠW Ã¶rter
ĠL okal
ĠSch atten
sh ut
ĠVerb ands
ĠKreis es
Ġgest artet
ĠKont in
ĠTest ament
ĠmÃ¶ gliche
R S
b ist
k rank
al o
or i
Ġs im
ĠB Ã¼nd
Ġ( ),
ĠF antas
ĠP in
ĠAn ne
ĠVor stellung
str eit
Ġgesch Ã¼tzt
ĠĊĠĊ ĠĊĠĊ
Ġverw endete
ĠRest aur
ĠMail and
i oren
m ie
er tet
Ġf unction
ĠAb stieg
Ġ6 6
ĠWerk statt
ĠKo al
ĠDis ziplin
fil me
ĊĠĠĠĠ ĊĠĠĠ
fekt ur
ĠVersicher ungs
L ex
g ier
ern ame
ĠEin stellung
âĢľ ),
erk l
ĠAus wirkungen
Ã¼l ler
ĠBar ock
verein igung
ĠSilber medaille
UL L
ĠHeer es
ĠInstitution en
ĠGiov anni
O B
R uss
Ġh e
ĠJ Ã¶rg
rit ter
hol en
ĠÃĦ m
ĠMet al
Ġwh ich
Ġprof it
( @
Ġ append
ĠS ehenswÃ¼rdigkeiten
ĠB od
am burg
Ġh undert
ĠBer gen
ov ed
per imen
ĠZeit schriften
ĠBau ch
Ã¤uf e
Ġ188 2
ĠÃĸsterreich ischen
Dat um
komm t
J ugend
Ġs um
Ġi den
ĠP riv
le vel
Ġk Ã¼nf
Ġal ter
ĠSt ab
ĠVer sch
ot ter
ĠAr ab
res ources
war en
ĠÃľber nahme
ĠursprÃ¼n gliche
ĠLieb es
ĠGemeinder at
Ġdeb Ã¼
D o
J uli
or um
ĠP ack
ĠL ock
ĠJ Ã¤ger
ĠC olumb
Ġge eig
Ġzu gelassen
ĠSp e
Ġthe oret
ĠJu an
Ġ188 3
AC K
ĠBek annt
ĠFÃ¤l le
u hren
ĠK rei
ĠF I
ĠJ son
ĠSp uren
Ġj en
dem okrat
Ġro ten
ĠPat rick
ĠTre ff
Ġnord westlich
Fl ug
Ġerweiter te
Ġanerk annt
W ord
p al
al in
ĠE ier
is l
ĠJ unge
Ġdar stellt
zeu ger
Sp ace
ĠEurop Ã¤ische
Class Name
arm on
Ġ187 3
frei en
Ġschl ug
ĠKop enhagen
H O
H alb
k Ã¶nig
Ã¤ p
ĠF ox
Ġh off
Ġver teilt
Ġr umÃ¤n
Ġ18 78
if ier
wa ffe
193 8
ĠAss istent
ĠÃ¼b lich
ĠAustr al
K an
c ar
and o
Ġzu frieden
ĠBer ater
ip her
Ġgew Ã¶hn
ĠKat alog
itu de
ĠErw Ã¤hnung
ĠWeil er
ynast ie
(... )");
G u
s cription
el er
ĠB orn
ĠE cke
ab len
Ã¤n zer
ĠAn wendungen
Ġj ener
ĠPro tocolMarshaller
Ã¤d t
hÃ¶ fe
usst sein
ĠApp le
ĠViz ep
Ġfertig gestellt
Ġschwar zen
b art
l ach
r d
ĠA ar
ĠM ike
Ġge weiht
ĠO bst
ĠâĢ ¢
gel Ã¤nde
ĠSo zi
system e
ĠnatÃ¼r lichen
ĠRein hard
Ã¼st et
ĠLux emburg
Sep tember
B E
C K
W e
m utter
s aison
ĠA cker
ĠK Ã¼r
ĠG abriel
ti us
ĠL ag
ĠAn trieb
Ġum gesetzt
lo gen
Ġ0 1
ĠKon kurrenz
ĠReg iment
stand s
198 4
198 7
ĠHier bei
ĠRob in
g ard
g reg
al u
ent ity
Ġdes cription
ul iert
gr Ã¼ndung
rÃ¤ umen
Ġle gen
alis ieren
ĠKrieg sende
ele ge
ĠMill imeter
ĠEt appe
Welt meisterschaften
Ġerwar ten
f rÃ¼
en se
ĠS qu
ge tr
ĠB uffer
ĠK en
le un
ĠR eh
Ġl ive
ĠEr gÃ¤n
Ġ< /
ĠSchw imm
buch autor
ĠGit arr
ĠEber hard
ich tigen
ĠA S
ĠF lieÃŁ
ĠT oken
ĠN erv
ĠJ ar
ig tes
ĠAb stra
tem p
Ġex pression
ĠWest ern
film ung
forder ung
Ġausgew iesen
Ġdire kten
Ġtradition ellen
Ġstellvertreten der
VerÃ¶ffentlich ungen
ĠFÃ¤h igkeiten
f euer
at iver
it ro
Ġm ore
ĠG ames
is a
ĠSie gen
ip edia
Ġ9 5
ĠKl eine
ĠLau b
ĠHaup ts
ĠVerbesser ung
ylvan ia
B rite
k le
r in
Ñ ı
ĠS achen
Ġein heit
ĠL och
Ġg aben
rei ft
Ġc onn
ĠBer ech
sh ow
ĠFran ces
Ġle gt
ĠPer formance
jahr e
Ġdamal ige
Kirchen gebÃ¤ude
D on
m ol
v arian
ĠR ainer
ĠInter pret
198 8
ĠVertrag s
Lo ad
Exec utor
ĠWach stum
ĠNeuse eland
Ġkir ch
N orm
S ocket
sch ild
ĠM ig
ĠM ov
ĠT O
Ġge lesen
Ġver g
Ġver grÃ¶ÃŁ
ĠAr g
Ġger inger
ĠMan uel
Ġbegr enzt
ĠAuss age
Ġausreich end
E qu
a schen
ĠP ion
Ġa fter
Ġvor ne
Ġlie genden
Ġex pl
ĠjÃ¼d ische
Ġoption al
ĠNav y
D ezember
s orge
ĠA kt
ĠD ein
ĠO ri
ĠAn sicht
ap h
ĠEr ic
20 21
ĠBo gen
Ch ain
fÃ¤l lig
dienst kreuz
aliforn ia
A uÃŁer
B U
b uilder
o ÃŁ
r ise
ĠH Ã¤
Ġan bie
Ġzu gÃ¤nglich
ĠU d
sp ital
ce p
du ktion
ĠSk ulpt
ĠÃĸsterreich s
ĠMark graf
ĠTschech ien
TI ME
V A
Ġs yn
ĠG od
ĠP ers
ĠN ie
Ã¤l ter
ĠGem ark
gesch lecht
str asse
Ġ186 2
ĠHin weis
mut able
ĠUnabhÃ¤ng igkeit
D am
T L
z usammen
Ê ¿
Ġb reiten
ĠM eine
Ġm achten
ĠL ange
ir a
ungs mittel
ĠAl so
ph y
Ġ7 2
Ġbel iebt
Ġben annte
Ġerrich ten
ĠKult urg
ĠKapit Ã¤n
ĠEind ruck
ĠNiederl anden
ĠSaarb rÃ¼cken
V om
y k
ei ra
ĠH enn
ĠH ildes
ĠL A
and om
Ġk re
ĠSch Ã¤den
Ġwar ten
get R
ĠSpiel klasse
res se
Ġbef anden
Ġeinge laden
Ġ> >
ĠCom ic
ĠAnder e
ĠSchwar zen
ĠKommand o
Ġuntersuch t
H z
ĠB urn
ĠR E
ĠSp recher
ĠMit twoch
be cken
Ġpro ject
ĠOber liga
Ġgel ungen
tif y
arch itektur
ĠWohn ungs
ĠFel der
Fernseh film
s ylvania
ĠM Ã©
ĠK Z
ic z
Ġnach gewiesen
19 20
Ġvor genommen
ĠzurÃ¼ck gegeben
ĠNeu er
eig ung
Ġproduz ierte
Ġspeziel len
eucht ung
ĠHir sch
ĠKonfl ikt
G ET
Ã ¦
ĠK ok
Ġo s
Ġst abil
Ġsich ern
geb oren
up le
St orage
zw ungen
ĠRe ad
iden z
ĠAt mosphÃ¤re
ĠWal es
ĠReform ation
igr ation
C onn
W ill
b il
sch end
ol en
Ġver arbeitet
Ġsch wei
19 70
ĠBer at
ens is
Ġlie be
ektr um
Ġbesser e
ĠÃ¼bern immt
spart ei
zust and
ĠlÃ¶ ste
ĠsÃ¤m tliche
E ishockey
L ower
T ab
m ach
w ein
ul er
ak on
zahl t
ĠAf plibPackage
ĠDel eg
ĠRis iko
it alien
ĠM iet
Ġg u
berg s
gesch Ã¼tz
wir ken
ĠSe en
Mod ule
ĠMor itz
ĠSchm uck
ĠStim m
ĠJahrzehn ten
ĠberÃ¼cks ichtigt
F T
V ID
b eu
j amin
r ein
t licher
al ity
Ġi gnor
ĠM d
Ġn a
ĠW ende
re ste
ĠSch icks
ĠSt or
Ã¤n glich
hl t
ĠGr Ã¶ÃŁen
ĠSpiel s
Ã¼l lung
ĠOber Ã¶sterreich
ĠArbeit geber
Ġem pty
spro gramm
Ġangeb racht
ĠTyp s
ĠRaj on
ĠbeschÃ¤d igt
ĠG ross
ĠP osten
um l
ĠJ ens
tern e
ition en
Ġbet reibt
lau be
ĠEurop e
Ġbr ach
ĠWohn zimmer
Ġgewann en
arts eite
Ã¤te stens
Ã¢ te
Ġwunder sch
Ġb Ã¼rger
Ġin ne
ĠĠĠĠĠĠĠĠ ĠĠĠ
ĠC ost
ra hmen
scha ff
ĠAr gentin
ac y
ant on
ĠPl us
stag s
Ġfrei will
Ġgelang te
Men u
ĠÃľberg ang
L L
r n
s ort
ĠK ai
ĠF as
ti als
Ġl anger
Ġbest immen
sk irche
ĠEx p
Ġfest ge
Ġmeisten s
ĠKind heit
frei heit
di mension
Ġeurop Ã¤ische
Stack Trace
ĠAnh Ã¤nger
Ġangep asst
J SON
V ector
g ast
h Ã¼tte
ur er
ĠM eld
ĠZ auber
ĠSch Ã¼tzen
Ġl abel
Ġr ies
ĠAn lass
Con troller
Ġwel chen
ace ae
ĠLehr stuhl
ĠRegion alliga
Ġ187 7
ĠverÃ¶ffentlich ten
UN G
wor tet
entry Set
Ġsowjet ischen
ĠdebÃ¼ tierte
un ken
ĠD efinition
ian s
Ġber u
fahr ten
ute te
ren ce
ĠPosition en
Med ia
ĠPsych ologie
Dest ination
L uft
M al
f eier
t oken
st eile
an alyse
Ġin folge
ĠW Ã¤l
Ġh Ã¤ngt
ĠN est
At tr
US A
abil itÃ¤t
Ġjapan ischer
Ġinform ieren
Ġletzt lich
ĠKath arina
ontinu ier
b ell
m d
ĠF okus
ĠC lem
Ġge laden
Ġt ot
ic i
ĠAn meldung
rie s
ĠÃ¼ber zeugen
19 78
eck er
ĠIhr es
esse d
Ã¤tz ung
Ġverwend eten
Ġrel ev
beh Ã¶rde
ĠunterstÃ¼tz te
ilen ame
Ġ{} ",
Ġstru ktur
W R
Ã¤ se
ĠG Ã¶r
ĠH allen
ĠT ipps
ĠO R
ist et
Ġt oll
Ġp oten
ĠKon serv
ĠPar ad
Ġger iet
ĠDurch fÃ¼hrung
ĠSchul d
Ġ180 3
Ġcall back
Bound s
ĠAltern ative
âĻĤ ,
F low
c ontainer
ĠG ymnas
ĠH Ã¤nd
ĠW ay
ĠW uppert
Ġh ef
lin es
Ġbe zÃ¼glich
ĠUr teil
ĠRen ten
ĠPrinz essin
Ġdest ination
Ġposit ive
Ġchrist lichen
ĠMiner al
ĠRol and
ĠS ession
em p
ĠZ iegel
Ġre v
ĠAb wehr
ĠAuf ruf
af eln
Un ser
Ġbeh and
Auf grund
uld a
ĠTemperatur en
ĠDemokrat ie
ĠFrem d
Hinter grund
| |
Â ´
Ã ī
sch el
ĠD ocument
em s
ver hÃ¤ltnis
ĠEr klÃ¤rung
get P
Con dition
Ġ6 8
olle yball
ĠRes ponse
ĠSen at
Ġperson en
) ).
C luster
S ing
S onst
á ¹
Ġs egment
ĠC alifornia
Ġan g
Ã¤t tern
ĠCh in
ac ity
ant ast
res p
ator in
ÃŃ k
Ġ187 6
Ge org
Mart in
P AT
ĠV alle
Ġk Ã¤mpf
Ġan grenzen
Ġc tx
Ġum stritten
ĠBl ue
kl ar
IN STANCE
ĠStud ies
ĠHÃ¶he punkt
Ġsh ort
ĠInf os
ĠPeters burg
Abst ra
Z one
on te
ĠS amen
Ġnoch mals
ĠBr ut
io den
ĠSpiel film
pro blem
Ġis rael
Ġher e
ĠChr is
schau en
Group s
ĠSol o
Ġged reht
the ater
ĠAsp ekte
A rea
B Ã¼
V O
g in
i qu
k al
Ġ å
Ġs itzen
ĠA le
ĠB ast
ĠM es
ĠT unnel
Ġauf merksam
ran ts
19 30
Sch on
Ġ7 6
ĠBischof s
ĠRec ord
bÃ¼ ro
Ġwissenschaft licher
spart ner
ĠdÃ¤n ischen
K or
Ċ ĠĠĠĠĠĠ
Ġ tim
ein richtungen
ĠK ann
ĠG allen
ol is
ĠT iefe
ĠC ent
Ġk ommerziel
iel ler
land schaft
up pe
ĠAus gaben
fer en
ĠGesch lecht
res pon
aff ee
ĠAu ge
best and
ĠBot an
ĠBeck er
Ġrest aur
ĠHauptr olle
S ol
c us
ar isch
ĠD ick
Ġf ehlt
ĠW alt
Ġge g
Ġan notation
ĠO d
ist ics
gesch ichten
fahr ens
ade d
Ġ% .
arch ie
UN D
stehen den
ÅĤ aw
Sel ect
ĠTown ship
Ġumgew andelt
. ",
B ek
V ari
ion e
ig ation
ĠSt ationen
get Path
av el
zw ald
ĠSpr ung
let on
ompl et
ĠRed aktion
ĠCor por
ĠSem inar
ĠKer amik
ĠDisk ussion
F rÃ¼
M W
a int
c at
g f
s st
Ġs par
ĠE i
Ġf ehl
ĠW id
Ġge liefert
Ġst ra
ex ception
ĠVor bereitung
Ġsow eit
Ġwieder holt
Ġstatt dessen
Ġfest gelegt
Ġkon stru
Ġak adem
ĠJugend lichen
Ġabge st
Ġverm eiden
ĠRest e
cy cl
ĠMy th
ĠViertel finale
---------------- ----------------
ĠCarol ina
ĠVirg inia
Nov ember
G C
P aul
v org
in ten
Ġb ad
ĠD efault
ach us
ing ham
ĠSt aub
wei ch
ĠFlor ida
Ġrest lichen
liefer ung
Ġabger issen
spez if
k orea
al teten
ĠM ei
ĠP ac
ĠI tem
ra gt
Ġvor kommen
ĠVor trag
ans as
ĠPar allel
Ġgest orben
leist ungs
ĠRot h
Ġhol te
ĠmilitÃ¤r ischen
Ġbeob achtet
ĠabhÃ¤ng ig
n ischen
ĠG ieÃŁen
Ġf Ã¤hrt
ĠR up
ĠN eb
Ġdes selben
ler in
ĠAus schuss
ĠCh ines
ĠBr Ã¼ssel
Ġlie ben
Ġerfolg reiche
198 0
Ġaufge hoben
No tification
ĠgÃ¼nst ig
K ind
ĠF a
ab schnitt
ĠC arr
ik at
ĠEr hebung
19 44
tel l
rau ff
pf alz
Ġseit her
rech nung
legen heiten
Sc reen
ĠÃ¤uÃŁ erst
ĠZuf luss
Ġbeeinfl usst
M Ã¶
sch rau
sch reiben
ĠD own
ĠM asse
Ġin vest
Ġk ont
Ġg ridBagConstraints
uf er
Ġsp anischer
if er
br Ã¼ck
zahl ung
ĠPart ie
Ġ186 5
Ġaktu elles
ĠVal id
rÃ¤sent ation
ĠKab inett
ĠLeichtathlet ik
umin ium
g asse
m essen
È Ļ
ĠB ean
em eister
Ġf lex
ĠR ow
Ġg ra
Ġl eisten
az itÃ¤t
Ġ9 6
ĠAu ft
Ġdire kte
Ġengag ierte
Ehr ungen
( !
K omp
T S
U RE
b in
h eben
k ont
Ġw Ã¤ren
ĠD og
ĠV ide
Ġk ontinuier
Ġl imit
ag ing
atz e
ĠUr sprung
hol ung
ish ing
Ġerf Ã¼llen
Ġstamm te
Oper ator
ĠStruktur en
lieder ung
Ġdenk mal
elemen te
hedr ale
A ber
or ter
Ġs ur
ĠB enn
ĠT an
ĠC ard
Ã¶n t
Ġunter lag
ĠNeu zeit
Ã¼l ern
ĠBet racht
Ã¡ r
ĠFre unden
ĠHig hl
n acht
sch Ã¼tzen
ĠW itt
ĠV ul
Ġo pen
os h
Ġsie gte
ĠAb b
lau ch
ĠInd ividu
ehm igung
ĠHoff nung
ĠKandid aten
ĠSchwier igkeiten
ĠHolly wood
! âĢľ
B ern
V ideo
c lazz
d igt
Ġn Ã¤chst
ĠK lin
ĠF o
ĠH at
ĠW end
ĠSch atz
ĠAn aly
Ġc ontainer
St ad
ĠLand gemeinde
Ġlie fer
gesch icht
ĠFre der
Ġstell ten
Child ren
ĠDek or
Ġleich ter
o ter
un ks
it is
ĠD rag
ĠG h
ĠW ettbew
ad i
eil ung
ang le
Ã¶r te
Ġ3 000
hl on
ult an
att le
olog ical
Ġ7 00
ĠNord amerika
red icate
Ġgef Ã¶rdert
ĠChrist op
Ġern annte
ĠKap ital
ĠMag d
Ã¨ s
ĠHalb insel
ĠEing abe
Ġklass ische
ĠnÃ¶ tig
Ġdiver sen
P A
d lich
d igen
en ken
ĠM atch
Ġm ech
ĠL uther
ĠC ra
ri o
ĠEin tr
ĠAr rays
Ġbest ellen
Ġmehr mals
gew Ã¤sser
Ġ186 3
Ġsof ern
ĠCharl otte
IV E
ĠGit arre
Ġverkauf en
hor st
ĠReserv e
Ġmensch lichen
ĠColumb ia
A pril
R ennen
m atcher
r ollen
Ġd ynam
el y
Ġv irt
ck et
ĠJ Ã¼n
Ġab w
ĠFl Ã¼sse
ĠQu ery
deut scher
Ġ185 9
part ei
ĠPrem iere
stÃ¤r ke
BÃ¼rger meister
hentic ation
FOL LOW
3 00
Ñ ĭ
ein satz
ion al
Ã¼r mer
ĠSch los
ĠSch reiben
lin ois
get T
ĠStr eifen
ĠTh ail
Ar gs
code d
ĠAt trib
ĠMill ion
Ġentwick elten
ĠGold medaille
Ġnieder lÃ¤ndischen
aun a
Ġbevor zu
Ġschwar ze
ĠVerstÃ¤nd nis
D ay
N etwork
W rite
m Ã¤r
ĠS ed
Ġw Ã¤chst
Ġzu verlÃ¤ss
eb au
Ã¤n omen
ĠSp ar
auf lÃ¶sung
Ġ8 8
ĠAll gemeine
ĠkÃ¶nn t
Ġwichtig ste
Ġjapan ische
gesp ielt
ĠÃĦnder ung
V E
p reuÃŁen
ei be
ĠD ass
ĠF red
ĠP etr
ĠV ogt
ĠJ Ã¼d
lich ten
ĠAn satz
Ã¼hr t
ek ing
ĠVor name
imm ern
Deutsch e
Ġbew eg
ĠKirchen gemeinde
ĠAndre a
Dat abase
ĠTim es
ĠCentr e
ĠAndr Ã©
ĠTok io
ĠExempl are
b lau
n ur
ĠB ulgar
Ġz ogen
ĠF inger
ten ts
ĠÃ¼ber gebenen
19 29
Die s
ĠPl Ã¤nen
Pro ps
ĠSta ates
ĠBet on
ĠFrÃ¼ hl
ĠKompon enten
Rep ository
Names pace
ĠbeschÃ¤f tigte
ĠbenÃ¶ tigen
ĠNorm al
ĠKu gel
ĠSchlaf zimmer
tok oll
Ġbayer ischen
Abstra ct
achus etts
M aster
l at
Ġd ella
ĠL et
ĠL ob
Ã¶ te
ĠV in
ad bach
Ġbei der
ĠAus stellungen
Mit tel
ager ung
ĠOlymp ia
ĠMÃ¤n nern
ĠStat istik
dis ziplin
ĠSchott land
W el
r ennfahrer
Ġs m
Ġauf gel
ĠSt au
eg ate
Pro f
ĠSchw ein
aler weise
ĠKomm andeur
ĠLandkreis es
yl l
ĠSen ioren
zÃ¼ g
Ġgepl anten
ĠStock holm
ĠWes entlichen
Ġerinn ern
ĠMul ticast
yg on
ĠVictor ia
ĠDien ste
ĠGreg or
N ummer
l aus
ĠE M
ĠL eucht
Ġge kauft
ĠZ DF
Ġver haf
Ġst eigt
Ġr u
Ġ18 49
hen den
Ġ6 9
ĠEx istenz
man uel
hof er
197 6
schiff e
Ċĉĉĉĉĉĉ ĉ
Ġscheiter te
Rezep tion
H il
T re
p unkten
ĠM aus
ĠG ep
ĠE N
der e
ĠR ac
ĠN umber
ĠO hne
ĠIn stanz
aus geber
iz z
Ex pr
if iers
ĠMar io
Ġlie ber
Ġex tra
Sh ort
Ġpassen de
G raf
W olf
l Ã¤ndern
m achen
s wert
ĠI ran
Ġk Ã¼nst
Ġg lob
br unn
Er zeugt
ĠFer r
ĠHerr scher
Ġindividu ell
ĠJack son
ĠVerteid igungs
ĠKonzer te
M IN
c enter
w enn
ĠS om
ĠG rim
ĠL orenz
Ġvon einander
Ġk aiser
Ġbe zogen
ech ter
sk ar
ĠFrei herr
hand els
Tra iner
ĠDr ama
198 3
ĠBi ografie
ontin ental
Ġinteress iert
Ġevangel ische
Ġindividu elle
ĠPubl iz
ĠRuh estand
ĠBoch um
a ft
a ver
z esse
Ġc ir
eich nungen
qu ellen
Ġre port
ĠAb d
ĠThe at
Ġpro tected
Ã¼t tel
mit tag
Ġwei ÃŁe
197 7
ĠInnen stadt
verstÃ¤nd lich
ĠAnzei ge
O ne
ĠB ald
ĠP okal
ĠW iesen
ĠR eiter
ber atung
ĠC H
Ġl agen
sp eicher
get Parent
enn zeichnet
ill y
ĠSte phen
ĠEl l
Ġger ingen
Ġcon f
Ġverl ang
stit u
ho use
ĠSal v
Ġhei ÃŁen
ĠBahnhof s
ĠMel od
Dec imal
I hr
f al
o ti
Ã¤ hne
Ġv ierte
ĠD opp
ĠE valu
ĠR ÃŃo
os ite
Ġ- -
ata illon
ingen d
Ġgr atis
Ġeigen tlichen
entr ick
ĠVerb raucher
ĠKo hle
ias ieger
itu ationen
Ġerk enn
Gener al
Ġresource GroupName
Ġengag iert
B atch
R equ
s ing
ĠS v
ĠW inkel
19 43
ens ure
ĠProdu kten
ari at
197 5
ĠerklÃ¤r en
Ġbild eten
Frau en
ĠKol onial
ĠSchne e
Ġkauf te
Sum mary
Å Ľ
au ft
or chester
ĠA cht
Ġb undes
Ġ1 14
ĠW omen
iv es
ĠKon text
ĠPh o
ign ment
sta ates
ĠTir ol
sup ported
N onn
h ten
ĠB our
om er
Ġp ut
omm un
vers icher
ph il
ĠSpiel ern
ĠSystem s
ĠLeip ziger
ĠHar ald
Ġtrans action
ĠBud ap
ĠBesatz ungs
M AT
S til
o on
an ti
ĠS yd
sch lagen
Ã¤ ure
ĠF Ã¼
ĠE UR
ĠR ak
ĠJ enn
Ġge Ã¶ffnet
ĠVer leihung
ĉĉ ĉ
uch er
ĠSp enden
ĠIm mer
ĠGesch enk
ĠMen gen
Ġausge strahlt
iden ten
Ġverb lieben
Ġeinge st
ĠFest ung
Ġ185 6
Ġphil osoph
D etails
t Ã©
Ã °
ĠA TP
ĠH ung
ber ater
om etr
Ġver lei
ver g
ĠEr furt
ĠÃ¼ber zeugt
ĠGr au
ĠGeb Ã¤udes
ĠAd d
ĠChrist i
ĠRep ar
ĠSam uel
ĠStil l
Ġmaxim ale
ĠverlÃ¤nger t
) -
J J
S ION
l Ã¶sen
an ch
Ġm Ã¤ch
ĠF uchs
ĠH Ã¤nde
ro ck
Ġt iefer
tion en
all a
19 14
Ã¤r bt
ire ction
198 1
Ġged acht
loc al
ĠDek an
ĠTay lor
m etr
Ġb ound
Ġb ody
ĠD eine
Ġein erseits
ĠF eu
ĠH op
ĠN ich
Ġver sen
ĠIn c
ĠVer leger
Ġun gewÃ¶hn
ĠCh arts
Ã¶l l
ĠBet reiber
Ġben utz
ĠBern ard
ĠHistor ic
Des c
ĠJur y
Ġarch Ã¤
mir al
f Ã¶rderung
u it
Ä ħ
sch ef
ĠD ob
ĠP rix
us ste
wei he
19 28
19 42
In formation
ĠIm pl
Ġ6 7
Ã¤tig te
ĠWohn haus
ĠAp othe
system s
ĠnatÃ¼r liche
ĠÃ¤hn liche
Ġbekannte sten
Ġerheb lich
Ġoff ens
k ins
s v
ĠD IN
Ġk Ã¼rz
Ġt our
ed a
() ),
ak ten
Str ate
ĠAb lauf
ige st
An gabe
ĠEx pression
Ġch ron
ĠÃĸ k
ĠMan chester
red akteur
ĠHaus halts
Ġgef angen
ĠDienst ag
ĠHei z
ĠFreund schaft
Ġregion alen
Ġtran spor
ĠPast or
Ġs ang
am ar
Ã¤hr en
tor hÃ¼ter
ren ten
Ġger inge
alis ierte
ĠMag net
ĠKont akte
197 4
EL D
ĠUp date
Ġkanad ischer
stad ion
D iff
E v
K at
b ayern
d oc
p age
ĠA ct
Ġ( :
ĠH Ã¼r
ĠC ob
ist a
Ġbe geg
ĠCh ile
ov ice
ĠMar sch
ĠDeutsch es
be an
ĠKon ferenz
Ġkon zip
ĠGrÃ¼n de
ook ie
Ġop tim
kn Ã¼pf
ĠHei de
ĠForsch ungen
abr Ã¼ck
ĠMÃ¤r chen
ĠjÃ¼nger en
Ġuntersch rieb
Ġfung ierte
straf e
Sow jet
Ġpersonen bezogen
G it
P rÃ¼
S Ã¤nger
Ð ¼
ĠB anken
ĠB reiten
ĠK orn
op ran
Ġ18 15
eck ar
ĠSte ve
stra te
such t
Ġpoln ischer
Sec urity
Ã¤rt ner
c ache
ĠP ic
tr act
ĠIn putStream
ĠPro ject
fl Ã¼sse
En coding
Ġ14 0
ĠCo ver
ĠMag az
ĠBen jamin
Ġ185 7
ĠEh emann
P at
T AG
c ur
i Ã¨
Ġ ord
ge wer
ber ge
ĠC er
ĠVer handlungen
ĠSp er
ĠKon stantin
ĠNeu es
ĠTr end
ĠBuch t
ĠWeiter hin
ĠEle ctr
laub nis
Ġfort an
Ġfield s
ĠPublik ationen
Ġwirtschaft liche
Ġausgeb ildet
E hren
P oints
S M
n abrÃ¼ck
Ä Ł
ĠC reate
Ġp ers
ĠSt iefel
Ã¤n ke
ĠAn bau
ger t
og ramm
ok ol
ĠMus ical
eid et
ĠFrei will
Sie ger
ĠMittel meer
196 8
fest ival
fÃ¶rm igen
ĠAnti ke
ĠVik tor
ĠHildes heim
K lass
n ten
an ier
ĠB enz
ĠK abel
ĠH als
ro hr
ĠVerteid igung
alys is
ĠAufent halt
M otor
d ay
s un
st urm
ĠD un
ol t
re ut
Ġc ur
19 19
hl eten
ep er
fÃ¼hr ungen
ĠAd ministr
ĠSil v
193 5
ĠComm and
ĠGÃ¶ t
ĠDres dner
Ġfinanz iellen
kathol ische
fÃ¶rm ige
ĠEvangel ischen
Ãĸsterreich er
a al
b ieren
Î ¹
ĠV orm
ĠN utzen
ĠSch uh
sp rÃ¤sident
Ġst ack
ri pt
Ġr aus
Ġber aten
List en
Ġeigen stÃ¤ndige
ron om
ĠWohn ungen
Ġgut es
ĠBerg bau
Ġnie mand
ĠCor ps
Ġstar tet
ĠLink ed
ĠRefer enz
ĠNahr ung
Kurz film
ĠJed och
F ont
N icht
d orfer
sch Ã¤d
Ġm obil
ĠUn der
id es
ĠPro perties
ĠOr ien
ĠÃľber setzer
Ġak zep
Ġâ Ī
197 2
offiz ier
ĠBeweg ungs
Ġstrate g
C opy
D evice
F ach
T or
ĠA M
le ft
le bt
ĠH eck
ĠL eich
Ġauf w
Ġaus geschlossen
Ã¤t t
Ġander erseits
Pro file
res erv
ĠChrist ine
kir ch
ĠCar los
ĠHerzog tum
Ġus ed
iction ary
Ac tivity
franzÃ¶s isch
ĠBundesver dienstkreuz
ĠFranÃ§ ois
" -
J ohn
u den
z ien
ĠB arn
ĠSch um
ow itz
Ġbei gesetzt
St a
ĠPl at
Ġber ichtete
ĠRo ger
ĠY or
ĠEx il
ĠReich es
bet eil
Ġgener ate
ĠBon us
Ġlehr te
opÃ¤d ie
H C
x id
Ġf ull
ĠL ittle
ier endes
esch ichte
zen s
ĠEn kel
kl assen
ĠAd vent
Class es
Ġgel ingt
ĠErn Ã¤hrung
ĠDav is
lowak ischen
ĠInner en
F ranzÃ¶s
i op
Ġd einen
ĠS ax
ein richtung
it ation
et tet
ĠG etr
Ġf iles
ĠT ol
ver gleich
pl es
param eter
los igkeit
Ver walt
Ġ13 0
ĠSaison ende
trÃ¤ glich
fÃ¤l lt
ake te
196 9
ĠHar z
Ġerziel en
Ġinform iert
ĠDemokrat ischen
Ġmusikal ischen
ĠIntel ligen
Ã¢te au
G egen
J azz
R ender
r ufen
Ġd iff
ĠK reise
ĠH ahn
Ġge arbeitet
Ġl aden
lie gende
ĠMar cel
Ġern st
ĠTre e
ĠWinter spiele
End point
ĠKan al
ĠWahr heit
B und
i ologie
ĠMit arbeitern
ĠLand rat
Ġel eg
ais e
sb et
Ġ7 7
ĠSing les
sthe ater
ĠMicro soft
M a
t ask
or er
at tribute
ĠB ibliothe
ĠR y
ĠZ eile
Ġp revious
ert ungen
19 27
tel finale
ĠMar in
Ġgew id
Pro tocol
Ġschn elle
ĠHash Set
ĠVort eile
Po inter
L aut
M erk
g Ã¤
ĠS yr
ĠH ang
Ġge ograph
Ġdem okrat
Ġre ference
ĠCh am
Ġ0 9
Ġex perimen
Ver b
Ġteil en
ĠAk te
ĠfrÃ¼ here
com pare
ĠBel ast
ĠRu der
197 1
ĠKin os
Ġherv orge
ĠElektr o
ĠVerl Ã¤ngerung
ĠSyn ag
ĠMem or
ĠVoraus setzungen
ĠplÃ¶tz lich
J E
K ur
S l
Ñ Į
Ġm em
Ġl eiden
Ġst ore
ern t
get Resource
Er n
Res olver
ĠEx pedition
bl Ã¼
Ã¤m mer
Ġall gemeine
Welt meister
ĠWand el
ĠCap t
ĠMot to
Ġumfang reiche
o zi
u v
Ġ ðŁ
Ġder selben
Ġer mord
ier bar
se h
Ġt olle
ic on
ic us
eh er
eh le
Ġent decken
off er
ĠBand s
ĠMo z
198 2
Ġsub sp
Ġhinzu gefÃ¼gt
Ġeindeu tig
C ertificate
f ul
m isch
st einen
Ã¼ sten
ĠA C
ĠK ilometern
ĠT ypen
ĠIn valid
men te
ĠÃ¼ber tr
ĠStr ei
her stellung
Ġth emat
gew Ã¤ch
Ġerz ielt
Bundes liga
ĠMonument s
ĠApost ol
U l
f uÃŁ
g Ã¤ng
n Ã¼tz
z ert
} .
st op
Ġs ql
ĠK ompl
ĠR ied
ach se
ir chen
ĠJahr buch
19 46
ĠHand y
Ġbesch loss
Ġinner en
Ġverst eht
ĠRen aissance
Item s
Ġser ial
ĠVerbr eitungs
ĠFass ade
Ġfac tory
Ġforder te
echan ik
Ġverhaf tet
i y
st reifen
ĠS ind
ĠB ut
ĠB og
is hed
ĠR eit
ĠR ektor
om s
Ġver folgt
ĠSch Ã¤d
pr es
ĠMar x
Ġres ources
ĠEx ec
enden cy
čĊ čĊĉ
Ġ185 1
Ġ185 2
Ġ185 8
ĠTon y
ĠRh yth
ĠSÃ¤ ulen
ĠFal ken
ĠAlli anz
rue ft
Ġehren amt
S im
re ct
ĠC oll
ĠC our
ah me
qu alif
ĠNach kommen
ev or
ober flÃ¤che
Ġar ab
Class Loader
ĠTr ennung
Ġeinge gliedert
Ġ185 4
Ġabsol ut
fried hof
ĠSieg fried
ĠMainz er
ĠDir igent
Ġentst amm
ĠtÃ¼rk ischen
S eite
a a
in ing
ĠS G
ĠS lowakei
ĠF eier
ĠN ep
Ġge pf
ĠU til
ĠU we
ĠAr tillerie
lo ym
Er stellt
-- ;
Ġdrei mal
ĠSh ort
Hand le
rag ment
rim inal
ĠBef rei
Ġhochwer tige
Nonn ull
f a
ĠG il
ĠR iv
ĠN oten
ĠSch Ã¼lern
Ġst il
19 24
ĠFl ach
ĠGesch w
ett a
ĠSport s
Sa int
ĠCast le
ĠTschech os
Fol der
rib ution
ĠBetreu ung
cycl op
J e
O UT
ĠA N
ĠA tt
ĠK reu
ĠF air
ĠT Ã¤ter
ver kauf
nen nung
Ġ3 50
Ġvor Ã¼ber
ens ive
Con stant
Ġbew egt
Ġerreich bar
Mod ell
193 4
Ġbed ient
FI LE
Ġpassen den
wal ts
ĠFreu den
ĠPremier minister
ĠTats ache
rauff Ã¼hrung
U UID
k ette
ĠS her
ĠM P
ĠK ub
ĠF DP
Ġf lag
ĠR unden
ent z
Ġg raph
get Attribute
19 40
19 25
Ġ3 60
Ġunter teilt
Ã¤r er
En tries
Al gorithm
ĠGer d
Nach bar
ĠZwei g
Map per
ĠGef Ã¤hr
Ġzahl en
ĠGeneral major
dent ity
Ġnational sozial
Ġmittler e
__ __
ĠSyn th
ĠArm y
ĠThr on
Ġleist ungs
D enk
G ymnasium
I st
S aison
t ax
ĠH us
ĠT ask
Ġver zeichnet
ĠEr be
ehr ung
ib m
(" /
Ġdar stellen
ĠKl ar
Ġres ults
Ġverb inden
ele ted
LE T
ĠJohn son
SS ION
ĠDienst leistungen
ĠKind es
Date Time
AX B
ĠPenn sylvania
I E
M ein
P ack
T ex
u cc
ĠS A
Ġm ath
tr Ã¤ch
Ġer leich
ĠV II
Ġh tml
ĠZ wer
ĠU RI
ian er
Sch iff
Ġ7 8
vor stand
ĠWest er
Ġzusammen gef
ĠBad minton
ĠErw in
ĠMc C
ĠHan se
ĠDoug las
ĠÃĦm ter
B ig
c olle
st het
ar ischer
ĠG ute
ĠF els
ĠP last
Ġf indest
ĠL aus
Ġer for
Ġl it
ver leihung
ĠIn schrift
ru der
ĠEin zugs
19 21
amen te
sb es
ĠSchw estern
Ġteil te
ĠVers ionen
By Comparator
not ations
ĠEmpf eh
Ġschwed ischer
kÃ¼nf te
Franz ose
ĠkÃ¼ mm
Ã¤p st
L ied
R ows
Ġd auert
ĠA ccess
ĠR av
se kten
Ġge leitet
ĠZ ut
ĠSp rech
ak tive
Ġre d
par ks
ay r
tem peratur
sb ild
ĠDar steller
Ġbesonder er
ĠWor ksh
ĠAlbum s
leist et
anstalt ungs
ĠViel falt
Char acter
ĠUrs ache
Ġstaat lichen
L ud
L uther
P ane
Ð ´
er ing
Ġw asser
ĠT oren
re z
ĠZ war
Ġunter schieden
Ġman chen
inder ung
ĠBet roffen
ĠMed ik
zentr ums
Ġangeb lich
evel op
ĠVorsitzen de
ĠRos a
ĠProz esse
ĠMisch ung
ĠStÃ¤r ke
R C
S am
b org
v enz
z ucht
Î ¿
Ġd oppel
ĠM ilit
Ġein gebaut
Ġm erk
ĠF aktoren
ĠR Ã¤um
Ġauf einander
eren zen
Ver tex
ĠEx port
fe ature
ĠSe ele
Ġfest gestellt
Ġgem Ã¼t
ĠBi ographie
197 3
ĠBef est
ĠÃ¼b lichen
ĠverfÃ¼ gte
Ġclass Name
Ġbedeuten de
TER N
ĠPreuÃŁ ischen
ĠChamp ions
Ġbem Ã¼
ĠRezep t
ĠZeu g
A tt
A lias
Ġs auber
ĠF an
ĠF ont
ĠW asch
om aten
ĠĊ ĊĠ
ĠPro test
Ġ0 4
per iode
Ġen ger
ĠRech nung
sw itch
ĠComm on
ĠKaiser reich
parse Int
ĠBesatz ung
ĠmaÃŁ geblich
nap shot
w ahr
at sch
it ive
et sch
Ġ1 13
ĠP on
ĠC ab
Ġl ook
19 00
ack e
mann schaften
An fang
Ġ7 4
Ġ8 7
ĠBe arbeitung
Ġgesch ickt
zw eck
verb Ã¤nde
ĠKn ochen
Ġnun mehr
ĠzusÃ¤tz lichen
Ã¤um t
VAL ID
Ġumfassen de
ĠTar if
ĠServ ices
ĠSQL Exception
ĠÃ¶rt lichen
A ME
S erv
Å ¼
on omen
Ġw ind
ĠD ark
Ġ1 17
am ts
ĠE mer
ĠV ieh
ĠAn walt
ĠAl len
Ã¤r m
ĠVor stellungen
stan ces
ĠJohann a
halt ungs
ĠProf ession
Sh ow
ĠKomp lex
ĠFinanz ierung
CT ION
ĠOpp osition
Ġbegeist ert
C LASS
H om
M atcher
N etz
b reite
k ord
m Ã¤nn
p us
ĠS K
Ġs Ã¼
et ische
ĠF ulda
ĠSch Ã¤fer
ver halten
Ġ18 20
ĠAb satz
ges pr
olog in
wa it
Ġres p
rich tet
ĠAt hlet
Ġkon serv
sport ler
AN D
bez eichnung
tic s
wirtschaft s
SS R
Ġoffen e
ĠPrÃ¤ fektur
ĠstÃ¤d tischen
ĠErwachsen en
ĠLokomo tiven
verteid iger
C S
K ilometer
R h
in ternal
Ġs ens
ĠB rian
ĠD FB
ti a
ber gen
ad s
Ġst et
if orm
ĠCh ancen
Ã¤hr ungs
als ieger
ĠSchw Ã¤b
tag on
ĠReich en
ĠBot schaft
Ġelement s
ĠlÃ¤nger e
Lin ie
Ġbequ em
V ier
l och
st u
Ġs ame
Ġv ol
ĠD oc
ĠK affee
ĠR Ã¼
ĠL av
Ġh l
Ġk inder
ĠU E
qu ert
ĠVor gehen
br unnen
Ġgen utz
Sch l
ĠPar tien
ĠAk adem
ĠKinder garten
anc el
kn own
Ġkompl ette
Ġvertr ieben
sa al
zub auen
L ehr
h ain
n immt
Ġs ingle
Ġin kl
Ġf ix
Ġauf s
ĠSt ufe
tel le
omm el
Ġbest er
ĠBau ten
isten ce
wissenschaft lichen
Ġ185 5
197 9
unn able
bes itzer
ĠBÃ¶ hmen
Ġland es
Ġindividu ellen
ĠWerb ung
ĠVarian ten
wh ile
ĠBudap est
F ootball
M ont
R aum
d ro
e o
j ar
n isch
ĠB ecken
ĠF A
ĠF unde
ĠP ay
ĠJ im
Ġver r
Ġver standen
Ã© g
ĠPr int
Ġhin sichtlich
ĠHistor ischen
ĠWar schau
ĠNo Such
Ġ180 6
Option al
ĠOs nabrÃ¼ck
bas is
Ġgez Ã¤hlt
Juni oren
S w
Ã¶ he
ĠV alue
Ġden ken
ĠZ eilen
ĠSch enk
ĠSt eiermark
pf en
ĠFl orenz
Ġ7 1
ĠGew inner
mittel alter
ott om
by tes
Ġkosten lose
ĠMinister ium
ĠAuss agen
ĠHu bert
Ġrei ste
nehm ern
angeb ote
ĠStreit krÃ¤fte
m os
v ocation
ĠS atell
ĠG ibt
ĠE ch
ĠP ersÃ¶nlichkeiten
ĠR as
Ġh art
Ġl Ã¶sen
Ġc luster
ip per
Pro p
ond itions
ĠBas il
wort h
ĠJe ff
PRO PER
ĠErzÃ¤hl ung
Ġsech sten
ĠRett ungs
ĠSekret Ã¤r
D ienst
D igit
F eld
I O
h essen
ĠA sh
ĠP s
ĠT able
ro th
Ġl Ã¤nd
ĠVer g
Ġ9 00
ĠSo ft
off s
Ġerfolg ten
wohn ung
verb indungen
Ġaufge geben
rÃ¤n k
ĠGesetz es
ĠHon or
ĠFinn land
ĠRess ourcen
P okal
P resent
R eich
b u
o iden
r Ã¶
ĠB ul
Ġb ill
ĠT akt
ĠL ow
ĠL ight
ĠDie sel
19 22
ĠAl uminium
res h
Sch utz
bach s
ĠSÃ¼d ost
ĠFranz osen
ox id
Ġnieder lÃ¤ndischer
eta ill
wander ung
Pass word
Mich ael
Absol ute
" :
D okument
K Ã¼nstler
Ã ¯
ar es
Ġm ain
ĠF arm
ĠP ixel
ent schieden
ik ro
ang riff
ĠMa ÃŁe
pro fil
spr icht
Ġbeg rÃ¼
ement s
ka sten
190 7
ĠGut schein
zy linder
FI ELD
irec tor
Ġorganis ierte
Techn ik
================ ================
I B
k ol
it tel
as ure
Ġein gemein
ĠR og
ber to
um ul
ĠC ann
Ġg gf
ĠSch acht
Ġp Content
ĠVer ordnung
la fen
19 47
ens us
ĠStadt gebiet
dr ama
ite es
Ġange kÃ¼nd
ĠWei s
ĠCon fig
ender t
ĠParis er
ĠBeh and
Ac tive
Ġmusikal ische
ĠErzÃ¤hl ungen
J a
K ar
R eihe
h lich
o ÃŁen
ar est
ge stellten
ĠG ol
ĠF ur
ber s
ĠAn k
Ġsch ul
ĠGem Ã¼se
iker in
amer ik
Ġeigen tliche
kreis es
con s
Ã¶m m
ĠLie ben
ĠOn lin
ĠErz bist
196 3
ĠRegierungs bezirk
ĠÃ¶ k
ĠTrotz dem
Ġren ov
ĠDigit al
D omain
b ury
f ein
s Ã¼d
w id
Ġs ilber
de pen
Ġer zeugen
ĠV ector
Ġan im
Ġo ur
ang o
ĠStr ahl
ite e
Ġ8 3
Id x
ĠEx press
schl Ã¼ssel
Ġverw and
ĠSchiff s
Inter val
Ġvers orgt
kur renten
ĠAbt ei
Krit ik
R ole
h ab
au ben
ur st
ĠB akter
ĠW Ã¤hler
ien ce
UR CE
Rep ort
ĠKriegs gefangen
Ġtyp es
lehn ung
Rem ote
ĠAud io
ĠTÃ¤tig keiten
Ġdenkmal geschÃ¼tz
R et
Z usammen
c ms
ĠS Ã£o
sch les
ge mÃ¤ÃŁ
Ġs eiten
ĠB ug
ĠF erner
ĠP azif
ĠR eu
ĠN ad
ĠN atÃ¼rlich
ĠEr lebnis
19 10
enn zeichen
ĠBer ichte
agen tur
pro zess
fahr ung
ĠY am
ĠSchul z
ĠÃĦ l
ĠGel ehr
193 1
ĠDon ald
ĠÃ¶ff nen
ĠTel ek
Ġkrit isiert
ĠDro gen
Meta Data
G H
T urnier
s ql
ĠK ie
fahr zeuge
ĠFor scher
ĠZw angs
Ġinter pret
over n
Ġhistor iques
196 5
ĠKommun ikations
ĠHeimat stadt
ĠPil oten
Ã¼st ung
ĠLad y
adel ph
Ġniedr iger
ĠAbstra ct
ĠWuppert al
J vm
K ap
O W
P op
b on
st ore
sch lossen
ĠD al
ĠD Ã¼n
ĠM esser
ĠK ra
ĠH altung
ĠN iveau
Ġ8 4
ied s
Ġeh emals
Ġ% )
ĠAt tribute
ativ es
ĠDes igner
erg ie
ĠauÃŁer orden
Ġind ustr
196 4
190 1
Ã¤f in
ĠGast geber
ĠRen ov
Per mission
Ġmon at
CON T
ĠPfer d
ĠPorn o
ĠGlauben s
Ġsorg te
Ġabgeb rochen
Il legal
Ã¤cht nis
V iele
b rechen
ĠG uten
ĠP ak
ĠR auch
Ġj ene
19 26
Ġ0 7
wer de
ĠUnter kunft
ĠzurÃ¼ck kehr
193 6
plan ung
stud ien
ĠBaum w
Colle ctor
ĠFlor ian
Ġzeich net
Vol ks
ĠReihen folge
C lau
R und
k reise
p il
ĠK av
ĠG T
ĠE con
ĠT y
ĠSt ars
sp ec
Ġaus gel
Ġc olor
per rt
Ġgew isse
sol e
Ġgest ern
klÃ¤r t
ĠVolks republik
sprach ige
ĠGed icht
Ġevangel isch
ĠVorder grund
ĠEuropameister schaft
Ġfal sch
ĠBom ben
ĠGemark ung
" ),
E ben
m i
ĠM alt
ĠJ ag
ĠC ass
ver arbeitung
ehr en
rie den
ug by
ĠMar co
Ġ5 000
dr Ã¼ckt
Ġex pr
ĠOber bÃ¼rgermeister
ĠGrund schule
Mit te
Ġbesch rieb
ĠTr ink
tik eln
ĠDurch schnitt
Ġat tributes
west lichen
ĠRechts an
gehen de
ĠBal kon
resource GroupName
Ġstaat liche
Ġren omm
PT ION
ĠSmart phone
R hein
t zen
z o
or o
ĠB uild
ĠG ul
ĠC le
Ġ- =
az ar
ĠY ear
Ġausge prÃ¤
ĠHand lungs
stein er
ĠOl iv
ĠFra g
ĠErw art
ĠÃ¤uÃŁ eren
Cl ub
ĠOh io
C ustom
F Ã¼gt
n ord
r s
å ı
ie de
ĠK leid
ĠH ong
ran ten
19 23
Exception Constants
inn es
ĠBundes straÃŁe
ĠmÃ¼s se
ĠBed ien
lar ation
Ġgepl ante
funktion Ã¤r
ĠJac ques
ĠViz emeister
Top ic
ĠBam berg
ĠZub ehÃ¶r
B al
a o
d ichte
s ieg
Ġ att
st unden
ĠG lobal
Ġf eiern
Ġt itle
ver ordnung
Ġre alisiert
ĠAb hÃ¤ng
ĠUnter schiede
Ġres ul
ĠBundes land
schl Ã¼sse
ĠFor ce
ĠUr heber
ĠBew erb
ĠOn kel
sta ats
Ġus ing
ĠCorn el
Ġverh indert
ĠFound ation
ge halt
Ġ1 12
ĠK und
ĠK enntnis
de v
Ġh om
ĠZ e
ver Ã¶ffentlich
ed el
ĠAr k
ĠEn zy
ev in
Ġ8 2
Ã¶s ser
Ġgesch lagen
ĠBundes regierung
ĠLu zern
we en
ĠPat ri
Ġx ml
Ġoft mals
Ġloc ation
Ã¶pf e
ĠstÃ¤r k
ĠGru ben
ĠClem ens
F amilien
K rieg
f ache
es k
ur teilung
ĠK ein
Ġk ar
Ġl eiten
ĠSp ark
19 41
Sch we
ĠBo oks
ĠOber flÃ¤chen
Ġausge st
lu ste
Auf gelÃ¶st
omb ard
ĠHil f
gesetz es
ĠSpann ung
ĠCoun cil
ĠArgentin ien
l ige
o use
in itial
ĠJ ew
Ġauf geteilt
Ġver dien
wei chen
pl Ã¤tzen
ĠVor gang
ĠÃľ b
ĠSÃ¼d tir
anad ier
ĠZeich nungen
Ġempf angen
Verein igtes
ĠBundest ag
ĠWiederauf bau
Ġentdeck te
ĠSyd ney
H P
c os
o ice
ur ist
it as
Ġn utzt
ĠH ut
ĠL ED
ĠZ one
Ġbis schen
Ġ18 45
Ġ18 46
Ġab s
ĠString Buffer
sk o
pro perties
zeit lich
ide en
ĠJul ia
ĠGew Ã¤sser
ĠRep ubl
LE D
alle d
inc ipal
ĠSim ple
Ġgek ennzeichnet
ĠEntscheid ungen
ĠNachbar gemeinden
Arch itektur
Ob wohl
ĠAuseinander setzung
F uÃŁ
L eicht
u ge
an ts
âĢ ¢
ĠJ ord
ĠC ontainer
ĠO berg
Ġp or
get Field
Ġbe ant
Ġ18 47
Ar g
ĠAd ams
Ġeinge weiht
Ġgef eiert
ins eln
ĠHil de
DE F
Ġbed ro
rec ated
ĠAktion en
Ġlok ale
ĠKrÃ¤ fte
Ġopti mal
Ġspezial isiert
glei s
ĠDokumentar film
ĠFit ness
ĠThail and
P R
T ube
n umber
Ġ Ã¤nderte
ĠA tel
ĠW esen
ĠN ar
Ã¼r zen
ĠU s
eh me
ĠVer st
ĠBer Ã¼cks
ĠAuf klÃ¤rung
ĠEnt ity
ĠSte ink
min a
ĠAut os
Ã¼nst ige
Ġfest en
Mod ified
ĠKrit iker
Ed ge
verl ust
ĠSec urity
ĠEins Ã¤tzen
Ġmittelalter lichen
minist rat
pfl anz
ĠBuffer ed
P rÃ¤sident
w ender
Ã¤ le
Ġ1 18
ĠG ard
ĠF len
ĠC af
ĠEr sch
19 50
qu ote
Ġ" .
bau werk
Res ults
bo urg
ĠJuni or
IT H
Ġpolit ischer
ĠJournal isten
FI X
Hol der
ĠGir l
Ġkanad ischen
ĠWit we
ffizien z
ĠChristop her
W appen
ĠA er
ĠD ead
ĠG rupp
and emie
Ġtr afen
ĠAus grab
Ġet hn
ĠEl iz
mar ken
Ġins zen
ĠMed iziner
Ġgeb unden
figur en
Ġbeh erber
ãĥ ³
ĠWar um
komm ission
ĠRun s
ĠSat tel
ĠMount ain
ĠWett kampf
loym ent
adelph ia
C ategory
Ġd icht
Ã¤ sche
ĠA T
ĠD ikt
ĠK riterien
ĠF ire
ĠV as
Ġh y
Ġauf nehmen
ĠIn haber
ĠVer schw
ate way
etz e
ok u
Qu elle
mit ive
Ġ12 5
ou v
Sp eichert
ĠMich igan
Ġte le
ĠAnd roid
Vor pommern
ĠHerren haus
grÃ¼n den
stÃ¤d ter
A ustr
F iction
S uper
h ou
Ġd ritt
Ġs itzt
ĠA tem
am o
Ġm or
ĠC in
ĠC ell
ĠC ock
ĠVer mut
ĠAn ders
param s
ĠBl u
ĠauÃŁer gewÃ¶hn
Reg istr
193 7
ĠWor ten
ĠHeil bronn
zÃ¼ gen
Ġid x
orth odox
ĠPil ot
prÃ¤s ent
prÃ¤s identen
ĠSym ph
wes ens
Tim estamp
Ġschwier ig
b ot
or ges
ĠB ag
ĠB reis
ĠD est
ĠK ick
ach ing
ir ken
ed s
id x
id ad
amm lungen
Ġber echnet
str Ã¶m
bo ot
Ã¼b ung
Ã¤chs ische
ĠPhys iker
Fr ame
ĠWÃ¤r me
gewÃ¤ch se
A lex
d om
h ing
Ġd t
at io
ĠB auf
Ġin iti
ĠL ov
Ġp rivat
Ġ" ";
ac c
Mann schaft
tik a
Ġben utzen
tif act
Ġhand eln
ĠRÃ¼ck tritt
ĠFlug zeuge
hÃ¶ hung
ĠSti pend
Event s
ĠDen ken
ĠDist anz
ĠErk enntnis
Ġfe ature
Ġinstall iert
Ġentw orfen
ĠMagd alen
ĠUE FA
H ead
j son
Ø §
á ¸
el f
em pty
Ġf ree
ĠH Ã¤nden
ĠL eu
den kt
ĠI wan
ĠC onnection
ĠU K
eg a
ĠJahr gang
ĠStr eich
ex ists
ĠSpiel zeiten
pro p
kon ferenz
euer ung
ĠFach werk
ĠGen e
Ġerf Ã¤hrt
Ġpoln ische
Column s
Ġpr int
leit ungen
ĠMarc us
Ġbedeutend sten
Ġveranst altet
I F
s im
z ule
ĠB lei
ĠK au
ĠT ool
ach el
Ġbe arbeitet
enn er
St ats
ĠNach kriegs
ĠFl ora
Ġpro v
ĠEx pl
ren cy
man ischen
Ã¤m m
anst alter
Ġabge lehnt
ĠTem p
190 2
ĠBro t
189 7
kn oten
leid et
Ġfinanz ielle
sph ase
ĠGottes dienst
ĠNamens geber
Gemeinde auflÃ¶sung
Ġfe atures
ĠRelig ions
Ġdisku tiert
B Y
L imit
W issenschaft
g alerie
w issen
ĠB ibli
ĠG ord
ĠT ieren
ĠW arn
Ġh or
ĠC ott
ir es
ert o
ate l
ĠAl f
ĠBo y
ĠList en
Ġu kra
ĠSk y
Ġqu adrat
ĠDok umente
ĠHen ri
ĠKom Ã¶die
Ġdat iert
ĠMay er
sthe orie
Ġweib liche
ĠDrit ter
ĠberÃ¼hm ten
reden tials
ĠSoph ie
L AN
w il
Ġ egal
au e
or ia
ĠM ix
em er
ĠW ick
Ġt ut
ĠSch icht
ĠMit begr
ĠGr aben
ĠAus stellungs
ĠNach frage
ĠVor runde
ian e
ĠKon stanz
Pro gress
ong ol
Ġgesch Ã¼tz
ĠVol ker
ĠHaus halt
figur ations
ĠDi am
Bau denkmal
pol izei
ĠBlÃ¼ te
ĠInstr umente
Ġerle bte
K om
L ei
V G
i ot
w ich
y o
en ke
ie be
es er
Ġi gnore
Ġ1 16
ten nis
um a
Ġr ange
ĠEin blick
Ã¶r n
In halt
mit tler
Ġ8 1
ĠWerk zeug
aw t
ĠSk la
Ġbeh err
ĠSÃ¼ ÃŁ
190 5
euch ten
ĠTri b
Ġsc ope
Mill ionen
ĠInternets eite
ĠKoal ition
A ch
c onnection
ĠS af
ĠB eine
ĠD istr
ĠE P
ĠL ehen
om on
ĠN ag
ĠN HL
og a
ord nen
ĠOr th
ĠLand gericht
Ġe ach
Ã¶st liche
ament o
193 2
produ kte
Ġgenau e
ĠDrei ÃŁig
ĠprÃ¤sen tieren
Ġvalid ate
ĠMid d
ĠEro ber
******** ********
ĠErschein ung
ĠPow iat
T ri
T enn
c atch
st ufen
ĠA mal
Ġf ailed
Ġf otograf
Ã¶ ten
Ġst erben
ĠIm pf
lei tete
ĠRo te
ĠPr ince
ĠStud iums
wohn ungen
Ġeinfach er
Ġstehen den
Ġ185 3
190 8
agn ose
ĠOff ice
Ġdigit alen
Ġbeob achten
ĠFranzÃ¶s isch
Ġausdr Ã¼cklich
Ġiden tisch
G ef
r ess
Ġs in
ĠE sp
ĠP ommern
ĠL Ã¼n
ĠL iss
Ġmit ten
Ġan ger
ĠSch mal
Ġsp iegel
ĠVor schlag
Ã¶l be
Ġange ordnet
Ã¤m me
ĠBesch luss
ĠEigen tum
go ogle
ĠFort setzung
Ġbegr Ã¼ndet
ĠWol ff
ĠEntwick lungen
Bet rieb
A ud
T schech
b undes
b rech
h Ã¶ch
r one
ĠS ac
ein g
at ro
Ġi ll
am ann
ĠG ros
ĠF uss
ĠT afel
ĠN Ã¶rd
ĠEr mitt
ĠEn cyclop
br Ã¼cken
ĠIS O
ĠMus een
war f
Ã¤u schen
con f
Ġem otion
Ber uf
196 1
190 4
ĠProblem en
ĠEt wa
ĠBran chen
ĠÃ¤uÃŁ er
Arch Ã¤
ĠBeam ten
ĠLein wand
Ġgaran tiert
ĠArz n
ĠIdent itÃ¤t
U uid
b ra
k k
k Ã¼nstler
Ġ $
it iert
ĠD Ã¼r
am ing
ĠK alender
Ã¶ hnen
ĠI B
ĠJ AXB
ĠVer teilung
Ġ18 16
ĠSie ge
Ġ7 3
ĠBet riebe
ĠMittel feld
hand elt
ĠIl linois
reib ungen
ĠSitz e
Ã¤mpf ung
196 6
ĠRed akteur
Her r
ĠFrÃ¼h stÃ¼ck
ĠerhÃ¶ hen
ĠSamm el
ĠWÃ¼n sche
st immung
Ġm oment
ĠH unde
ine a
Un ternehmer
ĠLe er
ĠHaupt darsteller
ĠDu o
zentr en
Ġvoll kommen
ĠVertr auen
ĠStad trat
ĠZust immung
Ġnorm alen
Ġitem s
BevÃ¶lker ung
ï¼ Į
G leich
K reuz
Q UE
em atic
ĠK rÃ¼
ĠF aust
ol ine
ĠH af
Ġer o
ab on
ĠO ran
ĠZ in
ĠEr nennung
id ak
ill es
ick te
ĠAus sch
Ã¤nd igkeit
Ġgesch Ã¤tzt
ĠCon rad
ograf ische
sol venz
RE AD
Ġit s
ĠAnt worten
ĠPlan et
Ġzweit es
ĠpreuÃŁ ischer
ĠBrow ser
komp lex
Ġverbesser t
Servlet Request
Mem ory
ĠhÃ¤uf iger
ĠVizep rÃ¤sident
R ight
R itter
S or
st yle
Ġauf weisen
Ġl iber
op le
19 17
spr achen
Ġausge dehn
sg ruppe
Ã¤s se
ĠAp i
ĠDat eien
Ġsicher te
ĠZeich entrick
Ġelektr ische
ĠEvent s
Ġnutz te
Ġzusammengef asst
Ã ®
ge ht
Ġs plit
ĠB usch
ĠL ap
Ġer gab
ĠEr stellung
Ġ16 0
Ġbeg leiten
ĠCon text
aw s
ĠSan ierung
rÃ¤siden tschaft
Ber eich
ĠWor te
ĠComm itte
wÃ¤r tigen
bed arf
UT F
print StackTrace
ĠJer sey
ĠMass achusetts
Run time
ĠJahrzehn te
Ġweib lichen
Ġbetroffen en
Ġaustral ischen
ĠKob lenz
ĠViet nam
JE CT
1 15
B ud
C N
H in
m uster
u der
or r
ĠD ritten
ĠF unction
Ġver mittelt
Ġun bew
ĠÃ¼ber liefert
ĠEin ladung
19 12
Ġes sen
Ġab gelÃ¶st
ord neten
ĠVor feld
ĠFl otte
ock e
Ġges ichert
ĠGeb Ã¤uden
ĠÃľber ra
ĠMann es
Reg ie
ĠPfl anze
Ġtrans form
Ġstattf and
Ġsk ip
Ġbetre ffen
Ġletzt es
ĠRal f
ĠGeschlech ts
Ġkorre kt
Lud wig
F ull
H erkunft
et ik
ĠF lo
re gen
ir gs
Ġt ags
op ing
19 13
19 48
ĠGr as
Ġhier zu
ĠNord west
ĠDr amat
Mod us
ĠFot ografie
Ġverst orbenen
Argument s
beg riff
ĠPri or
Ġerl Ã¤u
gefÃ¼ hl
ĠBade zimmer
Ġperf ekte
ĠVinc ent
l ia
x FF
ie ber
ĠB Ã¤r
ĠP ause
ĠH alt
Ġer b
Ġunter stellt
br em
pro ject
ĠChr om
lock en
ĠSpr int
Ġgem essen
gef unden
ĠDat abase
Ġerf asst
gÃ¤n gen
ĠgrÃ¶ÃŁten teils
kathol ischen
Techn ische
ĠmilitÃ¤r ische
ĠSus anne
Ġregistr iert
Ġbestell t
MÃ¶ gliche
D ruck
R M
W S
s Ã¤chsischen
Ã¶ d
and el
ro d
ĠVer pflicht
op ter
get X
19 11
19 60
Ġab ges
lo hn
arb on
our i
ph a
to Array
ĠUnivers al
Ġausge stellt
mÃ¤ ss
ĠSe gel
ĠWeb prÃ¤senz
ĠDurch bruch
ĠInd ustr
ĠDr achen
AR N
ĠErz iehung
Ġmo tiv
herr n
Her ren
Ġloc ale
ĠVersuch e
Ph ys
wal de
prof essor
B order
W ein
Ġw ann
ĠK leidung
ĠW lad
ĠJ h
ĠIn halts
Ġr ichtet
ĠSp l
aus stattung
Ã¶r er
Ġ" +
ac tive
sk Ã½
ĠReg isse
Ġgen auer
Ġ7 9
bo urne
ĠFrei stil
verb ot
ĠRechts wissenschaften
ĠSchloss es
Stand ard
ĠAndre w
rev olution
Ġfiel en
ĠRÃ¤ umen
ĠÃ¶ konom
frau en
ĠErinner ungen
wach ung
option s
ĠBestell ung
L EN
l ess
m inal
et al
ĠP eking
ĠC os
ĠIn sekten
ĠEin sÃ¤tze
Ġ18 43
ĠVor jahr
ens wert
ĠChr onik
To String
gesetz te
ĠKomment are
Ġzug unsten
ĠTO DO
ĠBerÃ¼cks ichtigung
W id
d ates
z elt
Ġ []
rei hen
ĠO skar
stell ern
String Utils
lei den
ĠUm zug
add ing
Ġ12 00
ĠBest immungen
ĠProf i
schein lichkeit
ĠGen f
ĠTechn ische
196 2
fÃ¼r sten
Parameter ID
Ġra sch
Ġqualif izierte
Ġverbr ingen
ĠMatth Ã¤us
person en
ĠErl angen
ĠanschlieÃŁ enden
Ġfrau en
F ernse
L ondon
L INE
R ing
f ehler
i u
l inger
r ath
an ter
Ġm ember
ĠF unc
Ġf amil
and ro
Ġh alt
Ġge zwungen
Ġdes wegen
ĠSch uss
ĠSch alt
Ġbe ziehen
Ġ18 44
ĠAus richtung
Ġe qu
Ġle g
ĠAk ten
gebiet es
Ġind ischen
Ġsetz ten
Ent wicklung
ĠEich en
nehm ung
ĠkÃ¼nstler ische
ĠCoun try
Ġgewid met
G el
f angen
k Ã¼hl
n ommen
p an
Ã¤ k
Ġan spruchs
Ġj eg
In f
ĠEn tert
ĠHand eln
Ġbesch rÃ¤nkt
ĠRei fen
ĠĊĊ ĠĊĠĊ
ĠDurch schnitts
ĠDu isburg
ĠWeiter entwicklung
Ġheraus ra
196 7
195 1
ĠTex ten
Ġsh ow
ĠMinister prÃ¤sident
Ġscha fft
Ġlehn te
B ot
B ook
D oppel
H amburg
f ranken
ie u
on ic
Ġf as
ĠC li
ver teilung
ard t
Ġis lam
Ġres olve
ĠPh asen
eid ung
ĠBest immung
Ġgel Ã¶scht
ĠStud ios
ee ded
Ġpl us
Rec ei
Â» ,
Rel ation
grenz ung
ĠTÃ¼r en
ĠRestau rants
ĠOrch estra
evelop ment
R ichtung
S ite
W ahl
d ater
i Ã¨re
k ilometer
z weig
in sp
ĠS id
te ste
ĠN au
Ġr etten
ind el
hen de
tik um
Ġ% ,
ask a
arbeit ungs
ĠMitte le
ĠDo zent
andid ate
Rem ove
ĠSar ah
ĠSign al
Ġneg ative
Europameister schaft
exp ected
ĠNR W
L iga
z ieh
ar mee
et wa
ĠD sch
ĠM all
ĠG reif
ĠP ad
Ã¶ konom
ig ion
he orie
ver d
Ġst arben
qu is
ok raten
oc us
ile y
los er
Ġgen Ã¼
als o
ĠSo ul
Un garn
ST AT
Ġgeb raucht
Ġgest altete
emat ik
ĠFluss es
Ġbeteil igten
ĠMotor rad
Ġerr ang
kan al
kor ean
esh old
ĠNationalsozial isten
Sa ale
ĠCO VID
ĠLoc al
Bi ografie
ĠTerr asse
ĠNap ole
Dam it
Ġermord et
r ession
w enden
ĠA y
ĠM Ã¼ndung
ĠH Ã¤usern
Ġh inz
ir kt
Ġge p
sp ark
19 16
ĠAb sol
tem por
Con f
Ġpro ps
ĠBo ys
Ġis ol
ĠPh arm
Ġger ufen
ius eppe
zentr ale
ĠAll ein
Ã¼rz te
Ġbeteil igte
ĠGlei s
ibil ity
cul ate
//// ////
Ġcas ino
ebau ung
A ir
c ent
f ro
h Ã¤ngen
m il
ei mer
et scher
ĠL ip
ĠIn fl
Ġr Ã¤um
Ġbe deckt
ĠZeit ungen
Ġ9 2
ĠzurÃ¼ck zu
ank a
Ġhin weg
othe k
ĠAnfang s
190 6
190 9
195 5
ĠOp tim
Med iziner
stud io
Ġentspr ingt
ĠEreig nis
Ġdauer haft
Ġsamm eln
F k
M y
b ab
p ern
à ¤
in iti
al ben
Ġs erv
ĠM Ã¼hlen
em m
ti le
ĠV ektor
Ġge folgt
ĠSch ienen
ĠVer anstaltungs
ap ur
ru st
lie ger
ĠEin tritt
Ġ18 18
Ġunter r
ĠAuf sichts
ac ional
bar es
ator y
Ġ8 6
ĠZu vor
ĠEl s
ĠWei ss
ĠInter ess
190 3
ĠRuss ischen
ĠAust rag
Ġerr ichteten
Ġhol z
ĠQualif ikations
Verkehr s
Ġoper ation
Histor ische
Ġgesetz lichen
auff ol
cover y
pap ier
ĠEinkauf s
ĠPseud onym
C hef
I hre
L ou
W M
u is
ĠS ev
as ks
ĠM eier
ĠP le
ach tete
ber ichte
Ġk ap
ot tes
ek ord
ĠProdu zenten
co der
ari us
ĠGener ationen
ĠTor onto
ĠGu ide
ĠKat hedrale
Obj ects
rist all
Ġhol en
ĠSter nen
ĠGre at
Ġtats Ã¤ch
klass igen
Ġdurchschnitt liche
MÃ¼n chen
E B
N ein
P riv
g Ã¤u
Ã¼ pft
ĠB ock
ĠF Ã¤r
ol in
ĠE sch
ĠH imm
ĠW oll
and in
Ġk lin
Ġdurch setzen
ĠVor les
Ġdar auffol
Ġbek annter
ĠPhil adelphia
Ġfrei er
etr ics
Ġfl Ã¼ch
Ġregion ale
ĠLew is
D isplay
Ġ ^
el ektr
ĠF ron
ĠF utter
ĠT ib
ĠL ook
ru le
Ġ18 42
ĠPro tot
Ġre q
ia e
pt on
Ġpro te
Ġ9 8
ĠPar ks
Ġar gentin
ĠHoch stift
ĠFest ivals
Ġdan eben
Ġversch oben
quar tier
ĠLeiden schaft
JÃ¤hr ige
Lang uage
Ġeingemein det
I R
l iger
ç ļ
an es
Ġw andte
ĠD ecken
Ġm ode
ĠH D
ĠH inzu
Ġt x
Ġl ust
end em
ess ischen
Ġsch auen
ob i
ĠLand graf
Ã¶l n
wer ben
", "
ĠBild schirm
ĠZw ecke
ĠfrÃ¼ he
ĠFach bereich
ĠNeben fluss
189 9
ĠNor bert
Ġreich te
ĠAnge hÃ¶rigen
ĠLeg isl
ĠDor othe
Ġgrund legen
ĠAuftr itte
ĠBerat ungs
> .
W ohn
Ġ ew
Ġ arr
at hlon
ĠA gn
le hen
ĠT ai
ĠW y
ĠL P
Ġge test
im es
Ġsch ema
aus wahl
geb ot
ĠIm pul
ark tischen
ĠHau st
ĠHaupt bahnhof
stru ction
Ġfr isch
ĠVen ez
F in
v i
Ġ ĊĠĠĠĠĠĠĠĠĠĠĠ
Ġd elta
at ien
ĠK h
ĠL td
ĠI F
Ġge prÃ¼ft
get E
ip io
Ġpro vider
Ġch annel
ĠDar stellungen
OR D
Ġinner e
ĠBro ok
ĠTest s
Ġerk ennt
ĠVerkauf s
Ġausger ichtet
ĠArchÃ¤ ologie
ĠkÃ¼nd igte
ĠCommitte e
C re
Z ug
c onn
h ut
s eiten
z eits
ti ker
ĠH ert
ĠH end
ĠH ost
ĠH ins
ĠW eit
ut ing
ĠU rauffÃ¼hrung
os is
ĠSp eyer
ers atz
19 49
Ġtr op
mal erei
Ã¤nd ischen
ym metr
Ġ8 9
trag s
ĠSte iner
Ġ> >>
Ġqu eue
Ġabsol ute
ĠKurz film
Ste p
ĠBist ums
ĠkÃ¼nstler ischen
ĠVerÃ¤nder ung
ĠAx el
H allo
Ġd irectory
ĠS tif
al ts
it iv
ĠA D
ĠB ande
ĠG ur
Ġf all
ĠR ic
ĠL ep
ĠL ack
Ġal ias
ist isches
wei lig
Ġ18 35
Ġunter nahm
pl ung
ĠCh irurg
Ġverl ieren
kon struktion
ĠKn ow
ĠWer ft
ĠSeit dem
ĠCl aus
Format ter
Ġlin ker
ĠPark platz
ĠStim mung
beh alten
Ġverlie f
Ġerk annt
Ġide al
Ġexp ected
ĠVoraus setzung
Hash Map
Ġmedizin ischen
Sign ature
ĠErkrank ungen
Ġol ymp
Ġanbie ten
Merk male
Ġmath emat
ĠF usion
ĠH obby
Ġk reis
ul ierung
enn ame
th ers
ĠVor haben
Ġ9 7
lieÃŁ t
ĠÃľber leben
Ġeinge zogen
ĊĠĠĠĠĠĠĠĠĠĠĠĠĠĠĠĠĠĠĠĠĠĠĠĠ ĠĠĠĠ
ĠArbeit nehmer
ĠHel den
Ġtechn isch
ĠPop ul
Comm on
Change d
ĠWurz eln
ĠProj ekten
ĠEcon om
ĠEliz abeth
F ebruar
a ire
ĠF ame
ĠP ur
ĠP eer
ĠW ho
ĠL ub
ĠO v
ok a
az ier
ĠGesch Ã¤fte
ĠBe weis
ĠVerb indungs
Ġbr achten
ps ych
195 3
ĠOper a
gericht shof
Ġhab ilit
Ġqualif iziert
Ph one
ĠCre ek
ĠBrau erei
ĠStraÃŁ burg
track ing
Ġreligi Ã¶sen
Sonst iges
6 00
O t
S al
S ong
s ib
ĠS ymp
Ġn ames
ĠP unk
ĠH av
ĠH aw
Ġk r
Ġun it
ac o
Ar ten
Mar ia
ĠZusammen schluss
ĠHistor ische
195 8
Ġentfern en
ĠIns zen
ĠHei rat
ĠTal ent
ĠSchÃ¶n heit
Ġverf asst
Ġleich te
Ġzeig ten
schaffen burg
Ġkeiner lei
0000 00
tran sport
ĠFertig stellung
B ro
ein kommen
ĠA ur
ĠP ension
ĠT H
tr echt
Ġge gangen
ĠSt one
ĠSt ufen
ĠAl ice
Ġunter brochen
Ã¤ch te
ĠMed aille
ĠZwei te
Ġbew aff
ĠMod ul
ĠErz iehungs
Ġinternational er
wand lung
sl eiter
ĠLog istik
ĠInf ektion
Ġkombin iert
Lower Case
Ġangrenzen den
Listen ers
ĠTschechos lowakei
N ur
Â ¼
ĠS ten
ĠB in
Ġin halt
ĠK arn
ĠP ink
Ġdurch ge
ĠAb fahrt
Ġsp Ã¤testens
18 90
Ġ0 5
ens ystem
Ġger aten
[] {
Ġern euert
Ġro te
ĠRad rennfahrer
Ġkey s
ĠhÃ¶ch st
ĠGerman y
Ġtime out
Ġgeh abt
ĠStrate gie
Ġbeauftrag t
ĠMitbegr Ã¼nder
S K
T ool
c ies
g han
h aut
n ing
Ġd avor
ĠS und
ĠS ultan
ĠK unde
ĠP yr
Ġer ober
re port
ent ums
Ġ18 32
ef el
ĠMa ine
Ġman che
dr es
ain ment
str ich
Ver band
ron en
ĠGew erb
ĠFre ie
ĠZwei ter
ĠLebens raum
Ġvoll stÃ¤ndige
ĠHar vard
Method s
laub te
ĠGra phen
ĠJur a
ĊĠĠĠĠĠĠĠĠĠĠĠĠĠĠĠĠĠĠĠĠĠĠĠĠĠĠĠĠĠĠĠĠĠĠĠĠĠĠĠĠĠĠĠĠĠĠĠĠ ĠĠĠĠĠĠĠĠ
def in
ĠCommun ity
ĠAR D
ĠRal ph
ĠBegeg nung
P ublik
a ktu
k am
n ow
u y
Ġ eignet
ch i
ĠD ritt
ĠE y
Ã¶ ser
re as
Ġver Ã¤ndern
og o
ĠSp alte
ĠAr gument
Ġwie s
ĠSie mens
auf gaben
Ġgew issen
Ġgr Ã¼ndeten
Ġen ge
str ichen
ĠGer ade
ĠOrt steile
ĠÂ °
ĠPat rim
ĠSitz ung
ĠRen Ã©
ĠSand stein
lern te
ausen de
Ġqualif izierten
Ġumfang reich
ĠEuropameister schaften
çļ Ħ
S en
v oller
Ġd auern
st Ã¼cken
ĠG lo
Ġf liegen
le p
Ġer setzen
ĠO hr
ĠIn itial
etz liste
such e
leg ungen
ĠBuch en
Ġqu er
ĠGen ossen
ĠBetrieb ssystem
Ġhistor isch
ĠErn est
ĠSek und
stehen de
Ġap plication
ĠExper iment
ĠWeimar er
ĠDistr ict
F loat
o i
u uml
Ġ art
Ġw Ã¤hlte
ĠL Ã¶s
ĠI sol
ĠJ ugoslaw
Ġden ke
Ġver mitteln
ĠSp ace
Ġbe ur
ĠStr Ã¶m
ĠAus bruch
av ior
Al p
Ġbeg in
Ġgef Ã¤rbt
AT O
fÃ¤l ischen
ĠProv inzen
row ser
ĠRel ief
Ġmethod Name
Ġexten sion
Ġservice Callback
ĠKomb in
Ã´ ne
ĠwÃ¼n schen
ĠDiv is
Ġnachfol genden
B inding
H y
L P
u ver
Ġ \"
it us
ĠM usch
Ġf ilm
ĠL aser
ĠC el
Ġk op
ag an
ĠVer folgung
ĠAl i
of ern
ĠVor sprung
sh afen
Ã¼t zer
ĠReg istr
ĠVerb rechen
Ġgef ragt
Ã¤tig ung
deck er
ĠNieder schlag
Ġkein em
ĠNe apel
Ġabge geben
Ġ180 8
Ġad dress
Ġbisher ige
ĠErd geschoss
rap hen
ĠRem ote
ungsver fahren
Ġchines ische
ĠEff ekt
C L
H S
P ap
z ant
ĠH old
ĠL an
ĠL yn
ĠI hm
ra de
rei tete
ĠAn wendungs
im age
ĠPro gramme
rÃ¤ der
ĠJan e
ĠWei h
ĠGeneral leutnant
ĠPal Ã¤
195 7
Ġfl ach
Ġdr amat
Ġzurueck gegeben
Med ien
So ftware
Ð¾Ð ²
Ġumfang reichen
Ġbetre ut
Auth or
Ġvorber eitet
Ġspar en
Ġerkenn bar
O wner
T itle
p ause
Ċ ĊĠĠĠĠĠĠĠĠĠĠĠĠĠĠĠĠĠĠĠĠĠĠĠ
Ġ echt
ol stadt
ĠH ass
Ġer baute
Ġk Ã¤mpfen
Ġzu gewiesen
ĠAn ten
ĠAn ger
Ġj avax
ĠÃ ©
ĠAb bau
if c
ieren der
Ġ9 1
ĠEurop Ã¤
ĠRei s
ĠFest schrift
ĠCar lo
ĠKommun e
Ġdien ten
ĠMot oren
Ġtradition elle
Nieder lage
ĠZerst Ã¶rung
ĠPian ist
Jose ph
C enter
I ST
k Ã¤mpfe
Ġd ekor
ĠK lagen
ĠG or
Ã¶ ster
Ġg ere
ul arb
ĠIn solvenz
ien te
scha f
ĠAl an
Ġvor stellen
ue z
ok er
ĠCh a
Ġgew orfen
ock el
schie ÃŁen
lieÃŁ en
sb ahn
Ġzusammen ge
ĠSh ar
ĠMed aillen
zei tige
ĠGraf iker
Ġverm utet
ĠSied lungen
Med aille
omet rie
ĠSym pt
lÃ¤uf e
sbez irk
ibil itÃ¤t
Ġcolle ction
E U
i ad
m auern
t in
v oid
w Ã¤hlen
Ã¼ bt
Ġs Ã¤chsischen
ĠB arr
ĠB rad
Ġm atcher
ĠG Ã¼
Ġf ahr
ĠH Ã¼tte
ĠT ap
ĠN on
ĠN eg
rei en
ĠO ch
ver anstaltungen
Ġst re
Ġun ivers
ĠÃ¼ber prÃ¼
enn te
ĠGr en
lei dete
ock er
bild ner
ĠTra ck
ĠWer ks
tic al
ĠZahl ungs
national mannschaft
bold t
Tro tz
ĠCost a
E E
H ome
W A
h aven
m eier
u de
ä º
ar is
or ed
Ġb rauch
ĠK ent
ĠF Ã¤hr
ĠE cht
ĠP ut
ĠP aw
ĠT am
ĠT SV
Ġp rim
ĠVer hÃ¤ltnisse
Ġst ep
end ung
if ikation
Ã¤l lig
ĠVor lage
Ver breitung
Or ts
Ġger echt
AT OR
Ġverw altet
ĠGen au
list ener
189 1
ĠChem iker
Ġap i
schlÃ¤ gen
Ġdigit ale
stift ung
Vis ible
ĠGeheim nis
ĠFrances co
Ġbevorzu gt
Ġeingest uft
ĠBreis gau
? )
H eim
I con
a ÃŁen
b rief
h Ã¤nge
on c
Ġf erner
is pr
ĠN etwork
ĠJ Ã¤nner
ĠC ustom
wei len
ap ply
gr Ã¤ber
ste ck
Ã¼hr ungen
hÃ¶r en
ĠTr in
ĠDre am
back tracking
Ġnie mals
Pr int
ĠWol ken
ĠHigh way
ĠKanz el
Ġcle ar
skl asse
ĠAnth ony
Ele ktr
ĠInstall ation
AuÃŁer dem
ur b
ich tige
ĠD ritte
tr ei
ĠO ft
ĠO ste
im s
get Data
Ġ18 39
ex ec
Ġvor an
Ġre prÃ¤sen
Ġges ammelt
amil ton
els on
ĠEl f
new Line
ĠAt hleten
ĠKn ie
Time Millis
ĠMannschaft s
ĠFel sen
Ġtyp ischen
ĠSchles ien
Ġangegeben e
ĠKre bs
Kultur denkmal
ĠSor timent
ĠKrank heiten
db c
ĠLux us
Ġav ailable
ĠBÃ¤ ume
ĠSab ine
Ġgesellschaft lichen
ĠErschein ungs
ĠTob ias
ĠKoordin aten
1 17
e j
e DataType
k ab
Ċ ĊĠĠĠĠĠĠĠĠ
Ġs amt
am pe
ĠN ebel
ĠC la
ĠAn reg
get Request
ile g
fl Ã¼ge
Ġerst mal
ĠHaupt ort
ĠUr kunde
ĠRes idenz
ĠOst preuÃŁen
ĠHeil ige
ĠTour isten
Ġunterschied licher
Ġleben den
ĠÃ¤ gyp
Aut o
Kl ein
Ġverbunden en
ĠHoll and
ĠPok er
ĠLandtags wahl
ĠmÃ¤nn lichen
ĠAster oiden
Ġgesund heit
ĠSchicks al
B uf
D rei
E isen
G ut
h ier
m u
m ass
st yp
ĠS yl
Ġw Ã¶ch
Ġs ite
ĠB ap
Ġf ehler
ĠW Ã¶r
ĠL aur
ĠVer stÃ¤r
Ġst euer
og ne
eil le
ster s
Ġa fr
Ġ" -
Ġre form
uss ia
Ġle gend
Al ben
ĠFilm regisseur
ĠZu schau
schw itz
ipp i
check EMail
Ã¤ss ern
ĠPal ast
cept or
ĠTat ort
Ġdurchschnitt lich
ĠWik ipedia
Hein rich
ĠQue en
ĠLegen de
Ġhr sg
checkEMail Adresse
f inanz
h um
n utzung
w Ã¼n
sch reiber
und s
Ġs aÃŁ
ĠD au
ĠP RO
ĠL eut
Ġh ash
Ġauf geb
ver eine
Ġc p
Ġab gel
Ġsp anische
Ã¤l le
Ġbes etzten
ĠgroÃŁ em
ĠPh Ã¤nomen
ĠÃĸ konom
Ġbesch reiben
ĠInter ruptedException
Ġqu alit
ĠMeister titel
ĠWebs eiten
195 2
Gener ic
omo tiven
Ġtradition ell
ĠInner e
LOG GER
ĠOk res
ogn ition
ĠKrist all
Hein z
ĠStaatsb Ã¼rger
ĠprÃ¼ fen
Ġberu ht
ĠValle y
B ur
C R
E lem
H g
c ommerce
ĠL eh
il lo
ĠN ev
ĠC arn
ĠIn t
Ġr ichtete
ĠAn nahme
ĠÃ¼ber s
Ġneu esten
String Builder
be auftrag
unk er
ĠY our
inder te
Ġausge geben
ĠRe alitÃ¤t
con figuration
schn eiden
ĠVers orgungs
Ġho hem
ĠDan ce
ĠTre ppen
ĠAmts gericht
Per iod
Ġtem por
Ro ute
ĠYou Tube
ced es
Ġsec ond
mag azin
ĠKrie ger
ĠkÃ¤mpf te
ĠangekÃ¼nd igt
innes ota
Fk EMail
S onder
Ð ¹
ge gangen
ĠM A
ĠK eine
ĠG az
re ader
ĠO S
ĠSch iller
im o
ĠStr ess
ĠGemein det
ĠLei der
ĠZusammen setzung
Ġkein es
ĠPlan eten
Ġbesser en
mark e
ĠChem nitz
ĠHeraus forderungen
Re al
Ed it
Ġerschienen en
VER SION
SO URCE
HÃ¶r spiel
ĠWitten berg
ĠDunk el
ĠUd SSR
feren ces
H tml
N C
w iesen
Ä Ĺ
un er
un ch
ĠF ett
ĠP ier
ĠI gn
ĠIn spir
Ġvor ange
auf lage
ĠIm mutable
Ġgen ehm
ĠSpiel ers
ilder t
Deutsch es
Ġbesonder es
Ġzahl reicher
195 6
189 6
Met al
Rep l
ĠSteuer ung
getD efault
!! !
Ġkultur ellen
Ġsinn voll
Arb eits
beam ter
ĠBedÃ¼rf nisse
ĠKÃ¤r nten
D b
L eist
M as
N un
f inder
č ĊĠĠĠĠĠĠĠĠĠĠĠĠĠĠĠĠĠĠĠĠĠĠĠ
en ge
ĠS ucht
sch rÃ¤n
Ġs l
ol as
ol der
ĠT hal
ĠR umpf
ĠV olleyball
ir bt
Ġdes ign
ĠEr forschung
ĠEin bau
Ġsie d
Ġ18 10
Ġ18 13
Ġ18 38
ĠPro tagon
her it
ĠGr ill
dr unde
Sch rift
ĠKÃ¶nig sberg
ĠDar in
fel de
ĠTro cken
ĠrÃ¶m ische
ĠLau ra
ĠGeist es
ĠSchlag zeug
Ġmoder ner
ĠTe en
Ġnotwend igen
Ġref le
Av ailable
à¯ į
1 12
M ass
V oid
X X
a sten
b om
b urn
j ection
m ode
in ische
ĠM eth
ĠH Ã¤ndler
il o
um pen
ĠN i
ĠZ ertif
ru pt
tig keiten
ov o
Ġbes ieg
set s
aut omaten
Ġverl Ã¤sst
ĠCon s
ograph y
ĠFre quenz
hol ungs
Ein ige
Ġwei ss
195 4
Ġnieder lÃ¤ndische
ĠVerl etzungen
Arch iv
ĠCamp us
ĠGÃ¤ sten
Ġverd ient
ĠGet rei
Ġerheb t
Ġschwed ische
Ġverab schied
i ffen
p red
w ise
Ġd etaill
Ġb ran
ĠF reis
ĠH ad
ĠW orm
ĠL Ã©
ĠI rak
Ġan alys
os k
ĠAn kunft
ĠAr ena
Ġ18 31
Ġab gew
Ã¤l en
ĠFl y
sk e
Ġbef Ã¼r
ĠBo ard
for um
new Instance
Ġgener ell
ĠMi G
ÅĦ ski
F er
p Ã¤dagoge
Ġb un
Ġb reiter
as a
ĠR asen
ĠL ernen
ro tt
Ġge be
Ġt ab
he et
ah ler
Ġab geleitet
ĠCh i
18 88
ast ral
Ã¤ch ter
mit te
ĠSte ine
Ġjeweil ige
spro jekt
wÃ¼r d
Fac tor
gehen den
ĠFÃ¼hr ungs
Ġentstanden en
ĠVorsitzen den
Ġverz ichten
oth ar
steh er
Sup port
ĠBrie fe
loc ation
Ġmark iert
ĠWettbewerb s
Ġirgend wie
requ ire
H K
H eil
I r
f onds
Ġ echte
st amm
ĠS ich
ĠB utter
ĠK it
ĠG iuseppe
is her
ĠZ irk
im me
sb rauch
Er ste
Ġgesch m
ĠBet rag
ĠUr sprÃ¼nglich
ĠAt tr
ĠsÃ¼d afr
ĠGegen stand
schul d
wissenschaft liche
iat rie
189 2
umm el
So zial
Se q
ĠHan au
Ġevent uell
ĠMÃ¶n chen
ĠEdel stahl
Ġdokumen tiert
Ġcir ca
ĠEnzy kl
Ġdarauffol genden
S ql
S etzliste
d an
s icherheit
v gl
w ann
st etten
an os
ĠH els
ĠI dentif
us a
ien d
ĠAb schied
ĠBet ten
Ã¤m pft
ĠPaul us
ĠEv olution
ĠPal Ã¤st
ĠBro ad
CO MP
ĠBran che
ĠSold at
Ġleich ten
ĠLig asp
ĠSamm lungen
verstÃ¤nd nis
ĠPok alsieger
Absol vent
beteil igung
B oden
B asketball
ĠD ame
ĠP reisen
re de
Ġo k
Ġaus b
ĠDie sen
rie t
ĠEin zug
Ġ18 41
pl ier
ĠCh ild
rÃ¤ um
Ġ16 00
ĠMin dest
uck s
jÃ¤hr ig
ĠGen ehmigung
Ġrech ter
IC E
Ent fern
produ kt
fil men
sprech ung
krÃ¤ f
AB C
ĠPubl ishing
Ġkultur elle
Ġanti ken
akes pe
ĠFlag ge
ĠDiÃ¶z ese
Leicht athlet
Ġgetest et
T x
W ITH
h ash
} );
or p
ĠD eut
ĠI ron
ĠV alen
ver schluss
pe kt
(" ,
Con verter
ĠKl einen
ĠBau reihe
to LowerCase
Ġgef Ã¤llt
ĠBÃ¼ chern
ĠBel agerung
ãĥ «
ĠLuft waffe
ĠKat astrop
ĠGesamt wertung
Ġgl Ã¤n
ĠWeihn achten
ĠgÃ¼nst igen
Bl ank
ĠBundest ags
ĠBeob acht
ĠAgent ur
ĠLiss abon
B ER
C annot
N och
Ġd einer
Ġs onn
ĠA ven
ĠE C
ĠP rÃ¤sidentschaft
Ġer zeug
Ġt at
ĠZ ellen
ag on
Ġa ccess
Ġvor n
ĠBer ger
ĠNach lass
ĠLand s
ĠKon stru
ĠUr spr
ĠGl Ã¤ub
ĠReich sk
recht lichen
Ġgem eldet
PD efinition
evÃ¶lker ung
ME SS
ĠUl m
Land es
Rep rÃ¤sentanten
Ġmod ule
Ġtyp ische
ĠKonz ern
sprÃ¼ fung
Ġverbesser te
ĠFell ow
Ġjung er
Ġlei stete
R ich
R oll
s uper
ĠS ehr
ĠS we
Ġs enden
Ġf ern
Ġf ran
ĠW im
ut able
ĠC hal
ir r
Ġl at
ĠIn put
ĠEr ror
ĠEin fach
iz itÃ¤t
ĠAb kommen
18 0
anz eigen
Ġgew innt
Ġbes iedelt
fer tigung
ĠQu art
Ġher an
Par se
Sp an
ĠLu is
ĠLu kas
ĠVol ume
uck er
ĠGu y
gar ter
ĠBeruf ung
Ġmin im
flug zeug
ĠService Future
Th is
Ġinteress ant
ĠCal c
Ġdefault Value
Ġargument s
Ġkompon ierte
Ġbeherber gt
B urg
M R
Ï Ħ
ĠM am
ĠM ake
ĠH Ã¤r
ĠV III
ĠC ultur
ahr ung
eg as
ĠSp ektrum
eut zut
Ġbef asst
ĠSchw anger
iden ce
Ġpar ser
rÃ¤s id
ĠBew usstsein
40 6
ĠWill en
ĠStaats anwalt
ĠClass ic
sei tige
ĠPed ro
ĠgewÃ¼n schten
ĠBuk arest
Requ ired
H it
O s
S ach
Z eich
k ter
r unden
s i
y cle
in voke
ĠB ien
ĠM Ã¼
ĠF avor
de uten
Ġl ib
ĠfÃ¼r s
ff ekt
Ã¶r ten
ĠGr Ã¤fin
rÃ¤ u
amm ung
kl ang
inder ten
ander s
Ġcon s
schn itten
ho tel
ĠFlug platz
Client Execution
Ġverlie bt
Ġstate ment
ĠEntwick ler
BC I
Ġunmittelbar er
match es
ĠProfess ur
ĠLiebl ings
erkl Ã¤rung
eutzut age
a er
b les
c olor
s ammlung
Ġ ul
ĠB ridge
as y
as ar
ĠC hl
Ġg eile
eu x
op ol
lin s
id t
ĠEn try
ĠAus lÃ¤nder
Ġ9 3
ĠEnt deckung
gew achsen
ĠEl se
Ã¶ch er
Aus gabe
Ab geord
Man agement
ĠEigen schaft
fass ade
ĠFrÃ¼ chte
ĠHe alth
ĠnÃ¶rd liche
ĠSchÃ¼ler innen
Ġrem ote
Co uld
Ġwor aufhin
Ġverp asste
imple Name
Ġforder t
Ġrechte ck
Ġkost et
ĠAtel ier
. ]
B ass
D reh
I X
R ot
S oll
g Ã¼r
k Ã¼
ĠB ischÃ¶
Ġein iges
Ġm iss
ĠG ib
ĠT eich
eb r
Ġaus gesprochen
ot herapie
id i
ech e
ss itz
ip eline
ant ie
Ġ0 6
Ġneu tr
teil ungs
ĠJan eiro
ilit ation
key Set
ĠLondon er
189 3
do or
ĠAnge hÃ¶rige
ĠAnge legenheiten
ĠKlass iker
Ġcolumn s
ĠKult us
ĠFranzÃ¶s ischen
ĠTeu fel
Tran sport
ĠSkulpt uren
D och
M ac
P UT
R ect
æ ľ
au ens
ĠA schaffenburg
Ġz z
ĠF K
ĠF rom
le der
der en
Ġer werben
ĠV all
Ġk Ã¼r
Ġp ur
ĠAn sprÃ¼che
ak tiven
Ġtr ee
ĠStadt bezirk
ies el
Sch lag
IN VALID
kon stru
esse e
SE CON
ĠChar acter
Ġmein t
ĠRev iew
Welt cup
ĠSem in
Ġinteress ante
Ġerle bt
Ġschlech ten
âĻ Ģ
lac ement
andin av
D own
G old
i able
i Äį
k tive
k arriere
m otoren
å ħ
sch reiten
ĠB j
ĠB BC
Ġb o
ĠW eich
ĠR ange
ĠV iv
ĠJ en
ĠSch ema
ĠAn leitung
Ġsch ein
tel ligen
ob ahn
ĠAus gleich
ĠAus sehen
vers uch
Ġ9 4
ĠSchw ert
Ġkon f
ĠArbeit splatz
ĠÃ¤hn lichen
ĠEing angs
Ġbedeuten den
Ġpass word
Ġbeein druck
Ġprak tische
Mon th
ĠTher es
Ġspec ified
wÃ¤l te
Ġkom fort
ĠIndust ri
D isp
J ean
p pe
ĠS D
et o
Ġf ail
il ation
ro g
Ġj o
tern ehm
ĠNach weis
ĠBe au
ĠÃľber tragung
ĠTechn ologien
tic a
ĠSicher ung
ĠÃ¼b te
ĠZur Ã¼ck
ĠLang haus
ĠDist rik
rec ord
ĠBrit en
Ġprak tischen
Ġac tive
ĠSchr Ã¶der
ĠNeum ann
Ġbefore ClientExecution
Assign able
ĠClaud ia
PROPER TY
zule gen
ĠDreiÃŁig jÃ¤hrigen
Ġfas zin
# #
. ;
C oun
T RI
V arian
Z ahl
d re
h Ã¤n
ĠS erb
ĠD M
gen s
ĠW ichtig
Ã¶ hm
ĠI ter
Ġh uman
ĠC ON
18 89
schen den
ĠHo spital
AL OG
ĠKr Ã¶n
emen tierung
ĠTechn ology
riter ia
Ġsicher lich
ĠMos k
vis it
Ñģ ÑĤ
ĠLy on
Ġneg ativ
ĠNahr ungs
ĠZul assung
Ko ordinate
B esonder
T ick
ĠS ier
ĠK evin
ĠF iction
ĠH eu
Ġbe zahlen
ang aben
Ġ18 14
pl omat
teil ten
eten zen
Ġviel mehr
Ã¤nder ung
ĠPhil ip
Ġper iod
Ġerhalten en
ĠÃĸsterreich ische
Hand ball
tieren den
ĠKÃ¼nstler in
ĠVerl etzung
ikal ische
ĠÅ ½
Ġdur ften
Ġverurs acht
Ġniedr ig
ĠFF DC
A f
B inary
N or
w achsen
Ġs ure
ti um
ab wehr
ĠC hen
eb t
ĠU t
Ġc ustom
Ã¼n ster
Ġwir st
auf tritt
ĠBer eit
ĠPl atte
lei sten
form ed
enz el
sb l
verb rauch
Ã¤h ern
++ ]
ĠMil ler
grÃ¼n der
ĠOs lo
ĠVerteid iger
ĠgefÃ¤hr det
ĠStatt dessen
! )
M etric
g h
s z
y ter
ei ste
ĠA rea
et isch
ĠM eilen
ĠL ohn
ĠSt ore
ĠSt urz
op fer
Ġnach weis
ef eld
reich t
ĠMar athon
ac ters
Ã¤nd iger
Ġbet reiben
Ġher zlich
ĠGer ichte
ink i
ĠHaupt mann
ĠHÃ¶ hlen
Ġschn ellen
189 5
sprach igen
Ġliegen de
bÃ¼ hne
aun us
ĠPop ular
ĠNachbar n
sei tigen
Ġsah en
stÃ¤d t
Ġprofession elle
B I
D av
H A
L ive
b eln
l uther
ĠS tett
al p
ĠB arth
ĠD anzig
ĠK uchen
ĠF our
ĠF lex
ĠE if
ĠP av
ti ce
Ġmit hilfe
ad in
ĠSch ritte
Ġp ack
Ġr Ã¶
ew ork
ĠAn liegen
lie be
aus strahlung
iz it
ĊĠĠĠĠĠĠĠĠĠĠĠĠĠĠĠĠ ĠĠĠĠĠĠ
18 86
ev oll
Ġdeutsch es
sb uch
Ġsel ect
Ġviel es
Ġschn eiden
sw ing
ĠGeh irn
ĠUntersuch ungs
ĠEvangel ische
Bundes staat
Ġchild ren
ĠLeon hard
ĠLiefer ung
Ins gesamt
Ġmedizin ische
ĠMÃ¶n ch
Ġporn o
Fra ktion
ĠPion ier
ĠSynag oge
! =
y y
it Ã©
Ġv en
hr ingen
Ġm u
ĠG Ã¤rten
ĠF ind
ĠT U
ĠT um
ĠSch am
ahr er
ĠSt uck
Ġbe enden
19 15
zen en
enn amen
ob e
uÃŁ en
Ġ0 8
lei h
... ]
ĠRech en
stÃ¤nd iger
Ġbel egen
Ã¤ft s
ĠZahl ung
lÃ¤nd isch
ĠDenk m
Ġung laub
ĠPartner schaft
krÃ¤ ften
Ġbegr enz
lar ed
Max im
vertr etung
ĠÃ¶ fter
Vis itor
ĠQue ens
ĠBÃ¼nd nis
Ġrestaur iert
âĻĢ ,
1 10
C ast
D river
J B
g io
k inder
p ush
Ï ģ
ch annel
sch atz
ĠD EL
ĠE mail
ĠP i
ĠP aket
ra c
Ġver t
Ġl Ã¤dt
ĠAr te
Ġ18 37
ĠIm per
ĠPl Ã¤tzen
Ġex klus
Ch arl
Ã¤nder ungen
ĠSan ti
Reg ister
ĠFolge zeit
welt meisterschaften
Ġverst orben
ĠMath ematic
189 4
ĠschÃ¶n sten
ĠHÃ¶r spiel
ĠSchwar zwald
ĠWes er
ĠFlÃ¼cht linge
Ġil leg
( -
D abei
b evÃ¶lkerung
f ix
j u
ĠS einen
ĠA gen
ĠD irk
ĠD igitalis
ĠW ith
ĠL ade
ĠL esen
ĠV ision
Ġge lo
Ġge fahren
Ġst ein
ger ichte
get Time
get Local
ĠAuf wand
ac cept
ian ce
eig ern
ĠUr kunden
ĠAt l
ĠAt las
Ġschw ach
hei de
not Null
Ġschwer er
Ġexist ing
ĠHin dern
struktur en
Ġverlie h
grÃ¼n de
ĠerhÃ¶ hte
Wei ÃŁ
ĠSoll te
ĠDub lin
ĠJubil Ã¤um
D IS
z oll
æ ĸ
Ġ iterator
Ġ echten
Ġd one
ĠB un
et tel
am azon
Ġm obile
ĠG umm
ĠF loat
ol es
ĠE b
ĠP y
ĠT rÃ¼
ĠW at
ĠV Ã¶gel
ri um
ĠEr ik
Ġum liegenden
Ġvor geschlagen
geb ra
ĠÃ ģ
ohn en
St op
Ġnoch mal
be cker
Ġber ichten
eigen en
Ġviel fach
Ġverl auf
ĠPer u
ose x
Ġbede utete
Ġas iat
ĠBÃ¶ hm
Ġelektr ischen
Th omas
ĠCamp ing
Ġumfassen den
ĠErf inder
ĠlÃ¤ng st
ĠInnov ation
ĠFlieÃŁ gewÃ¤sser
ĠBerech nung
ĠFrÃ¼hl ing
ReprÃ¤sentanten haus
T C
d l
h ers
ĠS ams
Ġw ord
Ġs olle
ĠB ilden
Ġf icken
ĠL ibrary
ist ern
ĠSch e
och em
ord nungen
av y
ian ischer
wer fen
An t
Ar tikel
ĠHand werks
eig n
buch t
ĠGl Ã¼cks
Gr Ã¼n
ĠAch ter
ĠAust ria
ĠAbgeord nete
ÑĢ Ð°
ĠZimmer mann
Ġanges iedelt
ĠTrau er
ĠErkrank ung
Ġact ual
ĠWalt her
C ell
G etter
G lobal
L ayer
M at
S ynchron
U hr
b anken
c omponent
w elle
sch Ã¼ler
ar ing
Ġs ince
ĠM inden
le ck
ĠV ize
ĠJ g
se arch
ann over
ap pt
im ation
rie ge
ĠAl ois
ak s
ĠGr Ã¶n
Ġ0 3
iet z
ĠMo tive
hand le
ĠsÃ¼d liche
Ġkurz zeitig
195 9
ĠKomp etenz
Sport veranstaltung
Page Link
ĊĠĠĠĠĠĠĠĠĠĠĠĠ ĉĠĠĠ
Ġlo op
ĠJob s
rip pe
ĠTw itter
Strate gy
l is
o or
p ir
p oints
t Ã¤u
w ords
Ñ ĩ
ĠS lowen
Ġs ee
ĠB uff
ĠK ay
ĠK anten
ĠG un
ĠP iz
ĠT hrowable
ĠR ez
and al
Ġver ring
Ġl uther
Ġwar m
ĠÃ¼ber prÃ¼ft
ĠEin stieg
ĠAr min
tig keits
ĠNach hal
ĠBr eit
Ġpro xy
stan zen
res et
ĠUm frage
ĠWei den
Ġangeb aut
ĠTri o
UT E
ĠWissenschaft s
ĠStu dent
Le ague
ĠJe de
ĠFernseh film
ĠSchlag zeuger
Ġdat abase
ĠBesonder heit
ĠInner halb
ends With
ĠInternal X
fac es
ĠJahrhund erte
ĠJÃ¼n ger
F u
S ee
b eben
j on
ĠS ey
sch lies
ĠK rak
lich ung
ĠC ourt
Ġl et
ce ae
ger echnet
ĠSp ons
mer z
Ġ18 34
Ġab schloss
ac es
ĠVor sitz
ĠAm ph
wer fer
Ġges perrt
ĠBo ots
ĠGrund riss
ĠSÃ¼d amerika
alse kretÃ¤r
ĠSchl ange
RE D
RE S
ĠWeiter bildung
ĠSchm el
189 8
Ġausgew Ã¤hlten
ĠDenkmal pflege
rick et
ĠKirch spiel
ĠAuff assung
Ġinitial ize
ĠUrs ula
Ġdauer te
Beg riff
ĠkÃ¶nig lichen
ĠSauer stoff
ĠKav aller
B uild
sch ema
Ġm ul
ĠG R
ĠP rivate
ĠH eld
Ġk unst
ad ow
ĠZ ap
sp aren
Ã¤l z
param eters
ĠPl ate
Con structor
ĠUnter haltung
war te
lau tern
pp s
ĠDu ke
Ge ometry
uel a
ĠElektr onik
herap eu
Part ition
Byte Array
ĠImm un
ĠElem enten
Ġmet adata
gra de
chten stein
ĠVerdienst ordens
ĠKÃ¶n ige
Ġthr ough
Ġoffens ichtlich
ĠZuschau ern
A fter
B ra
L Ã¤ufer
M T
b Ã¶r
c ell
g riff
h Ã¤ngt
å ¤
ĠA re
ĠM obile
Ġn s
ĠK rau
ĠG onz
ĠP fe
ĠP rec
Ġf uture
Ġan wes
ra ham
rei z
ver hÃ¤ltnisse
Ġc re
op ath
Ġ18 36
pr om
Ġ0 2
stan ti
ĠBo hr
Ġ12 8
ĠAd v
ĠSh akespe
ash i
Ã³ r
fr em
ĠPat ient
Ġdazu ge
ĠDem onstr
ĠKont o
Ġstand ard
Ġbed ingt
System atik
Ġgl Ã¼cklich
mon at
ĠermÃ¶glich te
vo gel
Ġzeich nete
krit iker
ĠKons ul
Ġlauf enden
ĠEntert ainment
dater es
1 20
B all
P reistrÃ¤ger
v ik
st age
sch uh
ĠD in
ĠD igitalisat
ĠM ust
ĠM Ã¶rder
Ġf il
ĠW affe
ĠJ am
Ġge teilt
sp an
Ġaus gesetzt
men gen
id den
rÃ¤ g
ett y
ĠPf und
ote chnik
ĠDi mension
Ãĸ ff
ranken haus
sem ester
zub ringen
ĠPaar e
ĠGlock e
ĠFÃ¤h igkeit
bran che
ĠAusgang spunkt
ĠAuseinander setzungen
Ġschot tischen
E V
N amen
b ur
e ep
f ull
l ik
w n
in formationen
Ã¼ ben
Ġw on
Ġs ome
Ġm uÃŁ
ĠF eh
ĠP ont
Ġt ollen
ĠSt Ã¼tz
ri fft
id sch
ok o
ĠBr Ã¼n
res sen
ĠUm stÃ¤nden
ĠSchw ieger
Ġbew ertet
čĊ čĊĠĠĠĠĠĠĠĠĠĠĠ
ĠGu ard
ĠBru ce
All gemein
ĠKreuz es
Land tags
sie ht
ĠMer cedes
Ġhal ben
Produ ct
Cl ick
Ġkanad ische
ĠBasketball spieler
ĠSteu ern
D T
F ailure
M el
g rid
h Ã¤
i ak
j oin
ĠB Ã©
ĠB Ã¤ren
ĠR ut
ab a
Ġg lauben
ĠO den
sen z
ĠSch rau
ĠAn ordnung
ĠAr mut
ĠMa j
rÃ¤ fte
Ġ17 00
ĠMus kel
Sch warz
Ġbef asste
ĠBl itz
ĠEl be
Ã¶st licher
aur us
Ġmein te
ĠZÃ¼r cher
kap itel
Part ei
ĠBall ett
ĊĠĠĠĠĠĠĠĠĠĠĠĠĠĠĠĠĠĠĠĠĠĠĠĠĠĠĠĠĠĠĠĠĠĠĠĠĠĠĠĠ ĠĠĠ
sper re
russ isch
ĠfÃ¼hl t
ĠGitarr ist
ĠFlen sburg
C ounter
S dk
W N
k lag
ĠA quar
ĠP ant
ĠH ack
ĠT Ã¤nzer
ĠU hren
ĠAn wender
her z
Ġen tries
ĠLu ise
tag es
ĠFr Ã¶
ĠHier zu
Ber echnet
fre unde
ĠJournal istin
ĠHeraus forderung
ĠSow ohl
Ġwohn te
Ã¶pf en
Ġnorweg ischen
typ es
ĠMagaz ine
/ {
R ein
T el
f arb
m ethoden
w ider
Î ½
st ationen
ge x
ĠA L
ĠB alk
ĠH ind
ĠR ib
ĠC av
Ġk andid
ĠZ ier
Ġp ackage
ess a
Ġvor zu
En gl
stan de
iss ippi
Ġen gen
str and
ied el
ĠVerb und
ĠSchul ter
reck en
ĠUl l
Ġgelang t
Pl ugin
ĠrÃ¶m ischer
ĠWel che
current TimeMillis
Ġbegr Ã¼ndete
ĠPan or
ĠGru yter
edig lich
Ġcle an
Ġpopul Ã¤r
ĠErwer b
ĠDepart ment
> -
D ynastie
G rid
l Ä«
ĠB eth
ĠH ugh
ĠL Ã¤ng
den z
tr es
ĠSch ieds
ĠDie go
Ġun klar
ĠAl m
ez eit
ov iÄĩ
St artseite
ĠVor arl
amen ten
Sch ul
ĠBl as
Ġen coding
Ã¤u ber
Ġange meld
ĠUr ban
kon zept
ĠEd gar
ĠArbeit spl
ĠSport ler
ĠOlymp iasieger
Ġad ap
ĠQualitÃ¤t s
ĠBud get
ĠEvangel isch
Bild ung
Ġorien tiert
ĠAustral ian
ĠUrspr ungs
A A
un en
Ã¼ sen
ĠB ehr
Ġein gew
ĠH K
ĠH arm
ĠI C
ĠC art
ul ieren
ĠSch eiben
Ġp fl
ec tic
