#version: 0.2 - Trained by `huggingface/tokenizers`
e r
e n
Ġ Ġ
i n
c h
Ġ d
Ġ a
e s
o n
Ġ t
n d
ĠĠ ĠĠ
i s
i t
Ġ s
i e
o r
a t
Ġ w
a n
a r
\ \
r e
a l
h e
t e
Ġ S
Ġ b
u r
l e
u n
g e
Ġ f
a s
Ġ in
Ġ m
Ġ e
i ch
u s
u nd
in g
Ġ A
Ã ¼
Ġ o
Ġt he
Ġd er
Ġ v
e l
Ġ B
i l
r o
i on
Ġ p
\\ \\
s t
Ġ n
Ġ c
Ġ M
Ġ und
Ã ¤
Ġ D
Ġ 1
t er
Ġ h
i g
en t
d e
Ġ (
a m
un g
o l
u t
Ġ T
o m
Ġ P
i c
ĠĠĠĠ ĠĠĠĠ
i m
Ġ F
â Ģ
Ġe in
Ġ G
Ġ I
Ġd ie
e d
e t
Ġ E
r a
Ġa nd
Ġ K
Ġ z
Ġt o
Ġo f
Ġ W
Ġ H
e m
ĠĠ Ġ
s ch
Ġ R
t en
Ġ g
h r
Ġ L
u m
Ġ C
Ġb e
Ġ l
i r
is t
u f
is ch
a nd
b er
Ġt h
Ã ¶
u l
d er
Ġ 2
a ch
\\\\ \\\\
e it
Ġ N
c k
Ġ er
d en
Ġ V
Ġ J
Ġa l
i er
Ġ k
e in
Ġ1 9
o t
Ġ re
Ġv on
i v
at ion
c t
Ġa n
i f
a b
er s
a d
l ich
c e
es t
o w
Ġ ge
Ġd en
ĠS t
g en
Ġd es
o s
Ġ y
Ã¼ r
Ċ ĠĠĠĠĠĠĠĠ
Ġ im
Ġ O
es s
u ch
ĠĠĠĠ ĠĠĠ
Ġ2 0
i k
Ġs t
Ġm it
i d
Ġf or
l a
Ġ is
i es
) ;
o u
as s
an n
al l
Ġ U
Ã Ł
v er
Ġ âĢ
t s
t h
Ġ on
p p
Ġa uf
a y
k t
Ġz u
ie l
Ġ Z
e b
i en
e w
it h
\\\\\\\\ \\\\\\\\
ĠS ch
Ġv er
Ġ r
a f
o ur
a h
o p
e i
Ġ ist
ĠI n
l l
Ġf Ã¼r
Ġd as
Ċ ĠĠĠĠĠĠĠ
at e
Ġd em
a g
ich t
Ġal s
Ġw ur
Ġ {
Ġ =
Ġ un
er e
o d
a u
il l
o g
isch en
a v
Ġw ith
or t
n e
p t
Ġd e
q u
in d
Ġp ro
u b
s te
s e
a hr
t r
en d
Ġa us
l y
a k
er t
Ġw h
i b
p e
0 0
m en
Ġ }
Ġ j
z e
Ġein e
Ġy ou
Ġth at
Ġ Ċ
Ġs ich
ar t
el l
u g
Ġwur de
Ġ i
ĉ ĉ
Ġ it
a us
ĠR e
er n
) ,
Ġw ar
in e
ĠV er
ĠA n
Ġ20 1
w e
s p
b en
f f
Ġs e
âĢ Ļ
r an
o ch
h t
u e
ge t
a p
Ġ he
ĊĠĠĠĠĠĠĠĠ ĠĠĠ
a ge
o k
Ġa b
Ġa s
m ent
Ġc on
sch af
am e
u p
ĠD ie
ĠE r
es ch
g er
Ġs ein
Ġ le
Ġa re
ĠT he
Ġa m
ung en
Ġe x
h n
Ã¼ ber
Ġ or
Ġc om
ro m
ig en
u d
an t
ur n
m er
f or
Ġs ch
an g
it y
Ġbe i
us t
iv e
Ġn e
ar d
g r
Ġ 3
Ġ ch
i al
o v
o st
isch e
Ġa t
i z
a in
Ġw e
Ġa uch
( )
. .
ur ch
Ġw ir
Ġs o
\\\\\\\\\\\\\\\\ \\\\\\\\\\\\\\\\
s en
l in
Ġ Ã¼ber
ĠU n
Ġn ach
p r
Ġm e
k s
ol l
ĠA r
Ġth is
i p
r ie
h en
as t
r u
âĢ ľ
i a
ĠB e
ut sch
Ġ "
u re
Ġ if
ĠJ ahr
te d
ung s
o c
or d
av e
ĠS p
l ie
Ġ20 0
n en
Ġ1 8
h er
l ic
Ġw as
is e
Ġd ies
Ġy our
f er
Ã¤ t
Ġal l
ĠâĢ ĵ
Ġb is
h l
Ċ ĠĠĠ
or e
ĠD e
Ġs ie
ĠP ro
o b
Ġb y
1 9
t urn
i de
i le
r it
Ġs p
Ã¶ r
Ġn ew
I n
ab le
Ġz ur
Ġw er
om e
schaf t
âĢ ĵ
pt ion
en s
Ġf rom
ĠâĢ ŀ
h o
Ġn icht
ul t
Ġ -
Ġ ent
Ġ es
ter n
ĠA l
et z
) .
Ġz um
Ġ um
ct ion
m e
ar k
ĠE in
ul l
a ck
Ġein er
Ġwer den
l ass
d u
Â ł
ic e
j e
ĊĠĠĠĠĠĠĠĠ ĠĠĠĠĠĠĠĠ
il d
i re
n er
ch en
er v
Ġ us
o ut
Ġh ave
b e
ĠS ie
Ã¤ n
Ġh at
l o
Ġv or
i ge
it e
Ġz w
Ġw ie
Ã¤ r
h al
l and
ĠT h
on t
Ġd urch
Ġc an
Ġun ter
r Ã¼
f t
ic k
en n
ier t
Ġwir d
i an
Ġw ill
Ġm an
i o
it ion
Ġs ind
Ġo der
Ġ en
Ã¶ n
p er
te l
p ar
Ġw or
a c
e x
us s
r ing
Ċ ĉĉ
ĠC h
ig ht
el t
isch er
ge l
e ar
ch e
Ġn ot
Ġein em
Ġ /
D ie
Ġ 4
o un
ig n
e il
l at
ro w
er k
p h
for m
r y
Ġ19 9
Ġr es
ĊĠĠĠĠĠĠĠĠ ĠĠĠĠĠĠĠ
te ll
S t
s s
as e
ge b
Ã¤ nd
ĠA us
g es
m al
g t
e y
re ich
im e
Ġein en
b eit
is ter
at ur
E x
z en
o ok
ĠM it
Ã¼ n
on g
ĠA b
lich en
a il
st en
Ġ Ã
at h
Ġp r
Ġs h
a uf
Ã¼ hr
l er
ĠO r
ĠD er
all y
Ġa d
ah l
u te
Ġ 5
ĠL e
ur g
in al
Ċ ĉ
om m
2 0
Ġh as
c c
ĠS e
Ġ Y
Ġge t
' s
( );
m p
ĠE n
u ÃŁ
ar e
o de
Ã¼ ck
l os
ul d
f e
at er
ad t
Ġa r
t o
an ce
o hn
1 8
ub lic
ĠB er
Ġre turn
ation al
T he
ce ption
R e
ich te
Ġcom p
\\\\\\\\\\\\\\\\\\\\\\\\\\\\\\\\ \\\\\\\\\\\\\\\\\\\\\\\\\\\\\\\\
on e
ĠG e
ation s
Ġd ass
ĠA uf
lich e
ch t
th er
de m
Ġo ut
el n
ak e
ĠW e
we ise
ĠM ar
ent s
Ġd o
Ġ up
ing s
is s
om p
f en
Ġb es
k eit
in t
Ġn ull
in z
at ed
l an
t z
y pe
am p
je ct
Ġ19 8
st er
Ġ +
or s
em ber
ĠL and
Ġ 0
Ġo ur
r Ã¤
Ġ &
al t
on d
Ġg o
te il
Ġ qu
r en
ol og
a z
r i
re is
m s
c l
t w
Ġw o
a ut
re e
ĠN ach
ĠD as
a pp
at en
ion s
ĠĠĠĠ Ġ
iv ers
Ġb ut
Ġh er
Ġ/ /
Ã¤ hr
Ġi hr
al s
Ġ 6
h re
am m
on s
Ã ©
Ex ception
k e
S tr
Ġm y
ĠH e
Ġ19 7
ar y
Ġ ro
l es
.. .
an s
ow n
or en
t ra
Ġg en
it z
ers on
os e
ĠI m
he it
in k
Ġt r
de t
ol le
ol d
u pp
ier te
ig h
ab en
Ġm ore
( "
s h
Ġon e
Ġt ra
a ct
ĠUn ter
Ġn ur
Ġ 9
or y
re i
Ġthe ir
s er
b urg
Ġp er
Ġt e
ro ÃŁ
ĠM e
te t
f ol
it er
ch n
Ġw eit
ĠV or
ik e
Ġme hr
m it
p ro
ier en
v e
us e
al ue
v el
Ġwur den
Ċ ĠĠĠĠĠ
Ġs ow
ĠZ eit
ĠF or
ĠSt ring
eb en
ĠF l
Ġn och
ĠH er
Ġc o
ic al
Ġde utsch
Ġa pp
is h
g an
al e
r es
ber g
Str ing
Ġ19 6
Ġ( *
l d
i ent
at t
on der
at a
at ch
ut z
ĠA m
am il
Ġv om
f l
a de
y ste
Ã¤ l
il m
Ġ1 7
Ġb et
an z
Q u
ig er
ie d
b le
Ġe v
Ġ 7
ĠSch w
ste ll
oun t
o ck
er en
Ġab out
Ġals o
N ame
re at
y s
a x
z eit
es e
iel er
x t
k en
Ġ 8
ein e
Ġge w
W eb
t t
ĠN e
Ġb est
en g
ne h
ĠDe utsch
Ġthe y
ĠSt adt
Ġl ie
i um
b ar
in n
Ġcon t
el d
ib t
u le
Ġwh ich
is ten
Ġ19 4
Ġs te
om men
Ġa ber
par am
Ġf e
u en
f in
s el
or n
p ublic
lin ks
D er
kt ion
ĊĠĠĠĠĠĠĠĠĠĠĠĠĠĠĠĠ ĠĠĠ
c es
Ġp re
ĠI t
et h
ze ich
âĢ Ŀ
ĠF ran
ĠRe g
le ich
te m
re turn
Ġal le
ĠG r
Ġy ear
Web links
Ġf in
st and
ie t
Ġ1 5
Ġof f
ter s
la g
D e
o f
Ġ19 5
on n
m ann
ie w
ĠT e
og ra
i ze
an ge
Ġin s
Ġt ime
Ġwor k
Ġh is
f Ã¼hr
ay s
r ess
Ġbe en
Ġs pe
it t
Ġwh o
n is
Ġk Ã¶n
a w
ah n
Ġp la
Ġk n
a ce
C on
Ġsow ie
et t
p ort
Ġ1 6
Ġk ann
Ġb er
h Ã¶r
Ã¤ ch
ol it
Ġ1 0
ĠG em
Ġd ar
Ġo b
ĠP ar
P ro
it Ã¤t
re d
1 0
s et
g lich
1 7
el s
w o
Ã¼ d
ir st
m an
Ġre c
etz t
at or
ĠI S
ĠU S
f ahr
m in
ig t
r if
ov e
T ype
l ine
n et
a i
am men
Ġp art
g lie
ann t
im m
Ġan y
Ġg es
E inz
E n
an k
at s
le d
Ã¼ nd
Ġge gen
Ġs erv
Ġs ome
ier ung
Ġo ver
ah re
Ġj ed
y p
o ol
00 0
b all
or k
Ġs c
o und
ig keit
ess ion
ik er
y n
Ġ19 3
ar beit
ĠG esch
ĠS te
ĠE x
h und
ie le
Ġin ter
el y
Ġd is
ach weise
Ġsein er
p ut
l ung
c om
Ġein es
Ġwie der
el le
eln achweise
Ġsein e
Einz elnachweise
I N
T h
u de
r on
r ich
ĠA d
d ition
i x
at z
1 5
lie ÃŁ
Ġzw ei
Ġs oll
A n
ĠâĢ ľ
Ġ |
o h
ĠUn ivers
is sen
ra nd
ie der
id ent
Ġhat te
Ġe l
g esch
Ġ= =
u al
lat z
o ber
B N
ÃŁ e
Ġo ther
b r
in ter
at es
ein de
s k
at ing
yste m
Ġa cc
u er
o le
ĠG es
und en
= =
in der
Ġ Qu
Ġn o
ur op
Ã¶ ff
Ġdies er
Ġh aben
am en
a der
ĠD ies
eit e
Ġin t
h aus
ĠF ra
a is
ĠIS BN
ĠE s
Ġl ike
iel d
b st
ab e
Ċ ĊĠĠĠĠĠĠĠ
le ment
al d
Ġ ich
ver y
o ff
or f
ge ben
ĠP h
Ġi hre
\\\\\\\\\\\\\\\\\\\\\\\\\\\\\\\\\\\\\\\\\\\\\\\\\\\\\\\\\\\\\\\\ \\\\\\\\\\\\\\\\\\\\\\\\\\\\\\\\\\\\\\\\\\\\\\\\\\\\\\\\\\\\\\\\
" ,
1 6
us ammen
Ġwh en
ĠK ar
ĠJ ahre
ĠS o
Ġpro v
ou g
E R
ĠG eb
w er
Ġth row
ik an
a ir
t on
h m
1 2
Ġs el
ach t
e k
c ial
r ic
Ġ !
ĠC hr
form ation
Ġp e
aus e
Ġpro du
am er
D as
Ġ1 2
o y
S ch
n ah
A r
Ġst ud
ĠJahr hund
ĠK on
if f
ĠkÃ¶n nen
Ġzw ischen
Ġbe g
ĠK ir
ing en
Ġj ust
ĠM an
t es
- -
o us
Ġp ar
Ġf ol
ĠM us
i der
ar n
p en
Ġp h
Ġhe l
ĠF re
f all
in s
ir t
p ert
ĠTh is
ot h
qu est
os s
ĠO b
ĠT eil
ĠN ew
E r
le g
ent lich
Ġe tw
Ġth ere
Ã¶ l
ge m
Ã¤ hl
ug h
as h
) )
Ġin d
Ġ :
Ġne ed
Ġs eit
ĠJahr en
l i
Ġg r
U n
1 4
1 3
ent r
Ġwar en
u es
Ġb u
um ent
o id
iter atur
our ce
in a
ĠÃ ľ
f ter
hal ten
ĠU m
Ġre g
Ġv ers
ĠA nd
ĊĠĠĠĠĠĠĠĠĠĠĠĠĠĠĠĠ ĠĠĠĠĠĠĠĠ
Ġb o
p l
() .
R es
at ic
ĠG ra
ic es
Ġit s
Ġa g
b au
en de
Ġbe c
c re
g s
Ġthe m
Ġ *
Ġl ook
c o
gen d
Ġ <
Ġwh at
e p
Ġh ow
I d
en e
un k
ĠW elt
ĠP r
Ġin to
tr y
io us
Ġ1 4
ĠBer lin
h and
Ġg roÃŁ
eit s
eit en
rie d
m a
Ġf irst
il der
ex t
Ã¶ s
c ed
ran s
d ay
ĠS h
Ġin cl
v ent
Ġzur Ã¼ck
Ġd am
Ġf r
ĠT ra
ĠSp iel
Ġdies e
ge w
op le
ĠI nd
if e
is te
if ic
a gen
Ġ ra
Ġbe k
c ted
de d
ell en
l Ã¤
ĠB es
ĠB o
le t
w erk
ĠB r
" );
y m
c ess
ck en
sch en
Ġth an
ro und
nd e
Ġ1 3
Ġhel p
Ġw ere
I m
Ġh ad
Ġh and
au pt
Ġf inal
Ã¤ ter
en er
Ġ .
a um
st ra
is m
or g
le in
Ġwo uld
und es
Ġm ost
p iel
ro up
b o
ĠG er
ib le
' t
Ġm on
la ge
ot t
O N
Ġus e
f ul
() )
ĠB l
ur r
A l
Ġm ake
ad d
ar b
Ġbe im
ag es
en ce
ĠAr beit
ut ion
ĠJ an
neh men
V er
ĠJ un
ĠA ll
uch t
he im
schaf ten
ÃŁ en
Ġin st
Ġs ho
in ess
Ġd ann
ic t
g l
f Ã¼
re am
Ġun s
Ġm us
it ies
ĠM en
w ard
Ġth ro
ĠA ut
Ġh o
C h
ic s
Ã¤ d
Ġon ly
iv er
le x
ĠA ug
sch ie
ĠÃľ ber
ra y
Ġer sten
am es
ĠT r
ow er
Ġkn ow
at ive
Ġ )
() );
Ġ201 8
Ġe very
ĠN or
tell t
ul ar
Ġel se
Ġge hÃ¶r
c on
Ġw el
en den
v ers
Ġ! =
al k
ĠP f
ogra ph
Ã¤hr end
Ġer st
Ġw enn
Ã¶ glich
Ġpe ople
tern ational
ub l
ĠN ov
Ġl oc
c y
ĠO ber
al en
ĠZ w
p f
ĠB au
glie d
h ne
Ġb el
ĠC ar
Ġf ind
Ġw ell
Ġb ack
ĠC on
ĠSt a
ĠJ ul
ĠH and
us iness
ck e
i pp
p la
Ġd rei
urr ent
ier ten
ra g
Ġs et
Ġm ay
p s
p on
P ar
am t
en k
Ġcom m
Ġh ier
fol g
ĠM in
5 0
L ist
Ġg ibt
Ġk onn
en z
Ġg esch
Ġa ct
eb s
f ig
ist or
Ġ19 2
7 8
ĠGem einde
ĠM on
ra ch
Ġs upp
os ition
te xt
it s
und e
Ġp l
w n
Ġs he
Ċĉĉ ĉ
a id
b ach
ĠAr t
ĠE l
it al
ĠH o
Ġjed och
and er
ĠJahrhund ert
Ġge m
ien ce
ar m
Ġdes ign
ĠZ u
z w
âĢ ¦
G eb
Ġb re
Ġc l
Ġge b
eng th
em ent
un st
Ġer h
/ /
Ġcon s
o der
ru ck
uÃŁ ball
Ġd ire
ĠM ed
ster reich
am s
z ial
Ġg u
f r
Ġf Ã¼hr
me ister
L iteratur
e c
ĠE urop
ĠSt ud
z er
Ġd a
s o
iel t
ĠChr ist
ar r
ĠF amil
ĠP ol
sp ieler
Ġ X
as ed
Ã¼ t
Ġver y
( ),
Ġt wo
k l
re m
ru pp
Ġse hr
Ġg er
F or
ĠF ilm
an y
Ġm in
ĠY ou
Ġd r
sch e
ĠSt ra
v or
Ġv iel
ĠB and
Ã¶n ig
Ġyear s
ing er
ut h
s on
m at
rie b
o od
ĠAug ust
b ild
ch er
Ġv oid
O r
Ġc re
Ċ Ġ
Ġman y
ĠP e
Ġver b
au er
Ġweit er
ct or
il ity
ate g
vel op
2 00
ĠP erson
ab ei
Ġsp Ã¤ter
Ġund er
Ġi hn
Ġz e
Ġs m
i qu
ier e
ĠÃ ĸ
Ġas s
ĠB undes
eth od
O b
a kt
a j
um ber
Ġs ol
1 1
Ġdeutsch er
oug h
Ġ '
ur t
Ġt ry
ĠDeutsch land
Ġd own
V alue
Ġex per
it ed
Ġ Â
if fer
je kt
Ġthro ugh
iv en
for e
o int
tem ber
A T
ar s
ar ten
ie f
Ã¤l t
u z
k te
ĠO n
re g
ass er
ass en
Ġh igh
ro l
f o
r at
Ġetw a
Ġs ub
Ġin v
Ġth ese
Ġre m
u ck
lich er
schie den
Ġh ome
ment s
f ach
pr il
Ġad d
Geb oren
hal b
Ġan ge
ig ung
n ung
ct s
C lass
v en
Ġ3 0
et s
c ri
ein s
Ġp ublic
ĠM al
k er
o te
ch ts
erv ice
g est
ur z
ra d
lo ck
ich er
Ċ Ċ
I D
uÃŁ er
p or
ĊĠĠĠĠĠĠĠĠĠĠĠĠĠĠĠĠ ĠĠĠĠĠĠĠ
Ġa fter
ff e
is ion
ak ing
ĠN ational
it el
ĠNov ember
Ġsein em
Ã ¡
Ġ end
Ġg leich
ĠR es
B e
Ġre ad
Ġsein en
Ġh in
Ġbec ause
i or
schaf ts
ĠSe p
Ġn ow
ĠW h
ien st
lo ad
ag er
Ã¤r z
gr Ã¼nd
ir k
Ġch e
Ġf l
eit er
Ġ [
ol f
ĠF e
ur s
ho f
Ġs uch
un kt
ten s
ĠM Ã¼n
pon se
ĠGr und
v iew
un ter
ĠK inder
ost en
ĠB ei
Ġdies em
Ġz usammen
Â Ń
3 0
ar i
k a
) );
uf t
ĠJan u
ĠS c
Ġver w
Ġb l
Ġm ach
t il
ĠVer b
Ġm ark
ow s
Ġgo od
al th
an ts
re ad
ĠB et
ĠI s
ĠFran k
ĠSep tember
Ġse e
Ġim mer
Ġ Ð
hal t
Ġ201 7
ĠN ord
W e
ich ts
re ib
ĠH aupt
Ã¶ ÃŁ
Ġa c
sch l
Ġpla y
ĠM ann
ĠG roÃŁ
Ġber eits
ĠA pril
r icht
ot her
Ġlie gt
Ġw ay
b es
Ġst r
ĠPro du
Ġb usiness
. )
ste in
Ġst and
Ġc ol
is en
Ġm ed
2 1
ĠK l
M it
Ġde c
ĠA s
ĠV ol
Ġs om
Ġa v
ĠE nde
Ġein z
ĠK Ã¶nig
op h
Ġand eren
a ur
iz ed
Ġb esch
st adt
Ġpro f
E N
at ure
Ġwh ere
ĠIn st
Ġv alue
Ã¤ s
hr en
ĠP latz
Ċĉĉ ĉĉ
Ġg reat
Ġd ay
ur ing
Ġe igen
S T
Ġle tz
l ing
a den
us tr
ust om
le ct
st Ã¤nd
a ul
Ġon line
r or
M ann
Ġw rit
ult ur
Ġ201 6
Ġk eine
af f
es ter
Ġl ong
ze ug
al le
Ġf ree
g ang
m ar
he d
z ahl
ess en
Ġar t
Ġer w
Ġ ,
Ġp erson
Ã¼ tz
if t
iv ate
he l
ĠV ers
k reis
iv es
A t
Ã¶ff entlich
Ġfol gen
ar ch
ĠH aus
Ġ201 5
Ġer ste
w ick
Ġd el
Ġsch on
Ġte chn
Ġd ort
al ien
in er
as ch
u k
up er
es en
kt ober
Ġth en
Ġa kt
e g
ĠI I
Ġihr er
ist r
ess age
A R
s atz
ĠG ew
ĠA mer
Ġsel bst
ĠB ild
ĠM et
lic k
Ġev en
n ew
N ach
Ġwh ile
Ġwor ld
Ã¤n g
o in
al ity
ĠK unst
al if
Ġe m
ĠJun i
p art
ction s
Ġsch w
Ã¼n st
[ ]
ebs ite
Ġw ant
Ġc ar
ĠĠĠĠĠĠĠĠ ĠĠĠĠĠĠĠĠ
le ase
tr ib
ais on
issen schaft
ĠIn ter
Ġbes te
c ode
eb ru
f inal
ien d
o ver
Ġh ere
Ġv is
im p
v al
ke hr
Ġk e
Ġhe ute
Ġun ser
Ã¶ ch
T o
Ġkonn te
ĠI f
omm un
ĠS Ã¼d
oh ann
Ġo wn
Ġ2 5
f eld
ĠF r
la gen
mit tel
Ġ1 1
w ay
re t
ĠM ai
O R
gan is
Ġco uld
Ġse c
Th is
il it
Ġd iffer
Ġi hm
ĠĊ Ċ
Ġde velop
ation en
Ġst atic
Ġf un
Ġch ar
gr und
isch es
Ã¤n ger
b uch
pert y
ran z
ĠG l
Ġpro gr
S ie
Ġsho uld
ro ss
l ang
ĠB ar
ĠJul i
in nen
olog ie
ĠF ol
Ġs k
ĠO ktober
ĠF Ã¼r
Ġw en
iss ion
Ġs ur
Ġf amil
Ġ19 0
ur es
f ang
Ã¼ s
ĠC l
la uf
ĠH och
c a
L e
Ġv ier
ĠD es
ole an
ĠS er
w w
in o
in es
er y
f te
ut en
Ġ201 2
Ġf re
stell ung
\\\\\\\\\\\\\\\\\\\\\\\\\\\\\\\\\\\\\\\\\\\\\\\\\\\\\\\\\\\\\\\\\\\\\\\\\\\\\\\\\\\\\\\\\\\\\\\\\\\\\\\\\\\\\\\\\\\\\\\\\\\\\\\\ \\\\\\\\\\\\\\\\\\\\\\\\\\\\\\\\\\\\\\\\\\\\\\\\\\\\\\\\\\\\\\\\\\\\\\\\\\\\\\\\\\\\\\\\\\\\\\\\\\\\\\\\\\\\\\\\\\\\\\\\\\\\\\\\
Ġp ass
Ġver schieden
as k
A d
Ġs aid
ain t
Ġ201 0
ou ble
ĠM Ã¤rz
ĠJanu ar
ĠO ff
2 5
Ġk am
st ru
Ġ201 4
or ben
Ġt ake
ie b
Ġincl ud
sch lieÃŁ
Ġ201 3
Ġt eil
o gen
Ġin formation
cc ess
los s
Ġd on
Ġg ra
od y
olog y
ĠJ u
ein en
Ġus ed
Ġl ang
e ich
Ġne ue
ĠU r
in ce
ĠF ebru
Ġbe fin
he mal
ĠM ark
Ġ& &
omp on
ĠW erk
Ġserv ice
Ġst art
Ġo hne
Ġt rans
h ol
w alt
t ag
G e
z ember
al se
Ġ2 4
Ġall er
Ġ201 1
at her
ĠP olit
Ġb en
Ġtr ue
u ge
A us
Ġch ild
Ġm ade
ĠA t
Ġm uch
A N
ĠG ener
Ġ1 00
Ġbe fore
Ġe ben
om en
De utsch
Ġs u
w ahl
re it
Ġge f
qu ire
ĠOr t
Ġm od
Ġ ur
iv ing
Ġl ast
ĠS pe
Ġk lein
fall s
Ġw Ã¤hrend
č ĊĠĠĠĠĠĠĠ
rie g
Ġc lass
w ohn
as on
zeich net
amer ikan
um s
Ġ >
ĠC he
o ten
ed er
Ġd ata
ĠD r
ra ft
ĠKir che
K ey
ot s
Ġ $
ĠVer ein
ro p
z ie
Ġprov ide
Ġs er
le te
Ġp ol
ear ch
Ġres ult
b ahn
Ġ %
ĠJ ohann
un n
sch n
Ġdam it
Ġb ook
Ġst att
Ã¼r ger
ĠH ol
ĠW est
ĠPro f
z ent
Ġr ight
age ment
Ġi de
y l
Ġn ame
Ġl ife
Ġaus ge
Ã¶ st
ĠMus ik
Ġto p
ak es
S e
ater ial
A m
Ġf ile
ern se
z ug
Ġsp iel
== ==
ill ion
s g
Ġ200 9
o pp
Ġc ase
ĠDies e
ĠUnivers ity
ism us
Ġer folg
Ġand er
ĠL iste
ĠS k
oll ow
Ġst ar
Ġgr Ã¶ÃŁ
ĠLand es
la ck
ĠDe zember
f ra
hr er
w are
ĠF ahr
ĠF ried
Ġ x
ut t
ĠAmer ic
H e
Ġer sch
Ġp lan
f a
sh all
Ġbei den
A L
Ð ¾
le it
Ġ18 9
is k
Ġe as
Ġgen er
l ig
Ġe t
ĠCh ar
im es
ĠP art
4 0
Ġ200 8
R E
ail able
ĠAl s
ig te
8 0
om an
ĠMen schen
l en
ĠĊ ĠĊ
ach sen
il t
n ame
Ġbe ing
b and
ĠB uch
ber t
ĠW or
ĠAr ch
z u
out h
ist s
m ed
. ,
ĠV on
ĠGesch ichte
Ġf ound
m Ã¤
Ã Ń
app end
Ã¤ch st
Ġc olle
er b
Ġe ach
Ġd u
Ġc ustom
in ing
en der
Ġc urrent
6 0
ĠD urch
y le
2 2
rif t
mal s
Ġpr es
lin k
ĠG rÃ¼
ing le
tra g
ge d
Ġc le
b y
Ġc oun
Ġpro cess
Ġen g
Ġ200 7
Ġc atch
u ter
ĠRe ich
w end
ĠPh il
ten d
Ġihr en
s etz
at us
ĠS al
ell schaft
ĠM ich
ĠK n
ĠJ ohn
ĠUnter nehmen
ĠW ien
Ġj e
Ġg l
Ob ject
âĢľ .
ĠW ert
ranz Ã¶s
âĢľ ,
ip s
M ap
ĠL eb
t re
Ġdo es
c i
u ally
Ġof fer
B y
Ġthrow s
ĠD aten
Ġf est
ĠE ine
al ter
ĠâĢ ł
p os
fÃ¼hr t
v an
Ġe ing
o hl
ĠP er
19 9
ide o
all s
Ġe mp
ĠN ieder
is piel
Ġne uen
ĠS aison
g leich
Ġsh ow
Ġag ain
il le
Re quest
id es
I nd
Ġcomm un
as ter
es ten
ĠD ar
Ġdies es
ogra f
p ieler
Ġg ab
ĠMit glied
Ð °
Ġ ...
Ġz un
Ġd abei
ã ģ
Ġre al
Ġk ey
ĠP at
Ã¤t z
ĠVer lag
u x
ach e
ĠC o
ol um
ichte t
ig es
ĠA ss
ĠÃ Ħ
f ass
sp iel
ĠFebru ar
Ġl a
stra ÃŁe
st r
g ra
D ata
b ew
i us
ĠUnivers itÃ¤t
Ã¤ hn
th is
Ġl ar
ĠC omp
nah me
kt ur
Ġd id
ĠE d
Ġ u
ch s
ol v
ĠMit tel
ĠB est
Ġar beit
Ġwe ek
Ġ #
F ile
neh mer
Ġs ign
sch utz
we en
à ¸
le gen
M ar
Ġa round
al er
ir d
a ar
Ã¤nd er
Ġf rÃ¼
s w
l ength
ĠG rupp
Ġn umber
7 0
f ern
ĠY ork
w ays
ĠG u
ĠH am
um mer
ik a
g abe
Ġl og
Ġth ink
Ġp ost
Ġl ist
ĠReg ion
Ġbek annt
Ġ9 78
Ġdiffer ent
Ġl ove
us h
G esch
uf fer
Ġ200 6
la ub
ges tellt
Ġh abe
Ġv ar
ĠB ew
Ġc are
Ġste ht
sp ort
Ġb ed
iqu e
Ġt er
glie der
Ã¼n f
en ter
ĠH Ã¶
C ont
ch sel
ĠB ay
ĠSch ul
Ġm ar
ain s
az u
all en
itt le
Ġth ose
ĠN amen
b t
ĠK r
Ġdes sen
O ver
4 5
it zen
sch ule
Ġs ite
los sen
t he
om mer
n ess
cri ption
ĠMÃ¼n chen
ord s
k auf
Ġcre ate
E in
y r
ut es
h in
du c
a e
A s
le gt
ĠP rÃ¤
ĠW il
ĠL in
Ġb zw
los e
Ġp os
2 3
E D
Ġav ailable
ard s
Ġ5 0
Ġp ra
Ġp at
ĠW asser
ĠP l
le kt
u gen
k ommen
ir che
Ġe hemal
ĠR Ã¼ck
uf f
Ġc al
ĠD an
Ġs ystem
an gen
ĠW ill
ĠIn tern
f ort
ĠSchw ei
il es
re cht
uf en
Ġpla ce
ĠSt re
Ġent sp
Ġweit ere
i den
Ġpro ject
Ġche ck
A b
ĠR ad
ĠSch l
Ġr est
ct ive
Ð µ
ĊĠĠĠĠĠĠĠĠ Ġ
Ġfin den
Ġre ally
e te
ĠN atur
ĠFor m
ĠKar l
S et
ĠT od
ĠEn tw
Ġbu ild
ĠS an
ĠEn t
ĠB ut
Ġ200 5
Ã ³
T ra
b in
ran k
ĠLeb ens
an st
ĠW ohn
grÃ¼nd et
Ġbet ween
Ġf ollow
ĠMe ister
fahr en
ĠB ere
ab el
omm t
Ġg est
Ġs l
Ġ20 00
Ġus ing
Ġerh ielt
Ġb ring
Ġm ov
iv id
Ġbes onder
re en
Ġein ge
S S
Ġc our
ig ten
ĠT o
op e
ap an
Ã¤hl t
Ġh im
Ġn or
I t
ĠSt and
ĠV ert
Ã¤ ude
ĠF uÃŁball
schl uss
ĠM ag
Ġm oder
p unkt
it or
ĠA uch
Ġa ut
Ġan n
ĠPerson en
igh ts
it Ã¤
Ġcomp any
I T
ĠB as
Ġb oth
ei den
k on
Ġbe f
ch te
Ġs onder
Ġein fach
Ġs Ã¼d
de ut
Ġj ew
e ver
is hed
ĠW er
et ing
Ġo pen
ĠI hre
Ġor der
ra gen
Ġl o
P ath
* *
ur y
ĠM od
un ktion
N ode
ich ten
ro ll
or ts
Ġder en
c lass
ĠM ot
Ġg roup
Ġfr iend
ĠR o
r ide
p re
ĠB re
-- --
Ġt ype
Ġv iew
ro om
Ġ| |
Ġ2 1
Ġin ternational
Ġfamil y
hn en
he in
Ã¶r der
č Ċĉ
Ġn ah
im mer
Ġalle m
Ġexper ience
m m
Ġph ot
2 4
ar z
Ġfor m
e h
Ġf alse
ĠFra uen
al y
Ġne xt
Ġsonder n
sch ied
re uz
Ġsch ool
b um
Ġb ie
ĠW ir
Ġv iele
Ġd i
B u
Ġdeutsch en
rie ben
b ack
8 9
Ġst ill
ĠF est
sel f
Ġserv ices
im al
aus pieler
pr ess
geb iet
ann te
Ġob ject
a ÃŁ
st off
Ġh al
Ġw icht
Ġhe alth
Ġmon th
tell en
Ġ2 2
am ent
Ġb r
Ġm uss
Ã¤ us
ĠL a
om in
Ġim port
Ġ2 3
fer ence
Ã¼ ss
Ġ200 4
Ġsm all
z iel
Ġinclud ing
Ġf ew
Gesch ichte
7 5
Ġb as
Ġs ame
ĠS eite
Ġat t
ĠEn g
use um
an c
Ġand ere
Ġab s
D F
Ġv al
lass e
kt or
Ġp olit
ĠZ usammen
ck t
Ġsh ort
Ġdis c
et ail
n a
Ã¤ uf
de x
Ġer reich
Ġf ranzÃ¶s
L E
ond on
Ġg ut
tell er
ly mp
ĠB el
ĠC olle
ie g
Ġ201 9
our n
Ġn un
oll en
Ġc a
ess er
lo y
h a
in en
Ġbre ak
ernse h
w ig
ĠM y
Ġc or
Ġre quire
ubl ik
lass en
ĠB en
ame ter
Ġev ent
I f
ĠB Ã¼
ĠG o
ĠW ei
ĠT itel
ĠM at
ĠA pp
L eben
um e
nis se
o ot
gem ein
ig inal
Ġf ast
ĠT er
ĠL ie
ap er
G est
ath ol
ĠTe chn
A C
al es
ĠT ag
irt schaft
Ġg anz
am a
Ġsupp ort
Ġapp ro
ĠP re
ut ter
Ġbefin det
Ġk ein
C l
ĠK ont
Ã¤n ge
Ġm ember
av ing
d ate
Ġo per
ĠOr ts
Ð ¸
Ġcont in
ĠL eben
Ġf Ã¼nf
A M
m et
Ġp op
it es
p latz
ĠW ahl
Ġl and
an a
Ġre quest
Ġincl ude
ĠB ra
ck er
Ġden en
Ġex p
Ġd uring
Over ride
Ġle arn
it ter
Ġh app
d ings
k ten
ch es
it u
et te
ass e
Ġse x
oc i
l ess
M an
ĠEin wohn
ĠW ar
Gest orben
Ġte am
ĠIn ternational
g y
E lement
ĠC ont
Ġw ater
ur en
amp f
ir l
Ġprof ession
h af
le y
Ġm ust
en nen
Ã¶l ker
ĠP la
Ġr und
ĠS ohn
ĠF il
Ġf ull
ĠB ahn
ĠP ort
ĠFamil ie
Ġst ate
ount y
ĠK ap
iet y
um p
ĠK reis
Ġf and
as st
b l
h ard
Ġspe cial
Ġ2 6
h Ã¤lt
Ġf ield
U R
th ing
Ġwor den
Ġf act
Ġim p
Ġm Ã¶glich
w ork
U S
Ġper form
j Ã¤hr
ĠIn s
ĠBere ich
er st
Ġper fe
ĠL ist
ĠBer g
ĠGe gen
Ġbo olean
3 5
Ġer halten
sch w
gr upp
Ã¼ hl
Ġbeg ann
Ġg ar
tt p
c le
Ã¼ l
Ġzun Ã¤chst
t ing
Ġl ittle
Ġare a
9 0
M od
A ll
ar ly
oss ible
8 5
a el
W ith
ĠP aul
we g
y ch
Ġm ax
Ġre ce
ĠThe y
Ġc all
ĠN ame
Ġo ption
Ġal ways
ess or
Ġspe c
Ġro om
ĠP ark
ĠDeutsch en
h ung
ĠPro v
ĠE m
Ġlook ing
IN G
I S
Ġth ree
ĠB i
den s
Ġjew eil
Ã¤nd e
Ġ( âĢ
able d
Ġgo ing
Ġdar auf
ĠL ondon
Ċ ĊĠĠĠĠĠĠĠĠĠĠĠ
2 6
atur es
8 6
Ã¤ re
sch ul
F ield
ot he
Ġz ahl
isch of
Ġent stand
ĠD on
Ġch o
Ġ â
ĠH ein
em p
ir on
Ġ200 3
ic a
an ad
Ġdies en
ĠO st
ol o
ra um
lich keit
fÃ¼hr ung
Ġpart ic
ĠJu gend
o or
sp rÃ¼
it te
Ġs imp
k m
Ġeben falls
: //
ro s
ff en
Ġke ep
ĠFried rich
Ġsoll te
Ġne u
ĠS he
f ilm
en det
Ġre t
Ġe ffe
bild ung
ĠD em
Ġb il
St ream
Ġein ige
Ġm et
Ġsch n
ĠH ar
Ġ200 2
č ĊĠĠĠĠĠĠĠĠĠĠĠ
ho de
Ã¶ m
ne y
Ġk on
Ġg row
pr ession
Ġb ig
Ġh istor
A uf
Ġto o
w ert
Ġ2 8
ĠD u
b ed
ol ution
Con fig
te te
ĠM or
ĠD av
Ġm ethod
Ġis s
m us
ĠInst it
M e
< /
Ã¶ sterreich
iz ation
op f
Ġ4 0
3 3
Ġpro ble
O n
Ġs ei
ess e
o x
iv al
oc ol
ann ten
Ġto day
enn t
rie gs
is se
ĠH ans
Ġloc al
i at
Ġ2 7
rit t
g te
our s
j ahr
ĠN ot
ĠFran z
Ġwel che
g aben
Ã¼nst ler
Ġa uÃŁer
d orf
ĠH el
r sg
Ġ200 1
H and
D R
Ġm en
im at
I C
Ġb ro
ik t
ĠH ier
Ġfe el
Ġm ir
ĠF in
Ġ199 0
och en
Ġpro m
ĠOb ject
ur m
Ġj ob
ĠLand kreis
ĠWelt k
Ġor gan
ĠD re
pe ct
Ã¤ ll
ĠFra u
av a
ĠSp ort
re chen
Ġqu ality
ĠL ei
Ġp ay
uÃŁ en
on nen
ĠF ach
gr amm
v es
Ind ex
i am
Ġt yp
at ter
Ġetw as
ĠIn formation
Ġst or
y d
2 9
Ġ est
+ +
ĠS ystem
M et
id s
b ook
e qu
or ge
Ġth ings
Ġdeutsch e
č Ċ
Ġo ld
ĠN o
Res ponse
Ġletz ten
c r
sch rift
D E
ĠPolit iker
Ġander em
er ts
uch en
kl Ã¤r
an e
Ġent wick
Ġ18 6
Ġcom e
Bu ilder
O f
Ġs ure
ĠTh ere
ĠEntw ick
Re g
ent ial
Ġre lat
Ġch ange
U til
Ã¼ b
Ġg ame
ier s
j oy
omm and
Ġex c
Ġg ot
Ġc r
ĠF ot
ent en
ĠK om
Ġind ivid
hel m
T ime
et en
e le
ĊĠĠĠĠĠĠĠĠĠĠĠĠĠĠĠĠĠĠĠĠĠĠĠĠ ĠĠĠ
Ġ @
ent ly
ĠU nd
Ġwith out
Ġn eben
Ġs w
ĠP al
s icht
w ei
ĠC or
2 8
7 6
S p
Ġs ince
Ã¤ che
ĠH ow
f urt
i as
ĠJ e
ce pt
ver t
ĠS eit
Ġge l
ĠS il
um en
Ġver Ã¶ffentlich
Ġm al
Ġge ht
alt ung
ĠHer z
Ġe qu
Ġgew ann
F uÃŁball
f ts
7 9
imm t
ĠPar is
h ip
ul ts
ĠgroÃŁ e
Ġakt u
A S
our ces
uch s
c ing
Ġle vel
in ner
. "
ell er
Ã¶ t
it ing
te i
m ark
g o
ĠC om
Ġgem eins
fa ult
on es
gen ommen
Ġbe h
ourn al
Ġihre m
min ister
Ġcon ne
z t
ĠC ol
ĠM o
ĠM art
In fo
z entr
Ġin c
Ġo pp
I I
Ġs ay
3 6
ĠH al
ĠR ich
. âĢĿ
Ġst ark
us ch
ur ger
im ent
ĠAmeric an
ft ware
um m
eth ing
Ġw ei
Ġl ot
reich e
ĠPe ter
ĠS pr
g ar
M essage
Ð ½
ĠS el
ar get
Ġ Q
4 9
for der
Ñ Ĥ
ĠA lex
Ġk ommt
Ġin ner
ĠB ed
Ġeing es
8 8
ĠÃĸ sterreich
s ident
v Ã¶lker
m l
Ġc ost
g n
Ã¤ ft
af fen
ĠD a
ĠgroÃŁ en
Ġd azu
ĠKir chen
Ġf ac
S ervice
Ġ ?
ĠD orf
ĠC ounty
Con text
Ġl ine
ber eich
Ġapp lic
Ġwith in
Ġsec ond
Ġb ra
ill s
ile d
nah men
Ġhe ad
iz iel
Ġad v
ĠT or
Ġ2 9
Ġm ain
Ġh ard
3 9
Ġw ebsite
b et
ĠD o
ĠJahr es
ĠSch n
te gr
ĠUS A
Ã ¨
ĠVol ks
it ch
Ġqu est
Ċ ĊĠĠĠ
it ive
ĠFamil ien
Ġv oll
Ġab le
Ġf lo
ĠAus tr
Ġbet ter
D es
Ġbe aut
ges amt
Ġ199 9
E T
ĠP lan
se e
ĠB ro
Ġg ive
Ġimport ant
ĠB urg
Ġle ad
Ã¶glich keit
trib ute
Ñ Ģ
2 7
D ies
Ġm ind
Ġp ower
Ġver l
z el
Ġr un
4 4
il y
I ON
ĠS m
ur ation
um er
ĠBe g
au g
ĠSta ats
Ġl assen
ig ital
ĠB esch
ĉĉ ĉĉ
ĠgehÃ¶r t
ĠFol ge
em s
ur o
ut s
Ġg ing
Ġprodu cts
ĠC ity
v alue
Ġpro te
Ġp ers
il ome
Ġer r
ĠB Ã¼rger
gesch ichte
um an
ies en
z ogen
Ã¤ mp
Ġ199 8
ĠD is
ĠH il
if ied
st Ã¼tz
ĠHer r
ateg or
Ċ Ċĉ
Ġs ize
Ġd ays
ilit Ã¤r
Ġd ating
ĠGem ein
ind ung
w or
equ als
icht ung
Ġm Ã¼s
c ont
h am
Ġacc ess
z ig
ut ure
pr ivate
on y
Ġhat ten
ĠT our
amerikan ischer
ĠJ ose
s ych
ĠA ir
Ġlar ge
Ġauf ge
rit er
w ar
ĠG en
A P
Ġd ouble
ĠO lymp
! !
k ey
ĠRe chts
ĠAn t
ist ory
4 8
ĠK ultur
sp r
teil ung
In st
Sie he
ĠWor ld
igkeit en
g ument
ĠS outh
Ã¤ h
Ġle t
Ġd ist
Ġho use
d ienst
ograph ie
Ġh ol
Ġnah m
ub e
Ã¶r per
Ġsom ething
il ter
O Exception
Ġd och
ĠM ain
Ġre f
iv ed
Ġall en
5 5
Ġbe zeichnet
f re
Ġwork ing
W h
ĠI hr
th row
heit en
Ġspiel te
Ġ20 20
Ġstud ents
Ġe ff
sh ip
mÃ¤ ÃŁ
ĠW ind
ĠTe am
Ġs uper
ĠP reis
ĠGrÃ¼ nd
ĠGener al
ar l
ĠD ire
el te
Ġinter est
Ġin cre
S h
Ġinv est
ĠK at
B er
st re
d ing
Ġt ro
ĠM ay
ĠAl t
ĠR ed
ĠR u
Ġb rit
ĠL u
Ġsch lieÃŁ
eng l
w est
ĠB ad
oug ht
ĠSch rif
Ġersch ien
E S
Ġt urn
ag s
rit ten
3 2
am b
fol ge
ĠFor sch
ã ĥ
ĠI l
ah men
ĠEin satz
f ert
Ġchild ren
ĠW ith
Ġt est
Ġc ert
ir m
Ġm ult
ĠâĢ ĺ
ĠB rÃ¼
as es
ne te
ĠFl ug
en a
ur ity
Ġan other
E s
d ruck
ĠSta aten
Ġwe gen
Ġl ink
4 6
ĠSch auspieler
rÃ¤ ger
ch ten
yste ms
le tz
Ġeas y
Ġh och
for d
Ġen joy
ĠNor th
En abled
ic ally
if y
Ġad dition
Ġw Ã¼r
Ġre l
Ġzw eiten
Ġher aus
Ã¤ m
ar a
and s
o ung
de te
ic y
Ġbu y
Ġp age
if ul
ge ord
om as
ik en
Ġl ight
uch te
ĠB ern
in c
un t
t ocol
ĠT re
ĠĠĠĠ ĠĠ
Ġm ein
ĠMich ael
) :
n ot
Ġmus ic
aj or
Ġm ich
gan gen
Ġa ir
Ġa uth
ĠâĢ ¦
Ġres earch
ab ility
.) :
ĠK ais
Ġex ist
H rsg
Ġne ver
R O
Ġn ational
de utsch
schn itt
ach en
sch ein
7 7
Ġ199 6
Ġ194 5
Ġste hen
m ut
En try
ĠA f
entr al
op s
Ñ ģ
ic le
\\\\\\\\\\\\\\\\\\\\\\\\\\\\\\\\\\\\\\\\\\\\\\\\\\\\\\\\\\\\\\\\\\\\\\\\\\\\\\\\\\\\\\\\\\\\\\\\\\\\\\\\\\\\\\\\\\\\\\\\\\\\\\\\\\\\\\\\\\\\\\\\\\\\\\\\\\\\\\\\\\\\\\\\\\\\\\\\\\\\\\\\\\\\\\\\\\\\\\\\\\\\\\\\\\\\\\\\\\\\\\\\\\\\\\\\\\\\\\\\\\\\\\\\\\\\\\\\ \\\\\\\\\\\\\\\\\\\\\\\\\\\\\\\\\\\\\\\\\\\\\\\\\\\\\\\\\\\\\\\\\\\\\\\\\\\\\\\\\\\\\\\\\\\\\\\\\\\\\\\\\\\\\\\\\\\\\\\\\\\\\\\\\\\\\\\\\\\\\\\\\\\\\\\\\\\\\\\\\\\\\\\\\\\\\\\\\\\\\\\\\\\\\\\\\\\\\\\\\\\\\\\\\\\\\\\\\\\\\\\\\\\\\\\\\\\\\\\\\\\\\\\\\\\\\\\\
> >
Ġcomp lete
ĠHo tel
ĠI ch
Ġ198 0
ĠR uss
der s
e hen
ĠSch ool
ost er
ĠS eiten
ĠU hr
ĠAn fang
rit e
in ks
ĠG ren
h le
Ġd an
Ġw est
ograf ie
ĠF ar
Ã¤t ze
Ar ray
lat t
v iron
ver n
fÃ¼ g
Ġk ommen
ra cht
w ort
Ġmehr ere
. âĢľ
P erson
ge ther
Ġco ver
Ġbeste ht
Ġprogr am
Ġ( !
tr Ã¤
ort un
Ġab ge
B ei
le ine
l og
an te
ĠSt r
Ġm aking
tel le
ĠT ext
Ġpra ct
oc ument
Ġ199 7
k irche
Ġs af
lie b
az z
Ġerst mals
Ġw omen
Ġp ict
ĠO l
Ġmach en
Deutsch er
Ġt re
Ġde fin
Ġmark et
ag n
ĠW ebsite
d ie
3 4
oc us
Ġneed s
Ġact iv
ra w
; ;
N ot
ĠS en
Y ou
ion al
Ġm ight
Ġk urz
sprÃ¼ n
ĠW ald
Ġge grÃ¼ndet
ĠGe org
Ġc reat
Ġ6 0
h Ã¤ng
9 9
w elt
un ch
om at
Ġp ut
a uch
gr iff
ĠF er
Ã¼ ll
Ġse arch
pert ies
Ġer ne
ganis ation
Ġsein es
haus en
ur f
A nd
ĠE nd
un ft
ut ions
ĠEinwohn er
an ten
Ġb ased
Ġin it
Ġf ood
Ġ ident
Ġh inter
ĠSch loss
Ġl aw
ĠW inter
ĠR ahmen
ĠD i
Ġcon f
In ter
w issenschaft
le i
ĠOn line
b el
ĠG old
Ġim pro
ag o
Ġde v
den k
Ġp ort
w and
onder e
is iert
Ġe d
ent al
Ġk m
uch e
ã Ĥ
Ġan t
utz t
3 1
8 4
ĠHam burg
Ġc ap
Ġden n
th ers
Ð¾ Ð
op er
ĠRe c
ik el
ĠZ ug
nah m
os en
Ġd av
ĠNe u
{ @
Ġv ideo
' m
ï ¿
ĠR aum
ĠC lass
ĠL auf
Ġl at
Ġto t
Ġtra dition
L O
Ġinst ance
ward s
E C
ĠM ax
ig a
ĠR ei
7 4
ĠBe ispiel
Ġperfe ct
pt y
s ize
h ere
ra che
Ġaller dings
ib li
Ġres p
ĠF eld
p lan
Ġd ah
ĠD ienst
z y
Al s
le ben
l Ã¤nd
Ġ3 1
Ġn on
ĠS ol
ĠN eben
och ter
Ġle g
Ġse ver
Ġ199 4
ific ation
la v
ilome ter
z irk
ain er
ĠA kt
Ġp ack
ĠK o
f el
em pl
ĠO ur
ĠF all
ĠBet rieb
ĠEr n
Ġn et
ĠG ar
ĠG ed
ĠZ iel
Ġverschieden en
ĠI hnen
Ġ199 5
Ġverw endet
ok en
19 6
ĠD ort
amp le
ĠfÃ¼hr te
Ġsu ccess
pla y
te ger
ct ure
Ġcons ider
Ã ĸ
reich en
Ġperson al
Ġk omp
is ing
s b
Ġof t
ĠC omm
ier ungs
il la
and id
ĠR oman
irt schafts
ĠChrist ian
Ġs ingle
ver b
ord ing
P r
pr Ã¤s
ĠWe g
l ungen
Ġwor ks
Ġhe ut
Ġre view
Ġprodu ct
ĠGrupp e
ober t
ĠD at
ĠZ ahl
p end
ĠWil helm
ire d
3 8
zeich nung
5 6
G roup
we is
a pe
n ungen
3 7
etail s
Ġbe w
c er
d f
ein ander
ĠEr st
Ġ197 0
j a
ul ation
Ġgen annt
Ġtr at
ĠgehÃ¶r te
in ation
gem einde
af Ã¼r
V al
lich es
part ment
viron ment
v ious
L oc
ĠVer walt
ĠL ud
ab or
Ġt ext
al ten
St ate
ab l
ĠH eil
ĠâĢ Ķ
ĠJahrhund erts
Ġg rÃ¼
ĠB rand
C O
U N
b aut
ĠR el
leg al
ĠUn ited
ĠI de
st Ã¼ck
Ġe duc
Ġcommun ity
ĠIntern et
# #
ĠEn gl
st ants
Ġal ong
g ing
Ġs tell
ar ing
ĠS oc
Ġas k
ĠD en
schlieÃŁ end
read y
Ġs etz
grupp e
Mit glied
b ei
Ġo pt
Ġt able
is ed
ĠT yp
ĠH ome
m b
ĠSp ieler
č Ċĉĉ
ig ent
og le
ob al
ser ie
Ġf our
Ġfe atures
Ġeigen en
F ilm
ag ue
l ow
S o
ĠS ommer
er in
ĠS ervice
ĠK Ã¼
Ġwe il
os p
i ate
Ġb it
19 0
tre ten
Ġ18 0
ent ion
ĠS Ã¼
bes ondere
ar te
ob il
reib ung
Ġl ess
Ġb ody
ĠfÃ¼hr t
' re
Ġb le
Ġcon c
Ġt Ã¤t
ab ly
f red
Ġm atch
==== ====
, âĢĿ
att ung
Ġse chs
g ie
ult ure
us Ã¤tz
ĠM ont
gr ess
l le
con om
" .
S c
Ġto gether
ie gel
Ġdire ct
ĠF rÃ¼
ĠEurop a
Ġ199 2
f ield
Ã¶r d
Ġ199 1
st a
Ġr ange
n ull
ĠM illion
' ve
ĠMe ter
ĠP ass
ĠE he
S er
Ġre p
unk te
Ġw all
at Ã¼r
m on
Ġvis it
ĠH istor
m od
Ġst at
G ibt
Ġdown load
ĠO per
Ġwe chsel
ĠSte in
ĠPro zent
ĠSe e
ĠD abei
ĠLe ist
icher heit
Ġ Ã¶sterreich
os oph
u el
ĠB y
le v
ge ber
ĠZ e
we hr
C H
Ġt reat
P h
al og
s c
us try
Ġ196 0
5 9
ob ei
Ġse hen
Ġfin det
Ġk ind
N e
es ent
ĠT ro
ĠV ater
Ġl ange
sk i
ou p
ĠDav id
ĠLei p
Ã¤ ss
au p
Ġpro perty
8 7
ĠP ress
l am
ĠS itz
Ġp oint
ĠDes ign
amm lung
Ġa way
v ille
ĠH of
ĠMit te
i od
ĠM Ã¤n
ĠA g
Ġoff ers
b ol
Ġdire kt
, "
Ġweit eren
ie ve
Ġw eb
Ġg ilt
stell en
ĠArch ite
ĠmÃ¼s sen
A G
Ġein mal
Ġex tra
ĠHein rich
p ublik
ĠGeb Ã¤ude
Ġp ath
O T
ĠE p
re ch
ab r
ĠR om
ib r
] ;
Ġ199 3
Ġle ft
av or
Ġdevelop ment
E m
Ġagain st
Ġf ar
Ġst yle
Ġbel ow
Ġunder stand
iz in
ĠEntwick lung
S ize
ĠJ o
ĠM er
Ġen gl
Ġl ive
ĠE ner
s weise
Ġte ach
ĠB rit
d es
engl isch
v ed
h end
k n
Ġjeweil s
ĠP ost
c ent
Ġres ponse
ĠR hein
ran sport
ĠF unktion
Ġcle an
Ġn a
ĠSch m
ik ation
f s
ĠW olf
id ge
Ġcont ent
ĠJ ust
ĠJ apan
Ġun til
Ġall ow
ĠT ochter
Ġunter schied
Ġbeaut iful
Pro perty
ĠHÃ¶ he
E M
geb aut
Cl ient
Ġp ossible
id ing
ran ken
Ġn atur
ief ert
ĠHol z
ge f
ĠO p
ĠE uro
Ġp ast
ĠK Ã¶l
le hrer
Ġdav on
de b
ĠSt ate
Ġn ight
ĠN r
ĠS w
Ã¤ fts
ac ter
ĠM a
la us
Ġcont rol
n ov
ĠRe gel
ian s
P re
ĠPrÃ¤ sident
Ġmus ste
ĠProv inz
ĠT urn
ĠC as
Ġim age
Ġen ter
ĠFrank furt
unn ing
Ġbesonder s
ist ischen
ob ile
ĠMart in
Ġall es
Ġof ten
ur ance
ĠEr z
7 1
ing ton
ĠEr w
st ant
ĠG el
Ġ( (
Ġof fen
f an
Ġw obei
Ġl im
g art
Ġm ot
ver ein
Ġal ready
f ace
Ġbie tet
ĠStra ÃŁe
ĠGeb iet
ure d
ĠPro ble
Ġso cial
Ġarbeit ete
re if
Ġcour se
ĠEin zel
teil t
to String
Ã¤t te
ĠTh omas
ĠM c
Res ource
ĠR olle
ill er
Un ivers
ï¿ ½
Ġ ens
Ġstud ierte
. :
7 2
o o
Ġ Ã¤l
Ġmon ey
Ġfolgen den
ĠMit glieder
ĠGra f
A D
i os
ĠMit arbeit
Ġo cc
lich t
Ġb in
ĠS ex
ĠB ilder
od es
z a
T r
isten er
a it
i ol
ĠT ex
Ġg irl
Ġdel iver
Ġinner halb
id ay
Ġj etzt
Ġwh y
Ġopp ortun
Ġs ide
qu e
ene f
Ġb rand
Ġin tern
ĠEurop e
ĠH igh
ĠS am
Ġl ov
U T
Ġ20 21
Ã¤r en
Ġfollow ing
ĠP ra
wend ung
ĠOb jekt
ĠL uft
ĠO ne
og n
Ġm akes
pro du
ann el
iv ision
h Ã¶
ĠK lein
ĠW hen
Ġsp ace
olo ge
Ġh aving
ĠK ommun
Ġen c
ĠBer uf
fe hl
shall er
" )
Ġ _
Ġf ocus
Ġp ubl
w ie
ĠD am
ĠI OException
k o
ĠK ant
ĠFrank reich
L A
ĠGes ellschaft
sche id
T e
pr Ã¤
ĠW eb
Ã¼t zen
ĠtÃ¤t ig
s ide
he ther
op y
Ġme et
M ethod
ei le
es ted
cri pt
ord in
ors itzen
Ġn ieder
ader s
ĠR est
her r
cr ib
L iefert
ab les
le ist
iv ely
h an
V ers
ra b
ĠSt utt
f est
Ġbec ome
ĠLud wig
ĠN Ã¤
t ain
ĠK rieg
ĠM useum
ĠE isen
ĠAnd re
in i
Ġcon dition
ap s
Ġpr ice
Ġ ess
te chn
st ag
zeit ig
8 3
Ġb ar
Ġc ity
Ġs on
ĠK omp
ĠEr geb
ĠW ie
ĠThe ater
Ġcont act
Ġemp loy
ĠF C
ac y
Ġp ot
Ġ198 9
Ġlie gen
Ġins gesamt
Ġm ag
Ġdes cription
Ġm aterial
am mer
w irtschaft
ĠF ir
act ory
ĠInformation en
red it
8 2
Ġcol or
4 2
Ġp lease
ut or
ts teller
Ġt imes
is on
ĠBe vÃ¶lker
C ode
ĠM utter
ĠSchwei zer
F rom
Ġw ind
und er
Ġac ross
Ġ198 8
ĠL ang
< ?
Par ameter
Ġjed er
ch an
Ã¼r z
ĠÂ »
al itÃ¤t
ĠS ein
eit ung
Ġme isten
h or
Res ult
Ġviel en
Ġcom es
Ġges am
ĠArbeit s
O ut
ĠT rans
Ġkonn ten
Ġ ir
ĠMar kt
b an
ak en
t ype
ĠTh ese
Ġk leine
etz ung
Mar shaller
ĠT age
Ġit alien
Un ter
Ġur sprÃ¼n
g lichen
ok ument
ĠkÃ¶n n
Ġauf grund
ĠP ap
ĠCh ina
tell ung
Ġe lect
Ġer n
id d
au en
A pp
richt ung
Ġqu ick
rÃ¤ gt
la u
ens ion
Ġbeg inn
Ġind ustry
ĠK Ã¼nstler
ĠB ru
im men
Ġpr ivate
is ierung
Ġs im
Ġh Ã¤uf
ĠU l
Ã¶r t
lie gen
Ġsever al
w Ã¤r
ber ger
ĠPf arr
v oll
om et
Ġgo vern
ĠS eine
le ge
EN T
Ġklein en
Ġcal led
7 3
Ġn Ã¤ch
Ġent fern
Ã¼ gel
Ġze igt
Ġpres ent
5 4
er m
Ġl ow
ck s
age d
ka dem
Ġre port
i ber
Ġm om
ĠM Ã¶glichkeit
Ġget ting
Ġre du
ĠH ann
Ġgegen Ã¼ber
Ġuns ere
8 1
u h
ĠB ischof
ĠW Ã¤hrend
ĠR obert
I M
ĠA p
ĠK ind
olum n
ĠM ore
a pt
b s
Ġet c
ar ian
ĠN utz
ĠPro jekt
ar ed
ic o
Ġstud y
Ġadd ress
Ġp osition
yn ch
ĠMin ister
Ġcoun try
ĠKais er
ibli othe
Ġth ough
lig a
E L
Ġe ver
reib en
Ã¤s st
ĠS uper
ĠB lack
' ll
ĠSo zial
F Ã¼r
Ã¼ ler
ĠK e
ub s
Ġto ol
ĠC r
Ġz we
Ġm ajor
E igen
ĠMillion en
Ġd afÃ¼r
č ĊĠĠĠ
âĢ Ķ
ĠStra ÃŁen
or m
Ġschn ell
l ungs
ett bew
ĠS and
fl uss
ĠZw eiten
tocol Marshaller
it ten
ro du
geben en
land s
ĠK ompon
itz er
Ġerfolg te
Ġprofession al
Ġn Ã¶rd
ĠL og
it chen
ĠK ilometer
ĠC al
ze pt
ou d
Ġcomp an
ĠDies er
row n
put Stream
ĊĠĠĠĠĠĠĠĠĠĠĠĠĠĠĠĠĠĠĠĠĠĠĠĠ ĠĠĠĠĠĠĠĠĠĠĠĠĠĠĠĠ
te ile
ĠAr ray
Ġex ec
Ġc los
pp er
Ġme ist
Ġth ing
ĠK reuz
Ġ195 0
O ption
P D
l v
ĠE is
ĠLeip zig
ĠAl ter
Ġsh are
a ction
Ġ( )
em a
For mat
ĠschlieÃŁ lich
Ġ8 0
FuÃŁball spieler
ĠSt art
r Ã¤n
pla ce
ann ot
.. ..
Ġ Ã¶ff
Ġin tegr
ĠP DF
ein t
Ġinst all
is c
ĠE mp
ĠLe hr
Ġ198 6
z Ã¼
ĠK ur
ĠH all
uf act
4 3
Ġverschieden e
Ġsich er
ri x
co ver
Ġc amp
ĠGer man
h men
Ġstar ted
a iled
ĠS a
ĠNor den
le ction
Ġy oung
j et
ir at
Ġres ults
Ġoff ic
Ġmoder n
ĠSel bst
Ġkn own
ww w
F A
on a
Ġunser er
ĠB ur
ric t
mb H
le b
Ġd est
Ġme ans
ĠColle ge
ĠH en
ĠT est
ver band
Ġmember s
erk e
l as
et ter
ĠT V
Ġb enef
ompon ent
Ġo ber
Ġan s
ĠProf essor
- ,
Ġus er
und s
ra u
al ys
Ġde ut
ĠT op
Ġb lieb
Ġer m
9 5
Ġd one
Ad d
Man ager
il s
ĠMe hr
Ġj oin
ĠDeutsch e
Ġs ett
fahr t
Ġent ry
ktion en
Ã ľ
it ze
Ġs og
ĠInd ustr
il er
Ġle d
alif orn
res h
Ġeinz el
Ġfriend s
Ġar ch
c el
Ġp ie
ĠFl or
V or
A B
b re
Ġb lack
Ġe lement
Ġfor t
Ġbl og
W ir
pr int
v is
E vent
" :
Ġl Ã¤sst
Ġh om
Ġspec ific
led ge
ĠStutt gart
Ġbis her
I L
ĠMet hode
ĠHe imat
itÃ¤ ts
y er
sp ir
ĠAm t
Ġse ason
Ġs ource
ĠMar ia
ĠM ap
ĠW al
Con ne
as tr
Ġser ies
pe cted
ĠB eit
ĠAl bum
ĠWeltk rieg
O S
ast ic
Ġproble m
I mp
ĠÃ¼ber nahm
Ġ198 7
ist ische
Ġph ys
ĊĠĠĠĠĠĠĠĠĠĠĠĠĠĠĠĠĠĠĠĠĠĠĠĠ ĠĠĠĠĠĠĠĠ
ĠG et
ĠBeg inn
Ġk ur
un e
ge gen
Ġwicht ig
es tern
ang es
ĠR ock
Ġwechsel te
Ġs pr
ĠL es
L og
ĠC oun
ĠGesch Ã¤fts
Ġin dex
ich ter
Ġ198 2
Ġtechn ology
ĠR ot
ok e
Ġsow ohl
wo od
ĠC D
b est
ĠR ichtung
Ġ Ã¤
ĠW enn
rif ten
Ġprov ides
Ġt alk
Ġc la
ĠM os
Ã¶st lich
T ext
ĠT Ã¼r
ĠSch iff
it en
Ġwo hl
b ank
em in
ernseh serie
ĠW ieder
ĠSp an
Ġn ord
g in
ĠM il
ĠH ers
Ġst ory
Ġ(âĢ ł
z ess
Ġle b
for sch
6 6
stell ungen
ar en
ir chen
ak er
Ġ197 2
ĠH inter
Ġun ique
p iele
c ome
te mp
ĠJ ournal
ĠSch ule
deut ung
ĠL iteratur
Ġins besondere
Ġeng ine
ĠWh at
ci ally
ĠĠĠĠ ĉ
ĠO t
af en
ym bol
Ġdesign ed
4 7
w agen
iv at
Ġr ule
Ġso zial
ĠIl legal
ĠB ank
Ġz eit
4 1
Ġgemeins am
Ġ id
ĠSt ar
Util s
Ġs en
ell ing
Ġor iginal
s erv
Ġapp ear
ĠT al
fÃ¼ ll
ĠG eld
ĠS im
Ġmod el
S pe
ĠProdu kt
s etzt
Ġn ie
St and
Ġp urch
ĠSch utz
arbeit en
tel s
Ġ198 4
Ġwrit e
Ġc ur
ĠW ochen
ĠSchwei z
ĠMann schaft
h as
Ġm Ã¶ch
de ck
Ġo thers
Ġgeb oren
Ġwen ig
z immer
end s
ent wick
ĠG mbH
ĠIn sel
Ġvor hand
itÃ¤ ten
Ġerne ut
ĠSt Ã¼ck
Ġsimp le
b u
ĠF ile
5 2
ĠF Ã¼hr
C ount
Ġm ass
il ities
Ġn am
je kte
ĠBo den
Ġen er
uÃŁer dem
Ġnor mal
w ald
ĠAut or
ict ion
Ġc ent
anst alt
d a
id el
ide os
es te
ĠSchrif tsteller
i ents
Ġd ate
ol den
Ġbes ten
Ġbuild ing
z i
ĠV ier
ag ing
ĠM el
ĠK le
Ġacc ount
ĠD el
ver kehr
ĠF el
T yp
N ull
Ġoff ice
id a
Ã¶s ung
Ġd at
ium s
Ġan geb
ĠKÃ¶l n
Ġa ff
Ġal ten
b urger
ich en
Ġem ail
M L
app en
n am
ĠK riegs
5 8
Ġhe i
opp el
Ġz usÃ¤tz
Å ¡
ide d
Ġvers ion
t ime
ĠW issen
ĠR em
p reis
Ġze hn
ĠW eit
Ġgew Ã¤hlt
Ġstr ateg
ak ter
oin ts
D ate
Ġc lose
ĠE v
ĠMot or
ant wort
Ġrel ations
ern er
Ġn atÃ¼r
Ġe y
g round
em per
Ġhin aus
Ġh erv
P S
ĠTh at
En t
d o
ic ro
be k
Ġh ours
Ġerreich te
L and
Ġ197 4
Ġw atch
Ġl iving
ĠF inal
5 7
ĠD own
Ġen ough
Ġfr ont
ĠK lasse
par e
Ġp ur
st it
Ġg an
( (
ĠH or
ul es
ĠC enter
Ar gument
Er ror
Ġna he
_ _
o on
ĠS ub
ach ten
Ġge lang
Ġf il
ĠB u
get ragen
air s
ĠK urz
Ġ198 5
Ġ7 0
Ġf uture
ĠSp iele
Ġtra vel
Ġeinges etzt
Ġk l
ÃŁ t
Ġen vironment
Ġcompan ies
ĠI D
Ġl inks
Ã¶ ÃŁe
U r
Ġzw eite
ĠSÃ¼ den
get Name
Ġ197 9
ĠFuÃŁball spieler
Ġd eb
W elt
ĠP res
Ġj a
Ġindivid u
ĠD om
sch lag
Ġr icht
Ġle ben
ĠD enk
ĠP an
ĠDe c
9 6
ze uge
ĠBay ern
ĠEng land
ĠG od
um ents
uch er
B au
ĠZ ur
++ )
ĠP osition
Ġbe vor
ic ation
Ġcustom ers
gr am
e ter
m ost
Ġh ttp
ĠZ Ã¼r
ĠReg ierung
v est
w eit
Ġc ard
ĠAn geb
E ine
s ub
Ġe arly
ern en
Ġm essage
ip l
ĠHo use
Ġb lock
ste lle
Ġ198 1
b or
Ġst amm
Ġa ud
ĠL ou
ĠReg ie
Ġinstance of
Ġs ug
zeich en
O L
ĠG i
ĠI mp
mann schaft
Ġoption s
or ed
ĠZ eich
Ġver m
in dex
Ġre pr
an ces
Ã¤us er
h aupt
ul a
ĠZ we
Ġver st
5 1
C om
ĠM aterial
if iz
St atus
Ã¤ch lich
ĠMal er
Eigen schaft
me e
im a
ĠIt alien
ynch ron
f ung
k i
ĠW irtschafts
av en
lÃ¤ uf
Ġg re
if fe
amer a
Ġpop ular
Ġer klÃ¤r
Ġm at
ĠF rei
Ġre por
zeich nungen
Ġn ichts
Ġc ode
Ġver kauf
iz ei
Ġmed ia
Ġc m
Ġevery thing
ĠZw ischen
Ġdah er
Inst ance
B uffer
und heit
ĠR os
ĠV al
ĠAr m
ame ters
ran t
g Ã¤n
Ġl ik
ain ing
Ġvar ious
Ġh istory
Ġ198 3
ĠB is
ĠG rand
op t
zie h
an ks
Ġ{ @
ym n
ĠOlymp ischen
ien s
Ġihn en
im ate
Ġst ra
Ġman agement
V on
Ġsoll en
Ġide as
Ġh uman
ĠH a
ell s
= "
Ġw onder
Ġme an
ĠB aum
am in
ĠH in
throw s
r ist
rie f
Cont ent
ĠS ong
5 3
ĠAn zahl
Ġf ilm
ĠB or
Ġc oup
ĠLe ague
Ġgen au
Ġ197 6
P ack
f asst
auf en
Ġf it
E nd
Ġw on
Ġm iss
ĠI r
s uch
b Ã¼
Ġh Ã¶ch
ir es
ĠS erv
as ing
F actory
ã Ģ
er ing
ĠS aint
rach te
Ġrequire d
g ent
Ġzw ar
Ġtra ining
Ġw alk
Ġra d
Ġo p
al z
Ġst ay
U L
Ø §
Ġw oll
ĠVer kehr
ĠPar tei
it le
ro t
Ġ197 5
ish ing
N ew
Ġs n
te id
ĠP ers
ad s
ik on
I P
ĠAss oci
Ġfolgen der
Ġehemal igen
ab y
ho ck
U p
ch ter
ĠZ entr
ĠD ruck
A ccess
or gen
Con stants
end ing
form at
Ġf ur
Ã¼r t
ges etz
J ahr
es tens
ĠJ ames
Ġhand elt
ag t
C he
fin ition
schul lehrer
Ġr en
ĠBe deutung
Ġbeste hen
Ġk osten
fl Ã¤che
cre ate
hl en
ichte te
I ch
Ġd re
at is
um b
Ġfe ature
wo hl
get S
an o
ion en
ĠO pen
bar en
ĠM ad
Ġth ought
ĠO ut
Ġpartic ular
l ast
ĠC ommun
ĠChe m
pp ing
ĠGe f
Ġbest and
S eit
6 4
u age
Ġy et
Or t
Ã §
Ġne ar
Ġdisc uss
ĠSt ates
At tribute
och e
yn c
ikan ischen
Ġ Å
ĠJ ack
ue ck
Ġ196 8
ĠM ass
ĠK or
ib ility
e ded
im s
Ã¤hl en
Ã ¢
ol a
der n
m el
t ler
re icht
Ġzahl reiche
r am
ĠAn gel
ger ufen
um n
Ġcomp uter
un ction
ay er
rich ten
z z
ĠW el
is es
an cial
ung sp
ge geben
sche ch
Ġentsp rechen
Ġcon fig
Ġ197 8
ĠII I
n ers
z us
ĠM ilitÃ¤r
ute t
Ġerr ichtet
ĠP et
ist ry
ab hÃ¤ng
Ġr uss
ĠRe v
ip le
Ġperform ance
b ie
Ġbest imm
Ġloc ated
it a
ord nung
ĠJun e
ĠO sten
ĠAn n
val id
le men
get C
ok al
fÃ¼hr er
ĠCl ub
Ġm em
Ġon ce
W hen
Ġsog ar
ĠE hren
Ġbe de
ist ik
Ġact ually
Univers itÃ¤t
Ã¤ ischen
ĠW esten
sch eiden
ĠAn ton
---- ----
ĠhÃ¤uf ig
1 00
Ã¼ hle
Ġw ahr
ĠSt Ã¤d
Ġge ben
Ġ9 0
Ġwel ches
Ã¼ ter
ach er
Ġerfolg reich
Ġtot al
Ġm acht
Ġam er
Ġ197 3
yn am
z ir
ĠB ook
ĠIn nen
Ġmonth s
ĠW ein
I G
ĠS et
L o
ĠAustr al
gesch lossen
ispiel sweise
ĠfrÃ¼ her
or den
ĠverÃ¶ffentlich t
ĠD DR
Ġh inz
ĠG al
ĠC an
geb ung
Ġre gel
Ġdo ing
k an
ĠPro gramm
mÃ¤ÃŁ ig
deb ug
we gen
Ġev ents
Ġpro tocolMarshaller
Ġeigen e
Ġauth or
C E
Ġle ast
Ġp df
Ġh Ã¶
ĠK unden
F l
I V
Ġf avor
m as
ĠW eiter
k unft
Ġwen iger
M us
T rans
ĠVerein igten
B o
ĠThe ma
ĠAm ts
IN D
Ã¤ chen
Ġe conom
Ġc ook
I tem
ad urch
itz t
fol gt
stell t
en en
ran ge
ĠCar l
tr itt
Ġheut igen
Ġcert ain
e ign
ĠK Ã¶rper
ĠSt at
la den
ĠFe uer
Ġresp ons
f il
empl ate
ĠVer fÃ¼g
ann e
Ġg ames
Ġc lick
h ang
Ġw id
im um
Ã¼r d
Ġwh ite
ĠArt ikel
Ġso ftware
Ġres ource
at ors
Ġor ganis
meister schaft
g a
Ġst arb
Ġnew s
k r
ĠL o
b ra
Ġcontin ue
p age
Ġre ason
Ġqu alif
O ur
Â »
Ġre d
Ð »
in ge
Ġst ore
ĠSch Ã¼ler
Ã¤nd ern
Th ere
ĠG ott
ĠZ um
Ġ196 9
b rÃ¼
al tet
ĠJohann es
ĠJose ph
Ġdan ach
re ibt
iv il
Ġpro b
ful ly
T eil
20 18
ĠS icherheit
ail le
S te
w h
Ġsie ben
k or
Ġs ays
ĠE ing
ct ors
ien ces
Ġapplic ation
ab in
Ġcomm on
Ġh ost
ak te
M S
as ure
Ġmin utes
Ġcolle ction
a un
Â ²
Ġh old
Ġsie he
che ck
Ch ar
ibliothe k
ĠAl le
lan zen
iziel le
Ĥ ¬
pr Ã¼
leg te
Ġdoes n
un sch
Ġ197 7
Ġdam als
0 9
Ġe urop
Ġlie ÃŁ
Ġcre ated
ĠDre h
D at
ĠM oder
hand lung
Em pty
ith er
C all
Ġcon stru
itu ation
ĠE igen
ĠN et
ian a
Ġz og
ip ment
p ol
Re c
rol le
setz ung
anad a
č ĊĠĠĠĠĠĠĠĠĠĠĠĠĠĠĠ
Ġa cht
he mat
ĠM ein
ĠSta at
Å į
Ð º
ĠKar r
Ġag o
fra ge
it ure
ĠE lekt
ient en
Ġm illion
Ġman ufact
st ieg
ĠT her
s pe
ĠA kadem
Ġdid n
Ġfun ction
ĠS u
Ġh ig
ĠF ort
Ġann oun
Dies e
geb Ã¤ude
ĠG ast
iz er
ĠGo ogle
Ġso gen
ĠS ant
ial og
Ġb ad
Ġcom mit
ĠK osten
Ġzu dem
ĠOrts teil
ĠK re
ĠCh amp
Ġbefin den
Ġse en
ĠHerz og
ĠA uÃŁerdem
c urrent
os ph
i j
Ġin form
ĠG ot
Ġto ok
ĠK an
e e
ĠC amp
Ġer k
ĠSt ad
w rite
ĠO ct
Ġ197 1
Ġst ru
ĠRich ard
Ġv an
geb ie
Ġsome one
aff el
Ġare as
leit ung
ĠB ach
ĠL age
ungs k
ĠK ategor
ĠK ol
B C
S E
ĠI d
eg ung
Ġc ame
ĠG arten
ut zen
Ġver sch
Vers ion
ĠV o
b are
asch inen
Ġdeut lich
b esch
hock ey
Ġf ace
i ar
c m
ĠM iss
ĠN ow
C omp
Ġt w
Ġt ax
em ents
li ents
us ion
ĠA G
ch ar
s eit
ge fÃ¼hrt
ĠgehÃ¶r en
Ġr Ã¶m
ĠRe ad
ĠA v
ĠS achsen
ge hen
iden ce
l ant
Ġs tellt
Ġam ong
Ġ ung
ĠAuf lage
ĠEl tern
as er
Ġde al
A mer
ĠVerwalt ungs
ĠD ay
Ġhapp en
Ġf ive
ĠT ab
ettbew erb
u ed
Ġre le
Ġdar unter
Ġread ing
f ile
Ġ3 5
Ġinv olv
P ol
Ã¤ ÃŁ
ĠE ben
Ġbe ispielsweise
Ġpr im
ĠFre und
Ġiss ues
c ement
ann ing
ĠHil fe
F e
Ã¶ ll
b ro
Ġ Ã¤hn
> ();
or ted
ĠG roup
O G
Ġper iod
en burg
av y
M ed
ĠB al
d in
ĠA ward
ĠN etz
at ers
hr te
as en
Ġam az
Ġpers Ã¶n
s eite
Ver ein
ges ellschaft
T oken
Ġgef unden
as te
Ġ196 4
ĠU p
ĠGrupp en
Ġt arget
ch ester
Â °
Ġd ien
Ġin put
ik o
ĠwÃ¼r de
n es
ä ¸
haf t
ic ks
ĠE lement
Ġl ater
ĠStud ien
olit ik
n ach
g le
Ġpos ted
ier ter
Ġnatur al
s burg
un ge
Ġabs olv
Ġcom fort
ĠY our
Ġsel f
ĠAlex ander
Deutsch land
ĠR ein
d r
Ġre ach
ĠZÃ¼r ich
ĠP rem
schlieÃŁ lich
ĠAf ric
Ġpr ess
ĠSe c
H er
or es
Ã¤t igkeit
Ġpr int
Hand ler
et y
Ġins urance
Ġsom it
ir c
Ġ193 9
c il
ur al
ĠB ot
ĠR iver
Ġre cht
ele br
he b
w ind
ok rat
Ġinclud es
G em
ĠMÃ¤n ner
ĠBevÃ¶lker ung
O ff
ĠR und
Ġer Ã¶ff
Ġd ue
9 3
end ar
werk e
ĠK auf
C omponent
k el
Ġl ength
Ġw elt
tern al
Ġl ag
Ġd iff
ter m
Ġreg ion
ĠJ ur
est s
ick en
Ġquest ions
6 5
urn iture
H och
Ġg iven
ne xt
Ġ196 5
Ġger ade
Ġd ivers
cre t
ĠErn st
on en
Ġa ch
ra in
Ġad min
tem berg
Ġd etails
ĠMitarbeit er
Ġex pl
ĠA k
Ġs ale
Ġlat est
Ġentfern t
Ã¶ hn
tt y
en ces
Ġl ock
Ġnet work
ĠM r
ĠR oy
ĠV iel
us ter
ĠB ill
fl ug
ĠMus ic
p ark
I s
Ġm ap
ĠA fter
Ġsoll ten
ĠG Ã¶
he ad
tr ue
Ġappro ach
Ġp ick
hl er
Ġph one
rupp en
Å Ĥ
ĠK opf
Ġpartic ip
ĠS telle
Ġbe teil
Ġ5 00
Ġw ent
gen de
c is
f ried
Ġb ase
ho ut
` `
ĠR ob
Ġk lass
ĠF ig
Ġcon text
ĠHer ren
bo ard
ĠB ud
ift ung
ar th
Ġch allen
Ã¤t zen
Ġ193 0
9 2
h il
ĠB aden
ĠM ill
ress e
" ;
l im
os sen
pe cially
ĠVerfÃ¼g ung
S ystem
Ġa ge
us ive
ste hen
Ġt aking
Ġbie ten
Ġeduc ation
ad a
Ġp lat
Ġver fÃ¼
Ġs ing
st ate
la w
ges etzt
9 8
ĠA ber
as il
Ġh on
f Ã¤h
Ġ196 6
In t
] .
Ċ ĠĠĠĠ
ĠF le
gen cy
ver age
Ġzur ueck
ĠP lat
ra el
ĠK ing
** **
ist ic
ier ungen
sp rach
ĠWill iam
Ġb ath
ad o
âĢľ )
Ġpre vious
Ġens ure
Ġsch wer
ĠNÃ¤ he
G ener
ĠA re
O P
at iv
ĠGe orge
Ġf alls
Ġex t
ĠSie d
as chen
ent lichen
Ġk itchen
ĠMed ien
Tra ce
T able
i Ä
ĠF ree
Ã¼s se
Argument Exception
t d
ĠZ ust
ell ow
P er
ĠFl uss
ĠB ack
Ġgen utzt
Ġst aff
Ġteil weise
es h
ĠM ac
ges ehen
V iew
it ar
Ġgovern ment
i ra
Ġv ia
Ġein igen
ĠR ud
oll ar
vent ion
arr iere
ĠB Ã¶
ik al
Ã¤t ten
f Ã¼r
Ġfin ally
ĠRei he
w es
ĠfranzÃ¶s ischen
ĠKarr iere
Ġ196 1
ĠPla y
Ġb i
ĠD res
ĠG est
ou ver
Ġle icht
Ġerw Ã¤hn
Ġto ur
Ġfol gte
S C
end es
ĠBahn hof
sch er
te cted
ĠW and
Ġh ope
mal e
Ġevery one
ring en
Ġ196 3
F F
ĠC ent
ĠHow ever
Ġs ong
Ġc ra
Ġzu vor
l ad
Ġa ction
Ġ(âĢ ŀ
ĠArray List
Ġ ill
ĠRe ise
or der
ĠF irst
Ġex ample
Ã¼l t
ĠT emp
ĠEr d
0 1
Ã¤l fte
br uch
ĠW ash
ĠU K
ĠU N
Ġbo x
Ġcle ar
ĠAn ge
Ġne g
Ġhal f
ĠP o
Ġat tra
Ġwei ÃŁ
Ġs ystems
Ġc annot
ze hn
Ġad ded
Ġcomp et
ĠFrÃ¼ h
Ġf und
ĠPhil ipp
istr ation
9 4
Aus wahl
ut il
ĠJ azz
Ġf oot
Ġver lie
ot a
Ġ196 7
c ol
ĠK ampf
W est
Ġs il
N ext
Ġrec ord
van gel
Ġab ove
ĠEr folg
Ġloc ation
d am
w asser
it i
arbeit et
Ġknow ledge
Ġass ist
Ġgleich en
ĠA ct
Ġp an
st ring
Ġ194 0
Ġwho le
Ġletz te
aler ie
alys is
l ist
ĠS on
ĠC ons
Ġcurrent ly
Qu ery
Ġstr ong
Ġener gy
0 6
Ġ( =
lie d
ĠReich s
em b
Ġcho ose
ymn as
w ord
Ġer reicht
gr en
ĠgrÃ¶ÃŁ ten
Ġgem acht
Ġre chts
la ger
com ing
ikan er
P E
Ġin nov
Ġwrit ing
ĠK al
ĠL aw
tag s
Ġhe art
ger icht
ĠTe le
ĠSp rache
Ġaut om
ĠV orsitzen
lÃ¤ ss
. <
il ar
nd er
ame ister
ĠEr fahr
ĠT ier
ĠW irk
ĠIn n
ĠNew s
Ġh ot
L ength
Ġcl ient
jÃ¤hr igen
K on
Ġakt iv
Ãľ ber
Ġse par
Ġex ception
ĠVerb indung
L istener
f ten
ĠK ranken
rit te
Ġfolgen de
fass ung
Ġtra in
ĠL Ã¶
Ġauf genommen
P age
x is
ug hout
C D
ĠKl oster
ĠO s
ĠK raft
Ġ19 20
ĠSal z
ĠOt to
Ġver d
af fe
ĠBerlin er
Ġnach dem
ï ¼
ich ert
g g
g ere
ĠT ur
Ġge hen
ade d
Ġ194 4
y a
ĠB on
ten ded
an lage
ĠA cc
ĠMin uten
Ġchar acter
Ġprovide d
H ol
U m
ĠM ult
ĠGes amt
Ġstell te
ĠL at
Ġby te
Ġ193 3
Ġho he
h ing
ĠI ll
Ġne ues
d ata
T ag
leit et
Ġherv or
i pe
Ġn ode
Ġal t
Ġent hÃ¤lt
Ġverb unden
letz t
z iert
al a
ich e
sch iff
ĠB ig
ail y
0 5
Ġh ab
Ġent ire
ĠS ing
ĠD ist
ition s
Ġ196 2
ĊĠĠĠĠĠĠĠĠĠĠĠĠĠĠĠĠĠĠĠĠĠĠĠĠ ĠĠĠĠĠĠĠ
v in
it ts
or ing
Ġp o
Ġp aper
ĠR and
ĠP op
ang s
ĠF ace
ĠG leich
Ċĉĉĉĉ ĉ
N ames
Ġc lients
ĠAus bildung
Ġrest aur
entwick lung
âĢ ĺ
au d
ze ugen
Ġcustom er
c ase
ĠUnter stÃ¼tz
ograph y
G r
or te
ar f
ed ule
C ol
ĠÂ «
E X
ig lich
Ġ193 8
icher ung
Ġide a
Ex pression
Ã¼ss eld
e ks
h ib
St art
Ġw ww
ĠNach dem
arbeit ung
om b
ab ase
iz es
Ġsec urity
Ġs b
ĠM ess
ig in
h inder
ĠP lease
Ġtra ck
Ġd igital
Ġal most
Ġbei de
ĠSie g
Ġv eh
ĠOr gan
k le
st ud
Ge ographie
ĠVert rag
ĠGemein den
Ġup date
n o
ĠJ es
enn ung
U ser
\ "
us st
ĠH ere
ĠC la
Ġm er
Ġc as
Ġwir k
sp iele
ĠD eb
ĠMar ch
ĠS in
Mod el
Ġro le
f on
ĠWerk e
Ã³ n
Ġw ollen
Ġe p
et ten
ĠSer ie
it sch
Ġf ert
iz ing
Ġvar iety
zentr um
ĠK ons
ĠW issenschaft
rÃ¼ ck
Ġ195 9
Ċ ĠĠ
ĠC am
ap ter
aup ts
w esen
ĠnÃ¤ch sten
tr ies
ĠAmeric a
Ġf ul
Ġar r
Ġjed en
ot o
iv ity
Ġabs ol
ter e
ĠMan agement
> (
ĠUnter such
is ted
Ġc ount
f rei
Ġqu ite
v ey
an ger
Ġf ire
Ġ3 2
or a
lic ation
imm ung
idd le
ĠT on
a dem
ĠB ron
Ġfur ther
Ġw ide
an ted
Ġup d
ĠM ond
ac es
isse ur
ĠT w
Ġm ix
ht t
Ġ194 6
âĢ¦ ]
Ġm ove
ĠN am
N umber
Ġaus gest
ĠPol izei
Ã¼ll er
ĠEngl ish
B ut
or ie
lie ben
0 3
ĠUn ion
Ġdam al
Ġw issenschaft
ĠP il
mar shall
ĠHal b
F ernsehserie
bed ing
Ġopportun ity
ĠA th
ĠBes itz
Ġs ens
Ġk einen
le cht
ig ungs
olog ical
Ġw hether
Ġe lekt
\\\\\\\\\\\\\\\\\\\\\\\\\\\\\\\\\\\\\\\\\\\\\\\\\\\\\\\\\\\\\\\\\\\\\\\\\\\\\\\\\\\\\\\\\\\\\\\\\\\\\\\\\\\\\\\\\\\\\\\\\\\\\\\\\\\\\\\\\\\\\\\\\\\\\\\\\\\\\\\\\\\\\\\\\\\\\\\\\\\\\\\\\\\\\\\\\\\\\\\\\\\\\\\\\\\\\\\\\\\\\\\\\\\\\\\\\\\\\\\\\\\\\\\\\\\\\\\\\\\\\\\\\\\\\\\\\\\\\\\\\\\\\\\\\\\\\\\\\\\\\\\\\\\\\\\\\\\\\\\\\\\\\\\\\\\\\\\\\\\\\\\\\\\\\\\\\\\\\\\\\\\\\\\\\\\\\\\\\\\\\\\\\\\\\\\\\\\\\\\\\\\\\\\\\\\\\\\\\\\\\\\\\\\\\\\\\\\\\\\\\\\\\\\\\\\\\\\\\\\\\\\\\\\\\\\\\\\\\\\\\\\\\\\\\\\\\\\\\\\\\\\\\\\\\\\\ \\\\\\\\\\\\\\\\\\\\\\\\\\\\\\\\\\\\\\\\\\\\\\\\\\\\\\\\\\\\\\\\\\\\\\\\\\\\\\\\\\\\\\\\\\\\\\\\\\\\\\\\\\\\\\\\\\\\\\\\\\\\\\\\\\\\\\\\\\\\\\\\\\\\\\\\\\\\\\\\\\\\\\\\\\\\\\\\\\\\\\\\\\\\\\\\\\\\\\\\\\\\\\\\\\\\\\\\\\\\\\\\\\\\\\\\\\\\\\\\\\\\\\\\\\\\\\\\\\\\\\\\\\\\\\\\\\\\\\\\\\\\\\\\\\\\\\\\\\\\\\\\\\\\\\\\\\\\\\\\\\\\\\\\\\\\\\\\\\\\\\\\\\\\\\\\\\\\\\\\\\\\\\\\\\\\\\\\\\\\\\\\\\\\\\\\\\\\\\\\\\\\\\\\\\\\\\\\\\\\\\\\\\\\\\\\\\\\\\\\\\\\\\\\\\\\\\\\\\\\\\\\\\\\\\\\\\\\\\\\\\\\\\\\\\\\\\\\\\\\\\\\\\\\\\\\
Ġsch rieb
bo x
Ġho hen
le iter
le cted
ĠR ang
ĠL ong
Ġ- -
osp ital
Ã¼rt temberg
Ġge legen
th ough
ĠDam it
Ġde fault
par te
ĠLe g
Ġv o
Ġ195 6
ĠPhil osoph
Ġp le
ĠSpiel en
ĠFin anz
Ġe ither
Ġv ol
ĠAkadem ie
Ġz ie
Ġread y
r unde
ĠV ideo
ann er
Ġne eded
n y
u a
à ¤
ĠC our
ĠV e
ĠPh ys
ĠPart ner
T Y
s m
Ġmark eting
i w
ĠP sych
Ġbef and
Q L
ĠR en
Ġk amen
olog ische
T R
Ġhe ld
ĠAr mee
9 1
k ret
il en
Ġspiel en
P art
Ġsp an
fol ger
ĠIs land
Ġer ster
so zial
ĠIllegal ArgumentException
z ip
Ġpart y
Ġsetz te
ĠEner gie
9 7
d oor
le tt
ut her
Ġ195 2
Ġmach te
Ġrece ive
Ġtyp es
geord net
Ġp ain
ct ing
Ġstand ard
G B
Ġs ales
Ġv ari
Ġgew esen
ĠFol gen
el ten
la f
u it
ĠA uÃŁen
ĠauÃŁer dem
p aper
ĠLie be
ĠM aÃŁ
Ġg ute
Ġpr iv
ĠW as
ĠW ider
istr ib
p oint
Ġentwick elt
B IND
t c
be zirk
Ġres ources
ond s
Ġh air
Ġver he
fol gen
Ġlead ing
Ġsimp ly
an gel
ĠF uÃŁ
u c
Ġquest ion
0 8
N o
ĠD och
ĠF en
ĠF Ã¶rder
Ġreg ister
BIND ING
Ġphot os
ĠA st
ĠW ild
Ġmehr eren
Ġp sych
Ġ195 5
P os
Ġass oci
ĠBru der
S ON
L ink
T rÃ¤ger
0 2
M A
Ġ );
ren g
M y
f ar
Ġp orn
ge hend
olog ischen
Conne ction
ĠWash ington
ĠD enn
we isen
zeit en
ĠVers ion
Ġk athol
Ġf rei
sch riften
ĠGe ist
Ċ ĊĠĠĠĠĠĠĠĠĠĠĠĠĠĠĠ
Ġcon tra
g liche
p ass
ĠEr sten
ĠM ath
Ġunter stÃ¼tz
Ġeffe ct
Ġproble ms
ĠS Ã¤nger
orn ing
ĠÃ¼ber n
ĠEn ts
rie ges
Ġ194 8
Ġiss ue
Ġv e
ĠR Ã¤
ent ry
Ġrec ently
Ġbel ieve
Ġpict ures
Ġst re
Ġr ate
Ġes pecially
Ġpre tty
o den
Ġs tellen
Ġde p
ain ed
ĠDies es
O per
Ġer ziel
mit t
. -
Ġthro ughout
A ss
Ġz erst
ic les
ien ste
AM E
C hr
ĠH Ã¤lfte
tr ie
ĠHer aus
y ear
Ġw Ã¤re
Ġus ers
ĠD oppel
ges tell
ĠE t
Ġit em
Ġrec ent
ĠB usiness
ĠAssoci ation
ig ner
ĠR at
Ġd ir
ĠM ex
Ġ4 5
rÃ¤ fte
v a
Ġentstand en
r uf
Ġc elebr
ig r
Ġvoll stÃ¤nd
ĠM ount
Ġex tend
t est
L ine
ĠL os
ran sp
ĠDown load
ĠH is
Ġrelat ed
Ġd ocument
af t
ĠG reen
Ġm obile
ist ent
w esten
ĠL icht
Ġl iter
ĠV is
if en
s ie
z we
Ġt aken
Ġw ays
ĠHann over
Ġihr es
ĠBrit ish
ĠursprÃ¼n glich
Ġd Ã¼r
ĠH y
Ġfin ancial
zeug t
ĠW o
Ġit ems
Ġbes uchte
ĠHer mann
Ġger ne
ĠT im
tr ieb
ho use
ar tet
Ġbesch Ã¤ft
ĠBas is
Ġb ott
Ġsk ills
ca dem
C olle
ĠA c
ra chen
ste ad
c ast
Ġd et
ĠC re
aus ch
ĠfÃ¼hr en
Ġindivid ual
ĠS old
ĠAb s
Ġsh ows
ĠStud ium
aliforn ia
Ġsel ten
ĠPr inz
ig entlich
om s
pro tected
Ġ194 3
Ġerreich en
0 4
M ax
T H
as c
irat et
U E
ĠMe er
Ġtry ing
ĠA uss
Ġp aint
all ow
zie hung
er o
he t
ĠS at
ĠU s
ed en
Ġso on
k ap
v o
Ġdec or
Ġproject s
de ckt
gen er
Ġaus gew
Ġbu ilt
ĠLou is
S port
un s
Ã¤n gen
Ã¤nd ert
Ġ195 8
Pack age
Ġan schlieÃŁend
ĠS onder
ĠF rie
Ġcom mer
Ġins ide
au ber
ell ent
rÃ¤ ge
ĠÃĸ ff
Ġplan s
g ien
k und
Ġbook s
W enn
ĠF ernseh
anst altung
ĠI st
Ġl on
ir th
ho ben
Ġamaz ing
0 7
Ġt akes
Ġb ud
Ġr unning
An y
;; ;;
ĠN S
Ġinter ess
Ġt old
ĠA ugen
Ġto wn
Ġste p
Ġvorhand en
Ã¤nd ig
Ġco ol
w ill
Ġ Î
Ġim ages
Ġ195 7
Ġgener al
ot te
ĠThe men
l iste
ic ate
ĠV ir
gel Ã¶st
E d
Ġs we
Ġse em
Ġk ont
ĠHe alth
Ġs end
erv e
ĠCh or
fahr er
Ġhapp y
Ġest abl
S ource
ed ding
omm end
Ġdar Ã¼ber
m Ã¶
ch ange
Ġst op
ĠVer gleich
par ed
Ex ec
b ark
ĠL iga
ĠL oc
ĠBe griff
ĠI T
ĠVer d
ĠK ey
Ġex pect
c omp
Ġs ave
ver walt
te in
etz en
ĠD ach
hr t
if fen
ĠRe al
Ġany thing
st art
ĠF und
ĠW alter
if ier
Ġ194 9
Ġlearn ing
ĠGes undheit
Ġactiv ities
O D
Ã¤d chen
Ġ[ âĢ¦]
Ġt c
Ġk om
ĠStadt teil
Ġ194 2
Pro v
Ġconc ern
ĠW all
ot ion
ad y
final e
ĠStre cke
w art
Ã¶r m
ĠKont akt
ĠRe cht
Ġper cent
Ġ194 1
Ġb us
Ã¼ ste
ran g
m ission
v on
Ġs le
le ted
Ġde f
B r
ĠD Ã¼sseld
ĠK er
In teger
hal ts
ĠEx per
De finition
Ġspe ziel
Ġgl obal
ir ate
Ġ195 3
bin ation
Ġequ ipment
f ix
u hr
ĠAr ten
in fo
pp en
Ġout side
Add ress
M in
Ġun ivers
In ner
neh m
Ġson st
b us
ð Ł
ĠArbeit en
Ġm eine
ĠP C
ĠK as
F rau
ĠGl as
Ġpict ure
ĠS l
ĠT eile
G es
Ġ Ã¼b
a ktion
ic ult
k reuz
Ġe her
Ġter m
i i
ĠF rom
ire ct
Ġsol utions
re quest
ĠE vangel
Ġpar ts
meister schaften
l ern
Ġ3 00
Ġsp ielt
ĠFra gen
ĠA cadem
ict or
mar kt
Ã¤ te
ĠD ann
ĠCar ol
ĠSil ber
bet rieb
A cc
Ġacc ording
ĠWh ite
ĠE ast
ĠC ap
gr enz
ĠOr iginal
ĠGeb ie
ist an
ĠSt unden
Ġpat tern
O M
u he
w irk
Ġf all
ĠH essen
Ġart icle
Ġp ark
Ġgeb aut
b ased
ĠS upp
ieren den
Ġeff ic
prÃ¤s ident
zir ks
6 8
Ġt ell
ze igt
ĠStre et
Ġmom ent
rie ch
ĠB d
ĠJ ac
Ġk ids
Ġne cess
Ġso und
b i
ibr ary
G ra
Ġd og
Ġcom ing
ĠNach t
Ġbel ieb
Ġeben so
Ġsign ific
Ġfor ward
ĠStand ard
F I
ĠIn c
Ġwoll te
an ken
st ar
ite te
lan gen
Ġben Ã¶t
ĠZu ge
Ġtreat ment
6 3
ĠI N
Ġge d
ĊĠĠĠĠĠĠĠĠ ĠĠĠĠĠ
ĠPr ivat
ĠkÃ¶nn te
Ġprob ably
ĠL Ã¤nge
l it
Ġinit ial
Ġal te
Ġp oss
Ġde g
eh men
Ġn ice
Ġsub ject
ill ing
Ġreg ular
Ġcoup le
Ġp oints
ĠRe publik
ĠVer l
R el
Ġze igen
ĠFace book
Ġint rodu
Ġus ually
ĠAut o
ĠZentr um
p lat
er ror
ed s
Ġsc reen
h ab
Ġne hmen
ĠPolit ik
Teil nehmer
ĠR unde
pp ed
Ver lag
ĠG as
R L
le icht
ĠO f
Ġyour self
ĠAl b
att le
Ġwall paper
6 1
ĠC ms
Ã¶ sen
hal te
Ġcor re
m ot
ab eth
Ġ195 4
ĠSc ience
Ġrece ived
k athol
ĠDres den
rit ik
ĠSt ock
Ġ195 1
Ġd ritten
ĠB und
ĠN ik
be ck
ĠWien er
p ack
Ġs ix
Ġc y
ĠD okument
ad es
omm ission
Ġs ites
ĠErgeb nis
S P
Ġwe eks
Ġtro tz
ĠOct ober
Ã¤ch s
C T
w ith
Ġne un
6 9
il det
Ġst ock
ĠComp any
Ġdiff icult
Ã¼r n
Ġpar ent
Ġerh Ã¶
Ġb esser
Ġo il
Ġmed ical
Pro du
H el
ĠM em
ĠD ivision
ad ata
Ġstud ent
Ġt un
Ġc ut
Ġval ues
ĠBÃ¼rger meister
ĠEx ception
P oint
h i
ie ÃŁ
Ġw a
ĠW ort
Ġmind estens
6 2
Ġerh Ã¤lt
lichkeit en
r c
ro id
p ath
Ġam ount
iqu es
ĠChar les
ĠWolf gang
Ġ rom
ĠW ebs
ĠV oll
ĠZw ei
Ġweiter hin
m und
Ġs ent
fer enz
ĠSh ow
ĠEp is
ĠSt il
Ġex tens
trib utes
ĠLin ie
aug h
ang ing
piel t
Ġs ession
Ġabsolv ierte
Ġth ird
Ġw anted
ĠSch Ã¶n
St at
wie gend
ĠT ages
ĠL im
ĠAus wahl
Ġfavor ite
ĠB us
ĠT ime
ĠAuf trag
C olumn
x y
z uf
Ġre v
Ġst ream
se qu
ĠS und
ĠF ern
ĠFra ge
vers ion
ĠDan ach
ĠJe an
ĠSoc iety
Ġf urniture
Ġr isk
ound s
Ġrem ove
Ġehemal ige
5 00
ĠL ink
ĠL eiter
Ġcom ment
ĠBe zeichnung
Ġe mer
sch t
Ġre lig
G et
Ġbe deut
Ġbeh ind
Ġd raw
ro ffen
Ġprov iding
Ġvers te
Ġf ra
f Ã¤ll
Ġpract ice
b Ã¼rger
te ten
ĠW ol
az on
Ġaktu ellen
b lick
ĠDe partment
ieren de
Ġpl ant
ĠZu dem
prÃ¤s ent
Imp l
Ġb al
ĠC alifornia
ĠBe k
Ġfl ow
Ġd oc
Ġch anges
Ġsol ution
Ġs ummer
ĠS ign
Ġh or
Ġapp ly
Ġf ig
ĠLe hrer
re ten
ĠA ud
w issen
Ġ194 7
ĠSte uer
c ies
ĠRe gen
cl ient
ĠFest ival
S etzt
p osition
ar ge
ĠGeb urt
Ġprogr ams
i ally
all ery
Ã¤l le
richt ungen
in os
ĠG re
F ilter
r hein
or ies
ĠAn na
ash ion
Im age
Ġopt im
Ġge k
ĠGra b
## ##
a at
âĢ ŀ
Re ference
Ġflo or
l ong
v ing
ib en
S V
n ow
6 7
m ap
Ġd ress
ur ren
ĠT om
ĠL Ã¼
rit z
ĠSchw er
ĠSchw arz
ask et
ca pe
stre cke
Ġc rit
E O
Ġ Ã¼
Ġstor age
Ġunser em
ĠP ublik
ic ago
Ġle ave
ĠOr d
g u
ĠD or
de ten
amil ie
An not
Ġeinzel nen
ĠK ommand
Ġfor mat
ĠInd ian
Ġrepr esent
Ġd ro
Ġd ig
ĠR a
ĠAl bert
Ġunser en
Ã¼ss el
ĠForsch ungs
N ational
S upp
lin ie
Ġent halten
Ġprodu ction
Ch ild
ĠInstit ute
g or
Ġc oll
Ã¶ ne
ĠL ive
af r
Ġgra ph
l Ã¶sung
b aum
Ñ ĥ
hl t
Ġw ord
Ġver ein
J ob
c ul
Ä ±
Ã¤ cht
pe kt
d k
Ġm aint
Ġc enter
ĠC le
ĠS yn
ind ing
Ġdis cover
Ġdr ive
ĠKant on
Z u
Ġall ows
ĠFir ma
Ur l
Ġf resh
ĠI hren
ph one
ĠKÃ¶nig reich
hÃ¤lt nis
Ġm atter
Ġstamm t
z og
Ġm m
ĠL ake
ne ter
Ġinclude d
d own
ĠKÃ¶nig s
ĠgrÃ¶ÃŁ te
ĠWind ows
t itel
at ten
Ġp ool
Ġgra du
fra u
ĠGot tes
im inal
ĠW ell
chn et
at ory
ĠKompon ist
end orf
ĠKategor ie
ĠD ate
ĠEurope an
w ner
Ġj apan
Ġme eting
r al
Â ®
Ġaddition al
" ))
i est
is Empty
ĠS Ã¤
Ġro ad
ĠRoy al
ir it
ĠSt amm
Ġreg ard
ĠFran cis
b ischof
Ġsch Ã¶n
or ten
le m
sch uss
ĠAn schluss
mer k
ir ch
Ġfin anz
Ġprov ider
hol z
ĠP unkt
ĠEr k
Ġch em
u hl
Ġt im
Ġb lo
Ġin spir
Ġconne ction
a ign
ĠS ow
ĠT own
ĠverÃ¶ffentlich te
cont ains
Ġj Ã¼n
Config uration
k arte
ĠH art
ĠC up
Ġer ror
ĠQu alif
ĠFre ib
ĠServ ices
ĠVert re
ĠI hrer
ĠJ ung
ĠFr iday
Ġincre ase
W er
Ġm orning
Ar ch
ĠRec ords
ic ated
Ġk ennen
ĠSt ru
hen s
Ġoff iziel
ĠBr un
Ġval id
ur a
Ġf ix
ĠAb end
Ġpol icy
ĠM as
Ġ1 000
Ġle ader
Ġev angel
ĠSchl acht
Ġer z
Ġum fasst
Ã¤nd en
ĠUm gebung
D is
ay out
ĠRest aur
<? >
irate te
O ne
ĠJ ob
Ġcomp on
pro chen
ĠPerson al
Ñ ı
Ġ row
Ġex act
vers e
ĠEnt scheid
ĠUnterstÃ¼tz ung
Ġge geben
Ġc ross
ĠPf lanzen
ĠF eder
ist ics
unk ten
Ġwrit ten
ĠMod ell
ĠPres ident
sch ei
ĠJ er
Ġgrow th
g ers
ĠR Ã¶
Ġreg ul
Ġlook s
nde te
Ġcho ice
Ġis n
ĠJul y
Ġhei ÃŁt
ĠPro gram
ick et
j ust
Ġdes crib
Ġbil den
Ġsim ilar
g ten
Ġto uch
unter nehmen
at ely
ĠL ife
Ġmit tler
b orn
ĠIn vest
C ms
Ġo ben
ens ive
Ġwo od
Ġrec ogn
M on
Ġso fort
ho od
ren ch
ĠgrÃ¼ ndete
ĠS ome
ĠNach folger
ĠGes etz
ĠsÃ¼d lich
Ġwirk lich
ĠS omm
um in
Ġal tern
Ġex pert
ĠRad io
ĠR ennen
Ġre qu
ĠZ uf
Ġout put
Ġla unch
ĠInstit ut
ĠerwÃ¤hn t
Ġum fass
ĠAkt iv
Ġans wer
d om
ut ive
Ġth er
ĠV en
Ġwar m
ĠNach bar
get Value
Ġverl oren
Ġg round
ĠAut om
ic ip
Ġcol umn
k unde
p ers
Ċ ĊĠĠĠĠĠ
Ġpr ior
ĠKir ch
Ġwel cher
Ġeinz ige
Ġse ems
app ing
Ġw ords
ĠV an
uch ten
on ym
end ung
ĠGr Ã¶ÃŁe
Ġgu ide
Ġmach ine
gemein schaft
ĠB all
Ġre fer
ian o
Ġsk in
ĠZusammen arbeit
ĠnatÃ¼r lich
i ro
Ã ¸
st attung
Ġoffic ial
Ġw es
ĠS ur
Ġc aus
Ġre lease
ell o
ĠVer eins
Ġmar shall
ot es
======== ========
Ġw in
Ġz ust
ĠH D
Ġsel ben
zw ischen
techn ik
w a
ĠW ahr
Ġin de
ĠZeit ung
Ġeas ily
Ġbed room
se hen
ĠChe ck
u ell
as y
Ġin fl
Ġj ava
Ĩ Ĵ
ĠH om
H E
ĠS ar
Ġm o
ĠUm welt
ĠH Ã¶r
ĠProdu ktion
im in
ĠK ra
Ġne uer
asch ine
Ġext rem
Ġsignific ant
ĠI V
Ġz uf
ĠM ur
Ġh uge
om a
Ġbes itzt
a ill
ĠT it
Ġ193 7
ĠDenk mal
on str
st att
ĠE U
Ġk aum
Ġho tel
b ase
ĠIn teger
Ġnot hing
il led
Ġsie ht
Ġinternational en
k y
Ġt ransport
Ġj Ã¤hr
Ġled iglich
Ġbil det
ĠEisen bahn
astr u
Ġrele ased
Ġg reen
au b
ĠS ingle
aus t
d t
Ġzu ge
Ġun ver
Ġdis play
Ġter ms
Ġimp act
Ġern annt
Ġpr Ã¤s
M ark
V D
Ġde ep
Ġble ibt
ĠL eitung
halt ung
Ġsaf ety
Ġl os
Ġind ustr
ĠMed izin
ĠMat hemat
e hm
ĠIm m
g arten
ig ation
Ġst ation
Ġsch loss
sch au
ĠTeil nehmer
Ġpra kt
ock et
ĠMan fred
in den
tr at
ĠPol en
ĠnÃ¶rd lich
re cher
ĠN icht
ov ers
ĠAb schluss
ĠVol k
Ġgesam te
Ġse lect
Ġpol n
ĠQ ue
ĠmÃ¶ch te
Ġw r
ĠM use
Ċ Ċĉĉ
forsch ung
ĠAl so
ĠOr ganisation
Ġ193 6
ĠKon z
Ã¤hl te
fr astru
U M
As ync
Ġbe ein
ers eits
Ġhand le
ĠHe im
Le vel
Ġverhe iratet
Ġd iv
gel n
jÃ¤hr ige
Ġf iles
f alen
Ä į
Ġw oman
fall en
l ers
Ġst ring
ot ing
ĠTra dition
Ġm Ã¶
av es
ĠAn g
ĠMar y
Ġgew orden
ĠInd ia
p ose
ĠH u
yste me
h ers
Ġd ed
ĠK laus
ĠÃ¶sterreich ischer
Ġs al
an i
rei ber
Ġkn app
F C
l or
Ġb ald
Ã¤t ter
Ġd om
Ġpubl ished
ĠhÃ¶ her
pp e
od ing
ĠSchauspieler in
Ġhow ever
ĠJose f
Hoch schullehrer
Ġplat form
Ġt ag
ĠH aut
ĠL ove
Ġl ives
Ġver k
ug ht
Ġsp ort
Ġer folgt
Ġup load
Ent ity
S ub
Ġc ause
ĠHer bst
ĠPart y
ĠD isk
ed ia
Ġbe ge
Ã¤ ten
Ġde pend
itt ing
( '
pr ise
ĠP unkte
ar io
rem ove
Ġhigh ly
sta at
he m
Ġausge zeichnet
ĠGrÃ¼nd ung
if est
ce p
ĠCh urch
h y
P osition
t schaft
ĠD Ã©
Ġex pected
Ġbet rÃ¤gt
Ġsw itch
h ips
em e
at iven
Ġ+ =
Ġsu it
ĠDan iel
P f
ĠB lick
Ġr ather
M ail
ĠE dition
ĠBe zirk
ĠZeit punkt
Ġany one
Ġquick ly
Ã¤n n
ĠRes earch
Ġdec ided
Ġbe ach
Ġpat ients
Ġsaf e
ag og
Ġvor her
ian ce
. ");
at tet
iz iert
ĠprÃ¤s ent
g al
Ġm el
Ġh und
ĠG ro
ĠL OG
ĠN ur
Ġwe ight
mus ik
D r
K E
b it
ar ter
te x
Ġges tellt
wÃ¤r ts
l s
n ing
we chsel
Ġpre m
Ġa verage
ĠAus gabe
Ġkosten los
B lock
re chts
Ġc opy
Ġide al
H ow
la y
ĠDÃ¼sseld orf
T V
Ġrec ommend
Ġsl ow
u ert
ĠS zen
Ġl ate
Ġpl us
ĠfrÃ¼ hen
Ġb em
Ġf iel
ĠW ork
ĠO k
id th
au x
Ġrem ov
amerikan ische
Ġst reng
Ġ193 5
č ĊĠĠĠĠĠ
ĠCh icago
oun ts
Ġphot o
Ġdev ice
ĠP rom
ĠW ies
ab et
Ġwork ed
Ġ ;
ĠWe hr
Ġbo ard
Ġin dem
ĠT ruppen
grupp en
Ġ> =
Ġlik ely
re ise
ĠT enn
Ã¼hr en
ĠBo x
ĠIndustr ie
ĠH ard
Ġfand en
g ment
q l
r is
AT ION
ĠP ublic
isch em
Ġser ver
setz en
ĠfrÃ¼ h
Me ter
Ġpurch ase
R A
me hr
Ġph il
ipp ing
Ġimpro ve
ĠVer Ã¶ffentlich
à ¹
ĠT at
T P
f Ã¶rm
at alog
Ġn immt
rei he
ĠH an
ĠL ux
Ð° Ð
ateg ory
Ġcare er
Ġmaterial s
Ġpie ce
c as
h istor
in st
Ġ- >
I ter
Ġs ort
ud es
Ġje de
A uch
H T
pro f
Ġgesch lossen
Ġs od
ĠV iew
Ġs qu
ĠR itter
ach ts
ĠReg ierungs
Ġlang uage
ĠerÃ¶ff net
P at
ad el
Ġgo al
ĠM Ã¤dchen
ist in
Ġfor mer
ĠOff izielle
Ġpos itive
A fter
g ibt
it ial
ĠA ust
ĠD azu
Ġl ower
Ä ģ
Ġeffe ctive
Ġ3 6
Ġro und
Ġbrit ischen
ĠFinal e
D A
S I
ĠE duc
Ã¤r k
Pro perties
utt ing
l ingen
Ġmit tel
Ġpot ential
Ġsug gest
N AME
ent y
trÃ¤ ge
C o
P ort
ĠM Ã¼ller
ĠSt affel
F irst
ĠY ear
Ġlo ad
ĠB a
fan ter
Ġtool s
i ation
les en
D urch
ĠG reat
Le gt
O C
ĠA ch
Ġex pla
ĠNe ub
denk mal
Ġlon ger
Ġa ffe
Ġn ames
ĠD ipl
Ã¼r k
Ġ4 00
D a
Ġe igentlich
Ġhe ar
Ã¼ ge
ĠZ immer
ĠSch les
ĠZeit schrift
Ġw ohn
ĠS uche
Ġup on
abr ik
Ġd adurch
is ierte
Ġsch l
He ader
Ġbring en
th ur
Ġb and
ak ers
Ġj Ã¼d
ĠProdu kte
Ġdo or
ter min
ĠGren ze
Ã¶ ss
ĠfranzÃ¶s ische
verwalt ung
] ,
p ret
ĠS ter
Ġon es
Ġ193 4
L ong
au te
inn ing
ĠBay er
wissenschaft ler
Ãĸ sterreich
Ġc redit
uf e
teil en
Ġexc ellent
ĠI P
St ra
Ã¼n ft
B A
ĠO ption
20 17
o oth
Ġf ail
âĢ ¢
ĠL et
Ġwor th
Ġdar f
gew icht
Ġrem ember
Ġentwick elte
an cy
Ġg lass
atur day
Ġber eit
k lasse
Ġd ra
Ġl aut
ĠJ os
pen den
tt ps
Ġlog ger
r um
at o
Ġg ives
Ġ* /
ĠMÃ¼n ster
Ġgan ze
P ers
ĠDe v
By tes
Ġt itle
ie ÃŁen
r ument
ĠB onn
ĠW ass
ĠH on
ess ages
hen sw
fl Ã¤chen
Ġâ Ĥ¬
ĠE th
Ġan alysis
ff ic
ĠBe im
Ġ15 0
ĠWeit ere
as ten
ĠK olle
Wh at
rech end
bark eit
Ġre pla
ĠUnternehmen s
ĠBl ut
rupp e
Ġzahl reichen
ath let
spr uch
an lagen
ĠT Ã¤tigkeit
ĠEx p
Ġin fo
Ã¼ cht
st Ã¤tte
Ġl isten
Ġhe iratete
leg ung
ĠAll er
over n
ab il
ĠSt rom
Ġbeg in
alle y
mut lich
ymnas ium
C ON
Ġd aily
ie ur
Ġh it
ĠF arb
ach ed
ĠPar te
ĠHand els
umen te
ĠÃ¤l tes
P DF
Ġs un
Ġke hrte
ĠfranzÃ¶s ischer
ĠEinwohn ern
Ġbeginn t
ar es
ĠAr n
Ġgleich zeitig
k au
ĠG ood
Ġse ction
Ġs etzt
ĠAngeb ot
Ġtradition al
ĠGÃ¶ tt
al u
Typ es
T ER
b ul
č Ċĉĉĉ
Ġben annt
l n
Ã ±
Ġz entr
ĠAn s
ĠBes te
Cont ainer
ĠFen ster
R em
R ule
S A
d aten
Ġmov ie
M P
T ree
d s
res ult
ĠM icro
ĠE ss
zie hen
Ġje dem
ĠzusÃ¤tz lich
lemen te
Ġful ly
k om
in ts
Ġpar ents
pos it
Ġaktu elle
ĠK lass
Ġl oss
Ġan z
ĠAndre as
w ir
so ft
spiel en
Ġca pt
Ġt hr
ĠS y
ĠJ ud
ren nen
Ġhal ten
Ġrelations hip
c up
d y
Ġpro perties
ĠP orn
Ġinter ested
t a
und le
ĠG ut
ĠU ms
Ġro ll
()) );
Ġexper ien
Ġask ed
bu ild
inc ip
ĠÃ¶ff entlichen
Ġst ammen
Ġapplic ations
ass el
ĠBl Ã¼
ultur al
Ġdevelop ed
ĠV ictor
ug s
lin ge
cre en
Ġcoun tries
ĠVerkehr s
k irchen
lin es
mittel t
Ġextend s
b ody
o e
as ons
ĠJ ak
id t
ze igen
ĠWe ise
ĠRo ad
oper ation
Ġcondition s
ĠH ash
ik i
get Message
n itz
ĠD ah
Ġd ise
ĠW oche
ab s
parte ment
d at
Ġ192 8
ĠF ound
Ġemp f
ĠRel ig
ĠBes uch
Ġerm Ã¶glich
Ġe uch
Ġp aar
ĠT ype
Ġpl anning
Ã¡ n
Ge grÃ¼ndet
Ġimp lement
ĠS C
van ced
Be an
Ġplay ing
Ġgirl s
Ġdamal igen
f unk
ie ger
ĠS tern
ic an
ĠFl Ã¤che
ĠOff ice
ĠFamilien name
Ġ1 20
Ġzu letzt
Ġzw eit
V ari
ic on
ĠN Ã¼rn
sp ro
ĠIs rael
Ġan im
Ġdes halb
amp les
ĠChrist mas
Ġgroup s
b is
Ã¼ gen
Ã¤ um
Ġh ttps
ĠAl ten
ĠSo ftware
Ġcommer cial
or gt
ĠE very
ĠEs sen
Ġwrit er
Ġc irc
Ġleg al
b rit
el a
Ġver lÃ¤
Ġh um
Ã¶ p
kt iv
Ġpr ices
ĠHoch schule
Ġatt ention
iÄ ĩ
Ġin tens
all er
Ġse lection
ĠAcadem y
op en
se c
Ġw ish
ĠP rÃ¼
ĠN ic
ĠAngel es
A uth
is a
or th
Ġb ere
Ġf ab
ĠA tt
ĠD ata
em ble
sch lÃ¤
Ġme chan
Ã¼hl en
ĠSomm ers
m esser
al ing
Ġf irm
Ðµ Ð
l ation
Ġd ream
ĠK u
ĠK ern
ĠW ed
iz ier
ime ter
ĠKinder n
ĠJanu ary
f unktion
z Ã¤hl
Ġb ank
ĠA P
Ġgar den
ar ies
ĠL ied
if ts
un ion
Ġsh op
D eb
er r
ĠAd d
olum b
ĠBeruf s
ĠD igital
ĠCoun cil
p hen
Ġh ous
ĠEin fluss
ĠHe idel
ĠTra iner
por ate
asket ball
at al
ĠM erk
ber eit
Ġwen ige
aly se
ĠRud olf
Ġg riech
E urop
Ġhig her
is er
Ġv ideos
ess el
Ġaus schlieÃŁlich
Ġch rist
ĠSp rach
wissen schaften
S U
er weise
Ġim m
Ġex am
Ġ3 3
Ġorgan ization
C ase
m ax
ĠM and
ĠS onnen
ĠM aster
ol ve
ĠR eb
par ator
Val id
Ġconstru ction
er c
Ġt rÃ¤gt
Ġf air
ĠVer wendung
alle l
ĠĠĠĠĉ ĠĠĠ
it ation
By te
ĠFot os
on ie
ink el
Ġfe ed
r ig
Ġange geben
Ġjeweil igen
ĠH ei
Ġk rit
Ù Ħ
Ġ3 8
Ġro t
UR L
Ġgrow ing
hil fe
ĠSund ay
D ir
Ġ ign
st ream
Ġf a
ho den
ĠFl ugh
ĠMon ate
ĠIntern al
Ġs aw
Ã¤ ste
Ġpart ners
west lich
F r
Ġer forder
Ġwer de
Ġbu ilder
ĠS onn
Ġpolit ischen
Ġâ ĨĴ
Ġcreat ing
htt p
ĠH ill
ĠAn schlieÃŁend
Ġex cl
Ã¤d t
ĠTex as
ĠF ass
ĠAr ts
trie ben
O ber
Ġf ant
ĠC ast
Ġse ek
lie fert
ĠAuf gaben
hensw Ã¼rd
h op
nd en
Ġnot wend
ĠEng ine
Ġbede utet
u ted
ie gen
ie fer
Ġe arn
ĠB ob
Ġact ive
mÃ¤ ler
Ġmult iple
Ġgesam ten
anstalt ungen
ĠSch lag
Ġent w
ĠOr gel
o is
and a
Ġhe ll
Ġcomp lex
Ġgen ommen
Ġno te
Re ad
Ar t
Ġinst ru
zahl en
ĠFlor ida
ah nen
ĠDe velop
Ser ver
Ġarch ite
schaf ter
Ã¤hr t
w ell
Ġt ask
ma ÃŁ
ĠBest and
Ġintern et
ĠNutz ung
F ol
h te
ĠT urm
ĠT ransport
ks am
ĠP ower
Re f
M at
s a
Ã £
ĠK enn
ne e
Ġalle in
schein lich
Ġbenef its
re publik
ĠZu kunft
Amer ikaner
p unkte
re u
ĠQu alitÃ¤t
ĠBen utz
Ñ ĭ
Ġd unk
Ġ19 18
Ġor igin
Ġent scheiden
aut or
ĠWh ile
ha ber
geord neter
ĠM ik
im ar
ĠR et
iel ten
p erson
in ed
an walt
Ġst atus
Ġver z
W ie
Ġm id
m useum
w en
ul y
ĠFar be
ĠAustral ia
ĠS aturday
Ġer setzt
Ġklein er
Ġwonder ful
ĠS om
Ġ19 00
ind est
Ġjed es
D I
Ġ Ø
ag d
Ġl ic
ĠFried hof
ĠPat r
w ide
zeich nis
E l
m atch
w al
æ ľ
ĠM acht
ĠD ir
tra gen
Ġplay ers
Tra cing
Ġin j
Ġpass ed
ĠWei hn
Ġbeteil igt
m o
Ġd ich
Ġw ider
Ġb rachte
ĠM ach
om ie
Ġbe hand
Ċĉ ĠĠĠ
rif f
ĠVertre ter
k raft
l uss
ĠG olden
Ġbek ommen
ĠPol y
wind igkeit
ĠH alle
ck ing
Ġpla ces
Ġ192 9
W riter
h Ã¤user
ver fahren
ree k
imm el
S erv
ĠM un
Ġge ts
Ġde ath
Ġne igh
ĠBe ach
Ġcons ult
AT E
p at
s am
ĠFot o
Service Response
Ġsuccess ful
r ug
ĠS icht
Ġf lex
el ine
ĠC ode
Ġstart ing
Ġbath room
g on
r ats
Ġe dition
ĠSch le
() ))
Ġwelt weit
id ents
ĠBl og
fr iend
A ction
Ġn ov
id ung
Ġcom b
Ġtr ip
l ament
Ġb row
ĠW ood
ĠH off
ĠL ager
haus es
Ġbusiness es
Ġdirect ly
Ġannoun ced
D P
D S
ĠS ho
il i
Ġl ost
ry pt
wer ks
ur er
ĠProble m
R uft
w in
Ġg old
Ġl es
Ġim med
l ings
au ern
ib ly
ĠCh in
Ob jekt
Ġprogr ess
Ġatt ack
ĠB ul
s es
y ing
ĠM ail
Ġhand s
b as
ĠP ier
T ask
Ġa f
ĠS T
ĠG alerie
ĠBo ard
Ġrequire ments
Ġble iben
g rad
r as
ed y
ien en
ĠE ll
ĠL ex
ĠMen sch
Ġinterest ing
henswÃ¼rd igkeiten
Ġd istrib
ĠAus stellung
eld ung
d ouble
ĠEn ter
Ġcolle ge
ĠRegion al
en te
Ġl angen
ont o
Val ues
M atch
ĠS Ã¶
Ġch ance
m ore
Ġpro per
Ã¤d agog
reif en
u elle
Ġwir tschaft
Ġgo es
Ã© s
ĠBre men
Ġnecess ary
Ġf ilter
ĠP ri
ĠR oll
ĠGer ichts
Ġo l
ĠB ol
ĠT agen
ĠRe p
for men
Ġmy self
Ġj unge
Ġbet re
ĠNam ens
ĠA N
Ġdurch gefÃ¼hrt
ipp ed
Ġbrit ischer
Ġhinz u
G er
i ant
Ġan aly
we ig
mittel n
ĠComp uter
i h
in put
Ġc ulture
Ġ3 4
' d
Ġh Ã¤tte
spr ung
Ġ Ã¶stlich
Ġw edding
ĠO x
ĠBe zirks
Ã© e
Ġcl oth
ĠR um
res ource
fr ont
imp le
Ġabsol ute
ĠO ver
Ġweek end
Ã¤ u
Ġ19 19
gew iesen
S ession
b ilder
r id
Ġs ah
im ension
Ġit self
ĠMar c
heim er
Ċĉĉĉĉ ĉĉ
lav ier
Option s
B and
ut n
amerikan ischen
Ġh our
Ġcamp aign
ĠS ym
Ġc ases
ĠD istr
ir n
Ġbest Ã¤t
Ġdien te
Ã º
ĠT emper
ap ie
20 16
Ġfin ish
ĠspÃ¤ter en
ĠFahr zeug
k ampf
ĠSt ahl
Ġun it
Ġun mittel
ĠGroÃŁ en
yd ro
H ttp
Ġm ount
Ġv ac
ra uch
sch auspieler
ĠâĢ ¢
ms el
Ġlar gest
aug ht
ĠM ost
ei der
Ġse ien
ĠSc ott
B ahn
V AL
Ġn ature
ĠD E
stand s
er al
ĠW ander
ĠZ usch
af e
ĠVer kauf
Jahr hund
B S
h auer
ĠAn tw
W Ã¼rttemberg
ĠS atz
ly ing
iss ions
ĠHaupt stadt
Ġregel mÃ¤ÃŁig
C C
Ġs us
ĠD amen
ial e
Ġpre d
Un it
UL T
ic kt
os ed
ĠAn gaben
ĠgroÃŁ er
ĠBes onder
Ġs ag
Ġl ux
Ġre in
allow ed
N eben
Ġ Ä
Ġe inger
ers ey
Ġfor get
ei ge
ub en
Ġab ility
s l
w here
ĠLe icht
org ung
ĠBild ung
Ġcomplete ly
B l
Ċ ĠĊ
ĠB lock
ĠunterstÃ¼tz t
m ont
Ġ193 2
temp or
M ode
ĠE re
res p
ĠBau ern
R et
U s
Ġf ine
ff er
ĠHeil igen
S ec
Ġl Ã¤nger
Ġsch edule
ige m
Ġlevel s
Ġn omin
Ġ7 5
Ġhelp s
Ġsen se
Ġveh icle
Ġc ell
ig ungen
lin ik
mit glied
k unden
ĠBl ue
C ache
Z ur
ĠW erner
by te
ĠDec ember
ur l
ick ets
unt ime
Ġenc our
cript or
g ot
p a
Ġarbeit en
g ab
k ra
r est
Ã¼r gen
az ine
Ġpre uÃŁ
r ies
Gem einde
ĠÃ¼bern ommen
Ġsom et
Ġnieder lÃ¤nd
F re
us ed
ri pt
heit s
Ġ192 5
ĠGegen satz
le ger
ĠF ischer
ĠC all
Ġqu ery
I A
N A
Ġth ous
ĠUr s
Ġaktu ell
ĠLeist ung
ĠVorsitzen der
Tracing Enabled
an zen
ĠC anada
Ã¶l f
Ġmus sten
ĠPat ienten
forder ungen
ge legt
Ġn utzen
ran ch
omm ern
Ġar g
lan k
ĠSm ith
ĠChamp ions
Ã ½
Ġbe gan
wei le
m acht
is Any
ul en
Ġaus getragen
oh ol
", "
ven ue
Ġaut omat
z if
at ung
Ġwest lich
ĠHen ry
s ervice
Ġw ait
Ġehemal iger
ĠSt off
De fault
Met hode
Annot ation
C al
P l
en se
Ġthe msel
ĠG ust
Ġer laub
Par am
ĠZusammen hang
Ġreview s
sub string
ĠvollstÃ¤nd ig
ĠS uch
Ġge prÃ¤
ĠU RL
hal le
B ase
ch em
Ġser ious
| }
Ġbas ic
oot ball
hockey spieler
H ier
r t
ĠD rei
ra p
ĠGl Ã¼ck
ĠWer te
K ultur
R ad
ĠL y
ĠL aur
Ġcon du
pl ant
isAny TracingEnabled
C A
ĠE st
Ġg iving
Ġag re
esen ted
ĠErgeb nisse
Rec ord
ĠAr zt
Ġsupp l
Ġac cept
Ġoffer ing
roll er
cle ar
imat ely
Ġinvolv ed
f alse
g arn
ĠL ieder
ak s
Ġpart ner
ĠNatur schutz
P reis
W Ã¤hrend
e es
Â «
Ġe th
Ġle bt
p m
ĠW agen
Ġg Ã¼nst
ĠInter esse
g as
Ġer baut
Ġat tend
Ġbec ame
ĠFr ont
Ġverl or
Ġthemsel ves
g ner
Ġa p
ĠS S
ver lag
Ã¤n gt
ac ity
kret Ã¤r
la h
aupts Ã¤chlich
Ġ192 7
ĠM aschinen
ind ungen
Ġso uth
ĠPro zess
ĠSpe cial
ĠBÃ¼ cher
ĠO h
ob e
Ġ6 5
Ġob tain
Ġfun ktion
Ġsur round
ĠJu den
ĠSoc ial
ill on
Ġar ray
ron ic
ĠChrist oph
Ġitalien ischer
er be
am ing
rÃ¼ cken
Ġbl ue
ĠS um
Ġb uffer
ĠP ack
ĠÃ¼ br
is ation
ĠString Builder
Ġs ynchron
or al
an ien
ĠMus iker
Ġown ers
ĠHome page
ĠStru ktur
Ã£ o
K reis
p ace
Ġder zeit
ĠSt atus
qu ence
ĠAfric a
Ġm other
ĠCol or
ouver ne
Ġc andid
Ġg rand
Loc al
ĠSold aten
Ġin stead
ĠH ab
zeich nete
g Ã¤nger
v olle
ĠT hen
ĠÂ £
Ġander er
Ġstreng th
P olit
Ġv iol
ent liche
ĠW ater
la x
Ġricht ig
Ã ´
ĠM att
Ġh ar
ĠL i
ot al
Ġver antwort
se x
Ġpolit ische
f ur
ĠF al
Ġg ift
ak a
chn ung
Ġges etzt
ĠStud io
ĠStÃ¤d te
P RO
ĠC entral
Ġ} );
ĠBe handlung
Ġpre fer
ĠColle ction
ĠBeit rag
B ar
D o
p ossible
is ions
ĠP fer
In put
ĠB rown
Ġbe legte
Ã¶ nen
ĠAm azon
Ġche ap
L ast
Î ¿
Ġs an
Ġm aster
Ġj ungen
ĠPr im
Ġwicht ige
Ġstor ies
Ġ19 14
Ġrelat iv
b our
s ystem
Å Ļ
Ġstat ement
Ġlim ited
ĠÃ¤l ter
ĠZeich en
ĠFreib urg
Ġt al
Ġk aufen
ric s
ĠHerr schaft
Ġerziel te
l ike
n amen
ĠS ammlung
il a
Ġent lang
Ġexist ing
Ġd ark
et ts
Ġgesch rieben
Ġdefin it
ĠverfÃ¼ gt
ĠS ib
ĠR enn
Ġro ck
Ġcost s
c ia
Ġb irth
ru it
ĠPe ters
ĠPort ug
k ord
Ġs old
at oren
Ġge fÃ¼hrt
St ud
com es
Ġgleich nam
re al
ĠF ernse
ahr en
ĠAn lage
age gen
In s
Ġcorre ct
d is
f rom
ĊĠĠĠĠĠĠĠĠ ĠĠĠĠ
ĠRuss land
Ġdec ision
ĠEduc ation
S Ã¼d
sp rache
ĠAl fred
ĠQu ellen
v m
low ak
u id
ĠG Ã¼n
ĠJ on
stÃ¤nd e
ĠĠĠĠĠĠ ĉĉĉĉ
ĠL ab
Ã¤ss er
d as
Ġb aby
ĠB Ã¤
20 11
Ġleb te
Prov ider
il den
ĠE vent
ul pt
Re ader
ĠMed ia
ĠWill i
Ġmethod s
ĠForsch ung
ĠSpan ien
T hre
in y
Ġd omin
ar kt
ĠW in
Ġspe ed
Ġt ats
Ġver hinder
Ġsub mit
Ġcar ry
ĠDar stellung
ĠDreh buch
om ot
Ġto wards
ĠR ou
ate ur
ĠP ubl
ĠFebru ary
a ber
Ġk or
iz ations
lie der
St ore
Ġ193 1
ĠTra ining
Ġinst it
Ġ192 4
erke hr
j o
ĠW irtschaft
ĠâĢ ļ
R I
W ork
ar ante
ĠS amm
ag ram
20 15
Ġschw ed
ĠTechn ik
Ġroom s
N ieder
Ġp en
ĠW estern
par se
Ġsm art
O W
m and
s achsen
y e
ĠMar ine
ĠHe ute
Ġsol che
Ġfamil ies
Ġexp and
Des cription
Ġb orn
Ġe b
Ġp ages
Ġinter view
ĠNational sozial
Ber lin
E G
V erkehr
k g
ĠR is
ĠJ SON
Ġmot or
t l
el la
Ġunter st
Ġfol gt
Ġwichtig sten
ĠD ro
im me
Ã¤ll t
ist isch
we chs
ĠPh ot
Par ameters
Ġann ual
Ġgel ten
ĠVerwalt ung
ĠZ us
Ġcomfort able
ĠB rief
Ġer inn
Ġd ur
ĠG overn
tr al
Ġso c
Ġ4 8
ĠSchw ar
Ġtrans fer
A ut
f ast
Ġ ult
Ġd ry
Ġt Ã¤
ĠSp Ã¤ter
ĠMar ie
el er
ĠAt lant
ĠKarl s
Ġstru cture
Verein igte
un te
ĠF lo
Ġg uten
ĠPro ject
pf licht
K arriere
at ives
ĠK ult
Ġ{ }
Ġfert ig
n ummer
Ġh ielt
ĠL ig
Ġdar an
fÃ¼ hl
Ġcons um
T op
is tet
Ġch urch
ĠMan ager
ĠWebs eite
ĠH it
Sch w
ĠRich ter
ĠOp fer
ĠProble me
E is
S piel
le hn
ĠW ettbewerb
Ã© r
Ġro ot
print ln
te uer
Ġun abhÃ¤ng
Ã¤nd ler
20 12
II I
m ie
ĠL eit
ĠSt reit
Ġout door
Ġhealth y
c an
d ar
or et
ĠP od
Ġwieder um
Che ck
ĠS us
ĠP a
ĠP ot
ĠW ach
od or
leist ung
F unction
ĠEin fÃ¼hrung
ĠP or
ĠG attung
Ġst age
ĠÃĦ r
Ġindividu als
Ġsod ass
h old
Ġd ein
ikan ische
l oc
ĠC y
Ġsp ot
A X
ĠS P
ĠT able
Ġg as
Aus zeichnungen
tain ment
u gend
ĠW appen
Ġsub s
ign ed
Sch wei
con fig
Ġbeginn ing
Ġhom es
ĠMond ay
W erke
w eite
Ġb ul
ĠH und
stell er
ĠSpe zial
Deb ug
b ad
ĠF rench
aw a
ĠChar akter
ĠHinter grund
Ã¶rder t
ĠCont in
Ġkl ar
d ire
h och
re chte
ĠL ast
Ġver lieÃŁ
ĠVer fahren
Ġrep air
ĠS V
Ġus es
Ġoff set
Ġhistor ischen
umm ary
h agen
Ġb all
ĠIn fanter
ĠKar ten
minister ium
eign et
ĠJes us
akt iv
Ġw ild
ĠE hr
ĠH ause
ĠH ttp
Ġver gleich
F L
r d
Ġs yn
ĠVer teid
ĠSte fan
ĠZust and
Ġ il
Te chn
s ere
ĠCh ild
Colle ction
T arget
un i
el f
Ġ5 5
20 10
Ġangeb oten
N S
N on
k omp
Ñ Į
ĠS ach
Ġp et
ĠZ entral
Ġgew onnen
ĠĊĠĊ ĠĊ
h ow
h aps
v ier
Ġh auptsÃ¤chlich
ĠOr ganis
ĠKom ment
Ġverkauf t
V is
t op
ĠL ieb
Ġver treten
Ġopportun ities
Ġeurop Ã¤ischen
Ġexperien ced
Ġsomet imes
V ER
j i
m osph
Ġt emper
us er
ĠK lavier
Ġver mutlich
ĠPra xis
gent in
Ġsogen annten
r ight
w s
ĠB ass
Ã¤ her
am ous
ei ÃŁ
Ġent deckt
Ġback ground
ĠAustr alien
ĠF ind
ber e
Ġun ten
Ġgew innen
": "
n ungs
Ġn umer
ĠSt immen
ĠFÃ¼r st
ĠDire ktor
Ġwind ow
Ġey e
m ond
Î ±
č ĊĠĠĠĠĠĠĠĠĠĠĠĠĠĠĠĠĠĠĠ
is abeth
ĠA ff
ĠAn th
olog ies
ĠSant a
Ġf ashion
ĠHo hen
ĠMet all
Ã¤uf er
ĠSm art
S k
ĠF ritz
Ġgeb racht
uck y
Ġerw eit
ĠMod el
ĠT schech
ĠR ing
ĠGe h
Ġrepor ted
E Class
Ã¼ hm
20 14
ch ner
an ischen
Ġ19 10
Ġdem onstr
ĠBer eits
gemein den
LO G
Trace Component
b latt
i xt
ĠD ouble
ĠE lect
ustr ie
ĠInter view
Ġin zwischen
Ġo wner
Ġer f
rÃ¤ sident
tempor ary
Ä ĥ
Ġs em
Ġcont ains
ĠPf lege
ĠverlÃ¤ uft
Ġm ention
Ġmehr fach
ĠN ummer
Ġst ress
Ġst uff
kt ions
tell igen
ĠÃ ī
ĠNe ue
Ġverb reit
Ġbesch rieben
ĠTemper atur
b a
ĠS un
ĠT ri
ul s
ĠVer halten
Ġwe ar
geb racht
ĠÃĦ nder
Ġview s
Ġdeliver y
al led
and ers
ik ations
ĠSch laf
ĠGren z
Ġun bek
Ġum fang
az in
Ġdarauf hin
ĠVir gin
ĠA R
ichte ten
sel ben
ilit ary
n ational
ĠP aar
get Class
St adt
Ġqu e
reg ierung
Ġeng ag
Ġs ymbol
bo gen
Ġactiv ity
Ġunderstand ing
ĠB ist
ĠW affen
Ġg ro
Ġg ese
kn own
leist ungen
Ġsett ing
ĠerklÃ¤r t
gebie te
ĠW omen
ĠDeutsch er
Ġ192 6
ĠGrÃ¼ n
ĠCour t
Ġein st
ag ne
ert ung
ore a
Ġ4 2
20 13
ond ition
ĠSchw ester
Ġbestimm ten
or ial
al m
il lage
ĠG ame
lie fer
ĠMen ge
Ġ192 1
gang s
Ġaff ord
Lo ader
ĠF ield
Ġor ient
o z
St ack
Ġdar in
Ġsc ience
Ad resse
Ġa k
Ġb ill
Ġf uer
ĠH istory
ĠL ight
Ġthink ing
Ġbeh av
Ġelement s
c lose
r Ã¤t
er er
ĠL ord
ĠÃ¤ uÃŁer
en zen
ĠF ak
ĠH uman
In putStream
ĠSer ies
Ã¤ ische
ĠF ire
ĠFar ben
ĠTurn ier
C re
m Ã¼hle
Ġd ient
ĠM Ã¶
Ã¼ck sicht
ĠId ent
d urch
Ġs atis
Ġre ve
if er
Ġsp end
Ġf lat
ra ct
Ġev alu
Or der
ĠBas el
ĠFÃ¼hr ung
B undes
O K
ĠM ission
Ġ3 9
Ġte le
Bau werk
d i
Ġ Ù
Ġm iles
ĠL ind
ck len
ver ter
Ġav oid
Ġschw ar
M ill
Ġw ife
wer te
ĠBed ing
ĠIde en
ĠCommun ity
iti ative
y ond
ĠL ok
ĠAb teilung
Pro cess
Ġdesign s
Ġplay er
Ġadv ant
w an
on ial
it ude
br idge
Ġvers ucht
Ġ192 2
200 9
Z eit
ĠHe ft
utn ant
ĠEr inner
Ġ3 7
Ġent h
Ġbest immt
Ġschool s
at i
ĠR od
ĠL Ã¤ndern
ĠV ize
up s
Ġsp orts
Ġunter s
ĠLe on
Ġpur pose
ĠF un
Par ent
k opf
y les
Ġver t
Ġres olution
ĠCon ne
Ġsuch en
arl ier
ĠVier tel
Ġw uchs
Ġer fÃ¼ll
ad rat
ohn er
ident ial
ĠSer ver
pos ed
Ġeing esch
Ġ( "
ĠP ay
im ed
ĠBrand enburg
re ci
Ġerst es
Ġ192 3
ĠBesch reibung
Ġess ential
ĠCent re
w ise
ch mal
ach ing
Ġad vert
ĠHe ad
For m
Ġlim it
oun ter
Ġgesch affen
iat ely
Ġzerst Ã¶rt
ĠS eb
Ġv Ã¶ll
ĠW etter
ten ance
ow a
Ġver fÃ¼g
ib el
we gs
Ġex hib
anz er
gem einen
Ġcl ub
Ġplay ed
Ġmod els
ĠHÃ¶ hen
Ġchange d
ĠHeidel berg
t i
ig an
ĠV om
ĠSt ation
Ġtra gen
TY PE
an geb
Ġn ied
ĠR og
Ġr ights
Ġlie fert
ĠLie fer
ĠE igent
ĠFran ce
hand lungen
Ġprom ov
Off set
ĠC ross
ĠGe heim
ĠTr ump
pf lich
ĠGew inn
ĠFir men
Ġgan zen
Ġlov ed
Ġrepor ts
Ġverlie hen
fin den
Ġt emp
Ġl ines
Ġst aat
ĠLand schafts
Ġmov ing
ĠmÃ¶ch ten
" ).
B ox
or age
Ġso ft
gew and
Ã¶st lichen
Met adata
Ġcoll abor
Ġf arm
ĠT iere
ĠWe chsel
ĠArchite ktur
Ġdivers e
Ġexact ly
Ġv irt
ĠG irl
Ġzw Ã¶lf
Ġweiter er
ĠDÃ© partement
A utor
E hemal
ess ions
ies ter
Ġwr ong
Ġs and
Ã¤ den
ĠG Ã¼ter
ĠC O
Ġmit tels
ĠAn teil
Ġor d
ac ters
Ġar gument
ĠBes ucher
Ġfre qu
gangen en
zieh ungs
sie he
Ġex press
ied lung
Ġwen igen
ĠEre ign
ĠN av
Ġ< =
Ġlet ter
Ġnam ed
b ung
ĠP ok
Ġch ines
Ġcreat ive
ol ar
our ney
Ġcon trib
ph an
200 8
C ons
ĠK rank
Ġcomp leted
ĠPe ople
Bo olean
ï¼ Į
Ġt en
ĠK ohl
Ġpro ced
Ã¶r ung
ken nen
ĠSpiel zeit
Ġarbeit et
Ġerschien en
Ġill ustr
h ost
Ġf lieÃŁ
ĠZ ahn
ill y
IN E
Ġach ie
F ound
Ġd ynam
ĠM om
âĢĿ .
Ġf ight
Ġp f
ver stÃ¤nd
Ġme as
erk unft
ĠReg isseur
ĠRev olution
nes day
brit ann
Ġin sp
ĠP ed
ic ed
ĠR y
Ġwe g
Nach dem
Ġunterschied lichen
Ġdeg ree
E P
Ġl ots
Ġ19 12
ĠSch aus
ĠAb st
f Ã¤lt
Ġd auer
ĠIn t
ĠAuf gabe
tra iner
ues day
Ġhigh est
fra gen
u v
Ã ¥
us band
ĠB ett
ĠD arm
ĠV arian
ĠIs lam
Ġoffer ed
Client Exception
ĊĠĠĠĠĠĠĠĠĠĠĠĠĠĠĠĠĠĠĠĠĠĠĠĠĠĠĠĠĠĠĠĠ ĠĠĠ
augh ter
ĠGÃ¶tt ingen
Ġpre c
Col or
zip lin
Ã Ħ
Ġh arm
ĠRe chte
Ġsp Ã¤t
Ġsupp ly
reit ung
ĠArch iv
ĠNÃ¼rn berg
C P
Ġge halten
tr ans
ĠGes pr
gew Ã¶hn
ĠInd ex
ĠVert ra
Ġphys ical
m ethod
ro y
ĠD ank
gel d
ĠTe ams
Par ser
g ut
k osten
Ġ Ã¶
ĠV alley
ĠAn wendung
ĠEin s
Ġass ess
re f
Up date
ĠPrem ier
L S
ĠT ar
et ch
Ġl au
ĠU ser
ap y
Ġste ts
c s
Ġs ell
Ġg laub
ail s
At om
Ġpolit ical
Call back
ĠJak ob
n ern
Ġm iddle
Ġe le
Ġc ards
Ġg ave
ĠV illa
ĠAd min
Ġentsp rechend
D on
as che
ĠD Ã¶r
ĠT ore
Ġver lassen
ue ber
Ġcon ven
Ġsp ent
Ġmon itor
Ġart ist
ĠBew egung
zieh ungen
ĠdÃ¼r fen
ĠW alk
ann a
ay a
Ġ4 4
Ġsc ient
ĠÃĸ l
urs day
ĠBetrieb s
cklen burg
m y
v as
Ġst ieg
Ġbud get
D ouble
S he
it ur
ro te
Ġl ok
Ġpos it
ĠDire ctor
E W
p al
ĠAl tern
cl ude
let ter
Ġmein er
ĠDevelop ment
d essen
m d
ĠL ook
Ġj ud
b ibliothek
ĠD et
qu is
ĠGrund lage
Ġelect ric
ĠHers teller
Ġd ritte
Ġm ilitÃ¤r
ut ing
ach im
Ġnor th
Ġfriend ly
Ġjob s
zÃ¼ ge
D irect
o ÃŁ
Ġc ast
ĠP ak
ĠR icht
Ġan ges
Ġwe ather
19 45
unn el
Ġest ate
Ñģ ÑĤ
ĠDist rict
A ug
I B
P ass
Ġc amera
ze p
ĠBe zug
lan z
ĠAut ob
gor ith
g ern
ĠO ld
Ġhe at
Ġres pect
ĠFe hler
Ġpol ice
ĠMeister schaft
ĠAller dings
c or
m Ã¶glichkeit
ĠS em
ĠS ab
ran ce
ost on
ey er
Ġsh ape
ĠNach richten
itte e
n s
Ġw issen
and en
j ava
ol es
ĠG ene
ĠR am
elt a
ĠGes am
Ġviel leicht
ĠTÃ¼r k
Ġbott om
M en
ĠA qu
Ġsing les
L ock
È Ļ
er es
it ness
Ġc ru
Ġr Ã¼ck
gr Ã¶ÃŁ
Ġsh ared
Ġbut ton
ĠauÃŁer halb
Ġemploy ees
ĠÃĸff entlich
Ġfinanz iel
Ġgese hen
I F
Ġc abin
ĠV ort
ĠSt iftung
Ġent stehen
ĠAuf bau
act ive
ĠW eil
ber s
Ġacc omp
ĠKon fl
Ġfol gten
hol t
ĠOrt schaft
ĠStand ort
Ġconsider ed
or fer
ĠS ound
ĠS dk
Ġ2 50
stand ing
is ieren
il ien
ad or
Ġit er
Thre ad
c ar
ĠA fr
art ige
Ġur l
D ocument
Ġd agegen
st ern
Ġl ack
rie be
gef Ã¤hr
ĠWissen schaften
Ġamer ikanischen
ĠF inn
ĠEr de
lin ien
ĠIt al
fig ur
200 7
ĠGl obal
ic ing
geb nisse
ĠS n
ip es
stit ution
Ġs av
us te
ĠB it
ĠM ethod
Ġprof it
Ġunmittel bar
ĠB la
Ġre lax
Ġentsp richt
ĠCarol ina
B ack
i Ã¨
Ġt ree
Ġm is
Ġre li
Ġse lected
Ġhe ard
ust ain
gr iffen
Ġbet rieben
Ġges pielt
Ġserv e
Ġcoun ter
ĠBrÃ¼ cke
Ġpie ces
h orn
Ġh Ã¤lt
ist ance
Ġk Ã¤mp
Ġst ates
Ġauf gerufen
Ġbet rach
denk mÃ¤ler
ĠVo gel
D oc
ing u
ĠÃ¼ber wiegend
ĠApp le
Ġpack age
G roÃŁ
O p
Ġ q
im it
ĠK ammer
Ġhel fen
Ġcour t
Ġeff ort
Mus ik
Ġchallen ge
ĠPhilosoph ie
k ont
Ġg ere
ĠPro p
Ġpower ful
ar in
stru ktur
ĠDar Ã¼ber
ĠwÃ¼r den
A re
Ġr ates
Ġdire ctor
arz t
Ġinfl uen
B esch
Ġt ried
ĠJ ed
Ġaus tral
Ġsch le
w ander
Ġle gte
ĠEn gel
ĠMe tern
tens ion
Ġsur face
gy pt
ĠSow jet
D B
c raft
e ch
f ree
vers ammlung
ĠDaten bank
amer ika
Ġclass ic
ĠCas ino
2 000
Ġal bum
ger ichts
ĠKar te
ĠOb jekte
Ġstra ight
ĠFlugh afen
ĠSdk ClientException
G u
r up
Ã¼ m
ĠG ran
Ġwas n
tem pt
ĠMann schaften
Ġdev ices
T E
T ION
Ġm il
ĠH ot
Ġkomp lett
F rank
R ow
Z um
v ar
Ġs ym
ĠP enn
lic e
Ġapp reci
Ġbeen dete
200 6
Ġschw arz
ĠPap st
ĠBeit rÃ¤ge
f ind
i ot
p ite
ĠK urt
ak ed
ĠBild ungs
Ġview ed
West falen
re y
ĠF isch
Loc ation
W arn
iss ert
Ġob serv
ĠUr laub
Ġinc red
war en
.: .:
L a
el and
ĠM ov
ĠK och
lat ed
Ġmay be
Ġupd ated
Ġregard ing
ĠT isch
Ġl Ã¤ng
ĠgrÃ¶ÃŁ ere
ĠMÃ¶glichkeit en
Ġqualif iz
ĠFrancis co
is her
un ehmen
ro ck
ĠG ames
ĠChr is
Ġgu arante
Ġhol iday
deutsch en
din and
Ġsle ep
f os
s ur
Ġh y
ĠSpr ing
baut en
Ġdefinit ely
M ember
re hens
ĠEl isabeth
fr ist
B ild
ĠOr dens
ĠWei ÃŁ
ĠMor gen
Ġassoci ated
ĠermÃ¶glich t
is Debug
ĠS tellen
Ġp ush
ĠC ru
ow ski
ĠRe view
rie chen
ĠRhein land
g roup
Ġn ation
ĠG rÃ¤
Ġg alt
ĠL ar
ly wood
ob by
ous ly
ĠgehÃ¶r ten
ĠAnd roid
Ġsag te
s itz
ĠA wards
Ġl ab
ce ed
ĠEin trag
hÃ¶r den
ĠHein z
lev ant
Ġey es
Ġk anad
Ġim ag
ĠIn tegr
ĠZeit en
ific ate
ĠÐ ¿
stoff e
Ġleb ten
al ed
Ġf em
ig ger
Ġstud ies
ĠMat th
lÃ¤uf er
ĠF ert
Ġsp irit
Ġsetz en
Exec ution
W eit
Î ¹
ĠM Ã¤r
Ã¤ ger
ĠOr te
ĠAuf nahme
eiter te
brÃ¼ cke
aut en
ĠLeist ungen
b aden
Ġ util
est ra
Ġgr ib
Ġcol ors
Ġeconom ic
ĠR ay
ĠSie ger
St ar
Ġtrans form
r ik
al te
ĠH ub
ĠH orn
ĠR aj
ĠV iele
Ġtra de
Ġappro x
Ġprim ary
G ruppe
x x
ar ischen
ick er
Ġpre vent
Ġob wohl
Ġverw ende
Ġvis itor
Ġstar tete
Ġadv ice
ir ge
icht lich
Ġeffe cts
ĠSied lung
F uture
á Ģ
ĠSh op
Ġcontin u
ĠKap elle
mÃ¶ gen
ĠK ritik
ĠC ook
Ġco ffe
D em
I R
M E
ic ations
os ite
sp ar
lauf en
ĠTod es
ennt nis
Ġcent ury
term ine
wes ome
g Ã¼lt
ĠC ard
Ġr ich
Qu ellen
Ġkann st
Ġbek am
Ġac adem
med aille
ommer ce
Ġbesonder e
Ġbro ught
ĠFer ien
-------- --------
ĠWed nesday
F ra
ĠVer lauf
Ġne arly
io de
Id ent
con ne
britann ien
V P
| -
Ġt ips
ie fe
ĠN ation
Ġge tr
Ġhe il
ĠGer hard
Ã¼tz t
Ph one
Ġocc as
gren ze
Ġhund red
L iste
Ġh op
lo ok
ĠTh ursday
Ġtr uly
ĠAd olf
Ġpass ion
ĠUnd er
ĠB ibliothek
Ġh il
ĠT uesday
ĠBes atz
Ġconne ct
ĠFrÃ¼h jahr
Ġeffic ient
ĠFound ation
w ach
ĠH ir
Ġl Ã¤
Ġbet rug
Ġsho pping
Ġinvest ment
A F
A p
f le
Ġ uk
st at
ĠT ok
Ġand ers
Ġher gestellt
âĢĿ ,
ĠReg ister
Ġacc ur
ĠChar l
Ġwahr scheinlich
ĠSin ne
ĠWider stand
Ġverantwort lich
u i
v ement
Ġd etail
ĠK en
Ġch air
Ã¶r en
oh le
Ġersch eint
Q ue
ra ys
Ġ19 17
mal er
ĠDeutschland s
ĠUl rich
re c
ĠG laub
Ġaus geb
ĠNieder land
f ilter
n ode
or ganisation
em ark
atur ing
ĠbeschÃ¤ft igt
ĠW unsch
ĠV ar
Ġim press
Ġpro p
ug in
Ġch at
ru he
app er
Ġges etz
Ġbek annten
Ġgu ys
Ġze ich
ĠLauf e
emin ar
ĠGust av
Ġver pflich
In valid
Ġfe et
ĠH aw
Ġdem and
Ġwir kte
ĠGes ell
gra ben
ĠDem okrat
B i
t liche
ier n
Ġme asure
ĠAb schnitt
ĠLe op
Ġuse ful
200 5
Ġinternational e
Ġunterst Ã¼tzen
I OException
er a
ĠS PD
ion e
Ġbe ob
ir al
gra de
wor ks
T A
og a
Ġgo als
ett ings
Ġerst re
stru ktion
Ġfeel ing
ĠComm ittee
Ġded icated
H o
p olitik
ĠD VD
Ġan erk
Ġde ad
lin der
ĠEin heit
ĠAuf grund
Ġro b
ock ey
Ġphot ograph
f amilie
p olit
ĠSch e
pl Ã¤tze
Ġnumber s
ĠIhre m
Ġbro ad
Ġincre asing
un a
Ġc ash
Ġab geschlossen
val u
Ġdist ance
pend ent
Ġf ather
id den
ĠOb serv
ĠHistor iker
? ?
st Ã¤tten
Ġex erc
ĠBe ck
ĠBr asil
Ã¤hn ung
Ġmet al
s ol
ĠTh anks
ĠAut oren
fass ungs
Ġmax imal
c are
ĠN ahr
Ġzu gleich
ĠIn ner
Ġgen annten
Ġ8 00
bild ungs
Ġbas is
Ġess ay
k rÃ¤fte
p et
ĠT hr
Ġspr ing
z ub
Ġ19 13
arb on
ĠvÃ¶ll ig
- )
S eg
g au
ĠP S
Ġj em
Ġdis k
ĠgrÃ¶ÃŁ eren
Ġswe et
B est
Ġs ituation
Ġw inter
Ġw ants
st on
ĠSt an
end a
ĠVerb and
ĠÃĸffentlich keit
z te
ï ¾
ĠD omin
Ġth read
ĠSch rift
omm od
Ġsow jet
Ġwel come
Ġmean ing
l Ã¤nder
ent in
ĠG Ã¤ste
ist a
ĠJ ew
ind ustrie
ĠGel Ã¤nde
] );
Ġh usband
ĠR ath
ĠO ther
Ġzu erst
Ġbrit ische
Hel per
Ġd Ã¤n
ĠS up
as ks
Ġr ules
ĠTh Ã¼r
Ġappro pr
Ġcoffe e
' ,
Ġcom ments
Ġpr Ã¤
Th ese
Par ams
Ġeinges tellt
Ġbenef it
R ed
ĠD ol
Ġge gebenen
los en
Ġste el
Ġfin ished
En g
ĠKon k
Ġoper ation
ĠT imes
ĠK ath
sch m
ĠL iter
Ġer gÃ¤n
ei ht
ĠOr der
Ġdiffer ence
it is
or b
G ER
k lass
Å «
sch loss
ang o
Ġverw enden
glieder t
T im
c ore
Ġz Ã¤hlt
ĠN eb
Ġde termin
ĠAn y
Ġhe ader
stell ungs
Ġpar se
ĠSchul en
klÃ¤r ung
Ġteach ing
Ġthe me
st ock
ĠF ord
ĠL ine
Ġdar gestellt
Ġdr iver
Ġprofession als
ĠKap it
ĠBy te
ouverne ur
D en
Ã ł
Ġb oy
ĠA u
Ġv olum
ĠW ohl
ein d
ew ork
ze ption
ĠBe ge
ĠBar bar
Ð¸ Ð
Ġthous ands
t ml
Ã ĥ
Ċ ĊĠĠĠĠĠĠĠĠĠĠĠĠĠĠĠĠĠĠĠ
ĠH ell
ĠL ib
mit glieder
Ġhelp ing
ĠhÃ¶ch ste
ĠPers Ã¶n
L C
er em
ĠS inn
ĠT a
ed ition
ord net
pf lege
Ġprogr amm
schul en
ĠErfahr ungen
Ġs agt
Ġm ill
ĠK andid
ĠEurop Ã¤ischen
Ġinnov ative
m ess
Ġc lin
ĠP en
ber eitung
ĠN ight
ĠJahr zehn
ĠFor st
ĠFranz Ã¶s
ĠBern hard
ĠMicro soft
Ġb ag
ĠM aur
ic ious
ap ers
ho ff
ĠPar lament
Ġsec ure
Out put
\\\\\\\\\\\\\\\\\\\\\\\\\\\\\\\\\\\\\\\\\\\\\\\\\\\\\\\\\\\\\\\\\\\\\\\\\\\\\\\\\\\\\\\\\\\\\\\\\\\\\\\\\\\\\\\\\\\\\\\\\\\\\\\\\\\\\\\\\\\\\\\\\\\\\\\\\\\\\\\\\\\\\\\\\\\\\\\\\\\\\\\\\\\\\\\\\\\\\\\\\\\\\\\\\\\\\\\\\\\\\\\\\\\\\\\\\\\\\\\\\\\\\\\\\\\\\\\\\\\\\\\\\\\\\\\\\\\\\\\\\\\\\\\\\\\\\\\\\\\\\\\\\\\\\\\\\\\\\\\\\\\\\\\\\\\\\\\\\\\\\\\\\\\\\\\\\\\\\\\\\\\\\\\\\\\\\\\\\\\\\\\\\\\\\\\\\\\\\\\\\\\\\\\\\\\\\\\\\\\\\\\\\\\\\\\\\\\\\\\\\\\\\\\\\\\\\\\\\\\\\\\\\\\\\\\\\\\\\\\\\\\\\\\\\\\\\\\\\\\\\\\\\\\\\\\\\\\\\\\\\\\\\\\\\\\\\\\\\\\\\\\\\\\\\\\\\\\\\\\\\\\\\\\\\\\\\\\\\\\\\\\\\\\\\\\\\\\\\\\\\\\\\\\\\\\\\\\\\\\\\\\\\\\\\\\\\\\\\\\\\\\\\\\\\\\\\\\\\\\\\\\\\\\\\\\\\\\\\\\\\\\\\\\\\\\\\\\\\\\\\\\\\\\\\\\\\\\\\\\\\\\\\\\\\\\\\\\\\\\\\\\\\\\\\\\\\\\\\\\\\\\\\\\\\\\\\\\\\\\\\\\\\\\\\\\\\\\\\\\\\\\\\\\\\\\\\\\\\\\\\\\\\\\\\\\\\\\\\\\\\\\\\\\\\\\\\\\\\\\\\\\\\\\\\\\\\\\\\\\\\\\\\\\\\\\\\\\\\\\\\\\\\\\\\\\\\\\\\\\\\\\\\\\\\\\\\\\\\\\\\\\\\\\\\\\\\\\\\\\\\\\\\\\\\\\\\\\\\\\\\\\\\\\\\\\\\\\\\\\\\\\\\\\\\\\\\\\\\\\\\\\\ \\\\\\\\\\\\\\\\\\\\\\\\\\\\\\\\\\\\\\\\\\\\\\\\\\\\\\\\\\\\\\\\\\\\\\\\\\\\\\\\\\\\\\\\\\\\\\\\\\\\\\\\\\\\\\\\\\\\\\\\\\\\\\\\\\\\\\\\\\\\\\\\\\\\\\\\\\\\\\\\\\\\\\\\\\\\\\\\\\\\\\\\\\\\\\\\\\\\\\\\\\\\\\\\\\\\\\\\\\\\\\\\\\\\\\\\\\\\\\\\\\\\\\\\\\\\\\\\\\\\\\\\\\\\\\\\\\\\\\\\\\\\\\\\\\\\\\\\\\\\\\\\\\\\\\\\\\\\\\\\\\\\\\\\\\\\\\\\\\\\\\\\\\\\\\\\\\\\\\\\\\\\\\\\\\\\\\\\\\\\\\\\\\\\\\\\\\\\\\\\\\\\\\\\\\\\\\\\\\\\\\\\\\\\\\\\\\\\\\\\\\\\\\\\\\\\\\\\\\\\\\\\\\\\\\\\\\\\\\\\\\\\\\\\\\\\\\\\\\\\\\\\\\\\\\\\\\\\\\\\\\\\\\\\\\\\\\\\\\\\\\\\\\\\\\\\\\\\\\\\\\\\\\\\\\\\\\\\\\\\\\\\\\\\\\\\\\\\\\\\\\\\\\\\\\\\\\\\\\\\\\\\\\\\\\\\\\\\\\\\\\\\\\\\\\\\\\\\\\\\\\\\\\\\\\\\\\\\\\\\\\\\\\\\\\\\\\\\\\\\\\\\\\\\\\\\\\\\\\\\\\\\\\\\\\\\\\\\\\\\\\\\\\\\\\\\\\\\\\\\\\\\\\\\\\\\\\\\\\\\\\\\\\\\\\\\\\\\\\\\\\\\\\\\\\\\\\\\\\\\\\\\\\\\\\\\\\\\\\\\\\\\\\\\\\\\\\\\\\\\\\\\\\\\\\\\\\\\\\\\\\\\\\\\\\\\\\\\\\\\\\\\\\\\\\\\\\\\\\\\\\\\\\\\\\\\\\\\\\\\\\\\\\\\\\\\\\\\\\\\\\\\\\\\\\\\\\\\\\\\\\\\\\\\\\\\\\\\\\\\\\\\\\\\\\\\\\\\\\\\\\\\
Ġf elt
Ġm ission
ĠM ake
ĠK in
Ġ190 8
Ġblo od
k ammer
Ġn um
ĠG reg
Ġcan cer
Ġprodu ziert
ĠÃľ berg
Ġerw arb
Ġheut ige
Ġestabl ished
Ġs at
ĠM id
ĠO pt
Ġlink en
F in
N et
e v
Ġc old
ĠW Ã¤r
sen s
Ġar gs
ĠMan y
gem eine
ĠMark eting
T S
or row
st ation
Ã¶ d
Ġk ommun
ct ic
ri age
ĠQu al
Spe c
ĠrÃ¶m isch
in ary
Ġs agen
te au
ĠS ir
ĠsÃ¼d lichen
Ġdise ase
. ),
gra f
Ġdi agn
ĠBÃ¼ ro
Ġpop ul
w Ã¼r
Ġw ert
os a
ĠLe e
Ġte ams
Ġpre par
con text
zug s
Ġmax im
crib e
Ġexec ute
j ob
m ail
u an
č ĊĠĠĠĠĠĠĠĠĠĠĠĠĠĠĠĠĠĠĠĠĠĠĠ
Ġw and
ĠS ituation
st uhl
ĠE ck
Ġ19 11
se ud
pe cts
Ġtr ust
Ġgem Ã¤ÃŁ
Ġchar ge
Ġmult i
ĠSim on
Ġstrateg y
Oper ation
C ar
ĠE qu
ĠL ear
ĠEn s
Ġinter ior
ĠFil ms
ĠgeprÃ¤ gt
b al
Ġf ill
Ġover all
fass te
value Of
Ġocc ur
ĠProdukt ions
V ar
j en
Ġturn ed
Ġentsprechen den
Ġt Ã¼rk
ĠG olf
Ġob j
Ġsol id
Ġgef Ã¤hr
Ġbring t
Ã¤ll en
ĠFer dinand
`` ``
ĠNik ol
< >();
Ġw ine
Ã¼ mer
ĠC ost
ver trag
Ġver g
ign ment
Ġprodu ced
Ġra ce
grÃ¼nd ete
ago ge
ĠD Ã¤n
ĠH Ã¤user
Ġl isted
os is
Ġcom par
iz z
auf trag
Er baut
Ġcap ital
ĠSchaus piel
w itz
Ġl abel
Ġtop ic
M ult
Ġw he
ĠR h
ĠR ab
if ik
Ġcon ference
Ġent gegen
Ġdr ink
Ġprote ction
ĠEnts te
Ġwa iting
m ack
Ġ Ã¶ffentlich
ch ild
ĠE lemente
Ġen h
Ã¤hl ten
Ġfield s
Ġentw eder
Ġt em
at re
ur b
ĠC ra
Ġer heb
Ġdam age
ĠFil me
b lock
Ä Ľ
Ġf amous
Ġc op
ĠC lin
get Type
mer ksam
ĠErz Ã¤hl
ĠC ustom
sp er
ĠChe f
Ġwei b
Ġbeaut y
Ġt ief
ic ine
ov a
iz eit
Ch annel
ĠÂ §
FA ULT
> ,
K urz
as ts
ĠW ag
ann ed
The ater
Ġprodu ce
ĠHand el
ĠInst rument
Ġeas ier
lei hung
ĠhÃ¶ch sten
D isk
k ul
k ts
Ġb itte
Ġbre it
Ġclass es
ro ad
ro ugh
pro gramm
ĠTechn ology
ĠNet work
ĠEntscheid ung
ĠjÃ¤hr lich
n g
ĠF ull
Ġver schw
we il
ĠÃ ł
Ã¼nd ung
ĠTeil en
bo ten
ĠWor ks
Ġopen ing
Ð¾Ð ²
ĠPfarr kirche
ĠS ig
ĠS av
Ġm Ã¼nd
Ġn ut
ĠT anz
ĠK os
ĠH T
Ġre asons
Ġge eignet
qu es
Ġ6 4
ĠFor men
isten z
ĠLeist ungs
ĠTex te
ĠWirk ung
G ew
ĠW a
Ġle er
Ġman ager
ĠVor aus
Ġmus ikal
ĠComm ission
Ġpress ure
ĠWilli ams
B ad
j ew
Ġ ut
ĠS qu
Ġbe an
ĠN a
ĠÃ Ĺ
Ver Ã¶ffentlich
ĠBei de
Ġautom atic
is Entry
ĠB lo
ĠD ra
Ġk Ã¼nstler
Ġle itete
rie den
Ġ6 00
mann s
ĠZw eit
ĠWeltk riegs
wÃ¤r t
**** ****
isEntry Enabled
Ġs icht
pe ctive
ĠVer Ã¤nder
Ġcon stant
fl ow
ĠAd els
Ġthan ks
ĠStr ateg
Ġdat abase
ĠJac ob
ĠB ang
il ian
ĠL am
rÃ¤ ume
onn a
ĠWohn ung
ĠBlÃ¼ ten
Ġs up
an er
Ġe arlier
ĠN ick
Ġ/ *
Ġbel ie
Ġcomm and
ĠFahr zeuge
ĠPl us
roll en
UR I
ĠDat ei
Ġrespons ible
Ġausgest attet
f lo
ĠB oston
ĠC orn
Ã¤r ke
Ġserv ed
ĠUnivers itÃ¤ts
ĠStud enten
por ts
reit en
Ġpay ment
Ġextrem ely
P C
er te
Ġb atter
ĠA rab
Ġv ict
ĠK el
be g
ipp s
aj a
wahl en
geordnet en
Ġcrit ical
D ollar
P lan
k rieg
t y
im ents
Ã© n
Ġflo at
unsch weig
Ï Ħ
ĠH ig
ĠC are
ĠEin ige
ĠSchw eden
ĠCont ent
P AR
en kt
Ġt ransp
ent um
Ġher r
Ġsc en
Ġstand ards
ĠTro tz
ĠSchm idt
z one
Ġf ans
ĠG lo
Ġj ourney
Ġallow ed
hÃ¶ he
ordin ate
ĠnÃ¶rd lichen
ĠOx ford
Ø ±
re l
re in
Ġp air
ĠM ah
ĠC ho
ĠV iol
ĠEr satz
ĠAus druck
ĠEx ec
ĠNord osten
Ġeinge fÃ¼hrt
++ ;
fel der
ĠFeuer wehr
ĠSec urity
igr ation
ĠM i
ste ht
get Key
Ġwest lichen
ĠGerman y
zus tellen
f Ã¶rder
ĠR osen
Ġg ingen
ĠZ ent
cre te
Al bum
ĠIde e
Ġchallen ges
ĠSchles wig
ĠN ote
ĠSp ann
sh ire
isten ce
Ġsur v
ĠMain z
J an
Ġs itu
Ġer fahren
Ġste ps
ĠAd am
or dens
Ġf al
ĠB M
Ġp aid
ĠE ach
Ġad vent
ĠMos kau
Ġmem ory
Ġach ieve
' )
m aterial
it o
ro at
ĠW ord
ĠAl ters
Ġfr ame
por ation
Ġprote ct
AG E
H ash
Z w
at te
ĠIn halt
ĠMon at
ĠBron ze
Ġimmed iately
ĠDistr ikt
O lymp
Ġs ucht
ĠD ub
ĠL au
Ġal ter
ser ver
quire d
Ġkur ze
Ġsogen annte
Ġcas ino
it iz
ĠB ab
Ġre ference
Ġcon vers
part ner
ĠMittel alter
Ġgleichnam igen
l Ã¤r
Ã¼ st
af el
ĠRe port
Ġch annel
sk y
Ġret ail
ĠGrÃ¼nd en
ĠPfarr er
m es
ĠK urs
ĠSt rand
ag ra
Ġcon cept
Ġ4 1
Ġpar ameters
Ġact ual
ĠMon aten
ĠRÃ¼ck en
latt form
Ġredu ce
Weit ere
S G
ä º
Ġh ospital
ĠP oint
ĠJ ersey
ĠChr on
Ġprodu z
stra hl
ĠLin ks
Ġmen sch
ĠElekt ro
J vm
M ot
V e
am ed
Ġze igte
ĠGroÃŁ britannien
ĠSchrif ten
Ġstre et
Ġsynchron ized
Ġerweit ert
G o
a ctions
ĠS oph
Ġ( ,
ĠP unkten
Ã¶ der
Ġber Ã¼hm
ER R
ĠNord rhein
anc ing
wert ung
Ġh a
Ġun be
ĠRe public
ĠY oung
ĠVor der
son sten
200 3
ĠfrÃ¼her en
ĠKonz ert
P ool
el or
Ġfor ce
ien cy
Ġqu ant
Ã¤us ern
ĠJe ff
Ġintern al
R oot
u ern
Ġs um
Ġin f
ĠB ade
eb e
ĠVer antwort
Ã¼t te
Ġruss ischen
Iter ator
: :
B et
T ags
Ġg ren
ell i
Ġent ity
leg ten
200 4
ĠOper ation
k in
u um
Ã¶ pf
be zogen
ĠLand wirtschaft
ĠGra fen
icher ungs
Ġkein er
čĊ čĊĠĠĠĠĠĠĠ
ĠEhe frau
L abel
n etz
Ġw ebs
ar ily
ur st
Ġc at
ĠF alls
Ġer kennen
isDebug Enabled
H ome
Ġc entral
ĠE le
ĠSp iegel
ho fen
Ġdeutsch sprach
arch iv
Ġtechn ical
ĠBre ite
B es
G E
ur i
ĠH aft
Ġg olden
ĠL aut
Ch ange
Ġger ing
Be vÃ¶lker
ĠĊĊ ĠĊ
ĠBen ed
ĠFlug zeug
ĠT Ã¼b
ra k
ĠL abor
Ġaus ger
Ġhin gegen
l ife
Ġa head
Ġf rag
ĠH afen
Ġverb ess
ĠArch Ã¤
Ġmov ed
Ġhoch wert
Ġd rop
Ġs y
ĠK ron
Ġre chten
ĠZ erst
ap el
Ġman ual
Ġad vanced
ĠHer bert
Ġchar acters
Ġorgan izations
Pat tern
C omm
P A
t or
ro chen
ĠP ac
ĠE ven
den burg
if ft
Ġpr esented
afr ika
merk ungen
Vari able
z ul
et he
ĠK amer
Ġz Ã¤hlen
ĠC a
ul f
ot ten
() ).
ĠTeil nahme
Ġdr iving
e vent
p an
w el
Ġc ars
ic ial
ĠG ang
ĠW Ã¼rz
Ġse ven
Ġwe ist
eil en
Ġ190 4
Me ister
B is
l Ã¶
ĠW M
Ġth ank
ĠRe is
ĠLe vel
ĠFl Ã¼gel
ĠCon ference
Ġhig hl
lÃ¤ss lich
issert ation
c ause
å ı
ĠS ystems
ĠAus land
ĠFor um
Ġbestimm te
ĠAfric an
Ġbeein fl
p ool
Ġbe yond
Ġl Ã¶
ate ver
Ġsh own
arbeit er
ĠArbeit er
Ġprote cted
frastru ktur
ĠWeihn achts
c ount
ĠA S
ĠB ir
ĠH aar
ĠÃ¼ber geben
Ġgu y
r ische
s ource
ĊĠĠĠĠĠĠĠĠ ĠĠĠĠĠĠ
ĠEr b
ov en
iz ien
ĠPro te
Ġbeg onnen
ĠSÃ¼d westen
Ġmoder nen
ur ts
st he
Ġde termine
Ġ190 5
ĠKn oten
Ġaut o
Ġsay ing
bie ter
Ġrequ ires
P ER
h ar
Ġm einen
ĠP ath
ĠAn griff
form ations
Ġrec ords
) {
e lement
ĠD rit
ĠP rag
ir ing
ste chn
Ġdevelop ing
Wh ile
ĠArchite kt
Ġitalien ischen
Ġep is
ðŁ ĺ
l ar
ĠA L
ĠP age
Ġart ists
Ġeven ing
ĠDeb Ã¼t
Ġm ut
ĠF ootball
ĠW ho
um a
ĠJ ava
ip fel
ath on
Ġstand en
Ġexc iting
ĠLeop old
Å ¾
Ġe igent
ĠD J
ĠF air
Ġbe legt
Ġl ern
Ġge kommen
Ġnah men
N ow
Ġf an
ĠC lick
ĠTra in
!! !
ĠnÃ¤ch ste
Ġgre ater
Ġmittler weile
P e
p ot
w arn
an en
ĠS QL
ĠA ktion
Ġse cret
ĠÃ¼ber haupt
Ġ189 0
ĠEd ward
ĠErz bischof
Ġdig it
B el
ĠD ialog
Ġle aders
co very
Al le
ĠÃ¤hn lich
ĠM ike
de cken
ĠE ur
ĠL ew
Ġge zeigt
ug u
ĠSp orts
Ġgeb ildet
kl us
Ġexc ited
W ind
ç ļ
ĠB an
ĠV el
Ġr um
Ġde lete
Ġ4 6
ĠB oy
ĠK assel
Ġg ather
ach tet
ce an
Ġpro ud
Ġcomp rehens
Ġeinz ig
H L
it ag
Ġf uck
ĠEurop ameister
ĠÃ¼br igen
ĠVirgin ia
Ġg ran
Ġsh aring
int on
ĠIns gesamt
Ġident ify
bÃ¼ cher
P la
ĠV ari
ĠO R
ag ers
aus stellung
Ġhe avy
for mer
Ġdire ction
Ġend gÃ¼lt
Ġmov ies
g han
ie den
Ġr ing
af ft
Ġweit gehend
pro cess
Ġsoc iety
b aus
Ġ ueber
ĠR ub
ĠL Ã¤nder
ber n
Ã¼r en
je kten
Ã¤l de
ĠÃ¶sterreich ischen
wh ile
C ommand
al o
ĠS tell
Ġe at
ĠA ccess
ol en
ĠMar ien
Des criptor
ĠFunktion en
z in
le hr
Ġc ategory
ver treten
Ġ4 9
Ġben ach
Ġcertain ly
KE Y
ĠSommers piele
k arten
s berg
el ess
ĠN ode
ĠNieder sachsen
Ġlo an
ĠHar ry
ĠKÃ¼ che
ĠFig ur
Ġtats Ã¤chlich
c en
c ard
or i
re form
Ġsp read
tel n
uss ion
auf hin
Ġacc ommod
Ġfind ing
Ġclean ing
C urrent
Ġer b
Ġal though
Ġsch eint
ex ec
ix el
ĠZug ang
J ul
b ungen
ĠS af
ĠD iv
ĠP ow
Ã¼n sch
ĠGra d
Ġtechn iques
Ġincre ased
Ġunterschied liche
Ã¤chs ischen
r aten
Ù Ĩ
Ġm ode
ĠK ommission
sh aus
Ġpol y
Ġcommun ication
Ġengl ischen
Ġd aughter
Ġh aven
ĠP lÃ¤
Ġcon vert
ĠÃ¼ber tragen
Ġsp rach
Ġman age
ĠUnter nehmer
ĠGra z
Ġparticular ly
U ID
z ur
ĠN ap
ĠVer anstaltungen
Ġqu al
ĠQualif ikation
Ġf lag
ĠW es
Ġfor der
Ġcont ain
It alien
ĠPre uÃŁen
Ġbig gest
bre ak
ĠJournal ist
Ġnam ens
Ġm Ã¤nn
Ġwh ose
ĠMuse ums
F ailed
m t
en ken
es is
ĠS of
ĠW ik
Ġer stellt
urn ier
ĠKon zer
Ġpar ams
Ver b
Group Name
ĠA le
Ġv ision
ab elle
Ġcom bin
du ard
ĠFamil y
f it
g red
ĠS ince
ĠK ong
ĠW erb
Ã© t
fÃ¤h igkeit
ch or
Ġw ire
ĠK ard
ies e
ĠRe fer
ÃŃ a
ĠKommun ikation
W el
ĠA M
ĠH ospital
Ġfor ms
rom e
Ġsc ore
gesch rieben
Ġvers ehen
Ã¶s ungen
Ġexper iences
H ost
l Ã¤nge
ĠH oll
est amp
ett ing
ĠAlex and
ĠV ideos
Ġk auf
Ġsm ooth
Ġexper ts
Ġ190 7
ĠDurch messer
stÃ¼ck e
Ġverst Ã¤r
Ġde cl
20 19
Ġpat ient
ĠGeburt stag
g reg
in it
as tern
Ġvor bei
ick e
ĠBundes republik
ĠSer ien
Ðµ Ð½
ĊĠĠĠĠĠĠĠĠĠĠĠĠĠĠĠĠĠĠĠĠĠĠĠĠĠĠĠĠĠĠĠĠĠĠĠĠĠĠĠĠ ĠĠĠĠĠĠĠĠĠĠĠĠĠĠĠĠ
;;;; ;;;;
posit ory
L I
ol s
im ens
eb all
ĠSch ritt
... )
ĠNe uen
Ġweiter es
ĠNord westen
ĠProdu zent
Ġsen ior
Ġrestaur ant
t yp
on ia
ar ische
ĠVer hÃ¤ltnis
sp ace
Ã¤n ner
Ġ4 3
Ġpe ace
bo olean
ĠStra f
reg ion
ĠGroÃŁ e
ester day
ĠMet hoden
ÃŃ n
ĠFig uren
L age
â Ĥ¬
ĠL ittle
ein anders
ph y
Ġad ult
Ġsc ale
akt or
Ġmot iv
Ġrad io
Ġexpl ore
iw od
t um
ĠD adurch
Ġir gend
d b
Ġre levant
tr an
Ġvor gesehen
Ġen dete
ĠTod ay
ĠJur ist
ĠChin ese
J son
ĠM P
Ġh ers
Ġl i
Ġon to
ĠIn nov
cl es
ĠPr iv
reg ister
ĠSc iences
Ġprof ile
ĠHam burger
Ġdest ination
ĠT wo
Ġfe hl
Ġcover ed
J e
c ons
Ġa ward
it ors
ur ers
ĠD iffer
ĠT ief
ĠF ant
ĠG riechen
ĠC A
Ã¶r ter
ac ing
Ġ4 7
app e
Ã¤hr ung
Ġgra de
ĠEben e
D ER
V ol
w riter
x ml
Ġse ch
Ġqu arter
ĠFe hl
At tributes
Ġfac ilities
Ġentsprechen de
n t
it em
Ġs ample
Ġf ung
ĠD ichter
ĠT el
ĠP ast
ĠK ab
ĠC ur
av our
ĠPro z
iss ance
Ġlook ed
ĠBild hauer
ĠJo achim
Ġve get
" ));
D ar
Ġf Ã¤llt
ĠB os
ist ant
ad ies
zen e
yl van
Ġfollow ed
Ġoper ations
ĠArchite kten
ĠSeb ast
M ain
b uffer
c al
r in
Ġin kl
ĠR E
ĠC H
ste iger
ĠAn frage
ĠThe ologe
oc ation
Ġsh all
tra gs
ĠX ML
ĠSonn tag
H aupt
N O
z ust
ch o
ĠS earch
Ġc ore
ĠD al
ĠJ Ã¼rgen
oren z
ession al
ĠGew icht
p ost
ĠH arr
ight ly
ĠSong s
Ġsong s
ĠFernse hen
B as
Ġd ish
on us
Ġum ben
enn fahrer
ĠRÃ¼ck kehr
ĠFÃ¶rder ung
P an
d ach
Ġb ot
ĠF ur
ĠH as
ster dam
ĠVor gÃ¤nger
Ã¼s sen
çļ Ħ
B ody
or ph
ĠM und
Ã¤ b
im b
Ġ19 15
fÃ¼hr ten
âĢ¦ âĢ¦
Ġwes entlich
kra ine
Ġwebs ites
F il
M ich
el se
ĠN un
Ġ5 2
ĠWe imar
ĠEx empl
Ã¤m lich
Ġkur zen
Welt meisterschaft
Ã¢ teau
c la
Ġw rote
Ġbe in
Ġpr incip
Pro ject
ĠNetz werk
Polit iker
st ad
ĠSch on
ĠKon gress
Ġrelations hips
ĠErfahr ung
beding ungen
Stra ÃŁe
Ġt it
Ġb la
ĠN on
ĠV aters
ĠU se
Ġres erv
Inter face
ĠWies baden
Ġphil osoph
D C
he il
Ġb ound
Ġl esen
id o
Ġte en
Ġber ufen
ĠMed ical
Ġgu ests
eins am
ĠLin ien
ĠBu ild
Ġvo ice
Ġeinger ichtet
ĠW ay
Ġre ich
Ġst Ã¤r
ĠSch iffe
we ge
ĠfÃ¼hr ten
ĠHoch schullehrer
ifiz iert
H ere
p o
å ħ
Ġt emplate
at ik
Ġb ow
Ġv en
ĠR ose
ĠL ibrary
ew ay
od urch
Ġsh ot
upp er
De cl
Ã¶ff nung
let te
Ġhelp ed
Ġop in
Z E
or ient
ann en
ĠVer anstaltung
we iler
man agement
ĠHand buch
ĠSchl uss
Chr ist
mÃ¶glichkeit en
Ġb ess
ĠD etails
ot ional
ad ing
ĠSch lieÃŁ
wer ten
stÃ¤nd en
ãĢ ģ
ĠDah er
ĠLeicht athlet
Besch reibung
S H
c ert
ĠC at
th a
Ġle ider
ĠBe ziehungen
ĠAl pen
set s
leg ant
ĠBundes liga
fang s
Ġhim self
Ġtre ffen
ĠSalz burg
f abrik
Ġf allen
Ġp ull
ĠN omin
burg h
ĠInd ien
Or ganisation
ĠGener ation
Ġpres ident
lev ision
Ġappropr iate
c opy
j an
Ġw odurch
he ute
om y
Ġj ournal
ult Ã¤t
ĠAus nahme
Ġtr ug
fÃ¼hr te
Ġsc ene
ĠOber st
Ġrem ote
Aug ust
B ook
F inal
u ters
Ġt aste
Ġm icro
ĠT ay
ĠK amera
ĠOr ient
Ġtra ffic
En um
Ġober en
olumb ia
F OR
ĠS yd
Ġr ank
Ġch ain
rand om
Ġbek annte
hy th
lowak ei
A V
C R
I gn
g Ã¤nge
Ġs rc
ol i
em en
ĠR ett
ĠL as
ver anstaltung
Ġr ent
Ġi Phone
ĠRe f
Ġrem ain
ĠStre cken
ĠPrÃ¤sident en
Ġinstall ation
Ġtalk ing
k unst
ĠB aus
am i
Ġre ader
get Id
Ġmed izin
bl Ã¤tter
Ġed ge
Ġunterschied lich
ar p
ir urg
ĠLand schaft
hand el
Ġbuy ing
heb ung
e ur
f Ã¤lle
Ġf at
Ã¶ tet
ahr t
row able
ĠStra ÃŁ
ĠKl ost
Ber g
liegen den
ĠEpis ode
U I
ĠBr ig
Ġset s
Ġmain tenance
ategor ies
ĠHers tellung
Ġdien en
ĠBayer ischen
fur ter
J uni
W idth
Ġs ources
ĠF ood
ĠC anad
Ġan hand
est ic
ere ien
ss on
omm iss
setz ungen
ĠErw achsen
ĠTemp el
ĠB ow
Ġat tempt
ĠKon zept
Ġverbreit et
k u
Ð ²
ĠA gr
Ġn Ã¤mlich
ĠL Ã¶sung
Ġge plant
ĠBer icht
bau er
ĠBra unschweig
Ġexist iert
T emplate
o ted
ol is
ot yp
Ġges pe
200 1
ĠHotel s
ĠErw eiter
Direct ory
. _
J ust
N r
ol er
ru pt
Ġpar allel
ĠSchl Ã¼ssel
Ġfact ory
ĠBevÃ¶lker ungs
ĠVerÃ¶ffentlich ung
F unktion
v ents
Ġs uffer
ĠI ter
Ġra p
Ġeigen stÃ¤nd
ĠSÃ¼d osten
ĠKom bination
ĠMaÃŁ nahmen
ĠLex ikon
Ġol der
4 00
m ag
ĠL iz
Ġpl astic
ino is
ĠEpis oden
untime Exception
Ġn utz
ĠW ett
tr ast
ĠZeit raum
ĠFran ken
uz z
Ġvis ual
ĠBew ohner
Ġbil dete
obil ien
Ġcompon ent
N or
is at
Ġb uf
ĠB ran
ĠR oten
ak i
ĠEin heiten
ĠOr chester
Ġerh ielten
ĠKranken haus
Ã «
on i
is piele
ĠS ens
ĠF Ã¤llen
ĠJ agd
os ing
ĠVer st
Th at
ĠWh y
haf te
ĠJack son
ĠFrie den
Ġadvant age
n um
in det
Ġt ruck
ĠB at
em it
iter ator
rich ter
Ġstr ug
wend ungen
Ġcour ses
sc ar
c z
ĠP in
ĠK iel
Ġl it
Ġdurch schnitt
ĠNe ust
ĠArm y
č Ċĉĉĉĉ
Ġs org
ĠS her
Ġm ilitary
ap os
Ġad just
Ġsc r
Ġauth ent
Ġa wesome
Ġs amm
ĠM ode
Ġst opp
Ġj ur
Ġlie f
fÃ¼hr en
ĠEngl isch
ĠbenÃ¶t igt
Ġaltern ative
d on
w uchs
st il
ĠP M
ĠK a
ĠK Ã¼n
ĠK Ã¼nst
ĠH immel
rÃ¤ ft
teil s
ĠFre izeit
Er st
ĠOrd nung
A A
à ²
ĠA ction
ĠK up
ĠK athol
ĠR ost
ĠL uf
if iers
ab teilung
00 3
ĠFre unde
Ġmov ement
log ger
prÃ¼ ft
ĠTÃ¼b ingen
A v
P ost
s ing
Ġc ities
ĠE conom
ĠK rieges
ĠL en
Ġal one
ann ter
ĠIn gen
hÃ¶r igen
ĠGer icht
Ġ190 6
Ġfre uen
ĠEnt fern
#### ####
K lasse
Ġ1 10
ĠL eiden
Ġver gangenen
Ġex change
ĠSp aÃŁ
Ġpr in
ĠGe gner
ĠGesch ichten
Ġcons umer
Ġinc ome
Ġeff orts
Ġant i
ĠAustral ian
Ġgelegen en
ĠWo iwod
bere cht
h s
n ight
st one
Ġman chmal
Ġsh ower
Ġverw and
Ġbesonder en
ĠDem oc
Ġlov ely
Ġspr icht
mitt lung
Supp ress
ĠMathemat ik
ĠSib Tr
r ischen
Ġh Ã¤tten
Ġto ken
ĠL abel
iz iner
ans as
Ġber uf
ĠPar ameter
Ġcol our
lam ents
Ġfab ric
Ġneigh bor
> <
D an
G en
r ate
Ġh ast
ĠT Ã¶ch
ist ischer
ĠO pp
ĠBe aut
ĠSp itze
Ġ190 9
Ġaud io
ĠUntersuch ung
A ct
c u
ĠR ena
ĠV ern
ĠAb itur
ĠAuf ent
Ġev idence
Ġ190 3
Ġshow ing
ĠZahl en
c ap
ĠB ord
ĠL ot
ennt nisse
lÃ¤nd ischen
Ġcla im
ĠTenn is
m eldung
w ater
Ġer hoben
tr ich
ĠVer gangen
form ance
ĠAuf stieg
amil ien
ĠVers uch
Ġpop ulation
ĠInternational en
Ġd ining
ra pper
Ġel f
Ġ190 2
ĠUntersuch ungen
N ov
t im
ing ham
ĠD B
ĠD auer
ĠL td
Ġk ulture
Ġge plan
hÃ¶r de
oin ted
ĠDarm stadt
P O
e f
Î ½
ĠMe cklenburg
ins on
Ġsex y
Ġsepar ate
ĠRestaur ant
Ġt ritt
ĠO tt
Ġse a
res ponse
ĠInd ivid
ĠEm il
Hol stein
ylvan ia
Ġs ustain
Ġin gred
ĠI ts
Ġl en
ĠN Y
ĠSch ach
Ġle it
Ġnot ice
Ġinvest ig
Ġvisit ors
T ube
w all
ĠM ol
ĠT ob
âĢ ĭ
ĠE ich
Ġg one
Ã¶ die
Ġsh ip
Sch riften
ĠBau werk
Inst it
Ġoffiziel l
re tt
Ġv ierten
de fault
ed ig
ĠR on
if el
ĠIm age
Ġlar ger
Ġfig ure
, ,
ĠE M
ĠE ind
ĠE arth
ĠK anz
ĠPf ar
pre ch
Out putStream
Ġeconom y
far ben
ĠInfanter ie
Ġf ish
ĠB aby
ĠK op
ĠSt ory
ĠgroÃŁ es
Ġpl enty
ĠLauf bahn
Ġteach er
ĠAst ron
mot or
schei det
resp ond
! )
d el
t able
iv als
ĠIn itiative
ill en
ĠBe am
Ġdr am
Ġcor porate
Ġdenn och
ĠK amp
pt on
Ġbeg innen
Ġsex ual
Ġconne cted
Ġinde pendent
Ù Ĭ
ĠK ub
Ġg allery
ĠPr iester
Ġstar ts
ĠHash Map
Warn ings
Ġp al
ĠM atch
ĠM ajor
ic ies
ĠF ore
art igen
Ġres idents
int age
Ġsc ript
Id s
Ġfact ors
Unter nehmen
gestell ten
P lease
z iger
Ġs ister
ĠA ar
ĠWe ge
Ġkn ew
Ġber ichtet
Ser ie
ĠModer n
wirk ungen
s ite
w ich
on ien
Ġan gesehen
ĠUn garn
St yle
Ġper man
Ġspe ct
Serv let
D own
E hr
T C
ĠG le
ĠCh allen
ĠQu er
irt y
Se henswÃ¼rdigkeiten
Ġcolle ct
Ġcommun ities
Ġgemeins amen
Ġmaint ain
Ġt schech
ĠP ie
ĠThe odor
eben e
Ġschw ier
Ġben utzt
Ġhistor ische
Ġcap acity
ĠR oss
ber icht
Ġj ung
ĠAn h
fl Ã¼gel
Ġbest ritt
Ġshe l
haf ten
App lication
Ġeinzel ne
Ġpan el
is ierten
ĠT H
ĠH ey
ĠR oh
sw ers
ch ip
il de
ste igen
Ġsh ipping
wer den
ĠTra um
ĠBo olean
ĠChem ie
akte ur
Ġfoot ball
d auer
t ok
le bt
Ġauf gebaut
Ġab geb
ĠBe teil
ĠEin richtung
En c
Ġcould n
bew egung
Ġmax imum
ĠPublik um
c os
as p
ent ur
ĠR un
Ġauf gelÃ¶st
ĠAr r
Ġ18 70
her zog
ack en
piel en
ĠRei hen
ĠSÃ¶ hne
k ur
Ã¤ fer
sen z
ĊĠĠĠĠĠĠĠĠĠĠĠĠĠĠĠĠ Ġ
imm ing
ĠMark e
Pol icy
Pf alz
ĠS ud
ĠE duard
ers te
Ġsp rechen
bes itz
Ġoper ating
ĠTw itter
B Ã¼rger
h u
Ġa partment
Ġf eder
Ã¤ ure
ĠF lag
Ã¶ ÃŁen
Ġge ist
gen Ã¶ss
ĠZ ivil
ĠFor ce
Un able
Ġcor ner
ĠerklÃ¤r te
Ġnumer ous
O pen
r iss
t arget
al tete
ĠM Ã¶n
ĠL etz
Ġl ernen
Ġge z
ib e
ink en
Ġbring s
ungsp ro
ĠSicherheit s
Ġdet ailed
Jahrhund ert
Ġt on
Ġp oor
ĠC ert
ad ow
Ġfor eign
ĠVer dienst
Er ster
ĠBro ok
Ġcompon ents
Ġinsp ired
Ġo d
Ã¤ st
ĠP red
ĠF arm
ĠK lassen
Ġl ay
Ġbes itzen
aut hor
Ġreg istr
ĠTer min
Ġbal ance
k re
al b
ĠK Ã¤mp
em ed
gr Ã¼
ĠUn abhÃ¤ng
Ġtr ifft
go ing
rÃ¤n k
W erk
o use
p her
ĠB ase
ĠK y
Ġmed ium
ĠFÃ¼r sten
ĠFahr er
Ġsett ings
gren zen
plat te
Ġafford able
ĠB le
ĠF Ã¤h
ĠW it
ĠL ED
ul ate
ĠEr schein
ĠOr ch
fe ct
Ġpre pared
ĠBereich en
aliforn ien
kathol ischer
ĠRath aus
F ernseh
s ylvania
ĠK ost
Ġver geben
iert es
upp en
Sch ema
ograph ische
ffe kt
Ġgener ation
ĠmÃ¶glich st
ĠBrÃ¼ der
k Ã¶rper
Ġst ick
kt ar
ĠDie ter
ĠAr thur
Ġ18 80
gel t
ikan ischer
fÃ¼ gt
ĠÐ ²
ĠEng agement
ĠGest altung
' );
N ord
Ã¶ se
ab ilities
Ġun its
reich er
Ã¤ng nis
deutsch e
Ġregister ed
Ġerlaub t
ĠBeding ungen
P L
u ar
Ġm sg
Ġall gemein
Ġ5 1
Ġsur pr
199 9
Ġfac ility
Ġcover age
EC T
D ialog
G l
H istor
m aschine
ĠK affe
ĠC olumbia
Ġr at
ĠNe um
Ġpar ameter
Ġmoder ne
ĠKont rolle
ĠMax im
Ġbus y
r un
al em
al bum
ik ing
Ã¤nd igen
so ap
Ġange legt
Ġart icles
ĠOp ern
ĠHeraus geber
W as
ol z
ll en
ĠWelt meisterschaft
Ġann ot
ĠPre ise
ĠIns eln
prÃ¤sent anten
Ġdoc uments
Ġ18 60
Ġda ÃŁ
ĠKÃ¶nig in
Ġdah in
ĠGeist licher
ĠOh io
rup ted
h aben
o ul
ie ten
ĠA C
ĠG it
ĠAn ne
ht ml
ĠAm sterdam
Ġadd ing
ĠGew alt
part ments
ĠAktiv itÃ¤ten
ĠBarbar a
M ore
le ft
Ġf le
us ted
ĠM eyer
de burg
Ġcon temporary
Ġ5 6
alt y
app y
ĠGra ph
Ġopen ed
ĠSam stag
cel ona
ĠMik ro
ĠVergangen heit
Ã ª
ĠR ollen
Ġsee ing
Ġplan ts
ĠAnton io
ĠTele fon
ĠBenutz er
Ġeb enda
ar ray
ĠP ian
teil ungen
ĠOn ce
schn itts
Ġprocess ing
Gra ph
w urf
Ġb illion
Ġf ear
Ġin n
Ġc overs
ĠAn k
gr iffe
ĠJo e
ĠAngeb ote
Ġcompet ition
ĠSchwer punkt
ĠSowjet union
r ical
ie fen
or ation
ĠS tellung
ĠT ax
ĠH ay
ik es
ĠPro perty
Field s
omet ry
D igital
Ġh off
Ġvor aus
Ġpre pare
stra ct
ĠMark en
ĠBund est
ĠNationalsozial ismus
W il
s ichts
ĠK am
Ġver ur
rÃ¼ cke
ĠNach richt
Ġper haps
ĠMark et
ĠHel mut
ĠGed anken
ĠGovern ment
ĠDÃ¤n emark
Ġcomprehens ive
n or
â Ħ
Ġm ail
ĠA sh
st anz
ĠM Ã¼hl
Ġget ragen
ĠWe ek
ĠAd el
Ġinst ant
ĠÂ ·
kon om
B B
Ġb ird
Ġf la
Ġf Ã¶rder
ĠW atch
lo aded
Ã¼t ze
Ġkon zentr
ĠSon ne
R S
b ut
m i
Ñ ĩ
ar o
Ġb urn
Ġf ahren
ĠL A
Ġbek ommt
ĠJapan ese
ĠtÃ¤ glich
P olitik
r amm
t own
Ġe ight
ĠM isch
we ight
ĠSe cret
ĠGesch ichts
ĠzurÃ¼ck ge
cy cl
Ġclos ed
ĠObserv able
J ohn
n icht
v y
Ã Ĺ
or gan
Ġb rach
ĠF ro
ĠG ymnasium
ĠL ock
ĠAn spruch
ĠBe ziehung
Ġvers uchte
200 2
Ġtest ing
Ġteach ers
histor iker
Ġnov el
f irst
m essage
or fen
st ab
im en
ĠL it
ĠEr folge
ĠAuf lÃ¶sung
gest altung
Be im
Element s
b ell
in zen
Ġn av
Ġc alls
ĠN ah
Ġse at
Ġhe ight
Ġsch affen
pr ene
lic ken
Ġby tes
Ġro of
Ġho her
ĠPlan ung
Ġnahe zu
z ell
Â ´
ĠR io
ĠR ail
Ġbe coming
Ġ19 16
ĠO der
rit iker
De c
ĠQu elle
Ġ190 1
loy ment
ĠpersÃ¶n lichen
B E
Â ¶
Ġs elling
Ġw al
ĠA ben
Ġp ow
st aben
Ġn Ã¤her
ĠF ernsehserie
Ġre icht
Ġzu k
Ġde te
Ġab gerufen
ĠCh ance
Ġcomp l
Ġco ach
Ġmin ute
Ġzwe imal
S eine
a ult
ĠB uck
st ers
ĠH Ã¼
ĠN och
od a
Ġunter halb
ãģ ®
Ġcontin ues
Dies er
Ġcommit ted
Ġseek ing
k riegs
Ġf ailed
Ġc ache
ĠD ur
ĠK alk
ĠR oth
Ġauf gestellt
Ġver n
ĠPro jekte
ĠMar i
Ġthere fore
ĠJuli us
ĠProf il
Ġpract ices
ĠPlat ten
ĠÃ¤ltes te
Ġfant astic
Que ue
H i
J ohann
R ange
o ben
Ġ Ø§
Ġb ought
ĠB ell
st yle
ĠD un
ol ogen
sch uhe
Ã¶ ten
Ã¶ tz
ĠIn halte
Ġman aged
Ġar en
ific ations
beding t
Å Ł
in u
ĠM ut
ĠT sch
ck et
ess in
ĠVer letz
Ġ18 48
ĠTh ank
Ã¼n fte
Ġsur vey
Ġstark en
Ġbra in
Ġwind ows
Mat rix
Suppress Warnings
k ow
k Ã¤mp
ĠT en
ĠJ ones
Ġlearn ed
ĠTor onto
Ġrom ant
ĠWÃ¼rz burg
v orsitzen
} ,
ĠUn fall
Er folge
Ġem pty
Ġgener ate
ifest yle
C or
M ag
n i
z unehmen
ĠN ar
Ġan c
ĠSt imme
ĠKon rad
ĠAug sburg
riter ia
ĠPier re
Ġapprox imately
Ġumben annt
g yp
Ġd ou
Ġm aÃŁ
ĠP u
Ġun er
Ġch anging
ĠSp rachen
Ġzum indest
ĠEin sch
ĠFor mat
Ġwork ers
AL L
IT Y
Ġinc or
Ġeduc ational
ĠPap ier
ĠGef angen
ĠGal ax
Ġneg ative
Ġexpert ise
ĠKarls ruhe
L ook
p ommern
Ġsel ber
ĠBar on
Ġstell vertreten
Ġhappen ed
P res
S earch
Ġh ook
ug o
aus schuss
Ġcom bination
iz ont
ĠDe ck
Ġprocess es
ĊĠĠĠĠĠĠĠĠĠĠĠĠĠĠĠĠĠĠĠĠĠĠĠĠĠĠĠĠĠĠĠĠĠĠĠĠĠĠĠĠ ĠĠĠĠĠĠĠĠ
Ġnied r
v ice
Ġd ank
al i
ĠE b
Ġde partment
Ġex ter
Ġex pression
Ġsch reiben
Ã¤r ten
zie ht
Ġmein em
ĠgegrÃ¼ndet en
ĠCoun try
W ill
Ġt ail
ĠM ix
de hn
sp an
ob el
ex p
Ġ8 5
bach er
Ġser ial
ĠHol lywood
Ġest im
zÃ¼ glich
ĠFak ultÃ¤t
ĠverfÃ¼g bar
L ayout
z um
ĠD og
lie f
ĠGr amm
ĠMount ain
M M
å Ī
Ġt mp
ĠD rag
Ġr ub
ĠEin richtungen
The y
Ġapp oint
ĠkÃ¶nn ten
ĠSÃ¤nger in
Cre ate
. /
F ranz
m inton
or ien
ir us
Ġr u
Ġdo pp
stand en
ĠJuni oren
ĠNeub au
ĠWoiwod schaft
K ompon
L iter
T O
or ia
ĠZ ul
ste dt
Ġhe im
Ġsupp orted
Ġverschieden er
ĠMich el
Ġrelig i
l ight
it at
Ã¶ z
ver tre
ĠRe quest
Ex p
anz ig
ommen ded
Ġfe aturing
ĠLebens mittel
Ġinit i
Ġfil led
Ġfem ale
Ġm ist
ĠT y
ĠP os
ic ians
Ġmit einander
ĠU kraine
Ġunter sch
ath an
ĠWe gen
De f
Inter ior
Ġnomin iert
ĠTÃ¼rk ei
Ġreli able
D om
K arl
V I
v ollen
ĠE N
ger Ã¤t
sh ot
Ġgew Ã¤hr
ĠDaten schutz
ĠSchn itt
Ġengine ering
m or
ĠAn f
Ġse ctor
ĠBo ot
Ġend lich
ĠWeltk rieges
Ġaud ience
Ġconfig uration
Stat ement
3 00
D el
o es
ĠP ir
ok er
Ġwas te
je ction
ĠLand tags
ĠPar laments
Ġacc essor
ĠStud ie
Film ografie
ĠAre a
ĠB ath
Ġg ay
ĠC ro
ack er
Ġtra f
fÃ¼hr ungen
En gl
ĠÃľber setzung
bahn hof
Ġtro ub
ĠWeit eren
r asch
is lat
le hre
ĠH erkunft
sp ann
Ġcom pared
ĠBer atung
Ġcal cul
hard t
Ġdist in
k ultur
Ġw achsen
ed om
ĠL eder
ĠC EO
qu ery
ring t
ry st
olog ischer
ĠSc ot
ĠSan kt
Ġo k
il nehmer
ĠJ im
Ġan schlieÃŁ
th aus
Ġun ge
Ġent steht
ian ischen
Ġ5 4
Ġpart ies
ĠSte phan
Ã¡ s
Ġ189 9
rÃ¤n kt
ĠFrei heit
Ã¼ gt
Ġv s
Ġdie t
ĠV I
Ġk o
In ternal
geb nis
Ġgener ally
199 8
Ã¤tz lich
ĠPre uÃŁ
Ġspec ies
ĠEigen schaften
char At
Ġsuit able
Ġmittel alter
H S
L in
Ġe he
ol ver
ĠT u
ĠH um
ĠR uf
ein heit
ĠSch uhe
Ġbet roffen
ĠMon te
verkehr s
Ġpriv aten
ĠGesundheit s
VAL UE
ĠMatth ias
8 00
an bul
ĠS aar
Ġo st
ĠB art
ĠI ran
ĠK im
ĠZ oll
tet t
gesch lagen
iqu id
ĠWar en
Ġstor es
Ġclick ing
Ġvol unte
schlÃ¤ ge
Ġautomat isch
lÃ¤r ung
on ne
ol and
ĠK ent
Ġre form
Ġbr ight
Ġlaw s
Ġerm Ã¶
ĠEing ang
ĠSec ond
Ġbenach bar
å ¹
Ġw under
ĠS ender
ĠB row
Ġp m
ĠE ugen
Ġbis lang
Ã¤nd ige
ĠOr tes
ĠGu ide
Ġentwick eln
sta aten
AB LE
ĠTab elle
ĠCam bridge
Ġsqu are
adel ph
Ġerstre ckt
Ġe arth
ĠM inn
fen se
Ġgen ug
Ġag ree
Ġ189 8
Ġnational en
ĠGren zen
ĠPress e
Ġcontra ct
zÃ¤hl ung
ĠAntw ort
L AN
c omm
p asst
s upp
ch i
re w
ĠJ a
ĠOb wohl
EM ail
D aten
al ition
ĠD oug
ĠF our
iel le
Ġus w
land es
ĠTh read
mar sch
ĠHaus es
Acc ount
plat ten
Ġindustr ial
ĠPatr ick
Cal endar
ĠSyd ney
S ep
U P
U nd
ĠB asketball
st atus
Ġn Ã¶t
ĠM ir
ĠM ak
iz za
Ġad apt
Ber eits
Ġelekt ron
T erm
it age
ĠA T
ĠM auer
ĠT aschen
ĠN OT
ow e
Ġzu geordnet
Ġwir ken
Ġsp lit
Ġ15 00
ĠGeb urts
Ġgu est
fre und
Ġsn ow
f alt
ĠM ember
ĠD iam
ach us
ĠAn forderungen
Ġsch Ã¶ne
je kts
Ġtr end
ĠRes erv
LA SS
Ġjoin ed
ĠEngine ering
Ġerinn ert
Ġs Ã¤m
Ġde als
ĠAn lagen
ĠSp ace
Ġtr ial
ĠFl ucht
zeit ung
Ġdis app
Ġpost s
Met a
ĠBook s
Ġkathol ischen
Ign ore
âĦ ¢
Ġa u
us en
ĠM ord
Ġre ag
ste uer
Ġapp s
arbeit ete
ĠBes itzer
Ġfocus ed
ĠrÃ¶m ischen
ĠErk rank
Ġremov ed
Pers Ã¶n
Ġrepla cement
Ġabsolute ly
ĠlÃ¤ uft
D DR
ar ia
Ġf ro
us sen
Ġc up
ĠF red
ul ated
ert al
ĠÃ¼ber w
ite ktur
Ġbet rieb
Ġpla ced
Ġknow s
AT A
ĠVerlag s
ĠÃ¤ uÃŁ
Ġstrateg ies
Europ ameister
Ġvolum e
chip karte
D u
H ein
m auer
Ġc ream
ĠC reek
ap es
Ġ/ >
reg isseur
fort un
Ġwicht igen
Ġwid th
ĠbestÃ¤t igt
D AP
N OT
S QL
h es
p atch
s ent
on st
Ġein schlieÃŁlich
Ġdie d
ĠV ors
Ã¶r ungen
ĠFl Ã¼cht
ĠBew e
Ab sol
Ph il
ĠPortug al
Ġsatis f
ĠTÃ¶ch ter
S L
w Ã¤l
re uth
ĠK art
end o
we ist
Ġum geben
Ġbe grenz
Ġl ibrary
Ġre place
ug ies
ĠThe orie
gel s
ĠEntw urf
Ġren ov
ĠBened ikt
S ingle
y t
Ġs ter
ĠB lan
ĠB alk
ut ch
Ġr ental
ly n
ran e
get reten
ger Ã¤te
ĠMar gar
Ġgemeins ame
ĠAlt ar
Ġ random
ĠS ymbol
ĠB enn
ĠK anada
Ġle gend
Ã¤t t
amp en
IN T
urop a
lig isten
Ġzun ehm
Ġlog o
Ã³ w
ĠBÃ¼ hnen
Ġland s
ĠKomp osition
Ġwalk ing
ĠMex iko
Ġzust Ã¤ndig
ĠermÃ¶ glichen
M B
å ¤
Ġst ack
ĠBe ob
ĠSp itzen
ĠCh ief
ĠLe ute
Ġ9 9
Ġber Ã¼cksicht
ograph ic
ĠBew eg
leb nis
ĠCD U
Ġsozial en
Seg ment
adelph ia
A bst
P o
b ury
n itten
Ġ Ñģ
Ġ Ã¶stlichen
re me
Ġver legt
Ġ9 5
Ġinter pret
com mer
ĠAs ien
ĠMich igan
ĠGar den
Ġkathol ische
zuf Ã¼hren
Ġleader ship
ERR OR
r ates
v ens
ĠE arl
ĠW urz
ĠR Ã¶m
ĠZ un
ub il
ex it
ĠAm ateur
sk a
Ġgu ess
legen heit
LO W
esent lichen
Ġzie hen
ĠBek annt
K irche
ĠOr den
ĠQu adrat
ĠDan eben
ĠForm el
ĠGegen wart
Ġwatch ing
Ġerz Ã¤hlt
abet es
ĠjÃ¼d ischen
F alls
S ettings
r uss
ĠS ac
Ġc red
ĠM oh
Ġg ain
Ġle aving
aw n
Ġserv ing
leg entlich
ĠStud ies
ĠHoch zeit
kauf t
Ġengl ischer
ĠMad rid
Ġklass ischen
Ġpark ing
urren z
P R
r s
w ettbewerb
z ern
Å Ħ
Ù ħ
ĠT ransp
ĠN ie
ier end
up date
Ġnor weg
AC K
Ġrun s
Ġunivers ity
Ġzunehm end
g i
t x
le ucht
Ġf avour
Ġc ivil
ĠW ales
ĠW hether
ĠV it
ver l
Ġaus reich
ĠAir port
Ġnotwend ig
> )
E very
L ang
T od
k ern
al and
ĠH ong
ĊĠĠĠĠĠĠĠĠ ĊĠĠĠĠĠĠĠ
id ae
aus end
Ġunter en
Ġkeep ing
Ġflow ers
ĠflieÃŁ t
achus etts
P air
c ious
j u
k es
k at
Ġind ic
grÃ¼nd er
hol m
ĠBesch Ã¤ft
ĠMitglieder n
ĠChild ren
ĠSt ream
Ġle ather
ĠKl ima
ĠmÃ¶glich erweise
Ġacadem ic
< >(
P al
f els
f ranzÃ¶s
k Ã¼rz
is or
ĠS ak
ĠF ast
ĠK eller
ĠN umber
ĠSt ore
ĠO d
ĠMet rop
ĠJohn son
pos es
ĠMot iv
Ġrule Jvm
ĠAutom obil
ĠUms etzung
D i
K o
Ġ Ã¶rt
al ign
Ġc ir
et ze
ach te
Ġzu g
ag a
Ġun gefÃ¤hr
Ġsch reibt
be am
Ġ6 6
pro p
ĠAm b
akt oren
B en
L en
le vel
Ġ5 7
Ġapp e
Ġstud io
Ġgest altet
Ġland wirtschaft
ĠPla ce
cont ent
Ġaufge fÃ¼hrt
ĠMc C
deck ung
ãĢ Ĥ
ĠMex ico
ĠK Ã¶r
sch uld
Ġdo ors
Ġlo ans
Hand lung
Ġmen u
Ġveh icles
Ġd inner
ĠO ster
Ġj u
get Property
ĠLe hre
ĠFl Ã¤chen
ĠSte ve
Ġvis iting
Ġke pt
Ġet abl
ocol ate
Ġprevious ly
ĠLoc al
H aus
T our
m aschinen
Ġf ot
ut ors
ĠL ady
ĠJ enn
Ġam t
ĠAb t
Re chts
bo den
Ġexper iment
Ġfl ight
p le
ĠS oll
ĠT rÃ¤ger
ĠF ac
ĠH ild
ĠRe form
ĠAn aly
ĠGer Ã¤te
Ġworld wide
Fe ature
ĠIll inois
folgen den
star ts
ĠjÃ¼n ger
ĠVen edig
Ġcombin ed
W E
h ome
s dorf
as ien
art ig
ang a
ĠÃ¼ber nehmen
ĠAus einanders
Ġdo ctor
Ġother wise
ĠRes ult
ĠBar celona
Ġklein es
Ġspeziel l
Eis hockeyspieler
B ere
s ort
re place
Ġm ess
ĠA x
sch le
ĠN iger
Ġdes igner
Ġst one
we ich
Ġwel chem
Ġcl oud
Ġgef ert
ĠEd el
ĠEner gy
Ġenvironment al
ĠT ats
Ġy outh
aus gabe
Ġ" ,
ĠGesch le
AR L
urf Ã¼r
Ges ellschaft
H O
h Ã¤ndler
Ä «
ĠH yp
ĠL ike
ĠL iber
Ġbe comes
ĠJ ena
rÃ¼ st
zeich nen
ĠWir ken
On line
Ġbrand s
Ġkom bin
ĠVictor ia
K irchen
h at
v i
z ing
ĠD C
ĠT i
ĠN az
Ġre pe
iv a
ĠAnd ers
Ġloc ations
ST R
Ġur kund
Ġ189 5
Te am
ĠÃ¶ff entliche
Dat ei
ĠK il
her ren
out s
alen der
Ġdr ug
ĠGemein der
ĠSebast ian
Ġ iron
Ġd ance
an ische
ĠB io
st ore
Ġver urs
Ġeigen es
Ġfre ien
ĠOff en
stre cken
ĠprÃ¤sent iert
Ġbetrach tet
d h
Ġa im
Ġt ickets
ĠS yr
Ã¼ p
ĠC apt
ein er
for ce
me er
iss es
Ġbel g
Ġtechn ischen
Reg ion
ĠHor st
Ġmiss ing
Ġanim als
ĠZusch auer
Ġlux ury
re gel
st Ã¤d
ĠH ung
ct ures
ĠSch ne
ak adem
ip end
Ġvor ge
Ġzw eiter
ĠMe chan
)) );
Ġ189 6
Ġsmall er
wor th
Ġtem por
P ress
Ġa gency
Ġs inn
re es
ĠC os
Ã¼ck en
Ġcont ainer
OR T
Ġklein ere
ĠKn ow
Ġexp ensive
Ġstark e
Ġpract ical
Jahr en
ĠerhÃ¶ ht
a ver
y ard
ĠT emplate
ĠH eb
ĠEr ste
ĊĠĠĠĠĠĠĠĠĠĠĠĠĠĠĠĠ ĠĠĠĠĉĠĠĠ
ĠNor wegen
AR T
ĠWahl kreis
ĠInstit ution
Ġdan ger
produ ktion
ĠKant ons
check ed
ĠIll ustr
Ġbehand elt
M essages
i Ã³n
à ®
Ġm essages
ĠSchn eider
has Next
Ġfa ith
ĠCanad ian
Ġw eder
ĠD inge
ĠK Ã¶
ĠW en
ĠR ap
Ã¼r zt
ĠAll en
Ġange gebenen
usÃ¤tz lich
ĠPrinz ip
aill en
Ġl ose
ĠEr ich
Ġpar am
ĠYou Tube
1 10
p aar
an ie
ĠB itte
Ġk id
au ert
Ġi P
lat es
Ġspe ak
Ġmar ried
ĠSchn ell
ĠÃ¤lter en
D ivision
S ET
ĠD ollar
ĠP ots
Ġein iger
em ann
ul ations
Ġer zeugt
ile t
ens es
ph a
Ġsol chen
Ġausge fÃ¼hrt
Ġ189 7
Ġdirect ory
Ġpaint ing
Ġextens ive
ĠDipl om
F ahr
R C
R un
an ia
ct ural
ok us
Ġcom pare
amp s
ĠPh ase
ĠMet al
Ġcent re
ĠWehr macht
ĠItal ian
B re
b ett
f ir
Ġw inning
Ġe ating
ĠL ipp
ĠC ob
ers dorf
Ġab ger
off set
ĠPr int
werk en
ĠBach elor
ĠParte ien
Ret urn
I X
N um
d est
o ter
Ġb lieben
ĠB latt
Ġc itiz
ĠH ockey
Ġmin or
Ġsom ew
199 6
Ġhapp ens
ĠDon au
orge ous
Ġhon est
w irtschafts
Ġs au
ul in
ĠO scar
ag on
Ġsch ied
Ġapp lied
Ġob vious
Ġra in
grÃ¼nd ung
ĠVerb esser
Ġmark ets
ĠOff izier
ĠWieder auf
ich ern
ĠD ich
Ġre ality
Ġde fe
Ġwh atever
Ġent schieden
ĠAl k
yn ast
ĠTr ib
Ġass ert
Se e
ĠStÃ¤d ten
ĠViel zahl
b und
k urs
o ire
st rom
Ġc row
ol ge
ĠT ake
ĠR al
ĠSt unde
Ġver f
ĠThe ologie
In itial
igh ted
Ġ7 2
gesch windigkeit
ST AN
geord nete
Ġtot ally
ĠDort mund
Ġitalien ische
Trans action
O B
b ound
g reif
Ġs orgen
il ing
ĠC oll
ot ic
Ã¼r f
ov iÄĩ
Pro f
ĠInter essen
Ġkomp lex
================ ================
Ġerforder lich
T er
us her
ĠG ab
ĠSch reib
Ġ18 71
Ġ5 3
Ġinst alled
ĠÐ ¸
ĠSk y
Ġestabl ish
Ġexerc ise
Ġfeder al
d rÃ¼ck
g ow
w as
is tern
Ġs izes
re ffen
ĠK linik
Ġg olf
ab end
ĠSt urm
ĠIn frastruktur
ĠBe at
ĠSupp ort
ĠArn old
M apping
N atur
P latz
b ahnen
Ġn u
ĠM Ã¼hle
Ġdar aus
ĠCo ast
ĠRegion en
ĠÃ¶sterreich ische
ĠNutz er
ĠZwe ck
F ried
W irtschaft
ĠB om
ĠB our
ĠB uff
ĠM ie
ĠG all
ĠK Ã¼hl
ĠR av
Ġunter r
Ġ5 9
ĠKl im
Ġmod ule
Ð° Ð½
M ilitÃ¤r
e per
Ġd eine
ĠM ans
ĠC op
Ġan swers
Ġis ol
Ġent schied
fen ster
ĠAut hor
ĠCon gress
Ġlaunch ed
Ġbehav ior
B undle
h ops
Ð ´
in stit
Ġc ells
de gang
Ġg Ã¼lt
sp recher
Ġso unds
ob j
Qu alif
Ġoff izielle
ĠBes etzung
Ġrestaur ants
R Ã¶m
u ellen
å ®
ch ern
im o
ĠF A
ra uf
Ġbe zeichnete
ir ts
ĠJ ungen
Ġy esterday
kt op
ĠAn wesen
Ġ" /
teil te
ĠGes ang
Ġmin imum
uck s
olv ed
On ly
Ġadv ance
iction ary
ĠRelig ion
Ġconven ient
l ach
ĠB Ã¼r
ĠR as
Ġis land
ov ed
Ã© d
ator ium
ĠMein ung
Ġbedeut end
Ġdom ain
Ġgriech ischen
ĠGespr Ã¤ch
Ġgetr ennt
b rand
i y
k ar
Ġreturn ed
ĠEx press
ĠNor mal
ĠFil ter
Ġaccessor ies
re ck
ĠB rad
ĠD ark
ĠP anzer
Ġz er
ĠU fer
ĠBe cause
fin ed
ais er
ret ch
Ġsign ed
anc er
Not Found
ĠBron z
umin ium
T itel
o ir
ur ies
un ting
ĠD ig
Ġk os
tr itte
Ġvor gestellt
Ġget Ã¶tet
ĠVor stand
other lv
Ġcontin ued
State Exception
K l
K r
x id
ĠF ab
ĠG anz
Ġbe ant
Ġl abor
Ġaus ges
Ġsp ann
In nen
In ternational
hÃ¶r ige
unter richt
ĠAs ia
Ġ189 4
Cont rol
Ġingred ients
Ġc os
ĠH em
um ps
Ġspe zial
igkeit s
Ġbesch reibt
Ġerw orben
Ġtechn ologies
kehr t
Ġfre und
stru ction
Ġtop ics
Ġval u
ĠBÃ¼ hne
ĠBahn strecke
ĠSouth ern
Ġverhinder n
ar ina
ĠG ru
ĠE mer
Ġre chte
if orm
od ies
ied elt
ĠNe ur
vers icherung
ĠBundes staat
Ġmar riage
ĠCont rol
ĠComm on
ĠMaterial ien
ĠTab ellen
ĠImm obilien
ĠAfr ika
O st
P RE
č ĊĠĠĠĠĠĠĠĠĠ
ĠV eg
os k
ĠRe z
Ġwir kt
ast rop
inz ip
ĠBr ust
Ġenjoy ed
Ñģ Ðº
S ign
j or
Ġc ultural
om er
ĠK alifornien
Ġver Ã¤ndert
Ġch amp
ges ell
Se quence
199 0
ĠMag deburg
Ġbas iert
Sc ope
W or
Ġd oll
it ro
te ms
ĠM es
ĠP y
ĠAn alyse
ap est
Ġrec ipe
Ġcre ation
Ã¤nder te
ĠKr ist
ĠRuss ian
sb ruck
Ġassist ance
ĠRum Ã¤n
K Ã¶nig
Ġa uÃŁen
Ġw om
ĠD ick
Ġan genommen
ann i
Ġr uh
Ġas pects
Ġle aves
Ġam b
Ġbes etzt
ĠSchw ier
fin der
ĠNational mannschaft
He ight
Reg iment
Ġtre es
ĠElekt ron
ĠZuf luss
C an
Y our
l u
Ġ upper
on ic
em burg
th en
Ġges ellschaft
ool s
An halt
ĠEntwick lungs
Reg istry
ĠFel ix
ĠRund funk
emb ly
ĠjÃ¼n g
ĠTay lor
H P
U B
o om
Ġs it
Ġb rown
Ġp urs
ĠV ill
ot ions
ass ung
ĠSch mer
Ġat tribute
ungs ver
ĠLand tag
Ġacc ident
con stants
Ġfre ie
Ġcaus ed
P eter
Ġt oll
Ġb rief
el ing
Ġn ennen
ĠSt ill
ĠRes ource
ĠCor poration
Ġengl isch
ĠJos Ã©
C S
h ire
ĠT ode
ell es
me ter
acht ung
Ġra w
ĠDat um
Ġspecific ally
far be
Ġs orgt
or ney
Ġl ayer
ĠN avy
we et
sen de
folg ung
Ġprom ote
ĠGrÃ¼nd er
besch reibung
ĠBrasil ien
A pril
D ay
ä »
Ġa ware
ĠS endung
ĠN R
Ġtr uth
Ġany where
Ġhelp ful
Ġbesch Ã¤d
ĠNieder lage
ĠAndre w
ĠBur gen
Ġspan ischen
Pos ted
X ml
r ia
Ġf arb
Ġc utting
ĠG allery
ĠE ber
ĠV ie
qu er
ĠRe de
best and
ĠBestand teil
F O
R est
in tend
ĠS E
ĠD ynam
ot ton
ĠThe ir
In formation
ĠMod elle
Ġcla zz
Ġupd ates
J apan
d oc
ĠA achen
ĠB R
os h
age l
geb lich
atur en
Ġar range
act or
ĠBr uch
ĠPf ad
ĠGew erk
Ġpol icies
mus iker
ĠUp date
Ġwissenschaft lichen
ĠInternal S
Schwei z
S uch
Ġs uff
or ry
ĠM B
est and
Ġreg ional
Ġrem aining
ling t
wohn er
ĠBro ad
prÃ¼ fung
ĠSchlag zeug
h av
r Ã©
Ġa th
Ġm ort
Ġl if
Ġr ide
Ġse gment
ap h
Ġsp Ã¤ten
Ġgr unds
ĠInst all
Ġschw eren
Key s
Ġimport ance
ĠAlt stadt
V E
Ġa st
as i
ĠG Ã¼
ĠL ow
Ã¶ ck
Ġk g
ĠZ y
iz en
ile y
oun ted
ĠFre itag
atic s
Ġdec ide
Ġeinz igen
Ġfun ctions
ĠInstit uts
ĠOl denburg
ĠJust iz
verband es
ĠSing ap
ĠContin ue
Ġadvert ising
Ġepis ode
R uss
S u
k ins
o ÃŁen
ĠE g
Re p
Ġqu otes
ĠOn ly
ĠgrÃ¶ÃŁ er
Ġmass ive
seit ig
Ġwissenschaft liche
ĠCre ate
Zw ischen
S cript
S PD
X ML
ie ck
ĠS ul
ĠS ynchron
schaf fen
Ã¤r t
Ġad ults
Ġbes aÃŁ
Ġapp ar
gesch oss
Ġspiel ten
Ġkey s
ĠHil fs
ĠRu he
ĠRu hr
Ġexec utive
Ġzie ht
wirk ung
Ġmention ed
J ahre
O F
w Ã¼rd
re ht
ĠB alt
Ġ18 50
Ġsp ending
ĠGeb ir
Ġmin i
ĠRo om
ĠTer m
Ġlat ein
Ġresp ond
ĠSzen en
ĠKÃ¼n ste
S pieler
i op
Ġ icon
ie ht
and e
Ġan gem
ver eins
Ġ18 89
ke hren
rol og
ĠKunst stoff
setz te
ãĥ ¼
ĠzusÃ¤tz liche
. ).
1 20
T est
Ġf uel
ĠB em
ĠB res
ĠM iddle
ĠP ul
ĠR ess
ĠL Ã¤nd
Ġde ck
fahr zeug
Ġange zeigt
Ġsl ightly
ĠKo operation
telligen ce
S a
W ert
p ie
ĠD id
ĠV iet
Ġden k
ĠIn formations
ĠSp recher
fer ences
Ġlie be
ĠkÃ¶n ne
Ġverb indet
Ġlang sam
Ġ189 2
Ġbreak fast
stant in
ĠZus atz
F amilie
te am
Ġein geb
ĠC over
oc al
ph ase
Ġrec ommended
199 5
Ġgar ant
EX T
ĠGebie te
National mannschaft
: .
Ġm ental
Ġthe ory
Ġl auf
âĢľ ).
med izin
ĠWÃ¤r me
B O
S ince
k la
s st
Ġp ul
Ġn ative
ĠD issertation
ĠF F
tern oon
Ġwor ry
Ġar m
(" \
ĠFre ien
stra ÃŁen
unkt ions
Ġletz ter
Ġtemper ature
c olumn
l ik
or ganis
at eway
re h
Ġb at
ĠB ull
Ġer mittelt
Ġdes k
Ġsch ott
gr Ã¶ÃŁe
ĠBe hÃ¶rden
Ġcomp la
ĠUnter schied
co in
Ã¼t ten
iam i
iate ilnehmer
Gener al
ĠMom ent
ĠPac ific
S uper
or ter
Ġb ayer
Ġe legant
Ġp ray
Ġan imal
olle y
Ġmost ly
Ġhier bei
ĠPol icy
Ġverb rachte
ĠProf ess
ĠBel gien
ĠBra un
Ġbegann en
ĠDon ald
Ġcr is
ĠGrÃ¼nd ungs
ĠIst anbul
ĠAutob ahn
X X
f Ã¤l
Ù Ī
sch irm
sp iegel
ĠGer Ã¤t
Ġcl imate
arr ier
fa iled
Ġ189 3
ĠAf ghan
Î¿ Ï
akadem ie
w idth
ol ph
ĠL or
ĠL ust
ĠAl te
sel ves
ĠQu art
Ġviel fÃ¤lt
ĠFrank furter
ĠDes halb
ube hÃ¶r
ĠRu h
ĠBrun nen
Ġexcl usive
ĠBesonder s
Ehemal ige
d ro
un nen
Ġm ale
st amm
ĠT un
ic er
Ġbe ziehungs
Ã¶ gel
ĠSp itz
uss y
Ġbeg leitet
Ã¤d agoge
ĠKommun al
Land kreis
ĠFrie dens
ĠColor ado
ĠVarian te
z lich
on line
he ben
ent ially
ĠK Ã¶n
Ġr an
Ġ: )
ĠPr ivate
But ton
Ġ ice
Ġf rem
ĠA ster
Ġo s
ig ar
Ġl ights
Ġsch lecht
Ġat om
ob ject
ĠAus zeichnung
Ġ6 3
15 0
Ã¼t ter
ĠPhil adelphia
ĠWei ÃŁen
ĠTer r
ĠSil ver
Ġdist rict
Ġoffen en
ĠursprÃ¼n glichen
__ __
Ġeffic iency
ĠerhÃ¤lt lich
Ġextens ion
Ġhundred s
B ew
L ex
g age
re land
Ġp assen
ĠM obil
ic ian
Ġein s
ĠE UR
Ġne ck
Ġen det
ĠIm per
hel ms
fehl en
ĠKrank heit
ĠPenn sylvania
Ġf ly
ĠF unk
and o
ĠJ ord
Ġme ant
ĠAr men
rit ing
Ġsp ons
ĠSie ben
fol io
ĠMehr heit
ĠChampions hip
ĠF a
ĠO ze
la ut
qu enz
erk ennung
ons erv
Ġtra ding
ĠMin i
Ġersch einen
Ġpres ence
jÃ¤hr iger
Ġbeh aup
ĠKirchen gemeinde
Ġlight ing
ĠMil ch
ĠÃĦnder ungen
Ġincred ible
F iles
\ /
an ze
ent hal
ad i
ĠSch aden
ud ing
lic ations
Ġqu iet
reat ive
Ã¤ch er
imm ungen
Ġseit dem
Al t
Ġ189 1
ĠBist um
gorith m
h art
z ellen
us alem
ro ot
ig s
ĠV og
Ġj ack
ĠAn trag
Ã¤n k
Ġ5 8
stell te
ced es
He aders
ĠPort al
Ġagre ement
y o
Ġ ..
ĠT HE
ĠL ern
Ġer gibt
Ġge he
ĠU t
Ġ18 88
Ġent re
ĠAus bau
Ġcal endar
athol ic
Ġfact or
Ġricht ige
starts With
H A
v ater
á »
å Ĳ
st um
ĠD ok
ĠW Ã¼r
sp art
ĠEr ic
199 4
Ġperform ed
Sp ace
Sh ort
Ġverste hen
Mill is
I E
M Ã¤rz
Ġt a
us es
ĠM essage
ĠR ue
âĢľ -
Ġunter wegs
geb irge
ĠLe o
20 20
alt ar
199 7
duc ing
Ġnor m
ĠTer rit
Ġgar age
Pre fix
cep ts
ĠB arn
ĠL ag
ĠL inz
ĠN ull
Ġst yl
ÃŁ ig
Ġver tra
Ġsch rift
Ġtrans action
Ġhal b
Mod ule
ĠHel m
ĠSm all
C ommerce
G rÃ¼
Ġge grÃ¼ndete
Ġ18 85
ult y
Ġfe e
Ġra ised
Ġsho es
Ġange hÃ¶r
val ues
Ġgl ob
mÃ¤ÃŁ ige
k ind
z ert
ar ks
Ġb onus
Ġf unds
ĠH aupts
In sel
ĠOr ten
los ed
olog isch
Ġapp l
bau te
Ch Ã¢teau
Ġgleich e
denk male
Ġdescrib ed
ĠQue en
ĠSzen e
Ġunbek annt
Ġn ennt
ĠR ow
iel len
fe uer
Ġshe et
Ġrem ains
Ġlead s
Ġthough ts
Ġsug ar
kap elle
Ġbeziehungs weise
K inder
Ì Ī
Ġ( ;
ol t
Ġ20 22
ex ception
mit ted
utz ung
Ġpla ys
An merkungen
fig uration
Ġobject s
ĠFil mp
hÃ¤lt nisse
Ġbra ucht
ĠGemein schaft
Ġtre ten
ĠAng st
âĢ¢ âĢ¢
W rapper
c enter
p c
Ø ª
re v
ĠA D
Ġv ent
ro ph
Ġein getragen
ver teid
ei he
ĠNe use
Ġreg istration
ĠÃĦ gyp
Ġwicht iger
jahr es
Ġexist ieren
ĠOl iver
mod ell
Ġbestehen den
ĠInn sbruck
ĠAlb recht
Ġinspir ation
fortun ately
C ert
I l
S m
k Ã¼ste
ĠB ier
Ġst Ã¤dt
rÃ¼ ckt
ĠEx tra
Ġletz t
Ġoption al
Ġorganis iert
Ġintrodu ced
Ġinj ury
M O
in sel
ĠM u
ĠF Ã¼nf
ĠE P
ĠH als
ber ry
ĠEin stellung
ĠAb out
ock en
Ġges te
irt ual
Ġdel icious
ĠMill iar
ĠhÃ¶her en
ĠWag ner
Ġbein hal
G A
b on
r ale
Ñ ħ
Ġt ables
Ġw Ã¤hlen
an es
te en
Ã¤ ne
ĠG il
ĠK rie
ĠH ave
sch wer
ĠV Ã¶lker
gen cies
ĠVer g
be an
Ġen able
ĠNach wuchs
old ing
Ġco ast
Type Reference
ĠAs ian
Ðµ ÑĢ
Ġelect ronic
Ġfeature d
NotFound Exception
M art
or able
ĠS auer
Ġp ump
st ags
Ġc art
ĠSch all
ear s
Ġbeen det
unn y
Ser ial
ĠFÃ¼hr er
Ġcommit ment
Ap i
Ġverpflich tet
ĠHig hl
J ose
S ome
Ġin nen
ĠB ein
ĠN at
Ġ0 1
Ġro ute
Ġmin im
Ġpass word
ĠFahr t
Ġlo op
riter ien
Ġsozial e
index Of
ĠCast le
ĠKard inal
ĠEntfern ung
G H
Ġc ute
ĠM A
ĠH amm
ier er
ah a
ĠBe f
cl ub
... ]
Ġappear ance
Ġmanufact uring
Ġbirth day
dire ktor
ĠNeust adt
el be
il st
Ġto ward
Ġer l
Ġge e
ug os
ĠAn im
ant on
Ġch ron
iz ona
lin s
ĠAb d
ĠGe fahr
ms g
ĠGem Ã¤lde
ĠHand werk
ĠMÃ¼n chner
Ġfamil iar
ĠSpr inger
Ġmajor ity
ĠMun icip
Olymp iateilnehmer
T L
a ktionen
k Ã¼nd
s ession
or p
ing ly
ĠM esse
ĠK orea
ohn t
ĠPol ice
ĠInternational e
Ġdeliver ed
H Ã¶r
is burg
ĠT ree
Ġl istener
ĊĠĠĠĠĠĠĠĠĠĠĠĠĠĠĠĠ ĠĠĠĠĉ
put ation
ĠGrund lagen
Ġverst orben
ĠGebie ts
Ġpoln ischen
Ġdunk el
ĠW ars
ist ing
ĠVer mÃ¶gen
yste men
ĠGesch mack
ieb el
Ġprovider s
ĠKolle gen
ĠpreuÃŁ ischen
ĠThÃ¼r ingen
ĠS end
Ġb attle
et ime
sch icht
Ġst unning
ern ame
ĠAuf nahmen
ĠWelt meister
Ġerw artet
AC E
Auth or
zep te
B it
C la
ar row
Ã¼ h
ĠD ream
if act
ĠUn sere
Ġsie b
St affel
Ġown ed
Ġsur f
ape ut
ĠMass achusetts
ĠBot schafter
ĠHalb finale
Ġumfass te
ĠInternalS ARL
M em
Ġa ctions
Ġm ur
Ã¼ mm
ĠB ag
ĠP ic
ĠH ugo
pe kte
Ġj son
Ġbo at
ĠVerein igung
Ġstatt finden
Ġcall ing
gÃ¤n glich
Ġmanufact urers
ĠunabhÃ¤ng ig
Ġhil ft
strahl ung
B ay
J Ã¤hr
S ein
ĠG ouverneur
ĠN erv
ver lÃ¤ss
ĠZ iele
Ġver teid
Ġr ender
Ġ18 74
tes ten
Ġander es
ĠSen at
Com parator
Ġpo et
Ġjem and
Ġdeutschsprach igen
or ough
Ġm outh
Ġv illage
ĠB Ã¶r
Ġn annte
Ġer lang
Ġex amples
ĠSe kunden
Ġwould n
cy cle
ĠEurop as
ĠMann schafts
ĠĠĠĠĠĠĠĠĠĠĠĠĠĠĠĠ ĠĠĠĠĠĠĠĠĠĠĠĠĠĠĠĠ
ĠCl oud
Ġerr ichtete
ĠDire kt
Ġaf ternoon
ĠmÃ¼nd et
B uch
H inter
Ġm anner
und et
ĠM io
Ã¤ udes
ĠP ur
erv ation
Ã¤r m
ĠCh am
mp el
stell ig
ĠNe ck
Ġinter face
ĠBl u
ĠBl ues
uck er
ĠLie bes
Ġbisher igen
UL L
ĠFle isch
Ġzuf olge
k anz
en berg
de lete
ĠT onnen
ĠR ent
ĠR untimeException
ĠV ent
Ġk ing
id i
ĠSch la
ste ig
ak et
ph as
ĠMin ute
dat um
r ian
z usch
Ġ ).
ol as
ĠF els
id ays
ĠCh annel
oph on
ĠCl ient
ĠSen ior
IM E
Ġhinz uge
waren ess
ĠRost ock
m ain
Ġb auen
ĠB il
ĠM obile
ĠG a
Ġex tre
Ġ18 79
Ġen ded
ond a
ĠKÃ¼ sten
ĠÅ ł
ĠCla ud
penden cy
Ġcandid ates
Non Null
Ġmeas ures
ĠVerÃ¤nder ungen
c at
Ġ à¤
Ġd ut
Ġb ist
st atic
eb urg
ĠSch ott
Ġver fasste
ĠVer w
ĠDie go
Ġsch uf
ard o
Ġnach halt
ĠAl though
ĠAus gang
Ar beit
ĠSh ort
Ch ain
Ġgeb ra
Ġsecond s
Ġkind s
opt ion
itar re
Ġoffiziel len
Ġbege ister
Ġoccas ion
N C
T ro
he ber
Ġb aute
ĠE ver
ĠW i
Ġg orgeous
op her
ĠĊ Ġ
Ġgem ein
OR E
ĠAnt i
Ġcla ims
ĠEv ents
Ġprem ium
m ans
v et
es ota
st op
ĠH alt
Ġch osen
lie gt
Ġum ge
par ent
ĠReg iment
Pro zent
Ġsc ope
ĠWerk en
bin sel
Ġcompet itive
Ġproper ly
Ġconsum ers
mosph Ã¤re
Ġaccomp l
ĠQual itÃ¤ts
W A
b indung
Ã ¦
à ¥
or ne
ĠB Ã¤nde
ĠT s
ĠF ans
ĠV ision
Ġunter scheiden
ĠCh air
ond iss
Ġbo ys
ĠKr iminal
Ġmonth ly
ĠColle ctions
Ġpriv acy
Ġflex ible
Ġkor re
Ġsicht bar
S yn
U ri
z ed
or ded
Ġj ump
Ġcon crete
Ġ3 000
ĠAr z
ia c
ĠGem einsam
pos al
Ġgest alten
Ġsl ot
Ġappear s
ĠpersÃ¶n lich
D est
K om
T M
m acher
Ġt om
Ġst yles
ĠÃ ©
Ġ+ +
Ġges ucht
ĠGesch windigkeit
add All
ĠAll tag
ĠEl iz
ĠMag n
Ġallow ing
Ġtrotz dem
Ġconvers ation
Ġopin ion
at ische
Ġf oll
ĠT oten
ĠK rÃ¤
ĠW y
ĠC ommand
Ġver anst
sp rÃ¤sident
ĠÃ¼ber sch
Ġ18 00
Ġnot es
ĠEn vironment
Ġ6 8
pro perty
ĠUnivers itÃ¤ten
ĠBr enn
ĠZu cker
Ad apter
Ġur ban
legen heiten
Ġbuild ings
war ded
Ġmag azine
leb te
ĠExec utive
B M
R oman
S ocket
Ġs ides
ĠS A
ĠT rom
ĠP R
Ġan geschlossen
Ġdes ire
ak on
ĠÃ¼ber setzt
ĠGe gend
ĠMar g
Ġte levision
oth ing
let ion
arb y
ĠBundes wehr
Ġsur ger
book s
weis ung
IV E
gebie ten
Ġcloth es
m issions
Ï ģ
it able
ĠB am
ĠB iele
am o
im ir
ĠR ie
ĠJ ar
Ġver ab
au c
hal f
ĠAus stattung
ĠBer nd
Ġ7 6
ĠWelt meisterschaften
ĠGrund stÃ¼ck
Ġdort igen
Ġatt ached
ĠBrÃ¼ cken
ĠÃĦr zte
Ġdisk ut
Ġautomatic ally
Sep tember
W S
Ġt end
un fts
Ġm ac
ĠM ade
ĠK ob
Ġth reat
Ġst ars
esch oss
ĠUn ser
Ġ6 2
Ġte a
ĠOb last
ĠLu c
ĠIllegal StateException
Ġverst arb
Acc ording
Ġrev olution
Ġsurround ing
B ra
N E
V ert
Ċ Ċĉĉĉ
Ġt ub
Ġn ine
ĠF RE
ĠE ff
Ġl in
Ġst arten
eb ens
Ġchar akter
Ġteil s
schn itte
ĠLok omot
Ve ctor
commer ce
E lem
p op
at om
el en
Ġp latz
Ġh Ã¶ren
ĠK un
ĠRe isen
ap ed
St iftung
gew inn
ĠRes erve
ĠGew erbe
Ġeinfach e
Ġappro ved
Ġdiscuss ion
ĠAcc ount
ĠVerd ienste
Ġwes halb
ĠKlost ers
Z eich
c all
i able
k Ã¶nig
Ġw Ã¼n
Ġe ar
Ġthe oret
am ework
ĠL em
Ġl iber
Ġge Ã¤ndert
ik as
Ġst ir
pt op
ĠDie trich
ust on
iz ierte
Ġar ts
Ġmy ster
ĠGeb rauch
ĠFre ist
ĠMittel punkt
ĠMag azine
ĠGo ethe
With ServiceResponse
Ġask ing
ĠAmts zeit
htt ps
Ġheil igen
ĠCharl otte
Eng ine
WithServiceResponse Async
K unst
h ou
Û Į
Ġf uhr
ĠC P
av al
ĠVer eine
ĠUnter richt
ĠWelt cup
wor fen
Ġenh ance
P aul
ul ous
Ġan gen
ĠO S
ĠSch ei
ĠVer zeichnis
ĠAn z
ĠThe atre
Ġbes uchen
ĠFr iend
Time out
forder t
Ġhous ing
1 12
b ein
{ }
ar g
le ute
Ġl ayout
aus bildung
ĠMar io
ĠMus ical
Al so
ĠStud ent
anc en
ĠBi ograph
ĠGleich zeitig
Ġhous es
Ġlau tet
U C
n el
r ennfahrer
er ei
ĠB urn
Ġein deut
ĠH Ã¶ch
uf er
Ã¶ te
gen ossen
tr im
ĠSe en
Th rowable
Ġbr asil
ĠTour ismus
Mus iker
Ġemer gency
Ġprin ted
> ()
Ġt rop
Ġb ur
el det
ĠB ah
ig ran
ed ing
ĠL uz
Ġre aders
ver zeichnis
00 00
ac o
Ġ6 1
ĠHe ktar
res ources
Con stra
br id
ĠOff iz
Ð¾ ÑĢ
Ġeinfach en
Ġpur poses
ĠJer usalem
Ġmittler en
ĠVerÃ¶ffentlich ungen
es k
ĠS ort
ĠB rie
ra ucher
ach s
la p
Ġtyp ically
ĠschlieÃŁ t
Ġzentr alen
ĠendgÃ¼lt ig
ĠIngen ieur
1 15
A kt
M er
h arm
Ġt ur
at ible
Ġk ick
Ġan lÃ¤sslich
etz ten
ack s
Ġsupp orts
Ġhin ten
He ute
leit en
yr ight
ãĢ Ģ
Ġinstit ution
ĠRena issance
' .
- /
n oten
w eb
ļ Ń
Ġd Ã¼n
Ġt ab
ra f
ĠW end
ĠL iving
ist rÃ¤ger
Ex tension
app ed
ma ÃŁen
ĠFahr rad
Ġshow ed
ĠIns urance
Ġcho ices
Ġed itor
ĠPass ag
Ste p
B I
h ai
ar isch
An t
ĠBr ian
Ġdec isions
Ġeigen er
ĠDis ney
ĠKÃ¼ ste
ĠNÃ¤ gel
ĠVerl ust
ĠArr ondiss
vertre ter
it as
ĠP fe
Ġwar um
ĠEin en
Ġdec ades
ĠGed ichte
Ġverkauf te
gestell te
Ġexpla in
ĠDipl omat
lehn t
ĠPak istan
M ai
W ord
h ut
k as
Ġs ink
or r
ĠW Ã¼rttemberg
ĠL uther
ĠSch we
Ġab gesch
hen den
ia e
ho fer
Ġour selves
Ġakt iven
Ġsign s
ĠBed arf
ĠWochen ende
fÃ¤ll en
Ġsym pt
Ġbatter y
ĠLew is
Ġrap id
F S
M ay
c ur
Ġd ates
Ġs in
as ant
Ġin tended
Ġth us
be cken
Ġad j
Ġbut ter
ĠUS D
Ġwei ÃŁen
Sh ow
ĠNorth ern
Ġober halb
L auf
M ath
c ohol
s ein
ĠB in
Ġ( ),
ĠJ etzt
Ġun tern
qu art
ĠSie gen
port al
ĠMark us
ĠHam mer
Ġperfe kt
fÃ¼ll t
aud i
Ġdiscover ed
Ġther apy
reu ung
Sec urity
ĠOrganis ationen
m ach
w inkel
le ts
ĠD uring
ĠP as
Ġg ern
Ġpro min
ok es
ip her
ail ability
ĠPl Ã¤tze
Ġport ugies
Ġpattern s
ĠPri or
ĠRou te
ĠBM W
Ġzuk Ã¼nft
( ...)
] [
n ieder
Ð ¼
Ġs itting
Ġh yp
ĠT R
Ġvor wiegend
pro v
haus e
Ġevery day
ush ing
ĠNatur al
Ġocc up
ĠEing abe
Ġvari able
R ock
t al
Ġt arge
ĠA z
Ġp ure
Ġp apers
ĠR ober
ĠL ein
ĠV iz
bar er
Ġpre gn
tem per
oh ne
Ã¶ff net
trÃ¤ ger
ĠgrÃ¼ nd
ĠRegel n
Ġenter tainment
Ġjapan ischen
Ġfix ed
ĠGÃ¼n ter
b ringen
Â ³
Ġd okument
Ġw alls
Ġv ote
Ġbe wer
ĠSch icks
od ge
ive au
19 18
Ġpr ivat
ĠMar burg
Ġ0 9
ĠChr isten
ĠMin eral
ĠInst agram
ÃŃ o
ĠTer ror
ĠFot ograf
ĠMult i
contains Key
Ġlic ense
fÃ¶rder ung
F i
N odes
e ing
n ischen
u ber
in th
ĠA y
ĠP seud
ĠG h
ĠK redit
ul um
Ġdes pite
ĠZ ell
our cen
out put
Ġ7 00
ĠAd ler
ĠWahl en
Ġorgan ic
Ġdefin ed
ĠZe hn
ĠBilder n
ĠGef Ã¤ngnis
ĠpersÃ¶n liche
bour ne
Ġb order
Ã¤ nen
ĠK ul
Ġaus fÃ¼hr
get String
ip edia
Er gebnisse
lex ikon
ĠGu ard
forsch er
ĠKategor ien
Ġparticip ants
Ġscient ific
l ate
l isten
ĠB atter
Ġbe ar
Ġan sch
Ġan zu
id get
pp ers
ah m
ĠEr m
Ġne ut
Ġwe aring
oc aust
ĠAb stand
Ġag ent
ĠAll es
Ġdr ivers
licher weise
ĠMann heim
ĠTechn ologie
ĠDav is
ĠAkt ien
Ġgren zt
rÃ¼st ung
K W
Q U
T emp
in formation
Ġf inn
Ġp un
Ã¤ ck
ĠH av
Ġfor mal
ĠU til
aus stattung
bau en
ĠPra kt
ĠMinister prÃ¤sident
p es
ĠĠ Ċ
ĠP el
Ġto ugh
ĠWe ber
reis en
inter est
ĠKon zentr
Ġsol ar
ĠOn t
Ġhistor ical
atÃ¼r lich
ĠZe aland
ĠGraf schaft
Ġdog s
C up
c our
Ù ĩ
ĠS ite
ing ers
em an
ĠC ass
Ġge h
ik um
Ġver trat
ĉĉ ĉ
ĠPro cess
eld ungen
ider s
ĠHand lung
Ġtest s
Ġcook ing
Ġproced ure
1 16
L P
ĠA venue
ĠM etz
Ġh ieÃŁ
Ġk inder
ĠRe kord
lass ung
ans ion
Ġste igen
ĠIt aly
li ess
ĠspÃ¤ter e
Ġbring ing
Ġconc entr
Ġmatch es
ĠGeschÃ¤fts fÃ¼hrer
frastru cture
ĠProm otion
ĠKup fer
S ow
ç Ķ
ĠS ed
Ġv ieler
ĠN u
ĠJ son
Ġall gemeinen
ph ones
Ã© l
ĠChrist us
Ġprote in
Ġconf lic
ĠErweiter ung
Ignore Case
S w
v ia
v arian
Ġt utor
Ġf ellow
ĠB ou
ĠSt ab
ĠZ one
get Instance
Ġex ternal
Ġsp aces
ss el
Ġout standing
ĠHand ball
Ġgu itar
ĠWil son
Ġbro ther
Ġtro cken
mod el
des ign
ĠerÃ¶ff nete
ĠPrÃ¼ f
Ġinfluen ce
ĠGriechen land
Nov ember
Abst ract
Ġt asks
ol id
ĠP ut
ĠP av
ĠR an
Ġl ifestyle
ach es
ein st
ob i
hal ter
igt es
En tw
ĠAd resse
ĠUm gang
Ã¡ r
RE S
Ġfeed back
ĠRog er
ĠEns emble
gesell schaften
6 00
D ire
Ġe hren
ĠE uch
od ox
Ġsch Ã¶nen
Ġ0 4
Ġro ut
Ġins ert
ĠUnivers al
Ġvers etzt
ĠArbeit sp
Ġben ch
199 1
str asse
Ġbr ill
Ġequ al
ĠDi agn
ĠSam uel
Ġricht igen
Ġdistrib ution
ĠEnter tainment
Ġaccur ate
Ġverur teilt
Ã¼ re
ĠG ipfel
ĠE rot
ĠH ess
ĠC ell
Ġre ar
Ġver boten
ĠBe fehl
ĠMar s
ĠOber flÃ¤che
Ġcle arly
ĊĠĠĠĠĠĠĠĠĠĠĠĠĠĠĠĠĠĠĠĠĠĠĠĠĠĠĠĠĠĠĠĠ ĠĠĠĠĠĠĠ
Ġgeboren e
ĠHin weise
/ >
m ade
r atic
v ard
Ġ ðŁ
Ġa rab
Ã¤ sten
Ġl ived
Ġge legentlich
ĠSt one
ann els
ĠVer arbeitung
ang le
ast ik
ĠFran Ã§
ĠFre ude
Ġra ise
ĠVerb reitung
ĠRo hr
Ġdisc ount
Ġsupport ing
Ġqualif ied
Ġple asure
Ġschl ug
M aler
k amp
l itz
Ġd b
ien te
Ġ} ;
Ġ18 72
ail and
own ed
Einz el
kl ar
AN D
Ġ186 6
Sp an
fre ie
Ġnational e
Ġpresent ation
wh ich
ĠÃ¤ltes ten
Ø ¯
ĠB oth
ĠP ict
ĠL ed
Ġth ick
qu elle
ĠDe ad
Ġtr aten
ĠTra g
EN D
ĠHerr n
hers teller
Ġcandid ate
ĠEntste hung
beg inn
ĠGlo cken
A tt
s end
w Ã¤hnung
Ġ Ã¤ndern
Ġt ags
us hed
ĠT rieb
ĠI reland
ĠK ino
ĠK urfÃ¼r
ĠH Ã¼gel
isch t
Ġ18 87
Ġ18 73
19 89
Ġent lassen
old s
ĠSte phen
Ġbesch lossen
ĠVers and
Ġklein eren
Film schauspieler
Ġgelegen e
ĠOption al
Cons umer
J ava
R o
u ine
Ġh os
ĠK abin
Ġre prÃ¤sent
Ġor g
Ġ18 75
tra ce
aw ay
Ġel imin
ĠGes icht
ĠsÃ¼d Ã¶stlich
sb urger
Film titel
ĠTher apie
Ġarr ived
ĠRett ungs
ĠMilliar den
S an
p g
Ī Ĵ
re lated
Ġin fe
us ing
ĠK itchen
Ġz ul
ĠC her
Ġ18 76
Ġ18 84
auf nahme
Str u
Con verter
Ġhin ein
ĠKap ital
Ġdefin iert
ĠMaler ei
Ġsil ver
ĠLÃ¶ wen
Ġrecogn ized
ĠNahr ungs
J SON
M ost
W ell
æ ĸ
ĠG ross
âĢĻ ,
Ġcon ver
tra cking
Ġgen et
Ġ9 8
use ums
Class Name
Ġgreat est
Ġperfect ly
Ġs ad
Ġs essions
te e
il ot
ĠD M
ĠP L
ĠV ene
ĠEr Ã¶ffnung
19 80
Ġrec over
lement s
Ġmus ical
ĠÐ ½
ĠGi ov
Ġfunktion iert
vier tel
Instit ut
C lick
F ollow
Ġp oll
Ġein gew
ei ro
Ġab ges
Ã¶r g
Ġwo oden
ĠPort rÃ¤t
ros sen
ĠKais ers
ĠLÃ¼ beck
ĠPrÃ¼ fung
Ġlok alen
ĠKonfl ik
1 18
st ufe
Ã¤ fte
ĠR och
ĠSch au
Ġj oint
Ġex cept
Ġch airs
ĠEin kauf
ĠSe a
Ġ6 9
Ã¤hl er
ma jor
setz er
Ġsearch ing
Ġkur zer
Ġbestehen de
Ġconcern s
Ġposs ibly
F ran
j son
t oken
v iel
or um
Ġv ary
Ġp utting
ĠD ampf
ĠJ am
ĠIn se
ĠAn st
lic it
Ġres idential
ĠAb geordneten
Ġsh ares
Ar g
ĠMus ter
ĠGroÃŁ teil
ĠCl ark
ĠPer formance
Ġzun ehmen
Ġphot ography
forder ung
Ġimpro ved
ĠSchriftsteller in
Ġfil ms
gebie ts
Ġvac ation
Ġleit et
Ġa w
or er
Ġb atch
Ġp or
ĠF usion
ĠAn bieter
Ġher unter
ĠJun ior
anc ouver
Ġzeit weise
ĠFeder al
Ġdur fte
f angen
k olle
r us
ĠD afÃ¼r
ĠK oll
um st
Ġdurch aus
ĠBes ter
Ġgeb lieben
Ã¨ s
ĠKo ordin
Ġnord Ã¶stlich
ifiz ierung
ĠAud io
K an
Ð ¿
in us
ĠS ain
ĠM aschine
ĠJ eder
ver dienst
ĠVer wand
ĠAn gabe
ĠSp irit
Ġent deck
ĠVor bild
Un sere
ĠVerb ands
Ġschw ere
ĠPl ant
Ġheraus gegeben
Ġzeit genÃ¶ss
ĠEth n
Pan el
Kompon ist
D ig
R ou
ĠSt aff
all as
Ġver letzt
Ġaus gebaut
Ġch ief
ungs gebiet
igh ter
ress en
Dies es
Ġinterest s
OD O
Ġtal ent
Ġchines ischen
Ġappreci ate
Ġverbess ern
Ġgespe ichert
Ġneighbor hood
Ġsurger y
K ap
z o
Ġa ges
Ġin tr
ĠM uss
ĠM inder
ĠD ocument
ĠF ell
men ge
ap shot
Ġ" );
Ġum gebaut
be hÃ¶rde
Ġfe els
Ġgood s
Ġteil nehmen
ĠSk i
ential s
ĠEinwohner zahl
Pr im
Ġreach ed
ĠEvangel ischen
cep ted
ĠBul gar
Ġlern te
Digital isat
E qu
P M
a a
i ors
t ax
y ll
ĠM iami
ĠF ont
isch Ã¶
Ġge legt
ĠSch ild
ex pected
los ure
ĠBuch staben
fre ien
ĠBon us
Ed ge
ĠMem orial
ĠDenkmal schutz
ĠstÃ¤r ker
C L
U se
k ommand
u is
Ġm ine
Ġc raft
ĠE astern
ĠSch Ã¼tzen
ib ilities
ĠAus bildungs
ĠÐ ¾
ĠAmer ika
the t
iden z
Ġspec ified
jahr en
Ġref lect
mÃ¤ÃŁ igen
Ġpurch ased
ĠStÃ¼ck e
Ġadmin istration
Ġgraph ic
ĠHit ler
B oot
p ra
Ä Ļ
in ch
Ġt ri
Ġb an
us se
im i
all eng
ĠIn spir
ĠVer fassung
lan ge
sh ow
zeit schrift
Pro xy
Ġrec o
fahr ts
ĠPh oto
Or iginal
Be fore
Le ft
trag ung
Ã¤tz t
ĠBed Ã¼rf
lad ung
Ġkont roll
ĠErinner ung
Ġunters ucht
Ġpromov iert
Ġguarante e
flo at
Ġperman ent
ĠBronz emed
B aden
c olle
k ette
ĠM iller
ĠF inger
ok ing
ĠSp ur
Ċĉĉ ĠĠĠ
Ġher um
Str ateg
ett i
Ġra il
199 3
Ġbef ind
Ġnord westlich
E p
b ay
z ung
ro vers
ĠM ind
ĠM assen
Ġst Ã¤ndig
Ġr are
ste ine
Ġab gest
ĠAr gentin
ĠSp Ã¤t
Ġres ume
Ġgew Ã¼nsch
Ġ< /
Ġho tels
Ġchar ges
ĠsÃ¼d westlich
Me hr
ilome tern
ĠhÃ¶ here
ĠModer ne
Ġparticip ate
ĠGÃ¼n ther
ĠKomment ar
ĠViet nam
S l
b Ã¶
z ant
Ã ¯
Ġf aster
ĠSt ol
ĠZ usÃ¤tzlich
Ġ18 77
ĠPro test
Ġvers uchen
Ġbel ong
ĠDar aufhin
Not Null
Ġengl ische
verein igung
prÃ¤ senz
ĠWissenschaft ler
Ġdep th
ĠBrun o
BevÃ¶lker ungs
Ġappoint ment
Ġd ipl
ĠB uffer
ĠG un
ĠR ug
Ã¶ scht
Ġge langen
Ġat tr
lin ed
ĠGr iff
ĠPr ice
Ġ) *
Ġgu ter
Ġ> >
ĠWei b
ĠRec ord
Ġamer ikanische
ĠKan al
Ġinnov ation
ĠAuss age
Ġdepend ing
Ġlands cape
olley ball
? )
B lack
I O
P rÃ¤sident
f ue
er ie
Ġf ach
Ġp od
ĠP ool
ber uf
Ġsch aff
Sie g
ĠHin weis
ĠmÃ¶ glichen
Ġvalu able
Ġc aught
um pf
ab geordneter
ĠSt ift
qu alitÃ¤t
Ġle hn
ian ischer
ĠAb geordneter
auf nahmen
ogra pher
ual itÃ¤t
ĠFre der
Ġerfolg reichen
pre chen
Ġrelat ive
Ġkommen den
Ġconf ir
Ġoffen bar
ĠNaturschutz gebiet
B ig
Z one
k B
us k
ĠL angen
ĠVer fassungs
Ġwe isen
Ġdies mal
ho en
Ġup coming
ĠHe art
ĠInd ones
Ġbre ite
ĠDire ct
UN D
omet imes
Ġans Ã¤ss
stud ium
ĠAth let
Ġofficial s
Ġzentr ale
Ġmount ain
ĠTrain ings
zust and
W ird
w eiten
un ks
Ġp ed
ĠI ron
ĠN ad
ĠJ g
men te
Ġme x
ip eline
sh ips
Ġmehr erer
ĠFor ts
Ġlie fern
Ġdar um
ĠUm bau
ĠBr ut
ĠDis ziplin
sprÃ¼n glich
ĠFer r
Ident ifier
ĠergÃ¤n zt
a ine
ĠG n
sch rank
ĠN y
Ġst ain
Ġauf treten
ien ne
Ġpro test
ub a
end ent
get R
Ġle gen
Ġad s
ĠHe er
Ġ8 8
lag s
De lete
ĠMan chester
ĠJugend liche
Ġtradition ellen
Tod ay
ĠBiele feld
F B
S ummary
å Ľ
ch nen
un checked
ing t
ĠD y
Ġz Ã¤hlte
Ġzu gÃ¤nglich
ĠIn g
Ġun less
Ġpro posed
Ġ16 0
ĠProf essional
ĠBel g
Null able
MA X
Ġencour age
Frank reich
ĠPots dam
k w
ĠS ummer
Ġ( ).
om on
ĠG Ã¶t
Ġdes c
ver lauf
ĠZ Ã¼ge
Ġr ise
Ġex port
Ġ18 83
zahl t
Ġem otional
sprÃ¼ che
Ġruss ische
aun a
Amer ican
Ġtrain ed
ĠĠĠĠĠĠĉĉĉĉ ĉĉĉĉ
ĠAnh Ã¤nger
er d
ĠS eminar
ig ers
ĠW art
ĠC hen
ul der
Ġun w
Ġex tended
Ġfe es
ĠAll gemeinen
ĠJu an
ragen de
IC E
Welt meisterschaften
Ġmix ed
ĠDoug las
1 13
Ã ī
or o
ĠH rsg
ĠN i
ĠRe aktion
ĠVer leihung
ob jekt
Pro gramm
off s
Ġbeg ins
ingen ieur
zahl ung
Ġsuccess fully
Ġvorhand enen
ĠHy per
Ġign ore
Ġarchite cture
ĠMÃ¶ bel
ĠverstÃ¤r kt
Ġentre prene
O UR
b n
y es
ch a
ĠS now
ĠT oy
ĠH Ã¤
ĠR he
Ġan g
Ġne ur
Ġ3 50
Ġch ocolate
ole c
isc ons
bu ilder
Ġwoll ten
bra un
Ġbrow ser
lieder ung
ĠTschech ien
Ġpromov ierte
exec ute
rupted Exception
on de
Ġs ac
an teil
de p
ĠL av
Ġl unch
Ã¶ ner
Ġfor um
Ġver teilt
ĠAn erkennung
Ġsh ift
urs or
code d
Ġequ ipped
Ġident ified
Loc ale
ĠSpan ish
Ġrespons ibility
ĠExper ten
Ã¤u den
Ġenth us
Ġposit iv
Ġcabin et
ĠVerantwort ung
ĠEliz abeth
A c
F OL
v ements
te ch
ĠM aus
ĠP rix
ĠE tw
ÃŁ er
ĠSch atten
Ġaus gesch
ak u
ens us
ĠSchw anz
ĠAd vent
ĠBr idge
ĠMy th
Ġgrow n
minister iums
ĠGit arr
/ *
B Ã¼
b ing
in str
ĠS ams
ĠT ipps
ic als
ĠN ag
Ġk illed
Ġge zogen
ĠAr izona
out ube
ĠCh i
ĠGe fÃ¼hl
rÃ¤ umen
ĠNach folge
Ġknow ing
ĠMin er
ĠGemeinde gebiet
Ġ' "
Ġhard ware
ĠschlieÃŁ en
ĠTre ffer
Ġconf idence
merksam keit
( _
B ound
M Ã¼n
M any
r ick
in yl
on ischen
ĠL ange
ach ter
Ġk Ã¼nft
Ġso ul
ian er
St orage
Ġstand s
à¸ ²
Ġ186 8
bereich e
Ã¨ re
ĠBern ard
Ġopt imal
ĠMer cedes
ĠLes er
Ġmanufact urer
ĠStad ion
ĠDenn och
jen igen
ĠBuild ing
F est
M useum
g asse
Ã¤ use
ĠD ance
ĠT ai
ĠT ank
Ġan fangs
ann y
ĠBe fore
ĠDe leg
ĠSe henswÃ¼rdigkeiten
ata illon
Ġakt ual
ĠGrÃ¼ nen
Ġfund ing
Mot or
Ġbenachbar ten
E ach
F ranzÃ¶s
n ames
| |
in ne
Ġp ink
st itu
me te
ĠCon f
ĠMon ats
ret ung
Ġdescrib e
Ġsuppl ies
ĠArrondiss ement
D etails
Ġt at
le ctor
Ġk it
all o
ĠSch aff
etz te
erk lÃ¤rung
ĠOr th
Ġ9 6
fahr ten
gesch Ã¤ft
Ġacc ounts
ĠPr ince
por ter
199 2
ros se
Ġturn s
Ġeffect ively
Ġfail ure
Ġlic ens
ĠgÃ¼nst ig
RÃ¶m isch
G C
w ird
Ġs ang
an alyse
al is
Ġf ein
Ġl as
Ġan sonsten
Ġun bedingt
sen der
pr esent
Ġ18 81
19 30
Ġcolle cted
back tracking
ĠFil men
Ġaccess ible
ĠursprÃ¼n gliche
Ġseem ed
ĠÄ Į
angeb ot
ĠAltern ative
valu ation
Ġadvent ure
W R
m lich
m iss
n ab
Ġd ental
Ġs ud
ĠS ale
Ġin vent
ĠB BC
ĠH ope
em y
ĠC irc
ach ment
ind ungs
hen de
Ġ" '
par ks
ĠAus fÃ¼hrung
igh ten
pro ble
ĠFor der
Ġ8 2
bo ot
add ing
Ġset up
Ġerw arten
ĠPolitiker in
fÃ¤h ig
ĠTown ship
ĠSoph ie
Ġgefert igt
Ġbeinhal tet
BevÃ¶lkerungs entwicklung
1 14
P op
V om
d ienste
e ff
ch annel
Ġd iss
Ġt ast
Ġt ells
ĠB ib
im er
ĠF alle
ĠL okal
ier mark
Ġge lesen
get X
ĠBe ispiele
eil er
St ation
ivers ary
Ã¤ch te
)) )
ament al
ĠBen j
ĠDo ktor
Ġstamm te
Ġcelebr ate
Â¶ Â¶
ĠgewÃ¤hr le
(...) ");
Q UE
f ers
in v
it ate
Ġs alt
ĠT unnel
ĠK G
ĠK la
um es
Ġk irch
our i
Ġ18 82
ĠPro tocolMarshaller
Ġwill ing
Ġ0 7
Ġ6 7
Ġrec y
com pare
gesch lecht
pf lanzen
Ġ186 7
ĠNiederland e
imens ions
M iss
W ien
e ber
w ein
he w
ĠF Ã¼
ĠH ex
ul er
ĠN ass
olog ien
Ġgen annte
Ġtr ends
ĠQu ality
ER S
Ġtechn ische
the ater
ĠEm ail
ĠJugend lichen
spr uchs
verb indung
UN G
ĠMotor rad
Ġbem erk
W rite
h aven
Ġ ×
Ġf o
ĠP A
ĠP az
ic z
ĠG on
ĠE C
ĠW Ã¼n
ist ungs
ĠZ auber
Ġr id
ĠIn fos
aus o
ĠEr wer
ru cken
ĠSp uren
Ġunter gebracht
ĠFran ces
br unnen
ĠÃľber sicht
ĠTr ust
zw ungen
Ġche ese
ĠfÃ¼nf ten
met hode
Ġ186 5
ĠEis hockeyspieler
ĠKommand o
Erster wÃ¤hnung
Ġreco very
E E
ra gt
ĠW ellen
Ġk ennt
ste t
Ġch icken
Ġbes ucht
ĠWh ere
Ġpres ents
ĠVal id
ĠAcc ording
ĠUnabhÃ¤ng igkeit
Ġgrunds Ã¤tzlich
) ).
L ab
S chn
d ir
g ung
l t
or ders
Ġm ent
Ġer geben
Ġwar ten
Ġcon v
ore an
ian e
row s
Ġreturn s
ĠAuf l
Ġ7 8
AR D
tag on
ĠMeister schaften
ĠWer be
Ġnet works
Ġconsider ing
Ġhold s
ĠRegen sburg
ĠSom it
tl ere
ĠVize prÃ¤sident
Ġnut rit
Ġurkund lich
) -
F ind
c ers
Ġb ike
Ġf Ã¼hl
ro d
ĠP unk
ĠH at
ĠL aden
ul ator
ĠN ationen
19 39
ide t
Ġlie ben
ank a
Ġhand elte
Ġsol cher
Ġsub t
ĠHar ald
Ġgel b
ĠGed enk
Ġruss ischer
Ġcook ies
ĠRÃ¶ mer
Ġcollabor ation
ĠKonfl ikt
izien z
å¹ ´
Ġfavour ite
G ET
L isten
b Ã¤
h Ã¼ter
Ġp asst
ĠM alt
ic i
sp itze
ĠEr ster
cl uding
Ġgen ieÃŁen
Ġtr ib
Ġrec orded
Ġkeep s
pekt ive
ĠOrch estra
K at
M ENT
b art
Ġv ital
ĠK ann
ĠH ang
eit h
ĠVer stÃ¤nd
ru ption
etz ungen
geb oren
Ġcl uster
ĠNieder Ã¶sterreich
ĠDis c
Ġjeder zeit
Ġausgest ra
ĠGirl s
Ġdynam ic
ĠZent imeter
y ers
Ġin ne
ro h
Ġp reis
ig i
ĠG att
ĠH ur
ĠR ÃŃo
ĠV alue
Ġk Ã¼nd
Ġst retch
ĠUn it
Ġ< <
Ġhand ler
ĠHoch schul
ĠBud apest
ĠGebie ten
ĠWahr heit
Ġaffe ct
bereit et
maÃŁ nahmen
ĠKapit Ã¤n
ĠÃĦgyp ten
iscons in
S ymbol
V A
er ial
or ff
ĠS ache
ĠB arb
il ation
Ġc ounty
ĠP iet
ĠVer y
Ġne arby
ĠAus zeichnungen
Ġpass iert
ĠAt om
ĠKap itel
esse e
ĠKat alog
ĠDi Ã¶z
Ġconf irm
ĠLeichtathlet ik
p unkten
č ĊĠĠĠĠĠĠĠĠ
Ġv ul
ĠT auf
ĠW under
ĠR ats
ĠL Ã¶sungen
os c
art ikel
gr Ã¤
Ġqu ote
ĠIS O
Ġbre iten
Ġfound ed
ĠÃĦ hn
Ġbef re
CO L
gef angen
ĠDokument ation
ĠKÃ¶nigs berg
ĠLOG GER
Ġ{} ",
L ebens
S M
j ahre
l uft
Ñ Ĩ
ĠS olo
Ġf asc
ĠF ox
ĠF ellow
ĠH P
Ġer stellen
ĠSch Ã¼l
Ġat mosph
Ġvor ne
Ġdar stellt
ĠBo gen
bild ungen
Ġsur prise
ĠSer ge
sw ald
Ġbef Ã¶rdert
Ġpubl ish
ĠKauf mann
ĠGest alt
ĠVertra gs
Ġbess ere
ĠAben teuer
leucht ung
alleng ing
A lex
g roÃŁ
Ġ ~
ĠS tett
ĠP RO
et enz
ĠK h
Ġr is
ĠAn lass
Ġhe aring
Ġme at
be zeichnung
Ġ7 1
ĠNe ues
Ġlie ÃŁen
hÃ¶r igkeit
man uel
ager ung
Ġunser es
ĠSpe icher
ĠSk ulpt
Ġcare fully
ĠIntern ets
Array List
ĠAp othe
ĠEmp ire
Ġerm or
Ġcur ren
haupt stadt
Ġfit ness
ĠAud i
ĠIter ator
ĠZun Ã¤chst
B rand
c ell
Ġa id
Ġm ont
ĠB ald
Ġh ire
th rop
Ġwe chs
Ġ18 78
du ate
ĠLe h
tra ck
min a
Ġel ig
ĠUm fang
ilit ation
Ġsk ill
Ge ografie
AC T
Ġprogram me
Ġhost ing
Ġdom estic
ĠIntegr ation
Ġcitiz ens
1 17
E nde
Ġa chten
es ents
Ġf ir
ro it
ĠR ain
Ġbe zieht
ud a
ph il
ons o
ĠTra vel
vers orgung
ĠDr am
ĠBi ografie
Ġschn eller
ĠFreund in
ĠPhys ik
ĠMinn esota
endo ktor
ĠVeg as
N ote
P AT
e ister
r isch
r Ã¶
y ou
er ung
en cy
Ġa gr
re iter
ĠA gency
ĠA TP
ĠB Ã¼nd
ĠF u
ĠF avor
Ġer folgen
lich em
ess ed
Ġfor ces
Ġ18 86
Ġres olve
Ġget roffen
pro jekt
Ġgr id
ĠBl Ã¤tter
Ġbel ief
ipp er
Ġmin imal
Ġmach ines
ĠKr one
Ġpolit isch
ĠMÃ¤n nern
fil me
ĠKol onial
Ġgradu ate
Ġimplement ation
ĠÃ¤uÃŁer st
ĠEreign isse
Ġfoll ows
b oy
s rc
Ġb ond
Ġv eter
im age
sch ritt
ĠV II
sp ur
Ġ3 60
ac ious
Ġ9 00
ĠBau er
ĠMon ument
ĠWerk statt
Ġposition s
Ġmass age
Ġadmin istr
Ġple ased
ĠLim ited
Jahrhund erts
ĠDrehbuch autor
frist ig
ĠPfar rei
V O
h Ã¤usern
an ing
re ll
ĠS z
ĠB ry
Ġein gebaut
and al
Ġst Ã¤rk
se kretÃ¤r
ĠSe gel
iss a
ĠEx pl
ĠUm feld
ĠVerb indungen
ĠSÃ¼d west
hol der
Ġgl Ã¼ck
Ġiss ued
ival ent
ĠFin ancial
Ġ186 4
umm ern
IG HT
Ġbefand en
ĠAc ad
Ġregular ly
Ġcaus es
ĠAust ausch
Ġintens iv
ĠRis iko
Schwei zer
ixt ure
Jul i
P erm
k ov
w ords
Ġd ick
ar gs
he et
Ġp our
st ens
ĠP osten
ĠE sp
ĠL uk
ĠSch uld
ĠVer trieb
ĠAl uminium
ĠSpiel tag
ĠMat rix
ĠTechn ischen
ĠDorf es
Ġident ity
Ġbew usst
ĠÃ¤l tere
Ġhold ing
Ġimpress ive
ĠLiz enz
C ustom
k Ã¼
ä ½
Ġc able
ĠM d
ĠM Ã¼hlen
ĠT ony
ĠF an
ĠE cke
ĠK ok
Ġz ogen
sch ild
Ġl aufen
ab len
iel en
Ġr ies
ĠAn trieb
get A
Ġsch Ã¼tzen
gr at
ĠDe finition
19 88
ath y
Ġ7 7
li as
Ġger inger
Ġreal ize
wei ÃŁ
ĠMo on
deutsch land
Ġhon or
ĠLink ed
Wer degang
ĠAnth ony
ĠLear n
ĠSqu are
n chen
ĠS M
Ġ1 15
ic ient
ĠI C
ĠL ov
Ġbe her
ĠIn v
Ġj oy
oun ge
att an
Ġgew eiht
Ġgr und
entr um
ĠAmeric ans
Ġter ror
Ġ186 3
Ġmat ters
ĠPfer de
ĠerfÃ¼ll t
ĠKaffe e
K omp
Ġm agn
ro b
ĠF ed
ĠE xt
ĠJ ubil
kt ive
ei de
we ar
ĠEr richtung
ĠAr ena
Ġunter scheidet
Ġinst rument
ĠÃľber nahme
Ġmed icine
Ġfest ival
ĠAss istent
ĠBut ton
ĠBra z
DE FAULT
Ġ186 9
ĠKÃ¶l ner
ĠEben falls
Ġintrodu ction
Ġreve aled
D av
J ugend
m os
es heim
Ġt ile
it als
ig o
Ġk Ã¼rz
19 33
bar ung
ĠSal es
ĠGraf ik
Ġmeet ings
Log ger
Ġren ew
bÃ¼rger meister
Ġanerk annt
Ġclin ical
O ktober
k irch
ĠT ry
ĠG uts
ĠN ext
ĠSt ars
ver letz
ĠZ ert
ĠAuf merksamkeit
min der
amer as
ĠOb ama
Ġend s
Ġlov es
Ġanc ient
ynast ie
STAN CE
H z
R M
g ate
u ers
Ġw ies
ĠS G
Ġe lection
Ġy es
Ġy ellow
ĠRe formation
sp lit
Ġex cess
je cted
amil ton
ĠSo zi
ON E
reg on
pre c
ify ing
Ġdefin ition
scheid ung
Ġappear ed
ĠJes u
ĠMathemat iker
Ġcondu cted
ĠPeters burg
Jan uar
ugos law
f uÃŁ
ĠB B
ĠG ord
ĠG oth
ĠH op
Ġg od
Ġg rad
ĠV ide
ĠV ancouver
Ġk Ã¶rper
ein heiten
iv itÃ¤t
se y
In v
lan ze
ĠUnter k
Ġco ck
ĠArbeit geber
ĠRes ponse
Ġtrans ition
hol en
Ġsw imming
Ġpers pective
Ġemploy ment
Ġintegr ated
CD U
Ġfertig gestellt
.:.: .:.:
ĠRumÃ¤n ien
B U
P red
T I
à ´
he ader
et tel
ĠK Ã¼r
ĠK leine
ĠH ed
sch Ã¼tzen
ĠSt att
Ġun gewÃ¶hn
19 86
Ġnew sp
Ã¤n glich
tell ers
Ġph ase
Ġvers ions
Ġpl ate
Ġpl Ã¶tz
ĠUr ban
ĠKn ochen
à¸ Ļ
Ġdisc ip
Ġerreich ten
iller ie
ĠKompon isten
ĠGott fried
ĠLat ein
Ġdou bt
D am
k ol
Ġd ent
Ġm oral
sch ung
ĠL aus
Ġfor med
ĠSch um
op Ã¤d
Ġde cre
ian z
ĠGe legenheit
upp e
Ġtra il
Ġtra cks
ĠVor stands
ays ia
ĠAnd ere
ament o
ĠTre ffen
Ġmatch ing
ĠSchm uck
ĠCru z
kÃ¼rz ung
ĠJord an
ĠOnt ario
S im
on omie
ĠS ax
ĠF L
all iga
Ġlie fer
Ġgesch ieht
ital ien
ĠPol ize
ĠGroÃŁ herzog
bes itzer
Ġdel la
ĠInter pret
Ġfest gelegt
ĠCont act
Ne u
leist ungs
ĠStock holm
ĠNikol aus
M o
e hr
z usammen
Ġa wareness
Ġt ube
at ischen
al ters
ĠS K
ĠD ating
ĠD unk
Ġh all
ĠF abrik
ĠI gn
ĠH ills
ĠL isten
if ter
ĠSt ich
Ġch allenging
Ġme al
lie ger
Ġ18 40
ens wert
Ġges prochen
ĠSte el
Ġem phas
ommer ziel
ĠMag azin
ĠHier bei
Ġfac ing
Ġrepr esents
bro chen
ĠKons erv
ĠRy an
! âĢľ
I st
in ent
el in
ĠB ert
ĠF I
sch iffe
and y
Ġk r
ill o
ĠAr me
20 21
Ġber aten
ĠPar ks
Res ources
ep ing
Ġverb esser
ĠBre ak
Ð¾Ð ´
Ġstell ten
Ġjapan ischer
Ġdetermin ed
ĠAfghan istan
hoen ix
C ap
F ebru
S onst
h ent
k ing
p in
w ing
us ste
am an
Ġbe wegen
Ã¶ tt
ĠV inc
ow itsch
Ġver an
och em
Ġat tributes
lie hen
ĠAl i
ĠCh ile
Ġgen e
ĠHer zen
Ġ7 3
ek ing
Ġfre ige
Ġhealth care
Ġtyp ical
Ġcert ified
Ð¾Ð »
ĠGesam tw
B rite
E A
Ġm ic
Ġv it
Ġv intage
st rÃ¤ger
ĠK und
ĠK orn
Ġwar rant
rit ter
Ġum gesetzt
Ġ0 5
Ġ0 8
ĠFor est
ĠPart ners
Ġorder s
film ung
lÃ¤nd ische
ĠMont ag
Ġenter tain
Ġspeziel le
ĠSar ah
iÃ¨ re
j ar
er am
he ater
Ġf ruit
st reit
ic ast
ĠF uture
et a
ĠW ird
ĠH agen
and in
ĠSch nee
ĠMit tler
ĠY es
Ġ7 4
gend es
Ġ13 0
ĠBew ertung
Ġbef est
ĠApp lication
ĠDu isburg
ĠHerr scher
Ġless ons
ĠEben so
Ġdraw ing
Ġschwed ischen
Ġinkl usive
ĠsÃ¤m tliche
2 50
H ar
Ä Ł
en ters
on om
ĠS ysteme
ĠB ody
ĠB lau
Ġp ic
ĠM az
ĠF la
ĠW icht
Ġch arm
ens is
ĠTh or
Ġsh ops
Ġsow eit
Ġfe ierte
eth yl
Ġspe aking
Ġges agt
Ġpl ug
Ġpl anned
Ġbl ow
ĠDes igner
ĠUr teil
Deutsch e
ĠPat ent
ĠCor ps
Ġimpro vement
ĠJust ice
Ġredu ziert
ĠPosition en
ĠverfÃ¼ gen
ĠFass ung
Ġexhib ition
Ġassess ment
ĠPremier minister
ĠSchlieÃŁ lich
ĠØ§ ÙĦ
C le
f unction
m utter
Ġf ell
ĠA ur
Ġh idden
ĠK Ã¤r
Ġg ifts
Ã¶ ger
Ġre ichen
Ġge pf
Ġus ual
lieÃŁ en
ĠFre unden
ĠCar los
Ġgesch Ã¼tzt
ĠAt mosphÃ¤re
Ġerfolg reiche
room s
ĠDon ner
idel ines
Ġangeb racht
col or
ĠAdmin istration
ĠNiederland en
\\\\\\\\\\\\\\\\\\\\\\\\\\\\\\\\\\\\\\\\\\\\\\\\\\\\\\\\\\\\\\\\\\\\\\\\\\\\\\\\\\\\\\\\\\\\\\\\\\\\\\\\\\\\\\\\\\\\\\\\\\\\\\\\\\\\\\\\\\\\\\\\\\\\\\\\\\\\\\\\\\\\\\\\\\\\\\\\\\\\\\\\\\\\\\\\\\\\\\\\\\\\\\\\\\\\\\\\\\\\\\\\\\\\\\\\\\\\\\\\\\\\\\\\\\\\\\\\\\\\\\\\\\\\\\\\\\\\\\\\\\\\\\\\\\\\\\\\\\\\\\\\\\\\\\\\\\\\\\\\\\\\\\\\\\\\\\\\\\\\\\\\\\\\\\\\\\\\\\\\\\\\\\\\\\\\\\\\\\\\\\\\\\\\\\\\\\\\\\\\\\\\\\\\\\\\\\\\\\\\\\\\\\\\\\\\\\\\\\\\\\\\\\\\\\\\\\\\\\\\\\\\\\\\\\\\\\\\\\\\\\\\\\\\\\\\\\\\\\\\\\\\\\\\\\\\\\\\\\\\\\\\\\\\\\\\\\\\\\\\\\\\\\\\\\\\\\\\\\\\\\\\\\\\\\\\\\\\\\\\\\\\\\\\\\\\\\\\\\\\\\\\\\\\\\\\\\\\\\\\\\\\\\\\\\\\\\\\\\\\\\\\\\\\\\\\\\\\\\\\\\\\\\\\\\\\\\\\\\\\\\\\\\\\\\\\\\\\\\\\\\\\\\\\\\\\\\\\\\\\\\\\\\\\\\\\\\\\\\\\\\\\\\\\\\\\\\\\\\\\\\\\\\\\\\\\\\\\\\\\\\\\\\\\\\\\\\\\\\\\\\\\\\\\\\\\\\\\\\\\\\\\\\\\\\\\\\\\\\\\\\\\\\\\\\\\\\\\\\\\\\\\\\\\\\\\\\\\\\\\\\\\\\\\\\\\\\\\\\\\\\\\\\\\\\\\\\\\\\\\\\\\\\\\\\\\\\\\\\\\\\\\\\\\\\\\\\\\\\\\\\\\\\\\\\\\\\\\\\\\\\\\\\\\\\\\\\\\\\\\\\\\\\\\\\\\\\\\\\\\\\\\\\\\\\\\\\\\\\\\\\\\\\\\\\\\\\\\\\\\\\\\\\\\\\\\\\\\\\\\\\\\\\\\\\\\\\\\\\\\\\\\\\\\\\\\\\\\\\\\\\\\\\\\\\\\\\\\\\\\\\\\\\\\\\\\\\\\\\\\\\\\\\\\\\\\\\\\\\\\\\\\\\\\\\\\\\\\\\\\\\\\\\\\\\\\\\\\\\\\\\\\\\\\\\\\\\\\\\\\\\\\\\\\\\\\\\\\\\\\\\\\\\\\\\\\\\\\\\\\\\\\\\\\\\\\\\\\\\\\\\\\\\\\\\\\\\\\\\\\\\\\\\\\\\\\\\\\\\\\\\\\\\\\\\\\\\\\\\\\\\\\\\\\\\\\\\\\\\\\\\\\\\\\\\\\\\\\\\\\\\\\\\\\\\\\\\\\\\\\\\\\\\\\\\\\\\\\\\\\\\\\\\\\\\\\\\\\\\\\\\\\\\\\\\\\\\\\\\\\\\\\\\\\\\\\\\\\\\\\\\\\\\\\\\\\\\\\\\\\\\\\\\\\\\\\\\\\\\\\\\\\\\\\\\\\\\\\\\\\\\\\\\\\\\\\\\\\\\\\\\\\\\\\\\\\\\\\\\\\\\\\\\\\\\\\\\\\\\\\\\\\\\\\\\\\\\\\\\\\\\\\\\\\\\\\\\\\\\\\\\\\\\\\\\\\\\\\\\\\\\\\\\\\\\\\\\\\\\\\\\\\\\\\\\\\\\\\\\\\\\\\\\\\\\\\\\\\\\\\\\\\\\\\\\\\\\\\\\\\\\\\\\\\\\\\\\\\\\\\\\\\\\\\\\\\\\\\\\\\\\\\\\\\\\\\\\\\\\\\\\\\\\\\\\\\\\\\\\\\\\\\\\\\\\\\\\\\\\\\\\\\\\\\\\\\\\\\\\\\\\\\\\\\\\\\\\\\\\\\\\\\\\\\\\\\\\\\\\\\\\\\\\\\\\\\\\\\\\\\\\\\\\\\\\\\\\\\\\\\\\\\\\\\\\\\\\\\\\\\\\\\\\\\\\\\\\\\\\\\\\\\\\\\\\\\\\\\\\\\\\\\\\\\\\\\\\\\\\\\\\\\\\\\ \\\\\\\\\\\\\\\\\\\\\\\\\\\\\\\\\\\\\\\\\\\\\\\\\\\\\\\\\\\\\\\\\\\\\\\\\\\\\\\\\\\\\\\\\\\\\\\\\\\\\\\\\\\\\\\\\\\\\\\\\\\\\\\\\\\\\\\\\\\\\\\\\\\\\\\\\\\\\\\\\\\\\\\\\\\\\\\\\\\\\\\\\\\\\\\\\\\\\\\\\\\\\\\\\\\\\\\\\\\\\\\\\\\\\\\\\\\\\\\\\\\\\\\\\\\\\\\\\\\\\\\\\\\\\\\\\\\\\\\\\\\\\\\\\\\\\\\\\\\\\\\\\\\\\\\\\\\\\\\\\\\\\\\\\\\\\\\\\\\\\\\\\\\\\\\\\\\\\\\\\\\\\\\\\\\\\\\\\\\\\\\\\\\\\\\\\\\\\\\\\\\\\\\\\\\\\\\\\\\\\\\\\\\\\\\\\\\\\\\\\\\\\\\\\\\\\\\\\\\\\\\\\\\\\\\\\\\\\\\\\\\\\\\\\\\\\\\\\\\\\\\\\\\\\\\\\\\\\\\\\\\\\\\\\\\\\\\\\\\\\\\\\\\\\\\\\\\\\\\\\\\\\\\\\\\\\\\\\\\\\\\\\\\\\\\\\\\\\\\\\\\\\\\\\\\\\\\\\\\\\\\\\\\\\\\\\\\\\\\\\\\\\\\\\\\\\\\\\\\\\\\\\\\\\\\\\\\\\\\\\\\\\\\\\\\\\\\\\\\\\\\\\\\\\\\\\\\\\\\\\\\\\\\\\\\\\\\\\\\\\\\\\\\\\\\\\\\\\\\\\\\\\\\\\\\\\\\\\\\\\\\\\\\\\\\\\\\\\\\\\\\\\\\\\\\\\\\\\\\\\\\\\\\\\\\\\\\\\\\\\\\\\\\\\\\\\\\\\\\\\\\\\\\\\\\\\\\\\\\\\\\\\\\\\\\\\\\\\\\\\\\\\\\\\\\\\\\\\\\\\\\\\\\\\\\\\\\\\\\\\\\\\\\\\\\\\\\\\\\\\\\\\\\\\\\\\\\\\\\\\\\\\\\\\\\\\\\\\\\\\\\\\\\\\\\\\\\\\\\\\\\\\\\\\\\\\\\\\\\\\\\\\\\\\\\\\\\\\\\\\\\\\\\\\\\\\\\\\\\\\\\\\\\\\\\\\\\\\\\\\\\\\\\\\\\\\\\\\\\\\\\\\\\\\\\\\\\\\\\\\\\\\\\\\\\\\\\\\\\\\\\\\\\\\\\\\\\\\\\\\\\\\\\\\\\\\\\\\\\\\\\\\\\\\\\\\\\\\\\\\\\\\\\\\\\\\\\\\\\\\\\\\\\\\\\\\\\\\\\\\\\\\\\\\\\\\\\\\\\\\\\\\\\\\\\\\\\\\\\\\\\\\\\\\\\\\\\\\\\\\\\\\\\\\\\\\\\\\\\\\\\\\\\\\\\\\\\\\\\\\\\\\\\\\\\\\\\\\\\\\\\\\\\\\\\\\\\\\\\\\\\\\\\\\\\\\\\\\\\\\\\\\\\\\\\\\\\\\\\\\\\\\\\\\\\\\\\\\\\\\\\\\\\\\\\\\\\\\\\\\\\\\\\\\\\\\\\\\\\\\\\\\\\\\\\\\\\\\\\\\\\\\\\\\\\\\\\\\\\\\\\\\\\\\\\\\\\\\\\\\\\\\\\\\\\\\\\\\\\\\\\\\\\\\\\\\\\\\\\\\\\\\\\\\\\\\\\\\\\\\\\\\\\\\\\\\\\\\\\\\\\\\\\\\\\\\\\\\\\\\\\\\\\\\\\\\\\\\\\\\\\\\\\\\\\\\\\\\\\\\\\\\\\\\\\\\\\\\\\\\\\\\\\\\\\\\\\\\\\\\\\\\\\\\\\\\\\\\\\\\\\\\\\\\\\\\\\\\\\\\\\\\\\\\\\\\\\\\\\\\\\\\\\\\\\\\\\\\\\\\\\\\\\\\\\\\\\\\\\\\\\\\\\\\\\\\\\\\\\\\\\\\\\\\\\\\\\\\\\\\\\\\\\\\\\\\\\\\\\\\\\\\\\\\\\\\\\\\\\\\\\\\\\\\\\\\\\\\\\\\\\\\\\\\\\\\\\\\\\\\\\\\\\\\\\\\\\\\\\\\\\\\\\\\\\\\\\\\\\\\\\\\\\\\\\\\\\\\\\\\\\\\\\\\\\\\\\\\\\\\\\\\\\\
ĠCost a
P N
R ennen
g Ã¤ng
Ġa gencies
Ġw ra
Ġw inner
Ġin ch
Ġm Ã¤cht
Ġe ast
Ġc orn
Ġver arbeitet
ap i
Ġab hÃ¤ng
Ġso fa
Ġvor genommen
Ġserv es
ĠFest ung
Ġbro ken
Ġpay ing
hor st
Med ia
Ġgrib ka
Ġwhe el
Wel come
ĠAnz eige
O h
T urn
W ar
ĠB ird
Ġbe we
Ġk ompon
ĠSch Ã¤den
ac on
Ġte ch
ĠVor teil
mit tag
ĠQu ell
ĠQu ick
Ġsol o
iven ess
Ġmach ten
ĠBar ock
Ġgel ungen
herr schaft
Ġmom ents
Ġzie mlich
entry Set
ĠMeer es
ĠSum me
wechs elt
ĠDÃ¶r fer
ĠBronzemed aille
p red
Ġm obil
ĠB og
Ġer richten
ĠV i
Ġst abil
Con f
ĠJun ge
Ġdel ay
Ġtechn ique
ĠHol ocaust
ĠEd in
ĠPlan et
ĠRechts anwalt
ĠEis hockey
ĠPrinz essin
Ġausgew Ã¤hlt
Ġprakt isch
open hagen
ĠMail and
ĠAN D
Ġspirit ual
ĠRaj on
Disk ografie
Ġconstant ly
ĠPlÃ¤ ne
S n
n ik
Î µ
Ġp atch
ĠL iv
ul ing
ĠJ r
ĠJ ens
Ġr iver
ust ic
iz ist
ĠTh ailand
ĠkÃ¶n ig
els on
ĠAd dition
ĠRes te
ari at
Ã¤tz ung
Ðµ ÑĤ
Ġbig ger
Ġhistor ic
ĠverÃ¶ffentlich ten
Ġauth ors
ï¿ ¯
ĠIndustr ial
Ã¤dagog ik
ĠlÃ¶ ste
Ġwom it
A U
C ell
b ur
f ound
h Ã¤l
z ut
Ġt icket
ĠH ydro
ĠN ations
ce ived
qu ir
Ġ" +
19 70
Ġum f
Ġapp end
Ġrec ipes
Ġbre ath
fr ies
Ã¤nger ung
fa ction
On ce
Ġ186 1
ournal ist
Ġmain ly
ĠIde as
Ġmot ion
ĠKrieg sende
ĠSchiff s
ĠBot an
ĠÃ¼bern immt
How ever
friend ly
hoch schule
F R
M al
f ill
j ack
l iteratur
p iegel
u ages
z ens
ĠF itness
ĠK rÃ¤fte
ĠH ind
ĠC ore
Ġbe qu
ĠO ak
Ġum s
enn zeichnet
ĠAb stract
dem okrat
cl ing
ĠGesch w
Ġange ordnet
zeug ung
ĠInter ess
Ġdi am
ĠKat zen
Ġfood s
ĠSa al
ĠNeuse eland
C I
ie ge
ĠR oland
ĠL ad
Ġl anger
os ex
ap ier
19 31
ĠEin er
ĠAus stellungen
ond itions
ren ce
Ġro ugh
ĠKon stru
gl ing
ĠTr ier
ĠfÃ¼hr enden
Ġger iet
Ġsign al
Bu ild
stoff en
Ã¼l le
Ġlink ed
ĠSol ar
ĠFrÃ¼ hl
Ġbevor zug
Ġtw ice
H am
W atch
ĠD OC
Ġ( _
ĠP ader
Ġz ip
ĠR ies
ĠV ul
Ġal cohol
Ġre venue
ĠâĢ Ļ
19 84
Ġ8 3
ĠMan uel
Ġgleich er
Ġfun ny
ĠBereich e
yd ra
Ġfour th
Ġverkauf en
ĠCons ult
Ġexpect ations
ĠSign al
Child ren
ĠKu gel
Ġschwar zen
stechn ik
ĠNap ole
Ġausreich end
' '
Ġf ishing
ĠA ge
ĠN FL
ĠRe zept
tw och
Ġfin de
ĠTe en
ĠStud ios
ĠSal v
ĠGeorg ia
Ġhei ÃŁen
Ġbestand en
ĠWass ers
Stack Trace
Comm on
Ġannot ation
f indung
u den
Ġm ature
Ã¼ se
ĠB och
ĠD orn
Ġh Ã¤ngt
ĠP ont
ĠC ann
Ġbe at
af ter
Ġle ichter
ĠAr rays
ĠDe kor
De p
ĠUS B
Ã¼nd en
rich ts
Ge org
Ð° Ð»
Ġoper ate
ĠMo z
Ġfac ilit
Ġverl Ã¤ng
Ġresearch ers
ĠFrei will
ĠSing les
Ġhor se
Ġwirtschaft lichen
national spieler
Fra uen
Enc oding
Fernseh film
Entw ick
a al
b urn
v ideo
on ed
le utnant
Ġf u
Ġf lav
Ġz ero
ĠH arm
ĠVer z
ĠCh a
Ġchar ged
ĠLin col
ĠWohn zimmer
Ġredu ced
ĠFel der
Ġpick ed
Ġdamal ige
Ġpartners hip
Ġproced ures
clude d
Å Ľ
Î ·
æ Ĺ
Ġw et
Ġn erv
ĠĠĠĠĠĠĠĠ ĠĠĠ
ĠW inkel
Ġl ust
ts eite
sp rech
ĠDe f
19 25
ick y
ĠGe or
ĠNe uk
De zember
ĠEx istenz
gesch Ã¼tz
ric ks
ĠArbeit sk
Ġcons ists
Ġgener ic
Ġfound ation
ĠfrÃ¼ here
Ġpat io
Ġhouse hold
Not ification
Ġcloth ing
ĠBesatz ungs
Net work
ĠKonzer te
ĠGiov anni
= \"
i oren
er ten
as sten
Ġin frastructure
Ã¤ ts
ĠN O
Ġan alys
ru le
ĠAl ben
ett es
Ġph arm
ep endent
Ġerw eiterte
Ġcho osing
Ġstat istics
ĠPra ct
ĠdÃ¼r fte
ryst al
K n
f rÃ¼
p n
å ľ
al om
Ġn arrow
Ġc erem
Ġ1 13
Ġein heit
ĠH ob
pp ich
ĠAn sicht
Ġsch eiterte
Ġ0 2
Ġgew Ã¶hn
imm y
yl on
Ġplan et
Ġeng agement
Ġemp fehlen
yr am
Ġvoll er
ĠIhr es
ĠZug riff
ĠMitarbeit ern
Ġreport ing
ĠAp ost
prof it
Ġverwende te
F ree
ĠD I
ĠK ids
id ad
ĠEr gÃ¤n
ĠVor bereitung
Ġ8 4
Ġsc re
ĠFre m
ĠAs pekte
Ð¸ Ð½
ĠWinter thur
Ġclos er
Ġzuf rieden
Ġhund ert
Ġwirtschaft liche
Ġbegrenz t
H ans
I tems
P ay
s Ã¤tze
ĠS achen
ĠS imple
le itete
ĠM S
ĠG abr
ĠZ ubehÃ¶r
ĠEr klÃ¤rung
ens burg
Re port
ĠGe fe
ĠNe uer
ix ed
Sch ule
Ġ14 0
Or ts
Ġlist ing
Ġret ire
ĠgrÃ¼ n
Ġvirt ual
ĠDrit tel
ĠKÃ¼nst lern
Ġa wards
un ters
ĠD est
Ġ1 17
ĠH ad
Ġbe achten
iel l
ĠPro t
19 75
19 36
ĠAus wirkungen
Ex press
fe ature
amm elt
ĠÐ º
Ġur i
ĠIns besondere
ĠRuss ia
Ġzwe ier
Ġcy cle
prof essor
ĠExp edition
ĠRep ubl
ĠfÃ¶rder n
f al
Î º
Ġd az
Ġt ank
ĠD ienste
ĠF ly
lic ated
19 85
ĠAb tei
amm ern
Ġrec ording
gem Ã¤ÃŁ
ĠMen gen
schie de
alle utnant
Ġrece iving
Ġcr iminal
Ġlet ters
Ġinstru ctions
Ġorigin ally
Ġfung ierte
Fried rich
K lass
] )
c d
d ale
i pt
Ġd t
ge legen
Ġe cht
ĠM all
ĠD NA
ĠF ame
ĠR up
ĠO m
Ġst imm
Ġle isten
ĠAuf tritt
Ġqu er
ĠVor stellung
ĠJan e
ĠTr end
ĠHo uston
Ġcar ried
Se lect
Ġ186 2
Ġemploy ee
ĠKompon enten
ĠHen ri
IL L
Ġattra ctive
ĠVe ctor
ĠRÃ¤ ume
fÃ¶rm ig
ĠHoff mann
ĠEigent Ã¼mer
Ġstellvertreten der
B ounds
E hren
k ommt
Ġd ialog
ie ber
Ġf if
st ahl
ĠH unde
ĠR ainer
Ġer leben
ab ama
ĠÃ¼ber all
Ġsc an
ott om
âĢ¦ .
ĠSpe kt
Ġevent ually
Ġspecial ist
Ġair port
Ġenc ounter
Ġcra zy
Ġlisten ing
Process or
ĠKohl en
VerÃ¶ffentlich ungen
Ehr ungen
PersÃ¶n lichkeiten
ĠVerbesser ung
. ",
H tml
Å ¼
Ġc lock
ĠM ust
de cke
Ġg un
Ġge Ã¶ffnet
Ġver lang
ĠVer k
âĢľ ),
19 28
Ã¶n t
ĠQu ery
hed rale
isc ount
ĠWerb ung
ĠBres lau
K e
M T
Ð ±
ĠD ob
ĠK inos
ĠIn schrift
ĠRe ferenz
sp unkt
Ġat tended
rit iken
ĠTh ree
ĠWe is
ĠLand s
Ġpre fix
ĠFr ucht
ĠDienst leistungen
ĠKÃ¼ chen
Ġcamp us
urren cy
Fol der
ĠLincol n
A ustr
B us
ie u
ĠS itze
Ġv ast
st Ã¤rke
Ã¤ hne
Ġh ang
Ġre putation
pp t
od ie
Ġsch m
19 29
ho e
Ġtr igger
Ġalle ine
aw s
ĠKon f
ĠÃľber blick
Ġbeste hend
wend ungs
iges etzt
ĠMag net
AS E
Ġhol te
ĠOper a
Ġern annte
Ġeurop Ã¤ische
ĠEind ruck
( @
H C
H il
U l
on te
Ġm orgen
ĠK Z
ĠR Ã©
ĠC ount
ab a
th al
Ġver haf
ĠIn f
tr as
Ġwas h
Ġes c
ĠEin kommen
geb ra
mal en
ĠMar sch
inn ers
ĠKon stantin
let ten
ĠChrist ine
ĠVers orgung
Ġstatt dessen
Ġorder ed
equals IgnoreCase
LO C
ubs cription
Option al
Ġliter ature
ĠiP ad
S en
e ist
Ä ħ
ar ium
as a
Ġm aps
ĠA cht
ĠT oken
ra ph
ĠR out
ĠC laus
ĠJ ury
ss ystem
Ġspe ech
Ġother lv
Ġ12 5
ĠTra de
ĠBl umen
Ġsupp osed
Ġakt ive
hol ung
Cont roller
Auf grund
deutsch er
ĠClass ic
Ġoffic er
Hol der
Ġged reht
ĠFert ig
ĠKonk urrenz
Ġbeeinfl usst
prÃ¤sentanten haus
V ideo
d ies
o a
en ame
Ġv i
ĠM eine
ĠD aily
ol y
ĠK ai
Ġg utes
ul iert
Ġauf w
Ġsich ern
Ġnach gewiesen
Ġent worfen
ĠAuf ruf
Ġfe hlen
Ġfe hlt
Ġbo ost
ĠOber Ã¶sterreich
Ġgesch lagen
Ġmin ing
Ġeinge laden
supp orted
Ġabger issen
ĠHÃ¶ch st
Ġsympt oms
P lay
Ġin ches
ro ber
Ġc odes
ĠL och
Ġth orough
Ġver grÃ¶ÃŁ
ok raten
Ġ7 9
ĠAut os
Ġem otion
Ġbil deten
Ġorgan ized
ĠDat abase
Ġintegr iert
Vor pommern
ĠOut door
Ġwid mete
Dat abase
Ġfunction al
Ġdeg rees
ĠDokument ar
lah oma
Ġdanger ous
ĠAlk ohol
Ġconfir med
FOL LOW
A gent
C LASS
G L
M I
Ċ ĊĠĠĠĠĠĠĠĠ
ĠS ke
ĠA uge
ĠB eine
ĠB enz
ĠT am
ĠP ear
ĠSt ationen
Ġ18 15
ek te
Un ser
ipp i
Ġcl ip
ĠBet reiber
ĠErn Ã¤hrung
gress ive
Ġliegen den
ĠKe vin
ĠAutor in
ĠIr land
ĠMount ains
ĠÃ¼b lich
ĠniederlÃ¤nd ischen
ĠVerteid igung
ĠKandid aten
Ġstopp ed
ĠFÃ¤h igkeiten
ĠDok umente
ĠInse kten
D enk
ĠS yl
ĠA cker
Ġn Ã¤chst
ic ulture
ĠW oll
ĠW arn
ĠR ic
Ġg ross
and t
ou red
Ġex pos
ial s
Ġ18 30
hl on
ĠDe fault
ĠPro perties
19 38
pro ject
Ġseit her
gl as
fo ot
Ġange passt
ĠKl ub
ĠHaus halts
gra ph
ĠGu y
ĠBre mer
ĠCom ic
ĠLang uage
ĠFrei herr
ĠKre bs
Ġinform ieren
Ġsup erv
ĠInnov ation
Ġ1 18
ĠW are
ĠC ome
ĠJ ay
aus chen
Ġhe ft
Ġle gs
ip er
Ġent f
land schaft
ook ie
ĠLe ader
fe ier
az y
als o
pro zess
ett a
Ġfl ower
Ġstand ing
ĠVers icherungs
ĠPrem iere
Ġprint ing
Fr ame
ĠFant asy
ĠNomin ierung
Final e
ĠBenj amin
Ġatmosph ere
? "
W ei
Z e
b org
ĠS ind
Ġf urn
st ift
ĠP ick
ĠW he
ĠC ivil
Ġauf s
ak ota
Ġwh om
Ã¤t igkeiten
ĠMar cel
az itÃ¤t
Ġ8 6
ief el
ĠÐ ´
ĠKl ang
Ġsk ip
ĠÃĦ m
ĠLin ux
Ġgest orben
Ġfact s
Ġcr ime
ĠOl iv
Ġcreat es
Ġneg ot
Ġverwende ten
ĠKath arina
ĠSchwier igkeiten
F ach
K A
n ur
Ġs itzen
ĠS i
ent ity
ĠV illage
ier endes
Ġfor ced
ĠSch Ã¤d
ĠRe par
Ġwe alth
ĠHe eres
Ã¤mp fung
wor ld
Ġsuper ior
Ass ign
ĠPorn o
ï¾ ¾
ðŁĺ ±
ĠAufent halt
A g
c am
z uge
te ine
st ritten
Ġl ift
ot ive
19 26
per iode
ĠCh rom
Ġob lig
Pro p
Ġfl ash
ĠSÃ¼d afrika
Ġlink er
Ġgre w
Ġklass ische
grenz ung
ĠbenÃ¶t igen
Ġevangel ischen
Ġbedroom s
ĠMach ine
Ġfrequ ently
ĠHT ML
Mich ael
F low
he ll
ĠS creen
ĠB ush
Ġn one
Ġc ro
ĠT an
ĠI ss
Ġto urn
ow o
ĠO F
Ġst ated
Ġmit tlere
ĠU d
Ġse quence
Ġor th
gr Ã¼n
Ġzum eist
enn is
ph abet
los igkeit
Ġmehr mals
pro b
Ġfile d
Ġmir ror
ĠHal binsel
Ġnational sozial
Ġtre ated
Ġnie mand
Ġtransport ation
ĠÃĦnder ung
ĠHir sch
Ġsowjet ischen
! "
b ist
g ies
u ing
ĠS ource
Ġb ags
ĠM ul
ĠK ay
ĠW at
ĠSch reiben
ĠDe kan
19 14
ĠQu est
ader n
Res ults
ende te
ĠMed ik
Ġ[ ...]
wor tet
plan ung
ĠRein hard
nehm ern
ĠHon or
ĠniederlÃ¤nd ischer
o ge
p ur
ĠM asse
ent h
ĠC ant
Ġge fallen
âĢĻ .
Ġcom pr
19 87
ail ure
ĠUS S
Ġwel chen
Ġben annte
Ġerr ors
ham mer
Ġ180 6
ĠAndre a
ĠDir igent
Ġinstit utions
ĠMov ie
ĠMÃ¤r chen
Ġbeob achtet
ĠÃľberg ang
Ġtroub le
ĠSingap ore
Ġschaff te
, '
b ian
c ue
m Ã¤r
m outh
Ġo h
Ġh ung
ĠH allen
ab schluss
Ġor ange
19 37
kon stru
Ġâ ļŃ
Ġkon stru
Gr und
ĠAth en
ĠSat ell
ĠJac ques
Ġrelig ious
ĠmÃ¶ gliche
Ġtom orrow
ĠEdin burgh
G O
K or
V C
g io
m g
m ers
r ufen
ĠB ibliothe
Ġc eil
am ts
ĠF as
ra ben
Ġj ener
ĠAb lauf
ĠAb wehr
ble ib
Ġber u
ĠEx pression
hand elt
ĠPf alz
Ġdire kten
ĠChrist opher
ĠBand s
ĠVerb reit
Ġpost ing
ĠKont akte
go ogle
ĠMerk male
Ġanaly t
W eiter
Ġb io
ĠD etail
ĠP ad
and em
ĠO il
ĠO bst
id ance
ial en
ĠÃ¼ber zeugen
olog ist
ĠBet on
Ġsign ature
Ġperform ing
Ġbra uchen
Ġworks hop
ĠEv a
ĠLat in
Ġgraph ics
ch ain
ĠB orn
ĠG ard
ĠW itt
ĠR olf
ĠR acing
Ã¶ he
Ã¶ mm
ĠO H
Ġst im
qu et
Ġwh ilst
gr id
gel Ã¤nde
Ġste igt
ĠGr Ã¶ÃŁen
Ġspe zif
ĠEx c
Ġgr ass
Ġgr atis
ĠzurÃ¼ck gegeben
ĠÃĸsterreich ischen
Ġturn ing
Ġlik es
Ġinform iert
Gener ator
lad imir
Ġconcern ed
verstÃ¤nd lich
ĠGebir gs
Ġextre me
V R
c ache
n on
ar ischer
ĠS au
ge wer
Ġin folge
Ġe g
ĠG ymnas
ĠR ight
ĠC ON
Ġst il
ver halten
ĠZ DF
Ġpro ps
Ġvor be
Ġad van
Ġlie ber
Ġhand ling
Ġgef angen
ĠForsch ungen
EL D
ĠSied lungs
ĠProgram me
Ġsubmit ted
Ġproduz ierte
ĠPian ist
cycl op
ðŁĺ± ðŁĺ±
% .
L et
k rank
t te
y nd
Ġt olle
Ġc atalog
Ġh ydro
ĠP s
ĠK av
ĠH us
ĠH amilton
ĠC af
ber atung
ach el
Ġis rael
Ġaus geschlossen
Ġex ists
ast ung
Ġman aging
ĠAus schuss
Ġ5 000
Ġgen auso
sh op
Ġges p
Er n
ĠInst anz
ĠWohn ungen
ĠPla yer
ĠAustr ia
ĠkÃ¶nn t
Ġwichtig ste
ĠnatÃ¼r lichen
ĠWeiter hin
ĠÃ¼b lichen
Ġevangel ische
Ġausgestra hlt
H ello
L ou
g f
Ġs ql
ĠG R
ra hmen
Ġbe it
la ce
Ġr ig
Ġ" .
ĠAl an
ĠAus gaben
Ġro ten
Ġgew inn
co der
ism ar
ĠEurop Ã¤ische
Ġmag net
Ġmat hemat
Ġwid ely
Ġmill ions
ĠMaxim ilian
inu ier
ĠScot land
ĠFRE E
F T
O k
d ung
n ic
o i
È Ľ
at isch
Ġe lev
Ġc ake
Ġc riteria
Ġz one
ist rat
ĠO hr
Ġaus drÃ¼ck
ine a
ĠÃ¼ber zeugt
Ġsie gte
Ġnew ly
ĠSe lect
Ġoff ices
IN STANCE
ĠKon ferenz
ĠKon struktion
ĠAnd erson
ĠSpiel s
ĠTr in
Ġcomm ission
grÃ¼nd en
ĠNord amerika
Ġvis ited
Ġsk y
Ġpass ende
ĠMot to
ikt or
ï¿½ ï¿½
omet rie
Ġclos ely
zus etzen
ĠbeschÃ¤ft igte
ĠKommand eur
wir ken
Ġengag iert
I ST
J o
S pr
Ġa part
Ġa warded
ĠS low
Ġf f
Ġv end
ĠR ote
Ġg al
ĠV f
if ikation
gen den
ĠAus stellungs
ĠGesch Ã¤ft
IN TER
ĠAt tribute
ĠReich es
Ġgl ad
roll ing
ĠMor itz
stre ifen
Ġextra ct
Ġredu z
ĠHall owe
Ġblock s
End point
ĠOs nab
ĠUs ing
uert o
æľ Ī
ĠInner en
ugu ay
h Ã¤ngen
m iral
v org
Ġd rag
ĠS emin
Ġb Ã¼rger
ĠA lice
ĠC ase
ĠO cean
se a
ap ing
Ã¶r te
ĠSe g
Ã¼nd e
[] )
ĠAt trib
esh old
Ġcapt ure
ĠUms atz
ĠAP I
Ġbrow se
Ġsitu ations
? âĢĿ
A ber
E B
H R
N icht
g ert
al in
le ten
ĠA mal
Ġc um
Ġ1 14
ĠH ud
ĠN ich
ein richtungen
Ġge ar
ĠO ran
ĠAl f
ĠBer ater
Ġger ingen
ĠInst r
ĠPat ri
IT E
loy d
azz o
ĠIde al
Ġdeb ut
inst all
Ġult imate
ĠPersÃ¶n lichkeit
Ġprogramm ing
Ġdoll ars
ĠRuh estand
r ors
z ule
ĠK it
ĠW isconsin
em pf
sch te
ĠN BA
ĠZ ut
Ġde leg
ib us
get T
Ġch art
Ġch annels
ĠAr k
Ġsp l
ĠFl Ã¼ss
ron en
lÃ¤ s
ĠCon c
ĠProdu kten
Data Type
If c
ĠErw Ã¤hnung
Ġexception al
Ġbott le
CON T
Ġengag ierte
ĠBesatz ung
F ar
N a
S ing
t ree
á ŀ
Ġs amples
ter t
ol ine
ĠF okus
ĠE R
ĠE gypt
ĠW ester
ĠR eit
ĠZ er
Ġver p
qu ality
men s
Ġj un
age ments
19 60
ĠSchw estern
Ġ8 7
ĠVerb raucher
Ġter min
pre uÃŁen
ĠHigh way
Ġindividu ell
sequ ent
Ġmil k
ĠberÃ¼cksicht igt
ĠbeschÃ¤d igt
t age
Ä Ĺ
ĠB apt
Ã¤ mm
ĠP ension
ĠG Ã¶r
et on
ĠH Ã¤nde
ver k
ok a
Ġat temp
ure au
ĠJahr buch
ĠDe ath
par ameter
Ã¼hr t
ĠSe attle
ĠGesch lecht
ĠImp ro
ĠKing dom
Ġged acht
Ġrequ ested
ĠLux emburg
Ġviol ence
Ġumfang reiche
Ġak zept
ĠerfÃ¼ll en
Ġimag ine
ĠGreg or
Vol ks
vorsitzen der
D ur
R ight
h au
Î »
Ġs ed
Ġf er
Ġm ath
ra it
Ġan x
ĠO regon
Ġis lam
Ġwe ap
ip ts
amen te
Ġbre ast
Ġac cepted
ĠOff icer
ĠUr sprung
ĠWest falen
sport ler
ĠVolks zÃ¤hlung
lÃ¤uf e
ĠSym pt
ĠUrs ache
shaus en
Ġsustain able
ĠHallowe en
D uring
M ont
f are
p ay
ĠB C
Ġl Ã¤nd
ck te
ĠZ o
Ġr ating
qu alif
sp h
19 83
Ġunter lag
Pro jekt
Ġfl u
ĠDurch fÃ¼hrung
ĠAss istant
ĠBas ic
Ġinvest igation
Ġimpro ving
ĠGed icht
ĠPass au
ĠHistor ic
ĠerklÃ¤r en
Pol y
ĠBot schaft
gere chnet
ĠjÃ¼d ische
ĠRelig ions
Ġdream s
Ġdenk mal
Hinter grund
M Ã¶
an on
ar ma
un es
ĠT ask
ĠG au
ĠH ass
ĠL LC
Ġge druck
ĠSt yle
end el
ĠAn meldung
ant es
iz ieren
enn bar
ĠBer ge
Ġup grade
ron ics
ellen ce
Ġinv ited
ĠOrt schaften
ĠSk la
Ġeing est
196 8
ĠLeip ziger
ĠKommun ikations
Ġzuge lassen
Ġindustr ies
ĠSaf ety
Ġhers elf
irurg ie
Down load
D okument
I hr
Ġf t
Ġc ategories
ĠE rober
hr ung
ĠL is
Ġbe zogen
Ġan bie
ere cht
Ġas pect
oc ate
berg s
ĠSchw imm
ĠMan ufact
ĠFre md
ĠInd iana
let scher
ĠĊĠĊ ĠĊĠĊ
Ġbekannt esten
ĠKreis es
Ġinvest ors
Ġenter ed
ĠQue ens
Ġschedule d
ĠPersÃ¶n lichkeiten
ĠJahrzehn ten
A ud
c atch
in em
Ġt iny
re chnung
ĠS ession
le tes
ĠM D
ra ut
ĠK abel
ĠH els
em pty
ab ol
Ġge kauft
os er
Ġfor est
ĠVer handlungen
Ġsch eme
ip he
Ġ18 56
ĠPh arm
iff s
Ġgest artet
ĠAnfang s
ĠWissen schafts
ĠBu y
ĠMas ters
ĠpreuÃŁ ischer
Ġerheb lich
ĠChallen ge
fir ma
F lo
c p
k lassen
n isch
Ġt all
Ġn ack
ĠM ig
ĠF ollow
ĠG ol
ĠH inz
ĠJ Ã¼d
Ġver lei
Ġas sets
Ġso fern
19 78
19 77
Ġro les
man ager
Ġsho ot
ĠPf licht
Ã¤rz t
Ð° ÑĤ
ĠLeg islat
Ġerinn ern
ĠGlaub ens
Ġausgeb ildet
ĠdÃ¤n ischen
ĠPast or
ĠabhÃ¤ng ig
B ek
S Ã¤nger
u der
ar Access
ĠS U
ge h
ĠK han
ĠW upp
ĠH ost
ĠR ome
Ġfor ec
ĠU E
Ġso le
ĠDe an
19 27
ĊĠĠĠĠĠĠĠĠĠĠĠĠĠĠĠĠ ĠĠĠĠ
auf lÃ¶sung
ĠBer at
Ġcont est
iet ies
pl us
hand lungs
Ġbesch loss
Ġben utz
Fl ug
kor de
ĠPsych ologie
Ġschwar ze
Are a
ĠOpt im
Kurz film
Po inter
ĠTi rol
B und
M C
P rÃ¼
b uf
w eiter
à ¦
Ġd os
it us
un ken
as et
Ġm a
Ġe ase
ĠP est
ĠG az
ĠK ansas
ĠL yr
ĠL orenz
Ġbe wohn
ĠÃ¼ber gebenen
Ġar gentin
Ġbet reibt
ĠGr ill
lag ert
gesch icht
ĠSpiel film
Ġschn elle
Ġcr usher
Des ign
Ġref resh
Ġenjoy ing
ĠBrit ain
Ġoffen e
Ġbede uten
Men u
ĠÃ¶rt lichen
Ġerlang te
ĠPader born
k andid
es a
ĠH arb
Ġk rÃ¤ft
Ġan gle
Ġdes selben
Ġun able
se arch
me ier
Ġwieder holt
Ar gs
ĠGra ben
Ġperson ally
Ġ% .
ĠDurch schnitts
Ġbr idge
Ġstrateg ic
Ġaffe cted
Ġehren amt
verdienst kreuz
Ġt ex
Ġs ew
or ks
Ġw itness
ĠP ommern
ĠE ag
ĠN ature
ĠJ ess
Ġge lingt
ĠSch Ã¤fer
ĠIn stand
ert ungen
ib il
Ġwor se
rÃ¤ gen
ri or
Ġprov en
Ġgener ated
Ð° Ñı
ĠLu is
Ġern st
Ġgelang te
Dis play
loc al
Ġgrib ok
D O
H D
M IN
d ichte
Ġb ab
un en
as ka
Ġc arbon
ĠM ort
Ã¤ g
ic us
ĠF ortun
Ġl ib
ot os
Ġon going
og ramm
ign et
ĠSe ele
sk irche
ins ert
Ġra us
Ġdr ugs
iner y
uk i
fel den
ĠBud get
PAR AM
: "
T wo
k al
is st
Ġs oph
Ġw Ã¤chst
Ġw Ã¤ren
ĠG lass
Ġl uck
Ġk ommerziel
ia de
ĠEin fach
Ġco ordin
Ġges ichert
ipp e
OR D
Ġter rit
Ġpack ages
Ġmeisten s
lemen ted
kr ise
Ġrefer red
Ġsignificant ly
a ire
f Ã¤nger
r im
Ġa kadem
Ġb lau
el ry
ĠD ave
ĠG utsch
ĠW itten
ĠH ugh
Ġl iquid
ĠJ Ã¼n
Ġge g
la de
tr ang
ĠAn at
ian ische
ĠZeit schriften
ric ulum
ĠJul ia
ĠFe ier
ĠIr ish
zir ke
ĠRob in
Ġspeziel len
ĠViertel finale
Ġmonitor ing
Ġprepar ation
Ġeigent lichen
Ġaccommod ation
Ġwire less
ĠExempl are
cla zz
R ole
S ER
ar ation
Ġp rÃ¼
ĠT iefe
ĠE mm
ĠL ess
um ph
ĠC B
ĠV il
ĠSt imm
ran che
Ġsch olar
19 20
19 32
ome ter
Ġloc ale
buch autor
ĠKo alition
ĠKind heit
ĠTal ent
ĠEt appe
kathol ischen
Ġinstru ction
Ġaktuell es
ĠAtlant a
ĠZerst Ã¶rung
Ġletzt lich
Ġsud den
D b
te le
ĠD ress
ĠD opp
am ik
Ġbe auf
ĠJ Ã¤ger
ĠZ it
eb au
ind s
Ġwar n
Ġall gemeine
Ġnot iced
ute te
ĠEn joy
iss ue
Ġte eth
Ġhier fÃ¼r
schl Ã¼ssel
mÃ¤ cht
ĠHar vard
Ġmult ip
ĠSen ioren
Ġengine er
ĠMill imeter
ĠAust in
Ġmensch lichen
andin av
' :
F ull
K ar
P G
T F
W asser
Ġ 00
he ets
Ġb undes
ro se
ĠP ixel
ĠL aser
ĠJ Ã¶rg
Ġver trieben
ĠIn haber
Ġhe ating
ok u
Ġle tt
ĠBe hinder
19 82
