#version: 0.2 - Trained by `huggingface/tokenizers`
e r
Ġ Ġ
e n
c h
i n
Ġ d
ĠĠ ĠĠ
i e
u n
s t
a n
e i
o n
e s
Ġ S
a l
t e
s ch
a r
e in
g e
a u
o r
un d
u r
Ã ¼
a t
Ġd er
i t
Ġ w
Ġ s
i ch
e l
Ã ¤
Ġ und
Ġ v
Ġ A
Ġ B
e t
Ġ b
a s
Ġd ie
Ġ D
un g
Ġ i
Ġ 1
Ġ M
Ġ in
e m
Ġ ein
Ġ (
a m
h r
ĠĠĠĠ ĠĠĠĠ
Ġ m
Ġ z
Ġ n
Ġ K
Ġ F
Ġ G
d e
ĠĠ Ġ
t en
o l
Ġ E
Ġ P
t er
Ġ au
Ġ f
l e
g en
i s
t i
d er
Ġ H
Ġ W
Ġ T
i sch
Ã ¶
d en
Ġ L
Ġ R
t r
a ch
b er
i l
â Ģ
u m
Ġ er
Ġ I
u s
o m
r e
Ġv on
an d
Ġ V
c k
Ġ1 9
Ġ 2
u t
Ġ h
r o
Ġ N
l ich
Ġ J
a b
i on
i er
s e
Ġd en
i g
Ã¼ r
i r
Ġ C
Ġ k
Ċ ĠĠĠĠĠĠĠĠ
en t
Ġ ge
ei t
ĠĠĠĠ ĠĠĠ
Ġd es
Ġm it
in g
Ġi m
Ġ g
Ġ an
) ;
Ã Ł
Ġ al
Ġd as
r a
an n
Ġ2 0
u l
r ei
Ġ O
Ġau f
Ġz u
f t
i st
a d
e st
i k
s en
ie l
e b
Ġ Z
Ġv er
ĠS ch
Ġ l
Ġ U
Ġ t
Ġ o
a hr
Ġi st
a g
el l
Ġf Ã¼r
Ċ ĠĠĠĠĠĠĠ
Ġw ur
Ġ p
f f
i c
e h
Ġd em
s p
ĠS t
Ġ {
h e
Ġ =
Ġ âĢ
v er
at ion
isch en
w ei
a h
ĠI n
i en
ich t
Ġau s
ĠV er
e d
ti on
Ġal s
Ġ st
ĉ ĉ
Ġein e
ĠD ie
Ġ Ċ
e u
o t
r i
Ġ }
Ġs ich
Ġwur de
o w
e g
Ġ un
Ã¤ n
m en
o s
Ġ r
er n
al l
Ġb ei
c e
k t
in d
e w
b en
ĠA n
s er
Ġw ar
sch a
o ch
ei ch
g er
) ,
Ġ c
a p
ĊĠĠĠĠĠĠĠĠ ĠĠĠ
es ch
ĠJ ahr
o p
h n
o g
ĠE r
ung en
Ġs ein
er t
en d
Ã¼ ber
Ã¼ n
ei l
i m
u b
l in
e hr
u ch
ge t
u f
or t
0 0
Ġau ch
Ġ20 1
et z
Ġw ir
e ut
isch e
a te
r ie
st er
ur n
Ġ Ã¼ber
( )
Ġb e
ĠS p
es s
scha ft
Ġn ach
an g
Ġ sch
st en
l er
e c
ung s
m er
ur ch
Ġ j
r an
Ġ am
l a
g t
ĠU n
r u
l ie
Ġb is
i d
eut sch
ĠE in
o d
as s
au s
n en
âĢ ľ
ar t
ĠA r
Ġs ie
Ġn icht
Ġ1 8
Ċ ĠĠĠ
Ġz ur
âĢ ĵ
er s
Ġ20 0
ĠA l
a k
Ã¶ r
Ġw er
l en
1 9
et urn
Ġz um
I n
ĠâĢ ŀ
ĠS tr
i z
te l
Ã¤ t
Ġ um
q u
e x
e ch
Â ł
u g
Ġ 3
Ġein er
Ġwer den
ĠS ie
Ġ es
ch en
Ġw ie
i v
p e
am e
Ġv or
ĠP ro
Ġ a
t s
Ġh at
ĊĠĠĠĠĠĠĠĠ ĠĠĠĠĠĠĠĠ
st ell
D ie
Ġun ter
Ã¶ n
z en
i b
ĠâĢ ĵ
Ġ "
Ġs ind
Ġwir d
Ġd urch
ge l
Ġ ab
ter n
h al
Ã¤ r
or d
Ċ ĉĉ
Ġo der
Ġi f
isch er
or m
au f
i gen
Ã¼ ck
u e
en n
Ġ ent
Ġi hr
ĠE n
ol l
k s
h er
ul l
a ge
e p
te t
Ġein em
ch e
ar b
ĠB er
st e
) .
Ġ tr
ge b
l o
eb en
g r
Ġein en
p tion
ei ter
ĊĠĠĠĠĠĠĠĠ ĠĠĠĠĠĠĠ
ĠM it
lich en
el t
Ã¼ hr
ier t
h l
er k
Ġ re
Ġ Ã
Ġ /
Ġ19 9
u p
o k
u d
ĠD er
E x
l and
n er
ĠA us
ub l
ur g
o de
Ċ ĉ
o b
ti g
il d
Ġs p
e k
r Ã¤
e f
u st
p ar
sp iel
r it
p l
i ck
us s
( );
ĠA b
S tr
at z
i ge
ĠG r
ad t
h en
i a
ĠO r
rei ch
r au
o f
el n
e z
lich e
Ġ -
ah l
Ġn ew
ar d
i f
il l
in z
ĠM a
wei se
at ur
om m
ei ten
o hn
Ġdas s
p f
e y
ĠA uf
a v
ce ption
2 0
Ġr eturn
ĠC h
Ġn ull
i al
in al
g es
o v
1 8
u ÃŁ
a y
ĠM ar
a st
it z
an z
ĠĠĠĠ Ġ
s s
Ġ 4
Ġ19 8
t h
Ã¤ l
ab en
et er
ĠN ach
S t
ein e
Ġz wei
at en
Ã¤ hr
ĠL and
m al
ĠV or
a c
an t
. .
at h
ĠD as
Ġt he
Ġs o
am m
on n
i p
al t
Ġ +
Ġ/ /
Ex ception
ĠI m
ubl ic
or en
l ass
b urg
p t
te m
Ġo f
Ġ( *
Ġd eutsch
ver s
p r
eit s
rei s
( "
Ġ19 7
m e
Ċ ĠĠĠĠĠ
ro ÃŁ
o ur
ul t
Ġn ur
Ġs ow
h t
p er
y pe
Ġm ehr
ĠH er
k en
b j
in e
o c
ec t
Ġn eu
Ġwur den
ich te
om p
a ck
Ġb est
ber g
Ġn och
f ol
e v
on t
Ġ 5
Ġ 0
p h
Str ing
b ar
ut z
der n
ĠStr ing
Ġv om
b au
i le
Ġan der
at t
Ã ©
ĠF l
ach t
sch en
a f
it ion
ĠB r
etz t
ĠD eutsch
N ame
en s
l eich
ab le
f l
it Ã¤t
Ġ19 6
il m
ĠZ eit
a in
s h
b r
ier te
Ġz w
p en
b e
W eb
l em
el le
ah n
ation al
Ġa ber
Ġl ie
ei m
ei ster
par am
n et
el d
ĠSt adt
Ġge w
i an
al ue
D er
om men
C on
k eit
Q u
ĠA m
lin ks
it er
Ġdie s
n is
ĊĠĠĠĠĠĠĠĠĠĠĠĠĠĠĠĠ ĠĠĠ
a gen
ier en
Ġw eiter
Ã¤ ch
Web links
r eturn
l ei
un k
d u
i o
a z
s k
d r
ĠT he
Ġsow ie
Ġ1 7
Ġm an
Ġ19 4
l os
o ck
E n
Ġ et
Ġb er
n e
p ublic
hr ow
l ag
ĠP l
Ã¼ t
Ġp ro
ĠK on
Ġk ann
f orm
i re
Ġ 9
Ġk Ã¶n
f ten
m ann
Ġb es
Ġ19 5
ei te
ĠG em
Ġ e
f Ã¼hr
m it
d em
as sen
Ġ &
ar k
f er
e gen
Ã¼ d
g esch
Ġ 6
ĠF ran
en z
Ġd ar
eh en
Ġ gen
ti v
l ung
f ahr
it y
as e
in t
at er
ik er
am men
ol og
g lie
o st
g lich
Ġ le
ol it
ĠR eg
spiel er
E inz
i te
ol le
es p
ĠI S
Ã¤n d
ĠG esch
P ro
ĠSp iel
ff en
Ġwie der
sch ie
em ber
i vers
Ġd e
et h
er v
h und
r Ã¼
w er
ĠK l
Ã¶ l
o h
ei gen
z eich
et t
Ġ ex
eh men
ie s
Ġ el
st an
ĠB ei
Ġge gen
Ġein es
y m
ib t
ach weise
t eil
a is
Ã¶ ff
ĠM us
A n
s et
f en
Einz eln
T ype
Ġ1 5
i um
Einzeln achweise
am en
Ġ19 3
p ro
und en
is sen
Ġsein er
ru p
Ã¼n d
Ġ ich
lie ÃŁ
z eit
ch t
ĠUn ter
b all
ann t
an s
Ġ= =
u le
Ġh aben
Ġsein e
l i
Ġhat te
ĠB au
s el
al s
ĠGem ein
or g
Ġdie ser
ig er
hund ert
ie le
ie der
in n
ĠT h
ge ben
at a
ar l
B N
- -
ier ung
e kt
in gen
e ck
ĠE s
ic e
ĠJahr e
ÃŁ e
b st
Ġ1 6
ĠG eb
ell en
Ċ ĊĠĠĠĠĠĠĠ
ĠIS BN
u te
ers on
ik an
us ammen
at or
m ein
Ġt h
sp r
Ġf or
e an
Ġ 7
A l
p ut
s b
y st
n ah
D as
Ġbe f
ĠU m
al e
h eit
I m
S ch
Ġge t
w a
or f
y n
ab e
Ġg r
im m
og ra
U n
Ġge h
tr ag
Ġ 8
on g
bj ect
ĠJahr hundert
ĠkÃ¶n nen
e qu
Ġzw ischen
ĠU S
o ol
) )
A r
E r
Ġj e
ĠT eil
iter atur
ĠK ir
ĠB l
Ġs el
ĠÃ ľ
Ġ !
ĠJahr en
k l
Ġwar en
L ist
Ġb eg
ĠBer lin
Ġt hrow
w ar
1 7
r es
o ber
ĠH au
Ġs eit
in ter
I N
a il
Ġk l
et en
f all
ur op
ar r
Ġt o
ĠS o
iv e
yst em
w ick
on der
Ġs oll
al d
ĠG es
ei st
Ġg roÃŁ
am il
Ã¶ s
" ,
Ġ Qu
is s
st r
t or
Ġf ol
ie t
ĠEn t
Ġ Y
ĠSt a
g l
t o
ĠI hr
o un
er en
Ġ en
Ġb et
Ġj ed
ad d
am er
at ch
ĠW elt
in der
or e
an k
l es
ap p
Ġzur Ã¼ck
h m
on d
() .
ÃŁ en
w erk
ol d
" );
Ġ <
en er
Ġer h
Ġbe k
z eu
it t
Ġdie se
V er
te x
f or
ĠUn ivers
Ġd rei
o ff
ĠAr b
r ich
Ġi s
Ã¤ ter
hal ten
und es
st ra
Ġaus ge
Ġ1 0
m a
I d
y p
or den
E R
ĠĠĠĠĠĠĠĠ ĠĠĠĠĠĠĠĠ
ing s
ĠB o
m ent
in den
at s
ĠS te
m us
Ġg es
ti gen
ĠL ist
Ġd ann
st and
eh t
as ser
ĠP h
Ã¤ d
am t
ĠÃľ ber
scha ften
ei d
ĠB e
() )
z e
Ġer sten
Ġan ge
ĠF ilm
gen d
ti l
1 0
ĠW ir
ĠE x
Ġbei m
Ġgeh Ã¶r
o id
t schaft
00 0
w end
Ã¤ u
iel t
n ung
Ġh eu
la ge
m in
Ġd am
al en
Ġ1 2
Ġ :
Ġh er
Ġun ser
ation en
Ġ1 4
Ġer st
b t
k e
fol g
Ġin t
Ġdeutsch er
ex t
ent lich
Ġw o
Ġg ibt
Ġal le
Ġ and
stell t
Ã¶ glich
glie d
Ġw enn
rie g
() );
l au
an der
ĠG er
uÃŁ ball
or n
Ã¼ l
ĠN eu
h aus
z u
tex t
i ff
Ã¤hr end
Ġf inal
Ġk onn
Ġ! =
il der
Ġg esch
ĠC hr
e am
1 6
an gen
un st
r om
ach e
Ġh ier
ri ft
Ã¤ hl
an ge
ster reich
ĠM en
el s
um ent
ĠO ber
m eister
ri v
Ġth is
hn e
ĠSch w
1 5
Ġ |
ĠGemein de
f e
Ġ eigen
Ċĉĉ ĉ
Ġ1 3
.. .
Ġv iel
v or
Ġ19 2
ĠP ar
l t
ĠZ u
as se
ĠL e
âĢ Ļ
rie b
ein en
Ġr es
Ġihr e
ar ten
b ild
ĠL eben
c tion
Ġel se
G eb
und e
m an
er e
L iteratur
o u
r at
z w
our ce
ra d
1 2
ach en
ĠA ut
k tion
y s
ist or
ĠÃ ĸ
ĠH and
Ġjed och
re u
Ġf Ã¼hr
f ig
P ar
a x
de x
sch l
z er
k er
ig n
ĠA ug
Ġd a
Ġ ch
un i
Ġs ehr
Ċĉĉ ĉĉ
( ),
C h
ind et
ĠE l
O N
Ġsp Ã¤ter
oun t
ĠJ an
ĠB et
h of
s atz
lich er
ti ge
ĠB undes
au er
ru ck
ĠA d
r en
Ġv oid
on e
sch e
ĠR e
ĠB es
ab ei
b o
Ġw el
ĠDeutsch land
ĠM on
st adt
ĠOr t
au t
ist er
ĠF amil
s etz
ei g
p ert
st ein
Ã¶n ig
t on
ĠF rau
ĠM Ã¼n
7 8
ĠP f
1 4
m ar
en tr
Ċ Ġ
ge w
ĠF rie
re ch
at ic
Ġi hn
Ġet wa
te d
it h
hal b
Geb oren
a der
ĠG e
ĠF or
Ġ )
ĠJ ul
i de
ĠR o
schie den
ur e
iz e
ess ion
O r
iel d
Ġg leich
am p
ier ten
tern ehmen
Ġh in
ĠP r
Ġsein en
ra y
in a
S p
i x
ge mein
stell ung
Ġin s
a de
ĠP erson
ie d
Ġw as
ĠB and
ation s
V alue
Ċ Ċ
ien st
k ehr
au m
o sten
ur z
ĠN ord
Ġdies em
s on
1 3
s g
ur t
b l
Ã¤n ger
ist en
Ã¤r z
g ang
un kt
Ġ ar
Ġz usammen
ĠGr und
ĠM in
ĠR ech
gt h
u ar
Ġc on
al er
ĠJ o
in k
ol len
M it
Ġlie gt
i den
ĠL u
ĠAug ust
u ff
Ġsein em
ĊĠĠĠĠĠĠĠĠĠĠĠĠĠĠĠĠ ĠĠĠĠĠĠĠ
or k
t t
Ġim mer
en k
ĠM ann
Ã¶ ch
ĠFran k
ĠG roÃŁ
Ġander en
Ġver l
b ach
en de
Ã¶ ÃŁ
Ġg er
r icht
en den
t es
ĠS h
ĠW est
ĠE urop
issen schaft
ĠEn de
ĠN ov
z ial
Ġber eits
ĠVer ein
Ġun s
Ġ eh
) );
Ġk eine
w ir
ĠJ uni
ais on
Ã¤n der
Ã¶ff entlich
Ġer ste
Ġsch on
ult ur
eit ung
R es
C lass
al ien
ĠM an
s uch
= =
esp on
Ġb esch
kt ober
M ann
ĠH och
ĠS e
2 00
ĠM ed
rup pe
Ġver b
ol f
Ã¤ uf
f Ã¼
ĠK Ã¶nig
Ã¤l t
k reis
s o
Ġfol gen
ĠMa i
omp on
ĠK unst
Ġge l
N ach
ĠR ei
/ /
Ã¼t z
ĠPl atz
tem ber
f ach
Ã¤ m
re d
ĠIn tern
Ġkonn te
Ġ *
ĠW ei
ep tember
ĠB ez
[ ]
ĠP art
le g
ĠP ol
ĠV ol
ĠF Ã¼r
Ġsel bst
ĠHau pt
Ġein z
ĠG ew
k eiten
ĠG ra
ool ean
la gen
ĠH o
Ġihr er
f inal
ĠJul i
om mer
u ten
Ġein ge
m Ã¤
ĠO ktober
ran z
2 1
ĠB ild
pr il
erv ice
gr und
Ã¼n st
Ġl etz
ĠH aus
amer ikan
ie f
a den
in nen
Ġheu te
ti k
oh ann
es sen
ĠPro du
I D
Ã¼n f
an den
ĠF rei
Ġ19 0
w alt
st Ã¤nd
ĠT r
ĠP olit
Ġ& &
ĠVer b
re g
mit tel
ier e
rÃ¤ s
an is
espon se
ĠĊ Ċ
ĠB est
Ġv ier
ĠJan uar
b uch
b ahn
ĠC on
h a
r on
. )
Ġd ort
ĠS Ã¼d
Ã¼r ger
olog ie
o ut
ĠM Ã¤rz
c c
ig keit
Ġt eil
Ġst atic
ag er
ez ember
ĠS eptember
S ie
Ġge f
ĠMus ik
sch lieÃŁ
A T
ĠW erk
ĠW eb
os ition
Ġ eben
D eutsch
ĠK omm
Ġi hm
unk tion
ti er
o hl
Ġver schieden
Ġs on
c ode
ĠA k
č ĊĠĠĠĠĠĠĠ
o ten
tr y
5 0
ĠO l
f o
Ã ¡
or ben
ĠA pril
ĠSt ud
c on
ing er
lo ck
Ġw en
f ang
Ġp ar
Ã¤ h
er b
Ġo hne
i tel
Ġk am
o gen
Ġneu e
Ġb r
ĠJ u
fall s
ĠUnivers itÃ¤t
sch n
ogra ph
lin e
le x
Ġal ler
Ã¼ s
m s
A us
hal t
ess age
ĠNov ember
Ġdam it
Ã¤n g
ch er
un ter
zeich net
f eld
E N
ĠN ational
ĠK inder
Ġer folg
equ est
1 1
ich er
c t
de ut
l ig
isch es
ĠI I
Ã¶ st
e um
ĠB eg
ĠStr a
ur r
h au
ĠD ezember
eth od
ĠLand es
ĠJ ohann
r ik
Ġb el
ĠF ol
ĠB uch
r or
ie b
n ew
Ġ X
ell schaft
ĠS aison
h eim
K ey
Ġsp iel
ĠDie se
re ate
op h
al ter
ĠChr ist
as h
ĠĊ ĠĊ
ĠF ahr
ĠU r
ti m
stell er
ĠF re
ĠN ew
r y
Ġ %
ĠT ra
ĠR eich
ĊĠĠĠĠĠĠĠĠĠĠĠĠĠĠĠĠ ĠĠĠĠĠĠĠĠ
Ġgr Ã¶ÃŁ
s w
z ahl
Ġ( âĢ
te te
z ei
A m
es en
al se
sh all
s ion
ĠD aten
Ġw Ã¤hrend
ĠW asser
al is
ĠD ar
Ġst att
ĠW ert
em al
Ġbei den
a ce
kt u
a w
ĠKir che
p p
ĠList e
ech n
w ohn
ern se
Ġal l
Ġ201 0
v al
Ġ .
Ġo b
Ġer sch
ar i
Ġb en
im e
âĢľ ,
ru ar
ĠUn ternehmen
Ġ18 9
l auf
eb ruar
ĠSp r
Ġ Â
ĠM o
lem ent
-- --
ot t
Ġg anz
ĠMen schen
ĠSch l
n ame
Ġ3 0
ach sen
h in
kt ur
t ag
ĠV on
ro up
ĠGesch ichte
Ã¤ch st
is h
ranz Ã¶s
ĠG l
Ã¤ tig
Ġv alue
ĠA t
ĠAl s
ĠZ wei
R equest
E in
Ġ201 8
ĠEin e
Ġ201 1
fÃ¼hr t
ti f
M ap
el m
Ġneu en
ĠIn ter
ĠD urch
st it
de ck
ĠSch wei
ire kt
mal s
l an
li ent
Ġ201 6
ogra f
ĠF orm
ĠMit tel
sch utz
ri ff
ĠSch ul
Ġer n
Ġihr en
A t
ei le
at iv
ar n
ĠAr ch
de te
Ġ201 2
ĠF uÃŁball
Ġ201 5
Ġ '
Ã¤ hn
c o
eh mer
k on
u tion
Ġge b
ĠF r
ĠZ w
g leich
ĠF ebruar
stan ce
los s
Ġm us
Ġdies es
Ġf est
Ã¤n de
Ġg ab
âĢľ .
Ġ >
ĠMit glied
ver b
Ġ arb
em ent
ym p
Ġd abei
ĠT ag
Ġst eht
b ew
ĠW il
O bject
f te
g abe
Ġ ur
G esch
ĠÃ Ħ
S T
as k
Ġl ang
os s
eh n
Ġ201 3
Ġ200 9
ti ert
Ġ9 78
ĠN amen
ĠE m
ber t
st ru
es se
Ġz un
Ã¤t z
Ġk on
ĠIn d
v ent
Ġ200 8
a ar
Ġthrow s
ĠN ieder
er st
Ġ201 7
p el
tr Ã¤
Par am
ff iz
k ommen
ĠMÃ¼n chen
sch ule
az u
app end
c ri
T o
o ub
re cht
ig ung
it zen
ĠH am
ĠL ei
u ilder
Ġs Ã¼d
Ġ201 4
s ol
lin k
fahr en
D ata
ĠPro f
ĠG ener
ĠW ien
ĠVer lag
h ol
p s
3 0
um en
us e
Ġ it
ann te
R E
stra ÃŁe
Ġ on
Ġh abe
ĠR om
19 9
Ġ200 7
M ar
ĠâĢ ł
tr ib
len gth
ĠSch au
ĠS k
ĠAr t
al b
Ġb zw
ich tig
Ġdes sen
Ġk omm
ech s
Ã¼nd et
a kt
ĠS er
uch t
ĠR Ã¼ck
h ein
gr amm
Ġ2 5
oub le
nis se
Ġb ew
Ġd u
Ġge st
Ġf rÃ¼
nah me
an st
Ġ u
Ġ ro
o te
dr ich
Ġf inden
wick lung
Ġ qu
ion en
rei chen
u er
ĠC o
p unkt
F ile
Ġweiter e
ge h
zeu g
sch ul
Ġw ei
Ã¤u de
ĠW ohn
i der
ĠH Ã¶
rup pen
ÃŁ er
ĠS c
ĠM al
ten t
le gen
Ġtr ue
z ent
Ġn ot
Ã¤hl t
z ug
los sen
Ġal lem
Ġbes onder
schl uss
B y
ar ch
Ġ200 6
Ã¤ s
P ath
ri de
ĠR ep
Ġerh ielt
ĠA uch
č Ċĉ
est er
Ġ18 8
at us
Ġder en
rie ben
ol um
Ã¼ b
Ġc atch
O ver
ie w
Ġb ie
schie d
ĠG egen
N ode
ĠPerson en
L eben
uf en
ech sel
i us
w ahl
k ir
Ġst ell
ubl ik
ge stellt
in en
ĠB ahn
ĠPh il
ie g
ĠB ew
A R
f ern
Ġf ranzÃ¶s
eu er
ĠArb eit
ach te
Ġ200 5
Ġn ah
th is
Ġer reich
s am
d orf
em en
Ġh and
Ġg ut
wei l
Ġ1 1
riv ate
ĠN atur
ĠL ehr
ĠE d
au l
ĠK arl
h and
k te
Ġson dern
Gesch ichte
ĠK n
Ġs ei
mÃ¤ ÃŁ
rÃ¤s iden
Ġm uss
is k
al ten
Ġn un
at ive
S et
ig t
ĠD u
ĠZ usammen
sch er
ĊĠĠĠĠĠĠĠĠ Ġ
ĠBer g
Ã¶r der
Ġander e
ti gt
ĠK r
ein er
Ġ2 4
o ge
Ġp ublic
ĠAl b
Ġdeutsch en
Ġeh emal
O R
ra ft
el e
w est
in er
al if
reu z
ĠWeb s
ĠH ol
geb iet
A L
il it
Ã¤n ge
stell en
h ard
Ġbef indet
Ġ at
Ġbek annt
ar e
ĠS ystem
Ġtr y
Ġv iele
Ġ18 6
Ġf alse
is mus
ĠBer eich
k rieg
ar m
Ã¼ ss
Â Ń
Ġge mein
w eg
Ġer w
Over ride
w as
ĠFrie drich
re chen
on s
f ra
Ã Ń
ĠS eite
A b
ĠSt and
ĠFrau en
ad em
ĠIn form
Ġd i
2 2
Ġ or
c es
ĠM od
ĠP er
w e
urr ent
ak tiv
ĠS tel
ĠPolit iker
ĠD i
G est
ĠD es
ĠF ra
ei tet
Ġf Ã¼nf
ĠFamil ie
qu est
ĠDie s
ĠF est
ow n
ĠD an
ĠM eister
ĠI s
Ġ20 00
pert y
z iel
Ġres ult
ĠR ad
ec tion
ĠS al
hn en
sp ort
eite te
ĠK ap
ĠEin wohn
Ġden en
T ra
d ings
Ã¶ m
4 0
ĠE is
ĠL in
p ort
j ekt
ĠK rieg
ĠT itel
em a
tr agen
am pf
ĠI l
ernse h
s icht
ĠDeutsch en
ran k
M od
g or
ch n
le gt
A N
en nen
ĠB ay
isch of
ich ten
Ã¼ h
pl atz
Ġ18 7
Ã¶ sterreich
j ahr
ĠD r
ont ain
g te
a i
glie der
er y
sch rift
Ġa ktu
c om
ĠSp ort
ges etzt
L E
ie h
Ġ200 4
Gest orben
ĠH ein
. ,
ĠS ommer
e ad
fig ur
Ġp er
ĠA uÃŁ
Ġw orden
Ġr und
ĠLeben s
ĠReg ion
ab el
ig ht
rei b
Ġeben falls
ĠB Ã¼
ĠM et
Ã¤ ft
ĊĠĠĠĠĠĠĠĠĠĠĠĠĠĠĠĠ ĠĠĠĠĠĠĠĠĠĠĠĠĠĠĠĠ
A d
ĠW er
Ġb oolean
h Ã¤lt
Ġje weil
Ã¼nst ler
ĠM ich
ir k
as st
Ġbeg ann
ĠB ar
E lement
ĠS ohn
Ġzun Ã¤chst
au lt
ĠM ill
Ġer halten
Ġ [
j Ã¤hr
ĠG ef
Ġdie sen
ĠL ie
Ġsoll te
am es
ut ter
ĠW eiter
Ġm Ã¶glich
us er
ess or
ur s
M an
f r
ĠK reis
Ġh o
ĠO n
uff er
Ġ1 00
et te
ĠM ag
Str eam
ĠN ame
o se
ei den
ĠIhr e
Ġletz ten
Ã¤ re
ann ten
ĠB en
Ġ201 9
Ġdeutsch e
w and
u ck
ĠC l
2 5
er g
f ilm
ar y
Ġb eh
ĠJu gend
re ck
v en
ĠB el
alt ung
Ġsch n
ĠB as
n ehmer
g aben
zen tr
amerikan ischer
w ort
Ġ ,
im mer
in o
ĠSch rift
enn t
ah len
w ig
on nen
ĠS an
Ġein fach
Ġau ÃŁer
Ġver Ã¶ffentlich
c l
Ġ end
rau m
Ġein ige
ran s
k m
f urt
ĠT od
o und
ĠK ar
d ruck
Ã ³
Ġs et
ĠH ier
z t
tor y
y l
v e
Ċ ĊĠĠĠĠĠĠĠĠĠĠĠ
ĠO bj
Ġwel che
G e
Ġin tern
ĠO st
r sg
č ĊĠĠĠĠĠĠĠĠĠĠĠ
ut t
le hr
Ġh ei
b lem
Ġin ter
gl isch
ov e
Ġc ase
k auf
kl Ã¤r
A uf
tr eten
ĠK ultur
ĠG en
Ġge gr
ur m
och en
bild ung
c lass
Ġet was
Ã¶l ker
Ġge ht
Ġ em
Ġent wick
al itÃ¤t
Ġsch w
at es
in s
Ġ x
equ als
U til
ĠFl ug
ĠD orf
ĠF ach
gen ommen
ĠT eam
ĠLand kreis
il ter
eth ode
a ff
ĠÃĸ sterreich
ĠP at
Ġ(âĢ ł
up er
fol ge
n a
in de
Ġ200 3
Ã¼ck e
te chn
b ei
Ġgew ann
Ġkomm t
4 5
Con text
ĠR es
um s
ĠC ar
ĠgroÃŁ e
Ġander em
8 0
st off
d ate
ĠS eit
ĠB Ã¼rger
w ie
et ter
e e
ri te
Ġ ev
se e
Ġd azu
ber eich
M essage
hr en
ĠSch n
ĠgroÃŁ en
In dex
op f
ĠO bject
Ġn eben
ach ten
B uilder
ĠF ot
o ver
č Ċ
ĠFran z
iss ion
Ġ2 2
la y
rei che
Ġb y
ath ol
Ġ| |
Ġz ahl
Ġ200 2
sch ein
in anz
p or
+ +
f Ã¤l
h elm
ri d
ĠG el
ĠH eim
R esponse
z ig
I T
et s
is e
Ã¤ che
l y
k a
an ce
Ġk ommen
sch w
den k
< /
ĠL a
ĠH e
S S
om b
ra g
st Ã¼tz
al le
ĠH il
Ġk ein
B ei
or s
P D
Ġ200 1
Ġ2 3
Ġdar auf
d ienst
Ġ199 0
F uÃŁball
Ġge m
is ion
W ir
ĠH ans
Ġf rei
ĠS el
Ġre g
D R
am ent
ĠAl l
che ck
T ime
Ġver wend
ĠJ ohn
b et
ĠW ahl
Ġm ir
ĠT er
Ġd och
ell er
h o
Ġin ner
ser v
Ġihr em
ĠKir chen
ic a
b ez
able d
sp iele
ĠB esch
ĠE ur
ĠPro v
arb eit
ĠSchau spieler
nah men
it ter
ĠJahr es
st ag
Ġ2 1
ĠGr Ã¼n
ĠT echn
H and
ek te
ĠF er
T he
ĠVol ks
g ument
ar s
imm t
ĠgehÃ¶r t
M E
g n
l ow
Ġab ge
h af
re ak
S ervice
ges amt
ĠT or
a j
I I
ig es
ut h
ĠHer z
O f
Ġent sp
ĠFamil ien
fÃ¼hr ung
Ċ Ċĉ
ti c
ro w
un ft
ĠB ern
il om
Ã¼s sen
ur ger
an ten
Ġg ing
Ã¤ ten
l ang
y r
6 0
d re
gesch ichte
ĠM or
ok en
Ġl assen
ĠN e
2 3
ing t
R eg
nah m
w w
u es
In fo
Ġver m
U R
b y
ap an
ĠP eter
Ġbe zeichnet
ĠHer r
F ield
Ġm al
sch eid
lo se
p rivate
ĠS eiten
w ert
re uÃŁ
Ġal len
um mer
arr iere
D E
F orm
ĠD a
ĠEr z
ĠB i
st a
sch au
an c
ĠF all
2 4
ind ung
Ġd ef
ti schen
d ig
Ġ5 0
y ch
ot he
Ã¤t ze
et ten
eich t
St ate
tiv e
Ġspiel te
ĠI ch
ur en
rit er
Ġh och
ĠM e
Ã¶r per
Ġv oll
av a
H rsg
z el
for der
ĠOl ymp
ĠO b
a el
bau t
ĠD em
olum n
Ċ ĊĠĠĠ
v alue
ĠBet rieb
h eits
Ġw ill
Ġals o
Ġ199 9
it te
ĠA u
Sie he
Ġ2 8
19 8
ip p
Ġnah m
Ġhat ten
ar get
wir tschaft
ĠR ah
ei gt
Ġ20 20
ĠRech ts
ĠSch iff
ge ord
U S
Ġl og
setz ung
Ġm o
ĊĠĠĠĠĠĠĠĠĠĠĠĠĠĠĠĠĠĠĠĠĠĠĠĠ ĠĠĠ
Ġst ehen
ffiz iel
ĠFol ge
Ġsch lieÃŁ
Ġre ch
m l
w ard
sch ung
om in
ĠM ot
ĠR u
ĠEin satz
r em
ĠI t
t hrow
ers Ã¶n
an zen
.) :
O Exception
e ader
icht ung
E s
Ġst ud
Ġzwei ten
ĠW ill
Deutsch er
ograf ie
Ġ y
ri ften
h eiten
Ġm ich
fÃ¼ g
Ġersch ien
ĠK ais
schn itt
ĠK Ã¼
En abled
ograph ie
IN G
7 0
ĠAn fang
Ġher aus
Ġn e
Ġ2 6
Ġver st
Ġmehr ere
Ġauf ge
l ungen
Ġ â
ĠS il
Ġw Ã¼r
rit ten
ri m
ust r
Ġin d
Ġ( !
Ġw egen
Ġm achen
ĠAl t
ĠĠĠĠ ĠĠ
ern e
ĠU hr
ĠOr g
ĠMar k
ĠF ir
ĠArb eits
Ġk urz
is se
ĠM art
d ie
ĠUnivers ity
t lich
Ġbest eht
min ister
am b
es onder
Ġerst mals
ne te
ev Ã¶lker
Ġaller dings
h ei
n ungen
ĠG o
om it
D ef
ĠS itz
rÃ¤ ger
ĠEinwohn er
ar en
ĠIn stit
ĠN eben
h Ã¤ng
Ã¤ ss
En try
an ad
r et
trib ute
Ġverwend et
ĠSta aten
ver ein
an gel
w elt
Ġ194 5
19 3
ĠA p
ĠgehÃ¶r te
a e
ti me
Ġ199 8
č Ċĉĉ
u k
ĠRah men
teil ung
en der
ĠK ur
ĠPar is
um ber
ĠEr n
Ġver w
utz t
l ist
ompon ent
m b
Ġum f
ĠW eg
G roup
ock ey
ĠH istor
Ġb rit
il t
rÃ¤siden t
Ġ18 5
ĠB urg
o int
Ġintern ational
p rÃ¤
ĠZ entr
av on
Ġtr at
ĠY ork
oc ol
ig ten
ĠWil helm
ĠHam burg
ĠLei p
A C
ĠD re
P erson
ti sche
Ġo bject
ak e
ĠWelt krieg
Ġh inter
d es
ĠG u
ilit Ã¤r
Ġ ?
Ġp olit
ti sch
Ġs ol
ĠW or
lo ster
B er
Ġn ame
lie b
Ġden n
el te
Ġ2 7
ĠM Ã¤n
Ġsein es
ate gor
ater ial
ĠMann schaft
rit t
uch s
g angen
âĢ ¦
ra k
ĠF eld
ĠVer walt
S E
ĠW inter
at ten
ic al
kir che
ĠF unktion
Ġh istor
En t
ik a
ĠH eil
t ocol
ĠGra f
k ey
ĠWir tschaft
ilom eter
ob il
ĠT em
ĠWebs ite
z ep
ser ie
all en
ĠH of
es ser
Ar ray
Ġd ah
ei sten
ĠSta ats
b ack
o x
ĠPart ei
ĠD ienst
ĠR aum
stan den
ĠP aul
ĠK o
{ @
s weise
ol e
amm lung
I ON
ĠBei spiel
l ing
Ġ2 9
ĠJahrhundert s
le ben
ich ter
Ġst ark
Al s
och ter
i as
k ten
ĠZ ug
Ġw e
Ġ Ã¶sterreich
Ã ĸ
eg t
au en
spr Ã¼n
Ġc a
4 8
== ==
ĠP reis
ich tet
ĠIntern ational
ĠR ef
Ġf and
Ġo ft
ĠK Ã¶l
ein ander
Ġw eil
ĠI hnen
Ã ¨
or y
Ġ199 6
Ġgen annt
ĠJo se
Ġverschieden en
ĠL auf
am mer
Ġm ax
Ġ198 0
Mit glied
ig it
s etzt
ĠA mer
Ġbe de
ĠG ruppe
ĠW ie
ĠT re
ĠS ti
la st
> >
ĠT our
ĠMit te
Ġs pe
Ġs etz
ier ungs
2 8
ti eren
arb eiter
ic ation
Ġ197 0
ĠB ad
F or
utt g
Ġ199 7
ĠR hein
Ġre quest
ĠSpiel er
hau sen
ĠZ iel
Ġr el
j ect
an a
ar te
ĠK ont
ĠSch m
a ÃŁ
Ã¼nd ung
ĠC omp
f rie
ĠE igen
ĠD ort
at Ã¼r
Ã¤m pf
2 6
ĠEur o
ar a
ĠB ru
ĠLu ft
ĠS Ã¼
ond on
esonder e
ĠUn d
ĠO t
ĠfÃ¼hr te
ĠS ol
icht s
ĠW olf
ĠVer s
af Ã¼r
ol oge
19 6
19 0
9 0
ie gel
Ġ199 2
Ġweiter en
sk i
ĠSchwei zer
ĠAl ter
l et
om e
ĠEurop a
ei er
Ġein mal
tt p
. âĢľ
eu te
E m
an e
ig a
Ã¶r d
ĠMus eum
Ġ199 4
wei ter
ge ber
ut put
ĠHein rich
Ġw est
st elle
ic s
unk te
ge f
d s
ig te
ck er
ĠB eh
te ger
cc ess
ĠK at
Ġeigen en
us Ã¤tz
b el
Ġin stance
pt y
s eite
Ġs echs
lich es
om pl
D es
schlieÃŁ end
l og
il le
ĠGe org
2 7
onn ection
ĠFrank furt
f ass
ĠGener al
Ġs ehen
ĠW ald
ĠD at
ĠGeb Ã¤ude
om at
Ġw eit
ĠL ud
ĠProv inz
ck en
ĠB ed
c a
ĠArch ite
G ibt
19 7
F ilm
ĠL eist
ob ei
Ġjeweil s
ĠE le
lei st
tik el
lehr er
all s
Ġbe z
Ġ add
ĠM eter
w issenschaft
ĠF rÃ¼
ĠUS A
stan ts
ĠT ext
f el
u ster
s ych
Ġk ey
ĠMa x
o ot
Ġd irekt
sb esondere
et ers
E D
du z
qu e
3 5
Ã¼ gel
et r
ĠGesch Ã¤ft
am s
ĠEn g
Ã¼ck en
u ft
ĠfÃ¼hr t
ĠH a
h il
Ġst and
urn al
Ġd avon
C lient
ĠP ark
war z
t z
Ġf ast
m ed
ĠV ater
ĠEnt wicklung
ĠRe gel
Res ource
s ize
ĠEr st
) :
Ġg ilt
ĠD is
Ġ199 5
in es
ĠGes ellschaft
om as
ĠVer tr
Ã¤s st
i ver
ĠP al
ik ation
uch en
Ġl ange
st eil
um e
n ehmen
ĠD abei
gen den
age ment
Ġm Ã¼ssen
ĠSt uttg
Ġn ie
sp ro
ĠAn t
ra un
ĉĉ ĉĉ
ĠT ro
I C
ĠSta at
trÃ¤ ge
ĠSchrift steller
ĠL ondon
ĠA ss
Ġc reate
k au
Ġf indet
Ġj etzt
ĠKl ein
Ġ199 3
ĠN r
F ac
pr ession
w Ã¼r
Ġarb eitete
C ode
iz in
Un ivers
2 9
ĠG ast
ĠT ochter
ĠE v
Ġsch wer
ĠN o
ĠKomm un
anis ation
J ahr
ch es
Ġbie tet
ĠU l
ĠMich ael
S er
i at
eh m
Ġw echsel
4 4
au ch
al k
ĠP ap
ief ert
wend ung
u ter
ĠHÃ¶ he
] ;
Ġbesonder s
wei s
att ung
ĠM Ã¶glich
g lichen
ĠD en
ĠR est
S h
Ġ Ã¤l
Ġ4 0
ober t
ĠLeip zig
richt ung
reib ung
shall er
Ġt ype
Ġunser e
Ġunter schied
pert ies
Ġmus ste
am a
m od
Ġfolgen den
g s
ĠA lex
ĠD e
ĠEr geb
ett bew
ĠHol z
lig a
ĠFuÃŁball spieler
W ith
ist ischen
op pel
to String
Ġw obei
ĠGeb iet
Ġkl ein
Ġ199 1
ĠG old
a he
lich t
Ġ aktiv
den s
ak tion
auf en
ĠM ath
Ġ( (
den t
ĠCh ar
ĠStra ÃŁe
o ok
ĠB ischof
* *
Ġl in
Ġ20 21
Ġab sol
h Ã¶
l Ã¤nd
un n
Ġstud ierte
au r
Ġgegr Ã¼ndet
ĠK Ã¼nstler
Ġal les
ĠFrank reich
olle ction
ĠMar kt
ĠThe ater
Ġviel en
ĠPro zent
A s
m Ã¶glich
Ġ #
g ar
leg al
it ten
Ġw ith
rei se
Ġinner halb
y d
Ġan geb
ĠPro jekt
ĠKais er
or ge
L A
ĠInform ationen
ĠE p
Ġt Ã¤tig
figur ation
c y
ĠG eh
le ch
Ã¤uf ig
ĠD on
ĠF arb
Ã¼ ler
ĠD am
Pro perty
ĠC or
ĠBer uf
ate d
Ġg esp
i ent
ĠN utz
R ef
n ull
zei tig
Ã¼ hl
Ġl ist
I S
eck e
s itzen
Ġ @
omm and
n ot
3 3
V al
Ġb lei
ĠPro blem
L oc
av e
it u
w agen
Ġn Ã¤ch
Mar shaller
ĠPro gramm
ge st
ĠK ompon
ig h
L iefert
ĠDeutsch e
4 9
en glisch
j a
ap pen
Ġ Ã¶ff
ro s
ĠZwei ten
' s
az z
S c
Ġunser er
o den
Ġins gesamt
t ler
Ġz eigt
ek tr
O G
ĠR el
it s
Ġkl eine
Ã¤t te
Ġl a
Ġn ieder
19 5
ech t
ib li
---- ----
sch lag
Ġv al
l ungs
Ġ _
sten s
Ġk m
ik en
ran ken
ĠS a
ĠH ar
ig inal
V ers
geben en
en gth
ĠObj ekt
Ġer rich
Param eter
ĠPl an
g ruppe
ĠI OException
ĠAm t
ide o
Ġm Ã¶ch
Ġauf grund
Ã¶r t
ĠRom an
a ffen
ver kehr
f ter
te st
ĠSch loss
ĠSte in
ĠH in
č ĊĠĠĠ
18 9
F Ã¼r
ĠB ef
ĠT age
Ġkonn ten
Ġf l
E igen
M ethod
Ġ ad
Ġje der
b est
Ã¼t zen
Ġ196 0
Ġkl einen
b urger
w Ã¤r
ĠW Ã¤hrend
tocol Marshaller
ĠStuttg art
her e
Ġerfolg te
al y
ain t
os it
ĠR ot
fahr t
Form at
Man ager
- ,
ul d
Ġ198 8
sch t
Ã¼ ter
Al l
ĠM at
gemein de
ĠS ein
Ġm ein
Ġbis her
ĠB is
ĠW e
Ã¤n dern
ĠEin zel
ĠLud wig
Ġsich er
Con fig
ĠK loster
Ġer f
Ġ198 9
Ġschn ell
ĠL iteratur
Ġm eisten
adem ie
4 3
Ġk ur
Ġ18 0
mb H
ĠF il
an te
ĠAlb um
ĠT el
Ġgr Ã¼n
ĠS en
in ner
Ġn Ã¶rd
ĠH ann
Ġm eist
E vent
ĠC he
ges etz
ĠVer trag
ĠSo zial
Ġex ist
ĠkÃ¶n n
ĠschlieÃŁ lich
Ġd an
Ġle ben
f est
ĠAr ray
ĠIn sel
Res ult
Ġgemein sam
ĠR olle
ĠS icher
V or
eu ch
ib le
t her
eck en
Ġ3 1
Ġf rom
eh l
verb and
und er
Ã¤r en
b ed
Ġwechsel te
Ã ľ
ĠProdu ktion
Ġent fern
ĠP ort
il den
ĠB ro
ĠZ ahl
ĠM utter
st ieg
ĠG ut
Ġit alien
i ft
Ġw h
ĠZ eich
ĠHeim at
h anden
Ġd o
ĠK ilometer
ĠT yp
Ġw ichtig
ĠN orden
spr ach
arb eiten
Ġb reak
sch iff
ĠS eine
Ã¤ f
4 6
em at
Ġd afÃ¼r
l d
ĠMart in
Ġ ...
ec ord
ĠF C
cri pt
Ġges am
g o
Ġd eut
tr itt
ir st
Ar gument
ĠW ind
ĠM aler
ot s
4 7
a ir
A P
Ġs og
Ġo ffen
ĠEis en
Ã¼r z
ĠAut or
lich keit
deut ung
Ã¶s ung
< ?
ĠM il
Ġ( )
k ung
Ġd ouble
art s
m m
Ã¤ chen
ak ter
ĠBes itz
Ã¶st lich
rei ben
Ġp ol
ĠMill ionen
w ehr
er dem
k unft
S ize
Ġgegen Ã¼ber
ĠR ev
Ġur sprÃ¼n
ĠA s
ĠR ed
ĠKÃ¶l n
Ġo p
N ull
Ġ up
ĠTh omas
Ġverschieden e
ĠI de
anst alt
L og
Ġwo hl
ĠB evÃ¶lker
ĠW enn
ĠD av
w or
om en
C O
O bj
ĠPf arr
uch e
Er ror
ĠG mbH
ĠH inter
ĠStra ÃŁen
. :
c ess
Ġgeb oren
on en
8 9
ĠT ri
ĠIn s
eg r
ĠW ieder
ĠSchwei z
gen t
Ġp rÃ¤
iz ed
ĠVer kehr
ar ben
ĠDie ser
la v
ĠM ethode
Ġ198 7
f ert
ge gen
y le
u h
m o
st reck
b te
Ġ198 6
ord nung
Ġb lieb
her r
ber ger
te c
ĠK reuz
Ġn atÃ¼r
In ter
ĠM ehr
ust rie
fl uss
es e
ĠT ab
Ġver such
B au
ĠV ier
ĠSch ule
ĠOr ts
ĠK ant
ĠA c
val id
Or t
Ġst r
ĠReg ie
ĠK unden
ĠP ost
f s
sch ech
Ġo ber
FuÃŁball spieler
is iert
re e
Ġl Ã¤sst
Univers itÃ¤t
ĠD o
Ġwen ig
i am
re p
mann schaft
ĠBeg inn
I ch
Ġz eit
ĠÃ¼ber nahm
war e
ĠR en
C H
ĠChrist ian
get C
Ġd ien
ĠOlymp ischen
Ġk n
Ġsow ohl
G r
Ġin sbesondere
ĠIntern et
R O
ge geben
ĠD enk
Ġinstance of
Ġn ord
" )
A S
tier te
E ine
Ġk osten
h as
Ġd ata
ĠW al
Ġsch Ã¶n
ĠC lass
stell ungen
k tr
ĠS tim
ĠEn erg
ut zen
Ġp l
pro du
ĠG est
at te
enz e
3 6
Ġ Ã¼b
Ġbest en
Ġz usÃ¤tz
gen de
Ã¤uf er
ti ger
o ben
M et
it Ã¤ten
ĠE he
ĠT urn
ag es
Ġvor handen
ĠT Ã¼r
Ġmit tel
op er
ĠIn nen
St atus
Ġ195 0
T ext
ĠK ind
le y
z ogen
Ġent stand
k n
ĠM ap
Ġern eut
M us
an de
os oph
Ã¶ ÃŁe
3 8
fl Ã¤che
Ġf ile
Ġ198 4
Ġhin aus
ĠIl legal
Ġf orm
ĠT ex
ĠSt Ã¤d
b es
f an
ĠSt art
Ġ197 2
te gr
am ens
ĠW ochen
Ġerreich te
A G
Util s
Ġm ar
fÃ¼hr er
Ġgel ang
ĠH el
Ġ198 5
S eit
ĠF Ã¼hr
ĠF ernseh
ĠR ichtung
I tem
s ystem
s burg
ĠO p
tem berg
Ġgew Ã¤hlt
ĠIt alien
ĠN or
Ġ as
ĠG Ã¶
yn ch
ĠZ ur
ern er
issen schaften
U N
ĠG eld
rau ch
ist r
c reate
Ġj a
ĠMar ia
ÃŁ t
eil nehmer
ĠHo tel
m Ã¶
Ġzwei te
Ã¼r t
R ep
ĠSel bst
Ġal ten
ĠA ben
ĠS ing
den burg
od y
Ġf r
atur e
S ystem
in ation
ri x
geb aut
en ce
ĠF ort
3 2
w ay
Ġw ich
ĠC ount
Ġer klÃ¤r
ĠMa in
sen d
ish ockey
ie hen
ĠF ile
uch te
ĠE t
b ank
ge hen
Ġw ahr
och e
St and
schul lehrer
ĠJ e
an ien
ac t
ĠS im
lo b
mÃ¤ÃŁ ig
ĠKl asse
Ġl ong
Ġ Ã¤
an ken
ĠAn geb
Ġzw ar
ĠC omm
ev el
ĠO per
ist ische
ĠF el
ĠSch utz
ĠL ang
ĠC om
ger icht
ĠK in
ĠAn zahl
In stance
ĠJ ur
Ġf ort
Ã¤h len
Ġb ed
l as
Ġh erv
ol ution
ĠL es
um m
Ġn ahe
ail le
7 5
N ot
Ġz ehn
ĠW ar
g Ã¤n
ĠS am
al z
ĠZw ischen
lo ad
Ġ org
ĠBes uch
ĠR uss
ok rat
ant wort
ĠL og
Ġgen au
Ġh Ã¶ch
ĠG arten
ĠBe deutung
in dex
Ġb in
de b
ĠSÃ¼ den
j et
dr ess
ĠB ilder
s l
z ess
ern en
Ġs ub
s ub
U r
bar e
8 5
Ġihn en
3 9
ĠC arl
f il
or gen
w ohl
Ġein gesetzt
ĠProf essor
w eit
ic an
ĠAn g
sch inen
++ )
Ġver sch
ri gen
P l
Ġerrich tet
ĠP ass
ro p
a un
ent lichen
bar en
ĠverÃ¶ffentlich t
z z
ab hÃ¤ng
re ad
O n
ĠD ruck
Ġ197 4
V on
m et
ier s
Ġerfolg reich
U T
ĠN Ã¤
ĠG ed
Ġhand elt
4 2
ist ik
ĠW issenschaft
Ġw oll
A p
Ġen gl
T oken
Fac tory
Ġ6 0
ettbew erb
w asser
ĠVer l
eg ung
spiel sweise
Ġ{ @
ĠM ont
ĠTh ema
d i
ger ufen
en zen
zeu ge
ĠK urz
p reis
u al
w ald
ĠK omp
ĠSch Ã¼ler
ĠZ um
it or
gr ess
B uffer
le ge
ĠR obert
ĠAn dre
Eigen schaft
u ild
ag t
gesch lossen
b eh
lin gen
Ġge legen
At tribute
ium s
ĠP osition
f Ã¼r
Ã¤ user
inz u
ĠM os
Ġ198 3
Ġs ollen
ĠEr folg
F ernseh
Ġh Ã¤ufig
se hen
ĠVer sion
ĠM er
al tet
O ption
ĠD DR
g ra
lau b
ue ck
W elt
Ã¤n den
Ġre gel
stÃ¤nd ig
ibli othe
ĠW ein
Ġbe vor
Ġentsp rechen
Ġdah er
ĠN etz
ym b
ĠD ok
Ġ acht
ĠMÃ¤n ner
f red
iz ei
n ach
ĠS til
Ġm ethod
ĠVer fÃ¼g
iv al
K l
Ġpro tocolMarshaller
L and
ĠGes amt
Ã¤ch lich
ok al
Ġbes ser
ĠOn line
k el
ĠBo den
Ġfolgen der
get Name
Ġbest imm
8 6
Ã¼ ge
ĠH ei
re f
Vers ion
sp l
Ã¤ ischen
ĠE ing
f rei
ym n
Ġent standen
m ark
Å ¡
Con stants
Ġbest ehen
ff set
ges ellschaft
Ġehemal igen
ĠK or
zeich en
ĠAuÃŁ erdem
č ĊĠĠĠĠĠĠĠĠĠĠĠĠĠĠĠ
n o
ĠOrt steil
geb Ã¤ude
Ġem pf
Ġeigen e
ie sen
net en
5 5
in c
in ition
ĠK om
Ġnicht s
Ġsie he
ĠMit arbeiter
st Ã¼ck
ĠS ek
Ġm acht
Ġst amm
ont in
ĠfrÃ¼ her
ĠBay ern
hr ead
throw s
ow er
fol gt
ontain er
im al
riv at
Ġm in
t ype
ad urch
Ġheu tigen
Ġwel ches
Ġso zial
Ġsog ar
Ġzahl reiche
C E
f re
v oll
Ġ198 2
( (
3 7
ein t
In put
ĠJohann es
F A
al og
ĠO sten
all y
Ġgef unden
D at
H er
A ut
ĠEr d
Ġre cht
ol ler
ĠT rans
ain er
ĠDre h
ei der
EN T
C omponent
ĠH en
tec ted
ack age
ĠReg ierung
ĠII I
r Ã¤n
Ġst ar
Ġp ath
ĠC ol
Ġin dex
Ġm od
Ġ197 5
Em pty
ĠS ong
Ġge ben
b Ã¼
Die se
it ial
op p
Ġdan ach
la den
sch eiden
ĠCh em
ĠEn d
ge m
ĠH alb
eh ler
meister schaft
olit ik
ĠVerwalt ungs
b and
ĠSp iele
Ġstell t
Ġ198 1
Ġf ield
C ount
ĠR ich
os sen
im a
ĠK Ã¶rper
st ehen
ir t
im ent
iv id
ĠJo urnal
Ver ein
ĠF e
Deutsch land
9 9
tr e
Ġbei spielsweise
ĠMit glieder
L e
ichte te
Ã¼h le
d a
Ġsie ben
Ġ196 9
Ġlie gen
Ċĉĉĉĉ ĉ
ĠBahn hof
L o
un ction
Ġdeut lich
F rau
an o
Ġ Ã¤hn
itz t
ĠOt to
ag s
" .
t eid
ĠStud ien
ul ar
Ġh Ã¶
Ġzu dem
Ġ196 8
frie d
Con tent
geb ung
ĠStel le
4 1
op e
Ġwen iger
ĠT o
ikan ischen
Ġ check
z immer
mal e
u el
Ġb ild
Ġdam als
Ã¤d ag
ĠV iel
r acht
Å į
ge fÃ¼hrt
ĠCount y
Ġ197 8
ĠE ben
ow s
ĠAuf lage
Ġ197 6
re en
ĠFre und
irekt or
fra ge
schaft s
ĠMed ien
ĠG ot
eich nung
Ġ197 7
h am
ĠMot or
k o
Ġdar unter
hau pt
teil t
p art
b ek
Ġso gen
IN D
ĠA G
Ġbie ten
T yp
U p
k ungen
ĠO s
Ġlie ÃŁ
Ġ(âĢ ŀ
w o
Ġletz te
ĠB us
Ġzu vor
bl ick
ĠB ot
Ġn o
ĠS and
ĠA ward
ĠK ategor
ti tel
M L
r ist
Ġst arb
ĠInstit ut
ten s
Ġp ersÃ¶n
> ();
ĠF inal
ĠG ruppen
ĠSch wer
K on
Ġ197 9
H och
ect or
en ter
un ge
Ġbef inden
ĠB ran
ĠHerz og
ĠF euer
ft ung
ĠS achsen
Ġw elt
rei te
au se
ĠWest en
ser t
Ġer Ã¶ff
sp rech
ĠG i
ĠRech t
A B
ĠA ir
ĠAn ton
ĠAm ts
ĠW o
ĠN ot
F rom
z y
werk e
ĠL age
u x
ie ten
ak te
Ġg ar
7 6
ĠB or
Ġs h
Ġer k
ĠAr tikel
ck e
ie ht
Ġs omit
der s
U m
in i
Ġz og
ĠGeschÃ¤ft s
ĠS ervice
ĠH om
st all
ĠD rei
Ġn ational
3 1
Ã¤ te
Ġ197 3
T h
ĠSt u
0 9
arb eitet
ĠgehÃ¶r en
Ġi d
h ang
re am
Ġver fÃ¼
ĠT al
: //
pr int
ĠVerein igten
Ã¼rt temberg
ĠP rÃ¤
get S
et ail
tr a
ion s
ffiziel le
u hr
ac tion
it i
ĠK ol
ĠG ar
and id
ĠP fl
iz iert
Ġger ade
ĠRei he
yn c
ur f
ynch ron
ĠwÃ¼r de
ĠR und
lei d
ĠSal z
ĠA ber
ĠL au
ĠR ein
ĠVerfÃ¼g ung
d ien
ĠB ank
ĠG ott
ol a
ĠNÃ¤ he
w art
ĠT est
Ġl ag
ĠSt ad
Ġr uss
E S
schlieÃŁ lich
ĠH or
Ġgem acht
ĠT on
ei ger
ungs k
Aus wahl
G em
Ġ197 1
N A
en te
an lage
ĠB ur
as ste
ĠK raft
Ġst art
Ġabsol v
Ġgen utzt
ĠÂ »
ĠErn st
Ġ reich
re v
ĠR egen
Ġ ung
Ġd r
ĠC D
Ġ193 3
ĠP or
her ap
ĠgrÃ¶ÃŁ ten
pl an
Ġr Ã¶m
Ã¼s se
ĠK auf
Ã¶ hn
ot z
Ġein igen
Ġerw Ã¤hn
ag ue
d o
itz e
on a
ĠT op
x is
Ġ us
form at
ei en
ort h
D ate
M ail
Â ²
ĠM y
ĠK arriere
ĠRei se
âĢľ )
F l
en a
ĠE hren
ĠMin ister
an ischen
stru ktur
ul ti
enn ung
" ))
ĠF inanz
br uch
8 8
au p
ĠG leich
z ehn
7 9
ĠS oc
ĠZ Ã¼r
pr ess
cri ption
Ġr esponse
C all
T rans
ĠKrieg s
deb ug
ĠK osten
pl ate
ges ehen
ĠEle ktr
ĠEr fahr
Ã¤t zen
Ġs of
deck t
an ger
ĠW el
rei bt
ĠZ ust
Ġc m
Ã¤l fte
Ġ Q
al te
ĠM el
ĠHil fe
6 5
ĠV o
Ġver lie
Ġbet eil
ĠS onn
ie te
Ġc urrent
Ġzur ueck
Ġe urop
rich ten
ann el
me e
w ind
Ġmit tler
f ord
Ġk lass
c m
spiel en
Ġw es
Ġh inzu
ab il
ĠSpr ache
ĠFl uss
ĠfranzÃ¶s ischen
ymn as
Ġs c
Mod el
ĠSie d
ativ en
s um
od es
Ã¤u ft
ĠM aterial
w esen
ĠM ilitÃ¤r
Tra ce
Ġherv or
ĠB Ã¶
k eits
it al
Un ter
f ile
o in
Argument Exception
M ed
ĠP ra
ĠNach t
Ġau t
Ġ196 5
ontain s
Ġ Å
ĠS ex
Ġent hÃ¤lt
ĠD res
af en
Ġn ode
n am
rit te
ĠEl tern
ĠArray List
Å Ĥ
or ie
ĠAl le
ord in
En d
7 7
Ġteil weise
Ġf re
Ã §
ik t
arl ament
Hand ler
ĠK ampf
ĠEnerg ie
n ext
Ġsoll ten
Ãľ ber
c le
zeich nungen
Ġw issenschaft
ĠF Ã¶rder
list e
ivid u
ĠB al
l eitung
am eister
Ã¤t ten
pr Ã¼
ĠBevÃ¶lker ung
P E
Ġfol gte
ĠB und
as en
ut ton
ĠFor sch
0 5
Ġl eicht
ĠSpiel en
is p
as il
Ã¶ pf
ach er
ĠAuf trag
ĠFrÃ¼ h
w rite
Ġw ollen
ik e
Ġje den
ĠA f
ĠF en
Ġnach dem
ĠRep ublik
ro ss
Ġl oc
Ġ( =
ire c
ĠSil ber
ĠR ud
o is
wei sen
" ;
ier ungen
Ġver s
ĠBerlin er
an y
ele te
rei ten
ec ted
. <
R e
Ġi r
Ġr em
la ck
arb eitung
oc ument
f ield
W est
f Ã¶r
ĠD om
Ġentfern t
de d
Ġverb unden
ĠD el
ĠCh arl
isse ur
ĠVerb indung
f ung
ar ian
ĠMe er
ĠI r
ann e
zeu gt
Ġbei de
fol ger
ymb ol
T able
ĠHer ren
ĠC as
a sch
eil en
Ġ196 7
Ġfolgen de
Ġ196 6
u tet
A D
c urrent
ĠFra ge
rei fen
r ach
z ip
ĠG eist
Ġres ource
ibliothe k
Ġin put
us st
lie ben
ĠAr ten
ĠM ad
A ccess
ĠR ock
P er
tr ue
Ġm eine
Ġge hen
Ġerreich t
z eiten
ag n
ĠVor sitzen
Ġ193 9
b esch
ĠM Ã¼l
Ġz ul
âĢ Ŀ
ikan er
ĠDav id
ĠH essen
Ġ196 4
fahr er
ĠAus bildung
List ener
jÃ¤hr igen
ĠJ azz
hl et
Ġen g
ĠDam it
ĠSch Ã¶n
mar shall
Ã¼ ch
U L
eu e
ĠGes etz
6 4
sch riften
re c
ĠS aint
iv en
kl us
Ġgleich en
Ġwir k
ĠMin uten
ĠK opf
ĠW and
Ġ techn
eh len
ĠGemein den
ĠHer aus
ud em
Ġk ompl
ĠSer ie
ĠâĢ ¦
Ġ196 3
Ġd el
st at
ut es
P ol
Ġr et
on es
ĠS ub
ĠIn n
ĠNach dem
it en
ien s
Ġwei ÃŁ
Ġm achte
ĠT ran
ik al
ĠS in
ĠAr m
ĠB ek
ĠS tern
Ġm on
Ġ te
ĠnÃ¤ch sten
Ġauf genommen
iv ision
E L
W erk
hal te
ang s
ĠQu alitÃ¤t
Ã¤ us
ĠBr on
ĠFrie d
ĠGr ab
Ge ographie
ru g
Ġ193 8
er r
geh end
kau ft
il la
ĠK an
Ġ195 6
Ġk einen
ĠUnter stÃ¼tz
Ġch ar
ĠBeg riff
ier ter
im men
Ġsch l
ĠD ist
ro chen
aler ie
ĠL o
Ġunter stÃ¼tz
Ġ196 2
ex ik
ĠP e
Ġg erne
ĠJose ph
A mer
ĠB aden
rit z
Ġdam al
Sp iel
ar f
Ġer ster
ĠHann over
op y
Ġbest and
ition s
zentr um
O per
Ġc lass
20 18
Ġk amen
Ġel ektr
ĠB ach
Ġ19 20
ĠL icht
ĠSt Ã¼ck
R I
T rÃ¤ger
ver l
Ġeinz el
Ġpar am
E T
B IND
g liche
t um
ĠĠĠĠ ĉ
Ġver tr
St art
rik a
M P
l l
ĠD ef
ĠP o
ĠV en
ĠC ity
inn t
Ã¤tig keit
l v
v est
B r
p le
Ġst ate
Ġby te
ĠMÃ¶glich keit
ĠT a
Ġstell te
Ġho hen
f Ã¤h
ĠS Ã¤nger
ĠAk ademie
ĠL ou
ĠWerk e
L ine
S V
ial og
Ġmehr eren
U ser
Ġn orm
ĠW h
Qu ery
Ġ194 0
BIND ING
Ġbede uten
m on
ĠPr ess
ĠWor ld
O utput
f rau
ien ten
z i
Ġge k
final e
ĠS em
Ġentwick elt
ĠHer mann
ĠD oppel
Ġeh er
Ã¼ss el
ĠD och
itz er
p ol
u sch
ĠSie g
ey er
6 6
id th
Ã¼ss eld
O T
ĠP sych
Ġ scha
setz en
eig ht
ĠI D
ell a
u he
ĠR ang
ĠAuÃŁ en
T r
ig keiten
Ġpro duz
Ġ Ð
ĠBru der
le b
ĠM ein
ĠDes ign
0 1
in ge
Ġge tr
Ġd Ã¼r
Ġ196 1
Ġwh ile
E d
Ġf er
ra p
ite d
Ġ193 0
rie ges
3 4
Ġ195 8
ĠGes und
streck e
G ener
Ġ194 4
ĠSta ff
on ie
d am
ĠF ig
ir ks
lo at
ende te
ĠH Ã¤lfte
ĠL Ã¶
Ġer ziel
g ten
str ing
ĠM c
par k
ĠBau m
en e
> (
N umber
i os
rie ch
ĠStr ecke
ick en
H eader
k ap
ĠP op
Ġg ute
Ġ194 6
An d
ĠIllegal ArgumentException
C D
L O
Im pl
rÃ¤s ent
ĠBas is
5 9
ĠEr sten
ĠMa ÃŁ
ol den
or te
ĠStand ard
F I
Ġtr ans
Ġm ed
kt or
z uf
ĠHau p
Ġson st
ĠÃĸ ff
i que
Ġz erst
ĠMod ell
olog ische
ĠDies es
v el
Ġd ir
ĠCh or
Ĥ ¬
W enn
or a
ing ton
l am
Â »
ent wicklung
ĠF uÃŁ
b us
ĠPr inz
F ilter
gel n
ĠSe e
o o
Ġsetz te
ĠW ol
ĠReich s
Gem ein
Ġ );
Sp ort
Ġinter ess
is ierung
tig ung
Ġer z
Ġb as
ĠÃ¼ber n
ĠP rÃ¤sident
ĠLehr er
ĠA pp
Ġam er
ĠD enn
per atur
fl ug
Ġ8 0
Ġsel ten
ĠKompon ist
ĠP an
ĠSc ien
Ġ195 9
Ġspe ziel
C omp
rit ik
el ten
P art
den tif
Ġer r
ĠV ideo
Ġ195 2
Ġ ak
In t
ĠS yn
ĠauÃŁer dem
zep t
Ġk ehr
Ġbes uchte
m el
r uf
ĠA ch
ĠP unkt
st ant
Ġ194 9
ĠfÃ¼hr en
ĠRich ard
w egen
ĠC al
ĠPolit ik
In ner
zeu gen
mar kt
Ġwoll te
Ċ ĊĠĠĠĠĠĠĠĠĠĠĠĠĠĠĠ
č ĊĠĠĠĠĠ
Ġg l
ĠK ranken
gel Ã¶st
i j
T eilnehmer
ĠL iga
ĠPol izei
Ġst ellen
Ġ195 5
ĠSt amm
Ġsch rieb
ay er
gr Ã¼n
Ġgew esen
ĠPart ner
Ġeben so
ĠZÃ¼r ich
olog ischen
west en
st art
ĠEr w
Ver lag
ĠWolf gang
Ġf alls
ĠR os
end et
h ung
so zial
C ase
om an
Ġth at
eh ens
Ã¤ gt
ĠH all
P ackage
ot h
ĠJ apan
L ength
ĠW alter
ĠD eb
k athol
Ã¼ gen
Ċĉĉĉĉ ĉĉ
ĠT ier
l ad
ĠKon tr
ĠArb eiten
ĠA ustr
ĠFra gen
rei sen
ĠD ach
ĠA ust
ĠB all
Ġihr es
pro tected
fÃ¶r m
o der
s ie
ĠL Ã¤nge
ic o
ĠErgeb nis
ab rik
fass ung
ĠB raun
Q L
ĠC ms
ĠÃ¤ uÃŁ
P age
ĠP res
la ce
T Y
C olumn
t c
Ã¤ um
Ġver f
ĠP rivat
Ġweiter hin
N o
au sch
Ġ9 0
sta at
ch ester
ĠBÃ¼rger meister
Ġdef ault
g ien
l assen
sch uss
Fernseh serie
_ _
ĠZ udem
Ġunser en
S o
] .
ĠProdu kt
Ġt yp
8 4
ĠB y
ah nen
zei gt
it a
Ġ3 5
Ġz eigen
Ġon line
i w
w ord
ĠTh emen
Ġver z
c ontains
b eg
r hein
ing ungen
9 5
on om
ĠS et
Ġo ben
ĠStud ium
hÃ¤lt nis
Ġne un
Ġerh Ã¤lt
O L
Ġd ritten
etz ung
ĠS uper
Ġc omp
ĠB rie
Ġw Ã¤re
Ġre ad
ĠGeb urt
ĠKont akt
ĠAlex ander
it ch
it sch
ĠW ort
Ġer reichen
Ġal te
ĠSt unden
Ġt c
ĠSchauspieler in
N ext
en g
ter s
Ã¤n gen
er ror
Ġan schlieÃŁend
Ġn ehmen
a ile
Ġaktu ellen
P r
Con figuration
ĊĠĠĠĠĠĠĠĠĠĠĠĠĠĠĠĠĠĠĠĠĠĠĠĠ ĠĠĠĠĠĠĠ
ĠGl as
ft ware
ver walt
ĠUnter such
Ġgen er
ĠLe ague
Ã¤nder t
ĠPhil osoph
Ġs er
ĠP il
sp h
Ġbeg r
Ġo ut
Ġ195 7
ĠKon z
ĠR at
Ã¤t ter
ĠAus wahl
dr esse
C l
c lient
k or
Ġ7 0
Ġ ra
Ġs uper
Ġc all
ĠP arlament
ĠL eiter
iz er
ĠÃ¤l ter
ĠR ecord
Ġdar Ã¼ber
eren ce
Ġev ent
8 7
Ã¤d chen
Ġpol n
u gen
ĠDenk mal
S ON
l ern
ĠT im
ĠT eile
land s
anst altung
C hr
m und
Ġsp ielt
A ction
s itz
Ġj apan
ĠB d
t he
n eter
tem ent
Ġspiel en
ĠS onder
Ġben Ã¶
S te
Ġbet rÃ¤
hei ra
Ġl and
sh ip
Ġcon text
Ġz entr
ĠBl ick
fall en
ĠTag es
ĠverÃ¶ffentlich te
D ec
ĠV al
ĠUnterstÃ¼tz ung
C T
ĠJ ean
ĠAu gen
ĠA g
Ch ar
ĠAmer ican
Ġ ap
st ud
ĠB rit
ĠVer gleich
0 6
olog y
ieh ung
0 3
ĠWill iam
ĠKir ch
em b
res ult
==== ====
S ource
d k
v is
ĠPr em
ha ft
ĠFir ma
R el
Ä į
be ck
Ġtr otz
ĠPh ys
ĠTra in
s m
un ternehmen
ĠH an
Ġ195 3
ĠD ep
ub e
ĠSp ez
k omm
ĠMÃ¼n ster
ĠD Ã¼sseld
ĠL ied
ĠSt at
ĠF ern
ĠâĢ ľ
Ġ194 2
Ġ194 3
wie gend
ĠkÃ¶nn te
K ir
v iew
Ã¶ sen
ĠEr k
end es
Ġent halten
i ber
unk ten
r c
= "
s a
ei sen
ĠNach folger
Ar ch
rÃ¤ fte
i ol
ĠBr un
ĠBr and
Ġbesch Ã¤f
d in
k reuz
Ġver ein
S etzt
ĠC olle
In tern
al es
us h
ag o
ĠursprÃ¼n glich
Ġer weiter
Ġal t
S ub
at tern
l Ã¶sung
tr ainer
ĠFen ster
ĠEnt scheid
w ork
pl ication
Ġ194 1
st eh
lin ie
0 7
leich t
inde stens
le cht
lag er
Ġ195 4
amerikan ische
G es
M S
b ten
ĠW ider
wei g
H ol
M in
c ing
ĠNach bar
ĠDok ument
re quest
ĠnatÃ¼r lich
8 3
l ar
Ġm m
Ġj Ã¼n
Ex pression
ĠIhr en
ĠCl ub
ĠN ik
Ġf inanz
ĠIn teger
Ġehemal ige
ĠDan ach
U E
g arten
au ber
ĠSch warz
Ġ194 8
0 2
W er
ĠP ublik
Ġex ten
eid el
ĠsÃ¼d lich
Ent ity
ĠmÃ¶ch te
S I
lich keiten
og le
ĠStadt teil
Ċ ĊĠĠĠĠĠ
Ex ec
Ġho he
en ten
ab r
Ġge pl
Ġtr ad
ĠLin ie
in fo
Ã³ n
ĠDres den
t liche
. -
ekt or
9 3
Ġt arget
ĠÃ¶sterreich ischer
Ã¤ch s
ie m
Ġp ass
ĠerwÃ¤hn t
ĠInd ustrie
ĠP reuÃŁ
ut her
d at
st att
Ġm indestens
ir m
pf er
Ġneu es
ĠAn gel
C ache
ĠGr Ã¶ÃŁe
ĠR em
Ġj Ã¤hr
eich er
ĠAr mee
k arte
Ġabsolv ierte
c tor
Ġm essage
meister schaften
Ġstamm t
ie ÃŁen
ĠEng land
ĠS old
Ġsel ben
ĠSte uer
m ap
richt ungen
ĠKÃ¶nig reich
C onnection
and elt
F F
ĠSt ar
hal le
ĠfranzÃ¶s ischer
ĠKategor ie
Ġev angel
hal ts
ĠS u
mus ik
âĢ ŀ
ay s
q l
Ġk omp
Ġbes itzt
Ġgemein s
. ");
b ischof
and s
ĠÂ «
Ġeinzel nen
Ġwel cher
ĠBez eichnung
lie gen
ĠZentr um
ap e
our ces
bet rieb
O S
s berg
Â °
s ei
ĠR a
B lock
ĠGr Ã¼ndung
au sen
ut ure
ĠJ er
Ġneu er
h an
T ER
ch ar
ĠB ud
Ġl Ã¤nger
Ch ild
s c
Ġo ffiziel
ĠAr n
amil ie
In teger
egr Ã¼ndet
C om
T ag
ĠS m
ĠLand tag
k i
ic ate
is Empty
ahr en
Ã¼hr en
ĠIm m
Ġwirk lich
Ġb l
imm ung
Ġmo dern
Ġorg anis
mus eum
ĠEx ception
ĠG al
Ġb ilden
ĠCh ina
aile d
M ax
ĠS w
Ġrech ts
Ġk aum
Ġge geben
Ġmar shall
d aten
Ġbek annte
ĠAn d
ĠPfl anzen
0 4
S up
ĠAb schluss
Hoch schullehrer
ĠH um
N ew
u a
ĠL eitung
Ġl o
v ider
ĠAl ten
Ġ> =
ĠFor schung
k an
halt ung
ĠFol gen
ref ix
Ġun ver
Ġerh Ã¶
Ġunser em
D F
J ob
ĠL Ã¼
Ġc om
Ã¤hl te
h Ã¶r
Z u
ĠR itter
ĠAn schluss
tiv en
A X
ĠM ass
ĠgrÃ¼n dete
ĠKant on
stra hl
Ur l
Ġver heira
tig keit
les en
C ms
e arch
ĠH Ã¶r
la w
ĠVerein s
Ġmo der
w ill
ĠA ktion
Pro perties
Ġumf asst
Ġer folgt
ĠV oll
l eiter
ass ung
Ġ4 5
T E
b ie
l n
ell es
ol or
ĠForsch ungs
h istor
ĠAn n
Ġhei ÃŁt
par se
not ation
au b
ĠD ek
Ġsie ht
oh len
eig net
N ational
ĠAb geord
Ġ194 7
Ġausge zeichnet
ug h
Ġent spr
ez ep
Pro du
ic tion
Ġeinz ige
d et
ĠVer Ã¶ffentlich
mit t
8 2
C he
ĠP unkte
ĠHoch schule
Ċ ĠĠĠĠ
tern ehmer
ĠUn ion
ĠW as
ĠUm welt
ĠTra iner
Ã¤ ger
Ġge baut
ĠZeit schrift
ĠGe orge
ĠnÃ¶rd lich
y a
ler s
ĠAl bert
6 7
ei s
ĠE lement
ĠT ur
ĠIhr er
ĠSchl acht
Ġk athol
ieren den
Ġ195 1
ie ben
ĠK al
f alen
et a
ou ver
ot te
T em
Ġst ammen
in put
Ġhei ra
ĠR h
Ġ+ =
zeich nis
ek ten
F e
Ã¼ ten
Ġein ger
ul a
ĠgrÃ¶ÃŁ te
Ġern annt
ie ur
bar keit
au tor
ĠD ann
Ad dress
j e
ĠM ess
ot or
Ġverl oren
m eld
Ġsch loss
Ġp rom
ĠLie be
T ree
Ġle dig
ĠGer man
ĠPol en
ĠB onn
im it
ĠOr gel
Ġgew orden
ĠHer bst
Ġdar f
deut sch
low ak
I V
Ã¼ st
ĠbetrÃ¤ gt
C ON
ĠEisen bahn
ĠJ ames
Ã¡ n
an lagen
ĠMed izin
ĠW oche
ĠO ffizielle
par tement
ĊĠĠĠĠĠĠĠĠĠĠĠĠĠĠĠĠĠĠĠĠĠĠĠĠĠĠĠĠĠĠĠĠ ĠĠĠĠĠĠĠĠĠĠĠĠĠĠĠĠ
ĠN orm
ĠJ ac
Ġgesch lossen
ĠAben d
ow ed
A uch
Ġvor her
Ġbe ein
Ġblei bt
Ġ193 7
zw ischen
entr y
Ġk ennen
ek tion
eg ment
Ġ193 6
yn am
Ġm ap
ĠP lay
Ġp assen
ĠO pen
Ġledig lich
M eter
at ers
ĠW ahr
ate in
ĠEv angel
b Ã¼rger
ĠS ow
ĠVol k
Ġinternational en
f unk
ĠR Ã¶
Ġs ervice
ĠBay er
ti en
ari able
ĠWien er
Ġp rak
Ġbild et
Ġan z
ri ck
br acht
Ġ193 4
Ġv an
ĠBez irk
ff er
oss ible
spr uch
on y
Ã¤n n
ĠUm gebung
NA ME
Ġd at
ĠL OG
7 1
er tif
ie ger
Ġer g
get Message
fl Ã¤chen
ĠEs sen
hol z
o ffen
ĠZu kunft
rech ts
ĠStaff el
5 6
M B
ĠS Ã¤
ĠH al
Ġel ement
Ã¼nd eten
I ter
V iew
i or
Ġ tem
ĠW all
ĠR unde
d ata
ad ata
8 1
ĠB on
ĠJ ung
ĠSch lag
oll ar
s Ã¤tze
L evel
P f
bau ten
Ġen try
ĠK amer
ĠStr u
D a
ĠAn ti
n ungs
ĠT rad
č Ċĉĉĉ
P h
ĠD or
ĠZeit punkt
spr ache
ĠB ack
Ġf iel
G egrÃ¼ndet
W eiter
f in
ic es
Ġpro f
Ġjed em
g ie
Ġje de
schein lich
M on
n ey
Ġo ther
Ã ¸
ĠOr iginal
ĠS zen
Ġge stellt
ĠVerkehr s
den ten
Ġbeg innt
Ġd adurch
oc i
ĠL ong
ĠN icht
ĠAk tiv
ĠK re
ĠT ruppen
ĠL Ã¤nder
Ġeigen tlich
ĠfranzÃ¶s ische
ĠWirtschaft s
S C
ut lich
stell te
ĠD Ã©
ab l
ĠBes onder
Ġ19 14
n itz
Ġbel eg
Ġind ividu
a at
ĠJ ust
Ġgesam te
\ "
ĠSch ool
Ġ euch
Ġf anden
ĠAn na
T H
ran t
ĠOrg anisation
or ien
ĠJ ack
Ġar e
Ġs etzt
ĠF und
ĠBei trag
ink el
um Ã¤n
Ġdien te
v on
ĠAb s
g ut
ĠH u
ĠC ap
Ġver k
iel ten
Ġganz e
ĠAngeb ot
ĠGr enze
Ġqu alif
Ġt Ã¤
ĠW ander
ĠT e
ĠR and
for schung
ĠRad io
at hlet
Ġin dem
ĊĠĠĠĠĠĠĠĠ ĠĠĠĠĠ
ĠQu alif
ĠVer such
ĠCh amp
form ation
ĠDi pl
ĠL ab
Def inition
ĠWeiter e
<? >
om o
ers eits
ĠZu ge
ĠC amp
ĠhÃ¶ her
B e
O ber
Ġp h
if e
ĠEp is
Ġdes halb
ra el
eich en
0 8
L ink
ĠBen utz
ymnas ium
D urch
V erk
lin ge
ĠZeit ung
rÃ¤siden ten
jÃ¤hr ige
ie ÃŁ
tr aum
denk mal
ww w
6 1
Ġh el
ĠAl ler
ĠfrÃ¼ h
ĠZusammen arbeit
H el
em ann
ĠVer wendung
lau ben
Ġer war
ĠPhil ipp
qu es
Ġex ec
Ġkehr te
k raft
Ġso ur
ĠD azu
ĠReg ierungs
An y
h eb
z a
ĠM Ã¤dchen
9 4
b ef
ĠK ern
ab eth
ĠSt ock
ep age
Ġange geben
j ekte
p ath
Ġd ire
ĠT urm
ver t
ot al
pf lich
techn ik
wÃ¤r ts
P osition
tig te
Ġ5 00
Ġb em
Ġr ule
Ġben annt
7 2
ĠProdu kte
L egt
l eit
Ġentwick elte
Ġn immt
Ġh ab
ĠH ash
ag d
lie fert
bez irk
h el
âĢ ĺ
ver tr
rem ove
anad a
wissenschaft ler
un time
ĠE hr
ir g
Ġarb eiten
Ġj Ã¼d
Ġgr und
wÃ¼r dig
Ġzul etzt
' t
v ille
irec tory
S D
b s
ĠWei se
S el
ech net
ma ÃŁ
mittel t
Ġer mÃ¶glich
ĠVer m
Ġwir tschaft
ĠMus ic
Ġgleich zeitig
ĠDÃ¼sseld orf
st anz
Ġein f
Ġh ol
ond s
ĠRud olf
verwalt ung
ĠÃ¶ff entlichen
Ġtrad ition
A ss
Ð ¾
ann ot
Ġ193 5
ĠprÃ¤ sen
ishockey spieler
t a
Ġ19 18
la f
au ern
Ġp r
am in
gn ore
As ync
Ġkn app
ĠKl aus
ĠMÃ¼l ler
Amer ikaner
Ð °
w en
ommer ce
S ession
get Value
p ed
Ã¤n gt
7 3
G B
ĠJose f
Ġup date
g yp
ag te
ĠFl Ã¤che
g Ã¤nger
ĠS atz
Ġf ind
Ġ19 19
Ġh as
eb ug
imm el
Ġb ald
ĠF ehler
ĠJ ak
ce pt
c el
ĠK olle
Ġh alten
umen te
ĠzusÃ¤tz lich
rei ber
ĠMa schinen
west lich
n der
G ra
ĠP et
ĠOr d
D ep
Ġwen ige
Ġaktu elle
Ġverheira tet
Ġheira tete
ĠC up
Ġs b
ĠAuf gaben
gemein schaft
f unktion
ĠU p
Ġnot wend
etz en
Ġo ption
ĠGot tes
iz ation
ass el
rau cht
ĠG et
Ġp reuÃŁ
b ase
g arn
lo sen
Ġbef and
Ġ- >
haus es
ĠEm pf
ĠÃ¤l te
Ġblei ben
ĠAndre as
Ġwelt weit
st attung
ĠVer kauf
Ã¤dag og
n amen
r unde
u c
Ġver kauf
ĠG Ã¤
Ġo bj
ĠRel ig
6 8
Ġer setzt
ĠC ollection
ĠO ption
()) );
st Ã¤tte
N ames
y th
ĠT V
Ġ19 00
Ġbek ommen
stru ktion
at ter
Ã© r
Ġsof ort
ĠS uche
Ã¼r n
inde st
is D
ĠH igh
l Ã¤ufer
w urf
er in
Ġk rit
Ã¼l lt
ĠD isk
ĠK ab
Ġj ava
ĠChar akter
ĠNutz ung
ĠFinal e
ach ts
Ġp aar
icher ung
ĠFarb e
s es
t d
ĠB eim
Ġaus schlieÃŁlich
ian a
ĠGer icht
D O
ĠD ir
ig ungs
anstalt ungen
or gt
ĠH eidel
ist in
Ġ193 2
ĠFrei burg
ĠBest and
Ġl ine
7 4
g a
ĠK u
Ã¼r k
Ġzahl reichen
ĠWei hn
Ãĸ sterreich
an walt
Ġbr ingen
ĠEinwohn ern
k und
il es
ock en
lo c
6 9
st ate
ĠL eg
ic t
er ei
ĠgroÃŁ er
Ġ192 8
L ong
ĠK op
end ar
W Ã¼rttemberg
ĠG Ã¼ter
ĠH ir
un sch
ser e
et ern
le ger
ĠW etter
sp art
ĠMon ate
ĠGÃ¶ tt
i men
isch em
and lung
Ġre c
ĠRecord s
ĠAn der
Ġzw eit
Ġjed es
k r
get R
ent liche
ieren de
Al b
T R
ĠG esp
ĠAus gabe
ma x
ĠAut o
rep ublik
P oint
Ã¶l f
Ġdamal igen
T ask
i i
k ur
end orf
k ampf
Ġst Ã¤r
par e
Ġausge w
Ġpolit ischen
r el
at ik
ĠF ac
ire d
ĠEnt wick
Ġall gemein
ĠZeich en
Ġ3 2
wei te
Ġtr Ã¤gt
ĠAut om
! !
A c
B ahn
| }
ĠVor stand
kl asse
ĠGl Ã¼ck
ge legt
s dorf
P ort
Ġ ed
5 3
ĠD amen
Ġerschien en
Ġwer de
o y
ĠMus iker
Ġ192 9
ks am
ĠBild ung
Tra cing
ĠI V
all el
ĠW ild
Ġdef in
ĠLou is
Ġschw ed
ĠR ennen
ĠStr om
1 00
ĠB ig
atch er
ĠFot os
org ung
Ġlin ks
c ase
ĠG it
ĠAn schlieÃŁend
D I
ĠF ischer
Ġp osit
ĠTechn ik
ig i
ĠunterstÃ¼tz t
I L
ver fahren
kir chen
Ã¶rder t
ĠBÃ¼ cher
ĠM erk
ĠN ur
Ġgen ommen
Ġle bt
ĠFamilien name
. "
m ehr
ĠW ettbewerb
auf trag
ĠBez irks
ĠErgeb nisse
ĠR ob
ĠfrÃ¼ hen
Ġjeweil igen
herap ie
ĠS l
as er
stit ut
x y
an ische
ĠBr Ã¼
stÃ¤nd ige
By tes
Obj ekt
ĠZ uf
trib utes
Ġper f
ĠL ink
ĠSch les
ick t
PD F
ĠHerr schaft
Ġlog ger
ĠRo y
at rix
ĠTeil nehmer
mÃ¤ ler
6 3
N eu
ĠK er
ter t
ĠT om
ra te
ĠAn lage
in sel
Ġd est
z og
B C
Ġn utzen
6 2
ĠA v
E urop
ĠAn ge
o us
haf en
ro t
Ġ rei
ĠUnternehmen s
ĠB ab
ri ffen
ĠP aar
ĠL ager
ĠEin fluss
ĠW erner
Ġr ichtig
M ill
op s
Ġumf assen
ĠStÃ¤d te
ĠH und
bl att
() ))
ĠMa c
By te
h Ã¤user
Ġ1 000
Ġge prÃ¤
ĠF Ã¤l
ĠDan iel
Ġsour ce
Ġs ex
stell ten
sch ine
ĠS ant
ĠH elm
Ġf in
ĠSpr ach
f ace
W ie
m esser
p unkte
tr em
Im age
9 8
H ier
l ong
Ġb au
Ã¤hr t
ĠH oll
bau m
Ser ver
sp rÃ¼
T arget
ĠR iver
alif orn
ar tet
Ġw ohn
setz ungen
Ġgesam ten
5 4
Ġh Ã¤tte
cript or
ĠerÃ¶ff net
G er
serv ice
en sch
is c
il ler
I t
b ung
ĠS icht
au pt
ĠH off
Ġbr achte
ĠW es
eu cht
Ġver br
Ġdurch gefÃ¼hrt
Ġbede utet
aly se
k unde
ĠE U
Ġall ein
Ġregel mÃ¤ÃŁig
K ultur
ĠT schech
and o
sp ann
ĠKin dern
j o
Ġ text
ĠspÃ¤ter en
hil fe
O l
st Ã¤nde
ab ase
Ġun mittel
schau spieler
c up
ĠF ak
Val id
Ġ user
on ym
Ġex p
ĠP rÃ¼
ul en
ĠAn gaben
ĠZ ei
w echsel
Ġkl einer
Ġgel ten
tier ten
Ġbrit ischen
ĠSpez ial
z Ã¤hl
ĠV iz
ĠJ es
Ġk anad
uf e
ĠCharl es
k ra
ĠH art
eich ert
ĠVertr eter
Ġnieder lÃ¤nd
ie gen
st u
ĠM iss
Ġl angen
pf el
ĠVerwalt ung
Ċ Ċĉĉ
scha fter
eim ar
wÃ¼rdig keiten
ĠT hr
Ġl au
Ġer ror
ĠZ immer
5 1
P S
ĠW ehr
um p
Ġer forder
Service Response
Ġf unktion
ĠW agen
ĠDar stellung
ĠWebs eite
ĠSchm id
-------- --------
R uft
ĠArch iv
ĠDÃ© partement
ĠH y
Ġges etzt
ĠNatur schutz
ĠS ach
ĠMen sch
B oolean
rei he
Ġmus sten
ĠLeist ung
b is
9 2
ien en
erv let
h auer
ĠK up
ĠFÃ¼r st
aup ts
ĠStru ktur
g ruppen
Ġb ein
Ġm Ã¶
Ġbrit ischer
Ġ Ã¶stlich
ĠD ivision
ĠRef orm
Ġm ark
len burg
h agen
omm ern
eth oden
Ref erence
Ġgesch rieben
t lichen
Ġge fÃ¼hrt
Ġent scheiden
Ġre p
Ġbel ieb
B ase
C o
ĠG attung
ĊĠĠĠĠĠĠĠĠĠĠĠĠĠĠĠĠĠĠĠĠĠĠĠĠĠĠĠĠĠĠĠĠ ĠĠĠĠĠĠĠĠ
Ġd ich
Ġs od
Ã¼r gen
ad rat
ĠIn str
ĠVer fahren
Ġro w
ĠFest ival
Ã¼h len
Ġbeteil igt
Ġd unk
ĠG ust
wei le
Ġpolit ische
ĠMath emat
Ġerziel te
z ub
Ġver d
Ġa c
forder ungen
ĠDreh buch
ĠFried hof
Tracing Enabled
O ffset
r am
is Any
w al
Ċ ĠĊ
ĠV ic
ĠIn f
un e
ĠB lack
Ġre st
lau bt
n ehm
Ä ĩ
Ġd igit
Ã¼ ste
schl Ã¤
5 8
P olit
ĠN av
Ġbest e
ehens wÃ¼rdigkeiten
isAny TracingEnabled
ĠS onnen
ven tion
Ġg riech
Ber lin
Ã¶ nen
ĠDeutsch er
ĠPat ienten
spr ung
Ġwest lich
Ġangeb oten
Ã¼ m
ro ffen
itu ation
ĠPra xis
or der
ĠBr emen
ĠSicher heit
Ġexten ds
W Ã¤hrend
ĠF ernse
S ec
ĠN amens
K reis
f ort
ĠP fer
ĠH alle
ver se
ist ent
l Ã¤ss
Ä ģ
ĠL Ã¤ndern
ĠMet all
s ich
Ġ time
tr ieb
rei tet
ĠHand el
Ã¤s ser
ĠS ammlung
Ġw or
ĠL eicht
Ġl aut
ĠGr and
ĠZusammen hang
ĠSing le
mittel n
tier ung
ar g
ĠFahr zeug
Ġin form
Ġin tegr
Ġk or
ĠK omb
Ġtr agen
ĠBetrieb s
B est
ĠS amm
it ts
ĠE vent
ĠVorsitzen der
ĠM acht
is on
ti scher
Ã¤l lt
om et
Ġl eich
Ġs ize
ĠSpiel zeit
Ġ192 5
Ġreg ion
Ġfer tig
v o
ĠHaupt stadt
rid ge
A M
le hn
ic y
ti al
Ġer inn
Ġ192 7
Gemein de
UR L
p osition
Ġn ext
Ġt un
leg ung
Jahr hundert
Ġstatt f
K arriere
mit glied
cc ount
Ġk aufen
Ġver kauft
sh of
ĠEx per
wie sen
C ollection
ind ungen
ĠÃ¼bern ommen
Ġh aupts
M ethode
ĠB eck
Ġr ich
Ġkosten los
5 7
Ġ ag
Ġ3 00
ĠAus stellung
u de
Ġw ww
geh Ã¶
Ġehemal iger
E X
Z ur
amerikan ischen
wert ung
ver trag
all owed
ĠC an
I f
ĠB ra
ĠP ri
ha ber
5 2
C omm
k ret
ĠD igit
de f
pro gramm
ĠMo dern
N eben
re st
Ġentsp rech
ĠG Ã¼n
ĠFl or
Ġfol gt
B ean
Ã¼n dete
enz t
ĠIn ner
anz er
fol gen
Ġâ Ĥ¬
lin ik
un t
ĠS up
ĠP la
ri ge
Ġent st
Ġzun ehmen
p ossible
ĠF ritz
ĠT Ã¤tigkeit
ĠQu ellen
Typ es
wer ks
F ol
ĠR enn
Ġi de
ĠSp anien
iv il
Con tr
B l
D ir
ĠB ill
9 6
H ttp
Ã¤ ische
ĠA uff
Ġn um
ĠHeil igen
ĠArchite ktur
r ats
AT ION
ĠGegen satz
Loc al
Ġd ur
vers ammlung
bo gen
z us
ĠG ro
Ġerh eb
Ġverl assen
W riter
w issenschaften
ĠWer te
n ern
Â «
Ġz eig
ĠE ich
oh le
A pp
R ule
Ġver antwort
Ġdar an
ĠColle ge
ĠF arben
Ġan s
ie ts
ĠL ib
gang s
an ischer
ĠBau ern
Ġch ines
K E
ĠFot o
Ġbeleg te
Ġh ttp
ĠS at
ra w
ĠBo x
ĠLe on
Ġs k
il dete
ĠVer br
o sen
ĠE lem
Ġent lang
lav ier
h emal
Ċ ĠĠ
ĠM ik
Ã¶ der
Ġvoll stÃ¤ndig
ĠProblem e
p oint
st il
Ġg uten
Ġber eit
etail s
Ġs uchen
app ing
ĠS ec
ĠK ey
ĠN ummer
zeich nung
ĠverfÃ¼ gt
' )
ĠG re
ask et
Ġsol che
ĠAb st
res ource
Ġgleich nam
O P
ĠL os
Ġkl ar
ĠTrad ition
Ġc an
ĠSp Ã¤ter
** **
O b
ul ation
ĠO ffiz
age gen
ĠNational sozial
ĠBran denburg
ĠG ran
ĠG alerie
ok e
reu en
ĠVier tel
ĠHom epage
H T
Ð µ
ing le
vers ion
an geb
ĠU N
ur ity
ĠT agen
ĠLe e
b a
l uss
Ġver gleich
Ġ192 4
ĠStu denten
Ġsod ass
I P
Ġun abhÃ¤ng
Ġverm utlich
ĠM ul
Ġver lieÃŁ
iff er
ĠComp uter
Lo ader
Ġf irst
ĠEin fÃ¼hrung
Ġander er
sel ben
ĠPar am
I s
P reis
Ġunter st
ieh ungs
ĠFir men
ĠRuss land
Ð ¸
or ten
ĠD E
ĠK ammer
S G
Ġbesch rieben
Ġhaupts Ã¤chlich
ĠSch war
II I
g ing
ur a
Ġi tem
ĠPro zess
ĠLand schaft
alis ierung
9 1
Ġge bracht
ie fer
Ġh al
Ġge d
iel le
Ã¼n der
] ,
i ar
an i
Ã¤ ume
ĠH arr
ĠDar m
ib el
Ġwieder um
ĠÃĸ l
UL T
T er
R ad
Ġs ah
ĠMa inz
ĠBei trÃ¤ge
ĠHau t
h och
ĠT at
Ġver treten
Ġum fang
red it
print ln
Ġeng ag
Ġan zu
St ore
ĠHo use
d ar
ge d
ĊĠĠĠĠĠĠĠĠ ĠĠĠĠĠĠ
ĠSold aten
Ã¤n e
ĠerklÃ¤r t
9 7
S U
ĠD irektor
ĠI st
c lose
es h
ĠC ast
eil t
by te
ĠA ud
Ġo utput
ĠK lass
ĠR ek
Ġh ave
ĠN Ã¼rn
ĠAl fred
ge g
ĠB arb
Ġ4 00
ĠN orth
Ġst ieg
ĠFÃ¼hr ung
Verk ehr
b as
zeich nete
ĠHinter grund
Ġj unge
Ġeinz eln
Up date
Werk e
ĠG rie
20 17
ĠFran c
Ġrel ativ
zip lin
E l
on ik
Ġp art
sp ir
ĠSt ate
for men
ad a
ri a
own load
ĠChe f
Ġaut omat
N ieder
ur y
ĠK arten
Ġverl or
er er
ĠN ic
Ġwich tige
st echn
ĠK as
ĠO ff
ĠScien ce
R L
ĠJ ob
ot her
ĠBer eits
eck lenburg
Ġcon fig
Trace Component
ĠLand wirtschaft
Ġet c
ĠW issen
Ã¶r en
n ummer
ĠM Ã¤r
ĠH ab
ĠStr af
ĠNieder s
Ġhistor ischen
ĠS ign
ist isch
od or
a ster
d ouble
rei g
ver stÃ¤nd
ges p
Ġbestimm ten
ĠSoc iet
G et
o tion
sch m
at ung
Ġh ielt
Ġj ungen
gel assen
ĠArb eiter
Or g
iz ierte
ĠKl assen
TY PE
d as
k y
Ã ¢
ay out
er o
un ion
Ġer fahren
ĠNach richten
ĠH eute
ĠNeu e
ĠGroÃŁ en
ĠZust and
ĠM Ã¶
se x
S Ã¼d
ĠS ib
ĠTel ef
Ġs w
ĠW erb
ĠL ig
ĠL im
geb iete
ĠGr enz
ĠEl is
Ġsei en
Ġsogen annten
om ent
alis iert
g rad
Ġ1 20
ĠH on
tel l
Ġentsprech end
b rit
h te
Ġ19 12
ir ge
ĠRo sen
ĠS V
Ġl ok
b ul
f alse
ĠMa il
Ġgesch affen
Def ault
u gend
Ġ Î
Ġge bild
Ġar ch
Ġpar ent
ĠDem okrat
y pen
Å Ļ
get Class
ĠMittel alter
j or
ĠW ies
ĠJ SON
ot a
az in
Sp ec
; ;
g y
Ġzw Ã¶lf
ec ts
V AL
e den
ĠS ter
wind igkeit
d el
z ur
ĠM and
Ġg Ã¼nst
rie ster
ĠInter esse
ĠIde en
A dresse
und le
sp or
ĠSo uth
ĠJak ob
ank e
Ġm einer
ĠReg isseur
ĠGesp rÃ¤
ĠVor der
ĠGer hard
Ġ192 1
sub string
er te
ĠF in
Verein igte
¿ ½
Ã¼ hm
av en
Ġbet rieben
gew iesen
ĠC entr
ĠStim men
ĠK rank
Ġausge tragen
gew icht
ĠStand ort
L S
T echn
at o
Ġch ild
ĠTem peratur
ĠHeidel berg
b uild
ĠB il
ver lag
m p
v olle
ĠM ount
Ġbe an
Ġ192 6
Ġverl Ã¤uft
ĠBesch reibung
Ġ Ã¶
ĠS uch
Ġgew innen
d urch
Ġein gesch
ĠO pfer
ot o
Ġr ein
Par ser
m t
ĠRev olution
k osten
ĠV ide
Ġl ength
Ġlie fert
Ġweiter er
Ġqu ery
ĠHÃ¶ hen
Ġdi ent
Ġsch warz
st Ã¤r
ĠS C
gef Ã¤hr
G ruppe
Ġv Ã¶l
n ode
Ġc l
urn ier
Ġ193 1
asket ball
R em
Ġ} );
dr Ã¼ck
ĠĊĠĊ ĠĊ
ĠZentr al
Ġprom ov
M ode
Ġt ats
Ġo per
Ġun ten
fer enz
R eader
d essen
Ã¶ hne
ĠV om
.. ..
ĠBl ut
geb nisse
geb racht
Aus zeichnungen
Ã¶st lichen
Ġwichtig sten
l Ã¤nder
at is
al a
ĠSch ne
In valid
ĠmÃ¶ch ten
F unction
c omp
ĠSt atus
ĠY ou
B and
p os
ï ¿½
Ġw eg
ĠAb teilung
Ġle bte
esp ace
D ouble
ĠK lavier
br Ã¼cke
lei tet
au st
Ġst aat
ehr t
ohn er
Param eters
u id
ĠL ive
ĠAuf gabe
gemein den
Ġval id
ĠD ah
Ġer baut
Ġh Ã¤lt
med aille
ĠPap st
Ġin zwischen
la zz
wer te
ĠBl Ã¼ten
ĠHo hen
T V
Ġ ti
ĠS on
Ġg anzen
ep ar
ĠIs land
c as
Ġ19 10
ĠHau se
Ġarb eitet
gen er
st rÃ¤ger
men sion
ikan ische
ĠD ro
ĠW ach
Ġer l
ĠUn ited
ĠMann schaften
ĠObj ekte
Ġverlie hen
F C
Ġs agte
ed ia
Ã Ħ
Ġf uer
hei mer
M ark
f ur
Ġ19 13
Ġ* /
ĠChrist oph
Ġviel leicht
v ier
ĠSt ahl
erk unft
pr et
ĠdÃ¼r fen
in ar
Ġle bten
ĠAller dings
B undes
Client Exception
r ing
st Ã¤d
Ġw rite
ĠEin trag
ĠStr eit
ĠBew egung
ĠSti ftung
Ã ½
ĠA str
ĠSo ftware
Ġerst es
ash ington
ti st
reg ierung
ĠAc adem
an en
th ur
ichte ten
mar y
ĠPol y
Ġzerst Ã¶rt
e ar
Ġbest immt
ĠPf lege
fra gen
Val ues
ĠGeburt stag
equ ence
ĠSchw ester
Pro vider
deut schen
ach im
Ġtr an
ĠSchul en
ĠKap elle
leist ungen
ĠTran sport
( '
iter ator
Ġdar in
B is
h or
r is
Ġ{ }
ud es
ĠDat ei
Bau werk
H L
c i
Ġtr e
Ã¼hr ung
le d
ber n
il ian
ent al
Ġt op
Qu ellen
klÃ¤r ung
Option s
st ern
20 16
ĠKomm ent
Ġm ag
Ġl ast
qu ar
ne ur
Ġpro perty
Un it
er be
Ġp ort
schul en
Aut or
T P
ĠG lock
ck s
Ġver fÃ¼g
St adt
ĠAut oren
ĠLu x
Ġein st
ĠU ser
Ã¼l len
ĠÃĦ nder
ĠK ritik
ĠG all
h i
ĠM em
Ġsetz en
Ġentspr icht
R ec
ĠL ieb
ist ry
Ġbe endete
20 15
ant as
Ã¤nd ler
ĠR ichter
ken nen
z iehen
ch em
ĠM as
par ator
ĠMat th
ĠE du
id a
ĠAuf bau
ĠGew inn
b i
w es
B esch
u age
u til
ĠL ok
ĠV is
ad o
Ġwahr scheinlich
Ã¤nd ig
Ġitalien ischer
ĠS PD
Ġs e
ĠOrg anis
E hemal
hr e
Ġaus ger
Ġ< =
ĠSte fan
we der
ĠBesuch er
L ock
ĊĠĠĠĠĠĠĠĠ ĠĠĠĠ
Ġd re
ĠVer teid
Ċĉ ĠĠĠ
ĠUr s
ĠDar Ã¼ber
Ġeurop Ã¤ischen
g ern
Ġb uilder
ach tet
Ġ192 2
20 14
ĠIhr em
Ġheu tige
Ġbr eit
Ã¼ cht
ad el
Nach dem
ĠGel Ã¤nde
Input Stream
ĠT ore
tr ans
stoff e
S k
Ã¤ den
Ġun bek
Ġent deckt
ĠsÃ¼d lichen
fan ter
st ift
ĠZ eiten
Ġc olumn
Ġeinge stellt
ĠBeruf s
F irst
ĠW unsch
ĠAn teil
ĠEurop Ã¤ischen
minister ium
G ER
S P
Ġvor bei
ĠS dk
um pf
rech te
B ound
Ċ ĊĠĠĠĠĠĠĠĠĠĠĠĠĠĠĠĠĠĠĠ
ĠB row
Ġb uffer
ĠOr te
Ã© s
ĠBr em
AT E
er es
ĠS n
Ġin itial
ĠV ort
Or der
Ġversuch t
n ant
de st
ĠE g
ĠAl pen
ĠKar te
ĠString Builder
gent in
č ĊĠĠĠĠĠĠĠĠĠĠĠĠĠĠĠĠĠĠĠ
ĠMon at
c r
k ow
ĠT enn
ĠJ os
Ġgew onnen
Ġaus geb
Ġir gend
Ġw ider
ĠW eimar
ĠgehÃ¶r ten
m ethod
w an
ĠP au
ĠR ec
ĠÃ¼ber wiegend
19 45
gew Ã¶hn
mÃ¶ gen
ĠA sp
ĠMeister schaft
it ur
ĠPerson al
Ġunmittel bar
k opf
ĠW eil
ĠL y
ĠJu den
ĠÃĸff entlich
Ġhel fen
or et
or weg
ĠE ck
ue ber
ev ent
ennt nis
H istor
ĠB art
ĠAuf stieg
z ern
Ġ use
ĠB oolean
enn fahrer
ĠAd olf
ĠÃĦ r
fr ist
ĠSdk ClientException
c ed
d t
lie fer
pl y
sh eim
sie he
ĠKonz ert
v an
Ġst ets
leist ung
Call back
n etz
te ten
ĠT ype
lin ien
ĠSer ver
Ġle gte
Ġwen igen
ĠauÃŁer halb
ĠPres se
ĠBrie f
Ġd ep
ĠI f
ĠO x
ed ig
gr Ã¶ÃŁ
ĠGra fen
t eile
ĠÃľ berg
Ġver pflich
tig es
ĠH aar
ĠIn vest
rie be
gesch oss
T op
ei ben
ĠD Ã¶r
ĠW issenschaften
ik ations
ack en
Ġ192 3
rik t
Param s
ĠermÃ¶glich t
ĠP rom
ĠAn wendung
glie dern
Ġur l
el ement
ĠB u
ĠâĢ ļ
rÃ¤ f
r and
ĠM un
Ġ3 6
Par ent
Ġdarauf hin
ĠFer din
Ġd ritte
ĠL i
ard s
ĠKarl s
S e
ĠK enn
Ġunterschied lichen
m ission
n ess
anz e
ĠRech te
fass ungs
Ã¤ her
ĠM ach
Ġausge stat
s Ã¤tz
ĠOr dens
ock et
Z eit
ĠS S
Ġs ynchron
ick e
List e
Ġfol gten
ĠLeist ungen
z ahlen
au d
ĠD Ã¤n
Ġo ffset
Ġsch war
20 10
ĠBez ug
I M
ten d
Ġsch lech
ĠSin ne
ĠK iel
ĠW affen
Ġge halten
Sch wei
Ġd ec
et work
Ġb itte
tr at
ĠC re
Ġver p
ĠWider stand
ĠSociet y
ĠD ichter
ul ts
Ġbet rug
ĠMet ern
ĠMÃ¶glich keiten
D P
I gnore
m at
Ã¶ ss
ab les
Str a
omin iert
S yn
b orn
p hen
ĠS ar
Ġf ilter
Ã¼tz t
ĠAll gemein
Z um
k lass
sch uhe
ar tige
ĠR ath
ed t
gangen en
ĠIde e
ĠI P
ht t
ĠLie fer
ĠSti ft
ĠhÃ¶ch sten
N O
Ġg alt
ĠZ en
Ã¤hn ung
ĠGÃ¶tt ingen
g Ã¤nge
Ġ ;
Ġw issen
ess el
ĠGrund lage
brit ann
D oc
Ġd agegen
ĠG rad
eit ag
ĠHand els
m acht
ĠB rau
Ġh eil
Ġp sych
ontin ue
Weiter e
as p
is ierte
Ä ±
al ys
Ġm atch
ĠF isch
Ġdar gestellt
wo od
st ad
ĠK ult
sb ach
ĠwÃ¼r den
G roÃŁ
ĠSied lung
z ul
Ġz eich
Ã¼r f
ĠSch riften
sp er
I G
g Ã¼l
Ġt able
ieh ungen
ĠjÃ¼n ger
ĠElis abeth
T im
ĠK urt
ĠEr de
weg s
ĠjÃ¤hr lich
ĠErfahr ungen
Ġ ter
Ġw uchs
Ġge gebenen
bo x
isD ebug
Ã ¥
ĠAr zt
ied lung
Ġbesonder e
Ġb lock
ĠV an
iel len
Ġgen annten
ĠSchw eden
denk mÃ¤ler
ĠL oc
ĠN a
Ġauf gerufen
Mus ik
Ä ĥ
us ion
20 12
Ġ15 0
c ol
it le
ro und
ĠSonn tag
T hread
r Ã¼ck
Ġm ilitÃ¤r
ĠÂ §
oper ation
Ĩ Ĵ
st Ã¤tten
ĠSie ger
ĠMen ge
C ontainer
c er
ĠR is
ut or
Ġp riv
echs eln
Che ck
V ER
Ġwir kte
ĠTurn ier
sch auer
ĠP orn
ĠT isch
Ġ19 11
ĠAut ob
ĠIntern al
ĠMor gen
ĠTÃ¼r k
ĠEntscheid ung
Ġo ff
Ġges ehen
ĠLauf e
ĠAng riff
ĠGust av
F r
ĠP eters
ĠEr inner
ech te
arb urg
Ã¼t te
ĠTeam s
ĠErz bischof
ĠVo gel
ĠÃ ī
Ġdeutsch sprach
Ġar gument
Ġentsprechen den
ĠP unkten
ĠW ashington
ĠT her
ĠO ut
Ã¼l l
Ġgef Ã¤hr
ĠDaten bank
ĠArchite kt
P RO
h len
ĠBild ungs
d or
Ġder zeit
ĠTh Ã¼r
ar io
ge fÃ¼
arch iv
i Äĩ
ĠT ar
Ġher r
deck en
ĠHein z
s ein
ĠM ur
ĠIn iti
ak er
Ġander s
ĠThe ologe
Ġbek annten
T O
Ã¼ mer
Ġw under
zu stellen
bild ungs
ĠgrÃ¶ÃŁ ere
ĠSchn itt
O ut
amer ika
ĠWei ÃŁ
Oper ation
F rank
ĠR eb
Ġmittel s
k tiv
leg te
U M
if ied
kon om
čĊ čĊĠĠĠĠĠĠĠ
ĠRest au
< >();
R A
f abrik
ĠP a
Ġob wohl
ĠB lock
alis mus
dien ste
ĠFrÃ¼h jahr
ĠBraun sch
Ġw id
ten sion
ap ter
ust om
af rika
ĠHaup tr
Ġh il
Ġbet re
ĠC at
ĠAus s
20 13
ĠWir kung
Ġhoch wer
exik on
ĠW echsel
ĠV il
ert ung
Alb um
ĠK a
St ack
Ġval ues
Ġkur ze
West falen
oci ation
st ream
ĠH ard
Ġg roup
Ġ eb
Ġs icht
ĠG ru
Ġl etzt
ĠUn ternehmer
Ġbek omm
ĠgrÃ¶ÃŁ eren
ĠStel len
Ġm sg
ĠW appen
ĠT iere
In d
end s
5 00
m ung
n ational
t ml
get Type
gr enze
Ã© n
ĠInform ation
ĠGo ogle
k rÃ¤fte
tr Ã¤t
Ġar gs
ĠKÃ¶nig s
ch mal
it hm
Ġge z
ĠVer halten
ĠStra ÃŁ
glieder t
ĠVer lauf
lie der
ĠHen ry
Ġz Ã¤hlt
ĠEn gel
orden s
Exec ution
ĠFak ult
H ash
K urz
em pl
ĠZ ahn
tig ten
ĠVerb and
Ġmus ikal
ĠKn oten
g ab
Ġerw arb
r aten
ol er
Ġcon tent
ĠG rÃ¤
ĠP ubl
Ġgesp ielt
Ġfin ally
ĠVor gÃ¤nger
ĠBas el
A ug
R ow
w ander
sp ar
Ġex ception
Ġf e
Ġf lieÃŁ
up pen
ick s
ĠMa ster
ĠHer steller
Ġverw enden
ĠSicher heits
W ei
ĠH ttp
ĠC oun
Ġproduz iert
ĠPhilosoph ie
ĠD ate
em ark
Ġm ust
Ġpar se
âĢ¦ ]
ĠG olden
ĠAb schnitt
io us
bo ten
b ad
Ġab geschlossen
ĠOr tschaft
rich ter
ĠFlug hafen
Ġwest lichen
ĠV arian
Ġbek am
ĠgeprÃ¤ gt
ist enz
Ã¶r den
ĠBeh andlung
H ost
ar ischen
Ġc ode
Ġher gestellt
ĠRoy al
et ch
Ġan erk
Ã¶r ung
Ġstar tete
ĠAus druck
UR I
ĠR ost
ĠIn tegr
gel d
v a
re form
Ġmax imal
ĠAustr alien
w in
ar zt
200 8
Ġwei b
j ava
k Ã¼nf
Ġc lient
Ã¶r de
Ġent stehen
Ġge mÃ¤ÃŁ
Ġsch eint
ĠDeutschland s
Ġz Ã¤hlen
++ ;
ĠS or
ĠG roup
ĠBern hard
Ġkompl ett
Ġverantwort lich
D B
k g
En um
ĠRe al
Ġeinge fÃ¼hrt
o ugh
ĠMa y
] );
ĠE reig
Ġmehr fach
Ġk Ã¼nstler
ÃŃ n
p end
Ġm einen
ĠInter view
Ġrem ove
R ecord
T I
W arn
ar re
Ġk ultur
ard inal
Ch annel
ĠTro tz
leid ung
britann ien
D en
R ead
r t
Ġd Ã¤n
ĠF ass
Ġzu gleich
ĠIn halt
ĠJahr zehn
ĠSp ann
ĠFor men
Ol ymp
vor sitzen
prÃ¤ sen
b aden
c ar
Ñ Ģ
Ġ ass
in ce
sch loss
ĠR ing
ĠRes erv
ĠLeist ungs
ĠGeh eim
ĠSow jet
O p
ĠH afen
Ġweiter es
D igit
Ġ( ,
ĠC r
ul es
ip s
ĠWohn ung
ĠUl rich
ĠSalz burg
ĠA re
Ġ( "
pro chen
k ultur
in ess
st ation
ĠB ist
Ġin tens
ĠR ezep
Ġl ock
ĠAuf nahme
Ġloc al
l Ã¤uf
sch te
ĠK och
get eilt
Ġunterst Ã¼tzen
B ild
k rieges
ĠB ir
Ġer gÃ¤n
Ġl eitete
ehr en
Ġsp ec
ĠMar c
ĠD rit
rei f
ĠSt off
ĠVer Ã¤nder
ac ter
az on
Ġkann st
fel der
F uture
ĠD ien
ĠEr b
olum b
Ġamer ikanischen
el and
Ġer kennen
ic ro
ĠIn gen
teil en
Ġausgestat tet
Ġs ec
ĠNetz werk
N um
u z
Ġg ra
ĠUn garn
ĠFl Ã¼gel
trÃ¤ ger
Hel per
f ilter
ĠL ad
Ġersch eint
ĠSommer spiele
Ã¤us ern
B A
L in
ĠMar ie
zug s
ĠLin ien
Ġerweiter t
ĠW a
ist e
Ġl Ã¶
ĠTod es
Ġengl ischen
f amilie
m ir
Ġbest Ã¤
Ã¶s ungen
Ch ange
ĠArchite kten
oot ball
lob al
D ist
un c
ĠL ieder
Ġan ges
omm un
Ġhin gegen
g roup
m ord
ĠS ur
au ff
mer ksam
Ġ6 5
Ġlin ken
ĠFerdin and
c od
ĠAl tern
Ã¶ff nung
200 9
ĠSchau spiel
ĠBy te
F ound
n s
ĠT Ã¼b
il en
Ġt Ã¼rk
tr ack
Ġp rivate
ĠUr laub
Ġbrit ische
p ass
ĠM ission
sp iegel
ot ten
ĠAuf grund
ĠBr asil
ĠT ir
Ġre duz
ĠAb t
ĠJournal ist
N on
et ing
pl Ã¤tze
Ġat tr
V D
ĠE ss
ĠZ eu
Ġp lan
Ġj em
att form
L OG
u ell
w Ã¤l
ĠK ing
Ġbe ob
stell ungs
Ġbr ingt
fra struktur
gr aben
Ã© e
Ġges etz
ĠHam burger
fur ter
D isk
P O
an isch
uch ten
ĠGew icht
ĠM ecklenburg
ĠÃ¼ber ra
ĠCar ol
omb in
ĠFer ien
ĠrÃ¶m isch
Iter ator
N r
Ã ´
ĠT ime
ĠL Ã¶sung
mit h
Ã¤hl ten
Ġ190 8
ĠÃ¤hn lich
an er
ver treten
Ġa v
ĠBes atz
W ork
m ack
Ġm ass
ĠK assel
ĠG ir
Ġau str
onn e
Ã¨ re
P AR
ĠBron z
Ignore Case
o ÃŁ
Ġge eignet
Ġp erson
Ġle er
ett ings
ĠĠĠĠĉ ĠĠĠ
A uth
un ehmen
st he
ĠH Ã¤user
ak et
D ocument
den ken
Ã¼r en
ĠKomm ission
mÃ¶glich keiten
gem eine
au x
Ġs agen
ĠK os
Ġge zeigt
Ġpro cess
por ted
ĠGesund heits
k unst
ĠBr Ã¼cke
org anisation
H E
ei sch
is Entry
ul gar
rei ter
ĠSh ow
ĠArch Ã¤
Ġinternational e
ĠÃ¶sterreich ischen
ĠFig ur
t arget
Ð ½
ĠO k
ĠBl og
mÃ¶ glichen
ei fen
ĠL aut
ĠC O
ĠVer d
af el
gest altung
isEntry Enabled
ĠS eb
Ġs agt
ob ile
ĠZw eit
ĠMos kau
G ew
v ir
ĠM ak
ess ages
Ġstr ing
stu hl
el se
ĠK ron
ber eitung
20 11
bÃ¼ cher
ier re
ĠPro te
ĠMon aten
ĠFre unde
Loc ation
J uni
Ġent weder
Er baut
200 7
stÃ¤nd igen
I OException
J o
ĠD ank
ig r
ĠTex te
ĠFe der
Ġn eg
ĠE ber
ĠZ ul
ag ne
ĠMan agement
Ġ190 6
ĠOb serv
N ord
c essor
Ġ3 3
con text
T eam
W idth
ĠBl att
ĠKommun ikation
oin ts
re fer
Al le
ĠbeschÃ¤f tigt
M en
h men
ĠD ev
Ġg ingen
Ġl os
amil ien
Ġ19 17
ist an
Ġsogen annte
o ks
ĠVer anstaltungen
ĠÃ¼ber tragen
ĠEin ige
ĠBÃ¼ ro
ĠHistor iker
Ġmoder nen
J son
P os
Ġ Ã¶ffentlich
son sten
Ã¤h ler
ĠNÃ¼rn berg
ĠvÃ¶l lig
ĠS ituation
Ġw ert
ĠH immel
Ġzu erst
ĠWir k
200 6
ĠĊĊ ĠĊ
L abel
Ġan ti
Ġ190 5
Ġweit gehend
D em
j en
w ischen
Ġm ensch
Ġf ound
ĠW M
ĠW ohl
Ã¶r ter
ĠDeb Ã¼t
at in
ĠL eit
ĠJ Ã¼rgen
Ġl en
ri b
aus stellung
ĠAl lt
th eit
is en
ck t
ĠGrÃ¼n den
i h
as on
om a
Ġunter such
ĠErfahr ung
Ã £
ĠB an
ĠP riester
end a
rie d
mer kungen
tern al
hÃ¶ he
. ),
Ã¤ umen
Ġf ac
ech ts
ĠRef er
Ġbestimm te
FA ULT
Ã ±
ie den
ĠK rim
rÃ¤ ume
bez ogen
meld ung
er weise
Ġd or
st euer
ĠB ol
Ġb lau
Ġer stellt
ra gen
bahn hof
produ ktion
Met adata
ĠWeihn achts
y e
at oren
Ġf ehlen
ind ing
Ġitalien ischen
Ġs ystem
ĠB reite
elt a
ĠUnter richt
ĠFÃ¼r sten
ĠWind ows
ĠGeist licher
Ġn am
Ġh eim
Ã¤n en
ĠTeil en
ĠEurop ameister
rech er
Ġbel egt
ĠSchmid t
m ut
is co
ist s
Ġsow jet
Ver Ã¶ffentlich
ĠMin er
Wir tschaft
ĠIns gesamt
rap per
Ġ Ä
ĠF al
op old
ĠHer bert
off iz
Ġmittler weile
z one
ĠG as
ĠE ro
og n
ĠfrÃ¼her en
ĠFeuer wehr
ĠElem ente
B ox
D el
ĠH it
Ġ3 4
Ġsel ber
ĠFor st
ĠEhe frau
M atch
ss ystem
ĠLeicht athlet
g u
ĠG eg
Ġre qu
mal er
Ġber Ã¼hm
ĠStud io
ĠIl l
Ġgleichnam igen
ĠB a
Ġent gegen
lan de
ĠEd ition
ĠAcadem y
isDebug Enabled
i ode
Ġk einer
Ġ3 8
ĠNord osten
ĠnÃ¶rd lichen
gra f
ĠB ibliothek
ĠD ouble
ĠE st
ĠSch lieÃŁ
Ġ190 9
m aterial
n icht
Ġs ech
ĠBundes liga
ĠÃ¼b rigen
- )
k omp
m Ã¼hle
z ell
Ġn utz
ff e
ug in
ĠJur ist
l or
w ach
ĠMar ine
Ã¼nd ungs
ĠHoch schullehrer
ĠC a
ĠSch ritt
ob j
Ġeinz ig
c ast
st ab
ar kt
ĠB ett
Ġb ildete
om ain
Ġl eider
ĠEr satz
pf lege
Ġro ot
Ġrech ten
f rom
Ã¤ st
ĠT anz
ĠN ode
ĠJ agd
ul pt
Ġp os
wei ht
id d
U ID
Ġlie f
Ġ190 7
ĠFunktion en
f on
p olit
ĠL or
iel l
ill on
m atch
ĠS end
Ġs ession
> ,
F unktion
Å «
Ġge kommen
ĠSp iegel
ĠKÃ¼ che
ĠWeltkrieg s
Des criptor
st eiger
An notation
Ġwes entlich
ĠGesund heit
et ts
ĠD auer
se ud
ĠAn frage
oren z
ren nen
p o
Ġ old
Ġd ein
ĠE ff
ĠSo und
st Ã¼cke
ĠW ett
kathol ischer
k arten
ol s
ĠH orn
Ã¶ se
ĠC lau
ĠBild hauer
untime Exception
p aar
ĠMax im
D S
S ti
ĠG reen
ir che
ĠIn dex
ĠÃ¼ber haupt
ĠÃ Ĺ
man agement
ĠZug ang
ĠNieders achsen
p a
ĠM ir
Ġn amens
ĠT rau
ell o
In s
Ã¤chs ischen
Ġn umber
ĠTeil nahme
Ġverst Ã¤r
z in
ur es
ĠKon fl
wer den
ĠFilm s
ĠFakult Ã¤t
Ġc ount
ĠChem ie
ĠNik ol
ĠGÃ¤ ste
B utton
s or
ĠD ata
sp ek
Ġr Ã¼ck
ĠNeu en
z ust
ĠS erv
ĠB ass
Ġd auer
Ġm Ã¤nn
ĠH ill
ĠV iele
ord s
Ġkomm un
ĠS ab
Ġg o
ĠEr weiter
arr en
Ġverb reitet
value Of
Ġgebild et
d ach
eg al
ser ver
ĠPart y
Ġ[ âĢ¦]
Ġend gÃ¼l
ĠDarm stadt
up date
ĠGest altung
ĠComm un
P attern
d f
ie fe
Ġt schech
ian o
ĠRhein land
It alien
B ar
ĠS ig
Ġf reuen
arb e
ĠHe ft
ĠnÃ¤ch ste
Ġform at
Ġeinger ichtet
p pen
st eine
ĠN eum
ĠVer hÃ¤ltnis
ĠÃ¼ber geben
ĠFranz Ã¶s
ar ray
Ġf Ã¤llt
Ã¤l de
ersÃ¶n lichkeiten
Ġprof ession
R o
in ander
ĠG ang
ĠV illa
ab teilung
sp ur
war n
ĠFahr zeuge
alb um
Kl asse
iw od
heb ung
) {
z iger
Ġst anden
iz ieren
hrow able
ĠGroÃŁ britannien
Ġzeig te
g au
h orn
ĠK e
iz enz
Ġbeg onnen
ĠRei hen
reg ion
ĠEben e
ĠBraunsch weig
b ahnen
ĠB ob
ĠM ol
ĠL en
ex ec
Ġbeein fl
E Class
ar ische
ĠSÃ¼d westen
ur l
ĠSch laf
ĠBei de
ĠQu er
bl Ã¤tter
ĠSchl uss
osit ory
ĠFil me
part ner
lÃ¤ss lich
t op
or age
fÃ¼hr en
z Ã¼ge
ĠI N
av or
The ater
ĠPort ug
ĠD ialog
ĠI T
auf hin
Ġletz ter
ĠStel lung
ĠVerÃ¶ffentlich ung
p ft
ĠK anada
ger s
wend ungen
ĠRe aktion
ĠCo ok
un a
th or
Ġunterschied liche
AB LE
ĠQualif ikation
j i
in zen
ĠS ir
ĠEin heit
Ġdah in
2 000
M o
ĠR au
Ġver kehr
Ġb i
ĠI ter
ĠGesch ichten
ma schinen
Ġnah men
ĠRegion al
Ġober en
ĠPreuÃŁ en
ĠAutom obil
ol ogen
ĠTÃ¼b ingen
ĠN ahr
ĠStr ecken
ĠOrg an
ĠQu elle
ĠAngel es
b ro
ĠW Ã¤r
ĠFernse hen
w itz
Ã º
č Ċĉĉĉĉ
ĠNeu bau
ĠMÃ¼n ch
Polit iker
D ollar
ik on
ĠZ us
all er
lie genden
ĠKl ima
Un ternehmen
ĠBundes republik
ĠLin ks
ĠK ath
est amp
Ġver sion
ĠSch r
ss on
200 5
ĠErz Ã¤hl
Ġum ben
ĠVor aus
ĠDurch messer
haf te
Ġop ti
v ar
ĠSch on
Ġfor der
ĠNord rhein
Group Name
ĠParam eter
Ġ ueber
Ġs org
ĠIn halte
im ple
ĠSp aÃŁ
ĠEn gl
ĠAus land
Ġ7 5
Sch riften
Ġr en
ĠFr em
ĠĠĠĠĠĠ ĉĉĉĉ
Besch reibung
p olitik
en gl
it ies
ru he
Ġre f
n um
ĠV ik
Ġber uf
tag s
hol t
ĠS um
Ġj ob
lei s
Ġersch einen
k op
ĠF le
ic ago
ite ktur
ĠNord westen
equals IgnoreCase
h aben
ĠF ein
and a
ap pe
ouver neur
n y
Ġk Ã¤mpf
IN E
Ġtre ffen
P ass
Ä Ľ
et on
ĠM ethoden
ri an
geord neter
E ishockeyspieler
Ġtr itt
St ud
Ġch rist
Ġexist iert
ĠH ub
ĠVer antwort
int on
Ġf eier
ind ustrie
ĠEin richtung
ĠMod el
Ġaktu ell
Ġw eist
Ġt ief
ĠIn fanter
ĠInter essen
Ġro t
L ast
g ibt
k om
ĠD adurch
ĠL am
ĠPfarr kirche
t ur
Ġd isk
Ġv is
Ġp osition
fl Ã¼gel
Ġar ray
Output Stream
Tem plate
c en
w uchs
st eigen
Ġen dete
Ã¼ g
Ġl esen
ĠW egen
ĠN un
ĠVer anstaltung
sk y
En g
ĠgroÃŁ es
bie ter
ĠRath aus
S ervlet
Ġber ufen
ĠJo achim
ĠBereich en
ĠWe ge
ĠhÃ¶ch ste
d b
Ġver wand
Ġl ern
Ġab gerufen
gesch rieben
ĠKap it
ĠPfarr er
Ġaustr al
C ommand
Ġm et
ĠP u
ĠP red
Ġp ost
Ã¤m lich
B i
H eight
ĠR ap
aus schuss
setz te
ĠFÃ¶rder ung
u it
ro at
eu ten
Ġvor gesehen
b oolean
k urr
ĠA R
ĠD eck
Ã¶ t
Ã¼t ze
fer tigt
ikan ischer
ĠEng agement
ĠSchwer punkt
ĠS ym
ĠF Ã¼nf
Ġ19 15
Ġbet roffen
Ġentsprechen de
Ñ ģ
č ĊĠĠĠĠĠĠĠĠĠĠĠĠĠĠĠĠĠĠĠĠĠĠĠ
ĠK andid
Ã¶ die
ĠC enter
Ã¤hr ung
Er ster
ĠDaten schutz
ĠEm il
ĠRÃ¼ck en
Ad d
AG E
Welt meisterschaft
ĠBayer ischen
ĠS inn
ĠR oll
ik o
ĠFl Ã¼cht
Ġerst reck
W il
c ount
er ben
Ġer laubt
ĠN am
ĠSÃ¼d osten
Ġben utzt
isp lay
M atrix
ĠVic tor
B ody
Ġin n
akt or
ĠK rieges
ab elle
ig ner
20 19
ĠMar ken
(" \
ĠGeb ur
t x
Ġs ign
gen Ã¶ss
ĠMag de
ĠInternational en
prÃ¼ ft
ĠHash Map
Ġsynchron ized
" ));
l s
s em
s ource
ĠD ol
ĠM auer
ov a
Ġtats Ã¤chlich
p erson
Ġsp rach
ĠThe odor
ĠJac ob
Ã¼ glich
ĠKon zept
ĠHand buch
ĠFrie den
ĠProf il
sicht lich
ĠComp any
V is
o e
ĠA st
ĠW Ã¼rttemberg
ĠR aj
iel en
ment s
b ilder
ĠG lauben
Ġver sehen
Ġst ream
Ġ190 4
alis at
aff el
ĠWo iwod
ĠB ord
ĠSchiff e
geord net
klus ive
ĠL ine
obil ien
am at
ĠP ok
ĠT au
Ġger ing
sw ahl
ol t
ann ter
ow ski
ges sen
p ack
Ġ one
ir d
ĠU RL
igen t
ĠfÃ¼hr ten
ho uld
on ien
Ġs up
Ġf al
ĠL iv
ER R
ĠÃľber setzung
Ġkur zen
ip pe
Ġerh ielten
E hr
ie fen
ĠW aren
scha ffen
Ġ3 9
ĊĠĠĠĠĠĠĠĠĠĠĠĠĠĠĠĠ Ġ
Ġâ ĨĴ
ĠSib Tr
P T
y t
ĠE ind
ĠSt ation
ĠOper ation
V P
ol z
ĠW Ã¼rz
ĠT Ã¶ch
age d
Ġange legt
Ġ190 3
ĠFr ont
ĠRÃ¼ck kehr
ĠEr f
lie s
ĠPro z
ĠZu schauer
Ġver h
Ġ3 7
ĠAd el
ĠZei traum
Ġzwei mal
ĠbenÃ¶ tigt
L age
d irektor
if ft
ite inander
Ġpar ams
hand lungen
Ġdien en
al tete
Ã¼ pf
ell schaften
he ute
bau er
ĠLe opold
r esponse
ohn t
Ġschw ier
ĠDah er
z wei
get Key
ĠJuli us
b aus
Ġ q
al ia
ĠV iol
ĠAd els
ĠMed ia
ĠV aters
ĠBet eil
Ġruss ischen
ĠP rag
ont o
ĠBez iehungen
ĠÃĸffentlich keit
w riter
ĠP ath
Ġf ahren
ĠT ief
pl atte
St yle
Ġunterschied lich
ĠMaÃŁ nahmen
ei ert
tr oll
Ġp ubl
ĠUn abhÃ¤ng
ĠBet reu
fÃ¤l le
spl atz
Ġgemeins amen
ti z
ber ech
op tion
lie d
uss ion
B ack
F ran
V ariable
g g
Ã¤n ner
reu de
Ġbesonder en
ĠAss ociation
ped ition
P ool
t au
Ġf loat
ĠH ockey
ĠL iter
ĠO ffen
ĠZ ahlen
Ġzum indest
Ġ4 2
ĠCD U
exik o
mitt lung
ĠBenutz er
ĠWies baden
Aug ust
Å ¾
Ġn Ã¤mlich
enn e
wir kungen
deut sche
ĠBahn strecke
htt p
Ġs amm
Ġan hand
ex p
Ġreg ul
sum er
Ġeinzeln e
G en
p ers
ĠOr den
ard o
B evÃ¶lker
k ammer
on ischen
ĠM ethod
Ġp op
u elle
ĠB ade
iz iner
ĠAb itur
ograph ische
cl ub
k ern
p ost
ĠD ampf
ĠH erkunft
ĠN omin
ĠKl im
Un able
Ġgepl ant
N ON
S A
S egment
ak a
fÃ¼hr ten
i tem
v ed
ch est
al m
ĠM und
ĠM Ã¶n
ĠL ove
ĠR icht
s ur
ann en
ell i
ial e
ĠHer stellung
alen der
sert ation
Ġmed izin
kret Ã¤r
n ers
ĠT ok
Ġsch reiben
ĠAm ate
so ap
icher ungs
ĠFlug zeug
ĠIns eln
Met a
cle ar
======== ========
tr o
Ġauf gelÃ¶st
ĠU fer
Ġon ly
Ġ186 0
Ġv ierten
Ġb ar
Ġh eader
pf licht
Ġ4 8
ĠM isch
se qu
Ġsp richt
Ġbes itzen
Ġmein em
Ġexec ute
Ġn orweg
ig keits
ĠAn h
ĠEr l
ĠThe orie
ĠPrem ier
ĠTrain ing
ĠKomb ination
Ġs hould
Ġh alb
ĠAuf ent
anz ig
ĠBew ohner
Ġor iginal
r ang
ĠF inn
ĠZ erst
ĠOber st
ĠRei sen
akte ur
L iter
M A
Ġs ucht
ĠM obil
ĠR ab
ĠThe ologie
ekt ar
Ġ189 9
bew egung
scheid et
Inter face
ĠSam stag
F inal
ĠB asketball
ĠL abel
il ien
op en
ĠX ML
A uÃŁ
P olitik
ol ver
ĠSch ei
Ġc onnection
Ġ190 2
ĠmÃ¶glich st
ĠPap ier
ĠPublik um
k in
t Ã¼mer
ĠP reise
ĠN och
Ġab geb
asser t
Ġne ed
ĠFernseh serie
Ġun er
ks h
ĠOr chester
ĠQu adrat
Ã¶rder ung
ĠFig uren
steh ung
ĠJ ed
ĠC ode
ennt nisse
ĠLauf bahn
ach bar
Ġ190 1
ĠInstit ute
Ġreich t
ĠS Ã¶hne
ĠK aff
ĠV it
ad or
ran ge
Ġtr ug
gr enzen
ĠSchl Ã¼ssel
Ap plication
Ã£ o
ĠK urs
Ġer mÃ¶glichen
ĠN ah
ĠJ on
Ġpro perties
Reg ion
Ã¶ ÃŁen
Ġt au
Ġp ri
ĠCh icago
ĠFÃ¤l len
D aten
k u
ĠS av
Ġm el
Ġst Ã¤d
ip ps
urop a
ĠWeiter en
ĠBen ed
Ġser ver
z um
ĠS us
ĠP anzer
ĠR od
her zog
Ġerh oben
st edt
Ġin stall
le bt
ĠAn dr
ord net
iert es
tiv ity
ĠTh is
ĠFahr er
Ġstell vertreten
ĠBew eg
ĠB re
Ġver gangenen
ĠStr e
sÃ¤tz lich
Warn ings
C reate
ĠTelef on
C al
S ehenswÃ¼rdigkeiten
al em
Ġk o
Ġgew Ã¤hr
Ġhistor ische
B Ã¼rger
f ind
m sg
y g
ĠL aw
ug os
Ġ" ,
ain ing
teil ungen
sph Ã¤re
emb le
Ġerinn ert
Org anisation
l Ã¤nge
un s
ĠP C
Ġp f
ĠGr enzen
Er st
gor ithm
i ro
ĠK athol
ĠSp ec
ĠStr and
Ġoffiziel l
H o
ĠW Ã¼r
od urch
ĠAr ts
ĠPro p
ick er
oun ter
Ġnahe zu
Ã¤dag oge
ĠWoiwod schaft
j ew
ĠAn spruch
Ġbef ore
ĠDan eben
gangen heit
Ġscha ffen
ĠK art
ĠEr ich
() ).
ial izer
Ġdenn och
ĠBund est
F re
ein s
Ġw achsen
tre ffen
L I
L ayout
m essage
ul i
ĠEnt fern
Ġ187 0
dentif ier
ĠSm art
Ġbekomm t
et he
eb ook
ex it
ĠPro jekte
ĠHeraus geber
ĠM au
Ġ19 16
sp ace
Ġc ontinue
Ġent ity
fÃ¼hr te
Ġbet rieb
200 2
Ġor der
ĠM ulti
ir urg
ĠMar ien
Ġar g
stit ution
w ith
ĠS QL
ĠB ert
sp f
Ġunter sch
Ġdurch schnitt
sb ez
aliforn ien
cod ing
m inton
ĠS of
ĠK anz
ĠL ind
ru e
nis sen
Ġgegr Ã¼ndeten
ĠTer min
ĠGed anken
F ahr
Ġw odurch
ĠF Ã¤h
ĠT own
rup p
ĠFrei zeit
ĠIs rael
ĠMuseum s
ĠBesitz er
ol o
ĠAn f
ak ademie
Ġsp ort
Ġbest ritt
ator s
Ġbeg innen
ĠWelt meisterschaft
ĠRo ten
tim eter
T itel
Ã¤ b
ĠD B
Ġn Ã¶
Ġan gesehen
trÃ¤ gen
L ang
a ber
Ġab ger
Ex p
ĠMar ke
mann s
gesch Ã¤ft
ĠZw eck
KE Y
ĠTÃ¼rk ei
ĠO der
Ġver geben
ĠOrt es
Ġ189 0
Ã ł
qu ery
Die ser
ĠGew alt
ĠGel egen
) ");
Ã¤ ÃŁ
ĠG ymnasium
ap el
Ġet abl
ĠBeg r
ĠPartei en
Sup press
B et
ĠAn s
ay a
ph an
ma schine
200 4
Ġnotwend ig
Stra ÃŁe
f ft
ĠD ub
ĠT raum
Ġentwick eln
unn el
ĠpersÃ¶n lichen
ĠSchles wig
M eister
W ind
c ia
ĠT sch
Ġver ur
ĠSch reib
Ġ/ >
rit iker
Ġ5 5
Intern al
ĠObserv able
F rei
d is
Ġvor aus
ator ium
Er folge
Ġerz Ã¤hlt
schlÃ¤ ge
Ġumben annt
ow a
aus gabe
histor iker
J an
e der
l eiten
u i
z te
er ung
em e
ĠJ ud
ĠDie ter
H aus
L a
T A
a it
hal ter
Ġho her
ĠWill i
ĠBron ze
ĠOx ford
m or
Å Ħ
Ġb ase
ut nant
ĠSp itze
ĠGrÃ¼n der
lowak ei
ĠSp itzen
Ġ/ *
ĠschÃ¶n e
ĠerklÃ¤r te
ĠSonn e
Ð¾ Ð
ĠHelm ut
D ar
S ign
h ost
ber eit
ĠWelt krieges
ĠChamp ion
R ange
ĠVer dienst
ĠGroÃŁ e
ĠDon au
fÃ¼r st
ĠErw achsen
ĠSeb ast
D e
N am
st aben
ĠA ktu
ĠEr folge
ĠAuf lÃ¶sung
lei hung
200 1
Ġ189 6
D C
Ġs rc
Ġver legt
Ġt ag
Ã¤n k
Ġ4 4
af e
ĠKon rad
Pf alz
c opy
k ul
k Ã¼nd
ei se
ĠM ord
Ġg eist
ĠEr schein
ĠBr ig
ĠBrÃ¼ der
f els
s ichtig
at alog
ĠR uf
ĠR ollen
tr an
ĠZ oll
ver anstaltung
ĠKon gress
hard t
Ġentst eht
B ad
i od
ann er
tt ps
Ġmod el
v m
ĠM Ã¼hl
gr ab
ĠBest e
Trans action
Suppress Warnings
ĠB os
ĠK ob
ĠN eb
sp rechen
pf l
IN T
k Ã¤mpf
ch ip
ĠF ell
lin der
etz te
Ġ189 8
ĠGener ation
D u
Ġv ari
ĠK Ã¼n
Ġunter en
Qu eue
ĠGeb rauch
ĠFr eitag
hand el
ĠSim on
ĠUntersuch ungen
Ġzunehmen d
ei ge
ĠF ield
de u
ĠAm ster
Ġen glisch
ĠÃ¶ff entliche
asil ian
Ñ Ĥ
Ġn Ã¤her
Ġf ein
iz ierten
fen ster
reg ister
Des cription
gel eitet
Ġel f
ĠzurÃ¼ck ge
ĠSan kt
ĠOb wohl
P ri
ĠL it
ais s
200 3
lÃ¤nd ischen
R ed
m es
Ġd ank
ar tigen
ur i
if y
Ġausge fÃ¼hrt
char At
ĠMatth ias
b lock
st atus
ĠL exikon
ĠVer gangenheit
hen tic
gesch lagen
b und
m ond
Ã¶ z
il er
ĠV iew
Ġk auf
ra ys
gel t
Ġgelegen en
Ġun gefÃ¤hr
ild et
rit or
lehr e
ĠBrit ish
Ġsw itch
Ġz iehen
il i
Ġtr af
land es
ĠFrank furter
read y
ĠGesprÃ¤ ch
D A
n es
r Ã¼cken
ĠB ier
de hn
ĠR am
ĠSchn ell
p ul
ĠH amm
ĠL ake
ĠEin heiten
stra ÃŁen
echs elt
Ġlo ad
ĠOffiz ier
ĠNationalsozial ismus
C A
Ġ rad
ĠBer icht
Ġbes aÃŁ
ĠGegen wart
ĠDist rikt
t ok
Ġz er
Ġh Ã¤tten
ĠZ un
Ġsp Ã¤t
ek tiv
ĠMon ument
ĠGra z
ĠEd el
ĠSÃ¤nger in
Ġmodern e
or fen
ĠE h
ĠP ir
Ġp hil
bo ard
ĠKomp osition
B el
S equence
on ische
Ġf Ã¼n
ĠV ar
sp lan
Ġst at
Ġ18 48
arb eitete
ĠBo ok
Ġeb enda
in it
it tel
ab et
ĠMar y
Ġverb esser
B erg
R oot
X ML
ļ Ń
ut s
Ġl iter
ĠFran ken
ĠEx empl
stru ctor
ĠLÃ¼ beck
National mannschaft
P ER
k Ã¶rper
Sch w
Field s
Ġs an
ĠA achen
re den
ĠLei den
geh Ã¶r
ĠAlt ar
Z E
onn ect
ĠSer ien
Ġd elete
ĠAn forderungen
sk a
ĠGes ang
At tributes
krieg s
Ã¶m isch
sicht s
G E
P refix
ein heit
Ġw riter
Ã¤ udes
ĠO tt
Ġver schw
ige m
haf ten
ĠFall s
ĠÃ¶sterreich ische
mod ell
S eine
b an
v ollen
Ġ Ã¶stlichen
ver zeichnis
eu ert
Ġus w
ĠW ag
ĠW ell
um in
Ġauf gestellt
ĠAn lagen
ail len
umen ten
h Ã¼ter
r ig
u ay
sch Ã¶n
Ġb uf
vers orgung
Id s
tif ication
ĠPlan ung
ĠRelig ion
r iss
er ten
ig ungen
ĠC amb
State ment
Hol stein
ier end
id s
our t
Ġbet rach
Ġbel g
Ġ189 5
D irectory
E lem
ĠB ell
ti ere
ess in
Ġ6 4
Ġerw orben
Jahr en
ĠTab elle
has Next
Ġklass ischen
Ges ellschaft
v ol
er ber
ar ina
ĠGr amm
Pro ject
ĠGer ichts
ĠBar on
ĠAngeb ote
ĠP ots
ort s
ĠKon s
ĠBez iehung
ug o
Ġber ichtet
reg isseur
lig isten
Ap i
Ġstar ken
J ohann
ar in
Ã¼ gt
Ġm iteinander
ix el
leg ten
Ġverschieden er
Ġreg istr
fre und
ĠAktiv itÃ¤ten
Ġn ominiert
Ã¶ gel
ĠMeer es
ĠTenn is
ĠGebur ts
r ight
il len
se c
Ġc ache
Ġman chmal
rÃ¼ st
Ġges ellschaft
Ġbesch reibt
Ġmax im
ĠMil ch
ĠUntersuch ung
e er
at om
ĠEin richtungen
acht ung
Ġda ÃŁ
fÃ¤h igkeit
zuf Ã¼hren
Europ ameister
stechn ik
S um
v es
ĠD omin
Ġm aÃŁ
ĠH ell
ĠIn g
verband es
ontin u
ĠtÃ¤ glich
v in
ĠM ech
ĠH eb
ist ischer
Ġc o
Ã³ w
Ġrel igi
ĠTÃ¶ch ter
> <
ĠS ak
ĠM uster
ĠL ob
ach ed
Ġauf gebaut
ĠkÃ¶n ig
ĠBe ob
con fig
ĠSong s
vir on
= '
d auer
z ung
Ġs Ã¤m
ĠT ode
il s
Ġer zeugt
ĊĠĠĠĠĠĠĠĠ ĊĠĠĠĠĠĠĠ
Ġsp rechen
Ġautomat isch
ĠverfÃ¼g bar
D ialog
F ranz
y an
ĠS mith
ĠR umÃ¤n
Ġt oken
ĠSpr achen
denk male
low en
ĠInstr ument
H aupt
W as
O K
m ine
p reuÃŁ
ĠV ari
ab end
ĠAnt wort
ordin ate
Kir chen
ĠIngen ieur
p ommern
ĠS P
ĠP rÃ¤sidenten
ier er
Ġgest altet
ĠerhÃ¤lt lich
omet ry
Ġw Ã¼n
Ġein geb
re gel
ĠAf rika
C urrent
M apping
Ġn atur
ĠK eller
ĠJ a
wei st
Ġwissenschaft lichen
Ġph ys
ĠGeg ner
E G
K W
m auer
and te
ĠBl au
ĠWir ken
ĠKomm ando
Ġor ien
log ger
f ranzÃ¶s
Ġd eine
ĠAr thur
me er
ĠGew erk
ĠEigen schaften
ĠKamer a
ĠEpis oden
Ġs orgen
Ã¶ tz
ĠL eute
ĠEin sch
ĠBe am
Ġur kund
w ettbewerb
Ã¼n den
ĠNach richt
ĠFl Ã¤chen
itÃ¤t s
Ã¤ng nis
ĠLehr e
C ap
t ner
Ġw ork
ĠF la
ĠC am
ĠO ster
ĠGer Ã¤te
ĠgrÃ¶ÃŁ er
ĠÂ ·
ĠÃ¤lte ste
iehungs weise
ĠIn put
ĠAn trag
etz ten
ob el
ĠEm p
Ab sol
Ġwe der
Ġversuch te
chip karte
f alt
ch ange
te uer
ĠP en
ĠAstr onom
C olor
on i
ĠP ed
br ingen
F alls
j ob
Ì Ī
Ã¤ fer
ol i
Ġt Ã¶
Ġ188 5
ĠInstit ution
D ER
eh lt
Reg iment
ĠKranken haus
ĠjÃ¼d ischen
zÃ¤hl ung
ĠDÃ¤n emark
b ody
ĠS aar
ĠP od
ra gt
zen e
ais er
ail able
ĠJuni oren
ĠStel l
ĠBevÃ¶lker ungs
A ccount
D ur
w el
x ml
Ġb uild
ĠD et
ĠM arburg
and t
Ġl ernen
Ġt otal
ĠAd am
AC T
Ġb ot
ĠW urz
atur es
Ġgen ug
unter richt
Ġ189 7
ĠMagde burg
Ġum geben
olog ischer
rÃ¤n kt
ĠEpis ode
c ul
âĢľ ).
tel s
St at
cri be
at al
Ġau ÃŁen
Ġzu stÃ¤ndig
schlieÃŁ en
Ġpar allel
Ber eits
Ser ie
rep lace
Ġengl ischer
" ).
B ez
c tr
o z
ar tig
ĠM ah
em burg
Ġl Ã¤uft
id ae
In stitut
zeich nen
Ã¤ss ig
ĠMathemat ik
p ool
on ial
ter e
is ation
ĠUn fall
ĠKap itel
ĠPor trÃ¤t
Chr ist
ĠBrasil ien
B B
P lan
h eil
al th
ĠSch ach
Ġl Ã¤ng
teil s
ĠHaus es
wor ten
Ġmittel alter
Ġwich tigen
ĠGott fried
ĠDipl om
Mill is
ĠM exiko
Ã¼r zt
Ġc omm
Ġsch rift
ech ten
bo den
Ġ188 0
hand lung
ĠViel zahl
Ġgemeins ame
ĠGrie chen
S QL
ĠB itte
ĠK le
is a
ĠT rÃ¤ger
setz er
ĠStÃ¤d ten
Fe ature
B as
| |
Ġzu g
Ã¶r ungen
up p
verein s
ĠWieder auf
D DR
S a
ei ste
ĠG reg
ĠKon zer
Ġben achbar
Ġrech te
ĠOrd nung
F iles
n itten
eich e
ĠSp ur
Ġdar aus
Film ografie
ĠSchriftsteller in
stant in
F ailed
h old
ĠE ishockey
sen der
ĠZ ivil
ĠFl ag
ĠBr enn
Ġange gebenen
til ler
ĠAlb recht
Ġend lich
Pol icy
ĠWÃ¼rz burg
K ompon
M O
ĠE arl
ĠW in
ĠN S
ib r
h et
y er
z if
ei ern
tr ich
ĠGes icht
ĠMan ager
hol m
ĠEd ward
Ġbas iert
ĠbestÃ¤ tigt
W ert
ĠR oh
Ġ2 50
pl atten
d own
it o
sp ez
ĠStr ate
ĠLand schafts
ied elt
At om
ĠÃ¤lter en
ĠAmster dam
E C
M ich
P an
Ġg rau
Ġc lose
Ġbis lang
ĠReg ister
ĠKl ub
ĠVerb esser
ĠMÃ¼nch ner
G o
b raun
m otor
at i
em ie
us en
Ġj ung
Ġwel chem
amp le
Ġland wirtschaft
Ġh ast
ĠUn sere
ip al
zeit ung
Ġbez iehungsweise
ĠEdu ard
e en
v as
Ġs or
ĠNational mannschaft
ĊĠĠĠĠĠĠĠĠĠĠĠĠĠĠĠĠĠĠĠĠĠĠĠĠĠĠĠĠĠĠĠĠ ĠĠĠ
maÃŁ nahmen
ĠS au
ĠP ie
Ġzu geordnet
ak i
ib il
ĠGemein schaft
ĠGer Ã¤t
199 9
verkehr s
Ġverpflich tet
P res
b indung
t al
ĠM r
ĠSt Ã¤r
ger ichts
Ġex trem
sta aten
bed ingungen
ĠJust iz
A bst
ĠM is
de gang
Ġp re
ĠVer fassung
get Id
Ã¤r ung
Un d
str ich
ĠBÃ¼ hnen
ĠTer r
ĠDis sertation
ĠrÃ¶m ischen
U ri
b al
ĠE ast
ĠBer atung
ĠPl atten
pro f
ĠGraf schaft
ĠkÃ¶nn ten
Pl atz
ĠWh ite
def ault
H ein
} ,
st arts
ĠH Ã¶ch
ĠR ett
ĠV og
ver ter
end el
ĠEn s
ett o
ĠHand ball
ĠFor um
ĠÃĦ gyp
DE FAULT
ĠzusÃ¤tz liche
M ath
r amm
st re
ĠT w
Ġh Ã¶ren
ĠBau werk
Ġeigen es
ĠDes halb
Ġbeh andelt
ĠSchn eider
r uss
Ġ Ã¼
Ġein schlieÃŁlich
ĠP ast
Ġver n
Ġent schieden
ĠMar i
ost on
ĠGemein der
d ition
ch ten
in ia
ĠD ownload
ĠK Ã¶
ĠP ian
ĠO ne
ieb el
Jahr e
ĠB ull
ĠV el
lo k
ip pen
Ġ6 00
Ġklein es
z eigen
und ert
Ġb lieben
Ġin fo
ĠK Ã¤mpf
ĠÃ¼ber nehmen
B ew
ĠW ork
Ġh ell
ĠMit gliedern
hof en
Ġeinz igen
Ġeinge tragen
cl ude
ĠBesch Ã¤f
ei tern
olog isch
ĠSe en
ĠEing ang
ĠHor st
rÃ¤sent anten
ĠErk rank
ĠIniti ative
ĠRost ock
st Ã¤nden
ĠT onnen
Ġst atus
ub il
la c
Ġunter halb
anc en
Spiel er
fÃ¶rm ig
Ġein iger
eite ten
Ġspiel ten
ĠTem pel
ĠKontr olle
kurr enz
n i
or es
est en
ahr t
ĠSt ates
Ġbest ell
ĠFrie dens
ĠBest ell
Ġstark e
ĠTour ismus
ĠStim me
Ġparam eters
sch irm
Ġf uhr
hin dern
ĠInd ian
ĠDat um
ĠImm obilien
viron ment
V ar
n g
sch wer
os a
Ġr uh
ĠBo ot
ĠEurop ean
ĠStud ie
Ġerforder lich
ĠSowjet union
ĠInfanter ie
k Ã¼rz
s up
ar ter
Ġs inn
Ġr un
Ġch em
Ġverb indet
iat eilnehmer
ĠOp ern
Ġf ung
ĠT hread
her ren
ĠFrei en
we ge
Ġbedeuten d
ĠprÃ¤sen tiert
B undle
m ag
ar z
ent in
wei ÃŁ
eil er
Ġtr ain
eig h
ĠRu hr
bed ingt
st um
Ġwir kt
la in
erk ennung
ĠLebens mittel
State Exception
Ġsol chen
ĠAng st
ĠSzen e
B eg
S PD
f arben
s eit
em ed
ĠC all
he ber
ri z
lo h
vers icherung
ĠForm el
Ġnie dr
igh ts
Ġspeziel l
ĠSant a
ĠD inge
ĠM eyer
Ġ( ;
ĠF o
ber icht
ĠJ ava
Ġsch reibt
ĠUm setzung
ĠSchw ier
Ġby tes
leb nis
il a
Sch ema
ĠKommun al
Ġklein ere
ĠTab ellen
ĠNor wegen
ugos law
d ner
in ken
ĠS ei
Ġl auf
he d
ĠAus einander
sh aus
ĠMan fred
ĠGeschÃ¤fts fÃ¼hrer
in ne
ĠL ife
sen de
ri p
In nen
ĠEnt wurf
c olumn
ĠS ul
Ġb ayer
Ġt ask
eh e
Ġc annot
ak u
ok ument
form ationen
Ġspe zial
ĠBed ingungen
ĠSek unden
gehÃ¶ rigen
Ġpriv aten
m as
m ont
t yp
Ġf allen
ĠVer zeichnis
: :
N S
l ein
ĠK rie
ĠJ etzt
ĠZ y
im eter
ĠAuf nahmen
utz ung
yn ast
val u
ĠKr ist
Ġfrei en
Ġaufge fÃ¼hrt
ĠVen edig
K o
b uffer
at ing
ĠW ik
ent s
ĠSt att
Ġun ge
Ġc al
ĠEr Ã¶ffnung
Ġvor gestellt
lass ung
our s
ĠAug sburg
AN CE
Ġsozial en
O M
au ert
Ġb auen
ĠH T
ĠJ ungen
F rie
O C
d y
j an
ĠM ond
Ġk ombin
Ġl es
wei ler
Ġvor ge
if ier
ĠFl ucht
Ġviel fÃ¤l
ĠWei ÃŁen
ĠAlex and
ĠHalb finale
ĠMein ung
Ġkathol ischen
SD AP
f ir
s Ã¤nger
ĠS ymbol
ĠM assen
ĠP re
ver teid
Ġj ur
ĠAus bau
ges prochen
Ġpoln ischen
ĠM io
ĠH em
ab t
geb irge
lo ud
il de
str om
ĠWei b
usÃ¤tz lich
Ġchines ischen
in str
Ġb ut
ĠG olf
ot ter
Ġverl Ã¤nger
ct ure
ĠMod elle
ĠMich el
ch te
ĠAus zeichnung
if ic
geh oben
SE T
yd ro
S H
n chen
Ġd ate
Ġs epar
ĠB Ã¤nde
Ġn on
ĠT ats
ĠL inz
ĠIn frastruktur
Ġbe endet
ess ern
IT Y
Ġgetr ennt
' );
ĠAr r
Ã¤ch er
Ġbes etzt
Ġkon zentr
ĠGef ahr
ĠHa ft
z unehmen
ĠD etails
em als
ĠH Ã¼gel
ĠR untimeException
be am
Ġ187 1
Ġbisher igen
ertif icate
VAL UE
A F
I l
M essages
ĠÃ¼ber w
zen ten
ĠInd ien
ĠVers and
< >(
s cription
ĠM i
ĠP ow
Ġan genommen
ĠSt unde
Ġpro p
Ġ8 00
val ues
Ġerg ibt
ĠBestand teil
B eim
ĠB em
ĠL ust
Ġ4 3
ĠLe der
Element s
Dat ei
Ġnational en
M aler
st ock
ol ve
ĠI d
Ġge tragen
ann i
Ġver hindern
Ġo st
iz ierung
con stants
ĠKarls ruhe
Ġdeutschsprach igen
p al
ĠK ul
Ġseit dem
ĠS oll
Ġin nen
ĠK alifornien
Ġst ill
inz ip
Ġ4 9
Einz el
mus iker
Hand lung
ĠInn ov
u ste
v oke
ĠH yp
ĠC y
Ġ4 6
ĠBot schafter
ĠRund funk
sei tig
P ost
m eter
ĠR ay
ĠU kra
Ġtr ifft
ĠFir st
ĠArn old
c al
w ahlen
te am
Ġb ack
ĠL ast
ĠAus gang
ath on
mit glieder
stan bul
Not Null
ĠK ardinal
Ġver urs
Ġent schied
Ġzwei ter
ite kt
Ġat tribute
ĠInform ations
ĠPrinz ip
iffer enz
h u
k Ã¼ste
or ph
ver k
ĠGr Ã¼ndungs
ĠGesch lech
mar sch
ĠmÃ¶glich erweise
ĠAutob ahn
ĠB M
Ġn ennen
ĠK alk
le te
ĠL eb
ra in
ĠO z
ĠCon tent
Key s
Ġitalien ische
rev ious
ĠDef ault
ĠL ar
Ġc omponent
Ġsp Ã¤ten
Pro cess
ÃŃ a
ĠFot ograf
ĠQ ue
S pr
Ġan y
Ġ18 50
if ication
Ġz ieht
ĠK am
ĠT u
il ber
ĠEn glisch
ĠDort mund
ĠursprÃ¼n glichen
ĠTa schen
ĠThÃ¼r ingen
D est
o ung
Ġ app
ĠK amp
Ġden k
ĠZ er
Ġver Ã¤ndert
ĠAl k
fahr ts
inder t
ĠRes ult
ĠRu he
ĠStaat sb
Ġschwer en
w ell
Ġ" /
ĠNach wuchs
fang s
Reg istry
ĠBus iness
ĠEntwick lungs
p ap
ĠM ode
ĠT rieb
ro id
if est
fer ence
ĠGesch mack
rup ted
ĠMo tiv
U P
ĠM icro
ĠG au
ĠW it
ĠL angen
ro y
Ġst ru
ap i
ungs ver
Ã¼ck sich
ĠFrei heit
deck ung
ĠLÃ¶ wen
ĠflieÃŁ t
Ġk g
ent um
Ġgew Ã¼n
ĠHil fs
streck en
ĠjÃ¼n g
ĠBarb ara
P o
s Ã¤
in ten
ĠS oph
Ġs orgt
ĠH rsg
Ġsch eiter
In sel
ĠHer zen
Ġe ff
imm ungen
ĠKÃ¶nig in
199 8
akt oren
Olymp iateilnehmer
K n
N LS
l it
z lich
ĠW is
Ġnach hal
Ġunter scheiden
ĠAus nahme
for scher
Not Found
S ein
b Ã¶
p c
ĠR oss
Qu alif
Ġange zeigt
ĠBes etzung
Ġend et
Ġwissenschaft liche
Ġoffiziel len
Z wischen
h y
Ã ĥ
ĠĠ Ċ
Ġw Ã¤hlen
as ien
An merkungen
ĠPh ot
ry pt
ĠAp ost
vier tel
- /
E P
R echts
u ccess
Î ¿
ĠP DF
se g
ĠKon struktion
Al t
ĠMik ro
H inter
d ir
r ingen
sch i
ĠM esse
ĠH ektar
tr ies
Ġh ttps
umm ern
Ġbein hal
Ġsicht bar
starts With
g i
Å Ł
ĠD ur
ĠR et
ep p
ĠkÃ¶n ne
ĠProduktion s
ĠFel ix
H eute
ĠW art
ĠVer mÃ¶gen
ĠHistor y
. ).
l ings
Ã Ĺ
ĠS un
Ã¼ te
ĠA ction
ĠM etz
us k
ĠAn im
ĠÃ¼ber sch
ĠPl Ã¤tze
ĠÃľ b
check ed
ĠKo operation
M ember
l Ã¶
ar o
ĠP ower
Ġg Ã¼l
Ġan t
ĠEr ste
ĠÃ¼ber setzt
gr Ã¶ÃŁe
spieler in
ĠFac ebook
b egr
Ġm y
ĠK linik
ĠF abrik
Ġsch ied
Ġunter wegs
her steller
Ġsp ann
ĠWol ff
Ġerr ichtete
ĠVide os
P I
o ir
p rÃ¤sident
Â ´
Ġd ro
it es
ĠM ut
ĠH as
ĠN ap
Ver walt
wohn er
Ġlang sam
ĠBÃ¼ hne
ĠAbgeord neten
ĠunabhÃ¤ng ig
ĠAllt ag
Ġbetrach tet
r ol
Ġg ern
end o
Ã¤r ten
asse d
sw ald
ĠAt om
199 6
bes itz
d ung
Â ³
ĠN ow
Ġâ ļŃ
Gra ph
ĠP S
ĠAn alyse
sh ausen
ĠReg ionen
ĠWelt cup
ĠChe ck
V I
in os
el a
Ã¤ ck
ĠT ak
stell ig
med izin
index Of
sprech er
Ġgar an
Ġparam eter
B o
ĠD iv
Ġn ennt
Ġo ver
ĠEin kauf
ĠGrund lagen
. _
b n
ĠA ff
ĠP ers
ĠSt urm
Ġaus zu
ĠEin s
Ã¶r g
Ex tension
ain s
An halt
ĠNieder l
ĠHam mer
Ġgegr Ã¼ndete
ĠVerÃ¶ffentlich ungen
T ags
g round
ĠS auer
el ine
ĠB io
ĠK Ã¶r
ĠV irg
ĠC orn
Ġsch ot
ob ject
ĠKÃ¼ ste
Ġoffen en
Ġerwar tet
Ġjem and
ĠG anz
isch Ã¶
ens ion
Ġgleich e
ĠVerein igung
ĠNutz er
ĠpersÃ¶n lich
Com parator
ĠKÃ¼n ste
N odes
h off
m ie
Ġ1 10
ĠE ugen
is ieren
Ġer mittelt
ĠGeb iete
ĠAk tien
Ġ189 4
ĠFer tig
Ã§ ois
ar ia
el or
ĠT oten
form ance
Ã¤nder te
Ġteil s
ĠBel gien
ĠDis ziplin
ĠAs ien
Kir che
Ġrequ ired
ERR OR
ĠSebast ian
us sen
par ent
ĠOr ten
199 0
Ġbau te
Ġdunk el
ĠCamb ridge
p lay
ĠM d
se d
rei strÃ¤ger
Ġver anst
get Property
iss ement
Ġkomp lex
ĠStre et
P RE
Ã «
È Ļ
ĠP est
Ġex tr
iden z
ĠWahl kreis
ĠKÃ¼ sten
ĠKup fer
aiss ance
B it
D i
f u
r oll
ge tr
ĠF F
ĠF unk
se y
ĠSch aden
Ġp age
ĠAnton io
ĠRegen sburg
Ġjapan ischen
strahl ung
Ass ign
M e
U I
ei he
ĠS ud
ĠR ol
Ġwir ken
Ġ4 7
Ġ// $
for mer
ĠEx p
199 7
etr ic
â Ĥ¬
Ġh Ã¤uf
ĠStr eam
qu elle
ĠBundes ver
ĠWerk en
ĠSpr ing
irt ual
iem lich
ĠK il
ĠAl li
jÃ¤hr iger
frie den
ĠMaterial ien
Ġvertr at
J ava
d elete
k amp
Ġer lang
Ġal tern
eh Ã¶r
arr y
schn itts
jahr es
ĠDipl omat
> )
f ekt
ĠA x
aus bildung
rau chen
ack er
ĠFl eisch
min ist
ĠBeh Ã¶rden
ĠSa al
Ġgriech ischen
ĠRestau rant
c z
ie ck
ĠM att
ĠF antas
ĠT eu
Ġim pl
geb lich
Ġle hr
Ġange p
ĠSh op
wir kung
ĠNe ur
E le
Â ®
ar rei
Ġf inn
ĠH ess
ĠJ son
ÃŁ ig
ĠVer w
ive au
icher heit
Ġhand le
Ġverst ehen
et ung
Ġf arb
Ġc ol
Ġc le
iz ont
ac es
ĠBed Ã¼rf
Mus eum
ĠJos Ã©
h Ã¤ndler
ĠK ost
ir n
all o
ĠÃľber sicht
Ġhin ein
ĠVerlag s
ĠMill iar
dat um
ĠBesonder s
E CT
F amilie
M ain
k w
und et
em pf
Ġf ach
ĠV I
ĠN R
Ġl eist
ap elle
Ġ5 2
ĠFran ce
trag ung
ĠAt hen
lad ung
L auf
X ml
y ball
ĠJ Ã¤ger
ĠAn wesen
ĠOr chest
Ã¼t ten
ĠKais ers
Ġjapan ischer
ĠerhÃ¶ ht
D r
v ater
ĠH ugo
eh end
ĠPro j
Ġpl atz
kap elle
ĠhÃ¶her en
ĠBab y
Ehemal ige
Ġerstreck t
C ol
E Mail
k as
ĠSie ben
ĠGem Ã¤lde
stra int
ĠSte phan
Ġ188 9
ĠIs lam
K unst
ch ern
ei ÃŁ
Ġi l
Ġ20 22
Ġst ra
Ġc lazz
Ġbe zeichnete
Ġges ucht
sprech end
W h
ach ter
ĠAn gabe
Ġges und
Ġstattf inden
B en
T ro
s in
Ã¼ mm
ĠB it
ĠD ial
Ġp assed
ĉĉ ĉ
Ġc opy
Ġ4 1
Ġander es
riff e
verb indung
hÃ¤lt nisse
Ġbestehen den
ĠIntegr ation
S uch
w s
Ġb raucht
ĠF lie
ĠG ab
ĠN ull
ĠVer wand
Ġc or
gesch windigkeit
aj a
mo sphÃ¤re
P air
T est
w Ã¤hnung
ĠR equest
Ġwar um
Ġj ahr
ug ies
Ġab zu
az if
ĠLu c
ST R
ĠVerbr eitung
M ehr
h art
k unden
l im
ĠK Ã¶n
ĠR ub
ĠR ess
ab s
itt le
ĠWe ber
k urs
Ġ iter
ĠS ender
el emen
ĠSch le
ĠĊ Ġ
ĠSpiel tag
mÃ¤ÃŁ ige
Ġwich tiger
ĠpreuÃŁ ischen
O st
in ischen
ate ll
In itial
Ġbr asilian
ĠInternational e
Ġtechn ischen
spann ung
Ġdor tigen
T our
Ġd ist
ĠS T
em it
ĠF reude
ĠAus stattung
ĠUm bau
ĠUnivers itÃ¤ten
Ġeh e
ĠForm at
ĠSc ott
ĠHerr n
ĠBru st
Ġkur zer
ĠKrank heit
ĠChampion ship
B E
te sten
ich ert
sp unkt
oh ol
werk en
ĠKÃ¶l ner
\ \
ĠS ens
ĠF ilter
ig in
ent wick
ma ÃŁen
Ġverst orben
P eter
n orm
sch ei
ĠM oment
ĠK el
ĠC lient
ĠBr es
ĠUnter schied
ĠFra ktion
produ zent
CD U
ĠAbgeord neter
C ommerce
J Ã¤hr
V ector
ĠS y
ĠD VD
ĠP ul
Ġent lassen
co ver
Ġumf asste
gÃ¤n glich
M M
M ag
N atur
c an
ing u
ran denburg
Ġtr aten
Ġre ag
br onn
off set
Ġ189 3
Ġbegann en
Ġdo es
Ġsozial e
Ġtrotz dem
S l
W rapper
ur ren
ĠB ang
Ġh ost
ĠAn th
af ft
Ar t
ĠOber flÃ¤che
ĠGef angen
ĠKo ordin
Land kreis
ĠKab in
K Ã¶nig
a wa
Ġ ol
ĠP enn
ĠSp eicher
ĠAl te
licher weise
ĠRe de
ĠMon te
ĠModern e
or ity
ĠL ew
um er
ing ung
ĠâĢ ¢
lie gt
ĠMar gar
ingen ieur
ĠMin ute
ĠNieder lage
A k
t ums
ä ¸
in ary
au ten
ĠÃ ł
ĠAb stand
Ġeinf ache
ĠOption al
u ellen
re y
he dr
our cen
Ar b
ĠBundes staat
ĠHoch zeit
scheid ung
ĠBi ograph
Ġexist ieren
T hrowable
W or
w h
ĠS ynchron
Ġge fallen
Ġg olden
sp olitik
20 20
ĠRu h
ĠIllegal StateException
ĠBened ikt
. /
au g
Ġj son
Ġtr eten
ĠAuf tr
ore a
ĠPolitiker in
Sc ope
ĠCol or
abil ity
stud ium
Ġperf ekt
z n
Ġ orden
ĠB utton
ĠP ierre
Ġk om
ĠSch uhe
geb nis
ĠOr der
ĠBl umen
Ġgrund sÃ¤tzlich
Ġverbr achte
Ġrich tige
R Ã¶misch
b reak
Ð º
in ts
ĠL ern
ĠSp itz
ak en
Ġab gesch
LA SS
ĠInstitut s
ĠGleich zeitig
ĠÃĦnder ungen
( ...
F O
N ov
n ieder
is ierten
ĠR ail
ig an
ĠZ it
Ġunter b
ant eil
schn itte
ĠBronz emed
S cript
on st
et enz
ĠP as
ĠZ iele
ind ungs
ĠEr richtung
erk l
br Ã¼
ĠRo ad
ĠPol iz
Ġ187 4
weis ung
ĠGest alt
ĠHotel s
Ġtechn ische
Ġscha ff
ĠExper ten
an ie
ĠW en
ĠUm gang
add All
199 5
Ġempf ehlen
J ugend
K arl
R est
W E
b ein
Ġan schlieÃŁ
sp reis
Pro gramm
bach er
Ġfre und
ĠKolle gen
ĠZus atz
ĠP oint
ĠJ ena
ĠC le
Ġan f
Ġo ffizielle
Ġ5 1
bar er
ĠGroÃŁ teil
Ġhervor ra
Ġverf asste
Ġlau tet
Frank reich
Ġhil ft
ĠVarian te
F B
Ã ¦
Ã ª
Ġl atein
ĠAus bildungs
Ġber ech
ĠBl ue
g as
Ġb ist
ĠNieder Ã¶sterreich
legen heiten
herr schaft
Intern ational
Ġverur teilt
> ()
M ulti
ie bt
ei r
ĠH enn
19 18
Str u
ĠNach folge
eck t
ond ition
ĠTr ier
Ġbeh aup
NotFound Exception
V ol
s ign
t w
on str
hr op
ĠH ow
ĠN ass
Ġzu kÃ¼nf
av el
way s
Ġzentr alen
Ġheil igen
L en
N OT
Ġd oc
Ġw hen
em in
ĠL ag
ĠZ o
Ġdurch aus
Ġber Ã¼cksich
Ġw echseln
Ġm Ã¼ndet
ĠE uch
ĠSt ich
pro jekt
out put
Ġpromov iert
ĠEntfern ung
b ibliothek
m and
o ire
Ġein s
Ġver ab
Ġent h
ĠCh ance
Ġbest anden
rat es
ĠPf ad
Time out
With ServiceResponse
Ġaktiv en
WithServiceResponse Async
ĠL ot
ĠJ ones
ap h
ĠMa jor
br and
ĠGemein sam
Ġnational e
kor ean
F OR
r ein
s v
sch ten
ĠC ro
ĠBau er
Er gebnisse
ĠMann heim
Ġteil nehmen
arm on
ĠAlt stadt
ĠpersÃ¶n liche
ĠGi pfel
bÃ¼rger meister
ĠNic ol
( _
C P
d ing
ð Ł
ĠK ub
tr im
ĠN ick
Ġan geschlossen
ra xis
ix ed
ffiz ien
ĠCas ino
Header s
ĠPots dam
e ber
st yle
ĠL ande
ĠR al
get Instance
)) );
ĠFer r
Ġposit iv
E t
ar ed
ĠB oston
Ġh a
wei ten
sb ruck
Un sere
ĠBo gen
Ġgelegen e
ĠÃ¤lte sten
ĠZen timeter
B uch
r al
Ġz Ã¤hlte
ĠSt ol
Ġst eigen
ĠAn zei
ok ens
sk on
ĠFahr rad
199 3
rÃ¼st ung
t ax
Ġ Ã¶rt
Ġ assert
ĠE ishockeyspieler
Ġf Ã¶r
est e
ĠSt an
of en
ast rop
af r
Ġbesch lossen
Ġwei ÃŁen
bereich e
Ġverst arb
Ġzeit weise
A v
st em
ĠL ein
lich em
ĠGrund stÃ¼ck
Ġ186 7
ĠFÃ¼hr er
Ġmittler en
LO W
ĠDenn och
M Ã¤rz
m y
ĠD J
ĠD ra
ĠD irekt
Ġein deu
Ġver boten
reich er
alt ar
Ġbes uchen
Ġgr enzt
ond issement
ĠEinwohner zahl
ĠDenkmal schutz
g reifen
Ã¤ fte
ĠA dresse
ĠD ynam
isch t
ĠI dent
us alem
sen s
Ġ- -
ĠBuch staben
ĠFahr t
Ġ188 8
ĠMark us
mod el
ĠKloster s
Ġverkauf te
Ġkor re
lehn t
M ai
in us
au te
ĠK redit
ĠT it
ot ograf
Ġr oman
Ġlie b
Ġbef Ã¶rdert
ĠFr ucht
ĠJugend liche
ĠB ein
ĠK y
ĠR io
ir c
ĠC ross
ĠSch lei
sp itze
Ġaus fÃ¼hr
ĠAm azon
Ġ186 6
dre ht
ĠGlock en
B S
s z
Ġd ok
ĠB och
ir a
Ġge Ã¤ndert
Ġsch Ã¶nen
St affel
ĠsÃ¼d westlich
199 4
sprÃ¼n glich
ĠMaler ei
Log ger
ĠKategor ien
Ġallgemein en
Ġlok alen
Ġdisk u
R ezep
as i
Ġm e
ĠW under
Ġan gen
fr ont
ĠÅ ł
ĠDrehbuch autor
ĠMÃ¶ bel
ĠP riv
est and
eich ern
org an
ĠMehr heit
prÃ¤sen z
e ff
r ennfahrer
Ã¼ se
at tet
Ġs ymbol
ĠM Ã¼hle
etz ungen
rie f
ĠBr uch
fahr zeug
wer ten
pro cess
Ġbesch Ã¤d
hau se
Ġeinf achen
ĠErweiter ung
k re
ĠP etr
Ġf rem
ĠL inden
ĠIm age
bau en
ĠEnt stehung
ĠWelt meisterschaften
ande ur
Ġ ehren
er z
le bte
Ġt hr
ĠUn ser
Ġvor wiegend
ĠUm fang
ĠPf alz
forder t
ĠBrow n
S ocket
g in
r un
ar tikel
ĠF ro
ĠV f
Ġher um
Ġhier bei
bo ok
ĠWerk statt
sw ert
ĠerÃ¶ff nete
M em
T eil
m acher
Ä Ļ
Ġz iemlich
ĠK rÃ¤
ĠF ast
ĠH ob
ĠR ou
ut sch
Ġan lÃ¤sslich
ay ern
Ġbeg eist
ĠHoch schul
gn or
ĠRechts anwalt
ĠUp date
Non Null
E M
w inkel
ĠH ig
Ã¶ ck
ĠL Ã¶sungen
ĠN ote
Ġk ir
ger Ã¤t
ĠGeb iets
ĠspÃ¤ter e
ĠMet rop
tic ast
On ly
Ter m
S ettings
f arbe
h le
Ġ test
al om
ur al
ĠD ay
ann a
Ġc ommand
get String
ire ct
druck t
ategor y
ĠBed arf
Gr und
ĠDokument ation
Ġorganis iert
ĠArr ondissement
d h
ĠT ay
Ġver teid
ger Ã¤te
ek or
Ã¼t tel
amt es
Ad apter
ĠGraf ik
Ġlist ener
Ġkanad ischer
P re
r ic
or i
at her
ĠK un
ĠV Ã¶lker
Pro xy
wor fen
ĠMont ag
ĠAllgemein en
p at
t urm
ch ild
Ġin klusive
ĠR Ã¶m
ĠAl les
Ġpro blem
Ġunser es
ĠKomm and
con tent
Ġ189 2
ĠsÃ¼d Ã¶stlich
ĠPer spek
ĠGi ov
Ġdefin iert
exec ute
M Ã¼n
c ause
ĠA gent
ĠF ootball
se kretÃ¤r
qu alitÃ¤t
ph ase
Ġgel b
ĠOl d
ĠĊĠĊ ĠĊĠĊ
Mod ule
Ġfre ie
I dentifier
Î ±
ĠA fr
ĠP seud
ĠT herapie
ik i
Ġt mp
Ġst arten
auf nahme
rau t
Ã¶l z
pro perty
ĠMittel punkt
ĠBern d
umin ium
B ef
C or
K inder
N e
g ier
Ä «
Ġd is
ĠL ev
ĠC ob
Ġal ready
ĠZ Ã¼ge
Ġeigen er
ĠVertr ieb
Ġgesp eichert
ĠAward s
ĠD ollar
ĠH ey
ĠR iesen
Ġh oh
Ġle gen
Ġbeg leitet
contains Key
tell igen
ĠendgÃ¼l tig
ĠWeib chen
Ġ Ã¤ndern
au thor
ĠD ec
id es
aus s
Ġdi ver
atÃ¼r lich
Ġchar akter
Ġunbek annt
D an
ĠZ ub
Ġl eitet
ĠVer z
up pert
ha i
ĠPhys ik
Erster wÃ¤hnung
ĠAmate ur
ynast ie
D ay
ĠS z
ĠF ans
le ute
Ġg ro
Ġauf treten
geb ieten
dem okrat
IN ST
ĠEurop as
red icate
Ġruss ische
prÃ¼ fung
Contr ol
L IC
m ess
ĠN at
ab len
Ġbe auftrag
Ġsch lecht
ĠEin en
ĠAus sicht
war en
ĠHin weise
wor tet
Ã¤dagog ik
ĠVorstand s
o ÃŁen
v iel
ĠB Ã¼r
ti ver
Ġk Ã¶rper
Ġst ation
ĠEr ster
ĠAr men
ĠKon zep
ĠBl Ã¤tter
wend et
jahr en
riter ien
ĠWochen ende
ĠstÃ¤r ker
Ġv ar
Ġ( ),
ĠG ame
ĠI stanbul
re a
ĠAn erkennung
St ar
ack t
ĠBar ock
Film schauspieler
ĠTrain ings
cel ona
ĠVerÃ¤nder ungen
C ar
S eite
st ufe
ph a
teil te
M ilitÃ¤r
i ques
Ġd Ã¼n
ĠD afÃ¼r
ĠG att
ĠT an
ech er
Ã¶l l
ĠMon ats
Ġhin ten
ĠMo der
ĠGegen d
OR T
ĠMet al
Mus iker
ĠIll ustr
P hil
ĠS I
ĠT ick
Ġsp anischen
Ã¼t ter
ĠGrÃ¼n en
ĠGed ichte
ĠSzen en
k ov
ĠB om
Ġge zogen
ri ver
ĠPh ase
mÃ¤ÃŁ igen
tisch es
ĠPass ag
Ġfunktion iert
angeb ot
P ers
t able
Ġm er
ĠF I
tr ol
Ġer stellen
ĠN erv
Ġg uter
ĠO pp
ĠSch ild
Ġa ction
sk l
ĠKon f
bild ungen
ĠRo hr
Ġnord Ã¶stlich
ĠAben teuer
ĠHÃ¶ch st
Ġi dentif
ĠT ob
tr op
Ġt here
ĠVer eine
Ġbes ucht
Ã¶ff net
ĠSystem s
Ġgesp rochen
ĠLes er
Ġpop ul
Ġbeinhal tet
l iteratur
t l
ĠS eg
ĠM ans
ĠL egen
Ã¤nd igen
Ġ188 6
ĠKÃ¼ hl
besch reibung
Ġrich tigen
hoch schule
s ession
z ellen
ĠW Ã¼n
us se
Ġg lob
Ġ8 5
ĠPf arrei
Ġerfolg reichen
ĠSk ulpt
Sti ftung
l isten
ĠIn stall
ĠSoc ial
Ġspeziel le
Dec lar
Ġdok umen
A ktu
R ock
Ã¶ scht
Ġh ieÃŁ
Ġk ennt
pl ic
ĠGeb ieten
Ġbef ind
ĠTechn ischen
Digit alisat
' ,
v inz
st atic
el en
ĠA kt
Ġ( ).
ĠR ie
ĠâĢ Ķ
ok us
ĠAus fÃ¼hrung
burg h
Ġ15 00
org anis
ele ase
Ġangeb racht
Ġzentr ale
ĠInf os
ĠBrem er
ĠBist um
ĠDrit tel
Kompon ist
4 00
S pe
S ingle
c s
ĠF ar
ĠL at
ĠR on
ill ing
ĠVor bild
ĠGes am
wend ungs
ĠFre e
Ġ188 7
ĠAutor in
Ġversuch en
Ġnord westlich
ĠRaj on
n eu
č ĊĠĠĠĠĠĠĠĠ
ĠA ster
ĠK orn
ĠL iber
ic z
ow itsch
âĢľ -
if iers
Ġher unter
AL L
ĠGef Ã¼hl
ĠRes ource
ĠHe er
Le ft
C C
b ett
s rc
ĠS ache
Ġim age
Ġl ink
ĠVer stÃ¤nd
ĠVer fassungs
sb ed
aktion en
agn ost
Produ ktion
g riffen
n t
Ï Ħ
ĠE th
Ġf inde
ĠverfÃ¼ gen
ĠInn sbruck
ĠVort eil
it alien
ĠK ino
ĠSch mer
Ġbe qu
auf nahmen
ĠAb stra
vertr eter
Z one
l itz
Ã¤ ub
Ġm ay
um b
eben e
ĠAuf tritt
ges ellschaften
Ġgesch Ã¼tzt
ĠSpr inger
ĠZug riff
Ġgeboren e
Ġzeit genÃ¶ss
ĠLok omo
vorsitzen der
ĠfÃ¼n ften
C up
i Ã³n
n d
r olle
st ritten
Ġs l
em an
ĠP ublic
Ġp reis
ĠAm b
Ã¤ch t
Ã¤nd ige
ilom etern
Ġjeder zeit
Ġwes halb
ĠB ase
Ġn annte
ĠN ation
ĠVer arbeitung
im ir
Ġsch uf
iv als
ph y
ĠMilliar den
k B
in f
or fer
ĠZ usÃ¤tzlich
Ġt hen
ang es
gel s
Ġdies mal
Ã¤nger ung
ĠGra ph
RE S
ĠJe der
Ġengl ische
ĠRek ord
Ċ Ċĉĉĉ
ĠL ep
ĠL uther
ĠN HL
ĠC op
aus o
ak on
Ġmehr erer
bau te
fahr ten
AC E
ĠPort al
ĠhÃ¶ here
ĠBur gen
ĠPrÃ¼ fung
K an
j ection
ĠG ouverneur
ol en
ĠW Ã¶rter
Ġp orn
ĠPf licht
ĠBest er
Ġgest alten
Ġbestehen de
Ġbem erk
ĠJes u
G H
b il
g reg
p re
t in
ein heiten
ĠF a
Ġge legt
Ġsch m
Ã¼ck t
ep pe
atur en
Pro zent
folg ung
Film titel
ĠBef ehl
ĠAustr al
Eng ine
J ose
Ġb raun
Ġin it
ĠP ader
ĠR ats
ĠO ver
ph one
ĠRes earch
ĠTechn ologie
ĠmÃ¶ glichen
Jan uar
M sg
Ġd omin
Ġv oller
et ti
ĠM ig
Ġm Ã¼s
ĠK ohlen
ĠH ome
Ġp refix
wa ffen
uff ix
ĠGroÃŁ herzog
so ft
Ge ografie
tiller ie
] [
n ap
al o
ĠG a
ber uf
ĠC ott
ik at
all iga
ĠBer ech
Ġ5 9
fl ow
ĠBe at
Ġwei sen
unn ing
ĠWissenschaft ler
Wer degang
deutsch land
mir al
A gent
R ev
T L
Ġ tim
ĠM u
ĠM ang
Ġer geben
Ġer folgen
ĠN ie
Ġaus gesch
amm ern
ĠHand werk
wir d
Ġerreich ten
Ġgelegen tlich
dar steller
Ġopti mal
g ung
k olle
ĠS yd
ĠB Ã¶r
ĠP oten
ul f
ĠSch Ã¼tzen
ri min
Ġ} ;
og a
Ġum ge
Ġdar um
ĠKl ang
li as
ĠPfer de
R uss
S ow
b uilder
t oken
ro ot
ĠZ auber
Ġgen ieÃŁen
Ã¤u den
Ġcon vert
ĠDar aufhin
Ġgetr offen
sprÃ¼ che
ĠFranc isco
;; ;;
ĠNomin ierung
s st
st on
ĠS he
Ġb reite
Ġin spir
ĠL evel
ut able
ab geordneter
Ġzu gÃ¤nglich
ĠVer k
Ã¤r n
up pe
Ġverb essern
out h
ĠDorf es
Ġpoln ischer
ĠSchlieÃŁ lich
O F
Ġd eb
or men
ĠK em
ĠP age
ĠSch all
ĠSch ott
ed ule
ĠSp e
Ġunter gebracht
Ġget Ã¶
Ã¤tz t
199 2
urs or
ĠRegel n
ĠPrÃ¼ f
ĠKomment ar
Schwei z
h ten
l uft
{ }
Ġw eite
ĠM inder
ĠW ellen
tr ee
Ġan sonsten
ild es
ĠProf ess
Ġdi verse
ĠLie bl
Null able
Cl uster
BevÃ¶lker ungs
D is
b or
at tr
ĠW ahlen
Ġzu folge
Ġver setzt
ow o
ĠAn bieter
eck er
ĠOl denburg
Ġ189 1
C I
M I
g asse
st immen
Ġzu frieden
Ġst Ã¤ndig
scha ff
rau cher
Ġ< /
ĠSchw imm
Ġ186 8
Ġtradition ellen
ĠGÃ¼n ther
Ġurkund lich
v ard
ie be
as ks
ĠCon c
Ġ188 3
ĠKr one
Ġheraus gegeben
opp elt
ĠDokument ar
ĠRumÃ¤n ien
H e
J vm
T S
U B
W asser
ur o
ĠD ich
ĠM aus
Ġm ulti
ĠK ann
ĠE cke
ĠP rak
ti ment
Ġt hread
Ġle ft
Ġgleich er
Res ources
ĠAp othe
ĠMad rid
Ċĉĉĉĉĉĉ ĉ
(... )");
B oot
b eu
un checked
ĠM Ã©
ak es
ĠPro tocolMarshaller
Ġverl etzt
Array List
ĠEigen tÃ¼mer
jen igen
ĠOz ean
/ >
Ġl aufen
Ġaus drÃ¼ck
ed y
Ġun bedingt
ĠSp Ã¤t
art h
ud a
zeit schrift
Ã¼l ern
ĠHand lung
hol en
Ġkommen den
ĠNe use
Ġklein eren
Ġvorhanden en
fre ie
Ġnorm al
Gener ator
gefÃ¼ gt
e get
tr ieben
Ġp asst
Ġst rate
ot oren
Ġober halb
komm t
ĠÃĦgyp ten
K omm
ĠA S
ĠL etz
Ġbe achten
ĠMit tler
Ġpro du
ĠKon stantin
ĠBe ach
Ġkon troll
ĠSk i
com pare
ĠschlieÃŁ en
Ġâ Ī
hÃ¶ fe
ĠTex as
Ġverkauf en
ĠGÃ¼n ter
ĠlÃ¶ ste
F est
ĠD ag
ĠM essage
ĠG riff
ĠAl p
arb eitern
ĠFor der
Sie g
best and
ĠNaturschutz gebiet
Ġdur fte
ĠPortug al
C lose
d om
ch or
am ik
ĠH alte
Ġsp anischer
Ġgeb lieben
ĠNieder lande
199 1
ĠKat zen
ĠCor por
Ġpass iert
ĠLOG GER
**** ****
ĠergÃ¤n zt
ĠBronzemed aille
R eturn
h Ã¤usern
an ti
Ġw eb
ĠB uck
ĠB ibel
ĠI ran
ĠSt ory
ap s
Ġ18 40
ĠAd ler
sw issenschaft
Ġ186 9
Ġspe zif
ĠCom ic
an dern
el be
Ġst ren
ap est
ru st
ĠAus zeichnungen
ĠMag azin
ĠstÃ¤r k
ĠOrganis ationen
O pen
z ert
an alyse
ar ischer
ĠV ul
ĠO h
Ġver teilt
Ġst abil
Ġtr ocken
min istr
ĠZu cker
send ung
spl it
haupt stadt
Ġtem p
ĠDir igent
Ġinform ieren
Ġpromov ierte
ĠAnh Ã¤nger
F S
sch ritt
Ã¼ re
ĠM aur
ik ationen
ĠZ ehn
ĠAn lass
qu enz
ĠÃĦ hn
ĠRep ar
ĠSek ret
Ġtem plate
Ġschwed ischen
ĠDien ste
ĠZun Ã¤chst
W ien
de p
ĠEin z
Ã¶n t
Ġgen annte
ĠGef Ã¤ngnis
ĠLeip ziger
ĠHum an
=' \
F L
u an
ev ice
Ġ5 6
ĠFran ces
yl van
hÃ¤ng ig
eier mark
ĠClau d
ĠMaxim ilian
z ut
Ġw omit
ĠF ehl
Ġsow eit
lei ben
ĠEurop Ã¤ische
Ġ188 2
Ġ187 9
ĠBar celona
ĠLeichtathlet ik
s aison
ĠF ab
le ft
Ã¶ ger
Ġgel angen
ĠGew erbe
Ġ187 2
Ġ187 5
rÃ¤sent ation
ĠAust ausch
B us
D on
g roÃŁ
k Ã¶nig
in stitut
Ġein zu
ĠW alt
ver lauf
ĠDie trich
ĠPro perty
Ġzwei er
Ã¼t t
ĠNew s
Ġruss ischer
ĠBil dern
rupted Exception
BevÃ¶lkerungs entwicklung
H Ã¶r
W R
ĠA ct
ent ity
eb e
Ġaus reich
Ġbe en
ĠReg iment
ĠY oung
Ġ186 4
fÃ¤l lig
ĠKant ons
ĠAmts zeit
gehÃ¶ rige
ĠVik tor
endo ktor
al i
ĠL izenz
Ġk ost
Ġsch Ã¼tzen
Ġunter scheidet
Ġre ader
ob ald
oph on
ĠBereich e
ĠOb last
ĠTem plate
ĠJer usalem
Ġfertig gestellt
ĠHarr y
er tet
ĠS omit
ĠW omen
ra ct
Ġnach fol
sh ire
eld et
wir k
ĠKunst stoff
ĠschlieÃŁ t
ĠMark eting
ĠDo ktor
ĠLab or
ĠKrim inal
ĠGelegen heit
C onn
n oten
ĠG rim
ech ter
Ġpro ject
ĠBau ch
ĠWelt meister
Ġ< <
ĠÃľber blick
AT A
Ġkathol ische
Ġausgew Ã¤hlt
Jahrhundert s
Ġbenachbar ten
r Ã¶
x x
sch rau
ĠB uffer
Ġr ight
ĊĠĠĠĠĠĠĠĠĠĠĠĠĠĠĠĠ ĠĠĠĠ
lo ÃŁ
rit ter
ĠMar g
Ġ5 4
ĠEl be
EN D
ĠKat alog
ĠSek tion
ĠOs car
ĠBach elor
ĠVerantwort ung
c ape
k ar
Ġ est
an ik
ĠK Z
ern ame
Ġ18 00
zen sion
gel Ã¤nde
Ar gs
ĠNeu stadt
ĠIntern ets
ĠInnen stadt
Fol der
u hen
Ġ reichen
ei ra
ar isch
ĠT O
ĠT en
ĠN ight
os se
Str ate
ĠLe o
isten ce
ĠDi Ã¶z
forder ung
ĠSchiff s
ĠFil men
ĠScien ces
Ġoption al
Bound s
Ġabger issen
ĠGriechen land
/ *
S ymbol
ĠK Ã¼nst
ĠH unde
id o
ner stag
Ġdar stellt
sb urger
)) )
Ġbew usst
ĠTre ffen
Ġoffen bar
R oman
am i
ĠF an
Ġver gessen
ĠSt Ã¼cke
ĠEin stellung
land schaft
ĠGesch enk
ĠChr on
ement s
ĠArbeit geber
198 9
ektr um
fil me
Ġfeier te
ĠW inkel
ĠR Ã¤ume
men ge
ĠJahr hund
ib l
ĠCh allen
ĠBr Ã¼cken
li ver
Ċĉĉĉĉ ĉĉĉĉ
ĠTra g
lauf en
Ġreg ister
ĠKo al
Ġprof it
ĠErinner ung
Ġinn ov
T hr
or um
ĠK abel
Ġer leben
Ġp ers
he ad
icht lich
id get
ĠEx pedition
ĠBet on
arch ie
urnal ist
UN G
Ġlern te
J uli
S eptember
f al
ĠB ast
ĠB iele
ĠE ier
Ġvor ne
Ã¤r m
geb oren
En de
wir t
Ġpar ser
spro zess
cy cl
Loc ale
spart ei
( @
b it
c ard
s ing
ĠĠĠĠĠĠĠĠ ĠĠĠ
ĠK G
ĠH als
ach s
ion e
Ġaus einander
uf er
ĠMa schine
ĠKon zentr
Dat um
ĠSyn ag
ĠGit arr
ĠHoll y
Ġport ugies
Ġstellvertreten der
w eb
er a
ĠR eh
Ġlie genden
ett ing
Ġ187 3
ĠEben falls
ĠÃ¤lter e
ĠMathemat iker
ĠMail and
S earch
f rÃ¼
ĠB ow
ĠP ack
ĠH agen
ĠL aden
ab or
Ġg ros
Ġan fangs
ĠSt au
Ċĉĉ Ċĉ
geb iets
Pro jekt
Ġgel ungen
Ġgef Ã¶rdert
Ġerfolg reiche
ĠProm otion
Disk ografie
ĠIter ator
A pril
H alb
V A
ĠB R
ĠR esponse
Ġk ont
Ġver arbeitet
ĠAb b
ant on
lei der
ĠVerb ands
ĠAt lan
193 3
ĠCook ies
) -
M AX
k at
r n
ĠK ohl
ĠN u
Ġl anger
ĠSp ir
lie hen
ial en
ht ml
Pro cessor
port al
Ġ187 6
Ġschl ug
Ġerwar ten
ĠTschech ien
ĠverstÃ¤r kt
V ari
al it
el er
stell ers
Ġch ange
gew inn
ĠPart ie
di mension
beg inn
ĠAltern ative
ĠCarol ina
P C
c u
or er
Ġaus gebaut
ĠAn sicht
ob jekt
Ġviel er
wÃ¼r fe
Welt meisterschaften
INST ANCE
P al
R S
W ill
d ist
st oÃŁ
ĠW itten
ĠT SV
ĠC ur
eb urg
ĠZ ell
ĠSch aff
ĠBei spiele
ĠSo zi
Ġbet r
ĠWest falen
abr Ã¼ck
Kurz film
B U
F lag
W ord
Z wei
l at
sch end
ĠG ames
ĠN ationen
Ã¤n glich
mer k
ĠKon serv
amer a
ĠfÃ¼hr enden
deck te
Ã¤te stens
strahl t
T ran
ch a
ĠF assung
ĠP ersÃ¶n
ĠH Ã¤
ĠL as
ĠR eiter
ir ke
ĠAn aly
urn e
Ġ18 78
Ġvor ber
Ġbew egen
glieder ung
ĠMag n
Wir d
ĠAmer ica
kÃ¼rz ung
ĠBres lau
n abrÃ¼ck
z o
Ġd t
Ġp ut
wei ch
gr enz
Ã¼nd nis
Sch n
jahr e
Ġschwer e
ĠVertrag s
Ġwoll ten
J SON
sch icht
Ġk Ã¼nd
ĠSch los
ĠVer dienste
ĠAuf merksam
ac y
ĠAd vent
kehr t
ĠFrÃ¼ hl
gesetz ten
Ġpl Ã¶tz
frei heit
ĠHoff mann
ĠEind ruck
D elete
o ul
Ġ hr
on ia
Ġm orgen
ĠV ill
ent hal
ĠO m
ma jor
Ġges agt
ĠWel tr
Column s
Ġw idth
Ġm achten
ĠF ound
ĠR un
os h
Ġc ap
âĢľ ),
len z
Ġum gebaut
Ġle hn
ĠÃľber nahme
ĠVerb indungen
alis ieren
des ign
Ġsol cher
ĠMÃ¤n nchen
Ġbez ieht
ĠEt hn
ĠBek annt
Ġgl Ã¼ck
ylvan ia
c all
ĠK oll
ĠE ver
Ġf Ã¼hl
ĠH ay
Ġk re
ver hÃ¤ltnis
ĠVer n
Ã¼n de
olog ien
olog ical
ĠEben so
ĠBrun nen
frist ig
f euer
t licher
w all
sch reiben
ĠA N
ĠE UR
Ġge fertigt
Ġlie fern
fahr ens
hol ung
ĠSer ies
UL L
ĠBrun o
ĊĠĠĠĠĠĠĠĠĠĠĠĠĠĠĠĠĠĠĠĠĠĠĠĠĠĠĠĠĠĠĠĠĠĠĠĠĠĠĠĠĠĠĠĠĠĠĠĠ ĠĠĠĠĠĠĠĠĠĠĠĠĠĠĠĠ
ĠDÃ¶r fer
f eier
w ner
Ð »
Ġd b
un sten
ge legen
Ã¤ use
Ġf u
Ġr umÃ¤n
Ġ5 3
Ġgest artet
ĠKompon isten
Ġ{} ",
S ER
ĠM uss
Ġn ow
op Ã¤d
ĠSp uren
ungs gebiet
Ġ+ +
Ġmehr mals
Ġ6 3
pro p
Ġ188 4
ĠWo od
Ġintegr iert
Ġ ).
ach us
est ern
Ġsch wei
if iziert
aler weise
kir ch
ĠBew ertung
ĠÄ Į
L AN
M AT
v ey
Ġv ia
Ġm ech
re qu
wei ger
20 21
ĠReich es
ĠRÃ¶ mer
hentic ation
Verwalt ungs
k ommand
Ġs ql
ĠL och
ĠO d
Ġauf zu
sp rÃ¤sident
ri o
gend es
ĠWest ern
ĠSÃ¼d west
lex ikon
ĠStad ion
---------------- ----------------
Ġreduz iert
f loat
u en
ã ģ
un nen
st offen
ĠS ehenswÃ¼rdigkeiten
ĠJ ens
ĠSch icks
ĠVer f
Ġsch mal
ĠAl so
ĠAl uminium
br ig
ĠGeb Ã¤udes
Un ser
ĠAt mosphÃ¤re
ele ge
ĠFel der
Ġdamal ige
ĠKath arina
ontinu ier
! âĢľ
H O
ĠF as
Ġf ehlt
Ġa ct
ste ck
ĠFrei will
ĠFreund in
m ain
z ant
at iver
ĠH ex
Ġp attern
ran ts
pl es
onn a
Ġ6 6
arr ier
ĠGemeinde gebiet
[] )
ĠChrist us
Ġem pty
ĠPat rick
Ġerrich ten
ĠdÃ¼r fte
ĠMÃ¤r chen
ĠGiov anni
r ise
ĠK ra
is m
ĠT ipps
od ie
ĠBer ge
ĠUm satz
ĠQu ell
ĠSte u
Ã¼l lung
ĠRo ute
Ġall eine
ĠMeister schaften
ĠHin weis
Ġeurop Ã¤ische
ĠpreuÃŁ ischer
ĠEreig nisse
ĠNiederl anden
D ezember
st ahl
Ġs yn
ĠD al
Ġin ne
gen ossen
ĠR E
Ġh undert
ig ger
ĠO ri
ĠAn ne
ath an
Ġgew Ã¶hn
ĠGesch windigkeit
Ã¼l le
ĠAd d
Ġverw endete
rib ution
D o
V om
h em
Ġm ex
ab els
Ġan n
Ġal ter
Ġun gewÃ¶hn
Die ses
amm elt
ĠProdu zent
ĠFre unden
Ã¨ s
ĠDel eg
Abst ract
s ylvania
ĠG ieÃŁen
ĠAus wirkungen
ĠOber Ã¶sterreich
Ġar ab
spro gramm
Ġprak tisch
ĠCollection s
ĠLux emburg
Schwei zer
ĠPader born
P lay
g al
s ort
ĠA gr
ĠF inger
is st
ig tes
od ox
ĠThe at
ĠMill imeter
ĠAss istent
ĠÃ¤uÃŁ erst
ĠsÃ¤m tliche
tw och
R un
j ust
v arian
an on
Ġb reiten
ĠOr n
Ġ5 7
be cken
Or iginal
ĠHe eres
ĠSchm uck
Ġwh ich
Ã¼st et
c ore
w idth
ĠK ader
ĠF u
ĠR ainer
Ġk Ã¼rz
rie s
19 80
enn bar
amm lungen
olle yball
ail ure
ĠQu ery
Ã¤d t
ĠSchw anz
Ġcon figuration
Ġ188 1
Ġmittler e
Med ia
ĠniederlÃ¤nd ischer
ĠSpec ial
B rite
r d
st es
ein richtungen
as sten
ĠF res
ĠF alle
Ġf rau
ĠT auf
ĠEin er
gr Ã¼ndung
Deutsch e
AR T
Ġgewann en
ĠEle ctr
Cal endar
F il
ur er
ĠK en
ĠL et
im um
19 70
Ġ' "
ĠHier bei
ĠTre ffer
ĠEvangel ischen
ĠgetÃ¶ tet
E W
Ġb it
ĠM ei
tel le
ov ed
str asse
vor stand
man ager
ĠBundes wehr
minister iums
Ġamer ikanische
ĠStock holm
Ġschwar zen
Ġintens iv
ĠTay lor
M a
i pe
l Ã©
ie ber
ĠS v
ĠM inn
Ġn ied
ĠK im
Ġnach gewiesen
Ġre v
Ġre al
ĠGr aben
ĠIm pl
ĠX X
ĠStat istik
Ġevangel ischen
W ar
v ideo
Ġn Ã¤chst
ĠG ymnas
ĠP last
ĠN et
ist a
Ġlie ÃŁen
ommer ziel
zeug ung
ĠFranz isk
fÃ¶rm ige
Dec imal
TI ME
g Ã¤ng
h s
Ġ" );
dienst kreuz
abil itÃ¤t
ĠBundest ag
O ktober
ĠN eck
ĠIn t
ĠCh urch
ĠEx istenz
Ġbel iebt
Ġ> >
On line
Ġdire kten
Ġoption s
K or
n ischen
or chester
Ġs end
ĠB enz
de pen
Ġg u
ul iert
ĠSp recher
ĠAl ben
tern e
hl t
gesch Ã¼tz
ĠRo se
ĠÃĦ m
Ġaktiv e
Ġerf Ã¼llt
ĠStraÃŁen bahn
ĠTest ament
Ġother lv
ĠUkra ine
B O
M art
P ersÃ¶nlichkeiten
c omm
f irst
g ard
k anz
r esp
or ia
rei ft
Ġst imm
br eitung
Ã¤ch te
Ġhand elte
Ġstamm te
k es
v ide
Â §
Ġ achten
ĠA C
Ġi den
ĠM eg
ĠL ange
ĠL orenz
Ġh um
ĠN est
ler in
ĠEin kommen
ĠAr ab
Ġ" '
spr uchs
Sch ule
ĠRest e
ĠHar ald
ĠkÃ¶nn t
ĠZuf luss
m ach
al u
ĠK lin
ĠE ch
Ġum s
ohn e
Ġger iet
ĠDu is
ĠCor ps
ĠMiner al
ĠAufmerksam keit
i oren
m Ã¤r
Ġs ur
ĠMar s
Ġlie fer
ĠEt appe
ĠGal ax
ĠAnder e
ĠLib r
ĠViertel finale
ĠWeimar er
a schen
it is
Ġb ound
Ġm ake
Ġzu gelassen
ĠSch atten
ot os
Ġr ies
Ġab w
ĠBer ater
Ġbest immen
ĠKont in
ĠAlter s
Ġbedeuten de
ĠVerbesser ung
ĠEns emble
Ġschaff te
Ġd ocument
is l
ĠT ax
Ġh eight
Ġge eig
ĠSt ab
Ã¤t t
ĠAb lauf
Ġ5 8
Ġgesch ieht
eig ung
Ġsof ern
ĠBud apest
ĠJac ques
olumb ia
ĠTir ol
A ME
m ethode
r as
ĠP osten
ĠL atein
Ġver an
ĠWeiter hin
verein igung
Ġpolit isch
ĠAmer ika
ĠHir sch
ĠCentr al
gentin ien
Ehr ungen
L ower
en se
ĠA qu
ĠB ulgar
um l
he ater
Id x
ĠSchw ein
Ġwel chen
ĠGe denk
Mit tel
ĠSÃ¼d afrika
Ġ187 7
ĠverÃ¶ffentlich ten
lÃ¤nd ische
ĠRen aissance
eucht ung
ĠWach stum
Ġscheiter te
? ?
H z
Q UE
S ol
ei ro
ar es
or o
Ġein heit
ĠIn c
Ġlie ben
du ktion
ett a
ĠEber hard
Ġuntersuch t
E E
or ter
Ġge lesen
Ġge dreht
ĠUn der
oll ow
Ã© t
ĠSta ates
off s
ĠInd ividu
Ġstell ten
ĠTer ror
ĠKu gel
ĠReform ation
Ġerinn ern
national spieler
VerÃ¶ffentlich ungen
O B
i qu
ĠT Ã¤tig
ĠL ittle
ĠN az
Ġge g
Ġbef anden
ĠEx ec
ĠJo e
schiff e
C ell
M otor
sch ild
ĠB lo
ĠK reu
Ã¶r te
19 30
Ġum gesetzt
St ation
ĠUm feld
ĠIhr es
ĠUniversitÃ¤t s
Ġ186 3
film ung
ĠDisk ussion
Pan el
F OL
ĠS A
der e
ro hr
Ġge weiht
Ġl imit
ĠAn trieb
get D
ant es
mit tag
Mod ell
ĠSam uel
stehen den
fÃ¤h ig
ĠAnzei ge
ĠD unk
Ġ1 15
ĠK av
ĠW itt
ĠR ow
ĠO liver
ian ischen
Ġle gt
Ġ7 2
iss ing
Ver tex
ĠDurch fÃ¼hrung
lan zen
Auf grund
Ġbesser e
Ġbegr enzt
Comm on
8 00
E ishockey
W e
l u
Ġm ore
ol ph
ĠL eich
us ste
om er
ĠV inc
ĠJ ubil
Ġp oint
ation Exception
ĠIn schrift
ĠEr wer
get P
ĠAuf ruf
per imen
Ġ7 00
zw ungen
zahl t
Ġ186 1
Ġ186 2
Ġverwend eten
ĠEing abe
ĠOs nabrÃ¼ck
zust and
ĠKapit Ã¤n
k rank
y c
Ġ ei
ĠM B
ĠP ion
ĠC ent
ĠSch Ã¼lern
Ġc as
Ġj ener
Ġ6 2
ĠWir d
ĠNeu er
ĠOrt schaften
ĠJu an
deck e
Ġschn eller
ĠBi ografie
ĠAu ge
ĠTex til
LO C
ĠMerk male
Ġangep asst
r eit
an iker
ĠW Ã¤l
Ġh off
Ġwar ten
Ġj ust
rÃ¤ umen
Ġdar stellen
Ġch ron
Ch ain
Ed itor
Ġrec ord
ĠNav y
zus etzen
ĠMul ticast
ĠLieb es
' :
G ET
S im
on te
ĠL ord
Ġp rÃ¼
ĠEr gÃ¤n
get T
Ġa fter
ĠBer gen
Ã¤l ter
ĠProdu kten
uck et
ĠRot h
Frau en
ĠStad tr
Ġperson en
hedr ale
Ġdeb Ã¼
. ",
N etwork
S aison
c ontainer
h Ã¼tte
st ore
ĠM id
ĠK ai
ĠC ommand
od a
ĠAr me
fÃ¼hr ungen
tif act
AR L
ĠDienst leistungen
ĠursprÃ¼n gliche
Sec urity
track ing
ĠKonfl ikt
P at
em pty
ĠG on
ĠW uppert
ĠC ra
Ġver grÃ¶ÃŁ
ĠSch reiben
ip her
Ġnoch mals
az itÃ¤t
Ġange hÃ¶r
Res olver
ĠUr teil
ĠVers icherungs
ĠÃ¼bern immt
Ġwirtschaft lichen
pfl anz
Frie drich
P A
S L
c il
ĠF Ã¤hr
Ġh ef
lich ten
ĠIn stanz
Ã¤t tern
Ġent f
ĠVor bereitung
ition en
gl as
ĠCo ver
ĠVerl ust
M ENT
b in
st eile
Ġs earch
ĠM es
Ġc onn
id ium
19 14
ĠKl eine
Ġeh emals
ĠSystem e
198 8
Ġerf Ã¼llen
system e
ĠAuss age
F ra
Z entr
h ammer
ĠD ass
ĠL av
Ġk ompon
Ġk Ã¼nf
rit iken
ĠAb stieg
enden cy
ĠMor itz
ĠMat rix
Ġanerk annt
preuÃŁ en
O ff
S ing
S ION
Ã¤ g
ĠL eh
In formation
ov en
me te
sk irche
ĠGesch ichts
bo ot
193 9
ĠWie sen
ĠBad minton
ĠVerl Ã¤ngerung
frei en
alte ten
Ġerweiter te
alys is
K omp
P aul
on line
is er
ĠW ay
ĠL em
ĠR up
ĠR olf
ĠO f
ri pt
ĊĠĠĠĠĠĠĠĠĠĠĠĠĠĠĠĠ ĠĠĠĠĉĠĠĠ
hl on
ill y
Ġthe oret
ĠSpiel film
ĠzurÃ¼ck gegeben
198 4
Dat abase
ĠSchwar zen
ĠDemokrat ie
ĠverlÃ¤nger t
G C
r in
te in
ĠB at
Ġh Ã¤ngt
ier endes
Ġk ontinuier
ĠGem ark
ĠBl ues
fÃ¤l len
kn own
abr iel
liefer ung
Ġbeeinfl usst
Lang uage
ĠWag ner
achus etts
B M
B aden
I hr
S an
m essen
en hagen
ĠD ein
ĠF ire
tr ace
ĠIn sbesondere
ĠSie gen
ĠBer at
pf lanzen
ph ys
Ġber aten
gesch lecht
Ġausge wiesen
ĠPar ad
ĠBerg bau
ĠÃĸsterreich s
ĠVers orgung
Ġop tim
Ġtran spor
dor fer
N onn
S M
en ces
ĠS G
at ische
Ġi gnor
ĠN SDAP
ĠAus schuss
Ġle vel
ĠFest ung
Ġ185 6
ĠPubl ish
ĠVirg inia
Ġehren amt
J apan
Ġ ep
ĠF ord
ĠE N
ĠH Ã¼
Ġver g
gesch icht
Ġgel ingt
Ġben annte
ĊĠĠĠĠĠĠĠĠĠĠĠĠĠĠĠĠĠĠĠĠĠĠĠĠĠĠĠĠĠĠĠĠ ĠĠĠĠĠĠĠ
Vor pommern
Ġbild eten
Ġposit ive
offiz ier
ĠFÃ¤h igkeiten
urren cy
B eh
b art
c p
ĠS amen
Ġs egment
ĠE M
ti a
ĠH ot
ĠO berg
Ġum stritten
gr Ã¤
tem p
schie de
wa ffe
ĠWohn zimmer
ĠPosition en
ĠVal id
If c
ĠSchwier igkeiten
Ġerlang te
N icht
b uf
ĠB am
Ġin to
ĠH op
ĠC onn
Ġl eisten
ĠÃ¼ber all
Ġ3 000
sh ot
Ġgen auso
ator in
hof er
AC K
ĠSa arb
Ġhol te
Ġstru ktur
j son
ĠS yr
Ġm Ã¤ch
om aten
Ġab hÃ¤ngig
ĠVor stellung
ian s
lau ch
ĠNord amerika
such t
Ġeinge laden
Ge org
ĠÃĸsterreich ischen
197 5
ĠDek an
ĠNorm al
ĠWerb ung
lieder ung
ĠBesatz ungs
igr ation
N orm
v oc
st einen
Ġs um
ĠB enn
Ġz ogen
ck et
og ramm
ĠEr furt
ĠPro ject
Ã¤r tner
ĠMit twoch
ĠPl at
ĠReich stag
Ġhand ler
ĠKompon enten
ĠnatÃ¼r lichen
ĠÃľberg ang
ĠSend ung
ĠKonzer te
Ġkir ch
B es
E hren
N ummer
n ur
v enz
ĠD rag
Ġin folge
ĠE sp
ĠJ unge
Ġge laden
ag a
Ġst il
Ġ6 8
Ã¼l ler
ĠÃĸ k
stein er
ĠGew Ã¤sser
ĠsÃ¼d korean
ĠHerr scher
Ġindividu elle
ĠUnabhÃ¤ng igkeit
ĠHolly wood
: "
g leis
s inn
ar c
ĠA ur
ĠK it
ĠG n
ĠP rim
re uth
Ġge arbeitet
Ġauf merksam
ant a
ool s
ĠHaus halts
ĠAt trib
tif y
ĠInd ust
198 7
Ġengag ierte
Sum mary
ĠBiele feld
st ar
sch ef
ĠD ick
ĠK Ã¼r
ĠC ru
ic on
rÃ¤ der
Ġbest er
ĠDek or
ĠHauptr olle
Men u
K ur
k ind
p il
s ite
re b
Ġk rÃ¤f
ĠZ eile
Ġj en
ĠKon kurrenz
Pro f
Ar g
Ein wohner
Ġro ten
bez eichnung
ĠVolks zÃ¤hlung
ĠMÃ¤n nern
ĠChem iker
Lo ad
ĠverfÃ¼ gte
Ġinform iert
ĠSyd ney
p age
ĠB orn
Ġb undes
ĠF it
Ġt olle
Ġ18 15
Die s
ĠAuf l
ĠVor trag
ĠIm mer
ĠEx pression
iff eren
rech nung
Ġabge st
ĠDon nerstag
ĠWal es
Ã¶pf e
Contr oller
Ġdenk mal
Hinter grund
ĠfÃ¶r dern
ĠVerstÃ¤nd nis
A tt
k ette
ar gs
ĠB la
Ġb rauchen
le un
ĠAb satz
Ġbest ehend
ĠFran Ã§ois
Ġex tra
Ġbef est
buch autor
Ġgelang te
ĠRein hard
Ġdire kte
ĠgÃ¼nst ig
Nov ember
K lass
Ï ģ
Ġm obil
Ġz ahlen
ĠL okal
ĠR ac
ĠVer leger
Ġst yle
pf en
bar ung
ark e
ĠBo oks
Sp ace
ĠMin i
Ġfest ge
ĠWohn ungs
leist ungs
ĠSem inar
ĠHan se
Ġwirtschaft liche
ĠBetreu ung
ĠWilli ams
3 00
H ans
S onst
T ab
sch reibung
em eister
ĠT ank
ĠAn wendungen
Ã¶n e
auf lÃ¶sung
ĠY or
deut scher
Ġ186 5
ĠJugend lichen
Ġhei ÃŁen
ehm igung
D oppel
r espon
al in
sch ungs
sch Ã¼tzen
ĠM eine
Ã¶ te
ro ad
Ġbei gesetzt
enn zeichnet
af Ã©
ĠKap ital
Ã¼h ler
Ġ185 9
valid ate
ĠIr land
ĠEmpf eh
ĠKop enhagen
ĠWÃ¤r me
L imit
P AT
en kt
el y
ĠF uchs
Ġauf gel
ist et
19 29
hl eten
per iode
An fang
Ġfest gelegt
fried hof
ĠAufent halt
M Ã¶
f ailed
Ã¼ cher
ĠA cker
ĠJ Ã¶rg
19 20
ĠMit arbeitern
Ã© d
lau be
ĠVerb raucher
By Comparator
ĠWeiter lesen
ĠMitte le
ĠPreuÃŁ ischen
ĠniederlÃ¤nd ischen
Ġged acht
I F
W rite
s ql
ĠG ep
Ġf unction
ĠV alle
Ġge liefert
Ġp o
eu ern
ĠAr g
ph il
Ġel eg
ĠPh o
ĠNeu es
Ġhier fÃ¼r
Class Name
ĠKur fÃ¼rst
ĠKol onial
Ġak zep
ĠTim es
Ġerheb lich
b le
p unkten
z eits
ĠS ession
ĠH ead
ungs mittel
Ġ0 4
ĠPl attform
ĠTh or
str eit
Ġaktu elles
ĠGo ethe
ompl et
ĠerklÃ¤r en
Ġstar tet
bÃ¼ ro
ĠKauf mann
Ġproduz ierte
ĠJahrzehn ten
ĠNR W
Rezep tion
f a
l ach
r ath
s an
ĠS achen
ĠH Ã¶l
Ã¶ tt
tr oller
and in
ĠN ad
Ġk aiser
Ġge pf
Ġauf gehoben
Ġl it
Ġr esp
ĠEin zugs
ĠSo ft
Ġbesch loss
ativ es
Ġverm eiden
ĠGo od
ĠEng ine
ĠNikol aus
ĠKabin ett
c enter
d oc
g le
ĠR ektor
Ġer mord
sp eicher
tel finale
Ġent decken
Ġ0 9
ĠZeit schriften
Ġwieder holt
pro perties
ĠEurop e
ĠKont akte
ĠTyp s
ĠHei de
Wil helm
A cc
c ap
h ar
en ke
it ation
am burg
ĠF ont
ĠG od
ĠP el
ĠP okal
Ġf ra
Ġl agen
eg ate
Ġum gew
Ġunter lag
ĠAb d
atz e
pro blem
Ġgesch lagen
ĠMen gen
ĠJul ia
ĠInter pret
Ġkon f
trÃ¤ glich
198 1
Group s
Ġ185 7
ĠEv a
ĠGÃ¶ t
inc ipal
ĠAndr Ã©
ĠAlk ohol
D am
ĠB ut
ĠB eu
Ġf ehl
Ġk inder
eg er
Ġzum eist
par ks
berg s
ens ure
Ã¤uf e
schau en
ĠKind heit
ĠSied lungs
ĠHaup ts
Ãĸsterreich er
Ġleich ter
Ġbeob achtet
ĠTok io
ĠFinn land
E p
ĠS E
Ġv ol
ĠA cht
ĠM asse
Ġin kl
Ġf f
ĠW arn
ach se
ĠJ enn
Ġc ontainer
Ġpro tected
ĠSpiel klasse
ĠChr isten
ĠPar tien
alis ierte
Ġur i
ĠOn lin
ins eln
ĠSilber medaille
usst sein
fÃ¶rm igen
ĠPhys iker
ĠHoff nung
Final e
Nam espace
Franz ose
ĠKÃ¼nst lern
A U
l igen
m utter
u ht
ber ge
ĠV i
Ġt our
ĠMar sch
Ġ0 1
Ġger inger
// //
ĠDi am
ĠRest aur
ĠMc C
ĠCoun try
spez if
fir ma
S uper
ein richtung
it ro
ĠM oh
and om
ĠJ ord
ion al
Ġk ar
Ġge Ã¶ffnet
Ġdes selben
ĠSt aub
aus geber
ĠGr Ã¶ÃŁen
ĠBr ut
Ġeinge gliedert
ĠKreis es
ĠMot to
itu ationen
ĠMil ler
AS K
kn Ã¼pf
ĠKonfl ik
Nonn ull
n isch
Ġd on
ĠV ector
Ġt oll
ĠÃ¼ber gebenen
param eter
org ungs
Ġbet reibt
Ġher e
ĠRo ger
Ġgef angen
ĠMag az
Ġfrei will
etr ics
ĠGold medaille
ĠWar schau
verstÃ¤nd lich
Ġattr aktiv
Kirchen gebÃ¤ude
F low
V ideo
y b
Ã¼ ÃŁe
ĠA cc
ĠB og
ĠB anken
ĠF els
ir chen
ĠC olumbia
ĠZ eilen
19 28
Ã¶l be
ĠPr int
ĠKrieg sende
ĠSol o
Gener al
Mon th
hel ms
spart ner
Ġrest aur
ĠSamm el
Ġletzt lich
Ġbequ em
ĠdebÃ¼ tierte
S Ã¤nger
g f
l abel
ĠE P
ĠT oren
Ġk Ã¼nst
Ġge kauft
Ġzu verl
Ġl abel
Ġt ot
ser ien
ĠPro test
tem peratur
stand s
ĠBew erb
ĠauÃŁer gewÃ¶hn
198 3
ĠFreund schaft
FI X
stÃ¤r ke
ĠÃĦr zte
k ont
Ġ( _
eb au
Ã¤n ke
ĠJahr gang
lin ois
gesch ichten
ata illon
ĠfrÃ¼ here
schul d
sport ler
Ġx ml
ĠAll gemeine
sta ates
ĠSen ioren
UN D
ĠErw Ã¤hnung
Ph one
Ġindividu ell
ĠPeters burg
ĠKandid aten
ĠZub ehÃ¶r
D enk
ĠN ich
ĠJ ar
Ã¼r mer
im pl
Ġent worfen
fahr zeuge
zeu ger
wir ken
anis mus
ĠViel falt
Per mission
ĠKan al
ĠbenÃ¶ tigen
ĠDep art
Ġevangel ische
Ġumfang reiche
gesp ielt
Ġstaat lichen
Ġhochwer tige
L ehr
l is
w enn
Î ½
Ġd ella
Ġv ierte
ĠI tem
ro h
Ġver haf
Ġr aus
Ã¼hr t
ĠMar in
ack e
Ġ6 1
Ġzusammen gef
Ġbew eg
arch itektur
ĠPer formance
Ġgem Ã¼t
197 6
beh Ã¶rde
ĠPsych ologie
ĠSÃ¤ ulen
ĠRob in
Ġengag iert
Ġausgeb ildet
Ġoff ens
ĠBeteil igung
K at
m uster
ĠS atell
Ġh l
ig ation
ĠC reate
Ġan b
Ġver dien
ĠSch atz
ĠDie sel
pro fil
Sch iff
Ã¤m me
Ġgut es
Ġbeh and
ĠParis er
back tracking
Ġfort an
ĠCharl otte
ĠCast le
ĠGreg or
ĠHig hl
cycl op
F rÃ¼
G u
G ymnasium
J ohn
o ter
Ġ append
Ġ ðŁ
er ing
Ġf lex
ra f
ver g
ver kauf
ot yp
ĠEr klÃ¤rung
Ġvor kommen
Ġvor genommen
up le
Ġex pl
Sch on
Ġis rael
bo und
Ġstatt dessen
Ġern annte
gef angen
Ġklass ische
ĠDef inition
Ġbekannte sten
ĠmÃ¶ gliche
geg nung
ĠÃĦnder ung
V O
b ell
in ternal
ĠD I
om ie
se h
ĠSch Ã¤den
ĠIn haber
Ġch annel
ĠBet reiber
iden t
ĠTer ritor
Ġoffen e
ĠRed aktion
No tification
ĠKaff ee
ĠKoordin aten
Ġd ynam
ĠM eld
ĠK roat
ĠP ool
ĠT un
ĠV ir
Ġbe cause
id met
ĠAl ice
ĠPl Ã¤ne
ĠSpiel s
ĠSpiel ern
imm ern
verb indungen
Ġschn elle
ĠFranz osen
ĠnatÃ¼r liche
ĠWehr macht
ĠInner en
Tim estamp
ĠBundesver dienstkreuz
A ud
H tml
r ollen
st het
Ġm ath
ĠK ell
he ader
iv es
ph ia
att le
List en
Ġinter pret
ĠBeh inder
Ġbez Ã¼glich
ĠHÃ¶he punkt
ĠViz ep
ĠJes us
ĠÃ¶ k
H ome
M er
č ĊĠĠĠĠĠĠĠĠĠ
ge mÃ¤ÃŁ
ĠL ow
ĠAus stellungen
fl Ã¼sse
ĠKon text
ĠBe arbeitung
fe ature
Ġverl ang
ĠDon ald
Sc reen
Ġwichtig ste
ĠJe ff
ĠParlament s
G egen
J azz
T or
e de
z Ã¼g
te ste
ĠM ike
Ġn utzt
ĠG h
ĠVer sch
ĠÃ¼ber zeugt
ord nen
Ġseit her
ond itions
stra fe
ĠFre der
Ġern st
ĠSitz e
ĠSen at
ĠPrÃ¤ fekt
Ġfac tory
C lau
b lau
g han
i ologie
ĠS ech
Ġb ody
ol is
ĠH ung
ag ing
fahr ung
stra te
ĠOber liga
Ġben utz
Ġentwick elten
ĠKirchen gemeinde
ĠWor ksh
wÃ¼r d
Fl ug
agn ose
Ġspeziel len
ĠTemperatur en
ĠnÃ¶ tig
E U
b ieren
f Ã¶rderung
s ver
Ä ħ
Ċ ĊĠĠĠĠĠĠĠĠĠĠĠĠĠĠĠĠĠĠĠĠĠĠĠ
Ġw asser
ĠF red
ĠP le
Ġer for
ĠO hne
Ġaus geschlossen
ehr ung
lo ym
Ġgest orben
ĠÃ¼b lichen
__ __
ĠKer amik
wal de
Ġlehr te
H il
U UID
i Ã¨
o zi
ĠT iefe
ab schluss
Ġst ore
hen den
Ã¡ r
Ġrel ev
Ġbevor zu
ĠFrÃ¼h stÃ¼ck
ĠSum me
Dest ination
Ġdiver sen
Ġpersonen bezogen
S ARL
W el
Ġw Ã¤chst
ĠO R
Ġver lei
ĠCh ile
Ġlie be
Ġ6 9
ĠSte ink
Ġverb lieben
ĠPrem iere
Ġpassen de
ĠStruktur en
irurg ie
ĠberÃ¼cksich tigt
E qu
f amilien
Ã¤ ste
ĠH D
ĠL ock
ĠVer ordnung
Ã¤n zer
ĠKl ar
198 6
197 2
Ġmeisten s
Ġkompl ette
Ġak adem
ĠRelig ions
ĠReserv e
Ġmensch lichen
Ġforder te
ĠFantas y
D okument
d ay
w achsen
el f
am ts
le fon
um a
iel ler
ĠSch enk
ic i
19 50
lei sten
Ã¤tig te
Ġ185 8
ĠÃ¼b lich
ĠDok umente
ĠĠĠĠĉ ĠĠĠĠĠĠĉĉĉĉ
nehm ern
Ġuntersch rieb
dis ziplin
L P
k al
ĠB lei
ĠG ross
ab schnitt
ĠC ontainer
19 44
ĠAb wehr
rau ff
ute te
Sch l
ĠChr om
Res ults
ĠWerk zeug
Ã¤tz ung
193 8
ĠJur y
Ġresource GroupName
ĠApp le
ĠChamp ions
ĠjÃ¼d ische
ĠLad y
ĠMicro soft
I st
R ight
g ast
Ġb Ã¼rger
ĠE valu
ĠW ende
ro ck
rie den
ok ol
ong ol
Er zeugt
rich tet
Ġverst eht
ĠPrinz essin
ĠHash Set
ĠInstitution en
ĠRess ourcen
D omain
h Ã¶ch
r ufen
z usammen
Ċ ĠĠĠĠĠĠ
Ġ å
an ter
ĠS her
Ã¤ p
ĠT eich
ĠC oll
Ġg aben
ĠIn tens
19 19
arb on
ĠAuf sichts
br unn
sk ar
Pro p
ĠFor ce
ĠAk te
ĠAt hlet
ĠMittel meer
Ġkon stru
ĠBas il
ĠAu ft
ĠErn Ã¤hrung
Ġfield s
entry Set
Ġrei ste
aliforn ia
Ġwid mete
idd le
B ig
D ienst
S til
] )
an es
ĠD orn
ĠL ED
19 00
qu ellen
kl ar
Ġkon zip
ĠRep rÃ¤sentanten
197 3
ĠTel ek
anstalt ungs
ĠDo ug
ĠThr on
ĠSchne e
ĠErzÃ¤hl ungen
ĠPremier minister
prof essor
ĠVog t
B ek
h eben
Ã ī
sch lagen
ĠG lei
ĠAn satz
sh ow
als ieger
Ġger ingen
ĠHaus halt
ĠKomm andeur
verb Ã¤nde
ĠWohn ungen
ĠRep ort
ĠLehr stuhl
ÅĤ aw
loc al
ĠAud io
BÃ¼rger meister
ĠGemeinder at
P rÃ¼
V ier
e o
| -
Î ¹
ĠA TP
ĠB Ã¤
ĠN umber
ĠC H
wei he
Ã¤n omen
ĠEr hebung
ans as
ĠPar allel
Ġeinge weiht
ĠWinter spiele
197 1
ĠMy th
ĠunterstÃ¼tz te
the ater
ĠZeu g
Ġsorg te
sup ported
ĠAbstra ct
Ġausreich end
Q U
u der
y y
Ï Ĥ
er d
Ġd icht
ĠK ent
ĠP ension
ĠH ut
ber gen
ĠC ann
ĠEr ic
Ġ18 30
ĠAl len
qu ert
Ġre q
up l
Ġex pression
ĠzurÃ¼ck kehr
ĠSal v
Ġ185 5
Ġbez ogen
Ġus ed
ĠLandtag s
Stack Trace
C LASS
y o
an ts
au e
ĠA T
ĠA ccess
ĠB ul
ĠG reif
ĠV ieh
ĠSch uss
tion en
ew ald
ĠGesch w
ym m
Er n
Ġwei ÃŁe
figur en
ĠKÃ¼ chen
ĠNor bert
ĠVersion en
Ġcall back
ĠAnd roid
ĠEh emann
Ġleist ungs
B und
a al
Ġw Ã¤ren
ĠK alender
ĠP ek
ĠSt eiermark
ste ckt
ĠCh a
Ġbest ellen
Con sumer
spr achen
ren ten
erg ie
Pl ugin
ĠLau b
ĠstÃ¤d tischen
Ġkauf te
Ġbestell t
Ġfung ierte
b old
m os
m all
ĠD etail
ĠL ap
ĠL az
ĠR iv
Ġh aus
Ġst op
ĠEr be
ĠAr k
Ġ18 49
ĠBau ten
man ischen
code d
let on
Ã¤chs ische
eta ill
Ġindividu ellen
ĠFrem d
ĠRett ungs
ĠRol and
f onds
at isch
Ġder selben
ĠB ecken
ĠP yr
Ġf Ã¤hrt
Ġauf s
ant ast
Ġres ults
ief el
ĠTr ennung
Ġbr ach
ĠBern ard
ĠprÃ¤sen tieren
ĠVerteid igung
rue ft
ĠBoch um
E v
F uÃŁ
P ack
n ik
au ft
Ã¤ ser
Ġin vest
ĠG etr
ĠP in
ĠH at
ĠV orm
ul er
Ġsich ern
uch er
19 10
ĠAut os
ÃŃ o
Ġinner en
ĠTre e
ĠVorsitzen de
ĠKomment are
ĠBrow ser
Ġsowjet ischen
ĠInput Stream
c or
ĠA le
ĠH eck
tr olle
ad i
Ġt ags
ĠIn valid
ĠAn meldung
Ġ18 47
ak eten
ĠUr heber
ĠMill ion
ĠDat abase
ĠÃ¶ff nen
ĠDist anz
ĠWes entlichen
ĠTschech os
angeb ote
ĠAsp ekte
ĠFass ade
I B
w ein
sch rank
Ġs itzen
ĠK rei
end ing
etz e
() ),
ast ung
Con dition
ost a
Ġen ger
sol venz
ĠHeil bronn
ĠBahnhof s
Ã¤cht nis
ĠBuffer ed
I O
M al
b ist
ĠS ax
ge stellten
ich e
ĠB ald
ĠT ol
âĢ ¢
Ġer leich
Ġk ommerziel
ien ce
lie gende
19 25
Ġ" .
Ġeigen tlichen
ĠChrist i
193 1
ĠMinister prÃ¤sident
Ġtrans action
hor st
Ġschwar ze
A ber
P okal
an ia
ĠA ar
am o
ĠF A
Ġver zeichnet
af eln
Ġausge strahlt
zahl ung
ĠBed ien
ĠPenn sylvania
L INE
} .
Å Ľ
Ġv iew
ĠV eg
Ġo s
os ite
im p
ĠÃ¼ber zeugen
amen te
Sie ger
ĠDi mension
197 9
beh alten
Welt meister
Ġerziel en
Ġarch Ã¤
Pass word
ĠRuh estand
FOL LOW
! =
B atch
H C
L ud
k ter
st eig
Ã¼ ÃŁ
ĠE R
ber atung
ag on
Ġp oten
ĠDeutsch es
An gabe
Type Reference
sb et
ign ment
Sp an
ĠCo ach
ĠMag net
Ġmon at
Ġvertr ieben
ĠCap t
ĠPfer d
Ġverhaf tet
P op
w ur
ĠS qu
ĠM ov
Ġm ain
is hed
ab ilit
Ġge leitet
Ġbe geg
ex ists
Ġtr op
ire ction
Ġis lam
ĠUr sprung
wohn ung
193 4
193 7
ategor ie
plan ung
Ġschwed ischer
adel phia
gehÃ¶r igkeit
ĠF air
Ġk lin
Ġan notation
ra hmen
ĠSch mal
Ġl Ã¶sen
sp ital
19 60
Ġ6 7
Ġcon f
ĠauÃŁer orden
ĠTo urn
# #
F eld
F ranzÃ¶s
U s
p us
an ch
ĠH allen
om s
ĠAus gaben
ip per
ĠEx pl
Ã¼b ung
ĠGeneral major
produ kte
Rep ository
ĠHalb insel
Ġsh ort
ĠJer sey
lehn ung
ĠbeschÃ¤d igt
ĠNeuse eland
C olle
s Ã¼d
un ken
ĠK ein
ĠH ang
ĠC lem
ra ph
ist ics
Ġ% .
ari at
Ã¶m m
ĠStim m
Ġempf angen
Ġqualif izierte
ĠHit ler
ĠMisch ung
elemen te
d l
d lich
k rÃ¤
Ġv irt
et ik
ĠK etten
ĠG abriel
ĠH ildes
ĠC ell
Ġk Ã¼mm
ad ow
ĠU we
Ġst eigt
esch ichte
ĠEr stellung
ru le
ill es
Ġ9 5
Ġ8 8
ĠDr ama
ĠBef est
ĠAndre a
Ġjapan ische
ĠHon or
erkl Ã¤rung
m Ã¤nn
ĠF okus
ĠJ ugoslaw
ex ception
Ċĉĉ ĠĠĠ
ĠFl ora
ĠPl us
schie ÃŁen
Ġdrei mal
ĠJuni or
Ġkon serv
198 5
ĠTre ff
ĠForsch ungen
ĠArm y
Ġfe ature
wh ile
Ġstrate g
i op
em m
ĠF eier
ĠW asch
Ġge p
Ġo pen
pl Ã¤tzen
los igkeit
ock el
Ġeigen stÃ¤ndige
ĠBet racht
ĠFrei herr
Ġerfolg ten
ash i
anst alter
ĠTre ppen
ĠZeich nungen
ĠHeimat stadt
aun us
ĠbeschÃ¤f tigte
ĠKult urg
ĠPubl iz
ĠReihen folge
exp ected
a ft
l Ã¼ck
Ġ $
in as
es er
ĠB arn
ĠK ast
ĠR Ã©
Ġan grenzen
ers dorf
be an
olog in
bo urg
ĠWohn haus
ĠKn ochen
AN D
geord nete
uld a
bes itzer
Ġexp ected
ĠRezep t
ĠNahr ung
Meta Data
B ern
l ige
u cc
y k
Ä Ł
et tet
is her
ĠJ im
ir gs
ĠZ iegel
Ġc ur
Ã¤hr ungs
leist et
ĠDo zent
Ġbed ient
Rel ation
M erk
in stance
Ġein erseits
ti als
Ã¶ ten
ig ion
eich nungen
19 23
19 26
Ġunter schieden
ĠMa ÃŁe
Ġander erseits
Ġlie ber
ĠSte ve
ĠChr is
ĠChr onik
Ġar gentin
Nach bar
Ġ185 2
Ġregion alen
ĠErwachsen en
ĠBestell ung
verteid iger
ĠNass au
ĠK rÃ¤fte
ten ts
ĠN utzen
ĠC ard
19 22
19 27
Ã¤r bt
Ġex perimen
Ġ14 0
ĠWei s
ĠAlb ums
Hand le
ĠWor te
CO L
ĠComm on
Fernseh film
ĠVorder grund
Ġspezial isiert
ĠÃ¶rt lichen
B Y
c at
ĠK leidung
ĠP ay
ĠW end
ĠT am
ĠT unnel
Ġp res
Ġdem okrat
ok o
ĠVor schlag
ev or
ĠPl Ã¤nen
ingen d
Ġth emat
Sch utz
Ġerreich bar
Option al
kathol ische
sph ase
SI ZE
ĠOk res
ĠSynag oge
ĠOrn ith
E ff
al ity
ĠD ritten
Ġ1 14
ĠR ober
ĠJ Ã¼n
eh er
ip edia
Ġman chen
stan ces
Ġange kÃ¼nd
ĠPar ks
196 8
ĠKaiser reich
kathol ischen
Arch itektur
Ġschwier ig
ĠausdrÃ¼ck lich
F ach
U l
ĠD aw
ĠG il
ĠP ommern
ĠW ettbew
and el
Ġver standen
ĠGr au
ĠMar co
los er
res h
Ver band
Ġall gemeine
Ã¤tig ung
196 9
ĠGit arre
Ġumfassen de
Ġvalid ate
Fr ame
ĠVarian ten
ĠIdent itÃ¤t
D re
E B
R equ
w ahr
ĠK Ã¤rn
Ġf eiern
ĠH aw
ĠC arr
ĠO bst
ang o
ĠVor lage
br unnen
Con stant
ĠKon ferenz
esse d
we en
198 2
ĠEigen tum
Ġland es
tok oll
Ġmaxim ale
ĠmaÃŁ geblich
E ben
m ol
sch lossen
ĠK ro
ĠR auch
ĠV alue
ad bach
19 12
Ġgesch ickt
ĠWil son
Ã¤s se
Ġy ou
ake te
190 5
ĠJournal isten
ĠBaum w
stud ien
Ġfinanz iellen
ĠRegierungs bezirk
ĠDigit al
ĠSign al
ĠDuis burg
K ritik
z ien
Ġd einen
ĠS eil
ĠB in
ĠB od
ĠR och
ĠZ DF
Ġl ive
wei chen
19 11
ĠStr ei
qu ote
ĠEn tert
ĠIS O
zw eck
sol e
ĠSk y
ose x
ĠRu der
ĠDat eien
verl ust
Ed ge
Ġerr ichteten
ĠSter nen
ĠMount ain
ĠJed och
Ġinstall iert
ĠWiederauf bau
loym ent
B al
F ebruar
N etz
j amin
ĠD own
Ġi ll
ĠK h
ĠF eu
ĠN au
ĠC alifornia
Ġp Content
ĠAr zn
if er
ĠMar x
ĠBr Ã¼ssel
ail and
Ġverb inden
ĠSaison ende
ĠGel ehr
190 7
ĠAktion en
Ġpassen den
ĠVort eile
( !
K ilometer
f uÃŁ
h aven
p ri
u v
w issen
at io
ĠK ohle
ir r
ĠU rauff
ĠĊ ĊĠ
ĠAn ders
Ġre form
ĠLand gemeinde
Ġber echnet
Ġbeg rÃ¼
str Ã¶m
ĠSe gel
ĠSÃ¼d ost
Ġben utzen
ĠÃĦ l
Ã¤ss igen
sprach ige
ĠKin os
ĠRos a
Ġkanad ischen
ĠCentr e
ĠMun ic
Ġgaran tiert
C ertificate
O UT
R und
p Ã¤dagoge
ĠM atch
Ġein gebaut
ĠG T
ĠL aus
eu ter
ern t
Ġbei der
ĠÃ¼ber liefert
Ġ18 20
Ġ18 43
Ġunter teilt
gr am
Ġ5 000
Qu elle
ĠGesch lecht
Ġbeg leiten
ober flÃ¤che
Mit te
Ġeinge st
ott om
čĊ čĊĉ
Ġ185 4
Ġhinzu gefÃ¼gt
ĠBeck er
ĠDemokrat ischen
M ein
s eiten
ie ter
st unden
Ġs auber
ĠH ahn
ĠW ater
ĠL A
ing ham
get Parent
Ġ18 44
19 24
ĠList en
Ġeigen tliche
schl Ã¼ssel
ĠBand s
Ġbew egt
fest ival
End point
Ġperf ekte
ĠViz emeister
ĠAuss agen
n acht
Ã °
ĠR Ã¼
Ġh art
Ġp rivat
ow itz
19 21
enn er
ĠOr ien
Ġgew idmet
Ġth an
ĠPh arm
ĠStud iums
Ġlang uage
Ġgest altete
Ã¤mpf ung
196 5
ĠGast geber
ĠSing les
Stand ard
iction ary
ĠHu bert
komp lex
Ġfal sch
ĠProz esse
Sow jet
A A
w id
ĠF usion
ĠG ard
ĠP ur
ber ater
um ul
ĠZ ech
ĠAn bau
lin es
dr es
Ġ8 4
schl Ã¼sse
Class Loader
tic a
197 4
evel op
Ġerk ennbar
ĠWand el
ĠWahr heit
ĠBon us
ĠVerbr eit
ĠRis iko
ĠBesatz ung
ĠAlli anz
J J
Ġ egal
hr ingen
ĠF unde
ol in
ĠO ran
ĠSt ationen
Ġst et
ĠAl ber
ĠStr eifen
ok u
St a
param s
oh an
An not
Ġausge st
Ġ12 5
man uel
ĠUl l
Sel ect
opÃ¤d ie
O ne
c ache
h ain
ĠS ehr
ĠP aket
ĠR ic
ĠZ ut
ph abet
ĠFl Ã¼ss
Ġ9 9
Ġ13 0
ĠMed aille
ĠVerb indungs
ĠSÃ¼d ti
ĠAt tr
Ġbesonder er
sta ats
ĠOlymp ia
Ġstehen den
ĠTri b
ĠBot schaft
ĠHerzog tum
ĠgrÃ¶ÃŁten teils
ĠdÃ¤n ischen
Ġumgew andelt
z Ã¼gen
ĠS ind
ĠD ob
ĠK ompl
le utnant
ĠVer handlungen
Ġst ack
eil ung
ĠAr rays
ĠAr gentinien
ĠSie ge
ĠString Buffer
Er stellt
ĠKommun ikations
part ei
Ġkrit isiert
Ġzeich net
ĠmilitÃ¤r ischen
Ġbayer ischen
ĠSekret Ã¤r
ĠplÃ¶tz lich
T schech
d on
ĠS om
Ã¤ uÃŁ
ĠG or
ĠT Ã¤ter
ĠN ep
Ġl Ã¤nd
ver halten
19 42
ges prÃ¤
eid et
ĠStud ies
Tra iner
ĠStil l
Date Time
ĠBÃ¶ hmen
Ġwissenschaft licher
ĠBund esp
Ġentst amm
M ass
T ube
a ver
d ater
n ord
em s
ĠE C
ĠZ ertif
ĠEin sÃ¤tze
qu alif
ĠEn kel
ĠGem Ã¼se
ĠEx tr
ĠGew erb
Ġbeh err
ĠJohn son
by tes
Rep ort
Ġgenau e
ĠPublik ationen
ĠRh yth
kur renten
ĠFranc is
Hash Map
franzÃ¶s isch
ĠBM W
andin av
K reuz
R M
f ul
ĠV II
ĠN atÃ¼rlich
Ġver folgt
ĠSt ufe
he et
Ġvor Ã¼ber
Ġ" ";
ĠEl s
Ġzweit es
ĠjÃ¼nger en
ĠPow iat
ĠNap ole
Ġeindeu tig
Mem ory
ĠWuppert al
K ar
R ennen
on omen
Ġs eiten
ĠA z
ĠB j
ĠB uk
et scher
ĠE i
le vel
re z
ĠJ am
Ġsch ul
lo v
ock e
kl assen
aff e
alle utnant
196 6
Ġra sch
ĠSQL Exception
Ġbegeist ert
) ).
L EN
P oints
k k
m ech
t ask
ĠB atter
ĠW Ã¤hler
Ã¶ he
re ste
ot herapie
get Resource
ac o
Con verter
Ġ8 2
ĠEx il
ĠOber flÃ¤chen
ĠSchw estern
ĠTr end
ograf ische
fÃ¤l ischen
ias ieger
196 3
190 6
ĠÃ¤hn liche
Ġinteress iert
Ġerz ielt
Ġfiel en
ĠJack son
Gra f
Ġdest ination
F amilien
V iele
X T
c lazz
m d
sch el
sch Ã¤d
ĠM Ã¼ndung
ĠP ersÃ¶nlichkeiten
Ã¶ h
ĠJ Ã¼d
ĠZ wer
ĠSt ars
ĠIn se
men s
ĠEr lebnis
Ġbis schen
nen nung
Exception Constants
ĠOl iv
ĠSport s
ĠRen ov
Ġkosten lose
Verein igtes
ĠSieg fried
c ms
c onnection
j Ã¤ger
n Ã¼tz
á ¸
st immung
Ġdes cription
ĠSch uh
ĠVer g
ran che
ĠEin tr
ĠEn cyclop
ĠNeu zeit
... ]
Ġres ul
ps ych
fÃ¤l lt
Des c
ĠMotor rad
leit ungen
stad ion
Ġregistr iert
A ustr
Ġd oppel
it as
ĠB ean
ĠM all
ĠF ur
ĠG Ã¶r
Ġf ailed
ru der
if ikation
Con f
agen tur
-- ;
tor hÃ¼ter
Ġausge prÃ¤
ĠNord west
ace ae
ĠOn kel
ĠFach werk
ĊĠĠĠĠ ĊĠĠĠ
omet rie
ĠQuadrat k
ĠKob lenz
ĠPian ist
J a
m achen
m eier
it iert
ĠM Ã¼hlen
Ġm en
ĠF erner
Ġh om
ĠN iveau
ĠO v
Ġt ut
Ġt iefer
ĠEr sch
19 46
enn zeichen
lo gen
ĠMit begr
(" /
war f
Ġteil en
Ġmo tiv
Ġgek ennzeichnet
Ste p
Juni oren
wach ung
" :
F ootball
H ead
L uther
R h
S erv
Ġn a
ĠF DP
ĠP ic
ĠH Ã¤nde
Ġer o
Ġge ograph
get Path
19 78
In f
th ese
spr icht
stra ints
ĠHoch zeits
ĠMot oren
ĠErn est
ĠBischof s
Ġabsol ut
ĠElektr o
ĠDres dner
Ġgepl anten
wes ens
Ġkorre kt
ĠÃĦm ter
A lex
A rea
z ucht
at ischen
ĠM iet
tr Ã¤ch
ĠU E
Ġ" +
ĠCh arts
ĠMar io
ens is
ain ment
ĠFor scher
ĠRo te
tik a
ĠInter ess
ĠLandkreis es
ĠGrÃ¼n de
ook ie
Child ren
ĠAbt ei
ĠRefer enz
ĠPast or
ĠSchott land
B inding
S am
x id
Ð ²
Ã¤ hne
ĠF unction
ĠL aser
re port
Ġh e
ir es
ĠC el
Ġst ep
ĠAn walt
ate l
id i
ĠRe ad
ĠSti pend
zy linder
ĠFlor ida
AuÃŁ erdem
Ġniedr iger
ĠSoph ie
c io
k le
r s
w ender
ein kommen
ĠK ritiker
ĠH altung
Ġer b
re ut
ce p
ak ten
gew Ã¤ch
ĠTr ink
ĠÂ °
ĠRad rennfahrer
ĠRegion alliga
193 6
Ġoft mals
gÃ¤n gen
ĠVen ez
Ġgener ate
ĠlÃ¤nger e
k am
s orge
y cle
Ġf indest
ĠH ong
ĠVer anstaltungs
ĠJahr buch
ub a
get Attribute
ĠSp ren
ĠEin tritt
Ġ18 18
ord neten
ĠStadt gebiet
Ã¤ch ter
ĠMus ical
Ġgr atis
Ġausge stellt
klÃ¤r t
anad ier
ender t
190 9
ĠFort setzung
UT F
ĠMinister ium
ĠÃ¤uÃŁ eren
Ġpoln ische
artet t
ĠWes er
ced es
ĠGeheim nis
ĠSmart phone
Ġbedeutend sten
. âĢĵ
ch annel
ĠF ett
ĠG rupp
ĠR eit
Ġvon einander
ĠIn solvenz
lo hn
omm el
St orage
per rt
ade d
LE T
rim inal
Ġbez iehen
go ogle
Inter val
Ã¤um t
parse Int
ĠWeihn achten
ĠhÃ¤uf iger
Ġzusammengef asst
+ -
F T
L uft
ĠS K
ĠB ug
ĠD og
Ġ1 18
ĠT ask
ĠL eucht
ĠR unden
ĠJ r
ĠSch ro
ver Ã¶ffentlich
ĠVer st
ĠSp ar
ess ischen
pf alz
ĠCh ancen
ĠVor name
ĠMed iziner
west lichen
ĠBi ographie
rem e
Sh ort
ĠTex ten
gehen de
ĠMem or
ĠInternal SARL
Ġsech sten
ĠServ ices
Ġchrist lichen
Ġmath emat
L ie
M ont
W N
e ep
t temberg
sch wei
Ġw and
ich en
ĠM esser
ĠG umm
ĠEr wart
ĠPro perties
Ġab ges
ult an
ĠFl otte
stit u
Ġfest gestellt
ask a
Ġaufge geben
197 7
ĠPal ast
ĠBro t
Obj ects
ĠSim ple
stehen de
ĠFÃ¤l le
Ġweib lichen
ĠStÃ¤r ke
ĠGemark ung
" -
H allo
O UR
o i
ĠS erb
ge halt
ĠG ute
ver ordnung
Ġbe arbeitet
aus stattung
ĠLand rat
oc us
ĠBl u
ĠFilm regisseur
ĠRe zension
ĠSchul d
FuÃŁball trainer
Ġheraus ra
193 2
Ġ185 1
ĠGed icht
ĠGesetz es
ektion en
ĠGet rei
ĠLink ed
ĠDrit ter
Ġnutz te
ĠGlauben s
Ġabgeb rochen
Ġphil osoph
Ġdenkmal geschÃ¼tz
N a
a ire
v org
ur ist
Ã¤ ure
ĠD ame
Ġein gemein
ĠH av
ĠT s
ĠL ip
ĠR av
tr echt
ĠC our
ĠEr m
ĠAr ena
ak s
19 13
ĠLand gericht
ĠVor les
ip eline
Ġgew isse
Ġpro ps
zeit lich
oun try
Ġausge dehn
ĠBe gegnung
ĠGen f
ĠSÃ¼ ÃŁ
ĠHei z
irec tor
Ġerr ang
Cl ub
cept or
ilen ame
F Ã¼gt
K om
T ex
n umber
Ġd auert
es ien
ge ht
au ben
ĠA L
ĠD ocument
ĠU d
Ġa cc
Ġqu adrat
ĠPhil adelphia
OR D
Ġabge lehnt
ĠTor onto
Ã¤ss ige
ĠDienst ag
istr ict
leid et
lad imir
Ġtradition elle
ĠFrÃ¼hl ing
Ġermord et
s ieg
ge gn
Ġauf geteilt
Ġc tx
id sch
stell ern
ĠOr th
bar es
ite e
ĠHistor ic
ĠEntscheid ungen
ĠAnge legenheiten
ĠTar if
M IN
T urn
l iger
o ice
Ġ eignet
ei de
ĠS ed
ĠD un
ĠL iss
ĠC ab
Ġg gf
rei hen
ĠZ ellen
ĠSt ore
ĠIn halts
ĠVer pflicht
tel n
Ġtr afen
ĠSchw Ã¤b
ĠEl iz
ĠCon rad
ĠCar los
ĠFot ografie
anc el
193 5
wÃ¤r tigen
ĠSchwer in
Ġbeteil igte
grÃ¼n den
ĠFlÃ¼cht linge
D isplay
R hein
h ou
i Ã¨re
ĠF aktoren
ĠP rix
Ġden ken
Ġl aden
ĠSt or
ĠEin fach
auf tritt
ay load
Ġ16 0
Ġ7 1
Sch we
Ġ8 7
ĠMin dest
ĠMan uel
ĠRÃ¼ck tritt
195 6
ĠEt wa
mark e
Ġinteress ante
ĠMass achusetts
Ġdigit ale
ĠFlor ian
Ġmusikal ische
Ġweib liche
kÃ¼nf te
Strate gy
H om
z esse
Ġ ehr
ein satz
im s
ate way
Ġbe ant
ĠAr tillerie
ĠVor stellungen
Al gorithm
ĠOber bÃ¼rgermeister
aut omaten
Ġhin sichtlich
sg ruppe
ĠSchul ter
Ġat tributes
por ary
hÃ¶ hung
ĠzusÃ¤tz lichen
Ġvers orgt
ĠErinner ungen
Lin ie
ĠEro ber
Ġveranst altet
I hre
h ing
k ol
l Ã¶sen
en ken
ie u
ĠK enntnis
lie ger
Ġdurch setzen
ĠBer ichte
ĠAus stellungs
Ã© b
Ġres ources
Ã¡ s
ĠPer u
zentr ums
schw itz
ĠRechts an
geord neten
Ġentfern en
ĠOp tim
ĠKom Ã¶die
Ġnational sozial
ĠRestau rants
ĠSym ph
ĠBedÃ¼rf nisse
K Ã¼nstler
P reuÃŁ
P ane
f ac
in itial
Ġb reiter
ĠL ight
ĠR ÃŃo
om etr
Ġver mittelt
Ġ18 14
19 41
Ã¤hr en
Ġle g
Ġ8 3
ĠEnt ity
Ã¶st liche
ĠWil len
itu de
189 5
Method s
Item s
ĠKomp lex
================ ================
ĠOh io
" ),
b reite
k W
Ġ []
ĠR ey
ĠZ war
ĠVor gang
ĠIm per
Ġber ichtete
ĠÃĸ konom
ĠGrund schule
mittel alter
ĠSpr int
ĠGen e
ĠAll ein
ĠWor ten
ĠBeh and
ĠKat hedrale
Ġsicher te
Ġnorm alen
ĠEvent s
ĠGre at
resource GroupName
C L
D ivision
ĠD ark
ĠF ox
ol y
ĠT oken
ĠL ex
re ct
ĠN oten
Ġl eiten
sp ark
19 40
lei tete
pro ject
ĠGeb Ã¤uden
ĠÃľber setzer
Data Type
ĠÃ¤ gyp
Ġverlie f
ĠerhÃ¶ hen
ĠmilitÃ¤r ische
Mich ael
ĠErkrank ung
B ot
R eich
S w
g on
ĠH alt
Ġauf nehmen
Ã¶r n
her stellung
ov iÄĩ
mal erei
Ġ0 5
bau werk
dr om
Pro gress
Ġ7 6
ou v
ĠJul ian
ĠSe ele
ĠReich en
Ġnun mehr
196 2
190 2
gesetz es
Ġfr isch
aun a
ĠChem nitz
ĠSand stein
Ġdigit alen
ĠVoraus setzungen
ĠBeweg ungs
ĠFlag ge
V ID
n ische
r ichtete
Ġs ame
ĠA gn
ĠT ypen
ĠC er
ĠSch Ã¤d
op ran
Ġj ene
ste te
if orm
ens us
Al ben
eid ung
ĠRech nung
ĠMed ik
ĠGew inner
ÃŃ k
ĠTechn ische
ox id
system s
ĠBran chen
ĠBrie fe
ĠDro gen
ĠPorn o
ĠkÃ¼nstler ische
ĠExempl are
Ġmittelalter lichen
k ord
k Ã¼nstler
k reise
it iv
ĠP ut
ĠH eu
ĠH els
ĠSch u
Ġl ust
ĠEin blick
ĠCh art
St ad
ĠBau reihe
ĠÃľber leben
min a
ĠSchw anger
ĠEl f
ĠBest immung
ĠSpr ung
ĠAnfang s
ĠLux us
ĠAuseinander setzung
C ounter
H or
K it
K ind
S pl
l ess
l inger
Ã¼ sten
ĠK und
om on
eh le
ĠVer leihung
Ġr ange
ang le
Ġab s
pr es
ĠGer ade
Map per
ĠPhil h
chn ik
yl l
arbeit ungs
anc er
Ġnie mand
ĠschÃ¶n sten
ĠKomp etenz
Ġrem ote
Ġmoder ner
ĠTO DO
ĠSchicks al
D ruck
b rech
es k
al ign
Ġh tml
ĠC irc
Ġre alisiert
ĠAus richtung
av ax
br Ã¼ck
br Ã¼cken
ĠReg istr
Ġges ichert
ĠSh aw
Ser ial
ĠAust ria
ĠEvangel ische
ĠSat tel
Ġstaat liche
PT ION
ĠBeam ten
ĠSaarb rÃ¼cken
ĠUrauff Ã¼hrung
un ch
ĠA y
ĠF Ã¤r
ĠG ol
ĠN eg
ir ken
Ġl iber
ĠU RI
ĠMar qu
ais e
ĠQu ar
ĠDr amat
Ã¤ss ern
196 4
196 7
Ġlin ker
Ġorganis ierte
Ġrest lichen
ĠNationalsozial isten
Techn ik
ĠtÃ¼rk ischen
Ġverh indert
ĠwÃ¼n schen
ĠCott bus
Mart in
f ache
f ranken
l Ã¤ndern
t Ã¤u
Ġd irectory
st yp
st urm
et sch
ĠH ass
ent schieden
Ġaus gel
Ġr etten
ĠEr haltung
Ġ18 13
Ġ18 45
Ġ18 32
ok a
ĠFl ach
off er
ĠBet roffen
ied s
bach s
ĠRes idenz
Ġgem essen
ĠProv inzen
DE F
ĠHistor ischen
190 1
CO DE
ĠHÃ¶r spiel
Best e
ĠVictor ia
Po inter
ĠKoal ition
R ing
W A
W idget
c omponent
g alerie
in ing
st op
ĠB rian
Ġ1 16
ĠH Ã¤nden
ĠL ook
ĠN ag
ĠN etwork
ĠC os
ĠSp alte
Ġsch ema
Ġj eg
Ã¼ck sichtig
be auftrag
Ġbef Ã¼r
Ġgesch Ã¼tz
ĠHand lungs
figur ations
ĠCl aus
190 4
ĠRel ief
EL D
Ġtyp ischen
Ġumfang reichen
stÃ¤d ter
Ġsec ond
beam ter
ĠHildes heim
1 12
C opy
G ef
d ichte
h aut
te or
Ġw ind
ĠB usch
ĠB Ã¤ume
ĠD IN
Ġ1 17
ĠM P
Ġge gangen
Ġre d
form ed
Ġ9 6
wer ben
ĠKl einen
ĠZw ecke
gra fen
Ġloc ation
Ġloc ale
zub auen
Ġausger ichtet
ĠEuropameister schaften
ĠTerr asse
ĠOberg esch
L aut
R ichtung
W M
k orea
Ġs itzt
Ã¤ le
Ã¤ se
ĠA D
ĠA quar
et ische
et wa
as a
ĠD oc
ĠG ul
ĠG ibt
ĠSch ein
Ġt itle
ĠAn k
ess a
id ad
Ġ18 36
Ã¤r er
Ġsp r
ĠCh am
ac ity
ĠBundes straÃŁe
Ġgel Ã¶scht
ĠTra ck
ymp ath
rÃ¤siden tschaft
ĠCar lo
ĠSeit dem
ĠProgramm e
ĠRed akteur
rec ated
Techn ische
Ġmusikal ischen
ĠTats ache
ĠRepar atur
A lias
S aint
T ick
n ing
ĠM am
ĠP azif
ĠH Ã¤usern
ĠIn spir
ĠVer schw
Ġc olor
ĠÃ¼ber tr
ĠSp ark
id ak
ĠEin zug
sk o
ire ktion
Ã¶s ser
Ver b
Ġange ordnet
Mod us
ĠVertr auen
Ġ180 6
Part ition
Ġser ial
ĠSym pt
ĠUE FA
G it
S en
W ohn
c ent
f ein
m ass
ĠB reis
Ġm or
ĠP on
Ġer lebte
ĠJ un
ĠSch acht
ver anstaltungen
ĠSp enden
Ġsp Ã¤testens
vers ation
olit h
Ġ) *
tik eln
ĠAt hleten
Ġit s
ĠBesch luss
Ac tive
Ġgez Ã¤hlt
G el
R ender
ĠB ibli
Ġ1 12
ĠF iction
ĠH imm
ĠT ib
ĠL il
ĠL enn
ver leihung
eg g
op le
og al
get F
Ã¶r er
Ġunter stellt
Ġdurch ge
mann schaften
Ġgen utz
pro zess
Un garn
ĠMo or
Ġinternational er
ĠProblem en
ĠAndre w
Exec utor
AX B
Ġgra ph
Ġren ov
O t
z elt
st reifen
es ota
ĠS lowakei
ĠSch Ã¶pf
ĠU s
end em
auf gaben
Ġ7 8
sb ild
Sp eichert
con s
ĠGegen stand
190 8
Ġsc ope
Ġpr int
ĠEich en
Ġaustral ischen
voc ation
R ate
b org
Ġ Ã¤nderte
Ġs erv
den kt
Ġge prÃ¼ft
ĠNach kriegs
our i
Ġro te
Ġbeh erber
Ġverm utet
Ġad dress
ĠKind es
Ġevangel isch
ĠAnti ke
Ġlok ale
Bundes liga
ĠStraÃŁ burg
Wind ow
ĠBerech nung
k ab
at sch
ĠB ag
ĠB ah
Ġb ulgar
ĠD Ã¤m
ĠG uten
Ġf ilm
ti us
ĠN ev
ĠC ass
Ġsie gte
geb ot
ĠCh ines
ine a
ian er
ĠSte phen
ĠWest er
ĠJohann a
At tr
Time Millis
Ġangeb lich
195 2
ĠErd geschoss
ĠLew is
ĠPrÃ¤fekt ur
1 20
1 15
R ows
S K
S or
T ri
T AG
i u
j ar
ĠE con
Ġer ober
Ġan ger
ran ch
auf lage
ĠNach kommen
mit ive
Ġgen auer
IN TER
ĠCon fig
Ġ185 3
ĠStad trat
ĠTon y
ĠZust immung
Ġmark iert
ĠWeil er
ĠberÃ¼hm ten
ĠErschein ung
schei be
A ch
c os
g Ã¤u
ĠA tel
ĠB ibliothe
im o
get X
iz en
ĠAuf stand
ett y
ĠzurÃ¼ck zu
Ġbesch rÃ¤nkt
kreis es
ĠAk ten
ĠAuÃŁ er
ĠBen jamin
ĠNe apel
ĠVorsitzen den
ĠStern e
Hol der
ĠEff ekt
ĠmÃ¤nn lichen
ĠWurz eln
Ġiden tisch
J B
z weig
Ċ ĊĠĠĠĠĠĠĠĠ
ĠH ed
ĠL eut
Ã¼r zen
Ġp revious
ert ungen
ĠSp er
In halt
ĠStr eich
schen den
Ġger inge
ĠBild schirm
schn eiden
ĠDu o
sprach igen
Bau denkmal
Kl ein
ĠSem in
IV E
Ġrule Jvm
ĠAR D
ĠZerst Ã¶rung
U uid
f angen
ĠS ten
at tribute
ĠK riterien
ĠG lobal
ĠR y
ier bar
Ġk unst
Ġge zwungen
Ġr ichtet
ind el
Ġ18 37
ick te
Ġ7 4
ĠMed aillen
halt ungs
Ġ% )
ĠMo z
Ġgeb unden
Ġgeb raucht
stru ction
euer ung
ĠBef rei
Ġbisher ige
ĠFinanz ierung
ĠErw in
beg riff
Ġqualif iziert
ĠGrÃ¤ fin
ĠFranzÃ¶s isch
Ġmet adata
ĠAuftr itte
ĠKav aller
l och
ĠD amm
ĠT able
ul ierung
Ġl eiden
sb ahn
ĠBl Ã¼te
Ġger aten
Ġsetz ten
Ġerf Ã¤hrt
bed arf
ĠBro ad
andid ate
Char acter
Ġap plication
wal ts
P ubl
st ationen
ĠS ep
Ġs amt
ĠB elle
ĠR in
ĠR as
ĠO hr
Ġauf weisen
ien te
op her
ĠEin ladung
Ġ18 46
Ġvor n
ĠVor gehen
Ġ8 6
Er z
ager ung
ĠEm ail
ĠLei b
ius eppe
ĠHil f
Parameter ized
laub nis
ĠSalz burger
Ġdat iert
Ġerg ab
ĠYou Tube
Ġwunder schÃ¶n
ĠMonument s
Il legal
ĠMitbegr Ã¼nder
R ot
V E
z onen
st one
ĠS einen
it ive
Ġw ann
ĠD ritte
ĠD anzig
ol stadt
ĠH Ã¤ndler
ĠC onnection
ent z
Ġge folgt
ĠIm pul
lei dete
En tries
ĠKon stru
ĠBe weis
ĠAt tribute
zentr en
Ġleben den
Rep l
ĠDrei ÃŁig
ĠBrau t
dor ff
sthe orie
Ġren omm
Servlet Request
Absol ute
Ġkombin iert
ĠCorpor ation
MÃ¶ gliche
ymm etr
h ier
n ow
v oid
ĠD istrict
ĠM alt
ĠF unc
ĠI b
ĠC la
eh me
ĠNach lass
sh afen
Ġ9 7
Ã¤nd ischen
ander s
ĠAd ministr
ĠIl linois
tic s
ĠSil v
195 8
ĠFÃ¼hr ungs
fÃ¼r sten
rÃ¤n kungen
Ġerk ennt
komm ission
ĠCre ek
ĠEuropameister schaft
Bi ografie
yg on
|| (
Ġrechte ck
ĠStrate gie
ĠWÃ¼n sche
L ied
T okens
U C
h Ã¤ngen
Ġ ul
Ã¼ pft
at hlon
Ġb ill
ĠG lo
ĠT afel
ĠR ug
ĠI wan
re al
ahr ung
ind lich
19 43
ĠEn zy
ĠAus grab
ĠAuf klÃ¤rung
az ier
Ġ7 7
Ġgr Ã¼ndeten
ina e
ari us
Ġhand eln
ĠFest ivals
rag ung
Ġid x
ĠVerteid igungs
ĠgefÃ¤hr det
Pres ent
Ġdokumen tiert
ĠDokumentar film
st Ã¼cken
an th
ĠT ai
Ã¶ hm
ĠEr ik
ĠSp rech
ĠPro t
ob i
dr ama
Ġ9 00
sb es
ĠBundes regierung
ĠMÃ¼n zen
ĠZwei g
ST AT
recht lichen
Auf gelÃ¶st
rag ment
Ġfrei er
Ġind ustr
Ġpolit ischer
Ġstand ard
ĠHen ri
ĠKre bs
ĠSec urity
Ġdisku tiert
1 10
F iction
J ECT
g eist
h Ã¤
l aus
ch i
ĠK ok
ĠP ac
ti le
ĠL ichten
Ġver sen
wei len
end ung
la fen
Ã¤nder ung
ĠKn ow
Ġreich te
Ġus ing
ÅĦ ski
nap shot
S ach
c ies
s f
al ts
Ġs ilber
Ã¤ ischer
ĠG ord
Ġf iles
ĠH ad
Ġsie d
Ġab gelÃ¶st
ĠMus kel
Ġ7 9
res se
ank a
Ġins zen
ĠLu is
ĠLu zern
ĠSport ler
ĠZahl ungs
ĠFel sen
sa al
Ġgepl ante
funktion Ã¤r
Ġschwed ische
Ġregion ale
Ob wohl
Wei ÃŁ
Ġregul Ã¤ren
ĠOrchest ra
Ġol ymp
ffizien z
ĠDiÃ¶z ese
D etails
G L
H in
L iga
i y
m isch
Ġ 00
Ġd ekor
ĠS lowen
ar Access
Ã¤ sche
ĠD M
Ġm erk
ĠT ieren
ĠL yr
ver arbeitung
ĠIn telligen
Ã¼n en
Ġ18 16
19 15
Ġman che
ne e
Ġgen Ã¼
ĠMus een
sel ect
ĠGer d
ĠBundes land
mar ken
ĠMann es
ĠBuch t
tag on
ĠMittel feld
Ġu kra
bet eil
Ġbed ro
ĠÃ¤uÃŁ er
kan al
Histor ische
Ġletzt es
ĠZeu gen
ĠCommun ity
Bet rieb
ĠInnov ation
Ã¤p st
c ommerce
p op
Ġd etaill
ge wer
ĠK lagen
ĠK ilometern
ĠC hl
ann over
ĠO skar
Ġver mitteln
ed a
Ġ18 38
Ġ18 41
Ġre port
ov Ã¡
ĠMar cel
ĠZeit ungen
zw ald
Mann schaft
leg ungen
ĠPat ri
ĠVerl etzungen
ĠEntwick lungen
ĠInstr umente
Ġumfang reich
ĠUrs ache
ĠVerÃ¤nder ung
as et
ĠE id
ĠP av
ĠEin stieg
Ġ18 42
Ġvor stellen
pl ier
ac ional
io den
ĠDurch schnitt
cl us
ĠTour isten
189 9
Ġverbesser t
Ġverstorben en
ebau ung
P riv
b og
o on
ĠB urn
ĠB reiten
ĠK au
ĠH ert
ĠL ade
Ġk r
Ġge teilt
aus wahl
ĠFl orenz
Ġet hn
Un ternehmer
Ġange wand
Ġger ufen
Ġeinge zogen
AT OR
sw eg
ĠWeiter entwicklung
ka sten
frie s
196 1
Parameter ID
ĠLog istik
Her r
Th is
ĠStu dent
Sup port
Ġlo op
Rem ove
T urnier
ie her
st etten
ĠS ac
Ġ1 13
ĠF ron
ĠG leis
ĠC in
ran ten
Ġre ference
Ex pr
Ġbek annter
ĠBet rag
Ġhin weg
ĠKinder garten
ĠDurch schnitts
ĠMer cedes
ĠHeraus forderungen
Ġnorm alerweise
Ġevangel ischer
Ġtradition ell
Ã¶der ation
ĠJahrzehn te
ĠBerat ungs
A K
S imple
m Ã¤ch
w enden
st age
sch Ã¼ler
ge gangen
ĠA tem
ĠB oh
Ġm oment
ti ker
ĠN on
Ġver t
Ġ" \
ull y
arb eits
sh ut
lei h
Ġex pr
ĠBo y
ĠEx port
con f
Ġeinfach er
riter ia
Ġ180 3
ĠErk enntnis
Arch iv
Ġservice Callback
Ġelement s
sprÃ¼ fung
other lv
gefÃ¼ hl
ĠTrotz dem
Liter al
Ġzug unsten
ĠKroat ien
V B
m eyer
Ġw andte
ĠD ecken
Ġf ix
Ã¶ ster
Ġauf einander
Ġl et
Ġc ell
19 49
ĠÃ ©
ĠAus bruch
Ġsp anische
of ern
Ġ0 7
Ġlie gende
Ġ8 9
ĠSe a
ĠCon s
ĠAk adem
zentr ale
ĠTem p
195 1
ĠGall ery
Ele ktr
Ġbeauftrag t
ĠEinzugs gebiet
Lud wig
C re
N un
W appen
b undes
Ġin iti
Ġf ahr
ĠSch alt
Ġl ook
sp an
lin s
ĠSp ace
Ġ18 35
Ġwie s
iker in
iss ar
iet z
ĠEx press
ilder t
eig n
ĠWer ft
ho use
ĠRechts wissenschaften
ĠSitz ung
ĠJe de
Ġmethod Name
Ġentspr ingt
Ġdur ften
klass igen
Ã´ ne
ĠSchlaf zimmer
ĠFrances co
U hr
u den
in ische
sch reiber
ge tragen
ĠK ie
ĠK ran
ĠH ost
Ã¶ hnen
and al
Ġo k
ĠVer teilung
ĠEr nennung
ert o
Ġa ccount
par ser
mit tler
amil y
Ġhier zu
ĠHand y
ĠSh ar
ron en
Ġfest en
jÃ¤hr ig
190 3
ĠTro cken
ĠNo Such
Ġerf asst
Ã¼rz te
Ġnotwend igen
ĠLeg isl
Auth or
ĠFertig stellung
1 14
I R
d ates
w ich
un ks
an aly
ĠS ix
sch les
ĠH old
ĠSp ektrum
pl omat
Ã¤l lig
ee ded
ĠVolks republik
ĠGu ide
Ġfl Ã¼ch
Ġmod ule
Ġte lefon
Ġleich te
ĠEreig nis
ischÃ¶ fe
ĠMittele uropa
Ġanb ieten
K ap
L eicht
M aster
P ap
P rÃ¤sident
ĠS ev
sch lei
or ff
Ġs erb
Ġv ollen
ĠE b
ĠR Ã¤
ĠR ied
ĠR Ã¤um
ĠN Ã¶rd
ĠÃ¼ber s
Ġ18 39
ord nungen
ĠVor jahr
En coding
ule gen
Er ste
ĠÃľber ra
Ġviel es
Ġqu er
ĠOst preuÃŁen
Event s
ĠStim mung
ĠTurn iers
sei tige
vertr etung
Ã¢ te
ĠkÃ¤mpf en
ĠDoug las
N ein
R om
k andid
È Ľ
ï ¼
Ġs im
Ġs ang
Ġmit ten
ĠO utput
ad s
ĠU til
ic us
rie t
Ġsch auen
ĠAus sehen
sk Ã½
Ġ9 1
Ġher zlich
els on
ĠZu hause
ĠDar stellungen
ĠfranzÃ¶s isch
Man agement
Ġpl us
ĠVerkauf s
ĠHoll and
Ġtime out
ĠSamm lungen
VAL ID
ĠLiefer ung
wander ung
ĠCoun cil
Absol vent
ĠAx el
ĠFound ation
ĠNeck ar
H amburg
R eihe
T C
n ommen
s uper
s ammlung
as ure
ĠF arm
ĠF utter
ĠH af
ĠL esen
Ġh ash
ĠSch icht
ĠSch ienen
Ġ18 17
ok raten
th ers
ens ive
Ġ12 00
ĠKÃ¶nig sberg
ĠArbeit nehmer
emen tierung
Ġschn ellen
ĠDis play
Ġexist ing
AP I
ĠHeraus forderung
usch el
Ġfinanz ielle
Ac tivity
Ġzeig ten
ĠAbst amm
ĠTat ort
ĠLoc al
VER SION
Ġlauf enden
Vol ks
gewÃ¤ch se
B itte
H eim
k ompon
ĠS tet
ĠB alk
ĠD y
ĠD FB
Ġin halt
ĠG am
ĠP unk
ĠL ack
ĠV Ã¶gel
Ġk ul
Ġaus s
Ġ3 60
Ġtr ee
ĠGrund riss
ĠFre ie
AR N
SS R
Ġkein em
wirtschaft s
Ġdan eben
Ġgrund legen
drÃ¼ck t
cas Type
Ġerl Ã¤u
Ġbetre ut
pap ier
ĠOpp osition
ĠLiebl ings
F k
T enn
U RE
u uml
É Ļ
Ñ ĥ
in iti
un en
ein trag
ĠK ay
ĠG ros
ĠV ize
ĠSch um
ver teilung
lo y
ahl ung
lock en
ĠAp i
gesetz te
ĠWar um
Ph ys
nehm ung
ĠWett kampf
ĠCorn el
ĠanschlieÃŁ enden
Listen ers
R et
S ee
Z usammen
b ury
f isch
g io
l on
Ã ¯
Ġ ew
st isch
ge len
ĠB rad
am ann
Ġm a
ĠW id
tr ei
Ġh or
ik ro
ek tive
lieÃŁ t
ĠZusammen setzung
ele ted
ĠDes igner
LE D
ĠSchloss es
ĠRuss ischen
Med aille
ĠUrs ula
Ġverp asste
Ġkeiner lei
Ġfrau en
evelop ment
ĠInse kten
F u
G EN
P L
S B
b ur
m ember
y en
al ben
ge x
ĠD Ã¼r
ĠK rÃ¼
ĠP ant
Ġf ree
ĠW eich
ĠW ink
Ġer setzen
Ġh alt
ver gleich
Ġc ause
ĠEr mitt
her it
ĠAb schied
ige st
Ġpro vider
ĠHaupt darsteller
ĠLebens raum
195 9
emat ik
Ġversch oben
ĠAmts gericht
Fl uss
Med ien
Ġgesetz lichen
Ġnorweg ischen
Ġeingemein det
A f
N ur
T el
T itle
b rechen
o use
z ieh
ar ett
Ġw Ã¶ch
ĠD eine
ĠM ix
Ġz us
ĠF uss
ĠP ixel
Ġf as
re q
ĠV Ã¶l
wei lig
men te
Ã¼n ster
iz it
ib us
che f
ard in
ĠCh annel
ĠMar mor
ev in
Pro ps
Ġ7 3
ĠY our
amer ik
ĠDar steller
ĠZwei te
ĠZwei ter
ĠInter ruptedException
ĠZw angs
verb rauch
ĠRÃ¼ck seite
Format ter
ĠRev iew
gra de
Ġbeteil igten
ĠPe er
Ġgl Ã¤n
oth ar
ĠRem ote
PRO PER
ĠErf inder
requ ire
ĠangekÃ¼nd igt
C ategory
H eil
h ler
i ffen
Ġk ap
Ġg ere
Ġst ein
ang a
aus stellungen
iz z
Ġ0 8
Pro file
ogra fen
ĠBl as
to Array
ĠZu vor
Ġres olve
ĠBet riebe
Ġgef ragt
sw itch
Ġqu eue
ĠMag d
Ġind ischen
ĠKommun e
kn oten
ĠMont age
Arch Ã¤
ĠKrank heiten
auff ol
ĠApost ol
ĠInstall ation
ĠFit ness
C R
H g
V oid
k inder
r ession
Ġ att
Ġ echt
Ġd st
Ã¼ hen
ĠB ande
Ġi gnore
ĠF uture
ĠH us
ĠV olleyball
ĠN i
Ġbe enden
19 17
inz uf
ens wert
ĠY am
ĠSte ine
Ġerst mal
alle d
Reg ie
Ġunterschied licher
189 4
Land es
ĠÅ Į
ĠNachbar gemeinden
ĠFal ken
ĠPok alsieger
Ġdurchschnitt liche
Sonst iges
Merk male
B ilder
W o
v ik
st ufen
em er
ĠG ei
ĠP rivate
ĠL aur
ĠL td
Ã¼r tel
eb r
Ġt ollen
ĠAn liegen
scha f
Ġa ccess
ian ce
Ã¤nd igkeit
ivers itÃ¤t
Ġgeh abt
res erv
ĠLe er
tif ic
kon zept
ĠKn ie
Ġverw altet
189 6
189 8
ĠRen Ã©
ĠService Future
ĠKriegs gefangen
Ġide al
Ġbeob achten
tran sport
ĠLeiden schaft
G old
X X
n utzung
w il
Ġs a
Ġf otograf
der en
ro th
ok er
ĠGr ill
Ġgew orfen
enz el
ĠSpiel zeiten
ĠBo hr
ĠSh ort
Ã¤m pft
bew eg
bereich en
tieren den
Aut o
ĠFluss es
ĠkÃ¼nstler ischen
ĠkÃ¼nd igte
ĠValle y
T B
Ġm Ã¼sse
le k
Ġer zeugen
19 16
ĠKon stanz
Ġex klus
ĠBo ard
ĠZu schau
Ġteil te
ĠAt las
deck er
OR Y
ĠBÃ¼ chern
ĠHil de
key Set
Ã¤mpf er
Sh ow
ĠSchÃ¼ler innen
Ġerk annt
Ġscha fft
Ġanti ken
ĠTown ship
ĠDub lin
K rieg
W olf
Z ug
v i
ĠD sch
ĠG R
Ġf lag
ĠW ho
ĠT R
ĠSt ufen
os k
im ation
ib m
En vironment
Ġ9 3
Ġ8 1
ĠY ear
Ġen ge
ĠSchw aben
such e
schutz gebiet
Ġerhalten en
Ent fern
ĠAnt worten
dent ity
lÃ¤nd ischer
ĠDenkmal pflege
Ġhab ilit
ĠGottes dienst
ĠInternal X
Ġsamm eln
! ");
) <
A fter
o ti
p reise
un er
el ektr
Ġm em
ĠV in
ĠZ oo
Ġaus gesprochen
Ġent deckte
Ġsp iegel
Ġzw anzig
Ġgew issen
Ġe ach
Ġdar auffol
Ġgef eiert
kon struktion
ĠGef Ã¤hr
Hand ball
ĠHistor ische
195 3
gericht shof
ikal ische
So zial
ĠWit we
ĠPseud onym
Lower Case
ĠTÃ¤tig keiten
ĠEntert ainment
1 13
B randenburg
H A
M etric
b ol
Ñ ı
Ġ arr
ĠS und
Ġs enden
ĠE mer
Ġf Ã¼hlen
le ted
ĠL ehn
ĠR an
Ġan spruchs
ĠSch al
sp ath
Ġbe deckt
ĠAl i
Ġes sen
rÃ¤ uch
ĠCh ild
ĠGener alleutnant
ĠTechn ology
Ġlin ke
Ġad ap
euch ten
mel den
ĠerhÃ¶ hte
Ġbeein druck
sper re
ĠkÃ¤mpf te
ĠTob ias
organis ationen
M D
W issenschaft
k ritiker
Ġ ord
in voke
Ġf erner
Ã¶ d
Ġal ias
Ġver Ã¤ndern
kt op
get Request
anz eigen
ĠNach frage
ĠLand s
ren ce
ĠPr inc
ĠBest immungen
Ġbel egen
ĠErz bist
Ġdien ten
Ġtechn isch
ĠNachbar n
Ġprak tische
Verkehr s
lÃ¤uf e
ĠWirk lichkeit
Hein rich
ĠClaud ia
B oden
G leich
T ABLE
Ġ iterator
ĠF avor
ĠP ause
ĠW ars
ach ment
Ġg eile
Ġauf w
ah me
ap ply
enn te
Al low
Par se
ink i
omb ard
ĠTechn iken
othe k
ĠKont o
gef unden
fel den
gehen den
ĠCamp us
ĠSchles ien
stift ung
ĠGeschlech ts
+- +-
D etail
b ayern
Ġd avor
ĠA tt
ĠB uild
Ġm uÃŁ
ĠP ak
ĠL ohn
ĠV ision
ĠJ ag
Ġk op
ĠZ one
Ġst re
Ġbe ur
tig keiten
lieÃŁ en
gl Ã¼ck
Ġger echt
ĠWebs eiten
ĠMeister titel
Mod ified
reib ungen
ĠWeiter bildung
ĠSan ierung
Ġwest liche
Med iziner
ĠSold at
ĠHy per
Gemeinde auflÃ¶sung
verstÃ¤nd nis
sthe ater
ĠEdel stahl
MÃ¼n chen
ĠClem ens
Ã¼cksichtig ung
, -
v oller
Ġ echte
ĠD ead
ĠG allen
ĠW ur
ĠW orm
ĠJ ohan
eu x
och em
Ġ3 50
ĠMit tag
ĠAus gleich
ĠNach mittag
pr om
Ġkl icken
Ġis ol
sw ahlen
over n
IT H
Ġkurz zeitig
Des ign
CE SS
fre unde
Ã¼st ung
Ġangegeben e
ĠBos n
ĠPek ing
N och
a a
m i
un te
ĠB ey
ĠB utter
Ġi Phone
Ġm g
Ġf all
ĠL ernen
ver schluss
Ġr Ã¤um
ang riff
Ġab geleitet
18 82
ĠNach weis
String Utils
be cker
Ã¼t zer
ĠUnter schiede
ĠTh ailand
ĠRep ubl
uck er
ĠGen ehmigung
Ġleben s
CO MP
ĠEing angs
Ġelektr ische
Ġhab t
Ã¤nk ischen
reden tials
Ġlehn te
M as
M aterial
k arriere
w Ã¤hlen
in formationen
ei mer
it Ã©
ĠB Ã¼ndnis
Ġb o
Ġm ember
ĠF ulda
ĠI C
ed el
Ġst erben
im age
ĠFl y
ĠPl atte
Ġ9 2
Ġausge geben
ĠRe alitÃ¤t
ĠGe or
ĠUr sprÃ¼nglich
ĠProf i
ĠLie ben
ĠRegel ung
ĠDe ath
ĠKom fort
ĠArchÃ¤ ologie
ĠprÃ¼ fen
B ook
D ynastie
P ark
R Ã¼ck
S oll
a ktu
s d
ã ĥ
es is
ĠB arr
et isch
ĠM aul
ĠĠĠĠĠĠĠĠ Ġ
ĠP ier
ĠV eget
Ġg lauben
rei en
ĠSch Ã¤fer
Ġl ib
Ġunter richtete
ĠBer ger
Ġsp lit
ĠAb sol
ĠVor runde
dr unde
Ġbesch rieb
mÃ¤ ss
ĠWeb prÃ¤senz
ĠZusammen schluss
ĠHier zu
tic al
Ent wicklung
ĠHar z
189 3
ĠTÃ¼r en
ĠDor othe
ĠPri or
ĠSn ow
Ġjung er
Tro tz
M T
T x
V V
Z eich
e ge
h um
h essen
k tive
x FF
Ġw Ã¤hlte
am ar
ĠK eine
ten nis
Ġer werben
ĠI gn
ĠC ant
ĠC ock
ul s
sp ec
Ġun ivers
Ġc ollection
id t
19 47
Ġunter richtet
ĠAb bau
als o
fe der
Ġgef Ã¤llt
ĠProf ession
Sh op
195 5
Welt cup
ontin ental
Ġzurueck gegeben
FI LE
Ġhol en
Ġmedizin ischen
O der
p Ã¤dagog
Ä Ĺ
Ġd ritt
Ġd auern
st im
ĠS id
ĠM ex
ĠK i
ĠT y
ĠR ade
ĠV ariable
Ġp ur
Ġst arben
ot tes
ĠAn wendungs
Ġent s
pt on
ĠQu ad
meister s
kon stru
RE AD
ĠSc reen
Ġat om
ĠInform atik
ĠGen au
unn able
ĠHin dern
ĠVersuch e
ĠNamens geber
bas is
Ġbetre ffen
Hein z
Ġunterb rochen
S onder
v ari
ĠA dr
ĠB ien
et tel
ĠK leid
ĠF lex
ĠG iuseppe
ĠP ad
Ġf il
Ġf ran
is emit
ĠW ichtig
Ġer zeug
ĠC afÃ©
Ġan alys
Ġst euer
19 48
ĠAm ph
ĠPl att
ĠUnter kunft
ĠPh Ã¤nomen
amp a
ĠProdu zenten
ĠSÃ¼d amerika
pp ed
Ġgest ern
ĠWer be
Ġintern al
ĠStu hl
steh er
ĠStreit krÃ¤fte
ĠSor timent
ĠGir l
Vis ible
minist rat
ĠSpe ed
ĠInternets eite
ĠVizep rÃ¤sident
D och
f ehler
g ow
m inal
ĠS ich
ĠD eut
de uten
ĠE sch
ĠP L
Ġh y
Ġp ool
ĠAn gehÃ¶rigen
ss itz
Ġber ichten
kl ang
res ources
Aus gabe
Ein ige
ĠFest schrift
Ã¤ft s
wissenschaft lichen
ĠVerl etzung
ĠAch ter
ĠOff ice
Ġschlech ten
ĠMarc us
ĠOrgan ist
ĠErl angen
ĠErwachsen e
ĠSkulpt uren
depen dent
ĠPion ier
P G
W ahl
r ess
ie de
ge zogen
Ġw a
Ġein gew
ol ine
ĠH ip
ro v
ĠJ AXB
ier tem
ed s
get Text
ĠSp an
Ġ18 25
Ġ18 24
ib ia
ev oll
String Builder
Ġ9 4
Ġ9 8
An ti
bild ner
ĠHoch wasser
ĠVol ker
Ġbr achten
new Instance
ĠGener ationen
File Name
ĠWer ks
check EMail
ĠBetrieb ssystem
189 2
Ġherv orge
sl etter
Ġsh ow
print StackTrace
parse Boolean
ĠHigh way
TR AN
Ġkultur ellen
checkEMail Adresse
E isen
v all
in sp
or ed
ĠD irk
ĠF ame
ĠG ib
ĠP y
ĠH is
ĠH Ã¼r
re ader
ir ca
get Parameter
ex ten
Ġvor an
ĠBer Ã¼cksichtigung
rÃ¤ um
ĠGr Ã¶n
ia e
ĠGesch Ã¤fte
ĠSe es
ĠFra g
Client Execution
ĠChar acter
sl eiter
Ġverf asst
ĠTrau er
Ro ute
Ġforder t
russ isch
G R
S al
} );
en ge
ĠA er
ĠB Ã¤r
ĠM ilit
ach el
Ġdes ign
ster s
Ġunter nahm
Ġtr ugen
ĠAus flug
Ġviel fach
ide en
tik um
ĠCl uster
Ġrech ter
ĠStuttg arter
Met al
Ġfr ame
ĠLog o
ĠPil ot
ĠHan au
ĠniederlÃ¤nd ische
Co uld
Ġcl uster
Ġoper ation
ĠFÃ¤h igkeit
Dur ation
JÃ¤hr ige
ĠLein wand
ĠAgent ur
Ġbevorzu gt
ĠObergesch oss
Fk EMail
m ans
ĠS ain
Ġs in
tr act
il o
ĠZ e
ĠfÃ¼r s
unk er
Ġges ammelt
ĠRe eder
Ġverl ieren
ĠLei der
Ġjeweil ige
čĊ čĊĠĠĠĠĠĠĠĠĠĠĠ
IT E
Ġabge geben
Ġhistor isch
ĠDen ken
ĠWissenschaft s
orth odox
ĠSied lungen
ĠSchÃ¶n heit
Â» ,
ausen de
ĠTur in
Ġqualif izierten
ĠSec ond
Ġdauer haft
ĠBrig ade
ĠGewerk schaft
ĠProj ekten
ĠPetr us
ĠTschechos lowakei
ĠDreiÃŁig jÃ¤hrigen
I con
K K
S ong
c re
r und
s ame
w t
ĠD est
ĠM ake
Ġzu gewiesen
get B
Ġvor erst
geb ra
lo yd
ek ord
ac cept
ĠFl ur
Ġgew innt
Ġbeg in
ĠHoch schulen
ĠRei fen
ĠÃĦ uÃŁ
Reg istr
Ġhistor ique
Ġfl ach
ĠÅ ½
ĠKontr oll
!! !
Ġchines ische
ĠMÃ¶n chen
Ġbefore ClientExecution
kÃ¤mpf e
Ko ordinate
Ġbefind lichen
grenz ung
ĠBulgar ien
ĠGÃ¶t ter
OUR CE
ĠBreis gau
J ean
U se
m auern
Ġw ait
ĠB BC
Ġb ad
ĠG un
ĠW rest
ĠT hal
ĠO ft
Ġauf geb
eb el
ĠSch e
ĠSch ritte
Ġl ux
ver y
ĠAn reg
enn ame
ĠAb hÃ¤ng
Con structor
Sch rift
Ġgesch m
Class es
ĠGra phen
Ser ializer
ĠBeruf ung
Ġclass Name
Ġamer ikanischer
onom ie
Ġevent uell
Mill ionen
Ġkanad ische
ĠQue en
. ;
L y
S ql
d ies
n immt
Ġs aÃŁ
Ġb rauch
ĠG itter
ĠP s
Ġge lo
Ġl eiste
Ġp ackage
ien ne
esch en
id as
ĠBer eit
ĠSpiel ers
amil ton
ĠAk k
verb ot
ĠSk la
Ġro b
By Id
Ġvoll stÃ¤ndige
ĠOs lo
ĠBegriff e
ĠÃ¶ fter
ĠKaff e
ĠStatt dessen
Ġgesund heit
C ard
H P
H erkunft
b rief
Ġ eig
ĠH C
ĠR Ã¤umen
ĠN an
ĠO ch
ĠAn kunft
ap pt
ov o
Ġbet reiben
for um
ĠNational park
uck s
Ġhei ÃŁ
Ġvoll kommen
US A
ĠDis ney
ĠHar vard
Ġsicher lich
current TimeMillis
Oper ator
ĠTe en
ĠVerdienst ordens
Europameister schaft
ĠStaatsb Ã¼rger
Annot ations
D isp
G etter
M atcher
R aum
T F
T RI
Y ear
ĠD ritt
ĠM ore
ol ved
ĠW esen
Ġer lern
ĠO ste
Ġaus gesetzt
ed es
eim ittel
Con straint
ĠTeil nehmern
ĠOrt steile
ĠCon text
ĠNational versammlung
Ġbesonder es
SS ION
ĠErz iehung
leben s
ĠClass ic
ĠLy rik
VerÃ¶ffentlich t
Ġbetroffen en
ĠkÃ¶nig lichen
Sing les
Ġbeherber gt
B UT
B asketball
f inanz
w ende
Ġs ens
ĠP os
le ep
ĠL Ã©
ĠI dentif
ĠJ g
ger echnet
op ath
etz liste
ip io
Ġ0 2
ĠBr eit
Ġpro te
ĠgroÃŁ em
ĠHand eln
ĠVerein igte
Ġgef Ã¤rbt
ament o
Ġbedeuten den
ĠQualif ikations
ĠSpann ung
ĠAre al
Ġspec ified
ĠErzÃ¤hl ung
imple Name
Ġkom fort
ĠHob by
ĠPublish ing
D rei
L eist
g h
h Ã¤nge
m u
m ail
v Ã¶gel
ge stellte
au scht
ĠB eine
Ã¶ hr
ĠL enk
Ġh Ã¶lz
Ġdes wegen
ad es
eb t
he orie
Ġ18 31
Ã¶r ten
Ġre prÃ¤sen
Ġsp aren
ac tor
ahn e
lei den
ark tischen
ĠMed ium
ĠUr ban
ĠSan ti
ĠStaats anwalt
ĠFrÃ¼ chte
Ref eren
ĠCom ics
Ġinteress ant
So ftware
Ġdat abase
isc ount
Rec ei
ĠErschein ungs
Ġreligi Ã¶sen
? )
R itter
k lag
r unden
on ic
ĠK rak
ĠP rÃ¤sidentschaft
ĠH oh
ir kt
ul ationen
ĠZ ag
Ġnach weis
Ġa fr
Ġab gew
ĠMa j
Ġneu esten
Al tern
ĠEnt deckung
ĠJan eiro
Ġor igin
IC E
ĠGut schein
ĠWel che
edig lich
Ġdurchschnitt lich
ĠgewÃ¼n schten
Ġbrasilian ischer
PAT H
ĠEcon om
> .
C ur
T ool
p la
Ġd iff
ĠD eh
ĠG az
Ġan stelle
ist isches
spiel s
ĠUnivers al
ĠBe gegn
ĠGer tr
ĠĊĊ ĠĊĠĊ
schn itten
ĠChrist ine
co der
ĠDan ce
Ġschw ach
not Null
195 7
ĠJur a
grÃ¼n de
ĠBesonder heit
Ġstattf and
Dist ribution
ogal um
/ {
P ublik
k ok
Å ¼
Ã¼ ben
ĠL ehen
um pe
enz eit
ĠTh em
ator y
Al p
Ġgesch Ã¤tzt
Ã¶ch er
ĠHaupt ort
zei tige
Ġinner e
iat rie
Ġentstanden en
ĠBÃ¶ hm
Ġbegr Ã¼ndete
Ġneg ativ
ĠSab ine
person en
sbez irk
I A
k rÃ¤f
u alitÃ¤t
Ã¼ che
ĠB ent
ĠK arn
le der
ent ums
Ġge fahren
Ġp rim
ĠSp ons
ĠStr Ã¶m
ĠVor trÃ¤ge
ition al
mit te
Pro tocol
ĠUnter grund
ĠUm frage
Ver breitung
ĠSchw ieger
Ġverl iert
ĠEurop ap
ĠLandes regierung
kon ferenz
Ġem otion
195 4
189 1
ĠFernseh film
ĠLang haus
ĠKor ps
ĠCas par
Ġcomp ute
Ste in
Histor y
ĠjÃ¼nger e
ĠZul assung
ĠLetz ter
Ġkost et
Ġnachfol genden
ĠMagaz ine
P P
T M
h Ã¤n
j ord
t as
w elle
z it
ĠT all
ĠT auch
ber s
um pen
ĠIn itial
Ġwar m
ĠAr tist
ĠAl an
rit ische
ĠVor arl
En gl
ite es
ĠGesch icht
ĠLu ise
Ã¤nder ungen
ha ar
deck ten
ĠsÃ¼d liche
schein lichkeit
Le ague
ĠÃ¤hn lichen
vis it
Ġexten sion
ĠGÃ¤ sten
Bild ung
db c
ĠBom ben
Ġschwei zer
ĠVerbreit ungsgebiet
Ġleiste te
I ST
b eben
p assen
v ens
Î µ
it us
Ġs ingle
ĠP rec
le p
ĠT H
ĠL etter
rei tete
18 83
St ats
Ġern euert
stru ct
RE D
druck s
Ġzahl reicher
ĠNeben fluss
fel de
Ġnie mals
ĠTri o
ĠHei rat
ĠJournal istin
uel a
struktur en
Pr ice
ĠImm un
Ġsk ip
ausschuss es
ĠWurz el
ĠKrie ger
ĠFF DC
STR ING
Ġoffens ichtlich
B esonder
H ar
L ei
N or
g Ã¼ter
h ab
ĠD ifferen
ĠH Ã¤r
ĠW eit
ĠV ektor
ĠSch rau
ĠVer pack
ang aben
Ġ18 10
Ġab gel
Ġsp eichern
ek e
18 90
Ġe qu
alen a
ĠPar ti
ĠHaus halte
out ube
ĠArbeit spl
Reg ister
Ġwill kommen
ĠFolge zeit
Ġhistor iques
Up per
stud io
CON T
ĠNahr ungs
ĠPerspek tive
Dam it
ĠJugoslaw ien
ĠEliz abeth
R ole
S R
k ins
m esse
z oll
Ã¼ ÃŁen
ĠB auf
et tern
ĠM og
ber ichte
Ġer baute
ĠC ow
eb all
ĠVer hÃ¤ltnisse
ĠAn sprech
Ã¼n eburg
get E
pl ung
ĠVor haben
Ġber uht
ĠSte ck
Ã¤m m
Deutsch es
ĠAt l
ĠInd ones
ĠHe art
ĠUl m
ĠViel leicht
Produ ct
ĠGerman y
Ġanz us
ĠInner e
ĠLeon hard
ĠErkrank ungen
Ġverurs acht
! )
S CH
W ein
f ix
h ers
k ritik
t ario
ar est
ĠK ies
ĠK unde
ĠK reise
Ġf icken
Ġf etch
ĠL is
ĠR ain
ĠC ustom
ra ham
ĠZ ier
Ġun it
Ġbe zeichnen
Ġsch ein
ĠAl f
ĠPro tagon
Ġab stra
her z
ĠAus rÃ¼stung
ĠVor sprung
utz er
str ong
ĠĠĠĠĠĠĠĠĠĠĠĠĠĠĠĠ ĠĠĠĠĠĠĠĠĠĠĠĠĠĠĠĠ
ĠBe au
Ge ometry
ĠKat astrop
ĠPlan eten
189 7
ĠSen ats
ĠGesamt wertung
Ġtyp ische
TE XT
ĠAnder son
Ġhal ben
Ġdein em
Ġbelg ischer
ĠDiv is
Ġprofit ieren
Ġdarauffol genden
C annot
F ernse
N C
a o
Ġd einer
em atic
ĠP ick
ĠT ap
ĠC loud
Ġk alt
Ġt her
sp olit
ĠAn st
Ġvor ange
ay r
ant ie
ĠReg isse
wer fer
ĠUnter lagen
Sch lag
riv e
Ch em
ĠHaupt mann
ĠUr kunde
AL OG
reck en
ĠDem onstr
herr n
Ġbesser en
Ġung laub
ĠBeweg ungen
ĠgewÃ¤hr leisten
ĠAuseinander setzungen
Russ land
ĠAtel ier
ĠKavaller ie
> -
B uf
M at
S ite
k Ã¼hl
st imm
ĠS inger
ĠS we
ĠA B
ĠM ent
Ġm ut
ĠK ad
ĠF ri
ĠH inzu
ĠW ick
Ġer lebt
Ġp ack
ĠIn fo
ĠAn nahme
ĠSp err
id x
In tegr
fl eisch
olle ct
An t
ĠUm zug
ĠDurch bruch
ĠMittel n
ĠDu ck
ĠMod ul
Ġ180 8
fred akteur
ĠBal kon
Ã¶pf en
Ġerz Ã¤hlen
ĠÃ¼berra schend
Ġav ailable
Ġdauer te
ĠKanz el
ibil ity
krÃ¤ ften
ĠAbstamm ung
ĠZuschau ern
A ir
N amen
Â ¼
ich tige
ĠL eu
ĠR ange
ra ÃŁe
ĠSch aum
ot herap
Ġr ichtete
Ġj etz
Ġ16 00
Sp iele
Ġbesch reiben
hand els
ĠKÃ¼nstler in
Ġdr amat
frau en
the orie
Rel igion
Ġqualif izieren
Ġwor aufhin
Ġdre hte
ĠSar ah
ĠBegr Ã¼ndung
Ġsinn voll
D own
ei men
sch ema
ĠB ridge
ĠF ind
ĠJ h
Ġge be
wei tern
ĠDie sen
ĠAn zeigen
Ġc re
get Data
id den
Ġ18 21
av ior
Ġ17 93
sel f
ĠPf eil
ĠHoch stift
ĠHaupt bahnhof
ĠSem ester
dat ei
ĠKre ativ
Ġverd ient
Ġitem s
ĠAre a
Ġprofession elle
Ġopti male
Bad minton
+ "
D abei
H S
O W
i ation
p an
y ter
ĠS D
ĠS ey
ĠM eilen
Ġk reis
ver d
eil le
ru pt
iz itÃ¤t
tig keits
vers uch
sk op
ĠHau st
fÃ¼ gt
ĠBeg leit
ĠGegen stÃ¤nde
ME SS
welt meisterschaften
ĠZÃ¼r cher
Ġgeschlossen en
ĠEhr enz
annot ation
Ġac tive
ĠLim burg
Rem ote
ĠGrÃ¤ ber
Ġsamm elte
ibil itÃ¤t
lac ement
ĠAustral ian
dater es
C ustom
c ur
Ġd ick
ar ing
ar mee
ĠA sh
Ġb utton
ĠW ith
ĠR ut
il lo
ro d
ro it
Ġl Ã¤dt
ĠVer mittlung
ĠVer anstalter
ĠAn leitung
op fer
ĠAr ist
Ġum liegenden
qu er
if c
amm e
ĠChrist opher
aw s
Ġgem eldet
ĠErz iehungs
ĠKol onie
ES CO
Mon itor
Ġerschienen en
Ġverbr ingen
Ġmensch liche
Ġangen ehm
ĠWalt her
ĠRac ing
ĠKÃ¤rn ten
P R
a sten
o iden
p assung
sch reiten
ar isches
ge laden
Ġs ank
el in
Ġein iges
ĠK anten
ĠP Ã¤dagoge
ro st
se arch
ĠEn ter
ĠMar ch
ac tive
Ġneu tr
ack s
sk e
mit ten
Ġbet ont
ĠAd ams
such en
ĠStud ios
Ġqu alit
ĠKr ise
Ġkein es
ĠPark platz
ĠDav is
AB C
Ġanz eigen
Ġumfassen den
ĠKup pel
ĊĠĠĠĠĠĠĠĠĠĠĠĠĠĠĠĠĠĠĠĠĠĠĠĠĠĠĠĠĠĠĠĠĠĠĠĠĠĠĠĠ ĠĠĠ
ĠKomb in
Ġanges iedelt
Ã± a
ĠmÃ¤nn liche
ĠNeum ann
ĠStell vertreter
Ġniedr ig
ĠjÃ¼ng ste
Arb eits
ĠYor ker
F in
M ac
M ore
S etzliste
T ile
W ald
j s
Ġ echten
ĠA uer
ĠF euch
ĠT hrowable
re de
sp aren
lie f
ep pen
ĠGr en
ĠVor feld
br achte
fer tigung
Ġwieder her
ĠGeb irgs
to LowerCase
oun ts
stÃ¤nd iger
Ã¤h ern
ĠUr spr
ĠMich igan
ĠTour en
Ġbez ahlen
All gemein
ĠSicher ung
sprech ung
ĠGeist es
ĠBek ann
Ġte uer
ĠWol ken
Ġerheb t
ĠLy on
ĠNa gel
Ġneg ative
cul ate
ĠEins Ã¤tzen
ĠAnth ony
ĠJahrhund erte
Ġrestaur iert
ĠOrnith ogalum
L ex
S uccess
m otoren
r inger
ã Ĥ
Ġb undle
as List
ĠF lieÃŁ
ĠL Ã¶s
eg a
ungs zeit
ĠAr gument
ĠPro gress
String s
br ach
ieren der
Ġpro xy
wer fen
Ã¶l ler
ĠEx trem
bo urne
gew Ã¶lbe
Ġur auf
AR D
Mod ifier
Ġbeh alten
Ber uf
ĠPal Ã¤st
ĠZeich ner
rist all
prÃ¼ fen
rec ord
Max im
grÃ¶ÃŁ te
ends With
match es
Ġkonzip iert
? âĢľ
b on
h ut
j u
w Ã¼n
w oche
ar is
Ã¤ sten
ĠD all
ĠC anada
ah ler
ĠIn sp
Ġaus b
Ġun regel
get In
ss ohn
sb uch
add ing
Ġges perrt
ĠAd miral
Ġbew ertet
ĠLauf zeit
ĠVers ammlung
Ġbegr Ã¼ndet
ĠKonz ern
ĠDisk uss
PO ST
ĠlÃ¤ng st
strich en
ĠEinkauf s
Ġhoh em
Ġeingest uft
G ruppen
O wner
V arian
p pe
Ġ art
Ġs ome
Ġb atch
ĠK enntnisse
ĠG m
Ġf liegen
ach ing
ĠI hm
Ġmit hilfe
ĠVer folgung
la de
ĊĠĠĠĠĠĠĠĠĠĠĠĠĠĠĠĠ ĠĠĠĠĠĠĉĉĉĉ
Ã¤l le
ĠUm stÃ¤nden
ĠGer ichte
ĠSchw ert
ĠKunst geschichte
ĠfrÃ¼ he
hand le
Ġgemein nÃ¼tz
anc y
wissenschaft liche
ĠTro ck
CH AN
Ġschl Ã¤gt
ĠHum bold
vo gel
Theater schauspieler
Ġgesellschaft lichen
ĠMd L
Ġverab schied
Ġausgesch ieden
Ġseiten s
ĠErober ung
Leicht athlet
L es
h ielt
m atcher
o tr
č ĊĠ
in sert
Ġd ay
ĠS Ã£o
ar us
Ġs Ã¤chsischen
Ġs lowen
ĠB ak
ĠD ing
ĠK rau
ĠF our
ĠE k
ĠP ont
ĠH Ã¼tten
ĠL ediglich
ĠR uth
ĠI F
Ġh erk
ĠC ourt
Ġge test
op hen
get Default
mer zen
mer kung
Ã¼hr ungen
18 85
ĠSte iner
ĠfÃ¼hr ende
ĠEl l
Ġbesch rÃ¤n
ĠBuch es
ĠOst see
ĠVers icher
grÃ¼n der
Ġdefault Value
MB ER
ĠEntwick ler
ĠWettbewerb s
ĠPaar e
ĠKult us
ĠDate Time
refer ence
ĠEro tik
Ġverschw unden
Jose ph
Ġhr sg
ĠBam berg
) >
F loat
c atch
Ġs ort
Ġv iert
Ġi ran
ĠF at
ĠG amb
Ġf ail
um fang
ĠC E
Ġun be
Ġ18 12
ak ul
Ã¤t sel
enn ungs
Ġnoch mal
ian i
ĠAm tes
ĠEs c
ĠGeb irge
Im port
ĠUS B
ĠgroÃŁ zÃ¼g
to ine
ĠÃľber setzt
ĠSe el
Ġeinz iger
Ġwei ss
Man aged
Ġempf ohlen
ĠTrans fer
ĠTal ent
Kultur denkmal
ĠElem enten
ĠÃ¼brigen s
Dre h
ĠHels inki
k reisen
w Ã¤nde
ĠS i
ĠD ess
ĠG ur
ĠE ms
ĠP all
ĠSch ub
ĠâĢ Ļ
ot es
Ġgen ehm
Sch warz
Ġ10 5
ĠX I
ĠSil ver
ĠLondon er
ĠPfl anze
Re al
mon at
lowak ischen
ĠSow ohl
Ġprak tiz
Ġleich ten
aust ausch
ĠVoraus setzung
ĠDisziplin en
ĠMinn esota
ĠDunk el
Ġfas zin
7 00
S ynchron
h ib
au ens
ĠH ugh
ĠH amilton
ĠW are
ĠJ as
Ġl at
Ġl ob
ahr er
ĠÃ¼ber prÃ¼ft
la ster
ĠAr min
Ġent sprach
ard t
ĠFl Ã¼sse
pro vis
Ġange meld
ĠMÃ¼n z
ĠBeg leitung
uck y
Ġbed ingt
ĠermÃ¶glich te
ĠSec ret
ĠGesprÃ¤ che
Ġirgend wie
Ġkultur elle
ĠdÃ¤n ischer
steuer ung
BevÃ¶lker ung
ĠEmp ire
ĠAusgang spunkt
Colle ctor
B ur
T al
b eln
k ong
Ġs olle
ĠB ilden
et o
ĠM obile
ĠR aub
ab on
Ġt x
Ġp or
ew ork
ĠAn sonsten
ĠEr ror
get Node
Ġsch lossen
Ġab gebaut
gr ammen
ĠGemein det
ĠY e
lau bte
ĠBet ten
fÃ¼ hl
AT O
unter such
Ġerhalten e
ĠPat ient
Ġmein t
ĠgrÃ¼n en
getS impleName
ĠrÃ¶m ische
Ġtyp es
Ġgener ell
ĠBud get
ĠGran de
ĠgÃ¼nst igen
Ġtats Ã¤ch
ĠFranzÃ¶s ischen
Ġberuf lichen
dehn ung
instr umente
B all
F ont
P redicate
ei z
ein g
ĠB ie
ĠP for
ĠL ug
ĠL ov
ĠR ande
ĠC rist
ĠC osta
Ġver ring
Ġsie bten
uss ia
ĠGr em
Ġdeutsch es
Ġ0 6
Ġbes etzten
Ġange messen
Ġ| =
ĠVerb rechen
Key word
ĠReich weite
ĠNieder schlag
ĠGen ossen
Ber echnet
med ien
Sport veranstaltung
funktion en
ĠBrau erei
ĠSus anne
ĠGitarr ist
ĠTheat re
Ã¢te au
b ab
f arb
k rie
p lain
s i
Ã ®
st amm
ur b
ĠB ap
as ar
ĠI M
ĠJ ochen
ĠC hal
ĠC her
ger ichte
Ġc ontain
ap ur
ĠUn it
Ġsp ir
18 89
Ã¶ff nungs
iet ung
Ġbek leidete
Ã¤u ber
ĠKÃ¶nig lichen
ĠInd ustr
ĠRom ane
ĠÃ¶ff net
ĠÃ¼b licherweise
ĠInnen raum
ĠhÃ¤ufig sten
gra ph
rev olution
Ġtrans l
ĠPil ger
Fe atures
ĠCamp ing
loc ation
Top ic
ĠPed ro
ĠSauer stoff
Ġangrenzen den
Ġill ustr
D b
V irtual
Z iel
k loster
Ġ ..
ĠS ultan
Ã¼ bt
Ġn ames
ĠK leider
ĠP ia
ĠW y
ĠJ ew
ĠC anad
ĠZ wick
18 86
iden ce
Ġeinz iges
ĠVerb und
ĠGraf iker
ĠMarkt platz
ĠErd beben
Th omas
ĠAf ghan
ĠbeschÃ¤f tigen
Ġschot tischen
ĠRal f
ĠGatt ungen
ĠglÃ¼ck lich
H igh
J e
g Ã¼nst
u is
u ver
Ġw eich
Ġm ache
ĠK oh
ĠP rÃ¤sentation
ĠL Ã¤ng
Ġer setzte
ĠI sol
Ġl uther
ĠEin stellungen
ĠAl ois
reich t
ard i
oc aust
ĠZeit ungs
ĠPl Ã¤tzen
res sen
ĠÃľber tragung
eig ern
hei de
Ã¨ ne
ĠHin sicht
ĠWein bau
iw ka
ĠDÃ¼sseld orfer
ĠMaschinen bau
lÃ¤ufer in
Ġwohn te
ĠDigit alisat
Ġchild ren
ĠGru yter
seg ment
zut age
ĠGreif swald
H K
I Z
c ell
in th
on struktion
ur teilung
ĠB eute
Ġm iss
ter nen
ĠH Ã¼tte
ĠT um
ĠT ast
âĢ Ķ
us a
ĠV III
ra c
Ġl ohnt
ĠIn tr
Ġun b
Ġc ool
iz a
Ġ" ]
arb eiteten
ĠAuf wand
ĠMar athon
ant o
Ã¤nd iger
An dre
ata ill
Ar rays
Ġange kommen
Ġ) :
echs lungs
wort h
bei trag
ĠSchiff es
Ġkey s
Fac tor
AP P
ĠRen ten
FI ELD
Ġbegr aben
ĠByte Array
LOG GER
Ġheader s
ĠFell ow
Ġil leg
grÃ¤ ber
c olor
sch lies
ĠM Ã¶r
ĠF ull
de v
gen s
ĠL an
ĠV W
ĠV iet
ĠN ar
ver antwort
Ġc ommerce
ĠEr forschung
eut zutage
ĠSp alten
ungs weise
Ġ18 27
sk ammer
sb rauch
Ġsel ect
Ġverl auf
ĠKunst denkmÃ¤ler
ĠCo us
Path s
ĠSchm etter
Ġ180 7
ĠnÃ¶rd liche
ĠImm utable
Byte Buffer
ĠAuff assung
ĠVerteid iger
Ġbelg ischen
ĠGeschlech ter
schaff ung
Parameterized TypeReference
L ayer
f onie
Ġs ince
Ġi v
ĠE y
ĠV alen
ir bt
Ġan treten
ĠSt abilitÃ¤t
ĠSt Ã¼rmer
ver mÃ¶gen
im es
ass istent
Ġ18 33
Ġa f
ib Package
pl ibPackage
pf arr
18 80
lei b
iss ionen
AT ED
oph ys
arm onie
Ġem p
Ġangeb aut
ĠZur Ã¼ck
Her ausgeber
ĠBur k
Ġdr auf
Amer ican
ĠErk enntnisse
ĠHum or
Byte Array
Ġwor auf
gener ate
Ġzeich nen
Ġhil f
Change d
array copy
Assign able
ĠPersÃ¶n lichkeit
FuÃŁ noten
F E
M Ã¤nner
j ekten
l ia
l eister
w Ã¶rter
Ġ ec
Ġ 000
ĠS F
Ġs uchte
ĠD in
ĠĠĠĠĠĠĠĠ ĠĠĠĠĠĠĠ
ĠF loat
ĠL ac
ĠJ Ã¤nner
Ġden ke
ĠC av
ist ern
ver n
get Local
Ġ18 26
St unden
(" ,
Ġzw ang
fÃ¼hr ende
mit gliedern
ĠBl itz
pp s
Ġbew aff
anc ed
anc ouver
ĠPaul us
fest e
Ġverlie h
Ġverbunden en
Ġret val
ĠUN ESCO
Sign ature
PRE FIX
sbed ingungen
resp ond
> </
D av
O D
P OS
s icherheit
Ġd oppelt
ie se
ĠS ource
sch es
sch ers
sch atz
or ger
ur laub
Ġv ariable
ĠD ifferenz
ĠT U
Ġ" \"
imm y
ĠLe ber
ction s
gemein schaften
Ġerfolg los
ĠBuch en
oph il
wohn ungen
ĠGef ahren
ĠTer mine
ĠBesuch ern
âĢĿ ,
ĠBrit en
Ġpass word
Ġprak tischen
esh old
ĠÃ¶ konom
Ġtschech ischer
Ġcas ino
ĠgenÃ¼ gend
A ktiv
F el
P M
T re
l ik
Ġs onn
ĠB eth
ĠM ind
ĠL j
ĠL ungen
ĠAn merkungen
ĠAn sprÃ¼che
ĠÃ¼ber arbeitete
tem pel
ack te
ian ischer
Pro blem
Ar tikel
kl opÃ¤die
inder te
ond a
Ġviel mehr
ĠAut omat
Ġcon s
ĠRÃ¼ck zug
Ber eich
ĠDis c
ĠhÃ¶ch st
bÃ¼ chern
Ġelektr ischen
Ġnorm ale
sei tigen
Ġhochwer tigen
Ġeinzig artige
Stat istik
Ġact ual
ĠEncyclop edia
ĠHumbold t
C enter
P UT
R en
S Ã¶hne
b Ã¼r
r one
} .<
ĠS iz
ĠS ven
sch ungen
Ġs uch
Ġn odes
ĠK Ã¼nd
ĠH ydro
ah a
ĠVer stÃ¤r
ĠAr te
ĠStr ess
Ġtr ace
ĠAus lands
Ġsp an
ĠAb sch
att an
Ġ7 50
ĠPr inzen
ĠLu ck
mÃ¤ h
ĠTr in
ĠBel agerung
ĠMark graf
ĠHeil ige
Ġte sten
Ed it
ĠAbgeord nete
Ġvergleich sweise
Ġliefer te
ĠMemor ial
/ -
L ou
N av
st Ã¶rungen
ĠB our
ĠB ock
Ġdie jenigen
ĠG len
ĠG Ã¤rten
ti zen
ĠW elle
Ġh Ã¶rt
ĠN iger
Ġk andid
Ġge gliedert
ver eine
Ġent w
of ilm
ĠMa st
fl Ã¼ge
los ing
ĠgehÃ¶r enden
Ġgesch afft
ĠSh ang
Ġsol ange
ĠSol ar
ĠProduktion en
ĠRev ision
ĠHel den
ĠPor zell
Ġstate ment
ĠPop ular
Ġbein ahe
ĠBra unk
ĠMittelalter s
Ins gesamt
Ġbeeinfl ussen
ĠSchr Ã¶der
Serv ices
F ailure
R oll
Ġw here
Ġs m
ĠG iebel
ĠR iga
ad Ã©
Ġdem nach
ĠIn vent
ri um
ri fft
op el
Ġsch lagen
Ġ18 28
ĠSie b
Ġab schloss
St op
ile y
Ã¶l n
Ã¶ff entlichen
Ch arl
ĠVerein ten
ĠAnt eile
Ġgelang t
Ġnational er
Block ing
ĠHu ber
Ġrec ei
Ġmedizin ische
ĠBeob acht
ĠKreu zer
L L
P ierre
c ommand
o or
s achsen
in haber
es i
sch Ã¼tze
ĠA gen
Ġb Ã¶hm
ĠK ings
ĠW right
ir ges
ist iken
Ġst ieÃŁ
Ġc ontains
op ing
Ġtr ock
ĠAus sch
ob ahn
ef eld
ĠAb bildung
ĠGr as
ĠVor ort
Ġseiner zeit
ĠAd v
ĠNord ost
ĠPhil ip
ĠDi agnose
Ã¼h ungen
Ġ[ ...]
ĠPat rim
por ter
ĠTor hÃ¼ter
ĠKur se
ĠHeil ig
ĠSol id
Ġabsol ute
ĠKurz film
ĠAir port
Comp uter
ĠSup port
Nieder lage
ĠHon ig
ĠMand at
ĠSon st
Ġzeich nete
tau send
ĠPriv ile
ĠInterpret ation
K EN
b om
h eight
m ak
w alter
Ġ ^
Ġ ĊĠĠĠĠĠĠĠĠĠĠĠ
Ġv en
Ġm u
Ġt at
get M
get Field
ungs ort
ru ption
tern ehm
pr ise
eigen en
stan ten
Ã¤nder ten
lauf bahn
Ġ> >>
Ġbeh ielt
Ġbez og
ĠProjekt s
getC urrent
Ġselten er
Ġausgew Ã¤hlten
ĠHart mann
Ġplan en
Ehr endoktor
ĠTw itter
ĠForder ungen
ĠBundesverdienstkreuz es
ĠHimm els
V G
f ers
i ang
i able
v gl
or p
ĠF rom
Ġau st
is ser
ist ers
ĠDie t
Ġc p
Ġunter e
ĠÃ ģ
Ex port
ohn ern
ian ische
Ġbes iedelt
stan de
teil ungs
Sch m
Ġen v
Ver fahren
Or dens
ĠPol ar
Ġlang jÃ¤hrige
ĠBesch werden
ĠTor ped
Ġhistor ischer
Sc ale
ĠprÃ¤ z
Rep rÃ¤sentanten
Ġmin im
ĠQualitÃ¤t s
ĠSteuer ung
ĠPlay er
ĠBox er
Stud ien
sem ester
mag azin
ĠQue ens
ĠAnim ation
afr ikanischen
Ġvorber eitet
ĠfÃ¼hl t
ĠvorÃ¼ber gehend
Ġgetest et
A UT
D evice
L ive
M el
a er
g riech
p ause
r us
Ċ ĠĊĠĊ
č Ċĉĉĉĉĉ
ĠP i
Ġf ehler
Ġf uture
ĠT ool
ĠT iefen
om i
sen z
im iter
zen en
ĠNach hal
Sch wer
Ġbeg leitete
Ġverb lieb
ĠNew sletter
row ser
ĠRegel ungen
Sub scription
hÃ¶r en
ĠInner halb
ĠJed es
Ġverbesser te
izont al
ĠPubliz ist
( -
F er
G ateway
m ethoden
Ġd ruck
on er
Ġv olle
Ġin sert
ĠF aust
ĠP RO
Ġf ull
ĠN acional
ĠAn gehÃ¶rige
Ġc irca
18 88
ens ystem
set s
Un ion
ĠFor est
ĠSe eh
Ġselbst verstÃ¤ndlich
ĠSÃ¼d seite
con vert
icher heits
tag es
ĠSchul z
ĠVers orgungs
ĠTurn er
Ġvorhanden e
ĠEhren bÃ¼rger
Ġverz wei
Ġdec ode
asp iele
ĠBist ums
ĠOffen bach
instr ument
ĠFerr ari
ĠVul kan
R ich
S zene
b anken
g riff
m ake
s iedlung
in burgh
un ten
on de
ĠS ag
ĠS af
al ing
Ġw ild
ĠD raft
ĠD avon
Ġm ode
ĠK evin
ĠP Ã©
ĠP aw
ent urm
Ġr ief
Ġent scheidet
ĠAb fahrt
omm ission
ĠMus k
rom an
ĠWei h
ĠVol umen
schn ell
verb und
ĠNieder lagen
ĠFer tigung
itte e
Ġstehen de
Ġerfolgreich sten
Ġregel mÃ¤ÃŁigen
ĠSek und
ĠElektr onik
Ġklass ischer
ĠlÃ¤nger en
ĠFle cken
ĠHT ML
Ġcle ar
Ġthr ough
Pers istence
M AN
b inding
g Ã¤ste
j oin
â Ī
ĠS yl
Ġs ave
Ã¤ ule
ĠM endel
ĠG ent
ĠL ub
ĠL ynch
ĠR aketen
ent ation
Ġver mein
Ġver glichen
ag ert
ien e
ĠAn wender
pro vinz
ĠMan chester
Ġ' \
ĠRad sport
ĠLebens jahr
ĠJohn ny
ĠTechn ologien
ĠVolks schule
Ġschwer er
ĠFil ial
Ġwes entlichen
ĠGesetz e
rug uay
meld ungen
kraft werk
ĠKlass iker
ĠMÃ¶n ch
Ġorien tiert
ĠKÃ¤mpf e
ĠBiograph isches
ĠStan ley
ĠSchmer zen
Vari ables
ĠsÃ¼dkorean ischer
ĠQuadratk ilometer
ĠBosn ien
M issing
c onn
Ġs obald
Ã¤ k
ĠA pfel
ĠB aus
et ischen
ĠP reisen
ĠW oll
Ã¶ konom
Ġver stÃ¤nd
ĠU K
Ġ18 34
ech en
stell bar
ĠÃ ħ
sb ew
Ġen orm
ON G
Ġverl Ã¤sst
ĠWei ss
Ġteil t
ĠGl etscher
aktiv iert
ĠPat ent
kn Ã¼pft
ĠNor weg
Pr int
ĠSchlag zeuger
kom Ã¶die
lok omo
Ġruh ig
ĠTrieb wagen
Bef ore
ĠZut aten
Ġhabilit ierte
K ommun
g old
p oints
ĠB olog
ĠP utz
is pr
il f
il ation
ĠV as
Ġp al
ĠSt urz
ĠJahr est
qu en
18 71
Ġ17 90
sb esch
Ġher an
ĠEl len
ĠMon tre
ĠBel euchtung
ipp i
ĠFrankreich s
ĠPlan et
ĠMehr ere
ĠMos a
ĠMos k
bÃ¼ hne
ĠJazz musiker
Sel bst
ĠHab ilit
ĠNeum arkt
chten stein
ĠVf B
ĠProfess ur
ĠLibr ary
= \"
G eh
G TH
L it
f ell
w ann
ĠS ah
Ġs enk
ĠA ven
ĠB innen
ĠB urger
ĠM eier
ĠW affe
ĠL Ã¤ufer
ro g
Ġg arten
ist oire
ĠU hren
men gen
Ġ18 29
Ã¶r tlich
ĠStr als
St atic
Ġpro gress
ĠKon sequ
dem ann
ĠUnter haltung
ĠRei s
[] {
ĠHo he
ĠHo spital
ĠFahr zeugen
ott a
Ġkon kr
ĠStand orten
Ġbede utete
Gr Ã¼n
Ġeinzel ner
Ġap ply
Ġwohn en
Ġunmittelbar er
national mannschaft
Jo urnalist
ĠBade zimmer
Ġjahr el
ĠHow ard
ĠSyr ien
Ġstet ig
Entfern t
C ore
V M
l Ã¼sse
o a
p refix
s ow
an os
ĠS W
ĠD evelopment
Ġm eta
ol as
ĠT omm
den berg
ĠR asse
ĠR TL
Ġg Ã¤ng
ist urnier
ĠZ elt
Ġsch icken
auf ent
ĠEn try
Ex tr
tig ungen
(" %
be er
sk rise
ong o
Ġen c
Ã¤u schen
rech ten
stÃ¤nd igkeit
ĠFre undes
Ġgeb rÃ¤uch
Ġlang jÃ¤hrigen
Leben s
class Name
fass ade
ĠEv olution
ĠEhren mitglied
Pol en
Page Link
Ġzentr al
ĠtÃ¤ glichen
ĠAud i
ĠHaar e
ĠGolden en
ĠGetrei de
G ut
c ole
d itions
Ġd own
ĠB uff
em p
Ġz iel
ĠK olumb
ĠG ouver
ĠE qu
Ġf ragen
den z
ĠL E
âĢ ¯
Ġge druckt
Ġg ast
Ġo cc
ver hÃ¤ltnisse
enn amen
sh aber
los ure
set Attribute
Ġbef asst
ĠUS D
Ġausge legt
ĠSchw ed
Ch arts
ĠSe arch
con figuration
Ein en
Ġerw achsen
Ġdi plomat
bez irks
ĠWinter thur
ĠKlein stadt
has Access
fil men
Her steller
ĠBran che
Ġtrans form
stÃ¤d te
Ġschlech te
Syn tax
Ã¼ll te
ĠClau de
Ġsor tiert
ĠTaschen buch
ĠVermÃ¶gen s
Tran sport
Denk mal
m ode
en ix
Ġd ei
au th
Ġein fluss
Ġm is
ĠH end
ĠW arm
se k
ir l
Ġzu geschrieben
Ġo ur
ĠSt Ã¶rungen
ĠAn atom
ĠEin trÃ¤ge
lo ok
ĠVor sitz
ult ure
ĠBr ett
br ingung
ock er
Ar n
ĠQu art
Ġ10 1
reu ung
ĠEl b
ĠVol ume
Ġeinz us
ĠFrei heits
Ġgem isch
čĊĉĉ čĊĉ
weis ungen
ĠDreh arbeiten
Ġung arischen
beg in
ĠjÃ¤hr liche
Ġarch itekt
ĠBol iv
Ð¾Ð ²
ĠPoliz isten
Spl it
clus ive
)< ='\
ĠAnsprech partner
)> ='\
B ud
B uild
f uÃŁball
h Ã¼gel
t age
Â ½
ĠS echs
al de
ĠD au
ĠK PD
ĠK ante
ĠT epp
Ġer weitern
re gen
Ġauf wend
ĠAn ordnung
lie be
ug uay
Ġvor geschlagen
18 84
li ff
ĠBau arbeiten
Ġget an
wa it
ĠBl um
Ġgesch w
Mit glieder
ĠFre quenz
ĠMo on
Ġaktu alisiert
ĠBÃ¼ ch
ho tel
Ġober e
ĠOp pen
flug zeug
verwalt ungs
Ġgegeben e
ĠKolle g
ĠGit arren
Ġdest o
schlÃ¤ gen
ĠAllt ags
ĠBeschÃ¤f tigung
ĠKÃ¶n ige
kre te
Declar ation
;;;; ;;;;
ĠAgr ar
ĠGon z
Requ ired
B elege
C as
i ja
o hr
Ġ eis
Ġw on
Ġs en
ĠM ahl
ĠR umpf
Ġk roat
ĠO S
ad in
ĠSch ema
ĠSch uppen
sp unkte
ĠSt eiger
get Time
Ġent warf
if el
Ġle gend
Ġbef re
str and
werk statt
ĠPh asen
Ġ12 8
ĠKunst historiker
ĠVerb Ã¤nde
ĠIs a
ĠBel grad
ĠFach bereich
Ãĸ ff
oot h
ĠAnt hrop
beh Ã¶rden
ĠCal endar
Ġverz ichtet
ĠFÃ¼rst entum
Ġausger Ã¼stet
Ġcolumn s
Lin ks
wÃ¤l te
ogn ition
ĠDatenschutz erklÃ¤rung
skl asse
ĠLegen de
Inf os
G N
G V
M or
W ITH
f ische
h ash
p hal
r h
r um
s sen
u j
u ge
an as
ĠS MS
Ġw ord
Ġm obile
Ġn eb
ĠK ate
Ġf ur
ĠT ote
ĠL isa
ĠN y
ĠC ache
ĊĠĠĠĠĠĠĠĠ ĠĠĠĠĉĠĠĠ
ĠSt Ã¼tz
os om
Ġc ms
get Max
Ġsch einen
ĠAl m
rÃ¤ g
ĠAb raham
18 79
geben den
Sch ul
wick elt
ĠNeu tr
Ġverb leiben
Ã¤m mer
ĠCon stants
Aus bildung
ĠMo sche
com e
ĠOn tario
System s
zz i
Ġung arischer
ĠAuftrag s
ĠAustr alia
Ġtyp isch
CT ION
Ġnotwend ige
ĠMainz er
Ehemal iges
ĠBu en
ĠNeb el
ĠKomposition en
ĠChallen ger
ĠSerb ien
ĠGeor ges
ReprÃ¤sentanten haus
B L
H a
p oten
t Ã¼r
w etter
z Ã¼glich
au schen
ĠM ick
Ġein setzen
ĠK han
ĠI rak
ik ate
ĠZ irk
ĠSch af
ĠSch ieds
ot ti
Ġj o
iv a
eim ate
ym ph
Sch au
ĠFamil y
unkt ur
ĠGroÃŁ vater
schlieÃŁ t
Ġersch ossen
ĠMo tive
evÃ¶lker ung
SE CON
spro jekt
Ġkosten losen
ĠVerwaltungs sitz
Part ei
Ġfinanz iert
Ġvorher igen
Ġschlech ter
ĠMargar et
Ġenth ielt
B enz
R echt
S dk
T asks
f achen
p osten
u y
Å ¯
Î »
ĠS ED
ĠB Ã¤ren
ĠB akter
ĠM ust
ĠK ru
ĠG Ã¼l
ol es
ĠW alk
Ã¶ ser
ĠR ast
tr es
Ġer mitteln
Ġer led
Ġ2 20
ĠN ak
ier n
ĠSt all
ĠAn halt
pe kt
rau ÃŁen
av ed
ov on
ĠStadt bezirk
Ã¤ch ern
ĠTh om
ĠÃľber setzungen
Ġange wendet
Or gel
ĠStud ierenden
ĠBeg leiter
ĠLin col
ĠMe teor
ĠRu ine
Ġ(! (
tieren de
produ kt
ĠPrem ium
Ġstammen de
ĠEvangel isch
rel ation
ĠSchwar ze
Ġhal f
ĠNÃ¼rn berger
Ġinitial ize
Ġgez ielt
riz ona
ĠPassag ier
Editor Kit
ĠHanse stadt
ĠKlagen furt
A g
C S
G A
f unction
g Ã¤rten
sch uh
au gen
it ischen
ĠD il
ĠK f
de z
Ġf ik
ĠT Ã¤nzer
ach tete
Ġk Ã¼r
Ġg riff
Ġan dern
rei fer
ic um
sp ekt
ben e
rie le
Ġsch arf
Ġ18 19
ĠAb kÃ¼rzung
18 76
Ġ0 3
Ġ17 0
Ġbes ei
ĠTh ese
kl ein
ĠBo ul
ĠGe denkt
ĠRech er
ĠMan usk
Ġur uguay
Mar ie
LE TE
Ġper man
Ge ographische
ĠGrÃ¼n e
ĠAu schwitz
ĠIt al
ĠZug leich
ĠEigen schaft
ĠEle f
ĠDe te
mÃ¶glich keit
Ġ180 9
ĠBesitz ungen
ĠDruck er
rÃ¤n kung
Ġjeden falls
ĠPan or
ĠSchlag zeug
Da o
ĠThÃ¼r inger
ĠCO VID
option s
ĠRÃ¶m ischen
ĠâĪ ŀ
Ġkontinuier lich
ĠGeschw ister
LEN GTH
D ATA
k Ã¶r
u in
Ġw eiten
Ã¤ be
ĠB lech
ĠK ette
Ġf Ã¶rder
le v
and ie
ĠC lin
Ġan trat
ul arb
Ġauf steigen
ĠZ ig
Ġver schl
Ġj ugend
Ġvor zu
Ġ" :
ĠAuf stellung
agen t
Ar ten
ĠGes ell
ĠFilm fest
Ġ% ,
ĠStand orte
ĠKap azitÃ¤t
ĠGeh Ã¤use
ĠMaler in
ĠpreuÃŁ ische
Ġrep lace
led ge
quar tier
ĠUrs achen
ĠergÃ¤n zen
ĠByte Buffer
Vis itor
Sa ale
Fra ktion
Ġurauf gefÃ¼hrt
Ġherk Ã¶mm
F ollow
f inder
m ore
Ï ĥ
an schluss
an trieb
ĠS ymb
Ã¤ ums
Ġm ol
ĠG y
us el
Ġan wes
Ġl v
he ft
Ġc ustom
âĢľ :
gel b
ef el
ĠAb bruch
18 77
Ġbef asste
war te
ald o
stein s
ĠTr omp
Ġgef Ã¼llt
ĠKreis stadt
ĠCl ark
ĠBro ok
ĠZahl ung
ĠKreuz ung
Ġabsolv iert
ĠStandard s
ĠAuff Ã¼hrung
durch schnitt
ĠtÃ¼rk ischer
arkt is
sÃ¤nger in
Qualif ikation
Ġstation iert
B its
C Y
p ern
t hen
Ġ ),
Ã¤ ge
Ã¤ len
ĠA hm
ĠP ip
is Assignable
ti um
Ġh Ã¤ngen
ro duktion
ra de
Ġt ab
Ġp at
Ġr eine
mer z
la ve
Ġsp itz
ez eit
ĠVor schriften
Ġgew Ã¤hlten
En glisch
Pro vinz
ĠGemein schafts
Un known
gl adbach
Ġen gen
Ġen den
ĠFrei stil
ĠFre y
ĠGef Ã¼hle
ĠFlug zeuge
ranken haus
Ġmein es
ĠIns zen
valid ator
ĠPartner schaft
ĠGlas gow
Ġap i
ÅĻ ÃŃ
ĠDial ekt
Ġreag iert
ĠColor ado
ĠBÃ¶r sen
ĠâĪ Ĵ
Ġhoff e
feature ID
ĠPyr am
ĠkÃ¼mm ern
ĠArzn eimittel
B ank
H ER
N E
Z eichen
f ast
s ib
Ġ reisen
Ġd one
Ã¼ ht
Ġw ander
as y
ĠD atein
ĠM ahn
em ar
ĠG overn
ĠW ladimir
ab wehr
ben ennung
ĠAn notation
Ã¼n n
ĠEin bau
ĠAuf hebung
ĠVor kommen
Ġbes ieg
IN VALID
ĠzurÃ¼ck zufÃ¼hren
Ġar men
ĠJo urn
enden cies
ĠPlatz ierung
ĠTr ik
ĠFol k
new Line
Ġersch lossen
ĠHol ocaust
Ġstud ieren
Ġaufge f
ĠComm ittee
Ġverlie bt
ĠKÃ¶nigreich s
ĠMerk mal
ĠgewÃ¤hr leistet
ĠKamp agne
compare To
ĠPlast ik
ĠOrien tierung
ĠBehand lungs
ĠUrspr ungs
ĠMontre al
d n
f la
s im
u tive
Ð ĵ
sch Ã¼tz
ar if
ĠK Ã¤l
ĠP M
Ġf ern
ĠW LAN
ĠL um
ĠL othar
ĠR eim
ul k
Ġver eint
ser ba
ech tigkeit
av i
anz eige
be arbeitung
stra p
ĠMan che
sw issenschaften
Ġall owed
ĠSchl ange
40 6
bet reiber
ĠAnt wer
ĠStaat lichen
<? >>
ĠBall ett
museum s
ĠPhilipp inen
BC I
Valid ation
Ġerl itt
ĠdÃ¤n ische
polit iker
Beg riff
ĠKÃ¶r pers
akes pe
ouv elle
exten ds
serba idsch
6 00
M y
W egen
f und
f le
m il
Ê ¿
Ð ´
č ĊĠĠĠĠĠĠĠĠĠĠĠĠĠĠĠĠĠĠĠĠĠĠĠĠĠĠĠ
on c
Ġs am
ĠG Ã¤rtner
ĠP fe
Ġau th
ĠH ind
Ã¶ cke
Ġh ead
Ġk ub
Ġk rank
ĊĠĠĠĠĠĠĠĠ ĠĠ
Ġg reift
ĠU eber
ĠÃ¼ber region
Ġbe deut
iz za
ode st
amm ad
Ġle ere
An ton
iss a
ĠBo ots
uten ant
ĠBew usstsein
ĠSen ator
ĠBro ck
Ġcm d
oo ks
DI ALOG
IG HT
jew itsch
ĠAns ichten
marsch all
ĠFlie ger
ĠRail way
Kan al
Ġbehand eln
Ã©b ec
Ġgere gelt
C an
K as
b iert
d an
i ak
r ab
Ċ ĠĠĠĠĉ
ie ge
un fall
es ia
Ġw enden
em on
ti ce
om atic
ra h
ĠU ran
ag ten
Ġaus ges
Ġun weit
geb Ã¼hr
Ġsp ont
ill i
18 81
Ġ17 00
fer ien
IN FO
inder ten
Ġerst aun
ĠMen Ã¼
Ã¶st licher
rik e
ĠDar in
ĠFr acht
ĠEd inburgh
ĠPer iode
Ġinter nen
dienst es
haf ter
Format Exception
Ġwichtig es
ĠCms Resource
ĠAlten burg
Ġservice Name
ĠEhr endoktor
Sec ond
ĠVerf asser
Ġverblieben en
ĠSÃ¼dti rol
ĠAgn es
Allow ed
A ff
B ra
I r
J oin
L ook
L Ã¤ufer
p Ã¤dagogik
Ġd ran
Ã¤ he
ĠB org
ĠD ak
ĠD ez
ĠM Ã¶rder
ĠP ist
ĠW ed
and emie
Ġzu zu
ĠSch iffen
Ġr unden
og ne
ĠPro ben
auf bau
Ġent tÃ¤u
geb Ã¤udes
Ġ17 89
ĠBau werke
ĠGer Ã¤ten
aut omat
ĠPf und
ĠVerb rauch
ĠCon trol
AR G
ĠObj ekten
ĠBern er
ĠAp plication
ĠGast ron
mod elle
ĠTab l
fil es
Land tags
Å¡ t
ĠBal ken
bef est
Ġstattf indet
ĠDebÃ¼t album
Ġsorg fÃ¤l
ĠTeu fel
ĠKommand ant
ĠSteu ern
ĠgewÃ¶hn lich
ĠJubil Ã¤um
ĠErwer b
PreuÃŁ en
ĠRug by
PROPER TY
âĪ Ĵ
C ast
D Ã¤n
R ichter
S eiten
ĠS tif
ĠS ockel
ĠD R
ĠD opp
ĠW at
Ġge boten
Ġl as
os er
Ġ18 22
ĠPro cess
Ex ists
Ã© es
teil ten
heit lich
Ġgesch ah
schl usst
ren e
Or ts
ĠBel eg
Ġabge legt
Ġbezeichnet en
ĠwÃ¼r ttemberg
ĠSti ck
irt y
nungs zeiten
ĠAktiv itÃ¤t
Ġwirtschaft lich
ĠOption en
EX T
Bundes staat
Italien er
ĠVar iet
Ġreligi Ã¶se
Ġcle an
ĠangehÃ¶r te
Ġaufgel istet
R obert
S epar
a art
Ð ¼
ĠS R
ĠB ienen
am azon
ti mer
ĠR og
ĠI ron
ĠJ ungs
Ġver folg
ĠSch irm
ĠâĢ ĺ
ger Ã¤ten
Ġc ondition
ĠEr halt
ĠAr no
In stances
ĠCh irurgie
sk raft
Ġe ure
Pro zess
ĠBau meister
ator ischen
kl ub
app ings
Ġres et
Ġzusammen gestellt
ĠGrund stein
ĠNov a
ĠMed al
Ġfest e
recht liche
Ab geordneter
aktiv e
Ġbeh eimate
Ġschn eiden
ĠBÃ¼rger schaft
ĠLuft fahrt
Ġexist s
ĠEben en
ĠSin fonie
ĠEntscheid ungs
Fol gende
ĠGlock e
Gew Ã¤sser
ĠCa es
replace All
ĠKel ch
ĠStol per
ĠPerspek tiven
ĠzeitgenÃ¶ss ischen
Ġnied rigen
ĠLaus anne
beteil igung
D river
G i
N eue
O s
Z en
l imit
t mp
v ing
ĠS ituationen
al and
Ġs ure
ĠB rid
Ġf usion
Ġzu stÃ¤ndigen
ien d
Ġun bew
Ġc f
Ġwir ft
ate au
Ġsch ar
Die ter
up per
ĠMa z
Ġgegen einander
Al ten
ĠGes ellschaften
lau tern
setz ungs
ograph ischen
zei tigen
kon zert
recht lich
use el
ĠBÃ¼rger krieg
FuÃŁball nationalspieler
ĠDre ieck
ĠWinter spielen
Ġcreate d
ĠTo y
Re gel
ĠLandtag swahl
Sel ection
ĠEdu c
ĠFass aden
Jo achim
ĠDefault EditorKit
oir es
ĠHess ischen
ĠFreiwill igen
ĠBewerb ung
Ġverdien en
ĠBÃ¤ cker
H H
M eine
a endert
b evÃ¶lkerung
r asse
st ack
es a
ĠS ucht
ĠS ony
Ġw olle
Ġw ovon
ĠA dress
ĠM eist
ĠM ongol
ĠK ut
ĠF reis
ĠG UI
Ġau spro
ĠH K
ĠI X
and ro
ul ieren
Ġver wirk
ed back
ĠAr range
Ġunter einander
ob e
ĠCh at
ĠVor gaben
fl Ã¼ss
Con straints
Ġange trieben
ĠPar se
ĠJan e
ĠBundes kanz
gew ehr
Ġimmer hin
ĠVerb ot
ĠEm ma
ĠSk il
ĠGu ard
Ġrel ation
ĠMath ematic
Ġwahr genommen
ontin ent
ĠTo uch
ĠAf rik
Min ister
Ġstammen den
ĠGlÃ¼ck s
Ġposit iven
ĠExper iment
ĠExper imen
Bl ank
cr ement
Ġinn eh
Bew egung
ĠSkulpt ur
ĠAbhÃ¤ng igkeit
Ġverabschied et
B ind
B ester
B inary
j b
w ellen
Ċ ĊĠ
ĠM auern
ĠF onds
Ġf und
ĠW Ã¶r
Ġh ielten
ab a
ĠC ore
ĠSch ichten
sp anisch
ĠÃ¼ber prÃ¼fen
Ġbe zahlt
ug ins
rit able
pl ates
18 78
Ġ4 50
sb ek
ĠGes and
ĠGes angs
Ġbet rifft
ĠBez eichnungen
ĠNational rat
Ġben annten
Ã¨ res
iat ischen
ĠKompon ente
Ġ180 2
Ġzeit gleich
opp ing
ĠBot aniker
ĠDist rik
Ġrep rÃ¤sent
Ġanzu treffen
ĠCa stell
ĠKandid at
ĠÃ¼ brig
ĠRal ph
ĠWÃ¶rter buch
B urg
E ach
H Ã¶
O FF
e te
m Ã¼n
u gel
Ġd ritter
ie ÃŁer
ĠB ody
Ġein her
ĠT wo
ĠR ies
re ktur
ig ers
Ġl okal
Ġp rev
Ġun klar
ĠEr ben
get Absolute
ĠSp azier
ĠUn i
iz es
rÃ¤ te
ĠAb bildungen
ĠNach ruf
ĠLand schaften
ans on
Ġgeh eim
res et
ĠSo ul
Ġange h
ON E
ĠMusik pÃ¤dagoge
ĠLandes hauptstadt
ymp os
Mar ia
Ġbew ohn
ĠSchweizer ischen
IC HT
ĠNutz ungs
ĠZahl reiche
ĠKreuz es
send ungen
Ġerfolgreich er
Ġstamm ten
ĠAuftrag geber
ĠClub s
bef ehl
ĠGran it
Ġvergleich bar
Ġbreit es
ĠMay er
Johann es
Av ailable
ĠLokomo tiven
ĠmÃ¼s ste
inzuf Ã¼gen
F INE
W ol
k ischen
Ñ Į
Ġ \"
un ternehmer
st Ã¤tigkeit
Ã¼ tern
ĠB amb
ĠG riech
ĠP anz
ĠW he
ĠL oh
ĠC ON
ĠO den
ad dress
sp Ã¤ter
ĠIn stand
Ġsch me
ug a
Ġent z
rit zen
18 87
18 73
amm a
lag ert
app ed
ĠLe verk
ĠMon tr
Ã¤m men
ĠBest ehen
Ġern euten
ĠRom a
gramm arAccess
AR K
fra gt
23 4
Ġhinter en
ĠHa ag
ĠPal ais
ĠBef Ã¶rderung
Ġ180 1
Ġfile Name
eiger t
do or
Ġwes entliche
ĠArm strong
Br Ã¼cke
leb nisse
Arch itekt
ĠDÃ¶r fern
Stra ÃŁen
produktion en
Ġprofession ellen
ku gel
ĠBang kok
Ġgolden en
ĠKonf ession
Ġkont ak
Ġverlang t
Ġfran Ã§
ĠLincol n
D om
D irection
T en
n ummern
u sten
ge mÃ¤
it Ã¤n
Ġs ingen
ĠB irg
ĠB ebauung
ĠM inden
is ierungs
ĠW DR
ĠN ase
ĠN ummern
Ġge ehrt
Ġl ei
Ġr uft
ĠAus kunft
ĠMa gen
St Ã¤d
az it
ĠThe aters
sb l
app el
ĠBo u
ĠZu gehÃ¶rigkeit
ktion en
ST ART
Ġkon sequ
ĠKultur en
ĠOlymp iasieger
ĠMannschaft s
ĠStaats sekretÃ¤r
ĠGeh irn
getC olumn
ĠschÃ¶n es
verl etzung
fÃ¤h ige
ĠLou ise
ĠPan el
ĠTages zeitung
vis or
Ġfinanz iell
ĠprÃ¤sen tierte
jo urnalist
ced ure
ĠMari anne
ĠMaur ice
ĠOR F
Sta ats
ĠErm land
herit Doc
9 00
B ass
k os
p red
q Path
w appen
st eht
ĠS eh
or ca
et al
ĠD elta
ĠF itz
ĠG lob
ĠH ack
ĠR eturn
Ġdes criptor
Ġg laube
ĠSch eiben
ĠSch okol
Ġp ush
ĠÃ¼ber ein
Ġunter ird
av y
Ġbest Ã¤tigte
set Name
amen ten
zeit lichen
Ġges ungen
Ġch ain
gew achsen
hol ungs
ĠArbeit splatz
ĠDr achen
iat r
Ġ180 4
ĠÃ¼b te
ĠAir es
ĠNot wend
cm d
ĠAf plibPackage
Ġkompl etten
ĠSub stan
ĠBayer ische
Ã¸ r
ĠFund ament
ĠGericht shof
imen sion
ĠJob s
Ġgebild eten
Ġmass iv
QUE ST
ĠLiss abon
ĠPazif ik
ĠGord on
ĠSanti ago
W inter
e urop
h all
Ġd elta
ge stell
au to
Ġs ee
ĠA PI
ĠM ost
ĠH eld
ĠH eiden
ĠT ee
ĠR eut
om eter
ĠO pf
kt oren
Ġc ommun
og o
Ġgew erb
setz ten
ĠBest en
ĠUr kunden
ĠMo os
ĠZwei fel
ĠHÃ¶ hlen
ĠBew ertungen
ĠSol ingen
ĠOrts name
ĠFort schritt
met ik
ĠEnd spiel
Ġproduz ieren
Ġcom pare
Dep endency
Ġsah en
ĠTelef onn
ĠBil anz
Ġaustral ische
ĠZy linder
ĠBem erk
schrau ber
ĠImpl ementierung
Ġabw echslungs
ĠIntens iv
LET TER
ĠBegegn ungen
J ul
S tel
b zw
d al
f it
l Ã¶s
t ail
u hl
w ochen
st ich
es ie
ĠS ap
ar et
ĠD iss
Ġein gel
ĠF ische
ĠF len
ĠG ia
ĠT Ã¤
Ġ2 30
ĠJ en
Ġg laubt
Ġal b
ad ap
ĠSch ult
Ġl ower
Ġo hn
ah oma
end igung
Ġum gest
ĠAuf sicht
18 70
our en
fl Ã¤ch
ator ische
ister zien
mar ine
ĠRech ner
Ġverl aufen
ĠKÃ¶nig lich
ogen e
ĠNational en
Ġem er
over y
ĠEhe paar
Ġentstanden e
ĠLau ra
Gener ic
ĠMiss ouri
Ġans Ã¤ssig
ĠSchwar zwald
ĠHarr ison
ĠÃľberg angs
ĠTir oler
Ġnam espace
ĠJon athan
ĠProp ag
ĠKart off
ĠDet roit
brÃ¼ che
ĠNerv en
ĠTelek om
Schwe den
isterzien ser
F G
P ersÃ¶n
k ompl
w Ã¤sche
z ahn
Ġd isplay
al itÃ¤ten
Ġb itten
ĠD C
ĠĠĠĠĠĠĠĠ ĠĠ
ĠG ay
ĠH arb
ĠL ith
ut ing
Ġr Ã¶
og t
ex pression
geb r
lo or
ĠBr et
Ġber uh
ekt oren
Ar ab
str ument
Ġen coding
ond o
alse kretÃ¤r
ĠGl Ã¤ub
ĠGen uss
ĠÃĸsterreich ische
bet on
spro blem
ĠAss istenz
Trans l
Ġbean trag
ĠjÃ¼nger er
ĠAufent halts
Ġmel den
Ġporn o
Ġarab ischen
Ot to
ĠDorothe a
isAssignable From
d amer
k asse
m aur
p rÃ¤sidenten
å ®
in stall
ĠB ahr
Ġz ertif
ĠE cken
ĠR assen
us z
Ġg eil
Ġg lobal
Ġan im
Ġver Ã¶ffentlichen
esch t
ĠÃ¼ber nahmen
ĠEin flÃ¼sse
Ġre fer
up dateres
18 61
ĠLand graf
ĠVor gÃ¤nge
int Value
olog isches
Al so
Ġgel Ã¶st
link plain
ĠFriedrich s
ĠMod ule
čĊ čĊĠĠĠ
ĠHe alth
Person en
hÃ¶ fen
osoph ie
System atik
ĠGed Ã¤chtnis
ĠSied ler
Ġbegr enz
ĠNachbar schaft
Ġexec ution
Ġkrit isierte
Ġlau tete
ĠAst ro
AuÃŁ en
ĠSoll te
FOR MAT
Ġidentif iziert
ĠDag obert
HÃ¶r spiel
Fil me
Ġtranspor tiert
ĠSatell iten
ĠMeld ung
ĠErwart ungen
ĠVerpflicht ung
ĠLegisl atur
Ġprote stan
Leichtathlet ik
) /
G rad
G RO
H y
K S
W ettbewerb
Z eitung
j ap
n ick
z iele
å Ī
Ġd achte
sch ew
ĠM S
Ġz ivil
ĠK od
ĠK iss
ĠF alk
ent scheid
Ġge he
ul ierte
ic er
ap plication
tem pt
Ã¤nd ischer
inder ung
ĠGer a
hand werk
ĠSommer spielen
uck en
ĠSti rn
ĠNo tre
lav a
Ġelektr onischen
ĠEmpf Ã¤nger
ĠZimmer mann
Ġbelieb te
Ġide ale
Ġeingesch rÃ¤nkt
ĠbestÃ¤ tigen
Ġanges ichts
ĠZweit ligisten
ĠKathol iken
ĠVari ablen
Ġmittelalter liche
Ġtrain iert
Ġextr act
ĠMagn us
) }
A W
B R
C oll
K ritiken
M G
d ocument
f aktor
n itro
w n
w ise
Ġd ra
an us
sch ritte
Ġw Ã¤r
ĠM essen
Ġn eeded
ĠK uchen
ĠG ian
de utet
ol izei
ĠW ern
ĠW ord
âĢ ³
us sten
ĠC ord
Ġver sp
sp uren
ĠSt apel
Ġaus sehen
Ġst eckt
get Status
ov ice
ĠMar ion
th iop
St aat
ĠFran ch
schie bung
ĠBes iedlung
gew orfen
ief ern
ograf ien
bet rag
Ġabge halten
row s
ĠGu y
zep te
ĠVertr etung
yd rau
azz o
verband s
ĠMÃ¼l l
MP TY
Ġverz ichten
Ġorganis ieren
Dep th
ĠSound track
Ġtschech ischen
Ġaustral ischer
ĠAdels geschlecht
ĠProp st
ĠWell ness
bÃ¶ gen
ĠVf L
Ġhoh es
ĠAtlan tik
ĠElectr ic
ĠkÃ¼nf tig
ĠLeh mann
Ġeig nen
Maxim ilian
ĠPorzell an
A V
B I
F all
j ugend
p zig
z ulegen
Ġd omain
ie ÃŁt
an kt
sch ach
or iginal
ĠA ue
ĠM Ã¤
Ġz Ã¤hlten
ĠG eiger
le f
ĠH ef
ĠW im
ĠV at
Ġg reifen
Ġver folgen
os kop
get Bytes
ĠPro ph
par ed
ĠVor fahren
bst off
Ġange griffen
Ã¤u er
Ġbesch leun
ement ation
ĠKr Ã¶n
Ġby zant
list ener
Ġerf uhr
ĠRein igung
ĠPo sen
Ġbas ierend
emb ran
Kir ch
ĠHarr is
ĠWissen s
ĠGru ben
ĠLiv ing
ĠPie tro
Ġimpl emen
ĠFlie sen
ĠAster oid
ĠKonstantin opel
ĠSozi ologie
Ġfu hren
gÃ¤ng ig
ĠVinc ent
ĠRÃ¤um lichkeiten
ĠViet nam
C odes
F ast
G l
G ed
K anada
h Ã¤nger
l uther
al ische
ĠB iel
ĠB aker
ĠD Ã¼
ĠD ikt
ĠM E
ĠM ale
Ġ( Â§
ĠG is
Ġf Ã¶rdert
ĠV ia
ĠZ in
ĠZ iegen
Ġver dr
Ġ18 11
ĠStr oh
Ġdurch fÃ¼hren
ĠAb teilungen
Ġ4 000
Ġgew achsen
Ġweiter entwick
Ġwieder hol
eig ten
ĠEurop Ã¤
ct x
ĠDar unter
ĠGl ien
ichter stattung
ĠTro phy
ĠPass wort
ĠGot ha
tra it
ĠMel od
Ġkrit isch
Ġrow s
sex trem
PAR AM
Ġsowjet ische
ĠViol ine
ĠSaar land
Christ ian
ĠÃľb ungen
ĠBenedikt iner
Ġverteid igen
Ġbetr achten
ĠAuft akt
ĠTrink wasser
ĠBuen os
G rid
P rem
a dern
n on
Ã ²
Ġin clude
Ġm ach
ĠP Ã¤dagog
ĠP kw
ĠW Ã¤nde
ĠL agen
ir i
Ġver legte
ate ur
ĠEin nahme
ĠEin nahmen
ĠVor lauf
schie ben
15 0
Ġeinz uf
ĠDem oc
ĠAp pl
med ia
ĠPal Ã¤
Ġ180 5
Ġregel mÃ¤ÃŁige
ĠGar de
Per iod
ĠPe ak
ĠAch telfinale
Cl ick
ĠWahr nehmung
orien tierte
ĠBenutz ung
ĠChef trainer
Nieder lande
Ġdeutschsprach ige
ĠNam ibia
ĠFI FA
Ġglob alen
ĠChallen ge
Ġhum an
Ġgeeig neten
We ek
Ġgepf legt
ĠJAXB Element
Publik ationen
E ner
a ine
st uf
on isch
ĠS egment
at um
ĠK itz
ĠP ius
ĠR eu
ĠN ash
Ġge fordert
Ġauf ger
Ġwir st
âĢľ ;
ord ination
Ġtr aum
if tet
ĠThe orien
stan ti
set Value
ĠUnter brech
Er mittelt
gew Ã¤sser
ĠFrie der
Ã¤rz te
ĠSh akespe
ĠfÃ¼nf te
ĠFlug platz
schiff s
ĠHel fer
ĠTest s
ĠÃĸff nung
ĠPil oten
ĠGerman ia
Ġfind By
Bahn hof
ĠBig Decimal
ĠRezep tion
ĠKron en
ĠWÃ¤r m
ĠHub raum
ĠBegr Ã¼nder
bil dern
Jose f
ĠGroÃŁherzog tum
gelegen en
Ġrenov iert
1 18
F ER
J s
K loster
V iel
j ana
l iter
z ew
in heritDoc
ei tig
ĠS orgen
sch Ã¤den
Ġs uccess
et Address
ĠG ray
de aux
Ġf ilename
ĠT herap
Ġp Ã¤dagog
ic ense
ĠSt iefel
Ġaus gelÃ¶st
Ġaus wÃ¤hlen
In stall
qu is
stell ungsk
ĠEn ten
Ex ternal
Ġzwei geschoss
Ġpro gramm
oh in
Ġel e
spr ingen
Ġbef reit
ĠHand werks
Ġcon structor
gleich en
ĠWill y
best imm
ĠBur schen
ĠÅ ģ
Polit ische
Ġgriech ische
Ob serv
ĠunabhÃ¤ng igen
Ġnachhal tig
Ġfinn ischen
ĠSchmer z
ĠPrec onditions
ĠMendel ssohn
D D
E LE
G ar
H R
L egen
M os
R untime
S tim
Ġ æ
Ġ Ã¤ndert
at form
el ung
et in
ĠM ey
Ġein sch
ĠK atze
ti ces
ĠH arn
ĠH Ã¤ufig
ĠW C
ĠL ahn
ĠR ott
Ġer teilt
ro hung
ĠU t
Ġt okens
Ġ= >
ger t
ap a
ex tension
ok ko
ia de
ĠVor wort
tem porary
ikan ten
Ġres erv
mar ck
ĠEd gar
ĠBay reuth
ĠKar in
ĠGen re
ĠPat tern
ĠBi ologie
ĠgrÃ¼n den
ĠTrans action
ĠRein hold
Ġsonst ige
Part ner
Ġprom inen
ĠLÃ¤nder spiel
ĠGolden e
ĠRap per
Ġnorweg ischer
Dar Ã¼ber
Ġschrift lich
ĠAster oiden
Ġtim estamp
varian ten
Pointer Exception
R ud
s ide
s Ã¤tzen
Ñ ĭ
ç ļ
on el
ein gang
Ġi p
ĠM organ
Ġn etwork
ĠH Ã¼l
ĠW ass
ĠT uch
ro se
ĠC hen
ĠO hren
Ġp Node
ĠSt Ã¤mme
lie ss
Ã¤l z
pr esse
Ġet liche
esp rech
Ã¼nd lich
ĠUnter seite
kl ahoma
Ġseit lich
ener gie
ĠBo ys
ĠBe endigung
ĠJohann is
ĠRep ert
platz ierten
FuÃŁball torhÃ¼ter
ĠVertr etern
Argument s
ĠPass au
Ġrecht zeitig
Le af
Ġelektr onische
fÃ¤h igen
vel ope
Ġkathol ischer
ĠSl alom
Ġbelieb testen
Ġargument s
ĠAltern ativ
Ġdor tige
Ġverkehr en
Ġpubl izierte
berech tigt
ĠMig uel
ĠZech e
ĠRav ens
ArchÃ¤ ologischer
ĠMÃ¶nchen gladbach
amazon aws
G ast
M ir
U ST
k linik
p aket
s ingle
in ischer
st itel
Ġw usste
ĠM arb
ĠK lage
ĠF ut
ĠF eiert
ĠG rid
ĠH ers
ĠT akt
Ã¶ re
ĠL anc
ĠN elson
ĠJ immy
ĠC arn
Ġst immt
get User
Ġdurch zufÃ¼hren
if izierung
ac c
Ġsel f
Ġen tries
ĠFilm produzent
ĠÃĸ st
ĠRech en
ha elt
ash ion
ĠGener als
Mar kt
ĠWohn en
bet riebe
ipp ing
best immung
ĠRot ter
ĠProfessor in
haupt mann
ĠMel odie
Ãľber setzer
Access Exception
Sport ler
Sport liche
ĠSyn th
Ġbekannte ste
ĠRitter gut
Ġumfassen d
ĠBill y
Ġerheb liche
ĠlÃ¶ schen
ĠMobil itÃ¤t
Ġorder ByComparator
schi ffen
ĠKonzep te
italien isch
Ġstren g
ĠWorksh op
Austr alien
K anton
R ein
b ranche
j on
k Ã¶pf
l io
m Ã¼ller
s yn
v ia
Å ĳ
Ð ¹
Ġ \
ĠS ummer
sch warz
ĠB E
ĠB reak
ĠB GB
ĠM ine
ĠP hr
ĠP ot
ĠH Ã¤nd
ĠL ett
ĠV ancouver
ab y
ĠC omponent
ĠVer fahrens
os is
ĠEr hÃ¶hung
ĠEr Ã¶ffnungs
Ġunter zeichnete
oll y
ĠKl ick
ĠUnter scheidung
Ġth em
Er folg
tex te
ĠÃľber legungen
iff ern
Ġgesch ehen
ĠHand lungen
ĠPr ince
Sp anien
son st
ĠAugust in
ĠCon serv
ĠLandes amt
kon trolle
To String
ĊĠĠĠĠĠĠĠĠĠĠĠĠĠĠĠĠĠĠĠĠĠĠĠĠĠĠĠĠĠĠĠĠ ĠĠĠĠĠ
Ġversuch ten
ĠTÃ¼r ken
ĠMel bourne
ĠjÃ¤hr lichen
ony me
') ||(
htt ps
ĠHauptr ollen
ĠÃ¼bergeben e
Ġstill gelegt
minist ers
ĠMetrop olit
ĠBaumw olle
ĠUd SSR
ĠReeder ei
D ann
H of
J Ã¼rgen
N AL
r atch
s is
s Request
ĠS M
or ing
Ġs u
ĠM AX
Ġn at
ĠK Ã¤ufer
tr aining
ĠV amp
Ġg Ã¤n
Ġan gesch
Ġt iefen
Ġst irbt
Ġun zÃ¤hl
ĠSp art
ang abe
ĊĠĠĠĠĠĠĠĠĠĠĠĠĠĠĠĠ ĠĠĠĠĉĠĠĠĠĠĠĉĉĉĉ
ue z
erk rank
ĠAus wertung
18 67
Ġdeutsch land
(" [
Ġ17 94
Ã¤nd ische
Ġsel ected
Ġbeg inn
eten zen
ĠBo sch
lau t
Ġeigen em
[] []
Ġall mÃ¤h
ĠMitglied schaft
ĠLin ke
ĠSohn es
ĠDam als
Ġad ded
Ġmein te
ĠgrÃ¼n e
bes uch
ĠStat ue
Ġverein bar
Min uten
ĠPlay offs
ĠWall fahrts
ĠKlass ik
Ġpart ition
Ġherr scht
vorsitzen de
ĠMol ek
Ġvis it
Ñģ ÑĤ
Ġetabl ierte
Ġliter arischen
ĠKons ul
ĠBem Ã¼hungen
Ã©t Ã©
ĠTerritor ium
Hil fs
ĠruleJvm ParameterizedTypeReference
ĠWink ler
C AP
I dentity
b inder
c amp
j agd
l yn
un z
st iegen
al ischen
ĠA fter
ĠK P
ĠK ot
ĠP lace
ĠW Ã¶l
ĠR ent
ĠC A
ĠC z
Ġge zeichnet
Ġan g
Ġan sehen
ĠZ ar
ĠSch ieÃŁ
Ġl Ã¶st
get Content
ĠÃ¼ber legen
ĠÃ¼ber lassen
ĠUn gar
18 75
ken burg
oc al
Ġbest attet
app y
ĠMon ro
ĠNord seite
bl Ã¤ttern
ĠMan gel
ĠKunst verein
ĠX V
west ern
Ġ[ "
Ġev alu
fel dern
ĠNo tiz
mod ule
Ġsc an
ĠPil z
Ġra w
emb les
ĠOrd ner
ĠKop ie
zub ringen
ĠDE FAULT
ĠJSON Object
Ġtop ic
wander er
Team s
ĠStudio album
ĠSchlieÃŁ ung
ĠFein d
Ġpubl iziert
Ġmel dete
ĠSP Ãĸ
ĠgÃ¼l tigen
Ġkompon ierte
ĠGep Ã¤ck
ĠAusgrab ungen
C arl
M ul
N U
N et
m is
Ġd eter
te ams
ĠM ob
ĠK all
ĠE cht
ĠL Ã¤ngen
ĠR af
il fe
ĠI an
and ra
ĠN om
Ġan aly
Ġauf zunehmen
Ġp e
Ġp fl
eh in
ĠSt yle
op ol
zen s
ĠCh ief
pr inzip
acht al
ĠStadt teile
Un ique
Ġgeh andelt
Ġgesch eiter
Ġ) ?
ĠGra ham
ograph ien
ĠHÃ¶ hle
ĠWer den
cl one
aj ew
US ER
Ġkurz em
ĠStaat sex
ĠWal deck
Pl us
Ġmethod s
ĠHeraus gegeben
sie ger
ĠUntersuch ungs
Ġkomp eten
ĠFin anzen
ĠWiderstand sk
ĠEngl ischen
Ġwachsen den
typ es
ĠKrist all
ĠGrim m
ĠKonzentr ations
Ġcap t
Ġakadem ischen
ĠSchmal spur
B ayern
G ro
G lobal
H ex
S ehr
W ait
c us
f aces
g it
t yr
ĠM Ã¼
ĠF Ã¶r
ĠF oss
ĠN ATO
Ġauf weist
Ġzu gesch
ad et
ik um
ĠZ ap
Ġl isten
op pen
uf a
la sten
urg ie
tig ungs
br em
ĠStadt verwaltung
ĠSpiel feld
Ġex akt
set Property
Ã¼nd ungen
Ġth ail
ystem e
ĠFilm em
ĠWir bel
13 0
ĠLu igi
Ġgel assen
ĠCon figuration
ĠArch ive
ĠLin ux
IT ION
dre h
Ġkurz fristig
Ġdah inter
med i
ĠAnt arc
Start seite
Br ig
ĠBud dh
ĠSw iss
histor ische
ĠEmpf angs
Ġide en
ĠOffiz iere
Ġunbek annten
Ġverwand t
kÃ¼nd igung
Ġeff ektiv
ĠGebiets reform
ĠPassag iere
Ġpopul Ã¤r
Verwaltungs sitz
Bek annte
PrÃ¼ ft
Ev angel
ĠJÃ¼n ger
initi ative
adÃ© mie
B ro
B ischof
E V
I K
a ÃŁen
h allen
er ial
st al
ĠS ack
Ġb eb
Ġb ibl
Ġm apping
Ġf ried
ĠH eid
ĠR ez
ut ung
ĠN O
ĠJ av
ist ing
Ġver tritt
ĠSch er
Ġsich eren
och t
get First
00 00
Ġunter nehmen
ĠAus fÃ¼hrungen
18 68
ss ue
vers icherungs
sk irchen
ĠAd j
ĠWei den
ĠHaus halten
ĠCon test
ĠCo up
tent wicklung
ĠGen ua
ĠMot ors
ĠArbeits gemeinschaft
ĠBru ders
ĠHin blick
sl eitung
nam espace
ĠPublik ation
ĠAnd y
ĠWahr scheinlichkeit
ĊĠĠĠĠĠĠĠĠĠĠĠĠĠĠĠĠĠĠĠĠĠĠĠĠĠĠĠĠĠĠĠĠĠĠĠĠĠĠĠĠ Ġ
Rad io
ĠRis ik
RA Y
Meister schaft
DA Y
ĠKaisers lautern
ĠGab riele
beu tel
Ġgros se
Einwohner entwicklung
Ġbefest igt
fein d
ĠSlowen ien
ĠIntelligen z
ĠInternalX base
C le
N ote
W eil
f acht
l ernen
ie hlt
as ur
ĠM ehl
Ġm atcher
ĠT rom
Ã¶ geln
ber eiten
ĠC P
ĠC amil
ĠC row
Ġg old
rei be
Ġsich ere
Ġun mÃ¶glich
hn er
im er
aus gaben
Ġvor behalten
Ġa ff
rÃ¤ u
ĠVor lÃ¤ufer
Ġher ange
ĠSchul jahr
ĠMod us
por tiert
++ ]
alle e
ĠWill kommen
ĠDienst leistungs
Ġaktiv iert
gar de
Ġwahr en
Ġsh ift
FI G
ĠÃ¤lter er
ĠFund platz
ĠPet ra
ĠSach ver
Dist ance
ĠWirk ungs
ĠLit auen
ACT ION
Ġchem ische
ÏĦ Î¿
varian te
S ender
or b
or ig
Ġin cl
Ġn Ã¼tz
ĠK ass
ĠG ig
ĠT rei
ĠR anger
tr am
tr itte
um ph
ĠV eter
ĠJ Ã¼
ig o
Ġim port
ul in
ad resse
ĠSt one
ĠIn fl
Ġr s
Ġbei tragen
schaft lichen
iz able
ĠSie mens
Ġtr eu
18 72
18 74
Ġbest ens
fl ossen
sh ort
ĠUm benennung
Ġzwischen zeitlich
res olve
ĠQu Ã©bec
ĠY en
Ã¤u ter
ĠBundes ministerium
Ġfest stellen
Ġ24 0
ĠBel astung
schw anz
ĠOlymp ische
ĠChar lie
ĠGut achten
ĠIde al
ĠKomp anie
Ġfre ut
ĠSchÃ¶n e
ĠLÃ¼ becker
National park
Ġexec utor
ĠstÃ¤r ken
ĠTime Unit
ĠrÃ¼ck te
ĠSchreib weise
Ġco uld
ĠWitten berg
ĠJord an
ĠBekann theit
Sdk Internal
ĠAntwer pen
A Z
A gg
C amp
F ort
L u
s zene
Â ¤
er ializer
Ġd ek
al ias
at ra
ĠB ann
as ing
ĠF Ã¤cher
Ġau thor
is i
ĠH tml
ĠT rÃ¼
Ġer lauben
ĠV all
ĠN ort
ĠC art
ĠC ontinental
Ġk rie
Ġal li
ĠZ elle
ell meister
Ġst mt
ri f
Ġr hein
Ġwar tet
Ġsch licht
ec tive
ĠStr eu
enn etz
ĠEn ts
her ine
ĠMit teilungen
rau ms
ĠAuf lagen
ĠBr ink
ens eits
stan te
pro jekte
ĠBau t
Ġ: :
ĠFrank lin
ĠHo hl
50 9
Ã¤ng ern
ĠFol genden
ĠChrist ina
Data Source
jÃ¤hr iges
wand lung
ĠBas ic
utt a
Ġverm ehrt
ĠGraf iken
ĠLuft waffe
ĠBor is
ĠGott lieb
ĠGÃ¼ter verkehr
Ġdunk len
ĠMount ains
ĠJon as
Ġbehaup tet
Ern st
ĠLeverk usen
! "
D ev
D iff
F arb
j ak
o er
w ider
Ï Ģ
ie tet
Ġv ideo
ĠB ischÃ¶fe
ĠD O
ĠD ion
Ġein heim
ĠK ick
ĠK ansas
ĠP eg
Ġau to
ĠT ipp
ĠL iver
Ġh Ã¼b
ĠN ob
lich keits
ĠC SU
Ġan melden
Ġver gangen
ed o
Ġsch Ã¤tz
Ġj oin
Ġvor deren
Ã¶n n
Ġ17 98
form ular
iss in
ĠGroÃŁ es
Ġkon vention
ĠHa wa
Ġgesp annt
ĠPlan ungen
ĠSen ior
do zent
ĠTur b
ĠRand om
Ġwid met
ĠVil len
ĠEngl ish
Ġlern t
ĠContent Type
ĠHalte punkt
ĠReprÃ¤sentanten hauses
ĠStrals und
Ġkonkr eten
ĠkÃ¼r zer
L exikon
M etrics
P or
d ingen
n ote
r ier
y z
Î º
Ġd rit
sch ub
und eten
Ġs equence
ich i
ĠB Ã©
Ġein ver
Ġein geteilt
Ġm essen
Ġm ask
ĠF ang
ĠP ict
Ġau ton
Ġf ragt
ĠH amp
ĠN as
ul ator
est yle
ĠSch iller
Ġr om
ĠAn c
ĠAn passung
Ġnach zu
Ġvor l
ĠEn drunde
par at
ac ters
per ten
fol io
ĠString Utils
ĠPl ant
Ar tifact
ke a
ĠSchw immer
ĠEl ite
ĠBundes staates
gew al
schieden e
Ġdort hin
Ġverschieden sten
gebiet es
Ġor ient
ĠPer f
omb ination
ĠTer rit
Ġhinter lassen
Sh ape
ĠChe fredakteur
Ġexist ierte
Obj ekte
ĠschÃ¶n er
ĠBor ussia
ĠKosten los
Ġbedeuten der
Ġsonst igen
DO M
Ġausgew Ã¤hlte
ĠEg al
ĠBasketball spieler
Ġchem ischen
ischÃ¶ f
Original titel
ĠMyth ologie
ĠSchwÃ¤b isch
Ġmoment an
MESS AGE
ĠBolog na
D IS
E Object
I p
R a
b ig
g ymnasium
s amen
Ġd evice
st urz
sch eiben
ge hr
ĠD ecke
ĠK essel
de fin
ĠP end
ĠP uppen
ĠT amb
ĠL ars
tr itts
tr uppe
Ġg ross
ĠU trecht
ff end
eu gen
ot op
ĠAn toine
end ienst
Ġbe zeugt
ĠAb fall
ĠMa ine
fÃ¼hr ungs
An n
ĠÃľber wachung
ĠMon ster
ide os
ĠCon ference
ograph y
ĠKar os
Ã³ r
ĠErst ligisten
ĠMath ias
ĠProjekt es
ĠTab ak
iam i
Met ern
mÃ¶ bel
ĠTo ul
ĠrÃ¶m ischer
Ġmon tiert
ĠPe ople
ĠWh it
Ġtrans fer
Ġpass ieren
Tem p
vertr et
Ġag ain
iffer ent
trans form
ĠZerst Ã¶rer
ĠBeob achtung
******** ********
ĠEngine ering
ĠVorles ungen
Ġbedro ht
SdkInternal List
1 17
B or
D enn
E valu
S m
V ors
z end
un iversitÃ¤t
au me
Ġw eichen
Ġan statt
ĠO P
he x
Ġaus reichen
ob a
amm ler
ahn sinn
az wischen
ĠKon sum
wer de
wer tet
sb y
wa der
Ver trag
ĠAug uste
ĠGroÃŁ er
alis ierten
Ġkon krete
Ġbew ohnt
Ġqu asi
ĠKn ob
ĠAlb anien
Ġgemein t
ĠGel b
ĠKat al
LA Y
bed ded
ĠEt appen
ĠCom edy
las spath
gem Ã¤lde
ĠAf D
ĠTa sche
ĠgÃ¼nst iger
Ġdre hen
ĠStoff e
Ġblau en
ĠFrem den
Fran ce
ĠPod cast
ĠIndian er
cover y
Ġhervorra gend
ĠRup recht
ĠCapt ain
ĠSiz ilien
M C
N eg
d io
h ow
w ache
Ġd ebug
an ol
ĠS cript
ĠS orten
ein igt
Ġund er
ĠK assen
ĠK itt
ĠE leg
is Not
ut o
ĠN Ã¤hr
ĠJ od
Ġt wo
ĠAn lehnung
ĠAl ger
Ġ/ **
ĠAb kommen
omm e
anz ahl
ĠVor bereit
ĠKon figuration
ĠFran co
ans ion
ĠTh Ã©
Sch edule
Ġausge liefert
enk te
ote chnik
ĠBÃ¼ ros
wÃ¼r de
ĠErfolg s
ĠTrans formation
Re q
ĠDom ain
Ġgl att
Dec l
ĠMerk el
Ġanzu zeigen
ĠVerband es
ĠInterview s
ĠtÃ¼rk ische
Stud io
ĠSchei be
ĠLaw rence
ĠzukÃ¼nf tige
ĠdÃ¼n n
ĠMittler weile
ĠKonzentr ation
ĠvergrÃ¶ÃŁ ert
gesprÃ¤ ch
ĠNapole on
ĠPac ific
C ookie
G let
H op
d isk
k Ã¼n
z iehung
Ċ Ċĉĉĉĉ
on o
Ġn s
de kor
ĠP eng
ĠH unt
ĠL P
ĠL Ã¼b
ĠR i
ĠV asen
Ġh aupt
ĠN GC
ier eg
Ġzu fÃ¤llig
ĠSch la
ĠIn zwischen
Ġst eigern
ĠDie go
ĠAn ruf
get Tag
ru h
ĠCh ange
Ġbest es
att a
br ett
ĠGesch wind
ĠÃľber reste
16 0
ĠGe off
isten ten
ĠLu kas
ĠGra v
ĠPolit ische
ĠX ml
ĠSchl Ã¶sser
achte ten
ĠDu ft
Ġdi mension
ĠGef allen
ĠKur fÃ¼rsten
ĠTage buch
Ġentfern ten
ĠPort o
ĠAs yl
Ort steil
ĠSek unde
Her ren
ĠGar den
ĠStad ium
ĠSoc i
Ġwissenschaft lich
ĠFuÃŁ gÃ¤nger
rick et
Europ a
Ġentscheiden den
ĠPau lo
ĠKa stell
ĠUnterricht s
ĠNikol ai
Ġjur istischen
ĠProfess oren
ĠungewÃ¶hn lich
ĠWÃ¤l der
ĠPho enix
ĠMunic ipio
ĠBatter ie
ĠDiskuss ionen
Ġneb st
getAbsolute Path
D V
F IN
P rÃ¤
S u
g ge
o ster
Ġ Ã¶stliche
un o
ei bt
Ġs au
ĠD ynastie
Ġm ul
ĠF eucht
ĠP aten
ĠP reistrÃ¤ger
ĠT enden
ĠL utz
ir us
Ġk rei
Ġk reuz
Ġzu stande
ĠVer einen
Ã¤n ze
ĠAn l
ĠAn fÃ¼hrer
ĠStr ahl
ste cken
ĠAuf treten
ĠAuf trÃ¤ge
ian us
Pro duz
sb eg
ĠList ener
ĠVol t
Ġper iod
ĠHeim spiel
ĠTem po
spro du
ĠPlan ungs
Ġfl achen
ĠLau ter
ĠBesonder heiten
ĠjÃ¼d ischer
ĠStraf e
Ehemal iger
ĠKenn zeichen
Ġsup ported
Ġtau cht
ĠAnf Ã¤nger
Ġschrift liche
getr iebe
ĠVerwand ten
Stru ct
Stru cture
ĠJahrhund erten
telle ktu
ĠIndust ri
Ġpersonenbezogen en
ĠBuk arest
ĠPrinc eton
çļ Ħ
F R
M ad
M ask
W al
f inden
f Ã¶rder
l ot
p attern
r Ã¤t
s au
w ol
en gt
Ġd ownload
Ġd rauÃŁen
st unde
ĠA K
ĠA rizona
Ġb uchen
ĠM old
Ġf assen
ĠR ib
Ġer stellte
Ġh essischen
ent h
ĠZ isterzienser
ĠSt uck
ĠIn vas
Ġst orage
eg ow
Ġr andom
ĠAn ime
ster ben
ĠÃ¼ber leben
pe te
Ġvor zeitig
Ġunter s
Ġtr ag
gr au
18 69
lag ern
Ġbes uchten
gesch Ã¤fte
zeich ner
geben e
Ġbeg angen
ĠQu in
tor wart
ĠBe ein
ĠMon ika
ĠRei fe
mittel te
unter schied
CH AR
ĠFel dern
sl alom
kel ey
(( (
Ġpassen d
ĠVerhalten s
Ġwert volle
ĠReaktion en
ĠWik ipedia
ĠVorstands mitglied
ĠTick et
ĠBremer haven
Ġinspir iert
ĠEintr acht
ĠSchwanger schaft
F inanz
W S
b Ã¼ttel
p anzer
u ktion
un Ã¤chst
al ier
ar men
Ġb al
Ġm ater
ĠL amb
ĠR ick
om orph
ĠO u
Ġver arbeiten
ĠSch loÃŁ
ver fassung
ĠÃ¼ber arbeitet
ran ke
ĠUn entschieden
Ġ" "
Ġab weichen
hal s
ĠCh ore
ac cess
Sch Ã¶n
Ġgr amm
ĠÃľber lieferung
Ġher z
aut y
ĠWest seite
ĠNatur park
Ġho ffen
Ġrel ative
lÃ¤nd isch
ĠZeich nung
Ġwenig stens
Gr ab
Ġerk annte
Ġruss isch
ĠVerm utlich
Ġgleichnam ige
asp ielen
wÃ¤l der
polit ischen
Wil helms
Ġtau send
LI ST
Ġsport lichen
ĠHenn ing
Ġgros sen
ĠlÃ¤nd lichen
ĠAfghan istan
' .
f ot
m ungs
n ischer
Ġd eu
Ġd iv
an dete
sch eine
at on
ĠM ieter
ĠK eil
Ġf it
ti enne
ĠT ed
ĠT ot
ĠL ippe
re geln
Ġauf tritt
ĠZ aw
ĠZ ucht
ĠU CI
Ġr ichten
ĠEr reichen
ĠSp in
Ġj avax
id ge
Ġunter zeichnet
Ġ" )
ĠMit arbeit
ĠGr unde
for dern
bl og
ĠSchul den
ĠWohn sitz
ĠGegen Ã¼ber
fr em
ĠCD s
ĠStern bild
Ġneun ten
ĠSach verstÃ¤nd
Ġentscheiden d
Ġbelieb ten
ĠEss ay
gu inea
ĠRicht linien
ĠPed al
Ġreag ieren
ĠForder ung
ĠBenz in
ĠEmpfeh lung
Ġkaiser lichen
sbes itzer
F ull
H as
K arten
S ync
k up
p n
ĠS ams
ar um
ĠD ichte
ĠF aktor
ĠP ep
ĠL enz
ĠL ayout
tr ad
ro k
get Element
gr Ã¶ÃŁen
ill is
pr inz
net te
ĠBo und
stand ort
Ġgesch nitten
vor steher
ĠMon archie
Ġteil genommen
ieb ig
ĠMenschen rechte
Ġern eute
ĠDi abet
Ġfrei gegeben
ĠDre am
ĠProgramm ier
Sc ore
ĠFe ature
ĠMotor sport
Ã¶pf er
ĠStamm es
ĠIngen ie
sÃ¤ ure
ĠAktien gesellschaft
ĠKost Ã¼m
agnost ik
ĠBlo od
ĠgÃ¤n zlich
O pt
P ublic
Z ahl
s eller
z eilen
} -
Ï ħ
sch altung
Ġw ant
Ġs ing
Ġein ander
Ġf liehen
ĠL ah
ĠZ el
kt akul
ĠAn stieg
Ġnach ts
Ġsch ien
tet t
(" <
Ġlie bt
rÃ¼ der
ĠKl etter
Ġges endet
Ġange wiesen
ĠBundes rat
Ã¶ÃŁ t
Ġmus lim
olum e
Ġerw ies
ĠAuÃŁ ens
ategor ien
ĠKo oper
uttg art
ĠWal ker
Ġgefunden en
oder ator
Ġbeleg ten
ĠunabhÃ¤ng ige
ĠRek onstruktion
Syn drom
ĠLoc ation
Ġnam entlich
Ġverkehr t
Europameister schaften
Ġhervorra gende
ĠðŁ ĺ
ĠUll stein
ĠHong kong
Ġnationalsozial istischen
D N
H en
T ier
T Ã¼rk
V C
b b
c odes
i Äį
s ohn
t itle
st affel
sch in
ĠB eil
as mus
ĠD Ã¼n
Ġm at
Ã¶ y
ĠI ce
ĠN obel
ab ella
ig g
ad miral
ĠAn sÃ¤tze
get Method
ĠSp eyer
ĠEin es
Ã¤r chen
geb unden
ĠGr ube
ill s
Ġ17 95
Ġgen auen
sb ibliothek
Geb iet
12 5
ĠLu cas
Ġbew erten
ĠCo oper
ĠBew ohnern
ĠGel enk
Group Id
arte ten
ĠGeorg ia
Ġleben d
RO M
ĠDenk mall
ĠOper a
Um welt
Ġdr ingend
ĠBÃ¶ den
word s
hÃ¶r er
Ġtem por
Ġed ge
ĠAbst immung
ĠServ ic
Ġfal sche
Go ogle
Ġschot tischer
Mag azin
gewinn ung
Ġkirch lichen
ĠAttrib ut
Clau se
ĠEnzy klopÃ¤die
ĠErmitt lungen
C ity
J ar
T otal
f ire
p x
y les
ie in
ĠS uhr
Ġw und
Ġin f
Ġn ad
ĠF ul
Ġf Ã¤l
ĠH its
ĠR um
ĠI v
Ġh eutzutage
Ġmit unter
ag ramm
Ġp ossible
ed lin
ed uler
ĠEin leitung
Ġzur zeit
Ġab sch
enn ten
ĠAus lÃ¤nder
Ġsp ace
pf ad
18 48
Ġso cket
ip se
fl ikt
Ġbef reien
Ġ10 2
orn o
man gel
ĠAut hor
so ftware
ĠFrei burger
stit ute
Ã¤s sert
hand ler
Ġrech nen
Ġy our
Ġhistor y
ĠHof mann
Ġspe ktakul
ĠSchm el
ĠKat ast
ĠHa ftung
ĠSchwer punkte
ĠBy tes
ĠbenÃ¶ tigte
ĠMass age
ĠCre w
Ġetabl ieren
ĠAlli ierten
ĠRon ald
ĠWeltr ang
ĠErgÃ¤n zung
ĠHold ing
Ġschein bar
> ");
G O
K ern
N SDAP
c essed
g attung
an ks
ar ium
ĠA mal
Ġein gesetzten
ĠĠĠĠĠĠĠĠ ĠĠĠĠĠ
ĠF ren
ĠP Ã¶l
ĠP rÃ¤s
ti d
ĠV es
ĠN iem
ĠC it
ra pped
ic ates
wei hung
Ġr ole
get Next
ec tic
ĠUn ternehm
ĠStr assen
Ġ- =
dr Ã¼cken
An aly
yn a
iss ippi
Ġher ab
ĠRo ut
Ġbel ast
ĠgrÃ¶ÃŁ ter
bew ohner
ĠWil helms
ĠEd mund
ĊĠĠĠĠĠĠĠĠĠĠĠĠĠĠĠĠĠĠĠĠĠĠĠĠĠĠĠĠĠĠĠĠ ĠĠĠĠĠĠ
ĠLa ien
ĠZentr ale
UN K
met a
Her mann
Ġverz ichtete
Ġhal be
Ġreduz ieren
ĠVerd acht
Ġheim ischen
Ins eln
egal ith
ĠtÃ¶ ten
ĠausfÃ¼hr lich
Ġmex ikanischer
ĠParad ies
Ġohn ehin
J etzt
O k
R T
R ennfahrer
S ommer
T ax
W F
Z eigt
c am
p raxis
} /
Ġ ten
Ã¤ tigen
ĠA ri
ĠA th
ĠP odest
le uten
ĠR ams
Ġg iven
Ġan halten
ĠO range
sen den
he w
Ġr unter
ib ik
ĠAuf zeichnungen
Ġlie st
Ġbes ich
ĠKir cht
ĠEnt lassung
ĠBest Ã¤tigung
con sin
Ġspiel er
ĠDurch gang
ĠSk iz
ĠDes ktop
ĠBas eball
stag s
aj or
key s
ĠKommun en
ĠUl rike
Ġklein ste
Ġdeut liche
Ġform atter
ĠAng reifer
bÃ¼ ros
ĠBor deaux
ĠApp s
ĠHir n
Ġerforder t
EX CE
ĠSpann ungs
Ġnorweg ische
vol umen
ibr ary
Ġlandwirtschaft lichen
Ġorden tlich
Ġlatein ischen
ĠKrÃ¤ uter
ĠWrest ling
& &
D ame
E K
S ection
V ars
c ial
k urz
o od
s feld
st hal
el i
ĠB Ã¤umen
Ġb ond
Ġin mitten
Ġein ges
ĠP O
Ġf ot
ĠR yan
lich ung
ĠJ ay
Ġim m
Ġg rid
ĠZ Ã¤hne
ag i
get Width
Ġum welt
ust on
ĠAb w
hen de
ev al
ĠKon j
ĠNeu auflage
ĠSchw immen
Ġ| --
unde te
bl ing
RE QUEST
ĠRÃ¼ck stand
ĠKn ight
ĠDem o
ĠBru ce
ĠKÃ¼nstler s
ĠHerzog s
Block s
ĠHÃ¶r funk
gorithm us
ĠBeschÃ¤f tigten
ĠvielfÃ¤l tige
Ġspann ende
rein igung
ĠNicol as
ĠKem p
ĠKonserv atorium
ĠDekan at
ĠEvalu ationException
ognition Exception
. ]
= (
J eder
P sych
S ucht
b u
b ayer
t otal
Ġ achte
in formation
Ġd Ã©
Ġs ettings
Ġb ind
ĠF alter
ĠN il
Ġauf bew
Ġver weiger
ell ung
Ġdem onstr
rie ve
ĠÃ¼ber fÃ¼hrt
ungs an
ĠStr ahlen
Ġvor nehm
oll t
Ġre konstru
ĠÃ ĩ
ĠGr atis
ĠMa ck
18 60
Ã¤l ern
ip ment
[...]
