#version: 0.2 - Trained by `huggingface/tokenizers`
e r
e n
Ġ Ġ
c h
i n
Ġ d
ĠĠ ĠĠ
i e
u n
s t
a n
e i
o n
e s
a l
Ġ S
t e
s ch
a r
e in
g e
a u
o r
un d
u r
Ã ¼
a t
Ġd er
i t
Ġ w
Ġ s
e l
i ch
Ã ¤
Ġ und
Ġ v
Ġ A
Ġ B
e t
a s
Ġ b
Ġd ie
un g
Ġ D
Ġ i
Ġ 1
Ġ M
Ġ in
e m
Ġ (
Ġ ein
a m
h r
ĠĠĠĠ ĠĠĠĠ
Ġ m
Ġ z
Ġ n
Ġ K
Ġ F
o l
d e
Ġ G
t en
ĠĠ Ġ
Ġ E
Ġ P
t er
Ġ au
Ġ f
l e
g en
i s
i on
d er
i sch
Ġ H
Ġ T
Ġ W
Ã ¶
i l
d en
Ġ L
Ġ R
t r
a ch
b er
â Ģ
u m
i g
Ġ er
Ġ I
o m
u s
r e
u t
Ġv on
an d
Ġ V
Ġ1 9
Ġ 2
c k
i er
Ġ h
r o
Ġ N
l ich
Ġ J
a b
en t
Ġd en
s e
i r
Ã¼ r
Ġ C
ei t
Ġ k
Ġ ge
Ċ ĠĠĠĠĠĠĠĠ
ĠĠĠĠ ĠĠĠ
Ġd es
Ġm it
in g
Ġi m
) ;
Ġ g
Ġ an
Ã Ł
Ġ al
Ġd as
u l
r a
an n
Ġ2 0
r ei
i k
f t
Ġ O
Ġau f
Ġz u
i st
Ġ t
e st
a d
k t
Ġ Z
ie l
Ġv er
Ġ U
s en
e b
Ġ o
Ġ l
ĠS ch
a hr
Ġi st
ĠS t
a g
i c
el l
Ġf Ã¼r
Ġ p
Ċ ĠĠĠĠĠĠĠ
Ġ =
Ġw ur
ich t
f f
e h
Ġd em
s p
isch en
h e
Ġ {
Ġ âĢ
at ion
v er
w ei
o t
a h
ĠI n
i en
ĉ ĉ
Ġau s
ĠV er
e d
Ġal s
Ġ st
i m
Ġein e
ĠD ie
Ġ Ċ
o w
o s
Ġs ich
Ã¤ n
Ġ }
Ġ un
e g
Ġ r
Ġwur de
e u
er n
m en
r i
Ġb ei
al l
e w
in d
c e
ĠA n
b en
er t
Ġ c
sch a
Ġw ar
o ch
p t
ei ch
) ,
s er
g er
es ch
ĊĠĠĠĠĠĠĠĠ ĠĠĠ
ĠJ ahr
a p
ĠE r
h n
o g
ei l
en d
o p
ung en
Ġs ein
or t
Ã¼ ber
Ã¼ n
c t
u ch
u b
ge t
e hr
0 0
u f
l in
e ut
isch e
Ġau ch
i v
Ġw ir
et z
r ie
a te
Ġ20 1
es s
( )
st er
ur n
Ġb e
scha ft
ar t
ĠS p
Ġ Ã¼ber
Ġn ach
an g
st en
Ã¤ t
Ġ sch
l er
ung s
ur ch
l a
Ġ j
r an
Ġ am
m er
ĠU n
r u
i d
o d
as s
l ie
ĠE in
Ġb is
eut sch
au s
i gen
Ċ ĠĠĠ
n en
ĠA r
Ġs ie
âĢ ľ
Ġn icht
Ġ1 8
i z
Ġz ur
Ġ a
Ġ20 0
Ġw er
g t
p e
ĠS tr
er s
Ã¶ r
et urn
I n
l en
Ġz um
u g
te l
ĠA l
Ċ ĉĉ
ĠâĢ ŀ
âĢ ĵ
Ġ 3
Â ł
1 9
e x
Ġ um
q u
Ġwer den
Ġein er
e ch
Ġ es
ch en
Ġw ie
ĠS ie
ĠP ro
Ġv or
Ġun ter
Ġh at
i b
Ã¤ r
am e
st ell
D ie
z en
Ġd urch
Ġwir d
Ã¶ n
ĠâĢ ĵ
Ġs ind
h al
i ge
Ġ ab
isch er
Ġo der
i f
ier t
ter n
ge l
ul l
or d
Ġ "
au f
or m
Ġi f
u e
Ġ ent
t s
ĠE n
k s
Ġi hr
ol l
ĊĠĠĠĠĠĠĠĠ ĠĠĠĠĠĠĠĠ
en n
Ã¼ ck
te t
ge b
h er
) .
Ġein em
ch e
pt ion
l o
p r
a ge
el t
g r
st e
a k
j e
eb en
ar b
ĠB er
Ġ tr
Ġein en
Ġ /
ei ter
ĠM it
ĊĠĠĠĠĠĠĠĠ ĠĠĠĠĠĠĠ
Ċ ĉ
lich en
Ġ Ã
Ġ re
u d
h l
er k
p ar
Ġ19 9
l and
Ã¼ hr
p l
u st
o k
ul t
e f
ĠA us
ĠG r
ĠD er
ur g
ub l
i ck
il d
o de
u p
r it
sp iel
n er
E x
( );
o b
at z
i a
S tr
rei ch
us s
r au
n e
ĠA b
ah l
Ġn ull
ad t
an t
il l
Ġ -
lich e
h en
ĠO r
p f
i al
ar d
el n
o f
Ġdas s
Ġn ew
in z
e z
wei se
Ġs p
ĠM a
at ur
ei ten
a v
ĠA uf
om m
o v
S t
o hn
in al
g es
Ġ 4
Ġr eturn
2 0
e p
a st
s s
ĠC h
u ÃŁ
ĠM ar
ce ption
al t
ĠĠĠĠ Ġ
Ã¤ l
a y
Ġt he
an z
i p
Ġz wei
ĠL and
Ġ19 8
ein e
et er
it z
ab en
ĠD as
Ã¤ hr
ĠN ach
o ur
at en
te m
1 8
ĠV or
Ġ/ /
t h
at h
e y
. .
l ass
Ġ( *
C on
m al
e k
r Ã¤
ĠI m
ubl ic
Ġ +
Ġo f
b urg
ver s
or en
am m
Ex ception
Ċ ĠĠĠĠĠ
Ġs o
Ġd eutsch
y pe
eit s
h t
ro ÃŁ
Ġ 5
rei s
Ġ 0
Ġ19 7
in e
en s
p er
p h
f ol
ier te
r es
i le
ich te
o c
Ġs ow
a ck
Ġb est
Ġn eu
Ġn ur
ĠH er
Ġwur den
e v
om p
Ġm ehr
ber g
kt ion
at t
k en
on t
Ġn och
ier en
e c
( "
Str ing
Ã ©
ut z
s h
Ġan der
il m
b je
Ġv om
ĠStr ing
ab le
b ar
f l
ĠF l
b au
it ion
ach t
a f
l eich
as e
it Ã¤t
in t
ation al
l em
etz t
ĠZ eit
Ġ19 4
Ġ19 6
n is
Ġz w
ei m
b e
Ã¤ ch
ĠD eutsch
k eit
N ame
Ġl ie
p en
par am
W eb
el le
b r
Ġa ber
ĠB r
ĠA m
n et
i an
r eturn
ĠP l
al ue
om men
Ġge w
ei ster
Ġdie s
el d
z eit
lin ks
ah n
D er
der n
d u
a gen
Q u
Ġ1 7
Ġw eiter
Ġm an
a z
i o
E n
Web links
ĠSt adt
it er
Ġ et
l ei
Ġsow ie
s k
Ã¼ t
l os
Ġ 9
iv e
ĠK on
Ġp ro
Ġb er
p ublic
i re
l ag
e gen
Ġk ann
ĠT he
Ġb es
Ġk Ã¶n
f orm
on n
f ten
o ck
ĠG em
Ġ= =
ig er
ĊĠĠĠĠĠĠĠĠĠĠĠĠĠĠĠĠ ĠĠĠ
hr ow
Ġ 6
et t
Ġ &
r ich
m ann
a in
ĠR eg
g esch
ei te
ol og
Ġ e
Ġd ar
at er
Ġ19 5
d em
P ro
it y
as sen
m e
f Ã¼hr
z e
m it
ar k
am men
Ã¼ d
Ġ gen
g lich
eh en
t eil
Ġ le
ol it
ct ion
ff en
em ber
T ype
spiel er
f ahr
ĠF ran
Ã¶ l
ier ung
sch ie
l ung
E inz
g lie
ch t
or f
Ġge gen
p ro
o st
ik er
h und
i vers
r Ã¼
sch en
Ã¤n d
i te
et h
a c
ol le
Ġd e
z eich
ie s
eh men
ĠB ei
ei gen
ĠI S
A n
Ġwie der
y m
Ġ19 3
ĠG esch
Ġein es
ĠUn ter
ach weise
s et
ĠJ o
Ġ ex
is sen
ĠSp iel
eln achweise
und en
ru p
Einz elnachweise
er v
ĠT h
ĠK l
Ġ el
Ġ1 5
or g
ib t
bje ct
ĠM us
u le
ie der
b all
Ġ1 6
w er
Ġsein er
Ã¼n d
hund ert
ĠB au
lie ÃŁ
Ã¶ ff
in n
l i
ie le
i um
ann t
ĠGem ein
Ġh aben
im m
- -
Ġdie ser
at a
B N
Ġhat te
Ġsein e
st an
am en
ell en
ic e
s el
ge ben
ĠIS BN
us ammen
in gen
Ġt h
s b
a is
b st
f er
y st
ÃŁ e
h eit
ĠJahr e
Ċ ĊĠĠĠĠĠĠĠ
Ġf or
f en
ĠE s
Ġ ich
ik an
n ah
ers on
e ck
an s
ar l
m ein
Ġg es
ĠU m
Ġ 7
S ch
Ġbe f
at or
ĠG eb
al e
w a
sp r
ĠG es
ĠU S
u te
Ġ 8
en z
ab e
I m
Ġg r
A l
ei st
ĠS o
ĠJahr hundert
ĠT eil
ad d
D as
Ġge t
al s
ie t
og ra
A r
Ġzw ischen
k l
h Ã¶r
ĠkÃ¶n nen
Ġwar en
U n
yst em
a il
w ick
L ist
ĠR o
ĠÃ ľ
Ġj e
on der
Ġr es
is s
on g
ĠB l
E r
Ġs el
ĠJahr en
Ġb eg
Ġb et
iter atur
y n
w ar
Ġ !
I N
ĠEn t
in ter
tr ag
f all
Ġs oll
ar r
Ġt o
p ut
ĠK ir
) )
or e
Ġs eit
z eu
et en
č Ċĉĉ
Ġj ed
ur op
Ġk l
() .
1 7
st r
e qu
o un
Ġt hrow
Ã¶ s
ĠBer lin
ĠB o
Ġ en
g l
au pt
Ġg roÃŁ
Ġ Qu
am er
am il
w erk
in der
ol d
ĠS te
on d
ĠW elt
ĠSt a
f e
f or
R es
at ch
t o
al d
ap p
Ġ <
it t
Ġf ol
" ,
te x
Ġbe k
Ġ Y
und es
l t
hal ten
ĠUn ivers
st ra
en er
Ġzur Ã¼ck
m us
Ġ1 0
ÃŁ en
Ġer h
k e
Ġdie se
Ġd rei
Ġi s
au t
ge w
e an
Ã¤ ter
l es
ĠI hr
ĠP h
den t
h m
" );
ĠF ilm
o ol
ir t
ĠAr b
ex t
o ff
ing s
eh t
at s
00 0
scha ften
Ã¤ d
ĠB e
st and
() )
Ġbei m
y p
Ġer sten
I d
E R
V er
k te
1 0
m a
ĠL ist
ei d
la ge
ĠE x
as ser
our ce
rie g
r om
in den
ĠÃľ ber
m ent
Ġ and
ĠR e
gen d
Ġh er
am t
ig t
Ġin t
Ġd am
iel t
um ent
Ã¤ u
ation en
o id
fol g
ig keit
Ġd ann
1 6
Ã¶ glich
Ġ1 3
al en
Ġer st
Ġ1 4
an k
Ġ1 2
ster reich
Ġge hÃ¶r
w end
uÃŁ ball
n ung
or n
i ff
an gen
Ġal le
or den
Ã¤hr end
b t
ĠC hr
Ġ :
tex t
Ġw o
() );
stell t
ĠA d
Ġ! =
1 5
eu te
l au
el s
glie d
e am
o ber
Ġw enn
Ġdeutsch er
ent lich
Ġg ibt
ĠM en
an ge
ĊĠĠĠĠĠĠĠĠĠĠĠĠĠĠĠĠ ĠĠĠĠĠĠĠĠ
z u
an der
Ġ19 2
âĢ Ļ
im e
Ġth is
ĠG er
k er
m eister
ĠH and
Ġh ier
Ġg esch
rie b
Ġun ser
ĠOr t
ach e
m in
Ġk onn
il der
ier ten
Ġan ge
Ã¤ hl
hn e
ĠA ug
Ġf inal
v or
Ġ eigen
h aus
y s
a x
ĠJ an
und e
Ġihr e
Ġjed och
iz e
Ġ |
m an
Ġaus ge
f Ã¼
ri v
ĠÃ ĸ
1 2
a kt
as se
ĠZ u
ĠO ber
rie d
ĠN eu
ĠP r
b ild
G eb
ĠGemein de
ur e
Ġv iel
ĠSch w
ein en
ra d
z w
ie d
ĠL eben
un i
de x
ĠL e
ist or
f ig
ig n
ri ft
ĠE l
L iteratur
un st
ĠB undes
ach en
ess ion
oun t
r at
O N
1 3
Ġsp Ã¤ter
ab ei
au er
ĠA ut
Ġd a
Ġf Ã¼hr
en tr
s atz
r en
b o
p ert
sch l
lich er
Ġ ch
.. .
i de
ĠB et
Ġc on
ĠF rau
ind et
C h
z er
ĠB es
ĠF or
o u
ar ten
ru ck
Ġw el
Ġs ehr
7 8
st adt
Ġel se
ĠDeutsch land
Ã¤l t
on e
re u
ar am
Ġv oid
Ġet wa
( ),
ei g
a der
i tel
ĠG e
ct or
iel d
ĠAr t
Ċ Ġ
hal b
ra y
1 4
ist er
O r
ĠS e
Ã¶n ig
V alue
schie den
Ġin s
ĠP f
ĠJ ul
re ch
Ã¤r z
Ġg leich
b l
i x
te d
it h
ĠM on
at ic
ot t
tern ehmen
Geb oren
u ar
st ein
in a
er e
ĠAug ust
ist en
ĠF amil
ĠGr und
t on
Ġh in
au m
Ġw as
Ġi hn
ĠP erson
ĠM in
ĠG roÃŁ
a de
ge mein
s on
ation s
p on
ĠM ann
Ġdies em
ĠN ord
ĠB and
o sten
Ã¤ s
Ċ Ċ
ig ung
stell ung
t t
irt schaft
ur t
am p
s etz
Ã¶ ÃŁ
gt h
Ċĉĉ ĉ
g ang
ĠPl atz
er en
Ġz usammen
ir k
h of
/ /
Ã¤n der
Ġg er
un kt
hal t
m ar
ur z
s uch
s g
ĠJ uni
in k
Ġsein en
ier e
ĠN ov
ĠL u
eit ung
h a
Ġb esch
ĠP art
Ġlie gt
ien st
issen schaft
Ġim mer
ult ur
Ġ ar
ĠEn de
ĠP ol
u ff
en de
en den
Ġsein em
ol f
ĠM Ã¼n
kt ober
Ġander en
z ial
ĠR ech
ing er
k ehr
ĠC on
Ġver l
M it
ber t
Ġ )
ĠM an
ĠP ar
ĠE urop
Ã¶ ch
ol len
[ ]
= =
or k
Ã¤ uf
ĠVer ein
c on
2 00
) );
Ġber eits
Ġver b
al er
al ien
tem ber
M ann
pr il
ĠW est
Ġ eh
Ã¤n ger
Ġk eine
C lass
Ġsch on
ep tember
Ã¤n g
k reis
ĊĠĠĠĠĠĠĠĠĠĠĠĠĠĠĠĠ ĠĠĠĠĠĠĠ
ĠMa i
rup pe
ĠH aupt
s o
en k
Ċĉĉ ĉĉ
Ġa kt
ĠT r
Ġer ste
ĠK Ã¶nig
b ach
Ġ *
Ġd ort
Ã¶ff entlich
ĠR ei
olog ie
Ġun s
Ġge l
Ã¤ m
tern ational
ĠM ed
ĠO ktober
ĠJul i
ĠJan uar
S p
ion en
isch es
ĠH och
2 1
ĠV ol
de ut
r on
r icht
la gen
Ġein z
Ġsel bst
ĠB ez
Ġihr er
Ġfol gen
z t
ĠFran k
N ach
Ġ19 0
o ut
gr und
ĠW ei
ĠM Ã¤rz
u ten
a den
re d
un k
f inal
I D
ais on
m Ã¤
le g
k eiten
ĠĊ Ċ
ĠG ra
O bject
ĠA pril
re g
ĠF Ã¼r
ez ember
Ġkonn te
ĠVer b
ĠB est
ĠS eptember
ĠG ew
ĠPro du
in nen
Ġv ier
om mer
mit tel
Ġh eute
o hl
ran z
ĠS h
Ġo b
Ġl etz
h eim
ĠH aus
an den
Ġein ge
Ġt eil
ĠF rei
f ert
an is
f ach
f o
. )
v ent
ich er
ĠP olit
ĠSt ud
Ã¼n st
ĠS Ã¼d
5 0
st Ã¤nd
omp on
Ġst atic
Ġver schieden
ĠK unst
ĠB ild
h ann
Ġ eben
d r
o ten
c c
Ġk am
pon se
ĠW eb
sch n
amer ikan
sch lieÃŁ
ĠUnivers itÃ¤t
un ktion
l ig
op h
ĠH o
Ã¼r ger
tr y
ĠF ahr
b ahn
A T
ĠJ u
erv ice
Ã ¡
f eld
lem ent
ĠD ezember
S ie
un ter
le x
Ã¼ s
Ġneu e
c ode
ĠNov ember
Ġdam it
ĠB eg
Ġ %
Ã¤ h
Ġo hne
ess age
Ã¤ ft
f ang
w alt
Ġb r
as h
Ġi hm
el m
b uch
Ġw en
Ġs on
ĠMus ik
fall s
a ce
ag er
ĠLand es
o gen
Ġ .
ie b
ĠI I
ĠN ew
os ition
Ġer folg
f te
Ġ& &
zeich net
ogra ph
er b
ĠW asser
r ik
es sen
Ġc ase
or ben
Ġal ler
ĠChr ist
r y
1 1
D eutsch
A us
ĠU r
n ew
č Ċĉ
Ġal l
ĠN ational
ĠW erk
lo ck
ĠSp r
s w
ru ar
Ġgr Ã¶ÃŁ
lin e
res ult
eb ruar
ĠF ol
ĠK omm
equ est
el e
Ġge f
em ent
Ġ X
e um
ur r
ĠB uch
ĠD ar
al is
Ġb el
ĠStr a
K ey
al se
Ã¶ st
ĠO l
E N
Ġw Ã¤hrend
es en
Ġbei den
ĠK inder
al ter
Ġst att
Ġ3 0
Ġer sch
ĠDie se
ach sen
-- --
Ġsp iel
kt ur
ell schaft
eth od
z ahl
st it
ch er
de ck
is h
em al
ĠD urch
ĠĊ ĠĊ
ĠUn ternehmen
ĠF ried
ĠF re
ĠZ wei
Ġ18 9
re ate
ool ean
Ġf est
ĠJo hann
ĠW ert
ĠList e
sh all
ĠKir che
ri ff
ĠGesch ichte
n eh
E in
ei le
p p
Ġg anz
ĠIn ter
h ol
ĠV on
ar i
ĠS aison
ĠT ra
M ap
Ã¤ch st
ĠâĢ ł
h in
mal s
te te
Ġ201 0
ĠMen schen
Ġneu en
m s
Ġb en
ĠD aten
ĠF ebruar
č ĊĠĠĠĠĠĠĠ
s icht
Ã¼ l
as k
r or
Ã¤n de
iv en
Ã¤ hn
ranz Ã¶s
w ohn
fÃ¼hr t
g leich
Ġ201 8
rÃ¤ s
h and
de te
Ġd abei
t ag
A m
ĠK r
ĠF r
ogra f
ĠF orm
ire kt
ĠAl s
ĠZ w
ĠW il
ĠEin e
ar n
ĠMit tel
Ġer n
R equest
stell er
Ġv alue
ĠN ieder
ĠIn d
ĠSch l
k on
a w
Ġ201 1
Ġge b
n ame
ĠW ien
ech n
Ġ ur
ĠE m
Ġg ab
ĠÃ Ħ
los s
eh n
ĠR eich
ver b
ĠSch wei
Ġ '
sch utz
Ġst eht
Ġihr en
Ġ200 8
zeu g
Ġdies es
Ġ arb
S T
Ġ9 78
Ġm us
âĢľ .
os s
ern se
b ew
au sen
sch ule
v al
Ġ on
ĠF uÃŁball
ten t
âĢľ ,
ĠMit glied
l auf
Ġz un
g abe
ĠAr ch
ĠG l
o der
az u
d orf
ie w
A t
Ġk on
sch e
ro up
ym p
app end
a ar
st ru
k ommen
stan ce
ĠĠĠĠĠĠĠĠ ĠĠĠĠĠĠĠĠ
Ġ Â
G esch
ĠA t
s ol
ann te
Ġthrow s
ĠH al
Ġ201 7
li ent
uch t
Ġb ew
Ġ >
ff iz
Ġf rÃ¼
i der
Ġn ot
an st
T o
Ġ200 9
am es
Ġ u
Ġh abe
lin k
Ġ201 2
h ein
Ġ it
Ġ201 4
Ġ2 5
ĠVer lag
ĠT ag
tr Ã¤
Ġres ult
Ġ ro
ĠPh il
Ġk omm
p s
nah me
Ġge st
ĠL ei
ĠS k
Ġ201 3
rei chen
ĠG ener
ar ch
ĠSch ul
ech s
re cht
y te
D ata
eu er
ĠB ew
p unkt
i us
F ile
Ġ201 6
Ġb zw
ut ion
p ort
c ri
rup pen
len gth
p el
3 0
ĠS al
Ġweiter e
f ern
it zen
ie g
gr amm
ar y
Ġl ang
Ġw ei
stra ÃŁe
P ath
Ġ200 7
ĠH Ã¶
wick lung
Ġdes sen
le gen
er st
A d
R e
ĠE d
il it
Ã¶ t
ĠR Ã¼ck
Ġ qu
ĠPro f
u ilder
Ġ201 5
c o
fahr en
Ġs ei
ĠN amen
Ġer reich
z ent
geb iet
ĠH am
ĠS er
Ã¼nd et
ĠA uch
i ent
nis se
l an
Ġbes onder
ĠMÃ¼n chen
z ug
is mus
Ġal lem
ĠSch au
P aram
Ã¤t z
je kt
Ġ1 1
u er
ÃŁ er
ĠW ir
ĠVer s
k ir
uf en
Ġf Ã¼n
19 9
Ã¤u de
Ġd u
Ã Ń
R E
ech sel
o te
rie ben
los sen
o ub
schie d
ĠG egen
Ġerh ielt
Ġ or
M ar
Ã¤hl t
ig te
is k
Ġtr ue
Ġder en
ĠM al
Ġf inden
sp ort
Ġ200 6
S et
t es
um en
Ġs Ã¼d
est er
ĠN atur
L eben
tr ib
ĠK rieg
ĠW ohn
schl uss
Ġn ah
Ã¼ b
Â Ń
am pf
ĠZ usammen
Ġ( âĢ
ĠPerson en
ĠFrau en
sch ul
Ġ18 8
ran k
Ġst ell
ei gt
st Ã¼t
Ġc atch
E lement
ri d
ge stellt
ra ft
ubl ik
us e
Ġ2 4
wei l
ĠD u
ĠH e
th is
Ġf ranzÃ¶s
i ft
Ġg ut
Ġh and
w ahl
ig es
ĠK arl
in en
riv ate
Gesch ichte
ĠR om
al ten
mÃ¤ ÃŁ
Ġb ie
ĊĠĠĠĠĠĠĠĠ Ġ
ein er
A L
ĠB ahn
Ġson dern
ri de
h o
re chen
w ert
Ġbek annt
oub le
at ive
ach te
ch n
ĠD an
Ġdeutsch en
O ver
ĠC o
ĠL ehr
stell en
ab el
N ode
Ġh o
ar e
Ġ200 5
Ġge mein
ol um
f c
A R
Ġeh emal
Ġv iele
t il
Ġ at
y l
Ã¼ ss
Ġander e
in er
ĠK n
c es
en nen
Ã¶ sterreich
ĠBer eich
ĠH ol
z iel
T ra
Ġ18 6
ĠS eite
h ard
Ġer w
al if
pert y
Ġf alse
Ġw icht
Ġbef indet
urr ent
k rieg
w as
ĠArb eit
qu est
ĠBer g
v e
w e
Ġm uss
ĠS ystem
Ã¶ m
Ġn un
Ã¤n ge
f ra
em a
Ġp ublic
i dent
ei tet
ĠW er
Ġ20 00
at us
ar m
w est
ĠE is
ĠS c
Ġden en
A b
ur s
s am
ĠIn form
ĠSt and
Ã ³
ĠS a
ĠT itel
ĠWeb s
ĠDie s
ĠR es
ĠI s
Ġtr y
au l
ĠM ill
Ã¼ h
O R
c om
ĠAn t
ĠF ra
Ġ200 4
ĠB as
ĠF est
au lt
w eg
le gt
se e
4 0
Ã¶l ker
A N
neh mer
. ,
em en
G est
o ge
ĠFl ug
Ġw orden
g or
Ġp er
ĠP er
ĠM ich
ĠM od
w ig
ĠL in
f r
Ġakt u
ck en
ĠReg ion
ĠA uÃŁ
Ġ [
ĠS tel
Ġr und
w w
eite te
j ahr
Str eam
ĠK ap
ri te
Ġm Ã¶glich
ow n
as st
Ġeben falls
hn en
glie der
ĠL ie
ich ten
ĠPolit iker
Over ride
ges etzt
in s
ĠG ef
ig ht
ĠS ommer
ĠD es
isch of
h Ã¤lt
ĠH ein
Ġver w
ĠFried rich
ĠFamil ie
a i
ĠEin wohn
ĠB ay
ĠM ot
sch rift
ĠD r
z ie
h elm
i ver
zen tr
ad em
ĠSp ort
Ġdeutsch e
ig ten
ĠP at
ut t
2 2
d ings
ĠK o
ĠAl b
Ġ201 9
kl Ã¤r
f ilm
tr agen
uff er
ĠM eister
ĠO n
Ã¶r der
gen ommen
Ġzun Ã¤chst
ĠK reis
Ġbeg ann
im mer
g te
ĠI l
Gest orben
ĠS ohn
Ã¤ re
Ġb oolean
rei b
us er
g aben
on s
ĠLeben s
j Ã¤hr
Ġje weil
Con fig
ess or
k ten
in o
ut ter
Ġer halten
G e
ĠfÃ¼n f
c l
7 0
reu z
ĠR ad
ain er
ĠDeutsch en
ur m
ĠÃĸ sterreich
ĠM o
Ġsoll te
pl atz
ĠW eiter
Ġletz ten
Ġdie sen
ah len
er y
on nen
anst alt
Ġb eh
2 5
gl isch
ei den
Ġander em
Ġau ÃŁer
ĠB el
M od
Ġent wick
ĠB Ã¼
b lem
In dex
och en
ĠK ultur
F uÃŁball
ĠB ar
ĠM et
ic a
er g
Ġ1 00
hr e
st re
D ef
Ċ ĊĠĠĠĠĠĠĠĠĠĠĠ
Ġwel che
ĠT od
Ġw egen
den k
bje kt
fol ge
ĠO st
L E
r sg
at es
hr en
ĠF ot
bild ung
o se
tr eten
ut h
ĠVol ks
u es
Ġsch n
8 0
ĠLand kreis
ĠJu gend
ĠG el
ran s
ernse h
ann ten
Ġein ige
ĠH ier
et te
ĠFran z
Ġ x
ĠF ach
al itÃ¤t
M an
Ġgew ann
ĠM ag
ov e
enn t
il ter
U R
Ġ te
Ġ em
ĠG en
Ã¼nst ler
ĠC ar
Ġ| |
ĠD i
+ +
k auf
om b
ĠN ame
M essage
6 0
Ã¤ che
Ġz ahl
Ġ2 2
Ġd azu
Ġet was
ĠPro v
Ġge gr
ath ol
h Ã¶
e kt
ber eich
ion s
ĠIhr e
rit er
Ġ200 3
a ff
Ġ ,
ĠC l
w ort
sch ein
ĠK ar
ach ten
4 5
Ġver Ã¶ffentlich
Ġ2 3
Ġp ar
ĠW ahl
g ument
I fc
ĠS eit
Ġ2 1
ĠO bject
rau m
Ġin ter
Ġd ef
B ei
la y
ĠAl l
Ġ end
A uf
B o
able d
Con text
U til
ich tet
ĠL a
b ei
ap an
< /
Ġs pe
ech t
eth ode
ĠH il
am ent
Ġh ei
up er
ĠB en
k m
Ġn eben
u ck
n a
in de
In fo
d ruck
nah men
ĠT eam
B uilder
Ġdar auf
Ġge ht
ĠB Ã¼rger
ĠgroÃŁ e
sch w
z el
c lass
av a
ra g
amerikan ischer
f urt
rei che
Ċ Ċĉ
ĠN e
st ag
F ield
ell er
ĠgroÃŁ en
Ġ200 1
ic t
Ġauf ge
Ġsch w
ĠIn tern
k a
D R
Ġs et
Ġge m
Ġab ge
Ġ199 0
um s
Ġ200 2
o ver
O f
ur en
an ce
Ġein fach
sp iele
ip p
T ime
st off
arb eit
ctor y
il om
Ġk ein
b et
ĠT er
Ġin ner
Ġl assen
es se
ĠD orf
Ġals o
ĠAn d
z ig
un ft
Res ponse
ic al
ĠSch n
Ġver wend
op f
ur ger
ro w
ik a
ĠS an
Ġver m
Ġkomm t
S S
che ck
d ate
an ten
Ġbe zeichnet
imm t
ĠHer z
ĠFor sch
et s
l y
Ġ2 6
I I
Ġ ev
ĠM e
2 3
ĠJahr es
h eits
in anz
Ã¤ ten
č Ċ
eich t
H and
ar s
o int
B y
ser v
M E
um mer
Ã¼ck e
ges amt
stit ut
ĠE ur
St ate
lo se
et ter
arr iere
is e
ĠgehÃ¶r t
ĠGr Ã¼n
Ġent sp
l ang
ĠB ern
I T
F orm
Ġ199 9
bau t
or s
ĠD e
ie f
Ã¼s sen
ĠKir chen
Ġre g
Ċ ĊĠĠĠ
čĊĉĉ ĉ
ĠP eter
Ġ5 0
Ġ2 8
ck e
ĠMar k
it ter
Ġn e
ĠSch rift
ot he
nah m
Ġihr em
Ġbest eht
i den
fÃ¼hr ung
d ienst
m l
ĠA k
h af
y r
ĠR ep
R eg
ĠH eim
icht ung
for der
Ġf rei
pr ession
at iv
Ġ18 7
ing t
ĠB esch
ev Ã¶lker
u k
Ġm al
b ez
st a
gesch ichte
p rivate
Ġk ommen
Ġzwei ten
H rsg
l ow
ĠSchau spieler
Ã¶r per
ĠD a
y ch
ĠB i
en der
ĠO b
Ġal len
Ã¤ ss
ĠWil helm
ind ung
En abled
ĠS eiten
Ġv oll
ĠM art
ĠF all
Ġnah m
ĠOl ymp
Ġhat ten
a e
a el
Ġ y
Ġb rit
ĠFamil ien
S ervice
ĠSch iff
č ĊĠĠĠĠĠĠĠĠĠĠĠ
Ġher aus
w elt
sch au
ĠT echn
ĠHer r
h Ã¤ng
19 8
ĠS el
h ei
ĠR ah
sch eid
Ã¤t ze
ĠH ans
U S
an zen
ilit Ã¤r
ĠJ ohn
ie sen
Ġspiel te
Ġin d
P D
T he
ig keiten
ĊĠĠĠĠĠĠĠĠĠĠĠĠĠĠĠĠĠĠĠĠĠĠĠĠ ĠĠĠ
Ġw ill
schn itt
ic ation
ater ial
ĠU hr
ĠBet rieb
ĠEr n
Ġm ir
Ġ20 20
ffiz iel
is ion
Ġh och
ĠEin satz
Ġersch ien
Ġ2 7
re ak
A C
ers Ã¶n
ge ord
Ġl og
ĠG u
ĠA u
Ġg ing
l ungen
min ister
Sie he
es onder
h eiten
Ġerst mals
ĠSta aten
O Exception
r em
ĠFol ge
w irtschaft
ĠAn fang
.) :
it te
equ als
ne te
ĠA p
Ġd och
Ġst ehen
et ten
Ġin ternational
g n
v alue
Ar ray
IN G
fÃ¼ g
D E
2 4
rit t
rit ten
ĠT or
w ard
ate gor
el te
Ġw Ã¼r
ĠF ir
ĠPar is
n ot
Ġmehr ere
ic s
r et
om in
sch er
ĠB urg
utz t
p or
ĠI ch
a j
Ġ ?
t hrow
l ist
Ġm ich
ograf ie
Ġst ud
ĠI t
Ġsch lieÃŁ
au se
En try
Ġh inter
Ġ199 8
ust r
an c
Ġre ch
le hr
ĠOr g
ĠW irtschaft
ro t
E s
b ack
m b
ograph ie
at ten
Ġ â
l ing
om it
ĠM or
ĠD re
ĠAl t
ĠRah men
ĠD em
ĠK Ã¶l
je ct
Ġp olit
olum n
Ġ2 9
Ġ194 5
ĠK an
ĠY ork
i as
ĠK Ã¼
ri ften
ei sten
Ġk urz
ĠZ entr
setz ung
ĠS il
rÃ¤ ger
i qu
Ġst ark
is se
ĠJahrhundert s
ĠUnivers ity
ĠM eter
ur ation
il t
Ġ18 5
Ġm achen
lo ster
ein ander
Ġw e
re uÃŁ
Ġh istor
ĠRech ts
ĠIn ternational
am b
Ġver st
av on
teil ung
ĠR u
d ie
a ct
ok en
lie b
ĠArb eits
g angen
Ġverwend et
ĠH of
ier ungs
ĠF unktion
ĠJo se
spr Ã¼n
ĠH istor
h ung
Ġaller dings
Ġo bject
s weise
ĠP rÃ¤s
Ġ( !
Ġc a
19 3
kir che
L ie
le ben
Ġs ol
Ġd ah
ob il
ilom eter
B er
ver ein
c ted
h ausen
ĠMann schaft
ĠW ar
I ON
ĠZ iel
an gel
Ġh eut
et r
ond on
ĠSch m
F a
S E
ĠN eben
ĠS itz
Ġ Ã¶sterreich
Ġn ame
ĠSta ats
iss ion
== ==
ger icht
ĠgehÃ¶r te
och ter
ĠWelt krieg
ĠW eg
Ġ add
Deutsch er
4 8
ik el
am mer
ĠD ort
Ġum f
Ġverschieden en
au en
ĠGener al
P erson
ĠE le
ĠC omp
pr Ã¤s
Ġm ax
all en
ĠHam burg
ĠEinwohn er
ĠPart ei
{ @
ĠW ill
ĠBei spiel
n ungen
ĠT ext
ern e
ĠD ienst
ĠLei p
Ġo ft
Ġ Ð
h il
Ã¤m pf
ge f
esonder e
ig it
ĠWebs ite
ĠGra f
4 9
> >
ĠVer walt
oc ol
lich es
at Ã¼r
ne ction
P ar
il le
ĠT re
ĠL auf
eg t
ĠW olf
Ġden n
ĠP aul
Ġr el
Ġ #
ĠĠĠĠ ĠĠ
ĠW inter
ig a
lich t
ĠR hein
ĠGe org
Ġ199 6
uch s
En t
ĠE igen
Ġre quest
or y
F ilm
2 6
ich ter
Ġbe de
ar get
F or
te ger
Ġf and
Ġs etz
um ber
ck er
ĠL ud
d es
t ocol
ĠUS A
stan den
ar a
Ġweiter en
o und
ĠB ad
ĠT our
ĠW or
9 0
Ã ĸ
Ġw eil
ak e
ĠEurop a
ĠG ruppe
Ġw eit
Ġsein es
Mit glied
. âĢľ
ĠR aum
sb esondere
Ġ199 7
w and
ĠMus eum
k au
Res ource
Ã¤t ig
af Ã¼r
Ã¶r d
f Ã¤l
w issenschaft
ĠL eist
ĠMit te
ĠHein rich
Ã ¨
ĠH eil
Ġ198 0
ik ation
u ft
ĠK ont
ĠZ ug
us Ã¤tz
i at
ĠL ondon
ompon ent
al k
om pl
au r
ĠLu ft
ĠProv inz
ĠA mer
la st
2 8
Ġs echs
st elle
du z
ĠSpiel er
ei er
ik en
ĠW ald
ĠB ed
Ġver s
ĠK ais
war z
tt p
ĠG ott
s eite
Ġtr at
ĠG o
ĠI hnen
un kte
ĠEnt wicklung
ĠEn g
ĠS Ã¼
ĠEr z
ĠB eh
Ã¼nd ung
utt g
e e
S h
ĠP reis
ĠB ru
ĠEur o
ĠR ef
amm lung
b el
ĠA ss
l og
s ize
ek tr
sk i
Ġsch wer
Ġein mal
schlieÃŁ end
ĠK ur
ĠAl ter
Ġst and
um e
ob ei
ĠArch ite
wend ung
es ser
pt y
arb eiter
Ġg ilt
Ġf indet
om at
Ġ197 0
Ġeigen en
Ġd irekt
c a
) :
s ych
ĠMich ael
ĠfÃ¼hr te
ĠUn d
E m
w ie
ĠH a
ĠD abei
all s
Ġunter schied
Al s
S ize
Ã¼ gel
Ġk ey
Ġgen annt
ĠS ol
ĠD at
cc ess
sp ro
age ment
Ġf ast
pert ies
urn al
ĠHÃ¶ he
G roup
ĠSte in
âĢ ¦
19 6
ĠT ochter
wei ter
ser ie
ge ber
ik t
Ã¼ck en
Ġ4 0
ĠD en
u ter
ĠP ort
G ibt
ĠF er
Ġbesonder s
trib ute
2 7
Ġ( (
ist ischen
W ir
19 7
lehr er
ĠEr st
Ġl ange
2 9
ĠfÃ¼hr t
l Ã¤nd
lei st
ĠGes ellschaft
ĠK at
Ġjeweil s
ĠPro jekt
ock ey
Ã¤s st
ol oge
reib ung
S er
ĠM Ã¤n
ĠD av
m ed
ĠM Ã¶glich
Ġd avon
] ;
ĠG eh
ĠF eld
ĠEin zel
it u
ten s
Ġab sol
I tem
an a
Ġf rom
ĠEis en
un n
Ġ199 4
O G
ĠT em
Ġ199 5
Ġ199 2
Ġm Ã¼ssen
a ÃŁ
al b
iz in
gen den
ĠE v
z ung
ie gel
ĠVer tr
ol e
ut put
ch es
d s
att ung
ĠA kt
D es
ĠGeb Ã¤ude
Ġw ith
wei s
auf en
g lichen
y le
z ogen
ĠG ast
V al
g s
ĠF rÃ¼
ul d
n ehmen
Ġin stance
stan ts
f ass
I C
f el
ĠKl ein
Ġw obei
ĠF C
Un ivers
ig h
Ã¤t te
Ġt ype
ro s
ĠSt uttg
op pel
ĠGesch Ã¤ft
Ġfolgen den
ĠSchwei zer
19 5
ĠP al
Ġ _
ra un
ĠRe gel
C ode
ĠD on
ĠV ater
Ġc reate
4 6
om as
c y
t her
Ġ199 3
trÃ¤ ge
m Ã¶glich
ĠO bjekt
19 0
Ġarb eitete
I S
r im
Ġw est
anis ation
en gth
Ġ(âĢ ł
sch t
ĠKomm un
Ġal les
ib li
Pro perty
ĠFrank reich
au ch
ĠHol z
ĠC olle
Ġj etzt
---- ----
Ġ20 21
Ġbie tet
4 3
if c
a he
t ler
Ġs ehen
v en
ĠMa x
C lient
ib le
Ġ Ã¤l
Ġn ieder
lich keit
Ġviel en
lig a
an e
Ġw echsel
ĠCh ar
N ot
l et
ĠB ischof
Ġkl ein
ide o
4 7
w Ã¼r
E D
Ġmus ste
ran ken
om e
J ahr
Ġ199 1
A s
k ey
ĠR est
f ter
FuÃŁball spieler
L oc
to String
k tr
u ster
Ġn Ã¤ch
Ġgegr Ã¼ndet
ĠLeip zig
eck e
o ok
zeit ig
ar te
richt ung
Ġstud ierte
ĠGeb iet
im ent
st eil
Ġm eist
Ġm eisten
g ruppe
en glisch
ĠSo zial
pr Ã¤
ĠLud wig
ĠS icher
rei se
in es
w ehr
Ġinner halb
it ten
Ġt Ã¤tig
m od
ĠW ie
ĠPro blem
ĠThe ater
ĠSta at
os oph
S c
ĠP ap
mb H
or ge
ĠMill ionen
ĠN r
ĠA lex
ĠFuÃŁball spieler
' s
Ġan geb
ad a
ĠkÃ¶n n
k o
W ith
Lie fert
uch en
l ungs
Ġauf grund
Ġd an
am a
ĠEr geb
3 5
a ktion
ĠW Ã¤hrend
Ġ196 0
den s
Al l
Ġunser e
i am
l Ã¤uf
al y
geben en
H e
a ir
ĠG old
t lich
gemein de
Ġm Ã¶ch
shall er
y d
Ġ18 0
Ã¼ hl
ĠPro gramm
w agen
ĠB is
ĠPl an
L og
ĠB evÃ¶lker
ĠSch loss
ge st
Ġv al
ĠD o
ĠP ark
ĠInform ationen
b urger
o ot
ĠN ot
l d
a ffen
Ġb lei
ĠW e
Ġins gesamt
Ġl ist
T ext
ĠStra ÃŁe
R ef
ik e
Ġer rich
ĠI OException
Ġ Ã¶ff
Ġf ile
ĠT yp
omm and
ĠKÃ¶l n
w Ã¤r
ĠR el
ĠE t
et ers
Ġw h
ĠK loster
Ġje der
Ġh Ã¤uf
Ġ198 9
Ġ @
it s
ĠA s
teil t
ĠPro zent
res se
av e
ĠS eine
Ġz eigt
Ġd eut
Ã¤r en
j a
Ġp ol
fahr t
E igen
g ar
ĠN utz
Ġl a
Ar gument
sch iff
st ieg
Ġent fern
Ġerfolg te
alt ung
leg al
M ethod
Ġur sprÃ¼n
ĠM ath
Ġkonn ten
Ġgr Ã¼n
ĠStuttg art
Ġ3 1
ĠMar kt
ĠN orden
Ġb reak
os it
Res ult
ĠK Ã¼nstler
ĠH ar
E vent
V ers
un t
Ġ( )
in ation
Mar shaller
3 3
s burg
ges etz
her e
u h
Ġkl eine
b y
deut ung
le ch
ir st
eh l
ĠFrank furt
ĠZwei ten
sten s
Form at
ĠL iteratur
h anden
le y
Ġf l
ĠS ein
Ġschn ell
Ġn Ã¶rd
ĠG mbH
ĠH ann
Ġsich er
ĠW ind
Ġk m
Ã¤n dern
ig inal
Ġunter stÃ¼t
ap pen
ett bew
is p
Ġkl einen
Ġun b
P l
- ,
in ition
ĠU l
Ġges am
ĠB ef
S ystem
F Ã¼r
s itzen
Ġcase Ifc
ĠC or
8 9
Ġle ben
Ġm ein
en te
ĠV ier
Ġl in
ĠM at
Ġit alien
im men
ĠAm t
ĠK ompon
uch e
Ã¼ ler
ĠW ochen
ate d
ĠBer uf
ĠProdu ktion
ĠT ri
Ġd afÃ¼r
ĠK ilometer
w asser
verb and
Ġb y
ĠZ ahl
ak ter
tocol Marshaller
s ystem
ust rie
c ess
ĠD am
ĠM utter
Ġn atÃ¼r
Ġ198 8
ĠPf arr
ĠMart in
und er
j et
ge gen
ĠT el
Ġk n
ĠIn s
ĠL es
N ull
ag es
Ġwechsel te
Ġbis her
ĠR ot
Ġin sbesondere
lau b
arb eiten
n ull
Ġeinz el
< ?
ĠBes itz
stell ungen
Ġo ffen
Ġk ur
ĠVer trag
ĠStra ÃŁen
ec ord
ver kehr
od y
urn ier
ĠSchwei z
ge h
ĠM ehr
ĠK ant
ĠW ieder
fl uss
ĠschlieÃŁ lich
ĠW enn
lo b
kt or
il den
ĠIn stitut
C O
Ġst ar
her r
Ġverschieden e
B au
k unft
pro du
sch lag
spr ach
Ġerreich te
ĠR olle
ver t
gen t
f s
ok ument
P ack
e der
ĠR ev
4 4
ĠOlymp ischen
rei ben
Ġp l
ĠAr ray
Ġo ber
eck en
ĠSch utz
Ġex ist
r Ã¤n
ĠReg ierung
ĠT a
lo ad
Ġunser er
ĠOr ts
ĠChrist ian
. :
ĠReg ie
: //
cri pt
zeu ge
w ay
art s
A P
re p
Ã ľ
ĠF arb
in ner
em at
ĠDeutsch e
ĠS en
ĠM ethode
geb aut
Ġb lieb
ĠF Ã¼hr
O n
Ġd o
op er
ĠAlb um
h as
Ġ as
Ġs og
ĠK in
ĠN o
z Ã¼
ĠD enk
Ġgel ang
č ĊĠĠĠ
ĠC ount
" )
u ild
Ġl Ã¤sst
In ter
ĠBeg inn
ab hÃ¤ng
ot s
Ġgemein sam
er dem
den burg
Ġsow ohl
Ġ194 4
ĠR ichtung
mann schaft
Ġhin aus
ĠAn g
en ce
ĠM il
Ġver such
9 3
az z
ĠBo den
s etzt
an te
ĠDie ser
Ġ Ã¼b
Ã¤ chen
ĠW al
at te
im al
ĠM ap
Ġwo hl
R O
la v
Ġgegen Ã¼ber
it Ã¤ten
eil nehmer
Ġvor handen
M us
icht s
ĠKais er
ĠI de
ĠE p
ĠN Ã¤
adem ie
ĠMar ia
ĠC lass
ĠK unden
ist r
G r
an de
rau ch
O ption
Ġal ten
o x
an ien
Ġk osten
A S
ĠIn nen
Ġw ahr
Ġ198 7
ym b
Ð ¾
Ġz usÃ¤tz
Ã¶ ÃŁe
os sen
ol or
Ġmit tel
Man ager
Ġz ehn
ĠVer kehr
Ã¶s ung
Or t
f re
Ġp aram
ĠSchrift steller
ĠHeim at
ĠM ont
ĠTh omas
ĠE he
ĠHo tel
Ġd i
A G
Ġer klÃ¤r
St and
o den
ge geben
f est
ĠBe deutung
ĠF ile
Ġ198 6
Ġr icht
issen schaften
ĠSel bst
ĠSÃ¼ den
ĠD ruck
Ã¶st lich
ĠS am
re ad
Ġn ord
Ġst r
Ã¼ ter
Ġb ed
w ohl
V or
ĠK ind
ĠHal b
am ens
Ġern eut
Ġlie gen
ĠR ed
Ġwicht ig
Ġd ouble
Ġzwei te
ber ger
if iz
9 9
de b
Param eter
E ine
ol ution
Util s
ĠM aler
ĠF ort
ĠAnd re
Ġd ien
ĠO t
8 5
ĠSal z
ĠP ra
Ġbest en
ĠG est
um m
Ġ up
tr itt
et a
ÃŁ t
iz ei
ger ufen
L and
Ġgeb oren
l as
m m
ev el
eu ch
Univers itÃ¤t
war e
om en
ĠH inter
ĠÃ¼ber nahm
ĠAut or
b es
Ġz eit
Ġ198 4
ĠSt Ã¤d
ĠSt art
Ġ Ã¤
ro p
ĠC he
b ank
Ġh erv
Ġs pr
Ġ195 0
iz ed
Ġ6 0
++ )
ĠEn erg
Ġent stand
ĠIn sel
schaft s
ĠIt alien
ĠW ein
sch ech
Ġgew Ã¤hlt
al z
w eit
Ġd ata
ĠR uss
ĠJ ur
ibli othe
C ount
ĠH el
ĠH in
m ark
eg r
8 6
V on
ĠG ut
Ġerfolg reich
all y
s ub
atur e
te st
T yp
Ġm oder
spiel sweise
im a
eich nung
ĠA ben
Ġwen ig
yn ch
lin gen
Ġf orm
b est
Ġf ort
Ã¼t z
zeich en
t c
Ġl ong
ĠSch ule
ern er
ĠC omm
Ġerrich tet
f an
ing le
Ġ{ @
ĠP ass
is iert
ĠGr en
ĠG ed
ĠZ ur
ĠAn geb
Ġsch Ã¶n
Ġh Ã¶ch
ĠVer l
op p
U T
ĠTh ema
hre ad
on en
Ġn ie
ĉĉ ĉĉ
Ġ197 2
ord nung
ze pt
C H
k n
Ġm ar
z y
3 2
ĠS ex
ĠZw ischen
ag t
ain s
erst Ã¶r
ĠT Ã¼r
In stance
Ġ198 3
fl Ã¤che
inz u
fol gt
stÃ¤nd ig
p art
3 6
3 7
Ġbest ehen
bar en
ĠK reuz
uch te
val id
D ate
schul lehrer
Ġein gesetzt
fl ug
ist ische
ĠEle ktr
re e
bar e
Ġ acht
Er ror
mÃ¤ÃŁ ig
Ġge legen
ĠIntern et
ol ler
Ġinstance of
K l
ĠT on
Eigen schaft
Ġdah er
S eit
ĠL ang
ail le
m Ã¶
ant wort
fÃ¼ l
Ġb in
re v
ĠN or
ri x
ue ck
Ã¤ user
geb Ã¤ude
ĠKl asse
Ġen gl
es e
ĠH au
L o
w rite
an ken
ĠK urz
ĠVer fÃ¼g
ym n
p reis
ern en
in c
ge hen
Ã¼r t
ge m
ĠH ei
ul ar
in dex
ĠAn zahl
h aupt
Ġ org
ĠZ um
Ġgen au
Ġzahl reiche
ut zen
Ġn ahe
u al
ri gen
u el
I ch
Ġf r
Ã¤ch lich
se hen
o h
Ġs ub
Ġm acht
f ile
Ġ Ã¤hn
ĠB ilder
ĠL og
sch eiden
U N
Ġs ollen
ĠGes amt
Ð °
a sch
ĠT ab
Ġ ...
olit ik
k el
Ġ198 5
Ġihn en
ĠKrieg s
ĠO sten
eg ung
W elt
och e
fÃ¼hr er
le ge
Ġm in
ĠB ran
ĠD DR
ĠEr folg
Ġbe vor
T able
er r
ĠfrÃ¼ her
gr ess
ĠRo bert
ĠP osition
gesch lossen
4 2
U p
g Ã¤n
ĠIl legal
( (
Ver ein
o od
la den
ĠO per
Ã¤h len
te gr
Ġbest imm
z ess
or gen
Ġentsp rechen
ĠD om
Ġbes ser
ar ben
ĠG eld
ĠRom an
meister schaft
E S
ĠS im
pr int
ĠH en
ĠverÃ¶ffentlich t
st ehen
ent lichen
l eitung
Con tent
ĠOn line
ĠW issenschaft
get Name
Ġdeut lich
ĠR en
Ġ198 1
le b
Fa ctory
ic an
ĠProf essor
Ġ198 2
ĠArt ikel
tr e
al tet
it or
c reate
Ġges p
ĠT age
Ġeigen e
z immer
ĠO s
ĠAuf lage
Ġhand elt
Ġem pf
Ġm ethod
b eh
Ġst amm
ĠCount y
B uffer
Ã¤n den
Ġbei spielsweise
Ġzw ar
ikan ischen
F A
Ã¼h le
Ġj a
ĠA ir
7 5
ĠPrÃ¤s ident
eh ler
g ra
ĠF ernseh
ĠK Ã¶rper
ĠT est
sp l
EN T
ĠhÃ¤uf ig
3 9
ĠS achsen
ĠK or
ad urch
Ġsie ben
f Ã¼r
Ġ check
ĠB ro
ĠBay ern
ium s
d ig
h am
en ter
an ischen
Ġw oll
ĠN etz
Ġnicht s
ol a
Ġre cht
Ġ197 8
Ġ197 9
* *
Ġs e
Ã¤ ischen
ĠK omp
ĠT o
throw s
ĠBes uch
ol on
sch ung
F l
ĠF rie
ow s
Ġsog ar
Ġpro tocolMarshaller
ĠSch Ã¼ler
Ġre gel
al le
et ail
ak te
N A
ĠR und
Ġwel ches
Ġent standen
itz t
h ang
rei bt
ĠSt u
ichte te
net en
v oll
Ġ Q
f red
ĠE hren
Ġzu dem
Ġlie ÃŁ
ĠF euer
g o
4 1
ĠAuÃŁ erdem
r ist
ĠDre h
iv id
Ġm od
ĠF inal
Ġ197 4
Ġfolgen der
te chn
Ġso gen
n ach
ow er
ĠStud ien
F rau
Ġs h
ĠAn ton
ĠMit glieder
s ie
en a
Ġw elt
Ġehemal igen
L A
ĠH om
U r
r acht
pl ate
ĠSch wer
S e
ungs k
c ont
ge fÃ¼hrt
ist ik
Ġdar unter
ĠWest en
form at
ĠOrt steil
ĠB us
ĠMot or
ĊĠĠĠĠĠĠĠĠĠĠĠĠĠĠĠĠĠĠĠĠĠĠĠĠ ĠĠĠĠĠĠĠĠĠĠĠĠĠĠĠĠ
ĠW el
Ġ197 5
ĠR ich
In put
Con stants
ĠMit arbeiter
Ġstell t
K on
ĠSt ad
Ġwen iger
Ġb ild
Ġheut igen
bl ick
riv at
Ġdan ach
Å į
iv al
ges ellschaft
Ġso zial
eich en
ish ockey
Å ¡
ĠM aterial
ĠK ategor
Ġh Ã¶
ĠV iel
Ġge ben
Ġst art
Ġ197 6
An d
Ã¤t zen
Ð µ
f rei
9 5
ĠAm ts
Ġdam als
ĠS ong
rei te
Ġp ath
st Ã¼ck
an o
ĠB ot
Ġgef unden
ok rat
ĠJo urnal
ĠEn d
ĠStel le
ĠM ilitÃ¤r
yn c
Em pty
7 6
ĠB ur
ĠC arl
m o
Ã¶ tt
te cted
get C
Ġle b
M L
Ġf ield
and id
ĠC om
Ġr uss
ettbew erb
ĠE ing
Ġc urrent
Ġsie he
ĠMed ien
Ã¼s se
Ġin dex
Ġr Ã¶m
geb ung
werk e
Ġ us
Ġ ad
ĠA c
ĠHerz og
3 1
Ġn ational
irekt or
> ();
Ġ197 1
cri ption
ffiziel le
Ġ197 3
ein t
ĠR ud
8 8
ĠH or
op e
ĠP fl
ort h
Ġs omit
ĠD ach
Ã¼r z
ĠMa in
w or
Die se
ĠT rans
ur f
ĠII I
ĠG ruppen
ĠL o
Ġl ag
St atus
ĠZ ust
in i
IN D
an y
ĠP o
denk mal
Ġp ersÃ¶n
ĠErn st
ĠR ein
ynch ron
ĠM er
ei der
ĠMin ister
Deutsch land
ĠM os
ĠG arten
ĠSp iele
tem berg
ĠRech t
ĠwÃ¼r de
Ġi d
ĠgehÃ¶r en
m et
ĠA ward
F ernseh
ĠgrÃ¶ÃŁ ten
U m
ĠT al
Ġbef inden
ĠM Ã¼l
Ġ196 8
ha ft
Ġk lass
ĠHil fe
un ction
ĠE ben
5 5
s eit
T rans
C E
w art
s um
w ind
ĠZ Ã¼r
ĠS and
Pack age
Ġletz te
ĠVerfÃ¼g ung
H och
tr a
br uch
ĠBahn hof
ok al
pl an
Ġ ung
ĠAr ten
ĠP ost
il la
ĠCh em
Ġ197 7
Ġger ade
ĠVerein igten
m ut
it en
ĠK raft
ĠG ar
Ã¤ te
Tra ce
b and
ĠNÃ¤ he
Ġd r
f ried
L e
ĠG i
Ġ193 3
ĠVerwalt ungs
C all
ĠK arriere
re f
ĊĠĠĠĠĠĠĠĠ ĠĠĠĠ
ei ger
Ġ(âĢ ŀ
Ġ( =
get S
gen de
âĢľ )
ĠGeschÃ¤ft s
x is
stru ktur
Ġdef ault
Ġabsol v
Ġmit tler
un ge
Ã¤l fte
G em
Ġer k
ag s
A p
ĠKon z
9 6
w ald
geb ie
fra ge
ĠRei he
an lage
3 8
ĠEr d
ĠJohann es
ĠS on
en e
Ex pression
P er
Ġz og
Ġel ektr
" .
ĠDav id
d a
D at
Ġte chn
ĠS oc
Ġein igen
itz e
al og
il ler
Ã¶ hn
Ġbie ten
ĠBevÃ¶lker ung
st all
ut es
sp rech
ĠK om
ik al
ĠFre und
n am
ĠSie g
Ġgen utzt
schlieÃŁ lich
Ġerw Ã¤hn
ĠF el
pr ess
Ġerreich t
ĠM y
Ġver fÃ¼
Ġ194 3
arb eitet
f Ã¤h
Ġer Ã¶ff
s l
f ord
Ġver sch
ĠSpr ache
lei d
ĠA ber
En d
T h
ier ter
Ġteil weise
k eits
ĠK osten
ĠL age
6 4
č ĊĠĠĠĠĠĠĠĠĠĠĠĠĠĠĠ
c urrent
ĠL au
wei sen
ar ian
Ġzu vor
z z
ĠK auf
ĠEr fahr
C omponent
n ext
Ã¤ch t
b ed
z ehn
Ġ193 9
ymb ol
as il
R el
ach er
u x
af en
Ġd el
ĠD el
Ã¤d ag
ĠD rei
spiel en
Ġ196 7
t ype
W est
ier ungen
t he
Ġgem acht
it i
Ġg ar
pr Ã¼
deck t
it ial
ot z
Ġbet eil
u hr
lie ben
end et
Ã¤t ten
Ġ196 9
ĠBeg riff
Vers ion
as ste
rei fen
ff set
Ġs of
am eister
id th
Ġw issenschaft
c ase
Ġst arb
ĠB or
ymn as
= "
ĠC D
de d
Ġ196 4
Hand ler
F rom
Aus wahl
p ol
ĠP rÃ¤
deb ug
Ġakt iv
P E
ĠUnter stÃ¼t
Å Ĥ
ĠÂ »
st ant
ĠT ro
O per
ĠAn ge
ges ehen
ei en
ĠG leich
sch inen
Ġk ompl
i os
Ġh inzu
d ien
u tet
ibliothe k
A D
b Ã¼
arl ament
me e
Ġc lass
T r
w ir
ĠSt ift
Ġzur ueck
F I
isse ur
geh end
ĠH an
ĠIn n
ivid u
f rau
ĠGr ab
Ġl eicht
T Y
Ã¼ lt
Ã¶ h
Ġge hen
Ã¤u ft
Ġs c
ĠMÃ¤n ner
ik on
Ð ¸
ĠUnter such
zentr um
Ġf re
Ġent hÃ¤lt
ut ton
Ġentfern t
ĠW irk
ĠPhil osoph
Ġw es
enn ung
ĠBru der
ĠS em
ĠS ervice
ĠAl le
arb eitung
v est
ĠF il
Ġres ource
Ġres ponse
Ġi r
Ġc m
Ġe urop
ar en
her ap
ĠBerlin er
Ġgleich en
lo at
Ã §
ro ss
ikan er
c le
ĠA ch
re en
Ġherv or
Ġan t
ĠNach t
ĠMin uten
U L
it al
Ã¶ pf
Ġbei de
Def inition
Ġbest and
9 8
Ġverb unden
ĠF inanz
T oken
list e
b ie
6 5
f ung
ĠfranzÃ¶s ischen
ĠAuÃŁ en
3 4
Ġ reich
oc ument
Ġn ode
iqu e
ien s
ial og
Ġ Å
ĠEl tern
Ġ194 0
Ġpro duz
ĠT ex
rit te
ĠMe er
Ãľ ber
ĠVer anstalt
Ġw ollen
ra kt
ĠRei se
Ġl oc
rie ch
f ield
final e
ĠM el
ĠG eist
ut or
ĠR egen
ĠCh arl
Ġ194 2
ĠVerb indung
Ġb yte
ĠT ier
ĊĠĠĠĠĠĠĠĠĠĠĠĠĠĠĠĠĠĠĠĠĠĠĠĠ ĠĠĠĠĠĠĠĠ
d o
. <
or ie
par k
fol ger
m und
ĠL icht
ĠSie d
St art
ĠNach dem
as en
P art
Ġk amen
c m
Ġz ul
us st
F C
R I
kau ft
ĠFra ge
7 7
tr ue
ĠV al
or a
ĠA G
ag o
ab il
ĠI D
ĠArray List
ĠB ank
Ġ196 5
ĠV o
ĠS in
ĠBas is
eu e
Ġsoll ten
Ġfolgen de
B r
ĠSch Ã¶n
zeich nungen
ĠJose ph
Ġo ut
ĠC ity
ĠWill iam
Ġnach dem
ĠS w
Ġth at
ĠB aden
w esen
ã ĥ
ĠJ e
imm ung
our ces
At tribute
a ction
g liche
ĠD ist
ang s
Ġ193 0
ĠC as
Ġz ie
ĠHer aus
Un ter
ĠPol izei
Ġch ar
ay er
ĠAus bildung
ĠGes etz
us h
zeu gen
ĠT ran
Ġmehr eren
List ener
ier s
itz er
hl et
Ã¼ss el
Mod el
ĠDam it
o in
ĠH all
ĠH Ã¤lfte
gr en
ĠGemein den
jÃ¤hr igen
U ser
Ġer ster
ĠFl uss
ag ue
C ase
st at
ic o
Ċĉĉĉĉ ĉ
ĠnÃ¤ch sten
eld orf
Ġc ont
eil en
ĠOt to
M P
Â ²
u sch
Ġk einen
ĠAuf trag
Ġh e
eh len
str ing
r uf
ann el
Ã¼t zen
Ġwir k
rei ten
Ġje den
Ġd ir
ĠI r
Ġr em
Ġ196 6
L O
re c
ĠB ach
ĠP sych
Ġ19 20
Ġgew esen
ĠMÃ¶glich keit
ww w
ĠFrÃ¼ h
E T
rich ten
ĠC al
Ġstell te
Ã¤t igkeit
l Ã¤ss
z eiten
zeu gt
ĠK opf
ab rik
ĠEnerg ie
Ä ģ
ord in
Ġen g
m el
8 7
ot h
Ġm ed
ĠSt unden
ĠSa int
L ength
b esch
g ten
a un
ann e
f Ã¶r
mar shall
ĠA g
ĠR ang
Ġ scha
an ger
W erk
ĠQu alitÃ¤t
Ã¼rt temberg
s dorf
ĠK ranken
Ġver lie
ĠT op
Ge ographie
Ġentwick elt
ĠD is
ĠVor sitzen
D ec
op y
Ġfol gte
0 5
ĠâĢ ¦
o is
er in
Ġr et
Ġtr ans
âĢ Ŀ
ĠGes und
ĠS tern
ĠRep ublik
Ġam er
hei ra
ĠAr n
land s
ĠHer ren
ud em
Ġ196 3
ĠD oppel
sch riften
ĠS ek
on a
olog ische
ĠPolit ik
ĠD res
ru g
ĠSil ber
Ġver z
ĠW ider
ĠR a
Ġdam al
ĠDies es
ar f
ĠPr ess
Ġsetz te
T eilnehmer
ĠR ock
d i
ĠZÃ¼r ich
Argument Exception
ĠL iga
olog ischen
ĠSer ie
Ã¤ us
ktion en
B IND
z uf
He ader
ĠO p
Ġwh ile
N ext
gel n
Ġ3 5
ĠBr on
M ed
P ol
Sp iel
ĠJ apan
Ġo pt
Ġ196 1
it ch
etz ung
gew iesen
ĠF en
Ġ193 8
Ã¤ um
L ine
ĠK ampf
ende te
Ġge tr
ĠSpiel en
sch uss
Ġbede uten
ĠSe e
ĠauÃŁer dem
Ġspe ziel
ĠHann over
l am
ĠS u
ĠM ad
ĠDes ign
BIND ING
m on
Ġ196 2
ol den
Ġge z
g ien
ck t
ĠMa ÃŁ
Con nection
ĠPol en
on es
ĠW and
Ġauf genommen
ĠÃ¤ uÃŁ
ã ģ
rie ges
ĠRich ard
ĠP e
Ä į
E L
F ilter
wei g
Gem ein
O T
ĠSt il
P age
ĠM ein
ell a
Ġst ate
in ge
an ische
Ġc omp
ĠM c
iv ision
Ã³ n
Ver lag
ĠS ub
Ġ195 2
Ġm achte
ĠS onder
Ġho hen
Ã¤nder t
Ã¼ st
ĠD eb
ĠF Ã¶rder
Ġver tr
tem ent
el ten
] .
ĠA ust
ag n
O L
k ap
sta at
Qu ery
od es
it sch
ra p
ĠÃĸ ff
ie h
Ġt c
Ġsch l
r hein
or te
ĠV ideo
v is
ĠTh emen
Ġwei ÃŁ
ĠS uper
ĠP il
ĠHer mann
Ã¼ss eldorf
not ation
ĠB ek
A ccess
ĠA f
gel Ã¶st
M S
d am
v iew
Ġre ad
Ġpol n
om ot
ĠWor ld
ite d
Ã¤n gen
ĠSt Ã¼ck
ien ten
S pe
ter s
ĠArb eiten
ĠWerk e
h an
Ċ ĊĠĠĠĠĠ
ĠR unde
par tement
ig ungs
Ġer ziel
ĠWolf gang
C omp
l ad
Sp ort
Ch ar
Ġgemein s
Ġeben so
" ;
T rÃ¤ger
ĠW h
Ġer reichen
P r
i j
ĠEr w
la ce
Ġ194 6
ĠSte uer
Ġst ellen
stre cke
ĠAk ademie
hal te
> (
ĠProdu kt
ele te
ĠA ustr
ĠS Ã¤nger
ĠW ahr
Ġd ire
Ġg erne
ĠEr sten
Ġt yp
ĠSt amm
mar kt
ĠStand ard
t um
k rÃ¤
ĠSch warz
H er
ik o
Ġ195 6
Ġm eine
Ġsch rieb
ĠStr ecke
ition s
ĠFir ma
k omm
w irk
ent wicklung
Ġ9 0
Ġn orm
ey er
st art
M et
ub e
Ġ8 0
ĠP op
Ġinter ess
wie gend
kl us
l l
ĠD och
z i
A mer
eh m
Ġbes uchte
inn t
ĠL ou
la ck
Ġ195 4
ĠW ort
ĠErgeb nis
S V
ĠB und
ĠBr and
so zial
Ġer f
Ġge k
Ġne un
o ben
ĠD enn
W enn
ĠB rit
Ġeh er
ĠT eile
Ġan schlieÃŁend
end es
ieren den
ĠkÃ¶nn te
ĠAn der
N ames
Â »
Ġal t
6 6
eh ens
Ã¤d chen
Ġcon fig
Ċ ĊĠĠĠĠĠĠĠĠĠĠĠĠĠĠĠ
Ã¶ sen
ĠForsch ungs
9 7
tern al
Ġin put
A B
Ġd Ã¼r
Ġz entr
hÃ¤lt nis
Ġdar Ã¼ber
ĠVers ion
Ġz eigen
Ã¤ch s
Ġ ap
un ternehmen
um p
S ub
ile d
Ġk ehr
ĠKon tr
f in
ĠS yn
K ir
f il
ĠC ms
ing ungen
Ġ195 9
Ġf alls
ĠfÃ¼hr en
Ġb as
au sch
k ra
z ip
dr ess
N umber
Ġn o
ĠK rit
Ġ );
ft ware
ĠBez eichnung
Ġd ritten
ĠFra gen
ĠursprÃ¼n glich
setz en
prÃ¤s ent
S o
s a
Ġben Ã¶t
ĠP or
ĠK amer
S ON
gr Ã¼n
Ġ195 8
ĠA pp
20 18
Ġj apan
==== ====
Ġver ein
In teger
ĠAlex ander
ĠF uÃŁ
Ġau t
at iven
g y
ĠEr k
8 4
G ener
O utput
ach tet
Ð ½
ei sen
ĠMod ell
und s
Ġsp ielt
A ss
an ad
ĠCh or
sh ip
w egen
Ġ194 9
c ing
Con t
ĠKont akt
Ġl and
fahr er
ĠEisen bahn
Ġs er
S te
Ġw Ã¤re
ĠW alter
Pro perties
Ġson st
ĠStud ium
S I
t schaft
in fo
Ġsel ten
l ar
Ġal te
Ġ7 0
ĠBÃ¼rger meister
ĠBr un
ĠBau m
C hr
G es
_ _
l assen
Pro du
entr y
ei s
ĠPh ys
ĠPart ner
pro tected
k athol
Ġaktu ellen
Ġf ert
ĠVer gleich
ĠP arlament
Ġbet rÃ¤
In ner
M in
i ber
C D
le cht
Ġg ute
ĠÃ¼ber n
ing ton
Im pl
Ġer r
ot te
en ten
ick en
Ñ Ģ
ĠS m
ĠD Ã¼sseldorf
Ġ194 1
st ud
eig ht
M ail
Ġihr es
v el
em b
Â °
Ġv an
l ern
lag er
sp h
eid el
ĠAu gen
ĠP rivat
Ġho he
Ġge d
Ġ194 8
Ġgen er
ir ks
fÃ¶r m
W er
Ġwoll te
U E
Ã¤ gt
Ġ ra
la f
west en
bet rieb
ĠS old
Ġge baut
ĠV oll
ĠKÃ¶nig reich
s itz
ĠF ig
Ġerh Ã¤lt
Ġon line
Ġver f
ĠBl ick
ĠEnt scheid
oc i
ĠGeb urt
Ġg l
ĠAus wahl
d at
t eid
aler ie
Ã¡ n
ĠB raun
ĠL eiter
re quest
ĠZ udem
Ġbeg r
ĊĠĠĠĠĠĠĠĠĠĠĠĠĠĠĠĠĠĠĠĠĠĠĠĠ ĠĠĠĠĠĠĠ
rik a
Ġ ass
Ġspiel en
per atur
Ġen try
ĠR at
ĠB rie
meister schaften
ĠZu ge
H ol
ĠL Ã¤nge
rei sen
Ġl Ã¤nger
Ġent halten
ĠPr inz
ĠUnterstÃ¼t zung
ĠP unkt
ĠUm welt
J o
m ap
ĠGeb ie
ĠZentr um
Ġeinzel nen
9 2
C T
ot al
pl ication
ap e
ens ion
l eiter
Ġer weiter
ĠPfl anzen
ĠGl as
ĠIllegal ArgumentException
Ġtr otz
ĠDan ach
E d
Ġer z
it a
Ġ195 5
ĠAmer ican
ou ver
Ġge pl
D F
S etzt
9 4
k raft
u a
Ġs uper
ĠL Ã¶
eren ce
ĠP ublik
ĠForsch ung
ĠM ess
Ġabsolv ierte
heira tet
ib r
ĠNach bar
ĠAben d
ĠS et
N ew
ã Ĥ
l Ã¶sung
p le
ĠD ef
s berg
en g
ĠP an
Ġbesch Ã¤ft
ĠfranzÃ¶s ischer
Ġn ehmen
ĠDenk mal
mer k
richt ungen
wÃ¼r d
ĠAn gel
mit t
ĠInd ustrie
k i
Ġstamm t
. -
b eg
ĠKategor ie
ĠS ow
Ġ+ =
n eter
Ġunser en
C ms
ĠJ azz
Ġ195 3
Ġm inde
Ġ195 7
Ġc om
Ġj ava
t liche
at tern
ĠD or
V iew
Ġge geben
ist in
Ġehemal ige
ĠPr em
ate in
st att
ĠÃ¤l ter
Ġl o
ĠZeit schrift
ĠJ ust
ĠCl ub
er ror
ĠOr d
ĠSchauspieler in
ĠT im
te ten
ic es
ch ester
ĠB d
ahr en
ĠJ er
ĠNach folger
ĠEng land
8 3
lie gen
Ġwel cher
k reuz
lich keiten
ĠLand tag
y a
ĠC ol
" ))
eu cht
Ġtr ad
w ord
Ĥ ¬
ĠT ruppen
ĠR os
Ġbes itzt
rÃ¤s ent
Config uration
ĠmÃ¶ch te
ĠgrÃ¶ÃŁ te
ĠTag es
Ġminde stens
ĠGr Ã¶ÃŁe
lin ie
ĠverÃ¶ffentlich te
ĠerwÃ¤hn t
0 6
ĠN ik
Ġk athol
ĠLie be
0 1
Ġneu es
Ġw ohn
ĠM ult
ĠL Ã¤nder
amil ie
unk ten
im it
ĠB all
ab r
if ication
rit z
Ġweiter hin
Ġcon text
7 9
ĠT e
ra ph
Ã¤t ter
pf er
ĠIn teger
ĠL eitung
Ġun ver
Ar ch
ĠnatÃ¼r lich
ĠSta ff
Ġp ass
I V
S up
c lient
ĠH essen
Ġp rakt
Ġsel ben
Ġumf asst
C l
ĠSt at
fass ung
Ġz erstÃ¶r
ĠW as
ul a
eh mer
ĠCh ina
Ġar e
olle ction
ĠD ann
Ġm on
ĠR em
d et
ĠâĢ ľ
Ġbe zie
tr aum
and elt
C olumn
ĠW o
Ġ194 7
Ġle dig
amerikan ische
Ġhei ÃŁt
is Empty
Ġinternational en
b ischof
au b
Ġa k
h len
ĠD okument
Ġm essage
Ent ity
Fernseh serie
em ann
k r
âĢ ĺ
Ġer folgt
ĠS ant
al es
ĠMÃ¼l ler
ver walt
f alen
In t
ĠJ ac
Ġev ent
ĠÃ¶sterreich ischer
ĠStr af
i w
form ation
on om
Ġb l
ieren de
ĠLe ague
ĠDres den
Ġf inanz
fall en
r c
ch ar
ĠLin ie
ĠFol gen
ĠLehr er
ra el
Ġ4 5
deut sch
is ierung
ug h
olog y
Ġledig lich
ĠgrÃ¼n dete
Ġver ur
ĠZeit punkt
T em
eich er
Ġeinz ige
au ber
Ġc all
Ġk aum
Ġb ilden
O b
st anz
âĢ ŀ
alif iz
ĠKant on
A X
ĠVerb and
Ġsof ort
d ata
ĠAr mee
ĠAl bert
O S
Ã¼r n
P oint
be ck
Ã¼ ten
ut ure
mus eum
ĠWien er
ĠVer Ã¶ffentlich
hal ts
Ġo ffiziel
Ġ tem
ĠK ern
ĠSt ar
Ad dress
umen te
st eh
oll ar
N ational
au ern
Ġsch loss
ĠStr u
ĠStadt teil
M ax
Z u
st o
ĠSp ez
hal le
ĠHer bst
ĠÂ «
7 2
Ex ec
ĠC amp
Ġo ben
ĠOr gel
Ġj Ã¼n
Ġ5 00
Ġ195 1
ĠIhr en
ĠEx ception
ĠE lement
Ġrech ts
ir m
ĠStr om
Ġbek annte
halt ung
Ġs b
ĠW ol
Ġwirk lich
Ġj Ã¤hr
ĠL OG
ah nen
ĠAb geord
Ġk ennen
F e
h istor
Ġro w
ĠWirtschaft s
Ġk omp
Ġp rÃ¤sent
schein lich
ĠJose f
z og
ĠBest and
d aten
C ON
t p
ass ung
5 6
Ġt arget
w ork
ĠH Ã¶r
ĠIhr er
E X
u ell
ĠM ass
ow ed
F F
ie ben
am in
la w
iden ten
l n
sp ekt
Ġ193 4
ĠR ecord
ĠZu kunft
Ġbrit ischen
ĠW all
ĠL ied
Ã¤hl te
Q L
tr ainer
ma ÃŁ
ĠFen ster
ĠG Ã¶tt
Ġ193 6
ĠTeil nehmer
Ġgesch lossen
Ġunser em
ĠH u
oss ible
ĠJ ean
f unk
ĠO pen
Ch ild
A uch
C he
ĠH igh
rem ove
Ġentwick elte
if ic
v ider
Ġpro f
ĠP reuÃŁ
ĠO ffizielle
k ampf
w ill
Hoch schullehrer
ĠbetrÃ¤ gt
0 3
z a
Ġs ex
ab eth
Ġsie ht
ek te
ĠH um
ĠGr Ã¼ndung
ĠReg ierungs
ĠfrÃ¼ h
mus ik
Ġorg anis
m eld
kir chen
ĠD Ã©
ĠK al
re b
Ġ3 2
<? >
Ġbild et
Ã ¸
ĠKl aus
e ctor
ref ix
b ase
a at
L ink
Ġf iel
il es
Ġneu er
tr ieb
ĠP et
ĠVer such
ĠD isk
ĠB ud
ter ator
0 8
ĠG al
ay s
akt iv
ĠV en
ĠnÃ¶rd lich
7 1
den ten
ĠsÃ¼d lich
Ġev angel
ĠVer wendung
Ã¼ ge
bar keit
g arten
z us
ĠT urm
iz er
ers eits
leich t
i i
Ġ> =
ĠT ur
ĠUn ion
Ġel ement
ĠAndre as
s c
isch em
y th
an lagen
ĠN S
ĠN orm
Ġent spr
ep age
eig net
d k
ĠP unkte
Ġgleich zeitig
egr Ã¼ndet
L evel
Ã¤d t
k an
ĠR itter
ro chen
aut or
ie ÃŁ
ĠB on
ĠW ild
ne y
pro chen
Ġverl oren
n o
br acht
ĠReich s
ĠAr m
. ");
A ction
T ag
m ot
s Ã¤tze
ĠB onn
Ġje de
Ġh as
Ġblei bt
B e
ĠM Ã¤dchen
v o
ĠOr iginal
ĠKompon ist
ĠBez irk
Ġkn app
Ġp rom
ĠAut o
NA ME
k und
Ñ Ĥ
ĠEnt wick
Ġ193 7
f unktion
ĠR h
imm el
m ehr
ĠR od
end ar
get Message
Ġgesam te
Ġs etzt
Ġern annt
trib utes
9 1
ie ur
Ġdes halb
ĠVerein s
k arte
\ "
ff er
Ġre c
ĠUm gebung
ĠRo y
ĠF ern
ĠR Ã¶
ab l
ĠAn schluss
rech ts
Ġo ption
7 3
7 4
T ask
b Ã¼rger
et ern
Ġp art
stra hl
cont ains
T H
Ġb em
o o
ĠJ ak
ĠIn str
ĠFinal e
Ġn ext
Ġst ammen
ĠMÃ¼n ster
r am
x y
Ġbef and
8 2
ĠKir ch
ymnas ium
ir n
Ġhei ra
Ġd at
Ġp h
iff er
ĠSpr ach
v on
Ä «
Ġein ger
ĠF und
all el
ĠAl ler
qu e
ĠIm m
ĠBes onder
S C
ĠRud olf
C om
ĠW oche
ĠfrÃ¼ hen
T ree
Ġbe ein
Ġdar f
ĠD azu
tern ehmer
0 2
P h
Ä ĩ
st Ã¤tte
get R
Ġjed em
at hlet
as p
ĠZusammen arbeit
g ut
ian a
ĠB al
Ġp assen
rid ge
6 3
Ġp r
for schung
zw ischen
ĠfranzÃ¶s ische
Ġver heiratet
Ġmar shall
ĠhÃ¶ her
ĠAb schluss
sh of
ĠH ash
ĠW ehr
As ync
B yte
Ġge stellt
B ahn
p ath
res ource
Ñ ģ
ĠPhil ipp
ĠJ ack
Ġausge zeichnet
Ġbel eg
s es
t d
Ġer war
ĠF ischer
Ġd adurch
Ġer mÃ¶glich
S ource
i or
H el
bau ten
D urch
q l
Ġt ime
u gen
Ġj Ã¼d
ĠMed izin
spr uch
ĠR ob
Ġver kauf
Ã¤n n
ĠSchl acht
ie ger
st attung
ĠTra in
ĠTra iner
Ã¼nd eten
ĠAngeb ot
ent liche
ĠSch lag
Ġgew orden
org ung
ĠHoch schule
ĠS Ã¤
b us
i ol
n ungs
ĠH elm
ĠGer man
yn am
u c
ie ÃŁen
ĠZeit ung
C ache
Ċ Ċĉĉ
ĠT rad
end orf
ĠWei se
ĠAkt iv
ĠG Ã¼n
ĠT urnier
Ã¤n gt
get Value
G B
L ong
Ġ euch
ĠD ek
Ġm Ã¶
Ġh aupt
ire d
Ġwelt weit
eg ment
ĠB ack
mÃ¤ ler
Ġzul etzt
or der
ĠProdu kte
ĠBay er
Ġind ividu
Ur l
0 4
Ġvor her
L egt
Ġ user
Ġs ervice
ĠÃ¤l te
5 8
ter t
An y
Ġange geben
ĠP lay
Ã¼hr en
W eiter
ver fahren
5 3
ict ion
ĠEv angel
0 9
e ct
haf en
ĠJ ung
ran t
b is
Ġh el
icher ung
ĠDi pl
n der
ĠZ immer
ce pt
ĠGe orge
if e
ĠEs sen
Ġzahl reichen
rei he
iel ten
Ġwen ige
Ġp aar
P f
und le
ĠB eim
ĠH art
Ġ193 5
ĠSo uth
ĠQu alif
rep ublik
6 8
v ille
ĠG et
ge legt
ĠVor g
h eb
lau ben
Ġarb eiten
ad ata
Ġ- >
ari able
Ġaktu elle
ĠF e
lie fert
Ġm m
ĠL eg
G egrÃ¼ndet
Ġganz e
Typ es
at ik
ĠT V
ĠL ong
etz en
stell te
ĠMar c
kl asse
ĠColle ction
rei ber
ĠAut om
ĠEinwohn ern
Ġin dem
ĠL ab
6 7
W riter
Ġbr ingen
n itz
ĠK op
ech net
jÃ¤hr ige
ĠOrg anisation
ir ol
ĠRel ig
ĠS onn
hol z
PD F
Ġerschien en
P ort
hil fe
wissenschaft ler
ĠGren ze
ĠR ennen
D a
ĠT ode
zeich nis
g ibt
0 7
ĠR and
ĠAn n
les en
V erk
k unde
ĠE ich
Ġ19 18
Ġex ec
bez irk
Ċ ĠĠ
Ġeigen tlich
m esser
an walt
ĠEm pf
5 1
5 9
Ġo ther
Ġkehr te
ut her
ishockey spieler
D ire
at ers
Ġall ein
O ber
rau cht
By tes
ĠCh amp
alif orn
ĠD ep
ĠE U
ommer ce
M B
g arn
Ġbek ommen
ĠEx per
ĠGer icht
ĠUnternehmen s
Ġpolit ischen
sen d
Ã¼ cht
Ġh Ã¤tte
par ator
R ep
ro ffen
Ġk rit
Ġbeg innt
Ã¼ ch
Ġ192 8
ĠSchm id
6 2
un e
ĠAn lage
Ġwir tschaft
ĠWeiter e
Ġtrad ition
M ill
Ġein f
Con tr
ĠzusÃ¤tz lich
or gt
is c
ach ts
ver tr
Ã¤dag og
Ġ text
ĠFot os
Ġf ind
ĠH eidel
Ġh alten
im eter
S ession
T ER
ĠAl ten
lo c
ĠHal le
ĠFahr zeug
st ate
Ã¼ gen
ĊĠĠĠĠĠĠĠĠ ĠĠĠĠĠ
Ġg riech
Ġverur teilt
M on
Ġh ab
ĠAus gabe
gemein schaft
Ġp osit
6 1
ĠG Ã¤
ag d
if ier
Ġdef in
Ġs ource
Ð¾ Ð
Ġh ttp
Ġblei ben
ez e
fl Ã¤chen
! !
ĠN ur
d in
Ġd est
ĠVer kauf
Ġst Ã¤r
p oint
Ġi de
ĠS zen
ĠF ehler
Ġ19 19
ĠAn gaben
T R
ĠStÃ¤d te
r unde
itu ation
ĠDÃ© partement
Ġb ald
ĠMus ic
ĠS ach
ĠN icht
iz ation
west lich
t lichen
Ã¤ ger
Ġaus schlieÃŁlich
O P
ĠSch ool
je kte
Ġn immt
Ã¶l f
Tra cing
ĠWei hn
O bjekt
ĠM iss
ĠT om
tr em
ĠJ ames
ĠS V
ra w
ri ffen
ri ck
() ))
lo sen
ĠMen sch
Ã¼h len
er ei
ĠFot o
B lock
C o
auf trag
ĠGr and
' t
ro und
Ġall gemein
Ġben annt
Ġ193 1
ĠS atz
Ġh ol
Ġk aufen
Ġver k
Ġjed es
M eter
neh m
5 7
Ġs od
Ġer setzt
ĠBr emen
Ġbede utet
N eu
ĠR enn
Ġ192 9
Ġdien te
herap ie
Ġdamal igen
Ġgesam ten
ur a
ag te
gew icht
ret Ã¤r
Ãĸ sterreich
ĠF Ã¤l
Ġun mittel
Ġwer de
ĠLeist ung
| }
ĠL ok
ĠB ab
le ger
sp art
aly se
z ub
haus es
Ċĉĉĉĉ ĉĉ
ĠBran denburg
b ek
ĠAn na
ĠFl or
ĠSc ien
Ã¼ ste
Ġre st
ĠAuf gaben
inde st
an ischer
ĠA uff
Ġf anden
ĠW agen
ann ot
lin ge
ĠEin fluss
ei ge
Ġgen ommen
()) );
ĠBild ung
en sch
Ġm ap
mittel t
u elle
m p
ĠS uche
sch ine
ĠP fer
ĠO ption
Ref erence
5 4
W Ã¼rttemberg
rei tet
ff ekt
ĠMon ate
6 9
st u
ĠP rÃ¼
ser e
ĠÃ¶ff entlichen
ĠK omb
ond s
etail s
K ultur
s Ã¤chlich
z ahlen
at ter
ht tp
Ã¼r k
Ġl ast
orf en
Ġnot wend
E Object
j o
ĠSch les
spr ache
ĠSt ock
I P
n amen
Ġaus gew
-------- --------
at ung
z Ã¤hl
Ċ ĠĠĠĠ
ĠD Ã¶r
and lung
op s
Ġ193 2
unt ime
Ġ19 00
stell ten
5 2
c omp
g ie
Ã¼r gen
wei le
ĠBei trag
ĠK lass
8 1
Ġun abhÃ¤ng
I L
Ġp rÃ¤
Ġjeweil igen
ĠGott es
Ġup date
p unkte
Ġdurch gefÃ¼hrt
ĠHand el
ĠAn schlieÃŁend
ks am
m atch
w echsel
Ġw rite
Ġs ize
Ġ19 14
ĠZ ei
ĠZusammen hang
un ion
Ġzw eit
Re ader
ĠVerkehr s
Amer ikaner
O D
Ġm ark
ĠK u
ĠI V
ĠC an
ĠZ uf
ĠStr eit
Ġheira tete
Ġer forder
ĠVerwalt ung
J ob
ie gen
ĠS onnen
serv ice
b rit
ĠC a
ist ent
Ġent scheiden
Ġex ten
w urf
ĠK olle
Ġtr Ã¤gt
ĠFÃ¼r st
Ġb au
ĠMus iker
R ule
T er
Ġbet r
ĠM oder
ĠN Ã¼rn
ĠBen utz
R o
b ef
ĠFl Ã¤che
ĠStru ktur
E urop
ĠTechn ik
iv il
Val ues
Ġc an
ick t
wer ks
Ġ192 5
Ġ rei
Im age
ĠW erner
Ã¤hr t
Ġricht ig
ĠB a
Ã¤s ser
g a
i ar
ĠS ib
ĠD ir
ma x
ĠColle ge
1 00
Ġw or
ĠC entr
UR L
ĠP aar
ĠL eicht
ĠSp anien
Ġf unktion
Ġr ule
ĠFarb e
ri b
prÃ¤s ident
f a
K arriere
ĠSch ne
ĠBau ern
Ã¼n ft
Ġkosten los
Ġ ed
Ġver d
ock en
ĠTh Ã¼r
ĠunterstÃ¼t zt
l eit
Ġbest Ã¤t
ĠGroÃŁ en
leg ung
R uft
ĠJ es
ĠChar akter
pf el
Ġnieder lÃ¤nd
eb ug
N ieder
c up
z ur
in put
am s
ĠK ab
ĠspÃ¤ter en
Ġi dent
Or der
Ġqu alifiz
B C
ĠBl ut
ĠFamilien name
ĠSicher heit
ĠerÃ¶ff net
ĠEl is
Ġzun ehmen
Ã¼ m
Ġle bt
Ġsei en
Tracing Enabled
ĠN amens
ehens wÃ¼rd
Ġb ein
low ak
W Ã¤hrend
eth oden
ĠVol k
wÃ¤r ts
Gemein de
z te
ĠL ager
Ġkl einer
ĠB Ã¶
is Any
Ġehemal iger
ĠRad io
ĠKin dern
Ġbeteil igt
Ġver br
Ġl angen
amerikan ischen
Ġbr achte
alis ierung
M e
og le
l Ã¤nder
par se
ĠHom epage
ĠLou is
verwalt ung
h or
Ġf in
Ġf irst
l ong
ĠNutz ung
techn ik
f ace
Ġ3 00
ha ber
Ċ ĠĊ
Ġp reuÃŁ
ĠD irektor
ĠG attung
.. ..
ĠVier tel
R ec
g ruppen
ien en
vers ion
i Äĩ
Ġn utzen
ĠK as
E l
ĠB il
ĠMa schinen
T P
Jahr hundert
Ġsod ass
isAny TracingEnabled
I t
ĠS icht
ĠL im
pl y
Ġaktu ell
Ġge prÃ¤
B ase
le hn
spr ung
ĠD igit
ĠT enn
ĠN orth
ĠUr s
forder ungen
h Ã¤user
w in
in sel
ĊĠĠĠĠĠĠĠĠ ĠĠĠĠĠĠ
Ġl eich
ĠDreh buch
Ġ ag
ĠB ig
Ġregel mÃ¤ÃŁig
pro gramm
ĠP rie
ĠW ander
Ġl ine
ĠSt ate
ab ase
stand s
Ġbrit ischer
h le
ĠK ammer
Ġt Ã¤
TY PE
r ats
Ġ eb
ĠgroÃŁ er
ĠNatur schutz
st Ã¤nde
ir g
ikan ische
ĠCharl es
K E
ĠC up
scha fter
Ã© r
bje kte
ett ings
ĠDan iel
st Ã¤r
ĠM erk
Ġkl ar
Ġlin ks
ic y
B l
b ung
l v
an ia
uf e
um Ã¤n
Ã¼n dete
č ĊĠĠĠĠĠ
ĠSt ahl
Ġentsp rech
ĠStaff el
Service Response
ĠF ak
ĠIn ner
Ser ver
st il
it ts
ĠK up
ĠBez irks
ehenswÃ¼rd igkeiten
ĠArchite ktur
ĠL ink
ri ge
Ġschw ed
Ġverm ut
n ern
ĠG ran
ĠâĢ ļ
ass el
ĠT at
ul en
\ \
c lose
w al
ind ungen
Ġumf assen
ch em
Ġber eit
Ġs w
ver l
ĠReg isseur
Un it
ĊĠĠĠĠĠĠĠĠĠĠĠĠ ĉ
un sch
ĠVertr eter
N eben
ĠB eck
ig i
Ġges etzt
Ã¤uf er
ĠVer br
ĠArb eiter
all owed
ĠB ill
u de
au st
ur y
Ġ192 7
b as
is on
ĠMa inz
ĠFir men
ĠW es
Ġver kauft
stÃ¤nd ige
ar kt
Ġ1 000
Ġf a
ĠH y
Ġmus sten
on ik
Ġbesch rieben
V AL
lau bt
ĠPat ienten
ĠHerr schaft
sub string
ar tet
Ġge fÃ¼hrt
Ġg uten
Ġgel ten
c is
M ethode
W ie
ge d
ĠGegen satz
sp ann
Ġander er
Ġpolit ische
Å «
ĠIn stit
Ġbet rieben
ĠVorsitzen der
H ier
eich ert
G er
wei te
ur ity
re h
Ġh Ã¶r
zeich nete
Z ur
p ossible
om ent
ĠverfÃ¼ gt
ĠL Ã¤ndern
Ġvoll stÃ¤ndig
Al b
setz ungen
ĠWer te
Ġst ieg
Ġvermut lich
g ab
mittel n
ĠS up
ĠU N
par e
mal e
Loc al
w o
ra te
Ġc l
in ts
on ie
A M
M atch
k ur
Ġdar an
wert ung
lÃ¤uf er
F ol
p ed
ĠB arb
Ġin tegr
ĠDar stellung
ĠZust and
r ig
bau m
Ġreg ion
. "
P osition
an i
ĠRo sen
ĠChrist oph
Ġd ich
Ġan s
ink el
ĠRuss land
O l
ĠT schech
ĠL ive
ĠU p
ĠLand wirtschaft
Ġerh eb
con fig
B undes
ĠW issen
ĠMa il
w issenschaften
ĠS ar
ĠT agen
Ġgesch rieben
for men
Ġ192 4
rot z
B ean
n ess
ra f
Ġd unk
ĠJu den
Ġerziel te
ĠS ign
ĠG Ã¼ter
ĠGr enz
on y
Ġver treten
ĠErgeb nisse
AT ION
ĠW etter
Ġl aut
id a
ay out
Ġlog ger
Ġd igit
ĠB ra
age gen
schau spieler
ĠÃ¼bern ommen
gel assen
h auer
ĠM ik
ĠN ummer
Ġ} );
Ġzw Ã¶lf
red it
d ar
bl att
c ar
ĠS ec
Ġangeb oten
ĠO ff
ĠAn teil
az in
Def ault
I s
sp rÃ¼
ĠBr Ã¼
ĠProblem e
se x
Ġtr agen
Ã¤l lt
ĠerklÃ¤r t
Ġm einer
Ġz eig
Ġver gleich
D ir
S P
f ort
iel le
ĠAb st
St ore
Ġ4 00
Ġp ort
Ã¼t zt
Option s
ĠT Ã¤tigkeit
ĠW affen
om et
II I
ĠSold aten
ĠN av
Ġgew innen
Ġ* /
Ġexten ds
R ad
Ġ Ã¶stlich
ĠIs land
er er
sch m
Ġw ww
Ġh al
erk unft
isp lay
Ġhaupt sÃ¤chlich
ĠH off
ĠHaupt stadt
ĠP la
ĠQu ellen
Ġverl or
Ġbeleg te
Ġ ;
ĠOrg anis
ĠPhilosoph ie
] ,
ĠO ffiz
ĠL os
Ġweiter er
reu en
Ġwichtig sten
Spe c
ĠGÃ¶tt ingen
ĠJ os
ĠKarl s
ie fer
ĠB u
ĠH arr
Ġge bracht
Ã¤n e
zeich nung
ĠBo x
ĠTrad ition
h emal
ĠPra xis
n ummer
enz t
Ġsol che
ĠA v
ĠR ek
ist isch
ĠFrei burg
UL T
ĠJak ob
brit ann
ĠS ter
et ing
Ã¶ nen
re am
s m
Ġt un
od or
ĠGl Ã¼ck
Ġrel ativ
ĠFÃ¼hr ung
C ollection
b yte
ĠF ernse
eil t
ib el
ĠNational sozial
ĠG ru
ed t
ĠHeil igen
sel ben
app ing
hol t
r el
r ing
rei g
Ġwest lich
S Ã¼d
Ġt ats
ust om
Ġfol gt
ĠS ingle
ĠM acht
ul ation
ĠPro zess
Ġsogen annten
ĠP a
ĠVor der
Ġbel ieb
zie hen
ĠComp uter
ĠK olon
Ġgleich nam
ĠS amm
Ġb uffer
Ġh ave
an geb
Ar t
ouver ne
S U
ĠH oll
Ġer inn
ĠAb s
AT E
Ġwicht ige
Ġm atch
ot o
ĠStu denten
d essen
u he
er o
wind igkeit
M ark
ĠK er
if y
h agen
or ten
Ġs ah
Ġpar ent
ĠTel ef
Cont ainer
Ġ19 10
ed ia
Ġent st
Ġwieder um
g ing
an isch
ĠT urn
re st
ĠL Ã¼
ig keits
ĠAus stellung
fol gen
ĠInter esse
ĠmÃ¶ch ten
print ln
Ã ´
an el
ĠS ing
ber n
ad o
b uild
cc ount
ĠG it
ver lag
rik t
c as
d as
w en
Ġg Ã¼nst
Ġstatt f
gef Ã¤hr
Ġ1 20
v ier
de f
il dete
ĠMittel alter
H ttp
Ġi tem
ĠF in
In s
s achsen
ad el
Ġd ient
ĠSch war
lie fer
Trace Component
Ġentsprech end
S ec
on ym
Ġ192 1
vent ion
d el
An notation
Ġ192 3
Ġsch warz
io us
D ep
p ack
sb ach
T E
Ġl au
ver trag
Ġbest e
Ġdar in
ĠFried hof
L abel
ĠG re
ĠG ust
ige m
gang s
ĠM as
ĠG ot
ĠW echsel
ĠSo ftware
ĠJ SON
Ġitalien ischer
h i
ï ¿
Ġs ynchron
Ġj unge
mit glied
schl Ã¤
Ã¶rder t
h och
er te
wer te
y pen
ĠR ec
Ġl ength
Ġfert ig
Ã ¢
ĠR ichter
Ã¼n der
Ġ192 6
ĠMath emat
p ace
Ġein st
ĠSoc iet
Werk e
ĠMa c
ichte ten
lei tet
fer enz
G et
Ġv Ã¶l
ĠW ies
Ġver antwort
Lo ader
ĠRoy al
ĠW ach
ĠW ettbewerb
ĠI st
Ġk anad
ĠBer eits
Ġh inger
ct iv
P olit
f rie
r and
ĠR iver
um er
ĠEin fÃ¼hrung
ĠPf lege
Ġh ielt
ĠFest ival
klÃ¤r ung
Bau werk
ĠHau p
ĠArch iv
t itel
ĠD amen
Ġk or
ĠVer fahren
Verein igte
ĠD ro
ï¿ ½
A pp
S ele
um pf
ĠBÃ¼ cher
Ġaut omat
d urch
ĠIn vest
ĠMa ster
o sen
ĠZ eichen
Ġver lieÃŁ
ĠHand els
ĠS at
ĠGew inn
stru ktion
u id
Con stra
ĠKap elle
own load
ĠElis abeth
Ġer ror
ĠN ic
Ġbe an
Or g
ĠM ur
ĠM ol
ĠK arten
ĠH und
lav ier
ĠSpez ial
al a
ĠT ype
ad rat
ĠStand ort
ĠHeidel berg
z lich
Ġd iver
ĠF arben
Ġan zu
ges p
Ġ< =
ĠBesch reibung
ĠRecord s
S a
ĠS ammlung
Ġder zeit
Ġw ider
Ġver pf
gebie te
ĠGeburt stag
n etz
ĠD ivision
Ġge bild
Ġj ungen
Ġhistor ischen
re a
Ġtr e
denk mÃ¤ler
Verk ehr
ĠH eute
ĠR Ã¤
tel l
Ã© e
er es
Ġun ten
ĠString Builder
ash ington
ĠHinter grund
Â «
tr Ã¤t
ĠN a
Ġent lang
ĠNeu e
ĠB lack
anz e
ĠDat ei
Ġunterschied lichen
K reis
ĠGel Ã¤nde
Ġval id
m at
ĠAr zt
ĠSchul en
B and
ĠM ex
ent al
ĠC ast
ĠZ eich
ĠVer teid
ri a
ess el
Ġum fang
vers ammlung
ĠÃľ berg
ĠGrund lage
ĠKomm and
st ift
ĠDeutsch er
Ġbet rug
ĠWebs eite
L S
N r
ĠE vent
le d
lin ik
ĠSp Ã¤ter
Ġent deckt
ĠLand schaft
sie he
krÃ¤ fte
st rÃ¤ger
ĠY ou
ĠBew egung
ehr t
geb racht
ĠSchw e
ĠM and
ĠAn wendung
if ied
geb nisse
ĠMeister schaft
Ġunb ek
b a
y t
Ġf uer
Ġhinger ichtet
r is
in ar
Ã¼ hm
ĠV is
sp ar
ist ry
sh eim
Ber lin
ĠUn ited
Ġbest immt
N o
Ġd ur
ah er
ĠSte fan
Ġar ch
s ein
ĠS S
Ã¤ den
dr Ã¼ck
m acht
o us
ĠL ieb
Ġr ein
Aus zeichnungen
ĠRev olution
ĠSin ne
Ġd ec
Ġwen igen
Ġqu ery
ĠS Ã¶
Ġgew onnen
reg ierung
alis iert
cript or
ĠAuf stieg
Ġverl assen
ĠÃĦ nder
Input Stream
ĠM Ã¶
ĠO pfer
ĠSchw ester
or et
ĠM un
Ġin form
ver anstalt
ĠDar Ã¼ber
Val id
ã Ģ
Ã¶r den
Ġle gte
ĠPerson al
Ġverl Ã¤uft
ĠBl Ã¼ten
we der
Ġpar se
Ġdarauf hin
B esch
or ia
ken nen
ĠAd olf
ip s
Up date
ĠK a
Ġc ount
F r
f alse
ĠEp is
ĠS l
Ġn ied
ĠV om
h ungs
in ce
Ġh Ã¤lt
Ġt able
Ġo utput
Ġaus ger
omm un
Ġch ild
deut schen
Oper ation
P S
T hread
ge g
Ġs uchen
Ã¼ck sicht
ĠĊĠĊ ĠĊ
Bo x
Ġbestimm ten
Ġc olumn
ĠBr em
Ġunmittel bar
n ational
Ġst ets
Ġst aat
M ode
ĠV ide
ir d
bo gen
( '
ĠE lem
ut il
lin ien
G ER
el ement
ĠH aut
Sch wei
Ġar gument
oper ation
ĠÃ ī
ĠAus s
A uth
D I
S k
j ava
n ode
ĠK rank
ĠÃ¼ber wiegend
ĠÃĸ l
ĠSicher heits
ĠF ritz
ĠÃĦ r
T V
t ml
ĠF ac
and t
Ġl ok
West falen
h el
P reis
ĠS uch
ist e
iter ator
ĠKr im
v m
ĠG lock
ĠJ ob
Ã Ħ
st ern
au d
F unction
at is
is D
ĠT iere
Nach dem
zip lin
ĠSow jet
britann ien
20 17
Ġeurop Ã¤ischen
B A
de st
der s
ĠL ig
ĠC re
f ur
Ġsch war
ĠBei trÃ¤ge
echs eln
gangen en
Ġkompl ett
L ock
ĠG all
ĠAuf gabe
ĠRef orm
R ecord
Ġ Ã¶
Ġg anzen
if ik
ĠKrit ik
Ġprom ov
k osten
ĠAl fred
Ġausge stat
E hemal
ĠSt atus
deck en
Ä ±
Ċĉ ĠĠĠ
erv let
Ġfol gten
Ġerst es
Ġeng ag
ĠP resse
ĠU ser
minister ium
wÃ¤r t
A ug
k or
ok e
Ġeinge stellt
ĠR is
pl ic
ĠGr Ã¤
ball spieler
ier re
leist ungen
ĠAng riff
Ġ{ }
Ġarb eitet
e ar
f abrik
ĠP aram
200 7
z ul
Ġleb te
sp ir
end a
ĠMann schaften
D P
p osition
u gend
Ġm ilitÃ¤r
ĠK ey
O ffset
gen er
get Class
la zz
ick s
ĠPort ug
ir l
gr Ã¶ÃŁ
ĠauÃŁer halb
l ant
In d
Ġet c
Ã¤ st
Ã¤ ische
ĠG ro
Ġre p
Ã© s
Ġlie fert
med aille
Ġmittel s
Ġloc al
ĠA str
Ġo per
Ġpro perty
Ġent stehen
Ġausge tragen
el and
ĠP rom
ĠL ex
ach im
ĠV ort
ĠNach richten
ĠBes atz
B is
im ension
Ġtr an
Ã¤nd ig
Ġar gs
ei ben
ĠD ampf
ĠK enn
ĠAc adem
Ġer baut
ul ts
ĠSt immen
pf licht
Ġ192 2
ĠTod es
ĠÃĸff entlich
ĠzerstÃ¶r t
g ern
ĠL eit
ab les
eim ar
ĠSpiel zeit
schul en
c r
akt or
ĠB lock
ĠGer hard
ĠTran sport
v olle
au x
ĠwÃ¼r den
an en
Ġd Ã¤n
ĠK iel
Ã¼hr ung
Ã¤nd ler
R ow
ĠA ktion
Ġbr eit
stoff e
au p
ig ungen
is Entry
ĠVer halten
fass ungs
Ã ±
ĠG rie
ĠOrt schaft
ĠInform ation
D en
ĠE ss
iel len
ick er
isEntry Enabled
H ash
c ed
Ġw uchs
Ġin zwischen
St yle
ĠBas el
Mus ik
f ilter
y er
st euer
ubl iz
amer ika
d ouble
ĠB rau
Ġ19 12
ir che
Ġ3 6
ĠMÃ¶glich keiten
ĠSchmid t
ĠSociet y
Ġer l
j or
Ġch ines
ĠsÃ¼d lichen
ard inal
ĠAll gemein
B oolean
T I
d t
Ã ½
20 11
ĠGeh eim
ĠEn gel
Ã¶st lichen
Ġver fÃ¼g
weg s
ĠFlug hafen
ard s
ĠAut oren
arch iv
fr ist
ĠSalz burg
ĠWider stand
w ood
z ern
Ġd agegen
pr et
Param s
Call back
ĠNÃ¼rn berg
ber eitung
ĠSie ger
ĠAller dings
ĠSonn tag
Ġm ag
R L
Ġer fÃ¼l
Ġaus geb
ue ber
ĠHer steller
Pro vider
glie dern
Ġâ Ĥ¬
leist ung
ĠStift ung
Ġein gesch
ĠOr te
ĠW issenschaften
se k
Ġunter such
fra gen
ĠStel len
Ġleb ten
m t
ĠT her
Ġge halten
Ġauf gerufen
ĠAuf bau
ĠermÃ¶glich t
z un
Ã £
ĠC ap
gn ore
et work
gew Ã¶hn
Ġd ritte
Ġw issen
ot a
ohn er
ont in
ĠKomm ent
ĠInter view
Ġir gend
c i
r ess
ĠS end
get D
rie be
St adt
Al le
Ġbrit ische
Par ent
gent in
c ol
Ġg roup
ĠKÃ¶nig s
w ander
ur es
at o
Ġs agte
ĠH ause
lob al
Ġentspr icht
ĠZ eiten
bo x
G roÃŁ
T echn
ĠW eil
ak er
Ġbet re
ĠgrÃ¶ÃŁ ere
ĠDar m
Ġwahr scheinlich
d f
Ġf lieÃŁ
il len
Ġ15 0
UR I
Ġinternational e
oci ation
ud es
ill on
] );
ĠR icht
ĠBrie f
ĠK ult
ĠK ron
ĠF isch
Ġ3 8
kon om
ĠLeist ungs
f Ã¤lt
ist enz
O ut
ĠG roup
Ġ3 3
ĠE reig
ĠW ashington
il en
ĠDaten bank
Ġge gebenen
Ġbesonder e
L OG
ch mal
ĠD ate
ĠSt off
ieh ungen
us ion
ĠEin trag
ĠÃ¶sterreich ischen
ĠD Ã¤n
ver stÃ¤nd
ess ages
ĠIde en
ĠÃ¤hn lich
ĠP orn
Ġ19 13
Ã¼r en
Ġbe endete
ĠS C
em pl
ied lung
ĠE g
ĠT isch
Ġst yle
Ġgesch affen
R oot
b orn
t a
ĠI f
H istor
ĠM ount
ir ge
ĠO ut
ĠHÃ¶ hen
ĠDem okrat
ĠMat th
Ġhel fen
ĠV arian
Qu ellen
ie hung
Ã¤ her
ĠdÃ¼r fen
c er
ge fÃ¼
Ġz Ã¤hlen
Ġo ff
av en
teil en
p os
au th
ĠVer lauf
ĠAuf nahme
ĠTem peratur
ĠT ime
ĠGes pr
ĠV ict
ĠAuf grund
F rank
t or
leg te
ĠT ore
ĠL oc
Ã¶r de
Ġproduz iert
T arget
k lass
ĠVer m
ĠPro te
ĠÃ Ĺ
ĠBez ug
ĠSchau spiel
ĠG alerie
Ġverpf lich
lie der
19 45
Ġversuch t
k ultur
st echn
ĠhÃ¶ch sten
Ġl ock
Er baut
ask et
ĠPrie ster
R A
U M
W ei
g u
ĠB ist
Client Exception
ĠH ab
D e
g au
Ġs k
ĠFahr zeuge
fra struktur
ĠB yte
St ack
gemein den
omb in
fan ter
l uss
z in
Ġz eich
ĠT ar
rech te
ĠPap st
er be
Ġw eg
ĠMet all
ĠEntscheid ung
B ild
G ruppe
Z eit
m ord
Ġ ter
es h
ĠS n
ĠF eder
ĠH ir
gem eine
ĠE st
Ġ3 4
ĠBern hard
ĠF a
tr ans
ĠVer Ã¤nder
ĠZentr al
Che ck
i od
ĠA ud
ĠM Ã¤r
ert ung
Ġa v
ĠAb t
ĠFr ont
olum b
ĠLeist ungen
R em
Ġg alt
P RO
ĠSch riften
equ ence
Ġcon tent
N O
an er
Ġwei b
ĠKn oten
N S
20 15
tr at
Ġsow jet
ĠHein z
Ġweit gehend
Å Ļ
Ġvor bei
Ġges ehen
reg ion
Ġkomm un
mÃ¶ gen
Hel per
or weg
ĠK os
ĠH ard
ist ischer
Ã¤ng nis
Ġspe c
L in
ĠM em
ra k
ev ent
ĠBr asil
Ġerh Ã¶
ĠRÃ¼ck en
din and
p hen
Ġval ues
ĠZ ul
ot ten
Ã¶r ter
ĠSer ver
In valid
Ã¤hn ung
Ġsetz en
c el
d ach
ĠG as
is ierte
ĠW a
Ġt op
ĠZ eu
trÃ¤ ger
ĠSchwe den
V is
ĠD E
il a
end s
fig ur
ĠO bjekte
I dent
o ks
ä ¸
Ġer fahren
Ġher r
ĠWei ÃŁ
por ted
eit ag
omm ern
ĠgehÃ¶r ten
ĠArchite kt
k ung
ĠLu x
ĠMan agement
Ġmus ikal
Z um
r t
it le
Ġm o
ĠK och
ĠP au
Ġzu gleich
k g
ĠD ank
ennt nis
Ġausgestat tet
c od
ĠT hr
Ġk ultur
ĠSch laf
att form
ĠKon fl
W arn
ten d
ĠR eb
f amilie
20 13
stre am
H ost
o ffen
st ab
em ark
il ian
ĠFran cis
List e
zu stellen
w es
ler s
20 14
br Ã¼cke
az on
ĠRech te
z ust
and a
im me
ĠMar ine
oun ter
ĠBeruf s
Ġamer ikanischen
L I
W idth
Ġ Ä
sch auer
Ġh eil
ĠLauf e
ĠvÃ¶l lig
ĠS PD
it ur
ĠK urt
ĠE hr
Ġer gÃ¤n
ant as
ĠEd ition
Ġverlie hen
ĠS ituation
ar ischen
Ġs icht
Ġob wohl
ĠKonz ert
ĠGesund heits
A utor
k opf
ĠWirk ung
sch weig
ĠB row
ĠStud io
At om
g Ã¼lt
č ĊĠĠĠĠĠĠĠĠĠĠĠĠĠĠĠĠĠĠĠ
ĠM i
ĠMen ge
ĠFak ult
D ist
20 10
Ġgen annten
čĊĉĉ ĉĉ
Ġstar tete
< >();
V ER
ig r
ĠErz bischof
ĠLe on
ĠChe f
F irst
c essor
ĠS dk
ĠK andid
ĠOr dens
Ġbek annten
un a
Ġz Ã¤hlt
ĠZ ahn
Ġbe ob
rech er
ĠZ us
ri or
ĠKon zept
200 9
Ġgesp ielt
ĠBesuch er
Ġp riv
ĠAb teilung
ĠRe al
5 00
S G
ĠW unsch
Ã¶ ss
Ġp sych
20 12
Ġweiter es
Loc ation
ĠunterstÃ¼t zen
ĠK lavier
ot ion
ĠBei de
P re
b ad
ĠVer d
ĠFl Ã¼gel
ĠMon at
Ã£ o
B est
b i
v a
ar ray
arb urg
B utton
F uture
H T
sch te
iert es
ĠAus druck
Ã© n
org anisation
ĠSied lung
ĠIn gen
ĠEurop Ã¤ischen
ĠD iss
ĠD auer
Ġin tens
Ġan ges
ĠO x
sk y
Ġhin gegen
ĠMin er
ĠVorg Ã¤nger
ĠF ass
ĠMar ie
ĠIde e
Met adata
h em
m aterial
Ã¼ mer
ĠW erb
Ġer kennen
og n
Ġent weder
ĠAb schnitt
ĠBetrieb s
E M
st Ã¤tten
ĠKl assen
ĠjÃ¤hr lich
ĠEr inner
ne ct
ev ice
Ġher gestellt
ĠDeutschland s
ĠHo use
ra gen
Ġpro cess
Ġob j
alis mus
ĠRef er
Ã º
Ġbek am
glieder t
Ġ( "
ĠK ol
Ġf ilter
mit h
Ġviel leicht
Ġmittler weile
leid ung
ĠVo gel
D ollar
Ġb itte
ĠNord rhein
ĠgrÃ¶ÃŁ eren
omin iert
mÃ¶glich keiten
ĠrÃ¶m isch
ĠSdk ClientException
ar zt
ĠH Ã¤user
ĠV iele
ĠEr de
ĠIhr em
Ġ190 7
ĠErfahr ung
Weiter e
N on
n ant
p olitik
ĠK rÃ¤
Ġander s
Ã¼t te
Ġbr ingt
ĠHam burger
ĠFeuer wehr
Ġ Ã¶ffentlich
il ien
ĠIntern al
c u
ein d
ĠB Ã¤
is en
arb e
ult i
ĠFor men
ĠBild ungs
ĠHo hen
Ġersch eint
âĢ¦ ]
a ster
re form
gren ze
C al
ĠAd el
gel d
Ġdar gestellt
ĠF ert
ĠG olden
Ġentsprechen den
Ġsogen annte
ĠFrÃ¼h jahr
om an
ff e
art h
ĠEin ige
ac ter
Ġ190 8
Ġgef Ã¤hr
zÃ¼ ge
C omm
ĠM ir
ĠJahr zehn
ru he
ouverne ur
ĠAl pen
eck len
unn el
p a
ĠR ing
ĠSm art
W irtschaft
anz er
ĠSchiff e
ĠHistor iker
o ugh
gesch oss
orden s
Ġor ient
ĠErfahr ungen
ĠH aar
Ġp lan
Ġverb reitet
iti ative
Ġb uilder
Ġm ensch
ĠT rau
Ġer stellt
iz enz
Ġbek omm
ĠMor gen
ie m
Ġzu erst
rÃ¤ ume
Ġsch lech
ĠTeil en
b aden
ur l
Ġge mÃ¤ÃŁ
B ar
I OException
ĠW Ã¼rz
Ġan erk
Ġl etzt
ĠOb serv
s ource
al te
ĠK re
lan de
ĠKar te
ĠUl rich
Ġw riter
Ã¶ ÃŁen
Ġp rivate
Ġle er
Ġ190 5
Re ad
20 16
Ġar ray
ĠfrÃ¼her en
ĠE du
ter e
ser ver
ct ive
ech te
Ġmehr fach
Ġheut ige
Ol ymp
Ġs agen
Ġm ass
il er
ach ter
ĠI dent
enn fahrer
Ġn utz
Ġf e
Ġbet roffen
hand lungen
o ption
ĠS eb
Ġo ffset
gesch rieben
amil ien
Ġfin ally
O M
ĠH immel
art ige
ĠGroÃŁ britannien
++ ;
Ġverst Ã¤r
on ischen
ik ations
ĠFilm e
sch loss
Ġ19 11
Ġab geschlossen
Ġre duz
ĠjÃ¼n ger
as er
ĠGust av
T im
ĠB ibliothek
tr ack
Ġge h
gr aben
ĠFunktion en
ĠH afen
ĠEr b
200 8
ĠSh ow
Ġitalien ischen
ĠAustr alien
g rad
n s
p o
r aten
st eine
ol s
get eilt
A ut
Ġs ession
ag ne
dien ste
ĠS inn
ĠG eg
ĠL ad
Str a
ĠBr Ã¼cke
Ġbeg onnen
t eile
ĠL y
eist ert
ĠGew icht
ĠUr laub
Ġmax imal
Ġeb enda
Ġd ep
Ã¤n en
op old
ĠUn ternehmer
th eit
af el
Ġat tr
haf te
ĠFer dinand
ĠgeprÃ¤ gt
in ue
Ġw under
as ure
ĠP ersÃ¶n
Ġr Ã¼ck
mer ksam
pl Ã¤tze
ĠPr im
Param eters
ĠFlug zeug
ĠSchn itt
D isk
T eam
ĠT rotz
ist s
Ġ190 6
ĠBeh andlung
Ð º
Ġh il
ow ski
ss ystem
ĠLie fer
er weise
ĠPro z
ĠnÃ¶rd lichen
Ġsynchron ized
m ethod
ĠBron z
ĠWeihn achts
V P
Ġl eitete
Ġdeutsch sprach
ĠMet ern
ind ustrie
ĠÂ §
ĠL ieder
Ġverw enden
FA ULT
Ġd auer
ĠAus land
Ġkann st
ĠDurch messer
co ver
Ġgez eigt
ĠEn gl
ĠInter essen
Ġerw arb
ĠTÃ¼r k
b ul
ĠN ahr
Ã¼nd ungs
ĠAut ob
fel der
Ġbestimm te
ĠImm obil
j i
m Ã¼hle
Ġ ehr
fer ence
Par ser
ĠKommun ikation
Ġerweiter t
al ys
ĠD ichter
ĠK ing
I terator
ĠP ok
ĠT ie
ĠV illa
ĠN ode
ĠSommer spiele
hei mer
stu hl
Ð »
et ts
ĠW appen
ĠJ Ã¼rgen
ĠIn halt
Ġ190 9
V D
p ft
Ġb i
Ġbel egt
Ġ old
Str u
ĠThe ologe
bo ten
ĠZw eit
ĠNik ol
isD ebug
P os
w an
Ġs agt
Ġh eim
aus schuss
ÃŃ n
in ander
ĠGra fen
Ġrem ove
Ġg ingen
ĠBew eg
ĠSchwer punkt
ĠbeschÃ¤ft igt
al ia
ĠC r
ho ben
Ġkur ze
sp er
ĠVerÃ¶ffentlich ung
Ġverantwort lich
st he
ei sch
kt iv
ell i
ack en
ĠBl att
etr ic
Ã¤mpf en
ecklen burg
Ġo p
Ġc lient
ĠUnter richt
rup p
ĠGrÃ¼n den
Z E
z eigen
Ġ( ,
ĠP unkten
ul pt
Ġp erson
Ġent gegen
ĠBet eil
em it
ĠP rag
om a
ĠSp ann
Ġur l
ĠQualif ikation
st ation
Ġb ildete
ĠD eck
ĠF le
ap pe
Ġw id
ab et
ĠUn garn
Output Stream
id ae
rich ter
sw ahl
ĠArchite kten
Kl asse
D el
im ale
ech ts
ĠEurop ameister
Ġro t
ĠBÃ¼ ro
Ġunterschied liche
D igit
ur al
Ġge eignet
ĠAl lt
ĠĊĊ ĠĊ
fÃ¤l le
Ġ4 8
Ġp ost
Ġhoch wert
ĠRest au
ĠSib Tr
ĠI N
Ġmoder nen
k omp
in os
ĠO ri
zen s
ob ile
Ġf ehlen
ic ro
ian o
ain ing
C P
m ir
m ack
p pen
ĠVer antwort
200 6
k rieges
Ã¶ff nung
ĠEhe frau
Ġprof ession
ĠLeicht athlet
V ar
v ir
ĠL ind
ck s
ĠÃ¼ber haupt
Ã¶ der
Ch ange
e en
f os
in ess
hÃ¶ he
ĠPfarr er
ĠIns gesamt
ar re
ĠVor aus
hand el
ĠFrie den
D oc
G ew
en zen
Ġn amens
ĠL am
ĠÃ¼ber ra
stell ungs
value Of
ĠJournal ist
ĠHaup tr
n icht
ĠD ata
ĠC lau
up p
Ch annel
Ġeinge fÃ¼hrt
ĠB re
ist an
Ġt ask
bie ter
Ã¤chs ischen
Besch reibung
A F
b oolean
t x
ĠD rit
Ġ6 5
st edt
sp iegel
ak et
Ã¤hr ung
En um
stÃ¤nd igen
isDebug Enabled
l Ã¶
o z
z wei
ĠG rad
ĠZ ahlen
ĠEin heit
ock et
ĠBest e
ĠLin ien
ĠMos kau
merk ungen
. ),
U ID
ĠE ber
200 5
ĠnÃ¤ch ste
Ġs ystem
ĠB an
ĠB ol
et on
Ġn eg
ĠL aut
ĠC at
Ġl os
ot her
Ġwir kte
tr oll
str om
Ã¤hl ten
Exec ution
W ork
Ġcon nection
umen ten
Ġwest lichen
N ord
c ia
av or
ph an
ĠCar ol
ĠFer ien
g round
k unst
ĠR ost
Ġk einer
rit or
ĠHen ry
It alien
D ouble
ĠÃ¼ber tragen
Ġle ft
ĠRhein land
Tem plate
ĠGÃ¤ ste
Ġm einen
ĠP eters
uch ten
off iz
čĊ čĊĠĠĠĠĠĠĠ
ĠJur ist
D B
w ach
ip pe
gest altung
Alb um
K an
Ġv is
ĠH it
Ġ/ *
Ġeinz ig
ĠEr satz
Ġges etz
Ġgebild et
j en
wei ht
Ġlie f
Ġex ception
ĠRes erv
ĠIl l
Ġstr ing
ĠVeranstalt ungen
ver treten
bild ungs
zug s
KE Y
F ound
k op
Ġb lau
ĠTeil nahme
ĠGesund heit
ĠDeb Ã¼t
y g
Ġl ern
ap ter
ĠJac ob
ĠScien ce
ļ Ń
Ġl en
th ur
ac es
con text
Ġdah in
Ġs ech
Ġl ink
ak a
Ã¶s ungen
ĠWohn ung
ĠComm un
J uni
W ind
ĠSch ritt
Ġerst re
P ool
P ER
k Ã¼r
ĠF Ã¼n
Ġr en
man agement
ĠArch Ã¤
meld ung
Ã ¥
at rix
ĠB reite
ĠBundes republik
Ġch rist
** **
Ġt Ã¼rk
Ġ7 5
Ġverb ess
Ġhe ader
st eiger
ĠK assel
den ken
ĠO k
Ġab gerufen
ĠFilm s
ĠEm il
Ġober en
Ġengl ischen
lÃ¤ss lich
s ab
mÃ¶ glichen
ĠBund est
i tem
ur i
ĠV iz
ann en
im ple
ate ur
ick e
ĠRo ten
lig isten
ĠmÃ¶glich st
ĠhÃ¶ch ste
Ġtre ffen
ĠH ttp
iel l
ĠTeam s
Ġgleichnam igen
or age
el se
ĠH ell
Ġre qu
ĠNeu en
- )
Ġin itial
ĠK rieges
ĠH erkunft
ĠU kra
IN E
ĠMon aten
ĠFranz Ã¶s
ĠWind ows
ĠAutom obil
f rom
ĠK athol
ĠQu er
son sten
em e
Ġsch eint
i ode
k ore
at oren
bau er
rÃ¤s ident
At tributes
ei ert
Ġ19 17
Ġbeein fl
r Ã¼ck
Ġf ound
Ġber uf
ĠFakult Ã¤t
ĠM ak
ĠH on
af e
up date
ĠNetz werk
g g
ei tern
it es
ĠMod el
ĠComp any
ĠZei traum
H L
eb ook
eg al
pf lege
ĠBundes liga
ĠPfarr kirche
ĠUntersuch ung
ĠD adurch
Ġf al
ĠSch lieÃŁ
ĠVer hÃ¤ltnis
ĠMar ien
c tr
w ischen
Ġ one
ĠK art
ubl ish
ite inander
Ġben utzt
ĠKap it
Ã¤us ern
2 000
or ph
ĠA st
ĠM ission
wend ungen
ĠBraun schweig
ie den
Ġk o
Ġver schw
ĠIn dex
Ġber Ã¼hm
sum er
ic ago
Ġst anden
ord s
Ġsel ber
ĠÃĸffentlich keit
or ient
Ġl Ã¶
im um
pl ement
ĠKÃ¼ che
Ġ ueber
ent ation
eu ert
20 19
Ġen dete
ĠNord osten
ĠBild hauer
Ser ie
F unktion
b ilder
ĠK ath
Ġj em
ĠUn abhÃ¤ng
elt a
Aug ust
> ,
ur ts
Ġan hand
ran ge
Ġ190 4
ĠÃ¼b rigen
ĠTenn is
Ġ rad
ĠS ym
ĠA sp
ĠD aher
ĠM ethoden
Ġj ob
lo k
ĠBe ob
ĠAngel es
ĠR ath
Ġ[ âĢ¦]
bez ogen
Ġm el
and te
ges sen
ip ps
ĠKon gress
arr en
Ġur kund
Ġf eier
ĠR ab
Ġfor der
ĠLe opold
Ã¤h ler
Ġw ert
ĠEr weiter
Ġentsprechen de
ĠElem ente
M en
ei fen
ĠC enter
rei ter
ĠAl tern
Ã¤l de
sh ausen
d b
Ġs ec
ial e
Group Name
ifiz iert
ĠS um
ab teilung
oren z
ĠFr em
rap per
p olit
zun ehmen
st ad
ĠA R
Ġt ief
get Key
Pro ject
oot ball
b lock
Ġ use
ĠWeltkrieg s
C ur
z ell
Ġw eist
Ġs org
af rika
ĠStra ÃŁ
Ad d
ĠTex te
C olor
Ċ ĊĠĠĠĠĠĠĠĠĠĠĠĠĠĠĠĠĠĠĠ
ul es
ak u
ĠSo und
Un ternehmen
vor sitzen
ĠHash Map
ĠS I
as on
ĠR am
Ġge kommen
lie genden
ĠSÃ¼d westen
bahn hof
ĠFÃ¶rder ung
n ers
z one
ar ische
ĠI T
Ġ4 2
Ġ190 3
Ġersch einen
ĠSchl uss
E Class
f ind
ĠF al
ĠL aw
Ġk Ã¼nstler
Welt meisterschaft
cod ing
ol z
ĠV iew
Ġt schech
ed ig
Ġc o
ĠInternational en
f alt
scha ffen
Er folge
yl v
H E
k urr
Ġp osition
ĠgroÃŁ es
hÃ¶ rigen
fÃ¤h igkeit
St ud
Ġwes entlich
O K
Ġd isk
Ġm ust
Ġver p
Ġp rim
aus stellung
ment s
s ur
Ġf Ã¤llt
ĠW ag
Ġver sehen
Ġp os
ow a
Ġtr ug
ĠAcadem y
Ġau str
ren nen
ĠKan ada
Ġlin ken
ĠKomb ination
Ġzeig te
or es
Ġh Ã¤tten
ĠThe odor
bo ard
ĠHoch schullehrer
ĠM und
ĠG ang
ĠO ffen
ĠIn tegr
En g
ikan ischer
icher ungs
bew egung
Ġs ign
qu enz
ĠBer icht
ĠJo achim
ĠSÃ¼d osten
ĠWe ge
R ange
u z
Ġst ream
ex ec
g roup
s em
y e
Ġb ar
Ġb lock
Ġf ahren
ĠSp iegel
ĠBl og
scheid et
ĠZug ang
f on
ĠR au
ĠN eb
ĠJ agd
ĠZ ent
ell es
Er ster
Ġspr icht
k y
vers orgung
fÃ¼hr en
Ġ189 0
ĠSchles wig
ei se
ar z
Ã¤ ÃŁ
Ġn um
ĠW ett
ĠW ohl
ĠW eimar
up pen
Sch riften
T op
ĠR aj
Ġeinger ichtet
in str
ĠT Ã¼b
ĠV ar
L age
st aben
ĠE ck
Ġf loat
fe kt
ĠGrÃ¼n der
ĠErz Ã¤hl
ĠJust iz
ĠG lei
ĠE ind
mal er
gra f
Ġruss ischen
h aben
v ar
er ben
bl Ã¤tter
ĠBereich en
ĠHa ft
) {
Ġm Ã¤nn
Ġf reuen
ohn t
tens ion
osit ory
ĠEben e
l Ã¤nge
s Ã¤tzen
ber echt
ĠÃ¼ber geben
ĠRegion al
Ġexist iert
ĠB ett
Ġ2 50
pf l
ast ian
ĠBevÃ¶lker ungs
ĠS ur
ĠP u
ĠL i
om ain
Ġvor gesehen
ĠFahr er
D S
he ute
ĠKon s
ĠNieder sachsen
ĠGener ation
heb ung
ĠThÃ¼r ingen
L ast
ĠG lauben
Ġt oken
get Type
ĠAd els
Ġ190 2
Ã³ w
ĠHeraus geber
wirk ungen
ĠInstit ute
fur ter
ĠW in
ĠL Ã¶sung
res ponse
The ater
Ġgemeins amen
re ht
ks h
j ew
ĠD ouble
ex it
Ġon ly
ĠbenÃ¶t igt
B ack
P ass
s in
ĠK urs
ĠT anz
ob by
Ġend gÃ¼lt
ĠUntersuch ungen
vier tel
il s
ĠR ollen
pe cted
if ft
ĠMon ument
ĠIs rael
ĠLok omot
Constra ints
L ayout
ĠM ach
ĠT ok
ĠR oll
Ġange legt
fert igt
Des criptor
E G
t ur
ĠF ell
ĠFre unde
Ġnah men
Ġne ed
geord net
Ġ19 16
ug in
ger s
ĠKon rad
======== ========
ĠPreuÃŁ en
B as
D em
z eigt
ĠS us
ĠB ir
se ud
rei f
ĠU RL
ĠAn frage
ĠEng agement
c ast
p erson
Ġs ucht
Ġn umber
Ġc ache
lie s
ĠHer stellung
Ġschw ier
geord neter
Ġtats Ã¤chlich
s Ã¤
y k
se d
ĠKl ima
Ã¤m lich
B ody
k ammer
ĠL iv
h u
Ġv ierten
Ġt otal
ĠStr ecken
qu es
ĠHand buch
ĠHe ft
hard t
ĠInstr ument
# #
ell o
ĠfÃ¼hr ten
ĠGew alt
ĠDan eben
ĠGeist licher
au ff
ĠRei hen
ĠRÃ¼ck kehr
Ġor der
Ġauf gelÃ¶st
() ).
Ġab geb
Ġger ing
ĠC oun
Ġzwei mal
er ber
ĠD ien
ĠR ap
sen de
ĠSt ation
Ġp op
ri an
ĠÃ¼ber w
ĠTelef on
Warn ings
O p
v ol
ĠB ord
ĠH ill
ĠDort mund
ĠAss ociation
klus ive
Ġvers ion
d is
ĠH ug
ĠN och
Ġ3 7
auf hin
Ġerh ielten
kathol ischer
h eil
ĠV an
ĠC am
ĠDon au
Ġspr ach
Ġform at
P lan
it o
Ġpro perties
Ġstar ken
B evÃ¶lker
P AR
z um
ĠGemein schaft
ĠBez iehungen
Ġunterschied lich
ĠVeranstalt ung
t arget
ig ner
ĠÃ¶ff entliche
Ġdien en
bÃ¼ cher
Ġs amm
Ġver gangenen
ennt nisse
k arten
Ġc al
Ġ4 4
ĠQu elle
Field s
ĠGest altung
ĠChem ie
Ġd ein
ĠS erv
ĠW M
sb ez
Ġmed izin
B erg
z iger
ĠP DF
Ġl esen
Ġdurch schnitt
ĠAuf ent
hrow able
sicht lich
ĠSon ne
' )
Å ¾
st Ã¤d
ĠG ymnasium
ach ed
mann s
gesch Ã¤ft
ix el
D ocument
st eigen
ĠD ialog
sen z
ĠAn dr
ĠHer bert
ĠLin ks
Ġrech ten
prÃ¼ ft
F ran
Ã «
tr an
ra ys
Ġbesonder en
untime Exception
ĠFernse hen
D u
J ul
al em
Ġw a
Ġg eist
Ġp re
ert ation
Ġ3 9
Ġel f
Er st
tre ffen
sph Ã¤re
" ));
G en
k Ã¼nd
ĠIn halte
Ġun er
Ġc ode
Ġsch reiben
Ġum ben
ĠEx empl
B Ã¼rger
Ĩ Ĵ
ĠCh icago
ktion s
ma schinen
ĠSpr achen
ĠFÃ¤l len
B ag
k om
lin der
int on
Ġmein em
P T
ĠM Ã¶n
Ad resse
ĠPublik um
u ste
zeit ung
ĠGra z
alis at
Ġgepl ant
d y
Ä Ľ
ĠH ub
eu ten
Ġtr itt
ĠPart y
ĠLex ikon
ro h
Ver Ã¶ffentlich
Ġ19 15
est amp
ĠSp itze
Ġsp ort
Ġ< <
in it
st Ã¼cke
ĠK anz
ĠL ev
ĠBrit ish
ĠF Ã¤h
ĠN omin
ell schaften
her zog
fÃ¼hr ten
ĠFran ken
ĠFor st
Ġklass ischen
ĠtÃ¤ glich
ĠT own
ann er
Ã¨ re
in zen
Ġeinzel ne
ĠSam stag
k u
ĠS au
ĠT ief
ĠJ ud
Ġver h
ĠDist rikt
iw od
ĠSowjet union
H aupt
p aar
ĠÃľber setzung
ĠÃ¶sterreich ische
ĠPrem ier
v ed
ĠF inn
ber eit
Ġer laubt
ann ter
hal ter
akte ur
C ommand
M eister
u ellen
Ġw achsen
Ġben ach
ĠKamer a
O C
b ody
r iss
Ġd ate
Ġv ari
ĠIn fanter
ĠAn h
Ġif c
ĠX ML
Ġsw itch
k Ã¶rper
Ġn Ã¤mlich
ĠP re
sp rechen
ord net
ĠMar ke
ĠSchn ell
ĠGo ogle
read y
D ar
ch ten
ĠS ab
ĠN un
Ġ5 5
fen ster
ĠOrg an
part ner
cle ar
Me asure
r Ã¼cken
ol o
ĠV ize
Ġman chmal
Ġbes itzen
Ġverschieden er
steh ung
ĠNationalsozial ismus
ĠWies baden
J son
S egment
ĠM isch
ĠVer gangen
Ã¤n ner
ĠAr ts
ĠMag de
ĠPap ier
aliforn ien
ĠWÃ¼rz burg
Ġp hil
wer den
alb um
Ġ q
ĠB ass
Ġb uf
ĠF reu
pr es
ĠGren zen
Sup press
b ro
m ag
m auer
o e
ĠEr folge
op en
ĠForm el
ĠEd el
Ġreich t
B ad
Ġm iteinander
ul s
ĠSch on
ĠPro p
ĠNord westen
Ġkon zentr
Ġentwick eln
B et
k rit
at in
ĠF ield
gel eitet
Qu eue
ĠOb wohl
mod ell
A uÃŁ
ĠT Ã¶ch
ru e
Ã¶rder ung
Ġpoln ischen
M ot
S ettings
st atus
Ġab ger
ĠNach w
ĠRund funk
prÃ¤sent anten
P olitik
S ehenswÃ¼rdigkeiten
Ġn orweg
od urch
Ġunter sch
Sch ema
Dire ctory
ĠBenutz er
E ishockeyspieler
Ġm sg
ĠK Ã¼n
ĠEin richtung
ĠGroÃŁ e
ĠÃĦ g
ĠWeiter en
ĠGrie chen
al tete
Ġs an
el a
ĠBeg r
ĠHe kt
ĠCD U
ĠS mith
ĠM auer
ĠG reen
arb eitete
ĠNeu bau
ĠSchl Ã¼ssel
Ġro ot
ĠErw achsen
Ġoffiziel l
zÃ¤hl ung
ĠDarm stadt
ĠB ade
ĠE ast
le ut
Ġzunehmen d
Ġs ho
is ation
ĠEin heiten
gel t
ĠDaten schutz
Kir chen
emb le
ĠDisk uss
Ġbis lang
acht ung
ĠZw eck
Ġstell vertreten
Ġmoder ne
Ġexec ute
; "
Ġauf gebaut
ind ing
par ent
land es
ĠBau werk
ER R
ĠOrt es
200 4
denkmal e
ĠParam eter
H aus
h orn
i ro
Ġh alb
iz iert
red ic
Ġmod el
Ġ6 4
Einz el
rev ious
P refix
Ã ł
ar io
ĠL it
Ġl eider
ĠSp itzen
Ġbet rieb
trÃ¤ gen
ĠSÃ¶ hne
S eine
art igen
ĠMar ken
Ġet abl
ĠThe ologie
Id s
ĠBayer ischen
> <
Ġn Ã¶t
ĠK eller
ĠL abel
um b
Ġer mÃ¶glichen
ĠN eum
ĠPl atten
M apping
ĠO ne
ahr t
ĠBr ig
fÃ¼hr te
ĠBew ohner
ĠMuseum s
log ger
Polit iker
Org anisation
B i
Ġs rc
ul gar
ĠEin richtungen
deut sche
ĠSim on
ĠMaÃŁ nahmen
I G
k urs
Ġs up
aus gabe
ĠAuf lÃ¶sung
rÃ¼ st
Ġerh oben
stit ution
fr ont
Ġpar allel
Ġw odurch
Ġn Ã¤her
Ġver kehr
Ġzum indest
Ġbest ritt
Des cription
ĠRelig ion
Suppress Warnings
; &
I f
ĠR ail
ĠJ a
ort s
geb nis
ĠTh is
Ġbeg innen
ĠRe aktion
l ein
w Ã¤l
w itz
ĠD ok
ĠL ib
ĠR uf
Ġt Ã¶
iel en
ĠAn s
ĠUn fall
anz ig
war n
ĠEnt fern
ĠBahn strecke
Ġcont inue
t Ã¼mer
Ġau th
Ġver legt
ĠThe orie
ĠEigen schaften
J an
P attern
ol ogen
Ġzu ge
ĠSch le
ĠEin sch
ak en
Ġber ufen
Ġho her
ĠstÃ¤r ker
Stru ct
un c
her ren
Ġbef ore
lÃ¤nd ischen
ĠerklÃ¤r te
mitt lung
r amm
t ime
Ġh ast
wei ler
ay a
" ).
l eiten
ĠZ ivil
iz iner
Ġre f
ĠOber st
Key s
ĠPrÃ¤s identen
ĠBesitz er
V ariable
g ot
h ost
wei ÃŁ
ĠOr den
ĠGeb urts
ail len
Hol stein
ĠHelm ut
F inal
ech an
Ġvor aus
h et
Ġ1 10
ĠM is
ĠL iter
se y
ail able
ĠBl au
f ft
k ern
it ies
ĠK rie
ĠT rÃ¤ger
ĠW ell
ĠL ast
ĠL eute
ĠJ ed
ĠZ un
ĠSp ec
ĠAb itur
atur es
Ġgegr Ã¼ndeten
Ġreg istr
veranstalt ung
sch i
Ġk auf
ĠZ erstÃ¶r
wei st
ĠEn s
ator s
Ġ190 1
ĠFr eitag
val ues
Ġparam eter
ĠFig ur
in ne
ĠN ull
setz te
ĠBen ed
Ġâ ļŃ
iqu es
Ġkur zen
il ber
ĠN at
Ġsp Ã¤t
ĠStel lung
ĠTer min
gren zen
g reifen
m essage
ĠD ev
Ġp f
ĠStr and
ib il
Ġent w
Ġhistor ische
fÃ¼r st
ibr ary
ĠBrÃ¼ der
ĠB ier
gr ab
ĠMed ia
Inter face
Ġscha ffen
I M
P air
ĠP reise
ik i
Ġ4 6
gesch lagen
Ã¤tz lich
ĠBed ingungen
ĠHalb finale
b aus
c opy
ol ean
pl atte
ma schine
ĠGeg ner
. /
m sg
ĠWelt meisterschaft
has Next
Ġaustr al
W il
le te
ĠT rieb
ĠL en
ĠL etz
ĠI d
Ġges ellschaft
con tent
Ġmittel alter
Ġnahe zu
ĠChamp ion
E hr
K urz
ie ten
ĠW egen
ĠO pt
ster dam
ungs ver
Ġent ity
s or
al m
Ã¤ fer
ĠK aff
ĠSt unde
Ġber ichtet
ĠJuli us
B el
Ġl Ã¤ng
Ġdenn och
ĠAs ien
ĠOper ation
ctiv ity
B B
ro at
ĠU fer
Ġun gefÃ¤hr
fl Ã¼gel
ĠTÃ¼b ingen
ĠAn lagen
ĠEr ich
og t
ub il
spl atz
Ġerz Ã¤hlt
iffer enz
ĠKarls ruhe
er a
ch ip
eite ten
ĠMann heim
haf ten
Ġtechn ischen
ĠKontr olle
ĠMatth ias
M o
m ission
en gl
Ã¶ se
ĠJ on
eh e
ĠReg ionen
Un able
Ġausge fÃ¼hrt
ĠGel egen
sta aten
Ġparam s
ĠSong s
et he
ĠD ol
ĠM obil
ĠT irol
ĠC amb
ĠEr schein
ĠBo olean
Ġrel igi
D C
D ialog
M essages
k at
w ith
Ã¼ pf
Ã¶ die
zen e
ĠBer atung
so ap
ĠLauf bahn
Ġsho uld
h es
h au
p ir
on ische
ĠSp aÃŁ
her steller
ais s
ĠWo iwod
ĠVergangen heit
Ġn atur
ĠDie ter
ĠSan kt
ĠbestÃ¤t igt
c ount
| |
Ġv ar
ĠMar y
ĠMil ch
maÃŁ nahmen
Sele ct
in ken
Ġm et
Ġer zeugt
ont o
ĠFl Ã¼cht
urop a
ĠzurÃ¼ck ge
200 2
fre und
Ġgelegen en
L iter
P o
p ass
p ers
Ã¼ gt
Ã¶ ck
Ġl ernen
Ã¤r m
bo den
ĠkÃ¶nn ten
ĠIns eln
ĠAktiv itÃ¤ten
at i
Ã¶ gel
ĠC all
Ġvor ge
Ġ189 9
ĠT w
Ã¶ z
ra h
H eight
Ġs Ã¤m
ĠB om
ĠB art
ĠM ond
gen Ã¶ss
utz ung
An t
icher heit
ĠSchn eider
ĠViel zahl
ĠMein ung
Fe ature
D an
} ,
Ã¤ b
Ġf ung
ĠV Ã¶lker
Ġh a
ok ens
deck ung
oin ts
ĠMex iko
D aten
N E
k in
m inton
n es
Ġm aÃŁ
ab elle
ĠIn frastruktur
oh len
C reate
ar in
ĠL ove
ĠAn forderungen
sh aus
ĠBo ok
le hre
end ing
teil ungen
ite ktur
krieg s
ĠKo operation
Ġnotwend ig
Europ ameister
Ġerinn ert
au ert
Ġz er
ĠH orn
alt h
ograph ische
ĠProf il
ĊĠĠĠĠĠĠĠĠĠĠĠĠĠĠĠĠĠĠĠĠĠĠĠĠĠĠĠĠĠĠĠĠ ĠĠĠ
VAL UE
er ung
il de
ĠR Ã¶m
ĠAn f
ĠStr e
rÃ¤n kt
ĠImmobil ien
n itten
ĠS ig
ĠM ecklenburg
Ġein geb
tr ich
ĠI P
Ġl auf
ĠIn g
ĠAn trag
la in
ĠEn glisch
Ġsp rechen
aff el
Ġengl ischer
ĊĠĠĠĠĠĠĠĠĠĠĠĠĠĠĠĠĠĠĠĠĠĠĠĠĠĠĠĠĠĠĠĠĠĠĠĠĠĠĠĠ ĠĠĠĠĠĠĠĠĠĠĠĠĠĠĠĠ
Ġbekomm t
at om
at ing
ss on
v ollen
el en
pl atten
F re
e arch
Ġb ase
ĠD iv
ĠEr zie
id s
ĠStud ie
ĠInd ien
Ġentst eht
t al
ĠM ord
ĠP ots
ist a
Ġ18 48
ĠGesch ichten
ĠIngen ieur
sch Ã¶n
ein heit
ĠB res
Ġn ominiert
our s
lass ung
Ã¤mpf er
Ġser ver
Ġumben annt
ĠT sch
ĠAn spruch
id d
Die ser
leg ten
ĠpersÃ¶n lichen
ĠOffiz ier
ĠOx ford
w riter
ĠW it
ĠC ode
ĊĠĠĠĠĠĠĠĠ ĊĠĠĠĠĠĠĠ
Ġan gew
ild et
ĠGegen wart
ĠÃ¤lte ste
Pf alz
b ahnen
c ause
sch wer
ar g
ĠA achen
ĠH Ã¼gel
ĠV aters
ĠVer dienst
iv es
ĠGeb rauch
ĠBez iehung
Ġ189 8
ĠBru st
B eim
Ġw Ã¼n
ĠL ust
lei hung
olog ischer
ĠZu schauer
National mannschaft
P I
c al
ĠM ethod
Ġ18 70
auf nahme
ĠLebens mittel
Reg ion
ĠArn old
Ġau ÃŁen
le bt
ĠL inz
art ig
St at
Ġgew Ã¤hr
it ive
ĠPro t
ĠLu c
produ ktion
ĠB asket
ĠD omin
ĠM ut
ĠO pp
ĠAd am
ĠJuni oren
rÃ¤n k
b raun
ch est
Ġb uild
lie d
Ġunter halb
rid Bag
ĠObserv able
ar rei
Ġan gesehen
ĠSt Ã¤r
ĠFl Ã¤chen
ĠAngeb ote
Ġland wirtschaft
P O
r uss
Ġd ank
ap el
echs elt
ĠMax im
Ġgemeins ame
X ML
ĠK ardinal
ĠSer ien
Ġ186 0
wor ten
K o
ĠB Ã¼r
Ġb lieben
ĠM io
Ã© t
med izin
ĠMeer es
B undle
ĠP ed
our t
hand lung
ĠHil fs
Ġzu stÃ¤ndig
ad or
Ġunter en
Ab sol
State ment
Fa iled
ĠK Ã¶r
he d
ov a
ĠGer Ã¤te
200 1
ĠAt lant
Ġ188 0
histor iker
F rei
ĠG reg
ĠT oten
us sen
ess in
Ġtr af
Ġ0 4
ied elt
reg isseur
schlieÃŁ en
Ġor iginal
cl ub
usÃ¤tz lich
ĠNutz er
ab end
ed ule
ug ies
Ġen glisch
alen der
reu ung
ĠÃ ł
Ġkathol ischen
kurr enz
P ost
ver ter
gr Ã¶ÃŁe
teil s
S yn
d irektor
ir urg
In ternal
ges prochen
Ġus w
T A
c ul
k ul
n y
ĠP en
Ġun ge
âĢľ ).
ĠWelt krieges
Ġreg ul
ĠStÃ¤d ten
ĠprÃ¤sent iert
ĠT ak
ĠR eze
Ã¼r f
sen der
lo h
200 3
ĠFÃ¼r sten
Ġwissenschaft lichen
in ischen
de gang
ĠL ine
Ġver Ã¤ndert
ĠStr ate
In stitut
zeich nen
ĠKomm ission
Ġzie hen
ĠTÃ¶ch ter
F low
H o
ĠM assen
Ġauf gestellt
ĠLe der
Ġnational en
ĠPor trÃ¤t
E le
x ml
Ġd eine
und ert
ĠD B
Ġver geben
ĠQu adrat
yr am
Ġversuch te
ĠGed anken
lowak ei
R ed
V ol
Ġ Ã¼
Ã¼ te
am at
Ġbes aÃŁ
ĠEntwick lungs
) ");
n um
ĠK redit
sk a
ĠFrei zeit
ieb el
ĠWir ken
ĠGÃ¼n ther
sp ace
zen ten
cl ude
Jo hann
A ccount
p c
ĠS aar
de hn
os law
all er
ĠVor stand
ĠrÃ¶m ischen
D AP
F alls
r d
er ten
ang es
ĠGesch lech
F iles
au ten
Ġst at
Ġsch reibt
Ã¼t ze
me er
Ġletz ter
ĠRu hr
ĠTa schen
ĠBron ze
ĠEdu ard
ei de
ĠKÃ¶nig in
Ġ189 7
hin dern
Chr ist
w ettbewerb
et ch
ĠP as
ĠIn put
ĠKon zer
akt oren
Ġspeziel l
ĠOrd nung
T itel
b ett
ch ner
ĠKomp osition
Ass ign
U I
f arben
em ed
ĠP C
ĠO ster
ĠO tt
Ġbesch reibt
ÃŃ a
Ġurkund lich
chip karte
Ġ Î
Ġs inn
Ġs orgen
Ġin nen
Ġsch rift
br ingen
Pro cess
ĠDes halb
Ġrech te
Ġwe der
ĠschÃ¶n e
AB LE
ĠDÃ¤n emark
ĠM ei
Ġl iter
ĠEr ste
Ġent schieden
ĠNach richt
ĠAm sterdam
ĠMark eting
F ranz
N ON
ĠV il
ĠEr l
ĠAus einander
M eta
P ersÃ¶n
ĠD et
ĠZ it
fahr zeug
ĠGer ichts
zuf Ã¼hren
Ġbedeuten d
b indung
ĠK amp
ĠP ierre
ier er
Ġber Ã¼cksicht
ix ed
tt ps
Ġeinz igen
Ġbeh andelt
L a
d ition
n ov
ei he
Ġf uhr
ĠkÃ¶n ne
ett o
Ġ189 5
gericht s
( _
B S
b uffer
g Ã¤nge
Ġ app
Ġange gebenen
ĠCon tent
ĠTÃ¼rk ei
E C
S equence
ï ¼
ob j
mit glieder
Ġstark e
ĠverfÃ¼g bar
leut nant
d own
ĠL eb
ier end
Ġ4 3
ĠAug sburg
ĠEd ward
AC T
mot or
' :
eh lt
ru st
Ġ6 00
wer b
Ġjapan ischen
Ġs orgt
Ġin stall
Ġl Ã¤uft
Ġ4 1
for scher
Jahr en
W as
ĠIn itiative
stra ÃŁen
ĠFall s
Film ografie
ĠTab ellen
ridBag Constraints
ĠR ol
Ġzu geordnet
sp f
ip al
ausen d
ĠhÃ¶r en
D DR
M A
ber icht
us en
ĠBr enn
eig h
ĠPlan ung
AG E
Ġbas iert
gy pt
ĠDipl om
k as
p ost
on st
ĠT hread
ĠN ow
ĠC ont
Ġim age
ra in
Ġst ill
ĠGr Ã¼ndungs
ĠOr chester
ĠProduktion s
schlÃ¤ ge
;& #
m ine
ĠF la
ĠH as
Ġj son
Ġa c
Ġzwei ter
ĠLand schafts
ĠBe am
ĠFrei en
Ġend lich
Ġby tes
wirk ung
m and
ĠT ats
ĠI fc
Ġver hindern
sp ez
Ġr om
Ġwel chem
Ġverb indet
jahr es
ĠKap itel
ĠFot ograf
ĠMaterial ien
asil ian
: :
g as
ĠK e
ĠW itt
ĠL ande
tr o
ig ger
Ġst ru
lo ud
ĠNational mannschaft
Ap plication
Ġwissenschaft liche
Ġlo ad
ĠHekt ar
ĠWoiwod schaft
on i
ĠM arburg
ĠK alk
ial izer
ep te
iat eilnehmer
ĠFig uren
ĠK am
ĠF abrik
ol i
amp le
fang s
hÃ¶ rige
ĠMik ro
. _
ĠS oph
ĠSt att
Ã¤r ten
Ġwicht igen
Mill is
Ġt ag
Ġper f
ĠjÃ¼d ischen
ĠGespr Ã¤ch
P L
Ġ Ã¶stlichen
ĠZ oll
Ġsch eiter
DE FAULT
verband es
leb nis
Ġsozial en
P anel
tel s
Ġum geben
ĠPro jekte
ĠGes ang
Ber eits
ĠunabhÃ¤ng ig
L en
S el
n t
st arts
te uer
ĠB Ã¤nde
ĠG anz
Ġk ombin
ĠAn alyse
ate ll
ĠPl Ã¤tze
ĠGemein der
ĠRo h
ĠAd ler
ĠOp ern
Stra ÃŁe
I FC
c en
m as
ar ina
get String
ĠAr r
qu ery
ĠSte phan
we ge
Dec lar
Ġautomat isch
b n
ĠB it
ĠO der
ĠMit gliedern
ip pen
fl ow
ais er
ĠEing ang
Dat ei
ĠBrasil ien
m acher
Ġd is
Ġb ayer
ĠD ire
Ġver t
ĠSt urm
ĠAuf nahmen
ath on
Ġ8 00
unter richt
ĠHor st
ĠTrain ing
ĠFac ebook
S ervlet
Ġ art
re gel
ĠWar en
ĠRath aus
Å Ħ
in us
ĠV iol
ST R
ĠKranken haus
vir on
I gnore
M Ã¤rz
S QL
ĠV ari
Ã¼n den
be cken
riff e
Element s
ift ung
ĠRes ult
Ġklein ere
Jahr e
umm ern
ĠWh ite
un s
st um
ĠP od
Ġwir ken
Ġgen ug
b or
ch or
ĠA qu
ĠâĢ ¢
Sch w
ĠBesonder s
ĠPortug al
n i
ĠD ownload
In nen
Ġsp Ã¤ten
Ġdar aus
ĠMon te
ĠBÃ¼ hnen
ĠSÃ¤nger in
Ġbezie hungs
ĠS of
ar ter
ĠE M
ĠR ett
ip end
Ġph ys
c z
h art
l or
in ia
Ã¤ udes
Ġi l
Ġein iger
ĠSch ach
sp lan
Ġst Ã¤dt
ĠOr ten
State Exception
N um
W ert
ĠS ender
Ġw ork
ĠJ ena
ĠVer w
pro f
stre cken
ĠInternational e
ĠursprÃ¼n glichen
Spiel er
Ġass ert
z if
sch icht
Ġb auen
Ġein schlieÃŁlich
Ġr uh
ĠUn sere
Ã¤r t
Ġtr ifft
ec ted
Ġ15 00
Ġeigen es
Ġ189 6
ĠAbgeord neten
r ic
Ġbesch Ã¤d
ĠKr ist
ĠLehr e
Pl atz
Ġbeziehungs weise
m or
tr act
Ġ" ,
Ġ4 7
Ġ4 9
ĠLei den
ĠBot schafter
v as
v oke
Ġb ot
ĠP ath
ĠmÃ¶glich erweise
Ġpriv aten
ĠB y
ĠH ockey
ĠDiss ertation
a ber
o ir
ĠK ub
ra gt
reg ister
ĠRu h
ĠTab elle
G E
R Ã¶m
m es
s cription
ĠC O
Ã¤r ung
Ġ/ >
ĠMan fred
ĠAnt wort
ĠUkra ine
d auer
g ung
ch te
ĠÃ¼ber nehmen
enn e
ĠHotel s
Ap i
ĠBarb ara
Ġbenach bar
Ġw echseln
ĠW en
ĠC orn
Ġunter scheiden
Ġab gesch
ĠFor um
ĠRei sen
ĠPartei en
ĠSek unden
Pol icy
Kir che
Ġkomp lex
Ġerforder lich
G raph
b an
ĠM eyer
Ġh ell
Ġsch ied
Ġ5 1
sb ruck
Ġ186 7
F ahr
ĠB ob
ĠR ay
tr op
Ġl atein
ĠSch aden
ĠGes icht
inder t
ĠHaus es
Ġteil s
ĠgrÃ¶ÃŁ er
Ġaufge fÃ¼hrt
C re
U ri
Ã Ĺ
ei ern
ĠSch r
ĠSt ab
ag a
get Id
ont akt
mar y
Ġerw orben
S PD
m ess
n ap
ĠS T
ĠL ake
ĠC y
ĠEnt wurf
ĠBo ot
Ġch em
ĠMod elle
ĠErk rank
ut s
Ã¤t t
ator ium
ĠStel l
check ed
ĠSant a
S pr
j an
m ond
Ġin fo
Ġver urs
Ġc lose
get P
ech ten
olog isch
Ġviel fÃ¤lt
Ġgest altet
Reg istry
v es
ĠS ymbol
ĠB io
ĠM Ã¼hl
ĠK un
ĠR et
Ġver n
erk ennung
An halt
Ġex trem
ĠGef ahr
ĠMot iv
ĠCas ino
ordin ate
ĠflieÃŁ t
M ember
z ellen
Ġs ort
ĠL or
ab t
Ġg Ã¼lt
Ġbein hal
omet ry
st Ã¤nden
ĠM icro
ĠK alifornien
Ġf ot
ĠSp eicher
Ġgr unds
Ġda ÃŁ
ĠKÃ¶l ner
Ġschwer en
o pt
u ccess
ĠA re
ĠM au
Ġf allen
ĠT raum
sp olitik
Ġdefault Case
ĠPhys ik
B eg
f ranzÃ¶s
r ennfahrer
ĠB ase
ĠN ationen
ĠSt Ã¶r
ĠAn z
ĠEr f
vers icherung
ĠFl ucht
ĠÃľ b
Ġseit dem
ĠInstitut s
ĠZus atz
ĠRost ock
ĠMagde burg
s Ã¤nger
ar ed
Ġer lang
la c
Ġthe EObject
ost on
schn itts
199 9
ĠMich el
verein s
Ġbisher igen
Ġparam eters
Trans action
the EObject
Ġd elete
ĠB ert
ĠF ar
ĠOri ent
s up
und et
Ġent schied
Ġ5 2
con stants
cri be
ĠzusÃ¤tz liche
M ilitÃ¤r
] [
z n
em pf
Ġwir kt
ĠVerb esser
Ġscha ff
' );
D ER
d ung
g i
v ater
Ð ²
ĠB ein
ĠD inge
ĠNor wegen
ĠSeb astian
Ġb ut
ĠF F
ĠW Ã¼r
Ġbe zeichnete
ĠAt hen
Ġwicht iger
ĠMill iar
ĠMet rop
ĠerhÃ¶ ht
H ein
Ġge tragen
ver zeichnis
Ġc lazz
ĠRo ute
zÃ¼ glich
LO W
ĠJos Ã©
O F
s inn
ĠS ul
ri ver
Ġc omm
ste te
trag ung
ĠAf rika
ĠH ow
eil er
Ġ189 4
hÃ¤lt nisse
ĠAlt stadt
yd ro
Ġverpflich tet
o y
el emen
ĠP oint
est en
ĠAn gabe
ĠKÃ¼ sten
Ã¤dag oge
viron ment
j ob
ĠS oll
ĠF red
ĠG irl
se c
Ġzu g
ĠSt ates
Ã¤n k
ĠEin kauf
ĠAr men
Ġunter wegs
ĠHug o
B ez
K ompon
f ir
est e
Ġp orn
rau t
Ã¤ch er
Ġ189 3
hol m
< >(
N e
ol ver
Ã¶ te
ĠR io
ĠAn th
An merkungen
yp ten
rat es
Ġgriech ischen
b chen
ak ademie
Ar b
Not Null
O st
p reuÃŁ
es heim
ĠS ak
ĠB ell
em ie
Ġl eist
auf bau
ue z
IT Y
ĠDat um
ĠKommun al
ch ild
Ġn ennt
Ġaus zu
Ġc le
age d
ĠMar i
itÃ¤t s
Ġeh e
Ġklein es
seit ig
J ava
w ell
inz ip
Ġsp ann
ĠGef Ã¤ngnis
gericht shof
ĠCentr al
ĠAllt ag
J Ã¤hr
h off
s ession
ĠS av
ĠZ iele
Ġo ffizielle
ver lÃ¤ss
ĠSie ben
ĠEurop ean
aly t
ĠPrinz ip
E qu
t able
Ġtr eten
ĠMa y
ĠkÃ¶n ig
Ġeinge tragen
Ġfrei en
Ġgar ant
ĠFrancis co
S H
Ñ ĥ
Ġtr ain
ĠBuch staben
ĠNieder Ã¶sterreich
Ġâ ĨĴ
Ġsol chen
SE T
Sc ope
Ġricht ige
ĠÃ¤lter en
Olymp iateilnehmer
F B
m ie
ĠM uster
ĠL iber
ĠR ow
Ġbe endet
ĠUn ser
ĠHistor y
ĠAlex and
ĠJes u
ĠKÃ¼n ste
ĠCamb ridge
K W
sch rau
ĠL egen
ĠL ife
Ġden k
Pro xy
Ġspiel ten
ĠAlb recht
ĠFrie dens
prÃ¼ fung
Ġbetr achtet
R echts
m lich
o ire
ĠR umÃ¤n
tern e
ĠMit t
ele ase
vert eid
ĠAnton io
ĠBus iness
ĠGebie te
Ġmo dern
t im
u v
ĠN am
Ġvor gestellt
ĠMar gar
ĠBundes staat
ĠNieder l
is a
ĠT it
ĠGr amm
folg ung
Ġange zeigt
wohn er
ĠEm p
def ault
Ġerstre ckt
- /
D A
i h
i Ã³n
t z
Ġn am
ĠK ra
us k
ger Ã¤te
igen t
ĠUm setzung
Un d
verkehr s
Ġgetr ennt
reb s
Ġverkauf te
ĠVerÃ¤nder ungen
Ġsicht bar
I A
Ċ Ċĉĉĉ
ich ert
ĠW urz
Ġ189 1
ĠTechn ologie
ĠMathemat ik
ĠG olf
ĠE h
ĠT ol
ent wick
Ġan y
Ġr un
iz ont
ĠFl ag
ive au
ĠWelt meisterschaften
Ġspe zial
Ġzentr alen
F ried
k w
ur ren
ro b
sp unkt
ĠâĢ Ķ
ĠAn wesen
end o
geb lich
Ġpro ject
ĠSchw ier
Ġoffen en
ĠVide os
Ġtran sport
h Ã¼ter
m inal
ĠB och
ĠE ishockeyspieler
ĠP ie
ĠP ast
ĠN ah
ĠVer z
Ġc annot
Ġ18 50
iss ement
ĠMin ute
ĠBÃ¼ hne
ĠAng st
lad ung
ĠjÃ¼n g
ĊĠĠĠĠĠĠĠĠĠĠĠĠĉ ĠĠĠ
W rapper
u ay
Ġb rau
ĠD ich
Ġ( ;
ĠW is
ht ml
rup ted
werk en
ĠGew erk
ĠInform ations
ĠBel gien
Ges ellschaft
ĠerhÃ¤lt lich
Ġverf asste
K rit
p ool
ĠA ction
ĠE ugen
ĠSp ir
Ġj ahr
pro perty
' ,
P eter
Ã¤ ub
ol ve
ĠG ab
Ġj ung
ĠKl ub
mÃ¤ÃŁ ige
dat um
char At
se qu
af r
index Of
Ġoffiziel len
B ew
B uch
b und
Ġ iter
in ett
Ã¤ fte
ĠAl te
ĊĠĠĠĠĠĠĠĠĠĠĠĠĠĠĠĠ Ġ
ĠAus gang
ĠAus nahme
Ġsp anischen
)) );
ĠBes etzung
ĠSchriftsteller in
ifiz ierung
F L
S uch
s v
sch rank
ĠP res
tr ieben
se g
ĠC olor
Ġp ubliz
ĠBl umen
Ġbeh aup
X ml
t op
ð Ł
ion e
ĠH rsg
ĠJ ungen
Ġo st
ĠSt imme
ob el
Ġbes etzt
ĠQ ue
ĠmÃ¶ glichen
C A
P RE
f els
w och
on ne
Ġn ennen
igh ts
sprech end
ĠBrun nen
st ock
et enz
ĠL ein
Ġh ttps
ent um
ĠC ro
Pro gramm
ĠPf arrei
val u
rep lace
ĠÃĦnder ungen
le ute
ĠV it
etz ten
Ġbe cause
ĠGroÃŁ teil
Ġbesch lossen
oten t
ĠSc ott
sch ritt
it hm
ĠH ig
lich em
Ġl es
od a
Ġre ag
ĠGer Ã¤t
Ġur i
stru ctor
Ġgegr Ã¼ndete
fÃ¶rm ig
ĠBestand teil
h old
w ahlen
sch irm
ĠP ack
ĠJ etzt
stell ig
up le
Ġgleich e
ĠInn sbruck
Frank reich
ĠB os
rie s
lie gt
ug oslaw
ep p
ph ase
asse d
ĠAt om
ĠAlt ar
Ġempf ehlen
ĠInfanter ie
rie f
Ġab zu
ĠAus bau
Ġverst ehen
ĠOs car
Ġzie ht
rÃ¼st ung
ĠD etails
ĠT onnen
ik um
mar sch
Ġbel g
Ã¼l l
arm on
A bst
i pe
Ġin it
ĠP ow
ĠH eb
Ã¼t t
ĠGem Ã¤lde
ĠReg ister
fig uration
ĠGrund lagen
ĠBeh Ã¶rden
Land kreis
ĠFernseh serie
ĠDipl omat
K n
ĠG ame
ĠP ower
eich ern
Ġnach halt
Ġfest genommen
ĠInn ov
Ä ĥ
ur o
ĠK oll
nis sen
ĠUnter schied
Sie g
Ġbestehen den
D i
b it
r al
u i
ann i
rei strÃ¤ger
ĠSch all
eh end
Ġunter b
sb ed
ĠBi ograph
Not Found
Le ft
Ġopt im
starts With
E P
S ein
c olor
n g
p at
ĠB Ã¶h
ĠP S
Ġg rau
IN T
ma ÃŁen
AN CE
jÃ¤hr iger
ĠWe ber
J apan
u en
Ġd ist
Ġan schlieÃŁ
end el
ĠUm bau
ail ure
ĠSpr inger
bed ingungen
Ġdunk el
B it
Ġ est
ĠP enn
Ġk ir
Ġ20 22
geb irge
ĠGegen d
Ġerwar tet
b reak
ĠS QL
Ġm ot
ig in
ĠSt ol
ĠAm ateur
Ġges und
arr y
ko hol
way s
ĊĠĠĠĠĠĠĠĠĠĠĠĠĠĠĠĠĠĠĠĠĠĠĠĠĠĠĠĠĠĠĠĠĠĠĠĠĠĠĠĠ ĠĠĠĠĠĠĠĠ
Header s
Ġerr ichtete
k ow
au te
ĠB itte
ĠM oment
ĠSt ich
Ġp ack
ĠFahr t
Ã¤mpf e
f u
h Ã¤ndler
t yp
ie ht
ra xis
est and
ĠAr thur
Ġvor wiegend
Al t
min ist
Reg iment
bes itz
Ehemal ige
A kt
ĠA ff
ĠG ouverneur
tr ies
ĠV irg
Ã© d
li ver
ĠUnivers itÃ¤ten
ry pt
ĠInd ian
anc en
ĠGleich zeitig
ĠVerbr eitung
ĠSmart ph
g riffen
Ġein deut
ĠK linik
ĠH Ã¶ch
Ġan genommen
ri p
id o
teil te
ĠspÃ¤ter e
ĠNieder lage
ĠKÃ¼ hl
Ã¤dagog ik
M ath
S ingle
T eil
o ul
u age
Ġge Ã¤ndert
ĠSch ott
he ad
ger Ã¤t
bau te
ĠGrÃ¼n en
ĠBronz emed
H inter
r ight
Â ³
ĠP ir
isch Ã¶
ĠĊ Ġ
ĠFl eisch
for mer
Ã¤nder te
199 0
ĠRes earch
Ġpl atz
M ich
w s
il i
ĠJ ava
Ġan lÃ¤sslich
Ġver anst
Ġo ver
ĠGesch mack
licher weise
ĠPf ad
Sp ace
ĠForm at
ĠAp ost
Ġtem plate
ĠPfer de
J vm
N ov
k Ã¼ste
Ġn on
ĠR y
Ġh ieÃŁ
ĠVer wand
im ation
os a
eich e
Ġsch Ã¶nen
Ġpro blem
form ationen
bach er
Ġhand le
ĠBur gen
Ġlang sam
199 6
Hand lung
ĠÃ¤lte sten
ch ange
ĠB alt
je kten
ĠMan ager
Ġgest alten
ĠSa al
Ġ187 1
ĠFÃ¼hr er
ĠChe ck
ĠpreuÃŁ ischen
ĠVarian te
ĠFÃ¼n f
E t
on str
Ġb raucht
ĠD ial
ĠK Ã¶n
Ġvertr at
angeb ot
C up
F amilie
ĠD ub
Ġf rem
ĠL ag
ĠL ern
um in
ĠVer arbeitung
Pro zent
Ġbef anden
amer a
Ã¤u den
ĠWahl kreis
Ġitalien ische
ĠpersÃ¶n liche
ĠKrank heit
W h
b te
b ein
m ont
ĠL at
ĠR ainer
Ġal ready
ert ific
Ġa ction
Ġerh Ã¶h
ĠKr one
199 8
ĠBar on
ĠDrehbuch autor
ped ition
el or
ĠD orn
ĠH av
ĠI terator
ĠVer zeichnis
br and
mus iker
ĠMehr heit
ĠpersÃ¶n lich
ĠExper ten
ĠAstr onom
redic ate
l ings
ĠK ob
ĠT u
ĠEr Ã¶ffnung
ĠBest ell
Time out
ĠIllegal StateException
Ġnational e
sprech er
I l
M ain
V I
ĠK le
ĠP ian
ft ig
Ġst atus
im en
ĠEr furt
ĠPh ase
hof en
ĠBest er
ĠPer spekt
ĠKÃ¼ ste
aiss ance
S um
f arbe
Ġm e
sp reis
Ġaus fÃ¼hr
af ft
ĠRe de
Ġ188 9
ĠKup fer
K arl
n ieder
r ang
ĠL ar
Ġh ost
Ġj ur
gesch windigkeit
fahr ts
ĠTra g
Ġor dent
sek retÃ¤r
ĠAutob ahn
Z wischen
l ot
Ê ¿
ĠM esse
ĠW ellen
ant eil
Ġ5 6
(" \
ĠGra ph
Ġverst orben
ĠStaat sb
ERR OR
b ibliothek
ĠA tt
em in
Ġm er
Ġk om
Ġal tern
ĠGes am
mo sphÃ¤re
Ġmittler en
Ã§ ois
Ġeinf ache
f irst
ĠS ens
Ġm ult
ĠH em
ĠAus stattung
Ġander es
Ġbel ie
tag s
riter ien
low en
stud ium
Ġunbek annt
R T
ĠM Ã¼hle
Ġver ab
Ġr ight
get Property
In ternational
Ġ" /
ĠVerlag s
Ġ188 8
ĠGeschÃ¤fts fÃ¼hrer
N OT
k unden
ĠA x
ĠE uch
ĠR al
ĠJ son
ĠSp itz
pro jekt
ĠFranz isk
Mus eum
ĠGed ichte
f loat
w el
ĠS auer
Ġl eitet
ay ern
ĠKl im
ĠWelt cup
setz er
Ġwei sen
ĠAward s
Ġtrotz dem
U s
w ner
Ġb ack
ĠW Ã¼rttemberg
ĠV I
ĠAuf sicht
ĠhÃ¶her en
ĠOption al
Non Null
p ap
Ġm y
ĠEr ster
ack er
ĠPol y
Ġdort igen
au g
el ine
ĠR ie
ĠR equest
Ġg olden
ĠAus zeichnung
irt ual
Ġhier bei
ĠOber flÃ¤che
Ġend et
sprÃ¼n glich
P rim
ar ia
ĠG att
ver k
imm ungen
Ġakt iven
Ġruss ischer
Ġchines ischen
A v
v ard
z ert
Ġd ek
an ie
ion al
ĠR oss
Un sere
ĠProdu zent
ĠBesch Ã¤ft
opp elt
abil ity
Ã ī
ĠB em
ĠF unk
gen ossen
ĠC lient
Er gebnisse
Ġch ange
Ġteil nehmen
ĠFrei heit
Ġdefin iert
Ġport ugies
ĠNic ol
N atur
S ign
Ġein s
ĠG ames
Ġg u
he dr
Ġsch ott
gr Ã¤
Ġgew Ã¼n
ond issement
Ġ189 2
weis ung
ĠGi pfel
ĠPrÃ¼ fung
Ġdeutschsprach igen
Ġrequ ired
Ã¼ che
Ġer mittelt
Ġg ern
ĠEt hn
Ġengl ische
Contr oller
ĠSend ung
â Ĥ¬
in ary
ĠB iele
ĠF ilter
Ġp age
lo ÃŁ
ard o
ek ten
Ġbest ell
besch reibung
Ġbau te
stechn ik
ĠĠ Ċ
zeit schrift
199 7
produ zent
Ġtechn ische
ĠÅ ł
auth or
ĠPots dam
Ġ ol
in stitut
st Ã¶r
ĠF ro
is ieren
ĠH ild
ĠC op
ĠVer eine
res sen
Ġle hr
off set
ĠGÃ¼n ter
ĠFreu de
p ommern
ĠS ir
ĠH yp
ĠL angen
Ġpro p
ĠUm gang
ĠRo ad
out h
vertr eter
H Ã¶r
M atrix
T ran
Ã ª
Ġs ymbol
Ġer gibt
ÃŁ ig
ĠAuf tr
ov en
sh ot
bau en
[] )
ande ur
ĠF ein
ĠW Ã¶rter
br onn
Ġbeg leitet
ĠGrund stÃ¼ck
ĠEurop as
ĠMittel punkt
Ġper fekt
ĠDenkmal schutz
ĠLOG GER
ĠChampion ship
C I
K omm
K unst
te am
ĠP riv
Ġt im
Ã¼t ten
Ġget Ã¶
yn ast
M M
ĠSch mer
Ġc opy
ok us
ial en
att le
ĠFrank furter
ĠFer r
Ġklein eren
ĠRek ord
B en
et ung
Ġb ist
ĠD ay
ĠK ul
us alem
lie ger
Ġbes ucht
olle y
ĠVerein igung
ĠVers and
AR T
Bo ot
ĠTer r
ĠVertr ieb
Fl ug
f rÃ¼
te sten
au ben
ĠM atch
ĠH T
ĠN erv
ab or
ak i
bar er
Ġ188 5
ĠStad ion
stall ation
ĠDis ziplin
M ag
or i
ĠD afÃ¼r
Ġz Ã¤hlte
ĠK ost
aus s
form ance
Ġex p
str eit
schn itte
ĠPolitiker in
ĠGest alt
rib ution
ĠNachw uchs
F O
k ar
al om
ĠS ud
ĠD VD
Ġn ow
Ġver teid
all iga
Ġc omponent
Ġgr und
ilom etern
ĠHarr y
ĠArr ondissement
V ector
m ung
ĠS eg
ĠE arl
ĠV el
ĠSch lei
get Instance
In itial
if est
ĠÃľber sicht
OR T
gn or
ĠFir st
Ġans Ã¤ss
hoch schule
> )
c ore
v in
ge legen
Ġzu folge
Ġwar um
arb eitern
Ġsp anischer
20 20
be am
org anis
Ġcon vert
out put
199 4
Ġ187 9
ĠKloster s
.: .:
ĠKategor ien
v inz
Ī Ĵ
ĠM ah
isch t
ap h
Ġent h
reich er
ĠReg iment
Ã¶ff net
ĠRo hr
Ġsozial e
Ġverbr achte
B E
D est
L auf
n chen
w all
sch ef
ĠB utton
ĠM d
ĠMit tler
Ġvers etzt
Ġgelegen tlich
ei r
ĠB M
ĠL ot
ing ung
Ġan geschlossen
ĠPol iz
Schwei z
ĠAllgemein en
" :
. ).
H eute
Ġ Ã¶r
ĠF antas
ĠP anzer
um an
etz ungen
ĠFran ce
verb indung
ategor y
ĠVerÃ¶ffentlich ungen
ĠKrim inal
ĠAnh Ã¤nger
c s
w Ã¤hnung
Ġt hr
Ġp assed
Pro cessor
Ġgr enzt
use eland
ĠHerr n
Ġorganis iert
Contr ol
F OR
O UR
d ing
al o
as ien
Ġge legt
Ġt hen
ĠÃ¼ber setzt
ner stag
sk l
C ommerce
ĠS un
ĠD irekt
ĠR ess
Ġge fallen
ri z
ĠEnt stehung
ĠBundes wehr
bereich e
ĠBed arf
Ġgelegen e
ĠHei de
> ()
k Ã¼nft
is burg
ĠC le
etz te
Ġsch uf
aus bildung
Ġa ct
Ġent lassen
ite kt
c olumn
Ġein zu
ĠP rix
ĠSp Ã¤t
ob jekt
eier mark
Ġzie mlich
Ġoption s
e get
r un
v oc
Ø §
it alien
ĠA ster
ĠT unnel
ĠZ usÃ¤tzlich
ĠVer k
ĠVer mÃ¶gen
AT A
mod el
ĠBened ikt
ĠMilliar den
st ritten
le kt
Ġaus reich
ast rop
ĠIm age
Ġdar um
Pro jekt
With ServiceResponse
ĠSoc ial
strahl ung
Ġpop ul
ĠStre et
WithServiceResponse Async
P hil
ĠE th
re ck
of en
ĠVor bereitung
Ġat tribute
Ġbegann en
ĠMont ag
Ġdiver se
ĠBist um
ĠEntfern ung
J ose
K inder
s ign
at tet
Ġw idth
ĠB rot
ĠR untimeException
ent s
Ġst Ã¤ndig
ĠAn bieter
Ġc ommand
op Ã¤d
tel n
qu elle
auf nahmen
Ã¼ck t
Ġverl Ã¤ng
Ġ186 6
N LS
V A
ĠT ob
sp ur
Ã¼t ter
ĠWel tr
sto ÃŁ
K at
M sg
Ġn ames
sen s
ĠSp e
ond ition
igt es
Ġar g
ĠLab or
Ġstattf inden
/ >
T est
ĠB ull
is ierten
ĠV f
ath an
lei der
Ġgesch Ã¼tzt
Ġumf asste
ĠGebie ts
lehn t
Cal endar
ĠErweiter ung
s ylv
ĠA ct
ĠA gent
ĠB oston
ĠP el
ĠV i
ĠZ ell
ob ject
ĠCon tr
Class Name
Mod ule
gebie ten
Com parator
K Ã¶nig
S cript
k olle
s an
ing u
ĠZ y
ĠVer fassung
Ġc ol
ĠBo gen
ĠOrganis ationen
L ex
S ow
ein heiten
ĠD ynam
ĠN ap
ĠC ross
Ġbe qu
if ikation
ĠAm b
ĠNew s
schiff e
ĠEpis oden
T our
ĠH Ã¼
ĠL evel
eb e
Ã¶l z
pro cess
ĠHand werk
Ã¤nger ung
Ġgeb lieben
forder t
Ġdo es
Ġhervor ra
ĠSzen e
Ġjem and
Jan uar
ĠBres lau
M aler
S ymbol
W E
l itz
m eter
ĠF ord
ĠT herapie
ach us
ĠN est
ann a
Ġauf treten
Ġre ader
Ã¤nd igen
Ġbef ind
Ġange p
Ġbr asilian
ĠWerk en
ĠsÃ¼d westlich
Ġexist ieren
M ai
{ }
ĠL izenz
ĠGr Ã¶ÃŁen
Ġher unter
ĠAd resse
Ġange hÃ¶r
Ġ188 4
Ġy ou
ĠEle ctr
atÃ¼r lich
frie den
ĠBeteil igung
a ft
f euer
p re
ĠM essage
ĠP est
Ġf inn
wei ten
Ġst eigen
Ġ5 4
ĠKon struktion
ĠBereich e
urs or
Ġricht igen
kap elle
NotFound Exception
un sten
ĠG Ã¶t
ĠP red
Ġf Ã¶r
men ge
alt ar
ĠHoch zeit
ĠLie bl
ĠĠĠĠĠĠ ĉĉĉĉ
ĠKolle gen
ĠZent imeter
B us
n eu
ĠG etr
he ber
Ġdurch aus
St ar
ĠWochen ende
fÃ¤h ig
ĠAbgeord neter
Ġpromov iert
Ignore Case
R S
k B
Ġd Ã¼n
ĠD rag
ĠK il
ĠH ay
ĊĠĠĠĠĠĠĠĠĠĠĠĠĠĠĠĠ ĠĠĠĠ
ĠAm azon
ĠSte u
bo ok
Ġerfolg reichen
sw ert
ĠTex as
ĠS ynchron
ĠP ublic
ĠZ er
Ġst ation
Ġc or
ĠStr eam
ĠOr chest
Res ources
ĠOber Ã¶sterreich
ĠFre e
mÃ¤ÃŁ igen
fÃ¼l lt
T O
n ames
Ġ hr
st on
ĠEin en
land schaft
Ġ5 7
Ġhin ten
Ġgel b
Bo und
ĠGraf schaft
Ġbeinhal tet
? ?
B ef
F ont
M ehr
sch ten
Ġb raun
ĠM ode
Ġn annte
ĠN ight
ĠDie trich
ĠNieder lande
yl l
ĠGef angen
Ge ografie
ĠGraf ik
Ġkur zer
ĠhÃ¶ here
D r
Â ®
un checked
ĠK y
ĠW ahlen
ĠL ew
Ġge zogen
Ġt hread
ĠSch ild
ĠÃ¼ber sch
ran denburg
ĠAb stand
ĠOr der
param eter
Ġges ucht
ĠÃĦ hn
ĠschlieÃŁ en
Ġeinf achen
ĠRestau rant
p al
ĠK Ã¼r
ĠK ino
Ġg uter
Ġbef est
ĠWei ÃŁen
199 1
ĠKan al
ĠTre ffen
ĠSzen en
ĠNaturschutz gebiet
ĠMiner al
g lei
t i
Ġd okument
ĠL as
ro y
up pert
ĠSe en
ĠergÃ¤n zt
C or
Ã¤ g
ĠM inder
Ġm ake
Ġk Ã¼nd
ĠSt an
Ġum ge
Ġ< /
Ġwei ÃŁen
iden z
ĠEpis ode
L ang
d ir
ar o
ĠAl p
Ġunter scheidet
199 5
ĠOb last
Gr und
ĠPass ag
ĠKonfl ikt
v an
| -
ie ck
ro id
ent in
ĠO m
Ġst ren
gel s
eben e
Ġtr aten
Ġre prÃ¤sent
Ġbest anden
ĠPh ot
ĠBe ach
ĠAkt ien
Ġversuch en
igr ation
exec ute
ch ern
Ã¼ mm
ĠC ur
eb Ã¼t
Ġsch Ã¼tzen
Ġmehr erer
ĠMÃ¼n chner
ĠVerb indungen
ĠFr ucht
Ġkon troll
ĠAmts zeit
bÃ¼rger meister
OD O
ãĢ Ģ
Ident ifier
ertific ate
ĠS omit
Ã¼ re
Ġw Ã¤hlen
Ġm Ã¼ndet
ĠH ome
Ġan f
Ġp attern
ĠMa schine
Ġgel angen
ĠBef ehl
Null able
Ġspeziel le
P C
k amp
ĠS z
Ġb it
ĠT eu
ĠR iesen
ver se
ern ame
Ġhin ein
scheid ung
Wer degang
w idth
or ff
ĠN eck
Ġan fangs
our cen
li as
ĠGemein sam
ha i
Ġheraus gegeben
Ġamer ikanische
Å Ł
ch a
on ien
ĠS ort
eh Ã¶r
ĠCh ance
ĠMar s
add All
Ġzeit weise
UL L
ĠMult i
tell igen
Eng ine
Ġschaff te
/ *
P res
l iteratur
l isten
ĠN ote
ab len
Ġg ros
Ġzu kÃ¼nft
ĠZ Ã¼ge
ic us
Ġp asst
ien z
ess ischen
ob ald
Ġdar stellt
wer ten
ĠOl denburg
ĠBar ock
ĠRegen sburg
Ġgrunds Ã¤tzlich
ĠW art
ĠEr richtung
war en
ĠfÃ¼n ften
ĠBas il
uck et
ikt or
Ġfre ie
( ...
R W
] )
un nen
or ter
or men
ĠR ub
ĠJ ens
Ġbe auftrag
ĠAl li
ĠBer gen
ĠAus fÃ¼hrung
Log ger
Ġwes halb
Ġuntersuch t
Ġehr en
J SON
R eze
l im
Ġd omin
ĠM att
Ġm ore
ĠE UR
ap i
âĢľ -
Ã¤l ter
Ġlie b
Ġle gen
ĠÂ ·
ĠKais ers
aktion en
ĠPsych ologie
ĠMÃ¶ bel
gefÃ¼ gt
Ġdisk ut
ĠBronzemed aille
I B
k Ã¼n
ei ra
Ġf arb
ĠW Ã¤l
Qu alif
En de
Ġgen ieÃŁen
ĠBew ertung
AL L
ĠMag azin
ĠIntern ets
ĠDenn och
C ar
ĠK Ã¤
ĠL atein
Ġver boten
ĠSp uren
par atur
ĠCh urch
iet nam
// //
sw issenschaft
Ġerreich ten
fÃ¤l lig
Ġallgemein en
ĠÃľberg ang
ĠGriechen land
C lose
c il
g in
ĠW Ã¤r
icht lich
itt le
ĠY o
ĠWest ern
jahr en
Ġ187 5
On ly
ĠerÃ¶ff nete
f ot
z ant
Ã ¦
ĠS ache
ĠM ang
ĠW under
ĠZ wer
Str ate
ĠUm fang
Ġvorhanden en
ĠHum an
ontin u
Ġheil igen
8 00
W or
W asser
ĠD ec
Ġin nov
ĠK G
ach s
ĠN u
ic z
ow itsch
ak es
Ġ+ +
gew inn
ĠBern d
Ġangeb racht
Ġlok alen
ĠB Ã¼nd
Ġ( ),
Ġer stellen
re y
Ġk g
Ġl aufen
ind ungs
ill ing
St iftung
ph ys
sk on
Ġ6 3
wend ungs
Ġkommen den
Se arch
Ġprof it
Ġfunktion iert
ĠIll ustr
d ner
ĠG a
ĠZ auber
ĠSch los
Ġle hn
ĠÃľber blick
ĠPf licht
ĠRechts anwalt
Sh ort
Ġhil ft
Erster wÃ¤hnung
Wil helm
Ã¤ use
ĠT ax
art ikel
ech anis
erk l
deck te
lÃ¤uf e
gesetz ten
Ġpl Ã¶t
leb te
ĠMail and
ĠGlock en
zust and
ĠE ishockey
ĠZ ehn
im ir
Ã¶r g
ech er
ak on
Ġre al
Ġlie fern
br eitung
ction s
sb urger
gÃ¤n glich
F lag
M em
st ufe
ei ro
ĠMark us
Ġnord Ã¶stlich
Ġbestehen de
Ġzentr ale
Ġtradition ellen
spann ung
ĠEind ruck
T hrowable
È Ļ
sch ungs
ĠG au
ier endes
ĠJ ubil
qu alitÃ¤t
Ã¤nd ige
ĠsÃ¼d Ã¶stlich
ĠTem pel
ĠRegel n
prÃ¤ senz
haupt stadt
ĠAndr Ã©
sylv ania
s z
ra ct
ĠAn k
ĠNach folge
Ġ// $
199 2
ĠLes er
spl it
ĠverfÃ¼ gen
ĠVerantwort ung
M O
d elete
ĠF ans
ed y
In sel
pl it
amt es
spro gramm
EX T
sch el
ĠD ollar
Ġm Ã¼s
ĠL em
ĠSch reib
ĠAn erkennung
Ġsch wei
ĠAr ab
Ġum gebaut
spieler in
ĠBl ues
ĠFor ce
Ġbew usst
Ġ188 2
ĠAu ge
ĠZug riff
ĠKompon isten
ĠPra kt
Ġruss ische
CD U
ĠDokument ation
ĠBundest ag
Â ´
or b
sp itze
ĠVer n
Ġst arten
ial s
ĠSchw anz
Ġfre und
Ġlern te
g reg
v iel
er tet
ĠM etz
Ã¤t igung
ĠPro ject
res ources
Ġeigen er
ĠHam mer
Ġschl ug
ĠBab y
cel ona
ĠÃĦg ypten
ĠgetÃ¶ tet
ĠM ig
em burg
ĠP ut
Ã¶ scht
Ġg ot
ĠGesch windigkeit
Ġverl etzt
aj a
ĠTour ismus
unn ing
ĠRest e
Ġlist ener
I ter
hr op
Ġf ach
ĠW ork
rau cher
ĠZu cker
ĠChrist us
herr schaft
Mus iker
Ġchar akter
ĠTschech ien
Jul i
ĠM inn
Ġin klusive
ĠO ze
Ġl ei
pro p
hÃ¶r igkeit
ĠWelt meister
Ġher um
ĠBundes ver
ĠIs lam
ĠPort al
Ġwh ich
ĠGi ov
Ġlau tet
I F
e ber
Ġb reite
Ġ( ).
ĠJ ord
ĠC ir
ĠVer fassungs
ap s
Ġunser es
aw t
Ġverst arb
ĠElektr o
Ġsh ort
ĠLÃ¶ wen
ĠniederlÃ¤nd ischer
ĠBiele feld
4 00
J ugend
j ust
am ik
ol stadt
ĠT an
ĠGroÃŁ herzog
ĠGott fried
ĠAben teuer
Ġposit iv
Ġabger issen
G u
M art
ĠL och
ĠEin er
ech nung
Ġgen annte
man ager
deck e
Ġbew egen
Ġem pty
Ġnord westlich
Ġfertig gestellt
ĠEreig nisse
d om
ĠS E
is m
Ġan gen
ĠVer stÃ¤nd
os se
get T
Ġum s
ĠCh allen
olog ien
Ġges prochen
ĠSh op
Ġ188 3
ĠTer ritor
Ġjeder zeit
Ġgetr offen
ĠverstÃ¤r kt
Ġd b
sch ild
ĠV ir
ĠJ ones
Ã¤t zt
aus o
Ġvor ne
ov iÄĩ
ĠUm satz
ĠBl Ã¤tter
ctor s
ĠJu an
ele ge
Ġverw endete
ĠKauf mann
deutsch land
S eptember
i oren
st em
ĠM ov
Ġm ay
ĠW Ã¼n
Ġer geben
Ġbe en
ĠBei spiele
ĠBe at
Ġgleich er
ĠSpr ing
ĠSk ulpt
ĠHe ad
ĠTer ror
ektr um
Lo ad
ĠRaj on
U P
Ġw eb
le un
Ġk Ã¶rper
Ġst rate
Ġnach gewiesen
ĠCon c
lay er
Ġunb ed
ĠWissenschaft ler
ĠFel ix
komm t
zus etzen
Ġerwar ten
g ard
ar gs
ĠM u
is st
ĠSch aff
ĠAb stra
ĠInd ividu
Ġpolit isch
Ġsol cher
ĠBud ap
ĠVen edig
R uss
g ast
r olle
z ut
al ition
Ġk Ã¼nft
ic ast
Ġp reis
he ater
ĉĉ ĉ
ett i
enden cy
ĠHe er
druck t
Ġgeboren e
LA SS
W ien
ĠB lo
Ġm ex
ĠK Ã¼nst
ĠF u
Ġer leben
Ġge fertigt
Ġver gessen
Ġ186 8
system e
ĠGelegen heit
sch reiben
as i
est ern
ĠSch atten
Ġdies mal
zeug ung
Ġat om
ĠBed Ã¼rf
Ġschwer e
ĠInnen stadt
ĠEben so
ĠAuss age
ĠZun Ã¤chst
; ;
O ktober
r oll
z o
Ġk ennt
Ã¤r n
res p
Pro f
ĠKo ordin
Ge org
V om
e ff
ein s
ĠH D
ĠR on
lei ben
Ġbes uchen
Ġ188 6
Ġ188 7
minister iums
Ġoffen bar
ĠPrÃ¼ f
ĠNomin ierung
RÃ¶m isch
A c
Ġan sonsten
Ġt mp
Ġ} ;
ĠAn lass
St affel
ĠKon zentr
Pro file
Ġbef Ã¶rdert
ĠHal te
ĠJugend liche
ĠFil men
agn ost
BevÃ¶lker ungs
A pril
b ten
g ier
ĠV inc
Ġab hÃ¤ng
ĠVor stellung
EN D
Ġgesp eichert
ĠRÃ¶ mer
dar steller
( @
s ort
w irt
um l
ĠAn ne
ap elle
Ã¨ s
ĠMy th
Ġkathol ische
ĠBrow n
U B
i ologie
m ain
ĠS atell
Ġv ol
ĠA gr
ĠL Ã¶sungen
ĠSch icks
Ġsch lecht
lie hen
burg h
ĠHoch schul
ĠRes ponse
wir d
Ġbezie ht
Digit alisat
ĠWag ner
Q UE
c an
Ġd oc
Ã¼ se
ĠBr uch
schie de
ĠTr ier
k rank
st ahl
ĠS P
ĠS om
em als
ĠF as
Ġt here
Ã¤n ke
ĠMar x
ingen ieur
Ġ8 5
ĠBl ue
Ġgel ungen
Ġ187 4
stant in
Ġpromov ierte
B O
sch end
ĠP age
Ġt au
Ġtr ocken
ges ellschaften
Ġ5 3
ph a
ata illon
ĠSo zi
Ġviel er
ĠFahr rad
AC E
ĠJer usalem
ar film
or um
Ġf rau
ĠW ik
us se
fahr ten
ĠLe e
uff ix
Ġhand elte
Ġbem erk
Ġfeier te
C urrent
i ot
ĠB la
ĠR eh
iz en
ĠPro perty
ĠPl attform
ĠHand lung
ĠGe denk
Array List
ĠEt appe
Ġzeit genÃ¶ss
ĠVerl ust
Ġkor re
A gent
D on
Ġ reichen
Ġ Ã¤ndern
bo ot
ĠFor der
lÃ¤nd ische
ĠSam uel
iller ie
Ġprakt isch
ĠVort eil
C ol
H alb
ge tr
Ġw eite
Ġm ont
ĠK ie
ĠP ot
ĠJ eder
ĠZ o
eu ern
ĠAn sicht
urn e
Ġpro du
ĠPar ad
RE S
Loc ale
Ġwoll ten
ĠAustr al
Schwei zer
s d
Ġ 00
in ten
ĠE N
ĠAus zeichnungen
gesch lecht
ĠOrt schaften
ĠHe eres
best and
ĠBrun o
M ENT
n oten
t ums
am burg
ĠN ation
scha ff
eck t
Ġbet reibt
ĠRob in
c ape
g al
Ã¼ ÃŁ
ĠE ch
ĠW ende
pl es
arr ier
Wir d
Ġdest ination
ĠRÃ¤ ume
frist ig
ĠErinner ung
ĠNikol aus
kÃ¼r zung
E p
c ard
c omm
ĠA C
ĠĠĠĠĠĠĠĠ ĠĠĠ
ĠT auf
Ġzu gelassen
eb urg
ver hÃ¤ltnis
uf er
oll ow
org an
ĠWil son
ĠCo ok
ĠTem plate
ĠnatÃ¼r liche
fre ie
Ġmittler e
sto ffen
Ġkir ch
D o
is l
ent ity
Ġst abil
Ġun gewÃ¶hn
ungs gebiet
gr Ã¼ndung
ĠMa jor
lex ikon
ĠUr teil
ĠDorf es
Film schauspieler
ĠnatÃ¼r lichen
Ġober halb
Ġerweiter te
ĠCollection s
Ġscheiter te
N etwork
c at
Ñ ı
st atic
ĠA fr
as ks
ĠM ans
ĠK el
ol is
ech ter
Ġthe oret
eld et
ĠWerk statt
port al
Ġ186 1
ĠDi Ã¶z
Ġausgew Ã¤hlt
ĠBil dern
national spieler
eistert itel
r ein
Ġ ).
ĠS y
ĠK h
Ġunter gebracht
ĠKunst stoff
ĠÃĸsterreich ischen
Produ ct
B aden
T L
on te
Ã¤ ck
ĠSt Ã¼cke
Ġlie fer
ĠSe gel
Ã¤tz ung
ĠRu he
ĠHoll y
B U
ur er
ĠB am
ĠM uss
ĠG od
ĠW ood
ĠR ats
Ã¼r zt
ĠC ab
Ġp oint
rit ter
ĠAuf ruf
min istr
ĠMan uel
ĠBeweg ungs
ĠNiederl anden
A rea
g roÃŁ
Ì Ī
ĠM es
Ġf u
ost a
Un ser
bild ungen
ĠFre der
ĠBar celona
Ġverkauf en
Ġwirtschaft lichen
ĠBesatz ung
F est
R eturn
w h
č ĊĠĠĠĠĠĠĠĠ
ĠB uffer
Ġf ein
ĠJ ag
Ġaus einander
âĢľ ),
Ġvor der
Ġ" );
amm ern
IN ST
Ġwel chen
ĠWir d
fÃ¤l len
ĠEng ine
Ġconfig uration
ĠLÃ¼ beck
ĠMitt woch
v ideo
ie fen
ĠB arn
ĠM aur
ĠF A
le ft
ul f
Ġver ste
Ġwar ten
ĠBer ge
ĠAnder e
contains Key
mir al
z usammen
Ġm achten
Ã¶ ger
ĠN et
ul iert
Ġver teilt
Ġaus drÃ¼ck
ĠStr ahl
ĠVor stands
ĠÃľber nahme
ĠWei bchen
Ġall eine
ĠInd ust
ĠÄ Į
rupted Exception
m ol
z elt
Ġb reiten
ĠH allen
tr im
Ġge eig
ip edia
ĠVor bild
ĠSpiel tag
ĠLe o
Ã¼l ler
glieder ung
urnal ist
ĠursprÃ¼n gliche
ĠCor por
ĠSen at
ĠMaler ei
ĠGebie ten
Ġpass iert
ĠBrem er
l uft
st eig
or ien
Ġw hen
Ġin spir
ĠF ast
Ġer ober
Ġver arbeitet
Ġj ust
19 18
olog ical
jahr e
wor tet
ĠReze pt
ĠRol and
ur st
re uth
ro ad
ĠN az
ĠC H
Ġk ost
Ġauf zu
Ġp ut
Ġex tra
ĠY or
ĠTr ump
ĠUniversitÃ¤t s
Ġschn eller
ĠEinwohner zahl
ĠKat alog
ĠMinister prÃ¤sident
ĠCharl otte
ĠDef inition
ĠKapit Ã¤n
A ME
st ar
es p
ol ph
ĠC ann
ĠIn fos
Ċĉĉ Ċĉ
Ġvor ber
me te
Ġis rael
ĠfÃ¼hr enden
ĠMo z
ĠMet al
jen igen
d ist
g le
r s
ar isch
ĠM asse
ĠP seud
ĠH ey
ĠEr klÃ¤rung
gr enz
ĠKl ang
hol en
Ã¼l le
Ġabge st
198 9
Ġproduz ierte
ĠBach elor
ĠjÃ¼d ische
---------------- ----------------
Ġdur fte
Ġverbess ern
ĠendgÃ¼lt ig
ĠAufent halt
M er
W R
b Ã¶
st es
ĠF assung
ĠH ex
ĠN ass
ĠVer dienste
Ver tex
ĠFrei herr
ĠSer ies
ĠGef Ã¼hl
ĠMeister schaften
forder ung
Not ification
ĠKandid aten
Ġreduz iert
BevÃ¶lkerungs entwicklung
X base
ĠF ootball
ĠG riff
ĠSp ur
so ft
ĠFrei will
cy cl
Ã¼st et
ĠAust ausch
ĠmÃ¶ gliche
ĠModer ne
Jahrhundert s
nap shot
is er
re z
all o
Ġzum eist
Ġent f
Ġ5 8
ĠEx pression
ĠBet on
Ġger inger
ĠEurop Ã¤ische
Ġ188 1
ĠDo ktor
t urm
ar ischer
ĠA M
am i
ĠG n
ber atung
Ġh undert
Ġo s
ĠSÃ¼d west
equals IgnoreCase
ĠBek annt
Ġnorm al
Gener ator
Ġ{} ",
v arian
an ke
ĠS ei
ĠB Ã¶r
ĠM ie
Ġn Ã¤chst
ĠH ung
Ġdes cription
Ġal ter
Ã¤t igkeiten
ungs mittel
iker in
lau ch
ĠPf alz
AT O
gebie ts
Ġjapan ischer
ĠGal ax
P ers
b Ã¤
Ġ ðŁ
al it
ich en
ĠB ibel
Ġm orgen
deut scher
199 3
Film titel
sprÃ¼ che
h s
s f
t in
sch wei
Ġs yn
ĠF it
ĠR olf
Ġg lob
id den
ett ing
ark e
Ġges agt
ĠDar aufhin
Ġ186 9
ĠerklÃ¤r en
O B
ĠM ike
ĠF rom
ĠP ader
Ġk rÃ¤
rei ft
ĠO bst
ĠSt ory
Ġp o
ow itz
Ã¼n de
Ġsch m
ĠAl les
Ġum stritten
Die ses
ĠTh or
ĠRes ource
ĠNe ur
frei en
F S
Z one
ĠK Z
ĠE ff
Ġst imm
stell ers
ant on
Ġlie genden
ĠPl Ã¤ne
dem okrat
ĠGemeinde gebiet
sw ald
ĠAss istent
ĠUnabhÃ¤ng igkeit
R ock
an alyse
Ġin to
ĠK ader
ic i
he ader
im b
im p
ct ure
ĠEin stellung
Ġ3 000
ĠSie gen
Ġ186 5
stehen den
ĠStad tr
ĠWehr macht
fa iled
Ġkanad ischer
(... )");
m all
t irol
ĠS v
ein st
ĠG T
sp rÃ¤sident
ĠPro tocolMarshaller
Ġ6 2
ĠMon ats
ĠMÃ¤n nern
ĠKant ons
achus etts
C ell
C ap
R ender
b il
b egr
g f
l abel
Ä Ļ
ĠS ehenswÃ¼rdigkeiten
de v
ber to
Ġer folgen
ĠN ick
ĠSch uhe
ib l
hl on
ĠIm p
ĠBew erb
Ad apter
ĠKo hlen
ĠNe useeland
ĠschlieÃŁ t
ĠEigen tÃ¼mer
Ġgl Ã¼ck
ĠLeichtathlet ik
ĠMaxim ilian
D evice
h ause
s aison
Ã¼ cher
ĠW icht
ĠL ibrary
ver lauf
Ġst op
Ġmehr mals
Ã¤ch te
Ġe ffekt
ĠNeu es
ĠDon nerstag
ĠHin weise
ĠdÃ¼r fte
Ġrec ord
á ¸
at her
ĠA TP
ĠM B
Ġein heit
eg er
ers dorf
Ġum gesetzt
gel Ã¤nde
ĠAuf merksam
ĠĊĠĊ ĠĊĠĊ
Ġverwend eten
198 4
ĠFreund in
ĠDel eg
Ġdamal ige
ĠFÃ¤h igkeiten
ĠsÃ¤m tliche
Ġbenachbar ten
V ideo
z esse
ĠS her
ar es
ĠA cker
ĠM Ã©
ĠH eck
and eln
ĠV ul
ab els
ĠC reate
Ġg raph
ĠIn sbesondere
os h
Ã¤n glich
ĠAl so
ĠThe at
)) )
ĠAt mosphÃ¤re
Ġu kra
ĠSyn ag
spart ei
ĠVict or
Disk ografie
ĠK en
ĠT am
ĠO liver
Ġnach fol
hl t
sk irche
ĠKon f
ĠChr on
Ġar ab
ĠAp othe
ĠAutor in
Mot or
b uf
Ġ( _
ĠF o
ĠF ehl
re te
ĠSch reiben
eg a
Ġlie ÃŁen
Ġres ources
Ġgesch ieht
ĠProf ess
S ocket
Ġ18 00
ĠSpiel film
ĠzurÃ¼ck gegeben
Ġeinge st
sport ler
ĠTrain ings
ĠEns emble
ĠHÃ¶ch st
K ilometer
a pt
i y
s rc
el be
ĠT ick
Ġl anger
ien ne
Ġc re
iv als
Ġunter lag
ide os
ĠNord amerika
ĠBerg bau
ĠHigh way
ĠÃĦr zte
Ġschwar zen
ĠSchlieÃŁ lich
r eit
sch uhe
ein richtungen
ĠC er
Ġver haf
ĠJahr hund
ph y
br ig
ĠBau er
Ġgest artet
ĠAu ft
prÃ¤s identen
Ã¤te stens
strahl t
hor st
ynast ie
en se
ĠF alle
ĠJ Ã¼d
ir ke
ĠVer handlungen
ĠÃ¼ber all
fahr zeuge
Ã¶l l
ĠMin i
ĠArbeit geber
198 6
mut able
ĠSchne e
ĠMerk male
K omp
P al
m y
s ite
Ġd on
Ġs ur
ĠK ell
ĠP osten
ĠC olumb
Ġex per
Ġerfolg reiche
ĠkÃ¶nn t
On line
Frau en
ĠMad rid
Ġintens iv
Ġperson en
vorsitzen der
L uft
M ulti
ĠE ier
Ġc as
Ġj ener
ĠBer ater
ĠUm feld
Ġ186 3
AN D
rim in
ĠTyp s
ĠEvangel ischen
Ġschwed ischen
ĠGrÃ¤ fin
ĠBudap est
R un
R est
R ev
S onst
b old
f amilien
g asse
Ġv iew
ol en
ĠR ez
ent ication
Ġl agen
ĠSt imm
ĠAr gentin
Ġa fter
19 80
arb rÃ¼cken
ĠBo oks
fe ktur
ĠEx istenz
ĠHier bei
ĠTest ament
Ġoption al
ĠIntegr ation
k al
ĠZ ub
enn zeichnet
par ks
ĠAus wirkungen
Ġ5 9
Ġ8 8
Ch ain
ommer ziel
ĠTechn ischen
ĠHin weis
Ġstellvertreten der
Ñ Į
em p
ion ier
ĠT en
Ġge laden
ic on
Ġvor genommen
ohn e
Ġerk enn
send ung
ĠbeschÃ¤d igt
N odes
k ommand
at al
ĠK ai
ĠT ank
ĠL ange
Ġge lesen
ĠSch Ã¼tzen
amm elt
arch ie
Ġreg ister
ĠDienst leistungen
ĠNorm al
Ġerheb lich
Ġunbed ingt
F OL
ĠE rot
ĠH agen
ber uf
ĠC ent
Ġauf w
ĠAl kohol
Ġ6 6
gesch icht
ĠUS S
Ġbr ach
198 8
ĠKÃ¼ chen
Kirchen gebÃ¤ude
PersÃ¶n lichkeiten
B rite
Ġd ro
an dern
al ign
Ġin vest
Ġo pen
os ite
pro ject
ĠBau ch
ĠChr isten
ĠÃĸsterreich s
ĠWar schau
ĠLeip ziger
des ign
ĠKompon enten
Ġjapan ische
ĠBesatz ungs
Kompon ist
W ill
b art
w ahr
in ing
Ġt olle
sp e
ĠIn stanz
Ġaus gebaut
Ġr ies
ep pe
ĠHer zen
Sch ule
ĠMen gen
kehr t
ĠDu isburg
Ġ186 4
A ud
S L
w inkel
au ung
or o
ac y
Sch n
eig ung
ĠFre unden
ĠSystem s
ĠWeiter hin
Ġ187 6
ĠTre ffer
ĠSieg fried
ĠbenÃ¶t igen
eucht ung
Ġak zept
loc al
D ay
d oc
k k
ei be
al u
ĠG ymnas
Ġf inde
ĠH op
ĠH enn
tr ace
ach se
ist et
ĠAn trieb
id es
Ġ18 15
In formation
Ġsow eit
ian ischen
ĠReich es
ĠVers orgung
ĠMo dern
ĠBel ast
Ġentwick elten
Ġ187 3
ĠTri b
UN G
Ġse arch
ĠMotor rad
wir ken
fÃ¶rm igen
T urnier
h ou
o ter
t oken
Ġ achten
Ġs um
Ġv ia
Ġf ehlt
Ġh aus
Ġh tml
Ġge weiht
Ġzu gÃ¤nglich
ĠZ iegel
ĠAr me
ma jor
193 9
Ġmeisten s
ĠEben falls
ĠKomment ar
ĠJahrzehn ten
D ezember
M AX
S D
k anz
ar is
Ġb undes
ĠH aw
re qu
lich ten
ĠC lem
Ġge g
eich nungen
ĠAus gaben
ĠBr Ã¼cken
wa ffen
ĠRe prÃ¤sentanten
Ġverb esser
Ġ186 2
Ġte st
ĠVerl Ã¤ngerung
ĠKolon ial
ĠClau d
F ranzÃ¶s
r as
Ġv oller
ĠD ra
ĠK ohl
ĠF res
ĠL A
Ġbe achten
ĠSp ar
Ġ18 78
Ġher e
lauf en
ĠVolks zÃ¤hlung
193 3
ĊĠĠĠĠĠĠĠĠĠĠĠĠĠĠĠĠĠĠĠĠĠĠĠĠĠĠĠĠĠĠĠĠ ĠĠĠĠĠĠĠ
Ġak adem
ĠDÃ¶r fer
ĠTie fe
T al
v ey
ĠK lin
ĠW ass
Ġzu frieden
Ġst ra
art ier
per iode
res pon
sh ire
hol ung
ĠFest ung
ĠPat rick
Ġ187 7
ĠWal es
ĠEing abe
abr Ã¼ck
ĠAltern ative
V O
d h
r ingen
Ð ´
un ken
el er
em s
Ġf f
ĠW alt
Ġan bie
get X
ĠSp recher
Ġ18 40
hen den
rÃ¤ umen
Ġgen auso
ĠChr is
ÃŃ o
ĠRep ubl
ĠAmer ica
Ġse par
ĠViertel finale
ĠCarol ina
Po inter
Ġstru ktur
D elete
Ñ ĭ
Ċ ĠĠĠĠĠĠ
ei ÃŁ
ĠB od
Ġ1 15
Ġin folge
Ġh Ã¤ngt
Ġp refix
wei ch
ĠAl len
ph abet
ĠGem ark
ĠSchw imm
alis ieren
IV E
ĠBoch um
Ġausreich end
ĠGiov anni
Q U
h y
ĠB enn
ĠP in
Ġk ompon
Ġl abel
Ġre v
Con sumer
Ġbest ehend
ĠBr ut
kl ar
ĠVers icherungs
ĠAlter s
SI ZE
ĠÃ¤lter e
Ġarch Ã¤
Ġschwar ze
ĠEber hard
ĠFinn land
w ein
ĠD J
ĠF ound
ĠP az
Ġk Ã¼nst
Ã¤n omen
ay load
ĠNeu stadt
Ġro ten
ĠSystem e
ĠKont in
spro zess
ĠDo ug
Ġerrich ten
ĠGit arr
ĠDrit tel
r ufen
Ġf lex
ĠT un
Ġl ive
ser ien
ĠMit arbeitern
Ġkon stru
Ġgelang te
ĠHalb insel
ĠJur y
Ġged reht
ĠSign al
liefer ung
ĠerfÃ¼l lt
ĠAufmerksam keit
M Ã¼n
n abrÃ¼ck
u an
un ks
re ste
ĠJ Ã¤ger
Ġver an
ien te
Ġaus gewiesen
ĠAl ben
geb oren
ĠAus bildungs
pf lan
ĠAuf tritt
wa ffe
ĠSÃ¼d afrika
legen heiten
Ġspeziel len
Ġwirtschaft liche
ĠUp date
Ġdiver sen
ĠLieb es
Ġanerk annt
R ennen
S A
Ġd re
ĠK reu
Ġf Ã¼hl
ant es
ĠZeit schriften
fahr ens
enz el
oph on
ĠSpr ung
ĠAnt i
ĠSchm uck
ĠBeh inder
Ġintegr iert
ĠAnz eige
ĠRumÃ¤n ien
Ġbrau chen
D ur
S an
p unkten
w eb
Ġ ei
on line
ĠA N
ĠB ang
Ġi gnor
ĠE P
ĠH als
Ġer for
ĠC ra
ĠC ru
ĠSt ill
Ġzwei er
ĠGew erbe
ĠRen aissance
ĠÃ¤uÃŁ erst
kore a
elemen te
F rÃ¼
e o
n ischen
ĠA cht
ĠF I
ĠP av
Ġl imit
if act
ĠAus sch
Ġ9 9
Ġber aten
ĠRegion alliga
verein igung
ĠAmer ika
ĠBot schaft
beg inn
ĠDep art
Ġerlang te
ĠVirg inia
voc ation
b uilder
de pen
ig an
ĠV ietnam
ir chen
Ġan n
ĠSch u
Ġaus gesch
Ġc tx
ok ol
Ġwieder holt
vor stand
Ġstatt dessen
Ġcont ainer
Z wei
j son
m ach
o ice
ein richtung
ĠF els
ĠT ipps
Ġzu verlÃ¤ss
amen te
Ġ7 2
alis ierte
verb Ã¤nde
Ġ185 2
gef angen
ĠPosition en
ĠFel der
ĠScien ces
endo ktor
ĠF ire
ĠE ver
âĢ ¢
Ġge arbeitet
Ġp ers
ĠAus sicht
Ġgew Ã¶hn
Ġex pl
Ġeigen tlichen
ĠÃĸ k
buch autor
ĠSilber medaille
stÃ¤r ke
ĠÃ¶ k
Stack Trace
ĠBasket ball
pflan zen
P at
m uster
Ġk Ã¤mpf
len z
ov o
Ġth an
ĠRe ad
Ġger ingen
Ġakt ive
Ã¶t zen
ĠKrieg sende
Bo unds
Argument s
Ġsof ern
B eh
M etric
V ari
c p
l igen
r iger
as sten
ĠD etail
Ġge Ã¶ffnet
ĠAus schuss
Ex tension
fl Ã¼sse
ĠDurch fÃ¼hrung
ĠInter pret
ĠKreis es
Ġstamm te
ĠKonfl ik
ĠberÃ¼cksicht igt
ĠverlÃ¤ng ert
n d
s ieg
ĠS ession
at iver
ĠL orenz
ĠR ac
ĠN ie
az itÃ¤t
Ġ9 6
ĠKl eine
ĠGeb Ã¤udes
ĠIhr es
ategor ie
ĠSem inar
Ġerinn ern
ĠfÃ¶r dern
B ek
n orm
in stance
sch Ã¼tzen
em pty
ĠR up
Ġsich ern
ĠEr gÃ¤n
og ramm
Ġj en
Ġ9 5
ĠKon kurrenz
iss ing
ĠEx ec
Deutsch e
ĠSk i
hÃ¶ fe
ĠÃ¼b lich
vis it
Ġbeeinfl usst
3 00
G o
J e
k es
ĠS he
it tel
us ste
ier bar
Ġge liefert
sp ital
19 70
Ġex pression
ĠPar allel
Ġ187 2
ĠSchiff s
ias ieger
ĠTon y
Ġdire kten
ĠStat istik
ĠerfÃ¼l len
E v
N orm
ĠL ED
Ġver grÃ¶ÃŁ
ĠU d
ri pt
og a
Ġsch mal
Ġgesch lagen
zw ungen
hand els
ĠAt trib
Auf grund
etr ics
ĠFrÃ¼ hl
ĠRot h
ĠBot an
ĠTok io
ĠDien ste
X X
g h
t l
er ing
Ġf ra
ĠL inden
Ġdes selben
Ġver g
ĠFl otte
ĠJo e
ĠRo se
Ã¶s ser
ĠQu ell
Ġhier fÃ¼r
ĠSchw ein
gor ithm
ĠMÃ¤n nchen
kn own
ĠSchwar zen
Sec urity
ĠFert ig
ĠlÃ¶ ste
ĠDiskuss ion
m ethode
en hagen
Ġd reh
ĠB ald
ĠG Ã¶r
ĠV ent
ĠJ Ã¼n
ĠIn schrift
Ġle gt
pro blem
spr uchs
Ġ14 0
Ġzusammen gef
ĠHei z
Ġcall back
Ġtem p
Ġindividu elle
ĠJes us
B ern
H z
M Ã¶
en kt
it is
ĠW omen
Ġver sen
Ġ" '
ĠNeu er
Mit tel
ĠOn kel
ĠSek retÃ¤r
adel ph
ĠWach stum
Ġsowjet ischen
pfl anz
ĠSpec ial
ĠKÃ¼nst lern
N ummer
O W
W el
d ichte
Î ±
ĠS achen
ĠD ein
ĠK ann
ĠP s
Ġauf merksam
Ġbest immen
Ã¼l ern
ĠParis er
ĠIr land
iffer ent
Ġposit ive
M I
S ol
W e
k Ã¶nig
Ġd ocument
st einen
ĠE cke
ing ham
rie den
ĠAb stieg
An fang
Ġwei ÃŁe
ĠBern ard
ĠGo od
ĠSen ioren
ĠVerbesser ung
A cc
C ounter
ĠM id
ĠL eh
Ġver folgt
ver halten
tel finale
ĠMar io
Ġgewann en
197 9
Ġengag ierte
Abst ract
E hren
Ð ¼
ie fe
al i
Ã¼ ÃŁe
Ġw Ã¤chst
Ġs end
ĠB ut
ĠM aus
ĠN ad
Ġp rÃ¼
Ġbei der
mer s
ex ception
con nection
ĠStud ies
Ein wohner
ekt or
AC K
ĠHen ri
Ġpoln ische
ĠKop enhagen
ĠnÃ¶t ig
c all
ad bach
ĠSt eiermark
ĠAn satz
lie sen
Ġeinge laden
sol e
ĠKont akte
Ġstar tet
Ġbesser e
beh Ã¶rde
fÃ¶rm ige
CT ION
ĠKab inett
umin ium
Reze ption
ontinu ier
ĠabhÃ¤ng ig
. ",
h Ã¤usern
k ette
Ġd ebÃ¼t
Ġb Ã¼rger
Ġz ogen
ĠG on
Ġf ehl
Ġvon einander
ĠC oll
ĠC ock
ul er
Ġum gew
ail and
gend es
ĠErn Ã¤hrung
ĠTim es
Ġleich ter
Ġinform ieren
B uild
M T
P aul
st eile
ĠK orn
ĠL ight
Ġh eight
ĠAb d
ĠVor trag
gl as
lau be
ĠBet racht
ron om
Ġfest gelegt
Ġ' "
Ġgest orben
ĠLau b
ĠmilitÃ¤r ischen
ĠVict oria
Ġdenk mal
F ra
N onn
d ire
z ten
an on
ĠA S
ĠD ocument
ĠM Ã¼hlen
ĠK im
ĠZ DF
iel ler
Ġver lei
Ġl eisten
ĠSch Ã¤den
ĠAr g
Die s
ens ure
stra fe
Or iginal
ĠÃĦ m
ĠMat rix
Rel ation
aliforn ia
TI ME
opÃ¤d ie
K ind
j amin
Ġw omit
ĠK rei
ĠK av
ĠF ab
ent hal
ĠIn c
Ġbe zÃ¼glich
ĠBer at
ĠSpiel s
aler weise
ĠProdu kten
ĠKap ital
ĠverÃ¶ffentlich ten
wÃ¼r fe
ĠJer sey
preuÃŁ en
A U
F ach
a al
ĠD unk
ĠC ommand
Ġan alys
ĠSt au
Ġr aus
op ter
Ġlie ben
Welt meisterschaften
Auth or
ĠHir sch
Wind ow
Cur ve
ĠRuh estand
Fried rich
G ET
W ar
Ã °
Ġm obil
Ġz ahlen
ĠT au
Ġge kauft
Ġab w
ĠAb wehr
Ġch ron
Ã¼l len
Ġstell ten
Ġ185 7
eta ill
Ã¶pf e
Dec imal
Ġged acht
verstÃ¤nd lich
ĠKath arina
Ġbequ em
ĠHolly wood
t ask
} .
ab ilit
Ġauf gel
ad es
19 30
Ġgen auer
ĠKirchen gemeinde
ĠMor itz
Ġ185 8
valid ate
ĠÃ¤hn liche
Ġbelie bt
ĠAbstra ct
Ġverhaf tet
L INE
T ags
k ind
y o
ĠA ur
ĠM eld
ĠP ont
and o
ĠJ enn
ĠJ unge
auf lÃ¶sung
Ġber u
ĠRo ger
man uel
ĠVal id
Ġregion alen
offiz ier
ĠPader born
l u
r ÃŃ
ĠB ecken
Ġf unction
is hed
Ġst et
ition en
ac ity
chn ik
ĠGel ehr
ĠErw Ã¤hnung
Ob j
ĠHoff nung
ĠColumb ia
O pen
on ia
ge stellten
or dent
Ã¼ sten
Ġin ne
em an
Ġm ath
ĠP etr
op ran
Ã¼hr t
ĠBet reuung
Ġx ml
omb ard
Ġrel ev
ĠWilliam s
ĠPrinz essin
Ġbekannte sten
ĠAsp ekte
adelph ia
Ġ ep
at ische
ĠP ers
hl eten
agen tur
Sch iff
Ġ| =
198 5
leist ungs
frei heit
ĠFlor ian
ĠKommand o
Ġbeob achtet
ĠRefer enz
P AT
Z entr
i Ã¨
ĠA ar
ĠB ast
Ġb ody
ĠL aden
ĠC ass
je ction
ĠAuf l
ĠQu ery
Ġgel ingt
Ġhand ler
ĠEv a
ĠRein hard
Ġevangel ische
Nov ember
ĠVerstÃ¤nd nis
b s
i ation
ĠF inger
ro ot
ĠC af
iz a
rÃ¤ der
ĠAd vent
ĠHand y
Ġcon tr
ĠMittel meer
Dat um
ĠHan sen
Struct ural
ĠBÃ¶h men
l Ã©
ĠS amen
Ġs ql
Ġm ut
Ġg o
19 14
ĠLand gericht
Ġdar stellen
ĠFran Ã§ois
such t
Ġben utz
Ġkon k
Item s
ĠStraÃŁen bahn
Ġhol te
Ġrest aur
ĠHig hl
ĠPenn sylvania
ĠP last
ig ation
19 44
if iers
imm ern
Ġger iet
Ġbesch loss
ĠTo urn
ĠNS DAP
Ġpassen de
ĠCentr e
! âĢľ
E E
S ER
c us
n ur
ein satz
Ġn a
Ġg ridBagConstraints
ĠO d
od ox
Ã¶n t
ph il
org ungs
Ġben annte
ĠHoff mann
L ayer
Ã¤ ure
Ġan notation
ĠO ver
ĠUn der
Ġ18 30
berg s
ĠBr Ã¼ssel
ĠKon serv
Ġle vel
ĠRo te
Ver b
ĠRu der
Dat abase
Ġkompl ette
Ãĸsterreich er
ĠSoph ie
D etails
H tml
m Ã¤r
Ġb ound
Ġein gebaut
ten nis
ĠL ord
Ġk re
Ġk inder
ist ics
tem peratur
ĠAll gemeine
Oper ator
ĠVerteid igung
ĠÃĦnder ung
ĠProm otion
lok omot
Ġfung ierte
I con
L AN
c ms
ĠF okus
ĠH Ã¤nde
ig sten
ĠI ran
ĠMar g
oc us
Ġverb inden
Ċĉĉĉĉ ĉĉĉĉ
Mod ell
ĠBischof s
ĠSied lungs
Ġpoln ischer
Fol der
ĠMount ain
B und
E ben
c ache
s ver
s ied
ber ater
ĠN umber
ir r
Ġst ore
ud a
sh afen
br unnen
IN TER
ĠBet reiber
ĠGo ethe
Ġklass ische
Ġbegr enzt
Ehr ungen
H il
K or
O ff
g ert
Ġd oppel
ĠS K
it ro
ĠM ul
ĠVer f
ĠĊ ĊĠ
ĠSp ark
ĠÃ¼ber gebenen
ĠEin kommen
lo gen
ĠAb b
ze ption
ĠAut os
Ġern annte
ĠJugend lichen
Names pace
ĠDef ault
gesp ielt
ĠVarian ten
sab geordneter
al teten
sch lagen
Ġs par
ĠA ccess
ĠH ot
ĠW end
Ġer ot
Ġg aben
ĠAn wendungen
ĠEr werb
eil ung
Ġ18 49
Ã¶l be
ĠSchw estern
hÃ¶ hung
Ġspe zif
198 1
por ary
Ġresource GroupName
wÃ¤rt igen
ĠDemokrat ischen
ĠFrem d
Hinter grund
b lau
o ÃŁ
u it
ĠD al
Ġein erseits
ĠE valu
ĠP ul
ĠP ublish
ĠW uppert
ĠC la
Con verter
ĠSta ates
Ġ% .
ĠVers ionen
ĠMot to
klÃ¤r t
ĠOs nabrÃ¼ck
ĠKu gel
ĠMathemat iker
frie s
ĠSum me
Ġkauf te
T ab
m utter
at isch
ĠK ompl
ĠR eiter
ĠIn haber
ĠDie sel
od ie
ĠKl ar
Ġerfolg ten
197 6
zÃ¼ gen
ĠArm y
Ġmensch lichen
Sow jet
D enk
s orge
el f
ol t
and om
ic ip
pf en
Ġdrei mal
ĠRe paratur
ĠVerb raucher
usst sein
entry Set
Ġwid mete
ĠHit ler
Ġforder te
ĠExempl are
Ġangep asst
D okument
T or
ĠW ater
ĠR E
ĠI B
ĠI tem
ĠV ogt
Ġk ontinuier
ler in
19 29
ev or
Ġlie be
Ġ6 8
atch er
ĠNord west
ĠWest falen
By Comparator
itu ationen
Ġoffen e
ĠStock holm
Ã¶tzen see
ĠdebÃ¼t ierte
F ebruar
G ymnasium
R C
ĠS G
ĠA le
ĠE y
ĠC alifornia
Er zeugt
ĠEl l
ĠMult icast
B es
M ult
N icht
R et
S ing
t ail
st ore
tr olle
ĠJ Ã¶rg
ĠZ eilen
Ġbe zogen
ĠRep ort
Ġ185 5
ĠNor bert
spart ner
ĠCast le
Ġehren amt
I hr
ab schluss
Ġver standen
Ġc ur
pe kt
Ġunter schieden
Ġ5 000
onn a
ĠGesch enk
Sch on
Res ults
dienst kreuz
ĠBad minton
ĠWor ksh
zÃ¼ g
ĠÃ¤uÃŁ eren
ĠÃ¼bern immt
ĠbeschÃ¤ft igte
ĠDek an
track ing
Ġuntersch rieb
ĠErwachsen en
k le
un ker
sch Ã¤d
ĠL eu
ag ing
im es
Ã¤n zer
Ã¤hr en
bar ung
Ġel eg
Ġverb lieben
Ġfest gestellt
197 2
ĠTa geb
Ġwichtig ste
ĠHan se
Ð¾Ð ²
ĠLink ed
VerÃ¶ffentlich ungen
g Ã¤nger
te in
at tr
ĠB ow
ĠK abel
ĠF eucht
ĠP ac
ĠV ill
ro ck
etz e
Ġa cc
ĠMar in
ĠKon text
ĠGesch w
ĠZwei g
ĠMill ion
Ġverm eiden
198 7
ĠJac ques
Ġevangel ischen
ĠDigit al
Ġoff ens
b org
z ucht
ĠG ross
ĠE ffekt
ĠL okal
ĠL ittle
ĠN ATO
ov ed
ens is
Ã¼t tel
isten ce
Ġte le
Ġfrei will
Cl uster
Lin ie
Ġfe ature
ĠKonzer te
K lass
M ont
s Ã¼d
ur b
ĠM eine
Ġin tern
ĠIn se
ĠJahr gang
ran che
aus stattung
lo v
ov Ã¡
tem pt
Ġpro tected
ĠSpiel klasse
stan bul
zeu ger
sol v
ĠKn ochen
Reg ie
Ã¤mpf ung
cont ainer
Ġbild eten
ĠNav y
ĠInput Stream
hedr ale
C S
U UID
au ft
ich e
ĠM all
ĠF eier
ĠG il
ĠT ay
ĠL ock
ĠO h
Ġnoch mals
ĠMus ical
Ġth emat
sb et
fer en
ĠÃľber leben
trÃ¤ glich
Tra iner
Ġhei ÃŁen
sta ates
schau en
Inter val
End point
ĠVerband s
ĠInstr umente
ĠStruktur en
ĠPeters burg
ĠYo ung
R F
U l
b al
y c
Ġ append
Ġd t
ĠS ech
au e
ĠP yram
ĠR ÃŃo
ri o
19 78
19 26
ett a
ĠGesch lecht
ĠHaus halts
kir ch
rag ment
ĠÃ¼b lichen
ĠStÃ¤d t
abil itÃ¤t
Strate gy
INST ANCE
R hein
R oman
b eu
s eiten
er d
st unden
an ier
ĠH els
ab schnitt
Ġg ra
Ġt oll
Ġl it
19 20
ĠAus stellungen
Ġander erseits
be an
ĠMed ik
ĠTre ppen
197 5
ĠBef est
CO L
ĠJe ff
Ġrest lichen
ĠUrs ache
ĠFass ade
Ġchrist lichen
ĠMonument s
Ġphil osoph
sup ported
W rite
g ott
Ã¤ uÃŁ
Ġv ierte
ĠSt ationen
aus geber
Con dition
Ġ6 1
ĠSo ft
Ġen ger
ĠfrÃ¼ here
Ġgut es
Ġ185 6
ĠKin os
urf ace
pres entation
ĠGemeinder at
ĠSchott land
FOL LOW
p age
al ity
el y
Ġn ack
ĠP ant
Ġh om
Ġk aiser
20 21
ĠChrist i
Ġall gemeine
Ġschn elle
aff e
ĠGrÃ¼n de
ĠRest aur
UN D
ĠJack son
Ġausgeb ildet
ĠNahr ung
Ġfal sch
o en
Ã¤ le
de p
ĠC ob
ran ts
ĠauÃŁer gewÃ¶hn
sta ats
198 3
Ġ185 9
193 8
ĠCor ps
Ġdire kte
ĠGreg or
b ist
ĠF air
ĠG h
ĠV ieh
ad i
id x
Ġ- -
av ax
sh ow
film ung
ĠMag n
ĠGen e
Ġinner en
195 2
ĠHu bert
Ph ys
Ġindividu ellen
ĠProz esse
Ġsorg te
ĠRett ungs
h Ã¼tte
m essen
Ã ĥ
or chester
ĠO f
Ġam t
urg esch
stan ces
Ġverl ang
back ground
ĠViel falt
Ã¤cht nis
Ġbedeuten de
Ġland es
ĠPremier minister
chten stein
rah men
ĠstÃ¤dt ischen
Ġleist ungs
Nonn ull
) -
H ans
O UT
ĠH altung
tr Ã¤cht
ro d
Ġl ib
Ġ0 1
mit tag
Ġseit her
Ġange kÃ¼nd
rech nung
kon stru
ĠKur fÃ¼rst
Sc reen
Ġeurop Ã¤ische
ĠHash Set
ĠDro gen
P okal
e ep
n acht
an ts
ĠS ele
ĠS yd
am ts
ĠSt ipend
En coding
com pare
Ġ185 4
Ġmax imale
EL D
ĠSyn th
Ġumfang reiche
BÃ¼rger meister
C olle
Ġd auert
al in
Ã¤ hne
ĠZ ut
ĠU RI
os m
ehr ung
Ã¤t igen
19 50
ĠPro test
Ġ" ";
ĠBl u
Ġausge prÃ¤
ĠPr int
verb indungen
Data Type
Ġinter pret
ĠCom ic
Ġbezie hen
ĠDiv is
ĠplÃ¶t zlich
d ay
m Ã¤nn
Ġge leitet
ĠO hne
if er
Ġ" .
Ġman chen
off s
ĠEx il
ace ae
sw itch
ĠMag az
ĠDat abase
ĠzusÃ¤tz lichen
ĠKind es
inc ipal
Verein igtes
__ __
wal de
Fr ame
Ġstaat lichen
ĠLad y
ĠHild esheim
A ber
R und
Ġw ind
Ã¤ ste
ĠK Ã¶
Ġge pf
ft igen
Ġauf einander
ĠAb lauf
Ar gs
Ġkon zip
ĠWohn haus
we en
Ġhinzu gefÃ¼gt
Ġerziel en
ĠAnder s
Ġerr ichteten
ĠAuss agen
lieder ung
Ġren ov
ĠMisch ung
) ).
V E
g Ã¤ng
v org
Ġw asser
ĠM usch
ĠF ren
ĠG Ã¶
Ġk ommerziel
ot yp
Ġaus geschlossen
ert ungen
if orm
ĠBau reihe
ied s
ĠTr ink
Ã¤m me
Ġeinge gliedert
Ġeinge weiht
ĠReich stag
ĠSal v
ĠTre ff
ĠWahr heit
kathol ischen
G egen
I st
L ehr
Ġd ella
Ġder selben
et tet
ĠP okal
ĠL aus
ĠSch Ã¤d
Ġp revious
ver gleich
Ġst il
im etern
Ġr ange
Ġr umÃ¤n
ĠEin zugs
ĠSie ge
Ġgew id
pro perties
ator in
Ġerreich bar
Ġaktuell es
ĠInner en
ĠSym pt
Ġmittelalter lichen
ĠMicro soft
Ġstrate g
t ax
er z
ĠB anken
Ġin kl
am ing
ĠF an
ĠH ang
Ġer mord
ro hr
ern t
hof er
ĠOl d
ask a
ĠLehr stuhl
ĠPer formance
196 9
197 4
ĠKind heit
fried hof
bÃ¼ ro
iction ary
ĠLokomot iven
rue ft
ĠDok umente
J ohn
c ap
f eier
g uez
ar ett
Ġm Ã¤cht
ĠG az
Ġt ot
ĠSch Ã¼lern
Ġp at
eg ate
ĠSp ace
ĠAr rays
Ġtr afen
up pe
St orage
ans as
ĠHand lungs
Ã¤s se
ĠPart ie
ĠPart ien
zahl t
stit u
ĠSa arbrÃ¼cken
ĠDen ken
Option al
part ei
Ġfield s
ĠZust immung
FI X
ehm igung
ĠRh yth
Ġinform iert
ĠdÃ¤n ischen
ĠAbt ei
Ä Ł
ĠW itten
ĠR eit
om on
ĠN utzen
Ġauf s
ĠEr hebung
ĠEin sÃ¤tzen
af eln
Ġber ichtete
iss ions
Ġgef angen
zentr ums
ĠÃ¶ff nen
flug zeug
dis ziplin
Ġpersonen bezogen
c ur
k reise
p il
Ġ å
ie ber
Ġt iefer
19 25
Ġres ults
ĠSte ve
ou v
ĠEurop e
193 2
193 4
Ġwissenschaft licher
ĠDir igent
spez if
G ef
L ower
V ier
h eben
st Ã¼r
ĠD ass
ĠN ag
ĠZ eile
Ġdem okrat
get Parent
ĠAd d
Ġeigen tliche
ĠMill imeter
not ations
ĠHÃ¶he punkt
ĠprÃ¤sent ieren
ĠGot ha
yg on
B ig
J a
k lag
ĠS A
it ation
ĠA D
ĠM iet
ĠG abr
ĠW ay
ĠJ Ã¼
ĠZ ellen
Ġl Ã¤nd
wei he
ow o
() ),
nen nung
ak eten
ĠUnter grund
ĠBe weis
Ġkon serv
ĠWohn zimmer
SS R
ĠBi ografie
Ġherv orge
Ġgenau e
LO C
Ġinteress iert
ĠniederlÃ¤nd ischen
Ġperf ekte
D is
M a
S eite
S erv
f ul
ĠF ont
ĠF erner
ĠG ord
ĠE b
Ġf Ã¤hrt
um pen
Ġk Ã¼r
ĠÃ¼ber zeugen
ok oll
ĠGeb Ã¤uden
ĠRe zens
ĠHand eln
schl Ã¼sse
ĠPhil h
ĠCar lo
Ġgem Ã¼t
back tracking
193 6
ĠVertrag s
ĠBahnhof s
ĠPrem iere
Ġletzt lich
fir ma
ĠDoug las
f Ã¶rderung
i op
l s
l at
w issen
ĠE sp
Ġf eiern
ĠW iesen
ĠSt aub
Ġbei gesetzt
get Resource
ĠStr eifen
Ġent decken
ite e
An gabe
ĠChrist op
ĠKomm andeur
Ġbew eg
Hand le
196 8
ĠRed aktion
Char acter
Ġ1 14
ĠT able
ĠW inkel
ĠR av
ĠJahr buch
St a
Ġ0 9
Ġ13 0
Ġnun mehr
schein lichkeit
Ġbevor zu
ĠMass achusetts
irurg ie
ĠSmartph one
D omain
M erk
N etz
Ä Ĺ
Å Ľ
en ken
ĠS ed
it as
ĠG lobal
is emit
ĠH ut
Ġvor kommen
Ex p
ĠBau ten
fe ature
schl Ã¼ssel
ĠStud ios
Stand ard
euch ten
ĠThÃ¼r inger
ĠVort eile
tran sport
ĠGemark ung
Ġdenkmal gesch
b ur
r ath
ge mÃ¤ÃŁ
Ġw Ã¤ren
ĠA tem
ĠA ktionen
ĠD ur
ĠD Ã¼r
Ġm ain
and ten
Ġl ook
ver g
eg as
Ã¤t tern
Ġj ene
ĠAl uminium
rau ff
ĠFran ces
spr icht
ĠZwei ter
Ġabsol ut
ĠTel ek
Ġvertr ieben
Ġgepl anten
Ġvalid ate
Ġnutz te
Ġverbess ert
echan ik
Ġzusammengef asst
H C
P A
a ÃŁen
k ins
ĠC ell
wei chen
ĠAn bau
get Field
ĠÃ¼ber zeugt
ĠFl ach
ĠPl us
Pro p
ingen d
ĠEx pedition
ĠunterstÃ¼t zte
ĠPreuÃŁ ischen
PRO PER
( !
h ammer
Ġd icht
ĠD ark
ĠP ixel
ĠH Ã¶l
ber ge
ĠV ector
ik eln
ĠSt ief
ĠCh a
ian er
ym m
ĠUnter schiede
ĠHand ball
Ġbew egt
ĠFra ktion
bez eichnung
geord nete
ĠSalz burger
ĠTro cken
ĠVerbr eit
ĠWes entlichen
ĠTemperatur en
Ġentw orfen
D am
M ein
c or
at io
ĠB lei
ĠH ed
Ġer leich
Ġbis schen
Ġ18 46
anz eigen
ĠVor stellungen
fÃ¼hr ungen
Im port
Ġgef Ã¶rdert
Ġern st
ĠÃĦ l
Ġempf angen
Ġgek ennzeichnet
ĠEmpf eh
ĠDrit ter
ĠCont ainer
ĠSchwier igkeiten
Ġumgew andelt
L EN
M IN
l ige
s ql
et ische
ĠD ecken
ĠK ore
ĠW asch
ĠL ob
ĠL av
ĠEr lebnis
ĠÃ¼ber tr
Ġlie ber
ĠGesch ichts
ĠSpiel ern
ink i
Sie ger
ĠUr sprung
Ġgeb raucht
ĠÃĦ uÃŁ
Ġhistor iques
lÃ¤nd ischer
by tes
sprach ige
Vor pommern
ĠHerzog tum
ĠPhys iker
Ed ge
ĠDek or
nehm ung
rior ity
Final e
ĠStÃ¤r ke
G C
un en
ĠB enz
Ġm or
ĠR auch
Ġst eigt
im o
ak ten
pl ier
Ġ7 00
ĠBed ien
Ġus ed
ĊĠĠĠĠ ĊĠĠĠ
ĠHauptr olle
cycl op
F in
P rÃ¼
ĠD istr
ĠM ilit
Ġn utzt
ĠP ur
ĠW id
tr echt
ĠV in
uch er
lin ois
Ġab s
pl Ã¤tzen
ĠGr au
ĠMar sch
ĠIm mer
ĠIm per
los igkeit
ĠGem Ã¼se
Sch l
Ġ8 1
ĠNeu zeit
Ġ% )
ĠCo ver
ĠKo alition
ĠEigen tum
uld a
ĠInstitut ionen
ĠKaiser reich
Ġfr isch
Ġindividu ell
ĠRelig ions
ĠPorn o
Pass word
Ġbayer ischen
U RE
h ing
ge gn
ĠB ulgar
ĠH ahn
Ġh off
ĠVer st
pt on
ĠNach kommen
Ġ6 7
Er n
ĠPar ks
Ġeinge zogen
ĠFach werk
ĠWinter spiele
kn Ã¼pf
Column s
ĠReform ation
Hash Map
Ġschwier ig
ĠEh emann
Ã¤rn ten
B atch
S uper
in as
Ġ1 12
ĠF DP
ĠH alt
us a
Ġg gf
ĠO berg
Ġp rivat
ial ize
St ad
Ġ6 9
Ġeinz eln
ograph ischen
ĠZw angs
ĠAt hlet
ĠLandkreis es
itu de
ĠPrÃ¤ fektur
ĠPublik ationen
cover y
A ctivity
h ar
j Ã¤ger
l Ã¤ndern
ch annel
et ik
ro du
ed el
im ate
aut om
gew Ã¤ch
ĠTr ennung
Ġfest ge
ĠFranz osen
ĠAll ein
Ġverst eht
leist et
ĠVorsitzen de
ĠFÃ¤l le
Men u
ĠmaÃŁ geblich
A tt
P rÃ¤sident
S ION
s ing
ĠM esser
ĠP ek
ĠP ool
ĠZ ert
Ġ3 50
qu ellen
ĠKon stanz
Ġen code
ĠGew Ã¤sser
ĠAnt ike
Mod us
ĠpreuÃŁ ischer
ĠSat tel
ĠReihen folge
Ġeindeut ig
b le
h Ã¶ch
ĠF uchs
Ġf iles
ĠT ask
ĠVer sch
ĠAn meldung
ĠEr wart
ant ast
ĠVor gehen
sh ut
hand elt
ĠPhil adelphia
ĠWeil er
E lem
b in
d rom
ĠS qu
ĠB ean
ĠB ibliothe
ĠM eg
Ġf lag
ĠR ied
ran ten
ill y
ack e
Sch utz
US A
system s
ĠChem iker
herap eut
nehm ern
ĠSec urity
ĠVerteid igungs
F ot
M al
S aison
a wa
h ain
l Ã¶sen
r ise
it ing
ĠD IN
Ġm ech
ĠJ im
ĠO ran
ad ow
ĠSch um
Ġc ir
lin es
gesch ichten
ren ten
ement s
ps ych
198 2
193 1
ĠFÃ¼hr ungs
ĠJournal isten
verl ust
Ã¤rt ner
Sum mary
Mart in
Ġd ynam
on omen
ĠS or
ĠB atter
ĠF eu
ĠF ett
il ch
ĠSch rau
Ġbest ellen
Ã© g
stra te
Ġeigen stÃ¤ndige
ĠSh ort
ĠHerr scher
Ã¼tz ten
UT F
agn ose
Ã¤chs ische
ĠRis iko
**** ****
rÃŃ guez
T ube
a int
l aus
Ä ħ
Ġein gemein
ĠK riterien
ĠR as
tr ee
Ġan grenzen
ĠZ war
la fen
lie gende
Ġ18 37
of ilm
sb ild
Ġ7 4
eid et
Ġstehen den
Ġfort an
Ġnie mand
lehn ung
E isen
T a
n ik
ur ed
el ektr
ĠA y
ĠA z
ĠB at
is her
ĠN ev
ĠN RW
ĠJ ar
ah me
19 19
Ã¶n e
ĠFl Ã¼ss
eck er
kl assen
Un garn
ĠFilm fest
Ã¼h ler
ativ es
ĠTre e
ĠBef rei
Ġkosten lose
ĠlÃ¤nger e
Ph one
ĠCa pt
sthe orie
ĠEuropameister schaft
ĠVize prÃ¤sident
ĠBuffer ed
A k
ĠS ind
ĠT ypen
ĠL eucht
ĠV orm
Ġver dien
Ġo ur
ĠSch atz
ver kauf
os er
Ġ3 60
Con stant
Ġbest er
Ġ9 8
ober flÃ¤che
ĠOber liga
ĠLei b
ĠKat zen
ĠRod rÃŃguez
bas is
Dist ribution
Ġabgeb rochen
ibil ity
Ġzug unsten
Ġlehr te
Ġerkenn bar
E CT
O ne
d lich
f uÃŁ
ĠS erb
Ġm en
ĠF unde
ĠP ay
ĠL aur
ĠC ott
Ġl aden
ien ce
ĠCh am
ip per
ĠLand gemeinde
ĠDeutsch es
-- ;
Ġausge strahlt
Ġar gentin
Class Loader
geord neten
zy linder
Welt meister
kathol ische
ĠKer amik
ilen ame
Franz ose
P e
b ell
r ollen
Ġ1 18
ĠM ix
ĠG umm
ĠE k
le hen
ĠH ong
ĠL ichten
ĠV alue
Ġden ken
ir ken
ik ationen
Ġver zeichnet
im s
ĠEx pl
ĠWer ft
ĠSport ler
ĠSeit dem
ĠSol o
197 1
Ġ180 6
ĠRev iew
ĠBrie fe
Ġnied riger
Vis ible
solv enz
C L
R ight
S am
st het
ge x
ĠR iv
Ġim port
Ġp Content
ver arbeitung
ĠSp rech
Ġgr atis
Map per
ĠAt tribute
ĠWohn ungen
ĠLebens raum
anc el
the ater
ĠDokument arfilm
ĠZeich nungen
ĠOpp osition
Ele ktr
K ur
M AT
c ies
ie u
es er
Ġv irt
ĠA cc
Ġb ad
om etr
kt oren
ĠIn valid
ĠEr stellung
19 00
ĠPro perties
be auftrag
ian s
zw eck
ĠTr end
ĠPat ri
evel op
ĠWand el
Hol der
ĠWit we
W olf
i ffen
ch i
Ġs auber
ĠB auf
ĠK ok
ĠK ast
ĠT ieren
Ġim plement
Ġl eiden
ub a
Ġsie gte
Ġunter teilt
ĠIm pf
Ġ16 0
ĠParlament s
Ġfiel en
erkl Ã¤rung
P op
æ ľ
en ke
ĠK ilometern
ĠR Ã¼st
ck te
pl ant
ip her
Qu elle
Ġbeg eistert
ĠDurch schnitts
ĠSaison ende
Ġbeh err
ĠGu ide
ĠTour isten
ĠFreund schaft
ĠMc C
ĠVorder grund
ĠSamm el
Sa int
ĠIdent itÃ¤t
Tim estamp
Ġverh indert
ĠOrchest ra
: "
F eld
x x
Ġs itzen
Ġin iti
re al
men s
op le
Ġ18 45
ord nen
amm lungen
ĠPl at
war f
eren zen
ari us
Ġat tributes
197 7
CON T
angeb ote
C oun
C opy
K rieg
T ax
Ġs erb
ĠD own
ĠM Ã¼ndung
ĠK ent
um a
ag on
Ġr u
ĠEin sÃ¤tze
arb on
rich tet
als ieger
Er stellt
Ver walt
ĠSe ele
schul d
LE D
ĠGen f
ĠCl aus
ĠGeneral major
ĠgrÃ¶ÃŁten teils
tor hÃ¼ter
Ġfrau en
ĠSynag oge
b ury
f ache
at ischen
Ġ1 13
ert o
iz ieren
19 28
ult an
Ġsp anische
St ation
Ġex tr
wer fen
Ġ7 6
str Ã¶m
Ġbesonder er
ĠCar los
ĠBen jamin
Ġind ischen
Ġoft mals
Ġbed ient
Date Time
Ġausger ichtet
Ġzeich net
Ġweib liche
instr umente
ein kommen
ĠB orn
ĠB utter
ĠP ier
ber ts
ĠZ in
ĠEr sch
get Attribute
ĠEn kel
set s
Ġ7 3
fe ktion
ĠJohann a
Ġ> >
ĠForsch ungen
ĠHof mann
ĠStu dent
Gener al
Ste in
Ġgener ate
kan al
Ċĉĉĉĉĉĉ ĉ
Ġrechte ck
ĠPast or
an ter
ĠN ar
ien e
ib m
Ġpro test
Ġ8 2
Ġbeg leiten
Res olver
Mann schaft
ĠKÃ¶nig sberg
ĠVerb indungs
ĠHaus halt
At tr
Bo den
čĊ čĊĉ
ĠBi ographie
ĠDo zent
Ġsicher te
produ kte
Ġgez Ã¤hlt
prof essor
. ;
C lau
I E
d on
w enn
ĠK ro
om er
ĠN atÃ¼rlich
ĠSch e
sp ark
Ġr Ã¤um
ĠEin zug
Ġ18 20
qu ert
Ġ" +
ock e
ĠRe ktor
ash i
ĠText il
ake te
bes itzer
ĠverfÃ¼ gte
Ġerz ielt
Exec utor
ĠGet rei
Ġrule X
geg nung
Ġengag iert
ĠmilitÃ¤r ische
wander ung
ĠMÃ¤r chen
Ġsech sten
Ġregistr iert
Ġbedeutend sten
ĠClem ens
J J
J azz
N a
Ġs erv
ĠA kte
ĠR och
ĠVer mut
Ġ18 47
ens ive
ĠLe er
fig uren
ĠRech nung
ĠCon fig
ĠGew inner
ĠBuch t
ĠPer u
Mod ified
rim inal
Ġschwed ischer
ĠDemokrat ie
ĠZub ehÃ¶r
D ivision
h ers
Ġs ilber
ĠL ow
Ġh art
Ġauf nehmen
19 40
ĠMa ÃŁe
Ġ0 8
ĠKon stantin
arch itektur
euer ung
Ġdan eben
Ã¼rz te
ĠEich en
ĠTat ort
Wei ÃŁ
F uÃŁ
n ord
r in
in ternal
ĠS eil
or ges
at tribute
Ġs ame
ĠB uk
ĠD Ã¼n
ĠD isp
ĠV II
ier tem
ĠSch enk
ĠAn walt
Ġa fr
ĠBer ichte
ĠMar co
Ġber echnet
schie ÃŁen
ute te
ĠBand s
Ã¡ r
ari at
ÃŃ k
ĠWeiter entwicklung
ĠBesch luss
ĠErn est
ĠGold medaille
ĠKomp lex
Arch Ã¤
Ġqualifiz ierte
Ġfa iled
ĠLux emburg
ĠThr on
ĠBundesver dienstkreuz
B I
č ĊĠĠĠĠĠĠĠĠĠĠĠĠĠĠĠĠĠĠĠĠĠĠĠ
in f
te ste
ĠA rea
ĠH Ã¤ft
Ġ12 5
ade d
ele ted
laub nis
ĠAndre a
ĠBran chen
Ġnational sozial
ĠFinanz ierung
ĠWerb ung
## ##
ĠBom ben
ĠTats ache
ĠkÃ¼nd igte
c enter
x id
in ische
ĠD un
ĠG ieÃŁen
ĠW ettbew
Ã¶ ster
ĠN ich
ĠO utput
Ġst ack
19 22
19 24
Ġgen utz
ac ional
ais e
man ischen
ĠCon nection
ĠVolks gerichtshof
riter ia
Ġind ustr
193 7
Bau denkmal
ĠDist anz
ĠCamp us
Ġelement s
Ġgrund legen
" -
R eich
m eier
ĠB akter
ĠP ic
ĠT afel
ĠO S
ed a
get E
ate way
ges pr
Exception Constants
ĠEl f
ĠBet roffen
ĠKn ow
Ã¶m m
bet eil
SS ION
Ġ185 1
Ġadd ress
ĠDienst ag
Ġtrans action
ĠApp le
ĠRegierungs bezirk
Ġbestell t
E ishockey
H or
R equ
V iele
ĠS yr
ĠB R
as et
am ann
ĠK leidung
ĠH imm
ĠW arn
Ġt our
Ġl iber
get Time
ang le
qu ote
ĠVor name
ens wert
Ġ9 00
pro fil
ĠGrund riss
ĠFre quenz
ĠauÃŁer ordent
Ġaufge hoben
ĠSem in
stud ien
Ġrei ste
Ġgarant iert
glei s
ĠSchicks al
l och
Ã¼ g
at sch
it iv
ĠD ritten
ig ion
Ġh ash
ĠO hr
Ġl Ã¶sen
rie t
19 27
Ġet hn
olog in
wer fer
min a
ĠBet riebe
ĠMann es
halt ungs
ĠSÃ¼d ost
ĠSchul d
ĠGesetz es
ĠBon us
ĠWeihn achten
ĠSing les
================ ================
D oppel
l ach
in itial
et ischen
Ġf ilm
Ġge heim
ĠU rauff
Ġvor Ã¼ber
ĠGrund schule
ĠVerb rechen
ender t
ĠHistor ic
ĠStaats anwalt
ĠKurz film
ĠSim ple
Ġelektr ische
Ġant iken
Ġgepl ante
ĠDor othe
Ġentst amm
Ġbetroffen en
olley ball
= \"
A ch
C LASS
ĠA tel
ĠB ul
ĠT akt
ĠU we
Ġr ichtet
ungs ort
omm el
ĠPl Ã¤nen
Ġgew isse
ĠLu is
Ġeh emals
Ġbr achten
ĠMag d
ĠSitz e
190 1
ook ie
Fernseh film
ĠStern e
ĠBaum w
ĠEntwick lungen
Ġstaat liche
ĠJed och
W ahl
o ÃŁen
Ġ egal
ĠD ick
ĠH inder
ber s
Ġh alt
ĠN eg
Ġt ut
Ġvor n
pl omat
Ġ0 5
lei sten
akt ive
ĠOber bÃ¼rgermeister
bo urg
kreis es
ĠMed aille
mittel alter
ĠDe ad
ĠGed icht
resource GroupName
Ġfa ctory
ĠPersÃ¶n lichkeiten
komp lex
stad ion
ĠRess ourcen
ĠDistr ict
W issenschaft
c io
g Ã¤u
Å ¼
Î ¿
ie de
Ġm Ã¼sse
ĠF Ã¤r
ten ts
ĠL et
ĠR unden
and s
ran ch
ĠAr zn
ĠVor gang
ĠKon ferenz
ĠMus een
Ġ7 1
ĠSte ine
ĠzurÃ¼ck kehr
ĠPr ince
ĠRÃ¼ck tritt
let on
ĠPrÃ¤sident schaft
sph ase
Ġkrit isiert
ĠPfer d
ĠKrie ger
Absol ute
ĠAufsicht s
A ustr
C ategory
L ud
O wner
n isch
ĠK rebs
eh le
ver Ã¶ffentlich
ang o
Ġ18 16
19 46
ĠEn zy
ĠCh ancen
Ġex pected
ĠTh ailand
Ġ7 7
ĠAd ministr
Ġch annel
gesetz te
lad imir
zub auen
kur renten
Bundes liga
ĠEreig nis
ĠFit ness
F Ã¼gt
G ra
S onder
b reite
f ranken
m achen
w id
w ender
Ã¤ ser
ĠB eb
ĠD ob
ĠF usion
ĠL yn
ĠN iveau
se h
Ã¤hr ungs
Ġ7 8
ĠSte phen
ĠBe arbeitung
ĠMed iziner
bew eg
ĠMod ul
cl us
Ġabge lehnt
196 4
ĠDav is
Ġangeb lich
ĠSand stein
FI ELD
aun a
Ġtime out
ĠInse kten
p us
ĠA kten
em eister
ĠU til
Ġo cc
ĠSp ren
19 10
ain ment
Ġges ichert
spr achen
add ing
ĠPh Ã¤nomen
Ġher zlich
Ġbesch rieb
over n
Reg istr
Ġmethod Name
ĠFlor ida
AuÃŁ erdem
ĠGabr iel
G H
d imension
z ule
es k
Ġs ens
ĠF aktoren
ĠN etwork
Ġaus gel
ĠAn im
Ġbe arbeitet
ĠEn tert
ĠVor feld
ine a
Ã¼b ung
196 7
195 8
ĠNo tre
ĠFrÃ¼h stÃ¼ck
ĠAustr alia
ĠBrit en
ÑĢ Ð°
Rep ort
klass igen
Ġbeob achten
ĠWÃ¤r me
Ð ¹
Ġ1 17
ĠG rupp
Ġf ree
ĠH ert
ĠI stanbul
Ġc p
ĠSp enden
stell ern
ĠCh ile
res erv
Id x
Ġausge dehn
Ġbesch rÃ¤nkt
Auf gelÃ¶st
ĠKommun ikations
ĠProgramm e
Cl ub
veranstalt ungen
ĠFranzÃ¶s isch
M ass
T S
T ool
d ates
r ichtete
ĠP ension
ĠH Ã¤usern
ĠR ic
ĠR ug
ĠSch alt
qu is
Ã¤r er
atz e
ĠJo han
Ġcon s
ager ung
Bo ok
fÃ¤l lt
195 5
ĠHar ald
ĠKaff ee
ĠErschein ung
Ġgewid met
I hre
c ent
ie be
ge wer
ĠB uck
ĠM alt
ĠT eich
Ġer zeugen
ĠJ ugoslaw
Ġk Ã¼mm
ot ter
im ens
Ġtr op
ĠEx trem
ĠSk y
Ã¤ss ern
ĠOlymp ia
Ber uf
omet rie
ĠAuseinander setzung
ĠPow iat
kÃ¼n fte
G el
H S
b om
c ommerce
y en
un ch
ĠB ag
ĠT y
ĠL ook
Ġer b
ut sch
ab s
ir a
ĠC our
ĠAn halt
ĠFl ora
ĠKon stru
ĠEx port
bo und
ĠWei s
ĠProv inzen
Ġeinfach er
ompl et
Ġentfern en
oh le
ĠKriegs gefangen
ĠRen ov
Ġdire ctory
Ġnorm alen
sa al
ĠZeu gen
Ġmusikal ische
F loat
T ri
m i
t Ã¤u
Ġs im
ĠB eu
ĠK enntnis
ĠG ard
ĠT ap
Ġk ontakt
ĠVer leihung
ĠEr nennung
Ġre port
En c
mar ken
Ġteil en
ĠChrist ine
reib ungen
ĠVertr auen
ĠVersuch e
Ġumfassen de
ĠZeu g
ĠKrÃ¤ fte
Tran sport
R ows
T AG
U C
s i
Ġ ul
Ġ att
st reifen
ar mee
ge ht
ĠSch uh
ĠSt or
pt h
Ã¶r t
mann schaften
gew alt
Sp eichert
ĠHoch stift
kon zept
ĠReich en
ĠRes idenz
ĠLie ben
ĠTor onto
ĠWar um
ĠWor te
ada pt
gesetz es
ĠPil ot
Byte Array
ĠLeg isl
Ġzweit es
ĠSter nen
ĠgÃ¼nst ig
ced es
Bet rieb
R eihe
T schech
h Ã¤ngen
n ische
Ã¼ ben
ĠF ox
ĠT ODO
ĠT Ã¤tigkeiten
Ã¶ he
Ġge folgt
ĠEr ic
Ġab ges
ĠStadt gebiet
ĠMittel feld
196 3
ĠEt wa
Method s
ĠHar z
ĠHeimat stadt
Ġdat iert
ĠStreit krÃ¤fte
ĠanschlieÃŁ enden
ĠBM W
A lex
F amilien
L aut
S w
Â §
Ã¤ fen
Ġz it
ĠSch uss
ĠEr mitt
auf gaben
ĠString Buffer
Ġpro ps
rich en
Ġteil te
zentr en
ĠWeiter bildung
Ġaufge geben
ĠSÃ¼ ÃŁ
ĠBis mar
Ġdien ten
Ġra sch
ĠEntscheid ungen
ĠRos a
Ġpassen den
Ñģ ÑĤ
ĠausdrÃ¼ck lich
ĠCorpor ation
D isc
K ar
b undes
á ¹
al ts
sch lossen
ge gangen
ĠD ritt
ĠK ein
ĠP ubliz
Ġt itle
eu x
ĠEr be
lo yd
ok u
Ã¤l lig
Ġ8 3
Ġbeg rÃ¼
ĠEnt ity
sg ruppe
Class es
tag on
ĠCo ach
ĠOn lin
fÃ¤l ischen
Land es
Ã¼tz te
ĠComm on
Ġloc ale
Ġopt imal
ĠZuf luss
Ġkanad ischen
ĠErzÃ¤hl ungen
franzÃ¶s isch
R h
o zi
an es
ĠF Ã¤hr
rei tete
ĠZ one
ĠIn f
ĠIn halts
ĠEn cyclop
enn zeichen
gr am
arb eits
ĠAb hÃ¤ng
ĠCh arts
sb es
Ġ7 9
Ġ8 7
ĠArt illerie
ĠPol ar
ĠHoch wasser
Ġfest en
ograf ische
ĠWohn ungs
ĠFot ografie
ose x
Time Millis
plan ung
Ġfinanz iellen
Ġqualifiz iert
ĠErinner ungen
ĠjÃ¼nger en
ĠtÃ¼rk ischen
ĠKoordin aten
ĠkÃ¼r zer
gewÃ¤ch se
V arian
st ufen
or de
ĠA sh
der e
ĠT ai
ĠV ic
ĠIn t
19 11
ĠAuf stand
(" /
az ier
eid ung
ĠZw ecke
Element Type
Man agement
ĠFel sen
ĠStraf anstalt
ĠerhÃ¶ hen
L eicht
N ur
R aum
S Ã¤nger
c omponent
ç ļ
ei ver
et o
ro ber
ĠC ustom
ĠVer leger
get Path
pf alz
sk ar
ac o
Ġgeb unden
ĠHil de
Ġmon at
Ġide al
Ġschwed ische
ĠNeum ann
Kurz film
ĠAx el
ĠFantas y
wh ile
B uf
I O
f le
Ã¼ pft
ĠA L
ĠL uther
Ġan ger
ul in
ik ro
Ġl eiten
ĠSt Ã¼r
ation Exception
Ġwie s
her stellung
ard in
br Ã¼cken
Ġex pr
ĠCon rad
con sin
ĠDurch schnitt
ĠZwei te
verb ot
ĠAlb ums
ĠMitte le
Ġkey s
190 2
ĠNachbar gemeinden
Arch itektur
Ġevangel isch
ĠSÃ¤ ulen
Ter m
verteid iger
A g
S ong
W M
b ig
et wa
sp eicher
os k
Ġj eg
Ġ18 14
iz z
19 60
ord neten
ĠVor les
ĠZeit ungen
Ġpro b
Ġbes ieg
iss ar
lock en
ĠSpr int
sw irtschaft
zahl ung
Ġben utzen
ĠEm ail
Ġqu er
ĠProf i
ĠAnt worten
Ġbeh erber
ĠMinister ium
Ġerf asst
Sup port
Ġzeig ten
Ġtats Ã¤ch
ĠMi G
ĠVoraus setzungen
ĠNeck ar
ĠArgentin ien
G it
K S
l Ã¼ck
u ge
ĠK und
ĠK roat
Ġf ix
ĠW esen
ir gs
ĠU E
he et
ĠAr gument
Ġa ccess
Ġ0 7
ian e
fahr ung
pro zess
Ġange ordnet
Ġhin sichtlich
Ġgef Ã¤r
Ġunterschied licher
Des c
ĠGast geber
190 6
beh alten
gra fen
Ġverlie f
ĠExper iment
Ġtradition elle
ĠUrs achen
ĠUrs ula
ĠGeheim nis
ĠKomment are
ĠStraÃŁ burg
ĠCoun try
stÃ¤d ter
Ġspezial isiert
ĠSyd ney
R ichtung
W appen
j u
k am
l iger
u alitÃ¤t
st Ã¤dt
ĠP ri
ber gen
re ct
Ġh l
Ġge p
atur en
Ġausge stellt
dorf er
ĠVers icher
ĠKo hle
Ġsetz ten
Ġleben den
ĠschÃ¶n sten
Ġinteress ante
beg riff
leit ungen
VAL ID
ĠLoc al
ĠCoun cil
Pres ent
ĠJord an
ĠFound ation
Ġmath emat
ĠS ey
ĠS ymb
Ġm em
ĠH at
ĠT oken
wei ger
ehr en
19 13
19 42
ĠAus bruch
bje kten
ĠEl s
deck er
kn oten
cept or
Ġbetre ffen
gefÃ¼ hl
ĠBrow ser
Ġkombin iert
A V
C ost
S en
T RI
p x
ur teilung
ĠF uss
ĠF eind
um ul
ĠJ am
ĠIn stallation
ed o
ant a
th aus
per rt
String Builder
Ġ8 4
els on
ĠBundes land
ĠBundes regierung
ĠRei fen
Ġqu adrat
arbeit ungs
Ġpolit ischer
ĠPass au
grÃ¼n den
ĠTschech os
Ġumfang reich
Ġweib lichen
Ġletzt es
ĠAR D
ĠTown ship
Ġlauf enden
Ġunterb rochen
Dest ination
OUR CE
A ir
A lias
C C
L imit
v i
Ġ ec
Ġd ritt
ei ste
ĠD eine
den kt
ĠL az
tr es
ĠEin ladung
ĠStr ei
ok er
ill es
Ġe ffiz
str asse
ĠÃľber ra
Ġgesch ickt
Ġhin weg
Ã¡ s
197 3
unn able
Ġ180 3
ĠBro ad
Ġident isch
ĠGlauben s
çļ Ħ
H err
I R
S al
in voke
Ġd etaill
ĠS Ã£o
Ġs egment
ĠA ven
Ġm ember
Ġf ahr
ĠR eu
eh er
Ġ18 35
ĠGr aben
ĠCh ines
Al low
Ġhier zu
Ġro te
ins eln
Ġvers orgt
sprach igen
ĠAndre w
Med ia
PT ION
ĠBestell ung
ĠBÃ¼nd nis
K Ã¼nstler
M aterial
W ord
i able
k ter
k ont
k Ã¼nstler
t mp
à ¦
Ġ Ã¤nderte
st etten
ĠG ul
um ps
ĠV Ã¶gel
Ġk ap
ah ne
ĠVer schw
im er
Ġent deckte
hen de
Ġ9 7
ĠÃĸ konom
Nach bar
ĠUr sprÃ¼nglich
Ġgef eiert
Ġgest altete
Ġkein em
ĠAnd roid
ĠAk adem
ĠGeh irn
Ġmoder ner
ĠMarc el
ĠErzÃ¤hl ung
E B
H om
ĠB ibli
ĠK etten
ĠH ist
ĠT T
ĠT SV
ĠL esen
ĠR un
ĠR eim
ab on
ĠC osta
ĠSch acht
Ġbe geg
art a
19 48
Ã¤ch ter
br unn
Pro gress
Ġis lam
Ġins zen
ott om
Mit te
ĠInter ess
Ġgest ern
zie hung
193 5
ĠSchloss es
ĠhÃ¤uf iger
ĠKrit iker
Produ ktion
ĠBeck er
ĠBeob acht
ĠServ ices
ĠAnth ony
Sonst iges
ĠHels inki
Merk male
H amburg
P ap
Z usammen
g it
Ġs ingle
ĠB reis
Ġb undle
ĠG allen
ĠI ron
Ġk lin
ĠU s
wei lig
ĠVer folgung
Ġst euer
ĠEin tr
Ġ18 18
lei dete
Ġhand eln
zie h
othe k
ĠRed akteur
Part ition
rec ated
Med ien
Ġmusikal ischen
ĠGeschlech ts
ĠBam berg
F IN
P ark
h ut
m ahl
in ed
ĠD eut
ĠF ron
ĠE con
ĠT Ã¤ter
ĠL ade
ber ichte
ĠSt immung
ĠIn solvenz
Ġc ell
ĠStr eich
ĠAuf klÃ¤rung
ieren der
form ed
ina e
ron en
ĠDar stellungen
Ġinner e
195 3
ÅĤ aw
Ro ute
Ġdur ften
Ġlok ale
Ġinstall iert
Mich ael
P lay
W a
n ommen
n Ã¼tz
u uml
ĠB usch
ĠD ritte
ĠG ir
le vel
ĠH ef
ĠH amm
Ġh or
ĠZ e
ĠVer pflicht
ĠEr m
ĠEin z
ĠEin blick
Ġunter nahm
ĠSte ink
ĠEx p
Ġger inge
ĠLu cas
ĠJohn son
Ġ185 3
Ġstand ard
196 6
Ġlin ke
Ġbesser en
ĠKomp etenz
Ġtyp es
Ġlo op
Ġleich te
ĠRestau rants
wach ung
ĠBrig ade
ĠWurz eln
Krit ik
B ot
F ailure
b rech
ĠS ehr
sch les
sch ema
Ġs plit
Ġver mittelt
eb t
ver ordnung
ĠSp alte
ĠÃ¼ber liefert
ru der
En tries
ĠWil len
erg ie
190 7
ĠLudwig sburg
komm ission
LOG GER
Ġsamm eln
ĠNap ole
Ġeingemein det
I ts
S K
n ing
Ġ []
st urm
al ben
ĠB ug
em er
ĠK alender
ĠG ibt
ĠP ause
ĠH Ã¤uf
ĠL ett
ĠJ g
ir bt
auf lage
ĠLand s
ĠAm ph
Ġ9 1
olit h
ĠSe ktion
ĠSÃ¼d tirol
196 5
Ã¸ r
stift ung
ogn ition
Ġveranst altet
D reh
L ou
O pt
k inder
k ilometer
m Ã¼n
u eller
z ien
or er
Ġw ann
ĠD og
ĠH ost
ist isches
ĠSt ars
19 47
ĠNational park
195 9
ĠSchwer in
So zial
AX B
Co uld
Ġdigit ale
Ġschwei zer
ĠWÃ¼n sche
ĠFertig stellung
ĠÃĦm ter
, -
R ot
d ro
n immt
u is
Ġd auern
un er
Ġp df
ĠEin tritt
ib us
ĠMit begr
Ġre form
Ġpro vider
sb ahn
ĠChr onik
Ã¤uf e
Ġit s
gra de
leid et
ĠWes er
Ġbetre ut
ĠJahrzehn te
Vol ks
ĠÃ¶r tlichen
H eim
L eist
f aces
s Ã¤chsischen
w ur
w enden
ĠB ridge
ĠL iss
Ġge gangen
he orie
lin s
ster s
Ġ18 41
ok a
ĠNach lass
Ġgew orfen
amer ik
ĠEl be
ĠPat ent
Ġheraus ra
ĠErk enntnis
ĠCre ek
Techn ik
ĠErl angen
Lud wig
D isplay
n ow
at alog
at hlon
ĠB in
ĠB eine
ĠB uild
ĠE R
Ġ18 39
ex ists
ĠAus flug
uss ia
ĠVor schlag
Ġman che
Ã¤m pft
new Instance
ymp ath
ĠWieder aufbau
ĠTex ten
Ste p
ĠMarc us
ĠMem or
ĠVoraus setzung
F ootball
H A
L ei
in burgh
Ġd einen
st Ã¼cken
ĠK Ã¤rnten
ĠI b
ĠC hl
ad s
ĠVer teilung
Ġab geleitet
ian ischer
ĠBo hr
amil y
ank a
Ġausge st
ĠHaupt darsteller
wissenschaft lichen
Ed it
Ġdigit alen
Ġkeiner lei
ĠInternets eite
P riv
Ġ arr
ĠP oten
ĠH old
ĠH unde
ĠI wan
ĠSch mal
Ġun it
Ġc onn
ĠSp er
19 41
Ġab gelÃ¶st
auf tritt
geb ot
Ġre q
ĠAus grab
ĠVor runde
ens us
schn itten
bereich en
Ġgem essen
Ġinternational er
FI LE
mot oren
Ġkultur elle
ĠTrotz dem
Ġhochwert ige
ĠReserv e
Europameister schaft
ĠJÃ¼ lich
ĠUrauff Ã¼hrung
S l
W ohn
Ã ¯
an ch
Ġin halt
ĠE qu
and in
ft ige
im ierung
ĠLand rat
ĠBo ard
ĠJan eiro
ĠEl len
ĠJuni or
ĠHaupt bahnhof
anst alter
ĠZusammen schluss
ĠRad rennfahrer
FuÃŁball trainer
ĠTem p
Ġus ing
ĠGeist es
ĠChamp ions
Mon itor
Ġgeh abt
ĠberÃ¼hm ten
f ix
y an
Ġs eiten
ol in
Ġau ft
ĠW Ã¤hler
om os
ĠJ ew
Ġauf geteilt
get Default
ĠSp l
ĠEin fach
ok raten
ition al
wer ben
lieÃŁ t
ĠzurÃ¼ck zu
ĠCon s
ĠStud iums
ĠfrÃ¼ he
ĠDr ama
ĠVolks republik
ĠDi am
ĠSan ierung
Ġâ ĪĴ
190 4
Ġstar ben
ĠVerkauf s
ĠNamens geber
ĠGre at
array copy
Ġdek or
Ġdiskut iert
J ECT
S imple
ge halt
ĠB reiten
Ġb o
ĠG ol
ĠH inzu
ĠI ter
Ġge zwungen
Ġbe ant
Ġab gew
ull y
ip le
ens ystem
Ġbef Ã¼r
Or gel
ĠGegen stand
jÃ¤hr ig
ĠMag net
Parameter ID
gÃ¤n gen
Ġbeteil igten
Ġprakt ische
ĠHÃ¶r spiel
wal ts
drÃ¼ck t
ĠNeb el
ï¼ Į
ĠPerspekt ive
ĠLew is
MÃ¶ gliche
ĠBerat ungs
Ġermord et
C ustom
G raf
S im
T ick
m d
p he
Î ¹
Ġ echt
ĠH ob
ĠT ool
ĠL Ã¼n
ĠSt ufen
enn er
Ġsp Ã¤testens
to Array
Ġis ol
ĠUr heber
recht lichen
195 7
ĠLog istik
Th is
Ġpr int
Ġstattf and
ĠLux us
ĠWett kampf
ĠZerstÃ¶r ung
ĠCorn el
ĠTay lor
A ctive
ĠS ax
ar ium
Ġw andte
ĠA gn
ĠB rian
ĠD ess
ĠD isplay
Ġf as
ĠH Ã¼r
Ġer lebte
ĠN Ã¶rd
ul ationen
Ġr etten
bau werk
Ġgen Ã¼
ĠOber flÃ¤chen
ign ment
mÃ¤ h
ĠBest immung
ĠAt hleten
ĠFra g
ĠDon ald
current TimeMillis
Ġtradition ell
ĠBil anz
Ġoper ation
ĠSpann ung
db c
ĠKob lenz
ĠSatell iten
ĠangekÃ¼nd igt
B R
K om
y b
ur ist
ĠK eine
ĠH Ã¤ndler
ĠI gn
ĠN ep
Ġk r
ra ham
rei hen
Ġbei ge
pr esse
ia e
teil ungs
ĠBl Ã¼te
ĠEl m
sw ahlen
Ġro b
ĠAuÃŁ er
ĠPaul us
ĠHeil bronn
196 2
Ġmedizin ischen
B UT
D ruck
R itter
k andid
Ġ ×
Ã¤ ischer
ĠE i
and el
ro th
ĠC ard
Ġp rev
im age
In halt
19 21
Ġdeutsch es
ev in
bar es
Un ternehmer
ĠSchw Ã¤b
ĠGew erb
ĠSchul ter
Ġverm utet
uk le
ĠRel ief
ĠHar vard
ĠNo Such
Kl ein
gehen de
Ġversch oben
ĠHeraus forderungen
ĠHart mann
ĠInstit ution
Ġcl uster
ĠGit arre
ymm etr
evelop ment
k ompon
Ù Ħ
ĠB og
et sch
am o
ĠF ame
ĠR ally
Ġver mitteln
19 49
ĠAnt arkt
ĠDat eien
Group s
CO DE
Ġservice Callback
ĠstÃ¤r k
ĠAbst amm
ĠMetrop olit
ĠAuftr itte
ĠOze an
H erkunft
U se
v Ã¶gel
ei mer
ge zogen
Ġs itzt
ĠF utter
ĠG Ã¤rten
ĠR in
ĠR ade
Ġh Ã¶lz
ĠC P
Ġge fahren
Ġg eile
end em
Ġunter stellt
ĠBer ger
ĠCh Ã¢
ĠMar athon
Ã¤l le
String Utils
mit tler
Ġres olve
ĠVol ker
ĠWerk zeug
Path s
ĠRÃ¼ck seite
west lichen
ĠIs a
ĠSport s
ĠPfl anze
Ġrem ote
Child ren
ĠHoll and
Techn ische
ĠViz emeister
ĠKart off
ĠFerr ari
h ier
h Ã¤n
r Ã¶
ĠS ich
ĠK au
ĠE mer
ĠE rober
ĠH af
ĠT R
ĠW ern
ĠR ey
Ġk reis
ĠSt all
che f
pl ung
ock el
Ġex klus
ausen de
ĠSk la
ĠHistor ischen
Ġmod ule
Ġerk annt
sprech ung
ĠUntersuch ungs
ĠWol ken
match es
ĠVerÃ¤nder ung
Ġav ailable
mag azin
ĠEinkauf s
ĠSQL Exception
Ġverstorben en
ĠNass au
D ame
R om
Ġm oment
ĠK ru
Ġt x
ĠVer ordnung
end ung
Ġsch ema
Ġ18 44
ĠBer Ã¼cksicht
ren ce
eig ert
ĠĊĊ ĠĊĠĊ
Ã¶st liche
Ġabsol ute
Ġevent uell
Ġregion ale
ĠFal ken
urren cy
ĠLein wand
Lower Case
ĠGord on
A f
T hr
b ol
k ab
å ı
st yp
et isch
ĠD ame
ĠV ik
ent schieden
Ġan spruchs
Ġver Ã¤ndern
Ġwar m
la ster
19 23
Ġdurch setzen
ĠGr as
our i
ĠVor lage
ĠFl orenz
Ġ9 2
Ar ten
Ġger aten
Ã¤ft s
ĠIl linois
Ġabge geben
ĠAnfang s
ĠSitz ung
190 8
ĠÃ¤uÃŁ er
ĠByte Array
Bild ung
Juni oren
ĠRail way
resp ond
ĠChristop her
S urface
d l
k Ã¼hl
Ġ eignet
Ġd avor
ar ing
it Ã©
Ã¤ p
ĠF avor
le ted
ach el
om s
Ġl ust
iv a
ang riff
Ã¼hr ungen
ĠVor jahr
sk o
Ã¤nd igkeit
List en
ond itions
Ent wicklung
ĠKonz ern
ĠDrei ÃŁig
Ġbeteil igte
Page Link
Ġfinanz ielle
ĠAuff assung
ĠInner e
ĠAud io
Ġren omm
ĠStrate gie
Ġol ymp
" ),
H eil
a ver
e te
Ġ iterator
ĠB alk
ĠF ulda
ĠG or
ĠC in
Ġg ere
ra ck
Ġ18 21
Ġum liegenden
Ġre alisiert
los er
olle ct
ator y
Ġ8 6
ĠEx press
Ġviel fach
verb rauch
Ser ial
ĠPlan et
stehen de
Ġid x
ĠAnge hÃ¶rigen
ĠAch ter
Cl ick
rÃ¤nk ungen
ĠWuppert al
a dern
g ru
g io
k Ã¤
} );
ĠS lowen
ĠB urn
ĠM ust
ĠK ran
Ġf indest
ĠH Ã¤nden
ĠW eit
um pe
ab wehr
Ġauf geb
ĠSch ienen
Ġp ool
ver teilung
ed s
ĠAr mut
19 15
19 12
Ġvor stellen
ĠÃ ©
ant ie
zeit lich
Sch edule
gl Ã¼ck
amil ton
ĠFilm regisseur
ĠList en
Ã¤nder ung
ĠFrei stil
ĠUr kunde
Ġwei ss
Ġy our
Ġhistor ique
ĠRechts an
ĠÐ ¿
ĠZahl ungs
ĠFort setzung
Ġerk ennt
ĠPil oten
ĠErw in
Ð½ Ð¸
ĠVen ez
ĠEntwick ler
Rep ository
Gemeinde auflÃ¶sung
sbez irk
ĠAuseinander setzungen
ĠLeiden schaft
autom aten
ĠUE FA
T enn
v oid
Ñ ĩ
es ien
il lo
Ġauf weisen
Ġaus gesetzt
ate l
ĠStr Ã¶m
St il
ĠMar shall
ile y
Ġ9 4
Ġgen ehm
Ã¤nd ischen
heit lich
Ã¤m mer
hand le
kon ferenz
use el
ĠWer ks
ĠAp i
Par se
ĠWor ten
fel den
Pl Ã¶tzensee
STR ING
ĠTob ias
Ġlehn te
Ġtele fon
D isp
L uther
P R
h Ã¤nge
st amm
ĠB ody
ĠP rior
and lungs
ro v
Ġk Ã¼rz
Ġk Ã¤mpfen
ĠAn reg
get Request
id sch
Ġ18 43
Ġvor ange
ĠVor arl
schen den
zw ald
ĠMed aillen
195 4
ĠcaseIfc Object
ĠStad trat
Ã¤um t
ĠAust ria
ĠWol ff
ĠNationalsozial isten
sthe ater
Ġdurchschnitt liche
minist rat
Il legal
organis ationen
Ġbeauftrag t
l ess
st op
ĠS tet
Ã¼ bt
ĠA er
et scher
ĠD amm
Ġm erk
ĠV iktor
ir kt
Ġge prÃ¼ft
ver hÃ¤ltnisse
ĠVer t
ĠVer stÃ¤r
Ġun ivers
Ġ18 42
18 98
Ġber ichten
ĠGesch Ã¤fte
ĠSte ck
ĠBe gegnung
... ]
ĠBild schirm
Ġbew ertet
++ ]
ĠHil f
Sh ow
ĠKat hedrale
ĠMil ler
Ġnie mals
print StackTrace
Ã´ ne
ĠSchlaf zimmer
ĠÃ¼berra schend
Kan al
ĠwÃ¼n schen
Servlet Request
JÃ¤hr ige
ĠRal f
z eits
al ing
ĠS lowakei
sch reibung
ĠR Ã¤um
tr ei
ach tete
Ġk ar
Ġst re
Ġsch ein
19 43
ige st
lo ym
br Ã¼ck
ĠPhil ip
ĠDan ce
AR N
ĠWebs eiten
druck s
195 6
fre unde
Ġliegen de
Ġtyp ischen
Art ikel
ĠdÃ¤n ischer
ĠEuropameister schaften
person en
ĠEdel stahl
ĠBeam ten
ĠDiÃ¶z ese
H ome
R ate
j ar
m ass
p op
s ammlung
Ġ $
ĠA T
ĠG uten
ĠP y
ĠP ionier
Ã¶ ten
ĠL ehn
ĠC arr
ul ieren
ad ier
ĠSch ieds
ver leihung
ĠEnt deckung
ĠJul ia
Ġger ufen
stru ct
ĠKom fort
Sub scription
alys is
sper re
Ġforder t
ĠmÃ¤nn lichen
ĠInnov ation
D D
S etz
Ċ ĊĠĠĠĠĠĠĠĠ
st itel
ein trag
au scht
Ġw Ã¤hlte
ĠD ifferenz
Ġf erner
ĠH arn
ĠL td
Ġh inz
ent z
ĠIn telligen
get F
ek ord
Sch we
Ġen c
off er
ober t
akt iven
leg ungen
itte e
spro jekt
195 1
aly sen
ĠWirk lichkeit
ĠWeimar er
kriegs zeit
ĠGirl s
Ġverbesser te
D rei
p pe
Ġ orth
Ġw Ã¶ch
Ġb rauch
Ġi gnore
ĠK i
ĠG un
ĠW ed
ĠW ars
ĠSch iffen
Ġaus gesprochen
Ġgesch Ã¤tzt
ĠLe ber
Ġger echt
Ġgel Ã¶scht
evÃ¶lker ung
ikal ische
Ġreich te
ĠAust rag
ĠSamm lungen
ischÃ¶ fe
ĠPek ing
ĠAtel ier
A fter
V oid
a er
g rid
n utzung
Ġd evice
st one
Ġs u
Ġs in
Ġv ollen
Ġm uÃŁ
ĠF K
Ã¶ hne
ĠVer g
ĠSp ektrum
ĠAr ena
Ġ18 32
ĠBer eit
lei tete
ĠReg istr
ĠQu art
Ver band
Ġgesch m
ĠHaupt ort
ĠHistor ische
190 9
ĠVerl etzungen
Ġentstanden en
ĠMer cedes
ĠAnge legenheiten
Ġerr ang
ĠEvangel ische
wes ens
D b
S oll
f d
m auern
ĠS ha
Ã¤ sche
ĠB amb
ĠC ache
Ġg ro
ĠSt Ã¼tz
Ġdurch ge
lo hn
ĠAus stellungs
uss ion
Ġzw anzig
Ġgew alt
ĠSpiel ers
Ġ8 9
als o
Ã¤d te
ĠMin dest
such e
Ġverl auf
Ġschn ellen
ĠProjekt s
ĠEv olution
190 3
produ kt
ĠRen Ã©
fred akteur
Ġerf Ã¤hrt
Ġerschienen en
artet t
plic it
Ġdurchschnitt lich
Liter al
ĠErkrank ung
Ġfot ograf
Ġthr ough
ĠJubil Ã¤um
B Y
E ner
L ive
b rief
g st
on ic
Ġs ang
ĠD avon
Ġer gab
ra ÃŁe
ĠIn tens
id akt
auf ent
Ġre ference
ĠAus sehen
of ern
mal erei
vers uch
ĠPl atte
Ġ9 3
Ġex port
Ġges ammelt
ĠZu vor
Ġviel es
schutz gebiet
ĠfranzÃ¶s isch
ĠDes igner
ĠOst preuÃŁen
ME SS
190 5
Fl uss
Per iod
config uration
Constra int
ĠLiebl ings
ĠSort iment
B order
D av
R ud
U uid
Z ug
i ate
ĠH us
ĠT U
ig o
ĠSch al
ap pt
ĠEr ik
id ad
ĠAr k
Ġres p
Ġen ge
ĠgroÃŁ em
Ã¼l lt
ĠKn ie
Ġfrei er
ĠProblem en
ĠOs lo
ĠBegriff e
Ã¶pf ung
Ġverbr ingen
Ġsinn voll
ĠUd SSR
urgesch ichte
B ank
N un
s icherheit
z it
ĠS ev
au chen
Ġs aÃŁ
Ġm ol
ĠF unction
ĠP all
ĠW y
ĠL Ã¤ng
ĠV eget
ĠC loud
ĠSt ufe
Ġ18 10
Ġ18 36
ĠAb satz
los ure
Er ste
ĠY our
Ein ige
Ġern euert
OR D
Ġpar ser
Ber eich
ĠService Future
funktion Ã¤r
ĠermÃ¶glich te
match er
Histor y
Ġwunder schÃ¶n
f angen
in ischer
ge len
Ġs ome
ĠD irk
om orph
se arch
Ġg laub
ahr ung
Ġbe deckt
ĠOr th
ay r
ĠPr inc
ĠKinder garten
ĠProf ession
Ġor igin
ĠPal ast
Ġexist ing
mark e
pol izei
Ġbedeuten den
krÃ¤ ften
ĠSold at
Arch iv
ĠOff ice
Verkehr s
Ġmensch liche
Aut o
ĠLetz ter
ĠErkrank ungen
ĠPian ist
k ord
z elle
sch eibe
ĠM r
ĠT um
ĠL an
ĠJ AXB
ist ern
Ã¶r n
ĠGr ill
tem p
Ġle gend
Ar g
stra int
eig n
AT OR
Re prÃ¤sentanten
ĠEd inburgh
ĠGel b
Ġvoll stÃ¤ndige
ĠBetrieb ssystem
ĠVerl etzung
rist all
ĠrÃ¶m ische
ĠSteuer ung
ĠSchles ien
ĠMÃ¶n ch
Bi ografie
Ġgesellschaft lichen
ĠMitbegr Ã¼nder
C enter
N C
o use
ĠF unc
ĠG reif
ĠW ho
ĠIn spir
ĠAn nahme
ap ply
ok o
Ex pr
ant ik
ĠNach halt
Ã© b
inder te
ĠÃĸ VP
ST ART
ĠRechts wissenschaften
emat ik
ĠWein bau
ĠSchÃ¶n heit
ĠCamp ing
Ġentspr ingt
ĠBu en
ĠYou Tube
ĠKanz el
Absol vent
Meta Data
ĠMagd alen
B ilder
S uccess
W S
a ire
b rechen
e ded
h us
h ab
h ash
h aven
Ġs amt
ĠG ros
ĠP i
ĠH ass
ĠT oren
ĠW Ã¶r
ĠL oth
ĠAus lands
Ġe qu
fe der
ĠGer d
ĠVol ume
ĠProdu zenten
Ġgef ragt
Ġ> >>
ĠVers ammlung
Ġzahl reicher
ament o
Ent fern
ĠJur a
go ogle
ĠChem nitz
ĠVorsitzen den
Ġprakt ischen
Ġother lv
TR AN
ĠFlÃ¼cht linge
ĠStatt dessen
ĠFlag ge
ĠWis consin
ĠErot ik
requ ire
ĠEinzugs gebiet
N av
b ayern
ĠS id
ĠA gen
ol er
ĠP ick
le p
ĠL is
ĠC ourt
Ġdes wegen
Ġg riff
ĠSch Ã¤fer
ri fft
Ġc olor
ant ischen
io den
ock er
Ġcon f
ĠSe eh
Re presentation
Ġjeweil ige
Ġâ ĸ
ĠSchwarz burg
Ġinteress ant
funktion en
Ġdauer haft
ĠFle cken
ĠGlei s
Ġeingest uft
F u
M ac
N or
c os
w Ã¼n
as List
de uten
ĠT H
ĠW ord
Ġer lern
Ġh uman
ĠN i
ul ierung
Ġp e
Ġj o
ru pt
Ġes sen
ĠAus gleich
ob a
Ġ0 2
sh aber
kl opÃ¤die
Ver breitung
dr ama
ĠDar steller
stru ction
Ġqu alit
ĠFlug zeuge
zentr ale
ĠTor ped
Ġhistor isch
ĠGeorg ia
Ġpl us
ĠKontr oll
ĠQualif ikations
Ġmark iert
Ġqualifiz ierten
ĠPersÃ¶n lichkeit
ĠOk res
Ġsec ond
ĠFÃ¤h igkeit
Ġaustral ischen
Ġanbie ten
ĠJÃ¼n ger
PROPER TY
Ġbeherber gt
E Mail
G etter
V ert
m ail
s uper
u der
Ġw ord
ĠK lem
ol ine
ĠG ent
Ã¶ konom
id ar
lieÃŁ en
ĠBo y
to LowerCase
ĠZu schau
ĠHaus halte
ffiz ienz
ĠGener ationen
ĠBÃ¼ chern
ka sten
Ġ180 8
ĠErd geschoss
Ġtechn isch
Med aille
ĠAust in
ĠTur in
Ġangegeben e
Ġumfang reichen
ĠFell ow
ĠQue en
ĠerhÃ¶h te
Ġact ual
Leicht athlet
1 15
H allo
c ell
f arb
f inder
s ack
un fall
ĠS af
ĠB B
Ġm ulti
ĠH ad
den z
âĢ ¯
Ġk unst
Ġzu gewiesen
ĠZ wick
Ġ18 33
hal er
ob e
ĠMa st
ĠMus kel
ĠHand ballspieler
ĠOrt steile
Ġausge geben
ĠCon ference
stÃ¤nd iger
Ġbeh alten
ĠErz bist
He ad
fÃ¼l lung
Ġgl Ã¤n
ĠErf inder
Ġspar en
B ond
F iction
S ach
v ari
ĠS einen
sch uh
ĠG amb
Ġer baute
ĠN HL
ĠC onn
ad Ã©
ĠAr te
fl Ã¼ge
ĠGesch icht
ĠTh em
Ġerst mal
ĠGer ade
Ġverl ieren
wohn ung
Ġbew aff
gef unden
Des ign
lÃ¤uf ig
CO MP
ĠWahr scheinlichkeit
ĠZul assung
ĠBÃ¤ ume
Ġschlech ten
ĠLiefer ung
ĠGeschlech ter
Hein rich
ĠAlli anz
> .
F R
L it
S ite
c lazz
i ja
m aus
p lain
w Ã¤nde
Ġb atch
Ġ1 16
Ġm ach
ĠK leid
ĠF aust
ĠJ un
ĠSch ult
sp ath
men te
Ġ18 13
Ġsp iegel
param s
Ġpro v
teil ten
ĠEs c
Ġbet ont
Ġbek annter
amp a
mÃ¤ ss
ĠInter ruptedException
film e
ĠSil v
Ġbisher ige
bed arf
ĠHum bold
Ġorganis ierte
Ġdec ode
ĠSn ow
Ġkultur ellen
beam ter
Ġkorre kt
V ID
k W
ein g
ĠB eth
de z
enn te
ĠCh i
rÃ¤ uch
ĠUS B
ogra fen
ĠBo ote
ĠCon text
Ġbesonder es
ĠWer be
ĠSchiff es
Ġscha fft
stud io
ĠRem ote
Ġdauer te
Ġreligi Ã¶sen
m aur
sch reiber
ĠB ond
ĠM am
ĠG R
re de
ahr er
Ġst ein
os is
ĠSie gel
Ġunter richtete
Ġent s
geb ra
ov ice
sk op
sb rauch
dent ials
ĠSchw anger
bo urne
Ch em
ĠVerein igte
ĠÃ¤ gypt
ĠTal ent
Ġzurueck gegeben
rec ord
ĠTe en
sprÃ¼ fung
idd le
Ġmot iv
Mem ory
ĠWalt her
ĠFrÃ¼hl ing
) ),
B urg
G ot
R Ã¼ck
f ehler
an trieb
ar ien
Ġs ee
Ġv o
ĠD Ã¼ren
ĠK unde
ĠH ess
ab yl
ĠC urt
Ġt ags
wei len
pe ct
Pro ps
Ġbeg in
ĠBundes straÃŁe
con s
Ġerhalten en
Ġfl ach
Ġober e
Ġsh ow
Ġelektr ischen
ĠHeraus forderung
Ġbegr Ã¼ndete
Ob wohl
Ġhab ilit
ĠNahr ungs
ĠHow ard
! )
D ienst
P ublik
S ql
k ong
k arriere
ĠD M
Ġm ode
ĠP RO
Ġf ehler
Ġf Ã¼hlen
ĠI hm
ĠC os
rei z
ĠAn st
ĠAn wendungs
ĠEin stieg
ech e
ĠPro jekten
St unden
sk ammer
Pro blem
ĠAp pl
Ġsicher lich
Ġvorhanden e
gehen den
ES CO
Ġverbunden en
Ġerl Ã¤u
Arb eits
ĠAustral ian
F ernse
S ee
T x
b evÃ¶lkerung
h essen
Ġs olle
Ġb ill
ĠG eis
ĠL ost
ĠV ektor
ĠC hal
Ġge test
Ġal ias
ĠSch ein
sp olit
ĠEr forschung
ick te
ĠUm zug
stein er
ĠMan chester
ĠTra ck
ĠInd ustr
ĠKont o
ĠStein m
Pl ugin
Welt cup
frau en
kap itel
BevÃ¶lker ung
Ġnorweg ischen
Ġjung er
stÃ¶r ungen
C an
f ers
g Ã¼r
Ã ®
ĠD est
Ġmit hilfe
ĠSch icht
Ġ18 38
gr ammen
ip er
ĠIm plement
ĠIS O
gew achsen
ĠDr amat
echt igkeit
uck er
dat ei
ĠKomb in
ĠKaff e
Jose ph
B its
E U
c atch
å Ī
ĠS ac
as a
ĠF arm
ĠF uture
ĠP aket
ĠO ste
Ġnach weis
Ġtr ugen
ĠAus rÃ¼stung
Con structor
Ġbes iedelt
ĠReg isse
Ġgr Ã¼ndeten
iet z
Ġqu eue
ho use
ĠWeiter lesen
ĠRegel ung
ĠAir port
Ġap plication
Histor ische
ĠStell vertreter
ĠVerbreit ungsgebiet
ĠOberg esch
ĠAbstamm ung
? )
g riff
h ir
z eiger
z weig
en ge
Ġd iff
ĠB our
ĠI C
eil le
id t
ord nete
ia c
ĠNach frage
out ube
IT E
ifiz ierte
ĠViel leicht
Ġdefault Value
ĠWahr nehmung
Ġumfassen den
gener ate
ĠErwachsen e
ĠApost ol
Ġkost et
Ġdreh te
b anken
Ġ ^
Ġ Ø
Ġd ay
st uf
es ota
ĠM eth
ra pp
ann over
rei en
Ġr ichtete
ĠAb schied
ĠAb raham
ett y
ĠY ear
Deutsch es
ĠReich weite
ĠGef Ã¤hr
ĠMannschaft s
ĠKommun e
key Set
Ġtrans form
ĠErk enntnisse
Ġdat abase
Ġnotwend igen
ĠniederlÃ¤nd ische
parse Int
ĠgefÃ¤hr det
ausschuss es
schaff ung
loym ent
Setz liste
6 00
L iga
k loster
w ende
ĠF our
ĠP ict
Ġf ail
ĠC ant
Ġge be
rie ge
Ġbe ur
ru le
Ġa f
ĠBr eit
ĠDe te
welt meisterschaften
ĠLuft waffe
Up load
ĠFrie der
Ġclass Name
Ġsc ope
Ġloc ation
ĠBud get
ĠKrank heiten
steuer ung
Ġmel den
ĠMÃ¶n chen
ĠErzie hung
pap ier
/ -
G TH
P G
S M
c am
i Ã¨re
k la
r und
v oller
w ich
Ġs em
Ġs ince
ĠB rad
em atic
Ġf ran
ĠL ohn
ir es
ĠO ft
sp ec
ger echnet
ungs weise
ĠÃ ģ
18 96
Ġgew innt
lei h
mit te
Ġseiner zeit
ĠFor est
ĠRech er
ĠHoch schulen
ĠOl iv
ĠMittel n
ĠArbeit nehmer
Ġkein es
Ġvoll kommen
Ġwest liche
ĠUl tr
Ġby zant
AP I
ĠComm ittee
ĠAir es
Ġtyp ische
ĠAuff Ã¼hrung
national mannschaft
ĠTaschen buch
ĠAgr ar
PAT H
H ar
P ierre
p Ã¤dagoge
Ċ ĊĠĠĠĠĠĠĠĠĠĠĠĠĠĠĠĠĠĠĠĠĠĠĠ
st immen
Ã¤ k
ĠK ay
ĠK rÃ¼
ĠP ad
ĠP rivate
is pr
ĠT ib
il ation
tr akt
ĠI rak
re port
ĠC av
Ġp ur
get M
ĠSp ons
ĠAr ist
Ġ18 29
ĠAb sol
Ġ12 00
Ġgef Ã¤llt
ĠHe art
gor ith
ĠKÃ¼nstler in
Ġdi plomat
ĠÃ¤hn lichen
ĠQualitÃ¤t s
Med iziner
ĠStandard s
Ġverf asst
ĠZimmer mann
ĠKandid at
Change d
Ġprofit ieren
depen dent
ĠZut aten
ReprÃ¤sentanten haus
1 10
T urn
o iden
Ġs ure
ĠB Ã¤r
ĠP for
ĠR end
Ġdes ign
ik at
eb all
Ġunter ird
Ġab gebaut
her it
Ġtr ee
ast ral
Ġgew issen
ĠKl einen
Ġbeg angen
ĠSe es
Ġar men
bach s
ĠRei s
ĠFahr zeugen
ĠMot oren
ĠGen ossen
ĠNeben fluss
ĠHei rat
ĠStu hl
Ġung laub
ĠSied lungen
ĠBesonder heit
ĠGall ery
Ġsk ip
ĠBegr Ã¼ndung
Ġdokument iert
ĠBedÃ¼rf nisse
clus ive
> </
P reuÃŁ
c ial
h Ã¤ngt
é Ģ
ĠS we
ĠP unk
ĠN acional
ĠC olon
ĠAn leitung
op fer
if te
Ġbes eit
An notations
app ed
Ã¶ch er
fert igung
Ġ% ,
ĠHier zu
All gemein
ĠLog o
ĠBur k
verstÃ¤nd nis
ĠSym ph
Ġverp asste
ĠVerdienst ordens
ĠLegen de
ĠEcon om
C ertificate
K T
M as
R ole
b eben
h Ã¼gel
v ens
w achsen
z ei
ĠB innen
ĠM ahl
Ġdem nach
Ġ18 17
Ġ18 28
ĠCh annel
ĠVor sprung
ĠVor haben
los ing
Ġe ach
Al ben
ĠBl as
Ġbek leidete
Ġbesch reiben
schn ell
ĠLandes regierung
alse k
ius eppe
Ġverw altet
ĠMot ive
ĠMe te
alle d
ĠEvent s
grÃ¶ÃŁ te
ĠBrau erei
ĠBist ums
ĠWell ness
ĠlÃ¤ng st
lac ement
ĠStaatsb Ã¼rger
ĠAgent ur
ĠkÃ¤mpf te
ĠBerÃ¼cksicht igung
b Ã¼r
g alerie
o i
Ġb un
em m
ĠF ri
ĠW orm
ĠR ent
Ġer zeug
ĠN on
Ġmit ten
ĠAn liegen
Ġbe enden
Ġ" \
pr om
ĠGr Ã¶n
Con f
rÃ¤ um
sel f
hÃ¶r en
ĠOlymp iasieger
ĠGeneral stab
ĠFrankreich s
Ġbed ingt
zut age
ĠMyth ologie
G leich
Ï Ħ
in formationen
ĠS iz
ĠH amilton
ĠW ith
Ã¶ cke
ĠSt one
Ġp res
ĠIn itial
ind lich
Ã¤t sel
Ġa ctive
18 99
kl ang
Ġ10 1
ĠBe gegn
ĠÃľber setzer
ide en
ĠTechn ische
ĠTechn ology
Ġwill kommen
ĠHa ag
ĠHel den
LA Y
met all
do or
ĠDis c
ĠlÃ¤nger en
onom ie
!! !
Ġide en
Ko ordinate
skl asse
Ġoffens ichtlich
ĠBismar ck
= '
D abei
N och
r unden
v gl
Ġw on
Ġf ern
Ġer setzen
ut a
Ġk andid
Ġp ending
ex pected
Ġvor geschlagen
Ġdar auff
ĠKunst denkmÃ¤ler
ĠAt las
Format ter
ĠJe de
Ġverz ichten
ĠWahr scheinlich
Ġbeein druck
ĠArchÃ¤ ologie
ĠkÃ¼nstler ische
jew itsch
Ġsamm elte
schi ffen
ĠTrieb wagen
Ġbefind lichen
ĠCaf Ã©
ĠBreis gau
1 20
S u
V B
d an
r v
st ationen
ĠE id
re ader
ĠV III
Ġg lauben
Ġc ommerce
pr im
ĠGemein schafts
Ã¤u ber
Mit glieder
Ġbeh andeln
ĠLondon er
ĠPark platz
ĠWissenschaft s
Ġdr amat
Ġap i
Ġerz Ã¤hlen
ĠSow ohl
Mill ionen
Ġzeich nete
ĠSteu ern
ĠSozi ologie
ĠGitarr ist
Ġdarauff ol
T okens
t otal
Ġ ..
sch ne
ar ab
Ġb reiter
ĠM eistertitel
ĠK essel
ĠP Ã©
ĠR og
Ġaus b
get Local
lo y
ste ck
ob i
En glisch
ĠUS D
ke a
ĠLu zern
ĠGeneral leutnant
196 1
Ġcreate d
Sc ale
Ã¶pf en
ĠDist rik
ĠPop ular
loc ation
ĠbestÃ¤t igte
ĠSar ah
ĠKommand ant
Ã± a
ĠTie fen
Ġneg ative
Ġregul Ã¤ren
D imension
E ach
S ort
T uple
f inanz
p assen
r one
ĠM ind
ĠK lagen
ĠF ind
ĠL ehen
ent ums
ul arb
ĠIn tel
ĠDie sen
Ġsch auen
iz it
iz ierte
Ġab gel
ĠBer echnung
ob ahn
St ats
18 93
lei b
Ver anstalt
ĠDu o
ĠInform atik
ĠFest ivals
ĠgrÃ¼n en
ĠTÃ¼r en
ĠPau lo
Ġanges iedelt
ĠHon or
ĠErzie hungs
ĠPed ro
ĠTheat re
E LE
T el
Ġ 000
Ġs enden
ĠM ent
Ġein gew
Ġf icken
Ġf liegen
ĠW DR
ĠW alk
il o
ĠL eich
ĠL ack
Ġan treten
ĠO v
ĠO skar
ĠEr haltung
Ġ18 25
Ġvor an
arb eiteten
par ser
ss itz
ĠAd v
ĠGe orges
con f
ĠDurch bruch
ĠsÃ¼d afr
ĠÃĸsterreich ische
ĠBel agerung
ĠRuss ischen
sie ht
Rel igion
ĠÅ ½
Ġzentr al
vertr etung
Ġleich ten
Ġprofession elle
imple Name
Ġcle ar
ĠBiograph isches
ĠZy linder
L ook
W o
f onds
w Ã¶rter
Ġ Ê¿
sch ungen
ĠG ute
ĠT all
ĠJ Ã¤nner
Ġan stelle
ul us
ĠO ch
eh me
ĠJahr t
ĠAl ice
18 0
Ar n
eig ern
Ġins ert
anc ed
ĠSol ar
IC E
ĠPal Ã¤st
ĠSicher ung
Ġopt imale
ĠLandtag swahl
ĠtÃ¤ glichen
option s
Ġliefer te
grenz ung
ĠRac ing
ĠDunk el
Ġstet ig
andin av
B esonder
F ort
H P
H g
m ember
or ted
Ã¼ ÃŁen
el ung
ĠF ur
ĠF ische
ĠN oten
ĠAn kunft
ip se
Ġneu esten
br Ã¼
spr ungs
Ar ab
Ã¤nder ungen
ĠVers orgungs
ho tel
ĠVolks schule
ĠFach bereich
annot ation
ĠInner halb
ĠgÃ¼nst igen
Vis itor
Ġverurs acht
ĠSpir itu
imen tel
Ġbefest igt
ĠEntert ainment
Ġgetest et
D och
D uration
N ein
R M
Z eich
d re
k Ã¤mpfe
o on
v iv
sch reiten
ĠD anzig
ĠK reise
ĠH arb
ĠH ydro
ĠT uch
ut ive
ĠU K
eb el
ĠJahr est
get Data
ate au
Ġ18 23
zen ierung
enn ame
ĠAb bau
ip eline
fl eisch
sk e
sk Ã½
ĠRei fe
ĠGra phen
Ã¤h ern
ĠNieder lagen
ĠNe apel
ĠDe ath
ĠGu y
ĠÃ¼b licherweise
Ġstate ment
Ġwohn en
Fe atures
schlÃ¤ gen
ĠMaster s
Ġzeich nen
ĠmÃ¤nn liche
ĠkÃ¶nig lichen
Ġrestaur iert
feren ces
ĠHumbold t
K ap
M at
P Ãĸ
i ago
au ens
it us
Ġv iert
ĠD eh
Ġein fluss
ĠG lo
ĠR ange
Ġer werben
ĠZ ucht
ic le
ot herapie
ĠIn vent
ce p
ĠEin stellungen
Ġsie d
ĠMit tag
lei den
ĠKl etter
li ff
iss ionen
Ġgesch w
ĠFre y
ĠGen ehmigung
Ġleben s
Ġcomp ute
grÃ¼n de
ĠSchlag zeuger
Kultur denkmal
Ġkanad ische
Valid ation
Ġgesetz lichen
ĠErschein ungs
Ġschott ischen
ĠPublish ing
zule gen
F K
U hr
c re
t temberg
ä »
ĠS ED
ĠM inden
ol es
le der
ĠR ande
Ġge teilt
op ath
Ġsie bten
Ġ18 31
ĠPro tagon
18 90
eim ate
ite es
ĠUnter kunft
Ġange meld
ĠSÃ¼d amerika
ĠX X
ĠSchl Ã¶sser
wissenschaft liche
Event s
ĠTri o
ĠHel fer
ĠHin blick
ĠhÃ¤ufig sten
MP TY
Ġgener ell
Ġhol en
ĠKlass ische
ĠRÃ¤ umen
ĠÃ¶ fter
Ġhil f
Ġil leg
ĠPseud onym
Denk mal
Dam it
ĠJugoslaw ien
e ars
s is
y cle
sch ers
ar us
Ġs m
ĠD au
ĠP le
ĠP os
Ġer led
ut ing
and emie
ĠN iger
Ġc ollection
Ġbe zeichnen
19 16
ef el
ĠAus richtung
ĠAus lÃ¤nder
ĠGr imm
ep id
ĠNach mittag
Con nect
ĠIm mutable
ond a
ĠY am
ĠPh arm
bl ut
Object s
dr unde
ĠWeb prÃ¤senz
rÃ¤s identen
tag es
ĠArch ive
AL OG
not Null
aj ew
Ã¨ ne
Ġerfolgreich sten
ĠKom Ã¶die
ĠFluss es
ĠEntscheid ungs
Ġgriech ische
Ġwor auf
Ġunmittelbar er
Hein z
ĠBakter ien
ĠDreiÃŁig jÃ¤hrigen
. âĢĵ
/ {
T en
b Ã¶r
Ġd einer
ĠS ix
Ġs onn
ĠW rest
om o
ĠSp eyer
ang aben
Ġab sch
ĠMa j
18 97
utz er
En gl
Ġpro xy
imm y
riv e
ĠBet r
ĠBet rag
wohn ungen
kon s
ĠEm ma
Ġkomm ent
ĠFest schrift
ĠKultur en
ĠBeruf ung
gra ph
ĠSchÃ¼ler innen
seit ige
Pr int
ĠNachbar n
Ġwohn te
ĠKolon ie
ĠVerhalten s
ĠBeweg ungen
ĠClau de
Ġberuf lichen
Ġbevorzu gt
LEN GTH
Ġbesieg te
A ktiv
O t
d ies
h te
Â ½
ĠS D
Ġi ll
ĠF iction
ĠP ak
ĠT s
ĠL ub
ĠR ib
ĠSch eiben
ĠVer hÃ¤ltnisse
19 17
Ġab stra
Ġtr ock
res h
Pro vinz
ĠUm frage
Sch m
Al tern
Ġbet rifft
mar ine
icher heits
aw s
Ge ometry
Form al
wirtschaft s
act ive
Ġmein t
AS K
prÃ¼ fen
mel den
Comp uter
ĠDigit alisat
ĠUN ESCO
Ins gesamt
ĠTrau er
Ġtschech ischer
ĠIndust ri
Ã¤p st
C annot
F ac
j s
w il
w Ã¤hlen
È Ľ
Ġ eig
Ġd isplay
ĠS equ
ĠD FB
Ġm eta
ĠH ack
ĠT Ã¤nzer
ĠW Ã¤nde
il ang
ig ter
ĠV ision
ĠAl an
ex p
if ter
geb r
tem pel
Ġ0 6
En vironment
Ġber echt
eist ern
Ġen coding
ilder t
ĠNord ost
Ã¤m m
ĠBuch en
ĠPat rim
ĠDi abet
Ġhistor ischer
ĠHeil ige
System atik
ĠImm un
ĠSec ret
ĠGru ben
ĠMittelalter s
Ġlocal Var
ĠPok alsieger
Assign able
ĠAusgang spunkt
ĠDial ekt
ĠGatt ungen
E st
V M
i om
Ġ ew
Ġd ick
ĠS egment
ĠK evin
ol ved
ĠG overn
ĠP rec
ĠT hrowable
ĠW affe
ĠI X
ĠfÃ¼r s
ĠEr ben
ĠÃ¼ber arbeitete
ungs zeit
la de
ĠVor trÃ¤ge
ac ters
Ġbef asst
sw issenschaften
ĠAt tr
ĠEd itions
ĠBel euchtung
FuÃŁball nationalspieler
anc y
ĠUl m
herr n
ĠElektr onik
ĠZÃ¼r cher
Äį ak
grÃ¼n der
Ġhal ben
ĠZweit ligisten
ĠKomposition en
ĠMoz art
dev ice
ĠAuft akt
Lou is
ĠgenÃ¼ gend
> -
B inding
H al
I ST
T re
T rotz
W ein
g ow
h eid
j ap
es a
ĠB BC
ĠD C
ĠK rau
ĠE cht
ĠL eut
ĠL ip
ĠR iga
ĠV as
ik ern
ik ale
im i
os kop
Ġun klar
ster ben
Ġ18 22
ĠAl i
pro vis
ĠGer a
Ġerfolg los
ĠMark graf
Ġkurz zeitig
Ġbegr Ã¼ndet
ends With
ĠCommun ity
ĠFranzÃ¶s ischen
ĠFF DC
ĠPriv ile
ĠOh io
Ġkonzip iert
ĠLiss abon
H O
T B
d ater
n umber
s ow
Ġs uchte
ol as
ĠP lace
ĠL aser
ĠV Ã¶l
ĠV alen
ro it
ĠC ontin
ĠSt ick
ver eine
Ġst erben
eg g
Ġr oll
ĠÃ¼ber nahmen
ĠGr em
ard t
rÃ¤ g
(" <
ĠFl ur
ian ce
mit gliedern
Type Reference
ĠBe eth
Ã¤u er
ĠAut h
Ġbesch rÃ¤n
ĠHaupt mann
Ġselbst verstÃ¤ndlich
Aus bildung
ĠDar in
ĠBew ertungen
File Name
Ġbeh eimate
Ġgem eldet
ĠForsch er
osoph ie
ĠHin sicht
beh Ã¶rden
ĠBesuch ern
seit igen
ĠAnge hÃ¶rige
Met al
meld ungen
Ġhab t
ĠGolden en
ĠChallen ger
ĠGetrei de
ĠHimm els
Ġfas zin
T asks
c d
m isch
in th
st ack
st yle
Ġv ideo
ĠK enntnisse
ten ded
Ġver folg
ĠSch ema
Ġp fl
Ġsch lossen
Ġj etz
ĠAl m
ult ure
ĠGr ube
ohn en
18 95
IN VALID
ĠGrund stein
ĠUr ban
Ġall mÃ¤h
lauf bahn
sche e
Mar ia
ĠSc ot
ĠAnt eile
ĠWinter spielen
Ġschwer er
ĠFrÃ¼ chte
ĠClass ic
Gr Ã¼n
fÃ¼l l
ĠAmts gericht
CE SS
Ġverz ichtet
ĠSchlag zeug
Bad minton
ĠSkulpt uren
Russ land
f achen
h allen
in haber
Ġs Ã¤chsischen
ĠP kt
ĠP reisen
ĠP ommern
Ã¶ hm
Ġan wes
ĠZ uch
Ġ18 34
18 88
Ġnoch mal
ĠFl y
ivers itÃ¤t
ĠRe alitÃ¤t
ograf ien
ĠGott lieb
Ġempf ohlen
ĠWel che
Ġproduz ieren
Ġgeschlossen en
Ġitem s
ĠMand at
ĠdÃ¤n ische
Ġirgend wie
Ġmedizin ische
ĠTerr asse
ĠKroat ien
G ateway
P redicate
g ium
h um
s amen
v ik
er ungen
ĠB arr
ĠH eid
ĠH Ã¼tten
ĠT ru
ber eiten
and ra
Ġden ke
ĠC arn
ik alen
Ġver r
Ġo k
he ft
00 00
St aat
ĠNach weis
ire ct
mit ten
Ġwieder hol
ĊĠĠĠĠĠĠĠĠĠĠĠĠĠĠĠĠĠĠĠĠĠĠĠĠ ĠĠĠĠ
ander s
uff ers
Ġverl iert
[] []
ĠLa ien
spro du
ĠPlan eten
Ġnorm alerweise
Mon th
ĠMerk mal
ĠAns ichten
Ġporn o
ĠEmp ire
FuÃŁ noten
ĠBuen os
ĠZuschau ern
! =
B itte
M aster
W G
st eht
Ġv en
ĠM A
ĠG is
Ġver stÃ¤nd
ver schluss
rie ve
ĠSp alten
âĢľ :
Ġ18 12
iz itÃ¤t
Ã¶r ung
ĠBr et
ĠSpiel zeiten
ON E
enden cies
schn eiden
ĠLie chtenstein
Ġte uer
Ber echnet
Land tag
ĠGed Ã¤chtnis
ĠBran che
Match er
ĠMol ek
Ġco uld
Ġverab schied
ĠVinc ent
ĠFrances co
alsek retÃ¤r
H in
O FF
c id
k asse
w urz
an schluss
ar ct
ar Access
at form
Ġw here
ĠB ock
ĠB attle
et al
ĠM ater
ĠM ake
ĠE sch
Ġh erk
ĠC e
Ġt her
ĠZ a
ĠâĢ Ļ
ĠDie t
ew ork
op ing
get Text
aus wahl
Ġab schloss
amm ad
Ġ0 3
ĠBau werke
Ġth em
ĠUm stÃ¤nden
ĠPlatz ierung
ĠInd ones
ĠSchl ange
ĠGegen stÃ¤nde
leben s
ĠTour en
ĠRod rig
ĠGerman y
Ter minal
ĠFert igung
Ġhr sg
ĠJahrhund erte
S Ã¶hne
m ode
p Ã¤dagogik
s iedlung
on anz
Ġf ur
Ġf ull
ĠH irn
ĠW iel
ĠJ as
Ġp otent
ĠEr halt
ĠEr hÃ¶hung
ĠStr als
zen en
Ġ" ]
ĠCh ild
oc aust
ĠZeit ungs
ĠUnter lagen
ĠSte iner
meister s
Leben s
AR D
dienst es
iat rie
Ġgelang t
Th omas
ĠGesetz e
Ġverlie h
Â» ,
Ġra w
ĠAbgeord nete
MB ER
Ã¤dagog ischen
ĠgewÃ¤hr leisten
cul ate
ĠWÃ¶rter buch
ĠWeltr ang
Ġcas ino
ĠInterpret ation
L ied
P P
h ielt
l Ä«
o a
Ġd st
Ġs cript
ĠB Ã¤ren
ĠK anten
Ġauf zunehmen
ess a
ech en
ech nen
th ers
fÃ¼hr ende
Al p
gl adbach
ĠgroÃŁ zÃ¼g
Ġher an
ĠAug uste
ĠWest er
ĠWei ss
Ein en
ĠHÃ¶ hle
Ġaktu alisiert
Client Execution
Pack et
ĠÃ¼b te
ĠBro ok
ĠErd beben
ĠSem ester
kraft werk
word s
Ġevangel ischer
ĠSup port
Ġspec ified
ĠInternal Xbase
Ġverschw unden
Ġbefore ClientExecution
PRE FIX
Ġenth ielt
ĠprÃ¼ fen
Ġberu ht
ĠMagaz ine
Ġcir ca
beteil igung
I Z
L es
l att
m obil
w n
st al
st au
ĠS ag
sch atz
ich i
Ġv ariable
ĠD ak
ĠT ee
ĠR asse
um fang
ĠC ON
Ġge gliedert
Ġt at
ĠAn ordnung
ran e
erk rank
reich t
Ġsp eichern
Pro tocol
ĠBau t
čĊĉĉ čĊĉ
ĠGroÃŁ vater
gemein schaften
ĠCon nect
ograph ic
Aus gabe
Ġkon kr
Ġho hem
Ġangeb aut
ĠLang haus
ĠPil ger
Ñģ Ðº
ĠKa stell
Ġcolumn s
Rem ote
Lin ks
spf licht
Ġgesund heit
Ġnachfol genden
D etail
f onie
Ð ·
ĠS ell
ĠF aktor
ĠF eiert
Ġf all
ĠSt orm
ver mÃ¶gen
ub s
get Node
Ġwir st
ĠSp err
Ġj avax
iz ismus
iz za
ĠGr ub
ant ische
ĠMar ch
Ã¤l z
ĠFl u
be er
spr ingen
str and
Ġgesch ah
bild ner
Ġviel mehr
ĠMed ium
ĠZusammen setzung
Ġrel ative
ĠAs yl
ĠMaler in
Ġung arischen
Ġdest o
Bundes staat
Ġvergleich sweise
berecht igt
ĠOrgan ist
Declar ed
ÅĦ ski
ĠAre al
MÃ¼n chen
Ġangrenzen den
> \
B randenburg
M el
Y ear
f aktor
g Ã¼ter
Ð ¿
Ġ echte
Ġ echten
it r
Ġein iges
Ã¶ d
ĠJ h
ĠC u
ĠZ ier
ĠSch okol
Ġun be
Ġent warf
Ġ- =
Ġneu tr
Sch rift
ĠTeil nehmern
irt scha
Ġausge legt
ĠBez eichnungen
ĠBest en
ĠLei der
ĠSystem atik
ativ itÃ¤t
rem e
ĠDem onstr
ĠnÃ¶rd liche
Ġversuch ten
steh er
bef ehl
Ehemal iges
ĠKult us
Comm on
krit iker
Ġvorber eitet
Ġrenov iert
C R
N eue
Z ent
b eil
g han
h aut
i Äį
or ed
ĠD aw
ĠG B
ĠL Ã¤ufer
ĠR umpf
Ġan zeigen
ver n
wei tern
Ġsch lagen
Ġunter e
Ġunter richtet
par at
ikan ten
Ġen gen
gew orfen
Ġeinz iges
ĠSÃ¼d seite
ĠsÃ¼d liche
Ġerhalten e
ĠOst see
Ġdazu ge
Ġrech ter
SE CON
lÃ¤uf erin
Ġ180 2
ĠMont age
ĠFort schritt
Ġdr auf
ĠAch telfinale
sdorf er
Gener ic
ĠPan or
Ġverd ient
ĠWettbewerb s
ĠTisch tennis
Ġmet adata
ĠMargar et
ĠHT ML
ĠYor ker
ĠClaud ia
Serv ices
ĠTschechos lowakei
Leichtathlet ik
S tel
f ell
p ause
s ame
ge stell
Ġs ave
ĠB ey
et tel
ĠD all
Ġn odes
ĠG iuseppe
and al
Ġt ollen
Ġaus sehen
ĠVer pack
ĠVer mittlung
ed es
enn amen
Ġre d
ĠSo u
ĠPh asen
ĠVerein ten
Ġverb leiben
enk irche
ĠKunst historiker
AT ED
ĠNational en
ĠZwei fel
To String
hre e
Ġfr ucht
ĠBek ann
Nieder lage
ĠBrau t
Ġchines ische
ĠÃ¼brigen s
edig lich
ĠStol per
J B
S napshot
g Ã¤ste
Ã ²
ie in
Ġw eich
ĠK ot
ĠL enn
ro g
Ġk op
Ġauf bew
sp unkte
ed uler
Ġst ieÃŁ
ĠAn wender
Ġbe z
ĠEin bau
qu artier
ohn ern
lag ert
Ã¶ff entlichen
stan de
Ġbef re
fÃ¼ gt
ĠSe arch
Ã¤nder ten
Ġeinz iger
ĠBeg leit
Ġbel egen
ĠSchul ze
AR Y
Ã³ r
ĠPat tern
Ġhei ÃŁ
Ġaufge f
Ġbezeichnet en
etter s
ĠWill i
CH AN
ĠKor re
Ġelektr onische
ĠAnder son
ĠGran de
ĠjÃ¼nger e
ĠLi bert
.:.: .:.:
+ "
B elege
F ollow
G rid
l inger
s ung
t itle
w elle
Ġ ĊĠĠĠĠĠĠĠĠĠĠĠ
un z
st isch
sch Ã¤den
ĠD opp
Ġm iss
ĠF len
Ġf ried
Ġf ragen
ĠL ith
ĠI sol
Ġge fÃ¼llt
ĠÃ¼ber prÃ¼ft
lo ok
Ġ16 00
ĠUnivers al
ĠfÃ¼hr ende
urt stag
unter such
ĠStaats sekretÃ¤r
Ġbed ro
ĠKreuz es
ĠJournal istin
ĠKonz epte
the orie
Ġtyp isch
ĠunabhÃ¤ng ige
Ġausger Ã¼stet
ĠKron en
Ġmass iv
ĠLy on
Theater schauspieler
Meister schaft
astrop he
Ġdarauffol genden
I r
m os
st age
sch ach
sch lei
Ġs uch
ĠD y
ĠD sch
Ġin ternal
hr ingen
de fin
ĠG riech
ĠL ars
us sten
Ġg reift
ist iken
ic um
Ġc ustom
her z
ĠMa z
Ã¤l te
ĠVor kommen
ĠPl ant
Ġ17 0
Ġ17 90
gesch nitten
Ã¶l ler
schie bung
Ar rays
ĠÃľber reste
ha ar
ĠRech en
ĠSh ar
ĠMitglied schaft
Ġlang jÃ¤hrigen
ĠSc reen
ĠMo or
ipp ing
ĠLauf zeit
ĠRegierung schef
ĠIde al
rev olution
ĠErfolg s
ĠEing angs
getS impleName
ĠVal ley
ĠCal endar
Ġamer ikanischer
asp iele
ĠGÃ¤ sten
ĠNa gel
ĠHab ilit
Ġter m
instr ument
izont al
ĠMetropolit an
7 00
B rit
S dk
T ABLE
V irtual
W A
g ei
s yn
te le
ĠA V
ĠG am
ĠP M
ĠP kw
ĠH end
ĠR Ã¼
ĠO den
ien d
ger ichte
Ġsch ar
ĠEin es
ĠAr range
Ġent scheidet
18 92
rÃ¤ fte
ĠAm ate
Ã¶l n
ĠEx tr
ĠÂ °
RE AD
Ġper man
ĠMo ore
Ġschw ach
ĠEhe paar
ifiz ieren
ĠFernseh film
ĠMos k
FI G
Ġschl Ã¤gt
ĠPan el
Ġfinanz iert
Ġerheb t
ĠGru ber
ĠÃ¶ konom
Stud ien
ĠProp ag
Z iel
b ranche
c ommand
l eister
z ungs
Ġs a
ĠB ien
ĠD NA
Ġein setz
Ġz us
ĠK ies
ĠH ud
Ġge lo
sp an
ct x
Ġbe zog
iz abeth
ia de
ĠAuf stellung
br em
ĠSo ul
Ġsel ect
ĠSte wart
15 0
Or ts
Ġersch lossen
deck ten
ĠArbeit spl
ĠGen au
gef Ã¤ngnis
Ġ180 9
ĠNot wend
ĠÃ¶ff net
Ġlin ker
ĠInnen raum
sie ger
ĠMÃ¼l l
Ġklass isch
Ġwes entlichen
mon at
vis or
Ġap ply
ĠClub s
ĠEmpf Ã¤nger
ĠBa pt
Ġwor aufhin
ĠVerteid iger
ĠWiderstand sk
Ġneg ativ
ĠSus anne
stÃ¤d te
ĠSoll te
ĠWik ipedia
ĠSerb ien
ĠLoth ar
1 12
B inary
O s
S B
g Ã¼nst
p zig
r um
al itÃ¤ten
ĠS und
Ġw eiten
Ġs obald
ĠA hm
ĠM igration
am azon
ĠW oll
ĠC V
ist urnier
sp anisch
Ġc ommun
ĠMa yer
18 89
ian ische
Ġpro gramm
Ġwieder her
ĠBau arbeiten
ĠÃľber tragung
lau tern
ĠGer tr
ĠAut omat
ĠKunst geschichte
ĠBeg leitung
Ġersch ossen
Re al
list ener
Ġstud ieren
ĠKur se
Ġrow s
Ġausgew Ã¤hlten
Ġrule Jvm
Ġnames pace
ĠContr ol
Ġangen ehm
Allow ed
D ATA
H ex
P UT
W id
c amp
f tet
l on
} .<
ĠS echs
ĠS ultan
Ġw and
ĠE C
ĠR eturn
ĠR TL
ach ment
ig ste
ĠN an
get Next
mer z
Ġ18 19
St atic
Ã© mon
sb ibliothek
ĠHand werks
Ch arl
Ġverschieden sten
ĠUr kunden
Ġabge halten
ipp i
ĠPrÃ¤s entation
Ġeinzel ner
opp ing
Per mission
ãĥ ¼
ĠDres dner
Ã¼st ung
Her ausgeber
Ġcom pare
Ġposit iven
ĠModer nis
ĠNÃ¼rn berger
aust ausch
ĠSchwar ze
ĠkÃ¼nstler ischen
ĠSab ine
russ isch
dehn ung
Declar ation
ĠDrag on
Ġfu hren
ouv elle
ĠDorothe a
B ur
H a
L egen
M ol
P icker
S zene
p ern
y y
Ġd oppelt
ie se
Ġv olle
Ġin clude
ĠK f
ĠH l
Ġr ender
og ne
Ġ18 24
enn ungs
ĠAm tes
ĠPl Ã¤tzen
olog na
eigen en
ĠMus k
Ġen orm
ĠZu hause
ĠNeu tr
Or dens
ĠVol umen
haf ter
ĠDre am
ĠGeh Ã¤use
mod ule
verband s
ĠGesamt wertung
ĠTo uch
ĠEnd spiel
sl alom
ĠKÃ¶nigreich s
Jo urnalist
Max im
Ġpart ition
Ġstammen de
ĠFund ament
ĠBal kon
Ġerforder t
ĠPaar e
BC I
Ġbein ahe
ĠBox er
VER SION
Ġmel dete
sÃ¤nger in
A qu
G EN
H K
J ean
W ald
d al
w appen
Î ½
Ð ±
Ġ Ñģ
on isch
ĠB ens
ĠM eilen
ĠM obile
ĠP fe
ĠH ind
ĠR uth
Ġ2 20
ĠJ ochen
ĠSch iller
sp ect
ĠIn tr
ben e
ert s
Ġ18 26
av ior
ov on
br achte
Ġbes etzten
kl ein
Ġeigen em
[] {
ĠWei den
ĠBest immungen
schw itz
ĠKat astral
ĠProduktion en
ĠWal ker
ĠZur Ã¼ck
ĠrÃ¶m ischer
Pr ess
So ftware
ĠLy rik
ĠSound track
ĠjÃ¼ng ste
sbed ingungen
lokomot iven
ĠvorÃ¼ber gehend
= >
C ast
O der
P ure
g eist
z onen
ar est
ĠA ri
ĠF ut
de utet
ĠH Ã¤r
ĠR ass
ĠN elson
ĠSt eiger
Ġr eine
Ġsch icken
ĠAuf wand
rÃ¤ te
ev oll
pro vinz
ĠEurop Ã¤
ĠWei h
ĠGraf iker
ĠEigen schaft
ĠRot ter
ãģ ®
Sport veranstaltung
ĠprÃ¤ z
Bl ank
ĠGrÃ¤ ber
ĠEst land
Ġauth ent
ibil itÃ¤t
ĠOrient ierung
grÃ¤ ber
âĢ¢ âĢ¢
J ac
M oll
S ens
f la
y ter
č ĊĠ
Ġd elta
ĠS eh
Ġm g
le ep
ĠL ernen
Ġver dr
ĠSt ore
ah ler
In stances
ok ko
St op
ĠNach ruf
Ġe G
Ġe ure
pro file
ĠUnter haltung
Ġbef asste
ign y
ĠFre ie
RE D
Ġgemein t
ĠGef ahren
utt a
ĠKreis stadt
ĠKar p
ĠTechn iken
ĠRu ine
ox id
Sport ler
Ġplan en
Ã¶der ation
ĠgewÃ¤hr leistet
ĠMig uel
H it
N U
R ing
T itle
V oll
k Ã¶r
u cc
z es
å ħ
Ġ æ
Ġd ruck
ĠA B
ĠM oll
ĠĠĠĠĠĠĠĠ Ġ
ĠP L
ĠL utz
ut able
Ġh ielten
Ġl Ã¤dt
Ġaus reichen
eg ation
och em
Ġbe deut
aus stellungen
up s
schen de
Ġ10 5
Ġzusammen ge
ĠInd iana
recht liche
Ġem otion
ĠGu ard
Ġstehen de
ĠStuttg arter
Ġzul Ã¤ss
ĠPe er
ĠZeich ner
Ġsowjet ische
Sing les
ĠBulgar ien
ArchÃ¤ ologischer
ĠgefÃ¤r bt
> ");
R echt
g riech
l is
ä º
Ċ ĠĊĠĊ
Ã¼ hen
ĠB att
ĠB uff
ĠF lex
ĠG ur
ĠE if
ĠP Ã¤dagoge
is Assignable
ĠW enzel
sen kung
ĠSt urz
Ġp ush
ĠIn fo
get Max
ĠUn i
lie ss
ĠEin s
Ã¶r en
ĠAl f
ne cted
18 87
(" ,
ĠStadt bezirk
stan zen
ott a
ĠEurop ap
ĠTr in
ĠMed ical
Sp iele
gleich en
iden ce
ĠErst ligisten
AS A
Up per
Pol en
Ġselten er
ĠPlay er
Ġbetr achten
Ġanges ichts
hau ser
HÃ¶r spiel
Bek annte
ĠBundesverdienstkreuz es
H as
L B
f ire
l uther
m Ã¤cht
p rev
w ann
Ï ģ
å Ĳ
ĠS ource
Ã¼ ht
ĠB j
gen s
ĠH ugh
ĠH obby
ĠVer einen
ĠStr ess
Ġent sprach
ĠAb bildung
Ġres erv
Er z
Ġbet reiben
ĠSchw ert
ĠBes iedlung
ĠSe a
rech ten
ĠUr sprungs
Ġverw irk
ĠMo h
Sh ape
ranken haus
Ġ180 7
vel ope
ĠSouth ern
Ġrep lace
Ġerl itt
Ġangew endet
ĠGewerk schaft
Us age
Ġportugies ischen
ĠHandwerk er
ĠkÃ¼nft ig
Ġakadem ischen
ronom ie
Sta ats
ĠRug by
B ass
D om
G ar
G lobal
J Ã¼rgen
K reuz
f eind
p attern
Ñ ħ
st urz
an us
ĠB aus
as y
ĠD iff
Ġi Phone
Ġein her
ĠF reis
ĠE w
is ions
ĠH ain
ĠL Ã©
ab sicht
ent urm
Ġk ub
ĠZ elle
ĠSch a
ert al
lie f
ib Package
ĠEn th
pl ibPackage
Ġ17 50
Ã¤nd iger
ĠJo urn
Ġges perrt
wick elt
gew Ã¶lbe
Ch arts
Ġbesch leun
ĠBeg leiter
ĠKar os
ĠJohn ny
Person en
Ġ180 4
rÃ¤n kung
Ġgegeben e
AuÃŁ en
ĠTw itter
Stat istik
ĠWurz el
ĠVf L
ĠWÃ¤l der
ĠSyr ien
B al
M D
P oints
W al
Z eitung
b eln
p refix
s ingle
t age
ĠS ier
Ã¤ be
ĠB un
ĠF lieger
ĠG lob
ĠZ en
ĠSch uster
im ente
Ġun bew
ĠAn merkungen
ap o
Ġj ugend
lie be
ĠEn try
anz eige
18 94
br ach
Ġbes aÃŁen
ĠGes ellschaften
aut omat
Ã¤u schen
ĠSchw aben
fra gt
arm el
ĠBÃ¼rger krieg
ĠSchm etter
mod elle
Ġmein te
ĠZahl reiche
ĠMehr ere
Ð¾ ÑĢ
ĠVerband es
ĠKolon ien
Sa ale
wÃ¤rt ig
Ġattr aktiv
ĠBasket ballspieler
Ġjahr el
Ġbelg ischen
bil dern
ĠEncyclop edia
Listen ers
D Ã¤n
D river
L P
L y
N amen
T M
b on
e urop
j oin
m ethoden
w ellen
ĠS i
Ã¤ ums
ĠB ande
ĠD ecke
ĠD evelopment
ĠK Ã¤mpfe
ol et
ĠL ediglich
tr u
ĠV at
ĠJ i
Ġl at
ag ert
Ġp al
men gen
Ġum gest
tern ehm
Ġtr ace
18 91
ĠZeit alter
amen ten
yp ern
Ġverl aufen
ĠCo us
uck y
Ġgem isch
struktur en
Ġbegr enz
ĠRitter gut
Ġkrit isierte
ĠCan ada
Nieder lande
ĠByte Buffer
ĠTar if
ĠHaar e
Ġnorweg ischer
ĠBade zimmer
Ġnam entlich
ĠBeschÃ¤ft igung
Ġgros se
//// ////
Entfern t
M Ã¤nner
T F
u y
ĠS ain
ĠS ummer
ĠS orten
ĠK it
Ġf ikt
is Trace
ĠW ick
ĠL ibr
ir ges
Ġk roat
Ġge handelt
eb r
Ġst irbt
os ion
ĠAn sonsten
Ġc ms
Ġc ause
iv o
ĠUn it
Ġsp ace
ĠVor bereit
ĠGemein det
Sch au
Ġbet Ã¤t
such en
ĠMan che
stÃ¤nd igkeit
ĠBuch es
ĠNieder schlag
kon struktion
ĠHol ocaust
Ġ[ "
ĠBel eg
ipp us
ĠKan te
med ia
mÃ¶glich keit
<? >>
kn Ã¼pft
bÃ¼ hne
ĠSek und
Ġbegr aben
ĠKas par
Dep endency
ĠDE FAULT
Back ground
akes pe
ĠglÃ¼ck lich
ĠfÃ¼hl t
ĠRup recht
ĠAbhÃ¤ng igkeit
A A
C as
W inter
l ia
m eta
o sph
p reise
w alter
Ġ ten
Ġd own
te ams
sch in
Ã¤ ge
Ã¤ len
Ġb ulgar
Ġau d
ĠH eu
ĠL obby
ĠN E
Ġan trat
ĠZ irk
ĠSch af
ĠAn zeigen
ĠEr mord
Ġj oin
Ġvor erst
ĠFl Ã¼sse
ac cess
Ġ7 50
ĠKir k
inder ten
for um
ĠAd miral
ĠGer ichte
ĠSe ef
ĠHoch zeits
Ġfest stellen
Ġ' \
ĠGl Ã¤ub
ĠBew usstsein
ĠVers icherung
ĠAnt arct
ĠGef Ã¼hle
ĠTechn ologien
AC H
CH AR
ĠBro ck
Kir ch
ĠDenkmal pflege
vo gel
verl etzung
ĠGlock e
Ġbeeinfl ussen
ĠAufent halts
schrau ber
Bef ore
ĠStaatsanwalt schaft
! ");
G old
T ile
c raft
w t
ç Ķ
Ġd ritter
al ische
sch eiben
ĠB org
Ġz iel
ĠH unter
ĠW arm
re geln
ĠV all
Ã¼r zen
Ġst ep
ap ur
Ġ17 00
Ġ17 98
ĠGes ell
ĠMan usk
ĠFrei heits
ĠKr ise
Re ct
ĠMich igan
Def ined
ĠWahl kampf
fass ade
ĠPal Ã¤
getC urrent
Ġruss isch
ãĥ ³
ĠDis ney
ĠPrem ium
trans form
olumb ien
ĠergÃ¤n zen
Ġkonzentr iert
frÃ¼ her
Ġbrasilian ischer
ĠGetr Ã¤nke
ĠCook ies
Verwalt ungs
ĠMittele uropa
, "
D O
e ge
l Ã¼sse
m esse
å ¤
on de
ĠS ven
sch ichten
ĠA fter
ĠB evor
ĠM ale
am ar
ĠK ate
ĠK leider
ĠH ohl
ĠH Ã¼l
ĠL ov
ĠL Ã¶s
ĠL iver
Ġver ring
uf Ã¼gen
ĠVor sitz
Ġverb reitete
ĠDar unter
Ġte sten
Ġabge legt
uel a
ĠDÃ¼sseldorf er
Byte Buffer
Ġvorher igen
ĠKlass iker
sex trem
cr ement
ĠGespr Ã¤che
ĠEngl ish
ACT ION
ĠJag st
Ġkontinuier lich
Ġgere gelt
ĠObergesch oss
isAssignable From
B all
M ir
M etrics
R en
f isch
p in
sch lies
Ġw ovon
ĠB reak
ĠK em
Ġf uture
ĠW are
ĠC el
ĠSch ritte
ell ow
ĠâĢ ĺ
ri um
rie gen
ĠEin trÃ¤ge
par ed
ĠFran co
sb ek
add ress
ĠBet Ã¤tigung
Ġteil t
ĠSÃ¼d korea
ĠHo he
Ġbel ast
Ġfest e
link plain
ĠHÃ¶ hlen
ins ert
ĠhÃ¶ch st
Ġregel mÃ¤ÃŁigen
ĠLau ra
Part ei
gien e
Ġser ial
ĠKas ach
DI ALOG
Ġprofession ellen
Ġlatein ischen
Ġstation iert
Ġvorder en
ĠSchrau ben
ognition Exception
D ann
W N
d ingen
e de
n est
an kt
al ischen
Ġin cl
ĠK iss
ĠG UI
ĠP oll
ĠW irt
il f
Ġer weitern
ro u
Ġk rank
Ġg lobal
Ġauf wend
ĠSch er
ver antwort
ĠAn ruf
ĠEin nahme
Ġsp ir
int o
br Ã¼che
pro jekte
wa it
Un ion
ĠMen Ã¼
fÃ¼ hl
ĠNational versammlung
kon trolle
Ġgemein nÃ¼tz
ĠHa wa
fest ival
Ġwes entliche
âĢĿ ,
Ġkathol ischer
ĠTurnier s
Block ing
ĠBÃ¤ cker
sem ester
ĠKÃ¶r pers
ĠEngine ering
Ġkompon ierte
A UT
H op
N et
P rÃ¤
S Y
d ocument
h all
ĠA uer
ĠW at
ĠL yr
ĠR aketen
Ġer lebt
ir ts
ĠC E
ĠO kt
ĠAn sprÃ¼che
rau l
ĠAb fahrt
av ed
fl Ã¤ch
ata ill
sb eg
ĠSchw ed
Ã¼h ungen
Ġbeh ielt
Format Exception
Pl us
ĠTa sche
Ġhe ad
Ġverz wei
ĠWissen s
ĠInterview s
Ġorient iert
Ġdeutschsprach ige
ĠStÃ¶r ungen
Prim itive
ĠRon ald
ĠGon z
ĠEnzy klopÃ¤die
maur er
S ynchron
ĠS ara
ur laub
Ġder art
Ġv s
ĠA ccount
ĠD j
ĠD oc
ĠM P
Ġein gel
Ġein setzen
ĠR asen
ĠJ r
Ġan im
Ġauf weist
Ġl uther
Ġun regel
pf arr
18 84
Ġpro gress
ĠRe eder
Ġgesch afft
Trans form
Br Ã¼cke
Ġcont ains
ĠHu ber
Ġnotwend ige
ĠTelef onn
dest ination
ĠBir ken
ĠBegr Ã¼nder
ĠJed es
ĠAtlant a
Ġsort iert
ĠColor ado
ĠAster oiden
ĠMov ie
ĠCock tail
ĠSympt ome
ĠMÃ¶nchen gladbach
F INE
M issing
R ei
d d
m issions
p osten
z oll
sch Ã¼ler
ĠD imension
Ġm a
ĠF ix
Ġf low
ĠH MS
Ġan halten
Ġzu stÃ¤ndigen
Ġt wo
Ġt okens
Ġwar tet
ĠAl ab
auf tr
our en
acht al
ian i
Ġgew erb
ac cept
Sch lag
Ġres et
ĠQu anten
ĠDar lehen
Ã¶st licher
ĠPhil ippe
ĠGen re
ĠNe us
ĠZug leich
Ġ180 1
ĠVerl uste
Se ction
komm un
ĠVorg Ã¤nge
Ġide ale
Ġhol z
ĠOption en
Ġwor ld
cas Type
Ġnied rig
Ġkommun istischen
ĠUnterricht s
Ġwa it
ĠtÃ¶ ten
aller ie
ĠMari anne
gelegen en
ĠSkulpt ur
isemit ismus
ĠErwart ungen
amazon aws
C ir
D iff
H of
c ole
v om
in formation
Ġd isc
Ġs ite
et tern
ĠG ib
Ġf usion
ĠJ ungs
ĠC rist
ff end
ran ke
18 85
Ã¶ff nungs
con tr
ĠKÃ¶nig lichen
new Line
hand ler
ĠAnt hrop
ĠFlug platz
med ien
ĠStaat lichen
ĠSen ats
ĠOper a
Ã¶pf er
ĠAbend mahl
ĠbeschÃ¤ft igen
Fol gende
Rad io
ĠKrÃ¤ uter
ĠLokomot ive
ĠKÃ¶n ige
ĠBewerb ung
ĠProfess ur
feature ID
ĠMagdalen a
) }
C ard
M C
S uffix
W ieder
s ide
sch ew
Ġs l
Ġs ettings
ĠB ilden
ĠH arm
ĠV olleyball
ĠN au
ĠN ack
ing ten
Ġzu geschrieben
ĠAn ten
ĠSp eise
ru h
ex pression
ĠVor schriften
ĠKon sum
set Value
sb ew
Sch wer
Un ique
ĠSta de
ĠVerb Ã¤nde
ĠAmer ikaner
has Access
ĠTrans fer
Ġaktiv iert
Ġcm d
Ġtrans l
ĠPartner schaft
aktiv iert
ĠAllt ags
Sel bst
ĠTeu fel
Qualif ikation
ĠZwer g
Ġlei stete
Requ ired
A gg
G ed
N AL
a endert
o tel
p oints
r ut
w iesen
Å ¯
Ù ħ
or ig
Ġdie jenigen
Ġf und
Ã¶ hr
ĠR ick
Ġer mitteln
and ie
Ġh igh
ist ing
ger Ã¤ten
get Bytes
ĠÃ¼ber legen
lo he
ĠPl att
ĠBl itz
ĠSchw ieger
lig ht
oph ys
ogen e
echs lungs
Ġerw achsen
Ġhinter en
Ãĸ ff
Ser ializer
IC ATION
ĠKlein stadt
Ġfile Name
ĠTest s
fÃ¼r sten
sl eiter
ĠAbst immung
ĠOffiz iere
Ġschrift lich
h eight
k reisen
n on
u gel
w ise
au cht
Ġw enden
ĠA PI
ĠB ak
ĠG len
ĠH Ã¼tte
il ia
Ġver schl
Ġp Node
ĠâĢ º
Ġr s
Ġc ool
get Absolute
ĠAb kommen
ĠVor gaben
vers icherungs
Ã© es
ĠUnter scheidung
to ine
Ġgeb rÃ¤uch
Mar ie
ĠKap azitÃ¤t
ĠBi ologie
ĠPal ais
Ġ180 5
ĠgrÃ¼n den
ifiz ierten
(( (
Ġentstanden e
Ġnational er
Expression s
ĠÅ ģ
ĠDeb atte
Ġnorm ale
ĠMiss ouri
ĠpreuÃŁ ische
Ġgleichnam ige
Ġsah en
Ġeingesch rÃ¤nkt
ĠPerspekt iven
Lang uage
Ġfran Ã§
Ġherk Ã¶mm
M oder
M asch
O bjekte
S il
W all
b ieren
c zy
z iele
Ġs enk
Ġz ivil
ĠK ad
ĠK ette
ĠG iebel
ĠR ain
Ġer g
ut down
sen kirchen
ĠSch ub
get Parameter
id i
iz ierten
ĠAb sch
ges ucht
18 86
bau weise
Ġ17 93
gesch Ã¤fte
bl ing
ĠVerb ot
ĠHo spital
row s
ategor ien
anc er
Ġerk annte
ĠCas par
verwalt ungs
ĠjÃ¤hr liche
ĠBÃ¶ den
Ġschlech ter
kom Ã¶die
Ġcle an
typ es
Ġkom fort
ĠgewÃ¼n schten
ĠmÃ¼s ste
ĠForder ungen
ĠKonf ession
ĠReprÃ¤sentanten hauses
ĠZuch thaus
L Ã¤ufer
M y
b inding
h end
n ig
Ġ Ã¤ndert
ĠS ituationen
te au
au gen
ĠM ore
Ġm obile
ĠK amb
ĠH eld
ĠC ash
Ġl ux
ĠSch aum
Ġp or
sp ol
op hen
ĠÃ¼ber lassen
id ium
ĠPro gress
Ġent tÃ¤u
pr inzip
Ã¤ch ern
Ġweiter entwick
ĠBau denkmÃ¤ler
ĠBo ots
Ġange messen
ĠLandes hauptstadt
Ġmus st
act iv
weis ungen
ĠcaseIfc Root
Ġas iat
Content Type
ĠKraft werk
ĠVerwaltungs sitz
ĠHy b
jen ige
Ġstill gelegt
oir es
Ġpubliz iert
ĠMd L
ĠPassag iere
ĠMinn esota
ĠBlo od
ĠFreiwill igen
ĠLegisl atur
ĠallmÃ¤h lich
A ct
B asket
T C
T otal
k Ã¶pf
w ider
à ª
st Ã¤tt
es ia
ĠS ylv
ĠD ikt
ĠK Ã¼nd
ĠK iew
ĠF loat
le v
ĠH ipp
ĠW inn
ig ma
re gen
Ġg laubt
ĠSch loÃŁ
ic ut
Ġp unkt
sp or
ĠIn it
Ġst eigern
ĠUn gar
pl ates
spiel s
Ex per
ĠBr ett
Sch warz
Ġget an
Un known
ĠgehÃ¶r enden
ĠJan e
ĠPf und
ĠNord seite
ĠLu ise
Ġverl Ã¤sst
ĠRei ÃŁ
ĠĠĠĠĠĠĠĠĠĠĠĠĠĠĠĠ ĠĠĠĠĠĠĠĠĠĠĠĠĠĠĠĠ
čĊ čĊĠĠĠĠĠĠĠĠĠĠĠ
Sh op
fÃ¤h igen
fil es
ĠNachbar schaft
ĠFund platz
Ġag ain
ĠStoff e
esh old
Ġaustral ischer
Av ailable
;; ;;
Ġaufgel istet
ĠArzn eim
ĠMemor ial
Ġhabilit ierte
K V
O cc
R ein
g ger
n ien
u ded
â ĪĴ
au to
ĠB rid
Ġein heim
ĠK ick
ĠG os
ĠC hen
Ġk alt
Ġg Ã¤ng
ĠO le
Ġl ohnt
ĠSch la
Ġr unden
Ġre den
av ing
omm ission
18 70
sh ort
Ã¼nd lich
IN FO
ĠEnt lassung
rom an
rech ter
ĠGl etscher
Ġne ur
Reg ister
por ter
Ġsol ange
ĠWill y
ĠAkt uell
Ġwahr genommen
euch te
ĠschÃ¶n er
ĠDreh arbeiten
Ġklass ischer
fÃ¤h ige
rug uay
ĠRa Äįak
Ġverein bar
ĠjÃ¤hr lichen
ĠPhilipp inen
ommun ikation
ĠKos ovo
ĠZul etzt
LI ST
Ġetabl ierte
ĠKamp agne
Ġreag iert
ĠansÃ¤ss ig
ĠPoliz isten
ĠKonzentr ations
Ġwind ow
ĠTrink wasser
? âĢľ
G R
l imit
s eller
Ġd eter
or p
ĠA P
ĠF uk
ĠT eller
um ph
Ġer setzte
Ġzu fÃ¤llig
Ġver gangen
ĠU t
Ã¤t ige
Ġvor nehm
anz a
fol io
Ã¼nd ungen
ĠzurÃ¼ck zufÃ¼hren
ĠEl izabeth
ĠGe denkt
ĠMon ster
con vert
Ġeinz us
ĠSh akespe
ĠHaus halten
ĠStud ierenden
schlieÃŁ t
Ġho hes
ĠStad ium
Ġad ded
ĠPo sen
ĠLandtag s
ĠunabhÃ¤ng igen
ĠJSON Object
ĠVerm ess
ĠKathol iken
Ep is
ĠBelast ung
Ġseiten s
ĠErober ung
G RO
M IT
c f
g itter
j on
n ummern
p assung
r ier
z k
ĠĠĠĠ ĉ
an as
ge laden
or iginal
Ġw ander
Ã¤ ften
Ã¤ ule
ĠA pfel
ĠK Ã¤ufer
Ġf il
Ġg ast
Ġan zus
ow ina
op ol
rie le
od ien
ĠEn z
pr ise
Ġtr aum
ĠAb kÃ¼rzung
ĠCh art
Ġgegen einander
Sch Ã¶n
Ġarb eiteten
ĠMo on
stre ck
iat iven
Lo op
Ġregel mÃ¤ÃŁige
ĠEhren mitglied
andid ate
Ġelektr onischen
ĠBor ussia
ĠSin fonie
ĠTur b
ĠGru yter
ĠBeob achtung
Ġdein em
ĠÃľb ungen
Ġtransport iert
ĠAster oid
names pace
ĠJAXB Element
adÃ© mie
ĠBegegn ungen
P an
T akt
g Ã¤rten
à ¤
Ċ Ċĉĉĉĉ
Ġd ialog
ĠB ent
ĠB lech
Ġm ache
ter nen
ĠZ ag
ed back
In it
In vocation
Ġab out
ss ue
18 82
pro t
setz ungs
ST AT
Ġbew ohnt
Ġqu asi
US ER
anc ouver
Ġleben d
produ ktionen
Table Name
Se q
Ġung arischer
Her steller
ĠKamer amann
emb les
Ġpass word
museum s
Ġreligi Ã¶se
genossen schaft
ĠRobin son
ĠMaur ice
ĠðŁ ĺ
Relation ship
ĠElm sh
Sdk Internal
w etter
w oche
Ã¼ tern
Ġw ild
Ã¤ umen
ĠF alk
ĠG ei
ĠE up
ĠT hal
ĠT wo
ĠW S
ĠL enk
ĠR aub
tr aining
ĠV iv
ĠV egas
ir us
Ġver teilen
Ġver Ã¶ffentlichen
ff ect
Ġun mÃ¶glich
ass istent
rau ÃŁen
fl ush
Ġber lin
set Property
Ġex tract
ĠBau meister
Al gorithm
Er mittelt
Ġange griffen
ĠDar aus
ST ATE
ĠBay reuth
over y
23 4
ĠAk k
ĠBeh Ã¶rde
spro zesse
tens ions
ĠNutz ungs
ĠGar nis
Gew Ã¤sser
ĠProp st
ĠJon athan
seg ment
Ev angel
ĠHanse stadt
ĠStief el
ĠKore a
B ro
B ud
D IS
V ors
W ettbewerb
i ad
k urz
m ake
ar men
ĠT orn
ĠW ladimir
Ġh um
ĠN ummern
Ġg lieder
Ġal b
auf sicht
ill i
Ġander n
Ġex akt
Ġbeg inn
ĠBo urg
Ġzusammen gestellt
ĠKÃ¶nig lich
ĠStand orte
Ġca pt
ĠAss istenz
spro blem
ĠEben en
ĠMel bourne
Ed itor
ĠPublik ation
ĠGran it
Ġlau tete
Ġeinzig artige
Christ ian
Ġverteid igen
ĠLiebl ing
Ġarab ischen
ĠgewÃ¶hn lich
Vari ables
Fra ktion
ĠAgn es
Publik ationen
B enz
a ks
b Ã¼ttel
h on
k ompl
ç Ľ
Ġ ĊĠĠĠĠĠĠĠ
Ġ adapt
en code
ie hlt
ĠS alt
ĠA ach
ĠM eier
ĠP on
Ġau to
ĠL ey
ĠZ elt
Ġzur zeit
Ġunter halten
Ġunter zeichnet
if tet
rit able
ill ings
res et
ĠKon vent
eten zen
irt y
wend et
Ġch ain
ĠCon figuration
Ġverb lieb
Ġarb eits
ĠEd gar
ĠEd itor
ĠDu ke
ĠStand orten
FuÃŁball torhÃ¼ter
Ġsol ches
mod us
ĠGut achten
ĠEhren bÃ¼rger
ĠRein igung
ĠSon st
ĠAuÃŁen minister
Ġerf uhr
ĠCms Resource
ĠEvangel isch
Ġfind By
Ġnied rigen
ĠAngriff e
RA Y
ĠPok er
ĠSchlieÃŁ ung
ĠZerstÃ¶r er
Ġmittelalter liche
Assign ment
Ġstren g
phys ik
echanis mus
ĠLaus anne
Ġâĸ Ń
SdkInternal List
I X
L at
a o
a sten
f ast
o an
u sten
ge stellte
und eten
Ġs uccess
el k
ĠM ort
Ġm at
ĠG ep
ĠP aw
ig ur
ĠV ie
ier n
ĠDie go
end eten
get Width
iv itÃ¤t
Ġsch Ã¤tz
ĠEin nahmen
av y
sh eit
sb esch
ĠFÃ¼r th
Ġern euten
ĠfÃ¼n fte
40 6
ĠOn t
ĠGel ieb
row ser
ĠFolge zeit
ĠRef lex
haupt mann
Ġfr ame
And re
sl etter
ĠVeranstalt ungs
Start seite
ĠPe ople
Amer ican
ĠSant iago
ĠPet ra
ĠGot th
option al
Kan ada
ĠKanz lei
ĠPhilh arm
TRI BUT
Ġverabschied et
ĠRotter dam
) (
A xis
F ER
f acht
r asse
r Ã¶m
w Ã¶r
er gebnisse
en gt
an os
as ach
Ġein sch
ĠP ode
ĠV ariable
ĠV illen
ĠC her
Ġan gesch
ul k
ĠO RF
Ġver mein
ri pp
ert h
end ienst
Ġsch einen
od ore
Ġvor zu
stell bar
att an
net te
Ġle cker
ĠRe prÃ¤sent
gebiet es
Mar kt
ĠPat ient
ĠGu ang
Ġstark er
ĠWolf sburg
ichter stattung
ĠHeil ig
ĠVertr etern
ĠChe fredakteur
Ges amt
Ġpass ieren
CON FIG
ĠNorth ern
ĠHauptr ollen
Ġsorg fÃ¤lt
ĠAdels geschlecht
kÃ¼nd igung
Ehr endoktor
ĠVf B
Ġkirch lichen
ĠFren ch
Ġkonkr eten
B or
G S
I K
M ore
P N
p anel
r ischen
in herit
al and
Ġb ond
em ar
ĠG ift
ĠH Ã¼b
ĠW eine
ĠW ink
ig ar
ĠI F
ro hung
ĠN as
ing hausen
ĠZ Ã¤hne
ĠU hren
ĠSch ichten
ger echt
get Status
ĠÃ¼ber region
la k
ĠAr min
Ġ18 27
Ġ" )
Ex port
ĠAb riss
ystem e
ĠKir cht
ĠBo ys
Ġbek amen
ĠHand lungen
ĠCon stants
Ġgel assen
sw eg
Ġkurz fristig
yd raul
Ġdeut liche
Ðµ ÑĢ
Ġabsolv iert
Ġchar acter
Sport liche
emb ran
ĠMess ages
Bahn hof
ĠBill y
Ġerheb liche
ĠKenn zeichen
ĠTirol er
ĠRÃ¶m ischen
PO ST
ĠNicol as
ĠStan ley
ĠKÃ¤ se
ĠLaur ent
ĠVorles ungen
ĠErmord ung
B ayern
G ott
S R
p red
Ġ ),
Ġd achte
ĠB oll
Ġb Ã¶hm
Ġi P
Ġf rag
ĠW Ã¶l
Ġr hein
ĠAn notation
op es
iz able
auf wand
Ġgew Ã¤hlten
ĠKl Ã¶ster
Ġel e
ĠGeb irgs
ĠY oga
ĠNord hausen
ograph y
ĠProf is
ĠBas ic
ĠÐ ²
fel de
ĠProgramm s
ĠDom kapitel
Ġbedeuten der
Ġgez ielt
Min uten
ĠprÃ¤sent ierte
Ġkrit isch
Fol ge
ĠFin anzen
Ġgebild eten
led ge
cu it
ĠFla schen
ĠSchr Ã¶der
Ġreag ieren
Ġpopul Ã¤r
gewinn ung
Pers istence
ĠGeschw ister
P ane
R U
ie tet
ei ved
sch es
ge mÃ¤
ĠF un
ĠP eu
ĠL ech
Ġge ehrt
ĠZ oo
Ġver folgen
Ġp p
ĠIn stand
ed lin
ĠAn atom
Ġbe zahlen
id ippus
ers atz
ĠAl ois
ep pen
18 83
ĠKon zeption
olog isches
ĠTeil ung
ĠOber hausen
schl usst
ĠBet ten
ĠSe el
con nect
ĠDar win
ograf ischen
Ġwicht iges
Ġ[ ...]
ĠDi agnose
bet reiber
Ġdah inter
ĠRegel ungen
ĠZuf alls
ĠFak ten
Ger man
Ġvergleich bar
ĠrÃ¼ck te
wÃ¤l der
ĠDub lin
ĠBem erk
ĠDisziplin en
ĠGÃ¶t ter
ĠWorksh ops
lÄ« f
F ragment
R enn
c onn
d ampf
h ib
n ischer
x i
ĠB ac
ĠM ech
ĠR af
ĠR assen
ĠO ther
Ġver glichen
Ġl okal
sp Ã¤ter
Ġc ondition
Ġsch me
mer zen
Ġ18 11
enn ten
be arbeitung
Ġ17 94
ĠSe ktor
ĠRÃ¼ck zug
Man aged
Bei spiele
Ġev alu
ĠPra ger
ĠGut schein
ĠSon y
ĠSied ler
Part ner
ĠArn sberg
Ġtem por
ĠEmpf angs
ĠGericht shof
lowak ischen
ony me
Ins eln
pack t
ĠMur ray
ĠTime Unit
schaffen burg
Ġnachhalt ig
ĠSchmer zen
ĠSpe ed
Lex ikon
ĠKaisers lautern
ĠBeb auung
G ast
G rad
G ruppen
L L
T ex
k os
Ġ ~
in y
st immung
Ġs ank
ĠK lage
ĠF onds
de code
ĠT yr
ĠL iz
Ġer teilt
re cken
ĠJ ahn
ist ers
kt ive
ĠSt apel
esch en
ĠEr ror
ĠSp eisen
od on
ĠEin flÃ¼sse
ste ckt
ans icht
Ġbef reit
ĠGeb irge
Ġsel ekt
Ġgesch nitten
ĠPf le
stein s
ĠMÃ¼n zen
ĠMan gel
ĠTr ik
ĠX V
zahl ungen
Ġben annten
ĠBel ieb
ĠTer mine
ĠProjekt es
ĠBef Ã¶rderung
Ġmein es
Ġexist ierte
las spath
Ġkompl etten
ĠÃĸff nungs
fil men
Ges etz
ĠInstr umenten
ĠEmpf ang
jo urnalist
Ġqualifiz ieren
ĠMount ains
ĠAud i
Ġheader s
wÃ¤l te
ĠQuadrat kilometer
ĠKra kau
Jose f
Ġbefind liche
Ġdre hen
ĠBotan iker
N N
l yn
n l
æ ĸ
č ĊĠĠĠĠĠĠĠĠĠĠĠĠĠĠĠĠĠĠĠĠĠĠĠĠĠĠĠ
sch ritte
Ġs en
ĠA ra
ĠB ah
Ġb its
Ġi bn
ĠM Ã¤
ĠM old
ĠM AX
ĠP end
ĠH ip
ĠT otal
Ã¶ geln
tr ad
ir i
ĠZ ar
Ġ} ,
ĠAn sprech
ungs an
ez eit
vers uche
Ġ17 89
ĠKl ick
sel ect
sb uch
iss a
ĠRe aktor
ha elt
ĠCon serv
sw ing
ĠReich sk
ĠFuÃŁball verein
ĠIs lands
ĠSil ver
ĠSchweizer ischen
ĠOrts name
ĠDenk mall
Ġbestimm ter
ĠFil ial
National park
ĠDÃ¶r fern
ĠHarr is
durch schnitt
Ġargument s
Ġhochwert igen
Ġko oper
sÃ¤ ure
ĠLit auen
ĠSaar land
ĠAnwesen heit
G alerie
P ublic
R a
j ugend
s sen
u den
Ï Ĥ
å ¿
au me
ĠM ong
Ġ( âĢĵ
ĠK ass
ĠF oss
ĠG ig
ĠP att
ĠN ort
ĠN Ã¤hr
Ġg ross
Ġan al
Ġzu zu
Ġl v
ic er
Ġp ossible
Ġsch ul
Ġa ccount
In tern
ĠDer zeit
ĠCh ief
Ġthe y
ĠVor lÃ¤ufer
ĠString Utils
Ġle ere
Type Name
ĠGesch wind
sb est
Ġange kommen
Ġange trieben
bo y
Ġgel Ã¶st
ĠSh ang
buch t
hand werk
Ġkon sequ
ĠNatur park
ĠMich ail
ĠLin col
ĠCl ar
welt meisterschaft
ĠKommun en
ĠLudwig shafen
Ġfl achen
reite ten
bÃ¼ chern
ĠSw iss
ĠZuge hÃ¶rigkeit
ĠLÃ¤nder spiel
ĠRem ix
Ġfinanz iell
ĠWall fahrts
ĠSchwar zwald
ĠÃ¼bergeben e
Ġpack age
ĠSauer stoff
Pointer Exception
ĠGelehr ten
ĠPetr us
ĠRezens ion
ĠErmitt lungen
ĠAusgrab ungen
abyl iss
F er
b og
i ak
p aket
u hl
an ks
sch Ã¼tze
Ġein genommen
ĠG uer
ĠL eichen
ĠR ott
ĠV es
ĠN ULL
ab a
Ġg iven
Ġg raf
Ġzu geteilt
ĠU trecht
aus gaben
ĠPro cess
Ġunter s
ĠMar ion
18 79
dem ar
stan te
Ġen den
Ver fahren
ĠEx pon
son st
ĠTr omp
ĠWei ÃŁe
OR DER
ĠGen uss
ĠBesitz ungen
ĠGar de
Ġverlie bt
ĠÃ¤uÃŁ erte
ĠBayer ische
ĠhÃ¶r t
ĠgÃ¼nst ige
Ġbean trag
ĠÃľberg angs
Ġverblieben en
ĠBefrei ung
ĠStÃ¼r mer
G L
N am
P il
p an
s ich
w ochen
è ¾
Ġd one
an al
ge fahr
ĠB ann
ĠF eh
ĠG itter
is or
ĠH Ã¤nd
re den
re fer
ĠN OT
Ġver eint
Ġver legte
ĠSch mitt
Ġsich ere
ap plication
ass o
Ġ" -
ĠMit arbeit
ĠAb bruch
ĠMa ck
ens eits
Ġbest attet
Ġ17 97
ĠKon figur
ans ion
Ġkl are
Ġher ange
Ġch ilen
ĠGroÃŁ er
ĠLu kas
ces sed
OR Y
ĠMod us
Bei spiel
bet riebe
uk i
>> >
Ġerfolgreich er
Um welt
ĠSem per
weig ht
ĠGottes dienst
ĠSec ond
ĠJob s
ĠKathol ischen
Top ic
Ġlandwirtschaft lich
Johann es
ĠKrist all
Ġpubliz ierte
ĠRal ph
Ġmont iert
ĠRepubl ikanischen
inherit Doc
S ound
i bert
k amer
m ak
n itro
s zene
y len
Ġd ot
ĠS M
ar den
Ġs ingen
ĠE leg
Ã¼r me
Ġge druckt
Ġg laube
ik ipedia
Ġauf ger
Ġp oten
Ġst immt
ew ald
ĠAn stieg
Ġc f
Ġc ap
og ie
Ã¼ber tragung
ĠÃ¼ber prÃ¼fen
Ġunter nehmen
Ġ4 50
iff ern
ĠStra ft
ĠGl anz
ĠSk ispr
ĠLebens jahr
Fa ctor
ĠBru ce
ĠKompon ente
ĠSen ior
lav a
Ġrecht zeitig
Ġsc an
ĠLou ise
Jo achim
ĠÃ¤lter er
ĠMensch heit
Ġentscheiden d
ĠGÃ¼ter s
ĠFass aden
Italien er
Ġliter arischen
Ġchem ische
ĠForder ung
kont akte
ĠVerpflicht ung
K r
P andemie
U ST
a a
t v
x e
Ġ achte
Ġb ibl
Ġin neh
ĠK app
ĠG ay
Ġf ac
ĠW att
ĠC art
ĠSch ei
ĠSt abilitÃ¤t
ag ten
âĢľ ;
Ġdurch fÃ¼hren
ak ul
ĠMa gen
ĠLand schaften
be cker
ĠKon figuration
bst off
Ġ10 7
ĠPh idippus
ĠGer echtigkeit
ĠCon test
ĠLandes amt
ĠSal on
ĠRom a
klÃ¤r ungs
bez irks
bez irke
ĠBi ber
For schungs
Ġfl Ã¼ch
ĠZahl ung
ĠDam als
Ġwahr e
fre quenz
ĠRuss ell
mÃ¶ bel
ĠOrtsteil en
getC olumn
CE PTION
Ġunbek annten
Valid ator
ommun ity
ĠElem enten
Rem ove
ĠEdu c
Team s
ĠBol iv
ĠDet roit
ĠPac ific
Ġverlang t
MESS AGE
D own
G ut
L abels
M AP
R obert
S em
Z ahl
f uÃŁball
g attung
k ant
l Ã¶s
l ernen
o ad
st Ã¤tigkeit
ĠB arth
ĠM eh
ĠP R
ĠT ir
ĠT amb
ĠT auch
ĠW eich
ĠL ac
ĠR Ã©
Ġg eil
Ġg old
ul ierte
ĠSch ol
hn er
ĠSie b
Ġre konstru
tem porary
fl ossen
spr inger
Al ten
for dern
ĠFilm produzent
Ver lauf
Ġher z
Ġ14 00
ĠRech nungs
rik e
ĠKr Ã¶n
ĠEd mund
bel ast
ĠChar acter
ĠDruck er
ĉĉĉĉ ĉ
ĠElektr onen
ĠTro ck
Ġcomp lete
ĠOrd ner
Ġorganis ieren
ĠKop ie
Ġvergleich en
Polit ische
ĠEss ays
ĠCap it
vol umen
ĠRail road
ĠMei ÃŁen
ĠTerritor ium
ĠKel ch
ĠPlast ik
Hil fs
Stad ion
Ġeig nen
ĠStrals und
E F
G A
M or
n ad
p ush
Ġ ensure
ie ge
or ger
Ġm isst
Ġf amil
is ser
ĠL agen
ĠL isa
um me
Ġh Ã¤ngen
Ġt iefen
ĠVer anstalter
Ġun zÃ¤hl
ĠSp anier
qu er
Die ter
gr unde
ĠAuf hebung
ator ische
ĠAd ams
Ġgesch eiter
Ã¤lt igen
ĠJul ian
Sp anien
schn eider
schlieÃŁ ung
Ġall ow
Ġall owed
ĠFol k
kon z
ĠMitglied s
yte chn
yl on
ĠBas eball
ĠMod ule
ĠBesch werden
Ġbede utete
Ġdr ingend
Ġgriech ischer
ĠZuf all
rel ation
ĠRis iken
ĠDiskuss ionen
Ġbehaup tet
ĠRiesen slalom
ĠAnk lage
ĠMagn us
ĠIter able
Ġschein bar
ĠImplement ierung
Agg reg
ĠLincol n
s amer
u dent
Ã¤ he
et in
ĠM om
hr a
Ġm essen
Ġn at
ĠK alten
ĠG Ã¤rtner
Ġf Ã¶rder
Ġf eind
ĠW elle
ĠL j
ĠR ies
Ġmit t
ĠO bjekten
Ġver sp
Ġl ike
ĠAn ime
ort eil
aus strahlung
gr Ã¶ÃŁen
ĠAus scheiden
18 64
az it
Ġbes icht
ĠTh ese
Ġges endet
Sch ach
Ġbeg leitete
war te
ĠMÃ¼n z
ĠGener ald
ĠSohn es
ĠLuft fahrt
arte ten
Ġwahr en
beh Ã¤lter
Ġstamm ten
ungsk osten
Ġverz iert
ĠAf plibPackage
merk ung
Ġservice Name
ĠRand om
ĠFrem den
ĠGroÃŁherzog tum
ĠParad ies
gÃ¤ng ig
Ġnationalsozial istischen
Formal Parameter
C arl
P OS
d reh
p ur
Ġ \"
un it
ĠS ucht
ĠA sk
ĠM Ã¼
ĠM Ã¶rder
ro st
lich keits
ĠJ immy
ĠC anad
Ġzu stande
iv alen
ĠStr ahlen
Ġre par
Ġzwei geschoss
18 69
ht t
zeit lichen
hÃ¶r er
ĠBundes staaten
Ġ) ?
ĠMed al
ĠVerb und
ĠBest ehen
Ġteil genommen
Ġkon tr
ĠLei h
Ġverw andt
ĠBeh andlungs
oot h
Pr ice
Ġbeleg ten
ĠDep ort
Ġident ifiziert
Is rael
ĠCre w
ĠRicht ungen
ĠDate Time
ĠZeu ge
ĠKalk stein
Ġgolden en
ĠSchmer z
Ġgros sen
QUE ST
varian te
ĠCent ury
Einwohner entwicklung
ĠHong kong
Austr alien
ĠBeobacht ungen
ĠSkla ven
ĠSteinm etz
ĠNotwend igkeit
ĠWeih bischof
1 000
1 14
F il
H ard
L ib
W eil
p n
s werte
x ff
å ®
in ks
in son
on o
ĠS ende
ĠS eiden
or ca
Ġw eichen
ĠF id
ĠF urt
ĠP reistrÃ¤ger
ĠL ungen
ĠC ord
Ġan sehen
ĠSch ieÃŁ
Ġr as
ĠEr laubnis
Ġnach zu
Ġsch arf
Ġunter einander
Ã¤l ern
18 78
set Attribute
ĠTh om
stan ten
ĠÃľber legungen
Ġ13 5
rad io
ĠSe ver
ĠPol ens
ID s
mittel te
ĠMusik ern
Ġern eute
ĠBÃ¼rger schaft
Ġverm ehrt
IT H
Ġhinter lassen
Film e
wand lung
ĠgrÃ¼n e
ĠKÃ¼nstler s
Ġmethod s
format ik
ĠCom edy
ĠAuftrag s
ĠVolk es
Ins n
ĠEhr endoktor
Dar Ã¼ber
ĠCO VID
ĠgÃ¼lt igen
Beg riff
ĠQue ens
Ġmer ge
ĠdÃ¼n n
ĠungewÃ¶hn lich
ĠVul kan
Ġrev olution
ĠVerf asser
Ġbedro ht
D ynastie
t licher
č ĊĠĠĠĠĠĠĠĠĠ
st unde
ĠS Ã¤tzen
au cher
Ġb at
ĠD ion
ĠF Ã¶r
ĠF ood
ĠP iano
ul u
ad y
ĠSt uck
Ġr ief
Ġr andom
Ġc ar
ct s
ĠSp azier
ĠÃ¼ber gab
In tegr
Ġab geben
ĠAus kunft
ĠAuf trÃ¤ge
br ingung
Ġgew achsen
Pro to
wer tet
str onom
gew Ã¤hlt
ide d
alis ierten
ĠFr isch
ĠNatur al
com e
ĠSchn abel
ĠZentr ale
hil fen
tre al
Ã¶h ler
Ġwohn t
ĠStat ue
Dire ct
ĠgÃ¼nst iger
aku um
OK EN
Ġsup ported
Struct ure
Ġproblem los
ĠChallen ge
ĠKonzentr ation
Ġgeeig neten
C le
C odes
R untimeException
S ommer
j ord
p raxis
Ġd ran
Ġd rit
ĠS opran
at ius
ĠB eil
Ġb utton
ĠD atein
ĠP iet
ĠT Ã¤
ut ation
ĠN il
ot es
Ã¤n ze
och t
Ġunter hÃ¤lt
Ġtr ag
av ier
tem plate
rÃ¤ ge
ator ischen
Ġen tries
for Each
gew Ã¤sser
ĠBe aut
ĠPf eil
ĠGrund wasser
ĠKunst halle
kon zern
ĠAnt isemitismus
ĠGef echt
aff nung
Ġrech nen
umm el
ĠTab l
Arch itekt
ĠBÃ¶ hm
ĠMun icip
ĠKa sten
wander er
Stra ÃŁen
egal ith
HE AD
VerÃ¶ffentlich t
Ġkonzentr ieren
ĠMobil itÃ¤t
Ġruh ig
ĠRy an
italien isch
kommand o
ĠCott bus
Ġerlern te
Maxim ilian
K ategorie
M AN
P RI
R ichter
S afe
b ing
c ourt
d n
d isk
h yth
k ov
u alisierung
Ð ³
es is
it Ã¤n
el ing
ĠA th
Ġb itten
Ġn eb
de c
ĠP A
ĠR um
ĠV ia
Ġk elt
rei fer
Ġt s
ĠSt irn
Ġun weit
Ġr einen
Ġr uft
schaft lichen
id em
ug ins
ĠSie mens
ord nungen
Ex ternal
ĠAb teilungen
ĠAuf lagen
Ã© l
str ument
10 5
Ġ12 8
Ġwo hin
ĠBundes kanz
ĠVerb rauch
ĠWasser stoff
sicht ig
ĠGener alsekretÃ¤r
ĠCo up
ĠWer den
ĠAnt wer
ĠSommer spielen
jÃ¤hr iges
ĠGel senkirchen
ĠKar in
ĠBern er
ĠChar lie
Ġentfern ten
ĠGar den
zur Ã¼ck
ĠKab arett
ĠÃī d
ĠKult urg
Ġtop ic
Ġvis it
ĠBevÃ¶lkerungs dichte
ĠKons ul
ĠRap per
ĠDatenschutz erklÃ¤rung
Ġdist ance
International e
ĠzeitgenÃ¶ss ischen
Ġverste ckt
Cap acity
Dav id
Ot to
ĠContin ental
htt ps
2 50
L u
N ik
P K
S achsen
f i
j p
p end
s ohn
} -
en ger
ie hen
ĠS cript
et Address
Ġb ig
Ġm s
ĠE cken
ĠP ann
ĠT as
ĠT omm
ĠT ote
ĠT epp
ĠL ak
ĠL ayout
ĠI ren
ĠN iel
Ġge boten
Ġan gewiesen
Ġzu grunde
ist ic
ver d
Ġdurch zufÃ¼hren
ĠCh at
18 76
18 81
az y
Ġet liche
ĠUnter brech
wer de
Ġgesch ehen
12 3
13 0
ĠBet reu
ĠOl den
ĠWohn sitz
olum e
ĠPark er
Ġempf ing
ĠWel ten
Le ague
pol icy
Ġentscheiden den
ĠLim burg
ĠKup pel
Ġanzu zeigen
ãĢ Ĥ
ĠReze ption
Ġtim estamp
ĠEth ik
ĠPassag ier
ĠvergrÃ¶ÃŁ ert
ĠRestaur ierung
( -
j agd
s st
ie ÃŁer
it at
ĠB E
et her
ĠĠĠĠĠĠĠĠ ĠĠĠĠĠĠĠ
Ġf rÃ¤nk
is es
ĠH its
ĠH itze
ĠT ast
il fe
ĠR il
Ġer laub
om i
and ro
ĠC lin
Ġg reifen
Ġal li
ĠO ra
Ġauf steigen
Ġo bjekt
sp aren
ĠAn sÃ¤tze
len den
lo ader
gr au
ef er
ĠAb weich
ĠCh ore
Ġ17 80
Al so
ĠRo berts
Geb iet
ĠSchw immer
eig ten
Ġdort hin
Ġbew erten
ĠLin ux
ĠRep ert
ĠRep ository
Ġkosten losen
ĠKreuz ung
beh andlung
ĠTrans l
ĠHall er
ĠAf rik
ouver n
Ġmon th
EX CEPTION
rick et
Ġarch itekt
Ġchild ren
plic ate
ĠEngl ischen
orient ierte
polit iker
Ġnorweg ische
ĠErf indung
Ġmot or
ĠSpark asse
B Ã¼
C ursor
L ight
M eine
N ULL
P reistrÃ¤ger
S eiten
g on
h ingen
m art
m Ã¼ller
p lace
z ahn
Ċ ĊĠ
Ġ ech
un ternehmer
ar isches
Ġ1 11
ĠG eister
ĠP utz
Ġf etch
is Not
ĠH C
ĠW W
lich ung
ĠC z
ĠC row
ra ht
ĠU eber
ah men
ĠVer fahrens
Ġsich eren
od u
rau ms
Ġsp ont
18 72
gesch ritten
Ġe ver
Pro duz
ĠBundes ministerium
ĠAut of
ĠFamil y
ĠLu ck
oss a
euer te
ampf adern
mÃ¤ÃŁ iger
fr em
Ge ographische
Ġinter nen
ĠAp plication
ĠWar te
Ġheut zutage
Par is
aur us
IC H
Ġunb esch
ĠWel traum
ĠLau ter
ĠHeraus gegeben
ĠStern bild
ĠMaschinen bau
Ehemal iger
ĠRis ik
Ġherr scht
ĠÄ Ĳ
Ġheil ige
ĠPok Ã©mon
Stud io
mess ung
ischÃ¶ f
MO DE
ĠÃĦl tere
ĠGul den
ĠSiz ilien
G i
O ther
P rem
Z un
f elt
q Path
Ġd ei
ĠB ologna
ĠM arb
ĠM ine
Ġein ander
ĠK amin
ĠF lieÃŁ
ĠE sk
ĠH tml
ĠW ur
ĠL euten
om eter
ĠV ancouver
Ġaus ser
Ġst orage
ĠAn c
get User
Ġbe zahlt
ang a
ĠVor wort
fahr zeugen
geben e
geben den
Ġsel ected
ĠBe end
ĠAugust in
ĠRech ner
ĠCon stant
enk el
ĠRom ans
achte ten
Tra ck
ĠKo oper
ĠRad sport
ĠAp oll
Ġkurz em
lÃ¤nd isch
ĠDav e
iam i
ĠUl l
Trans former
Ġfre ut
ĠModer ator
ĠJos h
Ġorder ByComparator
ĠDok umenten
ĠPed al
ĠFotograf ien
ĠgÃ¼lt ig
marsch all
Ġbelg ischer
ĠWass ert
ĠRhyth mus
PrÃ¼ ft
Lei pzig
gorith mus
C RE
P ublish
S CH
k up
m oder
s al
v re
es see
sch alter
sch eide
Ġund er
ĠD ez
ĠM ek
ĠM aul
ĠK PD
ĠF liegen
ĠF loh
ol y
Ġau spro
ĠW LAN
Ã¶ k
ir men
ĠC A
ik es
ĠIn dependent
Ġst iegen
ĠAn sbach
ungs verfahren
ĠEn ts
ok ie
ubl isher
ĠSo est
ĠMon itor
ĠGroÃŁ es
Ġvier mal
stÃ¤nd iges
ĠFre undes
ĠSk ir
ĠBew erber
zie ht
ĠErn te
Ġmax im
ĠPort o
ĠVertr etung
Ġerfolgreich ste
ĠFil iale
ĊĠĠĠĠĠĠĠĠĠĠĠĠĉ ĠĠĠĠĠĠĉĉĉĉ
ĠRab att
pfl anze
heil kunde
Fran ce
Ġsup port
DA Y
ĠGatt in
ĠKil ogramm
ĠSchaff ung
varian ten
ĠHinder nis
ĠFrieder ike
ĠJahrest ag
ĠLiver pool
C UR
W eimar
b rau
f it
o j
w rap
it ischen
Ġw olle
ĠD R
ĠD Ã¤m
ĠT ed
Ã¶ p
ĠL il
ber eitet
Ġ2 30
Ġge he
Ġan z
Ġal lt
ag ramm
ĠIn vas
Ġr ufen
ind el
uf akt
iz id
Ġbest ens
fl Ã¼ss
lag ern
fÃ¼hr enden
Sch ul
hÃ¶r iger
inder ung
vor lagen
ĠBundes staates
Ch unk
schieden e
Ã¤rz te
Ġger ettet
ĠFrank lin
ĠBest es
ograph ien
ĠgrÃ¶ÃŁ ter
ĠEm ir
Set s
ĠAuÃŁ ens
Ġletzten dlich
ĠKar ib
Ġhistor y
ĠAlter tum
Ġzeit gleich
nach lÃ¤ss
ĠHom burg
ĠKosten los
Ġpassen d
zub ringen
comp iler
ĠHy per
Ġhal be
Art ifact
wÃ¤rt ige
Ġsowjet ischer
Ġwunder bar
ĠGlei se
ĠGab riele
ĠNerv en
agnost ik
Ġexper imentel
ĠFI FA
A ust
G eh
L ab
U kra
b ot
f und
ç º
Ġder er
Ġs uche
ĠA spekt
Ġb eb
ĠD egen
Ġin haft
Ġm ater
ĠP Ã¤dagogik
Ġer lauben
Ġh y
ĠJ en
Ġl ob
ĠSt op
os hi
Ã¼n ster
Ġab weichen
ill is
pf ad
pf leger
Ġsp itz
Ġ4 000
Ġber uh
ac iÃ³n
An ton
Ver wendung
ĠList ener
Ġher ab
ĠHaupt sitz
erb ung
ĠSchul den
ĠHol ger
Ab kÃ¼rzung
iver y
Ġdef inition
bei trag
ĠÐ ¸
ĠPass wort
ĠTo ul
ĠÃ¤uÃŁ ere
Ġverein bart
ĠJazz musiker
Che f
ĠFÃ¼rst entum
Mark er
ĠOut door
Ġwid met
ĠÃ¼ brig
ĠRet ro
ĠIndividu en
Halb finale
ĠBÃ¶r sen
Ġschmal en
Ġverdien en
Ġmoment an
Ġwon ach
Ġkandid ierte
ĠPfe ffer
e berg
j ana
m asse
u ally
z end
ĠS ten
sch altung
ar fs
at lant
Ġw Ã¤r
el in
ĠB rÃ¤
em on
ĠK uchen
ĠR id
Ġge fordert
Ġmit ge
Ġmit unter
Ġzu einander
Ġver schie
Ġp anel
Ġdem onstr
ĠIn zwischen
ĠAn gl
ass ert
pe te
Ġunter zeichnete
ĠGr ass
St amp
ss l
ip ment
cht ung
ĠUnter seite
sb eh
ĠLandes liga
ĠgrÃ¶ÃŁ erer
Ġur auf
Ġlang jÃ¤hrige
ĠSport arten
Ġne useel
ĠDienst leistungs
>> ()
As String
ĠMarkt platz
ĠSen ator
Ġmoder nis
Ġwohn zimmer
ĠRicht linien
Ġko ordin
ĠBeob achter
Krit iken
ĠGebiets reform
Ġverlei hen
ĠlÃ¤nd lichen
Ġentstamm te
verÃ¶ffentlich ung
beweg ungen
Zent imeter
H R
N ote
W ild
b usch
g ymnasium
j ak
p okal
x FF
Ġ ungen
ĠS agen
at ra
it Ã¤r
ĠD ynastie
Ġz ert
ĠG E
ĠG arn
ĠP aten
ĠP Ã¶l
ĠT iger
ĠT arn
ĠW eid
ĠN ak
Ġge form
Ġt ab
ĠZ iegen
Ġdem ent
eu gen
ind ings
ce ae
ĠEr Ã¶ffnungs
geb Ã¤udes
anz ahl
18 74
ek e
br uchs
Ã¤nd ischer
add Content
Ġseit lich
Reg ierung
Ġwissenschaft lich
Comp osite
ĠjÃ¼d ischer
ĠCa es
ĠVerd acht
Ġschlech te
Ele ctr
Rechts anwalt
Komm ission
ĠMittler weile
riz ona
ĠMeld ung
ĠBatter ie
ĠErsch einen
ĠBetroffen en
ĠMete or
ĠBekann theit
1 16
H en
f ont
st rÃ¤
es ie
ĠS ep
au be
Ġi kea
ĠM rd
ĠF ull
ĠE isk
ĠH amp
ĠH essischen
ĠT alk
um i
us el
Ġh ind
Ġbei tragen
Ġc oll
Ġc ached
ĠPro gn
ĊĠĠĠĠĠĠĠĠĠĠĠĠĠĠĠĠ ĠĠĠĠĠĠ
enn etz
ĠMit wirkung
ĠOr n
omm e
18 77
res olve
Ġlie bt
ĠFran ch
ĠBe au
Ġausge liefert
orben en
AR L
Ġschn eiden
ĠKar ne
Hand ball
ĠWolf ram
Ġwh at
leb ten
ĠMotor sport
Ġabsolv ieren
ĠAuftrag geber
ĠSek unde
Ġunver Ã¤ndert
sto ÃŁen
Ġkomp eten
asp ielen
cu ador
Ġabgeb ildet
krit ik
ĠContent Type
ĠViol ine
ĠSmartph ones
ĠApost el
ĠansÃ¤ss igen
ĠDepart ment
Ġinterpret iert
Alex ander
ĠDiabet es
getAbsolute Path
F G
H igh
S ex
g able
h ire
v ogt
ĠS ide
Ġs equence
et ra
ĠD raft
ĠF asch
ĠH R
ĠH eiden
ĠR anger
ĠV eter
lich te
ĠC ore
ĠC SU
ing h
ĠO range
Ġauf zubauen
Ġaus gelÃ¶st
ĠAuf treten
ĠThe orien
Ġgegen seitig
Ġbet ween
old s
orn o
Ch ina
bl Ã¤ttern
Ġkon vention
ĠSchul z
ĠBew ohnern
schw ester
class Name
čĊ čĊĠĠĠ
ĠPlan ungen
ĠNor men
leb nisse
ikal ischen
Comp lete
Ġverein igt
Ob serv
histor ische
Ġbelieb testen
ĠSl ot
Ġrep ubl
ĠTher m
ĠLeon hard
ĠBÃ¤ umen
ĠGolden e
vorsitzen de
ĠSau di
Ġlandwirtschaft liche
ĠvielfÃ¤lt ige
ĠVit amin
astrop hen
ĠkÃ¼mm ern
ghan istan
D enn
J oin
R ich
R aw
V C
a sche
f al
h ub
Ù Ī
Ġ ess
Ġw ant
ĠD il
Ġm is
Ġz Ã¤hlten
ĠG y
Ã¶ ser
ĠL Ã¤ngen
ĠL ingu
ĠI an
ĠC ad
eit ig
Ġge zeichnet
ĠO hren
Ġver weist
ĠSt Ã¤mme
Ġp our
ver tex
og o
get Its
ĠUn ternehm
ust on
ok i
18 50
18 71
sh agen
az wischen
geben d
ĠBl ind
dent ial
so ftware
ĠAt tent
ĠGener als
Ġ24 0
ĠDorf kirche
Ġâ Ī
schiff s
ĠEp oche
umm film
tra it
Ġverz ichtete
ĠSonder shausen
Ġbelieb ten
ĠjÃ¼nger er
ku gel
ĠBrig itte
ĠKrie ge
Ġgesellschaft liche
replace All
ĠangehÃ¶r te
Ġtau cht
ĠPaz ifik
Ġmobil en
Zentr um
Schwe den
Wid get
1 17
K loster
W L
c ollect
d ale
m ingen
o ine
v all
w Ã¤sche
} /
ĠS H
Ġb ilder
Ġi ran
Ġin v
Ġn ad
ĠK amm
ĠT I
ĠL P
ig ers
ĠI van
ab y
ĠC ec
Ġo hn
ah a
ĠAn alysen
ben ennung
Ġdeutsch land
Ġbest es
ener gie
gew ehr
ĠEx pert
ON G
Ġger echnet
Ġ) *
hol ungs
ĠFr acht
bew ohner
Ab geordneter
ĠAll gÃ¤u
Ã¤ss ert
Ġwill st
ĠMath ematic
ĠHau st
ĠDom ain
Ġfield Name
wor tete
Ġung esch
besch ichtung
oci ated
spekt or
ĠHum or
ĠAktiv itÃ¤t
Ter min
ĠLim es
Ġhal f
ĠEss ay
ÅĻ ÃŃ
ĠVar iet
Ã¤nk ischen
sequ enzen
ĠBasil ika
Ġinnov ative
ĠRÃ¤um lichkeiten
Ġbeheimate t
ĠSier ra
D ownload
K ult
P sych
b rochen
x en
ä ¹
ie ÃŁt
st imm
ĠA hr
ĠB ienen
ĠM essen
Ġin tr
ĠK Ã¶t
ĠK rypt
ĠF reg
ĠP ist
ĠT rust
Ã¶ hnen
Ġge klÃ¤rt
ĠSch uppen
sp ektrum
Ġun voll
ĠEr reichen
ĠEr ika
Ġbe weisen
qu en
Ġab gesehen
pl ica
ĠAb bildungen
18 80
18 73
Con n
Ġaber mals
ĠStadt mauer
Ã¤nd ische
ym ph
enz a
ohl t
fert igte
AT TRIBUT
Aus stattung
Ġkon f
ĠPhil ologie
ĠSk el
ĠMet ro
hÃ¶ fen
ĠCl ara
Ã¨ res
Ġklein ste
preis es
Ġneun ten
ĠTages zeitung
ĠFe ature
ĠEich stÃ¤tt
loc ale
ĠBig Integer
HT TP
ĠIngen ie
Ġblau en
Ġsport lichen
Ġsan iert
Ġjur istischen
ĠBem Ã¼hungen
Ġhervorra gend
Wor ld
Ġglob alen
ĠKlagen furt
Landtag sabgeordneter
B ay
D V
M ach
f inden
j ut
o om
p ul
p revious
t n
å Ń
ĠS AX
ein igt
ĠG aler
ĠR Ã¼d
tr itts
ro tt
ĠC and
ĠC och
Ġk rei
Ġg rid
Ġver tritt
Ġaus lÃ¤ndischen
im iter
Ġent z
ĠBr Ã¼n
Pro zess
Ġbet ragen
Ġkl ingt
str Ã¶
ĠÃľber lieferung
iff eisen
ĠAd olph
els berg
Sp an
reg ionen
dr Ã¼cken
ĠÃĦ qu
ote chnik
ĠZusammen fassung
ĠEis ernen
cl uster
ĠDe pression
[...]
