#version: 0.2 - Trained by `huggingface/tokenizers`
e r
e n
Ġ Ġ
i n
c h
Ġ d
Ġ a
e s
o n
Ġ t
n d
i s
ĠĠ ĠĠ
i t
Ġ s
i e
o r
a t
Ġ w
a n
r e
a r
a l
h e
Ġ S
t e
Ġ b
u r
u n
l e
g e
Ġ f
a s
Ġ in
Ġ m
Ġ e
i ch
u s
u nd
in g
Ġ A
Ã ¼
Ġ o
Ġt he
Ġd er
Ġ v
Ġ B
e l
i l
r o
i on
Ġ p
Ġ c
s t
Ġ n
Ġ M
Ã ¤
Ġ und
Ġ D
t er
Ġ 1
Ġ h
i g
d e
en t
a m
Ġ (
un g
o l
u t
Ġ T
Ġ P
o m
i m
i c
Ġ F
ĠĠĠĠ ĠĠĠĠ
â Ģ
Ġe in
Ġ I
Ġ G
Ġd ie
r a
Ġ E
e t
Ġa nd
e d
Ġ K
Ġt o
Ġ z
Ġo f
Ġ H
Ġ W
e m
ĠĠ Ġ
s ch
Ġ g
h r
t en
Ġ L
Ġ R
u m
Ġ C
Ġb e
Ġ l
i r
is t
u f
b er
is ch
a nd
Ġt h
u l
Ġ 2
Ã ¶
d er
a ch
e it
Ġ N
c k
Ġ er
Ġ V
d en
Ġa l
Ġ J
i er
Ġ k
o t
Ġ re
e in
Ġ1 9
Ġv on
c t
i v
at ion
Ġa n
i f
a b
er s
l ich
a d
es t
c e
o w
Ġ ge
Ġd en
ĠS t
g en
Ġ y
Ġd es
Ã¼ r
Ġ im
o s
Ċ ĠĠĠĠĠĠĠĠ
Ġ O
es s
Ġ2 0
u ch
ĠĠĠĠ ĠĠĠ
i k
Ġs t
Ġm it
i d
Ġf or
l a
Ġ is
o u
i es
al l
) ;
an n
Ġ U
as s
v er
Ã Ł
t s
Ġ âĢ
Ġ on
t h
p p
Ġa uf
k t
a y
Ġz u
Ġ Z
ie l
e b
it h
ĠS ch
i en
w e
Ġv er
a f
Ġ r
o ur
o p
a h
Ġ ist
Ġn e
at e
Ġd as
ĠI n
Ċ ĠĠĠĠĠĠĠ
n e
Ġf Ã¼r
l l
er e
Ġd em
ich t
Ġal s
a g
Ġw ur
Ġ =
Ġ un
il l
Ġ {
o d
isch en
a u
o g
a v
Ġw ith
or t
in d
p t
s e
Ġp ro
s te
a hr
u b
q u
t r
Ġd e
i b
l y
Ġa us
Ġw h
en d
a k
er t
0 0
z e
p e
m en
Ġy ou
Ġth at
Ġein e
Ġ j
Ġ }
ar t
Ġ Ċ
u g
el l
Ġ it
ĠR e
Ġs ich
Ġwur de
ĉ ĉ
er n
a us
Ġs e
Ġ i
Ġ20 1
ĠV er
Ġw ar
ĠA n
in e
s p
) ,
b en
f f
âĢ Ļ
r an
h t
o ch
a p
o k
u e
ĊĠĠĠĠĠĠĠĠ ĠĠĠ
Ġa s
Ġ he
Ġa b
u p
sch af
Ġc on
am e
m ent
es ch
a ge
ge t
ĠD ie
Ġa re
ĠT he
Ġ le
ĠE r
g er
ĠB e
ung en
Ġe x
Ã¼ ber
Ġs ein
Ġc om
Ġa m
Ġ or
h n
ig en
it y
ro m
i z
f or
u d
an g
ur n
Ġw e
Ġs ch
an t
m er
g r
ar d
Ġbe i
us t
o v
iv e
o st
Ġ ch
Ġ 3
Ġa t
i al
isch e
Ġa uch
a in
i p
Ġw ir
ur ch
s en
Ġs o
( )
Ġ Ã¼ber
ĠU n
l in
ĠS p
Ġm e
. .
b e
Ġn ach
ol l
k s
Ġth is
h en
r ie
ĠA r
as t
i a
r u
ĠJ ahr
ut sch
te d
or d
ung s
u re
i de
âĢ ľ
Ġ20 0
av e
Ġ "
Ġ if
Ġw as
i le
l ic
o c
Ġy our
is e
l ie
Ġ1 8
Ġs p
n en
Ġd ies
Ġb is
Ġal l
h er
Ã¤ t
f er
ĠP ro
ĠâĢ ĵ
or e
ĠD e
l o
Ġb y
t urn
it e
h l
ab le
Ã¶ r
Ċ ĠĠĠ
p r
Ġne w
I n
schaf t
om e
Ġs ie
âĢ ĵ
1 9
Ġz ur
h o
en s
Ġw er
ul t
Ġf rom
Ġn icht
ter n
pt ion
j e
Ġ es
ĠâĢ ŀ
Ġ ent
et z
ar k
Ġ -
Â ł
Ġz um
ct ion
Ġ um
ul l
) .
d u
ĠE in
a ck
i ge
ch en
Ġwer den
i re
m e
ĠA l
Ġein er
Ġh ave
n er
Ġ us
o ut
l ass
er v
ic e
ĠS ie
il d
Ġv or
Ã¤ n
r it
Ġh at
ĠT h
Ġw ie
l and
r ing
Ġc an
a re
Ã¼ n
ĊĠĠĠĠĠĠĠĠ ĠĠĠĠĠĠĠĠ
ĠL e
ic k
en n
h al
Ġs ind
Ġw ill
Ġun ter
Ã¤ r
ĠT e
Ġd urch
Ġwir d
on t
ier t
Ġm an
f t
Ċ ĉĉ
i o
it ion
Ġo der
i an
Ġ en
a c
Ġw or
p er
te l
Ã¼ ck
Ã¶ n
o b
ig ht
us s
el t
ch e
ĠC h
as e
ge l
Ġn ot
D ie
isch er
ĠS e
Ġein em
ig n
o un
Ġ 4
ĠG e
w er
l at
k e
for m
Ġr es
ge b
Ã¤ nd
Ġ /
Ġ19 9
im e
r y
ĊĠĠĠĠĠĠĠĠ ĠĠĠĠĠĠĠ
m al
g t
te ll
re ich
ro w
S t
p h
g es
lich en
e ar
ĠA us
on g
Ġein en
ĠW e
a il
o ok
s s
z en
at ur
Ġp r
ĠM it
Ġ Ã
is ter
p ar
b eit
st en
ĠA b
x t
at h
a uf
l er
Ġt e
ĠD er
Ã¼ hr
ĠN e
all y
ur g
E x
u te
Ġs h
Ġh as
Ġa d
on e
ĠO r
Ġ 5
ah l
Ċ ĉ
in al
om m
2 0
f e
' s
( );
ĠE n
Ġ Y
c c
Ġge t
m p
ul d
u ÃŁ
Ġcom p
ad t
at er
o de
Ġa r
l os
T he
ich te
ĠB er
t o
ĠH e
ub lic
Ġw o
ĠG r
Ġre turn
1 8
an ce
ation al
ak e
ation s
lich e
ĠA uf
ce ption
om p
R e
ch t
o hn
a de
we ise
Ġ up
Ġd ass
th er
el n
Ġo ut
l an
in t
Ġd o
f en
is s
ing s
Ġn ull
in z
ent s
Ġb es
je ct
or s
k eit
ĠP r
y pe
ĠM ar
st er
t z
ĠL and
Ġo ur
Ġ19 8
at ed
te il
al t
em ber
Ġg o
Ġ +
Ġ &
Ġz w
am p
Ġt r
re e
t w
ĠĠĠĠ Ġ
m s
re is
Ġ qu
ĠM e
on d
a z
ĠD as
a ut
Ġh er
Ġ 0
c l
Ġf e
iv ers
ĠN ach
S tr
Ġb ut
al s
Ã¤ hr
ol og
ion s
am m
or en
at en
ab e
ol d
v e
an s
Ġ19 7
ow n
Ġ 6
ar y
Ġi hr
os e
ers on
Ġ/ /
Ġ ro
Ex ception
ig h
Ġm y
h re
it z
b urg
l es
Ġg en
u pp
on s
Ã¼ nd
a pp
Ġm ore
a ct
in k
or y
s er
ol le
ab en
ĠI m
ĠH er
Ġthe ir
ĠUn ter
Ġn ur
r i
Ġ 9
he it
Ġon e
f ol
re i
Ġt ra
ier te
t ra
ber g
Ã ©
.. .
s h
Ġw eit
ik e
ro ÃŁ
ch n
us e
p ro
ĠV or
Ċ ĠĠĠĠĠ
v el
Str ing
ĠF or
Ġp er
en de
e y
te t
Ġc o
it er
Ġme hr
Ġs ow
al ue
ic al
is h
( "
m it
Ġa pp
Ġn och
ĠZ eit
ĠSt ring
r en
Ġwur den
al e
y ste
ĠF l
Ã¤ l
on der
ĠA m
ut z
i ent
at t
an z
eb en
k en
o ck
at ch
ie d
am il
Ġv om
ig er
Ġb et
Ġde utsch
l d
g an
Q u
de m
oun t
N ame
Ġe v
Ġ19 6
il m
Ġ( *
Ġab out
es e
we i
Ġ 7
ier en
z eit
f l
Ġf r
ne h
Ġ1 7
y s
i ze
re at
ĠDe utsch
Ġals o
ste ll
b le
ib t
W eb
at a
ĠSt adt
ein e
Ġ 8
er en
t t
Ġthe y
Ġl ie
Ġb est
Ġs te
iel er
f in
Ġwh ich
âĢ Ŀ
ĠI t
or n
Ġcon t
Ġa ber
b r
u en
p ublic
par am
re turn
ĠB r
b ar
om men
s el
lin ks
Ġf in
i um
d r
a x
kt ion
et h
Ġal le
ĠF ran
is ten
le ich
en g
Ġy ear
ĠRe g
D er
an ge
Web links
Ġh is
Ġwor k
ĊĠĠĠĠĠĠĠĠĠĠĠĠĠĠĠĠ ĠĠĠ
st and
ay s
ze ich
Ġp re
el d
Ġt ime
c es
Ġge w
te m
o f
Ġ19 4
in n
m ann
Ġ1 5
ie t
D e
ĠG em
on n
ol it
n is
Ġof f
r Ã¤
it t
Ġs pe
u le
Ġwh o
ter s
Ġp la
og ra
Ġsow ie
1 7
h Ã¶r
C on
la g
f Ã¼hr
Ġin s
Ġk Ã¶n
a ce
Ġk ann
Ġ1 0
ĠP ar
P ro
w o
ie w
an k
Ã¤ ch
p ort
a w
re d
E n
1 0
el s
Ġb er
Ġk n
nd e
f ahr
Ġo b
at or
s et
Ġ19 5
Ġan y
etz t
g lich
Ġ1 6
Ġre c
Ġs ome
it Ã¤t
Ġd ar
00 0
Ġg r
ah n
n et
Ã¼ d
S B
m in
ier ung
m an
ir st
Ġbe en
T ype
ah re
ov e
am men
ig t
E inz
ĠG esch
o und
y p
de t
im m
r if
l ine
le d
Ġp art
b all
a i
o ol
l ung
g lie
et t
or k
ann t
Ġin ter
h und
Ġg es
at s
Ġo ver
i x
1 6
ĠâĢ ľ
Ġs erv
ig keit
Ġd is
ach weise
ĠS te
el y
ĠG ra
eln achweise
r es
Ã¶ ff
ĠU S
Einz elnachweise
g esch
ess ion
u de
y n
T h
Ġj ed
el le
ĠUn ivers
Ġein es
Ġge gen
A n
Ġwie der
1 5
ik er
at z
Ġs c
yste m
ie le
ar beit
I N
ie der
at es
ĠGem ein
Ġs oll
d ition
in ter
o h
s k
t on
Ġz wei
SB N
Ġ19 3
is sen
ar n
at ing
u er
p ut
Ġsein er
und en
ur op
Ġl ike
h aus
ĠI SBN
Ġo ther
Ġsein e
c om
in der
i der
u al
ĠE x
Ġe l
- -
Ġdies er
id ent
Ġa cc
ÃŁ e
eit e
o le
Ġ= =
Ġh aben
ĠJ ahre
lat z
ĠD ies
Ġhat te
lie ÃŁ
ĠĠĠĠĠĠĠĠ ĠĠĠĠĠĠĠĠ
Ġwh en
ĠE s
Ġ Qu
am en
Ġp e
o ber
ĠF ra
Ġin t
Ġ ich
ver y
Ġn o
ĠG es
ge ben
ĠP h
ou g
1 2
Ċ ĊĠĠĠĠĠĠĠ
b st
er k
us ammen
a der
or f
Ġpro v
c ial
le ment
m ein
a ir
Ġs el
A r
if f
a is
Ġ |
ĠJahr hund
ĠS o
E R
Ġ ra
iel d
Ġj ust
as h
ir t
ic t
ĠG eb
Ġpro du
ĠA d
form ation
ach t
ĠK ir
p ert
Ġst ud
ent lich
e k
Ġi hre
os s
ug h
Ġth row
o y
ent r
Ġ1 2
Ġ !
ĠC hr
ot h
Ġp ar
D as
Ġ :
S ch
) )
h m
Ġth ere
n ah
al d
Ġzw ischen
ĠF re
in s
ĠTh is
r on
ĠkÃ¶n nen
ĠK on
Ġe tw
ik an
Ġhe l
our ce
ĠJahr en
t es
o ff
ľ ber
Ã¶ l
Ġbe g
Ġs eit
sch e
1 3
ĠTe il
f all
Ã¤ hl
o us
Ġin d
E r
Ġp h
ĠO b
aus e
am er
Ġf ol
ic es
ing en
" ,
ĠM us
ĠU m
le g
Ġne ed
ĠSch w
ĠK ar
u es
l i
ic s
U n
Ġit s
Ġa g
Ġthe m
qu est
iter atur
Ġre g
1 4
B e
Ġh ow
Ġwar en
en e
f ter
p en
ĠNe w
Ġwh at
Ġb u
I d
ĠT ra
gen d
Ġ1 3
Ġin to
ĠS h
k te
hal ten
l Ã¤
b au
o id
in a
f r
Ġf irst
R es
Ġ1 4
Ġl ook
ĠA nd
io us
Ġv ers
c re
Ġb o
() .
V er
ã ģ
Ġd am
h and
m a
Ġin cl
Ġg roÃŁ
um ent
if e
c ed
ĠW elt
e p
Ġ <
tr y
eit s
op le
eit en
Ã¶ s
is te
Ġ .
c o
il der
c ess
Ġth an
ĠSp iel
ĠM an
y m
v ent
ro up
a gen
Ġw ere
Ġdies e
ĠB es
le t
Ġzur Ã¼ck
Ġh ad
ĠBer lin
ran s
ĠB o
en er
g s
la ge
c ted
st ra
d ay
en z
Ġf inal
und es
Ã¤ ter
neh men
Ġbe k
ro und
p l
' t
ell en
at ic
p iel
de d
if ic
Ġwo uld
Ġm ake
le in
au pt
Ġhel p
ul ar
I m
is m
ur r
ra nd
sch en
Ġh and
Ġm ost
" );
a um
Ġbe c
he im
ra y
() )
Ġj e
ag es
f ul
ĠÃ ľber
Ġus e
uch t
Ã¤ d
Ġin st
or g
ĠJ an
ĠG er
Ġs ho
ot t
ĠA ug
ib le
A l
schaf ten
ge w
Ġth ro
ĠB l
ĠT r
re am
Ġd ann
ut ion
Ġl oc
Ġd r
O N
ĠJ un
f Ã¼
Ġbe im
ĠA ut
b o
it ies
Ġun s
ÃŁ en
sch ie
ĠA ll
Ġ *
in ess
Ã¤ s
Ġm us
Ġpe ople
ĠC ar
en ce
g l
Ġ! =
ĠF r
Ġkn ow
Ġ201 8
Ġh o
Ġon ly
Ġel se
ĠAr beit
ĠAr t
Ġe very
Ġge hÃ¶r
Ġw enn
w ard
Ġer st
Ġer sten
ĠP f
p la
am es
iv er
at ive
en den
c on
ĠJ ul
ow er
ĠB au
Ġf ind
ĠN or
eb s
Ġb el
ub l
ĠN ov
tell t
f ig
al k
ad d
Ġw el
ĠGemein de
tern ational
c y
h ne
Ġw ell
Ã¶ glich
i den
ĠH and
Ġg ibt
ĠM en
i pp
ogra ph
ar m
ĠM in
Ġh ier
Ġb ack
s on
un st
7 8
it al
en k
5 0
ĠC on
fol g
Ġs he
C h
le x
v ers
ien ce
ar b
w n
Ġcom m
Ġa ct
ist r
L ist
it s
Ġd rei
und e
Ã¤hr end
ist or
Ġdes ign
ra ch
ĠSt a
am t
ĠO ber
ĠI nd
us iness
glie d
os ition
ru ck
Ġg esch
ĠE l
() );
Ġm ay
Ġs et
ra g
Ġst r
a id
Ġs upp
Ċĉĉ ĉ
ĠSt ud
k l
ier ten
ĠJahrhund ert
r ich
Ġb re
Ġver y
ĠE urop
Ġk onn
ĠH o
lo ck
Ġp l
sp ieler
ĠF amil
Ġcon s
ster reich
p s
2 1
u ck
me ister
eng th
al en
wer k
p f
em ent
uÃŁ ball
m at
p on
Ġc re
ru pp
Ġge b
urr ent
Ġas s
G eb
P ar
rie b
Ġc l
ĠÃ ĸ
Ġg er
an y
te xt
L iteratur
as ed
Ġan ge
ĠChr ist
il ity
/ /
Ġf Ã¼hr
Ġg u
ĠAug ust
Ġd ire
o der
Ġs m
ĠM ed
and er
Ġt wo
W e
O r
ĠY ou
Ġm in
am s
Ġjed och
ĠSt ra
Ġer h
re m
Ġund er
u k
Ġd a
Ġyear s
F or
if fer
ur t
um ber
iel t
au er
ĠP e
Ġse hr
Ġweit er
Ġd own
sp r
ĠB undes
ĠM on
Ġman y
it ed
u z
Ġh igh
vel op
ate g
Ġsp Ã¤ter
Ġv oid
Ġv iel
o od
Ġex per
v or
Ã¤l t
s o
ar r
oug h
ĠF ilm
ur z
âĢ ¦
et s
for e
Ġz e
O b
iv en
Ġin v
Ġver b
z ial
ĠB and
ar ten
b ach
a kt
abe i
Ġthro ugh
Ã¼ t
ch er
i or
Ġre m
o int
ĠDeutsch land
Ġs ub
je kt
ĠP ol
V alue
ĠP erson
( ),
ct or
Ġth ese
Ġetw a
2 00
v en
ke hr
Ġ X
ment s
Ġh ome
Ã¶n ig
ro l
Ġ '
Ġt ry
schie den
n ung
Ġre ad
ĠO n
Ċ Ġ
Ġ3 0
g est
ct s
f ach
e c
I D
tem ber
ass er
ut h
i qu
ig ung
Ġf l
ier e
il s
1 1
ie f
b ild
ĠZ w
o te
z w
ar s
eth od
re g
Geb oren
p or
lich er
Ġ Â
Ċĉĉ ĉĉ
ich er
Ġp ublic
Ġs ol
hal b
ass en
gr Ã¼nd
ol f
uÃŁ er
k er
A T
Â Ń
Ġn ow
ĠM Ã¼n
Ġ end
ra d
ĠN ational
Ċ Ċ
ĠNov ember
lo ad
ĠS c
Ġch e
Ġa fter
pr il
Ġdeutsch er
re ad
ge mein
ak ing
Ġi hn
erv ice
Ġh in
Ġ19 2
ĠF e
ĠFran k
Ġ [
Ġse e
ste in
ff e
L e
ĠA s
an ts
Ġgo od
Ġb l
un ter
if t
Ġg leich
ĠB et
ĠN ord
l ing
Ġs uch
r at
ir k
a j
f o
ĠI s
un kt
ĠSe p
st it
Ġm on
ĠM ann
Ġz usammen
ĠPro du
ĠJan u
ĠK inder
ĠF rie
ĠVer b
ĠR es
w ohn
Ġp erson
M it
T e
ess en
Ġlie gt
schaf ts
3 0
Ġsein en
eit er
Ġde c
uf t
Ġdies em
a ur
es ten
Ġver w
a ul
ar ch
E N
Ġ201 7
Ġpro f
ch ts
re ib
hal t
ien st
us tr
ĠH aupt
ĠGr und
Ã¤r z
ĠW h
Ġpla y
as k
ur s
ĠG roÃŁ
ĠVer ein
at ure
ĠK l
. )
is en
Ġa c
ost en
ich ts
Ġsein em
un k
ur ing
Ã¶ff entlich
Ġm ark
Ġg reat
w ay
ĠSep tember
Ġm ach
Ġim mer
Ġw ay
g ang
ar i
ho f
C lass
ĠM al
u ge
Ġa v
Ġv alue
ult ur
a den
ĠW er
Ġ )
is ion
ĠE nde
Ã¶ ÃŁ
Ġber eits
ag er
ze ug
Ġand eren
v iew
Ġle tz
Ġd ay
Ġb esch
sch l
ĠA pril
Ġf ree
st adt
c ri
) );
Ġst and
Ġc ol
b es
M ann
ck en
w ick
ne w
r icht
Ġein z
Ã¼ tz
Ġ201 6
ĠV ol
ĠP latz
Ġm ed
ebs ite
Ġwh ere
v al
in er
Ġb usiness
le ct
af f
Ġe igen
st Ã¤nd
s atz
ow s
pon se
Ġer ste
he l
G e
es en
Ġl ong
al th
r or
ĠK unst
it el
S T
k reis
Ġer w
ing er
m Ã¤
lic k
ĠI f
ĠK Ã¶nig
o in
Ġk eine
iz ed
Ġar t
Ġev en
up er
as ch
Ġth en
Ġa kt
ĠV ers
al ity
w alt
ĊĠĠĠĠĠĠĠĠĠĠĠĠĠĠĠĠ ĠĠĠĠĠĠĠ
iv es
al le
Ġbec ause
iv ate
ess age
ĠI I
Ġon line
Ġwh ile
o ver
la gen
ĠH aus
op h
ust om
Ġte chn
Ġsch on
Ã ¡
ot her
we g
z ahl
Ġsel bst
ĠIn ter
N ach
Ã¤n g
Ġd iffer
ĠB ild
im p
R E
ĠF Ã¼r
Ġse c
kt ober
ction s
Ġf un
N e
S e
Ã¼n st
Ġk e
Ġd el
ic a
es ter
gr und
Ġhe ute
[ ]
Ġfol gen
al if
Ġihr er
ĠJul i
Ġh ere
Ã¶ ch
Th is
m ar
Ġ201 5
Ġco uld
Ġwor ld
ĠD es
p art
Ġd ort
Ġde velop
ĠH och
f eld
Ġ201 4
ĠM et
Ġs om
le ase
Ġ2 5
Ġbes te
ien d
he d
f inal
in nen
pert y
l ang
er y
Ġ19 0
t ag
ĠJun i
Ġv is
Ġc ase
st ru
Ġkonn te
Ġ& &
Ġun ser
Ġ ,
ĠD r
f te
T o
oh ann
Ġch ar
f ang
Ġo wn
issen schaft
ess e
Ġw ant
Ġst atic
tr ib
s g
Ã¼r ger
c ode
ĠA t
ĠA mer
mit tel
ais on
eb ru
= =
Ġe m
Ġ201 0
Ġs aid
ĠĊ Ċ
Ġver schieden
e ich
isch es
Ġg ra
ĠU r
ain t
Ġf re
Ġs k
ĠS Ã¼d
la uf
ĠM ai
Ġpro gr
Ġv ier
Ġc ar
A t
omm un
Ġincl ud
gan is
Ġ201 1
iss ion
in o
in es
Ġd on
st r
ie b
in ce
ran z
stell ung
ation en
Ġ201 2
Ġp ass
ro ss
hr en
ĠO ktober
ĠB ar
ĠJanu ar
ĠC l
Ġsho uld
ĠS pe
Ġall er
ĠM ark
Ġ %
Ġ201 3
Ġin formation
Ã¼ s
Ã¤n ger
al ien
at her
Ġl ang
Ġbe fin
Ġ #
Ġ1 1
ut en
ĠS er
Ġk am
Ġ2 4
ĠH ol
S ie
re t
il it
o ten
2 5
b uch
al se
Ġm ade
ur es
Ġl ast
Ġo hne
Ġbe fore
Ġs ur
e x
ill ion
ĠBe i
Ġb ook
Ġst art
o gen
ĠOr t
Ġe ben
ĠUnivers ity
e te
ern se
ĠKir che
he mal
Ġf amil
ole an
we iz
Ġus ed
A R
Ġb en
um s
ĠC he
ĠP olit
w are
f ra
A us
or ben
Ġ1 00
Ġc lass
ĠM Ã¤rz
Ġm uch
Ġne ue
od y
Ġi hm
l ig
Ġs er
ĠJ u
qu ire
De utsch
Ġw en
ĠLand es
w ahl
ĠF ebru
ach e
K ey
Ġ ur
fall s
Ġtr ue
om en
cc ess
w w
Ġer sch
omp on
Ġm od
olog ie
Ġt ake
Ġres ult
ĠO ff
Ġs u
ĠF ol
oll ow
ĠG ener
zeich net
Ġi de
Ġdam it
Ġn ame
ou ble
Ġprov ide
un n
ot s
Ġ Ð
olog y
as on
Ġk lein
ĠB uch
ĠF ahr
Ġer folg
Ġt rans
re it
il t
ĠS k
Ġ200 9
Ġaus ge
ra ft
z ember
en der
Ã¼ h
č ĊĠĠĠĠĠĠĠ
ĠPro f
H e
Ġl ife
Ġserv ice
z ie
Ġsch w
ĠW est
Ġr ight
ĠL iste
ĊĠĠĠĠĠĠĠĠĠĠĠĠĠĠĠĠ ĠĠĠĠĠĠĠĠ
i ÃŁ
ĠUnter nehmen
Ġp ol
Ġand er
ĠMus ik
rie g
Ġk ein
A m
ck e
ĠJ ohann
h ol
ĠGesch ichte
sch lieÃŁ
iv ing
Ġst att
Ġge f
ic an
hr er
Ġst ar
ater ial
Ġ $
ro p
z ent
Ġto p
b ahn
4 0
Ġw Ã¤hrend
al ter
Ġsp iel
Ġe as
Ã¶ st
Ġp lan
im es
la ck
Ġgr Ã¶ÃŁ
Ġ200 8
Ġ18 9
ail able
ĠDies e
A N
Ġch ild
2 2
le te
ĠV on
age ment
Ġc le
amer ikan
ed er
ach sen
ĠP art
ak es
Ġbe ing
le it
los s
ist s
y r
. ,
ĠC omp
ĠAl s
A L
y l
ĠC o
Ġte il
a ar
8 0
Ġf ound
is k
ĠCh ar
rif t
Ġgen er
Ġd ata
ade m
6 0
u ter
tra g
w ert
sh all
Ġe t
as ter
O R
z ug
ĠDe zember
out h
m ed
mal s
Ġbei den
ism us
in ing
kt ur
Ġpro cess
b and
ĠĊ ĠĊ
ut t
Ġpr es
ell schaft
ig te
ĠAr ch
ber t
Ġof fer
ĠS al
Ã¤ch st
ĠK r
Ġk ey
Ġ >
ge d
Ġa round
Ġad d
ĠMen schen
ĠD o
Ġ x
b y
Ġe ach
ĠE ine
ip s
ing le
il le
s etz
ĠZ u
Ġc ustom
lin k
Ġen g
f a
ĠPh il
g leich
t re
19 9
w end
u ally
ig es
Ġc olle
is piel
Ġne uen
Ob ject
Ġag ain
Ġ9 78
b t
ĠP er
ĠH am
Ġ200 7
i us
Ġe ing
Ġc oun
l ength
Ġre al
Ġc atch
ĠD urch
ĠN ieder
Ġf est
z u
Ġp ost
ĠW or
n ame
Ġc urrent
v an
ĠM ich
âĢľ .
ichte t
l en
w ays
ranz Ã¶s
p os
M ap
om an
Ġdo es
id es
ĠW ert
Ġcre ate
g abe
Ġs ite
Ġcomm un
all s
Ġd id
Ġe mp
ide o
Ã¤ hn
Ġn umber
sch n
um mer
sp iel
k auf
fÃ¼hr t
âĢľ ,
ĠH Ã¶
r ite
ol v
Ġ200 6
ĠW ien
Ġdiffer ent
G esch
ear ch
ĠD aten
Ġihr en
o hl
Ġsh ow
al er
Ã¤t z
ĠJ ohn
ĠMit tel
ĠB re
Ġar beit
č Ċĉ
Ġr est
Ġg ab
ĠG rupp
we en
neh mer
Re quest
ĠL eb
Ġs ign
Ġdies es
Ġd abei
Ġz un
ch s
ir d
ĠE d
B y
Ã¼n f
ogra f
sch utz
Ġd u
Ġwe ek
le kt
ain s
y le
ĠS aison
Ġc are
Ġth ink
Ġste ht
ĠFebru ar
ĠD ar
Ġ u
Ġthrow s
ĠB ay
7 0
Ġl ar
Ġth ose
2 3
ĠSch ul
ten d
nah me
-- --
ĠL in
ĠRe ich
om mer
ĠUnivers itÃ¤t
f ern
D ata
sch ule
ord s
n ess
ĠMÃ¼n chen
sp ort
in en
le gen
ch sel
stra ÃŁe
le gt
it zen
ĠA ss
Ġb ed
omm t
at us
Ã¤nd er
Ġdes sen
um e
ĠEn tw
Ġche ck
f ass
ten s
la ub
ĠMit glied
c ing
a e
f ort
ĠâĢ ł
glie der
en ter
ĠB ut
uf en
Ġbek annt
Ġh abe
ĠW il
itt le
M ar
w ork
Ġl ist
be i
rie d
ĠY ork
ĠP l
Ġein ge
t il
Ġav ailable
Ġpro ject
T ra
Ġf ollow
A d
ĠB est
Ġl ove
los sen
O ver
ĠReg ion
c i
ĠN amen
ĠÃ Ħ
Ġp ra
ĠVer lag
Ġ5 0
nde x
ut es
az u
Ġ20 00
2 4
S S
us h
ĠG u
iqu e
C ont
ap er
Ġp os
th is
ik a
S et
ĠB ere
ĠG l
ĠD an
uf fer
ĠB ra
ende t
ĠF uÃŁball
ct ive
iv id
Ġs Ã¼d
ĠFor m
t he
Ġc al
grÃ¼nd et
ĠN atur
ĠA uch
ĠM ag
Ġpla ce
ard s
los e
Ã¤ ude
Ġv ar
A s
Ġe hemal
Ġre ally
ĠEn t
u x
ĠW asser
ges tellt
ab el
Ã¶r der
Ġ ...
Ġm ov
all en
Ġ200 5
F ile
Ġb ring
Ġs ystem
ĠM od
fahr en
k ommen
ot or
ar z
I t
Ã Ń
al b
Ġt er
op e
Ġweit ere
Ġus ing
Ġs onder
Ġb zw
Ġn or
ĠSch weiz
Ġbet ween
Ġf ile
ich ten
ĠV ert
in ation
Ġp olit
Ġan n
Ġbes onder
is hed
Ġalle m
ĠP at
p ieler
l s
A b
Ġb r
ĠR ad
Ġfin den
h in
re uz
ap an
e ver
Ð ¾
Ġl og
ĠSt re
Ġfr iend
Ġor der
ĠR Ã¼ck
L E
g ra
s w
ĠT od
Ġh im
Ġbu ild
d ate
use um
de ut
Ġein fach
Ġw rit
ĠB as
Ġg est
Ġs l
Ġm ar
ĠIn tern
Ġb oth
p unkt
Ġcomp any
re cht
Ġg roup
Ġder en
Ġl a
ĠW ohn
ĊĠĠĠĠĠĠĠĠ Ġ
ĠFra uen
ro om
or ts
Ã¤hl t
dr ich
ĠK n
Ġst ill
am ent
schl uss
an gen
I f
ĠJ e
an st
Ġ2 1
Ġc our
hn en
et ail
E in
un ktion
ĠSt and
Ġerh ielt
ĠT o
Ġsonder n
Ġbe f
Ġp at
Ġf alse
ĠS an
Ġo pen
il es
ie g
ly mp
rie ben
Ġ200 4
ĠW ill
c a
ran k
ĠC ol
Ġne xt
Ġt ype
geb iet
Ġn ah
ĠR o
Ã¤ us
ir che
Ġm oder
Ġexper ience
u gen
re en
Gesch ichte
ur y
Ġ201 9
tell en
de x
Ġa ut
ĠI hre
Ġ2 3
4 5
m m
ig ten
P ath
it Ã¤
Ð °
I T
ernse h
w ig
ĠLeb ens
Ã ³
Ġin ternational
ĠA pp
ĠSch l
Ġsm all
igh ts
r ide
Ġer reich
ĠF est
Ġdis c
h ard
mÃ¤ ÃŁ
uf f
wohn er
Ġserv ices
et ing
A C
kt or
ĠW ir
Ġsch ool
av ing
ĠPerson en
Ġinclud ing
p re
ess er
he in
Ġv iele
Ã¼ ss
sp re
ch te
Ġb as
ĠC olle
lo y
ro ll
* *
N ode
Ġb ie
im al
ĠEn g
r ic
ĠT er
Ġm uss
Ġdeutsch en
sch ied
sel f
it or
irt schaft
nis se
ra gen
Ġim port
ĠZ usammen
Ġfe w
Ġmon th
e h
c lass
dr ess
Ġfor m
Ġs ame
Ġat t
ath ol
ĠK reis
Ġf Ã¼nf
b ack
Ġv iew
Ġw icht
ubl ik
Ġc a
om in
Ġc or
Ġfamil y
Ġf ranzÃ¶s
Ġge mein
Ġre quire
ĠBer g
k on
and s
Ġg ut
ĠM y
Ġbefin det
o ot
Ġr und
Ġ2 2
a ÃŁ
it es
Ġab s
im mer
ĠGe w
om b
oll en
ĠP aul
ĠFamil ie
9 9
Ġsupp ort
B u
Ġph ot
lass en
ĠTe chn
Ġn un
cri ption
Ġo per
Ġob ject
pr ess
z iel
Ġv al
C l
7 5
Ġg anz
Ã¤ uf
Ġand ere
tell er
al y
L eben
ĠOr ts
d ings
fig ur
al es
ann te
Ġm ember
Over ride
g y
le y
Ġincl ude
ĠP re
app end
ĠAl b
ĠP ort
Ġg ar
lo b
um p
Ġle arn
Ġbre ak
ĠB Ã¼
gr upp
h Ã¤lt
Ã¤n ge
m et
ĠS eite
Ġl o
Ġapp ro
l ess
U R
Ġte am
as st
Ġev ent
Ġh app
ch es
ig inal
it ter
Ġf ast
a el
ĠB el
ĠPro v
Ã¤nd e
our n
Ġspe cial
Ġ18 8
ĠM at
ĠK ap
ĠIn ternational
Ġcont in
ĠFrie drich
Ġloc al
Ġd uring
an ad
Ġre t
st off
ĠP ark
ir on
Ġprof ession
Ġden en
lass e
G est
ĠBere ich
ĠMe ister
ount y
able d
ĊĠĠĠĠĠĠĠĠĠĠĠĠĠĠĠĠ ĠĠĠĠĠĠĠĠĠĠĠĠĠĠĠĠ
k ten
Ġspe c
Ġp op
Ġth ree
O n
du c
Ġper fe
Ġ2 8
ĠW ar
Ð µ
ur m
E D
Ġim p
2 6
de ck
ĠT ag
Ġf ull
Ġro om
iz ation
Ġs imp
Ġch o
A ll
Ġk on
Ġal ways
k m
Ġhe alth
ĠL ist
ĠS ohn
um n
ĠK ont
M e
Ġl ittle
iv al
Ġse x
Ġare a
ond on
Ġf act
ĠB en
ĠG o
t ing
b l
ĠS ol
ne y
ut ter
ĠM or
c le
ĠL a
A M
ra um
Ġz ahl
ĠIn stit
Ġper form
ĠW ahl
ess or
ĠC ont
ame ter
Ġ2 6
oc i
ĠD on
Ġgo ing
Ġm Ã¶glich
Ġ200 3
Ġwor den
Ġbo olean
al ten
Gest orben
ĠL eben
em p
ff en
z er
ĠS ystem
M od
Ġke ep
Ã¶ m
ĠW erk
Ġ â
Ġo ption
ĠF il
Ġd i
atur es
ĠThe y
Ġent stand
Ġeben falls
j Ã¤hr
I ndex
Ã¼ hl
s am
Ġje we
h af
isch of
o ge
fer ence
Ġw ater
ĠDeutsch en
e qu
b ook
ĠN ame
Ġfe el
Ġbeg ann
ĠEntw ick
Ġer halten
ĠM o
Ġlook ing
ĠF in
ĠD u
i at
Ġ200 1
ĠJu gend
r sg
Ġm ust
ass e
ar ly
Ġex p
b ed
I C
Ġb ig
Ġto o
E lement
Ġzun Ã¤chst
ĠH ein
9 0
3 5
h ung
n a
ĠP la
Ġc all
U S
ot he
ĠSp ort
Ġf ield
D F
f ts
sch ul
ĠT itel
th ing
ro s
ĠIn s
Ċ ĊĠĠĠĠĠĠĠĠĠĠĠ
St ream
2 8
iet y
p latz
aus pieler
m us
Ġ| |
Ġdies en
er st
ĠS he
ce pt
ĠHer z
oss ible
c r
Ġf and
y ch
Ã¶l ker
ĠPro gr
Ġpart ic
Ġm ethod
an a
h a
amp f
er ts
f urt
Ġind ivid
Ġ199 0
M an
id s
Ġm ax
ĠGe gen
den s
Ã¼ b
Ġh istor
Ġst ate
Ġb il
ol ution
Ġ200 2
on es
Ã¤ re
Ġent wick
Ġex c
sch rift
an e
Ġm ein
W ith
our s
Ġk ommt
lich keit
g aben
Ġre quest
Ġsoll te
6 4
ĠÃĸ sterreich
IN G
ĠPe ter
Ġver Ã¶ffentlich
Ã¤ ll
T ime
at ter
ent en
ĠH el
te te
rit t
Ġm et
are d
Ġe ffe
ĠN o
Ġdar auf
am a
č ĊĠĠĠĠĠĠĠĠĠĠĠ
ĠL ie
Ġb ro
ĠOb ject
it te
Ġm en
Ġs ince
F ield
j ahr
ĠB Ã¼rger
S p
enn t
ĠE m
ann ten
ho de
Ġne u
Ġpro m
av a
ĠO st
Ġle vel
Ġander em
ĠH ow
Ġw ebsite
Ġj ob
Ġm ir
č Ċ
P r
Ġetw as
Ġein ige
Ġpro ble
Ġst or
d o
et te
Ġ2 7
Ġcom e
< /
ĠZ e
ĠC or
f ilm
alt ung
ã Ĥ
te i
ĠS eit
ĠT or
och en
o x
Ġth ings
ver t
en nen
d orf
Ġa uÃŁer
Ġwel che
m ark
ĠN ot
um en
ĠS il
s icht
ik t
or ge
ig ital
Ġre ce
ĠB ahn
Ġs ure
Ð ¸
im at
bild ung
oc ol
ar get
Ġ est
Ġakt u
ft ware
fÃ¼hr ung
Ġqu ality
ent ly
g te
Ġg ot
Ġt yp
sch w
ĠTh ere
ĠD re
Ġis s
Ã¼nst ler
ĠH ar
D R
3 3
Ġo ld
Ġ4 0
+ +
on nen
is se
i as
ĠWelt k
an c
Ġor gan
ĠL ondon
kl Ã¤r
hel m
Ġse i
Ġv oll
Ġf lo
ĠA k
Ġre lat
A uf
ent ial
D E
Ġs w
Ġin ner
Ġsh ort
Ġdeutsch e
ĠLand kreis
Ã¶ sterreich
ĠD orf
Ġto day
ĠIn formation
pe ct
Ġm al
Ġl ot
A S
h ip
Ã¤ che
Ġg row
ĠR ich
Ġch ange
z entr
6 5
i am
ĠAn t
ĠFran z
uch en
b et
Ġwith out
4 8
ĠH ans
ĠD em
ĠgroÃŁ e
Ġge ht
us ch
ĠU nd
Ã¶ t
tt p
ber eich
. âĢĿ
Ġe qu
ĠF ot
Ġletz ten
Ã¤s ident
ĠB i
Ġge l
ĠH ier
: //
min ister
ĠPolit iker
se e
Ġsec ond
Ġs ay
Ġo pp
ĠGr Ã¼nd
k a
ur o
Bu ilder
ĠM art
2 9
equ als
v es
Ġb ra
for der
Ġin c
Ġcon ne
ĠF ach
19 8
Con text
ĠD av
uÃŁ en
ell er
M essage
ĠKir chen
uch s
ĠC ity
Ġc r
gen ommen
2 7
O f
Ġ( âĢ
eth ing
ĠKar l
ĠPar is
Ġsch n
Ġst ark
ĠO lymp
j oy
et en
rie gs
Ã¼ck e
Ġbe aut
ul ts
Ġwith in
il y
Ġ Q
Ġn eben
Ġ20 20
one y
ĠS el
Ġbe h
reich e
Ġapp lic
imm t
ĠFra u
H and
Ã¼ l
Ġeing es
ies en
op f
Ġg ame
Ġd ays
in ner
ub e
it u
fa ult
. "
el te
our ces
F uÃŁball
ourn al
it ing
em s
w h
D es
ĠJ ose
ĠB ed
ĠUS A
w or
iz iel
pr ession
te gr
Ġer r
y er
af fen
Ġf ac
Ġl ine
gesch ichte
ĠgroÃŁ en
Ġh ard
ĠC ounty
Ġl ight
M et
Ġqu est
ĠJahr es
on y
sch ein
Ġc ost
Ġd azu
Ġp ay
ind ung
ĠK ultur
ke y
ĠS m
g n
c ont
ur ger
Ġk urz
ĠB ern
Ġbet ter
Ġimport ant
z ig
il ome
sh ip
st Ã¼tz
e le
Ċ Ċĉ
Ġab le
Ġgew ann
ĠP al
au g
In fo
Ġd ating
um m
g o
Ġm ind
ĠC omm
z ogen
ĠSt r
ĠFamil ien
if ied
Ġs ize
ĠM ain
Ġihre m
ĠgehÃ¶r t
Ġp ower
Ġ2 9
nah men
Re g
ĠAmer ican
m ut
Res ponse
um b
Ã¶r per
E T
Ġ ?
Ġho use
ĠSta ats
Ġg ive
Ã¤ ft
ck er
Ġge m
I ON
t ime
ist ory
ĠB ro
o ung
ĠB esch
ĠVol ks
Ġinv est
ile d
Ã¼s sen
Ġle ad
Ã¶glich keit
Ġauf ge
m l
ĠD a
il ter
ĊĠĠĠĠĠĠĠĠĠĠĠĠĠĠĠĠĠĠĠĠĠĠĠĠ ĠĠĠ
ĠRe chts
Ġnah m
ĠG en
ur en
ab ility
D ies
w est
Ġstud ents
S ervice
ĠP lan
in c
ier s
Ġ199 9
3 8
Ã¤ h
iv ed
um an
v Ã¶lker
Ar ray
ĠBe g
ĠHer r
pr ivate
Ġpro te
Ġprodu cts
it ch
I I
it ive
Ġwork ing
W h
7 9
Ġg ing
Ġm ain
Ġsom ething
z el
ateg or
f re
v iron
ĠR ah
teil ung
Ġl assen
ĠâĢ ¦
ver ein
Ġfr Ã¼
ges amt
č Ċĉĉ
ĠD is
ĠH il
Ġh ol
Ġver l
Ġhe ad
En abled
Ġle t
Ġersch ien
Ġall en
7 6
Ġin cre
ic le
w elt
ar a
h am
.) :
ab r
g ument
v alue
H rsg
ĠG old
ill s
d ing
Ġp age
Ġr un
Ġad v
st ag
Ġp ut
d ruck
Ġre l
ĠI hr
Ġs uper
Ġinter est
Ġl and
ĠM ay
ĠS outh
igkeit en
4 4
I S
for d
ĠD ire
w and
ers Ã¶n
ut ure
Ġ199 8
Ġspiel te
Ġd an
Ġbe zeichnet
z t
um er
wer b
3 9
ĠFor sch
ĠW ith
lat t
Ġacc ess
Sie he
if ul
ĠFl ug
Ġlar ge
il en
ĠR ed
Ġres earch
ĠGener al
yste ms
Ġste hen
Ġher aus
ĠT our
ra w
ilit Ã¤r
trib ute
Ġt ro
ent al
we is
Ġan other
Ġad dition
ic ally
Ġh och
Ċ ĊĠĠĠ
ĠC om
ĠB urg
am b
rit er
Ġm ult
ĠB ad
fol ge
s ych
ĠTe xt
ĠI ch
tr Ã¤
th row
E s
! !
3 6
if y
as es
oug ht
O Exception
f el
Ã¤ mp
ĠSch ool
fÃ¼ g
7 4
Ġw est
ĠEin satz
Ġhat ten
p end
om as
Ġeas y
w ort
ĠA ir
ra cht
gan gen
ĠAus tr
5 5
B er
Ġd och
ĠGra f
a uch
l Ã¤nd
ĠSch rif
ver n
d ienst
st re
ĠK o
Ġd ouble
Ġex ist
w ar
ograph ie
Ġm ich
eng l
Ġe ff
rit ten
ere i
Ġchild ren
ik en
A P
A nd
der s
Ġt urn
ĠAn fang
ĠMich ael
t ocol
Ġsch lieÃŁ
Ġ199 6
ir m
entr al
ĠF ar
ge ord
Ġa uth
3 2
Ġ @
In ter
ĠAl t
ĠW ebsite
ĠFol ge
Ġpra ct
ge ther
3 4
f ert
Ġne ver
u h
op s
ost er
ĠEin wohner
aj or
Ġl ink
ĠTe am
Ġc ert
icht ung
Ġmus ic
rÃ¤ ger
ĠBet rieb
Ġre f
Ġco ver
ier ungs
ne te
ĠU hr
Ġcomp lete
Ġ198 0
n ot
ch ten
Ġab ge
Ġerst mals
Ġm ight
Ġmach en
Ġin it
Ġ( !
ik el
Ã¤t ze
Ã¤ m
Ġc ap
Y ou
ur ity
Ġact iv
Ġse arch
Ġcons ider
Ġbeste ht
pert ies
Ġprogr am
Ġan t
Ġw Ã¼r
ach en
Ġde fin
ĠWor ld
ĠHam burg
le ine
de utsch
Ġe d
ĠW ind
En try
ĠP reis
ĠS eiten
tel le
ograf ie
Ġk ommen
ĠRah men
S h
amerikan ischer
Ġcon f
schn itt
b re
Ġt re
ĠF er
uch te
Ġw all
il er
heit en
onder e
Ð ½
ĠSta aten
Ġs af
ĠI l
Ġinst ance
ic y
Ġzw eiten
6 8
ĠK at
ĠR uss
E S
h Ã¤ng
viron ment
Ġt est
Ġg l
ort un
; ;
C ol
P erson
ĠL ud
Ġge grÃ¼ndet
Ġmehr ere
Ġw omen
ĠS w
Deutsch er
Ġp ort
Ġ194 5
ĠZ ahl
ĠVer walt
ur f
an te
Ġl aw
amp le
spr Ã¼n
Ñ Ģ
7 7
Ã ¨
Ñ Ĥ
Ġ199 7
ĠGe org
ĠOn line
Ġaller dings
e hen
Ġen joy
Ġverschieden en
es h
ĠChrist ian
Ġf ood
Ġwe gen
Ġn ational
utz t
le tz
Ġer ne
ĠNor th
Ġperfe ct
ra che
om at
un ch
Ġp ict
ĠIntern et
ĠR aum
Ġh inter
Ġm aking
R O
p lan
Ġden n
Ġb ased
Ġse ver
Ġ ident
oc us
d ie
Ġa ir
ig a
uch e
den k
Ġ6 0
Ġmark et
i ol
ĠHo tel
z y
ord ing
Ġ199 4
6 6
il la
l ungen
ser ie
Ġsu ccess
Ġsein es
och ter
ok en
en a
ĠâĢ ĺ
ĠE nd
lie b
Ġc reat
Ġres p
ĠGrupp e
ĠJahrhund erts
Ġneed s
Ġn et
ĠK Ã¶l
ib r
ab or
Ġl ess
Ġb rit
m b
ĠNe u
Ġim pro
Ġhe ut
ilome ter
ĠB rand
st ant
ĠDes ign
Ġd ah
ĠĠĠĠ ĠĠ
le ben
ĠO ur
grupp e
ĠM illion
gr iff
ĠA lex
etail s
G roup
ĠA kt
ion al
ĠgehÃ¶r te
Be i
Ġ3 1
is iert
il igen
ul ation
ĠN eben
un ft
S er
{ @
ĠW inter
ĠC lass
ĠWil helm
Ġl at
Ġd av
o pp
omm and
n ungen
la v
os en
haus en
. âĢľ
un kte
ut s
Ġtra dition
ĠBe ispiel
k irche
ganis ation
4 9
ĠE uro
ĠL u
b aut
ĠM Ã¤n
nah m
Ġv ideo
Ġ197 0
' re
Ġperson al
ĠZ iel
ĠS ommer
Ġas k
Ġwor ks
5 9
ĠI hnen
Ġde v
ĠI de
l og
' m
N ot
Ġ199 2
lich es
read y
ĠSe e
in ks
ar l
and id
ĠZ ug
is ed
id ge
op er
ĠL auf
ct ure
ĠLe ip
le i
Ã¼ ll
ĠfÃ¼hr te
tre ten
Ġtr at
ĠT yp
b el
ut ions
Ġs ingle
pla y
ĠEr st
ĠS en
Ġbe w
Ã¤s ent
ĠD en
reich en
Ġn on
E C
ĠW ald
pt y
sk i
" .
Ġh al
ack age
Ġal ong
af Ã¼r
i ate
ĠT re
Ġo pt
Ġof t
ĠEurop a
ĠD ienst
Ġcle an
ĠM ont
Ġverw endet
Ġle g
Ġb it
Ġent spre
L O
us Ã¤tz
ĠâĢ Ķ
ĠWe g
ein ander
ire d
es ent
z irk
bes ondere
ĠG el
ĠS ervice
Ġ199 5
ain er
Ġre p
ĠF all
Ã ĸ
Ġs tell
g ar
ib li
V al
Ã¤ fts
ag ue
w issenschaft
leg al
an ten
ĠG ed
v ious
ĠD ort
Ġto gether
) :
reib ung
ĠEntwick lung
ĠS itz
ĠEr n
st ants
Ã¶r d
Ġen gl
is ing
Ġk omp
ĠSch auspieler
figur ation
Ġbu y
te ger
ĠK ais
at Ã¼r
6 9
a at
Ġw eb
s ize
Ġcommun ity
v ille
Mit glied
Ġk ind
Ġprodu ct
Ġb le
ver b
Ġm ag
ĠL ang
Ġte xt
th ers
g ie
Ġdown load
y d
ĠD i
L oc
> >
s weise
ĠA g
ĠH ome
ĠSch m
ward s
Ġt Ã¤t
' ve
Ġre view
ĠMit te
ing ton
Ġb ody
ĠA c
re if
Ġwe il
P h
Ġbel ow
ĠHÃ¶ he
Ġgen annt
ĠSte in
Ġm atch
Ġeigen en
Ġfe atures
Res ource
Al s
Ġk m
st ance
ĠUn ited
ĠMe ter
ĠM useum
ĠO l
St ate
Ġf our
3 1
G ibt
le v
Ġall ow
ĠN r
ar te
Ġto t
part ment
ĠArch ite
ar ing
ig ent
ĠRe c
Ġex tra
ge ber
irt schafts
ĠM ax
ĠB y
ĠS Ã¼
ĠS oc
Ġim age
Ġr ange
ober t
, âĢĿ
g ing
Ġs etz
ĠG ar
Ġdire ct
og le
ou p
Ġein mal
ĠV e
C O
Ġa way
ĠH istor
Ġbeaut iful
ĠJ o
F ilm
ĠE ner
ab l
zeich nung
ab ly
Ġ199 3
Ġse chs
Ġcon c
ĠGeb Ã¤ude
ĠH igh
19 0
Ġweit eren
Ġunder stand
ĠR oman
Ġdevelop ment
amm lung
ĠHein rich
att ung
ĠM c
Ġle ft
az z
id ing
f s
ĠW olf
Ġagain st
Ġfin det
la us
os p
Ġ20 21
ie ve
au p
Ġpro perty
Ã¼ck en
Ġl ange
F rom
ï ¿
arbeit er
ĠfÃ¼hr t
j a
ĠF eld
ĠK e
3 7
ent ion
E m
ĠP ost
ĠF unktion
ĠE p
im ent
8 9
us try
Ġp ath
Ġl ive
ie gel
i ber
Ġg ilt
ific ation
Ġ18 0
ĠFrank furt
Ġe duc
schlieÃŁ end
al og
Ġvis it
Ġbesonder s
Cl ient
ĠF C
ac ter
heit s
lig a
Ġ( (
p ublik
Ġse hen
ĠSp ieler
ĠLe ist
ĠEn gl
ĠT urn
ĠLud wig
Ġ199 1
== ==
Ġm Ã¼ssen
ĠD abei
ĠT ochter
ĠH of
ĠEr w
Ġjewe ils
Ġte ach
ĠProv inz
c er
Ġp oint
Un ivers
stell en
es ted
Ġwe chsel
Ġh aving
ĠSt ate
ĠB ank
ĠR el
Ġen ter
Ġfollow ing
Ġarbeit ete
ĠTh omas
a pe
Ġt reat
Ġdire kt
ĠHol z
ĠEr z
isten er
und er
U T
Ġp ast
ĠK lein
Pro perty
Ġt able
ĠM er
ĠS ein
Ġal ready
Ġoff ers
ief ert
it chen
con om
pro du
h end
d es
ĠRe gel
ĠV ater
iv ely
Ġn a
ob il
ĠK om
unn ing
Ġm oney
w ie
ĠK reuz
w irtschaft
ĠSch n
b urger
pp er
Ġdav on
b ol
Ġcont ent
] ;
Ġwh y
S o
Ġ198 9
lob al
Ġin tern
Ġp ubl
ac y
ĠPro zent
ure d
oc ument
ian s
l le
ag s
Ġlie gen
c ent
os oph
Ġst at
Ġcour se
Ġl ov
ik ation
Ġinner halb
Ġre du
Ġg ir
ĠStra ÃŁe
7 1
ĠO p
Ġcon dition
em pl
geb aut
engl isch
Ġo cc
Ġcont rol
Ġ ir
f ield
Ġof fen
qu e
Ġc ity
ĠP ass
ĠThe ater
teil t
Ã¼ gel
ĠB rit
ĠEin zel
g art
ĠD am
ors itzen
ĠSchweiz er
ĠMart in
E M
Ġb in
la u
ĠEr geb
f est
Ġunter schied
V ers
Ġopp ortun
to String
k n
Ñ ģ
Ġ _
ib e
ult ure
op y
Ġall es
act ory
" )
Ġcont act
T r
m od
ĠW eb
red it
. :
7 2
Ġl im
te chn
5 8
S ize
ĠRe i
Ġ196 0
Ġpres ent
v ed
ĠH ann
hl en
Ġ Ã¶sterreich
le ist
Ġof ten
le hrer
l ow
Ġf ar
ĠR hein
Ġ Ã¤l
ĠM a
ĠEurop e
ob ile
lie gen
ĠB ilder
we hr
ran sport
Ġn atur
ĠTe x
U N
Ġre pr
zeit ig
4 6
C ode
O T
i os
Ġ ens
Ġun til
gemein de
l ungs
ut or
ĠH all
ĠC as
ill er
ĠGeb iet
ĠE he
L A
ĠMar kt
Ġm aterial
Ġt imes
D ate
ĠFrank reich
n ov
Ġbie tet
Ġs ide
Ġp ot
o o
ĠF ir
Ã¤t te
ĠMit glieder
af en
ĠTh ese
Ġsever al
Ġe ver
ĠW hen
ĠT ro
ĠK ind
Ã¤r en
Ġb rand
ro du
Ġj etzt
Ġwo bei
Ġn ieder
g lichen
a ction
ĠK Ã¼
Ġz we
L iefert
ok ument
Ġmus ste
ĠL uft
Ġstud ierte
ĠP ap
ĠR olle
Ġres ponse
ĠJ ust
ĠPro ble
ĠtÃ¤t ig
ge f
ĠE is
a pt
id ay
ĠJ apan
ĠA p
ĠK omp
8 8
f ace
ĠAnd re
richt ung
h Ã¶
Ġso cial
P re
s c
ĠPro jekt
ĠMin ister
wend ung
Ġen c
Ġp ossible
her r
Ġgo vern
ĠMillion en
l am
Un ter
Ð¾ Ð
ĠLeip zig
av or
is on
ompon ent
a it
Ġp osition
Ã¤ ss
Ġfolgen den
et ter
au en
Ġ198 8
Con fig
ĠB ischof
ra b
ch an
Ġd ist
Ġn Ã¶rd
ĠGes ellschaft
sche id
i od
ĠS uper
Ġme et
Ġviel en
c ol
7 3
ist ischen
Ġst ory
Ġp lease
Ġf ocus
ĠR om
ĠO per
Ġcom es
ader s
ĠInformation en
ĠM ot
ĠW ie
on st
ra u
ĠT rans
pr Ã¤
cri pt
5 4
ict ion
Ġemp loy
C E
Ġn ight
S c
ĠA fr
ĠP ra
ĠSt utt
am mer
ĠOb jekt
Ġy oung
u el
ĠN utz
ene f
Ġd est
Ġw ind
ĠI OException
ĠK rieg
h or
t ain
he ther
v oll
ĠS am
ĠK ommun
ck s
Ġjed er
ĠU l
iz in
lich t
geben en
mb H
le ge
on a
Ġs im
Ġk leine
a un
Ġac ross
Ġse ason
ĠO ne
ĠB lack
ber ger
ĠN Ã¤
shall er
Ġcoun try
m on
Ġqu ick
ett be
ens ion
ub s
Ġdel iver
Ġerfolg te
Ġe lement
Ġm akes
Ġsp ace
EN T
Ġme isten
ĠR est
Ġme ans
Ġbl og
Ġcal led
ĠDav id
Ġd afÃ¼r
ĠR ock
tell ung
Ġpr ice
sp ir
Ġauf grund
Res ult
alif orn
I M
in ed
Ġpr ivate
ĠM il
< ?
ĠS eine
ĠArbeit s
W er
č ĊĠĠĠ
ĠDeutsch e
Ġges am
Ġc los
ĠR u
ĠSe x
Ġf und
ĠSch loss
For mat
Ġprofession al
O ut
al itÃ¤t
od es
ĠK ur
A G
s ide
ĠGesch Ã¤fts
Ã¼ ler
Ġer n
Ġle d
ĠB ur
gr ess
Ġur sprÃ¼n
ĠBe vÃ¶lker
Ġcol or
n ull
Ġ Ã¶ff
ĠKÃ¶l n
ĠZw eiten
ak en
L og
Ġind ustry
Ġent ry
ĠK ilometer
Ġbec ome
ĠM utter
ĠS and
ĠS icher
b ank
te ile
5 6
Ġget ting
Ġm ajor
Ã¤s st
fahr t
Ġh Ã¤uf
sch er
P D
ĠkÃ¶n n
ĠColle ge
Ġuns ere
Ġspec ific
ĠH inter
Ġins gesamt
le b
Te xt
M ethod
F Ã¼r
Ġd one
ĠT V
Ġze igt
Ġb lack
Ġn Ã¤ch
Ġde ut
ĠPr Ã¤sident
Ġcomp an
Ġet c
Ġser ies
ernseh serie
Ġth ing
Mar shaller
Ġl ow
Ġcom b
reib en
ar ian
ĠPf arr
ĠM Ã¶glichkeit
U t
ĠZ we
ic o
ag n
Ġklein en
an ze
is ierung
eit ung
age d
ĠT op
wo od
ĠBes itz
Ġs og
Ġsh are
Ġbeg inn
Ġschn ell
ord in
C H
N ull
S pe
as tr
ĠC D
en zen
om et
ĠMann schaft
h an
Ġin dex
Ġth ough
ts teller
ĠK ant
A D
ĠM ap
im men
En t
A pp
itÃ¤ ts
E igen
Ġo ber
Ġre port
ze pt
Ġw atch
Ġent fern
ĠM ore
Ġst yle
Ġus er
Ġinst all
ang es
it ten
ĠProf essor
ĠWe i
ĠK Ã¼nstler
Ġe lect
uf act
pr int
ell ing
land s
h as
adem ie
ĠM otor
Ã¼r z
ĠLe hr
ĠCh ina
ĠR obert
id d
Ã¶r t
row n
Ġn ord
Ġme ist
Ġstar ted
ĠDies er
Ġm om
ĠG mbH
Ġj oin
ab les
ï¿ ½
de te
k o
yn ch
le ction
' ll
Ġin tegr
ĠE isen
ab in
ĠAr ray
ĠHo use
Ġverschieden e
F A
ĠB eit
ĠW al
ktion en
ran ken
Ġv ol
Ġbis her
Ġ Ã¤
ĠC al
ĠReg ie
ĠÂ »
6 7
an ks
ibli othe
Ġar ch
ĠschlieÃŁ lich
s etzt
Ġkonn ten
Ġ8 0
w Ã¤r
I mp
Ġc amp
ĠT est
Ã¶s ung
Ġc la
ĠW enn
pp el
ĠSo zial
âĢ Ķ
Ġunser er
Ġph ys
etz ung
tocol Marshaller
Ġ id
Ġgeb oren
un e
put Stream
ver band
4 7
r ist
ĠStra ÃŁen
ĠW Ã¤hrend
Ġoff ic
Ġs ource
Ġkn own
Ġb ar
og n
ĠGer man
Ġeng ine
- ,
Ġo p
ent wick
Ġres ults
j et
te mp
Ġl Ã¤sst
rif ten
ĠW ochen
h men
Ġ198 4
ĠInd ustr
Ġm ass
Ġn am
ĠE v
val id
W ir
ĠB ru
ann ot
Ġins besondere
er m
Ġsich er
Ġstud y
ĠG et
Ġer m
Ġvor hand
Ġen vironment
ĠNor den
ir at
pla ce
ĠAlb um
ĠM os
ĠMet hode
ho ck
Ġan s
ĠHerz og
Ġ198 7
n am
Ġfriend s
ĠD ate
ĠA uÃŁer
co ver
ĠBeg inn
Ġ( )
Ġad dress
ĠMe hr
Ġmod el
ĠKais er
or m
il ities
ĠBer uf
Ġeinz el
T yp
Ġto ol
Ġfor t
Ġgegen Ã¼ber
Ġd eb
b est
ĠW ieder
ĠStutt gart
ĠV ier
ĠMar ia
ĠSch iff
deut ung
Ġsimp le
O ption
ĠAl ter
fl uss
ein en
E L
ĠE mp
id el
al ys
ast ic
V or
ĠAm t
ĠWeltk rieg
ant wort
ĠL iteratur
Ġwicht ig
in i
Ġan geb
Ġc ent
Ã¼t zen
ĠProdu kt
L and
Ġb enef
Ġmoder n
ĠF Ã¼hr
Ġn atÃ¼r
B C
Ġp urch
Ġsch wer
Ġdesign ed
ide os
5 3
in ge
Ġz usÃ¤tz
ĠT age
Ġs en
at ors
un sch
ann el
Ġsow ohl
is c
ĠRe v
l as
Ġw rite
Ġstr ateg
P S
Ġprov ides
Ġhin aus
z Ã¼
kehr s
Ġerreich te
ck t
it ze
St and
lÃ¤ uf
, "
ĠFl or
t ype
ol oge
ap s
Ġna he
ĠFuÃŁball spieler
Ġinstance of
iv ision
ci ally
Ġ197 2
---- ----
Ġge lang
ĠTh at
ĠK le
ĠSt art
Ġ ess
Ġh ours
Ġ7 0
d f
Ġgemein sam
Ġwechsel te
ĠZ eich
Ġmember s
4 3
C omp
end s
ok e
ĠDe c
FuÃŁball spieler
5 2
ĠH or
ĠH en
Ġacc ount
iv at
Ġex ec
ĠD enk
ĠK ol
ord nung
g in
w eit
E ine
ĠT Ã¼r
Ġb lieb
Ġc lick
sch lag
sp rach
ĠBay ern
ic ro
G r
ich ter
es te
b Ã¼
Ġt alk
Ġ198 6
ĠPr ess
ĠG od
i ra
ĠL og
id a
ã ĥ
em in
6 3
Ġw alk
Ġle b
p iele
der n
Ġen ough
tel s
Ġ198 5
Ġindivid u
4 2
ich en
mann schaft
Ġd ate
an o
im s
ĠC enter
ym bol
it en
fÃ¼ ll
U r
Ġver kauf
ag ing
ĠHe imat
Ġ195 0
Ã¶st lich
Ġp o
ĠF ile
ĠK ompon
Ġrel ations
ĠSch utz
Ġh erv
Ġj a
Ġbes ten
Ġm Ã¶ch
O S
Ġor iginal
fÃ¼hr er
5 7
m ost
pp ing
de b
ww w
m el
Ġun ique
5 1
Ã¤us er
Ġz eit
Ġwo hl
pe cted
ĠÃ¼ber nahm
ĠZ ur
je kte
J ahr
s erv
Ġide as
ĠD own
anst alt
Ġp ie
Ġproble m
ĠIl legal
form at
Ġh om
z immer
ĠK urz
Ġerne ut
Ġen er
ĠAn geb
Ġwen ig
( (
4 1
B au
ĠAn ton
ip l
im a
Ġg re
Ġvers ion
ag o
ran t
b are
ĠW eit
.. ..
Ġr icht
z ess
ĠPar tei
arbeit en
ĠJ ournal
f asst
r Ã¤n
an ces
in dex
hock ey
Ġa ff
Ã¼ f
ĠD at
ĠL es
Ġtechn ology
Ġs ett
st ieg
ĠD istr
ul a
ou d
6 2
Ġn ie
stell ungen
b u
ĠSch ule
Ġem ail
S eit
y e
led ge
ĠF rei
ĠD el
Ġme an
ym n
ĠSel bst
av en
Ġcustom ers
v est
z a
ar en
Ġtra ining
oin ts
a iled
Ġb lock
Ġle ben
ĠEng land
Man ager
Ġnor mal
6 1
Ġm essage
Ar gument
ĠR ichtung
ĠIn nen
Ġit alien
ĠSp an
ĠOlymp ischen
Ġver st
ch ter
c ome
ur ance
Ġp ur
ern er
Ġeinges etzt
ed ia
Ġon ce
ĠBo den
ge gen
ĠIt alien
g Ã¤n
ĠP osition
Ġra d
Ġo thers
Ġe arly
Ġcompan ies
Ġfr ont
be k
Ġs ug
ĠB is
F actory
ĠF inal
ĠW issen
In stance
ium s
w agen
ĠH ers
Ġal ten
W elt
ĠB u
Ġbuild ing
Ġgew Ã¤hlt
ide d
ĠM el
ak ter
zie h
Å ¡
ist ry
ĠArt ikel
E vent
h aupt
B uffer
il led
as ing
we gen
ĠReg ierung
l ast
ĠC oun
i j
Ġm iss
V on
Ã¼r t
Ġzw eite
il nehmer
ĠW esten
ispiel sweise
++ )
ĠI r
um ents
Ġgen au
Ġze hn
9 8
ĠProgr amm
Ġs n
fol gt
ĠB aum
uch er
che ck
ĠSÃ¼ den
Ġ196 8
Or t
ay er
e ded
p reis
ro t
Ġf ilm
I P
Ã¶ ÃŁe
Ġ197 9
app en
Ġdisc uss
ad s
ok al
Ġ197 4
it ure
Ġh istory
Ġ9 0
ĠSchrif tsteller
Er ror
ĠAut or
O L
Ġh Ã¶ch
Ġw on
Cont ent
Ġd re
ak er
c el
b or
Ġh uman
Ġc ur
ĠSt ar
Ġcomp uter
ern en
Ġrequire d
ĠV al
bar en
mÃ¤ÃŁ ig
Ġ197 8
ĠLe ague
Par ameter
C ount
w ald
ĠS erv
Ġf uture
im um
Ġw onder
Ġk osten
hl er
Con ne
or ed
ir chen
Ã¤ch lich
Eigen schaft
zeich nungen
Ġerfolg reich
ĠN etz
Ġ{ @
ĠII I
Ġst amm
Ġfe ature
Ut ils
f red
re ibt
Ġc oup
ĠBe deutung
Ġc lose
Ġre gel
get Name
itÃ¤ ten
ĠR ein
min istr
asch inen
em per
es tern
re icht
ri x
ĠM iss
ish ing
Ġl iving
if fe
Ġdah er
ib ility
get ragen
Ġ198 3
Ġl ik
yn am
er ing
ĠWh at
ge geben
ol a
zeich en
Ġvar ious
anad a
Ġne ar
Ġgr Ã¼nd
Ġh ost
Ġoption s
Ġn ichts
u age
ul es
Â ²
ĠM ad
g a
s pe
ĠS im
Univers itÃ¤t
ĠM aterial
ab hÃ¤ng
ĠG eld
Ġwh ite
ĠL ou
Ġ198 2
ĠVerwalt ungs
s ub
is es
ĠS aint
ĠO ut
Ġman agement
Con stants
Ĥ ¬
en burg
Ġf it
och e
ynch ron
M L
Ġd at
tr itt
ute t
S ystem
Ġc m
Ġk itchen
Ġ197 5
Ġw ahr
Ġsog ar
k r
ach ten
Ġtra vel
fra ge
Ġre por
ger ufen
Ġpartic ular
b ie
L o
ĠE ing
ien s
ĠZ entr
Ġh ig
o on
ĠS ub
ĠIn sel
rich ten
Ġmed ia
z ir
Ġv an
Ġ197 6
ĠCar l
ĠverÃ¶ffentlich t
wo hl
he mat
un ction
al z
ĠM ac
Ġ198 1
an cial
ĠO t
ĠAn zahl
Ġact ually
ic ation
v is
ĠMÃ¤n ner
c ase
f an
t ler
Ġpop ular
ĠS et
ic ks
Ġresp ons
Vers ion
I L
Ġt arget
ĠSt Ã¤d
fl Ã¤che
ĠSt ates
Ġheut igen
C he
ĠE lekt
Ġloc ated
ue ck
Ġf ur
Ġst ay
Ġres ource
Ġsoll en
Ġth ought
Ġexper ien
ab y
ges ellschaft
ĠVer fÃ¼g
ĠSt at
ĠZw ischen
ĠK unden
Ġerr ichtet
Ġst ra
or gen
U L
ĠT al
ĠC r
geb ung
ĠPr es
Ġzahl reiche
ĠH in
m as
ĠK an
Ġhand elt
Ġy et
ze uge
s eit
I ch
en en
at is
un t
Ġer klÃ¤r
Ġv e
Ch ar
ĠK or
Ġam ong
Ġfun ction
ĠR em
F e
M S
ĠB ook
ier ungen
ĠCl ub
Ġm at
urn iture
d a
ĠD ruck
ĠK lasse
Ne w
empl ate
ist ische
Ġam er
cre ate
Ġst ore
en ze
rie f
ift ung
Ver ein
Ġle ast
ein t
ak te
Ġa ud
Ġbe vor
U p
Ġcert ain
ĠJ ames
Ġzw ar
Ġ197 1
ĠH alb
Ġdid n
Ġmonth s
ip le
ĠSp iele
Ã¤ ischen
ĠK Ã¶rper
n ers
ã Ģ
Ã¤ chen
ĠI mp
schul lehrer
ĠJose ph
Ġbest imm
ĠJun e
if iz
ell s
I G
b ung
ĠI D
ĠSta at
Ġst ru
Ã¤nd ern
ikan ischen
ĠAss oci
s eite
ran ge
Ġmin utes
ĠP et
st Ã¼ck
Ġs tellt
Ġc ode
ĠS ong
Ġg ames
Ġbe ispielsweise
C omponent
geb Ã¤ude
ĠH a
lan zen
wer ke
Ġm illion
fin ition
i ro
Ġc ard
ĠThe ma
z z
Ġa cht
im ate
ĠV o
ail le
b an
Th ere
w rite
ol den
ann e
Ġihn en
1 00
Ã¼ ter
Ġentspre chen
W hen
Ġw oll
Ġr Ã¶m
throw s
ĠAuÃŁer dem
itz t
ĠS achsen
Ġm acht
Ġl inks
ĠS ant
Ġh Ã¶
Ġfolgen der
Ġbeste hen
ip ment
sche iden
auf en
ĠfrÃ¼ her
ĠZ Ã¼r
Ġde al
Ã¤hl en
Ġevery thing
ĠR ot
ag t
ĠMit arbeiter
Ġann oun
end ing
ĠC ommun
gesch lossen
Ġso ftware
ĠG arten
Ġread ing
P E
ĠM ass
ĠK riegs
g round
h ing
ĠG ott
ist ik
ĠJ ack
Ġnew s
Ġdo ing
hand lung
Ġw id
la den
ges etz
ĠW irtschafts
Ġwel ches
Ġehemal igen
r am
ĠP an
ĠG ast
air s
al tet
or den
Ġcontin ue
Ġauth or
Ġ Ã¤hn
Ġc ame
ĠSch Ã¼ler
IN D
ĠChe m
ĠhÃ¤uf ig
F l
b ra
T oken
olit ik
rach te
Ġdoes n
Ġperform ance
Ġdeut lich
ste lle
iziel le
er in
Ġag o
i ents
Ġs ays
Ġwen iger
Ġoff ice
an zen
Ġ ung
ĠP rem
Ġinv olv
ĠA G
Ġdam als
esten s
stell t
ĠW eiter
ĠR os
Ġgovern ment
Ġman ufact
ĠSt ad
Ġpro b
Deutsch land
Ġ197 3
Ã¼s se
ettbe werb
ĠL o
Ġge ben
leit ung
Ġg iven
meister schaft
T able
ĠN ow
ial og
Ġso zial
Ġcomm on
9 5
Ġf ace
ir es
Ġare as
vent ion
Ġdan ach
ĠK ategor
Ġeigen e
p aper
it le
Ġzu dem
Ġqu alif
ful ly
Ġd igital
le men
Ġcolle ction
h ang
Ġd ue
ĠS u
Ġbest and
ĠB ot
ĠF el
Ġre d
g ent
it a
ichte te
E nd
ĠE igen
ĠAm ts
G ener
č ĊĠĠĠĠĠĠĠĠĠĠĠĠĠĠĠ
Ġev ents
ĠAustr al
Ġh inz
Ġ197 7
sche ch
S te
ĠB or
cl us
Ġd ien
Ġr uss
ame ters
li ents
le f
ĠSie d
e ign
Ġin form
Ġsie he
T Y
Ġd istr
ĠN et
b esch
ho ut
ĠO sten
ĠZ um
k or
n ach
Ġor ganis
O ff
Ġpro tocolMarshaller
> ();
Ġd etails
ĠF ort
T rans
te id
ith er
Ġ3 5
ĠO ct
Â »
le ased
ĠB Ã¶
leg te
Ã¼r d
Ġso und
ĠgehÃ¶r en
l ant
Dies e
s burg
hr te
ĠVers ion
z us
k i
ĠM oder
ĠZ ust
Ġam az
Ġbefin den
Ġ(âĢ ł
b s
ĠD om
ut zen
ĠP lat
Ġhe art
Ġlie ÃŁ
" ;
ung sp
or ted
Ġapplic ation
ĠAl le
ĠAuf lage
Ġf avor
ad urch
ain ing
ĠAn n
Ġtot al
Em pty
0 9
i ar
ĠA ward
ot ion
op t
ian a
ĠStud ien
8 5
k an
or es
Ġinclud es
Ġpos ted
s uch
u a
P ol
la w
setz ung
ab ase
Ġapp ear
c omp
em a
ĠB ach
Ġl ag
Ġp ack
ĠD DR
Ġver sch
ĠY our
Ġre ason
p age
Ġh old
ĠF le
ik on
ĠAr m
amer a
Ġsie ben
mal e
ĠR und
rol le
ĠSal z
9 3
Ġa ge
ĠT ab
A mer
Ġe urop
em ents
ĠE hren
yn c
itu ation
O ur
Ġcon stru
iden ce
ĠE ben
ibliothe k
Ġt aking
Ġs ystems
ĠG roup
ele br
at ers
Ġh ope
ĠW el
Ġ ill
Ġm em
Ġh ttp
Ġcom fort
f ried
l im
Ġw elt
Ġto ok
ĠKar r
Ġquest ions
Ġflo or
p ark
ĠC an
tern al
e e
u ed
ĠVerfÃ¼g ung
ĠG ot
ĠAn gel
Ġcre ated
ge hen
M us
Ġcon text
Ġdes cription
aler ie
ann ing
Ã¤d ag
B r
B o
Ġre ach
c ement
ĠGo ogle
ĠD ay
gr amm
as en
Ġab ove
Ġnet work
ĠV iel
Ġdar unter
ĠR ob
ĠC am
Ġletz te
Aus wahl
ĠGrupp en
Å į
ĠOrts teil
] .
ĠRei he
Ġp ersÃ¶n
ungs k
ĠFe uer
Ġver fÃ¼
ib en
Ġt w
Ġcom mit
Ġloc ation
Ġb ath
ge m
Ġl ater
Ġer k
Ġst arb
ok rat
ĠRich ard
ring en
Ġ196 9
ĠB ig
ĠT her
I V
ne xt
Ġso gen
w asser
Ġin put
ren g
ch ester
Ġgef unden
al a
as er
br uch
ĠA fter
** **
Ġre cht
tem berg
ct ors
Ċĉĉĉĉ ĉĉ
Ġb ad
ĠÃ¶ff ent
H och
k el
he ad
ĠM ount
_ _
ar f
Tra ce
Ġhapp en
O G
ĠS telle
av y
Ġex ample
lie d
cre t
ĠEl tern
Ġf ire
Ġv ia
ĠM ilitÃ¤r
20 18
C all
Ġd iff
ir c
iz er
as ure
Ġbe de
ĠHer ren
Ã¤l fte
l ar
n s
ĠP DF
ĠEr d
Ġiss ues
ĠB ill
Ġger ade
I tem
w ind
st ate
Ġteil weise
Ġe conom
ĠC amp
ĠSch ne
Ġn ode
ĠL age
ĠDre h
sch iff
Ã¶ ll
S E
Ġse en
Ġreg ion
ĠA ber
Ã¶ hn
ĠMe er
tag s
Ġein igen
ĠU p
end ar
Ġcomp et
Ġabs olv
ĠR iver
ĠJohann es
ĠG est
Ġper iod
Ġsom it
B ut
Ġne g
Ġstr ong
L istener
Ġv eh
ĠVerein igten
il ar
Ġer Ã¶ff
Ġst aff
0 1
Ġf ive
In t
as chen
Ġer reicht
iv il
ger icht
ge fÃ¼hrt
ter m
ĠwÃ¼r de
ĠJ ur
ĠO pen
ĠFre und
ĠHil fe
ch ar
os sen
ĠCh amp
H er
ed ic
ĠK re
ell ow
te cted
an lage
Ġ( =
ĠR ud
Â °
Ġk lass
Ġle icht
Ġp ick
b ro
w es
Ġz og
ug hout
Ã¤t igkeit
Ġpr ess
ĠgrÃ¶ÃŁ ten
Ġsel f
ĠHow ever
ĠW ash
ient en
b um
as il
ĠW and
ach er
Ġw ide
ĠG Ã¶
aff el
Ġe lekt
pro f
Ġl ock
gen cy
tr ue
as te
ĠK osten
Ġex t
Ġp aper
af fe
ĠVerb indung
x is
ĠB ud
ĠUn ion
ick en
Ġsome one
Ġass ist
A ccess
on en
ĠĠĠĠĠĠĠĠĠĠĠĠĠĠĠĠ ĠĠĠĠĠĠĠĠĠĠĠĠĠĠĠĠ
et y
ĠM ill
ĠM ult
ĠHe il
âĢ¦ ]
ad o
bo ard
Ġbie ten
Ġk ur
pe cially
ier ter
Ġnatur al
Ġc ook
Qu ery
ĠBr on
com ing
ra el
Ġpr im
ĠWill iam
ĠF ree
ĠR ang
Ġpr int
Ġcle ar
Ð »
Ġbe teil
Ġpre vious
f Ã¤h
ĠF ace
Ġzur ueck
h ib
ĠB ack
ĠBevÃ¶lker ung
8 4
ograph y
Ġwall paper
en ces
Ġw ent
Ġh ot
ĠFin anz
Ġens ure
9 4
ĠErn st
Ã ľber
Ġf alls
Ġ196 7
arbeit et
Ġaut om
Ġappro ach
get S
ĠK raft
am in
end es
Ġex pl
G em
for sch
geb ie
p ol
y a
ĠB aden
8 6
entwick lung
Ġp lat
ĠGe orge
ĠRe ad
St atus
ĠPhil ipp
c is
Ġerw Ã¤hn
Hand ler
h il
Ġwho le
Ġhal f
d in
ĠL aw
Ġwe iÃŁ
ges ehen
an ger
ĠC ent
Ġr ate
ges etzt
U til
ĠS a
Ġzu vor
Ġ196 6
Ġd ivers
ist ic
ĠKl oster
Ġrest aur
ĠNÃ¤ he
w ord
ĠJ es
Ġcl ient
Ġpartic ip
0 2
ail y
Argument Exception
Ġgen utzt
zeug t
rupp en
Ne xt
t c
ĠD res
Ġf oot
ĠF en
Ġlat est
ĠKarr iere
Ġl ength
ĠGe f
Ġs ing
ĠC ons
ik al
Ġsoll ten
Å Ĥ
Ã¤n gen
Ġakt iv
ĠReich s
schlieÃŁ lich
deck t
c il
ĠT ur
fe hl
t d
ĠEr fahr
Ġ5 00
F C
g g
ymn as
At tribute
Ġc lients
weg ung
Ġrec ord
an ted
Ġcho ose
Ġs ong
Ġ196 5
Ġ(âĢ ŀ
g liche
ich e
ĠR and
fol gen
tt y
ĠfranzÃ¶s ischen
P er
h inder
ĠM ond
ĠGes amt
W est
ĠK opf
Ġwir k
ĠT on
l ist
Ã §
rit z
U M
ĠM r
Ġat tra
ĠÃ ľ
Ġ193 9
ĠPol ize
ze hn
ĠSe c
C hr
Ċĉĉĉĉ ĉ
n es
ĠO f
ĠK auf
ĠSch wer
ĠSer ie
âĢľ )
ĠE lement
Ã¤t ten
Ġverb unden
Ġgem acht
ĠV orsitzen
ik o
Ġs ale
oll ar
Ã¤t zen
ĠPart ner
Ġentfern t
c urrent
ut il
Ġar r
ur al
ĠA v
ed ule
iz es
c m
un ge
Ġcurrent ly
w esen
ĠP o
ĠFl uss
arr iere
U m
ĠW ild
ĠSp rache
ĠAr ten
0 3
ĠB al
Ġge hen
ame ister
Ġby te
haf t
Ġstell te
ĠS in
Ġener gy
us st
d am
zentr um
Ġwrit ing
ĠI ll
Ġent ire
. <
F F
Ġevery one
ĠD eb
le cted
ĠW ein
ĠW all
ĠR oy
Ġsimp ly
Ġ Å
an gel
n o
Ġh ab
Ġchar acter
G B
ĠArray List
0 8
A B
I s
z iert
ĠGemein den
ĠF Ã¶rder
Ã¼rt temberg
v in
ten ded
Ġbel ieve
deb ug
ra in
Ġne ues
Ġent hÃ¤lt
Ġph one
ĠFr Ã¼h
ĠK ing
ann er
Ġit ems
Ġho he
ĠFrie d
aup ts
F ernsehserie
ĠEr folg
Ġfin ally
ĠMed ien
H ol
0 5
r unde
it ts
Ġp ain
Ġc ra
Ġdam al
C om
ĠI d
fl ug
ĠMin uten
Ġs il
ĠP op
est s
ĠO s
do or
jÃ¤hr igen
E X
g ment
is ted
ter e
f Ã¼r
ĠW issenschaft
Ġal most
Ġm ap
ĠP lease
Ġbef and
if fen
ĠVert rag
Ġbei de
Ã¼h le
Ġeduc ation
ĠZÃ¼r ich
P art
or der
Ġv o
ĠN am
iv ity
ĠAr me
lie ben
ade d
Ã¼ss el
Ġa ch
Ġne eded
Ġjed en
Ġt ax
ĠB on
St art
Ġto ur
Ġread y
Ġw ww
ar th
ĠM ein
Ġr en
Ġfr Ã¼h
os ph
Ġ196 4
Ġfol gte
Ã³ n
ĠHann over
Ġf ul
iz ing
Ġm er
Ġnach dem
ĠUnter stÃ¼tz
bed ing
Ġherv or
ĠC la
N umber
ĠB usiness
alys is
U ser
V iew
ĠSc ience
Ġp an
Ã¤ u
ĠG reen
i h
Ġw ollen
ĠT ier
par te
arbeit ung
it ar
le iter
Ġz ie
Ġa ction
wh ere
k le
Ġh air
zeit en
ĠS at
ĠR at
Ġsec urity
ĠL ong
lÃ¤ ss
idd le
ĠC our
ĠHer aus
T H
Ġg ute
Ġge legen
Ġpar ts
C D
P ackage
Ġc annot
Ġauf genommen
Ġfolgen de
Ġs ens
ĠL at
Ġde fault
Ġ- -
ze ugen
Ġup date
Ġindivid ual
0 4
g ere
Ġch allen
Ġvar iety
A ss
ĠW irk
Ġthro ughout
ĠH ere
ad a
ell ent
Ġ196 2
Ġ193 8
th ough
Ġaus gest
ĠL iga
ĠSt Ã¼ck
Ġfur ther
0 6
Ġin nov
ition s
N o
st ud
ĠU K
8 7
it i
ĠG leich
Ġal t
ende te
Ġ193 3
ĠH Ã¤lfte
ste hen
ĠA ct
Ġqu ite
Ġins ide
Ge ographie
Mod el
Ġp aint
ĠG al
ĠRe ise
ang s
Ġ196 3
Ġb ase
ĠFol gen
ig lich
tr ieb
ĠHer mann
Ġ193 0
l it
nd er
ĠF ig
Ġad ded
e ks
ar tet
ĠK ons
Ġto wn
ac es
itz er
tr ies
Ġprovide d
ver kehr
Ġgleich en
Ġhe ld
net en
Ġabs ol
9 6
ikan er
f ix
u c
Ġw issenschaft
Ġde p
> (
ĠSp ring
ĠMus ic
g as
y ear
Ð º
Ġbo x
Ġopportun ity
ĠIs land
leit et
p ass
imm ung
Ã¼l t
r ess
Ġide a
ĠA cc
Ġgew esen
ĠNew s
Ġ[ âĢ¦]
em e
la ger
ĠÂ «
us ter
ĠEner gie
S ource
T R
ĠH al
Ġl on
Ġvoll stÃ¤nd
fol ger
ĠDam it
. -
sp iele
Ġpr iv
ĠGe ist
ĠGra nd
ĠPh ys
all ow
ĠCh or
Ġw hether
ĠMar ch
9 2
Ġproject s
ĠV ideo
ĠSte uer
Ġk athol
ĠN ik
z we
Ġc ount
Ġ194 0
Ġknow ledge
ĠD enn
ĠSie g
Ġass oci
Ġmach te
p oint
Ġb i
Ġentwick elt
ain ed
ie ÃŁ
Ġbook s
ĠnÃ¤ch sten
ĠNach dem
Ġres ources
x y
ĠM ess
i pe
ĠA re
8 3
w irk
rit te
An y
Ġinit ial
w ill
he t
as c
ĠU s
Ġplan s
Ġf rei
ĠPla y
Ġd Ã¼r
sch riften
enn ung
Pro du
Ġse par
olog ical
ich ert
Ġproble ms
S C
Ġe ither
st ring
ig ungs
ĠT w
Ġp ark
Ġ19 20
Ġhe iÃŁ
lan gen
Ġunter stÃ¼tz
ĠAb s
orn ing
ĠBas is
f rei
Ã¼ ste
ĠWash ington
em b
Ġ194 4
K on
le cht
ĠT emp
ĠEx per
Ġd ir
Ġf ert
ĠAc adem
Ġs ites
el ten
Ġspiel en
le icht
ĠF rom
ra chen
Re c
ĠL im
Ġ196 1
L ine
w a
ver age
Ġtra ck
ĠSpiel en
Ġkein en
ĠSil ber
ĠWer ke
ibr ary
or a
ĠDies es
van gel
Ġw ays
ir th
Ġc elebr
S port
ge hend
ĠB und
ĠJ azz
ot a
Ġcom mer
letz t
olog ische
fass ung
ĠA th
ot te
Ã¶r m
erv e
ĠIllegal ArgumentException
Ġk amen
Ġcustom er
ĠV ir
Ġstand ard
Ġes pecially
Ġbu ilt
bet rieb
ĠDown load
ic les
ĠPh ot
v o
Ġm ove
g u
ĠPolit ik
Q L
Ġstud ent
M y
f ar
ste ad
ond s
Ġgener al
l iste
ĠT im
Ġint rodu
Ġho hen
Ġver lie
be zirk
ĠW ol
ĠSch e
d i
ĠD ach
S P
Ã¤ te
Ġrec ently
ĠBahn hof
ĠP sych
Ġro le
Ġr unning
Ġany thing
ĠBerlin er
Ġquest ion
Ġb ott
ĠW o
ĠW as
ĠAn ge
ĠStre et
ĠRe al
Ġ195 6
Ġentstand en
ch ange
0 7
r uf
Ġim ages
k und
k athol
ĠS ing
pro tected
ĠFace book
S ON
k ret
ĠV is
Ġcon tra
ĊĠĠĠĠĠĠĠĠĠĠĠĠĠĠĠĠĠĠĠĠĠĠĠĠ ĠĠĠĠĠĠĠ
R el
g al
at iv
Ġsh ows
Ġrec ent
Ġpart y
Ġger ne
mar shall
č ĊĠĠĠĠĠ
ĠM aÃŁ
ĠG re
b Ã¼rger
ĠU N
Ġam ount
Ġco ol
ĠBru der
Ġreg ister
ĠPhil osoph
ĠOt to
ĠF uÃŁ
Ġsch rieb
omm end
final e
Ġst op
Ġrelat ed
Ġsetz te
ent ry
Ġst ock
Ġtry ing
Ġe p
Ġamaz ing
Ġs we
Ġs tellen
ĠF ernseh
ou ver
tr ie
Ġ3 2
bo x
Ġeben so
isse ur
9 7
ĠÃ¼ber n
Ġacc ording
ĠD ann
ed en
Ġus ers
Ġinter ess
Ġlearn ing
Ġh on
ĠK ampf
pp ed
Ġne cess
O per
rÃ¤ fte
ĠMan agement
f ten
s m
an ken
ĠBÃ¼rger meister
ĠAlex ander
ĠH is
lic ation
ash ion
P oint
b ark
Ġc enter
Ġn ice
ĠTe ile
ĠauÃŁer dem
Ġaus gew
Ġt akes
Ġs le
ĠA uss
ig entlich
k ap
ed ding
Ġz erst
ĠLe hrer
d ien
or te
w art
Ġf urniture
ĠF und
ap ter
aliforn ia
L ength
Ġde f
Col umn
ĠEngl ish
S V
Ġmehr eren
ĠDo ppel
ĠAk ademie
E O
ĠRe gen
Ġbes uchte
Ġfin ancial
c ast
t est
Ġk ids
Ġj apan
Ġup d
ĠM ath
om s
ĠS l
ct ing
Ġst re
Ġr ule
F r
N ames
Ġe her
Ġso on
Ġ4 5
Ġdar Ã¼ber
Ġsign ific
P os
Ġ194 9
ĠGes etz
Ġs ummer
ĠL Ã¶
Ġvorhand en
le tt
we isen
Ġfor mat
M in
Ġt old
C olle
us ion
wohn ern
ĠWolf gang
er o
ĠCh urch
Ġequ ipment
wie gend
d t
Ġs onst
ĠE t
ĠNach t
B IND
all ery
Ġerreich en
l ern
Ġs end
âĢ ĺ
ang ing
ĠAmer ica
ig in
ĠF irst
ĠStud ium
ic ate
Ġpict ures
st art
Ġihr es
p lat
Ġw anted
et ten
ill ing
f ile
Ġw Ã¤re
ĠA st
Ã¤ um
ĠThe men
Ġhapp y
;; ;;
Ġv ari
ges tell
E d
Ġt ell
ĠMe x
BIND ING
re quest
z ip
mit t
ĠBr un
z i
Ġcom ment
rÃ¤ ge
Ġsel ten
9 1
S upp
Ġer ster
Ġre chts
Ã¤nd ert
Ġsub ject
Ġeffe ct
ire ct
ĠAus bildung
ve y
Ġpre tty
ĠGra b
ĠSchw arz
ĠÃĸ ff
Ġart icle
AM E
C ache
ran g
Ã¼ll er
Ġt aken
Ġt c
Ġtyp es
ĠB d
st all
Ġex tend
ieren den
ĠComp any
M A
W enn
Ġs ales
ig r
Ġse em
Ġper cent
ĠA uÃŁen
ĠEr sten
ho use
omm ission
Ġgemein s
Ġb us
ĠBe griff
rie ges
or ie
Ġf all
Ġp oints
ĠP il
ĠL os
Ġit em
oc al
ĠUm welt
ĠS on
ĠB us
neh m
i est
Ġm obile
Ġd og
G et
c ies
sch t
Ġspe ziel
Ġben Ã¶t
ic ult
Ġsp an
Ġfl ow
u he
in den
ĠN S
gel Ã¶st
St at
ĠLou is
Ġpre p
Ġ195 2
ĠD och
ig ner
ĠUnter such
c ul
ĠE ast
ĠL Ã¼
af t
mar kt
Ġal tern
ab eth
dr esse
Ġrece ive
h y
Ã¼ st
hr t
l ad
ĠW alter
ĠEn ts
Ġgeb aut
Te ilnehmer
F rau
ĠAut om
ĠLin ie
zie hung
Ċ ĊĠĠĠĠĠĠĠĠĠĠĠĠĠĠĠ
on ie
Ġp orn
ir ate
Ġver he
hal ts
ĠErgeb nis
ch end
ĠL ink
Ġver m
ist ent
ho ben
Ã¼ss eld
Ġest abl
ĠK ey
Ġste p
Ġbesch Ã¤ft
Ġun ivers
8 2
w esten
Le vel
ĠJe an
L ink
Ġb esser
ĠSt unden
ĠD or
cl ient
Ġ194 8
Ġc as
Gem ein
Ġ );
Ġcom ing
Ã¤nd ig
Ġ195 8
Ġlead ing
olog ischen
Ġbet rÃ¤
Ġmark eting
g or
Ä į
In teger
lichkeit en
H el
pp en
be ck
ĠverÃ¶ffentlich te
ro ffen
ĠW ebs
Pro v
Ġpict ure
k reuz
Ġerh Ã¤lt
q l
Ġp oss
ĠT om
Ġo il
ĠG as
ĠIn c
ĠFra gen
Ġprov iding
ĠT ime
Ġev angel
ĠfÃ¼hr en
Ġw ord
Ġk ont
zir ks
Ġex ception
hal te
ĠursprÃ¼n glich
n y
Ġs ession
le ted
ĠSt ock
vers ion
ĠChar les
Ġsaf e
ĠD okument
Con figuration
Ġactiv ities
G es
Ġp sych
Ġver ein
Ġ194 6
ĠAssoci ation
Ġs ent
ĠA ud
ĠC ms
Ġpract ice
ĠBrit ish
m und
Ġ195 7
Ġze igen
Ġsk ills
Conne ction
in os
T ag
ĠStadt teil
ĠProdu ktion
Ġl iter
Ġiss ue
ut her
Ġan schlieÃŁend
ĠInstit ut
Ġdiff icult
it sch
Ġre v
Ġapp ly
h i
aus ch
u it
Ġum fasst
Ġtreat ment
Ġb lo
Ġmom ent
ĠH essen
Ġd om
ĠC ap
O D
se qu
mer k
Ġins urance
8 1
s ie
Ġw ords
ĠRe cht
anst altung
Ġpat tern
g ien
Ã¶ sen
ze igt
unk ten
u hr
Ġ195 9
Ġcoup le
b us
Ġd et
or ies
Ġin spir
Ġm eine
M ax
T rÃ¤ger
f Ã¤ll
rie ch
Ġsp ielt
a ktion
Ġ195 3
unter nehmen
O P
Ent ity
Imp l
Ġal te
i w
Ġout side
Ġrepr esent
ĠS old
Ġm ix
Ã¤t ter
ĠKont akt
Ġs ave
ht t
ĠP unkte
ĠG i
Ġer ziel
ĠHe alth
ĠGl as
ĠFest ival
te in
ĠW ort
ĠSt il
Ġb ud
gen er
ho od
hÃ¤lt nis
osp ital
ĠFir ma
re ten
ur ren
Ã¼r n
ĠVer gleich
Ġrece ived
ĠKategor ie
ed s
l Ã¶sung
ask et
b ischof
ĠJ ac
ran sp
Ġphot os
n ow
ĠI T
ĠU R
k unft
st att
Ver lag
ĠJul y
b lick
ĠAuf trag
U E
Ġp df
Ġbe deut
Ġpar ent
= "
ĠS onder
ĠR en
Ġgir l
st ar
ĠG ut
ca pe
p hen
ĠL icht
Ġreg ul
Ġs ix
Ġh or
Ġconc ern
ĠA ugen
rit ik
Ġbel ieb
M ed
Ġf ig
ĠV oll
ound s
Ã¤d chen
Ġaktu ellen
d ata
ĠS und
ĠStand ard
ĠkÃ¶nn te
Ġup load
Ġ194 1
ĠGeb urt
ĠInstit ute
Ġwoll te
Ġc ut
Ex ec
Ġweiter hin
so zial
ĠVerein s
v on
er r
Ġf ix
P age
ĠM em
ĠK ranken
ĠH D
In ner
ĠEx ception
m Ã¶
Ġdec or
irat et
I nd
Ċ ĠĠĠĠ
Ġex pert
meister schaften
Ġprob ably
Ġd raw
Ġcor re
Ġw a
ist an
C T
b ased
il det
ĠH y
Ġg lobal
Ġdes cr
ĠDres den
ĠT ages
ĠW ell
Ġch anges
Ã¤l le
ĠGes und
Ġreg ular
ĠVert re
Ġth ird
m ission
la f
Ġwe eks
Ã¤ch s
Ar ch
ĠArbeit en
i ally
ĠT own
sch uss
ad es
ĠEr k
An not
Ġprodu ction
Ġdr ive
ĠPf lanzen
ĠMal er
C ms
ĠL Ã¤nge
ier ende
ĠCar ol
Ġval id
F ilter
ĠMar y
Ġstamm t
or ing
ĠK ern
if en
ĠOr iginal
trib utes
Ġ3 00
az on
lin ie
st a
ĠFra ge
fahr er
Ġhow ever
ĠMod ell
Ġter m
w ner
Ġ Ã¼b
Ġex pect
ĠI N
ĠI st
ĠL eiter
Ġdis play
Ġde g
ite te
app ing
Ġvers te
Ġehemal ige
d own
Ġc aus
ĠPr Ã¤
Ġst ream
ĠWh ite
u hl
v a
Ġyour self
richt ungen
Ã¤nd en
ĠAus wahl
ĠPr ivat
wert ung
l n
in fo
Ġf ra
Ġmed ical
ĠDan ach
ĠOct ober
r hein
as ten
ĠP ublik
Ġch em
Ġfr esh
o e
w al
Ġus ually
Ġwo od
Ġaddition al
Ġrem ove
aug h
Ġmind estens
h ips
Ġc oll
ĠW ider
Ġent halten
S etzt
ĠC alifornia
ĠZ uge
ĠPr inz
res ult
Ġne un
ĠNach folger
ĠR unde
Ġany one
ĠLie be
ĠK al
ĊĠĠĠĠĠĠĠĠ ĠĠĠĠĠ
ĠRe publik
Ġfin anz
Ġsignific ant
ĠS upp
w issen
y es
z Ã¤hl
Ġsol utions
Ġd ritten
ĠGeb ie
ĠBay er
Ġre fer
ĠBe k
ĠF ern
ĠSoc iety
" ))
ĠC up
Ġsim ilar
Ġp ool
att le
Ġval ues
Ġcomp on
ĠEnt scheid
F I
ro id
Ġcon fig
Ġeff ic
f amil
Ġth er
Ġer folgt
k arte
ell o
Ġro und
Ġcho ice
h ab
ver walt
Ġle ader
Ġpr ices
ĠW ahr
ĠAut o
Ġ row
de ten
ĠIn vest
Ġbes itzt
Ġincre ase
ĠgrÃ¼nd ete
is Empty
Ġd ro
Ġto uch
Ġex act
Ġ195 5
Ġbeh ind
D at
h ers
ber e
ĠDenk mal
a ill
ĠE U
Ġinclude d
Ġans wer
at ely
Ġne hmen
etz en
De finition
Ġabsolv ierte
5 00
z uf
P ort
ĠFl ugh
Ġunser en
ĠZu dem
ĠS Ã¤nger
ĠT at
ĠL ife
gen de
Ġfor ward
Ġstor age
Ġtro tz
Ġopt im
i i
Ġsp ort
Ġsc reen
ĠForsch ungs
ĠEurope an
or ten
Ġc y
Ġeinzel nen
O M
o den
se hen
Ġerh Ã¶
w ith
Ġnot hing
Ġunser em
ur a
ĠKÃ¶nig reich
ĠRad io
ĠServ ices
ĠI hrer
Ex pression
ĠUm gebung
ĠAl bert
Ġ195 4
<? >
l ingen
Ġge geben
te ten
Ġpr ior
Ġsk in
Z u
p ath
O ne
l ong
ĠSh ow
ad y
Ġmit tler
Ġex tens
ĠerwÃ¤hn t
ĠUnterstÃ¼tz ung
ĠSchl acht
Ġo ben
ĠL ove
Ġall ows
Ad dress
ĠL ive
ir it
Ġer ror
gr enz
Ġ194 7
Ġfavor ite
ĠR un
au b
piel t
rem ove
ĠPres ident
k y
ne ter
Ġpro perties
Ġsch Ã¶
Ġsch loss
Ġlook s
Ġm orning
Ġdo or
A cc
Ġsch Ã¶n
Ġind ustr
Ġt un
Ġeas ily
Ġ Ã¼
Ġzu ge
Ġj Ã¤hr
ĠBe zeichnung
Ġgra ph
Ġwirk lich
P f
icher ung
ĠS yn
ĠReg ierungs
ĠsÃ¼d lich
ĠRest aur
astr u
ĠS ome
pr Ã¤sident
er ror
ĠC le
ĠFran cis
Ċ ĊĠĠĠĠĠ
eh men
uf e
over n
Ġ1 000
Ġhigh ly
Ġm atter
ĠN icht
ĠVer Ã¶ffentlich
Ġex am
Ġsel ben
g ten
if ier
ĠSt ru
T ree
l ers
ĠSt amm
ĠAb geord
Ch ild
Ġbil det
Ã¤ ten
ĠI hren
ab s
Ġj Ã¼n
st aat
Ġpubl ished
g le
Ġm el
Ġso fort
itt ing
fr astru
T ER
om a
ĠIm m
chn et
Ġoff iziel
ĠT urm
uch ten
Ġwork ed
b ase
e hm
Ġ193 6
Ġwel cher
f alen
Ġme eting
Ġ+ =
ĠChe ck
Ġentwick elte
irate te
Ġd ocument
ĠM use
ĠH an
ay out
stre cke
Ġ194 3
Ġext rem
Ġf il
Ġge k
Ġprogr ams
kl us
Ġexc ellent
J ob
z og
at iven
Ġe mer
Ġgra du
ĠnÃ¶rd lich
ĠheiÃŁ t
b i
ce p
ĠS omm
ĠP unkt
ĠC re
ĠAl so
Ġdis cover
ĠInd ia
t itel
at ory
Ġm m
Ġ194 2
l ament
Ã¤ cht
ĠAn schluss
ict or
f Ã¶rm
te x
we ig
ĠMat hemat
Ġbil den
ĠFen ster
iqu es
Ġide al
==== ====
ĠP C
Ġw in
ot es
Ġbo ard
fra u
w s
Ġz ust
Ġse lect
Ġsie ht
ian o
ian ce
asch ine
as y
ĠnatÃ¼r lich
Â ®
at ten
get Value
Ur l
Ġm aint
Ġpl ant
ĠArme e
k unde
v ing
Ġb al
qu are
ĠOr d
Ġpol icy
ĠZentr um
d k
ĠD Ã©
Ġk aum
ĠKant on
č Ċĉĉĉ
Ġre lig
hen s
ĠJose f
m ap
Ġ195 1
G ra
g arten
j ust
ad ata
Ġse ems
a ign
ĠZeit schrift
ĠBl Ã¼
ĠUnternehmen s
D is
ic ip
ĠZ uk
ĠbetrÃ¤ gt
Ġp ers
ist ics
tr at
N ational
ĠS ingle
pe kt
Ġum fass
oun ts
V D
on ym
ĠE vangel
ĠN ur
S ub
b aum
Ġde ep
ĠDe partment
Ġble ibt
abr ik
ĠS Ã¤
Ġis n
ĠSo ftware
cont ains
r im
af r
ĠEx p
ĠS um
Ġro ad
T V
Ġa k
ĠB all
Ġrec ogn
ĠWien er
Ġm Ã¶
ĠD isk
Ġhig her
I B
c as
ĠD Ã¼sseld
rupp e
d om
Ġin de
Ġne uer
techn ik
Ġpot ential
Ġc ause
st attung
gel n
ĠGrÃ¼nd ung
I ter
Ġge d
Ġinternational en
Ġgrow th
Ġc rit
Ġun ver
ĠHer bst
M on
um in
Ġle ave
Ġbed room
âĢ ŀ
Ġl ives
L ong
Ġd ur
Ġre leased
ĠVer kehrs
Ġmar shall
Ġ rom
ĠS ign
Ġg round
Ġho tel
Ġrem ov
ĠStre cke
u ell
ie ur
ĠL OG
H E
Ġgesch lossen
ĠOff izielle
z ert
Ġlang uage
ĠA f
Ġmit tel
Ġr isk
ug ht
Ġimp act
ĠBre men
Ġpurch ase
ĠJ ung
ĠEp is
Ġrec ommend
ĠgrÃ¶ÃŁ te
Ġoffic ial
at tet
sch au
ĠIn teger
Ġre lease
ers eits
Ġlon ger
Ġst reng
Ġvor her
vers e
Typ es
Hoch schullehrer
M ail
yste me
Ġausge zeichnet
Ġconne ction
i ÃŁen
hl t
Ġla unch
ren ch
ĠProgr am
Ġreg ard
ff ic
ĠSp r
Ã¤r k
ĠQu alif
r c
er c
ow jet
get C
ĠAb end
ĠKir ch
b it
. ");
Ġt ransport
ĠR a
Ġcol umn
Ġâ Ĥ¬
ĠGr Ã¶ÃŁe
ĠSch Ã¶n
we chsel
ĠVer l
ĠRec ords
D r
t schaft
Ġw es
Ġf ail
pend ent
ĠAkt iv
Ġquick ly
ĠNach bar
pro chen
Ġbe ach
R em
Ġz uf
Ġl os
av es
ĠSch les
Ġout put
P at
ic ago
ĠI P
ĠJ ob
Ġwrit ten
Ġt im
ĠH aut
ĠK laus
ĠHe idel
Ġled iglich
P e
ĠAn g
M ark
Ġpl us
Ġverl oren
ĠAn s
ĠTeil nehmer
Ġreg istr
f il
Ġin fo
Ġj ava
ĠZusammen arbeit
grupp en
R A
ĠB onn
end ung
Ġex pla
Ġkn app
Ġpra kt
rei he
K E
i ation
ĠL eitung
Ġwor th
Ar t
Ġgu ide
ĠQ ue
r is
Ġgleich zeitig
ĠRes earch
ĠmÃ¶ch te
Ġd iv
Ġh und
ad el
ick et
atur day
ĠMar c
Ġgesam te
Ġkosten los
Ġplat form
ĠS ur
Ġsol ution
p ose
ĠTra dition
ĠTra iner
ĠGot tes
p ack
ĠG reat
zw ischen
D urch
Ġb ald
ĠB lick
Ġ3 6
ultur al
H ow
ĠL ake
Ġsl ow
Ġern annt
T ask
ĠPar te
Ġser ver
Ġsug gest
ĠHe im
Ġrem ember
ĠPol en
ĠDan iel
Ġl ate
ĠChamp ions
Ġs ort
ph one
ĠD azu
Ġk ennen
Ġup on
Ġges tellt
ĠBes te
ĠhÃ¶ her
ĠT ype
Ġg anze
Ġre qu
ĠOr gan
ĠPerson al
setz en
ĠK er
ĠH Ã¶r
Ã¼hr en
Ge grÃ¼ndet
Ġgar den
Ġin fl
ĠJ er
ud es
ĠAb schluss
Ġt ask
Ġb ank
Ġin j
ĠG ood
if ts
Ġpr Ã¤sent
ĠI V
ĠK ommand
iz iert
ateg ory
Me ter
Ġlik ely
pos it
ĠT enn
ĠO ption
ĠHoch schule
ĠFinal e
ĠSt rom
Ġwar m
ĠProdu kte
ĠF arb
halt ung
ĠfranzÃ¶s ischer
Ġbe ge
ist in
me hr
H T
Ġ ;
ĠZeit punkt
ĠH ard
fer enz
Ġapplic ations
ĠAcadem y
m atch
Ġc opy
aus t
Ġd ig
Ġe igentlich
00 00
ĠIndustr ie
Ã ¸
Ġh uge
Ġg lass
Ġl oss
ĠS uche
Ġz entr
teil en
Ġask ed
ĠJ ud
ot ing
ĠRoy al
bark eit
Ġs od
tt ps
forsch ung
ĠM icro
Ġbe ein
Ġmov ie
A fter
ĠF eder
Ġer he
ĠAus gabe
Ġeinz ige
und le
op en
Ġange geben
ig ation
ĠF ound
Ġl ower
Ã¶ ss
Ã¼n ft
Ġgew orden
Ġaktu elle
re ise
ov ers
ĠZeit ung
ĠInd ian
Ã¤dag og
A uch
Ġc ross
au ber
Ġ193 7
Ġcondition s
m o
ra p
Ġzahl reichen
fl Ã¤chen
inc ip
ĠK lass
af e
Ġinter ested
heim er
Ġje de
gemein schaft
ĠI S
By te
an lagen
ĠS tern
Ġpol n
ĠSchm id
Ġs etzt
Ġc redit
d s
w in
ug s
ĠBo x
alle l
bu ild
Ġd aily
ĠNe ub
ĠOr gel
Wh at
E urop
h istor
ĠLe g
spiel en
w ell
ess el
Ġpolit ischen
Ġcommer cial
P DF
p osition
fall en
amerikan ische
Ġdr ess
Ġmaterial s
ĠD ipl
ĠW ork
ĠOr ganisation
Ġb em
ul pt
ĠAn na
ri pt
ĠHand els
ed y
Ġr ather
Ã¤n n
ipp ing
Ġintern et
Ġpre m
ĠzusÃ¤tz lich
ĠEin wohnern
Ġtradition al
Ġt ag
ĠH art
ide t
Ã ¢
ĠMÃ¼n ster
van ced
ut ive
ĠH ash
Ġdec ided
Ġorgan ization
trÃ¤ ge
ĠW ass
Ġimpro ve
Ġd oc
ĠAll er
ĠAngeb ot
w el
is er
Ã¼ ge
Ġst ammen
Ġter ms
denk mal
ĠF ass
Ġ> =
Ġbath room
Ġin dem
se c
ĠSp rach
Ġplay ing
Ġcare er
Ġf iel
Ġwe ight
Ġtr Ã¤
Ġber eit
pr ise
Ġbring en
Ġeffe ctive
ĠSicher heit
at o
Ġro t
au te
ĠAr ts
ar ter
Ġh alten
ĠK as
Ġhe ar
Le gt
He ader
| }
Ġ1 20
g ibt
ĠWe ise
d aten
ĠL ar
Ġw ish
Ġw oman
ĠD ivision
end orf
Ġke hrte
ĠT ruppen
ĠP ers
ĠK u
get Message
Ã¤hl te
an cy
ĠU ms
schein lich
ĠÃ¶ffent lichen
ĠO k
Ġon es
ĠM aster
Ġfor mer
ĠFr iday
ymnas ium
ĠG alerie
S U
Ġe arn
isch em
ind ing
ach ts
ran ch
ĠVertre ter
k raft
ĠO x
zen e
B lock
d y
ĠS ter
Ġf ilter
Ġex pected
Ġsh op
Ġ19 00
Ġ193 4
Ã¤d t
Ġsw itch
Ġw r
ess ages
ie ger
rei ber
imm el
Ġd ise
im ar
Ġne igh
ĠÃ¤l tes
Ġn immt
ien ces
Ġje dem
Ġgir ls
Ġsch edule
Pro perties
Ġpos itive
o oth
w ir
ĠH om
ĠJ ak
print ln
S ession
d is
s a
u ted
Ġd adurch
ĠD igital
Ġver k
St ra
ð Ł
Ġro ll
ĠFre ib
AT ION
Tra cing
Ġveh icle
D a
u ert
Ġs al
Ġch ance
ath let
mut lich
TY PE
C ase
Ġn ames
les en
ĠTex as
Ġpie ce
w ide
ĠR Ã¶
ens ive
Ġbeg in
ĠKinder n
Ġo l
Ġl aut
on str
an walt
ĠN Ã¼rn
ĠZ wei
Ġ- >
rÃ¤ s
ma ÃŁ
Ġdamal igen
Ġverhe iratet
ent y
ĠP rom
ĠVol k
ĠP ublic
ak ers
ĠRo ad
ĠfranzÃ¶s ische
ĠSchauspieler in
g ers
Ġ3 3
k au
Ġh ttps
sch lÃ¤
ĠFl Ã¤che
Ġan alysis
Ġprov ider
ĠChrist mas
mus ik
y ing
it able
al ing
Ġphot o
Ġdev ice
W Ã¼rttemberg
ir ch
ver fahren
Ġhe iratete
ĠBe zirk
Ġpl anning
ĠJanu ary
Ġful ly
parte ment
ĠR itter
Ġfe ed
Ġd ream
Ġf iles
sw Ã¼rd
D A
N AME
re publik
Ġver lÃ¤
ĠAn lage
ĠY ear
Ġerm Ã¶glich
asket ball
Ã¼ cht
spr uch
Ġsaf ety
ie ÃŁen
Ã¼f ung
F irst
ĠS T
ĠA ust
Ġv ideos
ime ter
ĠG ro
ĠV en
Ġim m
id th
Ġbrit ischen
Ġtool s
ĠT it
ĠP orn
ĠK enn
ĠR et
ĠVer kauf
ĠIs rael
Jahr hund
if est
Ġ193 5
f unk
in ts
Ġs b
ter min
Ġst atus
Ġun it
Ġcomp lex
Ġben annt
Ġlo ad
oper ation
wissenschaft ler
ĠEisen bahn
Ġa ffe
âĢ ¢
ĠMar g
Loc al
ĠP ower
em ble
ĠKÃ¶nig s
ĠBest and
Ġc at
ul en
Ġgroup s
Ġatt ack
ĠFar be
ĠS S
ĠM ach
ĠSomm ers
k lasse
ĠS aturday
ĠSch le
Ġmult iple
ĠS C
Ġsch l
hol z
Ġimp lement
Ċ Ċĉĉ
Ġfor get
ĠVer wendung
Ġdar f
ĠFahr zeug
ĠAndre as
Ġbede utet
Ñ ĥ
Ġl isten
Ġfand en
lemen te
Ġf ant
ĠM Ã¤dchen
ĠK olle
Ġfin ish
D S
\ "
ur er
Ã¼ ft
ĠV iew
ab et
au x
sp ro
ĠPart y
B S
D P
ĠA ch
ĠM as
Ġtra in
Ġca pt
T P
Ġp le
Ġan z
p ret
Ġb and
ĠE th
oc ation
Ġdien te
A uth
un ion
ra uch
ĠIn n
Ã¤n gt
Ġph il
Ġdevelop ed
UL T
on om
Ġme chan
Ġemp f
reif en
m useum
ie gen
ĉĉ ĉĉ
M P
h Ã¤user
Ġs un
or gt
ĠM aschinen
Re ad
ĠR ou
Ġim med
Ġpar ents
ĠEng ine
Ġwelt weit
or th
kt iv
zie hen
hil fe
O C
Ġf irm
ĠR oll
ĠCh in
ĠEs sen
por ate
As ync
lÃ¤nd ischen
lav ier
Ãĸ sterreich
ĠGÃ¶ tt
ach ed
Ġge ts
al u
ĠS onn
Ġm id
Ã¼ gen
st anz
Ġleg al
Ġextend s
ĠH ill
ĠH alle
mÃ¤ ler
jÃ¤hr ige
m ax
ĠS ho
ĠM ur
Ġh Ã¤tte
Ġer forder
Ġconstru ction
Ġnecess ary
E is
P osition
ĠM Ã¼ller
Ġh it
ĠR um
Ġit self
Ġact ive
f unktion
ĠH u
ĊĠĠĠĠĠĠĠĠ ĠĠĠĠ
Ã¼ m
ĠP fer
Ġg reen
ag d
Ġch rist
zeich nis
Ġ* /
Ser ver
Ġinvolv ed
Ġd ra
Ġst ring
Ġweek end
lie fert
20 17
Ġbeginn t
Ġre pla
ĠCh icago
inn ing
m ont
Ġm o
ĠE st
ĠE ss
Ġer z
Ġdes halb
Ġzw eit
p unkte
Ġt itle
Ġe uch
ĠAr n
west lich
k unden
Ã¤ ste
ĠW ies
ĠL et
mittel t
Ġlevel s
is ierte
Ġs ag
Ġre in
ĠSt affel
ĠGr enze
Ġtr ip
Ġp aar
tra gen
Ġwrit er
Ġatt ention
ĠFot os
c up
r ug
it ation
ĠB ob
ĠD ir
Ġ3 4
ks am
ĠWind ows
utt ing
Ġg ives
Ġde ath
ib ly
hen swÃ¼rd
anstalt ungen
ĠS ym
Ġc irc
ĠAus stellung
ĠAuf gaben
Ġalle in
p i
Ä ±
Ġb row
Ġf a
ol ve
om ot
ĠEin fluss
Ġhand s
b as
ĠE ll
ock et
ĠBen utz
Ġs aw
Ġl ic
Ġpart ners
g arn
Ñ ı
ar es
ĠDe velop
Ġ15 0
Ġpolit ische
Ġjewe iligen
U s
V AL
Ġgo al
ĠQu alitÃ¤t
ĠSchw ar
UR L
ion en
Im age
wÃ¤r ts
b is
b rit
u elle
Ġin tens
Ġm ount
el a
ĠG ir
ĠW in
Ġg old
ĠN ic
Ġwer de
ĠfrÃ¼ hen
at al
Ġcoun tries
Ġdirect ly
Ġf air
Ġh ous
Ġ19 14
ĠFÃ¼r st
ĠComp uter
Ġdistr ib
h agen
Ġrelations hip
R ad
b ilder
Ġt en
Ġc abin
Ġh um
()) );
ĠNutz ung
Ġgesam ten
p erson
Ø §
ar ies
ĠW oche
ber eit
Ġmach ine
By tes
ĠP or
Ġaus schlieÃŁlich
ĠBe im
ĠGer ichts
aug ht
r al
ĠG attung
Ĩ Ĵ
ĠWeit ere
W ie
Ġj Ã¼d
Ġhe ll
for men
Ġwen ige
hockey spieler
Tracing Enabled
ĠT Ã¤tigkeit
Ġhand le
Ġcreat ing
Ä ĩ
Ġa verage
im inal
ĠL ied
ab il
Re ader
Ġbl ue
alle y
ĠKompon ist
Amer ikaner
l ings
ahr en
pen den
Ob jekt
verwalt ung
D ir
Ġe inger
Ġfr ame
ĠH off
amerikan ischen
ar io
ĠF ak
ra ct
ĠW ander
Ġst ation
r um
ĠHe iligen
er weise
is Any
br idge
fr ont
ipp ed
ĠAngel es
Ġc ases
ĠD ata
ĠE duc
Ġan im
lan k
Ġjed es
ĠBes uch
G er
ĠRud olf
p a
ĠIn str
ind ungen
Ġse ek
hn t
ĠWh ile
Ġrep air
p ers
Ġzu letzt
Ġbeteil igt
isAny TracingEnabled
ĠS y
Ġ4 00
ĠHÃ¶ hen
g roup
ĠS atz
Ġc andid
ĠM and
Ġarch ite
C o
an i
ĠL ok
Ġer baut
ac ity
Ġgen ommen
b our
Ġb ere
Ġm ot
ĠBe ach
Ġno te
Ġcl oth
Ġg riech
ĠZ uf
ĠMag az
Ġwonder ful
h le
r ig
r id
Ġs us
ĠA tt
ĠE dition
ĠW erner
Ġannoun ced
id ents
Ġun mittel
Ġad ministr
oh ol
s ystem
in y
Ġ19 18
Ġse ction
ru it
ĠFot o
T hre
Ġse lection
iz ier
ĠspÃ¤ter en
Ġplay ers
h op
() ))
ĠColle ction
ĠWei hn
wissen schaften
ĠDÃ¼sseld orf
ch ner
ic on
ic kt
ĠRich ter
Ġregel mÃ¤ÃŁig
D eb
S erv
ĠAt lant
M atch
ĠM ail
ĠO ver
Ġpass ed
M ode
n itz
ĠAl ten
ĠBau ern
ĠV an
Ġprogr ess
ĠtrÃ¤ gt
ĠC ast
ĠBes onder
ĠMed ia
henswÃ¼rd igkeiten
R ule
ĠS icht
ĠF ritz
Ġl ost
Ã¼r k
ĠAn gaben
Ġab ility
haus es
F amil
S I
we ile
so ft
Ġb rachte
Ġk rit
Ġnot wend
forder ungen
B ase
Ġw edding
as ons
ul y
hal le
amp les
ĠErgeb nisse
ĠerÃ¶ff net
ĠD rei
Ġro ot
ĠC anada
ah nen
Ġreview s
E l
st Ã¤tte
Ġoffer ing
Ġlar gest
Ġexist ing
b ody
in sel
Ġth ous
schaf ter
b orn
ĠT ri
ige m
Ã¤hr t
gew iesen
Ġsm art
ĠSund ay
k ra
ĠS ib
Ġver z
lin ge
org ung
ĠMon ate
ĠCol or
ĠBrand enburg
R uft
Ċ ĠĠ
Ċ ĠĊ
ĠG lock
ĠG overn
Ġcolle ge
Ġble iben
ĠZ usch
Val id
H ttp
Ġt hr
os ed
ink el
esen ted
Ġsuccess ful
L ast
ĠK omb
Ġ7 5
Ġehemal iger
allow ed
C ON
l ation
ar kt
im ension
la x
stand s
Val ues
Ġsen se
Ġstreng th
ind est
ĠRev olution
t a
ĠZ immer
ĠgroÃŁ er
Ġbek ommen
Ġinterest ing
ĠS amm
ĠM un
ĠA R
Ġn ov
ĠK ra
ĠC y
Ã¶ p
ĠSm ith
Ġbenef its
Ġpart ner
ĠSpe zial
ĠProble m
ĠZuk unft
Ġb irth
ĠP ubl
ĠÃ¶sterreich ischer
Ġ( "
Ġer setzt
V ari
g Ã¤nger
cre en
ĠWer te
Ġklein er
b latt
ĠAn schlieÃŁend
ov en
Ġro ck
ĠTechn ik
Ġhinz u
aupts Ã¤chlich
ĠD amen
la y
Ġser ious
B A
ĠF ernse
pp e
Ġ192 8
imat ely
trie ben
it ial
ĠFamilien name
Ġexperien ced
ĠE very
Ġl angen
ĠDec ember
ĠJes us
d at
Ġf lex
Ġan aly
ho den
Ġsupp l
ĠunterstÃ¼tz t
h orn
ig ungen
ĠBe zirks
Ġ ign
ĠR ennen
ĠV ictor
Ġge fÃ¼hrt
lin es
ĠOff ice
Ġlim ited
re chen
ĠS om
Ġde pend
St ore
Ġbusiness es
Ġw ider
Ġf arm
Ġaktu ell
k ampf
ä ¸
ie fer
ĠM erk
ot o
au ern
ĠAn aly
Ġf ashion
Ġar ray
leg ung
] ,
Ġd ark
Ġent scheiden
ĠBo ard
ge legt
Ġp ages
ĠH on
Ġ19 19
Ġwe ather
Ġd ich
ĠS ar
and a
Ġpro per
mit glied
Ġinst it
ĠFlugh afen
Ġcons ult
Ġstart ing
ĠNam ens
Ġg iving
ĠLe on
ĠHerr schaft
ĠRel ig
' d
at ives
ĠM ost
ĠMed izin
C re
Ã¼ nen
id ung
Ġso uth
ĠLe icht
Ġapp e
lef on
wind igkeit
ĠB ul
Ġgo es
Ġbu ilder
ĠBild ung
Ġpat ients
ĠvollstÃ¤nd ig
ĠÃ¼bern ommen
ĠW ood
f alse
Ġrequire ments
umen te
Ġgrow ing
A ut
Ġv ac
Ġbe hand
Ġwir tschaft
Ġout door
ĠMus iker
Ġinst ru
Ġactiv ity
" :
P l
at oren
gew icht
C C
ĠS ach
ĠT agen
ĠMe tern
com es
ron ic
ĠSpe cial
ĠNatur schutz
ĠVorsitzen der
il i
20 16
ĠLeist ung
unsch weig
j o
ĠS V
us ed
ĠM ik
Ġall gemein
Ġac cept
mittel n
f ur
r ies
Ġs an
or ial
ber s
Ã¼r gen
Ġschw arz
Ġarbeit en
Ġangeb oten
Off set
in put
âĢĿ .
ĠStru ktur
ĠC O
iel ten
Ġpre d
h old
el ine
ĠD arm
ĊĠĠĠĠĠĠĠĠ ĠĠĠĠĠĠ
ken nen
R un
Ġn utzen
Ġg Ã¼nst
chn ung
W riter
Ã¤nd ler
l ike
ĠG olden
Ġbe gan
Ġwe ar
aut or
ĠZusammen hang
ĠPort ug
cle ar
Ġcamp aign
M at
P reis
m ore
ĠS ammlung
ĠInter esse
Ġs old
se x
Ġpre fer
Ġcomplete ly
ĠFlor ida
Ġricht ig
ĠC entral
ĠLe x
spr ung
Ã¶rder t
temp or
Ġf ab
il a
ĠSt iftung
Ġ3 8
ĠDe v
ĠWe chsel
ms el
ch em
ĠH ir
ĠL aur
Ġges etzt
v olle
ĠB lock
ĠW ik
ĠC are
Ġent w
Ġmy self
zahl en
Ġin stead
Ġse ien
ĠBl ue
Ġenc our
ĠBeit rag
Ġindividu als
Ġabsol ute
Ġg ro
irt ual
ĠPf lege
Ġgesch rieben
ĠUR L
N A
W ork
e es
Ġm other
ĠM acht
em it
Ġle bt
s es
ĠT ransport
ĠW ater
( '
B ahn
f rom
ĠÂ £
Ġ192 5
stÃ¤nd e
ĠHinter grund
D B
Ġb ul
Ġ6 5
ap ie
Ġm aster
Ġl Ã¤nger
Ġdurch gefÃ¼hrt
ĠBl og
Cont ainer
Met hode
P olit
r ats
v ier
w en
ĠBe handlung
wer ks
ĠFr ont
Service Response
ĠStÃ¤d te
re chts
ĠL ight
Ġj unge
Ġsom et
ĠForsch ung
A ction
l or
Ġs ynchron
iz ations
Ġqu ery
Ġbet re
ĠGl Ã¼ck
is tet
ĠR ing
ĠChrist oph
ĠHeidel berg
F ol
w an
am ous
ĠW ed
ate ur
Ġj ungen
geb racht
Ġ193 2
ĠMen sch
AT E
cript or
ĠverfÃ¼ gt
ĠJ SON
ver lag
Ġob tain
ĠL ager
Ġag re
gang s
b ul
Ã ½
en te
ĠS onnen
Ġc ell
Ġhom es
sub string
ĠT able
Ġl ux
ĠStud io
Ġfun ktion
Ġw ait
il ing
qu ence
Ġ4 8
Ð° Ð
F re
à ¸
Ġder zeit
Ġres olution
eld ung
O W
Ġt al
ar p
Ġver d
ĠQu ellen
laub t
Ġdefin it
ĠVerwalt ung
ĠArchite ktur
S k
g rad
Ġent lang
ied lung
ĠBr Ã¼
Ġstru cture
Ġt Ã¤
ĠC all
W Ã¤hrend
it ude
ĠW irtschaft
S piel
m ie
ĠS Ã¶
Ġn ature
ĠR Ã¤
imp le
Trace Component
K ultur
s ervice
ĠK lavier
ĠZeich en
Lo ader
Up date
ĠVo gel
ĠPolize i
D I
c ause
Ġe le
Ġh our
we chs
ly ing
ĠBeruf s
ĠWebs eite
G ruppe
k ont
at ung
Ġbe legte
ick ets
Ã¶l f
Ġdec ision
ĠMond ay
Ġge prÃ¤
Ġver hinder
age gen
ĠFran ce
Ġspe ed
aw a
Ñ ĭ
is ions
al led
Ġe dition
ĠCoun cil
ĠAustral ia
Ġ Ã¶stlich
ĠNe ue
ĠEn ter
ĠT hen
Ġk aufen
Ġ} );
Ã¼t te
ĠOp fer
Ġverkauf t
is ation
ĠS un
ub en
Ġor igin
Ġch ines
ĠPro ject
ĠDar stellung
Ġd ry
En um
Ã¤ll t
ĠWe hr
N eben
r ight
ĠS aar
Ġh auptsÃ¤chlich
ĠJ os
sp rache
anz er
Ġinter view
Annot ation
V ER
n amen
ber n
ree k
u id
st ream
ĠW etter
ot ten
ers ey
Ġ192 7
Ġaut omat
m y
Ġg ift
ĠL ast
k om
el and
ig an
et ts
wer te
ĠÃ¤l ter
ĠG Ã¼n
Ġpro p
ry pt
Ġverb reit
by te
Ġthink ing
Wer ke
P A
Ġb orn
ĠB rown
ĠSt atus
Ġun be
Ġbest Ã¤t
or et
ĠG ran
ĠCont in
Ġp en
od ing
Ġar g
Sch w
ĠDire ktor
h ost
n ungs
Ã £
Ġo wner
ĠRe p
wer be
Ġander er
w ise
In s
Pro cess
Ġhelp s
Ġmus sten
Des cription
ĠZust and
m esser
Ġat tend
Ġcons um
oot ball
Ġroom s
Ġstor ies
ĠHome page
ĠSoc ial
A ug
Be an
Ġsur round
Ġf ine
ĠL ux
Ġver treten
iz en
Ġcont ains
res ource
Ġpolit ical
K arriere
Ġ Î
ĠDeutsch er
Ġgel ten
ĠPrem ier
ar ante
ĠP ier
roll er
p ossible
iss ions
Ã© e
Ã¶st lichen
Ġcomfort able
ĠFried hof
Ġsod ass
N ieder
P RO
re u
Ġch urch
reg ierung
Ġwest lich
ĠFar ben
Prov ider
Ġt emp
is abeth
ĠP enn
ad rat
Ġaus getragen
ĠAm azon
ĊĠĠĠĠĠĠĠĠĠĠĠĠĠĠĠĠĠĠĠĠĠĠĠĠĠĠĠĠĠĠĠĠ ĠĠĠĠĠĠĠĠ
Che ck
ĠÃ¼ br
ĠPro zess
Ġhistor ischen
ĠIde en
ĠCour t
ĠL ig
Ġbas ic
ĠBÃ¼ cher
Gemein de
Z ur
r d
ic ed
20 15
Ġ192 9
Ġerw eit
d ouble
Ġv iol
ĠKom ment
h ere
r t
at i
ass el
ĠChar akter
gy pt
ĠE hr
il lage
ĠE lect
ĠSch lag
Ġit er
chn ik
ĠUr s
ach im
ĠGr enz
Ġsho pping
m and
Ġs ah
or re
ĠGe heim
Ġelement s
f ast
k irchen
ĠK ult
ĠW omen
eb e
St ud
S ec
ĠL Ã¤ndern
ikan ische
Ġe th
ĠV arian
Ġver antwort
ĠVer fahren
Or der
spr icht
C al
Ġt ree
ĠKar ls
Ġmod els
E hemal
ĠP aar
ĠL i
Ġum fang
Ġus es
ĠV ize
er al
Re f
mit ted
ĠSm art
Ġ ult
ib el
ign ed
iat ely
leist ungen
H ier
d ire
ĠM Ã¶
Ġver gleich
Ã© s
zeich nete
Ġhigh est
Ġbesch rieben
ĠVir gin
il den
uck er
Ġrelat iv
Ġopportun ities
Ġthe msel
ĠEn gel
ĠGegen satz
Ġb aby
ĠC ode
ĠN ummer
ĠLand schafts
ĠSer ver
zieh ungs
kret Ã¤r
c lose
Â «
tem pt
Ġexp and
ĠD ah
ĠSchw ester
z if
ĠM att
ĠF lo
aut en
tra iner
ock ey
ĠPol y
Ġphys ical
am ing
Ã¼nd ung
ĠHaupt stadt
ow a
rÃ¤s ident
F unction
Ġd omin
Ã¤ her
Ġunter st
Ġschw ed
C A
Å Ļ
ĠL ab
Ġer inn
Ã¤uf er
Ġthemsel ves
ĠK ohl
od or
Ġso ft
ustr ie
Colle ction
ĠE vent
par se
omm ern
Ġtra gen
Par am
Ġsol che
ĠâĢ ¢
Ġlog ger
Ġcost s
ãĢ ģ
O ber
ĠB a
Ġbec ame
Aus zeichnungen
Ã¼hl en
Ġwind ow
ĠJ on
Ġcla im
L S
S Ã¼d
s ere
Ġcon du
20 11
Ġpre uÃŁ
k ord
Ġre ve
Ġ19 10
St adt
ĠProble me
Ã¤ss er
ĠA P
ĠE re
ĠH istory
Ġex press
Ġex hib
Ġerst es
Ġg uten
ul s
Ġnam ed
ĠDÃ© partement
Ġd ein
le ger
uck y
Ġerziel te
k omp
ĠG ust
th ur
ĠHe ute
Ġfamil ies
Ġeing esch
h och
Ġt ats
ĠIn t
Ġun ten
ĠWe iÃŁ
Ġdesign s
tain ment
htt p
T arget
Ġs yn
Ã¼ hm
Ã¤ ische
ĠL ieder
Ġpla ces
Ġ193 1
D o
ĠF rench
ĠH ause
sch auspieler
Ġun abhÃ¤ng
Ġsp orts
ĠTra ining
A dresse
h auer
ĠO h
pr Ã¤sent
ĠBes ucher
200 9
Ġwichtig sten
an geb
te uer
Ġg rand
Ġver mutlich
Ġ4 2
ĠZ us
Ġsp end
ĠBer eits
De fault
ak s
Ġfre qu
Ðµ Ð
leist ung
ĠPra xis
Ã¼ che
ĠL eit
ĠL ieb
ĠV iol
ĠPr im
ĠPar lament
Ġann ual
p at
Ġs and
Ġge halten
all er
ese hen
Ġâ ĨĴ
ĠO ld
Ġstat ement
k g
us er
Ġn ation
ĠPro p
ĠMod el
ĠverlÃ¤ uft
i ant
Ġn ied
Ġh ar
ĠSt reit
Ġbet rieben
Ġnor th
Ġwicht ige
ĠRuss land
n ummer
t or
un te
Ġgew innen
Ber lin
Ġdivers e
gor ith
Ġb uffer
Ġm ention
d ar
Ġe ye
ĠD et
Ġh arm
urs day
Ġsomet imes
ĠT emper
ĠR og
par ator
gew and
m acht
r as
Ġw ild
Ġn umer
Ġl ots
ĠHen ry
en se
Ġs on
ĠS uch
Ġn omin
ĠW ettbewerb
Par ams
Ġgleich nam
Ġav oid
Ġmethod s
Ġaff ord
Ġfert ig
u gend
aus piel
ĠAn th
ĠString Builder
Ġbeginn ing
Ġleb te
Ã¤ den
ik ations
akt iv
pos ed
ĠKap elle
ĠElekt ro
an ien
el la
el se
ĠT iere
fÃ¼ hl
Ġback ground
d as
i xt
m osph
y les
Ġex erc
Ġdar in
h aps
m ond
cl ude
r ick
ï ¼
Ġhe ard
ĠAl fred
Ġev alu
ĠBl ut
ĠNational sozial
-------- --------
Verein igte
Ġcorre ct
D irect
f Ã¤lt
u an
w ach
im me
Ġweiter er
ĠApp le
ĠVier tel
ĠSant a
g ut
it ness
al ed
ĠA ff
Ġp ackage
and ers
Ġan ges
Ġsp ot
Ġstr ess
stru ktur
reit ung
ĠBra unschweig
? ?
T E
Ġd auer
ĠS PD
ĠW agen
Ġk lar
St ack
ues day
Ġgeb racht
Ġprom ov
I A
d urch
ĠS us
Ġdar an
Ġplay ed
Ġmov ing
ĠPat ienten
g ab
g ner
l uss
Ġl au
ĠNieder land
B and
Ġ19 21
Ġor ient
Ġfol gt
Ġest ate
ĠÃ¤ uÃŁer
ĠSpan ien
y ond
Un it
pl ant
ĠFreib urg
B l
ur b
Ġst uff
Ġbest immt
Ġ192 6
Ġd ient
un i
Ġm otor
ĠH und
Ġwieder um
fr iend
Ġverl or
eign et
Ġs ell
ĠT ar
ess ions
lie der
res p
unk el
Ġsub s
Ġpol ice
ĠBas el
Ġdescr ib
Ġm ilitÃ¤r
Ġver lieÃŁ
sel ben
Ġchange d
ĠBesch reibung
w eite
Ġl ok
20 13
Ġste ts
ident ial
D ouble
Ġst ieg
ĠAl tern
act ive
ĠBetrieb s
Ġd etail
Ġh ielt
ĠG ame
ĠR enn
Ġst age
Ġex clus
ĠÃĸ l
ĠRegion al
ĠCommun ity
ĠS ound
Ġcon ven
Ġfe et
Ġoff set
ĠMann schaften
Ã¡ n
Ġsogen annten
Ġm iles
Ġlie fert
200 8
Ġc ulture
Ġad vert
ĠFir men
Spe c
Option s
t l
Ġf uer
Re ference
b a
Ġw ife
ĠSt off
ĠÃ ī
ĠOr ganis
olog ies
ĠMan ager
stit ut
Ġexact ly
re ci
Ġp et
ck len
De c
Ġarbeit et
p ace
ĠR y
Ġver pf
Ġplay er
ĠFebru ary
Ġt emper
nd en
el f
Ġor d
ĠCon ne
Ġown ers
ĊĠĠĠĠĠĠĠĠĠĠĠĠĠĠĠĠĠĠĠĠĠĠĠĠĠĠĠĠĠĠĠĠ ĠĠĠĠĠĠĠĠĠĠĠĠĠĠĠĠ
Ġerschien en
ĠerklÃ¤r t
t i
w ander
Ġ3 7
Ã¼ck t
20 10
ĠSpiel zeit
ĠSc ott
n ational
Ġto wards
ĠW ach
Ġal bum
ap y
In put
ĠMar ie
Ġd ynam
Ġs atis
ist a
our ney
tr ans
20 12
ĠĊĠĊ ĠĊ
Ġsett ing
č ĊĠĠĠĠĠĠĠĠĠĠĠĠĠĠĠĠĠĠĠ
Ġc ru
Ġsc ience
Ġpos it
Ġhol iday
iti ative
Ã£ o
R et
Ġt ried
ĠT schech
Ġbrit ischer
ĠTurn ier
ĠFound ation
F ound
N S
p m
re al
ĠD ub
Ġur l
gef Ã¤hr
Ġb all
gemein den
Ġjob s
Ġeurop Ã¤ischen
wes ome
Deb ug
ĠF ischer
Ġein st
ĠSt an
Ġver fÃ¼g
Ġcon trib
Ġsp ent
Ġcar ry
Ġs ymbol
Ġer fÃ¼ll
Ġst aat
ichte ten
Ġf ight
geb nisse
r est
ĠâĢ ļ
we gs
oun ter
Ġwest lichen
Ġconsider ed
ĠD ro
ĠG ene
Ġg anzen
Ġent deckt
ren nen
stand ing
Ġgesch affen
Ġamer ikanischen
Ġfinanz iel
ĠEduc ation
. ),
ot al
tr al
In valid
Ġche ap
ĠÃĦ nder
tempor ary
g on
l Ã¤nder
us te
Ġg ere
ĠV illa
gr am
Ġrepor ts
P ass
d b
j ava
kt ions
ĠZ entral
lan z
ĠPe ters
ĠInter view
ol es
ut n
ĠH it
ĠW estern
ist ance
Ġer f
Ġtrans fer
Ġcreat ive
kn own
Ġrepor ted
Ġill ustr
ĠNÃ¼rn berg
ĠK ammer
amer ika
Ġcoll abor
er er
ĠB Ã¤
ach ing
ĠU ser
ĠÃ¼ber wiegend
âĢĿ ,
wor ks
Ä ģ
ĠR is
get Class
unn el
war en
Ġsle ep
Ġsag te
x x
Ã Ħ
ze ption
Ġgr und
ĠFe hler
ĠDistr ict
b on
ĠM ah
ĠM ov
ĠF ield
ĠVer kehr
gangen en
Ġb ill
ĠDar Ã¼ber
D on
Ġd edic
as che
ten ance
Ġst ates
Ġhe at
Ġsuch en
Ġbeh av
ĠmÃ¶ch ten
ing u
ro te
ĠR am
ĠSp Ã¤ter
fin den
Ġschool s
Ġass ess
Ġeng ag
C P
O K
Ġp f
ĠF isch
Ã¼ck sicht
Ġtra de
lÃ¤uf er
ĠAller dings
c s
Ġlim it
ĠHers teller
H ash
Ġm il
gr iffen
ĠGr Ã¼n
ãģ Ħ
Ġ192 3
Ġh Ã¤lt
ĠSt ation
Ġde ad
ore a
ĠEin fÃ¼hrung
Ġar gument
ĠMen ge
ĠÂ §
Bau werk
brit ann
W eit
Ġs ym
Ġw issen
ĠI ndex
ow ski
Ġdem onstr
ĠEin s
ac ters
atur en
ĠPap st
Ġin sp
ĠH aw
la h
ĠGe h
ĠdÃ¼r fen
Ġ19 12
Ġvers ucht
ha ber
Ġwr ong
Ġunmittel bar
h ow
Ġm ill
ĠAuf bau
stit ution
ĠBed ing
B undes
P AR
in ary
Ġa f
ĠP en
let ter
A X
s l
is ieren
ĠD ouble
ĠP ak
Ġk anad
Ġre li
Ġ5 5
Ġsupp ly
Ġcl ub
gebie te
Ġf lat
im in
Ġk om
Par ameters
W arn
Ġe yes
ĠCh ild
ĠGroÃŁ en
ĠFÃ¼hr ung
ĠSold aten
ĠGÃ¶tt ingen
Ġv ict
ce ed
ĠIn tegr
au d
ran ce
emin ar
Ġe b
ak ed
ff er
ĠNach richten
Ġh y
ist isch
Ġbut ton
Ġlov ed
Ġwahr scheinlich
ĠSchmid t
Ġt ips
rie be
Ġcomp leted
Ġmehr fach
T op
ĠH afen
Ġl ands
ĠReg isseur
Ġgew onnen
gew Ã¶hn
lev ant
Client Exception
A F
o ÃŁ
Ġver t
og a
Ġunter s
ĠVor der
ific ate
ĠDem okrat
Ġzerst Ã¶rt
ĠR od
B esch
Ġin zwischen
ĠJ ones
ial e
stell er
Ġinvest ment
arl ier
B ox
V e
c an
w itz
Ġsp Ã¤t
ĠGer hard
Ġmein er
ĠSim on
ĠBlÃ¼ ten
Ġr ights
ĠVer d
Ġ6 4
ĠNieder s
ĠCent re
Ġg as
ĠAn teil
Ġres pect
ven ue
Ġadv ant
A utor
ies ter
ne ur
Ġwas n
Ġpre vent
Ġfriend ly
Thre ad
Ã ±
al te
Ġb atter
ĠL ib
ien en
ak a
fra gen
los en
Ġzw Ã¶lf
Ġgef Ã¤hr
Ġhealth y
Ġbestimm ten
h te
r Ã¤t
ĠP unkten
ĠV om
ĠAd olf
ous ly
Ġemploy ees
ĠSied lung
M ill
j i
ĠB rief
d ach
ĠB la
ĠMar ine
Ġpre c
cklen burg
K reis
Ġv Ã¶ll
ĠD ank
ic ations
ĠVer teid
sp er
Id ent
Ġ< =
Nach dem
Ġconne ct
II I
T ION
m Ã¶glichkeit
ĠP a
ĠJu den
ĠStand ort
Ġdarauf hin
Ġunderstand ing
Ġpur pose
ĠA C
ĠE ck
hÃ¶r den
Ġfol gten
ĠJak ob
Ġs av
ĠF un
Ġg esehen
hand lungen
E W
Z um
ic ing
Ġle gte
Ġsp ring
ĠAl pen
ĠOr te
ĠGes pr
Ġpass ion
ĠSer ies
Ġclass es
ĠsÃ¼d lichen
Ġsing les
ĠL iter
ip es
20 14
iss ert
Ġlet ter
denk mÃ¤ler
zieh ungen
O p
v i
ĠP S
ĠC at
Ġun bek
Ġcon cept
ĠÃ Ĺ
ĠAb st
oh le
Ġcol ors
ĠBron ze
H L
he m
Ġf elt
ĠB ett
Ġleb ten
West falen
ĠId ent
ĠOx ford
Ġd agegen
ĠS n
Ġre lax
ĠBe zug
B ar
ĠE igent
ĠC ross
ĠSt immen
lo ok
ĠMet all
deutsch en
ĠD VD
op old
ĠAut ob
Ġc lin
Ġso c
Ġob wohl
Ġoffer ed
T A
lie fer
Ġfeel ing
Ġcap ital
Ġcent ury
ĠDevelop ment
S ett
n ern
p ite
ĠA N
ĠSt ahl
os ite
up s
Ġapp reci
Ġblo od
k osten
v as
if er
qu is
ĠTh ursday
Ġserv e
IN E
fel der
an ischen
Ġl ines
Ġmit tels
Ġr ates
ĠAuf gabe
ĠAut oren
ĠSin ne
Z eit
Ã º
ĠS up
Ġp al
ĠH uman
ĠRe chte
ob by
ĠHe er
rif f
vers ammlung
Ġtechn ical
ie fe
ĠEl isabeth
ĠSchul en
t y
ĠS tell
ĠK rank
ĠEr inner
Ġpar se
For m
Ã¤hn ung
Ġ192 4
Ġappro x
Ġbro ught
Ġw ants
ĠD E
lin ik
n ode
Ġ Ã¶
ar ge
ro ck
ĠF ind
pro gramm
z one
Ġ il
Ġc ards
ĠL y
ĠL ind
Qu ellen
D en
Ġs em
ĠM ission
Ġh op
Ġwe g
Ġent spricht
ĠAb teilung
Ġdeutsch sprach
Ch ange
ĠBild ungs
hol t
Ġview ed
ĠwÃ¼r den
Ġdeliver y
Ġdise ase
s itz
Ġf em
ĠT uesday
The ater
Ġentspre chend
b ibliothek
e ch
t op
Ã ´
ro at
ĠH orn
Ġg ave
ĠN omin
ĠZeit en
Ġeffe cts
Ġse lected
Ġhel fen
Ġmay be
Par ent
ĠVert ra
yd ro
Ġa im
Ġs ituation
ĠK ritik
Ġver lassen
In putStream
Ġent h
por ation
Ġoper ation
ĠauÃŁer halb
is a
ck ing
ill y
ly wood
ĠAn tw
Ġch at
Ġ4 4
Call back
L ock
ĠS tellen
gr Ã¶ÃŁ
ĠHo hen
Ã¼tz t
Ġm or
ĠW appen
art ige
Ġcontin u
ĠM om
Ã© r
con ne
k lass
k rÃ¤fte
ĠV alley
Ġco ffe
Ġviel leicht
.: .:
< >();
U ID
p ost
ĠK os
Ġth read
io de
Ġbet rug
Ġacc omp
ĠGrund lage
Ġwen igen
FA ULT
c ia
f ree
f Ã¶rder
Ġw and
ĠS dk
ĠUr laub
Ġersch eint
Ġtrans form
Rec ord
ver stÃ¤nd
ĠSte fan
Ġocc as
he el
pe cts
ap el
Ġme as
Ġincre asing
ĠDire ctor
ĠS em
us band
lin ien
ĠTe ams
fr ist
lauf en
yl van
fass ungs
Ġautom atic
H ost
Ġw uchs
ĠD Ã¶r
and en
Ġprim ary
ĠB ol
Ġver g
ze p
ick er
ont o
ĠGra fen
L iste
g ern
ro ugh
Ġ19 11
rÃ¤ ume
ĠUnd er
ĠRhein land
ĠDreh buch
ĠermÃ¶glich t
z ern
Ġl Ã¤
ĠHe ad
ond ition
Ġ192 2
Ġinternational e
Ġdeg ree
Ġprote ction
Ġess ential
zip lin
Ġdefinit ely
Ġ Ä
Ġm is
ĠE xt
ĠH Ã¤user
Ġpro ced
ost on
ĠGr Ã¤
bo gen
ĠDeutschland s
klÃ¤r ung
F rank
d essen
Ġ Ã¶ffentlich
Ġin f
Ġl Ã¤ng
Ġ2 50
Ġ8 00
ĠTra um
aj a
ĠGel Ã¤nde
Ġunterschied lichen
Ġstrateg y
ĠÃĸff entlich
ĠMicro soft
I R
v ement
ch mal
ĠM ake
ĠW unsch
Ġprodu ziert
P ER
f ind
re c
il ien
Ġauf gerufen
Ġdem and
ph an
Ġvis itor
ĠGesund heit
ĠSdk ClientException
on ial
ĠF ire
Ġle er
19 45
ĠCas ino
ĠAfr ica
Ġbott om
F L
ĠSch rift
Ġaus geb
ĠVer lauf
Ġpr Ã¤
Ġtr uly
Ġqu e
ĠAd d
Ġschw ar
bre ak
Ph one
Ġre ference
Ġ{ }
Ġcon stant
ger ichts
Ġges pielt
sk y
Ġra ce
ĠArch iv
Ġbesonder e
Ġinc red
ĠC orn
ĠV ar
ue ber
Ġwo hn
ĠChe f
ĠMor gen
minister ium
Ġverpf lich
I F
m t
r un
Ġf lieÃŁ
ĠL ord
ĠR ay
icht lich
ĠAn wendung
ĠAuf grund
Sch weiz
ãģ ®
Ġbek annten
con text
ĠMain z
Ġeff ort
Ġkomp lett
Ã¶r ung
Ġgr ib
ĠKon k
Ġdedic ated
britann ien
C ons
Ġfin ished
En g
Ġgu arante
ĠSalz burg
b ad
ĠR ath
ug in
ĠTeil en
stru ktion
ĠBeit rÃ¤ge
Ġmean ing
Mus ik
c ap
it o
re y
den burg
Ġge gebenen
ĠIt al
Ġadv ice
din and
t liche
Ġste el
Ġview s
à ¤
ion e
st at
ĠT imes
ĠEin trag
omm od
ĠSh op
Ġart ist
ersÃ¶n lichkeiten
Iter ator
H o
ĠA M
ow l
Ã¶r en
Ġar gs
ĠHand el
Ġcoun ter
ĠFer ien
Ġassoci ated
N on
m ethod
re f
sch m
Ġl ack
Ġ3 9
pr iate
Ġfind ing
Ġstar tete
med aille
gent in
b lock
ar ischen
ĠG olf
sp ar
ĠTh Ã¼r
Ġkann st
Ġacc ur
Ġhund red
Ġcoffe e
E G
Ġ util
Ġm iddle
ĠZ ahn
ĠVer halten
br Ã¼cke
Ġbre it
Ġdev ices
ĠEntscheid ung
Ġthous ands
- )
ĠB ist
ĠN av
ĠBr Ã¼cke
itte e
Ġclean ing
Ġstra ight
ĠB it
ĠD ol
ĠP ay
ĠK och
Ġbe endete
Ġr ules
Ġsetz en
es is
ĠS P
ro y
th a
St ar
Ä Ľ
ĠF al
et ch
ad or
ĠEr b
gel d
o z
Ġc ast
ĠLe e
ĠChr on
st uhl
Ġim ag
ĠAnd roid
ĠH T
ay a
Ġclass ic
ĠgrÃ¶ÃŁ ere
ĠgrÃ¶ÃŁ eren
term ine
ĠEre ign
it ur
re chte
re hens
Ġthan ks
Ġeas ier
ĠErz bischof
Ġbud get
f le
p olitik
ĠA u
ĠT isch
ĠTh anks
f ung
ĠB ab
Ġl es
est ra
Ġ/ *
s ol
ĠVer antwort
Ġfield s
ĠMÃ¶glichkeit en
M ult
S G
is Entry
Ġr ich
ke i
Ġze ich
ĠVerb and
arch iv
ĠPl us
ĠTod es
Ġbas is
p ool
Ġf amous
ĠT ok
ĠH ub
ĠZ ent
lat ed
Ġsow jet
Ġob serv
Ġbel ie
Ġmult i
ĠWissen schaften
Ġelekt r
ĠjÃ¤hr lich
isEntry Enabled
ĠF ert
sp ann
ĠEurop Ã¤ischen
Ġmon itor
ilit ary
Ġocc ur
r up
Ġb oy
ĠR h
200 6
por ts
Ġerw arb
Ġflo at
F uture
ĠS owjet
ul f
Ġne arly
ĠRe public
ign ment
Ġstud ies
ĠZw eit
Ġret ail
stoff e
ĠPhilosoph ie
Ġand ers
ĠIn ner
glieder t
ĠÃľ berg
augh ter
Ġm ission
ra k
ĠEr schein
ĠY oung
Er baut
Ġmus ikal
Ġdire ctor
ĠIhre m
Ġpower ful
Ġturn ed
sie he
k in
Ġw inter
ĠE ach
ĠK in
ĠSch auspiel
be zogen
Ġher gestellt
Ġgu ys
ĠÃĦ r
ĠIde e
posit ory
ĠS ab
ĠG ames
ĠC ho
Ver Ã¶ffentlich
ĠTr ump
ennt nis
ĠbeschÃ¤ft igt
o is
ĠB lo
Ġh a
ĠO ther
Ġnumber s
Ġallow ed
V is
Ġs icht
ĠL abor
se ud
Ġme asure
ĠStud enten
ĠDaten bank
kon om
ï ¾
Ġ ðŁ
ar ray
ĠS eb
Ġp air
ĠP ok
ic ious
Ġer gÃ¤n
ĠV iele
os is
ind ustrie
ĠAn y
be w
pl Ã¤tze
Ġdr ink
Ġac adem
Ġbro ad
Ġol der
ĠP ack
ĠG laub
Ġge tr
Ġzu gleich
ip fel
ĠOr dens
ĠAd am
ĠFre m
Ġdiffer ence
Ã ¥
Ġf al
st Ã¤tten
Ġl isted
be g
pf licht
200 7
eiter te
Ġrespons ible
gem eine
Ġverlie hen
R ed
b aden
m ail
ĠL ine
Ã¶ der
Ġwir kte
Ġeinges tellt
ĠErfahr ungen
V ol
Ġc ash
Ġcon ference
ĠFl Ã¼gel
Ġheut ige
**** ****
Ġimmed iately
Ġf le
sch loss
ĠOb serv
ĠBundes liga
nes day
Ġach ie
W ind
m ess
Ġh il
ĠO pt
Ġob j
ĠErz Ã¤hl
Ġunterst Ã¼tzen
st ation
ĠL uf
Ġab geschlossen
ĠTe le
ĠKar ten
Ġphot ograph
Ġpie ces
Ġeconom ic
Ġregard ing
iz enz
Ġover all
Ġerhe b
Ġd ritte
or ganisation
ĠF ull
ĠV ort
ĠKon fl
Ġsec ure
ommer ce
B is
p al
Ġcom par
Ġgen annten
Ġchar ge
baut en
Ġbe legt
ĠSch laf
Ġse ven
Ġman ager
ĠOrt schaft
ĠLeist ungen
Ġeffic ient
w riter
Ã¤ fer
lin der
Ġres erv
Ġsur face
Ġmax im
umm ary
LO G
Ġextrem ely
Ġj ud
get Key
Ċĉ ĠĠĠ
Ġprodu ce
Ã¤us ern
UR I
ĠSchrif ten
Ġw ert
ze igen
ĠAr zt
Ġ4 3
Ġsh ared
ĠgehÃ¶r ten
mÃ¶ gen
D em
G ER
c are
ĠP rag
ĠH ab
Ġr ent
Par ser
Ġausgest attet
Ġverantwort lich
n t
r ik
s ing
Ñ Į
st ern
ĠBr asil
ĠBes atz
Ġswe et
utn ant
ĠS av
Ġth ank
Ġaus tral
oren z
ĠAd ministr
Al bum
bie ter
Hel per
ylvan ia
k ins
Ġt ief
Ġt Ã¼rk
ĠW affen
Ġim press
ĠBe w
Ġges etz
ix el
ĠhÃ¶ch sten
as ts
Ġc op
Ġsch le
ĠFor st
Ġerst re
Ġbeaut y
ĠrÃ¶m isch
frastru ktur
Q ue
ĠB an
ĠP fe
ĠK urt
ĠW ohl
ĠL ibrary
ĠR ost
ag ra
Ġent stehen
Ġher r
ĠChar l
wÃ¤r t
Oper ation
famil ie
ĠGust av
ĠK el
Ġte ams
ĠMat th
ĠnÃ¶rd lichen
p olit
ĠP ed
ĠP ot
ĠE qu
ĠH ig
Ġad min
schul en
ĠCam bridge
D oc
G u
b ungen
Ġf ill
ĠIn halt
ĠThe ologe
sh ire
Ġweit gehend
Ġbet rach
Ã¤mp fen
D C
w Ã¼r
ĠO R
Ġsp irit
Ġdam age
Ġrem ote
ĠLauf e
ĠGeburt stag
ĠFrancis co
ĠA rab
ĠUnivers itÃ¤ts
ĠFak ult
2 000
g au
ĠM P
ĠT a
ĠR icht
ĠC ook
tell igen
ĠMittel alter
ĠCol umb
ĠBern hard
ĠhÃ¶ch ste
n ing
Ċ ĊĠĠĠĠĠĠĠĠĠĠĠĠĠĠĠĠĠĠĠ
ĠRe view
ĠTechn ology
ĠLie fer
ĠStr ateg
ĠNik ol
en kt
Ġs um
Ġ19 13
ver trag
ste ht
lic e
ĠVor aus
ĠReg ister
De f
Ġuse ful
Ġprogr amm
issert ation
g Ã¼lt
ĠG Ã¤ste
Ġaus z
Ġle itete
Ġent ity
ĠAuf nahme
ar ily
Ġc amera
ĠK ath
ĠL en
Ġaus ger
ĠEr satz
ard inal
mit glieder
ĠBar bar
Ġfac ilities
Ġprote ct
Ġc ars
ĠH aar
Ġ6 00
Ġ190 8
ĠLin ien
dien ste
F ra
m es
ĠH ttp
ĠNe uen
ĠAuf stieg
ĠQu al
Ġhelp ing
ĠWor ks
roll en
Ġitalien ischer
Ġestabl ished
Exec ution
Weit ere
B ack
J e
re in
Ġp ush
af ft
ri age
Ġserv ed
Ġexper ts
Ġgra de
ĠMark eting
ic ine
rie den
pro cess
bo ten
ĠÃĸffentlich keit
N et
V ar
Ġs agen
ĠD Ã¤n
ent in
ĠP age
ĠK en
ĠK ron
ĠLand wirtschaft
ĠKar te
ĠBre ite
Ġmax imal
ĠTex te
] );
em por
ier n
est ination
gr enze
Ġch air
Al le
grÃ¼nd ete
n etz
ĠS of
ĠL ook
200 5
Ad d
ĠWill i
im it
ip edia
Ġro b
ĠÃ¶sterreich ischen
ĠT hr
mer ksam
ĠMan y
Ġdist ance
Ġdat abase
F in
L abel
Ġa ward
ur l
ĠI ran
ĠG lobal
Ġer kennen
rom e
Ġprodu ced
Ġredu ce
ĠÃ¤hn lich
Ġpress ure
Ġinfl uen
ĠvÃ¶ll ig
m ot
ĠD ra
Ġz Ã¤hlt
ĠW alk
ĠC ra
iz eit
Ġwe ib
ĠJahr zehn
ĠFamil y
ĠPe ople
ĠGroÃŁ britannien
ĠMeister schaft
bÃ¼ cher
ĠJac ob
I OException
i Ã¨
m ir
Ġf ans
ĠB ibliothek
ĠP oint
ĠR E
Ġer fahren
ik i
Ġverw enden
Ġbring t
Ġsay ing
A re
g ot
Ã ĥ
at re
ĠK ommission
ĠL au
Ġat tempt
Ġtop ic
s ylvania
ed ition
Ġg alt
ann ed
R oot
Ġ q
qu es
ĠKn oten
ĠFer dinand
fan ter
' )
' ,
am ed
ein s
ust ain
ĠSp orts
Ġsh ape
Ġopen ing
ĠCarol ina
L a
ig ger
Ġj em
je kten
Ġgo als
Ġste ps
lag s
Th ese
Ġprodu z
Ġteach ing
Out put
ĠFrÃ¼h jahr
k ts
Ġd Ã¤n
at te
âĢ ĭ
ĠR ab
iz ierte
l Ã¶
l ife
Ġb itte
ĠB ir
Ġsp read
Ġchar acters
fass te
ĠUl rich
Pat tern
Ġerweit ert
f Ã¤lle
Ã¼ mer
ru he
atur ing
ĠGes am
Ã¤hl ten
ĠOb jekte
ĠAll gemein
Ġprof ile
arz t
ĠFil ms
ĠComm ittee
Loc ation
Ġh usband
ra ys
Ġbe yond
ĠGew inn
Ġorgan izations
Met adata
ĠSchles wig
B ook
t um
ar ische
Ġb ag
ĠN a
id den
son sten
ĠAustr alien
j en
un s
Ġf uck
ĠN ote
ĠEn s
Ġweiter es
Ã¤ll en
B ild
ut ing
ĠT anz
Ġj ourney
ĠLeist ungs
N ord
re l
ĠD iv
Ġg ingen
Ġde termin
ost ers
Ã¶r ter
wei ÃŁ
Ġmoder nen
Ġdest ination
Ġchallen ge
Ġmittler weile
Ġsynchron ized
s ource
is Debug
ĠS inn
ur ts
ĠA wards
ĠD rit
Ġal one
pe ctive
ho ff
f ilter
ĠP ast
sh aus
ĠFor men
pf lege
ĠVirgin ia
D isk
p id
Ġfor ce
ĠFor um
ĠIntern al
Ġinnov ative
or fer
Ġf rag
ĠM Ã¤r
ĠT ore
im er
ste iger
ĠUn garn
Ġad vanced
part ner
Ġ190 5
ĠLin ks
cont ent
Ġprote cted
P lan
un ehmen
ĠF alls
ĠH ot
ĠR eb
Ġge mÃ¤ÃŁ
ĠBe wegung
rie chen
Ġpre par
Ġbek am
con fig
ĠFranz Ã¶s
Ġnam ens
ĠMarg are
Ġeinger ichtet
B es
Ã ł
ver ter
ĠLe opold
fl ow
Ġind ic
Ġwel come
Ġprof it
Ġprofession als
n g
t ok
or ation
ĠRe fer
Ġ4 9
Ġpop ul
ĠgeprÃ¤ gt
Ġp aid
ĠT wo
ĠR osen
end a
form ations
Ġsol id
ĠĊĊ ĠĊ
cr ibe
Ġlink en
ĠFunktion en
g reg
h u
em ark
Ġtr ust
Ġverb ess
ĠBy te
c en
Ġs agt
ur i
ĠB ass
ĠK andid
Ġge kommen
Ġauf z
ho fen
ĠAd els
Ġhoch wert
ĠDate i
Ġrelations hips
N ow
R ow
c ount
ar in
sp ace
ap ers
ĠÃ¼ber tragen
Ġad vent
app er
Ġsc ient
čĊ čĊĠĠĠĠĠĠĠ
liegen den
f lo
an u
ol ar
ĠK anz
ĠN eb
Ġk Ã¼nstler
Ġge eignet
Ġpr esented
val u
ĠPfarr er
ĠfrÃ¼her en
ĠWed nesday
B i
e lement
ĠM aur
Ġto ken
ĠBe ide
ĠLe arn
Ã¤l de
wei ht
reg ion
tens ion
Ġmet al
m aterial
â Ĥ¬
ĠL aut
ir ge
Des criptor
Ġbenef it
Ġupd ated
Aug ust
p et
Ġk new
fur ter
O lymp
s Ã¤tz
t ml
Ġs uffer
ĠW ho
co very
Ġact ual
Ġentsprechen den
zus tellen
w arn
Ġw ine
ĠT Ã¼b
ot ic
ill on
ail s
H ome
c al
m ack
el or
ĠM id
sen s
Ġart ists
ĠHein z
c raft
k ur
t able
ĠA S
ĠD iffer
ĠP lÃ¤
ĠE ven
Ġtra ffic
hÃ¶r de
Ã¶ff nung
leg ant
ĠIs lam
fÃ¤h igkeit
G o
k ammer
re form
ĠG reg
leg ten
latt form
ĠSonn tag
Ġf ather
ĠW a
Ġl Ã¶
ĠGrÃ¼nd en
ĠBayer ischen
ĠMuse ums
Ġf an
Ġe arlier
ol z
app e
Ġeven ing
isDebug Enabled
Ġd ish
Ġw ebs
Ġc old
ic ul
iz z
Ġ190 7
Ġmov ed
Ġentw eder
Ġ uk
ĠD ialog
ad ies
Ġzu erst
Ã¼n sch
Ġinst r
ĠJo achim
il ian
ĠC ru
Ġl ab
Ġre levant
os a
ĠSp re
ĠEin ige
Ġman age
uss ion
bild ungs
Ġmov ies
Ġbestimm te
beding ungen
merk ungen
ĠInstr ument
ĠK urs
ĠGra z
Ġpol y
> ,
Ġs ucht
ĠVer Ã¤nder
ĠEin heit
gra de
sc ar
Ġober en
ĠS ystems
ĠR ub
ver treten
af el
Ġpe ace
ĠMon aten
ĠNord rhein
ĠBÃ¼ ro
Ġelect ric
Chr ist
Ġ ut
Ġm sg
ĠD B
ĠE lemente
Ġg allery
ĠL Ã¤nder
Ġbe an
onn a
Ġpar ameters
Ġbeg onnen
Ver b
Ã¶s ungen
Ġkein er
ĠMos kau
J son
w ischen
Ġa head
ĠH as
up date
ĠSp iegel
Ġcertain ly
igr ation
C ar
Ġt emplate
or row
le hr
ĠP od
Ġcon vert
ĠBe ge
Ġlie f
Col or
Ġaltern ative
ĠVerÃ¶ffentlich ung
Ġbe ob
mann s
Ġsogen annte
ĠB ade
de burg
ĠN ight
kt ar
elt a
ĠWe imar
int on
ĠFahr zeuge
time Exception
Ġwa iting
ĠWeihn achts
ĠDarm stadt
b aus
Ġr at
be wegung
ĠRÃ¼ck en
k unst
de cken
ĠC ustom
ĠSch iffe
ate ver
get Type
ĠEr de
ĠTra in
Ġdr iving
ĠWirk ung
ĠEnts te
ĠSommers piele
M ich
Ġt ransp
ent um
ĠO tt
ĠIn f
ag ne
ĠAn frage
Ġsch eint
Ġ5 2
Ġsc ale
ĠPf ar
ograph ische
ĠMon at
ĠComm ission
G roÃŁ
ĠS ituation
ĠL Ã¶sung
ĠArbeit er
Ġlight ing
Å «
st on
ĠP M
ĠF ood
ber eitung
ĠÃ¼ber geben
iert es
ster dam
ĠTod ay
C omm
ĠF ein
ĠC a
akt or
ĠFÃ¼r sten
zug s
ĠFlug zeug
Ġg ren
Ã¶ ne
Ġqu ant
ER R
ĠMed ical
c ar
en ken
Ġd rop
ol en
ĠT el
ĠG Ã¼ter
M ember
S he
u um
z ell
Ġc entral
ĠM ie
ĠI ter
ĠK iel
Ġal ter
Ġdurch schnitt
ĠSchw eden
Ġchallen ges
ĠM ak
Ġl abel
if el
Ġvers ehen
ĠPfarr kirche
m Ã¼hle
Ġs itu
Ġz Ã¤hlen
Ġk auf
Ġk ommun
ĠGener ation
low ake
Ġexec ute
Ã¤chs ischen
ĠSib Tr
b al
Ġc it
ol i
ĠF air
reg ister
ĠTro tz
ĠGerman y
Ġach ieve
: :
A V
Ġed ge
k Ã¶rper
p an
Ġm Ã¤nn
ĠW es
we ge
ĠAn ne
Ġsh aring
Ġdis k
Ġsm ooth
Ġbig gest
Stat ement
Cre ate
P C
b ruck
ĠB ang
Ġg ran
ĠO d
Ġpro ud
ĠBe ck
Ã¤hr ung
Ġoper ations
Ġhig hl
P ool
Ġe igent
Ġg ather
Ġge zeigt
ĠBe teil
ĠAus druck
Ġpr incip
It alien
B et
in zen
ĠL ot
Ġst Ã¤r
Ġr ank
Ġcom ments
cy cl
Ġdi agn
Ġlov ely
ĠS af
ĠM ord
Ġver schw
ĠSp ann
Ġ4 1
stra hl
aliforn ien
ĠBund est
Ġstre et
Ġs y
Ġn ut
ĠP red
ĠIn gen
ell schaften
Ġdar gestellt
ipp s
Ġcour t
Ġcor ner
Wh ile
Ġincre ased
Ġkur ze
r ical
Ġm ut
Ġsh ot
Ġeinge fÃ¼hrt
Ġbrit ische
Direct ory
t yp
ser ver
Ġger ing
Ġfollow ed
Ġfact ory
obil ien
Ġparticular ly
ĠN on
ĠUnter nehmer
Ġinter ior
Ġacc ommod
gra f
ĠWeltk riegs
Welt meisterschaft
ĠMount ain
ĠChin ese
Ġc ategory
ĠOr ient
D ollar
U I
ĠB oston
ĠVer anstaltungen
Ġcon vers
Ġcan cer
ĠAb schnitt
Ġident ify
ĠHistor iker
ĠBu ild
ĠErfahr ung
Ġep is
kra ine
v ar
Ġb ot
Ã¤ b
ĠR ollen
ein anders
ab teilung
ĠAl ters
ĠHam burger
Ġcommun ication
Ġcompet ition
hy th
Besch reibung
ol o
Ġl esen
ph y
ĠAus land
ĠVor gÃ¤nger
ĠEx ec
ĠKon zert
ĠNord osten
loy ment
lÃ¤nd ische
Hol stein
Ġcas ino
ĠWider stand
Ġn um
Ã¶ pf
Ã© n
Ġd ining
ck et
Ġan erk
Ġun its
aus stellung
isten z
ĠWohn ung
ĠBen ed
k opf
Ġb urn
ĠP ac
ĠK op
ann a
Ġent gegen
ĠSie ger
ick e
Ġ190 6
G en
H istor
ĠS ince
ir ing
ĠChr is
quire d
ĠArchite kten
i y
ĠW Ã¤r
ĠL am
ĠKap it
L C
Ġa wesome
an er
ĠM ethod
ĠD etails
Ġh ospital
ĠF ant
ĠW ord
Ġbes itzen
wahl en
ĠIns gesamt
Ġmein en
ĠSicher heits
ĠEben e
Ġneigh bor
H S
V P
ĠB ag
el er
ĠW ett
Ġi Phone
Ġch annel
Ã¤n ner
ĠOr der
Ġsc ene
ĠStra ÃŁ
Ġ190 9
Ġlar ger
++ ;
Ġclick ing
he ute
ĠG ang
Ġwe ist
Ġsh own
Ġze igte
B el
ĠE ich
ĠC ert
ĠSch ritt
ĠUn abhÃ¤ng
Ġcont ain
man agement
bau er
Ġeigen stÃ¤nd
bl Ã¤tter
Ġprep ared
Ġw rote
ol er
ĠK ong
ĠH immel
Ġre asons
ov a
Ġben ach
reit en
Ġengl ischen
ĠEhe frau
ĠTenn is
ĠÃ¼br igen
" ).
I ST
N O
u ern
Ġb ound
ĠLand tags
gest altung
Ġexperien ces
he bung
Ġer b
Ġer stellt
ãģ §
ĠÃľber setzung
200 4
Ġmain tenance
Ġintern al
ĠnÃ¤ch ste
Ġcompon ent
Ġbeein fl
W R
Ġf Ã¤llt
ĠH oll
ĠN ick
ĠJ Ã¼rgen
Ġwh ose
Ã¤r ke
auf trag
Ġber Ã¼hm
Ġset s
ĠProdukt ions
;;;; ;;;;
ĠL td
ĠTeil nahme
zÃ¼ ge
Ġitalien ischen
ĠNet work
ĠSec urity
c la
k at
k ul
ĠD omin
ĠH ell
ĠÃ¼ber haupt
Ġeinz ig
ex ec
M E
it ors
ĠV ideos
if ik
Ġge z
Ġvor gesehen
Ġbek annte
Ġcomm and
Ġlo an
ĠKommun ikation
st he
Ã¤ ger
ent ur
ĠR oss
ĠN Y
wer ken
ĠfÃ¼hr ten
gra ben
haf te
Field s
Ġunterschied lich
H ere
it ag
ĠR on
ĠRe is
ru pt
ĠPro te
Ġsc en
Ġprocess ing
Ġmen sch
lam ents
Bo olean
wirk ungen
Pf alz
Ġs amm
ĠS ig
ĠF arm
ĠH ockey
ĠW M
ĠNord westen
At om
B B
f abrik
Ġb illion
ĠN ap
ahr t
gesch rieben
Ġsur v
omb in
Ġpay ment
ĠGraf schaft
Ġcover ed
Ġwes entlich
ĠD ien
ĠK affe
Ġde termine
enn fahrer
wer den
Ġhin gegen
ĠFig ur
T ags
st ock
ĠF ord
ĠC lick
Ġj ournal
Ġstr ug
part ments
Ġir gend
kathol ischer
as p
as ks
ĠA L
ĠT ax
... )
stell ungs
Ġ190 4
Ġhim self
Ġnah men
ĠArchite kt
Ġengine ering
ĠFernse hen
I X
Ġf at
Ġf eder
ad ing
ĠVer hÃ¤ltnis
ĠHe ft
Ġpat ient
!! !
lev ision
ĠErw eiter
hÃ¶ he
c opy
g red
ĠB aus
ĠL it
Ġre ader
Ġle it
ĠFe hl
Ġdevelop ing
Ġentsprechen de
i Äĩ
Ġf ung
Ġm Ã¼nd
Ġc ache
Ġh aven
ĠL iber
ĠR aj
Ġal though
Ġr Ã¼ck
Ġcomp rehens
Ġdr iver
Ġinvest ig
is her
ĠH aft
ĠN ode
for mer
tel n
ĠX ML
ĠSÃ¼d westen
Ġtre ffen
Group Name
AG E
ouver neur
Vari able
l Ã¤r
Å ¾
er em
or mal
Ġb la
ĠA ccess
Ġc e
ĠL ittle
ĠOr chester
teil s
ĠFran ken
ĠFre unde
ĠKon zept
Ġappro priate
geord net
Unter nehmen
Ġgleichnam igen
Warn ings
c ore
Ġe at
ĠP ath
Ġr um
ug o
ĠRe port
iz ien
ĠAuf ent
Ġrec ords
ĠSÃ¼d osten
A v
er te
at ik
ĠA ktion
Ã¼ ne
el ess
Ġse ch
sen z
zeit ung
Be vÃ¶lker
Ġpop ulation
Ġfact ors
Ñģ ÑĤ
KE Y
Ġverbreit et
) {
h ire
k arten
Ã¶ ÃŁen
ĠJ ava
Ġre chten
Ġfor der
ss on
rÃ¤ ft
ĠEurop ameister
ĠRes ult
Ġexc iting
Ġclos ed
ĠFÃ¶rder ung
B est
W E
ĠF ernsehserie
ĠW ag
ĠL ock
ne e
est ic
let te
Ġhelp ed
Ġstand en
Ġann ot
Ġsong s
M B
or dens
Ġm ail
Ġthe me
ĠB oy
il de
ĠM ode
Ġ1 10
ach tet
Ġhe avy
set s
ĠCont ent
lei hung
Supp ress
Ġtats Ã¤chlich
M en
at om
ct ic
ien cy
ag ers
ĠZeit raum
ĠSc iences
Ġunterschied liche
A ct
W el
in det
or age
ĠV aters
du ard
ĠKon gress
Ġcol our
ĠMark e
ĠZahl en
Out putStream
ĠbenÃ¶t igt
e vent
Ġ ueber
an en
ĠS au
Ġgu ests
ĠSchl uss
ĠBern ard
ĠDistr ikt
Polit iker
ĠDah er
m otor
on ia
Ġl ern
Ġon to
ĠTer min
Ġfab ric
Ġa partment
Ġm ode
us es
ĠIn nov
ĠQu er
Ġrem ain
ĠBra un
Ġexc ited
Ġkur zen
ĠTw itter
ĠB lan
Ġbe in
if ft
ak i
St yle
ĠVers uch
Ġ189 0
Ġrad io
H aupt
Ġa p
it is
Ġp ull
ĠF ootball
ra pper
ĠK amer
Ġ19 16
form ance
Ġfe hl
oin ted
ĠGew icht
Ġbil dete
ĠZug ang
ĠOper ation
ĠTÃ¼b ingen
a ver
ĠP in
ĠBundes republik
ĠArch Ã¤
ĠFakult Ã¤t
Ġwebs ites
4 00
g Ã¤nge
Ġs at
Ġh Ã¤tten
ĠT i
ĠL as
Ġen h
Ġqu arter
Er ster
ĠInternational en
Ã¤mp fer
Ġverst Ã¤r
Stra ÃŁe
T S
ĠSt ory
ĠSt rand
Ġle ider
fÃ¼hr en
ennt nisse
ere ien
Ġde lete
Sch riften
Ġsur pr
ĠÐ ¿
ĠKÃ¼ che
j ob
Ħ ¢
ĠW it
ĠLe vel
Ġben utzt
setz ungen
ĠGest altung
ĠArn old
Serv let
Ġafford able
c z
v ents
ur st
Ġbe wer
Ã¶ die
id o
ste dt
ĠCon ference
Ġstand ards
alb um
But ton
B ad
N r
a ctions
Ġw under
Ġc ore
urn ier
ĠSp rachen
ĠAm sterdam
200 3
Ġ190 2
Ġgener ally
ĊĠĠĠĠĠĠĠĠĠĠĠĠĠĠĠĠĠĠĠĠĠĠĠĠĠĠĠĠĠĠĠĠ ĠĠĠ
Ġinstall ation
ĠL abel
ĠC anad
iv als
od urch
ĠVer anstaltung
ial s
20 19
ĠPar ameter
ĠMon te
Ġend gÃ¼lt
hard t
ĠLeicht athlet
P la
ĠE ind
ĠK anada
ĠL ipp
Ġst opp
Ġauf gebaut
ĠAn griff
ĠIm age
ĠFre izeit
wend ungen
deutsch e
ĠQualif ikation
z te
Ð ²
Ġt ritt
it em
ĠM ike
ĠPr iv
Ġauth ent
Ġmem ory
lÃ¤ss lich
Ġgelegen en
ĠBek annt
D an
k re
s ur
ĠS ender
Ġ( ,
ist ant
ĠJ ersey
Ġex change
Ġshe l
Ġvo ice
Ġindustr ial
B Ã¼rger
T C
k rieg
an ch
ĠD auer
tr ast
Ġab gerufen
ack en
Ġen dete
ĠHand buch
ĠMax im
Ġnahe zu
Ġgre ater
Jahrhund ert
T ube
t ten
Ġh ers
ĠW ay
ill en
ĠLand tag
Ġcal cul
ĠModer n
Ġrestaur ant
m ag
we iler
Ġad just
fe ct
Ġber ichtet
hand el
Ġmin ute
ĠJe ff
r in
Ġs ample
ĠZ y
Ġqu al
ĠBr ig
Ber g
Ġregister ed
Ġw odurch
ut ors
Ġre ich
ĠSch lieÃŁ
ran che
Ġpar allel
B ody
D ar
D ocument
Ġb uf
ol is
Ã¼r en
ĠZ erst
ĠSch on
row able
Ġoper ating
ĠGar den
ĠDeb Ã¼t
Ġt on
ĠSch ach
Ġse cret
Ġ5 7
Th at
wh ile
Ġsen ior
Ġruss ischen
ĠRath aus
M ain
Ġin n
ĠE conom
ĠC over
ĠVer gangen
Ġsp richt
ĠGe walt
Pro ject
bo olean
L age
P L
P R
P ost
e f
or gan
Ġfor ms
qu ery
Or ganisation
Ġcour ses
value Of
Ġop in
ĠLok omot
ĠKomb ination
Ġadvant age
F O
l ight
Ġt it
ĠS ak
ĠA qu
st Ã¼cke
ĠK ab
ĠR ena
ot ional
ĠSe cret
iter ator
Ġlook ed
Ġgeb ildet
ĠFil me
Ġcrit ical
d el
Ġs org
her ren
Ġpr in
Ġange legt
ĠForm el
Ġrequ ires
K urz
Z E
Ġver me
Ġse a
ĠPro jekte
burg h
ĠGesch ichten
cre te
Ġcould n
Ġnor weg
ĠJo e
> <
ĊĠĠĠĠĠĠĠĠĠĠĠĠĠĠĠĠ Ġ
ĠAus nahme
tra gs
Ġra in
Ġfre uen
Ġdah in
s b
Ã Ĺ
â Ħ¢
Ġt ruck
ĠU se
Ġsh ip
Eis hockeyspieler
C S
w ettbewerb
Ã «
ch ild
Ġl it
ĠGr amm
upp er
ĠAd el
ĠKon zer
so ap
Ã¤m lich
omet ry
Ġtalk ing
ĠLex ikon
I gn
ĠA ction
ĠB M
ĠK athol
Ġman aged
int age
Ġverw and
Ġbuy ing
Ã¼st ung
C R
w uchs
ĠT sch
ĠP ow
ĠN un
ab ilities
Ġapp l
lig isten
F unktion
M apping
ĠB row
ĠB asketball
ĠW Ã¼rz
ĠN ah
Ġauf gelÃ¶st
res h
ron om
Er st
200 1
Te chn
Me ister
ĠHotel s
ĠBarbar a
d h
Ġf ear
ĠF Ã¤llen
Ġg laub
ĠR ose
ĠN ahr
Ġsp rach
Ver kehr
ĠzurÃ¼ck ge
fang s
Ġtest ing
ĠAfr ican
afr ika
T emplate
t own
Ġw achsen
ĠSp aÃŁ
ĠOr ch
ans as
Ġmed izin
Ġcap acity
ĠAustral ian
ĠPenn sylvania
mÃ¶glichkeit en
on ien
al m
as ien
ĠM ajor
ĠC H
ĠC ost
ĠPr esse
ino is
Ġcommun ities
ãĢ Ĥ
Ġoffiziel l
K lasse
st ab
Ġan hand
ĠBe wohner
ĠPro perty
ĠgroÃŁ es
Ġ190 3
has Next
d auer
n icht
ie fen
ĠD adurch
upp en
Ġel f
ĠHeraus geber
ĠS oph
ĠB os
ĠE N
ĠR oten
pr Ã¼ft
ĠMe cklenburg
ĠNach richt
Ġges pe
Ġra nd
ĠBo olean
ĠOber st
ĠNieders achsen
Suppress Warnings
P O
o or
v orsitzen
is ierten
Ġn utz
ĠR io
ir n
ach es
Ġsp rechen
ĠCh allen
Ch annel
ĠBild hauer
AR T
Ġsex y
akte ur
c u
Ġf la
ĠM auer
ĠT aschen
ĠK rieges
os ing
ĠWe ge
ĠAuf lÃ¶sung
ĠPr iester
Ġtr ug
imm ing
Ġsc ore
Ġaut o
Ġmaint ain
j an
ro chen
Ġc alls
ĠP anzer
ĠBe ziehungen
Ġber ufen
ĠOff ic
Ġhistor ische
Ġdien en
ĠJur ist
Ġfant astic
P olitik
w all
z iger
ĠS yr
Ġc ream
ĠT en
ĠK Ã¼nst
ĠN ar
ĠV iet
ub a
ap os
Ġsee ing
Ġtechn iques
Ġant i
ĠBevÃ¶lker ungs
ĠCD U
zÃ¼ glich
ĠMaÃŁ nahmen
Ġgemeins amen
bere cht
H aus
c ons
s ite
an th
Ã¤ ure
ĠJ agd
Ġr ing
Ġ4 6
zen en
piel en
ĠGer icht
Ġstar ts
Ser ie
P lease
Ġv ision
ĠGra d
Ġbring s
LO W
Ġzwe imal
Ġre icht
ath an
ĠB aby
ĠE ber
ĠJ a
Ġber uf
ĠProdu zent
ĠBereich en
ĠRei hen
App lication
b ut
k u
un a
Ġc ir
Ġge ist
je ction
Ġsh all
res ponse
200 2
Ġteach er
ĠHash Map
S ign
W idth
ap h
ĠGra ph
Ġpl enty
ĠMich igan
ĠChem ie
ĠWies baden
D ur
J ust
Ġg olden
ĠC lin
Ġan c
Ġmov ement
ĠHers tellung
ĠSong s
Ġnumer ous
ĠSeb ast
J ul
v ol
aus gabe
Ġle aders
iss ance
ĠMe yer
Te am
stru ction
Ġess ay
k riegs
r iss
ch ung
ch ern
ĠI ts
ĠC A
ĠN ie
aus schuss
age l
ession al
Ġphil osoph
ĠBenutz er
, ,
Â ´
Ġs up
Ġs elling
ĠS oll
ĠK Ã¶
ĠR oh
gr enzen
ath on
ĠIs a
Ġpost s
Ġstor es
ĠPortug al
Ġnied r
i able
t im
an ische
ĠT ief
ĠF ur
ĠL ED
Ġk l
Ġsp lit
ĠDe ck
ĠTe lefon
stÃ¤nd en
Ġmoder ne
ĠErw achsen
Ġdom ain
ĠParte ien
Ġmot iv
m aschine
Ġs ources
an aly
ĠB om
ĠB ord
av our
ĠOr tes
Se henswÃ¼rdigkeiten
ĠRÃ¼ck kehr
ĠEng agement
ĠUntersuch ungen
ĠVergangen heit
8 00
S cript
ĠF ore
ĠV ari
Ġ19 17
ĠO pp
Ġum ben
ĠGr enzen
aut hor
Ġgu y
Ġpres ident
Ã¶m isch
ĠPublik um
Ġcompon ents
u ters
Ġf allen
ct ures
ĠIn itiative
Ġbra in
ĠAngeb ote
rÃ¤n k
ĠSchwer punkt
! )
w ing
č Ċĉĉĉĉ
Ġn Ã¤mlich
sch uhe
Ġg one
Ġk ulture
Ġver gangenen
Un able
ĠFrie den
F S
Ġb rach
ĠH arr
ĠR uf
ach us
Ġge plan
Ġpart ies
Ġsc r
Ġpar ameter
Ġcolle ct
ĠDurch messer
Ġsl ight
fre und
asil ian
Ġfem ale
lowake i
z in
ĠA le
st al
ol s
em ann
ĠJ ord
Ġde als
alen der
Ġbesonder en
ĠPre ise
Ġpo or
Ġsepar ate
ĠOrd nung
] [
ĠB io
ĠE duard
ĠL ow
Ġde te
Ġra re
Ġ190 1
Ġkon zentr
ĠBro ok
Inter ior
Ġve get
Ġexpl ore
Ġpark ing
plat te
ĠRestaur ant
Ġapprox imately
P an
Ġf ein
ro ad
ĠK Ã¼n
ĠU t
tr an
ly n
lic ken
her zog
Ġnot ice
Ã¤nd igen
Ġev idence
Ġschw ier
Ġinc ome
Ġexist iert
leb nis
ĠNeub au
W as
p ot
Ġm icro
hn ung
ĠFr Ã¼
ĠStra f
Ġadd ing
ifiz iert
ĠGovern ment
Ġsoc iety
m or
is piele
or ient
Ġh ast
ol as
Ġl ernen
ell i
ĠRe f
Ġ4 7
Ġte en
cl es
Ġ8 5
isten ce
Ġwork ers
ĠMet hoden
ĠSam stag
Ġaud io
ĠtÃ¤ glich
B as
N ov
c ert
t te
od a
ĠAr thur
ĠEin richtung
ĠLe iden
fÃ¼hr te
Ġvisit ors
ĠArm y
ĠSÃ¶ hne
L ook
o es
st atus
ĠM und
ĠFor ce
Ġdire ction
ĠEd ward
IT Y
Ġcent re
ĠFeuer wehr
ĠGeist licher
Europ ameister
D ialog
k ow
he dr
ĠE ur
Ġun er
Ã¼ck lich
auf hin
ink en
akt oren
ĠDan eben
Ġsex ual
Inter face
log ger
J uni
ste igen
ĠAn lagen
Ġhe im
Ġch ain
Ġspe ct
Ġinst ant
uz z
ĠFahr er
Ġfig ure
n um
st aben
we ight
ĠJournal ist
L in
n ischen
o ted
ĠC EO
ĠV el
Ġ20 22
Ġab z
Ġch anging
ĠBr es
verein s
Ġteach ers
ĠHor st
far ben
h aben
Ġe he
ver tre
ock en
Ġplan ts
iw od
le bt
ut ch
Ġl en
ĠV ie
ver anstaltung
ĠMit arbeit
Ġdr ug
ĠMark en
haf ten
Ġe ight
ĠA ben
ĠD oug
em ed
sch le
id ae
je w
mal er
fÃ¼hr ten
Ġpar ams
ĠOn ce
icher heit
Ð½ Ð¸
Ġelekt ron
mitt lung
Ġnomin iert
achus etts
D own
S H
b ury
w ater
ur ers
Ġv ierten
ĠM Ã¶n
Ġh off
ĠH um
ĠIn halte
ĠMar ien
Ġpla ced
ĠPar laments
ãģ Ĺ
c ard
ch ip
ĠO der
we ist
ĠBe at
ĠWe ek
ĠHer bert
Ġsel ber
urf Ã¼r
T od
f it
or fen
Ġb ess
le vel
Ġf ahren
as tern
ĠB at
Ġan gesehen
ĠU kraine
sp ring
Ġbis lang
sche idet
ĠGroÃŁ e
ĠJuli us
ĠEngl isch
Ġwalk ing
D igital
L iter
S QL
i ot
l Ã¤nge
Ġin gred
ĠJ ed
ĠPro z
schn itts
Ġtro ub
Ġdenn och
Ġwatch ing
Ġpaint ing
Ã¼ ÃŁ
bach er
zie ht
Ġcor porate
Ġeinzel ne
ĠRou te
m essage
w as
ĠM ir
ĠL A
Ġst ick
Ġab geb
gr ic
Ã¼n fte
Ġbeg innen
Id s
Ġrestaur ants
Ġs rc
Ġc ivil
ĠG ymnasium
ab elle
Ġro of
ular is
ĠHoch schullehrer
Ġlaw s
Ġnov el
Ġc red
ic ians
ug ies
ĠSp itze
gel t
ph a
Ġdo ors
ĠSte phen
ĠCor poration
ĠEpis ode
Ġinsp ired
m inton
w is
Ġb on
ĠK assel
If c
ĠHel mut
ĠLauf bahn
ĠWieder auf
ĠIll ustr
Ġcontra ct
b ell
ĠD og
Ġer laubt
Ġle ather
ĠAm ateur
Ġda ÃŁ
Ġneg ative
beding t
" ));
F ernseh
r aten
t arget
Ã ľ
Ġt Ã¶
Ġw ire
ĠB le
ĠG riechen
Ġk id
ĠO scar
art ig
ĠAn forderungen
Ġhe ight
iz iner
ial izer
Ġent steht
Cont rol
go ing
B O
l v
re w
ĠS tellung
am i
ic ies
ĠK lassen
um a
ĠVer st
Ġloc ations
ĠStre cken
ĠAlex and
ifest yle
W erk
r Ã¼ck
st ances
uss y
Ġad ult
ĠGeb urts
Ġvis ual
Ġshow ing
ĠEd el
ĠTer m
Ġstell vertreten
Ġflow ers
prÃ¤sent anten
a ber
Ġf ailed
Ġo d
ce an
ste uer
Ġab ger
iz ont
old ing
fÃ¼ gt
Ġcomb ination
ĠpersÃ¶n lichen
plat ten
o ul
Ġt mp
st one
ĠD ur
ĠK art
ĠThe odor
Ġar en
hÃ¶r igen
ĠGesch ichts
ĠStud ie
Ð¾Ð ²
ĠÃ¤ uÃŁ
ĠJack son
Ġd aughter
ie den
Ã¼ gt
ĠM iddle
ĠRe form
ĠSp itzen
ĠBer icht
Ġbet roffen
ĠAut hor
ĠNor wegen
icher ungs
ĠWh y
Ġbesch reibt
ĠBook s
Ġaud ience
ĠFig uren
Ġdet ailed
ĠEngine ering
T O
Ġa gency
Ġt schech
ĠB ell
ed om
Ã¶ se
ers te
Ġun ge
Ġj ung
ĠEr ich
Ġman chmal
Er folge
Ġpl astic
ĠMag deburg
ĠSchl Ã¼ssel
ĠBesitz er
rup ted
un Ã¤chst
Ġn Ã¶t
ĠF inn
ll en
Ġse ctor
ĠÃ¼ber w
ĠTh read
fl Ã¼gel
ĠQu elle
f els
Å Ħ
is at
Ġv ir
ĠB il
ĠD ichter
Ġer zeugt
ĊĠĠĠĠĠĠĠĠ ĊĠĠĠĠĠĠĠ
Ġver ur
omm iss
Ġtra ding
ĠKr ist
Ġzun ehm
Ġeff orts
Ġmiss ing
k Ã¼nd
r ate
u ine
st il
pt on
ĠBe ziehung
Ġres idents
irt y
Ġgener ate
ĠmÃ¶glich st
Ġexpert ise
. /
F inal
in u
Ġopen ed
Ġstark e
ĠGed anken
Ġren ov
y ball
Ġb ought
Ġn Ã¤her
ĠT Ã¶ch
Ġer hoben
ĠEr folge
ord net
Ġ15 00
Ġerh ielten
ĠBar on
ĠHol lywood
ĠgrÃ¶ÃŁ er
ĠJohn son
ĠTÃ¼r kei
Ġprep are
Ġinde pendent
K irchen
m aschinen
st ad
ĠF ro
ĠK alifornien
ĠJ enn
Ġaus reich
ĠBe aut
Ġvor bei
ĠSe arch
ĠFrank furter
Ġ189 8
199 9
ordin ate
Ġerm Ã¶
ĠBeding ungen
us ted
ĠE M
ĠK y
ĠN och
Ġj ur
Ġsch affen
ĠEin richtungen
Ġ5 4
ĠJan e
ĠComm on
Ġinit i
======== ========
ĠE ffe
et ze
Ġz er
Ġge plant
Ġfor eign
Ġr u
ĠAb itur
Ġad apt
Ġho her
ÃŃ n
Ġfac ility
Ġland wirtschaft
ĠPap ier
Ġfoot ball
ĠBrÃ¼ der
D AP
e ur
or ney
le m
Ġf ish
Ġsch reibt
ĠFrei heit
ĠÃ¶ffent liche
l u
ĠS QL
Ã¼ mm
et he
ip end
Ġdist in
gestell ten
Ġerz Ã¤hlt
Ġzunehm end
m eldung
v y
Ġc up
ĠT ay
ab geord
Ġ18 80
In ternal
Ġsh ipping
Ġ5 3
En gl
urop a
ãģ ¨
arb on
ĠPre uÃŁen
lÃ¤nd ischer
check ed
ĠSchne ider
C urrent
ot yp
art igen
eben e
ategor ies
Ġhappen ed
Ġ Ø
Ġ Ã¶stlichen
ol ogen
Ġbe coming
Ġ19 15
get Property
me er
reich er
Ġte le
ĠNe ust
stand en
Ġpar am
ĠDaten schutz
ĠInstit ution
Ġmein em
ĠMc C
P latz
k urs
or ien
Ġc overs
ĠH ospital
gen Ã¶ss
Ġsch reiben
ĠHoch zeit
wor th
rÃ¤n kt
R ange
ĠM oh
ĠD J
ph ia
kauf t
Ġmax imum
ĠM ol
Ã¤ ÃŁ
ĠT ake
ĠP ul
ra f
ĠN az
Ġde partment
rich ter
ex it
olv ed
ĠUntersuch ung
< >(
c or
p her
ar o
Ġp ow
Ġdie d
ĠK amp
Ġre ality
ĠBe am
Ġum geben
W il
k es
ĠM io
ach te
Ġre place
Ġcon figuration
ĠBe ob
Ã¤nd ige
ĠFl Ã¼cht
fort un
Ġcover age
Ġzie hen
Ġkathol ische
urren z
ĠAktiv itÃ¤ten
fanter ie
b und
b ing
h Ã¤ndler
us en
ĠA T
Ġo k
im ens
ĠC ur
Ġre form
Ġcomp ared
ĠMark et
ĠVerlag s
> )
Ġb ird
ĠM isch
os ted
Ġun gefÃ¤hr
() ).
ĠEin sch
Ġ5 6
ĠQu adrat
Ġbek ommt
Ġbr ight
Ġenvironment al
Ġsn ow
ĠermÃ¶ glichen
S eine
w Ã¤l
Ġs ter
ĠK im
ĠC ard
ak ademie
ĠSp ace
Ġgu ess
Ġtechn ischen
ĠEm il
ĠEing ang
L ang
M ore
ier end
alt y
ĠKon rad
Ġmark ets
ĠSer ien
ungsp ro
Ġdoc uments
Ġsatis f
Ġzu k
ĠSch uhe
lo aded
par ent
Ġapp lied
ommen ded
IN T
li as
Ġprocess es
Element s
Ġmag az
Ġjoin ed
ĠNationalsozial ismus
ĠObserv able
z ur
Ġby tes
Ġvor aus
Ġ5 1
ester day
Ġkeep ing
Fe ature
Ġcommit ted
histor iker
D u
k ern
| |
Ġe arth
ĠM ut
ĠT R
ann ter
get reten
Ġ18 70
br id
R o
c omm
Ġg ain
ĠSt ream
ĠRe de
ite ktur
olog ischer
Ġgu est
ĠMet al
Ġmittel alter
c at
r ics
ĠAr r
ens es
Ġzum indest
ob ject
The y
ĠHaus es
ĠPrÃ¤sident en
Ġfeder al
U B
Ġd ou
Ġs Ã¤m
ar ia
Ġf Ã¶rder
Ġc ities
ĠM atch
ĠV ern
ik ing
we il
ĠAn spruch
ĠNe um
anz ig
ĠSte phan
Ġknow s
Ġcl oud
bes itz
ĠJuni oren
ĠDon au
ĠEntwick lungs
Ġexerc ise
i ÃŁe
o ben
ĠB ase
ĠB rad
Ġauf gestellt
ert al
ĠAn f
sh ot
Ġag ree
Ġ189 9
E hr
J ohann
f alt
u i
ĠH ay
ĠL etz
if act
ack er
Ġet abl
EM ail
ĠEpis oden
Ġchines ischen
n ight
ik es
ĠU fer
teil ungen
ĠVor stand
Ġdr am
bo den
RE E
Ġsu it
ĠMod elle
Reg istry
ĠAir port
Ġstrateg ies
Ġveh icles
L en
h ops
Ġt aste
re ck
al tete
ĠF ac
ĠH yp
ĠJ im
os h
Ġis land
Ġver n
ag a
Ġart icles
Ġbus y
ĠschÃ¶ ne
ĠOh io
Ġconven ient
W irtschaft
r Ã©
ĠF ast
ĠC op
ĊĠĠĠĠĠĠĠĠĠĠĠĠĠĠĠĠ ĠĠĠĠ
ĠLand schaft
uck s
Ġke pt
Ġ189 5
ĠPre uÃŁ
Ġpract ices
ĠWeit eren
resp ond
Ġreli able
G E
P res
z ust
Ġw eder
ĠS her
Ġm ess
Ã¼ p
ĠR ail
ĠThe ologie
ĠBe weg
ĠInd ien
ĠAs ien
Ġur kund
Ġentwick eln
Dies er
ĠerklÃ¤r te
schlÃ¤ ge
ĠRum Ã¤n
ur ies
de fault
ĠV it
Ġver legt
Ġsh ower
ĠLand s
Ġstud io
ĠTab elle
zÃ¤hl ung
Ġfa ith
ĠWilli ams
S m
ĠB ull
Ġh alb
ber icht
ĠV ors
Ġat tribute
stra ÃŁen
AN D
Ġgener ation
anc er
Film ografie
ĠSing ap
ĠDÃ¤n emark
it at
ar ina
st Ã¤d
Ã¼r f
we ich
ĠGe gner
gesch lagen
Ġend lich
Ġverschieden er
ĠAlt ar
Ġumben annt
d on
h ar
or ia
ann en
ĠZ oll
Ġunter sch
ĠÃ ł
cl ub
app y
Ġper man
Ġperform ed
Ġcomb ined
p o
u ellen
al em
ĠT ats
ĠE arth
ist ischer
th aus
iz ieren
ungs ver
ĠTh ank
Ġunter en
Ġinter pret
ĠEnt fern
ĠNutz er
ĠAnton io
Ġsett ings
ĠWo iwod
Ġseek ing
Sett ings
ĠlÃ¤ uft
B re
D el
F OR
Ã ª
Ð ¼
Ñ ĩ
Ġd ank
ĠS ir
Ġm ilitary
Ġl ay
Ġk o
ĠYou Tube
Ġmed ium
ĠIns eln
mod ell
adel phia
Ġcomprehens ive
F ahr
U P
Ġv s
Ġtr end
ĠgegrÃ¼ndet en
ĠNetz werk
Ġsozial en
H i
g ow
Ġd ance
Ġs quare
ĠK amera
Ġre le
Ġr ub
Ġle aving
Ġwas te
Ġinst alled
ĠKomp osition
Ġbal ance
ĠÃ¤ltes te
M O
al is
al ition
ĠH ong
ĠL ocal
Ġr ental
erv ation
Ġgew Ã¤hr
ãģ ¦
AT A
Ġerinn ert
: .
p asst
ĠG allery
ĠW atch
ot ton
At tributes
Ġtrans action
ĠCo ast
ĠMathemat ik
c os
is lat
al o
sch ne
Ġbe ant
Ġ18 48
Ã¤t t
gel s
Ġtr ifft
Ġcont ainer
ikan ischer
Ġvers uchte
ĠInd ivid
val ues
ĠInter essen
Ġ189 6
ĠSec ond
Ġleader ship
æ ľ
Ġf arb
Ġf illed
Ġl ights
ĠHer kunft
grÃ¼nd er
ĠWar en
ĠPlan ung
ĠMil ch
B ere
R est
j u
Ġv en
ĠP ots
im ents
ĠH agen
ĠW urz
ĠN umber
gr iffe
Ġtr uth
Ġfe aturing
ĠFor mat
ĠSan kt
Ġwicht igen
Ġlearn ed
Ġbrand s
ĠAfr ika
ĠLÃ¼ beck
ĠverfÃ¼g bar
chip karte
K o
g yp
k Ã¼rz
st rom
geb nis
Ġausge fÃ¼hrt
ĠSowjet union
sÃ¤tz lich
C ert
W S
w urf
ar ks
ĠT H
ĠG all
ĠIn stall
ĠIn frastruktur
Ġcon temporary
ĠAus einanders
Ġ9 9
leg entlich
Ġbel g
ograph ic
Ġcons umer
ĠKÃ¶nig in
AC K
ĠkÃ¶nn ten
Ġgemeins ame
sta aten
ĠKarls ruhe
a ult
n itten
ĠI nde
Ġzu g
je kts
Ġunter halb
ied elt
ĠMan fred
ĠBl ues
Ġsupp orted
ĠDat um
Ġunivers ity
ĠPier re
F alls
W ert
Î ±
ĠN avy
ĠCh ief
fol io
produ ktion
AB LE
ĠerhÃ¤lt lich
ĠCanad ian
S pieler
s ichts
u ay
Ù Ħ
ĠS ens
Ġm aÃŁ
iel le
ĠVer dienst
Ġgen ug
ende ten
Ġem pty
ĠProf il
ĠHar ry
Ġconne cted
ĠOp ern
ĠPlat ten
Ġkathol ischen
Que ue
i he
m i
p op
w ish
Ġt oll
ĠK ent
Ġl ibrary
Ã¶ tz
Ġmit einander
ger Ã¤te
lie f
ĠWe gen
ĠAb t
Ġklass ischen
Ġpan el
h ou
j or
s st
} ,
ĠB Ã¤nde
ĠT u
Ġhe ader
Ġass ert
ĠWahl kreis
usÃ¤tz lich
Ġvol unte
U nd
X X
r ates
Ġs ustain
im en
ĠK redit
fen se
ĠMar i
Ġper haps
ron en
ĠRes ource
Ber eits
ĠMot iv
cel ona
. _
A A
D ay
J ohn
c ious
st ers
ĠM obil
ug os
Ġex ter
Ġwir kt
ĠStud ies
ĠBened ikt
k ultur
Ġt ickets
ĠM ember
ĠL ike
ir ts
Ġas pects
Ġvor ge
igh ted
Ġwel chem
ĠCont rol
klus ive
L ayout
e per
al i
Ġb ayer
ing ham
ĠF Ã¤h
ub il
Ġhelp ful
ĠBau werk
ĠBÃ¼ hnen
Jahr en
ĠTab ellen
ĠErk rank
ĠZusch auer
fÃ¶rder ung
Ġacadem ic
Ġerstre ckt
k rit
Ġh ook
Ġre chte
ht ml
Ġman ual
ob el
ĠWe il
ĠBer atung
ĠBo ot
199 6
Ġeconom y
D om
S ingle
S ET
e g
de gang
Ġr uh
au ert
iz za
Ġspe ak
ĠAug sburg
Al t
ĠBahn strecke
ĠJust iz
ĠZwe ck
Ġwid th
ĠSon ne
Ġautomat isch
D aten
i Ã³n
z ul
ĠV og
tr ich
Ġse at
Ġco ast
ĠGesch le
ool s
Ab sol
ĠGegen wart
Ġtre es
Ġengl isch
Ġwind ows
ĠCoun try
ĠColumb ia
v ollen
Ġf ot
Ġe legant
iv a
Ġzu geordnet
Ġaus ges
land es
ĠLe ute
oun ted
ĠSte ve
Ġra ised
ĠOb wohl
ĠmÃ¶glich erweise
Ġassist ance
ĠImm obilien
I E
S u
T er
X ml
re h
ĠA achen
ĠG le
ĠK eller
ĠW ales
Ġl auf
Ã¶ z
ĠEntw urf
ĠEigen schaften
ĠMex ico
E Class
v ens
Ġc ultural
ĠR as
est amp
ap i
ĠGer Ã¤te
ask a
ĠDem oc
folgen den
Ġzust Ã¤ndig
ĠAntw ort
S ep
ie ten
le hre
ĠC os
Ġan schlieÃŁ
eb urg
iz ona
ph ase
Ġbest ritt
ĠSk y
Ġpriv aten
ĠUnabhÃ¤ng igkeit
b ett
Ġa uÃŁen
ĠD un
Ã¤r ten
ac ing
ms g
Ġviel fÃ¤lt
199 0
ĠStÃ¤d ten
Trans action
ĠViel zahl
edic ularis
star ts
Ġexclus ive
k la
in tend
re es
ar g
ĠM i
ĠT emplate
Ġj ack
In formation
Ġent schied
Ġqu iet
Ġbet rieb
Ġest im
besch reibung
ĠGal ax
N OT
p atch
on i
ĠK ost
ĠL oc
ĠL eder
and e
ies e
Ġnot es
ĠPr int
kehr t
med izin
pos es
VAL UE
S earch
ĠH Ã¶ch
ĠSch reib
ator ium
grÃ¼nd ung
ĠMann schafts
ĠFrie dens
Ġdirect ory
CE SS
Ġregistr ation
ĠÃ¤lter en
Ġbenach bar
F ailed
w ich
ĠS ud
Ġein iger
ĠK am
Ġl i
Ġ18 60
Ġapp oint
ĠHand ball
setz te
Data Type
Mill is
Ġrand om
M ag
r asch
eb all
Ġver Ã¤ndert
ĠDie ter
Ġcomp are
iss es
ĠFl Ã¤chen
ĠMin i
Ġfre und
bahn hof
ĠBro ad
EC T
l ik
x id
ent lichen
Ġl abor
ĠN ull
Ġsc ript
Be im
ãģ Ļ
ĠSchn ell
Ġfocus ed
Ġabsolute ly
F il
t lich
v ice
y t
Ġa th
Ġa ware
Ġb lieben
Ġm essages
el en
ers dorf
Ġus w
Ġ/ >
Ġsmall er
ĠChampions hip
Ġinj ury
h Ã¼ter
n oten
r amm
re me
ĠD ich
ĠH ugo
ul ate
ver l
ĠZ ul
In ternational
ĠKl ima
ĠKont rolle
ĠDort mund
Ġconc entr
\ \
g han
Ġs orgen
us sen
ĠD ynam
ĠG anz
ĠC apt
Ġre pe
qu er
schaf fen
An halt
ĠÂ ·
ĠOff izier
Ġklein ere
wirk ung
ĠjÃ¼d ischen
Ġnotwend ig
A bst
F ranz
ĠM ans
ĠH ess
Ġk g
tern oon
Ġte ils
ĠSchw ier
ĠAs ia
Ġrun s
ĠJapan ese
Ġestabl ish
' );
E P
J apan
Ġs ister
ĠM ig
ĠL inz
Ġan genommen
ad ow
ast rop
ĠLe hre
ific ations
Ġmin or
Ã¼t ze
ĠMann heim
199 8
ĠMik ro
Mat rix
# #
1 16
f aces
Î ¿
ro ot
ĠH eb
gen cies
ĠThe orie
hn te
ov ed
Ġprom ote
ĠSouth ern
Ġeb enda
P al
s upp
Ġs it
Ġl ose
ĠZ o
ĠRe quest
Ã© t
book s
Ġmen u
Ġpract ical
f irst
Ġt empor
Ġb rown
Ġb rief
Ġm ale
ĠD rag
ĠW hether
Ġy outh
ĠVer letz
Ġ" /
ĠOr ten
ex p
Key s
Ġ189 7
ĠLebens mittel
yd ney
Ġspeziel l
ĠAutom obil
Ġlaunch ed
v ia
Ġs inn
ĠD ark
ter y
ĠT rÃ¤ger
ic ian
ĠK la
ĠK ob
ĠHe ktar
Ġbes aÃŁ
ĠGemein der
AN CE
ĠMich el
ĠGrÃ¼nd er
Ġstark en
verband es
Ġextens ive
t x
Ġ ice
Ġ Ã¶rt
is emit
Ġv irt
Ġj ump
Ġsh ap
ais er
AL L
Ġspec ies
B undle
b rand
Ä ĥ
ĠB art
ĠB itte
sch wer
ĠC ro
Ġ9 5
arbeit ete
Se e
Ġsu itable
esent lichen
ns bruck
Ġprevious ly
ĠBrasil ien
ERR OR
ĠIsa ac
C L
ĠA sh
ĠB oth
ĠB latt
Ġn av
ĠSt unde
fÃ¼hr ungen
ãģ ª
Ġinc or
ĠWÃ¼rz burg
or i
an ie
Ġo st
Ġbe ziehungs
od ies
Ġj son
Ġch amp
Ġeinz igen
Ġworld wide
legen heit
Ġgest altet
Ġcontin ues
best and
Ġpattern s
Ġrelig i
ĠBesonder s
E very
K irche
O UR
le ts
ĠW art
Ġbe comes
ier er
Ġdes igner
ĠĊ Ġ
Ġany where
Ġthere fore
ĠOn ly
iqu id
ĠTer r
Ġverhinder n
C ommand
g reif
Ġf avour
ĠM inn
ĠSt imme
Ġde ck
Ġle gend
ĠBe cause
Ġdo ctor
Ġacc essor
stra ct
Ġeduc ational
Pol icy
W ill
Ġd inner
te am
ĠA B
ĠA dr
ver kehrs
aus end
inz ip
Ġber Ã¼cksicht
arb y
Ġlog o
Ġhapp ens
ĠMitglieder n
Ġcaus ed
ĠbestÃ¤t igt
ĠViet nam
b uffer
ĠK abin
ĠAn trag
Ġsch ied
olog isch
EN D
Ã¤ng nis
Ġfre ien
ĠTÃ¶ch ter
o ir
Ġp ul
st ore
ĠT ob
ess in
ĠFl ucht
hÃ¶r ige
acht ung
Ġmost ly
Ġsign ed
ĠBach elor
ĠIll inois
Acc ount
Ġd b
Ġd eine
Ġd ates
ĠJ ena
rit ing
Ġange gebenen
Ġengl ischer
ĠUms etzung
Ġerforder lich
e xt
Ġs izes
an on
Ġm ist
Ã¤ st
Ã¤ fte
Ã¶ gel
ĠN ation
az in
Ġlead s
Eng ine
Ign ore
( _
ĠD inge
ow e
ang a
ant ic
ia c
lan ge
Ġra w
ĠMet rop
Ġvol ume
N um
n i
p le
r us
ĠSt ift
Ġunter scheiden
ĠEx press
ĠVerb esser
ĠAkt ien
Ġlat ein
Ġbirth day
Ġdescrib ed
ĠAutob ahn
H ein
J ahre
S ein
g age
k anz
x ml
Ġ icon
ĠS ymbol
Ġp ump
ĠD ist
fin der
Ġob vious
Ġdec ide
Ġeigen es
Se quence
fra gt
riter ia
ĠjÃ¼n g
ĠWoiwod schaft
K l
k amp
t ree
Ġc row
st um
st ift
ĠD issertation
ab end
sp art
Ġseit dem
199 7
ĠKn ow
ĠTer rit
Ã¤mp fe
ĠBron z
R S
ĠB em
Ġc ells
ĠP edicularis
ĠE UR
Ġbe grenz
Ġre ag
ger Ã¤t
ĠBe eth
ĠÃ¼ber nehmen
ail ability
Ġcomp l
Ġsub mit
unter richt
ĠDes halb
ĠBar celona
orben en
sw ers
denk male
Ġzie ht
Ġlux ury
Ġbehav ior
ĠMatth ias
H inter
I O
h Ã¤nger
ĠR ett
Ġer lang
ĠEin heiten
ĠCh ance
ĠOb last
ĠWelt meisterschaft
ams ung
orge ous
Ġresp ond
Ġfund s
char At
Ġbedeut end
ĠprÃ¤sent iert
ĠContin ue
Ġbatter y
ch or
Ġs au
ro g
ĠK up
ĠV ill
Ġver urs
Ġent schieden
igh ter
ĠRo om
ĠKap ital
ĠWeltk rieges
ĠMein ung
Ġbeziehungs weise
ie ht
or ough
re gel
ĠD ollar
ĠL ag
ĠV I
Ġwh atever
Ġme ant
âĢľ ).
In sel
lass ung
ĠSe kunden
Ġar range
ons erv
Ġersch einen
Ã¤nder te
ĠLu c
ĠBur gen
itar re
ĠGespr Ã¤ch
P RE
f ir
or b
or ded
isch Ã¶
ein heit
Ġden k
ann i
Ġex pression
In nen
Ġen ded
ĠBr enn
Ġmin imum
Ġfl ight
Ġkey s
Ġgar age
Hand lung
Ġoffen en
3 00
S L
l ate
w irtschafts
ĠT y
ĠR al
ang o
pr ene
con stants
ĠPla ce
iate ilnehmer
ĠTemp el
aill en
ĠjÃ¼n ger
Ġw inning
Ġc ute
ent ially
ĠT onnen
ĠP el
Ġis ol
ĠZ ivil
Re chts
ĠFre itag
ĠFr ucht
Ġinspir ation
1 18
M em
S ince
o ter
an isch
ĠF ab
ist rÃ¤ger
Ġtra f
ieb el
Ġbas iert
Ġspecific ally
ĠMaterial ien
EX T
ĠAbgeord neten
ĠVarian te
ĠTemper atur
as i
ĠA D
ĠA z
me ter
Ġget ragen
ĠMe chan
ĠCl ient
spre cher
ube hÃ¶r
ĠursprÃ¼n glichen
ĠVictor ia
Cal endar
B ig
N atur
O B
Z e
p aar
p ommern
Ġd oll
ed u
ĠK urfÃ¼r
em an
sch icht
Ġl ayer
la ut
Ġver f
yste men
stell te
ron ik
ĠTr ib
ĠStud ent
Ġfun ctions
ĠMark us
Ġ189 3
ĠWir ken
ĠAndre w
Ġt ail
Ã¶ ck
ĠN OT
Ġver geben
Ġr ide
ern ame
ĠGemein schaft
ret ch
deck ung
Ġenjoy ed
ĠÅ ł
Ġenh ance
B ra
M essages
on ic
ro h
Ġp urs
ĠF lag
Ġj u
iz ens
Ġ18 71
Ġsp ann
pro perty
br Ã¼cken
Ġdis app
Ġ: )
ĠSk la
Ġander es
Ġcontin ued
Ph il
Ġthough ts
Dat abase
o ire
al and
ĠF our
ĠAm b
aw n
Ġserv ing
Ġsho es
ĠÃ¶sterreich ische
Ġpriv acy
emb ly
ĠKranken haus
ĠSupp ort
Ġs orgt
ĠT ree
ĠG ipfel
ĠK il
Ġi P
Con stra
ĠAlb recht
ĠRu he
ĠHalb finale
Ġbehand elt
D ire
O pen
ol ge
ĠAr men
Ã¤r m
Ge w
Ġdel icious
Ġ189 2
ĠEner gy
ĠzusÃ¤tz liche
Ġarr ived
ĠPrinz ip
P air
S a
h av
Ġm ort
ĠB ier
ĠSch ott
end o
ĠVer wand
Ġsch uf
Ġvor wiegend
fahr zeug
Ġother wise
ĠRuss ian
ĠPass ag
ĠEing abe
ĠThÃ¼r ingen
/ *
B uch
O st
er a
or ph
ol ph
Ã¼r zt
gesch windigkeit
Ġnational en
Not Found
Ġwissenschaft lichen
ĠItal ian
m auer
ĠH amm
ĠR uh
Ġk os
Ġst yles
fen ster
zeich nen
ĠBÃ¼ hne
ĠDire kt
Ġelect ronic
Land kreis
cep ts
ĠWik ipedia
y ers
ch o
re tt
ĠW end
ĠN at
est and
ĠSt ore
ass au
get Id
Ġen able
ĠPh ase
ĠKl im
ĠRegion en
ĠGu ide
Ġmar ried
hÃ¤lt nisse
Ã¤dag oge
Ehemal ige
s dorf
č ĊĠĠĠĠĠĠĠĠ
in de
ĠS E
te ms
ĠP as
ĠK rit
ĠK alk
ik as
Ġst unning
ĠTor onto
iam i
ĠMehr heit
Gener al
Ġhon est
K ompon
f ranzÃ¶s
v ater
z lich
Ġ iron
or ganis
ĠD ream
ĠI ron
ĠGe werbe
Ġacc ident
Ġcre ation
Ġgar ant
ĠGrÃ¼nd ungs
ĠSchn itt
isc ons
seit ig
Ġappear s
ĠMex iko
Ġsym pt
Ġautomatic ally
Ġbetrach tet
ie ck
ĠS ul
ĠB R
Ġein geb
Ġg lob
ĠC P
ak et
Ġex amples
gr Ã¶ÃŁe
Ġrec ipe
Ġdar aus
Ġaufge fÃ¼hrt
Ġtot ally
Ġdiscuss ion
ĠMass achusetts
gorith m
ĠSebast ian
1 17
M ilitÃ¤r
T our
Ġs qu
ĠS endung
un fts
Ġc os
ĠH ave
ĠL ern
we et
Ġde fe
ok er
ĠEr ste
Ġvor gestellt
Ġunter wegs
ĠBer nd
sel ves
yn ast
Ġreg ional
ĠSc ot
ĠOff en
OR T
Date i
aun a
Ġmass ive
ĠAre a
ĠerhÃ¶ ht
M M
W or
re ht
ra uf
sch uld
ist ing
Ġfor mal
lat es
Ġgef ert
Ġoption al
Ġsecond s
ilen ame
ĠrÃ¶m ischen
Ġintrodu ced
Ġtemper ature
e i
ĠB Ã¼r
ol and
ĠBe hÃ¶rden
ang le
ĠGe fahr
Ġcomp la
ĠGeschÃ¤fts fÃ¼hrer
ĠDipl om
Ġgetr ennt
k ar
ĠA ar
ĠH em
ct ural
ĠSt urm
ver teid
ĠSch la
Ġ18 50
ĊĠĠĠĠĠĠĠĠĠĠĠĠĠĠĠĠĠĠĠĠĠĠĠĠĠĠĠĠĠĠĠĠ ĠĠĠĠĠĠĠĠĠĠĠĠĠĠĠĠĠĠĠĠĠĠĠĠĠĠĠĠĠĠĠĠ
fortun ately
P o
ļ Ń
ĠG n
ĠL Ã¤nd
ĠSt ill
kt op
Ġad ults
Ġup coming
... ]
Ġklein es
1 15
D DR
p c
Ġc art
ĠL ust
ĠC oll
Ġst ack
ĠAl k
Ġar m
utz ung
Ġges ellschaft
An t
ĠDon ald
ĠGesund heits
ĠRun timeException
Pe ter
Ġdig it
Ġanim als
A pi
B E
F iles
b indung
g i
ĠT un
Ġsp ons
ĠCh am
sk a
Ġverb indet
ling t
Ġtop ics
ĠPhil adelphia
abet es
vier tel
Ġadvert ising
ĠIngen ieur
ich ern
ĠG it
ĠK itchen
ĠL izenz
Ġk ombin
Ġst Ã¤dt
ass ung
teil te
ix ed
Ġange zeigt
ĠKl osters
ST R
mar sch
ush ing
ĠMag n
Ġbr asilian
Ġdan ger
umin ium
ĠBestand teil
Ġverpflich tet
J anu
M sg
S uper
d oc
ĠB alt
ĠH av
ul in
ot ions
Ġst yl
ay ern
Ġab gesch
get String
ud ing
hol m
ĠSÃ¤nger in
ĠMagaz ine
Ġaf ternoon
. ).
M er
Ġb ur
Ġp latz
Ã¤ use
om it
Ġdes k
ĠThe ir
Ġzw eiter
ĠMin ute
Ġmar riage
ĠEis hockey
Ġsound s
J ose
M o
e v
k ind
re ffen
ĠB ath
ed ig
ĠH aupts
ĠSch uld
for scher
Ġsp Ã¤ten
add All
Ġvis iting
ĠSpe icher
Ġbra ucht
fre ie
Ġverkauf te
Ġhundred s
U ri
c ohol
ĠB Ã¶r
ĠP A
ic ans
Ġdie t
ĠH Ã¼gel
ĠC her
Ġst one
Ġle aves
Ġnach halt
ĠAr k
Ġbes etzt
Ġ7 2
Ġspe zial
unkt ions
IC E
Ġbestehen den
Ġmanufact uring
ĠHig hl
B en
Â ³
in it
st yle
ess ed
Ġver tra
ĠAl te
ĠAl though
co in
Ġbuild ings
zuf Ã¼hren
ĠflieÃŁ t
b ahnen
s ort
Ġn u
ol ver
fe hlen
ĠHe y
An merkungen
Ġspiel ten
ÃŃ a
Ġcandid ate
ĠRost ock
Ġingred ients
V I
u v
ĠH alt
Ġge grÃ¼ndete
Ġne ut
lic ations
Ã¶r ungen
ĠNe ur
ĠMar burg
Ġrec ommended
ins on
folg ung
Ã¼t ten
Ġsol chen
Ġklein eren
Ġval u
Ġwissenschaft liche
Ġupd ates
1 20
r uss
Ġne ck
ste ig
Ġsch aff
Ġunter r
St iftung
ĠBr idge
gesch oss
Ġfamil iar
On ly
On line
Ġcall ing
ĠAnt i
ĠOl denburg
ĠNomin ierung
K at
R uss
ĠL ady
fe uer
ond a
ĠGem Ã¤lde
ĠRes erve
Ġnor m
ĠBel g
Met a
Ġcompet itive
ĠExper ten
Ges ellschaft
ĠTown ship
Ġcandid ates
Ġoccas ion
zep te
D i
H z
S D
Ġre put
ĠUn fall
ĠAr izona
ens us
imm ungen
ĠFil mp
col umn
ĠKommun al
Ġrepla cement
Ġcabin et
Olymp iateilnehmer
ĠPfar rei
re place
ĠH Ã¤
ate way
ĠIn nsbruck
out s
ĠCh air
ĠWe ib
En c
Ġsur vey
ĠBre mer
ĠPl Ã¤tze
Ġeinfach e
ĠSm all
ĠRund funk
Ġremov ed
S uch
un ting
Ġv illage
ut y
Ġein schlieÃŁlich
ĠE g
ĠE mer
ĠR ess
ĠJ etzt
ĠEin kauf
Ġpr ivat
Ex p
Ġinter face
ĠPf ad
ĠAt om
ĠRo hr
Ġbeh aup
ĠBesch Ã¤ft
des ign
Pre fix
far be
Ġdeutschsprach igen
C la
Q U
h es
m ach
ĠS A
ĠM alt
ĠP y
ĠG att
ĠE P
um es
Ġdes ire
th en
we ar
our cen
gr Ã¤
stell ig
Einz el
ĠCl ark
Ġ189 4
B it
Ð ´
ĠĠ Ċ
ĠB alk
ĠR he
ond iss
ãģ «
Ġcr is
stre cken
Not Null
ĠVerÃ¶ffentlich ungen
ĠPac ific
h arm
or ry
ĠS auer
ĠD iam
ĠAn im
ok es
ĠAuf nahmen
Ġfe e
ĠGes ang
Ġhier bei
Ġcla ims
ĠFÃ¼hr er
gÃ¤n glich
Ġagre ement
ĠZus atz
Ġsicht bar
T est
d ro
Ġ upper
Ġm ur
ĠD uring
Ġth us
Ġan imal
Ġsch rift
ĠSie ben
ĠkÃ¶n ne
ĠInstit uts
k olle
Ġ5 8
Ġ6 6
Ġ6 8
Ar g
ĠSh ort
Ġletz ter
ret ung
Ġeinfach en
ĠFil ter
Ġmajor ity
ĠGebie ts
ĠColor ado
T L
Z one
k w
Ġl ayout
ul ated
ĠSch we
sp lit
Ġsch lecht
Ã¤n k
Ġwor ry
olle yball
ĠDis ney
ĠKo operation
State Exception
S ome
v m
st amm
Ã¤ udes
ĠN R
ĠSch aden
Ġum ge
Ġar ts
ĠBundes staat
ĠPol ice
Ġlang sam
199 5
jÃ¤hr iger
Sp ace
Ġtre ten
Ġricht ige
ĠMult i
Z wischen
Ġb ist
Ġ( ).
ĠP ur
ĠSch ild
ĠEr Ã¶ffnung
Ġam b
ĠWei ÃŁen
Ġbisher igen
Tod ay
ĠM ade
ĠD ein
um ps
Ġge he
ĠIn formations
ag on
ail and
Ġbesch Ã¤d
jahr es
Ġdefin ed
ĠKÃ¶l ner
Ġjapan ischer
National mannschaft
Ġbein hal
M Ã¤rz
Y our
e ff
or p
at ische
ap est
ult y
ĠGe gend
wer ben
ges ellschaften
Ã¼nd en
ĠPol icy
ĠBot schafter
Ġreach ed
Gra ph
iscons in
F B
y o
Ì Ī
Ġin nen
Ġp m
Ġp ray
Ġn ennt
ĠM esse
ĠP ian
ĠW Ã¼r
ĠAus gang
Ġoff izielle
Ġra pid
Ã¼t ter
âĢ¢ âĢ¢
Ġmention ed
Ġpromov iert
C ommerce
b ein
is or
ĠM essage
ĠF ans
ĠH als
Ã¤ch er
ĠFre ien
He ight
Ġ188 8
Ġocc up
Ġdistr ict
Ġjem and
A kt
F OL
m ain
s ession
u j
Ġs in
le ucht
sch irm
ow o
sen de
ĠAl ben
ĠSe a
ĠPat rick
ĠLim ited
P aul
t oken
z um
it ro
ing t
ĠB iele
Ġp ure
ĠF iction
Ġein deut
Ġg ay
Ġ18 00
Ã¤r t
fahr ts
war ded
Ġschwer en
hers teller
Ġextens ion
starts With
M art
r s
ing ly
Ã¼ fen
ĠM es
Ġbe endet
ell es
ok us
lie gt
ĠAus stattung
ĠAb out
ĠGeorg ia
ĠEv ents
ĠMill iar
H A
p il
p th
ch a
te en
ĠJ son
Ġre aders
qu elle
geb lich
ĠPr ior
Ġbreak fast
Pos ted
Ġt rop
ĠG Ã¼
ĠH Ã¼
ĠC reek
Ġver fasste
ĠAus bau
Ġag ent
ĠMÃ¼n chner
Ġown ed
199 3
ĠSil ver
ocol ate
Ġverste hen
ĠGir l
A c
N or
R Ã¶misch
v ard
Ġf aster
ul er
Ġer mittelt
Ġk orre
od ge
ced es
199 2
Ġimport ance
Ġphot ography
Ġther apy
Ġoffiziel len
Ve ctor
Ġ Ñģ
is burg
Ġv ent
ĠT ode
Ġbe er
pe kte
esch oss
for ce
Ġreturn ed
ĠCon gress
Ġerr ichtete
Ġexist ieren
Ġfund ing
ĠMad rid
ĠFle isch
Ġhous ing
Ġincred ible
ach el
if orm
ver zeichnis
ĠVer g
Ġ5 9
los ed
ĠNach wuchs
ĠAll en
Ġmin i
ape ut
ĠFel ix
Ġhous es
lÃ¤r ung
S A
f Ã¤l
it age
an ia
us hed
Ġo s
il ige
ĠG ru
ĠH at
ĠH rsg
ul ations
ãģ Į
ĠAll tag
Time out
ĠDav is
IV E
Ġdistrib ution
Ġneighbor hood
S im
Ġa u
ĠA dresse
Ġl iber
Ġwir ken
Ġen det
ĠBr ian
ĠBau er
Ġpres ence
Ret urn
Sep tember
J ava
k Ã¼ste
us se
Ã¤ ck
ĠD ig
ĠF unk
ĠG uts
ĠR Ã¶m
Ġge e
ĠChr isten
Ġwicht iger
ĠPort al
ĠInternational e
Ġsearch ing
stant in
Ġregel mÃ¤ÃŁ
Ġdiscover ed
bour ne
dat um
ĠNiederland e
ĠÃĦnder ungen
ĠPots dam
Ġaccessor ies
R ock
V E
j ord
ĠS ynchron
ĠT ony
Ġbe zeichnete
ĠVer eine
be an
ĠAus zeichnung
ende d
Ġerw artet
sw ald
Ġcho ices
opp el
ĠGlock en
ĠKÃ¼n ste
v et
ch nen
Ġt at
ĠS ort
ĠG il
ad r
Ġge Ã¤ndert
sp rÃ¤sident
Ġ6 3
Pro f
ĠBo gen
Ġwould n
bereich e
Ġport ugies
ĠSchne e
Ġcelebr ate
A pril
R C
S PD
p ie
Ġ ).
Ġm ental
Ã¼ re
ir urg
Ġer l
id i
ĠZ ucker
Ġpro min
ĠAn wesen
ĠÃ¼ber sch
Ġsp ending
Ã¼n n
ob j
igt es
oth ing
tes ten
let ion
hel ms
ĠRegen sburg
Ġsurround ing
E qu
he w
ĠM B
am o
20 20
ĠAnd ers
ĠBl Ã¤tter
ĠJu an
Ðµ ÑĢ
forder t
Ġadv ance
Ġcla zz
opt ion
waren ess
ĠQual itÃ¤ts
or ter
Ġw Ã¤hlen
ĠJ oy
ĠVer zeichnis
alt ar
ĠTra g
ĠEurop as
reg isseur
ĠSen ior
Ġverst arb
Ġqualif ied
Ġcommit ment
Ġpoln ischen
ro ph
Ġh Ã¶ren
Ġein getragen
et ime
ĠBe f
Ġat tributes
Ġapp s
Ġ8 8
Ġph arm
ĠNor mal
Ġange hÃ¶r
Ã³ w
ential s
Ġallow ing
ĠpersÃ¶n lich
h art
Ġd unkel
as ant
Ġin tr
im ov
ĠK ardinal
ĠW itt
ĠUn sere
ĠSp irit
Ġ188 5
Ġrespons ibility
Ġrev olution
strahl ung
K ar
T im
s ein
on ischen
an teil
Ġb order
Ġf lag
ĠK Ã¶n
ĠK rÃ¤
Ġg Ã¼lt
Ġgen et
pro v
ĠGesch mack
com mer
)) );
ãģ Ł
ma ÃŁen
Ġpol icies
Ġ189 1
ĠNorth ern
Ġimpro vement
Ġvorhand enen
Ġfeature d
ĠDenkmal schutz
ĠÃ¤ltes ten
ĠChild ren
ĠKrank heit
E xt
S yn
ch i
Ġt ile
un checked
ĠF A
ow itsch
ĠVer fassung
In itial
Ġpla ys
Ġges p
Famil ie
ĠSpre cher
B ound
K unst
M ost
Ġt arge
un nen
Ġf ly
us alem
Ġmy ster
ĠGeb rauch
Ġrem ains
Ġgleich e
AC E
ĠMinister prÃ¤sident
ĠGleich zeitig
ĠDipl omat
NotFound Exception
a ktionen
b ound
Ġd okument
ar isch
un ks
Ġm outh
Ġe ating
und et
ĠĠĠĠĠĠĠĠ ĠĠĠ
Ġl istener
our i
ĠPr ice
Ġlie be
cy cle
Ġbring ing
ĠCor ps
ĠAnaly se
g asse
h s
w Ã¼rd
w idth
z il
Ċ Ċĉĉĉ
Ġn ennen
ĠAl p
Ġqu otes
Ġco ach
bar er
ĠRes erv
jahr en
Ġkomp lex
ĠAbgeord neter
ĠBul gar
ĠPremier minister
ĠEns emble
J Ã¤hr
Ġthe oret
el ing
Ġst ars
âĢľ -
ĠEin en
Pro zent
ĠGes ell
unn y
Ġstatt finden
ĠNieder lage
Ġtyp ically
Ġenter tainment
vertre ter
w ords
ĠS ummer
ĠS ydney
Ġm ob
ĠM Ã¼hl
ĠT ai
ĠT ransp
ĠK a
Ġst arten
ĠOr den
De cl
Sch ema
ĠNatur al
forder ung
trÃ¤ ger
ĠBrun o
ĠLink ed
ĠQue en
ĠRog er
ĠMom ent
C ap
S l
ĠW en
ver lÃ¤ss
ĠSp itz
haus e
Ġtechn ologies
ĠÐ ²
Ġcle arly
Ġcal endar
ĠMotor rad
ĠAud io
m ill
es ota
Ġw Ã¼n
Ġf oll
ĠB urn
ĠB arn
Ġk ick
ĠSt ab
all iga
Ġauf treten
ĠÃ¼ber setzt
hen den
Ġes c
ĠEn vironment
Ġacc ounts
He aders
sprÃ¼n glich
Ġdeliver ed
index Of
Ġappear ance
Ġprem ium
ï¼ Į
Ġgren zt
ĠTay lor
w Ã¤hnung
Ġb aute
ig ers
ĠK un
ĠK Ã¶r
ĠL ein
Ġth reat
ze ige
ĠVer w
Ġ" ,
Ġ6 2
ĠSk ulpt
Ġgest alten
Ġperfe kt
ĠHerr n
ĠGraf ik
Ġask ing
ĠGott fried
ĠPhys ik
Ù ħ
es k
ĠB our
ĠP R
Ġein s
Ġer gibt
od ox
tra ck
Ġmin im
arr ier
Ġser ial
trag ung
ĠsÃ¼d Ã¶stlich
Ġsupport ing
ĠGebie te
Ġtrotz dem
dire ktor
m iss
an bul
he ber
Ġh yp
ĠH ope
ĠL ed
Ġ3 000
me te
ĠPr ivate
Ġour selves
Ġemer gency
Ġbege ister
Ġin tended
Ġp oll
Ġc aught
ĠT oten
ĠC reat
ĠZ iele
ste chnik
ĠRe z
Ġwe aring
ive au
pr Ã¼fung
ĠQu art
spieler in
ĠNational mannschaft
ĠFahr rad
Ġexp ensive
ĠWochen ende
Ġjapan ischen
ĠMem orial
ĠTi rol
F i
c our
e ing
ig s
ĠP os
Ã¶ nen
ran e
ack s
ph ones
ĠIt aly
ĠTra vel
Ġbo ys
ĠspÃ¤ter e
RE S
ĠJugend liche
umm ern
Ġheraus gegeben
UN D
stud ium
ĠAcc ount
b te
Ġa ctions
Ġf rem
ĠR oth
ad i
ĠAn gabe
iz ierten
ĠUnter schied
ĠBr ust
Ġbeg leitet
gew inn
vers icherung
ĠVerb reitung
Ġobject s
ĠGed ichte
ĠNÃ¤ gel
Ġmat hemat
ĠUp date
Ġhon or
ĠArr ondiss
ar ent
19 18
ole k
ĠBl u
the ater
Ġitalien ische
Ġsozial e
Ġconsum ers
Ġs ides
ĠP seud
im ir
ĠE rot
ĠL yr
Ġan gen
ĠSch all
ĠEr richtung
Ġch osen
ĠUnter richt
inter est
ĠVerein igung
ĠOl iver
ubs cription
Ġmanufact urer
ĠAltern ative
ĠLuf tw
- /
C lick
E ach
F est
K inder
S M
v iel
Ġs itting
or al
ĠM obile
ĠF F
ĠF red
ĠL aden
Ġan swers
Ġver trat
Ġaus fÃ¼hr
sen der
etz te
ĠWe ber
ĠWelt meister
ĠBes ter
ĠGer Ã¤t
ĠFahr t
Ġshow ed
leb te
Ġpo et
ĠGef angen
Ġlok alen
t al
Ġ1 15
ĠG ab
uf er
ĠN iger
Ġsch ott
Ar beit
Ġhinz uge
ĠSpring er
Ã¤dagog ik
Ġgriech ischen
Ġdepend ing
Frank reich
Non Null
Ġslight ly
T ro
U se
m ans
v arian
Ġp leased
ĠEr ic
fahr ten
ĠNieder Ã¶sterreich
Array List
ĠHil fs
Sh ort
Ġengl ische
mod el
ĠVerantwort ung
H Ã¶r
O F
Ġt utor
ĠS zene
Ġb attle
ĠC N
op her
ĠRe isen
Ġwar um
ile y
Ġres olve
ism ar
ĠVerb ands
Ġschw ere
ĠÃĦ gyp
With ServiceResponse
Ġperfect ly
Ġopin ion
WithServiceResponse Async
' .
an ischer
ĠS eminar
ĠP ie
ĠC ob
Ġl unch
ind ungs
ĠVer trieb
be cken
Ġins ert
En tw
ĠBes etzung
leit en
Ġparticip ate
Ġencour age
Ġhil ft
ĠJord an
K omp
i ors
y ll
Ġm ent
ĠF Ã¼nf
Ġto ugh
Ġg ern
Ġan geschlossen
ĠSch aff
ĠAn bieter
ĠSp ur
ĠNe ues
ĠAs ian
ĠPer formance
Ġ188 6
anc en
ĠAlt stadt
Ġzentr alen
Jahrhund erts
L AN
o ÃŁen
Ġb ond
Ġn ative
ĠE ugen
ed ing
ĠC ase
Ġl if
Ġl ived
ah a
ho fer
Ġte levision
ans ion
act or
Ġrec o
Ġges und
Ġgu itar
ĠGu ard
weis ung
Ġed itor
Ġproper ly
ĠOrganis ationen
M otor
T emp
n ames
á »
Ġin fe
ĠB atter
ĠM A
ĠP ict
Ġver ab
Ġver anst
Ġr ise
Ġam t
Qu alif
zeit schrift
He ute
ĠMat rix
ĠWahl en
bre chen
ĠKais ers
Ġlic ense
V O
h ai
Ġp utting
Ġh ieÃŁ
ĠR ap
Ġver boten
Ġex tended
ĠHe iz
ĠGrund lagen
Ġfre ie
ĠhÃ¶ here
ĠSchwar zen
ĠGÃ¼n ther
Ident ifier
T itel
ĠD ick
ĠW under
em burg
ĠIn fanterie
etz ten
Ġ6 7
app ed
gesch Ã¤ft
ĠUm fang
licher weise
Ġappro ved
verb indung
Ġposition s
MA X
Ġlau tet
Ġepis ode
E E
b Ã¶
k ommand
m ade
ä º
ĠM etz
ĠH ung
ĠV ent
ĠThe atre
Ġwe iÃŁen
out ube
Ã¼nd e
ĠSchw anz
Ġhin ten
Te il
ĠGroÃŁ teil
Ad apter
stag ram
Ġricht igen
Ġhost ing
Ġorganis iert
ĠCla ud
Ġgelegen e
ĠschÃ¶ nen
ĠKolle gen
Ġadministr ation
ĠHÃ¶ch st
/ >
Ġf ruit
Ġp or
ĠR av
lich em
qu enz
sp itze
Ġch icken
ĠAr z
ĠPro cess
ĠDe ad
Ġges ucht
ĠFr iend
Ġ188 9
prÃ¤ senz
Ġbrow ser
penden cy
ĠKomment ar
ĠPak istan
( ...)
> ()
M ENT
n chen
le ctor
Ġthe ory
Ġc utting
st ritten
ĠF abrik
tr im
Ġ18 75
Ġro ute
tet t
lieÃŁ en
ĠWil son
Ġfix ed
Ġumfass te
Ġclin ical
6 00
Ä Ļ
in formation
in yl
Ġs essions
ar gs
ĠK rie
Ġge legentlich
lic it
Ġout standing
pro p
Ã¶ff net
Ġbeg ins
Ġshe et
Ġrem aining
Ġ188 4
ĠTour ismus
Gener ator
cep ted
ĠJos Ã©
L auf
h au
Ġ ..
Ġt ables
ĠB ald
Ġ( ;
ĠE ver
Ġl in
ĠN u
Ġst ir
qu ir
lo be
ank a
bau en
ĠBundes ver
ĠKunst stoff
199 1
ĠBed arf
bra un
ĠunabhÃ¤ng ig
ĠRena issance
k Ã¶nig
or ff
Ġf uel
Ġp assen
Ġl ifestyle
ĠV ide
get Instance
Ġent re
wer ten
amp s
Ġfe els
ĠTr ier
ĠHam mer
west lichen
Ġconf idence
ĠRu hr
Mus iker
ĠBrun nen
ĠhÃ¶her en
Ġconvers ation
f angen
ĠS now
le hnt
ĠK Ã¼hl
Ġy esterday
ust on
Ġlie fern
Th rowable
Er gebnisse
bau te
ĠÃľber sicht
Ġgeb ra
Ġgu ter
Se gment
Ġpass word
Ġsign s
legen heiten
Ġfact or
Ġhistor ical
Ġinstr ument
ĠRumÃ¤n ien
Ignore Case
C an
t ax
Ċ ĠĠĠĠĠĠ
Ġm ac
Ġk inder
ĠUn ser
ĠBer gen
Ġ0 4
ĠInd ones
Ġdec ades
mus iker
ĠKÃ¼ sten
Ġfit ness
mosph Ã¤re
R oman
k ette
Ġa st
Ġa ges
Ġin vent
ĠP ool
ĠF els
ĠG a
Ġz Ã¤hlte
eb ens
Ġex tre
ph as
hÃ¶r igkeit
ĠHand werk
Ġmod ule
wor fen
Ġhard ware
ĠLes er
UL L
bÃ¼rger meister
kap elle
htt ps
Ġcaus es
ĠRelig ion
ĠEntste hung
ugos law
à ¦
en ters
Ġt om
Ġe ar
Ġp ed
ĠW upp
Ġg olf
Ġzu gÃ¤nglich
be hÃ¶rde
Ġ18 74
Ġen han
Ġte a
ĠHe x
Ġ0 1
Ġro ut
port al
", "
ma jor
ĠVerb indungen
omet imes
Ġpur poses
fÃ¤ll en
Ġexpla in
Ġinstit ution
Ġtal ent
ĠKaffe e
U C
g ung
k B
it as
al om
ĠG h
et enz
ĠK ok
and o
Ġge zogen
pt op
ger y
ip her
auf nahme
Ġbes uchen
cl uding
Ġsc ope
ict ions
ĠAd ler
Ġverb rachte
ĠSal es
Ġkind s
ĠKÃ¼ ste
Acc ording
Auth or
l ach
Ġt ab
ĠE ff
Ã¶ scht
iz abeth
je cted
per iode
Ġres idential
ĠPr Ã¼f
Ġtr ial
Ġ6 1
ingen ieur
Ġbesch lossen
ĠUr ban
Ġben ch
ãĤ ĭ
ĠHigh way
fÃ¼ll t
Ġruss ische
Ġdog s
ĠÄ Į
Ġleit et
ĠDoug las
Ġverur teilt
c all
r ische
Ġp ink
ĠM assen
ĠDie trich
In stitut
hal ter
Ġget Ã¶
igh ten
tem per
ĠFre ude
ĠArbeit sp
lex ikon
Ġdec isions
ĠCl oud
hol der
ĠLie bes
Reg ion
Ġnord westlich
Ġhold ing
frastru cture
ĠmÃ¶ glichen
ĠAng st
reu ung
ĠstÃ¤r ker
n ieder
on de
Ġn ine
ĠD ating
ĠV ul
ĠJ ungen
ĠO ster
aus bildung
ĠNe ck
Ġqu er
ĠBr ut
ĠGesch windigkeit
ER S
Ã¨ s
ĠpersÃ¶n liche
Ġeffic iency
Ġzuf olge
ĠGir ls
ĠCast le
Ġunbek annt
ĠErweiter ung
C up
is tern
Ġs uff
an ing
Ġm ine
ĠV Ã¶lker
Ġab ges
Ġwe isen
auf nahmen
pro jekt
Ġsl ot
bro chen
gebie ten
telligen ce
M any
ĠF ox
ĠG ross
ra ucher
ĠL angen
Ġk or
Ġj oy
ru ption
ĠGr Ã¼nen
entr um
urs or
yr am
Ġdisc ount
ĠJugend lichen
ĠMont ag
Ġruss ischer
Ġmittler en
ĠpreuÃŁ ischen
Ġdisk ut
ĠExec utive
1 10
re land
al ia
Ġm anner
ĠM u
ĠT ran
Ġk illed
ĠSt aff
ĠSch mer
ĠNe use
Str u
ĠVor stands
Ġ7 00
oh ne
ĠBed Ã¼rf
Ġtest s
ixt ure
Ġaccomp l
Ġb auen
il ation
Ġc ounty
ĠP ut
ic ial
ĠL okal
ĠV f
ĠU SB
ĠZ usÃ¤tzlich
ste ine
qu em
Ġj oint
Ġcon ver
ain less
Ġdies mal
Ġher um
sh ow
Ġges te
Ġ< /
kl ar
Or ts
Ġeigen er
Ġakt iven
Ġ188 1
ĠVerÃ¤nder ungen
ĠWÃ¤r me
ĠBres lau
N ON
h ome
n el
w eiter
le ute
Ġv ul
Ġv ote
ĠO N
ÃŁ ig
Ġver teilt
ĠTh or
ac o
Ġbegann en
Ġdefin iert
Ġmass age
ĠĠĠĠĠĠĠĠĠĠĠĠĠĠĠĠĠĠĠĠĠĠĠĠĠĠĠĠĠĠĠĠ ĠĠĠĠĠĠĠĠĠĠĠĠĠĠĠĠĠĠĠĠĠĠĠĠĠĠĠĠĠĠĠĠ
Ġfil ms
contains Key
Ġflex ible
Ġappe ared
P ack
S an
T erm
h Ã¼tte
i op
Ġt end
Ġp od
ĠP est
ĠK orea
Ġto ward
isch t
ĠV alue
Ġpro test
ĠVer arbeitung
Ġunter gebracht
ĠGrund stÃ¼ck
Ġgreat est
Ġtechn ische
ĠProf ess
Ġober halb
ĠCre ate
Ġfunktion iert
Ġguarante e
Ġzuk Ã¼nft
Ġd ipl
Ġh ire
Ġ( ),
Ġge legt
Ġsp aces
ohn t
reis en
aw ay
ĠWelt meisterschaften
ĠAs imov
ĠKl ang
Ġvis ited
schn itte
Ġbro ther
Ġgel b
Ġposs ibly
clude d
S ymbol
us ing
ĠG ord
ĠW y
Ġg orgeous
Ġdes pite
Ġne arby
Ġ} ;
Ġ3 50
ĠAd vent
Ġho tels
Class Name
setz er
ĠAss istent
Ð¾ ÑĢ
atÃ¼r lich
Null able
IG HT
ĠWissenschaft ler
Ġzentr ale
Ġreco very
M al
P ers
l isten
ĠT HE
ber ry
ĠIn spir
Ġste igen
ĠUm bau
kehr en
ĠVers and
ĠTer ror
ĠBel gien
ĠHel m
ĠKategor ien
Ġverbess ern
B M
m os
å ı
ĠS end
ĠB am
ĠG abr
ĠK ul
ĠK ino
bar ung
ĠOber flÃ¤che
Ġcl imate
uk i
Ġakt ual
ĠPl ant
Ġ188 3
ĠFot ograf
iction ary
ĠIllegal StateException
Ġsug ar
Abst ract
Å Ł
he il
Ġm ic
Ã¼ se
ĠL ov
Ġbe ar
ĠN y
ĠO m
aus stattung
sh ips
rÃ¤ umen
Ġchar akter
ĠBuch staben
Pr im
Ġverl Ã¤ng
Ġcur ren
Ċĉĉĉĉĉĉ ĉ
Ġcook ing
ĠergÃ¤n zt
A k
K Ã¶nig
Ġa w
ar row
Ġf ach
Ġf uhr
ĠD id
ĠT am
ĠI gn
Al so
Ġcl uster
Ġfl u
ĠÐ ¸
Ġorder s
ĠColle ctions
DE FAULT
Ġtradition ellen
Film schauspieler
ĠMagaz in
ĠCharl otte
y ard
ĠB rie
Ġc ry
Ġan sch
tr itte
ĠBe fehl
ĠAl an
hal f
ĠCh annel
az itÃ¤t
own ed
ĠWelt cup
Ġevery day
ĠWer ken
zeug ung
Ã¤nger ung
ĠerÃ¶ff nete
Ġprovider s
Ġcloth es
F rie
P op
P ersÃ¶nlichkeiten
l itz
m issions
ĠM iami
ĠF a
Ġk Ã¼nft
all o
ĠVer mÃ¶gen
Ġch ief
hl on
Ġtr ends
Ġ9 00
ĠPar ks
Ġ188 7
gestell te
Ġconcern s
Ġdescr ibe
Ġcabin ets
ĠIter ator
H P
m acher
Ġ 00
Ġs ac
or er
or able
Ġw al
Ġw heel
Ġp apers
st atic
ĠM aschine
Ġth ick
ĠNach folge
ĠUnivers itÃ¤ten
ole c
Ġsupp orts
Ġdort igen
ĠHin weise
ĠGest alt
ĠPfer de
hoch schule
Erster wÃ¤hnung
ĠBronz emed
ĠMilliar den
a a
b in
ĠH op
Ġpro posed
ak u
ant on
fer ences
mp el
gl ing
ĠBut ton
Ġopt imal
Ġlov es
ĠProm otion
Ġfeed back
ĠWag ner
Ġgespe ichert
W ord
p ra
an cing
Ġe lection
ĠB auch
ĠG ouverneur
em pla
la red
ĠSe en
Ġmus ical
ĠInd iana
Ġfest ival
ĠFin ancial
Ġtyp ical
flo at
k as
È Ļ
le ft
ĠA x
ĠP av
pp ers
ĠIn g
Ġex cept
geb irge
Re port
ĠGemein sam
ĠGes icht
Ġzun ehmen
Ġâ ļŃ
Film titel
Ġpresent ation
Ġfund ament
Ġgeboren e
ĠverfÃ¼ gen
ĠmÃ¼nd et
Ġprin ted
z ellen
it als
Ã¼ ch
st op
ĠD C
ĠH unde
ĠR ober
Ġab gest
get R
Ġgeb lieben
ĠschlieÃŁ t
ĠIntegr ation
Ġaccur ate
ĠBiele feld
X ML
b art
b ring
Ġt ast
Ġm Ã¼s
Ġc raft
ent liche
ĠH ind
ĠL Ã¶sungen
ĠC ell
and em
ĠO ze
kt oren
ĠSch au
och em
ust ic
are tt
ĠLe ib
Ex tension
ĠHe art
ĠPr Ã¼fung
ĠFor est
ĠFor ts
man ager
ãģ ¾
ĠKr iminal
ĠMittel punkt
Ġcare fully
Ġsuccess fully
LA SS
ĠFeder al
b ringen
Ġa gencies
ĠS ich
ĠS amsung
ĠB ein
Ġn annte
Ġun tern
Ġaus gebaut
Ġtr aten
Ġgew Ã¼nsch
Ġhin ein
athol ic
ĠSchriftsteller in
Ġdep th
ĠGi ov
urren cy
Ġdynam ic
ĠHaw ai
Ġmeas ures
U UID
g roÃŁ
w eb
re v
ib et
ĠVer fassungs
Ġme al
Ġ18 79
Ġgen e
ĠFor der
rol og
Ġpres ents
Me hr
Wer degang
Gr und
ĠSa al
Ġofficial s
angeb ot
Ġposit iv
Ġlands cape
Ġschwar zen
a al
s end
Ġv ital
ĠM ind
ĠD ok
ĠL or
ĠR ie
ah m
qu alitÃ¤t
ĉĉ ĉ
Ã¶n t
St affel
ogra pher
ĠGesch Ã¤ft
Ã¤hl er
ĠUm gang
reg on
Ne u
Ġbef Ã¶rdert
ĠAp othe
Ġple asure
Ġarchite cture
ĠBist um
s berg
Ġw ra
de lete
ent hal
ĠT ipps
ĠL ad
Ġk ing
af Ã©
Ġ18 67
Ã¶r g
geb ra
Ġpl ate
Ġcl im
ĠProf essional
yr ight
ĠTechn ologie
ĠCont act
Ġbeinhal tet
FOL LOW
D ig
c olle
d ung
l uft
ĠA ster
ĠM O
ĠM aus
ĠM iller
Ġbe zieht
if iers
Ġse gment
Ġor g
Ġor ange
Ġ18 78
Ġsh ares
Ġher unter
Ã© d
Be fore
iden z
ĠMo z
wh at
ĠVal id
OD O
Ġsuppl ies
empla re
w eiten
å ¤
en berg
ĠB ody
st ufe
ĠW arn
ĠN ag
Ġan g
os c
Ġr id
Ġaus dr
art ikel
Ġex ternal
ac ious
Un sere
Ġvers uchen
ĠFr Ã¼hl
199 4
Ġkurz er
ilome tern
Ġinterest s
ĠKant ons
Ġsil ver
ĠVen edig
ĠEth n
Ġmagaz ine
M Ã¼n
M ai
i oren
ĠZ unÃ¤chst
Ġde cl
men ge
sp iegel
ap shot
par ameter
Ġmehr erer
ett ing
Ġ13 0
ommer ziel
Ġturn s
ĠEben so
Ġbefand en
? )
P G
Ġf o
Ġm ont
om er
ĠF reis
ĠW i
Ġan lÃ¤sslich
id ays
Pro xy
Ġra ise
Ġvers etzt
Ġbre ath
Ġfl ash
zahl ung
fre ien
ĠStad ion
Amer ican
ĠJer usalem
ĠNikol aus
P red
f ill
s he
t ario
Ġb ike
ĠT rieb
ĠP ont
ĠJ ens
Ġr ender
Ġne ur
ĠDe finition
Ġent lassen
ĠTe en
amm ern
ĠAll es
por ter
Ġur ban
OR D
ĠPort rÃ¤t
mus ter
ĠModer ne
ĠBon us
ĠMÃ¶ bel
zust and
G H
P ay
Z eich
c ur
Ġe hren
Ġv irtual
ĠM all
ĠE R
ĠL iving
Ġst Ã¤ndig
ver k
par ks
Ġph ase
ĠWer be
Ġerfolg reichen
Ġconf lic
ĠVe gas
Ġfail ure
ĠDrit tel
Nov ember
Ġabger issen
M aler
{ }
sch rank
ĠL uther
ĠVer stÃ¤nd
ens is
etz ungen
Ġum gebaut
ĠSe henswÃ¼rdigkeiten
use ums
ĠVor bild
Ġmain ly
prof it
onom ie
Ġdou bt
K e
in us
Ġf ellow
Ġp il
Ġp reis
ĠL isten
Ġan sonsten
ud a
ild es
ĠY es
Ġfe es
Ġdar um
Ġerw orben
Ġfre ige
pre chen
ĠursprÃ¼n gliche
ĠInnen stadt
ĠAcc ording
Ġsympt oms
P AT
on te
Ã¼ chen
ĠB orn
ĠE le
ĠW isconsin
ĠSt Ã¼cke
ĠSp Ã¤t
ĠPro test
Ġrec orded
spr uchs
Ã¡ s
Ġ188 2
Ġbro ken
ĠIndustr ial
ĠTher apie
h Ã¤ngen
Ġt ight
ĠS zenen
Ġb an
ĠT unnel
ir l
ĠSt ol
Ġ18 40
ner stag
Ġwo oden
pro ble
Ġ7 7
stra fe
riter ien
Ġzeit weise
Ã¤u den
Ġappreci ate
M edia
Ù Ĩ
ĠT s
ĠP u
im age
ĠE uch
ĠK linik
lie ger
du ate
Ġsol cher
ari us
akes pe
pos al
ĠIntern ets
ĠBi ograph
Sh ow
ĠAst ronom
Ġgraph ic
ĠAben teuer
Janu ar
D okument
e ister
w ird
ĠS M
Ġv ary
ĠB ou
il st
ĠEr m
ĠDe f
Ġvor be
Ġte eth
Ġcomm ission
Ġsur gery
ĠSol o
Ġequ ipped
ĠKo ordin
ĠschlieÃŁ en
Ġbew usst
ĠRegel n
Ġintegr ated
Ġmix ed
beg inn
ĠNeust adt
K an
c ers
ĠB ent
ĠP ic
Ġg ros
ĠL ange
ĠSt ich
ĠO S
ann y
Ġver teid
Ġde cre
Ġwar ten
Ġat mosph
lic ated
ĠAb stand
Ġget roffen
Ġpre gn
Pro gramm
ĠSpiel tag
Ġbr ill
Pr ess
ĠZe aland
ĠComm and
ĠEner g
ĠAth let
Ġrecogn ized
Ġcloth ing
ĠTschech ien
Ġurkund lich
ĠEntfern ung
m lich
p ur
ĠB uck
Ġbe at
ir ms
iel len
Ġun bedingt
se y
aus o
In v
lan ze
ider s
ling er
Ġreal ize
Ġamer ikanische
ĠKohl en
ĠTrain ings
Ġf ing
ĠB ert
ĠT ry
ĠK Ã¤r
Ġfor ces
Ġdurch aus
ĠCh i
ĠGe fÃ¼hl
Str ateg
igkeit s
ĠMus ter
Ġhand elte
ĠGroÃŁ herzog
Ġbef ind
ĠRuss ia
Ġparticip ants
ĠDenn och
Ġimplement ation
ĠEnter tainment
kÃ¼rz ung
Ġd ick
al in
ĠB ran
ĠJ eder
id get
ast ik
rit ter
Ġapp end
De lete
gend es
bild ungen
Ġstand ing
ĠRechts anwalt
Dies es
Ġtro cken
ĠSchm uck
ĠKe vin
Ġnieder lÃ¤ndischen
Ġkont roll
Ġschedule d
": "
1 12
J oin
er ie
Ġv ieler
st reit
ĠD al
em y
ĠN ich
ĠV inc
ĠJ ar
Ġan zu
be am
ĠAl i
Ġgen ieÃŁen
Ġbre iten
ĠChrist us
Ġtrans ition
Ġhistor ic
ĠÃĸsterreich ischen
ĠDis c
CO L
ĠSpan ish
Ġbestehen de
ĠMail and
in ne
ar ma
ĠB ow
ĠF ellow
Ġz one
Ġer stellen
Ġun less
Ġnew sp
Ġ+ +
ual itÃ¤t
lÃ¤ ub
Ġend s
ĠSchiff s
maÃŁ nahmen
lieder ung
E p
b ist
Ã ¦
ĠL orenz
ĠIn stagram
Ġun w
ĠAn st
ĠAn trieb
ĠAb d
Ġfe ierte
Ġtra il
ĠAd dition
)) )
ĠEurop Ã¤ische
Ge ografie
equals IgnoreCase
ĠNiederland en
ĠArrondiss ement
K W
W ell
o use
ĠS imple
am burg
ĠR ies
ul ing
ann els
ĠZ ell
ĠAr gentin
Ġ18 69
Ġ18 73
erk ennung
Ġbel ief
loy d
ragen de
Ġatt ached
Sc ope
format ik
ĠMun icip
d ir
h aven
ĠS ache
Ġf lav
ĠL anc
ĠC it
Ġr an
ib ilities
li ess
Ġdr ivers
ĠHand lung
ĠMor itz
Ġconf irm
Ġexec utive
gÃ¤n z
ĠAmts zeit
Ġprint ing
Ġdamal ige
Com parator
Ġdom estic
Ġsus p
ĠSchlag zeug
Ġenth us
Ġlern te
ĠBeeth oven
Î ¹
le ep
Ġc and
Ġc able
ĠP ir
ĠK und
ĠK Ã¼r
ĠR ats
ĠJ r
Ġfor um
cl ing
Ġrec over
ĠsÃ¼d westlich
198 6
Ġconsider ing
ĠMer cedes
Ñģ Ðº
Log ger
Ġzeit genÃ¶ss
Ġspeziel le
Ġspan ischen
open hagen
Ġannot ation
Digital isat
ĠgetÃ¶ tet
) -
1 14
A g
A gent
D av
I l
n ische
Ñ ħ
es ents
or ders
ĠT rom
ĠK G
ĠW ars
Ġch ron
old s
Ġlie ÃŁen
Ġgesch Ã¼tzt
Or iginal
Ġmin ing
Ġiss ued
ĠIde as
haupt stadt
Ġwes halb
Ø§ Ø
Ġschaff te
D estination
Ġ Ã¤ndern
ĠS ite
ĠA ge
ĠT oy
ĠF itness
ĠK leine
Ġan fangs
Ġr ene
ĠRe kord
ard o
tw och
iven ess
Ġrelat ive
Ġnational e
ĠnatÃ¼r lichen
Ġregular ly
ĠNaturschutz gebiet
Ġinfluen ce
valu ation
T M
č ĊĠĠĠĠĠĠĠĠĠ
Ġd ialog
te e
ĠD ocument
ĠW Ã¼n
ĠV illage
op Ã¤d
Ġwh om
hen de
ĠSe g
ĠÃľber blick
vers orgung
Ġkeep s
198 9
Ġident ity
ĠVe ctor
Ġemploy ment
Ġjeder zeit
ĠDokument ation
ĠIst anbul
Ġgraph ics
ĠKommand o
Ġcollabor ation
Ġassess ment
leucht ung
commer ce
(...) ");
W ien
h Ã¤usern
ĠD ampf
ach s
Ġk Ã¤mp
Ġch arm
ĠPro tocolMarshaller
19 80
Ġqu ote
Ġ6 9
eld ungen
ĠGem ark
Ġra il
ĠGemeinde gebiet
Ġgood s
ĠNord amerika
Ġref lect
ĠGed enk
Ġmatch es
Ġans Ã¤ss
Ġpurch ased
ĠLÃ¶ wen
M iss
M useum
c ell
y ou
in th
st ens
ĠR ainer
ik te
Ġcon crete
Ġat tended
ĠTr ust
ĠJun ior
ĠOrt schaften
Ã¤tz t
Ġerreich ten
ĠFranz isk
Ġkommen den
ĠTre ffen
ĠEv a
bu ilder
fÃ¤h ig
Ġeffect ively
exec ute
ĠgewÃ¤hr le
A uÃŁer
E nde
J SON
M ath
v ideo
Ä Ł
ĠA cker
ĠB och
ow ohl
men s
Ġex port
gesch Ã¼tz
ital ien
ĠBar ock
Ġclass room
ĠKr one
AC T
Ġspec ified
ĠGo ethe
Ġwid mete
__ __
ĠPhot o
Ġintrodu ction
Ġproced ure
BevÃ¶lker ungs
Ġperman ent
F ollow
k ov
m outh
r Ã¶
à °
en cy
Ã¤ sten
ic i
ĠF la
ul der
ĠN O
if ff
ver lauf
ĠSch Ã¼l
Ġ18 66
Re p
ĠDorf es
ĠPra kt
ĠLat ein
ĠAth en
ĠEvangel ischen
ĠIS O
Ġreve aled
ĠÃ¤uÃŁer st
ĠErinner ung
Ġscient ific
ĠSkla ven
N etz
f ers
in str
Ġs ink
un sten
ĠB enn
ol id
Ġg rad
Ġk Ã¼rz
all eng
Ġ3 60
lin s
Ġus ual
ĠLe wis
fe ature
Ã© l
Ġsow eit
-- -
off s
off set
Ġbo at
ĠLin col
Ġconne ctions
Ġcr iminal
ĠEinwohner zahl
Ġdefin ition
ĠBilder n
Welt meisterschaften
ĠBot schaft
Ġattra ctive
entry Set
Ġconstant ly
merksam keit
Ġanc ient
' :
? âĢĿ
B R
K ap
W ird
b ten
e ist
r Ã¼
on line
re lated
ĠD afÃ¼r
ĠP ick
ĠK ore
Ġg ifts
ein richtungen
ĠRe par
Ġpl ug
ĠHoch schul
the t
Ġhouse hold
ĠFrem d
1 13
C I
G ET
j ack
l iteratur
z ing
ĠB ah
ĠT ank
Ġbe we
Ġbe wegen
Ġre ar
Ġr ies
ungs gebiet
Ġ18 15
Ġnot iced
Ġ9 8
Ġ7 6
ĠStud ios
Ġmin imal
ĠDes igner
Ġpolit isch
ĠDire ct
Ġmanufact urers
ĠFass ung
Ġgrund sÃ¤tzlich
ĠGriechen land
B I
Ġa wareness
as sten
Ġc urr
Ġk ennt
Ġle gen
Ġex cess
gr Ã¼n
Ġ18 65
ĠTh ailand
ĠMar s
fin ed
ĠÃľber nahme
ĠfÃ¼hr enden
Ġchar ged
Ġpost ing
ĠSam uel
Ġmom ents
Ġinnov ation
ĠDien ste
L EN
V ert
f ue
w ed
ro vers
ra it
ĠK ids
ĠR ome
Ġk Ã¼nd
Ġver arbeitet
qu art
Ġhe iligen
ĠBe fore
ĠTh ree
geb oren
Ex press
Ġ7 8
Ġrec ording
ĠUS D
ĠBl umen
Ġmir ror
UN G
Ġelect rical
ĠBud apest
Ġausgest ra
Fol der
VerÃ¶ffentlich ungen
Ġcit izens
Ġd az
on ne
Ġt ube
Ġs ud
Ġs ql
Ġw et
ĠS ac
Ġe ast
Ġp ussy
ĠF alle
ĠE tw
ĠR ick
ok ing
Ġab hÃ¤ng
Ġwill ing
ĠAus zeichnungen
Ġ0 9
inn ers
bes itzer
ĠÐ ½
ĠDis ziplin
Pol y
ĠSom it
ĠZent imeter
Ġtroub le
f iel
g Ã¤ng
j ahre
he ater
ĠS ysteme
ĠR ain
Ġy ellow
Ġ18 68
Ġent deck
dem okrat
ĠSte el
ipp er
Ġgesch ieht
Ġgel ungen
ĠEis hockeyspieler
Ġgre w
ĠPers pekt
ĠGÃ¼n ter
ĠBuild ing
J o
M I
S ER
Ä «
ĠS z
ĠD NA
ol t
ĠP ersÃ¶n
ĠV i
Ġk la
Ġan alys
Ġst retch
ĠSch icks
ill o
Ġ0 8
ĠFran ces
ĠFre ist
ĠKl ub
ĠInter ess
wh ich
Ġaccess ible
ĠDienst leistungen
Loc ale
Ġrepr Ã¤sent
ĠCons ult
ĠAdministr ation
ĠAllgemein en
J ugend
V ID
W rapper
k rank
Ī Ĵ
in ations
Ġw alls
el be
am ik
Ġl aufen
Ġal cohol
Ġge langen
iz ist
lie hen
Ġzum eist
ĠGr iff
ĠPr ix
gesch lecht
ãģ ¯
co der
ĠMon ats
stit ute
Ġem otional
Ġsign al
ĠMy th
ify ing
Ġrepr esents
IM E
tl ere
ĠlÃ¶ ste
ĠInf os
g ments
or r
ar film
ĠM uss
ig sten
ĠT auf
ĠJ am
Ġr is
men te
ip eline
Ġme at
ĠAus fÃ¼hrung
ĠWh ere
Ġextra ct
ĠAutor in
Ste p
Ġinstit utions
jen igen
ĠMinn esota
F ranzÃ¶s
H ar
ç ļ
or o
at ischen
ĠB lau
am ic
ĠK ann
ĠK upp
ĠH arm
ĠR out
Ġk it
Ġhe aring
ĠCh ange
Ġad s
ond itions
Ġdar stellt
ĠUm feld
Ġ' "
Ġevangel ischen
ĠHit ler
ĠSaf ety
ĠLincol n
B atch
r ennfahrer
u is
å ħ
al ters
Ġf asc
ro it
ĠL uz
ĠR olf
Ġwe chs
ĠSe ele
ĠKon zentr
ĠPf alz
Ġverw endete
Ġchar ges
ĠMeister schaften
Ġhealth care
Ġcr ime
Ġschn eller
ĠEreign isse
Ġstellvertreten der
ĠBronzemed aille
U RE
n ormal
o be
v ements
Ð ¿
Ġa id
ĠB uff
Ġh all
ent h
Ã¶ he
Ġer richten
sp ur
ĠEin er
ĠAus wirkungen
ĠAnd ere
ĠEl s
Ġteil nehmen
Cl uster
ĠClass ic
UT E
Ġdeb t
ĠKan al
ĠJes u
Ġadvent ure
ĠKÃ¼nst lern
Ġappoint ment
ĠKabin ett
j son
l ocal
p ap
ĠB ug
Ġp asst
ĠI reland
ĠW ird
ĠC hen
Ġfor est
Ġat om
lin ed
ĠBundes wehr
ĠAndre a
ĠHin weis
Ġlic ens
Ġallgemein en
Ġexhib ition
.:.: .:.:
ĠKonfl ikt
Ġbenachbar ten
at ible
ion ier
Ġent ries
Ã¤n glich
Ġtra ined
Ġco ck
Con f
Ġrec ipes
ipp e
esse e
Ġbef re
Ġdisc ip
Ġnord Ã¶stlich
Ġseem ed
Ġpartners hip
ĠVertra gs
M ont
er ung
ĠR ange
ĠC ore
Ġer geben
Ġre ichen
ĠSt one
Ġy es
Ġver p
ĠNe uer
ĠBer ater
Ġber aten
Ġel imin
Ġunser es
Ġprote in
ĠZug riff
herr schaft
valid ate
ĠIr ish
ĠdÃ¼r fte
ĠÃ¼b lich
Ġtransport ation
ĠOption al
) ).
N ote
t ask
u ages
Ġt a
Ġp our
ĠW Ã¼rttemberg
ĠSt att
ĠO regon
ens wert
Ġro ugh
Ġtra cks
ĠkÃ¶n ig
sk ar
Ġsol o
Ġmonth ly
198 4
wor tet
Ġmag net
ĠÃ¤l tere
ĠMeer es
Ġfoll ows
T I
f unction
n isch
ĠS EO
ĠG rant
et a
ĠAn lass
Ġcom pr
ant in
Ġ" '
row s
ĠAus sch
ĠAus bildungs
ĠVor teil
ĠFran Ã§
Ġbo ost
ĠEl izabeth
ĠDo ktor
Ġsw imming
198 5
Ġimpro ved
Ġfour th
Ġpubl ish
Ġemploy ee
ĠPra ct
Ġdur fte
ĠendgÃ¼lt ig
B oot
D am
L ebens
S ocket
W A
W rite
Ġd ump
ĠA hm
ĠB og
ĠB uffer
ĠH ills
sch ritt
ĠC er
ts eite
ĠIn se
ĠAn k
ĠBr Ã¼cken
amer as
Ġerw arten
ĠWohn zimmer
Mod ule
col or
Ġgradu ate
! "
F ind
Ã ī
Ġf urn
Ġein heit
ĠE arl
ĠK h
ĠH us
ĠC ann
Ġge h
Ġge weiht
ĠSie gen
land schaft
ĠMit tler
ĠAnd erson
Ġ< <
Ġset up
Mit tel
Se lect
fa iled
ĠverÃ¶ffentlich ten
Ġequ al
TER N
ĠAust ausch
wechs elt
ĠverstÃ¤r kt
Ġentre prene
BevÃ¶lkerungs entwicklung
( @
Ġt icket
Ġw inner
ĠG au
ĠK orn
ĠR ent
ber uf
all as
ĠZ ubehÃ¶r
ĠEr ster
Ġum stritten
ĠLe o
ĠGr Ã¶ÃŁen
(" \
Ġ7 4
Ġhand ler
ĠFr ame
Ġbel ong
pf lanzen
ĠWh it
ĠMal erei
Ġfun ny
Ġlo ans
Ġwoll ten
Ġzie mlich
ĠRÃ¤ ume
Ġunters ucht
Mich ael
cycl op
Kirchen gebÃ¤ude
abgeord neter
Ġs ad
Ġin klusive
Ã¼ ÃŁen
Ġv intage
ĠE sp
ier mark
ou red
Ġ18 63
Ġad j
ĠEx emplare
ĠCon c
Ġche ese
[] )
Ġcar ried
ĠWest falen
ĠÃĦ hn
pre c
Ġmember ship
ĠIns besondere
ĠÃĸsterreich s
198 8
ĠGef Ã¤ngnis
How ever
Ġintens iv
Ġvac ation
Wind ow
Ġausreich end
Frie drich
P rÃ¤sident
V om
Ġt asks
Ġf ishing
ĠB BC
Ġn arr
ĠJ ubil
gen ossen
Ġj ener
Ġcon sequ
fe ier
ĠY am
ivers ary
Ġalle ine
Ġpre fix
Ġger inger
Ġtechn ique
Sie g
ĠLin ux
anc ouver
ĠKe ep
idel ines
Ed ge
ĠerfÃ¼ll t
ĠOrch estra
U l
V A
s um
Ļ Ĥ
in v
it ate
ĠS imp
ĠB B
Ġz ul
ĠL em
ĠR eit
ĠC irc
Ġer folgen
19 33
Ġ16 0
Ġel ig
ĠTechn ischen
Ġfac ilit
ĠCom ic
Ġlik es
Ġve ter
Ġpromov ierte
ĠDÃ¶r fer
Ġerlang te
Ġgefert igt
Ġvalu able
H C
ĠM inder
ĠK Ã¤
um ul
ĠC ivil
ach ter
ĠDie go
amp en
Ġrec y
ĠSh akespe
Ġur i
ĠPart ners
Ġfound ed
ĠBereich e
Ġworks he
Ġstamm te
kr ise
ĠSyn ag
ĠMarc us
Ġmount ain
Ġorigin ally
Ġfertig gestellt
ĠPast or
ĠBM W
A ustr
M T
P erm
e ber
k irch
p unkten
Ã ¯
Ġ 000
Ġw he
as ted
ĠA lo
de i
ĠT ask
ĠF ed
ĠL och
ĠR och
ak on
ĠAn sicht
Ġcon v
los ure
Ġro ten
Ġgr Ã¼n
Ġsc an
Ġem phas
ĠKap itel
Ġcert ified
ĠDi Ã¶z
Ġoffen bar
Ġmeet ings
ĠSied lungs
ĠVerl ust
b oy
p es
r ischen
r Ã¼stung
ĠS D
ĠB enz
ĠF an
Ġbe her
and al
ĠSch atten
out put
Ġunter scheidet
ĠHe ide
Ġbes ucht
15 0
ĠFre unden
ĠMon ument
ĠRes ponse
Ġlo op
Ġvoll er
Ġrel ation
Vol ks
rupted Exception
S onst
j amin
ie ge
Ġin ne
Ġp ic
ic als
ĠF L
ĠDe kor
ho e
ĠVor stellung
att an
gl as
Ġpass iert
Ðµ Ð½
Ġlink ed
ï¿ ¯
Ġangeb racht
ĠOut door
ifiz ierung
Ġbott le
ĠKath arina
F ail
R ender
b ur
c ache
l enz
p iegel
ĠM S
Ã¤ ts
ĠF ollow
ist ungs
ĠN ationen
Ġk rÃ¤ft
pp t
Ġsch Ã¼tzen
gesch icht
ĠEx pl
ĠFre der
ĠPf licht
Ġger inge
Ġmed icine
Ġgest orben
ĠKont akte
ĠSol ar
Ġbig ger
ÑĢ Ð°
ĠKind es
ĠRein hard
ĠStad ium
Ġvari able
ĠUms atz
Ġgrib ka
ĠMitarbeit ern
ĠsÃ¤m tliche
alleng ing
çļ Ħ
D b
N odes
V C
s ql
Ġn erv
Ġn Ã¤chst
ĠM Ã¼hle
ĠK ings
Ġy ard
ag an
sp rachen
Ġso ul
ĠDe leg
pr esent
imm y
ĠDies el
ari at
Ġsur prise
wend ungs
ĠHier bei
ĠPolitiker in
198 3
Ġnet works
ĠAuss age
Ġdraw ing
ĠAtlant a
Ġwirtschaft lichen
p red
w inkel
Ï Ħ
Ù Ī
ĠS I
ĠS ale
ĠS ession
Ġb ranch
ĠB eine
ĠM ong
Ġh osted
Ġg un
Ġbe wohn
ĠV iz
Ġge lesen
Ġst Ã¤rk
id met
ĠSch los
ok a
ĠEr furt
ĠAus schuss
ĠEx c
ĠFre il
Ġdr ugs
ĠMin eral
ĠÃĸ k
ĠBand s
oph on
ĠDat abase
Ġevangel ische
B Ã¼
F R
P P
h ent
Ġf Ã¼hl
Ġm ature
ro ke
im ental
sch iffe
Ġer leben
Ġr iver
ĠAn zeige
ĠLe h
ian ces
ob jekt
fahr ens
ĠOb ama
schie de
zahl t
Ġdel la
ĠDr ive
ĠAt trib
ĠAmer ika
wert ungen
Ġfest gelegt
Ġemp fehlen
figur ations
ĠWerk statt
Ġair port
ĠSen ioren
Ġliegen den
leist ungs
ï¿½ ï¿½
fÃ¶rm ig
ĠMathemat iker
Ġinstru ctions
ĠWehr macht
l on
ĠS G
Ġe c
Ġp atch
ic ient
Ġl anger
ip er
enn zeichnet
Ġsh ops
ĠAuf merksamkeit
olog ien
Ġfin de
Ġserv es
ĠMan chester
Ġmach ines
ĠAmer icans
Ġsk ill
Ġpers pective
Ġhund ert
Ġschl ug
ĠAN D
Fra uen
Ġd unk
he ben
ĠS achen
im i
ĠG reif
ĠRe zept
ose x
Ġlie ben
ĠSchw imm
Ġexper iment
tag on
Ġsign ature
Ġter ror
minister iums
ĠMiss ouri
Ġmat ters
Ġausgew Ã¤hlt
Ġrelig ious
ĠLOG GER
ĠKonk urrenz
H alb
] )
c ue
d ale
Ġs la
ĠS ed
Ġm orgen
Ġc erem
ĠG ur
ne ys
Ġsich ern
Ġle gt
ian e
ek te
Res ources
Ġwel chen
Ġgra b
Ġbekannt esten
ĠMÃ¤n nern
Ġinform ieren
ĠSing les
ĠPfer d
Ġcirc um
Ġ{} ",
ĠÃľberg ang
ĠEind ruck
Ġt ap
ie ber
us ste
ĠP aper
ĠI ss
ĠH ang
ĠJ ay
af eln
Ġwar rant
St ation
amm elt
ãģ £
spr Ã¼che
ĠAs pekte
hol en
Ġorder ed
ĠfÃ¼nf ten
Ġorgan ic
Ġgrow n
ournal ist
Des ign
ĠBot an
gebie ts
Ġhor se
Net work
ĠFant asy
ĠÃĦgyp ten
B ounds
c am
Ġb atch
ĠB Ã¼nd
ĠI L
ĠR ied
Ġfor ec
Ġreturn s
Ġ7 1
Ġ8 7
br onn
ĠBr uch
hand elt
Ġknow ing
Ġpl anned
Ġorgan ized
Ġoffic er
ĠPrem iere
Ġklass ische
ĠJac ques
ĠVarian ten
Pan el
F T
H ello
L isten
f assen
ie u
ie gs
ĠS quare
ro b
ĠD etail
ent ity
ĠP ad
Ġk ommerziel
os k
ĠSch u
Ġor th
19 38
mit tag
rÃ¤ gen
ĠKon stru
ãģ Ĩ
ĠArbeit geber
Ġgest artet
ĠAnfang s
ĠRec ord
ĠHistor ic
ĠKompon enten
ĠMerk male
Ġschwar ze
Jul i
Ġs alt
ĠA uge
ĠB ry
ĠH allen
Ġl agen
ĠSt yle
Ġver letzt
Ġsch eiterte
ĠUn it
Ġme x
Ġ18 76
ĠDe fault
Ã¶r te
Ġsh ut
Ġges agt
ĠPh arm
Sch ule
Ġfac ing
Ġenter tain
Ġredu ced
ĠBischof s
scheid ung
CD U
ĠAf ghan
ĠSym ph
ĠSar ah
Ġfrequ ently
Ġdetermin ed
ĠGiov anni
S ummary
or um
re iter
Ġb undes
ĠB owl
ĠE astern
ĠU A
ĠZ wer
Ġ18 62
Ġsp l
ho en
ĠNe ug
Ġpl Ã¶tz
ĠOn tario
Ġdel ay
pre uÃŁen
Ġevent ually
On ce
ival ent
deutsch land
ĠDi agn
Ġredu ziert
ĠKauf mann
ĠKons erv
ĠWahr heit
Ġprakt isch
frist ig
Ġproced ures
ĠBesatz ungs
Ġimpress ive
ĠVerbesser ung
endo ktor
Entw ick
M s
c enter
ĠS low
ĠW S
ĠW Ã¤l
ĠN erv
oc ate
ens burg
ute te
Re al
Ã¤ch te
Ġ14 0
ĠTr end
Ġhier fÃ¼r
Ġsub t
ex pected
Inter val
Ġmatch ing
ĠWeiter hin
ĠSat ell
ĠProgram me
Disk ografie
Ġnut rit
ĠKup fer
K n
f ound
č ĊĠĠĠĠĠĠĠĠĠĠĠĠĠĠĠĠĠĠĠĠĠĠĠ
Ġin frastructure
Ġc ake
ĠT an
ĠT Ã¤ter
ĠH ack
ik um
ĠZ DF
eb au
Ġver an
Ġpro ps
Ġwe alth
Ġ18 77
ĠÃ ©
Ġgen annte
Ġgleich er
ĠUr teil
iges etzt
ĠBra u
IT E
lad ung
Ġcy cle
Ġzuge lassen
ĠRy an
Ġsowjet ischen
Ġkauf te
Ġfavour ite
K lass
p g
s or
z o
ĠA gr
ĠF ell
ĠL av
Ġun gewÃ¶hn
Ġex ists
Ġch airs
Ã¤t igkeiten
oun ge
Ġres ume
Ġ5 000
los igkeit
old t
Ġbet reibt
Ġspe aking
Con verter
IN ST
Ġstatt f
Ġfound ation
Ġpat io
ĠSchlieÃŁ lich
ĠAlk ohol
: "
D etails
K A
S n
m g
Ġa chten
Ġt ells
Ġf ell
ĠA venue
Ġc orn
ĠD y
ach ment
ĠN FL
ein st
ĠZ auber
ĠIn v
ĠVer k
ĠDe ath
Ġvor ne
Ġ9 6
ble ib
rÃ¤ der
ĠCar los
Ġac id
met hode
Ġhol te
ĠTest ament
ĠStat istik
ĠWass ers
vorsitzen der
B us
R ou
g h
g io
s Ã¤nger
Ġt ur
te ch
iel l
Ġver lang
ov o
Ġch allenging
ph il
ĠHer zen
Ġ12 5
Ġseit her
ĠHo uston
Ġsol ar
Ã¡ r
ĠDr am
ĠDar aufhin
Ġerr ors
Ġenc ounter
ĠStraÃŁen bahn
ĠMult ic
ĠerfÃ¼ll en
Ġmill ions
r unden
t ages
à ´
Ġd iss
ar ischer
Ġb at
ĠA er
ĠD ob
ĠW Ã¶rter
Ġth orough
Ġst ated
ĠVer dienste
ĠAn hÃ¤nger
ĠBe ispiele
gr at
Ġnach gewiesen
ek ing
Ġbre ite
Ġfl ower
Ġac cepted
Ġcolle cted
ĠBrit ain
ĠEmp ire
Ġdeg rees
Ġzuf rieden
ĠPorn o
Sec urity
Ġausgeb ildet
ĠGabr iel
B rite
K arl
Ï ģ
ge legen
Ã¼ chte
ra ph
ĠL an
Ġk Ã¶rper
Ġan al
tr ess
ok ia
ĠGe legenheit
Ġbut ter
Un ser
Ġsub mitted
ĠSÃ¼d west
ĠSpe kt
Ġerfolg reiche
ĠFil men
Ġrece iving
ĠIhr es
ĠKompon isten
Ã¼ste t
ĠEt appe
ĠmÃ¶ gliche
Ġcat alog
bereit et
Ġcondu cted
ynast ie
2 50
A ud
Î ½
or chester
Ġw ies
st rÃ¤ger
ra ut
ier endes
Ġan gew
ib l
ĠRe aktion
ĠSp uren
Ġ18 30
ĠEin stellung
ĠGe werk
tell ers
ĠAus gaben
Ġ0 5
ren ce
gesch ichten
Th ank
ĠQu ell
let scher
ĠStud ents
ĠRes te
Ġlist ing
ĠKat alog
ĠKind heit
ĠKÃ¼ chen
ĠFreund in
Ġcook ies
ĠKing dom
fÃ¶rm ige
ĠHon or
Ġmil k
Ġanerk annt
Fernseh film
Kompon ist
V ideo
k ommt
re ll
Ġf u
ĠD aily
ul ous
Ġst abil
ag ram
Ġ18 64
Ġsh ift
ĠPr ince
ĠVor bereitung
Ġ7 9
br unnen
ĠReg istr
Ġgew Ã¶hn
ĠJun ge
Ġ[ ...]
Ġav ailability
ĠVers orgung
ĠApp lication
ĠLeichtathlet ik
Ġstopp ed
A ber
P M
Ã¼ ÃŁe
Ġp un
Ġc otton
ĠM eine
ĠD I
ĠP RO
ĠK oll
ĠC R
ĠC ache
Ã¶ te
Ġan bie
Ġan gle
gen den
Ġauf s
ĠÃ¼ber all
ĠAuf l
ĠAuf tritt
ĠMus ical
hand lungs
ĠBet on
fa ction
ĠIns urance
Auf grund
Ġpay ing
ĠErw Ã¤hnung
ĠIr land
lemen ted
Ġerk enn
ĠAufent halt
Ġreput ation
C or
u ing
Ġa rab
Ġt olle
Ġc ategories
ĠH end
ĠV ikt
iz a
ack t
St a
Ġtr igger
Ġlie fer
Ġsc re
Ġletz tlich
Ġpass ende
ilit ation
Ġgef Ã¤r
Ġoper ate
Ġlet ters
Ġlaw yer
ĠBu y
Cons umer
ĠPlÃ¤ ne
A lias
W eiter
c ut
Ġd t
Ġt ags
Ġt iny
ĠC ount
Ġbe achten
Ġst imm
ĠSch Ã¤den
Ġas sets
Ġsp ir
ĠCh a
gel Ã¤nde
ett a
Ġges prochen
Res ults
ĠJul ia
ĠSal v
ĠKirchen gemeinde
iller ie
zir ke
ĠSum me
Ġaffe ct
ĠHoff mann
ĠAnth ony
wach ung
A lex
B rand
w ein
ro d
Ġein gebaut
ĠH inz
ĠW itten
ĠBe wertung
Ġex pos
Ġent worfen
Ġgr atis
Le x
ĠBerg bau
Ġgl ad
ĠFlor ian
Ġneg ot
Ġremov al
Schweiz er
ĠKandid aten
Ġatmosph ere
1 19
B aden
H O
Ġa men
ĠE gypt
ĠW ende
ĠL is
ĠC ock
Ã¶ tt
ĠN i
ĠJ en
Ġk irch
qu ar
pe te
ĠBe hinder
Ġsch eme
Ġso fa
be zeichnung
are l
Ċĉĉ Ċĉ
ĠUnivers al
ĠSpiel klasse
ellen ce
ĠArbeit sk
Ġsupp lement
Ġakt ive
ĠHar vard
dienst kreuz
ĠMill imeter
ĠfrÃ¼h ere
ĠGebie ten
fÃ¶rm igen
ĠGord on
K om
ch ens
ĠS ource
Ġe cht
ĠB arb
am an
ĠG on
ĠE X
ĠK abel
ber ge
ĠN AS
ow itz
be teil
Ġfe hlt
Ġsk ip
ĠZe hn
ĠPosition en
nehm ung
Ġged reht
ĠNeuse eland
ĠverlÃ¤ng ert
B lack
D istr
G C
L at
f ot
n abr
er ten
Ġin ches
ĠB ird
ĠB ibliothe
ĠE state
Ġl ift
se kretÃ¤r
19 14
19 30
ĠAl uminium
Ġvor genommen
ĠNe xt
ĠOr th
ĠEn joy
als o
Ġmach ten
Ġinvest igation
ĠKat zen
Ġzwe ier
Ġverkauf en
ĠPrÃ¤ fe
ĠExt ra
ï¾ ¾
R ight
n ic
u den
ĠS ide
Ġ1 14
ck te
ĠV ision
se a
pe ction
Ġse quence
Ġat tr
Ġso fern
ĠCh rom
ĠGe or
Ġgen auso
amil ton
ĠQu ery
ãģ ĭ
ott a
ĠFest ung
ĠBi ografie
Ġbra uchen
Ã¨ re
Ġless ons
ĠVal ent
ĠunterstÃ¼tz te
ĠCap ital
ĠMach ine
ĠBeteil igung
ĠChallen ge
ĠiP ad
O ktober
r ufen
Ġw omit
Ġp ill
ĠG ymnas
ĠK inos
Ġg ross
Ġl ust
Ã¶ ger
Ġge Ã¶ffnet
ĠZ oo
Ġch art
Ġnew ly
Ġus age
ian ischen
stell erin
Ġgew inn
Ġinv ited
ĠIs lands
ĠLin den
Ein wohner
kon stru
ĠVolks zÃ¤hlung
Ġinvest ors
ĠForsch ungen
Ġtw ice
Fr ame
ĠNahr ungs
ĠEber hard
ĠWupp ertal
B U
W ar
j ar
s ign
ĠS emin
Ġf v
ĠA y
st an
ĠF inger
Ġz ogen
ĠH air
Ġg utes
ĠJ Ã¼n
ab len
ĠSt ark
ĠSt ipend
kt ive
af ter
âĢĻ .
19 20
ath y
ĠVol ume
Ġrest r
Ġwrit ers
Ġprogram me
Ġstell ten
prof essor
Ass ign
ĠHir sch
Stack Trace
ĠHT ML
Ġbeeinfl usst
ĠberÃ¼cksicht igt
ĠKurfÃ¼r st
ĠWeib chen
C opy
c p
h ut
Ġa wards
Ġf f
Ġ( _
ĠL uk
ĠC onn
ĠN est
ĠÃ¼ber zeugen
Ġum gesetzt
ĠAb satz
ĠPr ime
Ġob lig
ĠCon f
Ġange passt
Ġtre ated
ĠLat in
grenz ung
Ġak zept
ĠKel ly
analy se
Ġbess ere
prÃ¤sentanten haus
I tems
S il
S ite
Ñ Ĩ
ĠB apt
Ġp in
ĠM aj
ĠF ly
ber atung
ce ived
ĠâĢ Ļ
ĠIn schrift
ĠAus stellungen
Ġ0 2
ĠUnter k
Ġgr id
Ġcho osing
druck t
Ġredu z
Ġerm or
Ġdeb ut
Ġindividu ell
Ġvalid ate
ĠExp edition
hedr ale
nabr Ã¼ck
" ),
L et
y an
z ens
Ġb ags
Ġin ch
Ġh Ã¤ngt
ĠP ear
im ed
ĠG az
ĠW icht
pp ich
Ġhe ft
ĠEr lebnis
Ġ8 3
Ġ8 9
lÃ¤ uter
Ġbo ot
Ġcons ists
ĠProdu kten
ĠMal ays
ĠBad minton
ĠText il
Ġintegr iert
ĠbenÃ¶t igen
ĠDisk ussion
Ġausgestra hlt
hoen ix
á ŀ
on ed
al teten
le tes
us her
ir med
ĠV il
ot ive
Ġre venue
Ġfor ced
op ing
ĠAr ena
ser ien
Ġ8 4
De zember
ĠGeb ir
ĠChrist opher
Le ft
ĠDu isburg
Ġauth ors
anze igen
Ġgelang te
ĠDec or
Ġaffe cted
ĠSym pt
Dec imal
ĠInnov ation
Hinter grund
Ġdenk mal
A tt
F ebru
G O
k al
in stitut
Ġa gric
Ġc am
ĠI ce
ĠE ag
ĠK ate
and in
ow ed
ĠSt ars
ĠZ one
Ġle isten
ĠPro perties
20 21
olit an
ĠAt mosphÃ¤re
Ġfile d
ĠProv inzen
ĠEm ail
Ġern annte
Ġfloor ing
Ġcra zy
Ġaktuell es
% .
b urn
d raw
f indung
t age
Ġin tel
us che
ĠM ort
ĠG ol
ĠE D
ĠC ry
ĠZ er
get T
Ġle ichter
Ġat temp
Ġum s
Ġ0 7
Ġmehr mals
ĠKon f
Ġvers ions
Ġsm ile
ĠSk i
Ġbef est
film ung
198 1
Ġident ified
Group s
ĠUs ing
ĠAud i
liefer ung
M ass
N onn
Ê ¿
Ã¼ pf
ĠM az
ĠP i
ĠF uture
ĠK ansas
ĠL ese
iv itÃ¤t
ab schnitt
ver hÃ¤ltnis
ian z
Ġprov en
hand els
bo ot
ĠAll gemeine
Ġmon at
Ġperform ing
Ġwichtig ste
Ġannoun ce
Ġged acht
Ġlisten ing
ĠHoff nung
CON T
ĠDrehbuch autor
ĠÃĦr zte
F low
d ies
ĠS qu
le ten
Ã¤ g
ĠE b
ĠK Z
ĠL iv
ĠN HL
ver letz
Ġle hrte
gr id
ĠDe ep
ĠEin fach
ĠEx pression
Ġverb esser
ĠKinder garten
ĠKreis es
Dat um
ĠZuf luss
tor hÃ¼ter
mir al
Wel come
ĠSchwier igkeiten
ĠSchott land
A ir
H ans
å Ī
he iz
ĠA gency
de cke
Ġl yr
ĠO il
ĠIn stanz
ph abet
Ġdire kten
AT TR
iner y
ĠDr ama
code d
Ġgef Ã¶rdert
Ã¤tz ung
Ġstrateg ic
Ġbestand en
Ġpick ed
kathol ische
ĠDemokrat ischen
S ing
k ing
z ed
sch el
Ġl Ã¤nd
os er
Ġis lam
ĠAuf ruf
Ġverw endeten
Deutsch e
bed arf
ĠZe ile
198 7
trÃ¤ glich
ĠKrieg sende
ĠkÃ¶nn t
Ġblock s
Ġbevor zug
ĠÃ¤hn liche
ĠRead ing
L aut
M Ã¶
k ommun
l ier
ĠS yl
Ġb io
Ġf ro
ĠP ersÃ¶nlichkeiten
ĠR au
Ġl ists
Ġvor der
Pro jekt
els on
ĠzurÃ¼ck gegeben
arch ie
Ge org
verein igung
hor st
Ġclos ely
ĠÃ¼bern immt
Ġign ore
ĠVize prÃ¤sident
Ġil legal
ĠfÃ¶rder n
? "
D uring
d ner
k ol
Ġ ×
ĠA cht
il deten
ĠM D
Ã¤ mm
Ġh idden
um pf
ĠC laus
ĠN ad
Ġge kauft
Ġmit tlere
Ġis rael
ien te
ib us
âĢľ ),
Ġ18 72
ult an
ĠGe fe
ĠMar co
Ġlie ber
An fang
Ġcons ist
ĠMed icine
Ġfre edom
ĠSer b
ĠDo zent
ĠauÃŁer gewÃ¶hn
ategor ie
Ġworks hop
Ġreport ing
ĠEben falls
ĠHash Set
Ġcapt ure
ĠRuh estand
F ull
O h
S chn
ch el
Ġm Ã¤cht
ĠG R
hr ase
ir r
ĠV ancouver
Ġge le
pp elt
op ol
Ġhe av
up le
age ments
ĠTh rough
Ġnoch mals
Ġ7 3
ĠBr Ã¼ssel
let ten
Ġger iet
âĢ¦ .
stru ctor
Ð½ Ð°
IL L
nehm ern
Ġexception al
Ġbrow se
gewand elt
Ġerheb lich
ĠRett ungs
I st
L INE
M ay
f ire
m aking
ĠM ust
ĠE cke
ĠL iver
Ġbe quem
ĠO hr
Ġch ocolate
ss ystem
Ã¤hr en
berg s
pro ject
Ã¶l be
ĠBet reiber
frei heit
ĠLeg islat
Ġspirit ual
hyth m
r ia
ĠB ibel
ĠB auten
ĠD ance
ĠG ul
sch ild
Ġk ill
ĠRe ferenz
aus chen
ens ation
Ġes cape
ĊĠĠĠĠĠĠĠĠĠĠĠĠĠĠĠĠ ĠĠĠĠĠĠ
tel finale
ĠBer at
Re zeption
iff s
zw ungen
ĠJe wish
Ġmiss ed
ĠBÃ¶ hmen
ĠLearn ing
G A
S owjet
p fe
u ers
Ġt ested
un ters
ĠM oss
Ġ1 16
ĠF ont
ĠG itarre
Ġle ichte
ho b
Ġman aging
ĠGr ill
ĠEx istenz
Ġsho ot
ĠMed ik
ament o
roll ing
Sh op
Ġfood s
From String
ĠnatÃ¼r liche
ĠFrei herr
ĠBill y
Ġspan ischer
ĠRÃ¶ mer
VAL ID
Process or
Ġviol ence
Ġprogramm ing
Ġbon us
E ST
K ind
Ġt iss
al id
ĠB ible
st unden
ĠM ale
ĠF urniture
ĠW inkel
Ġge fallen
ĠSt ick
Ġfor med
Ġpro of
sp unkt
ial en
ĠCh at
Ã¼hr t
pro zess
org ungs
ipp i
ĠEl f
Ġstand s
ĠStand ards
Ġport folio
ĠHÃ¶he punkt
liegen de
Ġyoung er
Ġschwed ischen
national spieler
ĠRis iko
ĠTok io
Are a
Ġauthent ic
imens ions
a ine
m il
Ù Ĭ
re uth
Ġh ole
ĠK ader
Ġg ent
Ġl Ã¶sen
Ġer ot
id ance
Ġauf merksam
sp h
Ġle gs
ĠSp enden
Ġ" .
Ġ18 56
Ġte ch
ĠIm per
Ġgr ass
Ġverb inden
Ġkon k
ĠLeip ziger
ĠHerzog tum
ĠDub lin
******** ********
Ġaccommod ation
ĠbeschÃ¤d igt
k orea
Â §
ĠS K
ĠS itze
ĠM Ã©
om on
ĠF ashion
ĠK ai
ĠH arb
ĠN assau
Ġge laden
Ġst il
ĠAb b
auf lÃ¶sung
upp e
Ġ9 2
min der
amen te
ĠKon struktion
ĠTra ck
Ġerw eiterte
hol ung
Ġstar tet
ĠĊĠĊ ĠĊĠĊ
ĠBen jamin
ãĤ Ĵ
AS E
valid ator
ĠFel der
Ġhold s
Ġstre ets
Ġchem ical
Ġrequ ested
Ġbem erk
P ark
b undes
d ated
Ġb undle
Ġm otion
il iate
Ġc odes
ĠG oth
ĠK ay
sch te
Ġbe it
Ġge pf
ĠO bst
od ie
ĠSe attle
ĠBer ge
olog ist
ri or
Ġra um
ĠTr in
ĠAut os
Ġger ingen
ĠInter pret
ĠOff iz
hol ders
ĠPer u
ĠMittel meer
ĠSol utions
cr ib
Ġbil deten
ias ieger
Ġfac es
Ġinitial Value
ĠKu gel
ĠÃĦnder ung
ĠMov ie
iÃ¨ re
Ġfung ierte
ĠSingap ore
Ġehren amt
l abel
Ġ1 17
ĠR oland
Ġre q
ein heiten
Ġdes selben
la de
Ġch apter
ure au
19 75
ĠAb ra
ĠAb wehr
Ġpre v
man uel
oh an
Class Loader
ather ine
Ġweek ly
Ġter rit
Ã¼l le
Ġenter ed
gef angen
Vor pommern
Ġleben s
ĠFrÃ¼h stÃ¼ck
kathol ischen
ĊĠĠĠĠ ĊĠĠĠ
Ġsignificant ly
ĠPeters burg
fir ma
H R
S aint
Ġd ental
le e
ĠM ul
ĠW edding
ĠL enk
ĠC ome
ĠU d
op ter
ste chn
ĠVer y
Ġcon trast
ĠBe fest
Ġ18 61
Ġunter lag
ob i
Ġgew idmet
Ġdis pla
erk lÃ¤rung
rich ts
grÃ¼nd en
Ġbl end
ĠBar th
AR D
ĠPart ien
wor ld
Reg iment
ĠAp ost
ĠMount ains
ĠSign al
ĠmilitÃ¤r ischen
Ġgrib ok
Ġimag ine
ĠOffic er
Ġsud den
Nonn ull
D ivision
o fen
z usammen
Ġt ub
un er
Ġf if
Ã¤ hne
ĠD M
am tes
ĠE C
if ikation
ad bach
Ġge ar
Ġst im
Ġver haf
Ġver folgt
op ran
qu ality
ahl en
Ġtra v
Class es
Ġstatt dessen
ĠPart ie
Ġspecial ist
US A
klÃ¤r t
ĠParis er
ham mer
Ġcover ing
hÃ¶ fe
ĠMel bourne
Ġinform iert
ĠCamp us
Ġmur der
Mart in
ĠabhÃ¤ng ig
u tel
st es
ĠF as
ĠW at
Ġer laub
ĠV ene
la p
ver halten
Ġon going
ĠSch ult
Ġ18 49
19 70
ges ted
Ġzusammen gef
ĠHaupt rolle
Ġben annte
Ġcheck ing
ĠPat ri
Ġpay ments
go ogle
deutsch er
Ġoffen e
Ġeurop Ã¤ische
gere chnet
ĠNS DAP
ĠTat ort
Rem ote
Ġwirtschaft liche
Pass word
ĠRaj on
Ġdoll ars
ĠVerstÃ¤nd nis
+ -
D enk
å ®
Ġa fr
it us
an es
ĠA lice
ĠB uk
ĠT iefe
ĠF I
Ġz ero
Ġk reat
Ġst ainless
ĠZ ellen
qu ote
ĠMar io
tra cking
con f
Ġbre ad
ief el
ĠÐ º
Ġdeb Ã¼t
ĠDel hi
zus etzen
ĠVerl Ã¤ngerung
Ġrepla ced
Ġproduz ierte
BÃ¼rger meister
n isses
p ay
in ent
Ġt aught
ar ation
Ã¼ ten
Ġv ast
Ġc ro
ĠM asse
Ġr ating
ĠVer handlungen
Ġwas h
Ġ8 1
lag ert
Ġno ted
Ġra us
ĠAd ams
ĠSchw estern
uck et
Ġdire cted
Ġpublic ation
Ġbeste hend
Ġentwick elten
ĠHow ard
ĠHar ald
ĠFer r
Ġcreat es
ĠHen ri
SI ZE
Ġengag ierte
verstÃ¤nd lich
F ree
H D
I FC
S w
S aison
l oc
r ors
z ucht
Ġs itzen
Ġw Ã¤chst
Ġw itness
Ġm ath
Ġe ase
ĠD ass
ĠD orn
ĠF lex
ĠF usion
ĠF okus
ĠH ad
ĠW id
ĠW are
Ġg aben
ĠC ut
Ġbe gr
ind s
ĠAn wendungen
ĠAn erkennung
ac ted
Ġpr icing
Ġtr ick
ĠEx empl
ĠChrist ine
Ġvis ible
ĠBed ien
Ġsuper ior
ĠTre ffer
Ġcamp us
ĠKol onial
Hol der
ĠKommand eur
ĠFert ig
ĠMaxim ilian
ĠSoph ie
Ġbegrenz t
, -
R ot
b uf
p ann
Ġd ivision
ĠS ind
ĠS ony
Ġb anks
Ġf Ã¤hrt
Ġv end
Ã¤ nen
im ore
ĠF Ã¤lle
em pty
Ã¶ mm
ĠN ature
est r
Ġge fe
mal en
Ġbes tellen
Ġfe hlen
ĠFl otte
res te
ader n
ĠSpiel s
Ġperson en
ĠDurch schnitts
ĠRegion alliga
ĠGu y
ĠComm ons
lÃ¤nd ern
Ġconf ident
ĠErn Ã¤hrung
ĠPop ular
rim in
Ġdream s
ĠAust in
bas is
Ġanaly t
Ġult imate
Ġverg essen
Ġsitu ations
Ġextre me
F lo
H igh
n ik
t ums
v ie
Ġa part
nd orf
is st
ge h
ge ts
Ġe lev
Ġn one
ĠK han
Ġbe zÃ¼glich
Ġk Ã¼nst
ere cht
ant es
19 74
pro b
ĠGesch w
iker in
ĠQu est
ĠQu ality
ins ichtlich
ron ics
Er zeugt
Ġsupp osed
mat ik
Ġander erseits
ĠChar lie
kon struktion
ĠDon nerstag
Ġmag ic
ĠMa ine
Ġearn ed
ĠHeer es
Ġhop ing
Ġmonitor ing
ĠnÃ¶t ig
I hr
M erk
S EC
d ig
m utter
ch annel
re chnung
ĠA gn
ĠB attle
ĠP iet
ĠL ob
ou is
ĠSch reiben
ĠIn tel
ĠIn putStream
19 44
ĠAb stract
old a
Ġbl ow
Ġ% .
Ġarch Ã¤
Dis play
ĠSÃ¤ ulen
Ġdur ation
ĠLokomot iven
ĠGalax y
Ġincor por
T urn
f are
i pt
Ġv i
ig ran
ĠP ixel
ic z
ra hmen
Ġver zeichnet
Ġver grÃ¶ÃŁ
Ġhe iÃŁen
iz able
Ġtr ib
Ġtra ce
Ġger man
ĠWer bung
Ge gen
ĠPla yer
Ġherv orge
Ãĸsterreich er
ĠKomment are
Ġstaat lichen
ĠVerteid igung
Ġeigent liche
ĠNap ole
izien z
Ġstyl ish
ĠGemark ung
C le
S en
b Ã¤
n umber
s u
Ð ±
Ġs hr
at isch
Ġv illa
st ahl
ĠI C
et on
ĠH Ã¤nde
ĠW ester
sch ung
ĠC ass
Ġk ompon
ab a
Ġge arbeitet
ĠZ ut
ĠRe ed
ĠRe formation
ap olis
Ġle tt
ĠTe lef
ize i
Ġsk y
Ġerreich bar
Ġcr ash
mut able
ĠMot to
Ġbede uten
Ġprim arily
Eis hockey
Ġdistin ct
Ehr ungen
ĠGemeinder at
P lay
R und
v org
Ġt all
Ġh alt
ĠP osten
ĠC urrent
ien ne
me yer
ĠWe iler
ook ie
Ġste igt
ĠMin er
mÃ¤ cht
ĠSpe ed
ĠHol y
Sie ger
Cont roller
Ðµ ÑĤ
Ġbew ir
ĠrÃ¶m ischer
Ġpack ages
Ġbedeut ende
Ġprepar ation
ĠHoll and
Ġhers elf
ĠOpp osition
L ab
N ummer
Y es
h aut
Ġd ust
Ġt ank
ĠS amen
Ġb Ã¼rger
Ġb lank
ĠA TP
ier bar
ĠSch r
qu alif
ĠEr klÃ¤rung
Ġwe ap
Ġme ets
ia e
19 77
ĠAl f
Ġ8 2
Ġber u
Type Enum
ĠGesch enk
Ġag ents
Ġag gress
sport ler
Ġcap able
ĠerklÃ¤r en
Ġexpect ations
W o
ĠS ain
ĠS creen
Ġf er
ĠM ix
Ġg al
ber gen
Ã¼r tel
ik eln
Ġso le
Ġbut t
ock e
Ġmus lim
Ġdesign ers
Ġdire kte
Ġem otion
ĠSer ge
ĠDurch fÃ¼hrung
Ġkon stru
Ġrelat ively
Ġturn ing
plan ung
ĠVe ter
Ġdest roy
Fl ug
ĠFreund schaft
Ġinj uries
Ġumfang reiche
ĠInner en
Ġeigent lichen
Ġrum Ã¤n
supp orted
H il
n Ã¼tz
æ ĸ
Ġt ip
at ile
Ã¼ he
st Ã¤rke
im o
ĠF unction
ĠE mm
Ġz ip
ĠW asch
ers teller
ĠO hne
ug uay
ĠVer z
Ġum gewandelt
ign et
ĠPar ad
fahr zeuge
ĠKon text
li ament
Ch ain
ĠÂ °
cont ainer
Ġenjoy ing
ĠVorsitzen de
wal de
Ã¶p fe
Ġkanad ischer
ĠPlÃ¤ nen
ĠBundesver dienstkreuz
d ays
g nung
t otyp
Ġd ent
Ġb ow
un es
Ġv ierte
Ġc lock
Ġh ung
ol ine
ĠI M
ĠG ib
ach se
Ġwe ak
ĠÃ¼ber gebenen
ĠLe ader
Ġcomp osition
az y
ĠFl ach
fl Ã¼sse
tes te
Ġsho oting
Ġbre ast
Ġsol ve
ĠVers icherungs
ĠÃĦ m
sw itch
ĠKn ochen
Ġatt orney
Ġgewann en
ĠVe ktor
Ġfrei will
ĠStock holm
Ġprincip les
D isc
S pr
S eite
j on
s rc
ĠB eth
ĠG lass
ĠE asy
ĠH ed
ab schluss
Ġj un
Ġse qu
ru gen
ph ys
tw ork
amm ad
Ġfin ance
ĠFe atures
ĠSÃ¼d ost
ĠÐ ¾
Ġnun mehr
ĠProgr ess
ĠFranz osen
Reg istr
ĠHerr scher
Ã¤mp fung
ĠLang uage
lÃ¤uf e
sprach ige
ĠRob in
ĠOs nabrÃ¼ck
famil ien
ĠViertel finale
Ġsav ed
shaus en
Ġforder te
ĠSecret ary
Ġsustain able
ĠÃ¶rt lichen
F uÃŁ
T ok
s Ã¼d
s uper
Ġ ~
ĠS ad
ĠA kte
ĠD ak
âĢ ³
ĠG Ã¶r
ĠH au
ĠH ildes
art a
ok u
Ġ18 46
ĠMar cel
amm lungen
ĠPh ant
ĠProdu cts
Ġaufge hoben
ĠZust immung
ÅĤ aw
Ġcas ual
Ġhor izont
ĠSpr int
ĠStruktur en
Ġerinn ern
ĠEigent Ã¼mer
Ġoccur red
ĠGlaub ens
ĠOpt im
Ġuk rain
C ustom
ĠS F
Ġo h
ĠB od
Ġ1 13
ĠG reek
ĠK it
ĠW ellen
ĠL il
ĠV II
Ġge liefert
Ġr ig
Ġaus gesch
19 79
Ġent decken
ĠTe uf
Ġres ort
ĠNe ver
ĠZeit schriften
eng ers
Ġoff ices
Ar gs
ins eln
Ver tex
schl Ã¼ssel
str asse
Ġgef angen
ĠEd itor
ĠWohn ungen
Ġengl ish
ĠAg ain
ĠEv ans
Verein igtes
Ġprior ity
Ġappe al
Ġobtain ed
Mult i
ĠGit arr
! âĢľ
A U
m oder
w irt
in stall
Ġa warded
Ġt ear
Ġb ass
ĠM is
ĠT ower
ĠP ommern
ĠK ne
sch Ã¤d
Ġge g
ĠO skar
Ġor din
ĠY O
ace ae
aw s
Ġwieder holt
ĠTra de
ĠDr ess
ĠPhil ip
ĠGew inner
ĠHel den
Ġresearch ers
ĠGeneral major
ĠHall owe
Ġliter ature
ĠRegierungs bezirk
Ġchrist lichen
ĠSmart phone
Ġmensch lichen
Ġtom orrow
A K
U uid
k rÃ¤
Ġb lau
le un
ĠH Ã¶l
ĠH altung
ĠR af
Ġbe zogen
ĠU rauf
ĠZ Ã¼ge
ĠÃ¼ber zeugt
me e
ĠAuf sichts
ĠAd vanced
bach s
Ġclass Name
stoff en
ãĤ Ĥ
ĠMay be
Ġjoin ing
Ġill ness
Ġjapan ische
inu ier
ĠHawai i
B ek
r atic
Ġa ck
es er
un ken
st age
ĠD O
ĠD ave
ĠH ost
Ġg g
ĠL P
ĠC oc
Ġbe le
Ġl ucky
la ce
ĠBe cken
19 39
nis sen
Ã¤ch ter
Th anks
ĠX X
ĠVerb reit
Ġ% )
Ġeng agement
Ġcheck ed
Ġeinge laden
Ġpolit ics
Ġenter prise
Ġfort an
Ġresource GroupName
ĠAbs ol
Ġconcern ed
ĠKult urg
ĠBrow ser
ĠCost a
g ert
k lassen
u in
Ġm ask
ĠB C
Ġc riteria
ĠT reat
Ġein erseits
ĠK ub
ĠR ug
est het
ĠZ ert
Ġde fense
enn is
Re v
sh op
Ġ8 6
param s
Ġhand ling
ĠMen gen
stein en
stit u
hel ess
Bu ild
ĠTrans fer
Ġern st
fil me
Ġfight ing
ĠEqu ipment
Ġbayer ischen
. [
E hren
L ife
M IN
f uÃŁ
l ov
er ed
Ġv olle
ĠB in
Ġc ater
ĠF uchs
ĠE ichen
ĠH imm
ĠC ole
Ġl ake
ĠU E
og ramm
ĠĊ ĊĠ
ue ft
Ġsch m
ard in
ĠSchw ein
yl on
glieder ung
Ġeinge weiht
LE D
ĠFin ance
ĠLandkreis es
198 2
Date Time
Welt meister
eme ister
Ġassoci ation
ĠVis ual
ĠbeschÃ¤ft igte
Ġfig ures
ĠmilitÃ¤r ische
ĠGreg or
M aster
d d
k ers
k asten
ro hr
ĠI ra
ĠE k
ir us
ĠN agel
Ġaus geschlossen
for cement
Ġ" );
amm ed
ĠVor stellungen
Ġbest immen
Er n
ĠHaus halts
by tes
ĠAustr ia
ĠBaum w
Ġkosten lose
kan al
lad imir
Ġregistr iert
ĠElect ric
Ġsorg te
ĠRez ension
b n
n ur
Ø ±
ĠS ri
ĠS ix
Ġb its
Ġf t
st yp
ĠD R
ĠP az
ĠP ink
ĠG T
ĠK av
ĠL aub
ĠJ ury
th ese
Ġr ural
âĢĻ ,
ĠBe weis
Ġex pr
Ġall gemeine
19 76
19 72
ac c
Ġup grade
ĠLand gemeinde
Ã¤hr ungs
mann schaften
Ġgeb unden
Ob j
Ġperson ality
buch autor
Ġbook ing
Ġx ml
ÃŃ k
spre chen
Ġschn elle
ĠLehr stuhl
ĠzusÃ¤tz lichen
ĠFrei will
clus ive
ĠVoraus setzungen
Ġverme iden
R ole
S R
m Ã¼n
Ï Ĥ
en ke
Ġs oph
ĠS Ã£o
ge mÃ¤ÃŁ
us ive
ĠH ugh
Ġbe igesetzt
iv ia
ou x
Ġzu verlÃ¤ss
ĠAn satz
tell igent
ĠWe is
ĠOber liga
Ġcre w
grÃ¼nd e
ommun ity
Ġlist ings
ĠMor gan
Ġtreat ments
Ġnieder lÃ¤ndischer
ĠZeich nungen
Ġrespons es
Ġfunction al
Ġstru ctures
Ġwid ely
Ġspeziel len
wel ry
Ġbere chnet
ĠgÃ¼nst ig
Wil helm
ĠRess ourcen
INST ANCE
. '
E B
T F
o a
in ternal
ĠP okal
ĠK rÃ¤fte
sch Ã¼tzen
ĠC in
Ġan grenzen
ĠSt ifts
Ġver lei
Ġver trieben
Ġpro tocol
be y
ĠAr rays
ast ung
ĠEn kel
Ġ9 3
ĠSo ft
Ġkon zip
Mod us
Mod ell
Ġimpro ving
ĠTro cken
Ġindividu elle
ĠRem ote
ĠverfÃ¼ gte
ĠAP I
ĠDet roit
Ġnorm ally
L ud
f ein
p ower
Ġw asser
Ġp it
Ġn om
Ã¤ le
ra c
ĠW oll
Ġg od
ĠR auch
ĠC ON
ĠIn valid
Ġ18 47
ĠTh ose
fin det
Ġfol ks
ĠHand y
Ã¼t tel
ĠVerb raucher
Ġeinge gliedert
Ġehemal s
Ġret ire
ĠHel p
trÃ¤ cht
verb indungen
ĠJust ice
Ġmeisten s
Stand ard
Ġreason able
ĠViel falt
Ġausgew iesen
ĠRen ov
Ġexpla ined
match er
Ġschwed ischer
ĠWach stum
Ġincred ibly
ĠSchÃ¼l ern
K lein
L ower
a ire
s inn
} .
ĠS uz
te ine
le utnant
Ġe g
Ġc um
ĠL oth
ĠJ oin
lich ten
Ġauf w
ĠZ it
19 10
ĠTe ich
ke ep
ĠMit twoch
iss ippi
Ġro te
fol gs
utz er
Ġspe zif
ĠGesch lecht
res ources
lÃ¤ s
Ġrest lichen
ĠAss istant
Ġcall back
Ġdeal ing
Ġpan els
ĠRelig ions
spar tei
Ġdrink ing
Lin ie
Dom ain
ĠstÃ¤dt ischen
ĠdebÃ¼t ierte
ĠHallowe en
F ar
P ublic
z esse
Ġw Ã¤ren
ig i
ent ums
ĠP lattform
ĠF REE
et tet
ĠH ut
ĠH amilton
ĠC ir
ĠSch enk
Ġun able
Ġwar n
get Resource
get Text
me ier
Ã¤n zer
ĠBer ichte
fin anz
Ġinter active
leg ate
Ġstr ip
ĠBre ak
ĠMo on
ĠGen f
ĠCent ury
Supp ort
wir ken
abil itÃ¤t
ĠUrs ache
Ġmaxim ale
ĠArgentin ien
B ER
c ms
d est
m Ã¶glich
o zi
| -
Ġv oc
âĢ ²
ĠG umm
ĠC urt
th al
ĠSch Ã¤d
() ),
Ã¤t tern
ac on
ĠSe ction
ĠSe kretÃ¤r
ĠMar sch
Ġ0 6
rei hen
ock el
Ġfr ustr
Sch on
Ġgu idance
Ġsub stant
mittel alter
ĠReich es
Ġcert ificate
produ kte
ĠAmts gericht
Ġregion alen
ĠVerkauf s
ĠAtlant ic
mot oren
tok oll
ĠeigenstÃ¤nd ige
Ġeindeut ig
F ot
P N
P ubl
Q UE
z unehmen
ĠB ucht
ĠB ush
ter t
ĠI owa
ra ben
ĠK ro
ĠK ein
ĠL aser
ir i
and el
Ġer e
ok o
ĠBe cker
lic ke
wei he
Pro tocol
pl us
ĠÃľber setzt
Ġerfolg ten
Ġzahl en
bÃ¼ hne
ĠFel sen
kor de
Ġentire ly
ĠJob s
incip al
---------------- ----------------
f jord
ä »
Ġt elling
at ively
Ġb ab
ĠD imension
ĠI F
ber ater
ul iert
ib ution
ĠEr langen
Ġ4 50
wer tet
ime tern
ĠMit be
Ġmy th
Ġspe ech
ĠGemein schafts
ĠMan ufact
ĠFe ier
bes te
ĠWohn haus
Mod ified
Ġdi am
Ġindividu ellen
Ġnie mand
Produ ktion
Ġporn o
quis ition
ĠJahrzehn ten
Ġgez Ã¤hlt
Ġbegeister t
Ġbewe gt
E ben
E lekt
O k
d ichte
g ger
Ġd rag
Ġf irms
ic us
ĠL ichten
ĠC ape
ĠSt ationen
ess a
Ġauf zu
ĠAn meldung
19 19
me chan
ick el
ĠIm mer
pro of
Con stant
An gabe
ĠSpiel film
Ġgesch lagen
Ġgu ard
Ġgu idelines
ĠIf c
ĠSÃ¼d afrika
DE F
ĠGold medaille
trÃ¤ gen
Ġless on
UT F
Ġclos er
comp are
sm ith
Ġak adem
Ġbeob achtet
Ġfla vor
ĠPreuÃŁ ischen
ĠFÃ¤h igkeiten
ĠInse kten
G reat
H tml
L P
P okal
R and
k ore
k ons
u der
ĠB lat
ĠG ift
ĠL aus
ĠR ights
ĠN ut
Ġk onserv
Ġan f
id ad
Ġauf einander
ob s
ĠAb lauf
ĠHe ck
cl udes
ied s
ound ing
Ġint ent
Ġass um
Mit te
Ġerr ichteten
ĠPlan et
fest ival
Ġinform ed
Ġattack s
ĠDir igent
ĠJon athan
PAR AM
Ġvict ory
ĠKapit Ã¤n
ĠWiederauf bau
C ho
F ach
Ġd ot
at ra
he ast
ĠB usch
ĠM d
am ts
ĠF ame
hr ung
ist ol
id al
ag entur
aus geber
Ġi OS
Ġen ables
ĠEn cyclop
ĠPr Ã¤sent
ata illon
br unn
Ġprof iles
Ġcar pet
Ġcolle ctions
ĠEd ge
Ġter min
ĠBas il
ĊĠĠĠĠĠĠĠĠĠĠĠĠĠĠĠĠĠĠĠĠĠĠĠĠĠĠĠĠĠĠĠĠ ĠĠĠĠĠĠĠ
Ġrequest s
Ġant icip
Ġ180 3
ĠKommun ikations
Char acter
ĠSilber medaille
ĠLiver pool
Ġverhaf tet
B und
R hein
S al
T wo
s Ã¤tze
u ous
w enn
at tribute
Ġn arrow
ĠH af
Ġbe auf
Ġal ias
os se
ĠU we
Ġ" ";
Ġsie gte
Ġen abled
Ġte x
Ã¼nd er
ĠEs c
ĠAd vis
Ã¤d te
ĠAnt arkt
Ġconf irmed
ĠIde al
ĠTyp s
verb Ã¤nde
Ð¾Ð ¼
Ġkont inuier
Ġfra uen
Ġgek ennzeichnet
Ġtag ged
Ġverhinder t
ĠCorn el
ĠJoy ce
Ġcurren cy
Ġcerem ony
Ġpersonen bezogen
c atch
Ġw rap
Ġin folge
ĠB att
Ġn utzt
em en
ĠC omb
Ġan x
ver kauf
Ġr ib
Ġse ats
Ġcon tribute
ĠEr be
ĠSp ark
ĠAus stellungs
auf lage
sh ut
Qu elle
Ġoff ens
Ġfol der
fr iger
ĠBo ys
Ġperson ally
ĠGrund schule
stÃ¤nd ig
ĠMot oren
ĠKaiser reich
Option al
ĠHalb insel
ĠPrem ium
End point
Column s
sequ ent
Ġhum or
Ġtal ks
ĠLux emburg
ĠDemokrat ie
ĠGeschle chts
ĠBoch um
N icht
Ġs ick
Ġb ild
ĠD ame
ĠP ent
ic ts
ĠF Ã¤r
ĠW iesen
ĠW esentlichen
ĠR iv
ĠJ Ã¤ger
iv ation
ĠO range
ver teilung
ĠVer leihung
Ġbei der
Ġch ose
19 36
ĠEin zugs
ĠLe v
Ġwor se
br enn
ator in
ett i
ader born
ĠGeb Ã¤udes
ĠMan uel
Ġbek le
ĠNor m
ĠMin istry
RE AD
Ġ> >
ĠStre ifen
Ġdiscuss ed
iro ler
ĠPrinz essin
ĠKonzer te
Down load
E U
F k
b org
Ġt or
it Ã©
an ke
Ġb ron
Ġb ars
ĠF ine
ĠF erner
ĠH P
Ġl as
and t
Ġst ake
Ġr ichtet
op es
ĠEr gÃ¤nz
ĠSp alte
lic a
oc aust
Ġ18 59
ĠAb stieg
Re pository
tw ert
ĠVor teile
Ġco ordin
ĠOber Ã¶sterreich
ĠKl ar
Ġresult ing
ĠCo ach
ĠKo alition
ĠSen at
Ġmag n
ĠMa ÃŁe
ĠEmp f
Ġauthor ity
ĠÃ¼b lichen
ĠTenn essee
Ġimmed iate
ĠHu bert
Ġagre ed
PRO PER
Ġfinanziel len
Ġjud ge
wÃ¤rt igen
Ġestim ated
ĠKob lenz
ĠLÃ¤nd ers
G old
K S
n ord
s ingle
Ġ ul
Ġp itch
Ġ1 12
Ġh ang
ĠG P
ĠG ent
Ġto urn
ĠR ight
ĠC redit
ĠN okia
ĠJ immy
ĠO ak
ĠU ran
Ġcon cepts
Ġso il
19 68
ĠEin kommen
ac cess
ĠSe pt
cc a
Ġdar stellen
ffe kt
schl Ã¼sse
ĠUr sprung
ex ception
Ġeing est
Ġbed ient
spre ch
ĠDu ke
Ã¤ll ig
ĠBi ographie
ĠPal m
sc ale
Ġoffic ers
ĠStÃ¤d t
ĠPan el
ĠSpring s
Exec utor
Ġphotograph s
ĠSchlaf zimmer
K ur
Â ¼
Ġm un
om y
ĠH enn
Ġl iquid
ĠJ ag
Ġre produ
end el
igen en
ĠJahr gang
Ġsp acious
Ġvor kommen
Ġro se
Ã© g
Ġper mission
ĠDis play
ĠHil f
LO C
zÃ¼ gen
ĠFlor a
IG N
Ġrefer red
Ġindustr ies
Ġumfass ende
dis ziplin
ĠPubl ishing
verteid iger
Y ear
re ff
Ġf inger
as a
ro ff
ĠM Ã¼ndung
om aten
ĠG utsch
ĠH appy
ĠL ith
ver g
ĠBe er
19 78
per rt
form ed
Ġbes ter
Sch utz
pl Ã¤tzen
Ġverb lieben
alle utnant
Ġdevelop ers
Ġgra u
ÃŃ o
zentr ums
Ġmult ip
gesetz es
Ġfal sch
;;;;;;;; ;;;;;;;;
ĠVie h
Ġuntersch rieb
temper atur
Ġdenkmal geschÃ¼tz
n acht
Ã¼ g
Ġo vers
Ġder selben
Ġc arbon
ic ted
ĠF lat
ĠE ro
Ġge lingt
ĠO cean
ĠIn fe
ib il
ĠSp ar
19 00
min ute
bo ards
Ġcol ours
ĠChar ts
Ġrest ore
figur en
Ġinner en
Wh y
Ġcommon ly
Ġdivers en
ĠEvangel ische
Ġslow ly
Ġbege g
ĠJos h
Ġevalu ation
Ġgeplan ten
B ank
m Ã¤r
z k
it ative
he ader
el ly
st het
Ġn odes
Ġ1 18
ĠĠĠĠĠĠĠĠ ĠĠĠĠĠĠĠ
ĠI tem
ĠG ieÃŁen
ĠW onder
em pf
ĠR ic
ĠJ Ã¶rg
Ġan gest
Ġfor g
ak ten
sp reis
ĠDe kan
ĠGr en
Re ihe
rag ment
ĠBundes regierung
stein er
zent ren
Ġfest gestellt
ĠEd in
itu ationen
ĠNeu zeit
EL D
Ġlik ed
ĠBud get
Ã¤um t
Ġmo ist
ĠErwachsen en
Ġcris is
S el
c us
e u
in as
Ġb are
Ġb uff
Ġv ib
ĠG PS
ĠK openhagen
em m
la in
ĠEr hebung
Ġwe iÃŁe
ĠSp ain
19 29
Ġ9 1
Ã¤l ter
ĠTra il
ĠAt tribute
ĠSaison ende
Ġfeel ings
produ zent
Ġstat istics
Ġaddress es
Ġsle e
Ġcru cial
lah oma
ĠAuseinanders etzung
Ġdanger ous
F eld
V ier
k andid
s v
ar ently
ĠS lowakei
ĠA V
ĠH ass
qu et
Ġwh ilst
Ġ18 51
Ġad van
Ġ9 7
ĠVor lage
Ġber ichtete
Ġdec ade
Ġsu ite
ĠDo es
Ġstehen den
Aut o
ĠBesatz ung
ĠBrig ade
Ġgarant iert
ĠAfghan istan
Ġgewinn t
G lobal
u als
it led
at iver
ĠS W
ĠS or
ĠS ug
te or
Ġe gal
ĠB anken
ĠT SV
ĠW ire
ber ichte
Ġdes ired
Ġas pect
chn ungs
att i
Ġrec re
ious ly
Al though
ps ych
AT OR
Ġcommun ications
less ly
ibr aries
ĠDienst ag
Ġangeb lich
Ġhappen ing
Ġinteress iert
hab t
ĠprÃ¤sent ieren
ĠÃ¶ k
Ġcompar ison
ĠMÃ¤r chen
Ġwunder sch
ĠBeweg ungs
Po inter
Ġzusammengef asst
. ",
H y
J azz
f i
l t
Ġs amples
ĠS hel
Ã¼ ben
ĠB ott
ĠI an
Ġl uck
Ġvon einander
ok ol
Ġ18 52
ĠSie ge
Ġcan cel
ĠCh ile
ĠQu ick
Ġprodu cer
ĠKon stantin
ĠTr ip
Ġange kÃ¼nd
Ġmark ed
Ġbesch loss
ĠWar um
cept or
Ð½ Ñĭ
Ġinvolv es
ĠSied lungen
Ġsil ber
ĠAuss agen
ĠRestaur ants
Ġign or
Ġengag iert
Hash Map
Ġkorre kt
K ilometer
M AT
S y
h attan
k arriere
Ġs ang
ĠS U
ĠS id
us k
ĠM au
ĠG ard
ĠH ob
ĠH Ã¤usern
ĠL yn
Ġden ken
os es
ĠO F
ĠBe an
Ġunter teilt
Ex pr
ĠPr ize
utz te
Ġrec on
min a
Ġloc ale
Ġmin ister
ĠNord west
Ġsu c
ĠAlb ums
zy kl
Ser ial
Ph ys
Ġcrit ic
ĠLaur a
D oppel
H istory
Z usammen
m Ã¤nn
o ft
er ial
Ġw ann
Ġm and
ol in
ĠT ieren
ĠT afel
ĠF ett
ĠC ott
Ġk reis
Ġch annels
Ġhas h
ĠEn try
ĠPr in
ĠTr ennung
back tracking
ĠZe ilen
ĠGrÃ¼nd e
ĠTex ten
ĠFÃ¼hr ungs
Ġrecogn ize
Ġce iling
verl ust
a o
c amp
n ischer
t ier
å Ĳ
Ġd auert
or ium
ge x
ĠB un
Ã¤ p
ĠD ays
ĠC ow
Ġst ab
ver gleich
Ġ18 53
Ġsp ark
Ġent stamm
ĠSe ktion
tz t
Exception Constants
ri um
ĠDeutsch es
Pro p
ĠSte iermark
ĠPol ar
Ġplan et
ĠLu is
yd ra
ĠHistor ischen
Ð¾Ð »
ĠOper a
Ġmer ch
ĠMuse en
uert o
Ġbehand eln
gram me
ĠGlaub en
Comm on
L ie
W asser
h ten
k ter
m ay
Ġa ims
ĠS i
Ġh anging
ig o
ĠT O
ĠT otal
ĠP ension
ĠF unktions
ĠH ahn
Ġl ies
ĠSch atz
ĠIn formatik
Ġun us
Ġle iden
ome ter
19 40
ĠTe ch
ĠCh an
ĠMar x
Ġag greg
Ġinv alid
Ġrem ark
Ġimp ossible
ĠTurn er
Ġbedroom s
Ġsav ings
ĠChron ik
Ġscen es
Ġdram atic
opÃ¤d ie
b ow
k am
k inder
m ass
Ġs itzt
ar ded
ich s
ĠF ive
ĠR acing
ĠC atholic
tel ier
Ġbes tellt
teil ten
ĠKon ferenz
pf alz
weiz er
ĠWar schau
othe k
Ġed ges
ĠZwe ig
ogn ition
Ġnormal en
Ġmem ories
ĠMr s
Ġarr ive
Med ien
Ġsuggest ions
Ġempf angen
Ġsem i
Ġpow der
ĠLuftw affe
B Y
W atch
Ġp Content
st oÃŁ
ĠD OC
ĠH im
sch i
Ġal arm
ĠJ ason
ier ra
Ġan onym
Ġge br
ver arbeitung
ub auen
ĠEin z
Ġman chen
Ġman agers
ĠAus bruch
tra ce
br Ã¼ck
off izier
ĠCar r
Ġevery where
Ġprof essor
ĠÃĦ l
ĠPat ient
ĠWerk zeug
Ġgem Ã¼t
ĠMÃ¤n nchen
Ġzwe if
ĠAp olda
Ġwissenschaft licher
Annot ations
Ġstrength en
conne ction
ĠSak r
ĠShakespe are
A BC
G L
l Ã¶sen
on er
Ġin kl
Ġin halt
Ġm ood
Ã¼ sten
ĠM ang
ĠF avor
ĠC ab
ĠC av
Ġk aiser
gen s
Ġun known
Ġle ts
Ġsch olar
19 26
19 31
ĠString Buffer
Ġcont est
akt ions
ĠVerb indungs
ĠMo or
war f
Not ification
Method s
Ġpurch asing
Ġkont akt
Ġfair ly
Famil ien
OW N
Ġsitu ated
Ġcrow d
franzÃ¶s isch
Ġbrill iant
! âĢĿ
G TH
V iele
z uge
Ġb odies
Ġp iano
Ġc rypt
st lichen
Ġund ert
ĠG ill
ĠH aup
ĠN ash
ĠV ik
Ġse ctions
ĠAn bau
ia de
ĠDe te
19 34
fol k
Er stellt
ĠAnd rÃ©
Ġass ign
Ġperson s
ĠWil helms
Ġbr idge
ĠSan ierung
ĠLebens raum
Ðµ Ð»
Ġoft mals
ĠÃ¶ff nen
Ġintegr ation
Ġtravel ing
ĠOs lo
ĠMary land
ĠerhÃ¶ hen
Child ren
ĠRet urn
Ġframe work
Ġachie ved
ĠZerst Ã¶rung
Ġappl iances
kanz ler
ĠForts etzung
ĠDok umente
B al
C ell
N LS
Ġd ring
ĠB elle
Ġh l
ĠK reat
Ġto k
ab ol
Ġge leitet
ver leihung
ĠBe h
Ġme als
Ġres istance
fahr ung
add ing
ĠEl be
Ġstr ict
ĠStra hl
ĠProdu ct
ager ung
Ġdiffer ences
fra uen
Ġcreate Ifc
ograf ische
Ġbesonder er
gra ph
Ġstor ed
Ð¾Ð ´
Ġverste ht
Ġsatis faction
Ġverbess ert
astrop he
AuÃŁer dem
B ro
B enz
E isen
M ein
V ICE
f ranken
h igh
Ġs ight
ar ts
Ã¤ ne
ĠD utch
ĠH amp
ĠL ack
ĠJ Ã¼d
ver w
ver Ã¶ffentlich
ĠSch Ã¼tzen
ĠIn stead
ĠIn haber
Ġdem ands
Ġcont ents
Ġsc ulpt
lieÃŁ t
ins ert
ĠKon stanz
ĠFe ucht
ĠBet racht
Ġpass ing
Ġausge prÃ¤
pre chung
Ġperfe kte
Ġhol idays
Ġalong side
ĠSÃ¼ ÃŁ
Ġplatform s
Ġrechte ck
andem ie
Dav id
Ġexpos ure
Merk male
Ġs aving
Ġf ran
ĠT ell
ber gt
eit her
ĠN ations
ĠN AT
ein richtung
ĠO K
og ram
Ġwh oles
get Parent
Ġsch ed
ĠSe gel
Ġpr ide
par tei
Ġad op
omm y
ĠPar allel
Pro file
Ġreg ions
ĠOber flÃ¤chen
urrent en
Ġcl ar
ĠHaupt dar
Ġsk i
Ġtrans lation
ĠRÃ¼ck tritt
ĠBas ic
ĠTag s
fel de
Ġed it
Ġpain ted
ĠPublik ationen
ĠAR D
wander ung
ĠBeaut y
ĠInstitution en
ĠMisch ung
ĠArz ne
ĠVinc ent
Ġfasc in
ĠSynag oge
ĠUE FA
F Ã¼gt
g ard
w elle
ç Ķ
Ġs ending
Ġw ander
re quire
he ll
Ġp hen
Ġc ult
ĠT alk
ĠE ier
eit h
ein satz
ĠSch um
Ġun f
ĠVer ordnung
ĠBe arbeitung
19 67
Ġcomp act
Ġste uer
stand es
ĠEx change
Ġprodu cing
Ġact s
Ġdown town
Nach bar
Ġpass enden
ĠFot ografie
werb ung
ĠMinister ium
ĠZwe cke
spe kt
fried hof
ĠPhot os
Ġdisplay ed
Ġpoln ische
ĠFass ade
Ġsuppl ier
ĠBlo om
cla zz
ĠmaÃŁ geblich
+- +-
" -
7 00
J J
J a
L Y
N a
W G
r ent
r isch
en ne
ĠT ool
ĠH i
ĠH aving
ĠL ac
ir s
ul ator
Ġer g
ĠSt aub
eb y
Ġcom men
ĠSp a
ungs ort
Ġent rance
Ġunter schieden
ĠMar athon
rÃ¤ um
ĠBo sch
ograph ischen
ĠZw ar
ĠArch ive
Ġobject ive
ĠTour isten
ĠErw art
ĠTher es
Ġsubject s
ĠInvest ment
Ġcondu ct
Ġsech sten
ĠTats ache
ĠNR W
P T
S ol
Ġd einen
ĠS O
ĠA ur
ig ate
ra gs
Ġth in
iv ile
ow ers
ĠSt Ã¤rke
id as
Ġfor ever
qu ellen
19 22
fr ies
ĠCon fig
Ġange ordnet
Ġhin weg
ĠJohann a
room s
Ġmet adata
Ġcap abilities
ĠRel ief
ĠWand el
ĠPsych ologie
Ġregul ations
ĠOk res
Ġserious ly
Ġsuppl iers
Ġinstru ction
andin av
Ġack now
D O
z ien
Ġs amt
re aten
ĠS ara
Ġh art
Ġh urt
ĠP hoenix
ĠF ortun
ĠF DP
ĠK Ã¤fer
ĠL ub
Ġl adies
ĠN oten
Ġre iste
ile t
ĠDe cken
19 47
ac ular
olog in
Ġtra fen
Ġges ichert
sk irche
ĠPh Ã¤n
Ġshe ll
ĠZw angs
EN UM
AR N
ĠPhil harm
ĠMag d
Ġmar ks
Pr int
mark et
Ð¸ Ð
Ġ180 6
Ġdet aill
Ġrom antic
ĠSpr ung
ĠQue ens
Ġbetre ff
db c
ĠVerteid igungs
Ġsurpr ised
ĠPersÃ¶n lichkeit
ĠplÃ¶tz lich
G R
r v
Ġd up
ie m
Ġv it
ĠB rem
Ġh ide
ĠW als
ĠL iss
ĠC art
ier re
ĠSt reich
ver ordnung
th at
Ġauf nehmen
Ġdem okrat
Ġ" +
Ġ18 20
ĠY oga
ĠBer Ã¼cksicht
(" /
Ġ12 00
Ġfind s
eiter ten
ĠAt las
Ġsk illed
schutz gebiet
Ġsever e
ordin ary
Ġaccount ing
Ġdre imal
ĠImp lement
Ġerziel en
Arch Ã¤
ĠErk enntnis
ĠBlÃ¼ te
Auth ent
ĠpreuÃŁ ischer
ĠFranzÃ¶s isch
Ġhighl ight
Ġgeplan te
Ġneut ral
Ġausdr Ã¼cklich
Ġnewsp aper
C ounter
F ootball
H g
L imit
U K
k W
w ender
Å Ľ
er z
ĠM oney
ĠD ritten
Ġh ind
ĠT ap
ĠF eb
ĠF res
ĠF aktoren
ĠH Ã¤ndler
Ġk ar
Ġauf gel
ern t
Ġsch lÃ¤
Ġen orm
Ġpr ison
ĠVor feld
iste te
Ġmake up
ĠCon rad
He ad
stre ifen
Ġabsol ut
Ġexpla ins
ĠErschein ung
spart ner
Strateg y
Ġerkenn bar
M D
or iginal
Ġo ven
Ġp ics
Ġn ic
ig ern
ĠP aint
ĠL ess
ab ama
Ġge heim
ĠEr werb
iz ers
Ġ" -
19 69
Ġvor Ã¼ber
enn zeichen
ĠVor les
ĠSchw Ã¤b
Ġvers orgt
ĠBes tellung
ĠAt tra
ĠPer ry
čĊ čĊĉ
ĠSel f
ĠForsch er
Ġkomp lette
kn Ã¼p
ĠWissen schafts
Ġgenau e
ĠImp ro
hers tellung
Ġdiv or
ĠSter nen
penden ce
Ġincreasing ly
Ġspezial isiert
Ġhinzuge fÃ¼gt
Ġverab schie
ĠPrÃ¤fe ktur
P I
in stance
Ġin du
ut ung
ĠP s
ĠP unk
Ġbe ziehen
Ġan alog
ĠO v
ĠO berg
ok ed
ok omot
get Field
pr im
zw ald
ĠWh ich
Ġbesch rÃ¤nkt
Ġdevelop er
ĠMet ro
Ġeng aged
ĠMag net
ragen den
bed ded
Sp an
ĠStaats anwalt
Ġaufge geben
esent liche
ĠKomp lex
ĠÃ¤ gypt
ruit ment
Ġprefer red
ĠKanz el
Ġconflic t
I hre
K Ã¼nstler
R ennen
S ION
Ġs ke
Ġb id
Ġb owl
as ters
ĠA BC
ĠB ast
Ġh insichtlich
ĠP aderborn
ĠL Ã¶s
ĠR unden
ĠO ste
Ġver dien
Ġr ice
se arch
ĠVer f
ĠEr ziehung
Ġsch ne
ĠAr g
ĠJahr buch
Ã¶r er
19 13
ian er
ĠSe hr
ĠNach kriegs
ĠSte ink
ĠSh ar
fr ame
ipp en
Ġdire ctions
Ġfl ights
fo ot
Ġsug gested
Fe atures
ĠJur a
fÃ¤ll t
resource GroupName
ĠMatt hew
ĠWalk er
icul um
Ġdurchschnitt liche
Ġscr atch
Ġabgeb rochen
Ġrout ine
LEN GTH
9 00
a ired
w id
Ġd icht
Ġs inger
ĠB ibli
ĠD est
Ġh ydro
ĠE cht
ĠK ilometern
Ġl ib
ag ues
Ġj ene
rie t
Ġ18 45
19 66
19 46
ĠCh ap
ĠSe lect
ĠAb u
ĠNach frage
pro perties
ER E
vent ional
ĠComp lete
Ġprom pt
Ġstor m
Ġdan eben
Ġworks hops
ĠSen ator
ĠhÃ¤uf iger
Bau denkmal
ĠgrÃ¶ÃŁten teils
ĠFinanz ierung
Ġverm utet
ĠNachbar gemeinden
Ġcontinu ing
rec ord
tran sport
Lang uage
ĠInde pendent
Mem ory
ĠScot land
Lud wig
1 000
B ay
B ern
f onie
in ch
Ġt ran
le ans
le hnung
ig nete
ĠP le
ĠR uth
Ġfor th
ĠSch af
Ġr iding
se ction
ib m
Ġj o
ĠDie t
ac cept
St re
ĠSchw anger
arch itektur
ĠWohn ungs
ĠPre c
ĠZe ug
ĠOlymp ic
bÃ¼ ro
check EMail
ĠChem iker
Rem ove
Ġdise ases
ĠNamens geber
ĠAnth rop
friend ly
Cert ificate
ATTR IB
checkEMail Adresse
D ienst
d ates
k ong
m isch
z antin
Ġm ile
ro se
ĠF unde
ĠG un
Ġg aming
Ġl ady
be hÃ¶rden
Ġ18 57
19 25
ign y
ĠWe iss
Ġ0 3
als ieger
Ġro les
ĠVor name
Ġtime out
En tries
ĠBand e
ĠRes ources
Ġletz tes
Ġlang uages
Ġmod ified
ĠSchul ter
Ġeinfach er
ĠInstall ation
Franz ose
Ġris ks
ĠHildes heim
M ET
h lich
w atch
an ced
ĠT reib
ra ce
ĠH els
ĠR ote
ĠC ou
Ġl ip
ĠSt if
tr as
ant i
Ġ18 54
In halt
ĠNe v
mp os
ĠNach kommen
ĠGra nde
Ġsc ores
Ver kehrs
Ġass ume
ĠMann es
reib ungen
ĠPat tern
uff ix
Pr ice
Ġflo ors
ĠTyp en
Ġlos ing
ĠKenn edy
Ġzweit es
ĠSup reme
ĠBuffer ed
Fk EMail
ĠEro ber
. ;
C at
S pl
b og
b ian
b les
e DataType
f isch
es tet
Ġt oler
ie hen
ĠB ond
st iftung
ĠT oken
ĠG ute
ĠG Ã¶t
ĠR up
ĠC ommer
ĠJ ess
Ġk ap
Ġge dr
ann ers
ĠU V
art z
sp latz
ĠSp ons
ĠSe ver
Ġ// $
zeit lich
iet ies
Pro gress
ĠGes ichts
ĠStud y
alen ted
Ġem b
Ġprom ise
Ġinc ident
Ġincre ases
zy linder
ĠBru ce
ĠAnn ual
ĠWol ff
Ġdur able
ĠWeihn achten
ĠJed och
bist um
M C
M el
M apper
S creen
g iving
j s
n ten
Î µ
Ġd ual
Ġs ummary
ĠA ktionen
st urm
Ġh aus
ĠF o
em er
sch ool
ĠC ool
Ġaus einander
end ant
Ã¤t igung
ĠLe gend
Ġgo ogle
sk op
Te chnik
ohl en
Ġlog in
Cl ub
ĠSol id
ĠTre ff
ĠMitte le
190 1
ĠGet re
ĠKle idung
Ġqualif izierte
Arch itektur
Ġsamm eln
Ġelig ible
A p
H ave
S imple
T x
j oin
x ic
Ġm uÃŁ
ĠD IN
ĠD allas
ol ith
ra ums
ĠN atÃ¼rlich
ĠSt ufe
Ġpro ve
ip ts
ru der
Ġvor stellen
iss a
rÃ¤ g
Ġno ise
off er
add y
ĠBet reuung
Ġadd s
ĠBut ter
Tra iner
Hand le
wissenschaft lichen
Produ ct
fÃ¤ll ig
DA Y
ĠYear s
Ġiter ator
ĠConne ction
ĠlÃ¤ng ere
L ive
k ommission
Ġt u
Ġt iefer
Ġw ave
ĠS ax
Ġb ug
Ġh ate
am as
Ġg rant
ĠL loyd
Ġal ign
ne uer
Ġse ed
Ġhe ating
ĠEr stellung
Ġcan vas
ition en
tell te
Ġsome where
Ġover w
ĠGra y
An im
oth y
Ġgesch ickt
Ġpl ot
Ġpl ugin
ling ton
ĠMy ster
deck er
Ġbra un
Unter nehmer
Names pace
ĠEins Ã¤tze
Ġkanad ischen
Ġzeich net
Ġdigit ale
ĠLein wand
F ernse
N un
O l
m achen
Ġt we
ĠS urf
Ġm Ã¼sse
ĠB reit
ĠM ob
ĠT akt
ĠR ound
ĠC yr
Ġbe grÃ¼ndet
ĠJ av
ct u
ard i
St orage
ail ing
Ġtr ips
Ġ10 1
ĠAll ianz
Ġcoun sel
ĠPat ent
Ġexp lan
ĠEhe mann
Ġinstall iert
Ġfunction ality
ĠRos a
Ġcharacter istics
Ġcra ck
Ġcra fts
ĠGesetz es
Ġrat io
ĠRon ald
ĠReihen folge
ĠHarr is
Ġbedeutend sten
F ran
M oder
g alerie
m d
Ä Ĺ
Ġ Ã¤nderte
Ġf iction
Ġc er
Ġc urt
ĠM Ã¼ll
Ġbe herr
Ġk ost
if ies
ĠSch uh
19 35
ĠAb tei
ĠGr as
Ġper mit
Ġcont aining
Ġany way
Ġserv ers
hand le
ym ph
ĠSta ates
Ġchild hood
Ġfest ge
ĠCont ainer
ĠMo ore
ĠThere fore
ĠSw iss
lei h
Ġclos ing
Ġstay ing
ĠSat tel
Ġcaus ing
Ġpoln ischer
Ġord entlich
ĠVorder grund
Ġbeob achten
Final e
ĠNiger ia
Ġgebra ucht
Ġlicens ed
ĠEdin burgh
C LASS
S am
c ific
h ash
Ġd Ã¼n
ar us
ar ium
ge ist
Ġn ude
ĠM E
ĠE valuation
ĠK lin
ĠK essel
ĠR ow
ver anstaltungen
Ġab zu
Ġ18 58
fer red
19 11
Ġvor n
Ġdurch ge
Ġen ger
ĠSe ason
omp son
ĠStadt gebiet
ĠGra ham
Ġra ck
Ġjust ice
Ġind oor
bau werk
Ġger aten
ĠFe ature
Ġkein em
190 8
trie be
Ġdef ine
Ã¤rk ung
ĠTemper aturen
ĠEigent um
ĠThr on
ĠWit we
ĠProz esse
ĠÃ¤uÃŁ eren
Ġmittelalter lichen
twert ung
S Ã¤nger
b rief
k reise
t as
is ierungs
Ġw Ã¶ch
Ã¼ tt
Ġc enters
ĠK i
Ġan spruchs
kt ors
we iger
.. ...
Ġ18 16
pr es
19 28
Ġqu adrat
Ġ9 4
Ġfr isch
Ġalle ged
ces ter
ĠGeb Ã¤uden
ĠAd v
ĠTr ink
Ġmus cle
pla in
ĠRes idenz
ĠÐ ´
By Comparator
Ġfact s
bre ite
ĠKat hedrale
Ġens uring
ĠEntscheid ungen
angeb ote
Ġharm on
Ġweib liche
ĠBundest ags
ĠLandtags wahl
ÅĦ ski
ĠJane iro
Jose ph
prec ated
ĠApost ol
B ur
C y
O wner
P OS
S F
W appen
d orfer
f ted
z es
Ġt ack
al ben
Ġm s
ĠB auf
ĠC OM
Ġth erm
ĠV ice
ĠV olleyball
Ġre ception
ver antwort
ĠZ iegel
Ġj ar
ĠVer anstalt
sp olitik
ĠÃ¼ber liefert
be griff
Ġ18 18
ac ional
dr ama
Ġact ing
gemein det
str ong
Ġbed ro
ĠPaul o
Ġaufge teilt
stag s
Ġant iken
esh old
Ġbuy ers
190 3
Ġzwe ig
Ġfocus es
Ġdro pped
Ġintens ive
ĠStan ley
ĠTaschen buch
Ġbird s
Ġdiskut iert
ĠMultic ast
A ctive
K ritik
N orth
m ol
Ġd uty
ĠS ke
Ġb acter
Ġf liegen
am ents
âĢ ¯
et wa
Ġle istungs
ĠEr mitt
her it
19 12
ĠMit ch
Ġsh ots
Th omas
ĠSo ul
190 5
osp itals
Ġ180 9
ĠEmp fehl
ĠJournal isten
ĠVersion en
Ġrecogn ition
Ġinde ed
Ġcolumn s
Ġdra wn
ĠjÃ¼d ische
Ġpred ict
Ġumfang reichen
Ġstaat liche
Ġpassion ate
ĠJahrzehn te
ĠBundest ag
Ġton ight
ĠEconom ic
ĠBalt imore
ĠErot ik
Il legal
G ymnasium
W M
f und
m aster
in cluding
al p
Ġb unch
Ġm aps
ĠA uÃŁ
Ġh ess
ĠE arly
hn er
ungs zeit
19 48
19 27
ĠTh ai
enn ame
to o
ake te
Ġnur sing
ĠFl ash
Ġins zen
Sch l
schie ÃŁen
ĠEnt ity
Ġter r
ĠStr ess
amb ling
ĠZahl ungs
ĠMont real
Ġcomb ine
ĠSieg fried
Ġfiel en
Ġbetre ut
Gemeinde auflÃ¶sung
Europameister schaft
Absol ute
Constra int
( !
G ood
L uft
S ql
n ote
Ġ Ã¶st
re q
re kord
us ten
ĠA sp
ro le
Ġc tx
ĠT ak
ĠT auch
ĠK roat
ĠV ic
Ġun e
au ben
aus cht
ĠVer leger
get Path
ip el
Re quired
Ġgen der
ĠUnter richts
ĠVor schlag
Ġspe aker
En ts
En vironment
ĠStud iums
ĠBundes straÃŁe
ĠGrund riss
Aus gabe
Ġoper ator
ĠEntwick lungen
Ġnational sozial
Ġsim pl
Comp uter
Ġassist ant
Ã¢ te
sec urity
ĠGene hm
ĠUt ah
ĠViz emeister
Ġstattf and
Ġgg f
Ġb ands
ing o
ent schieden
ĠG lÃ¤ub
ĠH Ã¤nden
ĠC row
ĠN elson
ĠV as
Ġan th
Ġge gangen
ĠO ran
ĠSch al
ill i
ĠAn other
Ġle af
19 50
ĠTh ough
land e
Ġsh arp
Ġtra g
Ġtra iler
ĠFl orenz
rif ft
gend a
Ver walt
ĠTr ue
ĠHand lungs
Ġcl ip
ĠMed ium
ĠSc ript
ĠMag ic
Ġrequire ment
ĠEm ma
ĠBesch luss
Ġabge leitet
hÃ¶ hung
ĠTal ent
Ġpack ed
FI X
komp lex
Ġnorth ern
ti rol
AX B
Ġmor al
ĠPed ro
ĠBege gnung
Ġsurpr ising
H ey
H amburg
Ġf emin
Ġf icken
Ġe hr
Ġn aked
Ġh Ã¶l
ut age
ĠT ODO
ĠK riterien
Ġst ations
get Time
ord ination
ide en
Ġ18 10
19 71
Ã¤r er
Ċĉĉ ĠĠĠ
oun try
ĠAus richtung
ĠUnter schiede
Ġgew orfen
-- ;
ins atz
Ch ina
Ġdesign ing
rach ten
Ġcl ubs
ĠBundes land
ĠUr kunde
ĠfranzÃ¶s isch
ĠCor porate
ĠAnt ike
ES CO
Ġident isch
Ġexec ution
Ã¤u pt
ĠschÃ¶n sten
ĠSter ne
ĠSamm el
Ġsup erv
ĠAuthor ity
Engl isch
Ġcircum stances
! =
V G
W hether
f os
h Ã¤ngt
p ed
v ari
Ã °
Ġt v
Ġin telligence
Ã¤ ischer
ĠG B
ĠH onda
ĠL ip
ĠC afÃ©
Ġzu ges
eb o
ord neten
etz liste
auf tritt
los er
ĠFl Ã¼ss
Ã¤l z
bar es
Ġ10 3
ĠOn kel
ĠZw eite
ĠHaus halt
At tr
Ġteil en
Ġeng age
ĠWor te
Ġcommun icate
mÃ¤ÃŁ ige
Ġret ten
sicht lich
ĠAg entur
Ġcommer ce
wal ts
ĠDisk uss
klass igen
Ġstrug gle
ctic ut
Look ing
Ġven ue
Ġscre ens
ĠMalays ia
D D
G ed
R aum
T itle
c f
c omponent
i ang
m ake
n on
Ġc in
ĠD sch
ĠG ibt
ĠG ros
id ges
op ath
se lect
Ġ18 12
ĠMe g
ĠVor gang
Ġfin est
De vice
ĠEx port
ON E
rag ung
Ġausge de
Ġreal isiert
Ã¤nder ung
kon zept
Ġleg it
Ġconc ert
190 4
So ftware
Ġnatur ally
Ġorganis ations
ĠKre bs
ĠBud dh
stehen den
Ġevangel isch
ĠGlas gow
ĠNic ol
Ġfab ulous
Ġcorrect ly
Ġlands cap
ĠErinner ungen
Ġelektr ische
ĠWurz eln
ĠDist anz
ĠFranÃ§ ois
C lose
L uther
b ald
d an
k ok
l Ã¶s
s an
Ċ ĊĠĠĠĠĠĠĠĠ
en ted
ch ain
Ġc ul
ĠM Ã¼hlen
ĠD Ã¼r
ĠD unkel
ĠP oten
ra cy
et r
ĠK ot
ĠK lagen
ĠK alender
ĠC V
ĠJ as
Ġdes c
ĠSch ra
ib a
Ġ18 32
19 73
io xid
ac le
Ġad mit
Ġins ight
rif tsteller
ĠZw ill
AN G
leit ungen
Ġreal ized
Ġsl ots
ĠGew Ã¤sser
190 2
Ġ180 8
Ġid x
fÃ¼ll ung
ĠHeimat stadt
ĠPor sche
ĠBran chen
ĠEtw a
Ġgefe iert
B ot
G etter
s ed
Ġa partments
Ġt ill
ĠS H
ĠS v
ur u
Ġm a
ig ade
ĠK ohle
ĠL ords
ĠR eiter
ĠSch ein
Ġver ring
Ġpro spe
ide te
nen nung
Ġbis schen
ite kt
ĠNe g
Ex per
IN VALID
lÃ¤ chen
ĠTr io
ĠNor bert
por ted
Ġdel ight
ĠLandes regierung
recht lichen
fel den
ĠHistor ische
ĠLog o
Ġtw enty
Ġther ap
Sec ond
Ġfinanziel le
ĠBÃ¤ ume
Ġmusikal ische
Go ogle
Ġdish es
isemit ismus
Ġlif etime
ĠFrÃ¼hl ing
ĠSchicks al
Ġintel lect
L ayer
U nder
W al
p ons
v als
v oid
ch at
at on
ĠS ometimes
Ġin k
st iegs
ĠD ial
ig rant
ol ia
ĠT Ã¤tigkeiten
ĠL esen
ĠL isa
Ġge ile
ĠSch alt
Ġver standen
qu ert
ant a
19 24
19 63
ho le
Ġev olution
ĠGer d
jÃ¤hr ig
Ġport ion
ĠDesign s
ĠGed icht
ĠKlein en
produ kt
Ġhost s
0000 0000
ĠGeheim nis
Bi ografie
Ġsuffer ing
ĠUrauf fÃ¼hrung
w achsen
á º
Ġs yr
Ġb omb
Ġf ranch
Ġm useum
Ġc ou
ĠL etter
ĠL LC
ĠR ak
Ġ2 20
Ġer a
ein kommen
est adt
Ġge fragt
ĠIn itial
ĠAn walt
get X
Ġ18 55
19 42
Ġum fassen
Ġen v
ĠAus gleich
Ġar ms
ren e
Ġ10 5
Ver band
aum burg
Al ben
Ġdr iven
ĠChrist i
ender son
Ð° ÑĤ
ĠPort land
ĠAk adem
Auf gelÃ¶st
Ġauthor ities
Ġdigital en
Ġversch oben
Ġsens itive
Rel ig
ĠAuss icht
ĠDrei ÃŁig
ĊĠĠĠĠĠĠĠĠĠĠĠĠĠĠĠĠĠĠĠĠĠĠĠĠĠĠĠĠĠĠĠĠĠĠĠĠĠĠĠĠ ĠĠĠ
ĠðŁ ĺ
Ġaustral ischen
ĠdÃ¤n ischen
Ġprepar ing
Ġdiagn ost
ĠjÃ¼nger en
Febru ar
C red
K or
S at
S um
e ah
t urm
Ġ ]
ur laub
le ton
ra iner
ĠH obby
ĠL enz
ĠC oup
ĠC ommerce
Ġer lebte
Ġge folgt
ĠSt u
Ġr asch
av ed
ĠAn pass
ru le
19 21
19 53
Ġent spring
etz i
Ã¤n gs
ĠTh ink
ĠBer ger
String Utils
ĠPh ill
ash i
ĠMus lim
ĠUm zug
ĠSh are
ĠSpiel ern
Ġsho ck
ĠOber bÃ¼rgermeister
Time Millis
bet riebe
Ġgem el
iol oge
Ġliegen de
ĠMiss issippi
Ġqualif iziert
Ġdep loy
ĠUR I
Ġmaint aining
Ġrecommend ations
Ġangegeben e
ĠDro gen
Ġaim ed
Ġamen ities
E st
E mp
E ven
K reuz
M ot
S ho
h our
i our
m ode
m ember
w enden
Ġt um
Ġp p
de f
ĠT ol
et o
ĠW ettbe
Ġg ym
ĠR it
Ġge habt
Ġst ages
id t
ĠIn fo
Ġaus gestellt
Ġaus gesetzt
Ġab use
Ġle ague
Ġfe iern
app ly
Ġ7 50
ĠSpe yer
ĠHol ocaust
ĠWor ten
olv ing
ĠPark platz
ĠFach werk
ĠCom edy
Ġentfern en
ĠVorsitzen den
pass te
Ġpriv ile
ĠDor othe
sta ats
Ġausger ichtet
BevÃ¶lker ung
ĠBeam ten
ĠMalt a
ĠNeck ar
ĠBedÃ¼rf nisse
Sonst iges
G l
P ane
c in
r Ã¼cken
ĠS alt
Ġf esten
Ġf ried
ĠA sk
ĠM C
ĠD eine
ig ert
ĠG or
ĠSt ories
ĠRe ktor
Ġcon stra
Ġsp r
19 60
19 41
Ġres et
ĠNe ed
ĠReg iment
Ġpla in
Ġcons istent
Ġend ing
ĠUr sprÃ¼nglich
Ġann iversary
Ġexp ansion
ĠTre ppen
usst sein
Ġcelebr ation
Ġintrodu ce
Ġhum ans
Ġbelie ved
ĠPow iat
ĠFinn land
Ġzug unsten
Ġfundament al
O pt
a er
Ġs uck
Ġb ay
Ġe gg
ĠB innen
il o
Ġdes ktop
ĠZ en
Ġver e
Ġ18 37
Ġar twork
Ġtr usted
Ġgen Ã¼
Pro ps
ĠCar lo
ĠNov a
Ġass igned
Ġ) ?
ĠProf i
ĠCo oper
Sp iele
Ġland es
ĠKomp etenz
ĠKle id
Gr id
Ġerk annt
ĠLaw rence
Ġevangel ischer
ĠHard ware
Ġguarante ed
Ġmusikal ischen
ĠProte ction
Ġwire less
ĠOze an
ĠgefÃ¤r bt
Ġermor det
is lation
ĠA U
Ġc arr
Ġh orn
im b
ĠF aust
ĠG host
ĠK enntnis
ten nis
ĠL E
ĠC rit
Ġer leich
Ġer zeugen
ĠU k
Ġver mitteln
for um
for ward
lo ÃŁ
ens atz
Ġen de
ĠGe fÃ¼
ende m
eth yl
12 3
ĠAnd y
gew Ã¤ch
Ġgesch Ã¼tz
We iÃŁ
Ġfl ach
ĠSc r
AR Y
ĠComp an
ĠDo ctor
Ġeng ines
Ġmov es
mÃ¤ÃŁ igen
Ð¸ ÑĤ
Ġfac ulty
umb oldt
Ð¾Ð ³
Ġren omm
Ġinteress ant
Ġfall ing
Ġapply ing
mÃ¶ bel
Ġarg uments
Ġil leg
================ ================
ĠKent ucky
inv oke
O ther
P ublik
S K
X base
c ements
w ass
ä ½
ĠS ultan
as ar
Ġm ounted
Ġn ob
am el
ĠT utors
ĠW Ã¤hler
Ġl aden
ber eiten
ĠN ort
ik at
Ġr ug
ov iÄĩ
ĠÃ¼ber rasch
19 37
19 52
Ġcomp licated
ĠZeit ungen
De p
Ġwhen ever
urr ican
Ġhand eln
ĠCar s
ĠMed aille
Ġbesch rieb
Ġgener ic
Met al
Ġhead s
leben s
ĠWeiter entwicklung
ĠTur key
Ġposs ibility
ĠKÃ¶nigs berg
bour g
fle isch
ĠtÃ¼rk ischen
Ġkeiner lei
Ġdurchschnitt lich
Ġcompl iance
Enc oding
Ġinvent ory
ĠAbra ham
ĠHimm els
h Ã¤nge
p it
p um
w ait
Ġv el
ul ly
Ã¼r zen
os lowakei
Ġver mittelt
ĠIn tens
ast ing
ĠEin tritt
ob ahn
ĠAb bau
Ġout comes
man ischen
ĠHand eln
ĠCon struction
ĠTo uch
bl og
ĠIns zen
ĠAnt ar
ĠRuss ell
ĠWinter spiele
Ġtradition elle
190 7
Spe ichert
rÃ¤n ke
Ġverst orbenen
Ste in
Â» ,
Ġrow s
penden cies
ĠHÃ¶hen lagen
ĠFlo or
Ġhochwert ige
ĠFur ther
ĠTerm inal
ĠBeaut iful
ĠCapt ain
ĠInternets eite
ĠBerÃ¼cksicht igung
h ot
i u
ĠM s
Ġein gemeindet
ĠK ie
Ġbe arbeitet
Ġne ug
Ġpro xy
aus ende
ĠAn nahme
ĠBe frei
19 56
ĠHe irat
az ier
vel and
Ġcont ained
rif fe
ĠGra ben
Ob wohl
ĠHoch stift
lauf bahn
Ġgener ated
ĠRad rennfahrer
ĠRÃ¼ck seite
Ġmet a
Ġtyp ischen
ĠPlan s
viron ments
Ġconsider ation
urf ten
Ġsetz ten
ĠKol umb
ĠTur k
zwe ck
zwe if
ĠVis it
Ġconcern ing
Pl ugin
Ġevalu ate
Bundes liga
Ġkulture llen
jew itsch
ĠSQL Exception
MÃ¶ gliche
I Z
O s
R T
W olf
b ot
b els
k Ã¼nstler
in ski
Ġt ape
Ġn ights
ĠM ilit
ĠD ritt
ĠF uss
ĠC ash
ul u
ĠV W
if iable
Ġmit ten
ann over
Ġpro s
Ġpro ceed
ĠRe ife
ok raten
ang hai
ov es
19 64
mal erei
tell ten
ĠNe uk
Ġwork er
Ġ16 00
ĠSte iner
ĠAll iance
kl en
Ġfre ier
Ġbed s
Ġgel Ã¶scht
key Set
ĠCal endar
Ġgre y
ĠKriegs gefangen
Her r
ĠDres dner
ĠQualif ikations
Ġque ue
ĠErzÃ¤hl ung
ĠRas mus
ĠRal f
ĠFilmp rodu
ĠWÃ¼n sche
b ayern
g ate
w inning
in itial
Ġf its
ĠD oc
Ġh ack
ĠT um
ĠK letter
sch reiben
Ġbe half
Ã¶ ner
ck el
ĠV es
Ġge dei
ts piel
ĠIn halts
ĠRe chen
Ġsch ema
âĢľ ;
lo gen
In tern
19 32
Ġcomp uters
ĠMe et
Ġco at
uck en
str ateg
Ġsur f
mark e
lÃ¤nd isch
190 6
osp el
Ġdeb ate
Ġniedr iger
ĠRober ts
ĠFertig stellung
C ategory
Z wei
s creen
Ñ Ī
Ġ å
at io
Ġf as
Ġm apping
ĠT ed
ĠL ost
ĠC ulture
ĠV irtual
Ġal b
est on
ĠSt imm
ĠSt ufen
we ek
qu ot
Ġex posed
Ġwe iss
ĠAl lein
ĠMar shall
Ġgen auer
ish op
ieren der
ĠBo ots
lock en
ĠZw eiter
ĠUr heber
Ġser b
laub nis
ĠBel ow
Ġschn ellen
ĠVolks republik
ĠRed akteur
ĠCom ments
verb ot
ĠAg ent
ĠErw in
Ġwonder ing
Ġregion ale
Ã¤chs ische
Co uld
ĠRep ubl
Ġconsum ption
Ġvict im
ĠMargare t
B rit
H as
T schech
b lau
d og
e ffe
k os
r one
s ysteme
z ub
Ġ iv
Ġt x
Ġt ier
Ġf ahr
ĠB E
Ġc oc
ĠM other
ĠF at
ĠG la
ĠH C
ĠR in
ĠC el
uch tet
la yer
ate au
ĠEr ziehungs
land o
Ġdurch setzen
Ġman che
geb ot
auf gaben
Ã¼hr ung
amm ar
Ġgen uine
ĠFor ces
ish es
Ġgew isse
Ġph ones
Ġthem es
iver y
icher ten
ĠSc ient
ĠInter ior
med ia
Ġlo aded
zÃ¼ g
Ġleben den
fred akteur
Ã¤u ber
Ġrepresent ative
ĠgefÃ¤hr det
Ġbelie ves
ischÃ¶ fe
ĠKrit iker
Fail ure
ydra ul
ATTRIB UTE
O FF
Ġt ut
Ġt alented
ur ist
Ġm g
Ġv inyl
ĠB ien
il ang
am ar
sch lossen
ĠN BA
ĠSch re
ste her
aus s
rom an
ord nen
Ġ18 36
ite e
Ġwor st
ke ys
Ġhas n
ĠOr n
fe hler
los ion
An other
23 4
SS ION
AC H
Ġphot ographer
ĠKont roll
ĠDu o
ĠSeit dem
zentr ale
Ġabge lehnt
Ġdeliver ing
print StackTrace
Ġstudy ing
Ġsent ence
Ġattend ing
Ġexpand ed
Ġsyn thet
Ġdauer haft
Techn ische
ĠBrie fe
D N
h ier
Û Į
Ġd raft
nd rom
ĠM indest
ent z
ĠL ater
Ġer ober
ĠV in
Ġge zwungen
Ġst amp
ÃŁ er
ĠRe chnung
ĠAn leitung
be fehl
19 23
wer fen
sh ore
String Builder
ĠAut omat
ĠPe er
Ġviel fach
Ġservice Callback
ĠSal on
Ġview ing
ĠGew ichts
Ġoper ated
Ġsecond ary
Ã¤m mer
Ser ializer
Parameter ID
Ġerk ennt
ĠUN ESCO
Gra f
Ġsouth ern
Ġumfang reich
ĠSab ine
VerÃ¶ffentlich t
ĠKandid at
ĠTrotz dem
Ġprincip al
Av ailable
Ġnutz te
ĠErkrank ungen
ĠwÃ¼n schen
B este
R ich
S outh
T her
t mp
Ġs tet
Ġf lying
im an
Ġg iant
ĠR ace
ĠR ank
ĠC ord
Ã¶ ten
ĠJ ugoslaw
Ġk Ã¤mpfen
ĠAn not
ĠAn ordnung
Ġas ide
Ġsp ont
19 65
ĠAus sehen
Ġcomp lement
app ro
Ġany more
put y
ĠEx am
ĠEx pert
ĠMed iziner
ĠHaupt mann
Mann schaft
Ġwant ing
OR Y
gra fen
Ġcor respond
ĠCor p
ĠauÃŁer ord
umm y
Ġtradition s
ĠUl m
Ġlow est
Ġwatch ed
Ã¼rz te
ĠWissen s
Ġcommit tee
ĠHeil bronn
gien e
Ġbedeut enden
ĠFeder ation
Ø§ ÙĦ
parse Int
Vis ible
Verb reitung
ĠStraÃŁ burg
Ġrapid ly
ĠClaud ia
' '
B ag
K rit
g ast
m esse
r ath
s i
z it
at sch
le itete
Ġf iber
st ufen
ĠD ess
de pth
am ann
ĠP oll
ĠG y
ĠG allen
ten se
ĠC hal
Ġy oga
kt iven
Ġr Ã¤um
tr ang
aus en
get F
ĠSp er
Ġsie d
Ġent sp
ĠLand rat
ĠVor runde
Ġbet Ã¤t
ĠGra de
fall enen
ĠMan ual
Ġhier zu
Ġsm oke
ex ists
Ġpolit ischer
Ġbas ically
ãĤ ī
Ã¼ll en
Ġcontrol led
ĠSold at
ĠEll en
ĠSaar brÃ¼cken
ĠLi bert
Ġhy per
ĠGrÃ¤ fin
Dur ation
Ġbrach ten
Ġbetroffen en
Absol vent
Ġverurs acht
pie ce
Ġunus ual
H or
u eller
Ġd urften
Ġm i
Ġe ignet
ro tt
st Ã¼cken
Ã¤ sche
Ġh es
Ġh its
ĠF itz
Ġz o
ĠR achel
Ġre ward
Ġcon version
iz on
Ġ18 43
Ġsp in
ĠVor gehen
mit te
Ġkn ock
lÃ¤ ser
let ing
ĠCon stants
ĠInd ustry
ĠÂ ©
Ġcal m
spre chend
ĠLie ben
Ġsw ing
ĠfrÃ¼ he
ĠMay er
ĠErn est
herr n
ĠCal c
Ġple asant
Ġkrit isiert
Ġlok ale
ĠEins Ã¤tzen
ĠAntw orten
ĠWord Press
Ġbewer tet
Juni oren
ĠErkrank ung
Wor ld
> </
? !
B ilder
M r
T ax
j av
Ã ®
ge fÃ¼hl
Ġm ixture
ĠM esser
ĠD A
ol y
ĠH ud
ĠW arm
Ġg ained
ĠN an
Ġer fre
Ġre chter
Ġim per
os te
os om
tr es
ell ers
Ġas set
Ġab schlieÃŁ
ens or
ke ley
Ã¤nd igkeit
teil ungs
olog ists
Ġact or
ĠHo he
Ġcons cious
ĠRes ort
new s
mÃ¤ ss
ĠGener alleutnant
ĠKr im
Ã¤us chen
Ġappro val
Ġimp lemented
Ġmethod Name
anc el
ĠRu der
ãĥ ¼
Ġcoup les
ĠChem nitz
Ġinvolv ing
ĠKer amik
ĠNationalsozial isten
Don ald
ĠAbst amm
ĠEuropameister schaften
ĠÃĦm ter
> .
V B
Z ug
b ig
l och
p in
p Ã¤dagoge
y en
Ġd ad
Ġf ence
ĠB uen
ut a
ĠH arz
Ġg ate
ĠR ÃŃo
ĠN utzen
Ġk Ã¼mm
Ġan gewand
ĠAn c
ĠAn reg
19 59
19 57
St ats
Ġreturn ing
ĠVor arl
ule gen
ĠSte ine
Ġstud ied
Ġfind est
ĠMon uments
Ġac quire
ĠPer fect
SS R
Ġbr ush
Ã¤uf e
ĠNo Such
ĠVe get
ĠWeb prÃ¤senz
ban ken
ĠÅ ½
ĠSteuer ung
Ġgirl friend
Ġrelig ion
Ġadministr ative
ĠLux us
Ġexpress ed
ĠGene alog
ĠFun c
ĠErschein ungs
Ġchamp ions
Ã¤rt ner
ĠEnvironment al
Pred icate
A UT
T it
W inter
g it
o i
Â ½
Ġf usion
und ry
ĠT ibet
im aur
ĠG ay
ĠG row
ĠK eine
sch les
ĠC and
ber to
ĠSch Ã¤fer
od el
Ġam ounts
Ġsch afft
Ġ18 42
St ad
ĠAus gra
uld a
sh ort
ĠGesch Ã¤fte
pl ib
Le icht
Ġstar ben
Ġair craft
ĠDi abetes
Ġlov ing
gef unden
ĠAp i
Ġsicher te
sprach igen
Ġve ctor
Ġmanufact ured
clus ion
Ġnetwork ing
ĠRand om
artet t
ĠBahnhof s
sta ates
ĠSchÃ¶n heit
ĠMas ters
ĠLieb lings
ĠAff airs
Ġrob ust
ĠWett kampf
ĠSau di
hav ior
Ġmort gage
fÃ¤l ischen
Ġuntern ahm
ĠRepar atur
beteil igung
D M
G S
K N
P oints
W ohn
b Ã¶r
g les
» ¿
à ¥
ĉ ĠĠĠ
Ġd rain
ĠS ah
Ġp ace
am azon
ĠP opp
ic ide
Ġl oy
Ġer gab
Ġre lief
Ġst uck
ĠRe cher
Ġse asons
Ġ18 34
Ġsp oke
19 62
ĠTh ompson
ĠGem Ã¼se
imm ern
Ġges tern
Ġra cing
ĠUm frage
Ġsho e
halt ungs
Ġeinz eln
ĠBra ut
Ġmoder ner
ĠSport ler
Man agement
vert retung
Wh ere
CO MP
Ġop ens
Ġorganis ierte
ĠBÃ¶ hm
Ġbeteil igte
kle idung
ĠPhys iker
ĠSchles ien
Ġprem ier
ĠCO VID
Ġgesetz lichen
ĠDrit ter
uum l
Ġcir ca
ĠAuseinanders etzungen
Ġlauf enden
Ġtempor ary
ĠFriend s
Ġworkshe ets
Ġanbie ten
ĠSchr Ã¶der
S ong
b ilden
e ter
k Ã¼hl
l iter
r ise
Ä ħ
on c
Ġo uter
ĠB ureau
ĠD FB
ĠP O
ĠI wan
ĠH Ã¼tte
em ester
Ġre action
Ġfor e
ste tten
sp an
Ġar gentin
ors es
ĠBet riebe
mar ks
med iate
Ġbr ut
Ġinternational er
press ed
ĠGen re
!! !!
RO M
ĠNeben fluss
Ġhal ben
Ġrep airs
Ġstat ements
ĠAp oll
Ġwalk ed
itts burgh
Ġexam ination
ĠHan au
Ã¸ r
ĠSamm lungen
Ġconven ience
ĠIdent itÃ¤t
ĠCru z
ĠCham ber
Ġwechs eln
Dam it
Ġbeher bergt
Ġwarrant y
H erk
P lat
T or
j Ã¤ger
k Ã¶mm
å Ľ
er b
ĠS ene
ĠB omb
Ġ1 19
Ġ( âĢľ
ĠP eking
Ġk r
ind a
get Default
ang aben
rie ge
Ġwas hing
fer enzen
erv ed
ĠSe chs
Ġte lefon
ĠNe ut
ĠNe apel
ĠLand gericht
Ġgr at
ober flÃ¤che
ĠInter ruptedException
ender t
Ġlocal Var
Ġentstand enen
ĠPal ace
Ġtext ure
ends With
ĠgrÃ¼nd eten
ĠSant i
gehen de
Part ition
ĠDenn is
ĠWettbewerb s
Ġsubs cription
ĠPak et
ĠErwachsen e
Ġschwier ig
ĠGle is
ĠTob ias
organis ationen
Ġentdeck te
Ġtiss ue
C enter
L ied
h ain
ï »¿
Ġd ritt
Ġa ged
Ġw are
Ġb old
ĠA tem
ro de
ĠM ic
ĠK ick
Ġz entral
ĠH R
Ġer fasst
Ġk unst
ies el
Ġde posit
Ġhe aling
ĠAr range
19 55
Ġsh irt
anz a
Ġins pection
Ġinter val
sche f
Ġbu cket
gl Ã¼ck
Te x
Ġben utzen
ender s
Ġla ptop
Des c
umb ing
Ġhol z
ĠRed u
Ġcreat ivity
Ġimpro vements
ĠMc K
Ġoffic ially
Lo ad
gehen den
flug zeug
Ġbox es
FI LE
Ġfil ters
ĠOk lahoma
conne ct
Ġhighl ights
Act ivity
plib Package
J vm
W issenschaft
i ja
m essen
w Ã¤nde
ĠB ak
ĠD raft
ĠL Ã¼b
ad os
la fen
Ġun ion
Ġj en
Ġch ances
ĠSp reng
19 49
ige l
Ġpr est
ĠY et
ĠY outh
ĠAuf klÃ¤rung
att ing
Ġber ichten
ĠSte ven
ĠMan hattan
ĠEl ite
ift y
ĠWer ks
Ġunterschied licher
Ġattra ct
emb les
Med aille
Ġmount ains
Ġnotwend igen
Ġnied rig
ĠTok yo
ĠErzÃ¤hl ungen
ĠLiefer ung
ĠStrateg ie
Servlet Request
Ġsatisf ied
ĠanschlieÃŁ enden
ĠAx el
Rou te
) (
D T
J ECT
L inks
M or
N ik
S ubscription
h on
l ab
ch sen
Ġf illing
st ark
ĠG am
ĠG age
ĠH its
ĠR Ã¤um
ĠC e
Ġl aser
Ġge be
ĠSt au
th on
ĠSch uss
Ġex haus
iz isten
Ġnew est
19 17
lan ke
Ġher zlich
ink i
chn ungen
utz ten
Ġob s
Res olver
ĠArt ist
ĠTechn ische
Ġerhalten en
ĠGen ossen
not Null
Ã¨ ne
Ġparticip ation
ĠNÃ¼rn berger
Ġerf Ã¤hrt
ĠlÃ¤ng st
Ġaccur acy
ĠVort rag
ĠVoraus setzung
Histor ische
ĠLeiden schaft
Su ccess
ifff ahrt
ĠKore an
ĠBerat ungs
M il
N E
g ue
g ame
å ¹
is ms
Ġs auber
an as
al on
ĠS tel
im edia
ĠG ian
ĠG uer
est one
aus stellungen
Ġor ganisation
be ing
ia z
ĠCh and
wer ber
ĠOr leans
ĠSte wart
Un garn
con figuration
pf el
ĠStra fe
ĠMon ster
Ġfl our
Mit glieder
ĠWer ft
RE D
Ġgest altete
ĠFest ivals
Ġzahl reicher
ĠWith out
pend ing
ĠAir lines
ĠRel ations
seit ige
ĠGast geber
lim ited
Ġtrack ing
Ġcirc uit
Ġult imately
ĠBrook lyn
ĠCreat ive
Assign able
D ruck
I K
K ont
d iv
Ð ³
Ġ ^
Ġt ired
Ġs olle
Ġf ru
ĠB ren
ĠB einen
et ooth
ed a
em pt
sch Ã¼ler
ĠC hl
ĠC abin
ĠN ob
ĠJ AXB
ad dress
ce iver
Ġst able
ste p
ĠUn fortunately
ĠSp ie
ĠDe an
uss ia
ĠAus flug
ĠBer eit
onder s
Ġsc ored
ĠFra ktion
Sch ach
ĠVol ker
ĠDar stellungen
ĠZusammen schluss
ĠService Future
omet rie
Land es
Ġnie mals
ĠMass age
hib ition
ĠSum mit
Ġwand te
ĠWorks hop
Ġsinn voll
Ġveranst altet
ĠEinzugs gebiet
m ers
Ï ĥ
Ñ İ
un c
us a
Ġo cean
ĠM uh
Ġh ub
ĠT all
den ken
ĠSt op
ĠO cc
ess els
ik ern
Ġnach folgenden
19 61
ĠY ellow
res ted
ĠAd l
ous ine
ĠCon text
ĠNational park
wohn ungen
Ġdel ivers
ĠUr kunden
Ġteil te
Ġcare ful
anad ier
schein lichkeit
ĠMc G
ĠTurn iers
Ġlim its
ĠProble men
ĠOper ations
lÃ¤uf ig
ĠKle ink
ĠHa are
gesetz ten
ĠCle an
ĠInn ere
ĠAnaly t
Ġult ra
ĠspÃ¤t estens
ausschuss es
ĠEinkauf s
ĠkÃ¼nd igte
Ġnutrit ion
ĠAgn es
B uf
T hr
g ies
s ucht
Ġs q
ĠS N
ge halt
Ġm olec
Ġo lymp
ĠB Ã¤r
ĠF ron
ĠG ary
ĠK az
ĠW ink
Ġg ap
ĠR O
Ġbe weg
Ġal ive
ĠJ g
ik ten
Ġst range
Ġcon d
Ġor ch
Ġ18 13
19 58
Ġunter brochen
ĠAuf tritte
Ġro y
sh afen
Ar ten
ĠÃĸ konom
Ġeinge zogen
gra duate
ĠPal ast
ĠSchool s
Ġdat iert
Ġfire place
ĠEnter prise
Ġsurround ed
Ġgrund legen
Sett ing
uzz le
Ġtele phone
ĠToy ota
I AL
L u
P ap
R itter
h all
t akt
Ġd st
ĠD ry
ĠD anzig
ĠP yram
ĠH enderson
Ã¶ hne
Ġre friger
Ġun expected
Ġent itled
Ġman gel
Ġwor n
ĠAuf trags
Ġdam aged
Or gan
Ġinv ite
Ġfl or
Ġverw altet
ĠCl ubs
ĠWill en
iat ives
Ġtyp ische
AP I
ĠLang haus
Ġ180 4
Welt cup
Ġapproach es
ĠGre y
ĠPil ot
ĠDokument arfilm
ĠHy per
ĠSur vey
ĠLar ge
person en
Ġexclus ively
ĠRepublic an
hyth mus
Ġvolunte ers
Ġpromin ent
Ġwra pped
ĠangekÃ¼nd igt
/ -
F iction
G el
G ruppen
P andemie
R obert
U hr
d re
h Ã¶ch
p ul
w oche
on ische
re ader
ĠS ag
ĠS IM
le cts
ra h
et tel
ed ge
ĠK iss
sch mer
ĠL az
Ġbe aring
lich ung
Ġge prÃ¼ft
ĠSch mal
ien na
ĠIn fl
sp lan
Ġyour s
19 43
Ã¼n eburg
ĠTe e
geb ir
ges pr
ĠAb bildung
ĠNach lass
tra gt
Ġapp ointed
ĠAm tes
Ġ17 0
Ġcont roller
10 1
lÃ¤ ne
Ġbek annter
ĠÃľber setzer
ĠGer ade
Ġback up
Ġze igten
Object s
bra uch
ĠCamp bell
ĠHeil ige
ĠFluss es
Ġspan ische
gener ation
Ġbelieb t
Art ifact
Ġdepend s
ĠConne cticut
Top ic
Change d
Ġtit les
ĠMagn us
N ur
m ord
r und
Ġ \
Ġm ad
sch rau
ir aten
ier i
ot ter
ot ype
ab on
Ġver ify
Ġver Ã¤ndern
ah me
ĠVer teilung
ĠAn alysis
ant ische
Ġ18 33
Ġ18 44
Ġsp ots
ĠSe kund
Ġind ire
Er ste
ĠBl itz
ĠCon temporary
Ġviel es
Ġperson nel
Ð° Ð»
Ġperform ances
Ġerhalten e
Ġline ar
Met ric
ĠGen au
Ġhol en
Ġredu ction
ĠJust in
Ġbisher ige
Ġdeal ers
ĠSchÃ¼ler innen
Ġzurueck gegeben
ĠAth leten
Med iziner
ĠWell ness
ĠAns bach
Ġprakt ische
ĠArchÃ¤ ologie
ĠJenn ifer
Ġexter ior
patch er
Ġdokument iert
ĠStatt dessen
Lower Case
Rand om
V M
d l
v ik
Å ĳ
ge gangen
ĠB L
ol stadt
ĠT oren
ĠW Ã¶r
ĠC B
Ġk andid
ver hÃ¤ltnisse
og ne
Ġj ahr
Ġcon n
esch ichte
Ġcom pete
ĠAb schied
Ġsh ade
Ġdo ctors
Ġtr im
ett y
Ġinter action
Ġacc ord
ĠArt illerie
velop e
ĠFrank lin
wohn ung
Ġmark iert
Ġart istic
Ġtechn isch
Ġem bra
Ġtrans actions
ĠDurch bruch
ĠOst tim
ĠWeiter bildung
ĠErd geschoss
ĠHeraus forderungen
Oper ator
umin um
agra ph
Ġinstr uments
ĠWeimar er
mag azin
Ġinstant ly
Ã¤nk ischen
Ġvul ner
Listen ers
ĠBapt ist
+ "
C ur
M illion
R om
S etzliste
b ird
p ause
Â ¤
Ġa rom
Ġt one
ie ch
or ks
ĠS ize
as et
Ġp ad
Ã¤ hre
ĠK id
ĠH Ã¤nd
ĠL ic
ĠL ocation
ĠC T
Ã¶ hm
ĠSt uhl
Ã¼r ft
Ġst ren
ÃŁ t
ĠSch lÃ¤
ĠRe ader
Ġcom edy
Ġ18 14
pr Ã¼f
erv ers
ĠLe gende
Ġres idence
Re prÃ¤sentantenhaus
Ġro ads
sh aber
rÃ¤ ts
Ġover look
ĠTra uer
ĠBau reihe
Ġger ufen
Ġbef Ã¼r
ĠAnt isemitismus
ĠSen ate
ĠRegel ung
Ġcontrol s
ĠWirk lichkeit
FI ELD
Ġreve al
ĠStreit krÃ¤fte
array copy
ĠPok er
ommiss ar
weil ig
Ġausges prochen
STR ING
Ġwhe els
Tok ens
E vents
H allo
S oll
s endung
z elt
ç ¬
Ġs aÃŁ
at hlon
he ld
Ġb elt
ĠP ause
ĠF R
ĠH Ã¤uf
Ġl amp
ck ets
Ġre ct
Ġim pression
ĠSch Ã¶ne
we ilen
Ġver lauf
Ġpro posal
ĠVer schw
get Attribute
ĠEr ik
be auftrag
lo h
ĠCh ancen
fe kt
Ġout fit
ĠVers uche
Ġvis its
ĠMittel feld
ĠBere chnung
Ġbesonder es
anst alter
umn i
ĠStaats bÃ¼rger
fert igt
Ġant ib
Format ter
ĠFle cken
Ġexpl oring
ĠExper ience
ĠCle veland
match es
ĠSho uld
ĠStell vertreter
Ho tel
Je an
Ġut ility
Pres ent
Ko ordinate
Hein z
ĠPian ist
ĠTai wan
ĠCommer cial
, ...
D ER
R ichtung
T ile
t iere
Ã¼ ht
ĠB irth
ĠT T
ĠP un
ĠP ionier
om orph
ĠE i
Ġz it
Ġg lobe
ĠL O
ĠL ane
Ġbe legen
Ġan gebaut
th rough
Ġdem oc
ĠSp in
18 98
sh irt
Ġinter act
arbeit ungs
fo hlen
Ġgra v
Ġtrans mission
zie her
ĠBest immung
pre ise
ĠRechts wissenschaften
ĠSchn itts
Imp ort
ĠStad trat
ĠGef Ã¤hr
Ġinteress ante
ĠImm un
ĠUrs ula
Ġdescrib es
ĠkÃ¼nstler ische
zell an
ĠNahr ung
Ġdispla ys
Ġbeauf tragt
B ased
F P
L L
L ondon
m ine
č ĊĠ
in um
Ġa esthet
Ġt act
Ġs orry
ĠS uf
ĠS weet
ĠB ark
ĠM ack
ĠD irk
ĠK amm
ĠL er
ĠL ernen
ĠC u
ĠN iveau
ĠJ ohan
iv o
Ġge omet
ĠSt Ã¼r
ĠSt ack
ĊĠĠĠĠĠĠĠĠ ĠĠ
ĠO ft
ver folgung
Ġpro port
Ġhe x
Ġab gelÃ¶st
Ġle hnte
ĠBe griffe
pr Ã¼fen
ĠSe ch
wer pen
yp en
sk on
ĠAd obe
alle tt
ĠZu vor
ĠApp s
Ġgemein nÃ¼tz
Ġlo ose
Ġevent uell
Ġret val
ĠKont o
Ġest imate
ĠOlymp ia
ĠBro t
čĊĉĉ čĊĉ
ĠTest s
Ġengine ers
ĠDate ien
Che m
ĠWel che
Ġbeteil igten
Ġrestaur iert
Ã¤cht nis
Ġroll ing
person al
Ġdauer te
trans form
Ġbroad cast
Ġweib lichen
ĠBade zimmer
Ġtransp arent
Ġpul led
Ġunterr ichtete
Entwick lung
G ar
O t
T en
l ernen
Ġd ienten
Ġb ub
ur teilung
ge ht
Ġf ragen
Ġp upp
Ġh tml
ut o
ĠP rad
ĠK unde
ĠH ous
Ġg ig
ĠC hel
Ġbe deckt
ul ierung
ul ating
Ġer lern
Ġre ichte
ĠSt immung
Ġr anging
ĠIn put
ĠBe ing
ard t
Ġ" )
Ġ18 35
Ġsp ray
ĠAl aska
Ġen vironments
amp a
ĠVor jahr
fl Ã¼ge
ron ger
Ġdr ama
ĠBÃ¼ chern
ĠOst preuÃŁen
Ġerschien enen
Ġleg islation
Ġextra ordinary
Ġnord westlichen
Ġtalk ed
ĠrÃ¶m ische
ĠTemp le
ĠLouis iana
ĠermÃ¶glich te
Ġverz ichten
Ġflex ibility
Ġgere cht
ĠberÃ¼hm ten
[...]
