#version: 0.2 - Trained by `huggingface/tokenizers`
e r
e n
Ġ Ġ
i n
c h
Ġ d
Ġ a
e s
o n
u n
i s
ĠĠ ĠĠ
Ġ t
i t
a n
i e
Ġ s
o r
a t
Ġ w
a r
r e
a l
Ġ S
t e
h e
Ġ b
u r
l e
g e
a s
Ġ f
Ġ in
Ġ e
i ch
un d
Ġ m
u s
Ã ¼
Ġ A
Ġd er
in g
Ġ v
Ġ B
Ġa n
e l
Ġ o
i l
r o
Ġ und
Ġt he
s t
i on
Ã ¤
Ġ M
Ġ n
Ġ D
d e
Ġ p
Ġ c
t er
Ġ 1
i g
un g
Ġ (
Ġ h
en t
a m
o l
u t
Ġ T
Ġ P
Ġe in
i m
Ġ F
o m
ĠĠĠĠ ĠĠĠĠ
Ġd ie
Ġ G
i c
â Ģ
Ġ E
Ġ K
Ġ I
Ġ z
e t
e d
r a
Ġan d
Ġ H
s ch
Ġ W
e m
t en
h r
ĠĠ Ġ
Ġt o
Ġ L
Ġ R
Ġ g
Ġo f
u m
d er
Ġ C
Ġb e
u f
is t
is ch
i r
b er
Ġ l
Ã ¶
an d
e it
a ch
Ġ 2
u l
Ġt h
d en
Ġ N
Ġ er
c k
Ġ V
i er
e in
Ġ k
Ġ J
Ġa l
Ġv on
Ġ1 9
o t
i v
a b
Ġ re
l ich
at ion
i f
c t
Ġd en
er s
Ġ ge
g en
ĠS t
Ã¼ r
Ġd es
Ġ im
a d
es t
c e
o w
o s
u ch
Ċ ĠĠĠĠĠĠĠĠ
Ġ O
Ġm it
es s
Ġ y
i k
Ġ2 0
ĠĠĠĠ ĠĠĠ
Ġs t
as s
l a
an n
Ã Ł
i es
i d
Ġ U
Ġf or
Ġ âĢ
al l
) ;
v er
Ġ is
t s
o u
Ġa uf
k t
Ġz u
Ġ Z
ĠS ch
p p
ie l
ĠI n
Ġv er
b en
t h
w e
i en
Ġ ist
a h
a f
Ġ on
a y
Ġd as
Ġn e
Ġf Ã¼r
Ġ r
n e
ich t
it h
o p
l l
Ġd em
o ur
Ġ un
Ġal s
a g
at e
Ċ ĠĠĠĠĠĠĠ
Ġw ur
er e
isch en
a u
Ġ {
Ġ =
o g
in d
a hr
o d
s te
Ġa us
or t
il l
Ġd e
s e
m en
p t
t r
Ġw ith
ĠA n
z e
q u
a v
Ġp ro
ĉ ĉ
u b
er t
Ġein e
Ġs ich
i b
a k
ĠR e
s p
0 0
l y
Ġ j
en d
Ã¤ n
Ġw h
el l
) ,
Ġ Ċ
ar t
Ġ }
Ġ i
u g
a us
Ġwur de
e b
ĠV er
er n
o ch
Ġw ar
Ġy ou
p e
Ġs e
Ġ20 1
in e
Ġth at
f f
r an
Ġ it
es ch
ĠD ie
sch af
h t
ĠE r
ung en
Ġa b
r u
a p
g er
Ã¼ ber
ĠB e
ĊĠĠĠĠĠĠĠĠ ĠĠĠ
Ġs ein
h n
a ge
Ġs ch
ig en
am e
ge t
o k
Ġ he
m er
Ã¼ n
Ġ le
âĢ Ļ
m ent
Ġc on
u p
i z
an g
Ġa m
ĠT he
Ġbe i
Ġa s
Ġa uch
Ġa re
u d
Ġw ir
Ġe x
f or
Ġ or
ĠU n
isch e
ur n
ro m
it y
an t
Ġc om
Ġw e
u e
s en
Ġ 3
. .
ur ch
iv e
ar d
us t
i al
b e
Ġ Ã¼ber
o st
ĠS p
Ġn ach
o v
l in
\ \
g r
Ġs o
ol l
ĠA r
ut sch
Ġ ch
) .
r ie
ung s
a in
âĢ ľ
h en
i p
Ġa t
Ġm e
ĠJ ahr
k s
Ġd ies
I n
l ie
as t
ĠâĢ ĵ
i a
ĠL e
Ġ "
n en
Ġ1 8
Ġb is
Ã¤ t
h l
or d
i de
Ġ20 0
is e
h er
Ġs ie
Ġs p
Ġn icht
1 9
i le
ic k
u re
Ġw er
ĠP ro
Ġ if
o c
Ġth is
Ã¶ r
f er
Ġal l
Ġ es
ĠD e
te d
Ġz ur
âĢ ĵ
ĠâĢ ŀ
schaf t
r it
Ċ ĠĠĠ
Ġy our
Ġw as
av e
t urn
Ġz um
p r
ĠS ie
et z
Ġ um
ĠE n
l o
Ġ ent
ĠE in
h o
ab le
Ġwer den
Ġ -
Ġein er
i ge
or e
ch en
Ġne w
ĠA l
Â ł
ter n
Ġb y
m e
Ġv or
Ġh at
Ġw ie
ul t
ar k
om e
Ġf rom
l ass
j e
( )
pt ion
d u
en n
a ck
h al
ul l
Ġs ind
ct ion
il d
Ġwir d
ĊĠĠĠĠĠĠĠĠ ĠĠĠĠĠĠĠĠ
Ġo der
Ġd urch
ier t
ic e
Ġun ter
Ã¤ r
er v
i re
it e
Ã¶ n
ĠT e
Ċ ĉĉ
Ġ us
f t
te l
o ut
on t
r ing
ub l
Ġ en
n er
us s
Ã¼ ck
Ġm an
Ġh ave
l and
ĠG e
ĠT h
o b
Ġein em
isch er
el t
D ie
it ion
i o
ch e
p er
w er
i an
z en
Ġc an
Ġw ill
ĠA us
ĠS e
ge l
k e
Ġein en
Ġ 4
te ll
a c
ĠN e
g t
ge b
ig n
p ar
b eit
ĠC h
st en
m al
Ġ /
re ich
ĠM it
Ġw or
g es
a uf
ig ht
l at
lich en
s s
for m
S t
o un
Ġ Ã
ah l
as e
Ġ19 9
at ur
Ã¼ hr
ĠW e
Ġn ot
p h
ĠD er
on g
l er
ĊĠĠĠĠĠĠĠĠ ĠĠĠĠĠĠĠ
Ġr es
f e
a il
r y
en s
ro w
Ġ 5
u te
is ter
im e
ĠA b
E x
ĠO r
Ġt e
ur g
at h
Ġp r
e ar
o ok
x t
u ÃŁ
in al
2 0
l os
ĠG r
ĠB er
ad t
on e
m p
o de
Ġa d
ch t
( );
om m
Ċ ĉ
ar e
all y
o hn
c c
ĠA uf
at er
lich e
' s
de m
Ġd ass
Ġ Y
de t
Ġs h
ĠH e
Ġa r
ich te
Ġge t
Ġh as
Ġb es
el n
t o
t z
ation al
l an
Ġre turn
ubl ic
f en
k eit
\\ \\
1 8
T he
ce ption
an ce
ation s
we ise
ul d
R e
om p
re i
Ġz w
is s
te il
ĠP r
t w
in z
ĠM ar
Ġw o
st er
Ġcom p
ĠL and
ak e
re is
Ġn ull
al t
th er
ent s
ing s
ĠD as
Ã¤ hr
Ġ 0
ĠV or
Ġ19 8
ab e
em ber
am p
ĠN ach
y pe
a z
at ed
in t
h re
am m
Ġ up
Ġi hr
ab en
at en
ĠM e
a ut
Ġo ut
Ġ &
je ct
Ġd o
Ġn ur
c l
Ġo ur
s er
ĠĠĠĠ Ġ
it z
ol og
he it
.. .
iv ers
Ġh er
on d
Ġ/ /
s h
Ġ 6
Ġde utsch
Ġ +
ro ÃŁ
ĠUn ter
Ġg en
b urg
Ġ qu
m s
or en
al s
Ġ19 7
ĠI m
ier en
Ex ception
re e
k en
Ġw eit
f ol
ĠH er
S tr
Ġn och
Ġg o
Ġf e
Ġme hr
ar y
ber g
ier te
te t
a pp
der n
Ġ ro
e y
Ġ( *
t ra
ers on
l es
ĠZ eit
ion s
Ġs ow
Ã¤ l
ol le
ut z
an z
ch n
an s
m it
it er
ĠB r
Ġ 9
os e
om men
ow n
Ġt ra
ĠF or
p ro
f l
ol d
Ġb ut
d r
ig h
or s
ĠF l
ein e
on s
Ċ ĠĠĠĠĠ
Ã ©
Ġp er
us e
Ġwur den
Ġv om
o ck
or y
a ct
z eit
Ġm y
at t
ig er
i ent
Ġm ore
al e
ne h
y ste
Ġa ber
( "
we i
ĠA m
r en
ĠSt ring
am il
ib t
v el
Ġon e
Ġ19 6
is h
Str ing
Ġthe ir
ik e
v e
il m
ic al
g an
Ġl ie
ste ll
a de
r i
iel er
in k
Q u
b r
at ch
er en
Ġa pp
Ġb et
al ue
Ġ 7
Ġs te
Ġal le
l d
ah n
b le
ĠDe utsch
ĠSt adt
ie d
b ar
u en
r Ã¤
le ich
Ġ1 7
u le
i ze
D er
Ġf r
Ġf in
kt ion
ĠM a
el d
Ġk Ã¶n
at a
oun t
N ame
Ġals o
y s
Ġk ann
es e
E n
f in
W eb
Ġ 8
re at
Ġb est
A n
Ġc o
is ten
ze ich
Ġge w
i um
Ġ19 4
te m
in n
t t
ol it
s el
or n
Ġab out
ĠRe g
on n
ĠF ran
p ublic
Ġe v
st and
lin ks
Ġsow ie
o f
ie t
Ã¤ ch
f Ã¼hr
Ġcon t
r if
Ġ1 5
par am
n is
r at
og ra
an ge
Ġ19 5
en g
Web links
ĠG em
re turn
g lich
ĊĠĠĠĠĠĠĠĠĠĠĠĠĠĠĠĠ ĠĠĠ
m ann
Ġ ich
h Ã¶r
Ġd ar
f ahr
Ġb er
ĠI t
u pp
it Ã¤t
Ġwh ich
etz t
P ro
la g
ĠP ar
et h
D e
der s
am men
Ġp re
Ġ1 0
ter s
Ġs pe
n et
Ġthe y
c es
Ġy ear
ig t
ik er
Ġof f
Ã¼ d
Ġg es
it t
Ġin s
a ce
ier ung
im m
p ort
o le
ah re
Ġt ime
Ġj ed
Ġ1 6
âĢ Ŀ
ĠG esch
g lie
is sen
an k
Ġh aben
Ġwie der
ann t
C on
l ung
m an
Ã¤n d
y n
m in
et t
ay s
el le
ig keit
Ġwor k
und en
el s
Ġo b
ÃŁ e
00 0
Ġbe en
ie le
ĠS o
Ġg r
Ġp la
Ġs oll
a w
Ġh is
Ġge gen
Ġein es
ar beit
h und
s et
b all
ĠU S
g esch
Ġz wei
Ġ19 3
ie w
h aus
lie ÃŁ
Ġk n
Ã¶ ff
at z
y p
i x
w o
ĠD ies
re d
r es
or k
o ol
T ype
ess ion
E inz
eit e
ĠI S
ĠE s
Ġsein er
am en
Ġdies er
Ġre c
ĠG es
Ġan y
l ine
ir st
b st
Ġsein e
ĠS te
u er
ĠGem ein
in ter
a x
u de
yste m
ge ben
ach weise
ach t
at or
ov e
us ammen
ru pp
eln achweise
ĠJ ahre
ĠUn ivers
Einz elnachweise
ĠF ra
m ein
ĠkÃ¶n nen
Ġin ter
erv ice
Ġhat te
ĠE x
" ,
d ition
Ġ= =
s k
ur op
Ġi hre
er k
Ġp art
Ġd is
Ġs el
ĠP h
sch e
id ent
Ġs ome
I N
ĠF re
T h
ar n
o ber
Ġs c
or f
Ġo ver
Ġe tw
Ġ Qu
p l
ĠĠĠĠĠĠĠĠ ĠĠĠĠĠĠĠĠ
p ut
o h
el y
lat z
S ch
Ġwh o
i der
at s
ĠG eb
1 0
D as
ir t
B N
U n
ĠK on
Ġe l
1 7
al d
le d
o ff
Ċ ĊĠĠĠĠĠĠĠ
ent lich
Ã¤ hl
ĠK ar
Ġa cc
ĠJahr hund
Ġo ther
a is
L e
\\\\ \\\\
f all
Ġzw ischen
Ã¶ l
u al
ĠTe il
ĠM us
e k
Ġb o
ĠU m
ent r
ĠIS BN
n ah
t on
Ġ1 2
ĠB l
ik an
ĠA d
c om
ĠâĢ ľ
ĠSch w
Ġs eit
A r
Ġin t
p ert
ĠÃ ľ
le ment
ver y
ĠJahr en
Ġf ol
t es
Ġpro v
h m
ĠC hr
form ation
am er
ĠO b
Ġpro du
Ġg roÃŁ
sch en
at es
E R
ing en
if f
Ġth row
E r
our ce
le g
ic t
B e
ĠSp iel
at ing
Ġl ike
os s
gen d
Ġc l
Ġbe g
eit en
Ġst ud
ie der
iel d
b au
Ġ !
b o
ĠK ir
m a
Ġwar en
as h
Ġ :
c ial
hal ten
in s
Ġdies e
Ġd am
iter atur
in a
Ġwh en
un k
Ġp e
en de
Ã¶ s
Ġhe l
eit s
Ġv ers
Ġ1 4
1 5
ĠBer lin
- -
in der
ĠTh is
ĠB es
r on
ĠT ra
) )
Ã¤ s
um ent
Ġp ar
1 6
u es
ĠB o
V er
Ġin d
g s
Ġun s
o us
Ġbe k
en den
ĠW elt
I d
ot h
Ġp h
ĠG ra
a gen
en e
Ġ |
la ge
f r
( ).
ĠAr beit
Ġre g
a ir
ĠNe w
Ġn o
ic es
ou g
tr y
qu est
de d
au pt
ell en
st ra
h and
Ġj ust
Ġin cl
Ġj e
a um
o id
ĠM an
Ġd ann
ro ug
1 2
neh men
Ġne ed
p iel
ĠS h
Ġ <
c o
Ġzur Ã¼ck
le in
or g
f Ã¼
uch t
Ġb u
is te
A l
R es
en z
ĠG er
ran s
Ġit s
und es
en er
Ġth ere
Ã¤ d
y m
o und
I m
ÃŁ en
Ġa g
v ent
ĠM en
on der
at ic
Ã¤ ter
e p
le t
Ġ1 3
aus e
c re
ĠT r
Ġf inal
f ter
Ġl ook
Ġ )
ĠA ug
ur r
if e
he im
Ġg ibt
Ġt r
sch ie
Ġw enn
ro up
ĠA ll
Ġ ra
Ġbe im
l Ã¤
ĠÃľ ber
ĠA ut
ge w
if ic
Ġf irst
Ċĉĉ ĉ
Ġthe m
Ġer sten
Ġwh at
schaf ten
tell t
Ã¶ glich
io us
ĠJ an
Ġh ow
g l
Ġh and
is m
c ess
c ted
" );
Ġge hÃ¶r
Ġin to
il der
ic s
o y
Ġw el
d ay
i pp
op le
ot t
Ġdeutsch er
al en
Ġer st
Ġth an
p en
Ġg esch
ag es
h ne
O N
ut ion
ro und
Ġhel p
i den
ĠP f
c ed
() )
Ġh ier
ru ck
ĠLe ben
Ġd rei
ĠJ un
ĠF r
ĠH and
en k
ib le
ĠO ber
f ul
ar b
ow er
Ġh o
Ġd r
Ã¤hr end
in ess
Ġm ost
und e
it ies
Ġin st
ĠZ u
' t
glie d
Ġ .
re am
ĠB au
le x
ra ch
fol g
1 4
wer k
Ġse hr
r ich
am t
Ġm ake
Ġw ere
tern ational
ĠAr t
Ġm us
Ġus e
ĠM in
Ġel se
ĠN ov
ĠSt a
Ġv iel
k l
ĠGemein de
ra y
ĠJ ul
ier ten
am es
an der
z ial
iv er
Ġd a
Ġ201 8
Ġ! =
P ar
Ġs ho
v ers
ĠN or
ra g
sp ieler
Ġge b
en ce
Ġh ad
a der
ist or
ĠSt ud
rie b
Ġk onn
C h
w ard
ogra ph
Ã¼ t
c on
Ġjed och
Ã¤l t
() );
ul ar
Ġe very
Ġwo uld
Ġl oc
Ġg er
ĠE l
ĠIn d
ar m
Ġb el
Ġth roug
ster reich
ĠF amil
un st
ĠM ed
ĠJahrhund ert
Ġon ly
it al
L ist
1 3
us iness
Ġ19 2
abe i
ĠSt ra
c y
eb s
Ġbe c
p f
ass er
Ġan ge
Ġweit er
ĠÃ ĸ
f ig
5 0
Ġdes ign
uÃŁ ball
ĠH o
Ġkn ow
al k
Ġpe ople
ar ten
at ive
Ġver b
de x
il s
v or
G eb
Ġb re
Ġ '
f ach
sp r
ĠC ar
z w
ĠE urop
ĠC on
urr ent
Ġf ind
Ġb ack
Ġz e
Ġf Ã¼hr
e c
ĠM on
Ġetw a
os ition
ĠF ilm
s o
ass en
b ild
ch er
a kt
Ġer h
p la
Ġ Â
lo ck
et s
Ġcom m
p on
b ach
it s
ke hr
te xt
Ġw ell
iel t
p s
n ung
ĠChr ist
Ġm ay
ĠAug ust
ad d
O r
Ġi hn
Ġd ire
gr Ã¼n
Ġs upp
ur z
w n
L iteratur
ien ce
âĢ ¦
schie den
me ister
u ck
ost en
Ġa ct
ĠP e
Ċĉĉ ĉĉ
je kt
ur t
re m
ĠB undes
W e
Ġsp Ã¤ter
7 8
o te
uÃŁ er
au er
ĠDeutsch land
Ġst r
ĠP erson
hal b
il ity
Ġim mer
u ar
Ġp l
Ġs he
ir k
ig ung
ĠP ol
Ġg leich
ĠB et
Ġ *
iv en
Ġv oid
m at
ĠZ w
Ċ Ġ
u z
Ġh in
ate g
Ġ X
Ã¶n ig
ĠB and
is en
eng th
re g
Ġ3 0
g est
i qu
ge mein
un kt
O b
sch l
/ /
( ),
ĠAn d
ro l
ho f
eit er
em ent
F or
lich er
Ġver y
Ġver w
Ġcon s
ĠM al
Ġdies em
ch ts
tem ber
as ed
Ġas s
am s
ĠF e
Ġf l
ĠW er
Ġsch on
2 00
ier e
er g
vel op
ol f
ich er
ien st
Ġyear s
un ter
ĠVer b
o od
Ċ Ċ
e ct
Ġ [
Ġs ol
1 1
Ġand eren
op h
ĠY ou
Ġz usammen
Ġs et
ĠG roÃŁ
= =
Ġe igen
ĠM Ã¼n
ĠH aupt
ĠGr und
ie f
ut h
ar r
schaf ts
a id
Ġh igh
Ġm ach
ing er
Ã¤n der
an y
Ġlie gt
Ġsein en
ess en
Ġc re
ĠK l
Ġein z
hal t
ĠO n
Ġt wo
A T
N e
Ġle tz
Ġex per
i or
Ġm in
ich ts
Geb oren
b es
k er
ĠPro du
Ġin v
um ber
it ed
ist r
pr il
ra d
Ġh ome
Ġman y
ten s
ĠNov ember
uf t
ĠFran k
Ġun ser
f o
Ã¶ ÃŁ
ar s
Ġk eine
Ġb esch
ment s
Ġber eits
st adt
b l
k te
ĠN ational
ĠEn de
Ġs m
ĠSe p
if fer
ĠR es
ar ch
ĠVer ein
ĠN ord
Ã¼ tz
M it
Ã¤r z
g ang
ste in
Ġs on
ĠV ers
Ġsein em
Ġthroug h
Ġre m
ĠIn st
ag er
ow s
Ġd own
a den
s atz
eth od
Ġsel bst
Ġt ry
Ġs erv
Ġs ub
w ohn
Ã¶ ch
p or
v en
ĠM ann
le ct
Ġth ese
ĠH aus
ĠSep tember
a ul
it el
ĠF rie
rupp e
I D
us tr
ur s
a i
r icht
Ġ end
z ahl
as k
Ġp ublic
if t
o int
Ġbes te
C lass
ck en
Ã¶ff entlich
T e
Ġ201 7
Ġer w
V alue
as ch
Ġe ben
Ã¤n g
ĠI s
ĠV ol
G e
re ad
Ġa kt
m Ã¤
Ã¼n st
Ġer ste
Ġs uch
ze ug
for e
s on
Ġg u
oug h
Ġund er
w ick
Ġ201 6
ult ur
E N
he l
issen schaft
ru e
ĠA pril
ĊĠĠĠĠĠĠĠĠĠĠĠĠĠĠĠĠ ĠĠĠĠĠĠĠ
2 1
k reis
Ġm on
ne w
Ġb l
t ag
Ġre ad
we g
ar i
lo ad
ĠK Ã¶nig
Ġpro f
la gen
l i
ess age
Ġd ort
af f
in er
Ġst and
es en
r or
ĠS c
ĠH och
Ġihr er
Ġch e
Ġb r
c a
N ach
. )
re it
u k
w alt
ak ing
pon se
Ġm ark
al ien
isch es
Ġfol gen
Ġb usiness
Ġp erson
Ġn ow
M ann
Ġgo od
iv ate
Ġhe ute
up er
m ar
e ich
3 0
ĠB ild
Ġa fter
ot her
es ter
at ure
Ġv alue
an ts
w ay
b uch
e x
ck e
b ahn
gr und
kt ober
Ġa v
f eld
Ã¼ s
Ġc ol
ĠK unst
Ġe ff
ĠP olit
Ġw en
Ġver schieden
ĠIn ter
ĠC l
Ġm ed
hr en
ĠD es
ĠW h
ĠJun i
f ang
al ity
is ion
Ġ201 5
mit tel
d s
iz ed
v iew
Ġpla y
ation en
s g
ust om
ĠB ar
ĠM et
) );
Ã¤n ger
in nen
ĠF Ã¼r
Ġ2 5
la uf
Ġwh ere
Ġi hm
al th
Ġg reat
ur ing
Ġne ue
Â Ń
ess e
Ġf re
l ic
Ġte chn
Ġv ier
al le
c ode
Ġl ong
Ġse e
Ġw ay
ebs ite
A R
ĠP latz
we iz
Ġo hne
Ã¼n d
l ang
ĠI I
A t
Ġkonn te
Ġar t
ic a
ĠK inder
ut en
ĠD r
ĠU r
S e
iv es
tr ib
o ver
ĠS Ã¼d
a ur
le ase
ĠMa i
Ġb en
ction s
Ġl ang
S T
ĠBe i
ĠJul i
f inal
S ie
Ġdam it
ĠA mer
Ġge f
al if
ĠĊ Ċ
pert y
f te
p art
omm un
iss ion
Ġbe fin
olog ie
w ahl
Ġw rit
Ġd ay
Ġf ree
Th is
Ã¼r ger
Ġwh ile
Ġk ein
Ġst atic
Ġd el
ĠS er
b t
re t
Ã ¡
ran z
Ġ1 1
ĠO ktober
Ġ201 4
oh ann
Ġon line
[ ]
Ġprodu ct
in o
Ġst att
in es
Ġh ere
Ġ %
Ġf un
y l
Ġwor ld
Ġ19 0
i ÃŁ
Ġincl ud
Ġk lein
Ġs k
il it
sch lieÃŁ
Ġde c
stell ung
Ġall er
Ġk e
Ġ ,
fall s
ĠDies e
ais on
w ert
ĠS pe
Ã¼ h
eb ru
Ġde velop
ĠA t
Ġs om
ĠâĢ ł
Ġch ar
ĠMen schen
Ġp ass
Ġaus ge
ĠF ahr
ĠJan uar
Ġ201 1
Ġm o
Ġe m
ĠA s
o gen
ĠOr t
Ġ201 0
il t
ĠI f
st ru
z ie
T o
he mal
k a
ĠM Ã¤rz
v al
gan is
\\\\\\\\ \\\\\\\\
o ten
im p
ro ss
Ġev en
um s
z ug
z ember
Ġse c
ater ial
o in
Ġa c
Ġk am
c ri
ĠF ol
Ġsch w
ĠMus ik
los s
ĊĠĠĠĠĠĠĠĠĠĠĠĠĠĠĠĠ ĠĠĠĠĠĠĠĠ
Ġbei den
ole an
hr er
Ġ2 4
Ġer folg
Ġ201 3
rie g
or ben
ĠM ark
zeich net
z u
le it
Ġv is
l ing
Ġth en
Ġ201 2
ro p
Ġ1 00
A m
ber t
ĠJ u
Ġ& &
Ġf amil
ĠS k
Ġo wn
a ar
ĠH ol
h ol
ĠLand es
Ġw Ã¤hrend
Ġt rue
Ġw ant
ĠB uch
ĠAr ch
R E
Ġgr Ã¶ÃŁ
ĠG ener
ĠC he
A us
al se
Ġpro gr
omp on
cc ess
ach sen
ur es
ou ble
od y
ĠF ebru
ĠO ff
Ġsp iel
Ġd iffer
ct or
De utsch
kt ur
f ra
H e
Ġer sch
ill ion
Ġsho uld
a j
ra ft
ain t
ĠPro f
z ent
ĠW est
Ġc ar
iv ing
he d
Ġm od
in ce
Ġ ur
ch s
st Ã¤nd
ĠCh ar
tra g
rif t
Ġc ase
Ġne uen
Ġ >
Ġl ast
ell schaft
Ġst art
w end
Ġin formation
ed er
Ġh abe
l ig
Ġus ed
ĠP art
Ġand er
. ,
l en
ĠKir che
Ġn ame
ĠDe zember
Ġ200 9
sp iel
olog y
Ġbec ause
ĠAl s
ĠD urch
ĠM o
ĠPh il
ot s
Ġte il
âĢľ ,
A N
Ġ Ã¶
Ġt rans
Ġc lass
ĠJ ohann
k auf
ĠUnter nehmen
Ã¤ hn
de te
K ey
amer ikan
Ġm ade
ut t
Ġs ur
ig es
w w
Ġco uld
ern se
Ġ18 9
ĠV on
Ġd u
Ġs ervice
u ter
Ġg ra
Ã¤ch st
w are
Ġi de
om en
ism us
qu ire
is piel
ĠGesch ichte
ic an
ogra f
Ġ200 8
Ġp ol
Ġd abei
er y
al ter
ĠW ert
s etz
ie b
le te
h in
at her
mal s
âĢľ .
un n
b y
t re
o pp
ĠL in
ĠL iste
g leich
Ġprov ide
Ġar beit
f a
n ame
in ing
u ge
Ġt ake
2 5
Ġihr en
Ġe ing
ĠE ine
ig te
ail able
ĠR om
as on
Ġr ight
ĠMit tel
ver b
Ġp lan
neh mer
stra ÃŁe
ĠRe ich
č ĊĠĠĠĠĠĠĠ
fÃ¼hr t
Ġd ata
Ġs er
o hl
Ġe as
Ġste ht
Ġdies es
ĠC omp
ik a
ĠĊ ĠĊ
Ġres ult
le gen
ĠUnivers ity
ĠD ar
Ġd on
h af
Ã¼n f
ĠMit glied
Ġs u
ide o
Ġf est
ĠW or
oll ow
age ment
ĠW ir
Ġl ife
A L
Ġs aid
i us
Ġ $
Ġm uch
ĠW ien
Ġg ab
sch n
Ã¤t z
il le
ĠH am
ranz Ã¶s
Ġbe fore
Ġb ook
O R
Ġ #
sch utz
ist s
st r
ar z
ĠD aten
Ġein fach
Ġch ild
Ã¤n de
Ġst ar
Ġz un
it zen
ĠP l
omm t
ichte t
is k
g abe
Ġc atch
k ommen
ĠG l
ĠS al
sh all
ak es
lin k
an e
ach e
um e
Ġgen er
Ġg ut
Ġb ed
ĠUnivers itÃ¤t
es ten
all s
Ġein ge
be i
Ġ u
ĠB ere
az u
ĠIn tern
Ġfin den
ĠB ay
Ġb zw
fahr en
f ass
e h
f ern
Ġ200 7
in en
Ġto p
y r
19 9
Ġc ustom
ĠSch ul
nah me
8 0
los sen
f ort
Ġof fer
ĠH Ã¶
as ter
ĠEn tw
ĠM ich
Ġ x
ing le
Ġ ...
la ck
Ġc urrent
le gt
a e
ĠK r
and s
ĠÃ Ħ
ĠS aison
re cht
Ġe t
um mer
ĠC o
Ġc olle
ĠW asser
ip s
G esch
ĠN amen
le kt
Ġf ound
id es
Ġ200 6
ĠK n
sp ort
ges tellt
m ed
p unkt
Ġen g
Ġe mp
an gen
an st
Ġbek annt
p os
ĠB est
6 0
sch ule
4 0
Ġpr es
ĠW ohn
Ġpro cess
Ġg est
Ġdes sen
Ġalle m
im es
ĠSt re
ĠI hre
Ġm uss
ĠN atur
ĠJ ohn
Ġthrow s
Ã¼ ss
ĠReg ion
ĠFor m
ĠB ra
Ġc le
uf en
ĠFebru ar
ran k
s ol
ĠB re
ĠP er
ear ch
B y
al er
out h
ĠE d
all en
O ver
E in
Ġk ey
ab el
schl uss
en der
Ġbe ing
Ġc oun
Ob ject
Ġe ach
ĠEn t
Ġcomm un
om mer
ĠA uch
Ġb ie
Ġe hemal
Ġ5 0
v an
M ap
u gen
at us
los e
ĠF uÃŁball
al b
ĠA ss
y le
Ġre al
ĠG u
Ã¤hl t
Ġson dern
Ġweit ere
Ġg anz
ĠSch weiz
ap an
l ength
im mer
rie ben
rupp en
S et
m m
and en
Ã¤ ude
u x
ich ten
Ġ9 78
Ġder en
ĠSt and
tell en
p ieler
Ġs ign
ĠP at
sp re
Ġa round
uf fer
Ġn un
Ġbe f
un ktion
oll en
ĠR Ã¼ck
ge d
de ut
ĊĠĠĠĠĠĠĠĠĠĠĠĠĠĠĠĠ ĠĠĠĠĠĠĠĠĠĠĠĠĠĠĠĠ
Ġs Ã¼d
Ġl og
iqu e
Ġdo es
ĠZ usammen
D ata
ĠM od
Ġp ost
Ġ2 2
M ar
it Ã¤
iv id
Ġv iele
ĠS an
geb iet
Re quest
ch te
ĠBer g
ain s
en ter
Ġad d
w ork
et ail
Ġs l
Ġn umber
Ġp ra
ĠL ie
ess er
Ġand ere
mÃ¤ ÃŁ
ĠKar l
Ġr est
hn en
Ġag ain
ĠV ert
ord s
T ra
u ally
Ġl ar
ĠY ork
Ġwe ek
ut ter
tell er
dr ich
Ġb ring
Ġm ein
ch sel
ĠMÃ¼n chen
app end
Ġw icht
Ġ200 5
Ġav ailable
Ġin ternational
irt schaft
A d
ass e
Ġsh ow
lass e
Ġdeutsch en
r ic
ĠM ot
A b
s w
h Ã¤lt
C ont
Ġ20 00
rie d
c ing
re ib
Ġ2 1
us h
reich en
Ġdiffer ent
ĠJ e
sch ied
th is
Ġcre ate
Ã¼ hl
am ent
ĠS eite
ann te
ĠVer lag
we en
Le ben
ĠW il
Ġc a
h ard
Ã Ń
A s
ĠW ill
Ġge mein
ra gen
ĠB ahn
Ġm ar
t he
Ġd id
N ode
m et
Ġf alse
ubl ik
Ġc are
lass en
Ġpla ce
ĠPerson en
w ays
Ġm ir
ĠR o
ĠLeben s
ĠBere ich
im al
a un
A S
kt or
Ġs ite
r ide
ĠB as
Ã¤n ge
Ġerh ielt
ĠGe w
7 0
ig ten
ĠSch l
Ġbu ild
Ġbefin det
-- --
Ġn ah
o ge
ly mp
er m
ĊĠĠĠĠĠĠĠĠ Ġ
or ts
ĠF est
our n
Ġs ystem
d ings
ĠT od
F ile
d ate
Ġche ck
ĠOr ts
Ã¤ uf
Ġ2 3
in ation
Ġp olit
2 2
k on
ĠR ad
d orf
Ġp at
E D
Ġl ove
use um
ĠAl b
Ġth ose
ro om
ĠC ol
n ess
ĠM ag
g ra
re uz
ĠK reis
Ġl ist
he in
et ing
I t
Ġf Ã¼nf
Ġth ink
k ten
wohn er
al ten
Ġv ar
Ġpro ject
ĠT ag
w ig
ĠFamil ie
ĠB Ã¼
as st
ff en
de ck
Ġf ranzÃ¶s
gr amm
ĠD on
Ġ â
op e
ir che
Ġf ollow
z iel
C l
ĠW ahl
la ub
č Ċĉ
y ch
Ġan n
Ġus ing
ĠSt r
enn t
Ġden en
Ġa ut
Ġf ast
Ġinclud ing
Ġv al
Gesch ichte
ro ll
it ter
us ch
P ath
E S
ĠA pp
itt le
B u
c i
t il
is hed
nis se
ie g
Ġph ot
Ġ18 8
Ġper fe
Ġ201 9
ĠD u
ĠP re
p re
Ġdies en
ĠP aul
ĠH ein
Ġr und
Ġre ally
ard s
igh ts
b ack
ĠK ap
Ã¶r der
Ġt ype
P D
il es
Ġg roup
ĠMe ister
om b
Ġc al
ĠGe gen
ĠW ar
al y
Ġn or
ĠTe chn
2 3
j Ã¤hr
le i
ess or
ĠFra uen
Ġb oth
ch es
Ġne xt
Ġexper ience
ĠK ont
isch of
Ġc our
er st
ath ol
Ġbet ween
Ġm ov
M od
ĠPolit iker
Ġm Ã¶glich
ur y
Ġfr ien
Ġb as
Ġp os
ĠEn g
Ġf ile
ĠM at
Ġfamil y
ut es
sh ip
en det
Ġ200 4
och en
s am
Over ride
Ġst ill
glie der
i as
ĠFrie drich
ernse h
Ġro om
4 5
Ġm al
ig inal
c lass
ra um
Ġh im
uch en
Ġsch ool
Ġetw as
Ġje we
ĠB en
ĠF ot
lo b
Ã ³
Ã¶l ker
ent en
U S
I T
ame ter
ĠW erk
Ġk on
Ġwor den
sch ul
lich keit
ĠEntw ick
I f
Ġdis c
oc i
Ġmon th
h a
Ġo pen
om in
re en
et te
uf f
ĠPro v
Ġprof ession
bild ung
M e
ĠD an
ĠN ieder
Ġeben falls
f ts
f Ã¤
Ġletz ten
ĠT o
Ġincl ude
A C
Ã¤ re
Ġsm all
it te
M an
G est
um p
ond on
U R
Ġo per
ĠN ot
it or
Ġf ull
Ġse x
it es
Ġz ahl
Ġg ar
Ġob ject
g aben
Ġsch n
ĠInst it
ĠP ort
S p
e ver
p latz
st off
Ġzun Ã¤chst
ĠE m
Ġfor m
aus pieler
Ġb il
Ġa uÃŁer
ĠP ark
Ġre quire
Ġdeutsch e
an ad
Ġcomp any
Ġl o
Ã¤ us
Ġ2 6
Ġsoll te
fer ence
Ġserv ices
amp f
Ã¼nst ler
ĠSp ort
ĠB ut
Ġent stand
Ġm ember
Ġ2 8
ĠN ame
s icht
it u
Ġwel che
fig ur
im at
ĠH ier
ne y
ĠT itel
ĠG o
hel m
dr ess
o ot
er ts
ĠM y
Ã¶ m
ann ten
2 4
A M
h ung
um en
Ġein ige
ĠF il
Ġge ht
A ll
ĠO st
Ġbo olean
Ġer halten
d o
ĠP la
ĠC olle
um n
ĠB el
Ġle arn
onder e
Ġse i
rit t
kl Ã¤r
ĠL ist
E lement
v ed
Ġim port
an a
Gest orben
ĠIn ternational
Ġsupp ort
le y
op f
Ġbre ak
ĠL a
ĠB i
am a
7 5
uÃŁ en
b ed
ĠJu gend
sch rift
grÃ¼n det
sel f
Ġspe c
ir l
able d
ĠS ohn
ĠF in
Ġent wick
a el
ĠH ans
Ġk ommt
ĠF ach
Ġapp ro
ir d
Ġst ate
ol ution
Ġp op
ur m
ĠH il
ĠC ont
ies en
f ilm
Ġ200 1
Ġcont in
ĠS ystem
Ġdar auf
Ġv iew
alt ung
Ġspe cial
ĠM or
l ess
o x
Ġs ame
v es
z er
ĠIn formation
Ġbeg ann
ĠI ch
Ã¼ck e
z entr
k m
Ġhe alth
fÃ¼ g
ĠFl ug
ĠDeutsch en
j ahr
Ġver Ã¶ffentlich
Ġl assen
Ġne u
Ġ4 0
fÃ¼hr ung
Ġm ich
Ġge m
du c
Ġte am
Ġakt u
n a
c le
r sg
Ġat t
Ġb ra
ck er
al es
ell er
sch w
d ruck
ap er
Ġm ust
lo y
ĠFran z
Ã¤s ident
A uf
ĠgroÃŁ en
ourn al
Ġge l
Ġc or
Ġfe w
imm t
b et
Ġd i
ĠWelt k
Ġor der
Ġper form
Ġh istor
ĠPe ter
Ã¼ l
ber eich
Ġ200 3
Ġ18 6
Ġke ep
atur es
ĠgroÃŁ e
ik t
Ġlook ing
ĠH ar
ho de
Ġst ark
m us
is se
en nen
Ġm Ã¼s
19 8
St ream
Ġre quest
ĠL ondon
Ã¼ b
Ġd uring
te gr
Ġh app
ĠS eit
Ġ2 7
Ġth ree
iet y
av ing
Ã¤ che
sch ein
< /
ĠĠĠĠ ĠĠ
O n
ĠOb ject
ĠS he
Ġv oll
Ã¶ st
Ġc all
um m
Ġind ivid
ur o
Ġ200 2
ĠT or
E T
iv al
te te
Ġev ent
Ġ199 0
+ +
ĠH el
ĠFra u
Ġex c
Ġqu ality
ĠN o
on nen
oss ible
Ġm ax
th ing
Ġver l
af fen
Ġre t
Ġch o
rie gs
Ġne ben
I C
Ġd azu
ĠD em
on ders
b ook
Ġ( âĢ
cri ption
ĠB Ã¼rger
la u
gen ommen
pr ession
ĠI hr
pr ess
Ġm et
Ã¶ t
Ġo ption
ir on
ce pt
ount y
H and
Ġ2 9
em p
ver t
M essage
ĉĉ ĉĉ
te i
Ġare a
ĠThe y
ĠHer z
ĠÃĸ sterreich
ĠM art
Ġst or
Ã¶glich keit
ĠZ e
ĠB ed
Ġin ner
ent ial
ble m
uch s
Ċ ĊĠĠĠĠĠĠĠĠĠĠĠ
M et
W ith
ĠSch rif
Ġander em
ĠRe chts
ĠT er
st Ã¼tz
In dex
IN G
s ych
reich e
g n
or ge
st re
Ġk urz
P r
Ġw ater
nah men
f urt
ĠLand kreis
Ġfe el
Ġk ommen
ĠVol ks
id s
Ġloc al
ĠB ern
ĠgehÃ¶r t
av a
z t
ind ung
Ġre lat
ur ger
Ġf lo
Ġauf ge
ĠP al
se e
Ġe ar
ke y
ĠAn t
ĠPar is
Ġihre m
Ġd och
ro s
Ġex p
for der
ĠB esch
Ġs w
min ister
Ġeing es
ĠK ultur
i at
Ġpro m
Ġo ld
iz ation
Ġmach en
ot he
Ġim p
ar get
Ġall en
ĠD re
ĠJahr es
ges amt
Ġf act
ĠD orf
Bu ilder
Ġt yp
Ġal ways
f re
st ag
j oy
Ġb ig
m ark
Ġl ittle
E s
z ogen
Ã¤ ft
wer b
Ġh och
tt p
e qu
ft ware
č ĊĠĠĠĠĠĠĠĠĠĠĠ
č Ċ
pe ct
at ter
Ġpart ic
ĠD o
In st
Ġj ob
v Ã¶lker
Con text
Ġfr Ã¼
Ġf ield
ĠP reis
ĠO lymp
d ing
F ield
ĠR ich
uch e
ĠS el
ig ital
Ġgo ing
Ã¶r per
I S
z el
D ies
our s
ier s
Ġ ?
ĠBe g
9 0
Ġm ethod
ub e
ĠR ah
ĠD a
Ġs imp
D R
Ġis s
Ġcon ne
Ġ199 9
T ime
Ġre ce
or ie
Ġcom e
oc ol
ge ord
ĠHer r
ĠFamil ien
. "
Ġto o
ĠH ow
ur en
ĠS il
Ġgew ann
Ġbeste ht
Ġe qu
g o
Ġs ince
igkeit en
F uÃŁball
m ut
ĠS eiten
Ġp ower
icht ung
3 5
Ġbe aut
Ġste hen
Ġle g
S ervice
Ġg row
iz iel
an c
Ã¤ m
gan gen
m b
Ċ Ċĉ
ent ly
Ġ est
ĠC ity
* *
I ON
2 8
c r
ra cht
Ġor gan
lat t
t ing
den s
Ġw Ã¼r
in ner
teil ung
Ġg ing
ĠKir chen
Ġw ebsite
Ġer r
gesch ichte
ers Ã¶n
Ġwith out
ĠG en
Ġle vel
ĠFor sch
Ġapp lic
Ġ| |
e te
d ienst
il y
one y
Ġth ings
O f
Ġm en
ĠUS A
In fo
Ġn ie
our ces
2 6
fa ult
um b
w or
Ġs ure
ne te
ĠA ir
Res ponse
il ter
Ġto day
Ġab sol
: //
Ġp ay
w elt
Re g
Ġab ge
Ġnah m
rit ten
Ġc ost
ĠAl t
ĠD av
Ġbe zeichnet
ĠM ain
ĠD i
ill s
Ġg ot
Ġ Q
we is
fol ge
k un
pr ivate
Ġm ind
w h
ĠSe e
Ġhat ten
Ġacc ess
on es
an ten
ĠAmer ican
g ar
ach en
Ġ20 20
Ġwith in
Ġch ange
w ar
ere i
ĠS m
et en
ĠâĢ ¦
heit en
om as
it ive
ĠB ro
ab ility
Ġo pp
ĠIn s
trib ute
ĠD ire
ch ten
i ents
ĠEin satz
op s
rÃ¤ ger
ĠSta ats
D es
in c
L E
ĠTh ere
4 8
Ã¤t ze
I I
if ied
Ġproduct s
ĠP lan
ik el
ĠGr Ã¼n
ĠBet rieb
f ert
il ome
Ġwe gen
Ġs uper
a uch
ul ts
tel le
Ġsch lieÃŁ
le tz
ĠC or
tr Ã¤
3 3
z ig
u h
ĠFol ge
Ġspiel te
ĠSch m
ver ein
Ġl ot
ab r
Ġin c
h Ã¤ng
Ġzw eiten
g ument
le ine
haus en
Ġpro te
Ġher aus
Ġeff ect
is iert
el te
ĠF ar
Ġg ame
S h
! !
Ġden n
ĠAn fang
w and
au g
Ċ ĊĠĠĠ
utz t
Ġ18 7
il en
ĠGener al
Ġt ro
ĠRah men
Ġbe h
Ġersch ien
y er
Ã¼ ll
Ġsec ond
it ing
ĠU hr
ĠW ind
w issenschaft
Ġstud ents
ilit Ã¤r
Ġt re
ograf ie
ĊĠĠĠĠĠĠĠĠĠĠĠĠĠĠĠĠĠĠĠĠĠĠĠĠ ĠĠĠ
m l
Ġl ine
2 7
Ġmehr ere
Ġf ac
Ġab le
ĠR ed
eth ing
Ġho use
ĠB ad
ĠJ ose
2 9
ĠD is
ĠT re
ĠNe ben
ĠT our
ĠD ienst
Ġd ays
Ġ18 5
ist ory
Ġqu est
. âĢĿ
ĠW ith
ĠK ais
Ġh ard
ĠS ol
ĠWil helm
Ġof t
Ġaller dings
Ġ199 8
le ben
ograph ie
W h
d ie
d es
ik en
Ã¤s ent
Ġh ol
ĠG ed
c ont
== ==
Ġc r
Ġl in
Ġd ouble
entr al
ĠR uss
ĠTe xt
Ġk omp
b el
ile d
at Ã¼r
Ġle ad
En abled
ĠC ounty
Ġs ay
im ent
ĠZ ahl
p lan
Ġl ight
Ġinv est
Ġverschieden en
ĠSch ool
em s
ĠUn d
Ġbet ter
Ġg ive
D E
Ġd av
ĠMich ael
o ung
ein ander
Ġ @
amerikan ischer
if ul
ĠZ iel
H rsg
h am
den k
Ġex ist
z irk
Ã¤ mp
ĠSta aten
pert ies
Ġimport ant
w ort
th row
ĠI de
equ als
Ġr un
ĠAus tr
ĠW ebsite
Ġh inter
ĠGe org
Ġm ult
ĠG ruppe
rit er
Ġverw endet
eng l
Sie he
ĠHam burg
9 9
ĠI hnen
ĠL auf
Be i
w est
ĠR aum
Ġs ize
ĠArch ite
ĠM ay
em pl
Ġp age
ut ure
schn itt
Ġm ain
os en
ĠWor ld
um an
ĠEr n
Ġad v
ĠTe am
Ġt er
ur ity
ir m
ĠC om
Ġle t
b re
. âĢľ
Ġlar ge
on y
En try
il la
Ġ( !
ĠBe ispiel
v alue
ier ungs
Ġerst mals
ĠIntern et
ĠEin wohner
Ġperfe ct
C ol
ra che
ah er
spr Ã¼n
ra w
Ġer ne
Ġ194 5
.) :
Ġse hen
\\\\\\\\\\\\\\\\ \\\\\\\\\\\\\\\\
f el
af Ã¼r
Ġsein es
Ġhe ut
P erson
ĠZ ug
ĠHo tel
ĠWe g
O Exception
Ġb in
Ġc ert
de utsch
Ġhe ad
ic le
ic ally
yste ms
ĠDes ign
Ġres earch
en a
Ġa ff
rit e
Ġwork ing
Ġf and
it ch
ut s
ĠJahrhund erts
Ġent spre
e hen
ĠK Ã¶l
Ġa uth
Ġsh ort
Ġk m
Ġact iv
ĠI l
um er
Ġ198 0
unk te
ĠF all
ur f
ĠK at
Ġein mal
v iron
tre ten
uch te
Ġeas y
t ime
ĠL ud
3 6
ĠOn line
Ġeigen en
iv ed
l og
ĠO l
Ġwe il
ĠC omm
Ġad dition
ĠA lex
om at
am b
az z
Ġre f
ĠSp ieler
Ġ6 0
ĠM c
Ġl ange
Ġe d
ĠNe u
ĠA kt
ĠmÃ¼s sen
Ġin cre
Ġ199 6
s weise
ĠK o
ĠK Ã¼
ĠEr st
gr iff
Ġcomp lete
Ġen joy
os oph
Ġj etzt
Ġa ir
ĠGra f
amm lung
Ġbe w
Ġs af
an te
ar te
Ġo pt
e e
Ã ¨
ĠC lass
Ġsom ething
ĠNor th
ĠH all
Ġg l
Ã¤ fts
Ġfin det
lie b
oc us
bes ondere
3 4
Ġde fin
if y
ĠHein rich
and id
y d
Ġn ational
ĠSch auspieler
ar a
ort un
ĠHe il
A P
) :
ĠMit te
Ġ ident
ĠM illion
ĠSch n
Ġco ver
n ot
Ġre l
ĠD abei
ĠS outh
19 6
etail s
p end
ion al
ĠB urg
Ġinter est
ĠÃ¶ sterreich
ĠS Ã¼
ĠMa x
Ġchild ren
Ġl a
Ġtra dition
m od
ĠM Ã¤n
Ġb rit
ĠN r
Ġ197 0
ĠEr z
Ġ199 7
Ġprogr am
N ot
ĠP ost
la v
stell en
ĠE uro
sp e
n ungen
t ocol
Ġc reat
a ÃŁ
zeich nung
ĠEntwick lung
Ġf ood
Ġg ilt
ĠR el
Deutsch er
C O
heit s
{ @
Ã¤s st
Ġ3 1
Ġd an
u c
s ize
Ġpra ct
Ġse chs
ĠS ein
Ġperson al
Ġt rat
Ġall es
R O
w irtschaft
ĠT yp
ĠW ald
ĠW inter
Ġb ased
us Ã¤tz
Ġinst ance
Ġmus ic
Ġw est
ĠM ont
ĠgehÃ¶r te
Ġan t
ĠG old
ain er
b aut
ver n
L O
es h
irt schafts
ĠD en
g art
Ġt urn
lich es
ĠVer walt
Ar ray
G roup
a at
ĠEurop a
ll en
och ter
ĠF er
Al s
her r
ĠStra ÃŁe
Ġt est
ic y
3 8
Ġs tell
3 9
as es
ĠR ober
Ġp ort
Ġneed s
Ġc ap
ĠH istor
> >
gr ess
" .
arbeit er
L oc
j a
und er
Ã ĸ
re if
ĠS oc
Ġs etz
le hrer
il er
f s
Ġdire kt
ĠS en
Ġdav on
ĠA g
ĠSch loss
Ã¼ck en
Ġ199 4
Ġbie tet
l ungen
oug ht
19 0
ĠChrist ian
ĠEn gl
4 4
rei ben
p ublik
Ġbes onders
ĠP ra
i am
i ate
pt y
ul ation
Ġse arch
In ter
S er
ĠS itz
ĠF ir
Ġ199 5
nah m
ge ber
ĠD ort
ilome ter
Ġan other
ĠHÃ¶ he
pla y
a pe
i ol
it ten
ĠLe ist
Ġv ideo
ĠW olf
Mit glied
op er
č Ċĉĉ
Ġmark et
is ierung
ĠS ommer
Ġd ating
ut ions
3 2
ĠK om
Ġm aking
ĠT ro
ab l
Ġgen annt
Ġjewe ils
ĠF unktion
ĠfÃ¼hr t
for d
schlieÃŁ end
_ _
Ġde v
ĠGeb Ã¤ude
Ġin it
ĠHol z
ĠS w
Ġim pro
Ġuns ere
19 5
Ġer reich
ĠRe gel
Ġweit eren
sche id
b urger
k irche
Ġunter schied
ĠfÃ¼hr te
ts teller
ĠG ar
Ġpro perty
ĠG el
reib ung
Ġp ut
Ġl at
ĠJ o
ct ure
h end
v ille
ĠO ur
mer ikan
Ġm ag
amp le
g lichen
ost er
Ġp ack
ig a
Ġoff ers
ĠSt utt
ganis ation
b ol
Ġr ange
ent lichen
Ġres p
Ġm ight
l le
Ġte xt
ĠH ome
Ã¶r d
kun ft
ĠRe c
ik ation
e le
le ge
iz in
ac ter
l ow
Ġto t
sk i
we hr
E C
Ġfe atures
viron ment
ĠSo zial
Ã¤ ss
Ġne ver
ser ie
' re
3 7
ĠMe ter
Ġp ict
ĠTh omas
mb H
Ġ199 2
Ġt Ã¤t
4 9
part ment
ĠSe x
ĠEr w
Y ou
' m
d a
Ġn on
ĠProv inz
z y
lich t
ĠK e
ab or
os p
ĠLe ip
ick en
ĠE he
ĠF eld
b and
n ov
ĠEn erg
Ġ199 3
oc ument
ĠV ater
ĠÂ »
Ġsu ccess
ĠN utz
Ġen gl
Ġl ive
ran sport
Ġdire ct
ra u
Ġviel en
Ġcommun ity
ĠS ervice
ĠE p
Ġwor ks
leg al
Ġschn ell
ord ing
ĠSchweiz er
Ġn et
w ie
Ġh al
au p
wend ung
4 7
G ibt
Ġm Ã¶ch
ward s
te chn
hl en
und s
ĠK ommun
Ġse ver
Ġas k
Ġ Ã¤l
ze pt
au en
E m
V al
ĠFrank reich
ire d
Un ter
Ġ196 0
ĠâĢ Ķ
ĠB ischof
ĠUn ited
ĠBer uf
is ed
ĠR u
Ġ18 0
pro du
S o
de ten
Ã¤t te
Ġcons ider
Ġb ro
Ã¼ gel
it chen
Ġ199 1
v oll
ĠP ap
Ġal ong
ĠkÃ¶n n
Ġwo bei
am mer
Ġl and
Ġbu y
k n
ĠâĢ ĺ
ĠC as
Ġlie gen
ĠW eb
ĠPro zent
ĠRom an
ut or
pr Ã¤
al itÃ¤t
zeit ig
lob al
ge ther
ific ation
ĠRe i
ĠP ass
ĠGes ellschaft
ok en
is on
ĠM Ã¶glichkeit
l ungs
Ġre du
ĠB ank
ok ument
St ate
Ġunser er
ĠLud wig
Ġb ody
teil t
ag s
Ġinner halb
ĠO per
th ers
P h
Ġcont rol
ib li
v ious
eit ung
Ġall ow
ĠGeb iet
Ġfolgen den
Ġbeaut iful
gemein de
ĠMar kt
An d
ĠThe ater
Ġjed er
read y
ĠK le
Ġn atur
ĠT rans
att ung
Ġm atch
E M
ge f
O T
te ger
ĠR est
ĠInformation en
h Ã¶
ĠH of
Ġne ar
Res ource
W ir
ĠK lein
Ġk l
ĠB y
Ġcle an
im men
Ġklein en
Ġof fen
ĠEin zel
Pro perty
ib r
Un ivers
Ġa way
omm and
la us
Ġl ess
ett be
Ġme isten
i ber
ĠT ochter
C H
Ġs ingle
ĠR hein
ĠEr geb
Ġre view
ĠSte in
ist ischen
ĠEurop e
us try
figur ation
ĠMart in
a ction
Ġ20 21
19 7
ĠG mbH
or m
Ġgr Ã¼n
ĠE isen
Ġbel ow
ĠW ie
ob il
Ġ ir
C ode
Ġz we
ion en
ĠJ apan
P re
ĠK rieg
ief ert
Ġunder stand
ag ue
ob ile
ĠAnd re
ĠL uft
is ing
Ġw omen
Ġcon c
geb aut
Ġdel iver
F ilm
Ġt reat
9 5
Ã¼ ler
st ants
ult ure
ĠArbeit s
Ġges am
Ġmus ste
ĠT age
Ġmo dern
l am
Ġarbeit ete
c er
le v
id ing
ĠFrank furt
Ġdevelop ment
ĠW enn
ie gel
Ġf our
ĠMillion en
F Ã¼r
Ġn Ã¤ch
Ã¼t zen
4 6
ĠM useum
Ġcont ent
ĠGesch Ã¤fts
a he
i os
l Ã¤nd
Ġex tra
tern al
red it
rÃ¤ gt
ĠE is
Ġer n
Ġ _
le ist
tell ung
ĠW ein
u el
Ġd afÃ¼r
Ġk leine
al og
lie gen
Ġm aterial
z immer
ĠPr Ã¤sident
Ġn atÃ¼r
g te
Ġk osten
Ġsich er
Ã¤r en
Ġvis it
ĠW issen
ĠU l
ar ing
ĠS im
A G
f ace
h men
ĠHe imat
Ġp ast
ou p
ĠD am
Ġp ath
ĠC D
m Ã¶
et ter
ĠR olle
Ġins gesamt
Ã ľ
ĠO p
Ġl aw
W er
Ġ Ã¶ff
l v
ĠStutt gart
I mp
ĠH ann
ll t
] ;
ter t
ĠOb jekt
Ã¤n dern
ten d
Ġle ben
ĠStra ÃŁen
Ġze igt
B er
Ġen s
U T
I ch
ĠBe vÃ¶lker
f ield
ro du
ent al
Ġ198 9
engl isch
ĠT urn
ing ton
ĠKais er
z Ã¼
ĠPro jekt
etz ung
Ġkonn ten
g g
ĠS am
Ġ( (
ĠW Ã¤hrend
' ve
ie ve
Ġto gether
Ġcon f
Ġcour se
ĠM er
ĠSchrif tsteller
ĠK Ã¼nstler
ĠH inter
Ġstud ierte
Ġfollow ing
ĠS icher
ĠWe i
3 1
U N
ĠM utter
richt ung
Ġbis her
Ġc ity
itz er
ĠH igh
Ġge grÃ¼ndet
ĠInd ustr
geben en
lig a
V ers
Ġverschieden e
6 5
st ant
ĠW ochen
Ġres ponse
Ġs og
an ze
id ay
Ġw eb
ĠS eine
S c
og le
Ġj a
id ge
E L
ab ly
S ize
Ġe duc
U t
ĠCh ina
it en
ra b
dem ie
Ġauf grund
ent ion
to String
ĠZ we
ill er
Ġcon dition
Ġ198 8
Cl ient
ĠtÃ¤t ig
Ġl ov
ĠB eit
ĠEn d
con om
Ġerfolg te
ach er
ĠKÃ¶l n
ĠN Ã¤
ib e
Ġwe chsel
Ġh Ã¤uf
Ġs im
ĠZw eiten
Ġme ist
ĠTe x
f est
Ġur sprÃ¼n
Ġle ft
Ġt able
te ile
Ġk ind
ĠDies er
Ġp ossible
Ġwo hl
Ġcont act
Ġ( )
L iefert
w agen
Ġb ar
ĠĠĠĠ ĉ
Ġ ess
Ġsp ace
Ġf ar
ĠJ ust
Ġde ut
ĠE mp
ĠL iteratur
Ġg irl
r Ã¤n
auf en
ĠMar ia
ĠA fr
ĠschlieÃŁ lich
Ġf ocus
Ġr icht
Ġen c
act ory
Ġl Ã¤sst
Ġit alien
ĠS uper
Ã¶s ung
Ġopp ortun
L og
ĠJ ournal
ĠK omp
G r
ĠB ru
en zen
Ġp oint
Ġm ot
ig ent
sch er
ar ian
Ġeinz el
Ã¶ ÃŁe
o o
s burg
ĠG et
ĠAlb um
Ġw all
Ġf av
Ã¼r z
Ġent fern
Ġ195 0
ch an
ure d
Ġre pr
ĠK ind
ag n
b ank
Ġc m
Ġn Ã¶rd
ĠO ne
Par ameter
Ġdown load
- ,
ĠF C
g ing
Ġac ross
Ġof ten
ĠK in
Ġp lease
fl uss
ĠK ant
Ġbeg inn
ĠA uÃŁer
ĠB rit
Ġpr ivate
unn ing
ĠL og
ĠM el
ĠAn geb
on a
Ġgegen Ã¼ber
T r
ck s
ak ter
ĠW al
Ġ8 0
Ġin tegr
Ġm acht
ic o
ene f
Ġc los
ic ks
ĠF Ã¼hr
ber ger
a pt
Ġl im
w eit
ĠT op
an de
ge gen
ĠDeutsch e
Ġent ry
anst alt
" )
S S
it ze
pp er
Ġim age
Ġagain st
an ien
8 5
in i
ĠO t
ĠProdu kt
O ut
Ġsch wer
ktion en
A D
Ġd ist
ran ken
ĠL ang
E ine
Ġal ready
k o
n ull
ich ter
tel s
M ethod
ĠT Ã¼r
ĠK ol
8 9
B r
Ġp ubl
ol oge
Ġins besondere
w Ã¤r
es ted
Ġst at
Con fig
Ġwicht ig
ĠLeip zig
Ġo cc
i od
m el
ĠIn nen
ĠB ilder
ĠF rei
Ġwh y
ĠLe hr
Ġp ot
Ġvor hand
ĠFuÃŁball spieler
Ġn ight
ĠMe hr
Ġso cial
ĠBeg inn
Res ult
Ġmo der
ĠH in
og n
ĠTh ese
h an
ĠRober t
Ġs ide
ak en
ĠK reuz
op y
shall er
itÃ¤ ts
Ġz eit
ĠNor den
isten er
, âĢĿ
fahr t
Ġwen ig
Ġe ver
f red
id d
om an
Ġbes ten
od es
Ġgeb oren
s c
Ġm oney
iv ely
Ġe lement
Ġgemein sam
ĠSch ule
ĠZ ur
č ĊĠĠĠ
Ġo ber
he ther
a ders
ĠS ub
ĠB aum
ian s
age d
Ġto ol
ag t
Ġm akes
deut ung
ich en
A pp
ĠW es
Ġpres ent
ar en
ĠSt art
ann el
St and
ĠProf essor
Ġp osition
Ġcom b
ĠPf arr
om et
ĠI OException
ver kehr
yn ch
D F
g ruppe
Ġh aving
co ver
Ġv ol
Ġinst all
an o
Ġe lect
iv at
Ġcol or
ut zen
ĠK ompon
ĠSch utz
ĠK ur
ĠR ichtung
ĠM ap
ĠZ eich
ĠWeltk rieg
Ġ Ã¤
ern en
ĠC oun
itÃ¤ ten
ĠSel bst
I M
ĠAut or
ĠSt ate
Ġb it
ir at
ein en
ord in
w ald
lÃ¤ uf
je kte
il ities
ide os
Ġprofession al
r ist
Ġzw ar
igen schaft
ĠMin ister
s ide
Ġind ustry
ĠK unden
Ġhin aus
Mar shaller
ĠAm t
Ġindivid u
N ull
Ġo p
ĠH a
Ġfor t
Ġqu ick
Ġsow ohl
V or
ĠK ilometer
ĠA ben
t ype
ac y
ĠReg ie
Ġet c
4 2
b est
Ġin sp
Ġzw eite
ĠT V
ĠH en
Ġver kauf
Ġcoun try
ent wick
Ġar ch
ĠM aterial
ĠT est
ho ck
Ġsever al
ĠVer fÃ¼g
Ã¼ f
ic ation
ab les
ĠM os
Ġer klÃ¤r
Ġme et
ym n
Ġcom es
Ġze hn
Ġs ource
ct ive
Ġw ind
B au
ĠAr ray
Ã¶r t
ĠMann schaft
le f
Ġgen au
S pe
Ġbec ome
Ġle d
O S
rif ten
Ġn ieder
Ġsh are
FuÃŁball spieler
ĠW ieder
ord nung
Ġpr ice
v olution
Ġn ord
F rom
as tr
Ġver st
ip l
Or t
z ir
Ġz usÃ¤tz
ĠSt Ã¤d
ic ro
am ens
< ?
D ate
im a
ĠPro gramm
pr int
ĠH ers
Ġr ule
Ġ198 7
ĠDav id
Man ager
stell ungen
Ġm aj
ĠM il
ĠGer man
sch lag
B C
ĠBo den
Ġemp loy
ĠMot or
ĠK lasse
em in
c ent
ĠVer kehr
Ġus er
tocol Marshaller
in ge
ĠR ock
Ġ198 6
ca dem
ĠMet hode
ĠBes uch
l ast
ĠIn sel
ĠB ur
Ġt imes
or gen
ĠIt alien
ĠV ier
Ġsie he
En t
h ip
l as
Ã¼r t
j et
ĠB is
be k
ge hen
Ġan geb
L and
ar ed
Ġan s
Ġspec ific
ĠVor s
ĠL es
.. ..
ern er
ĠD ruck
ĠG eld
Inst ance
Ġse ason
Ch ar
Ġerne ut
8 6
b u
z ess
Ġd one
le b
row n
fÃ¼hr er
Ġeigen e
Te xt
m on
Ġfrien d
Ġst yle
an zen
al ys
ĠThe ma
Ġb lieb
ĠD enk
ant wort
Ġ198 5
Ġl ow
4 3
ĠW hen
Ġun til
ĠSta at
Ġy oung
la den
an ks
qu e
O ption
uf act
an ies
Ġc amp
For mat
Ġl ink
Ġn ichts
ĠL ou
ĠCl ub
Ġre port
Ġihn en
alif orn
p reis
Ġb lack
te mp
Ġn ahe
EN T
ĠSch iff
Ġgew Ã¤hlt
ĠW eiter
ist ische
ompon ent
Ġdesign ed
Ġprov ides
s etzt
Ġh Ã¶ch
ir chen
Ġso zial
b Ã¼
if fe
ĠPar tei
zie h
ĠverÃ¶ffentlich t
Ġd re
Ġgo vern
Ġre p
c ol
Ġre gel
5 5
Ġ197 2
Ġex ec
Ġh erv
ĠH or
Ġal ten
ĠD el
ach ten
ĠD ate
ĠOlymp ischen
mit t
land s
Ġwechsel te
och e
Ġstud y
ĠR ot
ein t
ict ion
Ġmod el
un sch
Ġun ique
Ut ils
re icht
ĠN etz
h as
Ġ198 4
ĠV e
Ġge lang
tr itt
bar en
fl Ã¤che
en ze
ĠSp iele
Ġw oll
Ã¤n den
ĠM ore
Ġm om
ym bol
I L
schul lehrer
in ed
Ġmember s
Ĥ ¬
arbeit en
Ġcal led
s erv
empl ate
il nehmer
Ã¤ch lich
Ġl iving
ag ing
ĠAn zahl
ang es
Ġres ource
ium s
U r
iz iert
ĠReg ierung
verb and
C omp
ĠSt ar
ĠD own
led ge
' ll
Ġph ys
Ġw ahr
put Stream
olit ik
Ġb enef
pla ce
Ġeng ine
ĠT al
Ġ9 0
Ġm ass
ĠFl or
h or
. :
Ġ id
Ġin dex
ĠSch Ã¼ler
zeich en
ges etz
Ġget ting
Ġstar ted
d i
sp rach
s ub
cri pt
Ġd aher
f asst
p iele
de b
ck t
Ġge ben
Ġor iginal
te id
ell ing
Er ror
ĠS and
um ents
ĠF ernseh
ab hÃ¤ng
al z
Ġfrien ds
ĠSÃ¼ den
Ġerfolg reich
ĠK Ã¶rper
ĠZw ischen
mÃ¤ÃŁ ig
ĠO sten
ste lle
M L
ĠChe m
M S
ĠBe deutung
itz t
Ġbe vor
get ragen
Ġkn own
g a
st Ã¼ck
ĠPr ess
Ġw es
ann e
ze uge
ra uch
S eit
ap s
sche iden
v is
Ġm essage
ĠAl ter
hock ey
c ome
Ġbuild ing
Ġbe ispiel
f an
mal e
---- ----
Ġsog ar
h aupt
ĠF ile
ĠW eit
ĠA ber
Ġc lose
Ġth ing
Ġ Ã¤hn
ĠfrÃ¼ her
4 1
ĠB lack
Ã¤hl en
Å ¡
ĠBay ern
ak te
Ġsoll en
7 6
ĠP osition
Ġ3 5
em per
Ġhand elt
Ġst ory
ok al
V on
ĠK urz
ĠArt ikel
Ġmaj or
b are
Ġer g
Ġ7 0
sche ch
E vent
k i
s uch
Ġbest imm
le ction
fe hl
leit ung
Ġw atch
ĠZ entr
Ġbeste hen
ĠC enter
ĠZ um
ibli othe
b an
Ġme ans
Ġbl og
Ġheut igen
ĠS ong
b ung
w asser
eh men
Ġapp ear
8 8
ann ot
mann schaft
ĠSch ne
ute t
Ġen vironment
zeich nungen
Ġtechn ology
Ar gument
em a
Ġth ough
Ġad dress
Ġoff ic
ch ter
rie f
Ġ{ @
form at
++ )
ĠHo use
Ġser ies
h ang
ĠB u
ĠÃ¼ber nahm
Ġc ent
ĠK riegs
ĠColle ge
n ach
ĠAr ten
fol gt
Ġentspre chen
Ġ198 3
Ġvorhand en
ĠI mp
ast ic
C ount
ĠK or
Ġpro blem
ĠAss oci
F ernseh
Ġd ate
al tet
ĠW irtschafts
ain ing
Ġger ade
ynch ron
Ġstr ateg
ar l
ĠA p
rich ten
Ġwen iger
wo od
Ġj oin
n am
iv ision
ger ufen
Ġs tellt
ĠD om
ĠF inal
opp el
a iled
st it
ĠB or
Ã¤ chen
ĠI r
ĠFre und
ĠIl legal
Ġeinges etzt
ĠVerfÃ¼g ung
v est
Ġsie ben
Univers itÃ¤t
ĠTh at
Con ne
Ġp urch
ak er
ĠMit glieder
Ġgef unden
ĠC al
ĠS erv
ĠAuÃŁer dem
B uffer
Ã¤ ischen
ĠCar l
Ġc la
Ġso gen
Ġres ults
ichte te
in dex
ĠE lekt
is c
yn am
Ġem ail
ĠK osten
ĠD at
lan zen
ĠwÃ¼r de
Ġacc ount
st ieg
Ġh ours
ĠG i
ĠR ein
ien s
O L
k r
gesch lossen
rach te
stell t
ĠHil fe
ĠD istr
ĠDe c
c el
Ġw a
Ġ197 4
Ġ197 9
A ccess
âĢ Ķ
weg ung
ok e
ok rat
Ġf it
m as
wo hl
Ġdam als
ĠH alb
Ġfr ont
F A
ay er
s eit
y e
Ġp ie
Ġh inz
ra el
Ġzu dem
wer ke
ettbe werb
Ġzahl reiche
Ġst amm
z a
Ġwel ches
asch inen
im ate
es te
ĠP an
Ġehemal igen
9 6
e ded
ĠV iel
U p
ĠE ing
ist ik
Ġinstance of
ĠV al
ĠAn ton
un e
pe cted
ung sp
Ġrel ations
Ġs en
Ġm iss
Ġr uss
ĠHerz og
Ã¼ ter
b ie
Ġ197 8
ran t
ungs k
ĠOrts teil
ch ar
as il
Ġdeut lich
ĠFe uer
T yp
or ed
I P
ww w
anad a
Ġp ersÃ¶n
ĠG ott
ĠgehÃ¶r en
ĠMit arbeiter
Ġfe ature
ĠG ast
Ver ein
Ã¤us er
ĠS achsen
Ġ ung
Ġp o
ag o
app en
ĠII I
Ġ198 2
Ġ198 1
b s
E igenschaft
, "
Ġerreich te
T rans
e ign
ge geben
ĠErn st
F l
ĠPr es
fra ge
ges ellschaft
Ġbeispiel sweise
ĠJ ack
Ġst ay
x is
l ad
Ġt alk
Ġe ig
ol den
ab y
geb ung
ĠL age
k or
Ġs ett
re ibt
ĠAuf lage
Ġsimp le
Ã¤n gen
Ġh Ã¶
Ġwrit e
Ġcustom ers
Ġerr ichtet
z us
u age
ie ÃŁ
ĠM ad
im s
ĠW esten
Ġre cht
Ġ Âł
er ing
Ġc ode
ĠJ ur
Ġk itchen
ĠZ Ã¼r
Ġgem acht
tem berg
ul a
ĠM ac
C he
ĠN et
ell s
( (
ĠRich ard
Ġwe iÃŁ
ĠMal er
ĠG arten
ĠhÃ¤uf ig
F actory
J ahr
7 7
Ġst ra
tag s
Ġex pl
ct s
ĠEng land
Ġf ur
ad urch
ben e
Ġbie ten
Ġ197 6
ĠB ot
ĠR em
Ġcle ar
id a
ish ing
Ġrequire d
Ġmit t
ar f
Ġs n
Ġf uture
Ġ197 5
ĠM iss
ame ters
Ġvers ion
Ġloc ated
âĢ¦ ]
Ġperform ance
Ġd ien
Ġg re
amer a
Ġdan ach
Ġlie ÃŁ
Ne w
ĠK ateg
Ġdisc uss
Ã¼r d
Ġsom it
c m
Ġtra vel
Ġ(âĢ ł
ul es
we gen
Ġoption s
Ġa cht
ĠGr Ã¼nd
Ġfolgen der
Ġver sch
i j
get Name
es tens
Dies e
Ġw ollen
Ġinclud es
ĠC r
b or
Ġw elt
ĠS a
ĠK auf
Ġer k
Ġcom fort
Ġcomp anies
Ċĉĉĉĉ ĉ
ach ing
n ers
ĠF ort
ĠSie g
ĠBahn hof
ge m
ab in
ĠSie d
Ġ197 3
ĠNÃ¤ he
ĠA G
Ġoff ice
throw s
or den
Ġo thers
ĠL u
geb Ã¤ude
ĠWh at
Ġf ilm
Ġh istory
Ġor ganis
Ġdar unter
Ġw alk
Ġh om
Ġk lass
yn c
il igen
Ġvar ious
an ces
par e
9 8
w ind
il led
ue ck
ĠG od
Ġletz te
I G
ĠP rem
Ġent hÃ¤lt
ĠD res
ĠE hren
Ġcl ick
W elt
Â ²
it a
Ġd at
ĠT ab
ĠAl le
c urrent
Ġman agement
itu ation
L o
la ger
Ġ197 7
el ten
Ġp ur
i ra
Ġh ost
air s
ĠSer ie
m ost
ĠE v
ian a
ĠK re
bl ick
Ġear ly
av en
Ġide as
ĠSal z
ĠH af
ist ry
ĠR ang
Ġm eine
an lage
Ġme an
as ing
Ġpop ular
un t
Ġwh ite
Ġ196 8
Ġevery thing
at ors
ĠS aint
b esch
ĠG ot
ĠS on
ur ance
cre ate
ĠMÃ¤n ner
ymn as
6 4
Ġen ough
w es
Ġinv ol
ad s
ĠO ut
Ġr Ã¶m
Ġtra ining
Ã¼h le
Â »
at ers
St atus
ĠB ook
ĠM ass
Ã¶ hn
Ġauth or
G em
G ener
ring en
Ġqu alif
Ġ197 1
iziel le
Ġc ard
g ent
ĠC ommun
Ġdes t
ĠM ill
ain ed
p age
Ã¤ h
op t
ol a
Ġwir k
Ġcolle ction
Ġk ur
id el
S ystem
ĠMed ien
Ġb lock
Ġh uman
ĠK ong
ran ge
Ġer Ã¶ff
che ck
g in
Ġw id
ro t
ĠK opf
Ġgen utzt
O ur
ĠSt at
Ġne ues
Ġd istr
Ġw on
ier ungen
fin ition
0 5
ĠV o
schlieÃŁ lich
ir es
fÃ¤ h
ur ren
ĠL o
ĠVerwalt ungs
ĠM ilitÃ¤r
En d
Deutsch land
20 18
ĠP sych
ĠJ ames
Ġge hen
s eite
ĠZ ust
ail le
ĠAn gel
ĠAm ts
Ġ196 9
> ();
ĠN ow
F e
Å į
ĠS u
ĠB ack
Ġh ttp
ĠÃ¶ st
ĠJohann es
Ġle icht
me e
ĠPart ner
f ried
ĠM ein
Em pty
O ff
Ġan ges
ĠF el
ĠG roup
Ġer reicht
Ġbefin den
M us
ĠS ant
Ã¤t zen
Ġmed ia
Ġtot al
ĠS et
ĠSt ad
br uch
w in
ĠD DR
Ġsch Ã¶n
hand lung
p ol
ĠW as
Ġen erg
ud io
Ġv an
haf t
ci ally
ĠG ruppen
ens ion
Ġt arget
M ed
g ment
ĠA ka
Ġle b
Ġon ce
ib ility
an cial
Ġcomm on
Ġin form
ĠStud ien
ĠVerb indung
B o
or ies
Ġnor mal
Ġs ug
ĠD ay
Ġl ag
ĠBevÃ¶lker ung
Ġc oup
ĠG leich
Ġpro tocolMarshaller
Ġz ie
Ġjed en
Cont ent
Ġlin ks
P ack
U m
ift ung
ĠS telle
ĠR ud
Ġcomp uter
ful ly
Ġ Ð
it i
ĠA k
Ġre por
Ġl ock
he mat
leg te
ge fÃ¼hrt
ze hn
ĠR os
ier ter
val id
ĠI D
I tem
p ark
ĠAus bildung
ĠRe ad
Ġresp ons
Ġzu vor
ĠEr fahr
lÃ¤ ss
i ar
Ġe urop
ĠAn n
ĠGes amt
Ġbe de
ĠLe ague
ide d
Ġmonth s
et ten
ĠC an
pp ing
Ġ4 5
ip le
ient en
Th ere
Ġfun ction
Ã¼ss eld
rol le
aff el
Ġteil weise
Ġd ivers
hr te
Ġle ast
Ġso ftware
P S
1 00
Ġ Å
ĠSt ates
H er
ĠP lat
C all
Ġein igen
Ġsoll ten
oin ts
ik o
Ġreg ion
ĠPol ize
U L
ĠRei he
Ġcontin ue
un ction
Ġb le
Ġrec ommen
fÃ¼ gt
ĠPhil osoph
H och
Ġs end
c is
Ġentstand en
Ġpartic ular
k an
Ġl ik
ĠVors itzen
r uf
z i
ĠG Ã¶
ĠU p
ĠgrÃ¶ÃŁ ten
Ã¼rt temberg
ĠEl tern
f rei
Ġst ru
h il
k le
w rite
Ġg ames
ĠO pen
ou d
Ġnatur al
l ant
am in
ĠT ur
ĠG est
ik on
deck t
un ge
fol gen
IN D
Ġag o
Ã¤d ag
ĠK raft
Ġde al
get S
us st
ĠT on
enn ung
0 1
6 6
ĠOt to
Ġm at
st ate
Ġh ig
ĠE igen
ip ment
Ġcert ain
Ġst ore
ien ces
At tribute
ĠKar r
as ure
Ġin tern
Ã¼l t
Ġabsol v
7 9
Ġb ath
Ġm em
ĠF le
zentr um
im um
aus ch
ĠAustr al
ial og
Con stants
Ġm illion
Ġd etails
ie te
Ġf rei
ĠEr folg
ich e
ik al
on en
it le
ĠL Ã¼
Ã¤t ten
g liche
K on
Ġcom mit
W hen
hl er
ĠPh ys
le men
ĠB aden
ste hen
Ġ5 00
le icht
us ter
ĠD enn
Ġman ufact
ĠBerlin er
Ġw onder
us ive
ĠW issenschaft
ĠFin anz
i ro
Ġg ute
Ã¤t igkeit
ĠDre h
S te
as en
Ġy et
Ġbei de
L ine
os sen
Ġaus gest
ĠBr and
ĠW irk
ĠGemein den
Ġcon stru
Ã¤l fte
jÃ¤hr igen
ĠC amp
Ġakt iv
Ġ(âĢ ŀ
Ġbe teil
af fe
ĠB Ã¶
ĠF Ã¶rder
sp iele
arbeit et
setz ung
Ġapplic ation
o der
le iter
deb ug
e ter
Ġare as
ang s
rit te
geord net
ï ¿
Ġ196 4
Ġerw Ã¤hn
Tra ce
ĠO ct
ĠRe gen
ĠJose ph
ĠB ach
arbeit ung
Ġflo or
ĠAr m
âĢľ )
Ġ196 7
Ġev ents
ĠR ob
ĠR und
oll ar
Ġentfern t
Ġe lekt
ĠPhil ipp
b ro
ĠK ing
ĠEr d
letz t
F F
Ġam az
ho ut
as er
as chen
ith er
ĠMe er
ĠFr Ã¼h
Vers ion
I V
ĠK an
Ġnew s
Ġho he
ĠVerein igten
Ġz og
ĠR oy
ĠV ideo
Ġger ne
ĠF en
f ile
iv il
ï¿ ½
or ted
Ġp lat
ne xt
fl ug
C om
Ġcon text
Ġ[ âĢ¦]
entwick lung
Ġh old
Ġk amen
z we
Ġer m
Ġdoes n
ĠfranzÃ¶s ischen
Ġann oun
W est
ĠT her
Ġc ook
ĠGe ist
ĠUnter stÃ¼tz
C omponent
ann ing
Ġ193 0
Ġd Ã¼r
le ased
sch iff
F r
ĠA v
ĠM ult
C D
ĠS at
Ġin put
bed ing
Ã §
vent ion
meister schaft
Ġfav or
sch t
ger icht
Hand ler
z iert
ĠRe ise
Ġf alls
Ġv ia
Ġst arb
Ġ196 3
Ġdo ing
ĠReich s
w esen
ĠH al
Ã¼ss el
Ġact ually
ĠCh amp
Ġcre ated
la w
ĠGe orge
ĠFl uss
ĠPla y
Ãľ ber
d in
Ġn ode
ĠF ree
ĠS l
ĠMin uten
h ing
C E
Ġ196 5
ĠIn n
Ġiss ues
an ken
ĠW el
Ġby te
Ġ194 4
iz es
ĠB ud
ren g
c il
ĠP o
ĠSch wer
bo x
Ġens ure
ĠT ier
ĠU N
w ord
Ġbr and
Ġh ab
ges etzt
St art
u ed
Ġverb unden
Ġfolgen de
w ill
Ġkein en
Ã¼ll er
T oken
Ġinter ess
em ents
ze ugen
Ġ193 9
ĠSt unden
Aus wahl
ĠnÃ¤ch sten
cre t
ĠJ azz
9 7
ĠA ward
Ġpr im
ĠSp rache
ĠVert rag
Ġquest ions
ĠD och
tr ue
Ġhe iÃŁ
or es
ar tet
Ġr en
le tt
ig lich
ĠW o
Ġin nov
ri x
ra in
Ġpro b
f ix
Ġen ter
Ġ193 3
iden ce
zir ks
Ġg iven
Ġauf genommen
" ;
Ġf ace
ĠSch Ã¶n
Ġgleich en
ĠLin ie
Ġw issenschaft
Ġp ick
ch end
Ġc ir
Ġc ame
we isen
ĠB ig
ĠY our
ĠR at
Ġpr ess
et y
ĠL icht
ĠG re
Ġ19 20
Ġzur ueck
č ĊĠĠĠĠĠĠĠĠĠĠĠĠĠĠĠ
Ġd ir
ĠP lease
Ġ196 6
Ġlat est
an ger
Ġe conom
Ġde p
Ġherv or
s ie
8 7
Ã¼ st
r am
ĠB und
tr ieb
gr am
Ġ193 8
Ġstr ong
Ġs tellen
W enn
s b
ĠK ampf
Ġst aff
or a
i w
t est
ĠB al
Ġentwick elt
Ġth ought
ĠSe c
Ġto ur
ibliothe k
Ġloc ation
leit et
ĠI d
ĠL at
ĠHer aus
arr iere
ĠVers ion
0 9
O G
Ġs il
f Ã¼r
g round
ed en
at iv
ig ungs
k el
ĠSpiel en
ĠStre cke
G es
es ent
ĠD eb
Ġj apan
ĠMa ÃŁ
Mod el
d t
Ã¼ cht
d ien
ĠNach dem
ĠSchw arz
g ere
Ġpr int
ĠFol gen
ĠKarr iere
Ġa ch
Ġs ays
it ar
Ġm ap
ĠHer ren
ele br
ĠEnerg ie
ĠW ash
Ġe her
imm ung
Ġcl ient
Ġdam al
Ġhe art
Ġunter stÃ¼tz
P E
c ase
ĠC ent
fall en
Ġnet work
Ġto ok
Ġ ill
Ġa ge
ĠA fter
. -
ĠA re
ic ated
Ġmin utes
mar kt
Ġab ove
Ġex t
ĠD ach
ĠHer mann
ĠJun e
ĠGo ogle
Ġnach dem
ĠauÃŁer dem
zeit en
0 6
ĠA cc
ĠA uÃŁen
Ġspiel en
z z
Ġdid n
ĠBas is
Ġv eh
stre cke
Ġam ong
A B
av y
ĠDam it
Ġad min
Ġass ist
v ing
Ġf ert
Ġf ive
ell ow
Ġfol gte
istr ation
. <
ĠP et
Ġver lie
Â °
Ġt aking
us ion
ĠUn ion
be zirk
ĠPro ble
Ġper iod
Ġ195 6
Argument Exception
p ass
com ing
ter m
ĠArray List
ĠN ie
9 3
ĠMus ic
S ource
ch ester
ĠA ct
ĠF uÃŁ
ĠF ace
G B
Ã¤ te
ĠE U
Ġk ont
Ġf und
il ar
Ġat tra
ograph y
ĠD ann
Ġfr Ã¼h
Ġpre vious
ĠA uss
ell ent
ĠGe f
Ġ196 1
ĠI ll
ĠZÃ¼r ich
al a
ĠFra gen
8 4
n o
Ġd ue
Ġw ide
le cht
ĠM ess
Ġcurrent ly
isse ur
Ġw ww
ĠWer ke
C hr
Ġs ystems
Ġal t
Ġchar acter
Ġhapp en
T able
Å Ĥ
ĠÂ «
ĠL ong
Ġ196 2
Ġ194 0
ĠDies es
Ã¼ ste
ĠBru der
te cted
Ġf urn
ĠK ons
ĊĠĠĠĠĠĠĠĠĠĠĠĠĠĠĠĠĠĠĠĠĠĠĠĠĠĠĠĠĠĠĠĠ ĠĠĠĠĠĠĠĠĠĠĠĠĠĠĠĠ
an gel
Ġw Ã¤re
Ġup date
P age
bo ard
Ġd iff
neh m
he ad
ieren den
aup ts
Ġh ope
Ġex ten
ĠSp ring
Ġstell te
it ure
ap ter
Ġad ded
Ġre ason
Ġpr iv
0 7
ĠRe cht
hal te
Ġknow ledge
Ġge legen
fass ung
l ern
or te
ĠS in
it ts
Ġa ction
rit z
Ġm m
ach ed
Ġbest and
Ġb ase
Ġl ength
Ã¼s se
Ġho hen
Ne xt
sp ect
Ġeben so
k ret
ed ule
Ġ3 2
ĠW ebs
ĠU K
f ar
Ġvoll stÃ¤nd
gen cy
am ed
ĠE lement
ĠJ es
ĠLe g
Ġsome one
ĠBes itz
ĠFir ma
f ten
Ġre chts
ition s
ĠHann over
ĠB ill
Ġse en
tt y
y a
Ġa merikan
ĠAus wahl
ge hend
Ã¶ ll
olog ische
ĠL aw
if en
ĠAn ge
Ġmehr eren
ĠFrie d
ĠÂł ĠÂł
Gem ein
Ġb ad
sch ung
ĠFra ge
T Y
f il
ich ert
Ġc as
0 8
H ol
Ã¶r m
Ġcho ose
o on
Ġcomp et
Ġgew esen
Ġer reichen
Ġne g
ĠHow ever
ĠEngl ish
ĠnatÃ¼r lich
N umber
d am
Ġbo x
zie hung
Imp l
ĠD Ã¼sseld
Ġpartic ip
Ã¶ ne
aler ie
ĠDres den
Ġp an
c ement
ig r
Ġspe ziel
Ġrest aur
w irk
l im
rÃ¤ ge
Ġre d
In t
ĠGes und
ĠPolit ik
w al
ĠA ugen
w art
iz er
Ġra d
ame ister
ĠKont akt
Ġs at
ĠB usiness
ail y
Â ®
ĠH Ã¤lfte
ac es
Ġ195 8
Ġb i
par te
end s
ĠM r
ĠVer gleich
ĠNach t
AM E
ĠmÃ¶ch te
Ġne hmen
Ã¤d chen
ĠAssoci ation
ĠS yn
ĠThe men
Ġdar Ã¼ber
ĠWill iam
ĠI hren
ĠW ol
I s
rie ges
Ġread ing
O per
k und
l iste
olog ical
Ġvers te
Ġp orn
ĠF ig
Ġwh ole
be ck
Ġd igital
fol ger
ĠS old
ĠF und
pp en
ĠP op
ze igt
ĠMe x
Ġer ster
ĠSt Ã¼ck
tr ie
Ġread y
v on
ĠK rit
Ã¤nd ig
u hr
Ġne eded
Ġben Ã¶t
Ġprovide d
0 2
Ġver m
ĠÃ¼ber n
Ġmach te
ĠKl oster
as te
ĠW and
Ġaut om
Ġse par
Ġunser en
Ġwrit ing
Ġevery one
ĠWind ows
ĠAka demie
ĠK omm
if fen
ad a
hal ts
bet rieb
0 3
ĠMar ch
Ge ographie
Ġhal f
U til
k ap
Ġh ot
ra chen
Ġal te
ĠRe publik
Ġerh Ã¤lt
ĠkÃ¶nn te
ĠPr ivat
b um
ĠfÃ¼hr en
z ip
Ġ194 8
Ġp aper
ĠC la
\\\\\\\\\\\\\\\\\\\\\\\\\\\\\\\\ \\\\\\\\\\\\\\\\\\\\\\\\\\\\\\\\
E X
Ġkosten los
M A
Ġf ire
ub s
ade d
ĠDown load
Ġaus gew
ĠNew s
Ġgovern ment
t c
ĠAmer ica
==== ====
b ark
Ã¤nder t
Ġenerg y
u a
or der
ĠU s
me hr
ĠGr and
Ar ch
Ġt w
Ġfin ally
Ġihr es
ĠUnter such
g y
t d
Ã¤ch s
ĠStand ard
w a
end es
Ġsel f
Ġsec urity
is es
ĠR Ã¤
P ol
S E
h ib
ad y
all ow
lie d
etz en
Ġwirk lich
B ut
w esten
Ġpro ble
Ġc ount
Ġsel ten
c ul
Ġf ra
ro ffen
Ġze igen
Ġ194 6
ĠAlex ander
ĠB on
ter e
ran g
Ġex ample
Ġ195 2
Ġgeb aut
p lat
ĠSt ru
Ġph one
Ġwoll te
ĠProdu ktion
v in
S P
ĠEr sten
] .
b Ã¼rger
ĠÃĸ ff
final e
ĠM ath
ĠW ider
ĠV is
N ames
Ġo ben
Ġrec ord
Ġgemein s
= "
ĠTe ile
Ġson st
anst altung
Ġl ater
est s
ĠJe an
Ġtro tz
ĠWolf gang
ĠM ond
alys is
st ring
in fo
Ġb esser
ur al
ĠW ild
P er
Ġ( =
Ġsch rieb
Ġar r
Ġunser em
ĠM ount
an ischen
Ġr ate
g as
l ist
en ces
ie ten
iv ity
ĠAn g
e kt
ĠW alter
ct ors
ĠZu dem
Ġs le
Ġf oot
6 8
Ġde b
ĠL Ã¶
ĠW all
S port
he t
hÃ¤lt nis
Ġm er
ĠI T
ĠRe al
h y
w issen
Ġt un
osp ital
n es
ĠK och
Ġde fault
Ġch allen
sch riften
Ġc ra
tr ies
zeug t
âĢ ĺ
Ġsetz te
ĠB all
9 4
U ser
ran sp
Ġ195 9
Ġactiv ities
iz ing
er in
Ġit ems
P art
ĠL eiter
ĠR en
Ġtra ck
b ra
r ess
ig ner
Col umn
ĠP unkte
Ä į
d f
s m
le cted
ĠBÃ¼rger meister
wie gend
ĠWash ington
Ġp sych
Ġst re
v ey
Ġhe ld
Ġf ul
il det
ĠH ere
ĠSch e
ot o
lie ben
Ġeduc ation
L A
ĠSt ock
Pro du
wh ere
rÃ¤ fte
mar shall
9 2
Ġs ens
Ġver ein
gel n
ĠEx per
Ġent ire
ĠC am
Ġass oci
Ġs ale
ĠL oc
Ġmark eting
A ss
ĠE t
An y
, ,
c omp
âĢ ŀ
ĠArbeit en
ĠErgeb nis
if ier
hl t
p ack
Ġp ain
ĠR iver
ĠSt il
Ġcl ients
re ten
Ġ195 3
Ġstor age
Ġsk ills
ot te
os ph
ges tell
Ġstud ent
ĠJ ac
Ġthroug hout
Ġz erst
end ing
Q L
Ġbu ilt
ĠL Ã¤nge
ad o
idd le
ĠLou is
Ġc annot
ĠI st
g arten
ĠursprÃ¼n glich
ĠAl bert
aun ch
> (
get C
lin ie
Ġsp ielt
les en
Ġto wn
ne ter
ann er
ĠOr iginal
c ast
Ġreg ul
techn ik
T H
T R
Ġw ent
ĠP il
af r
ĠPr inz
lichkeit en
Ġer z
ĊĠĠĠĠĠĠĠĠĠĠĠĠĠĠĠĠĠĠĠĠĠĠĠĠ ĠĠĠĠĠĠĠ
Ġv ari
ĠB us
ab ase
Ġ195 4
Ġw ohn
Pro v
ĠW ahr
ĠV oll
Ġ3 6
ash ion
Ġreg ister
wert ung
as ten
Ġ194 3
ĠA st
Ġsie ht
Ġro le
S D
Ġ195 5
piel t
i pe
Ġ194 9
Ġaktu ellen
Ġs ales
Ġan schlieÃŁend
Ġfin anz
Ġvar iety
ĠInstit ut
B IND
ĠT om
ak a
ĠP ublik
Ġent halten
or ten
ĠS ing
v o
Ġim ages
ver age
ĠPf lanzen
so zial
ĠIllegal ArgumentException
ĠZu ge
ĠL im
Ġbesch Ã¤ft
T rÃ¤ger
is ted
ĠD oppel
Ġstand ard
au ern
Ġopportun ity
ĠD okument
ĠLie be
Ġk athol
ĠEn ts
ĠBay er
g or
ch ange
Ġe p
ver walt
ĠLe hrer
F ilter
Ġk ennen
Ġso fort
lan gen
olog ischen
Te ilnehmer
y ear
R el
ir th
do or
Ġlead ing
ot a
ite te
ĠForsch ungs
Ġt akes
lin ge
BIND ING
Ġco ol
Ġfur ther
S V
le ted
ĠBl ick
Ġcustom er
Ġval id
Ex ec
Ġplan s
ĠWien er
Ġeinzel nen
ĠMan agement
id t
Ġus ers
ĠAut o
e ks
Ġ ut
ĠG reen
gel Ã¶st
dr esse
H el
Ġweiter hin
ask et
Ġamaz ing
N o
r unde
rie ch
Qu ery
ĠUm welt
Ver lag
ĠAben d
Ġbes uchte
Ġt ax
ir ate
ĠGr Ã¶ÃŁe
Ġm obile
ĠH an
Ġpar ts
ĠIs land
on ie
an ted
st a
Ġ195 7
ĠH essen
ĠL os
ĠL ive
ĠC our
L istener
Ġal most
pe cially
az on
Ġge d
Ġbes itzt
ĠBr on
ĠGes etz
ĠP C
ic kt
em b
Ġl on
Re c
Ġh air
Ġun ver
ĠAr mee
par ed
ĠDan ach
a ktion
ĠH is
b aum
d ung
Ċ ĊĠĠĠĠĠĠĠĠĠĠĠĠĠĠĠ
Ġd ritten
Ġs ing
ĠT emp
ĠG al
ĠG as
k athol
l ier
er o
Ġup d
ĠGeb urt
Ġt aken
ĠF rom
se hen
Ġex ception
k reuz
In ner
ĠStud ium
Ġlearn ing
G et
9 1
Ġ Ã¼
Ġs ong
ic les
ĠR a
ho use
Ġw hether
ĠS Ã¤
D ire
it sch
ĠL iga
ĠR unde
Ġe ither
ĠW ort
Ġg lobal
end ar
Ġit em
ĠBe k
ĠKon z
ĠEnt scheid
ĠSoc iety
ĠEurope an
l Ã¶sung
Ġm ove
st art
Ġs we
Ġe uch
ĠheiÃŁ t
Ġl iter
un ch
Ã¼ ge
Ġst ream
ĠNach bar
Ġqu ite
Ġins ide
Ġrec ently
ĠC up
Ġne un
Ġsh ows
van gel
ĠK ranken
ĠUnterstÃ¼tz ung
ou ver
Ġver he
ibr ary
d ata
Ġsimp ly
ĠSil ber
m ission
ĠN icht
S C
om s
ĠO f
Ġrec ent
ĠEisen bahn
irat et
ĠS Ã¤nger
ĠP unkt
teil en
7 2
ĠA cadem
ĠK al
ĠT ages
ĠF ern
ĠSh ow
M in
Ġj Ã¤hr
Ġphot os
ĠC ons
pro chen
orn ing
G ra
q l
at ten
ho ben
Ex pression
ur er
ĠAut om
Ġc elebr
Ġint rodu
Ġindivid ual
or ing
ĠHe alth
Ġbil den
Ġappro ach
M y
ond s
Ġinternational en
k arte
ĠS uche
ent ry
Le vel
ĠgrÃ¶ÃŁ te
Ġge geben
Ġ Ã¼b
S upp
ent liche
ix ed
ĠS onder
ĠFace book
Ġest abl
Ċ ĊĠĠĠĠĠ
Ġwel cher
Ġide a
ĠK lass
Ã¶ sen
Ġopt im
ĠOr d
cl ient
Ġproble ms
uf e
pro tected
Ġbel ieve
ĠBe griff
anden burg
re ise
ĠP DF
Ġbe deut
iqu es
i ÃŁen
sch uss
Ġ3 00
gr enz
ic ate
ers eits
icher ung
Z u
or ien
ot ion
wohn ern
ĠStre et
ĠIndustr ie
Ġble ibt
m und
Ġex pect
ĠRest aur
gen de
fer enz
ĠR and
ĠJ ob
L ength
Ġt c
ĠMar c
ĠIm m
b ase
Ġw ays
ĠIn c
ĠGl as
ĠBrit ish
Ġstamm t
F I
i h
i ally
l ers
Ġrelat ed
f Ã¤l
O D
Ġer ziel
au ber
Ġj Ã¼n
Ġje de
ĠKÃ¶nig reich
Ġdec or
8 2
Ġs ession
ĠSt amm
Ġmitt ler
x y
Ġso on
Ġfin ancial
ĠSte uer
ĠBl Ã¼
Ġconc ern
in den
Ġd et
Ġany thing
ste ad
T V
z og
ĠI hrer
Ġcom mer
Ġcomp on
Ġpart y
6 7
Ġp ark
ĠC ap
ĠO s
Ġje dem
ĠComp any
b ischof
gen er
Ġam ount
St at
Ġtyp es
Ġquest ion
setz en
ĠB il
ĠKateg orie
S ON
re quest
ieren de
ĠS ingle
Ġun ivers
ĠSp rach
Ġsign ific
Ġpra kt
ĠU R
C olle
ist ent
ĠSt rom
unter nehmen
Ġbed room
ĠF irst
Ġerh Ã¶
richt ungen
ĠMod ell
Ã¼r k
th ough
ĠUm gebung
V iew
Ġv o
ĠAuf trag
Ġprov iding
Ġben annt
Ġequ ipment
ĠÃ¶sterreich ischer
h ab
s a
Ġres ources
Ġhapp y
0 4
F rau
Ġbe ein
abr ik
er ror
ab eth
Ġehemal ige
Fernseh serie
Ġeig entlich
Ġbes onder
Ġev angel
Ġer folgt
Ġ- -
O M
aliforn ia
pr Ã¤sident
Ġ194 1
Ġpre tty
5 7
te in
Ġk aum
Ġrece ive
N ational
ĠG Ã¤
ĠPr Ã¤
L ink
Ġd ur
Ã¤t ter
fahr er
Ġgener al
Ġp aint
Ġes pecially
Pack age
ĠHe im
se qu
ĠAngeb ot
Ã ¢
ur a
Ġ194 2
z uf
ĠP orn
erv e
ĠerwÃ¤hn t
is Empty
ide t
v a
Ar t
Ġfl ow
Conne ction
u it
ĠS n
Ġal tern
Ġ194 7
Ġeinz ige
or ia
ĠCh or
Ġapp ly
ĠVerein s
ĠsÃ¼d lich
5 6
ut her
au b
Ġste p
Ġs ave
ĠEr k
ĠZentr um
f amil
Ġd ocument
Ġk ids
halt ung
trib utes
g al
k unde
Ġz uf
ud es
spr uch
Ġne cess
Ġpict ures
f alen
r hein
ĠSc ience
at iven
ĠEx ception
Ã¤ cht
Ġp oss
Ġne uer
mer k
Ġâ Ĥ¬
ĠKant on
E d
if iz
Ġpos ted
ĠA th
ĠL ied
ĠZeit schrift
ĠH y
ell o
ĠBe zirk
Ġart icle
ang ing
ĠAb s
ca pe
Ġbil det
A cc
Ġeas ily
T ag
ist ic
Ġ );
ir it
ĠN ik
Ġum fasst
Ġacc ording
ĠF arb
Ġfor mat
Ã³ n
ĠL ink
ĠBr un
Ã¤hl te
Ġn ice
Ġst op
ĠVert re
Ġpat tern
u ary
Ġd raw
is ierte
te ten
ad ata
la f
Ġpar ent
ĠRec ords
Ġf all
ĠZusammen arbeit
Ġabsolv ierte
V D
ĠI N
ĠH Ã¶r
ĠFest ival
st ud
M ail
r c
ĠN ur
ĠWh ite
ĠT w
ĠK ey
Ġmind estens
S etzt
ĠD isk
ĠT at
Ġb ud
8 3
i est
Ġc enter
ĠT ime
ed ia
ĠW ed
Ġbe ge
Ġcon tra
Ġind ustr
wissenschaft ler
ĠE ast
ĠAn schluss
ĠVer Ã¶ffentlich
Ġkn app
Ġdr ive
Ġex tens
yste me
Ã¡ n
Ġch em
O P
u ell
ig in
j ust
Ġd og
at tet
Ġh on
Ġb al
ĠSch le
p hen
ĠS ur
Ġval ues
ho od
ĠPar te
ĠMed izin
ĠverÃ¶ffentlich te
ĠgrÃ¼n dete
l it
ĠS ign
ĠAr n
p i
ĠC re
ay out
ĠNach folger
Ġrece ived
Ġs ites
Ġb us
st att
hr t
In teger
Ð ¾
Ġw ord
Ġ195 1
De finition
Ġbook s
Ġinclude d
Ġin fl
ĠI P
Ġ+ =
Ġreg ular
ĠS ar
sch lÃ¤
ĠBe zeichnung
ĠInstit ute
u hl
ĠT own
Ġz ust
ill ing
Ġso und
ill en
Ġdar f
Ġverl oren
Ġmom ent
ĠDÃ¼sseld orf
5 00
ĠIn vest
T ask
h ers
ie ur
ĠC ms
Ġver fÃ¼g
zw ischen
astr u
Ġs ix
Ġb lo
Ġc ur
Ġzu ge
ĠGot tes
Ġt ransport
Ġsaf e
Ġtreat ment
ĠServ ices
Ġwar m
7 4
de pend
Ġpr Ã¤sent
ĠM Ã¼ller
ĠZ immer
unk ten
ĠS omm
st ar
st aat
Ġgleich zeitig
Ġide al
Ġaddition al
U E
p ath
ess el
Ġsel ben
fr astru
Ġpict ure
ist in
g ten
ĠL eitung
S I
t itel
uch ten
Ġm Ã¶
Ġge k
Ã¼n ft
Ġgesch lossen
Ġproject s
p oint
Ġp aar
ĠAb schluss
Ġvor her
ĠReg ierungs
Ġn immt
Ġper cent
p ted
ren ch
Ġdis play
f Ã¶rm
ĠS ow
ĠK laus
Ċĉĉĉĉ ĉĉ
Ġausge zeichnet
5 3
ĠK er
ien d
Ġex pert
Pro perties
ĠRel ig
ĠFen ster
p aper
ĠJ ung
ĠChar les
ĠL ake
ĠV ir
ĠOr gan
ĠStadt teil
Ġs b
Con figuration
ĠT im
Ð °
and a
Re ference
c ies
ie ÃŁen
Ent ity
Ġt erm
ĠS upp
ĠAl so
J ob
ĠTeil nehmer
lic ation
b us
ĠB d
ĠL Ã¤nder
Ġho tel
spiel en
Ġg anze
Ġ193 6
Ġsol utions
Ġf anden
Ã¤ ten
ed s
sch au
Ġre lig
Ġver k
ĠnÃ¶rd lich
8 1
w ell
w ner
ĠW oche
Ġbet rÃ¤gt
Ġs etzt
ĠS tern
Ġde f
D a
ĠM as
ist an
Ġch anges
Ġsub ject
Ġde g
Ġled iglich
ĠDenk mal
ĠOct ober
m ap
Ġ193 4
Ġexc ellent
cont ains
U M
Ġpract ice
A uch
zen e
Ġbek ommen
Ġbeginn t
ĠH art
ĠH aut
ot or
Ġr unning
20 19
Ġprodu ction
Ġs od
ĠM Ã¤dchen
Ġsp ort
Ġsc reen
ĠJul y
Ġcho ice
Ġs ummer
ĠD ipl
Ġs qu
Ġb ott
Ġpol n
ĠComp uter
ĠT ype
ĠR Ã¶
asch ine
Ġfavor ite
Ġext rem
ĠD azu
Ġto uch
ĠAndre as
Ur l
d own
um in
isch em
D urch
ĠK olle
ĠH D
ug h
Ġcoup le
O ne
ber e
lei ben
ymnas ium
** **
h i
Ġp ool
Ġh alten
Ġcom ing
org ung
ar ge
ic ult
Ġst ock
ah nen
Ġj Ã¼d
Ġbring en
mus ik
ĠGrÃ¼nd ung
sp ro
g u
ĠG ut
Ġdes cription
Ġoff iziel
Ġges tellt
ĠGra b
5 9
D at
w an
Ġc ause
Ġer ror
ĠIs rael
l ament
Ġout side
ĠGr enze
ĠF eder
ĠTra dition
ĠPres ident
ĠRoy al
ro id
Ġsk in
aug h
Ã¤r k
ĠInd ia
Ġiss ue
ĠF ass
Ġgesam te
ĠĠĠĠĉ ĠĠĠ
bark eit
Ġer he
Ġarbeit en
ĠSchl acht
irate te
Ġb em
ĠVer wendung
ĠW ell
Ġw anted
ĠC alifornia
Ġall ows
rei he
k y
m o
Ċ Ċĉĉ
č Ċĉĉĉ
Ġd ig
Ġyour self
jÃ¤hr ige
te x
aus t
ick et
ĠKÃ¶nig s
Ġern annt
Ġan z
ad el
Ġme eting
ĠEx p
ĠBes te
Me ter
ĠSt affel
6 3
Ġb ald
ĠA ch
Ġmit tel
att le
Ġt old
Ġth ird
Ġk aufen
ĠZeit punkt
ĠPol en
Ġmed ical
Ġprogr ams
ĠV ict
ag te
Ġpro perties
Ġsch loss
ian o
Ġgew orden
at ory
tr at
Ġwer de
ind ungen
chn et
Ġrem ove
ĠAkt iv
7 1
M ark
Ä ģ
ĠE th
ĠKir ch
Ġ> =
a ign
ĠK ern
ind est
Ġcor re
Ġst ammen
Ġeff ic
fra u
ĠVerkehr s
Ġc y
Ġpolit ischen
Ġinit ial
Ġz entr
Ã¼hr en
ĠWe ise
ĠM em
ĠAn na
Ġtry ing
lau ben
ie gen
Ġg round
Ġdis cover
Ġlang uage
ĠhÃ¶ her
B A
id th
ime ter
D is
ĠS PD
Ġinsp ir
Ġplat form
R ule
d om
ĠA ust
Ã¼r n
Ġfr esh
Ġ193 7
l ingen
Ġt ell
ĠSo ftware
ir ch
Ġwe eks
ĠPro blem
Ġsim ilar
rÃ¤ s
Ġconne ction
w ir
ĠS ome
ig ungen
Ġber eit
rem ove
5 4
P oint
d aten
ĠW ander
Ġ1 000
ĠAn s
meister schaften
in sel
ic ago
Ã¤d t
ipp ing
h istor
t schaft
ĠT ruppen
Ġum fass
L S
b ased
o den
Ġerm Ã¶glich
M ax
Ġm el
Hoch schullehrer
Ġsignific ant
5 2
P ort
Ċ ĠĠĠĠ
Ġd ra
Ġ- >
St ra
Ġd adurch
denk mal
Ġdiff icult
Ġo il
ĠR un
ipp ed
zie hen
Ġrepr esent
end orf
Ġimp act
d k
ĠD igital
Ġdes cr
Ġ193 5
W ie
ĠS onn
ĠH om
Ġver d
ahr en
ie fer
Ġf il
ĊĠĠĠĠĠĠĠĠ ĠĠĠĠĠ
ĠProdu kte
y es
Ġd oc
ĠR itter
Ġ4 00
rei ber
Ġb leiben
ĠJose f
Ġ row
ĠÃ¤l tes
ĠOff izielle
ĠUnternehmen s
ĠfranzÃ¶s ischer
ĠH u
Ġans wer
Ġre fer
Ġfor ward
Ġzu letzt
H T
M on
ver fahren
ath let
Ġwo od
ĠPerson al
Ġm atter
ĠE ss
ess ages
ĠAus gabe
Ġsl ow
ĠSicher heit
g le
z Ã¤hl
ap ie
Ġex act
Ġser ver
ĠRud olf
Ġm aint
ĠT enn
ĠW ies
we chs
end ung
Ġse em
20 17
ĠQu alif
ĠFar be
ĠMat hemat
ph one
s ystem
Ġs ent
Ġse lect
get Message
Ġgra ph
C ms
ĠK u
Ġl aut
Ã¶ p
ik i
P f
or gt
ĠS und
ĠB onn
Ġp ers
ĠU ms
Ġsh op
Ġtra in
m atch
w s
Ġd om
pos it
geord neter
Ġgesam ten
Ġpot ential
<? >
Ġfurn iture
P osition
oun ts
at ely
as c
ĠG ran
ct ing
for schung
Ġins urance
ĠTra iner
ĠChe ck
ĠFot os
P os
Ġemp f
Ġde ep
Ġro ad
ĠZeit ung
ĠInst r
Ã¼f ung
d ire
h le
Ġc ut
Ġre in
Ġrec ogn
k raft
Ã¤hr t
ĠBl ut
anstalt ungen
ar io
ĠM icro
ber eit
ĠVer l
Ġhigh ly
D r
G er
im in
ĠL OG
Ġre lease
Be an
Ad dress
schein lich
wÃ¤r ts
Ġd ich
ĠM aster
Ġus ually
ov ers
ĠPf lege
ĠJ er
Ġlook s
amerikan ische
Ġaktu elle
Ġd ed
hen s
D P
F C
itt ing
Ġsol ution
ĠRes earch
Ġmar shall
inc ip
6 1
on ym
ĠP ower
Ġapplic ations
Ġl ate
Ġis n
Ġ ;
ĠFre ib
ĠSchauspieler in
Ġc aus
An not
ĠInd ian
ĠCar ol
b orn
Ġin tens
Ġle ader
gemein schaft
Ġcol umn
l ong
ĠE vangel
PD F
" ))
g ien
ĠM use
ĠW ork
Ġdo or
ĠMÃ¼n ster
Ġbeh ind
č ĊĠĠĠĠĠ
re chts
Ġrem ov
Ġzahl reichen
Ġwelt weit
7 3
v ol
as y
ad es
vers e
asket ball
Ġin dem
n der
Ġf iles
Ġnot hing
Ġmaterial s
w ith
Ġp oints
ĠE ben
ĠÂ £
b rit
Ġl aunch
W Ã¼rttemberg
n y
Ġwen ige
ĠIntern al
an lagen
or et
ma ÃŁ
ateg ory
ĠFot o
Ġl os
Ġaus schlieÃŁlich
Ġro und
ĠEs sen
aly se
Ġentwick elte
k au
w en
ĠP fer
Ġbel ieb
ĠRad io
Ġricht ig
E O
ĠP ers
Ġbe ach
Ã¤n n
ĠEp is
b is
p ers
im inal
ĠO ption
Ġjed es
Ġprob ably
5 8
A merikan
Ġn utzen
Ġbo ard
Ã¼hl en
ĠNutz ung
F irst
Ġb ere
ĠD Ã©
ĠD ivision
pp ed
ĠÃ¶ff entlichen
H E
Ġt im
Ġh or
Ġ15 0
ĠerÃ¶ff net
Ġbede utet
Ġrecommen d
B ahn
Ġt rÃ¤gt
ass el
ĠDan iel
u elle
Ġc oll
Ã¤n gt
Ġsw itch
app ing
ĠFran cis
ĠMen sch
Ġphot o
ĠFinal e
k unden
ĠS ter
ĠAl ten
alle l
w el
ĠIn teger
ag d
au te
Ġtool s
Ġout put
Ġhow ever
Ġf ig
ĠHer bst
p ret
ĠDe partment
er r
Ġe mer
Ġdes halb
ĠOr ganisation
ĠMar y
reif en
lef on
ie ger
trÃ¤ ge
S U
Ġw ords
ĠS onnen
Ġc opy
Ġange geben
ĠMon ate
Ġf iel
Ġ19 18
Ġst reng
ĠEin fluss
ĠFahr zeug
k ra
ĠT urm
ĠV en
ĠSp r
ĠÃĸ l
. ");
B lock
ĠA c
st Ã¤tte
Ġj ava
leg ung
n itz
Ġst ring
Ġent scheiden
ĠKin dern
ĠSt reit
u he
Ġg old
ist rat
reit et
mittel t
S piel
l n
ĠAuf gaben
fl Ã¤chen
Ġm orning
ib el
ht t
Ġnot wend
ĠHand els
S A
Ġa ud
Ġsch l
As ync
wissen schaften
ĠG ro
Wh at
ĠKompon ist
Â «
Ġ rom
Ã¼ gen
Ã¤ u
ĠD or
ach ts
ĠzusÃ¤tz lich
h op
Ġw in
ĠH ard
Ġreg ard
ĠW ass
Ġgra du
mut lich
K E
ĠI V
Ġsaf ety
Ġquick ly
hil fe
ĠE st
ĠL ife
haf en
ĠfranzÃ¶s ische
wind igkeit
re chen
ĠC le
ĠO k
ĠfrÃ¼ hen
Ġca pt
ĠZ wei
Re ad
Ch ild
p ose
an i
ens ive
Ġincre ase
Ġdev ice
d ar
Ġin fo
ĠK ra
ĠBe zirks
res ult
Ġcondition s
bu ild
k lasse
lie fert
ĠAll er
Ġwrit ten
Ġwall paper
ĠStru ktur
ĠSp anien
Ġpr ior
Ġ193 2
ĠgroÃŁ er
ĠPart y
ĠSomm ers
6 2
Ġcom ment
Ġhand le
Ġ192 8
ĠS V
we ig
ĠBest and
verwalt ung
L ong
d is
st Ã¤nde
ĠM Ã¶
Ġh Ã¤tte
ĠFr iday
ĠSch les
ĠBe im
sw Ã¼rd
T ION
By te
ĠVorsitzen der
em e
ĠĠĠĠĠĠ ĉĉĉĉ
Ġw ed
Ã¤ um
Ġc rit
Ã¶ sterreich
ĠZusammen hang
ĠBen utz
H ow
iz ier
aut or
haus es
Ġlon ger
5 1
Le gt
ĠCol or
Ġoffic ial
ĠS ach
ĠM ur
ul en
ot ing
ĠSt off
Ġr isk
Ġcon fig
ĠSpe zial
oper ation
la y
Ġent w
ĠBo x
vers ion
ĠBeruf s
ar ter
Ġre qu
ĠVol k
ĠM ail
ĠK as
ĠL ager
ab il
pro f
C o
Ġk rit
ĠZ uf
we ile
ĠVer kauf
I ter
Ġs al
Ġver fÃ¼gt
op en
imm el
Ġth er
Ġer forder
Ġun mittel
W ork
in ts
an walt
ĠS icht
ĠM and
ĠD ir
if est
Ġex am
b i
f unk
ð Ł
ĠS atz
ĠO ver
chn ung
Ġalle in
ĠGer ichts
hol z
ic on
ĠStÃ¤d te
Ġdamal igen
ĠunterstÃ¼tz t
n d
se c
Ġ3 3
Ġke hrte
Ċ ĠĠ
Ġ1 20
Ġverhe iratet
T ree
ian ce
Ġany one
k ont
amp les
ĠWei hn
C ache
Ġs ort
Ġg Ã¼nst
Ġl isten
ĠAn gaben
ot es
ri pt
Ġpl ant
Ġpol icy
Ã¤dag og
Ġer setzt
ink el
Ġaktu ell
Ġw oman
Ã¶ ss
ĠEng ine
m ax
on om
Ġh und
ĠL ove
Ġzu g
Ġj unge
Ġjewe iligen
p unkte
Ġd ro
ut ive
ĠE dition
Ġpr ices
Ġph il
Ge grÃ¼ndet
r ug
Ġf lex
ĠH off
mittel n
Ġbef and
Ġmein er
ĠQ ue
R A
Ġv e
ock et
Ġwrit er
Ġklein er
ind ing
lin es
Ġfin ish
rif f
Ġpl us
parte ment
Ġ Î
id ung
Ġw ider
ĠCh urch
tra gen
eld ung
Ġimpro ve
Ġv ideos
st attung
ĠG reat
Ġse ems
Val id
Ġhinz u
f unktion
ĠT it
Ġst ation
Ġhe iratete
ĠLe icht
zeich nis
Ġerschien en
A uth
Ã¼ m
ĠT agen
ber n
Ġl Ã¤nger
Ġgrow th
m esser
Ĩ Ĵ
ic ip
ĠN amens
ĠChrist oph
h inder
re l
hen swÃ¼rd
i i
ĠR et
6 9
", "
ĠGÃ¶ tt
ĠA P
ĠW in
od ing
ks am
ĠZu kunft
zahl en
S ub
ĠM aschinen
ĠV iew
ĠGl Ã¼ck
ĠBre men
er weise
Ġge grÃ¼n
id ae
Ġver z
M atch
ĠJ ud
In d
E G
Ġd unk
Ġg lass
pr Ã¼
' ,
b it
ĠG all
ĠCh in
Ġup on
N AME
o e
Ġs un
und le
atur day
ĠT Ã¤tigkeit
Ġdevelop ed
west lich
p a
ĠL ab
Ġrem ember
E is
Ġl ives
Ser ver
ĠVertre ter
A A
re publik
Ġle bt
Ġsu it
k irchen
Ã¤ llt
ĠP rom
ĠF ield
ĠH ash
Ġzw eit
ect or
Ġtradition al
n amen
v olle
Ġwork ed
Ġpos itive
Ġpie ce
Ġsug gest
is er
Ġb rachte
ĠK enn
Ã¶l f
ĠS y
ĠA f
Ã¼r gen
gew iesen
Ġask ed
ĠSold aten
ĠAcadem y
D eb
ff ic
ĠQu alitÃ¤t
w ide
Ġpurch ase
Ġn ames
Ġre leased
ĠSch lag
ĠAl fred
ĠVor stand
Ġfr ame
ane ben
ĠC at
Ġbrit ischen
ĠBeit rag
Ġful ly
A fter
ĠH on
ĠY ear
Ġt ag
Ġex pla
Ġgesch rieben
Ġeffect ive
g ers
ied lung
ĠHoch schule
Ġregel mÃ¤ÃŁig
pr ise
ĠCh icago
Ġte ach
By tes
ie fe
Ġv ac
we chsel
ho den
ĠB lock
ges ehen
fÃ¼ hl
ĠChar akter
ch em
Ġro t
Ġs ah
Ġb and
ist ics
Ġl ux
Ġdien te
Ġlik ely
Ġd aily
ĠS om
Ã¶ nen
pl ant
ĠmÃ¶ch ten
U s
l or
ĠD amen
ĠP ubl
O ber
g ner
u ert
ĠS C
ĠL et
Ġfor mer
for men
R em
Ġb ank
ig ation
ĠP or
Ġle ave
Ġexten ds
o oth
ĠJ ak
Ġge prÃ¤
ĠNe ub
ikan ischen
ĠStud io
Ã¶st lich
ĠWeit ere
re u
Ġf ail
ĠB ol
ĠT ransport
ĠC y
Ġkl ar
Ġarch ite
Ġdistr ib
ĠD ata
ĠAus stellung
Ġ192 9
b as
i ders
ĠAn schlieÃŁend
lÃ¤ uft
Ġpubl ished
Ġbath room
ĠR ou
ĠN ic
Ġschw arz
Ġwe ight
ĠFar ben
Ġmult iple
Ġ19 14
ige m
ten ded
Ġver g
Ġall gemein
mit glied
Ġgu ide
D A
ĠBau ern
Ġaut omat
g rad
m ont
ĠIde en
ĠProble me
Ġf a
Ġc redit
Ġplay ing
ĠPra xis
v m
Ġd ise
Ġw r
Ġf ilter
P at
Ġgen ommen
depend ent
in os
Ġh uge
ĠB a
Ġgo al
s ere
Ġt itle
ck ing
ran ch
Ġexper ien
d y
pp e
Ġe inger
() ))
ĠS ho
()) );
hockey spieler
henswÃ¼rd igkeiten
T P
ĠG ood
ĠE duc
em ble
Ġl angen
Ġun it
Ġj ungen
b ul
ĠS ammlung
Ġim m
iz en
ĠPat r
ĠGegen satz
k ampf
ĠV illa
Ġup load
Ġpar ents
Ne ben
ĠRo ad
umen te
ĠP ublic
pe kt
g arn
ĠE ar
ĠH ause
Ġzun ehmen
Ġcare er
Ġan im
Ġlog ger
Ġp le
ĠGr enz
aug ht
Ġh um
Ġg riech
Ġ19 19
Ã© r
or th
ĠFl Ã¤che
ĠS uch
Ġsch edule
aw a
AT ION
Ġhig her
u ted
il a
ug s
ĠEin wohnern
Ġsol che
laub t
E urop
T hre
en te
iel ten
Ġun abhÃ¤ng
Ġinter ested
O C
Ð ¸
ĠR enn
Ġl ower
Ġwir tschaft
Amerikan er
m useum
Ġh ous
Ġg uten
av es
heim er
ĠJan uary
ĠForsch ung
] ,
ĠS S
um Ã¤n
Ġse ien
ick ets
fr ont
ĠInter esse
forder ungen
is ation
if ts
ken nen
ĠvollstÃ¤nd ig
f ur
ĠH ill
Ġges etzt
Ob jekt
H ier
ber s
Ġ19 00
ultur al
Ġpat ients
Ġveh icle
Ġf ant
schaf ter
ĠLe on
ĠAm azon
ĠMus iker
so ft
imp le
Ġimp lement
ĠB ul
ter min
ĠL Ã¤ndern
get Value
Ġst atus
ĠChrist mas
ĠPolize i
om a
ĠBe ach
alle y
roll er
Service Response
Ġter ms
ĠLeist ung
Ġb uffer
el a
Ġinst ru
Ã¼t te
er al
he m
Ġch ines
ĠVor g
Gemein de
ĠÃ¼bern ommen
wer ks
Ġt ask
ab et
Ġpart ners
F amil
ĠZ usch
ĠAr ts
ĠBl og
b ody
p erson
ĠW erner
Ġex pected
over n
F re
ĠS amm
im ar
ĠR oll
Ġer baut
Ġex cl
Ġgirl s
ĠZeich en
Ġge fÃ¼hrt
Ġ7 5
Ġoffer ing
C ase
ĠM erk
ĠIn tegr
spr ung
van ced
mÃ¶ gen
ĠHinter grund
ĠF ernse
ed y
la x
20 16
Ġpolit ische
B ase
f Ã¤lt
Sch w
T ER
rat s
Tra cing
ĠCoun cil
ĠM acht
be w
ĠOff ice
lemen te
S erv
ent y
Ġg ives
Ġdurch gefÃ¼hrt
aupts Ã¤chlich
al ing
ĠK omb
ĠH alle
ĠL ux
Ġdr ess
Ġs an
ĠC ode
Ġre pla
B undes
h auer
ĠG attung
Ġfol gt
mÃ¤ ler
D S
Ġro ll
Ġpre m
Par am
Ġlo ad
ĠDire ktor
Ġt hr
ĠD rei
se x
ff er
hal le
Ġbest Ã¤t
ĠAn lage
Ġch rist
Ġgroup s
h ere
ĠG ust
Ġsuch en
Ġgel ten
M P
Ġm id
Ã¼ che
Ġg anzen
ĠSt ahl
ĠS us
ĊĠĠĠĠĠĠĠĠ ĠĠĠĠĠĠ
Ġne igh
ĠWe chsel
inn ing
Ġfun ktion
Ġde pend
Ġwor th
ĠTex as
Ġd ream
Ġder zeit
ĠBild ung
Ġrelat iv
Ġintern et
Ġ3 4
Ġd iv
ĠS um
ĠSchw ester
ĠTechn ik
V ari
k omp
ul pt
Ġhe ar
Ġwicht ige
cle ar
Ġc ross
ĠR od
Ġtra gen
ren nen
ĠAngel es
ĠWer te
ĠM un
Ġa verage
Ġt Ã¤
Ġb row
ĠT able
ĠOr gel
Ġs yn
ak ers
Ġent lang
Ġcomp lex
Ġpre uÃŁ
Ġstart ing
lav ier
ĠÃ¤l ter
c as
l Ã¤nder
r ight
ĠT emper
ĠSoc ial
E l
or al
tt ps
Ġbeteil igt
am ing
ct ory
ĠHaupt stadt
Ġehemal iger
ĠSchm idt
ĠN Ã¼rn
sp rache
Ġpl anning
Ġplay ers
ĠErgeb nisse
ĠC anada
Ġk or
ĠHeil igen
A ction
v ier
ĠM ik
Ġmus sten
Cont ainer
Ġno te
He ader
Ġrelations hip
al u
Ġan alysis
lan k
Ãĸ sterreich
t a
ĠFamilien name
un ion
it ation
ĠW ettbewerb
an ische
Ġbusiness es
ĠBÃ¼ cher
ĠerklÃ¤r t
Ġbenef its
H ttp
Ġl oss
ĠHerr schaft
ĠBl ue
ree k
an geb
ĠspÃ¤ter en
Ġcommer cial
Ġd ein
on str
Ġbesch rieben
Ġcoun tries
H L
Ġw ish
as che
wer be
Ġerw eit
Ġdec ided
Ã¤ss er
B l
Ġm aster
In put
ĠPro gram
Ġleg al
Ġsod ass
ch ner
Ġf air
Ġpro p
lin ik
Ġconstru ction
R uft
te uer
ĠH ir
Ġse ction
ĠMed ia
ĠL aur
ĠR is
Ġ6 5
Typ es
Ġcomfort able
Ċ ĠĊ
at o
Ġg reen
ĠAt lant
n ummer
st ream
Ġim med
Ġdar an
ĠKar ten
ĠPol y
Ġde ath
Ġme chan
ĠLe x
Ġ* /
ĠFried hof
Ã¼ der
el ine
ĠF ound
ĠE ff
Ġl ic
Ġpro per
ĠHome page
b latt
ĠA tt
Met hode
Ġdirect ly
le hn
Ġr ather
g ruppen
y ing
an cy
In s
Ġ4 8
Ġmov ie
W riter
gang s
UR L
allow ed
Ġs agte
ĠP a
Ġdar in
ĠE very
Ġon es
ĠFr ont
Ġander er
rÃ¤s ident
C P
P l
as ons
ul y
Ġsogen annten
ge legt
Ġm ount
ĠPro zess
ĠBra un
B ox
W Ã¤hrend
Å Ļ
ĠS aturday
ĠF ritz
Ġpass ed
r is
Ġt ats
ul s
ier n
Ã¤uf er
m ore
ĠN ummer
Ġcreat ing
Ġsuccess ful
k osten
Ġd ient
ĠF isch
ĠW ood
ob by
Ġse ek
Ġgew innen
pr Ã¤sent
Ġact ive
by te
Ð µ
AT E
Ġatt ention
eign et
ĠGÃ¤ ste
h Ã¤user
ĠB rief
Ġ3 8
Ġmach ine
K ultur
Ġd omin
it ial
ĠG olden
ot ten
qu ence
Ġbet rieben
Ġlar gest
ĠÃ¶st lich
Ġs aw
Ġer inn
ĠSt immen
cre en
Ġorgan ization
leist ung
ĠF ischer
rie be
ack s
Im age
ĠFir men
Ġnecess ary
N O
c up
at ung
ĠS T
Ġf irm
ĠHe ute
Ġtr ip
lauf en
utt ing
us ed
ĠVer fahren
reg ierung
Ġcolle ge
S ession
w ander
Ġw issen
af e
par ator
bo gen
ĠSm ith
R et
Z ur
Ġa k
Ġt Ã¼rk
Ġo l
Ġh it
ĠO x
od or
ru it
Ġunter st
amerikan ischen
Ġlevel s
Ġl au
os ed
Ġar g
Ġpart ner
Ġgeb racht
spr icht
ĠMet all
K reis
u gend
in st
Ġc ell
reit ung
ĠMat th
ra ct
Ġab ility
gangen en
Ġwonder ful
I R
ĠNe ue
Ġgrow ing
Tracing Enabled
k om
is Any
ĠS Ã¶
ĠP ier
ies ter
Ġangeb oten
ver stÃ¤nd
Ġit self
ĠRuss land
ĠF ak
Ġhand s
Ġschw ed
S Ã¼d
ĠWebs eite
p at
ĠE xt
Ġer fÃ¼
Ġse lection
Ġum fang
ĠFl Ã¼cht
ĠDeutsch er
ĠdÃ¼r fen
i ben
ro at
ĠW etter
ĠR am
id ents
sel ben
reit en
L ock
al m
Ġv irt
Ġver antwort
geb racht
res p
Ġentspre chend
al led
Ġh ttps
ĠP aar
ĠW irtschaft
ab s
ate ur
ist isch
Ġres pect
Ġar ray
zeich nete
ĠÃ¼ br
V AL
Ġb irth
Ġver gleich
ock ey
res ource
Ġ192 7
Ã ¸
le ger
Ġe arn
Ġre ach
ĊĠĠĠĠĠĠĠĠĠĠĠĠĠĠĠĠĠĠĠĠĠĠĠĠĠĠĠĠĠĠĠĠ ĠĠĠĠĠĠĠĠ
ĠKom ment
b a
in y
Ġun ten
age gen
Ã¶r en
il i
Ġqu ery
Pro cess
Ã¶rder t
Ġeurop Ã¤ischen
isAny TracingEnabled
" :
ĠâĢ ¢
por ate
w eite
Ġs ynchron
ĠE re
Ã¤n z
print ln
ĠT schech
lÃ¤nd ischen
Jahr hund
S ec
Ġge ts
ĠPh ot
Ġarbeit et
L ast
v i
ĠV arian
Ġ19 10
ĠRe volution
Par ameters
Ġcamp aign
ĠG Ã¼n
ĠZ ahn
ĠPhilosoph ie
d as
or fer
ĠM ach
Ġer f
au x
pro gramm
ĠSpe cial
ĠKarl s
ĊĠĠĠĠĠĠĠĠ ĠĠĠĠ
Ġhelp s
ĠArchite ktur
brit ann
j or
k ord
ie ts
Ġc at
ĠWe hr
ĠPort ug
Ġexist ing
kret Ã¤r
N A
z if
ĠMen ge
Ġgesch affen
ha ber
Ġbet re
fass ungs
tert ain
ar es
ĠM ission
Ġ ult
er er
Ġf ashion
lan z
fin den
Ġpla ces
ĠUr s
ĠGew inn
p m
ĠB ir
Ġc andid
sch m
ĠJ os
u id
ĠNational sozial
ĠFÃ¼r st
M at
| }
Ġ ign
re chte
ĠB rown
Ġbel ie
Ġ192 4
Ġ192 6
ĠPat ienten
ĠBer eits
Ġabsol ute
m d
Ġb itte
im me
kt iv
lie der
br Ã¼cke
Ġbest immt
ĠBo ard
Ġ192 5
R ad
Ġd ah
ĠA ff
Ġh auptsÃ¤chlich
ĠP fe
fr ist
ĠColle ction
W eit
p olitik
Ä ±
Ġt al
rif ft
Ġviel leicht
ĠMod el
Ġwieder um
ĠAustral ia
K arriere
b our
ĠL ast
Ġg ift
ach im
ess ions
Ġwe g
ĠÃ Ĺ
aut en
Ġ193 1
Ġkomp lett
Ġh y
ors itzen
C ON
is tet
Ġan aly
ĠT isch
and t
Ġ} );
ĠQu ellen
g ut
ĠW agen
ĠOp fer
P reis
Ġg ese
chn ik
Ġsur round
Ġeing esch
ĠVert ra
gef Ã¤hr
M ode
r um
Ġein st
Ġl ost
20 15
T arget
ĠA R
Ġbe gan
gew icht
ĠB Ã¤
ĠDar stellung
r d
is ieren
om ot
sch auspieler
ĠAb st
in put
Ġste ts
ĠSchul en
ĠBetrieb s
Loc al
tra iner
ennt nis
p ace
at al
Ġn omin
Ġh ielt
h old
m and
ik ations
Ġbestimm ten
d essen
ĠHe idel
Ġwen igen
Option s
Off set
m osph
ĠM ost
Ġh our
ĠC all
ĠV an
Ġvers ucht
esen ted
ĠSer ver
Re ader
ĠVier tel
ĠUR L
Ġf lieÃŁ
Ã¼ hm
Ġbe legte
ron ic
zug s
Ġitalien ischer
Ġfert ig
Prov ider
g roup
Ġf ine
ĠT ar
Ġg iving
ĠZ us
Ġor d
Ã© s
ĠWh ile
Ġverkauf t
ĠDreh buch
P olit
t i
Ġt en
Ġch ance
Ġwest lich
trie ben
X X
ic ations
ĠW ach
ĠL uc
ĠC entral
ĠAn tw
Ġzw Ã¶lf
Ġbas ic
Des cription
Val ues
S k
T op
Ġh Ã¤lt
ĠC ast
iss ions
ĠBr andenburg
ĠAug sburg
ĠT anz
ĠH und
Ġrequire ments
Ġhistor ischen
A dresse
D o
p ossible
or ial
Ġbe hand
Ã¼ck t
Ġbeg in
vers ammlung
ustr ie
Ġf ab
ut n
ĠT ri
gr iffen
Ġpre fer
Ver kehr
Ã¼tz t
ĠKrit ik
Ġk om
ĠMo der
n ungs
Ġd etail
Ġver lassen
Ġac cept
Ġwichtig sten
zieh ungs
Ġver lÃ¤uft
ib ly
ak s
get Class
Ġfe ed
Ġdesign s
Ġdefin it
Ġenc our
Ġn ature
ĠG ame
ĠVer teid
ĠE lect
20 13
Aus zeichnungen
Ġannoun ced
p osition
ĠNatur schutz
ĠVerwalt ung
ĠhÃ¶ch sten
imat ely
e es
r and
Ġ{ }
20 14
20 11
az in
ĠWohn ung
Ġweek end
Up date
ĠZust and
ĠD arm
Ġver mutlich
ac ity
ms el
Ġgo es
gor ith
Ġin j
ick e
ĠWe iÃŁ
ĠReg isseur
M ill
r id
Ġand ers
ĠW ater
ĠPar lament
ĠSim on
ĠBesuch er
ĠDec ember
Ġstreng th
Ġe th
ĠL i
ĠSp an
ĠAuf gabe
pf licht
ĠSund ay
g ern
un te
ĠH aw
Ġgleich nam
ĠStand ort
Ġreview s
leist ungen
Wer ke
ĠId ent
s l
Ġs agt
ĠÃ¼ber wiegend
ĠLie fer
Ġgar den
p olit
Ġ19 12
ĠMar ine
Ġinvol ved
ĠNie ders
d ouble
in ks
Ġ5 5
ĠWill i
' d
l ies
ĠGroÃŁ en
Ġprogr ess
20 12
Ġob t
ĠMan ager
uar ante
Ġcons ult
sie he
Ġs us
us er
ĠD ouble
Ġc ulture
Ġg all
Ġres ol
Un it
Ġbl ue
ilit ary
B S
ĠAd min
ĠSer ies
Ġcost s
Ġdeliver y
ĠR ing
ĠUr laub
ad rat
Ġsch le
par se
war en
ĠFlor ida
l oc
ar kt
Ġor igin
Ġerziel te
r t
Ġkann st
Ber lin
ĠSin ne
ĠGesund heit
Ġn ov
ĠK ult
iel le
og a
lin ien
Ġsp Ã¤t
ĠEin fÃ¼hrung
Ġcir c
ĠermÃ¶glich t
Ã Ħ
Ä ĩ
Ġw ild
ien en
Ã¤n glich
arz t
C C
ur b
ĠB ist
ĠL ig
ĠAller dings
h ips
m acht
un i
ĠA N
Ġst ieg
omm ern
oh ol
stru ktur
Verein igte
ĠS ib
Ġin zwischen
ĠFer ien
Ġg ere
la h
Ġun bek
20 10
Ġverl or
Ġinterest ing
TY PE
h agen
an ders
Ġh il
Ġmit tels
ĠAn teil
fra gen
Ġroom s
f rom
am ous
Ġth ous
Ġâ ĨĴ
ĠSm art
Ġw ert
Ġw under
ĠL ind
ĠSt iftung
Ġbu ilder
gemein den
ĠArch iv
ĠwÃ¼r den
A ug
or ary
ĠSt atus
ĠÃĦ nder
Ġmethod s
f ast
Ġd ark
ĠR ennen
ĠAr zt
Ġhel fen
ĠIhre m
Ġstru cture
v as
on st
Ġp ages
ĠC O
Ġhe ll
Ġser ious
Ġcreat ive
Colle ction
ĠFreib urg
Ġn umer
Ã¤nd ler
Par ent
yd ro
Ġbrit ischer
Ġe dition
Ġthe msel
ĠString Builder
ĠArchite kt
akt iv
Z eit
th ur
zen s
sh aus
rÃ¤ ume
Ġcont ains
Ġm other
ĠD ro
ĠR E
Ġent sp
ĠKon fl
amer ika
ĠTra ining
Ġweiter er
ĠJes us
A ut
ĠS ym
Ġver treten
Loc ation
Ġstat ement
ĠHers teller
Deb ug
t liche
in ary
Ġg ro
ist ance
Ġopportun ities
Ġwed ding
B ar
ĠS tellen
ĠK ommand
ra p
re f
ĠB la
Ġaus getragen
Or der
ĠIde e
j o
ow ski
art ige
Ġent deckt
Ġ6 4
Ġunterschied lichen
Ġthemsel ves
Ġs agen
ze ption
oun ter
ĠPr im
Ġpre d
Ġges pielt
ĠStud enten
P RO
ĠV ize
Ġcon ven
Ġerst es
UL T
F ol
der e
ĠZ entral
Ġgew onnen
Ġfamil ies
ĠBed ing
Ġcomplete ly
Ġdivers e
ing u
Ġ( "
im ension
ĠE vent
ĠL ight
ĠU ser
ĠVer halten
ĠMar ie
ĠAut ob
Ġschw ar
Ġs old
Ġf lat
Ġo wner
ers ey
Ġver lieÃŁ
ific ate
ĠErz Ã¤hl
ĠMÃ¶glichkeit en
b ilder
d urch
n s
Ġd ynam
ĠA sp
ĠL ok
ĠR icht
ĠJ on
ĠâĢ ļ
ĠBe w
lie fer
C re
F ound
h och
Ġs ell
us te
we gs
Ġcl oth
Ġsupp ly
Ġexperien ced
Ġm ix
ĠG irl
ĠE hr
ĠDe v
ĠMann schaften
Ġpos it
Ġindividu als
h ost
l uss
ĠSt ation
Ġab s
ĠZeit en
ĠCas ino
ĠS ab
be wegung
ĠKon k
Ġsom et
sub string
Ġunmittel bar
Ġso uth
ĠLand schafts
ĠSchw ar
ĠChamp ion
ĠL eit
ĠHÃ¶ hen
ĠApp le
C al
V ER
r as
ĠF rench
los en
Sch weiz
fel der
zip lin
D ir
Ġd ry
Ġf ix
Ġin stead
Ġclass ic
ĠRegion al
ĠauÃŁer halb
ĠA ud
ĠH it
ĠBe wegung
Ġmy self
ĠJu den
s es
Ġcon trib
r al
ĠDe velop
az ine
ĠBr asil
br idge
Ġersch eint
Ġcar ry
ĠH istory
l ike
ĠK rank
Nach dem
-------- --------
Ġleb te
f le
ĠV om
Ġcon du
ĠEin s
ĠFÃ¼hr ung
Ġthink ing
ĠBesch reibung
ĠHen ry
Bau werk
Ġf uer
ond ition
stell er
De fault
ĠCommun ity
britann ien
ĠS aar
Ã¤ ische
Ġc abin
au d
Ġor ient
Ġmot or
unsch weig
h te
w ise
ĠK andid
ĠL ib
Ġout door
Ġgr and
Ġinst it
Ġactiv ity
ĠMe tern
ĠDÃ© partement
r ies
s ervice
Ġv iol
ĠG alerie
Ġto wards
Che ck
Trace Component
Ġgese hen
Ġp et
Ġ3 7
Ġus es
ĠGe h
roug ht
arch iv
Ġd ritte
Ġt emper
Ġm il
Ġsp orts
Ã© e
Ġt emp
ĠF lo
Ġlie fert
Ġprom ov
n ern
ĠM att
lÃ¤uf er
ĠS P
ĠB it
Ġre lax
rie den
ĠSc ott
ĠE igent
ard inal
ĠSp Ã¤ter
Ġsub mit
zÃ¼ ge
ĠBeit rÃ¤ge
ch mal
ĠT iere
tr al
St ud
ĠSo und
Ġ192 1
' )
m y
ĠGe heim
2 000
ĠO h
ĠBe handlung
ĠGes pr
Ġinter view
ĠSpiel zeit
arm on
Ġsm art
hol t
\ "
Ġst aat
ver lag
wer te
ĠAd olf
Ã¤hn ung
ĠTemper atur
ra pper
kt ions
Ġmehr fach
Ġoff set
ĠFe hler
ĠR ath
Ġelement s
ĠP ak
Ġst age
ĠSp ann
St ore
ĠMond ay
B and
st ation
ig an
ek te
ĠGer hard
i xt
ĠW unsch
gel d
Ġro ot
Ġsetz en
C R
y ond
ĠK lavier
Ġso ft
ĠOr ganis
ĠInter view
ĠÃĦ r
stoff e
ĠGeburt stag
i ant
l ings
ĠG ru
ĠW omen
ĠW ohl
ĠR ay
ry pt
anz er
ĠBlÃ¼ ten
ĠD Ã¶r
ĠK ohl
ĠL y
Ġag re
geordnet en
Ã ´
im ed
ĠG overn
minister ium
zieh ungen
ĠPrem ier
v ement
ĠL ord
ĠJ SON
ĠOr te
gew Ã¶hn
ommer ce
g au
ĠV ort
Ġown ers
Z um
c lose
Ġfor get
Ġbet rach
ĠKar te
ES S
ĠCont in
Ġwahr scheinlich
ĠjÃ¤hr lich
Ġl Ã¤ng
ĠMc C
Mus ik
B ild
ĠR og
Ġ4 2
Ġad vert
Ġbring t
ĠDem okrat
Ġlim ited
Ġwa it
D en
ĠB am
ic ed
ĠC ross
ir ge
ĠBr Ã¼cke
sk y
ĠRich ter
ĠTurn ier
B is
n ational
Ġh ar
ĠG ames
ĠEin trag
ign ed
Re f
ĠFran ce
Ġcl ub
Ġbre it
iti ative
Ġsle ep
Ġcorre ct
y les
Ġit er
Ġverb reitet
Ġconsider ed
w ach
ĠAn wendung
Ã¤r ke
ichte ten
pf lich
Ġfre qu
D I
N on
p al
el la
Ġc ases
ĠAuf bau
Ġher r
tem pt
Ġcons um
Ġstor ies
Ġb ul
Ġer fahren
ĠAut oren
is ions
Ġl Ã¤
our ney
ick er
ident ial
200 9
t y
ĠD ub
qu is
ĠVer Ã¤nder
Ġspe ed
Ġ192 3
ĠGust av
Ġb ill
Ġg as
ĠEduc ation
ĠMon at
ĠMo dern
ĠSant a
A utor
C L
ĠS ituation
ot al
Ġze ich
j i
ĠS inn
tr ans
ger ichts
Lo ader
ĠWider stand
m Ã¶glichkeit
s itz
it ude
ĠG Ã¼ter
Ã ½
io de
ĠArbeit er
Ġsub s
Ġgef Ã¤hr
ĊĠĠĠĠĠĠĠĠĠĠĠĠĠĠĠĠĠĠĠĠĠĠĠĠĠĠĠĠĠĠĠĠ ĠĠĠ
Ġsett ing
k rit
Ġs ym
ĠS em
Ġge halten
ĠO ld
Ġun be
gr Ã¶ÃŁ
Ġent stehen
Ġbes ondere
Ġbek annten
Ġdec ision
F unction
ĠW affen
ir al
htt p
tertain ment
. ),
il ing
ĠPro p
ĠGrund lage
deutsch en
B esch
c ap
Ġb aby
el f
ĠP ay
ĠIn t
Ġ q
Ġv Ã¶ll
Ã¤ b
ĠM Ã¤r
ĠF al
ĠF Ã¤
et ts
ĠRe p
Ġcomp leted
Ġro ck
glie dern
Ġback ground
ĠVerb and
ĠFebru ary
Weit ere
ĠD ank
ck len
Ġgen annten
Ġsen se
Ġr ights
En g
ĠTr ump
ĠWissen schaften
Ġz Ã¤hlt
ĠPro ject
Ġpre c
Ġmod els
West falen
Ġre ve
ĠBe zug
ĠBild ungs
Ġhoch wert
m ess
geb iete
St ar
Ġeinges tellt
ran ce
Ġ4 4
Ġdar gestellt
ĠCon ne
cript or
T A
ĠSt an
Ġst uff
ĠSch rift
ĠRe chte
Ġwe ar
Ġunter s
Ġlim it
ĠSied lung
n etz
w itz
St adt
Ġar gument
r Ã¤t
Ġd agegen
Ġm ilitÃ¤r
il ien
ĠAb teilung
ĠFor um
ĠÃľ berg
Ġ192 2
ĠDar Ã¼ber
b ungen
n ode
Ġb all
Ġp f
Ġp en
baut en
ĠÃ¤ uÃŁer
ĠD VD
Ġpr Ã¤
200 8
ĠHistor iker
ĠElekt ro
Ġausgest attet
ĠM om
Ġver t
af el
ĠEin heit
Ã¼ck sicht
ĠTeil en
ĠDeutschland s
Ġverw ende
Ġann ual
Ġhealth y
? ?
it ness
ĠT ok
ĠF un
Ġaus ger
Ġch at
ĠAuf nahme
âĢĿ .
Ġsat is
S yn
ĠAus druck
l ation
ĠAll gemein
bild ungs
Ġtrans fer
Ġest ate
Annot ation
d at
it ur
Ġ2 50
ug in
V is
at i
ĠP ok
Ġj em
Ġeng ag
Ġsogen annte
Ġe ye
ĠD et
Ġk anad
if er
olog ies
Ġ< =
ĠHo hen
oot ball
II I
ĠHaf en
O K
m aterial
Ġl en
Ġl ands
ac ters
ĠChr on
ĠÂ §
ĠPe ters
ĠK ammer
icht lich
ĠAn th
tell igen
Ġbec ame
Ġschool s
e ff
j ava
k ammer
ĠG lock
Ġsp ot
ho ff
ĠVor der
latt form
Ġded icated
Ġs ymbol
Ġpre vent
ĠsÃ¼d lichen
F rank
i op
o is
o ÃŁ
Ġs em
ar ies
Ã¤ her
ĠP ack
Ġunderstand ing
Ġphys ical
h ow
it ag
ĠS un
Ġl ok
ĠLe vel
ĠAl tern
com es
ĠGel Ã¤nde
f alse
ĠN S
ĠSie ger
ĠSte fan
ĠĊĠĊ ĠĊ
Ã¤mp fen
ĠÃĸff entlich
E hemal
R un
Ġ il
ĠE ach
ĠUn der
Ġev alu
Ġsc ience
Ġinternational e
Ġess ential
B es
I B
ĠS low
ĠSchw eden
ĠPap st
K lasse
M ember
g on
Ã ĥ
Ġm ention
Ã¤ ger
ĠH uman
Ġauf gerufen
Ġpro pos
iz ations
19 45
ĠLauf e
ĠTro tz
l s
p ool
im it
ĠG ene
Ġge tr
Ġnie dr
ĠWirk ung
Hel per
ro y
ĠC are
ĠN ote
Ġent spricht
ĠgrÃ¶ÃŁ ere
Ġhom es
ĠEre ign
Ġs av
ĠB ab
Ġg alt
ĠCent re
ĠL aut
ĠR ost
Ã¶ se
rie chen
ĠLand wirtschaft
Ġbut ton
Ġfol gten
ĠHoch zeit
Met adata
Ġfriend ly
gem eine
ĠErfahr ungen
ĠEntscheid ung
B ack
al te
Ġex hib
Ġwe ather
ĠTh anks
Ġleg te
temp orary
k arten
z ub
Ġs ucht
iel len
ĠIn ner
ĠÃ ī
Ġges etz
afr ika
ĠSonn tag
D ouble
ĠLeist ungs
Ġelekt r
il lage
klÃ¤r ung
ĠÃ¤hn lich
gent in
cklen burg
k lass
in det
ĠT hen
Ã¶s ungen
uck y
ĠWes tern
J vm
t or
ĠUnter nehmer
Ġview s
A X
W arn
ic ing
ĠK ore
Ġver schw
ze p
Ġhol iday
Ċ ĊĠĠĠĠĠĠĠĠĠĠĠĠĠĠĠĠĠĠĠ
ĠEr de
Ġ3 9
be g
ĠOb serv
Ġverw enden
ven ue
wor ks
din and
ĠB ass
Qu ellen
O p
m ond
at te
Ġ19 17
Ġaus geb
ĠBe ge
ĠCh ild
ph an
urs day
ĠEr b
ĠTe ams
Ġir gend
Ġexact ly
I A
ic ine
ce ed
sp er
ru he
Ġess ay
ĠSch aus
Ġab geschlossen
Ġres olution
Ġher gestellt
denk mÃ¤ler
Spe c
emin ar
ĠgeprÃ¤ gt
D on
ver treten
iss ert
Ġav oid
Ġdarauf hin
ĠDire ctor
ĠJur ist
Ġamerikan ischen
Ġsomet imes
R ow
V ar
k rÃ¤fte
ĠB ran
Ġc ru
Ġzu erst
geb nisse
con ne
200 7
Ġeff ort
ĠWor ks
Ã¨ re
ĠJournal ist
r est
Ġch urch
ĠY oung
eiter te
ĠGÃ¶tt ingen
A re
ĠL ieder
Ġer kennen
Id ent
wahl en
is abeth
ĠSp re
Ġdescr ib
Ã ±
Ġk Ã¼nstler
Ġge gebenen
Ġsp ent
Ġent h
ĠNach richten
Ġplay er
Ġlet ter
Ġwind ow
Ġmittler weile
- )
ro te
ion e
bie ter
v ents
en se
ber eitung
Ġste el
m Ã¼hle
un ehmen
Ġw he
ĠBes atz
ĠHoch schullehrer
ĠHein z
ĠDistr ict
Ã¶ tz
Ġge mÃ¤ÃŁ
Ġle er
ĠLe e
Ã¶r ter
app er
Ġmus ikal
unn el
D oc
Ġe le
ĠV iele
ord net
ĠMor gen
ĠLeist ungen
kn own
Ġ ðŁ
ĠD ol
ĠEr schein
Ġob wohl
Ġmein en
Ġpur pose
( '
G ruppe
ĠEr inner
Ġprodu ziert
hand lungen
Ġentw eder
ĠL ar
ĠL Ã¶sung
ĠVor aus
bre ak
Ġcoll abor
utn ant
ĠV alley
ein s
form ations
ĠGroÃŁ britannien
Ġmov ing
ĠSchrif ten
f ree
i ation
ĠF ire
ĠC ook
Ġge eignet
Ġzerst Ã¶rt
ouver ne
D C
P ER
on ial
ol ar
ĠH ig
ow a
lo ok
ĠSh op
pf lege
frastru ktur
ĠT a
ĠN av
akt or
ĠKap elle
re in
Ġm iles
ap y
bahn hof
ĠAustr alien
Ġleb ten
ĠJak ob
B et
b aden
ĠF ind
ĠK urs
ĠAl pen
Ġstr ess
ĠBÃ¼ ro
ĠBern hard
ĠMain z
Client Exception
ĠInstr ument
ĠL ine
bo ten
Ġmen sch
ak ed
pl Ã¤tze
ĠOb jekte
ĠKap it
famil ie
ist a
ste ht
Ġar gs
roug h
200 6
kon om
Ġmoder nen
Ġb orn
ĠW a
Ġl es
ann a
Ġpro ced
fr iend
Ġitalien ischen
Ġill ustr
k in
o z
Ġ19 15
ĠGr Ã¤
ĠCour t
ĠMicro soft
< >();
ĠD ien
ĠL ook
Ġle itete
omm od
IN E
ĠFlug hafen
Ġeffect s
Ġaff ord
Ġrepor ts
ĠSow jet
fur ter
D B
ĠK urt
Ġdis k
Al le
arb on
UR I
Ġprote ction
k opf
w Ã¼r
Ġ Ä
is a
ĠSch laf
atur ing
hÃ¶r den
ound s
ĠOrt schaft
umm ary
Ġassoci ated
ĠS av
Par ser
schul en
ĠTe le
int on
Ġass ess
Ġnor th
glieder t
ĠNÃ¼rn berg
Ġhigh est
Ġche ap
med aille
fan ter
Ġunterst Ã¼tzen
R oot
W ind
Å «
ĠB ob
ver ter
ĠIn f
ĠÃ¼ber haupt
Ġkur ze
Ġbud get
Thre ad
el er
Ġbe an
ĠgehÃ¶r ten
ĠCol umb
iat ely
F ra
Ġt ree
Ġf al
ke i
ĠNe uen
ĠLin ien
Ġpolit ical
ĠVo gel
ĠS eb
ost on
ĠAuf grund
Ġerst re
Ġprof it
ĠArchite kten
Ġdev ices
Ġlov ed
Ġinnov ative
Ġt ief
Ġhe at
Ġ4 3
ĠTex te
n ing
Ġw inter
Ġm ission
st Ã¤tten
Ġ19 13
ĠSch ritt
Ġsp end
ail s
Ġhin gegen
ĠBar bar
Ġach ie
ĠS up
ĠD E
ĠT ore
Ġsch eint
up s
ue ber
be zogen
ĠFl Ã¼gel
Ġprofession als
Ġappro x
lev ant
ĠHeidel berg
Ġs and
Ġs icht
il ian
ut ing
ten ance
ĠR ab
ab elle
ĠAn y
ĠVer anstaltungen
Ġdeutsch sprach
ous ly
Ġkein er
Ġpass ion
ĠOper ation
Ġrepor ted
D isk
ĠP oint
ĠJahr zehn
Ġsol id
Ġmax imal
Ġentsprechen den
j en
Ã £
Ġl ots
ĠIn halt
ues day
Ġverlie hen
ar ischen
ĠG olf
et ch
Ġex press
Ver b
Ġflo at
Ġerhe b
Ġd ining
ar p
ĠD ichter
Ġh ast
ĠE ll
Ġst ates
iz eit
Ġtra de
ĠRÃ¼ck en
Ã¤chs ischen
f Ã¶rder
re al
ĠD etails
Ġbe legt
Ġre li
ill y
ĠVer d
Ã¼n sch
ĠTh Ã¼r
oren z
Ġsc ient
Ġfre uen
At om
mÃ¶ glichen
Ġcas ino
c an
c ia
f ind
Ġg ingen
Ã© t
ĠIs lam
ĠMark eting
Ġemploy ees
Exec ution
h orn
st ern
ĠK iel
ĠVer hÃ¤ltnis
Ġfe et
ĠErz bischof
g Ã¼lt
ĠC ustom
Ġl ack
ind ustrie
Ġse lected
Ġheut ige
g ie
ĠR osen
ign ment
reg ion
Ġserv e
ĠKÃ¼ che
Ġprim ary
b lock
ĠH ab
ly ing
Ġme as
fl ow
isten z
ĠIt al
Ġrep air
c ause
ol z
sch le
ĠFor st
Ġmein em
ĠÃĸffentlich keit
p ost
at ives
ĠS dk
Ġf arm
ĠM ake
ĠF ert
ĠR y
ay a
qu es
ĠHe er
wei ÃŁ
Ġbet rug
stand ing
Ġwr ong
G roÃŁ
ro ck
ĠH T
Ġth read
Ġge zeigt
os ite
ze igen
ĠVer lauf
In valid
Ġprodu z
Ġn amed
Ġde ad
ĠBe ide
gr enze
Ġso c
ĠAd d
Ġcontin u
ĠFer dinand
ĠProdukt ions
ĠbeschÃ¤ft igt
P L
W idth
ĠL iter
Ġzu gleich
ĠGra fen
Ġhelp ing
ĠFeuer wehr
Call back
Ġestabl ished
P an
k g
Ġp ush
Ġc amera
ĠP en
im er
ĠK el
Ġle ider
Ġsh ared
ĠMon aten
Ġcol ors
ĠhÃ¶ch ste
L iste
Ġw and
de p
Ġweiter es
ĠUl rich
Ġw uchs
ĠS tell
Ġan erk
ĠT hr
ĠP rag
ill on
Ġprov ider
Ġeinz ig
Ġart ist
Ġclass es
Ġret ail
h aps
Ġl ines
pr iate
ennt nisse
F L
z one
Ġa f
Ġa spect
ur st
Ġin kl
ĠH orn
Ġg uarante
Ġre ference
part ner
Ġbeh av
n ow
ĠA qu
Ġn ation
ser ver
ĠZw eit
val u
ĠfrÃ¼her en
Ã¼st ung
de cken
ir ing
ĠEin ige
ĠChar l
Ġjob s
ĠErfahr ung
Ġverantwort lich
G ER
Ġt ips
ĠV ideos
Ġim ag
ĠSch Ã¤
fass te
ĠMeister schaft
Ġbeginn ing
Oper ation
Ñ Ģ
ver trag
ip es
In putStream
dien ste
H o
Ã¶ pf
ĠAus land
rÃ¤ ft
Ver Ã¶ffentlich
Ġerweit ert
â Ĥ¬
ĠM ethod
Ġg ren
omm ission
Ġgu ys
Ġsec ure
ĠFrÃ¼h jahr
I OException
Ġver pflich
ĠGes ell
Ġerw arb
ĠÃ¶sterreich ischen
ĠSdk ClientException
N ord
e hm
ur i
ĠThe ologe
Ã¤hl ten
Ch annel
ĠChe f
ĠGrÃ¼n den
LO G
ĠJac ob
at oren
ut il
ĠG lobal
ĠK a
Ġbe ob
ap el
ĠAd els
omb in
Ġbas is
ĠSalz burg
augh ter
est ra
ag ne
Ġ190 7
ĠFranz Ã¶s
Ġmult i
Ġadv ice
t op
st he
ĠE ck
Ġr ich
ĠTh ursday
ĠHand el
200 5
č ĊĠĠĠĠĠĠĠĠĠĠĠĠĠĠĠĠĠĠĠ
ĠP enn
stru ktion
It alien
Ġtre ffen
Ġdefinit ely
an ischer
or age
Ġb atter
Ġf Ã¤llt
ĠM ode
Ġge kommen
Ã¤n en
Ġ190 5
Ġoffer ed
Ġelect ric
Ġqualif iz
ĠvÃ¶ll ig
n t
Ġ19 16
Ġ19 11
Ġre v
af ft
cl ude
ĠQu al
++ ;
Ġunterschied liche
ĠnÃ¤ch ste
wes ome
en kt
Ġt ransp
ĠH ub
Ġsh ape
ĠFunktion en
Ġocc as
term ine
Ġdeg ree
H ash
is Debug
ar o
as ts
ed ition
uss ion
let ter
ĠCoun try
Ġinfl uen
Ñ ģ
Ġl ern
ann en
Ġacc omp
ĠBra unschweig
F inal
sch loss
ĠIn dex
Ġex er
ĠSp orts
ip fel
je w
ĠgrÃ¶ÃŁ eren
Ġbeaut y
j ob
Ġr ates
Ġpar se
Ġadv ant
ĠChin ese
k ts
ĠB ett
em ale
ad ies
Ġ4 9
Ã¼s sen
Ġpower ful
Ġh op
ĠRe view
ĠEurop Ã¤ischen
Ġbro ad
Ġpress ure
f abrik
z ul
ĠLe op
ĠLand tags
Ġsho pping
Ġoper ation
Ġpack age
F uture
N ieder
Ġme asure
ĠUnivers itÃ¤ts
Ġsur face
N S
Ġm ill
Ġsp ring
\\\\\\\\\\\\\\\\\\\\\\\\\\\\\\\\\\\\\\\\\\\\\\\\\\\\\\\\\\\\\\\\ \\\\\\\\\\\\\\\\\\\\\\\\\\\\\\\\\\\\\\\\\\\\\\\\\\\\\\\\\\\\\\\\
B ody
Ã¼ mer
ĠB os
Ġaus tral
ĠEr satz
Ġsp richt
Ã¶r ung
Ġbeen dete
ĠChr is
Ġz Ã¤hlen
ĠH aar
ĠW appen
ĠO pt
bl ing
itte e
Ġinc red
ĠPap ier
Ġautom atic
Ð¾ Ð
ĠRath aus
m es
re ci
al ed
Ġv ict
ĠM ir
je kten
ĠAuf ent
ĠFre unde
ĠDaten bank
it o
ĠM ah
Ġc ast
ĠK ath
ach te
ĠSch lieÃŁ
sp ar
Ġ6 00
Ġger ing
son sten
m t
it is
an en
Ġf ight
Ã¼ ne
mer ksam
Ġtr uly
Ġbestimm te
G en
V ol
] );
k ul
Ġc ards
ĠH ell
Ġal bum
Ġsel ber
Ġmon itor
Ġmax im
ersÃ¶n lichkeiten
stit ution
I F
Ġ Ã¶ffentlich
ar ische
Ġco ff
ĠBre ite
Ġconne ct
Ġengl ischen
ĠKonz ert
f ung
k rieg
ĠA rab
ĠF alls
Ġplay ed
ĠnÃ¶rd lichen
Chr ist
e lement
he ute
Ġf ahren
st uhl
Ġl esen
St ack
leg ten
Ġwel come
Ġdire ctor
Ġpol ice
ĠFÃ¶rder ung
hy th
E W
Ġw ife
Ġe yes
ell i
ov a
Bo olean
ĠK assel
Ġwir kte
ĠSp aÃŁ
Ã¤hr ung
ĠNach w
ĠKon zept
Ġgeb ildet
ĠSommers piele
D em
ĠA wards
ĠR aj
Ġwe ib
Ġch air
ex ec
ĠFil ms
O lymp
re form
Ġc lin
ol er
ĠP el
Ġob j
Al bum
bl Ã¤tter
ĠrÃ¶m isch
a ber
ĠD auer
ĠÃ¼ber tragen
Ġacc ur
Ġra ce
ĠRhein land
Ġdise ase
C omm
ĠC ra
Ġbe in
Ġres erv
âĢĿ ,
Ġinvest ment
at ik
ĠB lo
Ã¶ff nung
ĠIns gesamt
ĠKommun ikation
Out put
is Entry
ĠB ibliothek
Ġc op
ĠJ Ã¼rgen
Ġj ournal
Ġcon stant
Ġgo als
Ã¤l de
ĠFamil y
Ġverb ess
Ġchar ge
ĠPl us
Ġpop ul
Ġcap ital
Ġupd ated
isDebug Enabled
p an
Ä Ľ
Ġe leg
ĠF ein
sh ire
oh le
nes day
ĠVerÃ¶ffentlich ung
g ot
x x
Ã¼ ÃŁ
Ġc ash
ĠP ot
em por
ĠPr iester
act ive
Ġstre et
isEntry Enabled
L abel
č Ċĉĉĉĉ
re y
ĠD omin
ĠE ind
ĠC orn
ĠIn halte
Ġad vent
zus tellen
Ġmean ing
Ġdig it
c s
ĠAn griff
ĠVer anstaltung
Ġent gegen
Ġlin ken
wÃ¤r t
t ok
Ġt ried
ĠK en
ĠL abel
du ard
Ġtrans form
Ġincre asing
__ __
f ilter
id den
ĠZ ent
Ġweit gehend
Ġbek am
Ġprogr amm
h u
Ċĉ ĠĠĠ
ix el
ĠJan e
por ation
c or
s berg
Ġcon vert
Ġwas n
ipp s
ĠWeihn achts
b ell
Ġt emplate
Ġl Ã¶
ĠOr ient
haf te
fÃ¤ ll
Ġbenef it
Ġbeein fl
Z w
Ã º
an er
Ġm ode
Ġer stellt
Ġthan ks
ĠOber st
Ġdr iving
Ġmet al
Ġdien en
P lan
ĠD rit
ĠH Ã¤user
iz enz
Ġchange d
lÃ¤ss lich
B est
or ient
ur l
ĠV ar
lat ed
AS S
ĠBy te
ĠAfr ica
b aus
ĠA u
ahr t
ĠLin ks
ĠDeb Ã¼t
gy pt
m ail
ĠF ull
Ġhe ard
Er baut
200 4
ĠMittel alter
Ġentsprechen de
Ġf amous
ĠPr esse
con fig
ĠBas el
ĠbenÃ¶t igt
ĠVir gin
ĠÃ¼br igen
B i
G u
H ost
m ethod
r un
el and
ĠK os
Ġre ich
all er
Ph one
Ġdist ance
Ġblo od
ĠFak ult
K l
Ġa cadem
on ia
ĠT el
Ġver gangenen
Ã¤m lich
Ġeconom ic
Stra ÃŁe
p ap
s ing
u ern
ĠV iol
if iers
lin der
AG E
ĠCD U
fÃ¤h igkeit
posit ory
Ġsow jet
Th ese
ĠTra in
cy cl
ĠNord rhein
ĠBild hauer
ĠGener ation
ĠFlug zeug
H ome
J an
fÃ¼hr en
Ġber Ã¼hm
ĠgroÃŁ es
ĠNord osten
ĠMos kau
> ,
F in
P C
Ġm Ã¼n
ĠM ov
ĠI ran
sch rank
ĠJo achim
ĠS qu
ĠK amer
ĠW ett
Ġver kehr
Ġzum indest
stra hl
Ġredu ce
Ġstrateg y
ĠSec urity
Rec ord
ĠFrancis co
Ġeinger ichtet
ĠWeltk riegs
a ctions
c raft
Ġh off
ad or
ĠIn nov
af t
ĠAn frage
form ance
lan de
Pro ject
ĠAd am
Ġtechn ical
Ġchar acters
ĠBereich en
Ã¤us ern
S G
Ġd auer
ĠA C
ĠD B
ĠT imes
ĠL as
ab teilung
ĠAn dr
ĠRe is
Ġsp irit
ĠAuf stieg
zeit ung
ĠNord westen
fang s
ĠSicher heits
issert ation
M o
Ġd rop
st at
ĠJ agd
teil igung
Ġob serv
Ġbo y
ĠComm ittee
beding ungen
Ġb rought
ent um
ol i
ĠK athol
ĠN ode
Ġim press
ĠIn gen
onn a
Ġinter ior
ĠKon gress
ig ger
ĠP unkten
ĠR h
Ġtats Ã¤chlich
C ons
b on
ĠA M
ĠK affe
ĠAn ne
ly wood
elt a
ĠAb schnitt
De p
co very
roll en
Ser ie
ĠSchles wig
p o
ĠF air
ĠK lassen
if ik
ĠO ther
Ġdem and
ĠHer bert
ĠFor men
fl Ã¼gel
Ġvers ehen
ĠAnd roid
Ġben ach
ĠĊĊ ĠĊ
ĠSam stag
k ur
k Ã¼nd
st Ã¼cke
Ġcon cept
urn ier
ite ktur
ĠOr dens
Ã© n
AT A
Ġserv ed
Ġphot ograph
obil ien
Ġs org
Ġp df
ĠRe f
Ġwe ist
auf trag
ĠQu er
ĠBundes liga
Ġrem ote
b ad
ĠS of
Ġf uck
or gan
he bung
ur ts
Ġm is
el ess
ĠM id
ĠK art
ĠK ron
ĠVer antwort
Ġrespons ible
ĠV ari
Ġch annel
ĠFahr zeuge
igr ation
m ack
ĠS au
ĠF inn
ic ul
The ater
Ġstand en
Ġchallen ge
D ocument
M ich
P AR
W el
c en
f lo
Ġs itu
Ġc old
ĠJ ava
Ġfin ished
ĠTechn ology
ĠHaf t
re hens
ĠM und
ent in
ĠC ho
os a
Ġfor der
ont o
b al
ĠB aus
ĠF ant
Ġst Ã¤r
Ġde lete
ĠÃ¼ber geben
Ġ8 00
Ġbek ommt
Ġstra ight
h aben
n icht
Ġs ituation
ĠB asketball
ĠL ibrary
ĠC ert
ĠRe port
Ġsch reiben
iert es
Ġte aching
Ġad vanced
Ġapp reci
ĠEl isabeth
wend ungen
Ġallow ed
iw od
Ġregard ing
Ġs up
Ġs amm
ag ram
ov en
Ġber uf
ĠB ell
ĠC a
Ġcomm and
ĠAir port
Col or
ĠNetz werk
C ar
Q ue
es is
ĠB aby
il den
Ġl ab
Ġl isted
Ġk ommun
ste iger
gesch rieben
Ġ190 8
quire d
liegen den
l Ã¶
u um
ĠF ood
Ġbe yond
Ġacc ommod
Ġverst Ã¤r
Ġach ieve
Ġextrem ely
Ġeffic ient
kra ine
ĠLeicht athlet
B ook
N et
W as
g asse
as ks
Ġf ill
Ġn ut
ra ys
ĠC ard
Ã¶ ÃŁen
wer ten
pro cess
ĠAd el
ĠGer Ã¤te
Ġnumber s
asil ian
Ġswe et
ĠSchaus piel
is her
or dens
ĠN ap
ck et
Ġge ist
Ġ/ *
For m
por ts
cr ibe
ĠPfarr er
ĠDate i
i y
Ġm iddle
Ġh a
ĠT uesday
Ġge plan
iter ator
De f
Ġ189 0
urren cy
ĠNieders achsen
V P
at om
ĠD aher
ĠBe ziehung
Ġeas ier
Ġfield s
gangen heit
Ġprote ct
Ġcoff ee
Ġt schech
ĠB ord
el or
Ã¤ st
ĠP od
ĠSch on
ĠRe public
Ġlie f
ĠGes am
ĠÂ ·
kathol ischer
ĠWed nesday
ĠW ord
ĠW ho
ĠN un
ĠSch iffe
part ments
ĠTod es
ĠSchwer punkt
ĠMaÃŁ nahmen
Ġsynchron ized
ar ily
Ġg ave
Ġun ge
ag a
Ġj ud
ĠAl ters
ĠGr enzen
Ġmay be
ĠSÃ¼d westen
Ġnear ly
T S
Ġl ernen
Ġge plant
os is
ann ter
setz ungen
Ġaff ect
Ġwest lichen
======== ========
c are
m ie
n ischen
| |
ĠD ra
Ġc entral
Ġdem onstr
En um
ĠDurch messer
ĠSon ne
Ġdest ination
D ollar
w arn
z ur
Ġa ward
Ġf rag
ĠAn spruch
Ġman ager
ph y
Ġfeel ing
Ã£ o
h ar
ĠB ow
Ġbes itzen
ĠReg ister
Ġbeg onnen
Ġmoder ne
ĠBund est
Aug ust
or ganisation
ĠN ahr
ann ed
row able
Ġfac ilities
Ġruss ischen
ĠOrd nung
B erg
S PD
T emplate
Ġf an
Ġf ein
Ġg rat
kt ar
Ġstar tete
Inter face
ĠRei hen
J ul
o ben
v ollen
Ã¼ mm
Ġan hand
ĠR oten
ul f
Ġj ourney
Ġent ity
ĠTer min
Ġcover ed
Ġwes entlich
ĠpersÃ¶n lichen
ĠNet work
M B
k u
m eldung
v ar
ch ern
ĠB an
ĠM ak
ĠW alk
ĠN ight
if el
ĠThe odor
sh ips
con text
Ġexc iting
Ġcent ury
r ik
Å ¾
Ġn Ã¤mlich
ol es
ĠJ ed
ow e
iz iner
tel n
Ġze igte
ĠFahr er
ĠStr ateg
ĠMax im
ĠOx ford
D ar
t yp
Ġd eine
us en
ĠM isch
ĠG le
ĠH ospital
Ġvor gesehen
Ġ4 1
auf hin
Ġbek annte
Ġcommun ication
time Exception
m inton
on ien
ĠH as
Ġk auf
se ud
tens ion
Ġschw ier
Ġur l
Ġdi agn
Ġocc ur
Ġcompon ent
H aupt
le hr
Ġf allen
ce an
we ight
ĠEn gel
kl us
A F
f els
ĠP age
ĠE ber
ĠH immel
ĠR ub
ĠLe arn
Ġpar allel
ĠVers uch
ĠGed anken
wirk ungen
ĠEnts te
k unst
il de
ĠK im
ĠL ady
ate ver
ĠBe ck
Ġad just
ĠPar ameter
sche idet
Ch ange
ĠStra f
Ġeinge fÃ¼hrt
ĠFig ur
ĠFound ation
l Ã¤nge
ĠK op
Ġde cl
ĠEn s
Ġbrit ische
ĠPrÃ¤sident en
rÃ¤n k
Ġmem ory
c ore
k ins
ĠI ter
ĠH oll
ĠL en
ce p
ĠPro z
let te
ĠStra ÃŁ
Ġbil dete
b ibliothek
Ġt ritt
Ġc ars
ĠG reg
ĠE bene
ĠL abor
Ġcom par
Ã¤tz lich
fÃ¤l le
M en
Ġw ants
ĠH ot
ach tet
ot ional
Ġuse ful
Ġ190 6
!! !
Wh ile
ĠKomm ission
teil s
Ġact ual
ĠMet hoden
Ġstell vertreten
Ġdah in
ĠWilli ams
Ġn amens
ol en
ĠE duard
ĠK anz
ste dt
Ġhe im
ust ain
... )
ĠEx ec
200 3
Ġ190 9
sc ar
ĠPfarr kirche
ĠBron ze
ĠVorg Ã¤nger
K urz
R ed
ĠB ade
iz z
ĠHe ad
Ġqu al
Ġste ps
ĠFre izeit
ĠBes itzer
gew and
Ġopen ing
Ġpie ces
b ing
w riter
ĠA ction
Ã¼r en
ĠAus nahme
fe ct
Ġ5 2
gra ben
ĠInternational en
akte ur
Ġaltern ative
ĠG ang
ĠH ockey
ĠR io
Ġre chten
iz ien
ĠSp itze
ĠDe ck
ĠHe ft
ĠInd ivid
F unktion
H S
or p
ĠB oston
ĠTe lefon
ipp e
Te chn
Ġrestaur ant
d el
im ens
ne e
Ġde termin
Ã¤n ner
hÃ¶r de
ĠEx empl
Ġeigen stÃ¤nd
alb um
ĠStr and
Ġkur zen
Ġthous ands
Ġd Ã¤n
ĠA ktion
ĠL ED
ĠO tt
ĠZeit raum
haf ten
Ġauth ent
Group Name
ĠTenn is
ĠM ike
Ġg ran
Ġsch Ã¶ne
ĠSong s
Ġhund red
ĠMatth ias
A v
P ass
Ġs ets
Ġf le
ĠE ven
ein anders
ann i
Ġtr ust
Ġprote cted
ĠEhe frau
O W
ent hal
ĠW ag
wer den
upp en
Ã¼t ze
ĠErw achsen
Ġm icro
ĠK ab
ĠL ag
ĠR uf
ĠR ett
ĠZ erst
get Key
Ġle it
wer ken
mal er
stand en
Ġel f
ĠTeil nahme
gra de
bÃ¼ cher
Ġimmed iately
B ad
is at
ie fen
ĠUn garn
ĠGe walt
ER R
Ġpe ace
ĠRÃ¼ck kehr
Ad d
ĠHotel s
Ġmot iv
Ġin ternal
ir us
ĠO der
Ġeinzel ne
Ġober en
Ġn utz
ĠD ur
ĠL ot
Ġmit einander
ĠRe fer
rat es
Ġprodu ce
Ġdr ink
čĊ čĊĠĠĠĠĠĠĠ
ĠDevelop ment
m essage
p ite
Ġ uk
un s
Ġf elt
Ġc ore
Ġh us
Ġg ather
ies e
Ġfe hl
ron om
Ġfind ing
Ġprof ile
Ġdat abase
ĠBek annt
ĠWies baden
S ign
ĠLe ute
ack en
ĠMan y
ĠHand buch
Ġdiffer ence
merk ungen
Ġgleichnam igen
is ierten
ĠJ ersey
ug u
Ġed ge
C A
P e
i ot
r ig
v orsitzen
Ġa head
Ġf ather
Ġp aid
ĠP ed
ĠG lauben
Ġr ules
Ġstud ies
ĠProdu zent
Ġturn ed
Ġhig hl
Ġgemeins amen
Besch reibung
# #
k re
re c
ĠS zen
Ġin f
Ġab geb
ĠThe orie
ho fen
Ġreg istr
Ġsing les
mÃ¶glichkeit en
z in
ĠS tellung
ĠE lemente
Ġse ch
ungs ver
ĠfÃ¼hr ten
grÃ¼n der
ĠArch Ã¤
ĠAngeb ote
he dr
Ġb ot
ĠD inge
qu enz
aus schuss
Ġsch affen
In nen
ĠTra um
alen der
Î ±
is piele
Ġb ag
Ġh Ã¤tten
ic ious
ĠR ena
ĠRe v
her zog
ĠZahl en
lam ents
Ġbott om
ĠDarm stadt
st ock
ub a
Ġat tempt
wei ht
Ġexper ts
Unter nehmen
Ġexec ute
on i
Ġs um
ro chen
ĠW M
Ġart ists
Ġben utzt
Ġsay ing
Ġexist iert
beding t
M ult
ist ant
we il
ĠAn h
bo olean
ĠZug ang
ĠBu ild
bere cht
Ġphil osoph
l ife
r Ã¼ck
le hre
ĠL iber
Ġg olden
ĠPro jekte
Ġsc ale
Ġover all
ograph ische
Ġend gÃ¼lt
p ot
ĠS ystems
ĠH ttp
and om
ĠVer st
ĠVer gangenheit
Ġsc en
Er ster
ĠPf ar
ĠBuch st
spe kt
r Ã¶
un a
ĠB M
ĠB arn
Ġ( ,
ĠK rieges
ĠR oh
Ġst opp
Ġange legt
icher heit
Ġatt ack
Ġunterschied lich
Ġzwe imal
ĠLeop old
Ñ Ĥ
Ġthe me
Ã¼ck lich
Ġman age
wer ben
Ġmov ed
ĠJo e
ĠGerman y
M ore
r aten
mann s
Par ams
hÃ¶ he
plat te
c ount
er em
or fen
Ã¼ chte
ĠA ccess
ĠB art
ĠV aters
ĠMark en
ĠBarbar a
A pi
or mal
Ġf ans
Ġh ospital
ĠL uf
ĠC ost
Ġst yl
Ġr Ã¼ck
ĠRe de
for mer
Ġsp rach
Sch riften
ĠX ML
ĠGroÃŁ e
gra f
Ġann ot
ĠerklÃ¤r te
ĠFernse hen
U B
Ġun er
ĠFe hl
Ġtop ic
ĠGew icht
Ġm Ã¤nn
ĠD aneben
ol o
Ġpr esented
ĠBundes republik
FA ULT
Iter ator
j u
r in
Ġw ire
Ġm sg
Ġp air
Ġth ank
Ġhe ight
Ġvor bei
Ġen dete
Ġte ams
ĠPr iv
reg ister
ĠKn oten
prÃ¼ ft
L C
p et
ĠH arr
ĠL ittle
ĠU se
sp ir
ĠLe iden
ĠOr der
ĠFre itag
gest altung
ĠBahn strecke
ĠSchl uss
Ġentwick eln
ĠG riechen
Ġer laubt
Ġcan cer
fÃ¼hr ten
bau er
Ġpar ameters
zÃ¼ glich
ĠL am
Ġre levant
ct ic
Ġpro ud
Ġ4 6
Ġgu ests
ĠMark e
ÃŃ n
Ġcertain ly
P olitik
ch o
or ph
Ġw achsen
ĠS ir
gr enzen
ĠEin richtung
Ġkon zentr
Ġpay ment
J e
s ur
z ell
Ð ½
Ġn Ã¶t
Ġc ock
Ġer mÃ¶glichen
iv als
ĠBe weg
ĠWe ge
man agement
wh ile
s ource
w all
Ġw ine
ab ilities
ost ers
ath on
tra gs
Supp ress
Warn ings
" ).
ļ Ń
ĠBe ziehungen
Ġdurch schnitt
lig isten
Ġdenn och
histor iker
f it
w urf
ĠT rÃ¤ger
Ġto ken
Ã¤l le
ett ings
res h
Ġpol y
Ġappro priate
Ġlov ely
ĠSchne ider
Ġbesonder en
ĠQualif ikation
ĠSeb ast
J son
or row
ĠA S
Ġer b
ster dam
ĠRestaur ant
D ur
ar ray
ĠK Ã¼n
ĠN och
Ġear lier
ĠverfÃ¼g bar
4 00
ĠD ialog
ĠT Ã¼b
ĠP os
ĠO R
Ġges pe
ĠMein ung
P ost
Ġw rote
Ġdam age
Ġmed izin
fre und
Ġincre ased
ĠPublik um
) {
p id
ĠA dr
sch ne
ot yp
gr iffe
ĠHers tellung
ĠMuse ums
ĠA L
ro ad
ĠE ur
we ge
Ġsp read
Ġcont ain
Ã¤nd igen
ĠFrank furter
Ġstand ards
ĠStre cken
st rom
ĠD iv
Ġab gerufen
get Type
ĠHer kunft
Ġdr iver
Ġstark en
Ġerg Ã¤n
urren z
g reg
Ġ ueber
Ġb la
Ġin dependent
im en
ĠC anad
ĠV el
Ġre icht
art igen
Ġsp rechen
gel t
Er st
Ġdevelop ing
log ger
ĠErw eiter
Ġclean ing
ĠJapan ese
mitt lung
ĊĠĠĠĠĠĠĠĠĠĠĠĠĠĠĠĠĠĠĠĠĠĠĠĠĠĠĠĠĠĠĠĠĠĠĠĠĠĠĠĠĠĠĠĠĠĠĠĠ ĠĠĠĠĠĠĠĠĠĠĠĠĠĠĠĠ
B el
Ġs ources
ĠM ut
ent ur
Ġland wirtschaft
ordin ate
ĠGeist licher
ĠNik ol
z ust
ra k
ĠH ug
ĠR oss
Ġre ader
if iziert
ĠLand tag
De cl
plat ten
Ġnomin iert
G o
J ust
Ä «
ie den
ar in
ĠD adurch
ĠG ymnasium
Ġge z
ĠThe ologie
ĠAr thur
ĠMit arbeit
ĠAuf lÃ¶sung
Be vÃ¶lker
ĠSÃ¼d osten
Stat ement
ĠFakult Ã¤t
B Ã¼rger
Ã¼ p
Ġc ache
Ġh ers
ĠP ac
ĠE qu
ĠW ay
Ġre asons
Ġsh own
Ġro b
Ġtra ffic
Ġpre par
ession al
ĠAfr ika
Ġfab ric
K irche
N r
Ġl abel
ĠGe gner
teil ungen
Ġtechn iques
ĠPre uÃŁen
ĠDistr ikt
Ġsen ior
Hol stein
Ġcompon ents
ĠSib Tr
N ov
er te
ĠB ang
ĠZ un
Ġse cret
ĠPe ople
ĠEnt fern
ĠSchl Ã¼ssel
ĠTw itter
ĠBenutz er
Ġnumer ous
Ġt rifft
ĠK amp
ĠW Ã¼rz
Ġsur v
value Of
Ġexpl ore
ĠGest altung
ĠEpis ode
iwod schaft
N ON
P O
S he
Ġn Ã¤her
ĠT ax
ĠK anada
et ze
ver anstaltung
Ġ5 3
Ġpr incip
Ġgen ug
Ġprodu ced
yl van
Ã¤ ure
ĠF lag
Ã¶ die
upp er
Ġbeg innen
Ġcol our
Field s
D u
d ach
st Ã¤d
ĠK Ã¼nst
ĠAn ders
iss ance
app e
ĠGesch ichten
Ã¤ng nis
ĠTod ay
ĠFil me
E Class
ĠB ier
ĠF Ã¤h
et he
Ġr ent
ĠEd ward
aliforn ien
Ġchallen ges
P latz
Ġe at
Ġ18 70
burg h
set s
Ġsc ene
Ġexper iences
Ġsm ooth
umm ern
Ġcrit ical
Ã ł
Ġs inn
Ġc it
ĠC ro
Ġman chmal
ĠÃ¤ uÃŁ
ouverne ur
H aus
L ook
P A
d b
i ÃŁe
Ã ¥
ar g
Ġm ut
ĠT emplate
ĠP M
ĠK Ã¶
est ination
Ġj ung
ĠOr chester
Ġda ÃŁ
L a
T ags
os ing
Ġ4 7
Ġ5 7
hin dern
ĠDon key
Ġinstall ation
ĠChem ie
M ain
at re
Ġin n
ĠT sch
ab end
Ġ5 1
Ġber ichtet
Ġbig gest
Ġzie hen
Ġerz Ã¤hlt
Ġautomat isch
H istor
c u
l ight
r asch
â Ħ
Ġt it
ro h
Ġwh ose
ĠSp rachen
lat es
ake i
ett ing
Se gment
ĠPre ise
ĠZwe ck
I E
P lease
b ahnen
f alt
st ad
ĠK redit
Ġfor ce
ak i
Ġhe avy
... ]
stell ungs
hÃ¶r igen
Dire ctory
or i
ĠP S
ĠK amera
ĠH yp
em ark
Ġal ter
Ġcon vers
Ġinst r
Ġcommun ities
Ġut il
T E
p asst
Ġf ot
ĠC ir
Ġro of
Ġexp and
ĠT wo
ier end
Ġbet rieb
ĠMed ical
Ġprocess ing
ĠCont ent
Ġexc ited
ĠBro ok
LO W
ungsp ro
Vari able
. _
I ST
M essages
ĠJuli us
Dies er
ĠComm ission
ĠjÃ¼d ischen
Pat tern
D igital
k at
Ã Ĺ
Ġa partment
Ġb ow
Ġin nen
ĠD iffer
ĠSp iegel
land es
gesch lagen
legen heit
Ġident ify
Ġparticular ly
ĠParte ien
Ġs rc
ĠS ud
ĠS oph
Ġb ess
ĠW atch
ist ischer
Ġ18 80
Ġpar ams
Se henswÃ¼rdigkeiten
Ġnotwend ig
s ichts
Ġd ank
Ġw ebs
ers te
Ġde termine
Se lect
ĠEm il
ĠHel mut
Ġinvest ig
ĠBevÃ¶lker ungs
o ter
w as
al em
Ġc alls
Ġk ulture
ĠBe at
ĠUn abhÃ¤ng
ĠFl Ã¤chen
Ġdr am
Ġgre ater
ĠD J
ard o
Ġch ain
ĠmÃ¶glich st
A V
t ml
in stit
ar ia
ĠL it
ĠJ a
Ġauf gebaut
od urch
Ã¤r t
ĠCon ference
ĠHam burger
ĠEngl isch
schlÃ¤ ge
P al
ĠL td
ĠR ollen
ien cy
Ġrelations hips
en ken
Ġs y
ĠA le
ĠB ase
ĠM Ã¶n
aus stellung
enn fahrer
ĠEurop ameister
Ġ190 2
Ġnah men
Suppress Warnings
J uni
c al
we ist
Ġde partment
Ġwe chs
ĠAb itur
ĠIm age
ĠEng agement
Polit iker
P ool
U ID
ĠV iet
ĠO d
ĠGra d
so ap
ĠMag de
Ġmov ement
Trans action
Ġneigh bor
ĠtÃ¤ glich
U I
Ġs orgen
ing t
ĠN Y
200 2
Me ister
ĠGrÃ¼n der
Ġrelig i
w ettbewerb
ĠS ak
ĠL etz
Ã¶ gel
Ġunter halb
ĠMe cklenburg
lei hung
Ã¤mp fer
ĠBayer ischen
8 00
Ã¤ ll
ĠD Ã¤n
Ġz er
ad ing
ĠPro te
Ġent steht
ĠLand schaft
ĠMa ur
ĠArm y
Ġgelegen en
m ag
Ġt Ã¶
ĠT ats
ad ow
sen z
Ġat tend
In ternal
ĠNe ust
Ġ189 9
Ġren ov
Ġsepar ate
Ġrequ ires
C ommand
Å Ħ
ĠW Ã¤r
th a
Ġcom ments
hand el
ĠMan fred
unter richt
ĠJohn son
lÃ¤nd ische
ĠÃ¶ff entliche
k ern
Ġw odurch
art ig
ru pt
ĠOr tes
ĠTÃ¼r kei
L age
Î ¿
tr ast
Ġoper ations
leb nis
ĠS E
Ġf ung
us sen
st on
st yle
ĠU kraine
Ġfor ms
Ġse a
St yle
ĠFran ken
ĠQu elle
Ġbo und
Ġtr ug
Ġend lich
Ġsex y
ĠAfr ican
prÃ¤sent anten
P eter
W E
Ġd ish
an on
ĠD ich
ĠT ay
ĠR Ã¶m
ap h
Ġcon ference
iss es
Ġsc ore
zie ht
Ġpat ient
Ġref lect
Ġregister ed
resp ond
z iger
ed om
Ġzu geordnet
ĠZ ivil
ub il
ĊĠĠĠĠĠĠĠĠĠĠĠĠĠĠĠĠ Ġ
Ġpr in
mar sch
Ġ190 3
ĠNutz er
G E
ĠB io
st anz
ĠP red
ĠW it
Ã¼r zt
Ġver geben
Ġse ven
hard t
Ġaut o
ĠFÃ¤ llen
st ab
ĠEin richtungen
fÃ¼hr te
ĠSc iences
Ġ190 4
Pf alz
ĠObserv able
âĦ ¢
Ġt ruck
it em
ĠR on
ĠC ur
piel en
Ġvis ual
Ġcap acity
omet ry
Ġn ar
Ġon to
Ġr at
Ġun gefÃ¤hr
ĠWe imar
ĠBer icht
Ġqu e
Ġber ufen
ĠGra ph
rehens ive
z te
Ġc ategory
ĠH ahn
ik es
me er
ring t
Ġman aged
Ġbet roffen
Ã¤nd ige
Er folge
ĠCarol ina
Ġol der
3 00
Ġb rach
Ġv ierten
gen Ã¶ss
est amp
ĠAm b
Inst it
Ġorgan izations
Ġsozial en
Ġs Ã¤m
al tete
em ed
ĠN ah
Ġunter en
Ã¤r ung
Ġeigen es
ester day
ĠBar on
ĠFernseh serie
lad ung
ch ip
Ġm ilitary
st al
Ġh aven
ĠT Ã¶ch
ĠP ast
ĠL au
ag on
ru pted
Ġex change
sen s
ĠGer icht
Ġet abl
ĠInstit ution
Ġpop ulation
Ġrad io
KE Y
P R
e ch
ar ks
ĠP in
ĠR ail
ĠR ose
Ġex ter
ĠUn fall
Ġen h
ĠTh read
oin ted
Ġbuy ing
m aschine
u ellen
ĠF F
ĠL inz
Ġgew Ã¤hr
Ġrec ords
Ġfre ien
AR T
ĠLauf bahn
Out putStream
ĠEigen schaften
ĠflieÃŁ t
is tern
Ġt oll
ĠS af
ing ham
ĠO pp
ĠVer mÃ¶gen
Ġvor ge
Ġres idents
ĠMe yer
ons erv
ĠAm sterdam
Un d
200 1
E hr
Â ´
Ġd aughter
Ġt rop
el se
Ġp ow
ĠT aschen
ĠF ur
ĠEr ste
bo den
Ġho her
Welt meisterschaft
Ġanges ehen
ĠPlat ten
Ġsong s
ĠKomb ination
N ow
u an
Ġb urn
le ute
Ġan g
Ġan schlieÃŁ
Ġn um
ĠL ein
ĠAn f
ĠEin sch
ĠKon zer
stra ct
Ġclos ed
Ġpriv aten
Ġkathol ischen
in u
Ġm ail
ĠK ent
qu ery
Ġ18 48
ĠMin i
Or ganisation
AN D
ĠUntersuch ungen
H z
n itten
ĠE ich
up date
reat ive
Ġhelp ed
ĠOl den
ylvan ia
B B
U P
it ors
Ġb uf
ol s
Ġein s
ĠIn itiative
ĠMin ute
Ġviel fÃ¤lt
Ġstr ug
ĠVers icher
mod ell
ĠMount ain
ĠZusch auer
ĠlÃ¤ uft
z um
st il
ĠT ief
ert al
ĠVer letz
ĠCh allen
ĠBr Ã¼der
ino is
ĠKr ist
rÃ¤n kt
it at
em it
ir n
Ġl it
ĠSt ream
Ã¼r f
In sel
Ġeven ing
I gn
ier er
ĠJ ena
Ġal one
Ġgr unds
ais er
fÃ¼ ll
Ġfact ory
ĠIns eln
urf Ã¼r
Ġnahe zu
Ġzie ht
ĠNationalsozial ismus
Ġhus band
P la
c ert
t own
ĠL angen
ir urg
ĠIn fanter
ied elt
Ġerh ielten
He ight
kauf t
cel ona
Ġdoc uments
C T
L in
k amp
k Ã¶rper
t um
ĠS ymbol
ĠSt unde
Ġsch reibt
wer tet
Ġsh ap
rich ter
App lication
Ġtalk ing
m ot
Ġv ision
ĠM auer
ĠT ob
Ġein iger
ed ikt
ĠBe am
ĠWeltk rieges
ĠDem oc
Pre fix
ĠFrei heit
ĠS QL
Ġb illion
ĠE M
ĠK ob
ĠI ts
Ġgra de
spre cher
Ġfollow ed
denk male
Ġsoc iety
k w
Ġf at
Ġf lag
ĠK ardinal
ber icht
iel l
rom e
res ponse
Ġoper ating
lev ision
ĠÂłĠÂł ĠÂłĠÂł
im ents
ĠL ust
Ġbe ant
Ġer hoben
Ġum geben
AR L
Des criptor
ĠStÃ¤d ten
Ġrule Jvm
ĠAnton io
ĠMex iko
c ar
ĠS ens
ĠS ince
Ã¼ gt
Ġ1 10
Ġauf gelÃ¶st
ss on
urop a
Ġrem ain
ĠInst all
ĠgrÃ¶ÃŁ er
ĠJe ff
Ġzunehmen d
ĠBeding ungen
ch ild
ĠA gr
ĠB alk
Ġl i
au ert
ms g
Ġbr ight
Ġinit i
ĠWo iwodschaft
ĠUntersuch ung
c z
g red
in ken
es tern
ik ing
Ġj ur
ĠPar laments
Ġpre pared
Ġmain tenance
Ġgemeins ame
ĠTÃ¼b ingen
D own
z unehmen
Ġe ight
ĠF ro
ĠGr amm
ĠFl ucht
Ġvis itor
ÃŃ a
F il
W il
Ġp al
od a
ĠAn lagen
Ġi Phone
Ġbis lang
Ġvor aus
grÃ¼n dung
ĠPre uÃŁ
ĠHeraus geber
Ġvo ice
d auer
k es
er a
ĠK ost
ĠSch ach
ĠVer dienst
Ġum ben
Ġby tes
ph il
Ġte le
Un able
ĠOb wohl
Ġloc ations
Ġgest alten
Ġindustr ial
r amm
r ical
le bt
ĠH um
ĠW urz
Ġre ag
Ġat tribute
Ġfe aturing
imm ing
Ġbra ucht
k ore
t x
w ing
an ded
ĠM d
() ).
ĠWe gen
Ġqu arter
Ġges ellschaft
ĠTr ib
ĠDaten schutz
c opy
ĠF ast
ĠK eller
ĠEr ich
ĠAr r
ĠMar i
Ġcomb ination
Ġzust Ã¤ndig
ziehungs weise
! )
B as
d on
Ġf ish
ĠB om
ĠPro perty
ĠStud ie
Ġausge fÃ¼hrt
Ġgener ate
deutsch e
Ġbenach bar
B re
n g
ic ial
ĠK up
ĠN in
Ġre le
esch oss
ĠFor ce
ĠFre ien
Sch ema
ĠzurÃ¼ck ge
Ġsol chen
ĠCont rol
ĠViel zahl
char At
ĠBrasil ien
ĠRost ock
} ,
Ġw eder
Ġbe grenz
Ġver urs
gesch oss
ĠWeit eren
H ere
Ġb ist
Ġc e
Ġgener ally
ĠSan kt
Ġcour ses
Ġhistor ische
Ġbal ance
ĠLex ikon
M M
b ay
k ultur
y t
Ġs uffer
ĠP ow
ĠL ock
Ġwir kt
Ġex pression
Ġ15 00
ĠGra z
Ġeinz igen
deck ung
Ġlo an
Ġkeep ing
ĠAustral ian
p aar
ĠH ong
ĠJ etzt
iz ont
has Next
Ġklass ischen
Ġpan el
But ton
ĠVirgin ia
S earch
T ube
r iss
s ein
Ġs ample
ĠP ath
ĠF ootball
Ġl auf
Ã¶ z
ĠU fer
schaf fen
Ġsn ow
ĠrÃ¶m ischen
ĠbestÃ¤t igt
Ġa wesome
or ation
ĠC H
Ã¶ ck
ĠJ enn
ĠIn frastruktur
Ġver legt
Ġr ank
Ġus w
Ġsh ot
ĠSte phan
irt y
ĠKon rad
Ġpl astic
ĠSer ien
Ġbring s
Ġcour t
ĠGi ov
Ġcompet ition
Eis hockeyspieler
P o
W ert
Ġb on
âĢ ¢
ikan er
ĠWahl kreis
Ġgar ant
ĠAlex and
Ġvisit ors
Ġcla im
s ylvania
or b
ic ians
Ġun its
ĠTh ank
ob el
Ġ5 6
Ġsc r
ĠFrie den
Ã¼nd ung
Ġpres ident
Ġep is
Serv let
ĠSÃ¶ hne
e i
Ġc overs
id o
ag ra
ĠBe ob
ĠGe fahr
bes itz
R ange
S eine
v y
Ġa udio
ĠB le
ĠM P
la pp
aus gabe
eb all
Ġsh all
Ġverb indet
ĠOff en
Ġâ ļŃ
Ġmov ies
ĠKommun al
Ġcent re
ĠAntw ort
ĠE conom
ĠR oth
ĠDie ter
âĢľ ).
20 20
ipp en
a ill
r ics
Ġa uÃŁen
Ġf ailed
ste igen
ste uer
ĠSp itzen
De c
ĠBo olean
ĠRo om
Ġengine ering
ĠHash Map
f ir
ĠA T
Ġaus reich
ĠBe wohner
anz ig
Ġgu y
Ġcal cul
Ġant i
verkehr s
sta aten
ĠÃ¤ltes te
Ġwebs ites
C ommerce
Ġe he
ĠC apt
ĠÃ¼ber nehmen
ac ing
ĠInd ien
ĠCl ick
Cont rol
ĠJust iz
seit ig
Ges ellschaft
Ġspeziel l
ĠAktiv itÃ¤ten
F alls
as tern
Ġf eder
Ġan genommen
Ġh alb
ĠT u
ĠC reek
Ġbe ziehungsweise
Ġle ather
Ġqu ant
acht ung
ĠUm gang
iqu id
ĠWir ken
ĠÃ¶sterreich ische
Ġsqu are
. ).
L iter
k riegs
st one
oc ation
ĠNach richt
Ġdar aus
ĠGeb urts
Ġletz ter
Ġmin ute
Ġcor ner
Ġmax imum
Ġnational en
ĠSchn ell
Ġcommit ted
Ġoffiziel l
Ġmaint ain
Ġfant astic
> <
e vent
Ġp ull
ut ch
um pf
ath an
Ġsh aring
Ġhelp ful
ĠHaus es
schn itts
Ġwicht igen
ĠkÃ¶nn ten
ĠjÃ¼n ger
Ġerforder lich
ĠNeub au
a a
u ters
st Ã¤nden
Ġr uh
for scher
lo aded
ĠWe ek
ĠMon te
At tributes
Ġop in
ĠEar th
ĠAutob ahn
le m
ĠSch uld
uss y
Ġte en
ri age
lÃ¤nd ischer
ĠKarls ruhe
ĠPortug al
m otor
Ġal though
ess in
ĠkÃ¶n ne
erk l
cre te
ĠRes erv
ĠWei ÃŁen
ĠImm obilien
Ġerstre ckt
c ons
i Äĩ
m aschinen
Ġf la
ir ts
ad r
Ġeff orts
ĠFÃ¼r sten
Ġ189 6
Ġgest altet
ĠTab elle
B ere
C urrent
J ohann
P res
S ET
S cript
ĠN omin
ein heit
ĠSt ory
Ġex pos
Ġent schieden
ĠBr ig
Ġpost s
Ġtre ten
Acc ount
Ġexpert ise
h art
Å Ł
Ġw Ã¤hlen
ĠG it
ĠSt ift
Ġis land
Ġvor gestellt
geb nis
Ġsh ipping
Ġlie be
ĠRes ult
ĠEntwick lungs
Ġinc ome
Ġvol unte
ĠMathemat ik
Cre ate
K irchen
y ball
ar ina
Ġein geb
ĠR ol
ĠSt imme
ĠEr folge
ĠBe aut
pr Ã¼fung
Ġspe ak
Ġtr ial
ĠHar ry
usÃ¤tz lich
Ġh ieÃŁ
Ġg ain
ĠO scar
Ġaus ges
ĠAn forderungen
Ã¼n fte
ĠSte ve
ĠAll tag
Ġmed ium
Ã³ w
trÃ¤ ger
ĠPrinz ip
zÃ¤hl ung
Ġafford able
ĠZ oll
ĠWe ib
Ġ7 2
Ġtechn ischen
Ġfocus ed
ĠGesund heits
ĠPier re
b und
c ient
in zen
Ġm aÃŁ
ĠJ ones
Ġinst alled
ĠEd el
loy ment
ĠJack son
far ben
C la
ĠS yr
te am
ĠT H
ĠMar ien
Ġdo pp
gesch windigkeit
ĠBes onder
Ġra in
ĠZu cker
Ġdire ction
Ġbesch reibt
Ġverschieden er
ĠEing ang
ĠGespr Ã¤ch
ĠSowjet union
N um
z ern
ol ge
ĠK y
Ġver ur
sp ann
Ġpl enty
Ġ188 9
ĠPlan ung
Ġtrotz dem
ĠCam bridge
n um
Ġh Ã¶ren
ĠN on
ver lÃ¤ss
ĠEin kauf
ĠEin heiten
ĠStud ies
Ġ189 5
Ġopen ed
Ġaufge fÃ¼hrt
Ġneg ative
gestell ten
ĠDipl om
l ar
Ġb ought
ic ies
ĠR al
iv a
Ġ18 50
aut hor
Ġper man
aj a
Ġadd ing
ĠKont rolle
Ġve get
Jahrhund ert
o ire
ch nen
ver teid
ĠIn formations
Ġver hindern
ly n
Ġar en
Ġbr asilian
ĠBar celona
Ġcolle ct
Ġprocess es
ĠMod elle
A ct
c ise
je kts
ĊĠĠĠĠĠĠĠĠĠĠĠĠĠĠĠĠ ĠĠĠĠĉĠĠĠ
ĠBer atung
ĠBÃ¼ hnen
Ġview ed
ĠÃ¶st lichen
ĠS ig
ĠP ots
ĠL A
Ġk new
Ġre place
ĠZ ul
ĠAn alyse
Ġwar um
ok er
Ġunter sch
alt y
ĠVerb esser
W irtschaft
ĠC lin
Ġk o
ere ien
Ġsp ann
ĠMit gliedern
Ġsh ip
Ġget ragen
olog ischer
uck s
ifest yle
ĠColumb ia
b uffer
h es
p her
Ã¤ udes
ĠD og
ĠN ick
Ġur kund
Ġinsp ired
Ġelekt ron
A mer
g age
v ice
w Ã¤l
Ã «
ĠS oll
st ift
ĠF arm
ĠH ay
ĠC over
sp ace
Ġwir ken
Ġdo ors
isten ce
vers icherung
Ġbas iert
ĠSchne e
W or
W erk
t able
Ġb auen
Ã¤n k
ia c
ĠLe hre
me ter
ĠGe werk
ĠWe il
Ġnot ice
Th at
Ġeben da
Ġklein ere
Ġbra in
Ġstor es
Ġ187 1
Ġjapan ischen
ĠIll ustr
Gra ph
chip karte
re ht
Ġn am
ig s
ĠH Ã¶ch
ĠN ation
Ġshow ing
ĠprÃ¤sent iert
W rapper
g yp
Ġ icon
Ġa gency
Ġf emale
ĠB rad
ĠL ike
Ġzu k
Ġver Ã¤ndert
her ren
Ġspe ct
fÃ¼ gen
Ġfre ie
ĠAs ien
hol der
Ġmiss ing
Ġwissenschaft lichen
L en
Ġt ickets
ĠM ang
ĠD ist
Ġr u
leg entlich
other lv
Ġem pty
Ġersch einen
Ġcover age
ape ut
ĠTab ellen
ĠjÃ¼n g
k urs
ĠL eb
ĠVer n
get Id
reich er
ĠMar gar
cl ub
ool s
ĠMark et
ĠKn ow
ĠHil fs
Ġregel mÃ¤ÃŁ
ĠRe form
ap os
Ġcon figuration
ph a
An halt
ĠKl im
Ġfre und
Ġcoun ter
ĠBestand teil
Ġlux ury
ĠTÃ¶ch ter
K ompon
c la
s ite
ch or
ĠG anz
Ġer zeugt
aus end
ĠAl te
Ġte ils
Ġad ult
En c
Ġ189 8
Ġlog o
ĠWar en
EM ail
ĠKranken haus
ĠZus atz
Ġgall ery
Ġeleg ant
F O
a ult
h Ã¤ndler
Ġs ter
ĠF ore
Ġfor eign
ĠAr men
co in
ex it
Ġconne cted
Ber eits
itar re
Ġdet ailed
Ġerinn ert
Ġconven ient
J Ã¤hr
Ġs elling
ĠS ynchron
ic er
ĠK alk
Ġr ing
sh ot
ans as
Ġwel chem
ateg ories
ĠDes halb
ĠTer r
ĠOp ern
Ġerg ibt
D aten
o ted
t arget
age l
ĊĠĠĠĠĠĠĠĠĠĠĠĠĠĠĠĠ ĠĠĠĠĉ
Ġvers uchte
Id s
Ġinst ant
Ġtrans action
Ġlar ger
Ġspec ies
mod el
ĠRelig ion
ĠunabhÃ¤ng ig
Ġsatis f
F ailed
O F
S ingle
o om
u i
x ml
ĠD rag
am i
em ann
Ġk ombin
if orm
ĠSe kunden
ĠAb geordneten
fen se
Ã¤ch er
fahr zeug
ĠMet rop
ling t
Ġfact ors
ĠWieder auf
Ġwa iting
Ġapprox imately
Â ³
ĠS yd
Ġin gred
ĠA achen
ĠB itte
ĠM obil
ĠD ollar
ĠH at
ĠL eder
ĠN ull
ĠO ster
Ġco ach
Ġpre pare
ĠNor mal
ĠStud ent
Ġsupp orted
AL L
Ġeinfach e
IT Y
Ġpract ices
ĠDat um
ĠEngine ering
ĠÃ¤lter en
D ialog
t lich
Ġv en
ol ogen
ĠF Ã¼nf
ĠC ru
ĠSch we
Ġver tra
ĠRe quest
Ġsch rift
Ġunter r
IN T
ĠSchw ier
Ġsur vey
Ġhim self
ĠFig uren
Ġbetrach tet
S QL
g i
k Ã¼rz
al i
ich ern
Ġst Ã¤dt
ug ies
Ġle gend
olog isch
mit glieder
arbeit ete
ĠQu adrat
Ġacc essor
ikan ische
Be im
ĠOn ce
ĠInter essen
Ġ190 1
ĠForm el
Ġstark e
check ed
ĠRegen sburg
Ġflow ers
ĠRou te
Ġb ayer
Ġm ort
de fault
ĠP ur
im o
ĠK itchen
ĠL uz
ĠR ap
Ġch anging
Ġte acher
Ġ9 5
zeich nen
On ly
ĠMaterial ien
Ġbus y
Ġbehand elt
D om
H i
S L
p ra
Ġs orgt
st um
get reten
Ġnach halt
ĠSe arch
Ġar range
irt ual
Ġange zeigt
Ġklein es
ĠProf il
Ġstar ts
199 9
Ġsl ight
ĠKomp osition
" ));
c at
Ī Ĵ
us ted
th aus
Ġde als
ĠAn aly
Ġshe l
Ġplan ts
Ġperfe kt
ĠKap ital
ĠAre a
R Ã¶m
c ard
ĠM atch
ol is
ĠT y
ger Ã¤te
ph ia
Ġspe zial
Ġlook ed
Ġdr ug
Ġfav our
Ġsozial e
ĠgegrÃ¼n deten
Z E
s upp
re es
ur ers
ĠB row
Ġein getragen
ĠW Ã¼r
Ġg Ã¼lt
ĠVer w
app y
ĠBr enn
ĠFor mat
ĠHol lywood
ĠBesch Ã¤ft
Ġclick ing
ĠerhÃ¤lt lich
ĠVarian te
ant ic
ive au
ĠGesch le
ĠBes onders
)) );
akt oren
Key s
Reg istry
ĠKÃ¶l ner
ĠWochen ende
Ġadvant age
pt on
ĠOr ch
br and
Ġ8 5
ĠKÃ¶nig in
ĠEntw urf
ĠSchn itt
EC T
ĠMil ch
fÃ¶rder ung
h ops
ĠM B
de gang
ĠK Ã¶r
ĠV Ã¶lker
men d
ges ell
Ġcomp rehensive
yste men
Ġange gebenen
Ġgleich e
Se quence
Ġspiel ten
med izin
Ġsex ual
Ġinc or
D ay
d d
h ou
w ater
or ney
Ġw al
Ġver n
od ox
ĠLebens mittel
verein s
Ġlight ing
ĠFÃ¼hr er
ĠCanad ian
K rit
t l
is lat
Ġt aste
ĠT en
ĠF unk
Ġsch Ã¶nen
ial e
gr Ã¶ÃŁe
ĠNe um
hÃ¤lt nisse
Ġtest ing
produ ktion
ĠursprÃ¼n glichen
Jahr en
wirk ung
Ġb lieben
ĠB at
ĠT erm
ĠN ar
ĠV ie
ĠJ ar
ĠAm ateur
bach er
sw ers
ĠAlt ar
ĠSebast ian
ĠWÃ¼rz burg
w irtschafts
Ä ĥ
re w
ĠSp ace
Ġsh ower
ĠWh y
Mat rix
M ag
Ġcom pared
ĠAus einanders
Ġ/ >
Ġev idence
uz z
mus iker
Ġear th
ĠGed ichte
Ġwid th
ĠMex ico
e ig
l iance
ĠM io
ĠL ieb
lie f
ĠOr ten
Ġseit dem
Ġmittel alter
ĠBam berg
F ranz
L ayout
re ffen
ĠM ans
Ġn ennen
ĠF ord
Ġauf gestellt
Ġr ub
ĠUn sere
Ġen det
ĠPh ase
Ġstrateg ies
Ġexcl usive
F ahr
re ck
Ġf illed
Ġg one
ĠJ ungen
est ic
kt op
tr an
The y
fÃ¼hr ungen
Te am
Ġsee ing
199 8
ĠGegen wart
Ġ ..
Ġv s
ĠF ac
ct ures
we iler
av or
En gl
ĠBo ot
ĠKl ima
ĠOff izier
trag ung
Ġsur pr
jÃ¤hr iger
Pr ess
Not Found
ĠDort mund
ĠUms etzung
c os
n ight
ĠSch aden
ĠSch reib
cl es
Ġag ree
ĠAnt i
ĠMill iar
folgen den
Ġkor re
a al
v ia
ĠT ake
ĠC av
ot ic
Ã¤r ten
ner stag
Ġher z
ĠBr ust
Ġcould n
ĠFot ograf
Ġcor porate
umin ium
ĠVict or
Ret urn
M apping
d ro
ag ers
AC K
iate ilnehmer
ĠzusÃ¤tz liche
Ã¤dag oge
Ġabsolute ly
O UR
Ġver f
Ġcon temporary
Ġerw artet
Hand lung
Ġpract ical
ĠGeschÃ¤fts fÃ¼hrer
Ġhappen ed
Ġunivers ity
ch i
Ġthe oret
Ġk os
Ġde te
ific ations
Ġart icles
Ġphot ography
Reg ion
Ġrun s
Ġengl isch
Ġwind ows
Ġrestaur ants
adel phia
Ì Ī
an isch
ĠB Ã¼r
Ġn av
ĠV og
ĠGe gend
par ent
teil te
red ential
Ad apter
ĠGraf schaft
Ġassist ance
Ġpark ing
d h
f ranzÃ¶s
s ession
il ige
ĠR umÃ¤n
Ġl ayout
ach s
Ġre ality
je ction
Ġerw orben
Eng ine
ĠMagde burg
S ep
o es
ie ht
ĠB our
Ġg ern
ĠC op
Ã¶r ungen
Ġunter scheiden
Ge w
Ġgef ert
ĠDon au
ĠKo operation
Ġpaint ing
S m
ĠM ember
ot ton
tr ich
Ġsch lecht
Ġunter wegs
ond a
bau te
ĠVerb indungen
Ġstatt finden
199 7
Ġprom ote
Ph il
**** ****
Ġgetr ennt
T od
r s
z usch
as ien
Ġm ess
us es
ĠM ol
ĠW en
ĠJ im
ĠJ ord
Ġab ger
Ġad apt
Ġ0 1
Ġges ucht
Ġexper iment
besch reibung
Ġbedeut end
ĠMom ent
b ein
l ate
re tt
ĠB latt
Ġp reis
ĠK Ã¼r
Ġl ay
Ġl ose
ap ers
ĠAuf nahmen
Ġpart ies
iden z
Ġkomp lex
Ġjoin ed
Ġpo or
Ġveh icles
ĠInternal S
ĠGovern ment
Ġumben annt
Ġer lang
ĠSt ill
Ã¶r dern
Ġtra f
Ġtra ding
stra ÃŁen
ĠÃľber setzung
Ġmin imum
Ġwicht iger
ĠFle isch
ĠerhÃ¶ ht
ĠSupp ort
Ġnov el
X ML
e xt
m auer
ol as
ĠV it
fe uer
Ġ5 4
Pro f
Ġind ic
ĠJuni oren
Ġfun ctions
ĠBook s
Europ ameister
M O
Y our
a ktionen
Ð º
Ã¼ ch
om it
ĠG att
ik as
ĠSe cret
Re chts
Ġdis app
formation en
Ġpar ameter
ograph ic
reg isseur
Ġbisher igen
ĠOh io
S pieler
g ibt
k ow
al and
de hn
ĠK G
os low
Ġent schied
Ġinter pret
Ġ188 5
Ġoffen en
far be
ĠMik ro
VAL UE
T O
n chen
Ġo k
Ġc ities
ĠN umber
op her
Ġlang sam
geord nete
Ġerr ichtete
ĠKÃ¼ chen
ĠMehr heit
dire ktor
Ġacadem ic
ist rÃ¤ger
ĊĠĠĠĠĠĠĠĠ ĊĠĠĠĠĠĠĠ
ĠSch ott
Ġ18 60
ĠBau werk
ĠPl Ã¤tze
aun a
ĠRu hr
gorith m
Mill is
Ġ Ã¶rt
Ġs ustain
ĠD ial
ĠP y
Ġge fallen
int age
ĠBl umen
Ã¼t ten
ĠWer ken
Ġander es
ĠDire kt
ĠSÃ¤nger in
Ġlau tet
- /
< >(
H A
b ury
v ater
Î ¹
ch ung
Ã¼ se
st atus
Ġk g
Ġle aders
ud a
ĠUn ser
Ġsp lit
Ġworld wide
Ġenjoy ed
X ml
g han
um ps
ern ame
ĠPr ivate
Ã¶ff net
ĠInter ess
ĠFahr t
stru ction
ieb el
ĠRu he
ĠSec ond
ĠMÃ¶ bel
P aul
ĠH agen
ĠAn trag
sp latz
ĠCh ief
inz ip
Ġbesch lossen
hol m
Ġ189 7
199 0
ĠMich igan
jahr es
ĠTer rit
Film ografie
Ġverst orben
D el
f ot
ĠD ein
ĠH ild
ver l
we ich
Ġwas te
fen ster
hÃ¶r ige
Ġke pt
ĠBÃ¼ hne
ĠIngen ieur
C ert
O st
p ie
ĠM obile
ers dorf
ht ml
ĠGesch ichts
ĠBl u
Ġcons umer
stre cken
ĠGar den
k ar
o or
y ll
ĠĠ Ċ
ie ck
le vel
Ã¤ fte
Ġn ennt
Ġein schlieÃŁlich
ĠK alifornien
Ġge he
be an
Ġum ge
ĠGes ang
He ute
go ing
best and
zep te
Ġreli able
ĠHug o
N OT
o ul
p ommern
le ucht
ĠM ig
ĠP ir
ĠP ul
ĠK Ã¤
os h
Ġbest ritt
aw n
ator ium
setz er
ĠGu ide
Ġschwer en
v iel
Ġs izes
Ã¼ g
st amm
Ġbe coming
Ġse ctor
Ġeinfach en
H ein
Ġt ail
Ġt empor
Ġp assen
ĠH rsg
Ġk inder
ĠEn ter
Ġunser es
Ġserv ing
ĠInstit uts
Ġcontin ues
ĠCor poration
Ġcomb ined
S l
j an
ĠB em
Ġc ells
ĠH em
ger Ã¤t
ail ability
Qu alif
ĠSc ot
Ġpass word
anc er
SD AP
ĠVict oria
Ġw Ã¼n
ĠS her
ĠB enn
ĠD issertation
sch irm
ĠLe w
ĠAus zeichnung
Ġvers uchen
Ġsett ings
ĠÃ¤ltes ten
Ġsuit able
F R
g ab
g Ã¤nge
Ġf arb
ĠT R
ul ate
In ternational
Ġapp oint
erk ennung
Ġvis iting
ĠmÃ¶glich erweise
ĠKÃ¼ sten
Ġverste hen
N atur
Z e
ĠP ian
ĠAl k
ens es
Ġqu iet
ĠWelt meisterschaft
con stants
leit en
Ġfac ility
Ġeduc ational
Ġextens ive
ĠPatr ick
. /
e g
f irst
Ï Ħ
le ft
ĠT ree
ĠH ess
Ġst unning
ĉĉ ĉ
ĠBo y
Ġricht igen
verband es
M art
h Ã¤
s dorf
Ġf ach
Ġein deut
ĠG ab
Ġsch ied
ĠOn ly
ĠMot iv
Date i
ĠSpre cher
B ra
F OR
e f
ĠD oug
ĠSt ore
ver zeichnis
sp art
ĠFor der
ĠGem Ã¤lde
ĠMet al
ĠLoc al
National mannschaft
J ose
a illen
g reif
w ich
is or
Ġ( ;
ĠP u
ic it
ĠE ugen
ran e
ip end
ĠHe iz
ĠBr es
gesch Ã¤ft
ĠBo gen
Ġass ert
setz te
Ġricht ige
Ġwalk ing
ĠgegrÃ¼n dete
T C
Ċ Ċĉĉĉ
Ġa p
Ġb rief
el be
ĠD ark
Ġis ol
ĠAl p
ĠCh ance
oun ted
fe hlen
ĠGer Ã¤t
ĠRes ource
ĠVers and
ĠFahr rad
Ġ189 4
fort un
Ġseek ing
Ġf uhr
em burg
ĠC oll
Ġst ick
ĠAn im
end o
atur en
ĠAb geordneter
Pro zent
Type Reference
Ġinter face
ĠAut hor
Ġanim als
Ġbein hal
S ein
in us
Ġd okument
Ġa im
ĠS auer
ĠA D
Ġp ul
Ġc ultural
ĠE R
od ies
ĠBe f
pro p
ĠVerb rauch
ĠDr am
des ign
Ġengl ischer
ĠerÃ¶ff nete
Ġcontra ct
ĠArn old
Ġhil ft
Que ue
B en
M ilitÃ¤r
S uch
re gel
ĠM oh
Ġh ook
ack er
ĠMa jor
ĠEurop as
Ġfl ight
ĠVerb reitung
ĠPer formance
Sp ace
Ġdom ain
L ang
t ten
Ġd ou
ĠB ou
ĠT i
Ġ5 8
stand s
Ġbeen det
uk i
ĠMont ag
Ġverkauf te
ĠpersÃ¶n lich
Ġjapan ischer
Ġoffiziel len
Ġchines ischen
ĠContin ue
Ġjem and
u v
w Ã¼rd
Ġt olle
ĠE N
Ġbe zeichnete
Ġbes aÃŁ
Ġdo ctor
ĠNational mannschaft
ĠVerlag s
Ġlat ein
ĠHalb finale
Ġadmin istrat
Ġremov ed
ĠQual itÃ¤ts
B O
k Ã¼ste
Ã ª
as p
if act
Ġst arten
Ġver me
get Property
iz abeth
ĠMus ter
Ġstud io
ĠHand ball
forder ung
Ġdist in
ĠGrÃ¼nd ungs
sb ruck
reu ung
b indung
Ġan gen
Ġg ay
ĠN R
Ġle gen
CD U
ĠErk rank
Ġdunk el
at is
st ers
ĠH eb
ĠW hether
Ġden k
Ġtechn ologies
ĠFil mp
fre ie
r ate
r Ã¼stung
re place
ĠT ransp
Ġdie d
ĠK il
Ġer mittelt
Ġdes igner
ste ig
utz ung
ĠOb last
' :
J ohn
Ġm ale
ĠB lan
ĠĠĠĠĠĠĠĠ ĠĠĠ
ĠE arl
Ġl ayer
Ġre pe
Ġge Ã¤ndert
ell es
sen de
Ġad ults
Ġfin de
igt es
ĠGemein schaft
ma ÃŁen
enden cy
lÃ¤ ne
Ã¤nder te
ĠAkt ien
Ġvol ume
Ġwatch ing
bÃ¼rger meister
ĠViet nam
E ach
or ry
âĢ ĭ
ĠN az
Ġam b
ĠSe en
Ġthere fore
Ġ189 3
index Of
EX T
ĠRun timeException
L auf
T er
re me
al ition
ĠK Ã¶n
qu em
sp rÃ¤sident
ĠVer eine
ok us
etz ten
ob j
ĠAus gang
reis en
Ġknow s
ils on
Ġbestehen den
ĠBach elor
emb ly
ĠIntegr ation
ĠVerÃ¤nder ungen
ĠS ort
Ġf ear
Ġo st
Ġh arm
ĠG ipfel
sch uld
Ġauf treten
Ġr ide
Ġ6 6
Fe ature
Ġaccessor ies
m lich
t te
Ġver anst
Ġne ck
Ġzw eiter
ĠGesch windigkeit
ĠFr ucht
ĠCon gress
ĠMittel punkt
ĠComm on
Ġeconom y
ĠAng st
,, ,
ĠPenn sylvania
ĠTay lor
E very
M E
Ġ upper
Ġf rem
ĠK un
ĠK linik
ct ural
Ġbes etzt
br onn
ĠVerein igung
Ġbreak fast
ĠHor st
ĠBot schafter
Ġwissenschaft liche
i able
ã ģ
ĠS zene
ĠK Ã¼hl
ĠH ung
ĠW ales
ĠZ iele
ĠRe isen
ĠEr m
Ġsp Ã¤ten
ĠAus bau
Ġ9 9
igh ted
Ġpla ced
ĠRegion en
Ġoption al
orge ous
ĠKais ers
State Exception
k Ã¤
ĠD ynam
Ġc ivil
id i
ĠGrund lagen
On line
weis ung
ĠIll inois
Ġdisk ut
w inkel
ĠM ord
ic ian
th iop
ĠUnter schied
Ġapp ar
ĠEx press
ĠMÃ¼n chner
val ues
kun fts
ĠBuchst aben
ĠKÃ¼n ste
k ind
Ġe ating
Ã¤ ck
ĠF ab
Ġ" ,
Ġges und
Ġpar am
mosph Ã¤re
n i
in str
und et
ĠF ans
ĠH als
ĠL ow
Ġl ibrary
ĠSt aff
ver tre
ste chnik
Ġ5 9
Ġapp e
ĠGeb rauch
Se e
ĠHam mer
book s
Ġmass ive
Pol icy
J apan
p le
Ġd ance
al o
he ber
ĠM u
Ġp asst
ak et
ĠBes etzung
vers orgung
Ġgu est
Ġaud ience
A kt
P RE
la ut
ĠIn g
Ġver fasste
Ġwh atever
ant on
Ġsp ons
ĠSie ben
Ġoff izielle
Ġreg ional
Ġ> >
ĠDon ald
Ã¤mp fe
Ġbege ister
ĠÃĦnder ungen
Zw ischen
R est
te ms
us alem
em an
ĠL or
um es
ach us
ĠN a
ÃŁ ig
ĠSch all
Ġ" /
Ġtr uth
ĠHand werk
ĠAs ia
Ġsign ed
ĠKÃ¼ ste
Ġrepr Ã¤sent
aka demie
ĠKolle gen
ĠMail and
ERR OR
ĠGriechen land
Ġzuk Ã¼nft
B undle
J ava
f aces
ĠD ig
Ġc ream
ĠH amm
ĠL ern
Ġer l
Ġy outh
ĠVer arbeitung
Ġcom pare
ĠGe werbe
Ġper haps
Ġother wise
ĠPhil adelphia
Ġgar age
ĠRuss ian
H inter
Ġ ice
Ġt on
ĠD ampf
ĠG Ã¼
ĠE rot
be cken
Ġ6 2
Ġhin ten
Ġlead s
Ġenvironment al
Fr ame
ĠHig hl
Olymp iateilnehmer
ĠS ender
Ġm ac
Ġc row
ĠH alt
sch uhe
199 6
Ġexp ensive
Ign ore
ĠInternalS ARL
B I
D i
J ahre
z ellen
ĠS endung
ĠM iddle
ĠD al
Ġc able
ĠK am
um a
ĠU t
pt op
ib l
ĠVer fassungs
ĠBundes staat
ret ch
Ġbirth day
ĠItal ian
N LS
b ut
ĠE uch
ĠN avy
Ġaus fÃ¼hr
ĠSp irit
ile y
ĠAus stattung
ĠPr int
fin der
Ġsc ript
bo und
ĠAll es
Ġverw and
Ġeigen er
ĠBern ard
Ġbatter y
ĠMilliar den
B ay
F S
c omm
m i
o ÃŁen
ä ¸
ĠB ath
Ġn u
ĠF ox
ic ans
isch Ã¶
âĢľ -
Ã¤t t
Ġbeg leitet
let ion
Ġfoot ball
bour ne
L AN
it age
ĠK rie
ĠR uh
ul in
Ġk ennt
ĠLe ib
oc al
pr ene
dem okrat
fol io
stra ints
ĠYou Tube
Ġrem ains
Ġbr ands
OR T
Ġgener ation
Element s
ĠEing abe
ĠQue en
ĠChampion ship
ĠGiov anni
B uch
or er
Ġp latz
Ġc ry
ĠK urfÃ¼r
ĠL och
Ġwe iÃŁen
Ġch amp
ock en
ĠUS B
Ġhier bei
unkt ions
Ġtop ics
ĠTre ffen
ĠDipl omat
Ġgrunds Ã¤tzlich
Ġfeder al
S ince
v ard
Ġm essages
ĠL ange
ast ik
Ex p
ĠFre ude
ĠGeb iete
ĠOber flÃ¤che
Ġevery day
ĠRo hr
ĠPhys ik
Ġzuf olge
Ġhous es
ĠLok omot
NotFound Exception
S ome
T erm
e ister
Ġb aute
Ġin fe
ĠB och
hen den
ĠHe ktar
Ġber Ã¼cksicht
Ġgu ess
ube hÃ¶r
ĠMad rid
Ġfig ure
ĠKrank heit
Ġverpflich tet
' );
K o
T our
U ri
W rite
Ġre chte
ĠO S
ug os
ĠBe hÃ¶rden
tem per
ĠGes icht
Ġnor weg
Ġdeutschsprach igen
Ġoccas ion
A pril
D an
S u
ed ig
ĠW end
ĠN OT
qu elle
Ġsch Ã¼tzen
tra cking
Th rowable
wor th
Ġengl ische
ĠBron z
ĠPers pekt
K r
Ġd inner
Ġa th
it ro
ĠB uck
ĠM ade
ĠW ik
Ġg lob
all o
ungs s
Ġco ast
riter ien
Ġdirect ory
ĠSyd ney
B it
in yl
at ische
Ġb ur
im ir
ĠEr Ã¶ffnung
ĠHer zen
pro v
Ġcont ainer
ĠBl ues
ĠGroÃŁ teil
anc en
Ġlaw s
ĠLÃ¼ beck
ĠSpring er
Ġpriv acy
V I
en berg
Ġa st
or ganis
he il
ĠF A
sch icht
ĠC R
ĠC os
ĠAn bieter
Ġpro test
ĠÃ ł
bar er
ĠÃľber blick
urs or
Land kreis
ĠGleich zeitig
ĠKaffe e
is p
Ġs ister
st ore
ĠM esse
Ġc up
Ã¼n der
Ġen able
yn ast
Sch ule
Al t
Ã¼nd nis
Ġteil nehmen
ĠRegel n
ĠAcc ount
ĠTemp el
hers teller
ĠColor ado
h Ã¼ter
Ġan geschlossen
ĠM es
ĠD afÃ¼r
ĠG ross
ik um
gel s
ĠCh a
los ed
Ġher um
Ar beit
Ġmost ly
bereich e
ĠHerr n
Ġlaunch ed
> ()
g ow
m ach
ĠB in
ĠR he
ĠV I
Ġman ual
tes ten
zahl ung
Ab sol
sw ald
Ġ188 8
Ġadv ance
Ġallow ing
col umn
Ġmanufact uring
ĠpreuÃŁ ischen
: :
M Ã¤rz
W ill
b te
qu er
Ġreturn ed
Ġ// $
sk a
199 5
Ġlearn ed
Famil ie
n ames
Ġp urs
ĠL Ã¶sungen
Ġfor mal
ĠUnter richt
imm ungen
Ġbesch Ã¤d
ĠMich el
ĠBed Ã¼rf
Ġest im
atÃ¼r lich
ĠLat ein
Ġgriech ischen
le ts
ĠD C
ĠD ok
ĠP R
ic i
ra ucht
ĠW Ã¼rttemberg
Ġre volution
iz ens
ip edia
Ġvor ne
ret ung
Ġval u
ĠSchriftsteller in
ĠAutom obil
Ġflex ible
achus etts
C or
n oten
ra uf
Ġver ab
Ġab gesch
Ġor th
Ġar m
rÃ¤ umen
Ġpres ence
ĠPra kt
Ġtemper ature
i ess
Ã¤ ne
ĠM inder
ĠK rÃ¤
ĠV inc
Ġ20 22
ĠĊ Ġ
ĠGe fÃ¼hl
Ġget roffen
br Ã¼cken
ĠPf ad
ĠInternational e
Ġdistr ict
Ġrecommen ded
Ġcompet itive
Ġf ruit
ĠM aus
ĠAn gabe
ub le
ĠLe o
ph ase
Ġpr ivat
Ġwork ers
fÃ¼ llt
Ġverb rachte
199 3
Ġgel ungen
Ġhapp ens
ĠAnh Ã¤nger
ĠB R
et enz
ĠN iger
Ġst yles
Ġwar ten
lie gt
land en
ob ject
Ġget Ã¶
bild ungen
ĠGef angen
ĠAust ausch
B E
b Ã¶
e ing
x id
ĠM ind
ah a
ap est
Ġex amples
ĠEin en
ĠHe art
lan ze
ĠBr uch
stell ig
ipp er
kl ar
Ġbel g
oph on
EN D
ĠAt om
fÃ¤ llen
Ġzentr alen
T ro
k op
m ain
Ġt utor
Ġan zu
Ġan imal
Ġund erg
ĠAn der
ak on
Ġmark ets
ĠIntern ets
ĠKateg orien
ĠInn sbruck
Ġdistrib ution
ĠB rie
st ufe
ĠT rieb
Ġer geben
ĠSt ol
lin s
St iftung
Ġ6 3
Ġges te
inter est
ĠÃľber sicht
uck er
He aders
ĠSen ior
Ġzentr ale
Cal endar
Non Null
Ġaspect s
strahl ung
D DR
or ter
Ġw inning
Ġb rown
ĠL ug
ab geordneter
ĠSch la
Ġcl oud
bes itzer
ĠSk y
ĠNieder lage
Ġcontin ued
forder t
Ġopt imal
ĠPass ag
Ġhon est
A uÃŁer
E P
Ã¼ sten
ĠB iele
Ġp m
Ġl abor
Ġl iber
ann els
sp ec
ĠMit t
com mer
ĠFrie dens
wert ungen
ande ur
ĠEv ents
star ts
Ġteach ers
Ġfunktion iert
l itz
Ġz ul
Ġbe we
isch t
Ġdes k
Ġj ack
ĠÃ¼ber sch
ĠCh am
Ã¤hl er
Ġpl Ã¶tz
ĠBro ad
ĠEpis oden
Ã¤dagog ik
ĠKomment ar
ĠUnabhÃ¤ng igkeit
S uper
Ġp ump
ĠT ode
ĠC A
Ġis rael
Ġver teid
An merkungen
Ġgew Ã¼nsch
ingen ieur
ĠGrund stÃ¼ck
Ġbeh aup
riter ia
ĠGraf ik
ĠVe gas
Ġfa ith
angeb ot
Ġsym pt
S ow
v it
an es
an teil
Ġfor um
for ce
ĠMe chan
Ġtr end
Not Null
ĠAben teuer
ĠVerÃ¶ffentlich ungen
Ġextens ion
Ġneighbor hood
> )
Z one
an bul
as i
and o
Ġy esterday
ĠEr g
Ġhe ader
Ġdurch aus
geb irge
Ġgen ieÃŁen
ins on
Ġra ised
Ġange hÃ¶r
Ġorganis iert
ĠPfer de
Ġwechs eln
ĠM Ã¼hle
ĠN am
lich em
Ġle aves
hal ter
ĠAb stand
mit ted
Un sere
bau en
ron ik
Ġ[ ...]
ĠMann schafts
ĠAs ian
ĠWahl en
scheid ung
ĠMinister prÃ¤sident
fÃ¤h ig
Ġhous ing
lehn t
Ġadvert ising
N odes
ol ph
ĠP ool
ĠAb t
pro perty
port al
Ã¤nger ung
Ġverl Ã¤ng
Ġkommen den
ĠDenn och
Nov ember
K unst
al om
ĠF our
ĠF red
ir s
Ġde fe
men ge
ĠSte phen
ĠGemein der
ĠPort al
ĠSm all
Ġelect ronic
ĠpersÃ¶n liche
Ġresol ve
ĠThÃ¼r ingen
F est
h ai
Ġs au
ĠB od
Ġan lÃ¤sslich
Ã¤ g
ĠM inn
Ġst ack
ind ungs
Ġle aving
ungs gebiet
app ed
Ġ7 00
Ġob vious
ĠRes erve
Ġgu ter
ĠBen edikt
Ġsmall er
ĠBel gien
ĠGrÃ¼n en
Null able
ĠFreund in
ĠTher apie
( _
M C
p op
ĠA z
ĠM S
Ġg laub
ĠSt urm
ass ung
ud ing
lass ung
Ġany where
ĠCo ast
Ġ188 7
Ġhistor ical
Ġ186 6
Ġ186 7
gef angen
Ġverst arb
maÃŁ nahmen
Ġsurround ing
Ġwunder sch
Ġexer cise
ĠmÃ¼n det
or ded
al ia
ĠF abrik
ĠK leine
Ġbe comes
uf er
ĠO ze
ĠWe ber
tw och
ĠBundes ver
Ġown ed
ĠBed arf
sprÃ¼n glich
ĠhÃ¶her en
Ġcaus ed
Ġrepla cement
K arl
M ath
e per
an al
ĠA x
ĠR ow
Ġne ut
ĠOr th
lan ge
arb y
ĠMin er
ĠKunst stoff
ST R
Ġdec ide
ĠNatur al
Met a
ĠEnerg y
Ġautomatic ally
ĠNachw uchs
F OL
ĠS ul
ĠM all
ĠD ick
ĠC P
Ġl istener
Ġge zogen
be am
Ġbes uchen
ĠMar burg
Ġag ent
Ġkurz er
ĠUp date
ĠGef Ã¤ngnis
B ound
K at
T im
] [
f angen
un es
Ġf uel
ĠW art
Ġl aufen
Ġre aders
rit ing
out s
ac ious
Ġlie ben
aw ay
atic s
ĠMark us
ĠJe w
Ġ188 2
ĠMor itz
Ġitalien ische
ĠLes er
Ġhinz uge
Ġcook ing
ĠHÃ¶ch st
ĠSch uhe
Ġso unds
Ġro ute
Ġapp lied
Ġ189 2
unn y
ĠKant ons
ĠSa al
Ġcommit ment
O pen
Ġd Ã¼n
Ġs uff
ĠM essage
ĠM Ã¼hl
ĠD uring
ol t
ul ated
Ġver trat
Ġr ental
Ġsch uf
Ġam t
Ġ18 00
ĠAb out
Ġra w
ĠspÃ¤ter e
RE E
jahr en
leb te
ĠBist um
ĠSzen en
A bst
r ische
is burg
at ible
us se
ra gt
ĠN eb
Ġaus dr
Ġj ump
ran che
Ġsch ott
ĠThe ir
In itial
tern oon
Ġvor wiegend
Ġ0 9
ĠIS O
ĠCl oud
Ġerfolg reichen
laub nis
athol ic
ĠPla ce
Ġagre ement
Ġbehav ior
Ġgren zt
ĠEntfern ung
p c
Ġa ware
Ã¼ chen
ĠB urn
Ġk id
Ġre form
Ġst ars
ak u
Ġj u
art ikel
auf nahme
Ġgen annte
olle yball
199 1
ĠZe hn
ĠAlt stadt
Ġ187 3
Ġsecond s
ĠOl iver
Ġfra uen
ĠPac ific
t ax
Ġv ieler
ĠB lau
ĠP ad
ĠW Ã¼n
Ġk Ã¼nft
ĠZ usÃ¤tzlich
ĠSch mer
tr itte
ĠBe cause
ain less
ast rop
Ġwor ry
haus e
199 4
ĠFil ter
ĠKe vin
wal de
ĠWag ner
B oot
I X
l iteratur
t al
in ne
el en
ĠM iller
ig ers
ĠP av
om er
ra f
ĠL em
ĠN u
ĠRe kord
ĠPr ior
ĠUm fang
ĠBl Ã¤tter
Ġsupp orts
Ġhin ein
Ġtechn ische
ĠLie bes
With ServiceResponse
Ġmen u
Ġwoll ten
Ġruss ische
Ġestabl ish
Ġpattern s
ĠInfanter ie
WithServiceResponse Async
/ *
w Ã¤hnung
is st
Ġf Ã¼hl
Ġm ine
ĠA dresse
Ġp leased
Ġge legt
Ġun bedingt
ĠVer fassung
ĠSp itz
Ġ18 75
ult y
En tw
ĠFran ces
ĠQu art
Ġakt ual
199 2
Ġmar ried
ĠBereich e
ĠTor onto
Ġexist ieren
Ġnational e
ĠExper ten
Ġleader ship
ĠKonfl ikt
in it
st atic
Ġdie t
ĠI gn
ĠAn wesen
Ġsp anischen
geb lich
Ġges agt
ĠFre der
Ġfamil iar
Ġkey s
Ġschn eller
ĠSam uel
Ġvorhanden en
ĠÅ ł
ĠGest alt
Ġprevious ly
ĠGirl s
ĠSchlieÃŁ lich
ĠRena issance
O B
n ische
o use
z ert
an ch
ĠB ag
ĠD unk
Ġp ure
ĠL iving
ĠVer wand
Ġwe isen
be c
ĠLand s
Pro gramm
Ġobject s
Ġjeder zeit
Ġinspir ation
Ġpers pect
ĠDÃ¤n emark
S a
b ett
k ov
k rank
l isten
w ords
ĠW arn
ĠN at
ip her
Ã¤r m
fahr ts
Ġ: )
licher weise
ĠKl osters
Ġgu itar
ĠTechn ologie
ĠMy th
ĠGed enk
Ġdefin ed
ĠAndre w
ĠStraÃŁen bahn
Ġverkauf en
Ġwes halb
K inder
b il
in ations
ur ies
Ġge ile
Ġst Ã¤ndig
our i
00 00
ap i
Ġzug Ã¤nglich
Ġsicht bar
S ettings
v ens
Ġf ly
Ġm outh
ent ially
ĠT oten
ĠV ent
Ġr andom
ste ine
Ġse at
ĠMar s
ĠMar io
alt ar
pro jekt
igh ter
ole c
ĠSh ort
ĠKl ang
Ġdort igen
Ġbew usst
ĠSouth ern
Sc ope
ĠRund funk
{ }
an th
el ing
ĠG il
ĠL ichten
ĠL okal
ĠSe a
Ġapp s
ĠKon zentr
Er gebnisse
ĠAll en
Dies es
ĠSyn ag
zuf Ã¼hren
ĠKandid aten
v et
Ġt at
ĠB Ã¤nde
st reit
out ube
Ġfe e
mit tag
Ġacc ident
ĠWer be
Ġmin or
ĠUr ban
Ġed itor
Log ger
Ġzie mlich
ĠJer usalem
ĠCharl otte
Ġenh ance
l ik
Ã¼ re
ĠE UR
ĠC er
Ã¶ scht
Ġge legentlich
Ġver fÃ¼gen
ĠVer trieb
Ġsch aff
Ġor g
ust on
be zeichnung
ov ed
stell te
Ġrec ipe
ĠMin eral
pre chen
Ġsearch ing
Ġcla zz
Ġintrodu ced
Ġschwar zen
Ġpromov iert
ĠErweiter ung
k B
an ie
ĠT iefe
ĠG un
ĠH ave
sch wer
Ġver hinder
au ben
ĠVer zeichnis
iz ona
ĠÃ¼ber setzt
ens us
Ġ6 9
Ġtr aten
ĠNor wegen
ĠEis hockey
ĠFlÃ¼cht linge
Ġposit iv
ĠEns emble
Ġleit et
gesell schaften
T emp
r uss
un ft
ĠJ eder
gen cies
ĠSch Ã¼l
ĠAn ze
off s
ual itÃ¤t
ĠUm bau
folg ung
ĠÃĦ gyp
back tracking
Ġappear s
bro chen
Ġdescrib ed
R o
Ġ Ã¤ndern
te en
Ġthe ory
ĠF els
ĠK oll
Ġver letzt
ĠAr z
auf nahmen
spieler in
Ġklein eren
Ġdan ger
Ġappear ance
b in
b at
ĠA ster
Ġan swers
ĠM assen
ĠT an
ĠP A
Ġk ick
uch er
ĠZ Ã¼ge
we et
iz ieren
be hÃ¶rde
ĠPr Ã¼f
ĠBr ut
An t
ĠHand lung
198 9
ĠSchm uck
ĠHin weise
ĠLÃ¶ wen
Ġpoln ischen
ĠgÃ¼nst ig
R ock
Z eich
ĠS ams
Ġf unds
Ġc os
ĠRe par
ger y
Ġex ternal
ĠGe legenheit
Ġsc ope
ĠTra vel
ĠTour ismus
ĠNorth ern
Ġgelegen e
Ġdiscover ed
ĠKore a
ĠKapit Ã¤n
re land
ĠM au
ĠH Ã¤
ĠL yr
Ġal ign
Ġge langen
Ġr ies
ĠNe ur
Ġrec over
ĠArbeit geber
ĠKap itel
ocol ate
Ġheraus gegeben
telligen ce
ĠEind ruck
R uss
l u
Ġm ist
Ġl ights
Ġex tre
Ġ8 8
Ġ189 1
Ġpol icies
Ġober halb
Frank reich
K omp
M em
b ringen
or ders
ro g
ĠT rom
ĠC EO
iss ement
ĠVor teil
Ġsow eit
Ġdar um
ask a
OR D
Ġsl ot
ĠMag n
Ġimport ance
Ġresp ond
Ġdeliver ed
Ġunbek annt
ĠEntste hung
c all
l ere
it as
as ant
ĠP ut
ĠH aupts
Ġl if
Ġres ume
spr uchs
ĠkÃ¶nn t
Ġobt ain
exec ute
ĠTrain ings
ĠLein wand
Ġingred ients
M er
Ġ iron
ĠSch ild
erv ation
(" \
ĠAd vent
let ten
schn itte
Ġmonth ly
ĠHel m
stant in
ĠRein hard
ĠstÃ¤r ker
k k
m acher
Ġs it
ĠB atter
ĠR ess
ab len
ĠSt ab
sp iegel
Ġi P
hl on
sel ves
Pro xy
Ġbre iten
ĠTer ror
ĠJos Ã©
Ehemal ige
p atch
w eiter
Ġd ates
Ġv ent
Ġv ary
ĠB alt
ĠK abin
Ġl ifestyle
Ġste igen
ĠUnivers itÃ¤ten
ĠAd ler
Ġreg istration
ĠPol ice
code d
verb indung
Ġ188 4
Ġlo op
ĠInnen stadt
Ġkathol ische
ĠDenkmal schutz
Ġincred ible
Ġverbess ern
un checked
re h
ĠK h
ĠZ y
Ġen ded
own ed
ĠUm feld
ĠJugend liche
wor fen
ĠIllegal StateException
ĠSn ow
ĠFass ung
I l
k la
Ġ ).
or ough
Ġf aster
ĠA cker
ĠB ull
ĠV alue
ein heiten
Ġver boten
ĠAus bildungs
ph as
Ġ+ +
old ing
Ġra pid
AN CE
ĠColle ctions
Ġpo et
B M
H P
T L
k ette
ar film
Ġm ental
Ġ1 15
ĠH av
ĠL aden
ĠR eit
Ġge lesen
Ġst one
get Instance
ang o
ail and
ohn t
amp s
ĠBre mer
Me hr
Ġvoll er
Dat um
Ġproper ly
ĠWeib chen
Ġt arge
Ġz Ã¤hlte
Ġun tern
aus bildung
Ġ7 6
Ġges prochen
entr um
ĠSk ulpt
Ġequ ipped
Ġcandid ates
ĠChild ren
W ird
or r
Ġv ul
Ġh os
ĠP ict
ĠE mer
et ime
ah m
ĠÃ¼ber w
Ġ0 7
br un
ĠTr ier
Ġgleich er
Ge ografie
Ġans Ã¤ss
ĠRÃ¤ ume
ĠBil dern
Ġintens iv
Auth or
ĠVorstand s
ĠAllgemein en
Ġmention ed
ĠergÃ¤n zt
Digital isat
ĠNeust adt
U G
ĠH Ã¼gel
och em
ĠDie go
Ġsp ending
Ġunter scheidet
Ġnot es
ĠPr ince
Ġro ut
rich ts
ĠMon ats
Te il
ĠDon nerstag
Mod ule
ĠAmts zeit
ĠPorn o
Ã¤u den
Ġprem ium
ĠVertra gs
Sep tember
I O
w eiten
ar isch
ĠS eminar
ĠA uge
ro ot
Ġp oll
ĠE g
ĠR av
ĠN ationen
our cen
Ã© d
fahr ten
ober t
off set
Ġsol cher
ĠhÃ¶ here
ĠFort sch
Ġbenachbar ten
ĠgetÃ¶ tet
P ay
Ġt ab
ĠB Ã¶r
ĠT ipps
ĠR as
ĠAn st
ĠY oga
ose x
Ġgr und
Ġcl imate
ĠSÃ¼d afrika
Ġport ugies
Ġdiscuss ion
ĠFel ix
ĠMult i
Ġinkl usive
M al
Î ½
Ġf ixed
ĠM uss
Ġn ative
ĠO m
tr im
aus o
Ġsch m
Ġ) *
ĠPol icy
Ġerw arten
Ġperform ed
ĠCre ate
ĠKonfl ik
Ġgrat is
z ing
ĠS A
im i
ĠG Ã¶r
Ġer leben
ĠV ill
Ġk Ã¼nd
ess ed
ĠSch icks
lie ger
Al so
legen heiten
Ġbef re
Ġbra uchen
Ser ial
Ġmatch es
Ġmittler en
dat um
Ġlern te
fortun ately
F lag
K Ã¶nig
T itel
ĠT ai
ĠJ son
Ġim pl
ĠVer stÃ¤nd
etz te
ĠOr den
zeit schrift
ĠFre ist
Sie g
ĠProf essional
Ġbef ind
ĠPolitiker in
ĠSchiff s
Ġsil ver
ĠExt ra
ĠerfÃ¼ llt
cep ts
Ġgespe ichert
' .
Ġm ob
Ġan gew
de cke
est and
Ġat om
ĠGesch enk
ĠGesch Ã¤ft
ĠVers orgung
fa iled
ĊĠĠĠĠĠĠĠĠĠĠĠĠĠĠĠĠĠĠĠĠĠĠĠĠĠĠĠĠĠĠĠĠ ĠĠĠĠĠĠĠ
wechs elt
Ġcandid ate
ĠNikol aus
W ien
l enz
ch a
sp l
Ġcon fl
lo be
ĠNe ues
Ġbes ucht
Ġqu ote
ĠGesch mack
Ġehemal s
ĠSil ver
Ġtre es
Loc ale
iction ary
Ġbestehen de
ĠSar ah
Ġaf ternoon
h Ã¤ngen
Ġs ides
Ġb undes
ĠA sh
ĠD ream
ĠF a
ĠF ed
ĠH us
ĠW under
ate way
ib ilities
Ġch ron
Ġcomp la
Ġ0 8
Ġmehr erer
Einz el
ĠGemein sam
Ġpass iert
Ġem otional
yr ight
ĠDi am
ĠIde as
Ġtot ally
Ġbevor zug
ĠWissenschaft ler
ĠGall ery
ĠSom it
ĠPots dam
Ġbeinhal tet
ar ischer
ĠA ar
de lete
ĠW ilson
um st
ul ations
ĠN erv
Ġk it
ĠZ auber
Ġde ck
ĠSp Ã¤t
ĠTe en
ĠGeb iets
ĠEl izabeth
ĠAlb recht
Ġtyp ically
herr schaft
Ã¼ste t
P erm
g ard
Ġ 00
Ġd t
ĠD un
ĠE P
ist ing
Ġth us
ĠV i
Ġre ichen
Ġab gest
Ġme ant
ĠVor bild
Ġlie fern
br id
Ġpre fix
ĠGroÃŁ herzog
Ġmod ule
Ġnord westlich
Ġkont roll
ĠmÃ¶ glichen
ĠGÃ¼n ter
ĠArr ond
E ST
c am
v arian
ĠS ache
Ġan sonsten
Ġer stellen
Ġk irch
Ġge Ã¶ffnet
ĠSt one
ĠSt Ã¼cke
la p
Ġprov iders
Ġbeg ins
Ġ13 0
Ġ187 4
ĠBur gen
Q U
Ġa ka
Ġre ar
ass au
sp ur
Ã¶r g
Ġ0 5
ĠschlieÃŁ t
Ġspecific ally
ĠRelig ions
bereit et
Ġschwar ze
H alb
U C
s end
t ario
v ideo
or o
ĠD I
ĠF ont
Ġer folgen
ĠSt ark
Ġr ender
iz ist
ĠAus fÃ¼hrung
ph abet
Ġout standing
Ġacc ounts
ER S
ĠJu an
ĠGeorg ia
Ġtradition ellen
MA X
gestell te
Ġumfass te
Sec urity
K W
k olle
un ting
ĠF an
ĠG a
ĠN AS
Ġj oint
ĠVer g
Ġab ges
ph ones
Ġ6 8
ĠMus ical
ĠProf ess
Ġur ban
wh ich
Ġkind s
Ã§ ois
Ġallgemein en
Ġhundred s
leucht ung
V ert
m ade
č ĊĠĠĠĠĠĠĠĠ
ang le
Ġat tributes
me te
ĠNach folge
Str u
Ġschw ere
AC E
Ġsupport ing
ĠIhr es
Film titel
Ġzeit weise
UL L
Ġvac ation
ĠKonk urrenz
c ur
k Ã¶nig
Ġa u
Ġt mp
Ġm ont
ĠD ance
Ġ( ).
ist ungs
ib et
ian ischen
ĠHe ide
Re port
Ġup coming
Ġbel ief
Ġbre ath
Ġrem aining
ĠCl ient
deck te
ĠschlieÃŁ en
Gener ator
Ġlic ense
RÃ¶m isch
starts With
M ai
he ater
Ġn ine
ĠG ur
Ġg orgeous
and al
Ġpro min
Ã¼n den
Ġ3 60
ĠPro cess
old t
Ġshe et
ĠKr one
ilen ame
Ġthough ts
Ġupd ates
ĠgewÃ¤hr le
S n
ï ¼
or ff
Ġh yp
ce pted
Ġch arm
Ġdies mal
geb ieten
Ġlie ÃŁen
Ch ain
por ter
ĠRechts anwalt
Ġ187 2
bra un
frist ig
ĠExec utive
u ben
or ch
ĠR Ã¼
Ġl ust
Ġex port
ĠSp ur
Ġ18 78
Ġvor be
Ġen tertainment
ss ystem
ph ys
ĠAuf tritt
ĠFor est
ĠFor ts
oh ne
Ġbegann en
ĠKe ep
bu ilder
Ġcla ims
ĠVal id
ĠLim ited
Ġeffic iency
ĠMathemat iker
ĠSchlag zeug
ĠGÃ¼n ther
ĠInf os
vertre ter
C an
w ein
Ð »
ĠI M
ber uf
ĠV ikt
qu ality
Ġab hÃ¤ng
ĠSe henswÃ¼rdigkeiten
act or
ogra pher
ĠSpiel s
Ġspeziel le
ĠOrganis ationen
B R
P G
W S
Ä Ł
Ġd ick
ĠA udio
ĠB ein
ig ar
ĠT onnen
ĠV ide
ĠAn lass
iz ierte
Ġ188 1
Ġocc up
Ġzeit genÃ¶ss
Instit ut
F rie
K e
ĠM aschine
ĠK Ã¤r
sch te
ĠL ed
ul der
Ġre put
op Ã¤d
ĠEr ic
sen der
ĠAb d
Ġ6 1
ĠBr ian
ĠBau er
ĠSpe ed
Ġchar akter
Ġser ial
war ded
Ġredu ziert
Gener al
Ġfund ing
ĠAuss age
Ġarr ived
Ġfil ms
ĠVen edig
open hagen
Ġinstit ution
Ġlok alen
H ello
m os
er ial
Ġt ables
ra hlt
iv itÃ¤t
af en
lin ed
ett i
Ge org
Ġakt iven
Ġdel icious
Ã¤tz t
ĠPort rÃ¤t
cont ent
ĠRuss ia
ĠBrun nen
fÃ¶rm ig
Ġdynam ic
H ar
Ġs itting
ĠS achen
sch ild
and y
ts eite
ĠSch atten
men s
ĠRe aktion
ĠAl ben
fin ed
Ar g
Ġcre ation
arch itektur
yl on
Ġtrans ition
Inter ior
ĠEis hockeyspieler
ĠKan al
frastru cture
onom ie
Ġ{} ",
waren ess
ĠDÃ¶r fer
ĠPfar rei
Ġb order
ĠW Ã¤l
Ġch osen
per iode
ĠGu ard
Ġperfect ly
Ġgeboren e
ĠTown ship
E E
M otor
P ers
S an
Ġd ut
es heim
or able
ĠS itze
Ġan fangs
Ã¤ ts
ĠT HE
ĠP anzer
ĠK Z
iv ia
ver lauf
we ar
Ġle hn
ob jekt
hÃ¶r igkeit
bo ot
ism ar
ĠÃĸ k
Ġmach ines
ĠRes ponse
RE S
ĠHier bei
ĠHar ald
198 8
Ġruss ischer
ĠSing ap
ĠOption al
ĠĠĠĠĠĠĉĉĉĉ ĉĉĉĉ
Ġther apy
Ġinj ury
M any
g roÃŁ
ar gs
Ġto ward
Ġbe achten
Ġth reat
ad i
af ter
Ġ} ;
ĠEr klÃ¤rung
Ġ" );
19 33
ron en
Ġgesch Ã¼tzt
ĠMann heim
ĠBar ock
ĠSpe icher
ĠsÃ¼d westlich
Ġcall ing
Ġsim pl
ĠAutor in
Ġdep th
ĠFeder al
ĠVerantwort ung
flo at
Erster wÃ¤hnung
commer ce
A tt
c ious
p ed
È Ļ
ĠS ed
Ġc am
Ġ( ),
ul er
gen ossen
19 80
ĠAl though
ĠHe y
Ġar ts
Con verter
lieÃŁ en
Ġho tels
ĠDis ziplin
OD O
Ġconcern s
Ġak zept
b ring
n isch
an alyse
ĠT ank
ĠT unnel
Ġher unter
Ġfe hlt
Ġbo at
zahl t
ĠWerk statt
ĠsÃ¤m tliche
L ab
b ist
it als
Ġp un
im on
ĠW Ã¶rter
ĠR ats
Ġbe zieht
Ġk Ã¼rz
gr Ã¤
Ġunter gebracht
eld ungen
ĠSchw anz
Ġsho es
Ob j
Ġdec ades
ĠAt mosphÃ¤re
ĠfÃ¼nf ten
Ġdefin iert
Ġinterest s
Com parator
ĠdÃ¼r fte
ĠGal ax
ĠLOG GER
vier tel
Ġclin ical
P rÃ¤sident
Ġb ike
ĠP as
ĠK ino
Ġbe er
ĠZ ell
ĠRe zept
ĠSie gen
Ġra us
Ġbring ing
ĠDav is
Ġdamal ige
ĠKommand o
/ >
i oren
Ġd oll
st op
ĠL orenz
Ġne ur
ĠEr richtung
Ġent lassen
gew inn
lex ikon
ex pected
ĠDes igner
ĠsÃ¼d Ã¶stlich
iam i
nehm ung
ĠBronz emed
J o
S onst
U se
h ent
r us
Ġt om
ĠD ating
Ġer ot
all as
ĠIn spir
ĠAn trieb
ans ion
ict ions
ĠMat rix
ĠDi Ã¶z
Ġ187 6
ĠEinwohner zahl
Ġident ity
prÃ¤ senz
Ġcamp us
stud ium
p unkten
Ġf ellow
ĠE tw
ru ption
Ġch icken
Ã¤t igkeiten
ĠWelt meisterschaften
Ġmin i
ĠBad minton
UN D
ĠAst ronom
ĠIter ator
FOL LOW
W R
m iral
on line
an ia
ĠL av
ir r
ĠHe x
ĠFre unden
cy cle
spr Ã¼che
ĠChrist opher
zeug ung
Ġnor m
ĠDis ney
Comm on
kÃ¼rz ung
H R
M Ã¼n
M ost
P M
a ver
Ġe hren
ing ly
ĠP ic
ĠR ies
Ġte a
Ġbest anden
ex ception
pos es
ĠBi ograph
Ġrelat ive
ĠKu gel
Ġple asure
ĠNaturschutz gebiet
Tod ay
! âĢľ
F ollow
F iles
y o
in ent
Ġd az
ion ier
ĠP ersÃ¶n
Ġein heit
ĠJ Ã¤ger
id ays
Ġres idential
Ġ9 8
Ġother lv
Ġcl im
Ġ< <
schie de
Or ts
Ġeff ekt
hol en
Ġsur gery
ĠDar aufhin
Ġequ al
UN G
Ġbrow ser
h s
i pt
y c
Ġt ub
Ġf u
Ġp ray
ĠP lattform
ĠG uts
ĠV f
af eln
19 18
Ġte levision
Ġ188 3
ĠGo ethe
ilome tern
Ġask ing
ĠChamp ions
Acc ording
ĠendgÃ¼lt ig
Ġverur teilt
ĠS ite
us ste
Ġv illage
ĠH unde
ĠW inkel
ĠL ad
ot ions
ĠZ it
Ġhe iligen
ĠEin stellung
St affel
ĠBes ter
ĠTra g
Ġmed icine
ĠAmer ika
ĠKr iminal
Ġgem Ã¼t
198 4
ĠMÃ¤n nchen
Ġanerk annt
ĠOlden burg
ã Ĥ
Ġt a
Ġt end
an cing
Ġin tended
ic us
Ġre ached
ĠBe fehl
iz za
Ġat ten
amp en
Ġmy ster
ĠJun ior
zw ungen
CO L
Ġimpro ved
Ġcaus es
Wel come
( ...)
ĠS end
Ã¼ he
ĠSt ich
ahl en
ĠHe ck
amil ton
Le ft
Ã¼t tel
verb indungen
met hode
Ġoffen bar
Ġzwe ier
Ġadmin istration
Ġparticip ants
ĠBrun o
Ġrecogn ized
ĠRis iko
( @
B ig
y ers
Ġt asks
ĠD ass
ĠT ony
ic z
ĠK abel
Ġk rÃ¤ft
pp ich
Ġum gebaut
fe ature
Ġte eth
Ġgood s
ĠReich stag
ĠÃĦ hn
Ġbuild ings
Ã¼l le
Ġ186 3
Ġkeep s
fre ien
Ġaccess ible
Ġ187 9
Ġfund ament
ĠBon us
Ġarchite cture
T est
f ue
Ä ħ
ĠS uz
Ġe cht
ĠB ug
ul iert
ĠAn meldung
ĠÃ¼ber zeugen
lie hen
Ġum s
ĠVor stellung
olog ien
Ġrec o
Ġwel chen
ĠVerb ands
Ġappro ved
Ġgel b
Gr und
ĠDokument ation
Schweiz er
Ġmeas ures
ĠverstÃ¤r kt
Ġslight ly
k as
Ġw et
Ġm ixed
ĠM A
Ġp ink
ĠH ills
etz ungen
ĠY es
Ġlie fer
ĠGeb ieten
oth ing
Ġra il
wend ungs
the ater
ĠDis c
Ġconf idence
Ġcelebr ate
ĠEben so
abet es
verstÃ¤nd lich
ĠDien ste
ĠZun Ã¤chst
Ġurkund lich
V om
w idth
Ġv ote
ĠB utter
Ġc utting
ĠL iv
qu alitÃ¤t
aus chen
Ã¼hr t
Ġ0 4
Ġqu er
gend es
Ġ186 2
198 2
Wer degang
Ġdur fte
contains Key
ĠPak istan
Ġprin ted
ĠI reland
Ġst imm
Ġst Ã¤rk
Ġ" '
19 70
Ġent f
Ġalle ine
ĠEx istenz
Id x
Ġgesch ieht
kehr t
ĠPart ners
Ġmag azine
ĠMass achusetts
Ġbeein druck
A c
H il
te e
Ġe igent
Ġm a
ĠF u
ĠG n
ĠK ro
ir ds
ĠN ag
ĠJ ubil
Ġver teilt
ĠMar g
Ġ6 7
Ġ< /
Ġmin imal
Ġshow ed
film ung
198 7
ĠBern d
Ġiss ued
lÃ¤uf e
Ġamerikan ische
ĠWahr heit
ĠBul gar
Ġscient ific
P air
T IM
h ire
Ġs essions
Ġm ur
ĠW y
ĠR ie
ĠC ell
ber ge
Ġer richten
ab schluss
kt oren
Ġse gment
Ġ3 000
ĠTe lef
ĠAus zeichnungen
ĠGr iff
ĠAuf ruf
bar ung
Ġpla ys
Ġrec orded
ĠHoch schul
ĠInter pret
ĠReich es
ĠMag azin
ĠTre ffer
haupt stadt
Ġfit ness
IV E
ĠKons erv
BevÃ¶lker ungs
D okument
N E
in ch
Ġd ipl
Ġc urr
ĠP ie
ĠSch mitt
Ġaus gebaut
qu art
ap shot
Ġen han
igkeit s
gesch lecht
ĠJul ia
add All
Or iginal
grÃ¼n den
ĠSÃ¼d west
198 6
ĠDienst leistungen
Ġfeature d
ĠbenÃ¶t igen
Ġzuf rieden
Ġaccomp l
K ap
b art
Ġf Ã¶rdern
ĠB auch
ĠC L
Ġk Ã¤mp
Ġst ir
Ġr ise
Ġ18 40
out put
Ġour selves
Ġgreat est
Ġerfolg reiche
wor tet
ĠBischof s
Ġged reht
K n
M useum
g ung
w ird
re chnung
Ġm ent
Ġc raft
ĠF lex
ĠR ainer
ad bach
Ġne arby
ĠNe use
schl Ã¼ssel
Ġpolit isch
Pr im
Time out
Ġprogram me
ĠnatÃ¼r liche
ĠKol umb
ĠSied lungs
ĠZent imeter
D am
G ET
M aler
P lay
he ben
Ġo s
ĠM i
Ġn erv
ut ors
ĠF as
ĠE le
ĠH ope
ĠW ellen
men te
ĠLe h
Ġ18 30
ĠPro test
ĠPr Ã¼fung
Ġfe es
use ums
Ġdel la
Film schauspieler
Ġintegr ated
Ġdog s
Ġvirt ual
Ġencour age
R ender
d oc
on ne
ĠM eine
ĠD id
ol ine
get String
hen de
ip eline
ast ing
Ġum f
ho fer
ĠAl i
Ġapp end
ĠSpiel tag
ĠJun ge
Ġ' "
Ġ188 6
Ġ186 8
ĠÃ¤l tere
Ġprakt isch
ifiz ierung
Ġcabin et
Ġadvent ure
Kompon ist
Ġgefert igt
ĠBiele feld
A gent
S ymbol
m issions
un ken
Ã¤ mm
Ġn ack
Ġc aught
ĠP lÃ¤ne
ĠG ouverneur
ed ing
ĠW upp
Ġl unch
ĠZ ut
ĠZ DF
ĠEn vironment
mp el
Ġ0 2
Ġel imin
Ã¡ s
Ein wohner
Ġbef Ã¶rdert
Ġcho ices
wor ld
Ġintegr iert
Ġindividu ell
Ġnord Ã¶stlich
Ġinform ieren
ĠCla ud
ĠTschech ien
Ġfeed back
Ġlands cape
Ġwhe el
Final e
ĠKath arina
ĠLeichtathlet ik
ĠLew is
ĠArrond issement
R S
i he
on te
Ġk Ã¶rper
ĠAn erkennung
Ġsich ern
Ã¼n de
ĠAus wirkungen
pro b
Ġmin im
Ġsign s
ĠMeister schaften
ĠClass ic
ĠFer r
ĠHin weis
Ġmajor ity
kap elle
ĠHu bert
ĠModer ne
ĠErinner ung
Jul i
M ENT
V C
e ist
p es
s ort
t oken
ge legen
Ġin vent
Ġm anner
Ġv ital
ĠL izenz
ĠC ab
Ġbe wegen
ĠIn schrift
Ġsp aces
geb ra
fe ier
amm elt
Ġ7 8
Ġpre gn
Ġbr ill
Ġemp fehlen
Cl uster
Ġerreich ten
Ġern annte
ĠFrei will
Ġhold s
Ġannot ation
6 00
W ar
c enter
k ommt
n el
n ieder
re lated
il ation
Ġc ute
gen den
Ġun w
se kretÃ¤r
ĠAn sicht
ĠBe ispiele
ĠPr ice
Ġfe ierte
bo y
ĠGemeinde gebiet
Ġange passt
ĠChrist us
ĠMag azine
Ġhistor ic
ĠFel der
ĠBud apest
ĠKup fer
Ġreco very
I st
ĠG utsch
ĠL uther
Ġbe at
Ã¶ tt
Ġver arbeitet
od ge
ĠTh or
ond itions
Ġdar stellt
Ne u
Ġmar riage
Ġcare fully
198 5
ĠCor ps
Ġaff e
Ġconf irm
ĠIst anbul
Ġwirtschaft lichen
ĠRog er
valu ation
F ar
O ktober
j amin
k anz
Ġf ishing
ic als
ĠR auch
Ġg rad
ĠC ob
Ġle gt
Ġch airs
fer ences
ĠEn tertainment
wer ber
ac o
St ation
ĠFre m
ĠChr isten
ĠFr isch
Ġtro cken
ĠMill imeter
Ġinstru ctions
Ġtal ent
Ġunters ucht
ĠAltern ative
ĠMaxim ilian
: .
d orfer
m or
u ber
Ġa ctions
es ota
he w
Ġe lection
Ġn Ã¤chst
Ġc art
Ġh ung
Ġbe quem
qu alif
ĠUn it
ĠDe leg
ĠEn joy
ĠBer gen
Ġsh ops
att an
ĠBet on
Ġmach ten
ĠKl ub
Ġben ch
Ġprote in
bre chen
ĠGott fried
ĠBot an
Mus iker
ĠMem orial
ĠProm otion
ĠPeters burg
! "
Ġa rab
Ġb attle
Ġf oll
Ġin ne
ĠM Ã¼hlen
ĠW itten
Ġth ick
ĠSch au
ĠIn tel
Ġver lang
ĠNe ck
ĠOb ama
ragen de
ĠMel bourne
Ġpromov ierte
Ġinfluen ce
Ġfavour ite
ugos law
S w
ar Access
ĠS ummer
Ġan bie
ĠD etail
ĠF itness
ier mark
ver k
ver halten
ĠVer z
ĠNe uer
Ġtra ined
En de
Ġges p
ank a
ĠGeb ir
Ġbel ong
ĠMal erei
weiz er
Ġdec isions
ournal ist
Ġkosten lose
isc ons
Ġverwende te
Jan uar
vorsitzen der
C ustom
on ed
us che
Ġto ugh
ach es
Ġaus gesch
ib il
ĠDie trich
Ġ3 50
ĠAl ice
ĠAuf l
berg s
ĠGesch w
Be fore
ĠCl ark
ĠNieder lande
Auf grund
Ġliegen den
ĠEv a
ĠJes u
Ã¢ te
Ġhund ert
rupted Exception
P ersÃ¶nlichkeiten
un ks
ĠS imple
Ã¶ der
ĠBe wertung
ĠGr Ã¶ÃŁen
ĠWelt cup
Ġgeb lieben
Ġsupp lies
Ġ% .
ĠSal es
ĠNieder Ã¶sterreich
Ġpur poses
Ġhost ing
Ġrespons ibility
Ġmanufact urer
ĠEth n
ĠVerl ust
Ġschwed ischen
C S
M iss
V ideo
f ers
s rc
Ġt ight
Ġb ond
Ġin tr
Ġm orgen
Ã¼ ÃŁen
ĠB ry
st Ã¤rke
ĠM ob
Ġn annte
ĠP ader
ĠAr izona
ĠDe fault
geb iets
omm iss
Ġcl uster
Ġfl u
ĠKont akte
Ġeffect ively
ĠKompon isten
Ġklass ische
opt ion
ĠEreign isse
d lich
h Ã¼tte
r ischen
Ã¼ ÃŁe
Ġv eter
ĠB ibel
st ritten
ĠM ie
ĠE ver
Ġg ross
Ġbe it
Ġge h
Ġdes ire
ow itsch
se y
Ġme x
ĠCh annel
ĠIt aly
man ager
ende d
Ġmus ical
arr ier
Ġeinge laden
Ġbef anden
Ġpresent ation
Ġexec utive
Ġexten ded
Ġbedroom s
Ġconsum ers
jen igen
ĠDrit tel
Amer ican
K om
V ector
r ia
u ers
en ke
he iz
Ã¼ ft
sch Ã¼tzen
ĠC ase
ĠSt att
Ġst abil
ĠZ o
ĠAn dere
ĠBe h
ĠDe ath
ĊĠĠĠĠĠĠĠĠĠĠĠĠĠĠĠĠ ĠĠĠĠ
oun ge
Ġ7 3
man uel
ĠKon stru
ĠWest falen
ĠKompon enten
nehm ern
ĠMÃ¤r chen
Mich ael
Ġbegrenz t
f Ã¤nger
i ors
st itu
ĠP seud
ĠJ r
Ġr are
Ġwe aring
ĠDe ad
ack e
Ġbes tellen
Ġbeste hend
ĠWir d
Ġmag net
Ġattra ctive
Ġcy cle
Ġsympt oms
N or
Ġw alls
ĠB oth
ĠF uchs
ĠW ars
ĠW asch
ĠW ester
Ġauf w
Ġr ene
Ġun gewÃ¶hn
Ġle ichter
Ġnach gewiesen
Ġat mosph
ĠDe f
ĠEin er
Ġvor genommen
Ġpres ents
Ġmir ror
ĠBut ton
Ġhard ware
ĠZug riff
L ower
V A
m ir
ĠL ov
Ġver p
Ġes c
Ã¶n t
par ks
ĠCh rom
ĠBer ater
amm ern
lement s
ĠSk la
the t
Ġdisc ount
ĠDorf es
ĠIns besondere
Ã¨ s
kr ise
beg inn
zust and
ĠRumÃ¤n ien
P ubl
y ou
y ard
Ġs ad
ĠD ocument
ĠK ul
ĠH P
Ġj ener
Ġex cept
Ġcom pr
hal f
tet t
Ġ7 7
Ġbo ys
ĠTr ust
Ġbre ite
Ġgut es
ĠKn ochen
Ġlov es
ĠRett ungs
Ġconvers ation
ĠJord an
d ies
ĠS yl
Ġb Ã¼rger
Ġf f
st all
ok ol
Ġum gesetzt
tell ers
ĠBr Ã¼cken
Ġpre v
ĠArbeit sk
Res ources
ital ien
Ġverb inden
Ġakt ive
ĠAt trib
ĠLin den
ĠJugend lichen
Ġ186 9
ĠDo ktor
Ġschl ug
Ġdepend ing
hoch schule
Ġenth us
Ġa chten
ĠP RO
ĠK ie
em y
ĠL ohn
Ġle isten
ĠAr gentin
ĠTh ailand
sten s
Ġ9 00
ĠAll gemeine
Ġbef est
Ġspec ified
omet imes
Ġhold ing
ĠSign al
ĠEben falls
cycl op
BevÃ¶lkerungs entwicklung
B und
J ugend
f indung
v ements
Ġb an
Ġm ic
ĠF la
ĠE cke
ĠH enn
ran ten
ĠAr k
19 39
Ġnoch mals
tra ck
ri um
Ġspe zif
Ã¼t ter
ĠPl ant
ĠNieder landen
Ġ187 7
ĠursprÃ¼n gliche
Ġindividu elle
ĠerklÃ¤r en
AB LE
Ġposs ibly
ĠSum me
ĠerfÃ¼ llen
Jahrhund erts
ĠPremier minister
merksam keit
Ġepis ode
F ree
c ohol
en ters
ĠG ymnas
ĠC ount
ow o
Ġst il
ĠVer dienste
ĠBer ge
Ġlo ans
Ġtest s
Ġern st
ĠFrei herr
Ġmass age
ĠSing les
ĠLink ed
wir ken
ĠÃĦr zte
Ġproced ures
Ġopin ion
d ig
ĠS z
Ġc um
ĠF ame
Ã¶ he
ach ter
ĠN ad
ĠSt ars
sp lit
ĠBe teiligung
Ġme al
Ã¶r te
rit ter
ĠAl uminium
ĠCh air
ler in
Ġins ert
ĠFre md
ikan ischer
[] )
ilit ation
Des ign
Ġed it
ĠAndre a
Ġstamm te
ĠAsp ekte
Ġaccur ate
E B
F i
W asser
j ahre
is is
Ġp ed
ĠP az
den ken
ust ic
19 30
19 29
Ġes cape
land schaft
Ġ8 4
Ã¤ch te
imm y
Ġwieder holt
Ġtr ends
Ġhand elte
mat ik
esse e
pre c
Ġcr ime
leist ungs
Ġinnov ation
ĠAcc ording
ĠMerk male
ĠHit ler
L ie
U l
u ages
Ï ģ
Ġp ic
ten do
ĠR olf
Ġk ompon
Ġge pf
ien ne
19 20
Ġzum eist
Ġgen auso
Ġ9 6
ble iben
ma jor
)) )
stra int
ĠMan chester
co der
ĠBet reiber
ĠTechn ischen
Ġfact or
ĠKirchen gemeinde
Sh ort
Ġworks hop
Ġlic ens
Ġsus p
shaus en
ĠInnov ation
ĠRol and
iscons in
f ill
t ree
ã ĥ
re iter
as sten
il st
ĠT ry
ĠE ier
ĠC it
Ġst im
Ġst retch
la ce
id ance
ien te
ill es
oc ate
je cted
ite kt
Ġwould n
ĠAs yl
Ġsign ature
ĠHow ard
ĠVize prÃ¤sident
ĠWÃ¤r me
ĠverlÃ¤ng ert
K lass
S eite
c our
c ache
l uft
o ir
Ġ ~
ie gs
al teten
ĠB usch
ĠF alle
ĠK la
ein st
os er
ien ds
af Ã©
Ġpro spect
Ġwar rant
ĠEr mitt
ĠĊĠĊ ĠĊĠĊ
ĠFin ancial
ĠverÃ¶ffentlich ten
minister iums
Option al
ĠHalb insel
Ġemer gency
ĠAufent halt
Ġstyl ish
ĠFÃ¤h igkeiten
endo ktor
A lex
G H
Ġw asser
ĠA venue
ĠT auf
ĠG rupp
ĠE state
ĠR ent
Ġk illed
ĠJ Ã¼d
Ġy ellow
Ġj oy
ĠVor bereitung
sh ow
Str ateg
Ġfe els
igh ten
Ar gs
Ġcons ists
Ġfre ige
Ġchar ges
Ġgest artet
198 3
ĠWissen schafts
Ġausgew Ã¤hlt
incip al
Ġfertig gestellt
ĠDrehbuch autor
loc al
ĠÄ Į
Ignore Case
M sg
on de
il ot
ach el
ĠSch aff
iel en
ĠCh at
sh op
ĠUnivers al
Ġvers etzt
Ġ14 0
arch ie
ĠAss istent
Ġcert ified
Ġmitt lere
IG HT
Ġfrei will
ĠRaj on
P T
Ã¼ ten
Ġan alys
ĠD ob
et a
ĠH op
ĠDe finition
me chan
ĠPr Ã¤sent
br unn
ĠÃľber nahme
Ġsuccess fully
ĠnatÃ¼r lichen
zir ke
ĠPrem ium
ĠWass ers
Ġgradu ate
ĠSchÃ¤ den
Ġstellvertreten der
ĠKÃ¼nst lern
fir ma
(...) ");
F B
W ell
Ġs ud
Ġf Ã¤hrt
ĠB orn
ol in
ĠP okal
im age
ĠW i
Ã¶ te
Ġk ing
Ġge liefert
Ġi OS
Ġhe ft
ĠPro tocolMarshaller
ĠAb lauf
Ġber aten
ĠMen gen
ĠSk i
Ġ186 5
Ġbegeister t
h ome
ĠS I
ĠA cht
ĠP ho
ĠL aus
Ġg ros
ĠC ON
Ġr iver
ok es
mal en
Ġtra il
Ġ8 3
ĠWohn zimmer
ĠBra u
Ġatt ached
Ġ186 4
ĠZe aland
ĠStad ion
ĠPfer d
D etails
p ann
Ġa ges
ĠB ac
Ġp ussy
ĠDe kor
ĠDe kan
ĠGe or
ian e
Ġ5 000
Ġseit her
ĠfÃ¼hr enden
Ġdire kten
iven ess
Ġben annte
hol ung
Ġair port
ĠHall owe
Ġposition s
Ġindividu ellen
ĠSieg fried
dar steller
Ġexpla in
Ġimplement ation
Ġvalu able
Entw ick
b ten
ro d
ĠG h
ĠG abr
ĠC hl
ĠV ul
Ġr an
Ġ18 15
ivers ary
ĠBr idge
ĠPh arm
ĠKon text
Ã¼tz te
tag on
Ġperson en
ĠSpe kt
Ġpass ende
pre uÃŁen
Ġimpro vement
ĠVerbesser ung
ĠplÃ¶tz lich
C I
H am
Ġb ab
el in
Ġp utting
Ġbe ar
Ġzu verlÃ¤ss
Ġr is
âĢľ ),
ĠEin kommen
ĠMit twoch
Ġ8 6
dition al
ek ing
Ġ12 5
Ġger inge
Ġstand ing
ĠSer b
Ġstatt dessen
Ġged acht
Ġtransport ation
ĠSpan ish
E p
n ur
Ġt ags
Ġan cient
ol id
ĠR it
ĠC her
ĠPr ix
Ġfe hlen
wei he
Cont roller
ĠHar vard
ĠDi agn
ĠSen ioren
Fl ug
Ġmanufact urers
fil me
Ġvari able
ĠRegierungs bezirk
Ġverg essen
ĠAdmin istration
Ġproced ure
Ġerlang te
B aden
F ranzÃ¶s
r ufen
ĠS M
ĠS ysteme
Ġb at
Ġf ing
Ġf lav
ĠB BC
st ahl
ĠK und
ra it
ĠH inz
ou te
icht ig
od ie
ĠSp ark
Ġso fern
ĠSe g
fahr zeuge
Ġcal endar
Ġschn elle
ĠFil men
wh at
zus etzen
ĠVerl Ã¤ngerung
ĠMun icip
ĠGlock en
Disk ografie
instit ut
Ġausreich end
) -
N ote
c ell
h Ã¤usern
s burger
in th
Ġs itzen
us ing
ĠB ah
ĠM iami
ent ity
ĠF okus
ĠJ ury
ĠSt Ã¤rke
ĠO berg
Ġfor ec
Ġsch olar
ĠSp ar
ens wert
los ure
ĠMar co
net en
Ġph arm
ĠChrist ine
Ġpl ug
ĠOn tario
Ġbesch loss
AR D
Ġfound ation
Ġmember ship
sicht lich
ival ent
ĠMÃ¤n nern
197 9
ĠDisk ussion
Ident ifier
Ġgeplan ten
H Ã¶r
n isses
Ġe gal
us hed
ĠL uk
Ġk r
ĠSch acht
Ġme at
19 25
ho e
Ġgen et
ri or
Res ol
ĠPf alz
ex p
ĠKreis es
US A
ĠPosition en
Ġdescr ibe
ĠHir sch
lieder ung
ĠRep ubl
ĠÃľberg ang
Pan el
Ġ iv
he et
ĠT oy
sch iffe
ier endes
ĠAr me
Pro jekt
ĠSchw imm
ĠWelt meister
Ġselbst stÃ¤nd
Ã¼ll en
LO C
Ġredu z
197 7
ĠIndustr ial
Ġpurch ased
ĠPsych ologie
Eis hockey
\\\\\\\\\\\\\\\\\\\\\\\\\\\\\\\\\\\\\\\\\\\\\\\\\\\\\\\\\\\\\\\\\\\\\\\\\\\\\\\\\\\\\\\\\\\\\\\\\\\\\\\\\\\\\\\\\\\\\\\\\\\\\\\\ \\\\\\\\\\\\\\\\\\\\\\\\\\\\\\\\\\\\\\\\\\\\\\\\\\\\\\\\\\\\\\\\\\\\\\\\\\\\\\\\\\\\\\\\\\\\\\\\\\\\\\\\\\\\\\\\\\\\\\\\\\\\\\\\
Wil helm
d ner
s um
t otyp
Ġa gr
Ġz one
Ġbe zÃ¼glich
Ġge fe
all eng
ok ing
Ġhe aring
tel finale
ĠAuf merksamkeit
IN ST
hand elt
Ġhand ler
ĠFr Ã¼hl
Ġger inger
Ġverb esser
Ġerw eiterte
ĠErw Ã¤hnung
ĠRu der
ĠNap ole
c ers
c olle
Ġ á
Ġd b
ĠB ody
ĠG reif
ic ts
ĠR ange
ĠC ole
Ġl anger
iz a
ĠSp uren
ĠEin zugs
Ex tension
Ġber u
amer as
ende te
Ġdr ivers
Ġsk ill
Ġoper ate
ĠPlan et
Ġausgest rahlt
Ġbewe gt
P op
W o
l abel
Ä Ļ
un ters
Ġt ur
Ġs in
ĠC ivil
Ġl an
ĠN est
ĠThe atre
Ġ18 49
Ġnew ly
ĠMit be
ize i
ĠEs c
Ġra di
buch autor
Ġcolle cted
ĠBel g
ĠÃĸsterreich ischen
Ġ185 5
Ġqualif ied
Ċĉĉĉĉĉĉ ĉ
Ã¶p fe
ĠÃ¤uÃŁer st
Wind ow
ĠEber hard
L P
Ġs ac
ĠB ald
ĠD ave
ver hÃ¤ltnis
qu ir
upp e
Un ser
Res ults
ĠStud ios
Ġfl ower
Ġbra un
ĠSee le
Ġ185 6
frei heit
ĠEigent Ã¼mer
Ġverwende ten
Ġconstant ly
ĠDoug las
ĠSchÃ¼l ern
R ight
in ity
te ch
ĠH amilton
Ġun less
Ġj son
ug by
ĠVer k
19 75
fe ktur
De zember
ĠSpiel film
Ġstand s
ommer ziel
ĠGu y
mut able
Ġevangel ischen
Ġcit izens
ĠTi rol
ĠBronzemed aille
L imit
V O
m Ã¶glich
Ã ¦
Ġs ink
at hlon
ĠS K
ro hr
Ġg olf
ĠC ore
ber ry
du ate
cl uding
Ã¤l ter
ĠStadt gebiet
Le x
Ġcr iminal
Ġfour th
ĠUms atz
Ġreve aled
ĠJahrzehn ten
Ġguarante e
ĠlÃ¶ ste
Ġappreci ate
ĠBuild ing
I hr
Ġd ialog
Ġt ested
ĠS ac
Ġf o
ro vers
Ġc orn
Ġc lock
ĠW itt
up le
ang hai
ungs mittel
Ġunter lag
ĠBer at
uld a
ĠVor stellungen
Ġ16 0
ĠUS D
rag ment
ĠInd ones
rol og
ari at
Ġkon k
Ġgrow n
Array List
ĠWissen s
Ġwichtig ste
IL L
ĠÃ¼bern immt
Ġcapt ure
Ġschedule d
Ġmount ain
Ġmil k
ixt ure
national spieler
Ġassess ment
Frie drich
C up
F ach
J oin
R oman
c us
Ġt ells
ĠB uffer
st rÃ¤ger
Ġh alt
ĠK ub
ĠK orn
ĠR out
Ġl as
ĠN utzen
ĠJ am
Ġfor ces
Ġauf s
ere cht
ĠVer y
Ġwill ing
Ġad j
ĠAuf sichts
iss a
Ġtra cks
els on
ĠInst agram
sg ruppe
ĠOrt schaften
ĠZe ile
zi ologie
ĠmÃ¶ gliche
prof it
ĠnÃ¶t ig
Ġappoint ment
A ber
E A
o a
p fe
Ġw inner
ar ation
Ã¼ her
Ġv ib
ĠP osten
ĠG au
ic ted
sp unkt
sp itze
ĠEr lebnis
Ġsch eiterte
Ġum stritten
Ġent ries
cc a
fol gs
Ġlie ber
rat ic
ep ing
Ġgesch lagen
ĠHo uston
Class Name
ĠLin ux
ĠCont act
Ġsuper ior
Ġregular ly
Ġcloth es
Ġfal sch
tok oll
ĠMitt ler
N icht
V E
s ign
at tribute
ĠS emin
Ã¤ le
ĠG on
ĠK ann
ĠEr ster
ĠÃ¼ber all
Ġent re
enn zeichnet
Ċĉĉ Ċĉ
Ã¤hr ungs
Ġ8 1
ĠEx pl
ĠQu ery
ĠBra z
ĠIns urance
hÃ¶ fe
ĠKrieg sende
ĠRestaur ants
Ġgraph ic
ĠAnze ige
ĠHallowe en
C ategory
S chn
S ION
n ik
er ung
Ġa fr
il iate
Ġh ire
ĠO hne
Ġver an
Ġvor kommen
ĠAus stellungen
ins eln
lÃ¤ uter
ĠMed icine
ĠAmer icans
Ġem otion
ĠGew inner
Ġorgan ic
anze igen
Ġgelang te
ĠPrem iere
ĠWehr macht
VerÃ¶ffentlich ungen
ĠBres lau
ĠÃĦgyp ten
g Ã¤
Ġt icket
an ke
Ġw omit
ĠC ott
Ġbe her
ber gen
to o
pf lanzen
ĠX X
Ġletz tlich
ĠHaus halts
Ġfest gelegt
ĠPat ri
Ġerk enn
Ġpick ed
Ġdur able
ĠAf ghan
ĠHaw ai
ĠRy an
) ).
C ap
L isten
Â ¼
ĠB arb
Ġp od
ĠG ord
ra hmen
ach ment
ĠN HL
if ikation
Ġdes pite
ial en
ign et
Ġsh ut
Ã© l
ĠPh oto
Ġsc re
gl as
ĠEm ail
gress ive
ĠBaum w
Mart in
N C
n Ã¼tz
Ġd auert
re uth
Ġf er
ĠR au
Ġg g
Ġk Ã¼nst
ĠJ ag
ot ive
th al
we b
Ġhe iÃŁen
Ġsp acious
19 14
Ġsh ift
Ġ7 1
fahr ens
ĠPar ks
ĠCar los
ĠUr teil
Ã¤tz ung
go ogle
ĠKat alog
rÃ¤n ke
Ġhy per
ĠMcC art
ĠHeer es
E qu
M Ã¶
S ubs
ĠIn se
ial s
ĠQu ell
ĠTr ip
Ġrest r
ĠVolks zÃ¤hlung
dienst kreuz
Sh ow
Ġstell ten
ĠRec ord
Ġbede uten
Ġdivers en
Ġparticip ate
ĠHT ML
Ġinstr ument
ĠabhÃ¤ng ig
D ig
T F
Ġa w
at ile
ĠB uff
Ġein gebaut
ĠK av
ĠK roat
em en
Ġl ived
ach se
ab schnitt
Ġj en
ru le
Ġch art
Ġat tended
Ġbest immen
De lete
Ġoff ens
org ungs
ĠBundes wehr
Deutsch e
fa ction
ĠGed icht
deutsch er
ĠIr land
Ġinform iert
Ġsug ar
ĠJac ques
Ġwohn zimmer
Ġwirtschaft liche
Ġorigin ally
ĠTok io
c p
s Ã¤tze
u is
w ass
| -
Ġb atch
am tes
Ġein erseits
ĠF ellow
ĠK ader
ok o
ĠTh ree
Ġ8 9
lÃ¤ ub
ĠMittel meer
yr am
Ġwid mete
Ġdeg rees
ĠHoff mann
Ġcollabor ation
D estination
S ocket
Ġa gencies
ar ium
Ġm Ã¤cht
ĠM ust
ĠM etz
th en
ĠAn wendungen
ĠCh ile
Ġqu otes
als o
ĠGem ark
man ischen
Ġbo ost
hand lungs
Ġhier fÃ¼r
ĠEurop Ã¤ische
Ġzusammen gef
Ġstatt f
Ġfound ed
ĠKo ordin
Ġbro ther
ĠStÃ¤d t
ĠKauf mann
ĠÃ¼b lich
Are a
ĠLuz ern
Ġverme iden
H O
b ur
g ert
w irt
Ġs ql
Ġc ro
Ġh Ã¤ngt
sp h
19 60
19 38
ĠAus gaben
ĠAb stract
Ġbut ter
Ġste igt
Ġ8 2
ĠSpiel ern
Ġra ise
ĠRes idenz
Ġfest ival
AS E
room s
Ġ186 1
Ġconc entr
ĠExp edition
ĠKohl en
prÃ¤sentanten haus
ĠOrch estra
D av
F ind
i Ã³n
in de
at isch
Ġder selben
Ġc ounty
ent h
ĠW ende
ĠJ ens
op ath
gr at
ip er
enn er
Ġmehr mals
Ġfun ny
Ġentwick elten
Ġturn s
ĠRÃ¶ mer
ĠVarian ten
Ġbeeinfl usst
Ġimpress ive
1 10
M ein
W eiter
Â §
Ġd ent
Ġf ell
ĠA B
Ġan sch
ent le
ĠI ss
Ġver haf
Ġse quence
ĠAb sol
Ġro ten
lag ert
res ources
Ġserv es
Ġander erseits
ĠBre ak
Bu ild
cont ainer
ĠComm and
Med ia
Ġinteress ant
entry Set
Ġerinn ern
ĠAN D
ĠJew ish
H igh
k ommand
Ġf asc
ĠA gency
ro it
ĠL isten
Ġl ib
ĠSch atz
ĠTe uf
Ġsh ares
ĠInd iana
ĠInst anz
ĠApp lication
liegen de
Ġleben s
Ġmeet ings
Ġfunction al
Ġkont akt
hyth m
ĠBM W
ĠAlk ohol
L ive
S ite
e ber
Ġan al
ĠM D
ic ient
Ġge druck
Ġdes selben
Ġor ange
ĠNe ug
ole k
ĠKon ferenz
ĠKon struktion
ellen ce
Ġange ordnet
ĠDu isburg
itu ationen
Ġ185 9
Ġmat hemat
ĠStock holm
ĊĠĠĠĠ ĊĠĠĠ
Ġgraph ics
ĠSpr ung
ĠRet urn
ĠSqu are
Ġabger issen
ĠPader born
J SON
Ġa men
ĠE sp
ul ing
ver g
Ġis lam
iel ler
Ã¤n zer
iz able
ren ce
ĠKon f
Ġange kÃ¼nd
ĠFe ier
Ġdefin ition
Char acter
ĠCamp us
ĠfrÃ¼h ere
Ġintrodu ction
ĠBesatz ung
g nung
v oke
Ġa wareness
ge mÃ¤ÃŁ
st ark
am ar
ĠF erner
ĠG uer
ĠW at
Ã¶ ger
Ġre pl
Ġde cre
ĠEx c
ĠBet racht
ĠÃ¶ k
Ġkon stru
ĠPla yer
198 1
Ġfac ing
Stand ard
ĠKriegs gefangen
ĠjÃ¼d ische
ĠAP I
Ġign ore
ĠKonzer te
inu ier
Ġperman ent
Ġschaff te
. ",
ol y
ĠP unk
ĠF inger
and in
ĠV iz
ĠJ Ã¶rg
Ġauf merksam
ĠZ one
ĠEin fach
utz te
ĠGeb Ã¤udes
ĠTr ink
Ġhand ling
reg on
ĠNord amerika
Ġpass enden
AC T
ĠTyp s
ĠHen ri
Ġbege g
Ġdom estic
ĠExempl are
ĠLuf tw
Ġbess ere
Ġeigent liche
' '
S ing
T M
f ound
h ain
m ass
ĠS ession
le utnant
Ġh all
ĠH ang
ier bar
Ġcon crete
ĠAl an
ute te
Ġ9 3
ĠTra ck
eiter ten
ĠHaupt rolle
ĠDurch fÃ¼hrung
iges etzt
Ġbil deten
mus ter
abr Ã¼ck
ĠSol o
197 3
ĠStruktur en
Ġausgeb ildet
Ġmensch lichen
ugu ay
] )
Ġd rag
ĠA lo
ĠB anken
ĠF ollow
ĠE C
ra ut
Ġbe wohn
ĠJ ay
Ġge kauft
Ġge lingt
ver kauf
ĠIn fo
Ġver grÃ¶ÃŁ
ĠSp enden
ĠVor teile
cl ing
rÃ¤ um
ĠSo ul
ĠTr end
Ġsw imming
ĠPra ct
ĠAp othe
ĠMeer es
ÅĤ aw
fÃ¶rm igen
Process or
": "
ĠCast le
ĠBoch um
temper atur
m iss
m utter
t im
er z
Ġs oph
ĠS amen
Ġz ogen
ist o
Ã¶ mm
Ġk onserv
all iga
Ġcomp lic
ĠSo ft
ĠFr ame
ĠStud ents
Ã¼tz ten
Ġsub t
Ġgef Ã¶rdert
Ġsk ip
ĠBra ut
DE FAULT
Ġfood s
Ġconsider ing
ĠLeg islat
Ġspeziel len
Column s
Ġexception al
abil itÃ¤t
Ġaktuell es
ĠProgram me
g Ã¤nger
k al
n ic
z ut
er ie
es ents
ĠA ge
ĠV ision
ĠV ector
Ġwe alth
ĠNe xt
ĠMo on
Ġreal ize
ĠKaiser reich
Ġenc ounter
Ġangeb racht
ĠWeiter hin
ĠunterstÃ¼tz te
ĠAndr Ã©
Ġuk rain
ĠKob lenz
Ġdou bt
F ran
O h
h au
n abrÃ¼ck
Ġa id
ro b
Ġ1 18
ĠL ith
ĠC ann
ĠO K
ĠAn satz
ard in
ace ae
ĠGesch lecht
ĠQu ick
ins ichtlich
15 0
Ġcar ried
ograf ische
IC E
ham mer
deutsch land
Ġcreat es
197 4
ĠBot schaft
idel ines
Ġinteress iert
FI X
ĠAth let
ĠprÃ¤sent ieren
Ġsignificant ly
ĠDemokrat ie
Ġbeob achtet
Ġpersonen bezogen
? )
d ated
ie u
ĠM ort
Ġn utzt
ĠD aily
ĠI ron
Ġth orough
ĠSch reiben
Ġwo oden
Ġgen e
ĠMan uel
verein igung
Ġtre ated
Ġ185 1
ĠHÃ¶he punkt
Ġpubl ish
ĠMiss ouri
ĠHoff nung
Ġanaly t
h aut
Ġin frastructure
ĠM ul
Ġh art
Ġh armon
ĠK ids
ĠR och
ill o
Ġcon ver
Ã¤t tern
old s
bl ings
lei hen
Ġperform ing
Ġcho osing
ĠMotor rad
Ġqualif iziert
usst sein
gere chnet
Ġverste ht
ĠAth en
ĠCle an
Ġpartners hip
Ġult imate
ĠAdmin istrat
Ġkanad ischer
ĠMitarbeit ern
D ATA
M ay
W A
Ġs hr
Ã¤ hne
ĠP s
Ġg un
Ġg aben
ĠV illage
Ġge laden
ver letz
ĠUnter richts
Ġfin ance
Ġ8 7
inn ers
fahr ung
imm ern
ĠSchw Ã¤b
ĠzurÃ¼ck gegeben
ĠTr ennung
leit ungen
ĠBen jamin
prof essor
Ġcloth ing
E ff
I tems
b Ã¤
k rÃ¤
l Ã¤ndern
Ġ 000
te or
Ġm ask
ĠA y
ĠE astern
Ġbe herr
Ġauf einander
ĠRe ed
Ġch ief
ob i
ĠIm mer
Ġbet reibt
ĠFre il
Ġem phas
ĠBi ografie
ĠDo zent
Reg iment
Ġmeisten s
bÃ¼ ro
Ġcook ies
Pos ted
Ġcondu cted
ĠNR W
B rite
Ġt ube
ĠB reit
ĠD M
Ġc ategories
Ġh idden
ĠF reis
ĠC hen
ĠO bst
Ġj un
19 34
ĠPro perties
me ier
Ġad s
Ġ0 6
az ar
Pro p
Mit tel
Ġsign al
Ġlik es
ĠKomm andeur
Art ikel
ĠZuf luss
ynast ie
ĠSams ung
H ans
c atch
r ennfahrer
s ingle
en cy
te ine
ĠD y
ĠT ask
ĠP ick
ĠK it
ĠW id
ĠL yn
os c
Ġas sets
Ġor ders
chn ungs
ax ophon
ĠQu est
iste te
If c
ĠHil f
ify ing
ĠÃ¤hn liche
ĠKing dom
ĠÃĦnder ung
Ġkorre kt
Abst ract
alleng ing
" ),
J azz
r ick
Ġd einen
am o
am ic
ĠE asy
ĠH ass
Ġge arbeitet
Ġso ul
geb oren
Ġgew Ã¶hn
Ġoff ices
ĠEx port
ĠTr enn
ĠChar lie
Cl ick
Ġdisc ip
Ġlet ters
ĠKle id
Fol der
R ole
b org
f isch
f ein
n ormal
v org
Ġw Ã¤chst
ĠS ale
ĠD orn
de ed
ĠF L
ĠF Ã¤lle
Ġer for
ĠAn bau
Ġcon v
Ġso le
iker in
Ġgr id
stru ctor
Ġperfe kte
Ġbro ken
Ġemploy ee
ĠAuss agen
ĠSoph ie
1 20
b ow
l iers
Ã¤ sche
ĠM asse
ig sten
ĠN SDAP
ein richtungen
Ġaus zu
ĠEr werb
ĠAus schuss
St a
mp ath
amen te
ĠQu ality
off izier
Ġfind est
hel ms
Ġbekannt esten
ĠLandkreis es
ĠParis er
Ġtyp ical
Ġgewann en
Ġfort an
Ġemploy ment
ĠRem ote
Ġindustr ies
wel ry
BÃ¼rger meister
N etz
S M
X base
p ower
Ġs itzt
Ġf icken
Ġe hr
Ã¼ hen
Ġl agen
Ġer leich
Ġr umÃ¤n
ne uer
let scher
Ge gen
Ġche ese
Ġfre edom
Ġac cepted
Ġbook ing
stoff en
ĠÃĸsterreich s
Ġident ified
zÃ¼ g
ĠWeiter lesen
Ġmom ents
grenz ung
ĠMarc us
Ġzuge lassen
Rem ote
Ġtal ks
ĠWach stum
ĠBeweg ungs
ĠNin tendo
Ġgarant iert
Ġperspect ive
ĠGabr iel
A ustr
P ark
er ten
Ġa ben
ĠM alt
ĠG Ã¶t
Ġge weiht
ess ing
Ġr id
Ġent worfen
ĠZeit schriften
ĠkÃ¶n ig
ett a
ament o
ĠBi ographie
ĠBed ien
umb oldt
trÃ¤ cht
ĠAnfang s
Ġrepr esents
Ġappear ed
ĠViel falt
Ġchrist lichen
Ġfrequ ently
ĠGit arr
B Ã¼
u den
ĠS EO
Ġin folge
ĠF DP
ow itz
ake te
Ġvers ions
ced es
Ġger iet
Ġfest gestellt
ĠWohn haus
Ġlist ing
ĠZust immung
Ġevangel ische
Ġexhib ition
ĠFinn land
hedr ale
: "
? "
G ymnasium
M AT
k ommun
Ê ¿
Ġd icht
ie ge
Ġs auber
at ischen
ĠS i
ĠB ens
ĠM O
ĠE ms
ou is
ĠMar cel
ron ics
ĠZw angs
ĠVerb reit
ĠWh ere
ĠBar th
ĠUr sprung
Ġhouse hold
Ġjapan ische
ĠPublik ationen
Ġbem erk
Ġpropos ed
ĠBundesver dienstkreuz
2 50
s inn
t age
at in
al is
Ġv ierte
ĠF uture
ĠI C
ra ben
Ġg ifts
ik eln
Ġst ainless
ver gleich
ens is
los igkeit
min a
res te
Sch on
Ġger ingen
Ġdire kte
ĠWer bung
ĠRes te
spre chen
ias ieger
Ġorgan ized
ĠDienst ag
equals IgnoreCase
ĠIr ish
ĠFrÃ¼h stÃ¼ck
Ġtw ice
ĠPrinz essin
ĠJob s
Ġfail ure
ĠKel ly
ĠGreg or
imens ions
ĠMcCart ney
N ummer
i Ã¨re
m Ã¤nn
er ed
ie ber
re ll
Ġo h
ĠH ind
Ġk ar
Ġr um
se a
ru p
Ġex cess
19 78
ian z
ĠMar sch
Ġsupp osed
Ġgu idance
Ġvis ited
verb Ã¤nde
Ġmatch ing
197 2
ĠFlor a
lad imir
fried hof
ĠVorsitzen de
Ste p
ĠLux emburg
Ġwire less
ĠSchwier igkeiten
Ġfoll ows
' \
H D
P red
V ier
Ċ ĊĠĠĠĠĠĠĠĠ
en ne
on ischen
at io
ĠS U
ĠG oth
ĠR acing
Ġbe zogen
ĠSch u
ĠÃ¼ber zeugt
St orage
ens burg
ĠPr ime
amm ad
ĠGes ichts
Ġsol ar
Ġset up
Ġend s
schlieÃŁ en
Ġgra u
Ġcall back
Ġkomp lette
Ġmain ly
iol oge
ĠKol onial
Verein igtes
Ġpoln ischer
Dis play
E st
un sten
ĠS ource
le un
ĠA tem
ĠT ieren
Ġk Ã¼mm
la de
ff e
ĠBe hinder
tra ce
ĠEx pression
ĠPhil ip
ĠSal v
spre chend
Mod us
Ġter ror
rau ben
Ġmot ion
Ġeig entlichen
Ġclear ly
ĠAtlant a
Ġinstit utions
ĠVoraus setzungen
Ġhos ted
ĠVerstÃ¤nd nis
ĠWupp ertal
; ;
ĠM ix
ĠP ixel
ĠK ings
ĠC ome
Ġde kor
ine a
19 50
ĠIm per
fin det
Ġber ichtete
gesch ichten
Ġag ents
Ġur i
ĠWohn ungen
Ġzahl en
Ġhealth care
ĠHerr scher
ĠKommun ikations
ĠÃ¶ff nen
ĠFreund schaft
Welt meisterschaften
Ġwissenschaft licher
How ever
Ġofficial s
ĠtÃ¼rk ischer
Ġerheb lich
Ġsowjet ischen
Ġstopp ed
Po inter
AuÃŁer dem
Ġentre prene
Ċ ĠĠĠĠĠĠ
in ema
Ġt ap
Ġe c
us ten
Ġn om
am an
ra gs
ĠC ass
Ġge ar
Ġge le
ĠSt ief
Ġver folgt
ĠRe ife
Ġex ists
Ġsp anischer
ĠEin blick
Ġus age
ĠCar lo
ĠPart ie
ÃŃ o
Ġspecial ist
ĠGrÃ¼n de
Ġter rit
anstalt ungs
ĠVe ter
Ġhor se
ĠBesatz ungs
Ġsamm eln
Ġherz lich
Ġdenk mal
G C
s u
Ġt aught
al ters
Ġp apers
Ġc arbon
Ġ1 14
ol ith
ĠT ran
ĠT auch
ĠF ell
ĠK ran
ĠK ai
ĠH allen
ĠL iver
ĠR ain
Ġge leitet
ĠO F
ĠO ak
ver w
ĠSch Ã¤d
Ġr ig
Ġch annels
Ġ7 4
Ġdar stellen
ĠOber Ã¶sterreich
add ing
Ġpl ate
ĠBand s
Ġav ailability
Ġplan et
cr ib
Ġpay ing
ĠZwe ig
Ġresource GroupName
Ġerm or
ĠSchwar zen
B ek
s ql
Ġw ander
ĠS ide
Ġan f
Ġc red
Ġ1 17
ĠK ne
ĠW ettbe
ber atung
Ġl iquid
Ġy ard
Ġaus geschlossen
ĠBe fore
Ġch allenging
Ġfe iern
rÃ¤ gen
An fang
Ġgew id
Ġgr amm
Ġbl ow
ĠauÃŁer gewÃ¶hn
ĠBel ast
Ġabsol ut
ĠLeip ziger
Ġless ons
ĠEmp fehl
wÃ¤rt igen
Ġeindeut ig
% .
H C
R om
n ten
le ten
ĠP ear
ĠH ost
Ġl aden
ver arbeitung
ĠZ ubehÃ¶r
qu ote
ĠAus sch
ĠCh i
rei hen
ĠÃľber setzer
ĠFe atures
ĠDr ive
ĠSol utions
Ġresearch ers
Ġclos er
ĠVerteid igungs
Ġsorg te
ĠstÃ¤dt ischen
ĠMinn esota
K ar
g ments
h ungs
m Ã¼n
p iegel
Ġf ir
Ġe ast
Ġc erem
am ik
ĠF REE
ĠK openhagen
ĠV ene
Ġr ichtet
qu ert
ak eten
Ġwh om
ho b
az itÃ¤t
br Ã¼ck
ator in
tes te
ĠOber bÃ¼rgermeister
ĠMot to
ĠHistor ic
Ġdraw ing
dis ziplin
ĠBran chen
Ġatmosph ere
E hren
J a
l on
m achen
Ġb ran
ĠD R
Ġp atch
ĠG allen
Ġpro of
ok u
ĠBer ger
Ã¶l be
ins atz
Ġind ire
ĠPf licht
Ġpost ing
cept or
trÃ¤ glich
Ġinvest igation
ĠSw iss
ĠMass age
Ġannoun ce
ĠGre y
ĠHash Set
Ġumfang reiche
Ġproduz ierte
Ġbon us
Hinter grund
Ġverhaf tet
f ire
Ġd ental
Ġs alt
Ġw ies
re port
Ġe ase
ĠM az
ĠD ame
Ġh l
Ġbe grÃ¼n
Ġme ets
ĠCh ange
Ġte lefon
ipp i
ĠCon rad
Ġpl anned
li ament
ĠCo ach
Ġtreat ments
gg gg
Vor pommern
Ġdest roy
Ass ign
Ġdream s
ĠAud i
conne ction
Ġmaxim ale
F lo
M erk
c ut
u ine
Ġb ranch
st an
de f
Ġ1 13
ig o
ĠP le
ĠG R
ĠK ein
ĠK alender
Ġk aiser
Ġge g
ĠâĢ Ļ
og ramm
ĠRe zens
ĠAr ena
Ġman chen
pro zess
Ġ' \
ateg orie
Ġgest orben
ĠAir lines
ĠRober ts
Ġconf ir
ĠAnn ual
Ġdeb ut
Exec utor
izien z
ĠAnders on
Ġchamp ion
Ġehren amt
Ġzusammengef asst
S en
w enn
Ġin ches
ĠA TP
il deten
ĠF ortun
ĠH au
sch ungs
ĠR ic
ier re
Ġge heim
ĠO hr
ĠBe teil
ok a
gr id
Ġat tr
ser ien
Ġro ugh
utz er
ĠMa ine
ĠSchw estern
Ġerfolg ten
Ġgener ated
Ġx ml
ĠFest ung
glieder ung
stre ifen
trÃ¤ gen
Ġelect rical
ĠFinanz ierung
ĠAnth ony
ĠCorn el
ĠLearn ing
ĠVinc ent
A g
F ot
he ll
us k
ĠB B
Ã¤ ÃŁ
ĠM ale
ĠT akt
ĠP iet
ĠP oten
ĠF lan
ĠO cean
sp olitik
Ġcon trast
Ġbis schen
ĠTe ich
Ġen ables
20 21
Ã¤hr en
Ġ7 9
Ġbo ot
Ġ12 00
ĠEl s
ĠSer ge
ĠLin col
ĠKind heit
ĠChem nitz
Ġkont inuier
ĠAntw orten
ĠSchlaf zimmer
Ġdram atic
, '
W hether
ĠS D
Ġf ro
Ġv ast
Ġv intage
ĠH ack
ĠC reative
ĠIn haber
qu ellen
Ġsch ne
ok omot
In formation
Ġsp l
Ġpr icing
ĠMar x
Ġsho oting
ĠGrund schule
ĠProdu kten
other apie
ĠDr ama
gra ph
Ġfac ilit
Ġ185 7
Ġ180 3
Ġregion alen
Ġdeb Ã¼t
Ġbesonder er
ĠEvangel ischen
ĠInner en
Ehr ungen
ĠKurfÃ¼r st
" -
d est
k linik
l ach
or um
re ide
ĠB C
ĠB ert
Ã¤ den
ĠD NA
ra ph
Ġer fasst
Ã¼r tel
ste chn
Ġle hrte
Ġbei der
ĠÃ¼ber gebenen
Ġ0 3
Ġ9 1
Ġ9 2
stra fe
ĠAut os
kehr en
Ġsl ots
ĠFot ografie
bet riebe
Ġaufge geben
Ġredu ced
ĠWes entlichen
ĠPreuÃŁ ischen
ĠHild esheim
M el
M ont
S ER
m outh
Ġw Ã¤ren
ĠS ony
ĠD Ã¼n
ĠT ower
ĠP ersÃ¶nlichkeiten
om ing
ĠE ichen
Ġz it
et tet
ĠW iesen
ĠC atholic
ber ater
gen s
ne ys
eb e
Ġle iden
19 19
19 32
ĠSie ge
Ġus ual
ĠSe hr
ac a
ĠWe is
Re al
eth yl
elle d
ĠVers ionen
ĠKinder garten
fÃ¤ llt
Ġoft mals
ĠErn Ã¤hrung
ĠSen at
Ġbedeut ende
bas is
ĠVerteid igung
ĠErzÃ¤hl ungen
Fra uen
ĠFert ig
ĠJed och
Lin ie
D istr
F ull
N onn
P AT
Ï ĥ
Ġa part
Ġb ags
Ġv olle
st het
ĠD IN
ĠL ack
ĠR ound
Ġbe gr
Ġk ommerziel
ab ama
est on
Ġzu ges
Ġver e
Ġver dien
get Resource
ĠAl f
ian er
ac ted
ĠSta ates
ĠMed ik
Ġcre w
Ġmin ing
Sie ger
Ġgef angen
Ã¡ r
ĠOff icer
ĠÃĦ m
čĊ čĊĉ
anc ouver
Sh op
Ġstrateg ic
Ġempf angen
Ġstaat lichen
Ġnut rit
F uÃŁ
G old
I K
k ter
Ġt iny
it ative
ĠS ind
Ġf if
ĠG ard
ra pped
ĠC onn
Ġl v
Ġvon einander
ĠZ wer
19 22
19 28
Ġent decken
Ġbes tellt
min der
Ġgesch ickt
Ġsho ot
ĠCon f
Ġstar tet
ĠTre ff
famil ien
ĠFass ade
Ġil leg
clude d
Net work
ĠInstall ation
Ġverhinder t
L et
M apper
d ale
z ed
} .
ã Ģ
Ã¼ pf
Ġan gle
ĠW isconsin
ĠL anc
ĠC ow
ul ous
ĠJ oin
ĠSt ick
ĠDe ep
ac c
Ġbes ter
Ġ10 1
Ġrec re
Ġrec ording
wohn ung
Ġmon at
Ã¤nger in
ĠEd itor
ĠFranz osen
Ġstehen den
ĠHigh way
ĠEmp ire
ĠbeschÃ¤ft igte
sequ ent
ĠErwachsen en
Ġgg f
č ĊĠĠĠĠĠĠĠĠĠĠĠĠĠĠĠĠĠĠĠĠĠĠĠ
ĠA BC
Ġo d
ĠD allas
ĠP ink
ĠF itz
ĠH ob
ul ator
ĠN i
ĠSt reich
ĠSt yle
ĠSt aub
ĠIn fe
19 00
ian ces
tell te
pro ject
ĠSchw ed
ĠTra de
ĠBet reuung
ĠNational park
ĠBerg bau
ĠTo uch
ĠText il
Ġclos ely
Ġprint ing
Ġcra zy
Ġexpect ations
Bundes liga
pap ier
ĠFant asy
Ġdetermin ed
ĠSaf ety
ĠChallen ge
ĠNomin ierung
K Ã¼nstler
k lassen
m Ã¤r
p ur
or ium
ro ff
ĠH Ã¤nde
ĠL ic
ĠL ob
ĠC amer
ĠSch enk
ĠRe b
Ġnot iced
ook ie
Ġtr igger
ĠHand lungs
ĠCar r
Sp an
iller ie
ĠLoc ation
ĠPil ot
Ġlisten ing
Ġprincip les
ĠSynag oge
brun nen
S H
Ï Ĥ
ĠA kte
st unden
ĠG lass
ĠG itarre
et on
ĠH ut
ann y
ĠSch uh
Ġde bt
ĠAn walt
Ġch ocolate
Ã¤t igung
ong o
ash i
ĠMon ument
ĠKl ar
Ġbl end
Ġorder ed
Ã¶st lichen
Ġerr ors
ĠDesign s
Ġerreich bar
ĠRen ov
ĠSÃ¤ ulen
ĠWeihn achten
lehn ung
---------------- ----------------
Ġsitu ations
erkl Ã¤rung
ĠScot land
I hre
L aut
R ich
S aint
j ar
z ule
ch annel
ge ist
Ġ( +
Ġ( _
ĠF ulda
em pf
ĠR unden
ĠSt imm
Ġauf nehmen
op ter
ĠEr furt
ant in
pr esent
ĠEn cyclop
Ġman aging
fl Ã¼sse
Ġob lig
Ġtr ib
gew Ã¤ch
Ġausge prÃ¤
Ġnun mehr
ush ing
ĠBas il
ĠBas ic
Ġevent ually
ĠAustr ia
196 2
196 8
kn Ã¼p
hor st
Ġsitu ated
Dec imal
Ġextre me
Nonn ull
G ed
H allo
b n
Ġh aus
Ġz ip
ĠH altung
ĠW esen
id al
sp reis
Ġab wechs
ru gen
Ġsch lÃ¤
iss ue
Ġmy th
rif fe
Ġspe aking
Ġprodu cing
ĠHand y
âĢ¦ .
ĠFranz isk
Ġhol te
Ã¨ res
zÃ¼ gen
ĠKin os
ĠDat abase
Ġeurop Ã¤ische
ĠSat ell
Stack Trace
Ġkauf te
d ays
n ischer
z ien
Ġt um
ĠB eth
ĠD eine
ĠD OC
ĠG umm
Ġg am
ĠN y
Ġdes ired
Ġauf zu
ag an
Ġwar n
ĠBe an
Ġle tt
Ġwe iÃŁe
19 26
19 37
Ġwas h
ĠGe fÃ¼
ĠSe attle
Ġreturn s
Ġper mission
yp en
Ġprov en
Ġdevelop ers
fra uen
Ġter min
196 6
196 9
Ġnieder lÃ¤ndischer
format ik
ĠGran de
ĠIdent itÃ¤t
ĠSmart phone
Ġmill ions
Ġforder te
ĠGlauben s
Ġhers elf
supp orted
Ġaka dem
ĠPersÃ¶n lichkeit
Ġaffe cted
andin av
D isc
b ald
f ische
Ġb lau
ĠA gn
ĠB auten
Ġc otton
ĠG T
ĠG ol
ĠR ick
ĠN O
ĠSt Ã¼r
ĠSch Ã¼tzen
we be
Ġpro ps
get Parent
Ġle ts
row s
Ġtra ce
ĠReg iment
12 3
Class es
Ġvis ible
Mod ell
bed ded
bed arf
othe k
Ġ185 8
ĠzusÃ¤tz lichen
Ġlink ed
Ġausgew iesen
ĠInvest ition
Ġbott le
Ġschwier ig
ĠRuh estand
E U
S K
S il
a ine
t ail
ĠS G
ĠF usion
ĠH arb
Ġto urn
ĠL ub
ĠR ote
ĠC hal
Ġden ken
Ġy es
Ġfor ced
ĠĊ ĊĠ
ĠEr hebung
ĠSp ain
Ġvor stellen
ĠVor name
ĠMe g
ĠSpiel klasse
Ġcomm ission
mÃ¤ cht
Ġ% )
Ġbed ient
kon stru
ĠPaul us
Ġrece iving
196 4
ĠRel ief
Produ ktion
Ġhon or
ĠverfÃ¼g te
Ġbrow se
wander ung
ĠOpt im
Ġfla vor
redential s
S el
S ummary
f are
m isch
p red
Ġb id
Ġb anks
Ġin ch
Ġin spe
ĠB ond
ĠF ashion
ĠG az
ĠG ift
ĠK ok
ĠL aser
est one
ess a
nen nung
ĠLand rat
Ġper mit
An gabe
Er n
Ver walt
Ġdr ugs
ĠBundes regierung
ĠHaupt bahnhof
Ġdec ade
ĠCom ic
produ kte
ĠTrans fer
Ġarch Ã¤
ĠOut door
ĠSat tel
Ġporn o
fÃ¶rm ige
Ġaccommod ation
ĠInstitution en
ĠErot ik
ĠberÃ¼cksicht igt
ĠErg Ã¤nz
Ã¢te au
E vents
l ia
m il
z elt
ĠS H
Ġb ars
st age
ĠT Ã¤tigkeiten
ĠG ay
ra iner
ĠH ugh
ĠH appy
ĠR ight
Ġre venue
if ff
tr as
Ġse qu
âĢĻ .
Ġwe ak
ĠÃ¼ber rasch
ĠEin ladung
geb ir
Re zeption
az y
rÃ¤ der
Ġges tern
Con stant
ateg or
ĠStand ards
AS K
roll ing
Ġnet works
stehen den
Ġfinanz iellen
Ġchem ical
ĠHon or
inst ance
ĠStan ley
Ġprogramm ing
ĠLeiden schaft
ĠSchott land
ĠÃ¶rt lichen
A U
G O
a ire
Ġ ul
re ff
Ġe lev
Ġan grenzen
Ã¤ p
ĠK ansas
ĠK riterien
ĠR ome
Ġge be
Ġfor med
Ġon going
ĠVer handlungen
Ġle istungs
Ġso fa
Ġall gemeine
Ã¤r er
ĠWe ing
ĠAb wehr
pro of
ĠMa j
nis sen
com pare
Er zeugt
schl Ã¼sse
ĠEd in
mÃ¤ÃŁ ige
klÃ¤r t
zentr ums
wissenschaft lichen
UT F
ĠLu is
ĠVerkauf s
Ġengag ierte
Ġfung ierte
M T
b uf
p ay
z ucht
Ġd iss
it ate
Ġw ann
ĠB ibliothe
ĠP ommern
ed u
ĠRe formation
19 42
ĠBr Ã¼ssel
ĠMon uments
ĠÂ °
ĠChrist i
ĠVol ume
Ġtechn ique
Ġsu ite
Ġpay ments
ogn ition
Ġreport ing
ĠFlor ian
Ġgre w
ĠMult ic
ĠCons ult
Ġzug unsten
ĠmilitÃ¤r ischen
irurg ie
Dom ain
opÃ¤d ie
ĠNeuse eland
ĠLincol n
W atch
ĠB ible
ĠT ool
ĠK han
ed el
sch les
Ġk ill
Ġk ost
Ġk Ã¤mpfen
ĠO regon
ĠAn k
pe te
ure au
iss ippi
Ġel ig
Ġeinfach er
ĠWar um
war f
195 2
ĠDel hi
Ġenter ed
ĠWand el
ĠOs nabrÃ¼ck
Ġcat alog
Ġsav ed
ĠMisch ung
Ã¤ll ig
ĠAuseinanders etzung
Ġconfl ict
w enden
Ġs amples
Ġv illa
st es
ĠM indest
ĠE ro
ĠE volution
ber eiten
ce ived
ag entur
ĠAn reg
ard i
her it
19 36
los er
ĠVor lage
Ã© bec
stell erin
-- ;
ĠZw ar
ĠChar ts
ather ine
Ġrest lichen
ĠAg ent
Ġblock s
Supp ort
ĠViertel finale
ĠProz esse
? âĢĿ
B atch
K ind
d re
e v
Ġa warded
ĠS or
ĠB h
ĠB uen
Ġein gemein
ĠH Ã¤nden
ĠL ip
ĠSt u
ĠLe v
19 47
Ġ9 7
gesch icht
ĠGemein schafts
bo ards
ĠEl f
uck et
rue ft
At tr
spre ch
figur ations
yd ra
ĠGold medaille
195 8
hÃ¶ hung
ĠZeich nungen
Ġoffic er
Ġnormal en
Ġprim arily
ĠMuse en
Ġcabin ets
icul um
F T
R oll
R ennen
k ommission
Ñ ĥ
ur ist
Ġf emin
ĠA er
Ġv it
ĠB apt
el ly
Ġh ate
ĠL ande
id as
end el
ĠVer f
ang a
Ġwe ap
19 10
19 24
olog ist
ĠSte iermark
fr ies
gl ing
ĠBet riebe
Ġben utzen
Ġeing est
ĠPat ent
ĠCont ainer
Ġfact s
197 6
Lo ad
ĠPhys iker
ĠÃ¼b lichen
Ġconcern ed
Ġgek ennzeichnet
Ãĸsterreich er
ĠEff ekt
ĠBÃ¤ ume
Ġil legal
INST ANCE
D enk
H istory
U RE
l och
Ġa wards
Ġa ims
on ic
ĠB uk
ut o
ĠT ak
ĠR iv
ĠC laus
ĠN ich
ck te
19 23
() ),
tell ten
ges pr
Ex tra
Ġtra fen
ĠFl Ã¼ss
ĠFra ktion
ĠLehr stuhl
ĠChem iker
ĠTenn essee
Ġrequ ested
ĠElect ric
ĠThr on
Ġhighl ight
Ġabgeb rochen
ĠOpp osition
Ġreput ation
A ctive
A BC
K or
b ian
k andid
Ã ī
ĠK rÃ¤fte
ĠL is
ĠV II
Ġfor est
ĠSch uss
ĠIn halts
be fehl
ov Ã¡
Ġvor Ã¼ber
par tei
Ġpr ison
Ġro les
Ġtra g
Le icht
Ġdire cted
ĠAt tra
ĠStre ifen
ĠPer u
195 5
Fernseh film
Ġsil ber
Ġerz ielt
ĠSilber medaille
1 000
S R
V iele
u tel
v ari
Ã ¯
ig i
ĠF res
ĠG reek
ĠJ Ã¼n
ĠZ er
ĠIn putStream
Ġab zu
up lic
ult an
ĠTe ch
ĠSe kretÃ¤r
ĠAb b
ĠFran Ã§ois
Ġev ol
pl Ã¤tzen
enden cies
ĠSÃ¼d ost
Ġeinge weiht
Ġnie mand
!! !!
190 1
195 6
ĠStat istik
Ġenter prise
Ġut ility
Dat abase
liefer ung
ĠCost a
ĠPast or
Ġsustain able
k irch
z esse
Ġt ollen
Ã¼ ben
Ġdem okrat
19 21
19 43
ĠTh rough
oun try
ĠBer ichte
Ġtra v
use ppe
Ġcont ents
Ġspe ech
ĠBes tellung
hand els
Ġteil en
ĠWor te
sport ler
figur en
Met ric
Ġconne ctions
Ġ185 4
190 8
gesetz es
gram me
ĠUs ing
ĠBit coin
Ġsubmit ted
Ġspezial isiert
ĠVerbrauch er
B us
B lack
C ounter
M ass
S zene
h ten
r Ã¼cken
Ġd ivision
ĠA ktionen
ĠB reis
ĠB att
Ġh ole
Ġh insichtlich
ĠP i
ĠP latt
ĠN C
ĠJ ason
Ġst ab
ver teilung
Ġun known
aus geber
ĠEr be
19 27
Ġ4 50
Ġfr isch
ĠTra il
ĠSh are
Ġgeb raucht
Ġknow ing
ĠCon c
Ġsub st
Ġfest ge
str ateg
ĠPat ient
ĠDu ke
plan ung
ĠSim ps
ĠDec or
Ġmiss ed
Ġerk ennt
ĠSlow en
ĠeigenstÃ¤nd ige
ĠPow iat
Ġverab schie
Ġausdr Ã¼cklich
ĠKabin ett
B ounds
F ebru
H y
M I
o be
in em
Ġt ank
Ġin tel
ĠG ul
ĠH ed
ĠH ydro
ĠL P
ĠL enn
Ġl Ã¤nd
Ġre produ
Ġge gangen
ĠU d
ĠZ in
pp ers
ĠRe chnung
ĠVer leihung
age ments
gel Ã¤nde
auf lÃ¶sung
ĠAb tei
Ġpr ide
tz t
tw ork
En tries
Ġrec ipes
Th ank
Ġsc an
ĠSchw ein
bl og
ĠAlb ums
Ġret ire
196 7
Ġpack ages
Ġextra ct
ĠTest ament
Ed ge
ĠSur vey
ĠpreuÃŁ ischer
Ġobt ained
Ġviol ence
================ ================
ĠVersicher ungs
Sow jet
ĠdebÃ¼t ierte
K enn
L ife
b undes
s uper
w affen
Ð ²
Ġt ile
he ast
hr ung
ĠL aub
ĠC ord
ĠIn tens
Ġaus gestellt
ĠBe frei
be griff
rie t
Ġat temp
Ġsp ark
Ġvor der
ĠY am
ĠMa ÃŁe
ĠSte el
EN G
Ġsur prise
ĠWohn ungs
AC H
Ġoper ated
Ġrelat ively
Ġenjoy ing
Ġident isch
ĠZwe cke
Ġversch oben
ĠschÃ¶n sten
Ġseem ed
Ġdise ases
ĠLaur a
ĠtÃ¼rk ischen
____ ____
Ġbayer ischen
ĠGemeinder at
D b
t ages
in ternal
ĠD ix
ĠT afel
ĠI tem
Ġz ero
em pty
Ġbe auf
Ġbe igesetzt
Ġl Ã¶sen
ĠJ oy
ĠJ immy
eb au
ĠBe werb
19 44
ĠSe lect
ĠGem Ã¼se
ĠAd v
Ġtr ick
ĠEnt ity
ĠLie blings
Ġtradition elle
ĠWes er
Ġangeb lich
Ġrefer red
gewand elt
ĠLiver pool
H ers
O ther
R ows
f uÃŁ
Ġb odies
Ġf as
Ġe g
us her
ĠA ur
ĠA hm
ĠT hal
ĠT otal
ĠL isa
ges ted
String Utils
ĠSte ink
ĠPh Ã¤n
Ġfl ash
Ġchar ged
ĠWor ten
ĠHel p
Ġret ten
Ġcap abilities
Ġdre imal
ĠProble men
ĠGesetz es
Ġprior ity
Ġsup erv
ĠÃ¤uÃŁ eren
ĠCapt ain
ĠInse kten
7 00
O k
z usammen
Ġb lank
Ġp Content
ent ums
ĠF o
Ġaus einander
ĠAn pass
ĠRe ferenz
igen schaften
Ġch apter
19 35
ĠEin tritt
per rt
ĠDies el
ĠSte wart
Ġ) ?
ĠMann es
ĠauÃŁer ord
ĠmÃ¼s se
Ġtro uble
ĠNeu zeit
ĠHeil bronn
196 3
Ġoffen e
Ġconc ert
gehen de
Ġplatform s
Child ren
angeb ote
Kirchen gebÃ¤ude
Ġuntersch rieb
spart ner
D ienst
S B
c amp
it able
he ets
Ġh ydro
ĠF R
om on
ĠK ate
ĠK lin
ra c
ĠH aup
ĠC ock
Ġbe le
Ġl ift
Ġl ists
ein richtung
ou red
Ġj ahr
ov es
Ġcomp act
ĠDeutsch es
Ġgew isse
oh an
ĠSchw anger
Ġbek le
ĠAnd y
ĠVerb indungs
ĠMet ro
Ġeinge gliedert
ĠGegen stand
ĠZe ilen
ĠAnt ike
Ġhol idays
ĠHistor ische
ĠSus anne
ĠBege gnung
fÃ¤ll ig
ĠmaÃŁ geblich
Krit ik
, ...
S pr
Ġt iefer
ĠK ay
sch reiben
ĠC urt
ĠC redit
ĠN iveau
ĠJ en
ver Ã¶ffentlich
ern t
ĠEr stellung
Ġsp an
Ġen orm
Re ihe
als ieger
Ġ16 00
ett es
aw s
bach s
Ġsm ile
Ġide en
Ġinvest ors
ĠErw art
Ġnieder lÃ¤ndischen
Ġentire ly
Ġpoln ische
ĠDir igent
ĠMach ine
ĠErzÃ¤hl ung
ĠSpann ung
Ġzeich net
Ġhochwert ige
ĠErschein ung
Cons umer
Ġregistr iert
Ã¤nk ischen
Ġbedeutend sten
G ar
S im
T urn
g Ã¤ng
le e
as ie
Ġm aps
ig u
ĠT s
ĠL enk
ĠR iesen
est het
ik ar
Ġver trieben
qu ar
sp ring
ĠBe fest
ĠGr ill
min ute
Ġhand eln
ĠNor bert
ĠUr heber
ĠMag net
ĠBel ager
loy d
ĠErz bist
Imp ort
ĠKind es
ĠAv ailable
Ġimmed iate
ĠTemperatur en
tor hÃ¼ter
friend ly
ĠJane iro
ĠWord Press
ĠWit we
Ġmur der
S ql
W ord
c ms
y an
er d
as a
Ġo vers
ro le
ĠM esser
ĠT alk
ĠF Ã¤r
ĠK enntnis
ĠH C
ĠL ese
ĠV Ã¶gel
ann over
ver anstaltungen
Ġver mittelt
hn s
ok raten
Ġle gs
Ġcon sequ
ant ik
Ġwe iss
form ed
Qu elle
Ġvers orgt
ĠMan ufact
Ġsol o
Nach bar
Ġperson ally
Ġperson ality
Ġwrit ers
ĠMo z
ĠWar schau
ĠDis play
ĠSÃ¼ ÃŁ
Ġturn ing
ĠKle idung
ĠKre bs
ĠErd be
ĠLat in
ĊĠĠĠĠĠĠĠĠĠĠĠĠĠĠĠĠĠĠĠĠĠĠĠĠĠĠĠĠĠĠĠĠĠĠĠĠĠĠĠĠĠĠĠĠĠĠĠĠ ĠĠĠĠĠĠĠĠ
ĠWebs eiten
Ġregul ations
Ġearn ed
Ġord entlich
ĠwÃ¼n schen
Ġdoll ars
b b
d rom
al in
Ã¤ use
Ġn a
ĠF avor
ĠW are
ĠL LC
ĠC omb
Ġbe ziehen
and el
ah ne
tr u
ĠUn i
ĠLe ider
ĠEn kel
cl udes
Exception Constants
Ġgew inn
ĠMus lim
Ġsub stant
Ġeng agement
ĠPer fect
ragen den
kon struktion
Ġ185 2
Ġwid ely
Ġbere chnet
Ġtransp ar
ĠReihen folge
Enc oding
ĠWik ipedia
ĠLug ano
L ud
R aum
V ID
t to
ĠS ain
Ġm oral
Ġp ill
am ts
ĠP aper
ĠF unde
ĠN ature
Ġal arm
Ġal cohol
Ġge p
Ġst ated
ĠZ ert
ĠBe weis
ĠTh ose
ĠSe ason
Ġte ch
ĠPr in
Ġste uer
bar es
ĠProdu ct
fo ot
by tes
ES CO
ĠEntwick lungen
ĠJust ice
ĠTÃ¼r en
Ġerg ab
IG N
ĠgrÃ¶ÃŁten teils
inst all
Ġcirc umst
ĠDemokrat ischen
Ġsav ings
Ġimag ine
Down load
ĠForts etzung
Ġsud den
F low
M IN
S aison
T wo
h Ã¤nge
w id
Ġs amt
ĠB ush
ĠM ine
ĠD ritten
ĠO range
Ġj ene
Ġsch eme
ĠAb ra
18 0
dr ama
res ol
ĠMed iziner
ĠDurch schnitts
Ġcert ificate
Ġgl ad
ĠTro cken
197 1
ĠAp i
Her r
ĠMount ains
Ġsle e
Ġengag iert
ĠDet roit
ĠTerr asse
N ur
U K
d raw
g alerie
k Ã¼nstler
es a
ĠS ara
Ġin tell
Ġc odes
ut age
ĠL j
ĠR Ã©
ĠN atÃ¼rlich
urn iture
ĠSp er
enn is
ĠSe ch
ĠKon stantin
bes te
ohl en
ĠRad i
Mod ified
Ġmet all
ĠForsch ungen
ĠhÃ¤uf iger
ĠJournal isten
ĠLog o
eme ister
ĠPubl ishing
ĠTschech oslow
spar tei
Ġauthent ic
Sonst iges
Ġdenkmal gesch
B al
N un
Ġt ut
al p
Ġb ass
ur teilung
Ġv end
Ġp our
Ġc riteria
ĠH ud
ĠR ÃŃo
Ġer lern
ab ol
id ad
ĠU we
Ġor din
19 46
ĠEn try
ĠEin zug
ĠAus stellungs
ĠFl otte
mann schaften
pl us
iff s
Ver tex
Ġeinz eln
DE L
EL D
ĠWeiter entwicklung
pass te
ĠAuss icht
kathol ischen
zub auen
Ġweib liche
ĠbeschÃ¤d igt
Ġgefe iert
B ern
D uring
N a
h lich
k arriere
Ġd ot
Ġa pi
Ġan gest
ĠD sch
Ġ1 16
ĠT Ã¤ter
ĠF aktoren
ĠG ib
ber ichte
ĠSt ro
kt ive
ĠSch mal
Ġver mitteln
Ġ= >
ĠBe arbeitung
ĠAr g
Ġ18 47
19 13
Ġup grade
ĠFl ash
Pro ps
off er
Ġass ign
Ġdel ay
Ġdel ivers
ĠOff iz
Ġweek ly
kon zept
pre chung
Ġkon zip
Group s
190 4
fest ival
ĠerhÃ¶ hen
ĠErk enntnis
Ġrepla ced
ĠSau di
Ġnutz te
Cert ificate
ĠPian ist
ĠDok umente
it Ã©
ig ern
ĠF I
ĠH Ã¼
Ġg od
Ġj ahre
Ġ" +
19 17
Ġen ger
ĠY ang
az ier
ogra fen
Er stellt
vent ional
ĠStra hl
stein en
ĠHaus halt
ĠGeneral major
ĠIde al
Ġ180 6
ĠMer c
Ġinstall iert
ĠAp ost
Ġerk annt
End point
Ġassoci ation
sper re
ĠSak r
ĠTats ache
ĠWÃ¼n sche
Ġgewid met
O l
v ision
en ix
Ġa partments
at iver
Ġan th
Ġo cean
ĠD Ã¼r
ĠV ancouver
ier ra
Ġun able
art a
tel ier
Ġman che
St re
unk er
ĠSh anghai
ari us
Ġgef ragt
Ġinner en
irm ingham
ĠAg ain
Ġcontrol s
ĠBu y
Ġmat ters
ĠRob in
quis ition
ĠWorks hop
Ġdigit alen
Ġphotograph s
verteid iger
ĠSchicks al
Ġtom orrow
Ġsoph ist
( !
L ear
L ied
T I
f unction
k ol
k asten
l Ã¶sen
m ung
s Ã¼d
ĠA uÃŁ
ĠT os
ĠH obby
and ra
ĠJ ess
ĠSt ationen
ĠO N
ver d
Ġde leg
se arch
ĠUnter schiede
ĠReg istr
sk op
Ġph ase
Ċĉĉĉĉ ĉĉĉĉ
Ġinv ited
mark e
west lichen
ĠMay er
Ġunterschied licher
Ġbuy ers
Ġzwe ig
Ġleben den
Ġyoung er
Ġjoin ing
Ġnar row
Franz ose
ĠEdin burgh
n acht
z it
Ġt all
ĠB Ã¤r
ĠG am
ĠE X
ĠN an
ÃŁ t
Ġauf gel
ag u
ru der
âĢĻ ,
ĠFl ow
Ġapp l
ĠPar ad
rach ten
ograph ischen
Ġsupp lier
Ġrem ark
Tra iner
druck s
Ġaufge hoben
ĠBro t
Ġ185 3
ĠHerzog tum
Ġvalid ate
ĠPrÃ¤ fektur
ĠSamm el
ĠspÃ¤t estens
Ġincred ibly
Ġmonitor ing
ĠDist anz
Ġhinzuge fÃ¼gt
A ir
o fen
p x
t ask
w il
Ġb undle
ĠL an
ĠC ash
ĠLe ader
auf gaben
Ġar gentin
ĠString Buffer
ike a
olit an
eng ers
Ã¶l z
ĠMed ium
Ġbre ast
Ġsk i
ĠAt las
unn able
Ã¤uf e
ĠZe ug
mark en
Ã¤m me
Ġerr ichteten
ĠBru ce
ĠBrit ain
Ġherv orge
Ġstre ets
Ġfinanz ielle
ĠNachbar gemeinden
Ġrelig ious
ĠPhot os
ĠWiederauf bau
ĠGeschle chts
P lat
Y es
b ab
k os
u cc
ĠM ahl
Ġc ake
Ġc tx
ĠR up
ĠR ights
Ġl ake
eit her
Ġer zeugen
ĠIn valid
ĠRe ktor
ĠDie t
Ġle ichte
Ġcon tribute
Ġad ds
Ġad van
ĠLand gemeinde
rag ung
Ġverb ringen
pla in
Ġcons ist
Ġatt orney
Ġhistor iques
190 5
Ph ys
Ġconf ident
ĠFÃ¼hr ungs
Bau denkmal
ĠPop ular
Ġverm utet
ĠAust in
komp lex
Ġerf Ã¤hrt
Ġmort gage
eig nete
prec ated
l ernen
ĠS creen
ge fÃ¼hl
Ġan x
Ġh ang
om aten
ĠK ies
ĠL esen
ĠR uth
ein kommen
Ġge zwungen
Ġde fense
end ant
19 41
ĠNe ed
Ex per
Re ich
sh ut
iger ung
ĠEx change
Ġfol ks
Ġsol ve
ĠMot oren
reib ungen
ĠAnt arkt
kor de
ĠSchÃ¶n heit
Gra f
ĠCap ital
Ġhum or
ĠWettbewerb s
ĠKomment are
Bet rieb
Ġgeplan te
J J
S pl
k ens
l Ã¶s
ĠB attle
Ġn one
ĠK em
Ġg aming
ĠJ as
Ġmit ten
op ing
aus ende
Ġunter schieden
ĠAus flug
ĠCh ap
Ġev olution
Ã¤s se
urrent en
Ġfind s
Ġcheck ing
Ġbig ger
ĠGen f
DE F
ĠStad ium
Ġremov al
Ġhor izont
Ġinstru ction
ĠSlow akei
ĠFrances co
ĠRess ourcen
Ġnorm ally
G lobal
S ol
T itle
W ahl
a o
n ord
le ep
ge ts
Ġv ollen
ĠP ont
ĠF ly
ĠH im
ĠH onda
ĠV olleyball
ĠJ i
Ġsp ir
lo h
Ġtra um
Ġco ordin
IN TER
vers icher
Ġgeb unden
Ġinv al
Ġdown town
Ġcommun ications
Ġrest ore
Ġpolit ischer
bre ite
Ġsetz ten
produ zent
mel den
ĠImp ro
Ġcommer ce
Ġumfass ende
ĠSter ne
Ġzweit es
ĠAR D
ti rol
sthe orie
ĠBeaut iful
instr ument
Ġs tet
ĠD ritt
am ents
ĠP est
ĠG P
ĠE k
sch Ã¤d
ĠC ool
ĠN AT
ĠO il
ien e
art z
Ġhe ating
Ġso il
ĠDe te
Ã¼hr ung
zeit lich
ata illon
ĠPart ien
Ġbed ro
ĠForsch er
ĠSol ar
Ġcover ing
ĠMer cedes
ĠVal ent
ĠBahnhof s
Ġauthor ity
Ġneg ot
ĠEntscheid ungen
## ##
ĠFF DC
Ġdiskut iert
organis ationen
h aven
w elle
Ġt ack
or men
Ġb ild
ĠA kten
ĠB eine
sch a
sch lossen
ĠW he
ĠN om
ou x
ĠIn stead
ĠVer anstaltungs
ĠEr nennung
Ġ18 45
Ġent stamm
ail ure
Ġqu adrat
Ġ9 4
ĠGeb Ã¤uden
ĠAd vis
ym met
ott a
ĠStud y
Ġcol ours
Ġgef Ã¤llt
ĠMittel feld
By Comparator
ĠGew Ã¤sser
schein lichkeit
Ġabge lehnt
ĠSol id
Ġbin ary
ĠBÃ¶ hmen
ĠEt appe
ĠWed ding
ĠSter nen
ĠSym ph
fle isch
ĠlÃ¤ng ere
wach ung
ĠTrotz dem
ĠVie h
F eld
g iving
t akt
ie hen
ĠB og
ĠB org
de i
Ġc urrency
ĠC oup
ĠN assau
Ġk unst
aus stattung
ĠAr rays
ĠAb satz
amm ed
ĠAm y
rif tsteller
Ã¤d te
Ġbre ad
ĠInter ior
Ġbef Ã¼r
umm y
ĠKat zen
Ġimpro ving
Ġmag ic
Ġill ness
Ġumfang reich
CON T
ĠLi bert
Ġausger ichtet
Ġelektr ische
Ġcontinu ing
ĠMov ie
Ġconfir med
ĠEro ber
K ol
W F
e u
k reise
Ġt oler
ĠS ize
ĠK iss
et ooth
ĠH arz
ĠH umboldt
ĊĠĠĠĠĠĠĠĠ ĠĠĠĠĉĠĠĠ
igen en
Ġcon cepts
Ġ18 44
19 40
ĠBer Ã¼cksicht
br Ã¤
ĠPe er
sc ale
ĠGast geber
Welt meister
ĠFel sen
Ġregion ale
kan al
kle idung
ĠMr s
ĠExper iment
Ġcondu ct
Ġachie ved
ĠFranzÃ¶s isch
Ġverbess ert
Mult i
ĠWurz eln
ĠRal ph
ĠArgentin ien
R hein
d og
k Ã¼nfte
s d
Ã¼ chten
ĠB lat
ĠD opp
ent z
ĠP eking
ĠF uss
ĠI F
Ġ2 20
Ġk reis
la in
ap olis
ia e
Ġ" ";
pr es
auf lage
Re pository
fl Ã¼ge
ĠGer ade
Ġstr ip
Ġbesch rÃ¤nkt
ĠPl Ã¤nen
Ġphot ographer
fre unde
Ġauth ors
Ġcap able
ĠDom ain
lemen ted
ĠBud get
kore a
ĠFilmp rodu
ĠBedÃ¼rf nisse
ĠGemark ung
H ey
L Y
r isch
y k
Ġt elling
it led
al ben
Ġb io
Ġv ector
ĠE gypt
ĠE valuation
ĠI ce
ĠC N
id x
ĠVer pack
Ġsch auen
ĠJahr gang
Ġ18 37
geb ot
ĠAb hÃ¤ng
ied s
hÃ¶r en
Sch utz
Ġfol der
Ġcl ar
lock en
ĠMal ays
Ġtrans lation
akes pe
On ce
Ġfac es
Ġcr isis
zy kl
ĠSalz burger
Ġfig ures
ĠAtlant ic
ĠJos h
ĠkÃ¼nstler ische
ĠErwachsen e
Ġbetroffen en
Ġmittelalter lichen
Tim estamp
Ġerkenn bar
ĠangekÃ¼nd igt
D etail
F Ã¼gt
G ood
H ard
b ungs
Ġp in
ĠT un
ĠF unktions
ĠG ary
ĠH eld
ten nis
est r
tr itts
ĠEr ziehung
be cker
erv ers
ĠSe ver
ac ular
ime tern
pro ble
Ġges ichert
Ch ina
Ġloc ale
Ġsk y
ĠEhe mann
So zial
voll stÃ¤nd
Ġgenau e
ĠSand stein
Ġmem ories
Ġfloor ing
ĠHeraus forderungen
ĠQue ens
ĠEar ly
resource GroupName
ĠSab ine
Ġdigit ale
Ã¤rt ner
Wor ld
franzÃ¶s isch
D oppel
F k
Ġ ï
Ã¤ usch
sch mer
ĠC oc
Ġer fre
la uch
id ium
end ish
Ġse ats
ĠÃ ©
Ġpl ugin
ĠZw eite
ĠPal ace
ĠTre ppen
Ġla ptop
190 2
Unter nehmer
Ġintegr ation
ĠCamp ing
ĠVis it
Ġdet aill
ĠJon athan
Ġstaat liche
ĠVort rag
Ġspirit ual
Ġbow l
verl ust
Il legal
ĠGord on
he ader
ĠA V
ĠK ass
sch el
ul u
Ġth erm
Ġab use
ĠJahr buch
ord nen
Ġum gewandelt
ring s
ĠVor gehen
utz ten
ĠFl ach
ĠBo ys
lÃ¤ chen
ĠPf lanze
ĠBundes straÃŁe
velop e
ĠMÃ¼n dung
Ġeinz us
iner y
ĠHol y
fra gt
Hand le
Des c
Ġorganis ierte
Ġinform ed
Ã¤rk ung
Ġrecogn ize
ĠVorder grund
ĠjÃ¼nger en
ĠDrag on
Ġbrill iant
Ġfasc in
Ġeingemein det
ĠBreis gau
T or
p g
Ġd ust
Ġs ummary
re ct
Ġf esten
Ġm ad
Ġm uÃŁ
Ġm ature
ĠP ension
ĠH Ã¤uf
lich ten
ah me
ĠVer leger
ip ts
lo hn
Ġnew sp
ob le
ob ahn
ĠNe g
Ġte x
ĠVor jahr
Ġgen auer
ĠFl orenz
Ġgra b
ĠSchul ter
ĠÃĦ l
ĠSan ierung
Ġpolit ics
ĠRed akteur
ĠGraf iker
Ġbew aff
Ġcir ca
Ã¤chs ische
ĠLux us
ĠErinner ungen
Dur ation
ĠRail way
Pres ent
P okal
Z wei
o ft
Â ¤
ĠB ucht
ro tt
Ġre iste
Ġr Ã¤um
Ġse ctions
Ġsie gte
19 31
lo ÃŁ
ite e
ĠAus sehen
ĠVor gang
Ġfr ustr
ĠUm zug
Ġdesign ers
new Instance
Ġbr idge
ommun ity
ĠMo ore
ĠDar win
str ong
str Ã¶m
recht lichen
ĠAss istant
Ġport folio
195 3
zy linder
Method s
ĠTÃ¼r k
ĠErd geschoss
ĠUrs ache
ĠKult urg
ĠDro gen
ĠGene hm
Ġgesellschaft lichen
Ġincor por
ĠCav endish
K reuz
n umber
w ed
in tend
Ġd auern
Ġt ast
Ġt ape
Ġb ron
le itete
Ġn odes
ĠT O
ĠK upp
ĠC urrent
Ġl yr
la fen
Ġne ug
Ġwh ilst
fer red
Ġdurch ge
Ġgr ass
sk ar
Ġhier zu
ĠVers uche
Ġlang uages
Ġmo ist
ĠÃĦ thiop
Object s
Ġreal isiert
Ġmar ks
ĠLebens raum
ĠBas eball
196 1
ĠKle ider
ban ken
Ġbox es
Rel ig
Ġliter ature
ĠMas ters
', '\
Ġentsp ringt
ĠCook ies
Ġdiagn ost
ĠHoll and
ĠTob ias
JÃ¤hr ige
Ġdanger ous
B ro
B ot
C enter
G l
P N
U D
W olf
f ted
l inger
n ote
Å Ľ
ar ab
ar ma
le ans
ĠB elle
st Ã¼cken
ĠD ak
Ġp hen
im ore
Ġver standen
ib ution
sp lan
be h
Ġen ge
ĠVor feld
Ġviel fach
pla ys
Ġcolle ctions
Ġpat io
gramm arAccess
Ġmult ip
ĠKle ink
Ġcas ual
Ġprakt ische
Ġfiel en
Ġframe work
ĠNationalsozial isten
Ġprefer red
Ġmusikal ischen
ĠðŁ ĺ
ĠBundest ags
ĠBrow ser
g ast
k ong
m aster
Ġd ual
le ton
le tes
Ġin halt
Ġm g
Ġm ile
ĠB rem
il fe
ĠK ohle
et o
sch i
ĠC ommer
Ġl ucky
ĠSch re
ĠSch Ã¶ne
ate au
tr ess
Ġ18 20
Ġ18 46
me yer
Ã¤r bt
ĠSe pt
ĠVor les
ĠBl ind
enden ce
Ġprof essor
ĠPark platz
Ġevangel isch
Top ic
ĠdÃ¤n ischen
Ġsau ce
Ġgrund legen
A K
C ell
R und
Ġd ump
re kord
ĠS ke
Ġe ure
Ġe ignet
ĠB enz
Ġc ater
ĠG ibt
ĠV ice
ot ter
Ġver ring
Ġse ed
Ġsp aren
ome ter
ac cept
par ameter
Th anks
ĠMitglied s
Ġgest altete
ĠFach werk
ĠHil de
Ġgem el
ĠKo alition
196 5
Ġintens ive
hem atics
ĠVertra uen
ĠPak et
Ġgez Ã¤hlt
ĠVermÃ¶gen s
ĠSQL Exception
ĠBom ben
! âĢĿ
. ;
R unde
Ġ Ã¤nderte
es er
an ion
Ġs ang
Ġm and
ĠB Ã¼ndnis
st oÃŁ
ĠM is
ĠD K
ic ulture
Ã¶ ten
ĠV irtual
ĠSch los
se lect
ĠSp ons
ĠMa urer
Ġno ted
Aus gabe
pos al
Ġrequest s
spe zif
Ġmag n
Ġens uring
Ġid x
sprach ige
ĠImp ort
ĠImp lement
Arch itektur
ĠRÃ¤ um
vo gel
Ġumfang reichen
Ġconven ience
ĠEins Ã¤tzen
ĠGeheim nis
ĠDub lin
ĠChron ik
Ġpropos al
Ġsinn voll
ĠBeam ten
Lang uage
ĠEinzugs gebiet
g it
g io
h Ã¤ngt
i ierten
l t
y en
is emit
Ġf its
ĠP ent
ĠN ack
ick te
hal tes
Ġad op
sk irche
Ġprodu cer
Ġind oor
fr ame
Al ias
let ing
Ġstr ict
schl iess
str asse
sw itch
Ġgel Ã¶scht
Ġaufge teilt
ĠPal m
Ġhol en
ĠTex ten
Date Time
Ġaddress es
Ġren omm
Ġkrit isiert
ĠNamens geber
Ġsuggest ions
ĠVerÃ¤nder ung
Ġguarante ed
Ġfot ograf
ĠBrook lyn
Ġpow der
Ġanbie ten
ĠAfghan istan
ĠVerbreit ungsgebiet
H in
M as
S creen
j s
o i
en ted
ĠB ott
ĠB ibli
Ġan onym
ig ert
ĠI G
Ġg lauben
ĠC rist
ein satz
Ġr asch
ĠGr as
pro file
ĠFl u
ect ive
Ġclass room
Ġâ ĪĴ
Ġflo ors
check EMail
sta ates
Ġdur ation
ĠStreit krÃ¤fte
person en
ĠmilitÃ¤r ische
Ġsatis faction
tran sport
Ġumf assen
Merk male
gewÃ¤ch se
checkEMail Adresse
D ruck
ĠD ritte
ĠT reat
ĠE y
ĠH Ã¤ndler
ĠC ry
iv ile
if l
ĠSt ipend
la ve
Ġfor th
ak ten
19 12
Ex press
ĠMar in
ieren der
Ġfin est
stand es
ĠgroÃŁ em
ĠArbeit nehmer
ĠStud iums
ĠEl be
ĠSc ient
ĠMor gan
Ġtyp ischen
leben s
Ġincre ases
ĠKlein en
ĠHeimat stadt
lÃ¤uf ig
ĠVe get
ĠPan el
Â» ,
Ġdeal ing
Ġhappen ing
SI ZE
Ġult ra
Ġirgend wie
Ġunterr ichtete
ĠEnter prise
ĠRepar atur
ĠiP ad
P ure
a er
d ichte
Ġw itness
Ġm un
ĠM E
ĠD O
Ġh ref
ĠF ett
ĠG ute
Ġto ys
ĠC ous
ber to
Ġer a
Ġver zeichnet
ĠSp alte
ĠAr sen
19 15
ĠAl lein
Ġunter teilt
ens atz
mp os
ock e
ock el
Con f
schie ÃŁen
akt ions
urt stag
Ġass um
hel ess
ĠAt tribute
ĠDar stellungen
ĠCo oper
ĠMag ic
ĠOst see
Time Millis
ĠStaats anwalt
Ġcr ash
Ġter r
viron ments
Ġant icip
Ġdat iert
Ġfunction ality
Ġerziel en
hers tellung
Verkehr s
Ġgere cht
ĠGesell schafts
pie ce
Fk EMail
E lekt
L uther
T it
W ohn
m ode
s v
z es
Ġt ip
at alog
Ġm ath
Ġan spruchs
Ġh ack
ĠE cht
ess ischen
sp rachen
ov o
Ġent rance
Ġwill kommen
ac ional
Ġro se
gend a
Ġerst mal
ĠInd ustry
Ġcoun sel
Met al
fred akteur
gesetz ten
Ġung laub
Med ien
ĠKrit iker
ĠDokument arfilm
ĠImm un
Ġlands cap
Ġevalu ate
Ġqualifiz ierte
bay ern
ĠkÃ¼nd igte
A ch
S al
k W
he ld
st lichen
st ufen
Ġh ind
ĠW LAN
iv ation
ab ad
if ies
ĠSt ifts
th at
th ese
se ction
qu et
ĠEr ik
Ġ18 16
Ġ18 43
19 11
Ġdurch setzen
ĠGe fe
Ġbut t
Ġcont est
arbeit ungs
ober flÃ¤che
Ġshe ll
ĠFrank lin
ĠHel den
ĠBesch luss
Ã¤mp fung
ĠSchloss es
Ġpack ed
Ġfocus es
Spe ichert
Ġstudy ing
Produ ct
Ġposs ibility
VAL ID
Ġtit les
Ġverurs acht
ĠInternets eite
h attan
m g
u eller
Ð ĵ
Ġs ick
Ġin ten
ing o
ĠN ort
ne burg
Ġsch e
Ġhe av
ant ischen
.. ...
Ġ18 42
teil ten
lieÃŁ t
ĠEx il
sche f
Un garn
gew orfen
ps ych
Ġletz tes
Ġbr ut
ĠPort land
Wh y
Ġnational sozial
195 7
Ġbisher ige
ĠMinister ium
Ġstay ing
kle ider
Ġque ue
cla zz
9 00
B rit
R ichtung
h armon
in um
ĠS ay
Ã¼ fen
st urm
Ġp oker
ĠW ink
ĠL ion
ck now
ĠSch um
ĠVer pflicht
get Data
ant es
ĠÃ¼ber s
ac cess
ĠVor schlag
ock er
Ã¤ch ter
ĠGra ben
Ġreg ions
We iÃŁ
Ġteil te
ĠJohann a
ĠRÃ¼ck tritt
ĠDu o
ĠDo ctor
Ã¤m mer
190 3
Ġsicher te
iro ler
ĠUN ESCO
ĠUR I
Ġcompar ison
db c
b Ã¶r
h ier
Ä Ĺ
Ġz entral
ĠH Ã¤usern
os se
ant a
Ġ18 41
19 49
io den
ĠSo ziologie
ĠSte ine
bau werk
Ġ[ ]
Ġpublic ation
Ġbl ind
Mod ifier
Ġverl ieren
ĠZe ugen
ĠPal Ã¤st
ĠMont age
Gr id
ĠSpring s
Ġreason able
sta ats
Ġbelie bt
ĠDub ai
Ġlab els
ĠZerst Ã¶rung
ibil itÃ¤t
U ST
f ranken
m aus
m aking
Ð ´
Ġw ave
ĠS ix
Ġv irus
ĠD est
ol stadt
ĠK eit
ĠK reat
ĠH els
ir i
ik ers
ver antwort
ver leihung
Ġver Ã¤ndern
ĠEr folgs
Ã¶r er
Ġcan vas
ĠAus rÃ¼stung
mal erei
ens ation
ĠAb kommen
amm lungen
Ġgen Ã¼
Ġgen ehm
ĠMin istry
ĠCon fig
Ã¤rz t
Ġmov es
ĠEntwick ler
vert retung
Ġdav or
ĠErn est
ĠMitte le
190 9
195 4
So ftware
ĠHa are
valid ate
ĠRead ing
ĠWel che
Ġinteress ante
Oper ator
hab t
ĠHy per
Ġdisplay ed
Ġschwed ische
ĠLiefer ung
ĠTok yo
ĠCir c
ĠOze an
Dav id
ydra ul
C lose
Z ug
b ane
w Ã¶rter
Ġt one
ro ph
ĠD ess
am ann
ut ung
Ġein iges
ĠF aust
ber gt
Ġl ady
ĠN elson
ĠIn dependent
ste her
ib m
aus cht
Ġ18 35
pf el
Ġsupp liers
Mit te
ĠVol ker
imp ly
Ġcheck ed
ĠStr ess
ĠSeit dem
ĠRuss ell
Ġcommon ly
lemen s
zwe if
Ġregul Ã¤ren
aust ausch
Famil ien
Ġdurchschnitt liche
ĠSort iment
ĠViz emeister
. [
/ {
Q UE
Z eitung
j son
an trieb
he orie
Ġf Ã¼hlen
Ġe chte
ĠB P
st iegs
ĠM oney
ĠM Ã¼ll
ĠG is
ĠE mm
ĠK ick
Ġg ap
ir aten
ĠO ste
ĠSch rÃ¶
ste p
Ġ18 34
ĠDe pot
pr im
Ġunter brochen
Ġen abled
ĠOr n
ĠUnter kunft
ĠPar allel
12 5
ĠTr io
Ġviel es
ĠÂ ©
ĠWerk zeug
Ġsw ing
Ġnie mals
ĠSchool s
ĠKomp etenz
Ġentfern en
Ġanges iedelt
Ġpain ted
schlÃ¤ gen
spro zess
htt ps
imple Name
ĠEigent um
ĠkÃ¼nstler ischen
Ġmusikal ische
Ġkeiner lei
Ġsech sten
ctic ut
kriegs zeit
ĠGatt ungen
ĠNiger ia
ĠAx el
Ġstattf and
H tml
S ho
T ok
k rat
in formationen
ch el
an dern
il o
st iftung
ĠM ick
ĠT oken
ĠE D
ĠK Ã¼nd
sch ool
Ġre ct
ĠU rauf
ĠZ en
ag ues
au e
Ġme als
ord ination
Ġsp anische
Ġcomp osition
Ġlie b
Ã¤nd igkeit
Ġno ise
Al though
ĠHoch stift
hol ders
anst alter
ĠJe de
ĠPre c
ĠGegen stÃ¤nde
ĠThere fore
Ġhol z
AP I
Ġbeteil igten
Names pace
Ġscen es
Ġnav ig
Lud wig
ĠBerÃ¼cksicht igung
H as
K ur
n ummern
z o
is ierungs
an aly
ĠB irmingham
om y
ist ol
Ġl uck
ĠZ oo
th on
op ran
Ġ18 13
Ġcomp liance
Ġbet reiben
Ġber ichten
ĠĠĠĠĠĠĠĠĠĠĠĠĠĠĠĠ ĠĠĠĠĠĠĠĠĠĠĠĠĠĠĠĠ
ĠOber liga
ĠOber flÃ¤chen
Ġcons istent
Ġass ignment
ĠProdu cts
uk a
Ġmark ed
ĠDes cription
Ġ% ,
ĠApp ro
Ġbas ically
Ġrequire ment
Ġerne uert
ĠTyp en
rÃ¤n ken
Ġstat istics
ĠSu ite
artet t
Hol der
Ġconcern ing
Ġbesonder es
ĠInvest ment
Ġsubs cription
Ġcru cial
ĠðŁ Ļ
VerÃ¶ffentlich t
Ġforder t
Ġlauf enden
ĠMargar et
Ġlicens ed
L uft
R C
c ue
č ĊĠĠĠĠĠĠĠĠĠ
Ġ ]
or chester
re quire
âĢ ³
ĠE ag
ra h
ĠH ad
ĠH imm
ĠR eiter
ĠZ inn
Ġsch afft
ĠLe gende
Ġ18 18
Ġvor bereitet
wer fer
Ġres et
ĠGr en
ĠNach lass
sh afen
ĠZeit ungen
Un der
Ġje welry
alen ted
ĠBundes land
ĠMo or
Ġbed s
ĠVolks republik
Not ification
190 6
Ã¤ss ern
Ġnatur ally
Ġdeliver ing
ĠGet reide
Ġop ens
Comp uter
fehl er
ĠGi useppe
ĠGeist es
Ã§ a
ĠSold at
Ġarr ive
ĠMary land
Ġhil f
ĠEins Ã¤tze
ĠProduzent en
Ġappe al
Ġcrow d
Dam it
L B
S ort
U uid
b urn
b els
â ĪĴ
Ġd ial
Ġd aneben
Ġs aving
Ġb ug
Ġb ands
Ġf usion
ĠA mp
Ġp ocket
Ġh anging
ĠK ot
ĠR af
Ġbe weg
Ġer fahr
Ġer baute
Ġer lebte
ow ed
ĠSch icht
ahr ung
ĠBe ar
be vÃ¶lker
Ġent deckte
ĠAl abama
Ġen tert
ĠCh ancen
Ġres istance
18 96
Ġ) :
rich en
Ġviel mehr
Ġfl ights
ĠIs lands
Ġclass Name
Ġann iversary
Ġschn ellen
bereich en
ĠAir es
umin um
ĠQualif ikations
ĠWass erk
Ġexpla ins
ĠBos n
ĠGle is
Pass word
Ġprepar ation
Ġveranst altet
Strateg y
ĠBuffer ed
P ublic
l ab
s i
Ġ essen
es tet
Ġb omb
im ation
ĠG rant
ĠK ilometern
Ġg al
Ġdes wegen
ĠVer ordnung
Ġle ague
iz ers
be teiligung
be auftrag
Ġ18 38
ĠAus bruch
Ġres ort
ĠOr leans
ĠBer eit
ĠNach kommen
Ġgew issen
Pro file
ĠCon text
ĠWill y
ĠFin ance
Ġmet adata
Ġpurch asing
ĠStad trat
ĠTur in
ĠHeraus forderung
ĠEss ay
Auth ent
Ġchines ische
ĠFlÃ¼cht lings
ĠlÃ¤ng st
ĠRef lex
ĠEinkauf s
Ġwarrant y
K lein
S onder
d ates
k inder
w Ã¤nde
ie m
Ġw Ã¶ch
ĠS ug
Ġm ounted
ĠT ickets
ĠG or
ĠH ip
ir kt
Ġl aser
ik ro
ĠU V
ver ordnung
ver hÃ¤ltnisse
ĠZ ellen
ind lich
ĠAn ten
ĠRe ifen
for cement
Ġcom men
ĠNe uk
auf tritt
ĠWe iss
omm y
att i
fin anz
sk on
ĠgroÃŁ zÃ¼g
ina e
Ġfre ier
ĠProf i
Ġmod ified
ĠDurch schnitt
ĠWill en
Ġstor ed
wor ten
ĠErw in
Ġinvol ves
ĠDisk uss
ĠBist ums
Bild ung
ĠJahrzehn te
Ġhop ing
Vol ks
Techn ische
Av ailable
ĠanschlieÃŁ enden
B ank
C ho
P ORT
Y ear
i ak
m ans
n immt
s ed
en c
Ġf ru
ĠM og
ĠT um
ic ultural
ĠH i
ĠW arm
Ġden ke
Ġmit ge
ĠSch alt
Ġr ating
ĠAn other
Ġpro tocol
gr ession
19 48
ĠDe an
ĠWe iler
ĠAb stieg
teil ungs
ĠPr ize
pro fil
En ts
ĠAd vanced
Ġag greg
asch a
Ġac id
ĠOst preuÃŁen
Ġerhalten en
Ã¼b ung
Ġprom ise
Ġfac ulty
UT E
ĠTest s
vis it
ĠLaw rence
Co uld
Pl us
ĠFun c
Servlet Request
Ġlif etime
ĠSingap ore
ĠKroat ien
a ÃŁen
f und
r unden
v enz
w ann
z ure
Ġa mer
Ġb old
ĠF aktor
ĠL Ã¶s
ĠC ape
Ġal ias
ab a
ĠO v
ĠU k
ĠVer sch
ue z
lie be
Ġ18 39
ĠPro totyp
Re quired
Er ste
ĠÃľber rasch
Ġbesch rieb
ĠUr kunde
Ġresult ing
Ġeinge zogen
Ġeng age
Ġinternational er
Ã¼hl er
Ġcomb ine
rist all
ĠAka dem
ĠPlat te
kathol ische
ĠKonz ern
match er
ĠInstr umente
Ġsem i
ĠLandtags wahl
ĠDrit ter
Look ing
Ġdistin ct
O pt
O wner
W appen
k Ã¶r
m ers
w inning
Ġd os
on omen
ĠN ations
Ġer setzen
Ġk ap
ĠSch ein
Ġhe aling
ĠLe gend
Ġsp ray
fer enzen
lo gen
ĠTe e
ĠVor arl
amm ung
mit te
Ġgew orfen
Pro gress
ĠAll ianz
pf alz
ĠIs abel
AR N
Inter val
ĠWei h
ĠLang uage
ĠSub st
ĠSchÃ¼ler innen
Ġdiscuss ed
Ġnormal erweise
Ġsend ing
Part ition
Ġrow s
Serv ices
Ġlok ale
Ġoccur red
ĠHarr is
Ġrob ust
Ġverstorben en
Ġnu clear
ĠEtw a
ĠSkla ven
ĠHawai i
S ong
T al
b aid
j av
Ġ ikea
Ġf ried
Ġf erner
Ġin telligence
ig ter
ĠF unction
ĠK unde
ra gend
Ġbe deckt
if iable
Ġde posit
ĠDe p
ĠNach frage
heit lich
ĠGesch Ã¤fte
Ġsome where
ĠAd ams
ĠHand eln
ĠOber hausen
por ted
mÃ¤ ss
Ġgu idelines
ĠSÃ¼d amerika
Ġkein em
RE AD
Ġfile d
uff ix
urf ten
Ġland es
ĠTat ort
Ġrom antic
Ġbetre ut
ĠVerhalten s
ĠConne ction
Ġpassion ate
Ġinn ere
ĠBeaut y
Tro tz
ĠkÃ¼nft ig
Ġrout ine
B ur
F E
k ons
Ġs enden
Ġw Ã¤hlte
Ġb its
ĠB auf
ĠM ilitary
Ġp a
ĠT ol
ĠF ron
ĠH air
um i
Ġk roat
Ġsch lagen
ĠÃ¼ber liefert
ob ald
ĠSe il
Ġar ms
dr Ã¼ckt
ish es
Ġgew alt
Ġrec ruit
Ġcl ubs
Ġange mel
Ġhin weg
AT TR
ST ART
Ġsu c
Ġkon kre
Ġobject ive
ĠTour isten
Ġant iken
ĠHistor ischen
Ġsever e
Med iziner
Ġrespons es
Ġangegeben e
PRO PER
ĠSchwar ze
Ġagre ed
Ġdescrib es
ÅĦ ski
Ġvolunte ers
Ġris ks
Ġscre ens
C opy
D abei
F ont
G L
M ac
V erk
m ord
ie de
ge gangen
ol ia
ĠT am
ĠP ause
ĠK enntnisse
ĠN ike
ĠN oten
ĠV il
we hren
ĠAn gl
ĠAn ruf
ĠAn alysis
In halt
Ġ18 32
St ad
ĠLand gericht
Ġcont ained
rat ing
Ġins zen
ĠFre y
ON E
Ġsho ulder
ĠÃĸ konom
uck en
ĠHaupt ort
Ã¤nder ung
Ġpass ing
Ġtrans actions
mÃ¤ÃŁ igen
Ġrel ation
EC ON
ĠUl tra
Ġlov ing
Parameter ID
ĠBaum eister
ĠSied ler
ĠCent ury
ĠBlÃ¼ te
Ġcolumn s
Ġverz ichten
ĠVoraus setzung
ĠGrÃ¤ fin
Ġvul ner
ĠClaud ia
H or
I r
T otal
W M
n on
p ons
v Ã¶gel
w atch
re aten
ĠS R
Ġc ab
Ġh am
ĠT ODO
ĠF lat
ĠI ra
ĠW oll
Ġg rant
Ġg iant
Ġl ob
ul se
ĠfÃ¼r s
Ġsch me
utz utage
ĠUS S
Sch l
Ob wohl
Ġfl ach
AT OR
ĠRegion alliga
bÃ¼ chern
ĠPan or
ĠDres dner
ĠrÃ¶m ische
Ġassist ant
Ġverlie f
ĠDÃ¼sseld orfer
sm ith
fÃ¤l ischen
Ġdein er
ĊĠĠĠĠĠĠĠĠĠĠĠĠĠĠĠĠĠĠĠĠĠĠĠĠĠĠĠĠĠĠĠĠĠĠĠĠĠĠĠĠ ĠĠĠ
ĠSaar brÃ¼cken
Ã´ ne
ĠFal ken
Ġevalu ation
ĠWett kampf
Ġrechte ck
Ġestim ated
ĠgewÃ¼nsch ten
Ġoffens ichtlich
Ġamen ities
G A
K ont
a it
p ubl
w alk
in cluding
ur laub
Ġv inyl
ĠB omb
ĠT T
ĠW onder
ĠN ut
ĠSt if
ĠSt immung
ak ischen
Ã¤n gs
get Attribute
ok ed
Ġex it
ĠSe gel
ĠNe apel
Ġwor auf
String Builder
param s
ĠKon stanz
ĠZu vor
Ġevery where
Ġplan en
ĠComp lete
Ġabge geben
Ġredu ction
ĠgrÃ¼n deten
Ġmoder ner
ĠgÃ¼nst igen
Ġbetre ff
Ġign or
ĠgefÃ¤hr det
look ing
Ġbeob achten
ĠSecret ary
Ġtempor ary
ĠBrie fe
ĠÃ¼berrasch end
> .
H K
p rach
Ġs aÃŁ
ĠS v
Ġf inger
ĠB E
ĠM uh
ut able
ĠF ine
ra ums
ĠC row
ot ype
Ġre ception
ĠAn kunft
av ed
Ġsch weizer
Ġex klus
Ġ" .
Ġsp iegel
ĠTh ink
sche ibe
Ġverb lieben
Ġ' ,'
gra fen
Ã¤us chen
ĠGen re
Ġalong side
Ġbeautiful ly
Ġenc oding
ĠViel leicht
ĠÅ ½
ĠGef Ã¤hr
ĠerhÃ¶ hte
Ġexpla ined
CL ASS
ĠBege gn
Hash Map
ĠPho enix
Ġermor det
L INE
ĠS ave
ur ious
Ġv oc
ĠL ess
ĠC art
ĠV as
Ġge teilt
Ġge omet
ĠSt orage
Ġr ib
ĠAn nahme
Ġpro ceed
get X
19 16
Ġres idence
olog in
alle utnant
ĠLie ben
ĠCor p
190 7
ĠKom Ã¶die
ĠTal ent
Ġmass iv
ĠCal endar
Ġtw enty
Ġdra uf
ĠDrei ÃŁig
ĠScott ish
ĠLy on
Ġjung er
E isen
P ap
h igh
m ember
Ġa sp
ĠS O
ĠB rom
Ġan alog
Ġund ert
ĠT all
ĠK eine
ĠR ace
um pen
iv ier
Ġre ife
00 1
Ġsch ema
etz liste
Ġro te
Ġover w
oy al
ĠBild schirm
ĠWh it
ĠSaison ende
ĠJohn ny
ĠCont est
less ly
Auf gelÃ¶st
Ġhead s
ĠKommun e
ĠTurn er
.: .:
Ġhost s
ĠPhilipp inen
Ġcra fts
ĠStoff e
ĠUrs ula
Ġexter ior
MÃ¶ gliche
Ġfas zin
Ġcircumst ances
D och
J B
K ilometer
T x
b ole
b rief
h ash
v ie
Ċ ĊĠ
Ġd ring
Ġm s
el i
ĠT oren
ĠG B
ĠE i
ed ge
em er
ĠR ied
Ġth in
Ġer led
os te
ĠZ ins
Ġsch ed
Ġman ip
ĠY or
18 95
Ġnur sing
Ġcont aining
ĠSte ck
fr iger
Al ben
ĠAug sburger
Ġdr ama
Ġausge dehn
Ġgemein nÃ¼tz
ĠBÃ¼ chern
Ġvoll kommen
mark et
ĠOlymp ia
ĠDen ken
Ġport ion
col or
ĠZÃ¼r cher
ĠAnge la
Ġnotwend igen
uert o
ĠLeon hard
Ġwhe els
ĠHarr ison
stÃ¤d ter
Ġbrach ten
ĠKent ucky
Meta Data
ĠArz ne
Ġinval id
A p
L ib
M aster
O FF
U UID
b Ã¼ttel
j Ã¤ger
m ing
m esse
r ors
t ier
Ġd ienten
Ġd urften
un ivers
re de
Ġb ay
ĠG A
ĠL ade
ĠR ib
ĠC OM
ĠC ommerce
Ã¶ hne
ĠV in
Ġk ol
ĠO ran
ĠO ft
ĠSch lÃ¤
Ġr iding
Ġdem ent
ste tten
ĠLe er
ĠTh ai
ĠMit ch
Ġsh arp
18 97
Ġnoch mal
Ġ12 8
ĠZu hause
Ch unk
Ġback up
Ġact or
Ġmach e
Te x
Ġem b
Ġhol der
Ġtradition ell
Ġess ays
Land es
Ġbeteil igte
zwe ck
Ġpriv ile
Ġpan els
ĠWol ken
Ġapply ing
ĠFeder ation
ĠKÃ¶nigs berg
ĠEvangel ische
ĠYear s
Ġkanad ischen
ĠAnth rop
ĠInner halb
klass igen
ĠEqu ipment
Ġscr atch
Ġfundament al
Ġcerem ony
H ave
M aterial
R ot
h our
w ender
ĠS ucht
ĠB j
ro se
ĠD in
Ġein setzen
ĠF eb
ĠF ive
ĠW Ã¤hler
ĠC ut
ĠN Ã¶rd
ĠV es
Ġk reat
Ġre q
ĠSt uck
Ġdes c
ver schluss
Ġun us
be hÃ¶rden
Ġch unk
Ġ18 25
ĠAus gra
chn ungen
ĠFl iesen
ish a
Ġthem es
iver y
zw ald
new Line
ĠSc ript
Ġeng ines
Cl ub
ĠKat hedrale
ĠUl t
ĠSup reme
ĠBundest ag
rÃ¤nk ungen
Kurz film
rec ord
weil ig
ĠLokomot iven
ĠGutsch ein
Ham burg
ĠschlÃ¤ gt
Ġelig ible
bevÃ¶lker ung
L iga
U pper
r und
at em
Ġw rap
ĠM am
Ġh its
ĠP O
ĠW ire
Ġdem nach
ĠEr halt
be y
ĠEin z
Ġen vironments
ĠMar athon
pert oire
ĠGer ald
Ġger aten
aul ts
new s
ĠInter ruptedException
Ġdevelop er
ĠArch ive
Ġcar pet
ĠTechn ische
Ġevent uell
Ġleg it
ĠSein en
ĠOper a
ĠMiss issippi
Ġgre y
ĠEhren bÃ¼rger
AX B
ĠErschein ungs
Ġvict ory
Ġfight ing
Ġdrink ing
Mem ory
ĠDiÃ¶z ese
ĠStatt dessen
ĠOberg eschoss
? ,
G etter
V arian
k am
r ent
s em
á ¸
in itial
on ly
Ġt we
ar ett
Ġb acter
Ġf ran
ĠA ra
ĠA ve
st ack
ĠT rue
ĠP L
ra kt
Ġge fahren
ĠSt urz
Ġver stÃ¤nd
Ġver ify
ĠRe lease
iz on
ang aben
for um
Ġor al
ĠSp in
ip se
Ġ18 14
ide en
Ġcomp atible
Ġges ammelt
Ġbek annter
ĠEl ite
Ġpl ot
Ġbesch reiben
wohn ungen
Ġbr ush
Ġstar ben
ux e
umn i
Ġless on
ĠBur k
Ġtravel ing
Ġmer ge
Ġcelebr ation
ĠWell ness
Mon itor
Ġgesetz lichen
ĠCustom er
ĠBlo od
ĠGesam tw
ĠTaschen buch
Ġsurpr ised
ĠForder ungen
Ġangen ehm
ĠLuftw affe
ĠBuen os
L ouis
ur d
Ġe chten
Ã¼ ger
ĠT in
ra cy
sch ema
ĠL oth
ĠN FL
la yer
ts piel
Ġr anging
ĠBe cker
Ġle ichten
ĠGe fÃ¤
ĠSe gment
Ġbes ieg
Ġher o
Ġinter active
Th omas
ĠSh akespe
Ġgesch m
grÃ¼n de
ĠBar ry
ĠGener ationen
Ein ige
ĠAss embly
aun e
Ġhistor isch
chten stein
fert igt
ĠWinter spiele
Ġworks hops
Ã¼rz te
ĠHin dern
ĠhÃ¶ch st
sprach igen
Fl uss
ĠKre ise
ĠRos a
ĠBill y
Arch Ã¤
ĠRÃ¤ umen
Ġprakt ischen
Ġinj uries
Ġwand te
ĠSchÃ¤ fer
Ġven ue
Engl isch
ĠfÃ¼hl t
ĠKÃ¤r nten
E FA
G leich
T B
d ir
Ġs Ã¤chsischen
ĠS ri
Ġm useum
ĠM Ã©
ĠD S
Ġp ics
ĠT U
ĠW ard
Ġg la
Ġim per
ĠO z
tr es
tr ang
ĠAr c
Ġch a
Ġch ose
ĠDe cken
enn ame
Ġunter stellt
app ly
pro perties
Ġ17 00
An n
Ġsc ores
off ee
ĠAd miral
con f
ĠMed aille
ĠUr kunden
zie her
jÃ¤hr ig
ĠEm ma
ĠDo es
ĠBeg leit
Reg ister
ĠSitz ung
osp itals
Ġ180 8
gehen den
ĠSchwer in
Ġnetwork ing
ĠWol ff
ĠFund ament
Ġaustral ischen
PAR AM
ĠWeimar er
Ġshap es
ĠInspir ation
Listen ers
f onds
k ing
ch at
Ġt x
as et
Ġf ern
Ġf ranch
Ġm apping
Ġ1 12
ĠG ieÃŁen
ĠH MS
Ġl adies
os om
ĠU A
ĠVer schw
Ġle af
be zirke
ĠAr gument
erv ed
ob a
18 91
Ġ10 5
ork ommen
Ġmus cle
ĠHaupt mann
ĠIs a
ĠSer ial
IC H
Ġprom pt
Ġsicher lich
Ġoffic ially
Ġlik ed
Ġhum ans
cas Type
Juni oren
ĠMaur ice
ĠBalk on
ĠHinz u
K S
Ġt alented
ĠS ich
ĠS ultan
he id
ge ht
ĠB ande
ĠM C
ent schieden
ĠP aint
ĠF utter
ra ce
ĠH Ã¼tten
Ġ2 30
Ġge prÃ¼ft
ĠSch ult
we alth
ĠAn liegen
get Node
iz itÃ¤t
ke ley
ĠMus l
Ġvers atile
ĠAut hent
Te chnik
ĠMag d
ĠSen ator
ĠAg entur
Ġzwe if
ĠDate ien
Ġauthor ities
ĠHal te
ĠMur ray
lah oma
ĠErkrank ung
ĠPassag iere
beam ter
Ġbevorzug t
C le
N D
S ave
g ate
s aison
u in
v gl
Ġt ri
an ced
ge x
Ã¼ tt
ĠB ess
ĠM other
ĠD utch
Ġc ul
ig rant
ad dr
ik ern
ahr er
ell ers
ĠVer hÃ¤ltnisse
ant ie
âĢľ :
ĠSe ction
ĠRes ources
ĠReich en
ĠKr ise
ĠPat tern
ĠRad rennfahrer
Ġerhalten e
Ġdi am
Ġcreat ivity
ĠSen ate
Ber uf
SS R
Ent fern
ĠWeiter bildung
Ġaccount ing
Ġcommit tee
ĠUN D
ĠWo uld
Aut o
ĠKandid at
ĠPel z
uum l
ĠRon ald
Europameister schaft
ĠBerat ungs
ĠÃĦm ter
ĠBelager ung
V R
b ranche
v oid
er ies
Ġt ier
ar is
ĠS ierra
Ġn ights
Ġh Ã¤ngen
ĠP itts
Ġto ile
Ġst ren
la ps
kt on
Ġpro xy
ib us
aus en
Ġab gelÃ¶st
ĠBe wertungen
iz ierten
Ġas set
ĠSp a
Ġnew est
wer fen
Ġwor n
Ġte ilt
ĠUm frage
16 0
Ġjust ice
Ġdesign ing
ĠWer ks
Class Loader
Ġtyp ische
ĠPlan eten
omet rie
seit ige
Ġamerikan ischer
lim it
ĠVis ual
Per iod
Ġtrack ing
ĠAth leten
Ġdro pped
Ġbehand eln
gerichts hof
ĠHochzeit s
ĠberÃ¼hm ten
ĠmÃ¤nn lichen
ĠKamp agne
Ġkombin iert
Ġdokument iert
A k
F P
F ragment
P ublik
m ay
Ġs ke
Ġf t
Ġm olec
ĠB aut
st Ã¼r
Ġc and
Ġc ou
ĠT em
ĠT au
et wa
ĠL er
ĠJ ochen
Ġge e
ĠSt ufe
get Path
Ġnach folgenden
ide te
ĠY outh
18 99
Ġzw anzig
ond o
ĠBr at
iger te
ĠBl as
ER E
Ġbu cket
ĠFe ucht
Ġtechn isch
Ġausge geben
ĠLin ke
Ġprofession elle
ĠTor ped
Ġimp ossible
Ġlow est
Ġwes entlichen
ĠÃ¤hn lichen
ĠElekt ronik
ĠSied lungen
current TimeMillis
wa it
Ġcra ck
Ġapproach es
kont akte
ĠNic ole
Ġbelie ved
Ġserious ly
Ġinstr uments
Ġstrug gle
. '
B itte
C ard
e ah
is men
an schluss
ĠS MS
Ġm ood
im edia
hr ase
hr ingen
Ġto x
ĠL ernen
Ġre ichte
ver eine
ĠSch af
ĠAn not
Ġsch ein
get Time
ast ische
Ġ18 31
ĠÃ ģ
ĠWe iden
ail ing
Ex pr
ĠAuf trags
ĠMe et
cl usion
Ġgen der
Ġbet ont
Ġalle ged
Ġ17 0
itt a
ĠGra phen
ĠMan hattan
Ġmus lim
AN T
Ġchild hood
met ter
Ġjewe ilige
Ġair craft
Ġpack aging
Ġclos ing
Ġneues ten
lim ited
wal ts
ĠGÃ¤ sten
Ġmaint aining
ĠFranzÃ¶s ischen
ĠNahr ungs
Je an
Ġlehn te
A Y
D O
T her
b les
g irl
k ompon
t urm
Ġa rom
Ġs inger
Ġp iano
ĠF at
ĠK anten
ĠL arge
Ġbe wertet
ĠN em
Ġre action
th y
Ã¼ber greif
Ġle istete
In f
par ser
ierte m
ĠAm ate
ĠPh ant
ĠFre ie
ĠÃľber tragung
13 0
ĠOn kel
fo hlen
ĠWh ich
deck er
Pr int
Ġexp anded
Ġabge leitet
ĠMay be
195 1
195 9
ĠgrÃ¼n en
ĠKÃ¼nstler in
Ġschwer er
kle id
ĠAnge hÃ¶rigen
FI ELD
Ġschwed ischer
hyth mus
ĠFur ther
Ġshap ed
Ġbefind lichen
ĠZut aten
ĠAbra ham
e ben
l ib
om ed
ĠG uten
ĠH Ã¶l
ĠH Ã¼tte
ĠR ates
ĠSt Ã¼tz
ĠSp err
ĠLe hen
Ġum liegenden
St ats
fl ix
Ġinter act
gl Ã¼ck
Ġmake up
Ġsho ck
Ġger ufen
pf lanz
mittel alter
Ġlist ings
ĠTag s
lei h
Ġzahl reicher
zentr ale
ĠSel f
ĠNeben fluss
Ġlight weight
ĠVorsitzen den
krit iker
ĠSem ester
ĠNahr ung
Ġmedizin ischen
Ġdish es
Jose ph
ĠDunk el
? âĢľ
L ED
M ET
R ud
S ex
c ements
k ok
Ġ ï¿½
es ource
ing ang
ĠH amp
ĠR ugby
ĠC ou
Ġer ober
Ġk lin
Ġdes ktop
ĠO ma
kt iven
ĠRe cher
aus wahl
ĠVor haben
olog ists
ĠDies en
Ġrec ip
Ġstud ied
ina he
ĠGra ham
ĠGer d
Ġdr inks
ĠNor m
ĠGrund riss
ĠHoch schulen
ĠĊĊ ĠĊĠĊ
ĠSal on
ĠBest immungen
deck ten
ĠProv inzen
Ġpower ed
Ġtradition s
Ġrule X
Bo den
Ġstru ctures
ĠFluss es
hab ilitation
ĠTar if
ĠKart off
ĠJava Script
ĠBeweg ungen
Ġce iling
ĠBesonder heit
Ġrub ber
Perm ission
Ġappl iances
/ -
Z usammen
k Ã¶mm
or iginal
re geln
Ġb irds
Ġm as
ĠB akter
ĠE b
ĠL Ã©
ĠSt apel
Ġent s
ige l
ke ys
ister s
Ġhas h
use hen
ĠGes etze
ĠSte ven
Ġover view
ĠMus kel
leg ungen
ĠGra y
Ġange kommen
ex ists
ĠUr sprÃ¼nglich
Ġmo use
Ġservice Callback
ĠBest immung
ĠZusammen setzung
ĠSport ler
ĠDire ct
ĠZahl ungs
ĠGet rÃ¤nke
bÃ¼ hne
ĠEing angs
Ġorganis ations
Ġentstanden en
ĠBÃ¶ h
ĠBud dh
Ġverbunden en
trie be
Ġkom ment
Ġelectric ity
Ġjud ge
Ġmedizin ische
ĠFÃ¤h igkeit
ĠVerdienst ordens
Ġuntern ahm
Ġdut y
Ġverbesser te
baid sch
S ach
T hr
T urnier
g ree
l iter
Ã ®
á »
ĠS W
Ġf liegen
ĠB ak
ĠB ird
Ġo lymp
il og
ĠK anad
sch rau
ĠR ue
Ġbe legen
ĠV ic
ĠZ irk
ĠIn put
op ed
ĠBe griffe
iz ismus
Ġwor se
ĠNach weis
Ġro y
Ġbet Ã¤t
iet ies
De vice
Ġins ight
oh es
Ġbeg leiten
Ġass ume
ĠRes ort
Ġ25 5
ĠfranzÃ¶s isch
ĠHier zu
key Set
gar ter
kn oten
gef unden
ĠMos k
Ġexec ution
Ġoffic ers
ĠCal c
getS impleName
Ste in
ĠHan au
FI LE
Ġregard less
ĠUrs achen
ĠÃľberg angs
Ġausger Ã¼stet
ĠKore an
ĠFlag ge
Histor ische
Ġkulture llen
ĠLetz ter
Absol ute
Lower Case
Ġfir ms
Flo at
ĠFertig stellung
C ur
G R
R h
R ang
c est
i ja
l iment
p Ã¤dagoge
s y
Ġt ill
at ively
ĠD irk
ĠT ed
ĠG ent
Ġbe inahe
Ġk omm
Ġfor ever
Ġauf weisen
ĠSch ar
ĠIn sol
Ġwar ning
ran ts
Ġor ig
Ġvor n
che f
ĠMit tag
Ġint ent
ĠÃľber leben
ĠJul ian
Ġdire ctions
Ġdiffer ences
ĠChar acter
ĠFest ivals
23 4
esh old
ĠKur se
ĠKosten los
pol izei
ĠKer amik
Ġcrit ic
ĠPor sche
Ġcontrib ution
Ġprec ision
ĠArchÃ¤ ologie
ĠDemoc ratic
Ġkos tet
Ġneut ral
B este
i our
Ġs ight
us ions
ĠB ast
ĠT ir
ed a
Ġto urs
Ġbe halten
ĠSt au
Ġst amp
ĠZ iegel
Ġver fasst
ĠAn leitung
ĠRe alitÃ¤t
ĠVer folgung
In tern
Ġ18 21
ĠAuf fassung
ĠFre quenz
ĠMus k
ĠUm stÃ¤nden
ins icht
Ġze igten
ĠFe ed
ĠZusammen schluss
ĠOrts teile
ĠPal Ã¤
ĠSicher ung
lef anten
ĠJur a
Ġsug gested
ĠPhys i
ĠInn ere
kap ital
Ã¶p fen
Ger man
ĠCarol ine
Ġtats Ã¤ch
ĠBran che
Ġmensch liche
ĠThÃ¼r inger
jew itsch
Ġbroad cast
ĠRal f
ĠTai wan
B uf
E mp
P OS
S am
o iden
Ñ Į
Ġt v
Ġf iber
ĠB ischÃ¶
Ġh orn
sch reiber
ĠR ade
um me
ĠC e
ĠJ h
ĠIn itial
get Field
Ġ18 36
ĠSe kund
los ion
ĠAuf tritte
Ġgen uine
ish ment
Ġtr usted
ĠArt ist
ĠInst ru
ĠNo Such
Ġfeel ings
Ġversch le
Ġenter ing
Ġcharacter istics
Ġintrodu ce
ĠGottes dienst
Ġrecommend ations
Ġther apeut
ĠKenn edy
Ġple asant
ĠEreign is
Ġaccur acy
Bi ografie
Ġdauer haft
Su ccess
Entwick lung
Resol ver
ĠMitbe grÃ¼nder
ĠEncyclop edia
Leicht athlet
ĠTschechoslow akei
G S
N och
N ormal
R ob
t ur
ĠS B
ĠS iz
Ġf ahr
ĠA telier
Ġan zeigen
st s
ĠM ent
uf akt
Ġl Ã¤dt
Ġer zeug
ĠV III
Ġk re
ot ische
est adt
ann ers
Ġex pr
Ġnach weis
Ġsp oke
ĠAuf klÃ¤rung
iss er
ĠIm mutable
tra gt
Ġacc eler
ĠFe ature
stÃ¤nd igkeit
ĠDurch bruch
schn itten
recht liche
med ia
ĠGen au
ĠTurn iers
ĠLog istik
ĠZur Ã¼ck
ĠClub s
ĠFle cken
Page Link
ĠNachbar n
ĠZimmer mann
ĠSchles ien
Match er
Ġcirc uit
ĠBlo om
ĠCert ificate
Ġrele van
T ax
b rauch
Ġ ^
en burg
ĠB innen
Ġc enters
ĠT SV
ĠW oman
ĠR in
ach i
Ġer werben
Ġauf re
Ġaus gesetzt
Ġse ating
ru d
hn er
ĠUn s
be zirks
ĠÃ¼ber prÃ¼ft
io xid
ĠAus gleich
ĠMe ilen
Ã¶ff entlichen
ĠTra uer
ĠGra de
Ġselbst verstÃ¤ndlich
ĠBuch en
Ġfound er
ĠPreis en
ĠLauf zeit
mon th
Ġhohe m
ĠCla ude
ĠExper ience
Ġliter ally
Ġqualifiz ierten
Ġhop es
Ġincreasing ly
ĠPed ro
zell an
Ġbess eren
Bere ich
Ġexpos ed
ĠSkulpt uren
Ġeg gs
ĠHud son
T ake
f lag
u der
w achsen
Å ¼
Ġd elta
es telle
un er
ĠS hel
ĠS urf
Ġb uff
Ġin du
ĠB ismar
il me
Ġp it
ĠH R
ĠH ert
um fang
Ġbe ur
ĠN ash
Ġdem ands
ĠRe prÃ¤sentanten
ĠEr ror
Ġcon version
Ġso bald
In v
Ġsp ont
ĠTh om
Re prÃ¤sentantenhaus
ĠNach mittag
Ġout fit
sh aber
ĠSh ar
Ġtr ips
ĠFr iends
Par se
Ġcommun icate
Mar ie
Mar ia
Met rics
ĠAnt wer
Ġcert ification
Ġaff iliate
ĠUl m
Ġrep airs
ĠTur k
ĠWirk lichkeit
zwe ig
gere cht
ĠAnge legenheiten
Ġmaint ained
Ġbere cht
Gemeinde auflÃ¶sung
Ġsorg fÃ¤lt
Ġreligi Ã¶sen
[...]
