#version: 0.2 - Trained by `huggingface/tokenizers`
Ġ Ġ
ĠĠ ĠĠ
ĠĠ Ġ
ĠĠĠĠ ĠĠĠĠ
e r
o n
ĠĠĠĠ ĠĠĠ
r e
i n
a t
ĉ ĉ
Ġ =
s e
s t
t h
e n
o r
ĠĠĠĠĠĠĠĠ ĠĠĠ
a l
Ġ $
i on
l e
a r
Ġ {
) ;
i s
e t
u r
d e
c t
a n
i f
Ġ f
m e
Ġ n
Ġ c
c e
Ġ (
Ġ re
r o
i t
Ġ }
- >
Ġ t
in g
Ġ th
u n
en t
u e
ur n
ĠĠĠĠĠĠĠĠ ĠĠĠĠĠĠĠ
t urn
Ġ p
( )
g et
u t
Ġ if
Ġ '
a s
e s
a me
u l
c h
e d
Ġ s
i l
e l
l i
l o
p t
Ġ "
e x
Ġ in
a d
i d
at e
Ġ o
Ġ b
r a
( $
p e
th is
Ġth e
a g
Ġre turn
ct ion
t r
c o
Ġ a
Ġ se
ĠĠĠĠĠĠĠĠ ĠĠĠĠĠĠĠĠ
f i
ĉĉ ĉ
Ġ m
Ġ d
c k
l f
/ /
a m
v al
o t
e w
Ġ w
u b
er r
a b
Ġ :
pt ion
st r
u m
at ion
e m
y pe
ĠĠĠĠ Ġ
on t
I n
) )
s s
at a
č Ċ
- -
o l
an d
o de
a p
Ġt o
e y
t er
ĉĉ ĉĉ
ĠĠĠĠĠĠĠĠ ĠĠĠĠĠĠĠĠĠĠĠ
' ,
ex t
ul t
( '
e ct
se t
Ġ *
ag e
un ction
u p
r i
li c
Ġ is
o m
ul l
n ame
Ġse lf
er s
Ġ S
as s
Ġf or
at h
Ġ //
[ '
( );
re turn
de f
ab le
u s
val ue
' ]
Ġ= =
en d
Ġ +
ar am
Ġn ew
( "
i c
E x
Ġ 0
i st
R e
o d
" "
Ġ err
i le
in t
Ġ v
N ame
Ġ h
ra y
al l
re s
Ġ !
m ent
a se
Ġ st
k ey
i g
b j
Ġ l
" ,
v e
) :
ub lic
p ut
tr ing
Ġ el
p l
t o
Ġ T
i m
i z
q ue
Ġo f
i me
Ġf unction
p er
Ġn ull
on e
Ġ #
c on
l ass
Ġ C
q u
h e
f or
: :
p ublic
Ġ" ""
fi g
Ġel se
n t
Ġ e
v er
ce ption
ar ray
ar g
Ġ! =
v i
que st
str ing
ar t
Ġ 1
p o
Ġ [
Ġ &
ad d
Ġt r
or t
ro w
a ck
p ro
Ġ .
' )
a ch
o ur
S t
p on
Ġre s
bj ect
Ġn ot
se lf
Ġ( $
at ch
el d
a ce
Ex ception
Ġ A
d er
Ġ: =
V al
Ġ N
Ġ= >
r r
an ce
f o
s er
i th
Ġth is
Ġ ex
our ce
al se
E rr
Ġ r
Ġ g
Ġb e
a y
Ġn il
an g
t ype
i r
Ġ and
d ata
t e
ĠĠĠĠĠĠĠĠ ĠĠĠĠĠĠĠĠĠĠĠĠĠĠĠ
T ype
Ġ get
a in
. _
C on
-- --
I d
Ġ )
un c
Ġc on
o ut
lo g
iz e
o w
Ġ -
D e
ro m
un t
fi le
Ġ _
p aram
i b
in e
S tring
de x
li st
Ġ I
re nt
Err or
P ro
R es
p ath
for m
c ont
Ġp ro
) ,
ap p
it y
Val ue
Ġ de
pon se
or d
o c
ption s
Ġ as
h t
L ist
o re
i p
Ġ <
a k
st ance
i re
Ġ F
Ġ& &
Ġ value
s h
r it
C ont
E n
co m
Ġ or
in d
Ġ i
u re
f f
arg s
Ġ P
p re
a ult
f unc
Ġ it
() )
ĠĠĠĠĠĠĠĠ Ġ
en g
T o
a x
vi ce
Ġ array
it ion
b u
le ment
v ent
in al
Ġ |
ce ss
Ġ >
Ġ %
th od
Ġc ont
p ort
an s
un d
at or
re ate
E R
or y
er y
Ġ M
Ġth row
i eld
um ent
o p
eng th
co l
Ġn ame
" )
u se
Ġ me
il d
ut e
i es
Ġf alse
' :
K ey
u le
A r
Ġin t
u st
c lass
us er
val id
() ,
Ġerr or
ĠS tring
a ct
0 0
i al
ro up
k en
O N
co de
Ġ string
o o
Ġd ata
D ata
Ġ R
a st
I N
s c
ĉĉ ĉĉĉ
Ġ an
tr ib
ode l
Ġtr ue
ur l
Ġst at
Ġc h
a il
] ;
ig n
Ġ( !
per t
Ġf ile
d ate
) .
li ent
O bject
lo ck
ad er
Ġc om
c l
g er
v ar
() .
Ġw h
Ġw ith
def ault
Ġse t
I D
ĠN one
i ve
Ġ j
[ $
L o
Ġv ar
F ile
= =
' );
Ġ str
i se
ang e
Ġ `
P ath
Ġ D
n ew
b er
es s
i v
. .
] ,
ĠĠĠĠĠĠĠĠĠĠĠĠĠĠĠĠ ĠĠĠĠĠĠĠĠĠĠĠĠĠĠĠĠ
ers ion
Ġ 2
Ġ on
con fig
at ed
f unction
Ġ key
lo w
c ur
" );
o s
p le
[ ]
r int
l y
s p
lo c
il ter
Re quest
Ġres ult
en er
res ult
C h
p p
um n
Ġ== =
() );
Ġ list
Ġ| |
C om
t em
B u
) );
Ġf rom
lo ad
o st
Ġ ?
S er
Ġo ut
en ce
l er
Ġ );
ar se
P aram
re ad
C lass
Ġ @
S et
U n
A T
il l
Con fig
Ġw e
or m
p h
] )
Ġ un
b ack
fi eld
if i
e c
qu ery
r y
le ct
m l
t p
pe c
an t
Ġstat ic
l ength
form at
A t
d i
app end
m o
n e
or k
ar y
rit e
u th
s on
Ġ /
Ġ al
he ck
Ġ k
S T
R E
B y
Ġ at
re quest
p a
err or
as h
Ġ y
m s
ĠĠĠĠĠĠĠĠĠĠĠĠĠĠĠĠ ĠĠĠĠĠĠĠĠĠĠĠ
Ġ end
Ġb y
Ġ \
* *
po s
Ġtr y
Ġc ase
ss age
N ode
o und
n ot
o ptions
re am
Ġth at
as k
d d
ss ion
ar get
Ġd o
Ġ log
G et
ach e
o id
Ġ x
pt y
a c
Ġp re
ter n
de d
o f
S e
um ber
f er
Ġ O
it em
er e
Ġs h
T r
in dex
t ime
Ġ ra
Ġ im
ĠĠĠĠ ĠĠ
en s
pert y
a ve
Ġ L
Ġt ype
co unt
C ol
T ime
ab el
er t
i de
s ub
re ak
Ġ add
at us
Ġ In
Ġ use
le an
f ace
Ġp aram
Ġf inal
u g
in k
Ġ W
o unt
n ode
_ _
Ġl en
y n
p ri
re d
U R
o ol
ĠT he
Ġt ime
fi x
s ize
m it
Ġ H
L E
y p
' ;
ire ct
Ġp ath
in fo
N one
Ġ[ ]
Ġin stance
trib ute
m and
ig ht
g e
M ap
Ġc ol
m in
u ct
De f
> >
O R
Ġ B
a v
et er
---- ----
o in
n d
le ction
F ield
ect ed
Cont ext
re ss
Res ponse
In fo
Ġre quest
bu g
ter face
Ġa re
Ġv oid
l l
Ġ ->
ing s
ak e
M E
ur ation
et ers
Ġ E
Ġ en
on g
st art
{ }
pl ace
ar d
param s
M ess
sc ri
Ġc ur
Ġ id
c ase
c ord
Ġo bject
o b
th er
j ect
all back
ar ch
b y
ff er
ow n
" :
Ġ up
Ġra ise
] .
Q u
e p
Ġb u
v el
ce pt
In dex
A R
an ag
Ġs er
l ine
Ġ le
d ir
tr y
od ule
w ord
ain er
Ġcon fig
Ar ray
ation s
A L
il der
c reate
od y
ne ction
em pty
E lement
ĠI f
A dd
Ġn ode
Ġf ore
le te
et urn
c cess
cont ent
and ler
pro t
m ap
a ction
o bject
c ri
v ate
res ponse
e st
ul d
Lo g
re e
Ġ default
yp es
S E
m atch
Ġ+ =
Ġfore ach
Ar g
oo lean
Mess age
lo at
m t
+ +
Ġ all
Ġs ub
re n
o uld
in stance
Ġb reak
pl ate
Ġ{ }
H e
= '
sp ace
Ser vice
n ull
t ext
t able
is s
in put
p y
ch e
qu ire
Ġc an
ĉĉĉĉ ĉĉ
Ġ G
ut es
ist s
pon ent
D E
Ġw ill
Ġ U
Ġme thod
if ic
g roup
et a
en ame
t es
ag es
fer ence
lo se
at es
ĠT r
St ate
mo ve
ar sh
w args
Ġa pp
Ġ J
anag er
p i
' .
E vent
\ \
b o
ct x
an n
[ "
Ġ ro
arg ument
Ġc heck
p rint
loc al
po int
() ->
am ple
Ġf ield
m odel
p ar
ad ers
re g
Ġc atch
6 4
prot ected
ag s
ro l
ĠĠĠĠĠĠĠĠ ĠĠĠĠĠ
-> _
me ssage
w ork
Res ource
I m
id th
rit er
pt s
and le
C ode
C lient
Ġc reate
ck et
Ġres ponse
to ken
o k
Ġ!= =
Ġs o
y st
me thod
m ax
e vent
con d
Ġ 3
ĠĠĠĠĠĠĠĠ ĠĠĠĠ
G roup
qu al
Ġst art
pri vate
Ġh e
pl it
il ename
i able
Ġr ange
ĠT h
ens ion
Ġd i
t tp
= "
w rite
yst em
cont ext
Ġ user
E N
o bj
a rent
Res ult
I tem
Ġn e
F orm
ent ity
Ġ u
b e
def in
able d
st ate
In put
O ut
m at
M e
Ġcur rent
Ġh as
p lo
pe ct
cur rent
p s
Ġo ptions
Ġs pec
v err
I ON
b ase
` `
it e
O f
Ġin dex
ver t
u de
tr ans
ad ata
t il
Qu ery
oc ument
Ġ* /
ĠA r
o int
f ilter
a pe
To ken
s o
Ġ ext
Ġ' '
Ġin put
ent ry
U ser
oo k
trib utes
et adata
N ot
if y
Ġn o
Ġ Re
W ith
m d
O r
verr ide
" ]
re f
A n
ar n
ch em
l en
fo re
UR L
ifi ed
S ize
v ersion
ir st
Bu ilder
( (
T able
'] ,
f inal
yn c
out put
d b
N ew
le t
] );
Ġ` `
== ==
y le
ff set
q l
A N
che ck
' t
at ure
de bug
St ream
U p
i x
pert ies
# #
t ra
Ġout put
ot e
it le
ĠR eturn
f rom
us h
ĠS et
c re
r ame
se d
Ġm ax
f t
value s
Ġc l
i ew
S S
L oc
" ;
w e
at tr
in ue
ce s
c lient
ĠĠĠĠĠĠĠĠĠĠĠĠĠĠĠĠ ĠĠĠĠĠĠĠĠĠĠĠĠĠĠĠ
r l
is set
Ġp ublic
re place
Ġ V
I T
C T
ri g
Me thod
p arse
Ġc lass
r c
m p
Ġinstance of
P re
Pro perty
ub le
r on
j son
chem a
Ġthrow s
ann el
U til
g ra
Ġm atch
ifi er
h as
F rom
Cont ent
Ġit em
Ġcont ext
di ct
j oin
Ġl ine
O ptions
ile d
col umn
iz ed
Ġ args
ĠTr ue
res ource
Ġn p
tern al
St atus
n um
D es
"" "
lo b
arsh all
ack age
pa rent
t ings
it s
T ra
Val id
en c
'] )
Ġst ate
pl y
ht tp
Ġel if
Ġ valid
se s
pre ssion
In stance
all y
M anager
m b
In terface
c s
ate g
ar k
Ġ} );
Ġre g
ust om
irect ory
l abel
ol d
Ġvalue s
Arg ument
ra p
F or
or der
Ġc all
Ġ List
d is
Ġh ave
l at
ut ion
Ġ Object
act ory
' s
Ġ* *
ment s
Ġ ass
M odel
at tern
s ource
li mit
Param s
a uth
er m
Ġ 4
Ġex cept
Ġo s
Ġm ust
v id
ĠC on
R O
Ġme ssage
Ġp arse
vi ew
Ġtr ans
C ount
n er
ist er
L O
Tr ans
s g
up date
Def ault
Ġre ad
Ġb oolean
.. .
f e
Tr ue
Ġe vent
Ġ z
Ġre t
c al
IN G
ug in
O verride
} ,
or s
p en
a iled
S ub
a re
' ))
cl ude
st atus
key s
Ġs up
S h
P E
Ġ Ċ
it er
ĠTh is
At tribute
Ġn um
V ersion
" .
[ :
y s
t arget
re q
lic ation
L e
( [
quire d
p art
Ġ> >>
em plate
et ri
it ial
u d
Col umn
e lement
n ext
Ġb ool
ut il
Ġe lement
3 2
Ġm ake
C E
it ch
ap i
Ġ url
Out put
ption al
U T
ex ists
Ġwh ile
k wargs
T ext
T h
V ar
Ġb ase
\ "
m er
En try
D ate
A P
c ache
H andler
ass word
l d
l ast
l ay
U rl
ĠF alse
to col
Ġp rint
ra w
i ch
Ġ'' '
w h
iv en
co pe
b lock
u al
A s
el l
Ġt arget
s w
C O
c all
1 0
s um
in es
st ant
Ġp arent
i a
t ag
ĠĠĠĠĠĠĠĠ ĠĠ
Ġ lo
Ġ argument
R o
s plit
Ġ query
u me
Ġ one
Ġfor mat
S tr
ra ct
Ġc ode
F alse
Ġres ource
m on
Ġon ly
st at
U L
() :
Ġn umber
D O
p end
Ġsh ould
at ab
Ġd is
p age
cri pt
G E
Ġf irst
ĠReturn s
i e
le d
Ġ( (
Ġm odel
qual s
ol der
F I
S ON
ch ild
d ing
ot al
is h
Ġ[ ];
] ))
Re g
In t
ser vice
atab ase
Ġs ource
li b
per ation
Ġp os
Ġc o
p r
Ġparam s
Ġf ound
l ink
ms g
Ġp l
E m
Ġf loat
') ,
En abled
Bu ffer
Ġis instance
fi r
vid er
T Y
Ġ us
Ġto ken
or age
Ġt ext
Ġr un
scri ption
et work
f ter
d o
Ġm in
a it
Ġc ount
Ġ ['
f l
Ġv ersion
Ġ> =
Form at
se lect
f ind
le g
iss ion
i o
._ _
g r
Ġan y
om ain
h ost
ib le
ĠĠĠĠĠĠĠĠ ĠĠĠĠĠĠ
Ġo ther
pl ay
D ir
Ġ(! $
] [
En d
po st
T T
se nt
F ilter
0 1
L ine
) {
str uct
te ger
ch ar
Ġa c
Ġcont inue
by te
: `
m odule
a use
Ġn ext
C ache
T E
Ġcont ent
k e
am p
b ody
item s
Ġwh en
i str
n o
Ġj son
Ġg iven
Ġ. =
Ġ Ex
Ġ X
Ġm ap
A ll
ec ute
rol ler
ang u
defin ed
A uth
re move
Ġ Get
A pp
Ġwh ich
v ed
P os
ent ifier
'] ;
Ġ row
e quals
un k
M L
im age
ro ot
In valid
S ource
ur i
he aders
Ġp art
con n
L A
pro cess
:: $
O n
Ġs ize
ar ser
A ME
ĠĠĠĠĠĠĠĠ Ċ
orm al
Param eter
St art
ĉĉĉĉ ĉĉĉ
Ġf ilter
Ġcol umn
f ilename
Ġuse d
iz ation
file s
get Name
Ġ' .
Ġ' /
'] ['
re t
a pt
o us
ind ow
Ġup date
ic al
tr ue
op y
Ġlog ger
++ )
unt ime
< /
cont ainer
ht ml
" ))
Ġt able
E nt
et ch
Ġdi ct
field s
Ġg roup
st ore
Ġpro cess
Ġapp end
m ary
Ġ< =
se ssion
Ġ Value
Ġo bj
Ġ def
ain s
T ag
l ation
He ader
x y
Ġc lient
n s
Ġf mt
ener ate
: //
ess ion
C H
u ccess
Ġf unc
Ġerror s
D is
Ġf ind
Ġb ut
ser t
P age
B lock
V iew
co re
ition s
c lose
Ġh ttp
pect ed
g ment
qu ence
Ġser vice
o ffset
r un
Ġdo es
com mand
el per
B e
Ġl ast
Ch ild
lic y
up le
loc ation
Ġof f
read y
A ction
Def in
Ġ_ ,
i ck
ĠF ile
ific ation
v is
'] ))
ĠS t
F actory
Re f
N umber
bu ild
Ġch ar
1 2
pa re
ust er
app ing
ut o
com p
C l
Ġ 5
U N
} )
rig ht
angu age
o u
u id
to String
Ġt ra
AT E
pos it
ĠAr ray
lob al
Ġb lock
pro perty
print f
L ength
Ġc al
Config uration
log ger
res h
S to
k ip
Ġne ed
et ail
Ġ Exception
A D
Ġ ad
port ed
Ġl ength
w idth
N ull
co ding
in ter
Ġc allback
Im age
Up date
Ġ. ..
Com ponent
Ġim age
Ent ity
A d
Ġ val
s ign
Ġw as
Ġp er
( *
que ue
de lete
t ing
S ession
st ream
x ml
at ive
Ġe ach
o g
A l
O Exception
Ġa ct
'] );
ser ver
Con nection
ing le
tem plate
Ġo k
U E
Ġth en
pre fix
Ġcon st
h ash
se arch
Ġ Pro
b s
he ader
fir st
Ġm sg
D B
w ith
. '
Ġ empty
Ġre f
ol ve
ri x
TY PE
Ġ local
ex p
in ation
low er
ĠC om
t itle
u res
L I
iz er
TT P
re cord
not ation
d f
P l
lo t
c le
ĠĠĠĠĠĠĠĠĠĠĠĠĠĠĠĠ Ġ
R ule
Ġex ist
A ccess
al t
Loc al
m od
ect or
S pec
ay load
Ġ load
A nd
-------- --------
Ġch ild
C heck
B ase
m a
Ser ver
C ur
p ush
g s
Em pty
. """
ra ph
st amp
Argument Exception
P art
Ġ entry
und le
Ġcom mand
I s
o ve
p ace
N AME
C ON
th row
it or
Value s
C reate
R ow
< ?
id s
P O
c allback
Ġw ork
** **
av a
n umber
Re ad
t ed
s ort
c an
Ġw rite
Cont ainer
Ġim port
I P
1 6
ar r
Ġ_ _
ail able
ĠW e
Name s
Ġre move
)) )
d uct
Ġin to
Ġfile s
Ġl ong
Com mand
Lo ck
c ent
le vel
ateg ory
at ing
name s
a w
posit ory
s ql
Ġ ]
Ġp oint
Ġp ri
Ġ De
Add ress
c ul
if f
Ġ} ;
Util s
O ption
ĠĠĠĠĠĠĠĠĠĠĠĠĠĠĠĠ ĠĠĠĠĠĠĠĠĠĠĠĠĠĠĠĠĠĠĠ
Error f
vi ron
N o
t ypes
t on
P ri
i ent
Ġspec ified
id d
s pec
ĠValue Error
Ġit er
en code
By tes
Defin ition
Ġa x
Ġf l
T ask
Ġ/ *
P oint
F A
g n
w ay
Ġl abel
li ce
Ġa uth
N O
C all
o x
K E
Ġor der
M A
Ġ q
T he
Ġk wargs
at tributes
I f
a z
f loat
ign ore
Ġ" "
Ġal ready
T ypes
C o
b in
N ext
d oc
Ġb ack
==== ====
S ER
Ġ/ **
t ach
ex ception
Ġin ter
plo de
Ġoff set
W riter
con nection
Ch ar
M P
bo x
leg al
el p
i as
c or
it ies
ĉ ĠĠĠ
V ER
O P
em ail
le ase
] ['
Ġby te
Des cri
Ġre q
i ce
i ct
Ġh andle
D I
Ġa ction
B ody
param eters
Ġser ver
L ink
T R
M atch
R eturn
## ##
ent ial
ĠS e
as ses
el se
H ash
enc y
r ule
Ġse ssion
and om
Ġs w
co py
ry pt
Ġpro tocol
ig h
Le vel
F unction
get S
Ġdo uble
Ġs ign
s up
Ġm odule
Ġo pts
Re cord
n own
Ġbu ild
et ime
w arn
Ġt ag
form ation
r id
t x
L abel
iss ing
il ity
ĠT ype
f alse
Ġre cord
f g
Ġt ask
Ġ 6
ch ed
op en
Ġstat us
sh ape
Ġr ule
col or
Se lect
y mb
Tra ce
Ġ} ,
d at
stant s
l legal
Ġa v
ult ip
T H
Ġa p
ra int
st yle
h andle
p an
d own
Ġhe ader
add ress
Ġparam eters
Ġro ot
id x
s l
bu f
se nd
mer ge
ol ume
arshall er
m ode
A c
Col lection
g ing
Ġc ache
Ġis set
ymb ol
en v
Ġc or
R el
() ))
ĠP aram
Ġth ere
t ml
bu ffer
low ed
ĠĠĠĠĠĠĠĠĠĠĠĠĠĠĠĠ ĠĠĠĠ
o licy
ult i
M ode
e k
M etadata
Ġvar iable
S I
1 1
T emplate
Ġin st
i que
em p
F F
o pts
Ġo pen
ver y
at tribute
t c
N T
to p
R em
ph p
J ob
te st
Ġ Y
t ask
im ple
Ġparam eter
Ġde st
ri ver
P ackage
Ġ arg
t a
Ġ --------
I ter
Ġ1 0
Ġh ost
Ġargument s
le m
2 5
c md
scri pt
M ax
F ound
b reak
( _
s rc
e ar
Field s
p atch
le s
Ex pression
M arshaller
Ġus ing
ig inal
Ġst ream
en u
ĉĉĉĉ ĉĉĉĉ
Ġf e
p ack
c at
vi ous
Ġresult s
n et
W e
un ter
Ġ Un
Ġo ver
r an
ener ator
Ġo ld
Ġde lete
ro und
me m
Ġelse if
ĠI OException
Or der
f s
cur s
istr y
po p
T arget
pos ition
Ġc re
Ġass ert
{ $
Re ference
Ġ( *
00 0
Ġcon n
' ):
F l
Ex ec
Ġin d
Ġcon nection
etri c
if t
R out
ĠA dd
etail s
s ing
Pre fix
n p
in it
List ener
A C
O ffset
By te
M em
d a
Ġd ate
ĠJ SON
f ull
wh ere
u f
Q L
Ġin fo
ser ial
Ġbe fore
Pro vider
Ġ ed
ĠC heck
Ex t
ent ic
Ġby tes
im ension
Ġf ilename
o ption
Ġcon vert
D o
0 4
Ġp ass
th ing
g in
ĠS er
ain ing
c y
Ġ' ';
Pro perties
name space
ang es
T ER
sc al
ic s
( {
b ind
Ġcom p
De bug
d ay
Ġs ort
end s
in terface
E X
W rite
Ġ' ,
ĠL O
a ir
S up
Ġ ag
ch o
A B
cur ity
P I
H ost
ĠC ol
Ġstring s
(' /
Ġ 8
') );
Ġex ception
de st
Ro ot
par ator
A ct
S C
t s
i od
UL T
P er
Ġp age
Sto re
id get
Ġin itial
Ġpro perty
ĠI llegal
m eta
p th
Re ader
th e
im um
t mp
Ġkey s
at rix
ro ute
St at
W ork
f low
st ack
ample s
ut ton
pl ugin
b l
P AR
UR I
E D
n ing
per ator
ĠC lass
g le
me di
oc i
Ġj ob
Ġre quired
Ġs ame
li ke
l ish
cond s
set tings
u ch
ĠM ap
he ight
ĠI D
O L
p c
Ġse lect
P ort
ug h
erm ission
ER R
d u
De lete
D ocument
t ree
A li
n der
Ġ( '
o ther
rap per
Param eters
ĠN ew
Pro cess
Ġd irectory
Ġ --
viron ment
gra m
Ġst ore
an y
9 9
o pt
T ree
ren der
W idth
pre ss
H ttp
L ay
P arent
Ġ" \
com ponent
H elper
Key s
H TTP
t en
ction ary
E L
Ġpro vi
R un
th on
( &
f rame
ĠĠĠĠ Ċ
as sed
match es
Ġ qu
ang ed
Ġbu ffer
Ġ' ',
sw itch
le ft
Ġp ort
Ġse nd
Ġin terface
v ers
Ġy ou
red ential
Ġo ptional
Ġ" /
g ress
C ase
m etadata
or g
get Message
Ġt ri
m ote
A ss
T I
Ġ' s
ach ed
Ġm ay
ro p
j ob
a red
lo ud
B ack
de code
st d
Ġex p
by tes
1 8
s ave
def er
Ġf in
s chema
n ap
Var iable
ro ll
stat ic
Ġm od
Ġh ash
p assword
error s
Ġth an
Ġat tribute
ver se
h andler
Ġn on
Ġsw itch
arsh al
ch annel
> ();
result s
so le
Ġfield s
m ark
ĠParam eters
se ction
Ġd b
Ġa fter
p lement
Ġbe en
util s
A g
Ġb ody
A M
st raint
M eta
valid ate
r ange
Ġp y
V AL
C allback
F rame
Ġm ode
n ow
Ġse arch
ast er
l n
Arg s
Ġ' %
p attern
Log ger
ĠLO G
M in
c ustom
ĠA n
am b
Lo ad
Ġc opy
er o
n il
pro ject
Q ue
g ed
Ġt emplate
apt er
u x
le ss
c ip
an k
act or
ple te
Ġm ore
j s
sh ot
ist ance
Ġpre fix
Ġname s
00 00
Ġv er
O DO
l ines
( \
At tributes
get Value
b ool
a ded
Ġwh ere
Ġ ];
D ING
In ter
S ign
S H
i ces
in ce
Ġprotocol Marshaller
ub lish
o me
d ocument
Ġreg ister
ĠAr gs
part s
Ġt uple
g o
var iable
ut ure
N um
F e
end er
es c
. $
d ated
M od
ĠC ont
Ġ K
Ġ Error
ĠC h
ert ific
Ġl ink
put e
Ġ' t
a de
ex ecute
St yle
R ange
a fe
Ġd ocument
Ġ-------- --
ĠC reate
ition al
Ġa b
reg ister
act er
at er
{} ,
) ]
0 2
y m
St ack
rint f
Ġ' \
act ive
Ġconfig uration
ul ar
ab s
re ct
c li
ss ages
ac cess
column s
re l
AP I
yn ch
M odule
. "
Ġp assed
com ment
Ġtime out
P arser
Ġs rc
st ep
Time out
. ");
plo y
d s
KE Y
Ġ< <
Ġsup er
J SON
m ission
Ġso me
i i
E d
F ailed
Ġc ustom
O bj
Ġfor m
Ġ" %
File s
pre sent
w ise
ers ist
uf fix
S ystem
Ġt est
Ġ{ '
set s
in s
Ġa pi
col lection
ol ver
Ġ ent
w ard
L en
l ong
Set tings
Con n
et ry
Ġex ec
Ġle t
Ġle vel
Ġv iew
pro perties
Ġat tr
Ġ) ,
) (
Ġex ists
Ġto p
ran ch
d iv
EN T
Ġ Data
or ity
B IN
Loc ation
Ġc lose
de scription
t t
Ġ limit
C an
Ġ( )
---- --
time out
He ight
or ies
Id entifier
ynch ron
ĉĉ Ċ
d omain
cont ains
defin ition
tem p
Bu ild
P arse
P olicy
Un it
++ ;
` .
nap shot
ph a
FA ULT
Ġ' "
ĠĠĠĠĠĠĠĠĠĠĠĠĠĠĠĠ ĠĠĠĠĠ
P A
Ġu int
at ures
C lose
amb da
P RO
b ar
um p
') ->
Pos ition
v ok
O peration
F unc
Ġp arser
Ġ En
ord in
t otal
ol low
Ġcont ainer
f n
> (
ck er
In teger
r s
ro le
Ġhe aders
tr im
Ġl ay
point s
Ġo p
riter ia
ĠArray List
N on
im al
child ren
Ġstr uct
r t
w ait
port s
Ġre ference
AT ION
Ġt c
w o
I L
ot o
c ing
Ġc md
Id s
H P
co der
Col or
Que ue
= >
cl s
( []
he et
Ġch annel
Con stants
par ser
str ip
ser v
t ags
Ġ ctx
in valid
Ġreturn ed
Ġ ignore
Ġadd ress
ERR OR
ic on
Ġt emp
Ġ. .
W arn
Ġcom ponent
in ary
Ġo ption
Ch annel
f mt
GE T
Cur rent
2 4
sh ow
al ias
ion s
ord s
ĠM ath
c ause
Ġ" ,
ĠT ODO
Ġd ir
UL L
el y
Ġf ull
Ġ URL
Ġd oc
Ġin clude
ĠA t
()) );
S chema
ultip le
ĠF or
Ġh ere
f etch
is Empty
m ake
2 0
as on
gra ph
ire ction
ex pected
cal e
ĠS ystem
in st
Ġreturn s
ertific ate
p ackage
'. $
] :
{} )
ex ec
Ġt ypes
m arshall
ext ension
Ġme m
D irectory
Ġcol or
Ġpro ject
f in
Ġj ust
J son
w are
P ool
Ġf ailed
Lo ader
c rypt
L ast
c er
5 5
ch ange
token s
row s
} );
... )
etri cs
me d
Ġ Key
conn ect
che me
l anguage
app lication
Ġin it
Ġpro perties
Cont roller
M O
we en
Ġit s
val u
ĠĠĠĠĠĠĠĠĠĠĠĠĠĠĠĠ ĠĠĠĠĠĠĠĠĠĠĠĠĠĠĠĠĠĠĠĠĠĠĠ
Ġn ow
Ġh andler
and l
w w
Descri ption
p k
st op
Ġlo ok
Ġd on
Ġ Default
pro p
um er
oin ter
l ta
Ġ' d
Ġf ail
cont inue
o ver
con f
Ġre place
iv ity
Ġy ield
Name space
Ġd at
d ition
b ed
Des cript
Ġw idth
Ġp h
Ġs ingle
l ate
S printf
As ync
A pi
argument s
Ġ} )
') .
Ġt otal
Se arch
user name
Ġde vice
BIN DING
ĠĠĠĠĠĠĠĠĠĠĠĠĠĠĠĠ ĠĠĠĠĠĠ
re lation
Ġre nder
w s
Im pl
Ġprovi ded
Ġitem s
Ġn ormal
U P
Ġp o
Ġname space
de vice
ä ¸
] ]
U M
et ween
s ite
St orage
ĠĠĠĠĠĠĠĠĠĠĠĠĠĠĠĠ ĠĠ
idd en
W h
N D
( !
Ġpos ition
Ġs c
)) ,
ĠIn valid
Ġav ailable
ance l
") .
Ġst ep
get Id
s cope
k nown
1 5
Ġcan not
ĠN ot
r ad
ĠIllegal ArgumentException
Ro le
node s
Ġg ener
Iter ator
Ġ right
g round
local e
h er
Ġs cope
Ġvalid ate
Ġm etadata
Ġra w
and ard
cont roller
Ġobject s
b ound
Ġs ave
Ġdi ctionary
ro ugh
Ġ" ",
plo t
l v
C ms
g reg
ex it
Ġcl s
Not Found
Ġ' <
Ġp ost
O K
ĠN o
I G
d k
App lication
Ġt mp
Ġg enerate
a f
content s
Ġs b
c ard
Ġa ccess
p ol
Ġp attern
ri es
il er
Ġst op
class Name
mo unt
Ġin valid
ig r
e ded
Ġb o
ched ule
------ -
L ong
m anager
Ġle ft
ad min
g en
G ER
ol ution
U ri
st ract
oo gle
Ġd atabase
Ġat tributes
Ġres p
Ġb ound
LO G
ĠD o
ot ype
Ġex ecute
in sert
i ant
ow er
In ner
l ang
Ġ' _
Ġbe cause
tra ce
) ->
PO ST
ĠĠĠĠĠĠĠĠĠĠĠĠĠĠĠĠ ĠĠĠĠĠĠĠĠ
An y
b it
' '
P ost
vis ion
end ar
Ac count
Ġs printf
O T
n el
n ormal
. ',
B undle
redential s
ĠC ms
ist ory
ac count
struct or
ST R
untime Exception
L im
Add r
ap ply
1 4
1 3
sum er
g or
Item s
cle ar
ax is
b ers
Ext ension
v m
Rout e
Descript or
E T
z one
Ġbu f
D el
(" \
er ge
Ġ' ')
Ġ 7
Ch ange
M sg
" ),
Ġ entity
i er
AB LE
Ġin formation
ab ility
Ġnode s
He aders
De vice
c ategory
l s
Ġse quence
in clude
r type
Ġs um
m ain
1 9
P attern
Ġm ark
<? >
we b
on ly
Q U
i code
ire d
(" %
ĠT o
Ġs kip
n g
` ,
I S
in itial
Ġth read
Ġ Valid
ĠD ate
E S
res p
it es
re ference
c c
pre c
An notation
gor ith
ren cy
sp rintf
Ġf rame
iv ed
[ -
Ġd own
Ġp assword
C A
U ID
Trans action
H T
e ction
Ġal low
Ġw ant
F irst
ss ible
m ask
ang le
Ġcre ated
ce ll
C al
Ġst yle
al k
Ġs ys
Ġst d
L S
he ad
Ġp ar
v en
C opy
Ġ defined
ĠIn teger
param eter
fore ach
Ex p
ay ment
ut f
st orage
bu ilder
Ġs chema
m y
Ġl ines
Ġ ,
d irect
U S
'] .
Ġs uccess
g es
ĠĠĠĠĠĠĠĠĠĠĠĠĠĠĠĠ ĠĠĠĠĠĠĠĠĠĠĠĠ
get Class
Ġo b
C re
ut able
Ġ' -
res olve
H andle
s ystem
0 9
b atch
he ther
// //
to ol
Ġo pt
ith er
path s
Ġ em
c r
D oc
li g
sub string
e ad
Ġax is
let ed
Ġ location
g enerate
ĠA PI
Exec ution
Ġd if
3 3
N S
Ġun set
d irectory
it ude
Ġ' m
Ġexist ing
auth or
s v
Ġelement s
T A
Ġg lobal
Ġch ange
P AT
f ailed
c imal
Ġid x
Ġ$ _
Ġor iginal
do uble
cul ate
w n
qu i
Ġ" .
al og
Re pository
Ġthe m
id entifier
P h
S cope
un try
cre t
sh ip
ĠCon fig
Ġpl ugin
IN T
Ġhe ight
Ġcol lection
Node s
Ġre present
ĠH ash
Ġg o
Cl uster
ĠU p
ĠĠĠĠĠĠĠĠĠĠĠĠĠĠĠĠ ĠĠĠĠĠĠĠĠĠ
ĠI m
J oin
M on
Ġset tings
Ġp ack
add r
Ġ ar
D atabase
F O
gn ore
CT ION
s m
Ġch unk
ME NT
d r
B ound
I C
**** ****
Ġ[ ],
M apping
Ġser ial
c p
Ġde pend
s or
f ul
s ure
) $
mem ber
Ġ ],
ach ine
Ġsh ape
o ice
b oolean
V is
Ġpre vious
entic ation
index Of
bo se
n etwork
Ġt itle
p ayload
word s
Ġ" '
Ġs plit
Ġn etwork
Ġ -------
. ');
Un able
e ach
Cont rol
DE FAULT
ce d
s uccess
resh old
enc ies
rom ise
c ss
In ternal
O pen
c fg
var s
Pl ugin
Ġext ension
Ali as
ic ate
# {
Ġh elp
Ġ( "
Ġf n
Ġsub str
To p
end ing
Ġcolumn s
ĠCol lection
Ġd irect
s ide
er ic
Ġp lot
B ind
State ment
ĠN ode
gorith m
sp an
config uration
End point
z ip
N etwork
group s
Ġex pected
M S
m arshal
Ġext ends
A b
Ġfin ally
im er
le ar
ol ute
ateg y
add ing
T ags
a uto
) [
print ln
Ġpre g
S QL
e ep
way s
Ġm arshall
Result s
Ġw ait
Ġcon s
Ġun defined
U s
sw ith
)) :
Ġ[ ])
Ġ lib
re quired
Ġ Z
is ion
Ġw indow
Com p
Ġext ract
get Type
s lice
d iff
Ġ queue
Ġcal led
lay er
. ")
Ġ ip
lat ive
g ments
Ġtri m
Ġlo op
_ ,
Ġal so
Lim it
ver ter
Ġen v
ure d
Ġ[ $
Ġbu ilder
cl ar
Be an
idd le
Ġs p
Ġt f
Ġsh ow
pro duct
al y
ign ment
Ġst ack
Un lock
Ġ Q
Ġre quire
OP T
tem pt
Ġt x
Ġg raph
Column s
Ġt wo
un it
( ['
C ustom
dis play
B ox
vok e
rig ger
Ġb etween
Pro ject
Ġf ollow
Ġs ure
Ġh tml
] *
and id
" >
ĠR em
D omain
co ur
O ne
] +
P RE
Ġ Log
G ener
#### ####
ens ure
Ġv is
not ations
We b
Str uct
sh ift
Reg istry
b ook
Ġm eta
E ach
Ġpro b
Ġen code
ent er
gr id
Ġp ackage
con vert
as ync
gra de
P ER
ch unk
pro file
Ġ( \
Ġb atch
F OR
il y
w riter
as ic
? (
Ġt ree
Ġ 9
ĠĠĠĠĠĠĠĠĠĠĠĠĠĠĠĠ ĠĠĠĠĠĠĠĠĠĠ
ĠS h
resource s
t om
em ent
d im
Ġc ell
P ermission
S end
} /
1 7
stat s
ise s
U B
scal e
Ġd one
FI LE
r ary
type of
Ġun less
V E
f older
we ight
er nel
On ly
res pon
Element s
Ag ent
Ġ Request
B U
S o
ter m
2 2
R A
ĠĠĠĠĠĠĠĠĠĠĠĠ Ċ
Ġre mo
ut or
om etry
S ec
andl ers
ir t
yn am
T itle
C ore
pp ed
esc ape
T x
Ġs ystem
O D
', '
action s
Ġo ur
val s
Ġap ply
w rit
serial ize
tr ies
d atabase
Ġo peration
S pace
Resource s
h a
Ġcont ain
Ġd f
R ed
Con straint
tr ie
f ra
S um
p ed
ĠT ime
Ġim plement
am l
(" /
H E
ig est
i an
Ġ lock
ifi ers
Ġac count
g lobal
Ġ ]);
ens or
Ġm atrix
ed ia
B utton
Ser ial
Ġcon f
C ell
)) );
c ast
Ġthe y
en ers
Ġi o
Ġde scription
w d
Ġ< -
Ġp e
ix ed
Ġfe ature
Th read
o se
return s
m ag
Ġnum py
Tra cing
j ust
D uration
Ġde bug
so cket
Ġ{} ;
Pro xy
X ML
ĠĠĠĠĠĠĠĠĠĠĠĠĠĠĠĠ ĠĠĠĠĠĠĠĠĠĠĠĠĠ
v let
Ġen coding
Ġs pace
fo und
re port
Ġw ord
im port
Lay out
( ',
'] :
Bu cket
Ġex plode
cl asses
Ġm o
p ing
eng ine
Ġin sert
ĠH ttp
: ]
m an
Ġs ince
b r
R aw
Ġsup ported
Ġ1 00
Ġ1 2
lig ht
Ġlog ging
. ')
Ġ+ +
g l
iter ator
======== ========
po ol
Ġse e
warn ing
h ook
P assword
ig in
se c
time stamp
pro xy
ol ved
label s
u i
fl ags
Service Response
ĠA l
u pt
ĠD E
Ġcont ains
Ġp ayload
iter al
} .
8 0
or iginal
irt ual
mer ce
ch ain
Ġim plode
Ġwe ight
a fter
VAL UE
Ġs im
AT OR
sup ported
Ġt ags
Ġf etch
trans form
Ġres olve
fe ature
7 5
G raph
Ġth rough
as ure
event s
Ġ loc
li ck
Ġm on
re c
W indow
dat etime
Ġc ould
M o
Local e
Ġs ample
ip el
fi c
O p
g p
D S
Ġre ce
Ġ! $
Ġpro p
Date Time
C P
ex pr
Ġcont aining
ate way
Ġj ava
Ġse ction
Ġex pression
co ok
az z
Ġd type
scri be
R ender
m enu
ial og
ĠTr ans
= (
de pend
Ġx ml
Ġpoint s
re quire
bo ard
w indow
Ġbe gin
for ce
3 0
d ates
Ġc lean
Ġinst ead
s afe
'] [
At tr
medi a
Ġs alt
Ġs ynchron
De st
Ġdis play
up lic
en coding
po se
ac y
e f
AT A
ot tom
Ġext ra
Ġg en
row ser
Ġ uri
Ġm issing
co ver
Event s
P ointer
/ *
S cript
ĠN ULL
pro vider
At om
ĠM ess
ook ie
ĠString Builder
p lic
ed it
c lean
ploy ment
Ġcl uster
sub str
I gnore
Ġse cond
Ġp ut
w ner
per mission
ĠF ield
i us
fer ent
z er
Mess ages
ĠType Error
Ġre mote
C K
Do uble
Re quired
Act ive
Ġ' :
N ON
ĠO n
G enerator
Tracing Enabled
ĠI t
en ded
prot otype
Ġ& $
pl ates
Ġ( _
Ġtrans form
se q
Se quence
ert ex
is Any
u ally
Ġdoes n
Ġad ded
. *
Ġrow s
Ġre l
tach ment
Ġref lect
B oolean
me ssages
. ",
F ail
Ġcon sole
object s
ic le
Class Name
get Key
Ġs m
If c
re set
Ġc b
Ġ Response
Ġ like
de v
} }
li ed
ĠSer vice
M ark
isAny TracingEnabled
cl u
---------------- ----------------
f ill
pre g
A GE
Ġen umer
D b
A v
po licy
tra ck
Ġ1 6
Ġparse d
En um
Ġun it
H as
l ing
O M
\ ",
c a
Ġr andom
CO L
. (
um b
b ro
cour se
Ġp air
} ;
y ear
qu ote
ĠU ser
A S
ur al
Ġw arn
use d
u int
Rel ation
ĠO ptional
j ection
clu ded
TI ME
re al
cond ition
cre ment
V olume
ol y
s heet
ĠI ter
filter s
ext end
Ġsort ed
") );
http s
W rapper
SE T
Rem ove
Z E
Ġe ither
mon th
ext ra
b utton
F older
m apping
element s
W S
L anguage
i k
ĠRe g
bu cket
ex pression
n on
() ),
ro ut
Ġm ask
ipel ine
for Each
ĠĠĠĠĠĠĠĠĠĠĠĠĠĠĠĠ ĠĠĠĠĠĠĠĠĠĠĠĠĠĠ
ers on
Le ft
Ġ Ð
get P
f p
f ont
3 5
s ample
A X
PAT H
Ġ[ "
Ġb ind
Ġ' {
y nt
im g
i pe
pre v
serv able
S O
Ġbase d
Auth or
r andom
o ff
| |
sub ject
a int
Ġd ay
X ml
Se curity
com mit
Ġd et
ple t
Descri be
lect or
Input Stream
ib ility
ch an
Ġ ;
ĠH TTP
g ener
ces sed
Ġ ct
cre ated
up per
ff ect
de pth
it ive
Ġfl ag
Pro file
h o
Ġp k
ith ub
ĠIn put
Ch ain
Ġm ain
t y
Ġpart s
re mote
Ġw hether
Group s
m ine
Ġb it
Ġmatch es
m ail
u c
Pro duct
ĠĠĠĠĠĠĠĠĠĠĠĠĠĠĠĠĠĠĠĠĠĠĠĠĠĠĠĠĠĠĠĠ ĠĠĠĠĠĠĠĠĠĠĠĠĠĠĠĠĠĠĠĠĠĠĠĠĠĠĠĠĠĠĠĠ
own er
j ava
Ġw riter
Ġac cept
F loat
p x
IN E
Ġlay er
get C
c d
al ys
method s
Em ail
Ġother wise
= {
ĠN ote
ĠM e
o ptional
N e
S ION
ator s
Ġ' re
} "
d river
attr s
S ync
Error s
Ġhttp s
o peration
Ġre set
D ay
de sc
ro y
K ind
Id entity
res ses
] |
Inter val
ist ing
A p
Ġro ute
end point
/ ',
ĠP re
/ %
act ers
R I
Ġwith out
ĠP arse
curs ive
U SER
Ġ' )
Ġpo ssible
be fore
Ġst orage
lay out
RO M
Ġs ql
un ique
ib ution
tra ct
Ġre port
to lower
li p
ĠSe e
3 4
v oc
al le
if est
g ine
LE CT
I O
lo ader
Se gment
ĠCon vert
ĠUp date
Mem ber
in ner
Ġhas attr
: "
get M
row able
get Instance
S c
H tml
al low
sh ort
s With
] [$
OR Y
Trace Component
re po
P C
ĠIn ternal
d t
Ġ# {
. ,
Ġ et
f actory
mb ers
1 00
Q UE
Ġm ultiple
pt r
( ?
en se
ĠP y
ass ign
red irect
Ġevent s
re qu
w er
c ap
Ġal lowed
= %
an e
p id
Ġlabel s
Client Exception
Ġex ample
ĠW h
B atch
s kip
Ġcor rect
lo aded
D etails
th en
6 0
ynt ax
unt il
u di
Ġ Name
st mt
h elper
iv es
Ġg e
Ġp op
model s
u uid
OR T
di ces
( __
c b
com mon
eter mine
dis patch
ĉĉĉĉ ĉĉĉĉĉ
Ġfor ce
H ER
Ġa bs
in ternal
Ġin teger
ase s
()) .
Ġend point
parse d
Ġapp lication
Ġd omain
St ep
ĠP HP
T O
Valid ation
am ily
Ġd imension
ver age
l ap
Ġdat etime
Ġdif ferent
g re
L ower
Ġ- =
Ġt erm
Ġtra ce
o ot
Ġbu cket
s ig
ar m
C ould
AC K
log in
Ġk eep
AN G
B O
P air
Ġag ain
inst all
X T
F uture
Ġvariable s
v ing
Ġpro file
ynam ic
co unter
( /
Ġs cript
ĠU se
le x
Ġse nt
Ġtrans action
fl ag
Fe ature
se quence
D ER
h elp
mat rix
s n
for med
f ail
Ġw rit
Ġun ique
ĉ ĠĠĠĠĠĠĠ
Ġsup port
V I
Ġn et
se n
Sh ort
' =>
check ed
LA SS
ann er
lo sure
al pha
Ex ists
vi de
Ġ> >
< >();
if act
Ġde code
Ġm erge
Ġb l
Ad apter
rule s
D river
s ymbol
Ġrequest s
Ġf s
Child ren
Ġass oci
Ġ( ($
`` .
c riteria
ĠI N
A fter
Ġcom mon
(' %
at io
{ "
V er
[: ,
ĠP ath
' re
C S
O F
m ar
Id x
ĠĠĠĠĠĠĠĠĠĠĠĠĠĠĠĠĠĠĠĠĠĠĠĠĠĠĠĠĠĠĠĠ ĠĠĠĠĠĠĠĠĠĠĠ
Ġfollow ing
ag ent
CH E
re st
us ers
ro ss
app ed
} '.
Ġ' $
cl uster
p ag
w idget
pre pare
ordin ates
ix el
Ġmethod s
Time stamp
Ġg rid
D ATE
Ġ'/ '
g oto
Ġz ip
d ist
Z one
A uto
Th is
Ġs cale
Ġy our
r ont
ac ity
Ġpre v
Ġre al
AL L
D own
alys is
F ull
Ġpre sent
u ction
] ),
Ġuser name
ched ul
av ed
t f
sl ug
Ġreg ion
Ġbe ing
ac cept
Stat s
g b
tr ig
SER VER
S ort
at ic
Ġch ain
pa ir
se conds
Ġdata set
p ass
Ġ' #
Com ment
n b
IT Y
\ '
default s
w rap
Ġact ive
I F
Ġe very
Ġpro xy
lat form
B l
Ad min
Ð µ
Ġp ool
b servable
is Debug
Ġd istance
E CT
reg ion
Ġdest ination
ra g
Group Name
de lta
le ep
ul ate
Ġact ual
v es
Ġre trie
Ġpri vate
Ġ ensure
( -
s k
start swith
'] [$
" ):
LO W
ateg ories
d type
ĠRem ove
Ġm apping
Ġtoken s
Ġpl ace
Ġb inary
Ar t
Row s
est ed
ĠA pp
T otal
or ter
Ġj oin
En gine
ub e
Ġpath s
con v
igh b
Ġspec ific
s ync
Ġme ssages
Ġc lear
r v
s ys
cre en
arg e
ĠS dk
com pare
Ð °
per ations
l ambda
al led
f lat
int e
ĠI P
Ġso cket
. (*
M M
å ı
Ġa uto
ut om
Con dition
b undle
Ġne eded
get Property
ã ģ
en abled
Ġget attr
Part s
HER E
con st
pri mary
lo ok
re ader
cent er
T ri
Res olver
l in
Select or
se cret
SI ZE
& &
ext ract
ha vi
C ategory
" ],
Ġsynchron ized
MA X
D ATA
get Attribute
Warn ings
R ight
Ġenumer ate
Ġconn ect
id er
Ġl at
p ublish
Can not
M atrix
ĠĠĠĠ ĉ
, $
P ack
NO T
an el
} '
fer red
m aining
pro to
ĠSdk ClientException
t ab
e am
con cat
T erm
t d
il t
inter val
cont rol
ĠN umber
Fl ag
Ġsh ort
Ġchild ren
Ġ Query
ĠA ND
valid ator
ĠO ut
] =
Ġal ways
m u
S plit
5 6
r ate
Ġrun ning
Trans form
lo op
Ġstr len
P UT
ĠX ML
M enu
ĠMess age
re pository
ĠB oolean
s b
ass ert
prec ated
i ed
the me
U se
Ġz ero
Ġbo th
th read
is Entry
Ġe cho
C ertificate
Ġex it
P rint
I OException
PAR ATOR
Ġid entifier
( @
) /
Ð ¾
d st
Ġcom ment
isEntry Enabled
LE TE
Ġthe se
ĠR untimeException
> ';
o perator
3 6
al e
Ġremo ved
ak es
Ġchar acter
5 0
ĠAt tribute
Ġro le
Ex pr
fl ush
tx t
Ġde l
get Pro
str ict
ĠL oc
Ġwith in
W rap
ad ing
Ġ li
ĠJ son
M AT
S uccess
Ġm an
Ġse conds
" ])
AN D
De pend
andid ate
DI R
Reg ion
ç ļ
are a
isDebug Enabled
D F
Ġin ternal
y cle
Invalid ArgumentException
Un marshal
Ġb el
çļ Ħ
of t
Ġresource s
me an
Ġre ader
quest ion
4 0
per iod
fir m
So cket
com plete
Path s
trans action
SE PARATOR
str uction
W idget
ĠD B
P ublic
c m
qui res
Ġed ge
M ulti
Lay er
ut down
value Of
ĠA ss
Co unter
2 7
Ġthe ir
EX T
Ġwe b
iddle ware
Ġo c
)) .
Ġcor respon
id ent
Ġc fg
c u
iz es
Ġup dated
arch ive
Ġv olume
Ġp ermission
Ġ[] *
Rem ote
ĠR E
S P
Un known
char At
Ġis s
Ġ) );
Ġw ould
h ex
Ġ' \\
Ġ' *
trig ger
= [
ue s
- +
Ġs l
G lobal
d om
h older
Ġ{ $
v as
Ġd iff
module s
res sed
ur ing
Ġm y
D ict
Ġent ries
select ed
En code
se cond
g ative
G e
at om
) }
al th
() ]
O UT
p od
Ġat om
($ _
ple ted
Ġs ig
Ġse gment
3 9
log y
HT ML
Method s
udi o
ĠRe ad
st im
Ġfl ags
h s
ish ed
F in
P T
Ġlist ener
z e
c ert
Ġ" )
Ġcom mit
Output Stream
Ser vlet
Ġre st
ĠF orm
Ġs ymbol
In itial
AR N
clar ation
2 00
t uple
Ġor g
script or
ST AT
En coding
op s
Ġtime stamp
U int
av ailable
ex port
Ġcom pute
s alt
Ġen vironment
Ġ email
PAR AM
: %
3 8
up load
P tr
RE CT
curs or
Ġh igh
Ġper form
Ġass ign
Ġab out
Fl ags
Ġch anged
> '
Str ategy
c ade
Ġs ite
P e
Ġr ad
Argument s
SE LECT
Ġstat s
Ġ" +
Ġch anges
ĠR a
O rig
Be fore
ge st
ww w
al lowed
Rule s
err upt
TH OD
arg in
wh ile
UT F
dest ination
C ap
p b
To ol
E Class
Sec ret
cond itions
ĠValid ate
S napshot
pe at
Ġ arr
__ ,
Ġ" ";
I M
m ath
em it
istr ation
Object s
ĠE vent
C R
call able
cook ie
M edia
(' \
å Ī
ig it
C LASS
a j
Ġme an
dir name
A SE
ic ro
an ization
Ġsign ature
Ġa wait
SS ION
Ġc ert
Ġwh at
d etails
m ac
reg ex
M issing
Ġmatch ing
ĠMe thod
Ġ" -
EN D
Ġbe st
FI X
ist ics
std out
Ġid ent
C loud
igr ation
ill is
co very
Dis play
Con f
pre vious
ĠS QL
S ql
vel o
Ġd st
variable s
Ġ( []
an notation
M etric
ordin ate
on es
0 6
Ġre lation
Ġas ync
Ġde lta
S A
get Request
H O
V ector
Sup press
BU G
Ġ// $
ed ge
Ġ2 00
et s
pro tocol
( **
7 7
state ment
Ġf ig
s q
v t
Des c
Ġf older
er ies
Re ce
Ġre lative
25 6
trans l
Map per
Ġm d
ĠM ake
con straint
Ġind ent
ĠF ROM
T est
d rop
P HP
un ch
anag ed
Ġselect ed
pro m
get Data
F ilename
n ess
ĠEx ample
U RE
ĠS ib
NotFound Exception
Token s
m etric
Ġmax imum
A re
ex c
li er
at alog
cl us
ĠL ong
Ġmem ory
ĠĠĠĠĠĠĠĠĠĠĠĠĠĠĠĠĠĠĠĠĠĠĠĠĠĠĠĠĠĠĠĠ Ġ
d ot
Ġ until
bin ary
ĠAr g
ĠO bservable
Se ction
2 8
$ {
/ {
G P
Ġap pro
be gin
it ed
Ġun der
s ingle
ĠLOG GER
File Name
Ġspec ify
de c
Ġcont rol
VER SION
CO DE
Mod ified
ple x
comp ile
d one
r and
get Path
d et
QUE ST
Ġsign al
cl one
st rap
c loud
k ind
R ate
Ġauth or
Ġrequest ed
Ġt rigger
Ġvalid ation
m ulti
chedul er
c ached
Ġdefault s
ĠSib Tr
c as
g it
Ġf ra
Ġcur sor
* /
P ut
Ġm ulti
P od
ĠO pen
Ġ Byte
Cl asses
I B
d raw
U UID
pro ps
ĠU til
Ġ lower
con s
Ġex c
Reg ister
pl at
E l
S w
x ff
Re port
s cheme
se gment
Ġs uch
Not ification
ME THOD
FI EL
c url
Ġchar acters
v c
S ite
Ġre try
TE XT
t l
col s
Ġre c
Suppress Warnings
g oogle
2 01
W ait
IN FO
es cri
Ġg ot
str len
en able
Ġl on
let on
en e
as set
to Array
f d
ul ation
o om
ĉĉĉ Ċ
6 6
ĠHash Map
Ġper iod
ra pped
Ġcontent s
d n
b ranch
trans late
day s
our s
Ġ" <
In it
D A
Ġe valu
co untry
Ġle ast
Con vert
Ġcom plete
Ġpro vider
sh op
ĠO r
Ġh ow
lic it
ĠC al
t i
Ab stract
v olume
O ptional
Ġ utils
ĠTo ken
F S
Ed it
field Name
_ .
file Name
Ġ Resource
has Next
num eric
ry ption
Ġde sc
F ind
is on
Ġl ambda
po ch
Ġ definition
ra m
s core
Ġl anguage
co me
s uffix
in v
g on
ind ices
s amples
d uration
cur rency
Ġs cal
ad ded
o le
Ġpl t
set Attribute
AN CE
sign ature
Ġw ay
g t
Ġde pth
cip ient
uplic ate
ĠR un
ĠDe lete
Ġpro t
S imple
v s
co gn
data set
file path
ĠE lement
Pro to
ĠB ase
Ġmem ber
cor ator
Per iod
Ġ' ;
m aster
Ġw ere
s pect
ĠIn dex
scal ar
id ual
requ ency
VAL ID
Ġpy thon
c atch
list ener
ser ies
g ithub
M IN
fe atures
A x
re lease
e e
Im port
F low
Ġpro ps
m issing
C RE
Valid ator
m i
IT E
M ath
Ġ( %
Sign ature
a im
2 1
d imension
() {
d ump
F ont
Ġ'. $
S ymbol
O perator
Sum mary
ra in
Ġcl one
ĠE T
In d
Ġneed s
Ġv ector
ĠD is
Format ter
Ġre po
Com mit
In sert
in cip
am pl
F T
B it
Ġme ans
string s
AL SE
G rid
up dated
Mon th
sign ed
Ġkey word
s pe
Ġind ic
`` ,
Ġb ranch
ĠĠĠĠĠĠĠĠĠĠĠĠĠĠĠĠĠĠĠĠĠĠĠĠĠĠĠĠĠĠĠĠ ĠĠĠĠ
U I
get Config
Ġme di
sup er
Ġex ternal
ind ent
Ġt er
ĠĠĠĠĠĠĠĠĠĠĠĠĠĠĠĠĠĠĠĠĠĠĠĠĠĠĠĠĠĠĠĠ ĠĠ
ĉ Ċ
Ġ Err
ath er
ra ise
g enerator
2 9
Ġgroup s
O S
Ġ_ .
li m
Ġstate ment
2 6
Us age
Ġre direct
Ġc url
Th rowable
S ingle
u ce
> <
ĠArg ument
look up
ch anged
/ '
Ser ies
m ut
act iv
t n
co res
In st
ĠOut put
app ings
O ver
Not Null
Ġset ting
RE QUEST
x x
t w
Ġver ify
-> $
voc ation
res er
cess ary
Ġinter val
) \
on ical
Ġ' --
Ġadd itional
il ing
Pri ce
at tach
ĠW HERE
Dest ination
B E
Ġe qual
Ġdis able
N E
Ġcall able
Ġm ath
pri ority
Ġav oid
Ġ ^
0 5
Ġnot e
rel ated
ra ft
component s
Ġm ove
start sWith
Return s
Al lowed
w atch
Pro tocol
Wh ere
Ġo verride
ax on
ent ries
r f
Ġf ill
En v
ol l
ig its
Ġd etails
ss l
W ord
Ġc p
Ġtype of
Ġ URI
ĠM odel
ro les
) *
Ġv ia
Ġan notation
En vironment
code s
Ġun icode
Ġb in
ch or
Com mon
Ġstruct ure
Ġ1 000
ĠKey Error
t ick
e le
Ġal ias
P ar
struct ure
rout er
i ver
Ġc ore
Ġcon dition
incip al
D irect
b eta
ce l
2 3
Ġin dices
ĠF unction
mod ified
0 3
link s
Ġinst all
Ġ Build
str ibution
old ers
par ison
Ġp olicy
plet ion
av ing
ĠA uth
on d
invalid Params
) ",
Ġ defin
Ġ{} ,
al an
AR T
ĠS T
am ount
Ð ¸
STR ING
oci ation
Ġr untime
Ġm at
//// ////
Ġ art
Ġass ume
if c
A bs
N G
N ow
Bind ing
L L
h idden
greg ate
< >(
Ġtra in
Ġcont roller
Ġc ached
Pro ps
limit er
Sto p
r pc
ĠN O
ĠDo uble
ĠO ther
Ġser ies
em on
Ġh app
() [
:` ~
Ġup load
service s
full y
Ġcal culate
B ag
record s
k s
Up load
Ġm etric
h ref
A A
ites pace
Constraint s
fic ient
id entity
C F
select or
s ym
Ch anged
Ġlook up
Ġal pha
B ar
d istance
plat form
Valid ate
Ġver bose
: \
Ġp d
ex clude
O B
tra in
Ġto o
Ġd ist
D i
Ġid s
Ġ{ "
Ass ign
T emp
Re c
leg ate
a o
Ġset up
s d
Ġy et
a unch
ĠF ind
Ġ ):
} \
Ġp ush
Ġtime s
Ġb ox
D et
R untimeException
/ **
Ġtra ck
Re place
p ersist
Ġ' </
pi res
cs v
CE SS
å Ĳ
ĠT able
command s
Ġcl asses
Ñ Ĥ
Process or
Con verter
Qu al
on y
Ġ" _
Cal endar
Ġcal cul
ad apter
FI G
Ġ util
normal ize
str pos
L ook
LO B
inte ger
V ertex
Ġd uration
Mem ory
M illis
W OR
AT TR
f it
4 4
Pro p
ĠS ub
HE AD
var iant
lo sing
re en
m utable
Ġb undle
r untime
ĠIn t
k er
valid ation
Ġfile path
n one
c ision
zer os
__ ['
} ".
se curity
E qual
Ġinitial ize
x f
D imension
ĠOn ly
co p
State Exception
) +
Ġc ap
Ġf uture
URL OPT
ut ed
Ġro und
Ġd raw
Warn ing
ĠPy thon
C L
yp ed
M an
Non Null
W atch
ar ies
ex isting
d um
Ġse q
pro b
il ities
Ġgener ated
alle l
ific ations
apt ure
A UT
ĠL ink
Ġattr s
De cimal
Ġdown load
per i
bo ot
Ġ? ?
Ġw rapper
Lo op
b its
Ġs uffix
Ġc ause
havi or
C ert
Ġf actory
Ġm ag
ID s
tt y
> \
d irection
or ary
ĠĠĠĠĠĠ Ċ
Ġiter ator
c um
A rr
ur face
r b
Ġo perator
RECT ORY
Ġrule s
Log in
M D
De code
aw s
By Id
ĠH E
DE BUG
p ages
Ġs amples
J ECT
F ra
bo ve
Ġ2 01
com m
Ġst andard
N LS
o auth
pro gress
ĠWh en
Ġpro gress
MO DE
L ib
V irtual
Ġ Buffer
f ree
An notations
ä »
Ġy ear
e lem
sign al
en vironment
se mb
Ġ2 0
d itions
ans wer
re ce
fe ed
per and
Ġde leted
] ->
Ġrecord s
ĠC lient
Ġfunction s
I p
S cale
Ġ3 2
ĠRa ises
T L
P ersist
ĠG ener
Ġstore d
get User
Con sumer
Ġf ix
ud it
Ġex pr
or iz
M etrics
B ad
B inary
un defined
ĠA b
Ġ) {
(' -
) -
Ġen abled
S K
Ġcon version
] ):
doc s
Ġre ason
8 8
pi x
Av ailable
Ġf ont
Ġassoci ated
pos ite
En tries
Null able
> </
end or
table Name
Bound s
Ġb its
h igh
Ġan other
Ġfe atures
p ad
Ġsub ject
Ġ" );
char s
c ut
S l
H ook
se e
Ġm ost
(' .
std err
F n
ĠCom mand
im ation
Ġf it
file Path
DE LETE
Dis patch
O wn
x b
J ava
Sub ject
ĠC all
ĠW rite
Status Code
Ġn s
******** ********
az y
Ġs ync
Ġs imple
Ġcorrespon ding
ent s
nd array
Label s
P r
r ong
av ig
g a
ĠF ilter
Ġhe ad
iv ely
Ġex pect
Ġinstance s
3 7
r ant
Are a
p ayment
Conn ect
n a
Ġstr pos
Ġat tach
Fail ure
Se cond
Ġc a
Cre ated
ent ion
)) {
Ġc ancel
In v
S ave
f ast
tool s
Id ent
set up
Pri mary
pk g
Ġro ut
pa red
o ugh
Ġg enerator
ĠD I
Ġt em
com pute
Ġp ixel
ĉ ĠĠĠĠĠĠĠĠĠĠĠ
Ch unk
Ġmon th
sh a
m m
im ages
ĠĠĠĠĠĠĠĠĠĠĠĠĠĠĠĠĠĠĠĠĠĠĠĠĠĠĠĠĠĠĠĠ ĠĠĠĠĠĠ
ĠĠĠĠĠĠĠĠĠĠĠĠĠĠĠĠĠĠĠĠĠĠĠĠĠĠĠĠĠĠĠĠ ĠĠĠĠĠ
Ġd im
m ime
Pro gress
O wner
Ġcl azz
con sole
ant ity
M I
as c
ver ify
k w
c f
ĠS tr
ol t
Table Name
etri e
d icate
or igin
z ero
reg istry
u ff
n orm
Ġadd r
STAT US
ter s
Ġd etermine
Ġst ill
ĠIm age
ot es
Ġm ight
un its
UN D
-+ -+
cur r
mit ive
' ll
G ateway
f actor
at ible
me mbers
Ġpart ition
get Parent
Ġ'. '
Ac cept
S lice
Ġd id
Or g
) |
Ġd irection
Ġal t
co s
mit ted
Ignore Case
Ġk now
cl ared
Ġs lice
Ġat tempt
ref resh
sum mary
Ġpro duct
Ġim g
top ic
Ġlo aded
Var s
Ġ? :
pan ic
Ġno thing
Ġnormal ize
( `
se ss
Ġpro to
an it
N ormal
Set ting
ch anges
plugin s
8 6
Ġ å
ã Ĥ
ver bose
Ġco unter
Ġlocal e
ed s
ĠĠĠĠĠĠĠĠĠĠĠĠĠĠĠĠĠĠĠĠĠĠĠĠĠĠĠĠĠĠĠĠ ĠĠĠĠĠĠĠĠĠĠĠĠĠĠĠ
Ġre lease
Ġpre pare
Ġprovi de
l on
ĠPro tocol
Loc ator
Ġc enter
Ġe lem
C ookie
vis it
utom atic
O pts
ul a
F ore
al es
R ect
Service s
Point s
FIEL D
L iteral
mem ory
get Default
Ġfilter s
P anel
down load
= \"
re verse
\ .
ong o
ĠSt ate
ier arch
en o
ĠInvalid ArgumentException
li ct
S L
se parator
D one
h ome
St d
> ,
Ġretrie ve
get String
bro cade
D iff
te gr
Ġa bove
E OL
Pl ace
Y ear
g ers
Ġs core
base name
Ġstr tolower
work er
Content s
ĠSt art
* (
Ġt ake
B ig
eter min
log ging
k ernel
Ġor igin
\" \\
Ġinput s
ĠCh ar
Ġon ce
Lower Case
Act ivity
F etch
user id
Ġencode d
h y
i ate
Ġa mount
di ction
Ġcom put
k dir
Pri vate
( :
Ġs ix
D D
3 1
is Array
back end
Ġc ategory
Ġd uring
F IN
Ġpk g
+ "
Ġm er
ĠĠĠĠĠĠĠĠ čĊ
I con
Ġp r
> )
CON FIG
Ġs can
è ¯
æ ĸ
M ask
ra se
P ayload
ĠP h
File Path
! =
append Child
Ġcol lect
Re al
In formation
em bed
i ation
set ting
ra ce
Ap ply
ference s
ys ql
Ar ch
if orm
Ġregister ed
Se lection
Ġre pository
able s
Ġ| =
ã ĥ
trans lation
get Field
Ġpri mary
rid ge
d c
Re p
ro utes
B ool
Ġcom pare
- %
y y
y ml
X X
c ms
Ġm anager
Ġconst raint
col lect
I VE
IN ST
x e
block s
Ð ½
N UM
RE D
Ġup per
Com parator
AL S
AP P
R untime
Ġm any
ens ity
Ġt s
Bu f
H istory
[ ^
ro id
> ()
b order
ro t
al ign
Ġmodel s
Ġ ))
Ġ{} ".
ĠCont ent
Filter s
n an
Trans port
Ġcons ider
h istory
e cho
D C
se p
ĠA d
du ce
Ġa ws
Ġbe an
.' /
Ġex clude
l int
4 5
Ed ge
arg v
æ ķ
re try
Ġ" {
ĠS o
ĠWe b
Ġv m
Ġspec ial
s ired
Ġf lat
Author ization
Ġbut ton
Ġ Load
ir ation
Ġh ex
Ġz one
ist o
Ġus ers
ĠIllegal StateException
Ref lection
fi re
st ates
Ġstr ip
List eners
, '
in voke
Ġa st
ul k
c Addr
Ġs napshot
Ġim ages
4 8
Ġn d
Tra ck
Ġreg ex
cat alog
Ġoc cur
Ġd t
P ayment
W N
Ġdef ine
se ct
" },
ĠT ext
sort ed
v oid
' }
C md
(' <
getPro cAddr
A CT
S uffix
ĠSer ver
we ek
oly gon
angu ages
se ns
al f
Ġk ind
ĠO R
Sup port
ar s
U LE
E lem
L INE
To String
ĠR untime
ĠPro cess
ide o
æ ľ
ST ATE
axon om
e val
Ġc lick
un checked
Ġne cessary
L ines
Ġdirect ly
Ġal gorithm
LI C
ĠI s
ĠOther wise
ab ilities
st it
ĠH T
Ġex port
get Current
py thon
Ġdis k
TA G
add All
m etrics
Ġ Result
Sub Element
B Y
######## ########
re lative
ct r
(" ,
ang o
SE SSION
Char acter
Ġbel ow
s id
Pl an
am pa
Ġ6 0
c ryption
G o
Ġl ater
exp and
cop es
IN TER
get Resource
Auth entication
ampa ign
OPT ION
Ġname d
content Type
lo or
ĠT R
str i
Ġv ert
c ancel
Ġin ner
cont act
(' _
Stat ic
p ub
.. /
T ab
Re q
S p
S cal
Ġb ro
d l
ĠN OT
sq rt
Ġlay out
pend ing
ĠF I
ĠA ll
table s
Ġro t
ĠC an
i ance
extension s
p lied
Ñ Ģ
dis able
Ġ' {}
Ġre verse
Ġlog in
A mount
is Valid
b ad
Ġf actor
(' :
alan cer
D at
V AR
l an
un set
Ġt ile
exception s
o verride
re ply
S kip
CON T
S uch
ĠSt ream
ĉĉ ĠĠĠ
me th
sc an
and as
encode d
Ġcall ing
al ance
I ST
Ġ low
Ġvar iant
to LowerCase
at ely
-- ;
Ax is
Ġun its
UR CE
G B
p ng
F ac
ĠI O
M arshal
S chedule
Ġd er
De ployment
at s
O pt
ist ic
en um
i ases
cli ck
Ġcomponent s
S U
w p
equals IgnoreCase
pl an
As set
contains Key
po ser
velo pe
re ason
Ġcurrent ly
Ex it
} ",
Ġ2 4
::$ _
Ġexec ution
Ġprot ected
Ġrece ived
view s
or ig
ĠIter ator
\ "]
P ublish
Ġt ab
Ġp ublish
not e
25 5
Ġ{} )
Ġse par
get Parameter
C or
res olver
F OL
Ġg re
Ġtop ic
Ġweight s
C redentials
v ance
Ġpack et
Ġstd out
G LOB
Ġre maining
Red irect
de lay
ĉ Ġ
in i
Ġse lection
l ab
Ġ" ;
Ġe ven
D ialog
m et
vid ers
h ip
E V
z z
pri ce
W rit
p df
ag ing
tem plates
Ġco ordinates
Pe er
7 8
b b
CO MP
ĠA S
ot ed
Ġw rap
ĠP age
bind ing
ServiceResponse Async
de l
Data Type
Serial izer
il ar
input s
PA CE
Sh ow
( %
Ġcon structor
Struct ure
get Option
not ification
ĠĠĠĠĠĠĠĠĠĠĠĠĠĠĠĠĠĠĠĠĠĠĠĠĠĠĠĠĠĠĠĠ ĠĠĠĠĠĠĠĠ
5 9
RE AD
Ġre quires
esc ap
E C
Ġm aster
Ġignore d
Ġh ref
[ (
format ter
Instance s
char set
Ġf low
Ġth reshold
PRE FIX
Top ic
ild card
A G
ĠF ALSE
Ġclose d
Up per
ed itor
ĠS pec
ĠC o
S D
part ition
Ġem it
w in
> ',
a N
Ġd s
cor rect
crypt ed
'' '
S k
SS L
Back ground
Ġ{} ",
Ġe stim
Ġarray s
ces ses
Look up
T er
(" [
num py
W E
s im
Ġ engine
Ġreg istry
unk nown
M B
ex ample
Ġfail ure
b ottom
w t
>> >
ĠDE FAULT
run ning
ref lection
Ġs ide
ON E
Ġt re
back ground
p adding
w rapper
FOR MAT
Ġstart ing
Ġ# #
D T
c n
(' #
C ard
Ġw atch
== =
By Name
J S
writ el
Ġprocess ing
ĠA pi
ĠH andle
par s
comp iler
P rintf
tem pts
Ġ Res
Ġ Property
ra ises
Match er
â Ģ
r m
0 8
U uid
Ġth ose
po inter
Ġag ent
S Y
Ġw ords
ĠC ode
ĠHT ML
s chedule
Ġde c
anag ement
[' _
ĠAb stract
ĠB e
t od
use s
Vis ible
act ual
d igest
Ġ$ {
Ġr s
Ġ\ "
ĉĉĉĉ ĉĉĉĉĉĉ
def ine
Info f
Ñ ģ
Cur sor
Ġo wner
at trib
With ServiceResponseAsync
peri ment
W ARN
4 9
errupt ed
Abs olute
R et
> "
5 09
Ġback end
Ġin side
dis abled
U ST
s To
ĠTh read
un icode
create Element
< <
Ġe Z
Ġh ook
Ġselect or
De claration
set Value
Trans fer
UT E
F actor
AR Y
Ġw idget
vis ible
a u
Ġp od
permission s
Ġiter able
Ġp adding
lic ies
b ine
Ġre ply
Ġd river
H older
a a
scri ber
( ...)
t le
ip her
Ġmin imum
De pth
C tx
G R
Ġ2 55
Ġ" :
Ġ1 5
fore ign
get B
Meta Data
Ġ' &
[] )
J vm
Variable s
Im plement
ue ss
RE S
ĠE nt
b ot
C I
per cent
pro c
Ġmod ified
Ġch r
Ġc redentials
Ġopt im
step s
M T
_ {
s lot
Un ique
Ġw ell
custom er
ĠS E
task s
sh ould
è ¿
Ġ" ")
L Y
se lection
oriz ont
D etail
M achine
po sed
} `
Ġ čĊ
Ð¾ Ð
N ULL
Ġstr conv
ĠS imple
Ar n
Ġd iv
Ġhapp en
f name
Ġcur r
Exec utor
Ġpe er
enc rypt
host name
SS AGE
part ial
Ġed it
-> {$
) ?
Ġcall s
cord ing
W R
Y Y
channel s
ĠAn y
ĠHE AP
Stack Trace
Ġ es
Ġm etrics
ĠOr der
æķ °
Ġuse s
P o
ug gest
We ight
Ch an
Action s
Ġbound s
) ',
b lob
match er
Sub scription
x c
clus ive
N et
s imple
qu are
Ġs afe
n n
et ter
Ġle ss
or ld
Ġblock s
F C
ust ers
__ (
String s
time s
ĠĠ Ċ
al loc
Ġo wn
AUT H
= $
ant s
ed ges
s leep
Ġp ick
ĠCont ext
Ġr ate
OK EN
trans port
Part ition
Permission s
Ġk nown
isto gram
co ords
Content Type
ĠP romise
Work er
ĠCon nection
pe er
ĠC URLOPT
j o
at t
Ex ternal
Con stant
her it
writel n
s i
Array List
PO S
t ile
al let
ke ep
Ġse cret
a ff
ĠL A
' \
Ġto ol
pl ain
Ġis n
ad cast
ex ternal
Se parator
lay ers
T imer
o ck
T S
Ġcommand s
Ġbo ot
b est
th reshold
axonom y
Com plete
sub mit
Ex ist
Mo ck
[: -
red uce
H elp
res olved
Ġp latform
'] ]
Se conds
: '
Ġed ges
Ġn ested
ad ow
Ġpro per
red icate
instance s
Ġet c
ĠĠĠĠĠĠĠĠĠĠĠĠĠĠĠĠĠĠĠĠĠĠĠĠĠĠĠĠĠĠĠĠ ĠĠĠĠĠĠĠĠĠ
Ġs ym
Ġwork er
Ġd ot
escri ption
A V
ĠC ache
n ail
default Value
---- -
ne st
Ġdi stribution
Gener ic
Ġm b
key word
DO M
ud o
ĠV ar
Pack et
p m
Ġtask s
[ \
g u
} {
Ġp ointer
l if
ĠEx amples
ect ors
Dis k
R ad
u er
en viron
Un expected
ch art
Ġnum bers
Ġiss ue
Ġconfig ured
c ar
M any
Ġu uid
get Time
ill ing
orizont al
7 6
Ġpair s
Ġde lay
not ify
En coder
ultip art
process or
S pan
Ro les
t pl
ra cket
Ġs aved
B R
at ype
ĠĠĠĠĠĠĠĠĠĠĠĠĠĠĠĠ Ċ
D raw
p g
D R
Ex pected
Reg ex
Ġexp licit
P romise
Ġex act
Ġrepresent ation
dest roy
po logy
He ad
ĠV iew
Ġ 64
h andlers
O b
al s
col ors
Ġref resh
Ġh y
Ġcon struct
Us ers
Ġc ertificate
We ek
sc roll
ĠL e
L at
le v
PRO PER
track ing
B its
back up
Set s
HEAD ER
Ġmedi a
flat ten
I ss
M ail
Ġne ver
" ].
in ator
ĠC LI
Back end
andl ing
ĠA c
com ing
Ġclass Name
H andlers
Ġd rop
ĠDate Time
vide o
__ )
Ġ ut
Data Frame
Ġen able
ĠF l
Ġ" $
Ġextension s
CO M
" }
ĠIn itial
ĠA s
Con structor
Ġserial ize
T ABLE
an aly
Ġ{} '.
c redentials
C LI
INST ANCE
x FF
Ġlib rary
> `
P ag
Y ou
Ġse curity
ĠCollection s
ĠB ig
get Query
ĠEnt ity
ATE D
oo se
IG HT
il li
c ategories
s r
un ct
Ġa utomatic
ĠF irst
Ex port
dir s
Ġ' ');
Version s
er a
å Ń
fo o
P DO
dat er
ib ling
LOG GER
ierarch y
Cl ause
Ġmodule s
, "
Ġt yp
ĠP er
Ġad min
b rowser
(', ',
R andom
- \
Ġexception s
ĠT ask
Select ed
Back up
SO URCE
s in
Ex tra
oc us
Ġ"/ "
Dispatch er
Ġb ar
ĠS to
Ġset s
Se q
R etry
Ġem bed
E sc
Ġse parator
Name d
Del ay
ĠAss ert
Ġpro cessed
act ivity
ĠRe f
G en
} :
con structor
b re
x a
ĠR ed
LA B
andid ates
Ex tract
Cont act
g y
v ector
f amily
po und
entry Set
ĠTh ere
Ġstat es
P ass
Ġ) .
x id
ĠConfig uration
LI ST
'] ->
Ġf ast
Ġle g
Ġservice s
Ġ* =
Ġin v
count s
Ġ qual
Ġ3 0
Cur rency
Ġe ffect
s napshot
P y
Ġabs olute
col l
Ġ æ
Inst all
4 6
Sh ared
te am
T uple
greg ation
Ġ ~
p et
Ġn orm
ĠT ry
Ġpar sing
Ġde scriptor
Com merce
ent ities
ĠC ON
Ġp ad
t ain
ly ph
New Err
ctr ine
source s
m pl
Ġsm all
Ġus age
IT H
G RO
Ġrepresent ing
ST ART
ĠO S
ĠP l
TR AN
App end
S cheme
Ġsome thing
Record s
Ali gn
q a
Ġdimension s
ĠĠĠĠĠĠĠĠĠĠĠĠĠĠĠĠĠĠĠĠĠĠĠĠĠĠĠĠĠĠĠĠ ĠĠĠĠĠĠĠĠĠĠ
Ġ' ?
ĠY ii
Ġin cluded
SI G
red is
C lick
(...) ");
Re lease
se ed
Ġre ct
RE F
ĉĉ čĊ
Ġmatch ed
ĠProtocol Marshaller
=" '
: \"
CH AR
NewErr Param
Ġ" --
_ '
a ut
ĠW ork
ĠD ocument
'] ),
gr ad
T rigger
G S
Ġpre vent
Ġ ])
Ġs pan
ĠH e
umb nail
new Instance
Ġrad ius
st or
Render er
Ġp romise
P ages
y aml
ash board
Ġact iv
ĠN e
c i
f ac
L if
str tolower
Ġact ually
li es
v ile
Ġp atch
sub scription
cre te
Mem bers
TE D
iv idual
In to
ĠN ull
a cl
qui val
. '.
if ies
tt l
GLOB ALS
Ġagain st
e valu
ĠP oint
Own Property
At tachment
Ġac cording
ĠT ree
G oogle
Ġ angle
ing er
close d
At tach
Ġde sired
ĠM atch
Ġ'* '
Ġ escape
Trans l
Ġinst alled
\ /
ol er
j av
ç Ķ
ak er
Sc roll
load s
ampl ing
Ġd ue
SC R
j ected
se gments
Ġas set
ate st
Ġp ersist
rypt o
weight s
get E
Ġ(! (
ME SSAGE
Ġb lob
Table s
Con s
config s
a emon
FOL LOW
Ġun known
9 0
in u
ĠC ur
get Node
cl ud
LO CK
match ed
Al gorithm
ĠS end
= ',
================ ================
Ġsum mary
Ġcheck s
set opt
Ġf p
initial ize
å ħ
Ġp ending
pack et
Ġlist s
Trans lation
B ASE
Mark er
h r
is m
ĠAttribute Error
] {
Ġp s
Ġfor ward
Ġg ra
Ġconfig ure
get File
ĠO peration
M ain
Ġaction s
L ang
Ġg rad
ĠB lock
P RI
get Code
() ):
Block s
le ms
A F
M ut
ĠY ou
render er
IP T
Ġpro gram
Ġcre ating
UN T
Rout er
Ġwarn ings
S UB
Rem o
k a
Ġrel ated
Task s
set Name
T ick
Ġ1 1
LE D
w alk
x d
H ex
am ma
. )
t z
(" <
RA Y
at al
H A
5 8
P ORT
i um
ct rl
ot ential
ef ficient
Ġp id
ynchron ous
n ative
4 7
i cket
++ ]
Ex ecute
Ġimplement ation
(" -
stri ction
Ġne gative
Pre sent
Ġexp and
Mon itor
re peat
sec ure
` )
M IT
property Name
cho ice
Ġm achine
is o
clud ing
vers ation
dum ps
Fore ign
B ranch
ĠP ri
Ġd ump
ĠG enerate
VI CE
Ġv irtual
V M
sc reen
Code s
UN CTION
Ġm ut
ĠG e
C ancel
S heet
Ġ' __
T eam
Ġr c
Run ning
Ġg it
Ġ archive
Re set
Ġax es
Ġc ookie
Me asure
LO C
RE G
com ments
S can
el ist
ĠDefault s
us age
Ġmark er
å ®
ĠRuntime Error
) ==
Ġid entity
end swith
ĠR out
conn ected
Ġc ir
serial ized
lic ense
ep Copy
Ġauth entication
In clude
er ial
m g
Ġpart ial
er ved
Non null
at tachment
Al low
el s
Ġcase Ifc
ĠS chema
D istance
ro ke
i ke
be an
scri ptions
Tri m
p orter
get Method
Ġal ign
cl azz
Ġcon sumer
ce ed
= _
.. ..
å ¤
Ġb ig
g gle
Ġor ig
Ġ' @
Ġne ighb
Ġs cheme
Ġre ject
version s
ĠV ersion
Ġsup plied
Z ero
Table Map
ph i
4 2
Ġst mt
f c
Ġse ed
pol y
Ġdepend ency
ĠO ption
P L
p ay
Ġstd err
con sumer
ĠI S
Ġme mbers
0 7
Ġres olved
NG TH
du cer
ĠTR UE
pp ing
t yp
Ġcase s
Ġl in
il led
WARN ING
m achine
SH A
filter ed
ax es
r gb
02 75
\ ""
DE X
ser vers
Ġread ing
Ġs lot
Ġdepend encies
LE NGTH
] ));
fo c
i ally
t ip
se ek
Data set
ĠA ct
E Object
c red
get Entity
Ġt ick
ff ers
Ġper cent
Fra gment
F E
entic ated
Ġpro c
Ġdis patch
ĠS ession
Ġvis it
Ġstr ict
ĠG roup
dim s
b us
ĠW ith
Ġv ertex
Ġconvert ed
Ġsh ared
C riteria
Ġit self
e qual
set Parameter
Ġb ad
f a
st er
MP TY
User name
get Response
E M
ol ation
Ġph ase
get Context
Ġversion s
add itional
Ġse c
ĠJ ob
get Service
fra gment
on ce
order By
entic ate
Ġlink s
e q
m ult
ar b
Ġ ON
Ġappro pri
Ġpart ic
9 5
pi pe
, \"
pack ages
Class Loader
ĠSe arch
"] ["
Ġk ernel
Ġpermission s
user Id
ue st
or ing
Ġal loc
C ss
spec ial
rad ius
Ġs k
'] (
ad o
ĉĉĉĉ Ċ
cre ase
Ġwrit ten
ĠInput Stream
a ug
depend encies
f req
Ġf ixed
/ "
Re vision
ĠCon stants
P ush
Ġare a
p n
ref s
({ '
Ġc our
P S
a res
IN VALID
get Content
for ward
ge o
Sh op
Ġ' +
Ġprob lem
as sets
h ide
Ġf ire
Ġc li
c wd
Util ity
O IN
bin ed
ot a
ĠS I
B us
vi rt
ain ers
4 3
6 7
Ġm ac
de leted
Ġs n
o v
Ġ icon
Ġt w
Un supported
. %
Ġs chedule
mark er
B ro
ĠLink ed
b ig
[ \"\\
Field Name
ch r
medi ate
Ge ometry
. \
resh ape
in c
$ /
(' --
S V
ĠĠĠĠ ĉĉ
ne ed
fl ux
Ġwarn ing
Depend ency
')) )
Ġpos itive
d ro
) "
] ).
et ype
sub scribe
im ate
SCR IPT
get X
dis k
bound s
99 99
avig ation
I Z
Ġh istory
ĠC re
Pri ority
Event Listener
Ġcomp ile
Ġback ground
C C
url s
ec ycle
Ġchar set
S creen
Ġsh ift
Ġformat ted
has OwnProperty
g ate
NO DE
map per
en ar
S core
and s
Ġpri ority
ĠHash Set
F ixed
Ġp erm
RO OT
plot lib
Ġfilter ed
per ature
Col lector
il ation
t imer
( \"
Ġret val
ĠForm at
Ġed itor
UP DATE
Ġdef er
re cursive
li d
S PACE
Ġfe ed
Ġc ast
co d
Default s
ab ly
ĠU T
M AP
() }
ĠN ow
Sup ported
sen ce
de p
Ass ert
Ġmer ged
Arch ive
index es
target s
ik i
ATTR IB
ve c
M ore
Sh ip
Re po
M erge
T OKEN
(' {
H int
ph one
E s
", "
Ġre store
Ġm ount
Re ason
ator y
NON E
status Code
(? :
ĠBuffer ed
i et
Ġb ottom
current Time
Ġ< /
ĠĠĠĠĠĠĠĠĠĠĠĠĠĠĠĠĠĠĠĠĠĠĠĠĠĠĠĠĠĠĠĠ ĠĠĠĠĠĠĠĠĠĠĠĠĠĠĠĠĠĠĠ
IT ION
cept or
plic it
ir y
Ġ': '
Ġcall er
sh ared
re mo
St andard
An not
' "
S R
Ġan alysis
l c
Ġstart ed
S el
get De
Up dated
Ġimplement ed
Ġautomatic ally
I llegal
T em
Ġad just
Ġc andidate
ĠH tml
Be gin
com merce
Ġp ur
in ess
Ġy ang
time zone
B alancer
Ġnd array
u ite
Ed itor
string ify
Ġfl ush
ĠDI RECTORY
Ġbind ing
ys ical
char acter
Defin itions
ĠCol or
UR N
Vis itor
(" .
iz ing
Ġsh ell
ĠEx pression
Match es
6 5
S ample
D istr
in line
as is
Ġover write
ap s
Ġlo ader
de scriptor
Co untry
Link s
â Ķ
Cont ains
Component s
Ġsuccess fully
urn al
Ġtable s
F LA
p erson
Ġresource GroupName
PT ION
ater ial
st andard
ss h
} ()
c nt
' ",
Ġj s
de li
Ġk w
c id
Ġf ree
ail ability
Ġsource s
q b
Ġiter ation
li de
Ġm enu
ass oc
etrie ve
: ])
ĠW hether
Orig in
He alth
Ġgre ater
Custom er
h our
as cript
Sh ape
can not
Ġ\ '
rom pt
C UR
m argin
Ass ignment
e ver
ĠCol umn
P atch
Art ifact
ak ing
job s
B asic
n able
Ġe val
di an
ist ent
Ġs y
Ġy aml
Ġm apped
Ġd en
relation ship
Ent ities
ur able
Ġr v
Bag Constraints
g ot
Ġs at
ĠI tem
T ile
Ġnot ification
ĠLoc al
ag raph
cal endar
section s
S lot
ix in
Debug f
ro s
De coder
anit ize
get Text
EV ENT
e ff
ord ers
ĠS up
ir d
abs olute
CA CHE
lo ser
Ġme asure
E valu
iz able
M aster
Ġdis abled
ace s
U SE
Ġcon stant
Ġconn ected
Ġo perations
c art
av es
With Context
Ġmod ify
name d
ĠW indow
Ġde corator
ĠV ector
Pro gram
Ġany thing
d etail
Re ply
SE CON
The me
con firm
php cs
com press
ĠĠĠĠĠĠĠĠĠĠĠĠĠĠĠĠĠĠĠĠĠĠĠĠĠĠĠĠĠĠĠĠ ĠĠĠĠĠĠĠĠĠĠĠĠ
Ġplugin s
b g
AN GE
ex pect
Ġse en
Ġde v
Ġge ometry
Ġg u
a e
Add resses
ĠEx ec
ĠA p
I I
get Connection
PROPER TY
method Name
ĠData Frame
am ps
Con version
do cker
in f
ic ally
Ġwork ing
get Object
d p
str ument
cp u
request s
b le
t ail
Close d
L ex
r ing
back tracking
0000 00
|| (
du ction
Ġcom ments
reser ve
8 5
Fe ed
spe ction
Ġstep s
Ġd igest
ran k
T LS
Ġchar s
Ġin voke
d x
Ġde precated
J s
! !
] []
Ex cel
r atio
serial izer
Ġh elper
ro py
i j
work space
Ġ: :
Ġf name
exp ire
ĠĠĠĠĠĠĠĠĠĠĠĠĠĠĠĠĠĠĠĠĠĠĠĠĠĠĠĠĠĠĠĠ ĠĠĠĠĠĠĠĠĠĠĠĠĠ
parse Int
ĠM em
Ġallow s
sc all
Ġnum eric
Ġc atalog
Ind ent
Ġp ipeline
ĠParam eter
r al
Ġback up
è ®
Hash Map
Extension s
\"] (
G L
n c
Ġn b
Ġr ank
author ization
) '
i os
ĠArray s
1 000
F UNCTION
Ġn one
Ġm et
Function s
Ġi v
get All
s y
en ch
Column Name
Ġhost name
D irection
d ic
al er
lo ss
foc us
sh ell
o ices
Ġw in
Ġ[ -
Re quire
g ree
} ',
un safe
riter ion
n l
re maining
Ġp ol
Ġd etermin
W ords
Ġindex es
ĠString Buffer
k it
Ġal ong
d m
) ])
Ġter min
( [$
a ren
__ .
B order
(' .',
igr ations
Ġad apter
ward s
Ġcol ors
Ġb asic
art icle
OR DER
Work space
] ",
ap er
gre es
tw ig
An aly
9 7
ĠA ccess
ul ator
f act
Ġan aly
Ġj av
et te
f ront
Ġappropri ate
Ġ By
A ST
Ð »
ĠR el
ĠB ack
cri pts
ce eded
get Table
ip s
ar c
Ġreg ular
to k
:: _
ri c
{ '
Ġl ang
Art icle
pe ar
('/ ^
re ject
è ¡
sess ment
Ġcol s
ter ms
ĠV AL
Ġc r
LO AD
Ġpy lint
ard s
on s
errupted Exception
' d
Ġ" ."
ne ighb
St ates
Ġs olution
Ġw rong
Ġw rapped
Array s
ĠS kip
se nder
æ ĺ
Th reshold
ĠP O
Ġc s
yml ink
" ',
ĠP rint
Ġnormal ized
function s
Re st
Ġ\ \
e z
Ġapp lied
Ass ociation
Ġchannel s
it tle
B ER
an notations
ĠSt atus
LA Y
". $
process ing
R PC
Ġtarget s
ĠT ag
Ġc c
B reak
De leted
Ġup dates
ge ometry
S yntax
D iv
G enerate
S rc
ĠA ction
Ġse gments
Log ging
St mt
get Local
Cap acity
Ġcour se
M ust
OB JECT
ĠĠĠĠĠĠĠĠĠĠĠĠ ĉ
ĠCont ainer
de cimal
Org anization
de ep
ĠD i
En able
Un its
m ultiple
å Ĭ
asc ii
ĠIn ter
Ġformat ter
Sup er
x path
-> __
S ent
ĠD on
ĠAl so
WOR D
list eners
ĠC lose
P erson
Ġa m
g ateway
pe ed
Ġc ss
Ġs creen
MA GE
ON G
s oft
at ibility
ĠS ign
Ġg lob
and sh
Ġl v
Ġmethod Name
n av
in crement
P op
ex pires
oo th
phpcs File
Ġw alk
Rout es
Ġtrans port
Ġno qa
get Element
ç »
log ical
CF G
cli p
plic a
Ġt ensor
Model s
CONT ENT
De cl
B in
Se gments
AR RAY
sing leton
LE MENT
C lean
v endor
Ġpos itions
~ ~
um an
! ");
O ff
ĠRe cord
cal culate
] (
am az
4 1
Module s
g lob
so ck
O ld
Ġreference s
Ġ5 0
or ph
Ġ$ $
ĠM ax
m kdir
F inal
Ġcom pleted
Reg istration
Con st
IG N
' ve
t ls
> ");
P k
k b
A SC
U sing
Type Name
Work flow
Response Writer
ĠĠĠĠĠĠĠĠ ĉ
Data Source
mb ed
man ifest
GRO UP
oler ance
log s
Ġh params
Ġgen e
O xid
z en
Ġres pon
j ango
or th
Ġcheck ed
P latform
Ġ% (
Y PE
D om
quival ent
] ["
dispatch er
ĠEn sure
amaz on
e v
nest ed
pro cessed
can vas
re v
ver sed
AD D
ĠNO TE
Ġtrans ition
Ġart ifact
> ";
Ġfile Name
Ġdefault Value
Ġd om
Request s
Ġin stant
Ġdet ect
9 6
am ing
ĠSto re
as y
to upper
Gener ated
g z
En dian
fin der
m iddleware
QU I
I t
Ġ Qu
ĠC l
Ġday s
| '
'=> $
j ax
V oid
Cont ract
Relation ship
ay be
Ġb ash
ĠF unc
FOR M
ust ed
OR M
P ay
t re
ĠL ook
arn ing
N V
de limiter
Ġm s
sh utdown
e ch
escap ed
fp lib
ĠValid ation
ad apt
Ġu id
Ġ Logger
fplib Package
ass oci
ĠUtil s
Ġt imer
Ġar ound
Ġc loud
Bl ank
X base
H y
get Body
Ġen um
Process ing
Ġcon v
Ġqu ote
ag n
() ];
r p
p ipeline
w b
ĠX ml
Orig inal
virt ual
Ġe ar
Ġal tern
wh ich
d if
al gorithm
ĠS ave
E OF
i very
G IN
ĠM on
Ġ10 24
es is
order ed
ul ated
Ch art
Z ip
st ub
fra c
depend ency
C losure
om ent
ĠSer ial
L IN
Ġcheck ing
O k
U sed
parent s
_ (
im plement
se g
add Child
Transform er
c ue
ch at
r us
st age
cu it
Ġ[ %
] ],
ar row
me s
Ġat t
Fl ush
ation al
Pre vious
S AR
Ġc os
Char s
M ount
key words
ends With
am era
Ġent er
ĠP lease
be at
re cipient
db c
fo ot
P redicate
. +
Ġm is
EN CE
Ch anges
Ġen ough
iss ue
Ġreturn ing
ĠS ort
Ġch art
place holder
Es ales
Oxid Esales
9 8
work flow
N aN
Ġvar s
throw s
Ġadd ing
ĠJ ava
Ġoutput s
Ġh old
pri v
fix ed
bl ue
l t
Var iant
i pt
m ost
Ġnot ify
sv g
lib rary
Ġpri or
al ert
iv ot
Ġc sv
re m
resource GroupName
host s
f loor
Ġuint ptr
] }
format s
ĠL ine
iter able
ĠIm port
get Logger
ĠD OM
Down load
get Session
print StackTrace
gener ated
inger print
RE NT
cho ices
Info s
ĠS top
Ġct ypes
] ])
app s
ĠM ust
D igest
th at
Ġin crement
mon itor
opt Params
Ġcount s
Conn ector
G u
Ġpack ages
('/ ',
M ake
f w
con stant
Depend encies
Ġfin ish
Ġsc roll
m ust
, )
ĠĠĠĠĠĠĠĠĠĠĠĠĠĠĠĠĠĠĠĠĠĠĠĠĠĠĠĠĠĠĠĠ ĠĠĠĠĠĠĠĠĠĠĠĠĠĠ
Ġf requency
us ing
cur ren
Ġtemp orary
ĠU N
p in
prom pt
Ġl atest
S ig
ĠArgument s
al iases
Ġt ail
ĠC O
') [
Ġ[ (
(( (
Ġlon ger
d ns
per m
C fg
([ ^
" \
config ure
Job s
normal ized
obj Writer
chem as
Ġfig ure
C B
con stants
av el
Ġmatch er
r u
ĠCom pute
pi ck
Ġchunk s
ä º
frame s
12 8
Ġ'- '
con struct
ang ular
Ġread y
Ġcon ditions
æ Ī
ise d
CO MM
un ce
parent Node
Ġ++ $
CRE ATE
Ġb rowser
vent ory
non ce
Ġre cursive
ĠG raph
Col s
DE D
late st
Ġman ifest
As String
not Null
Ġscal ar
ask et
Defin ed
ĠD atabase
E shop
s yn
Act iv
Ġsuccess ful
Ġh andlers
roll ers
d ating
d igit
Ã ©
opt im
Ġevalu ate
ĠS w
Attr s
i q
Ġro ll
ĠReg ister
M ultiple
Ġ'/ ')
IN DEX
c ity
String Utils
ã Ģ
Public Key
m un
query Builder
Ġsig ma
il ent
con verter
ĠM ulti
ph ase
bin s
ĠĠĠĠĠĠĠĠĠĠĠĠ ĉĠĠĠ
Ġu c
ref lect
Rel ated
ĠNo Such
S m
Ġ1 3
class name
style s
H ome
Ġ$ .
Ġlist eners
O ps
cy cle
u a
new Request
Ġ5 00
W alk
æ Ĺ
Ġpre dicate
m c
M ove
7 0
cal c
un der
Assign able
im pl
art y
Ġrelation ship
w ar
key Set
X Y
UN I
Ġt eam
ĠRe ference
aj or
enar io
h int
Ġse ns
ret val
aim s
W A
set Property
ĠS ource
ĠF loat
co ord
sub mission
A WS
it elist
Ġe p
Ġco ver
C atalog
Qual ified
it ter
Ġinter pol
ach ing
UM N
ash es
Ġab ort
Ġpop ulate
pl ural
ma j
F ld
m x
Not e
Write String
HO ST
p ur
m any
ĠV er
O FF
constraint s
æĸ ĩ
Ġinvalid Params
ĠTh rowable
], [
I V
Ġsent ence
Ġfra gment
unc ate
Ġb ug
rit ical
Ġvalid ator
Ġval s
d en
qu ent
Ġin tegr
Ġas ynchronous
format ted
CO UNT
in ct
th eta
I E
Ġf d
Ġt akes
DA Y
Ġconsider ed
D rop
in ject
al formed
= {}
p lier
user Agent
em s
AR D
Cal cul
Rep lication
c ir
ho od
Type Reference
Ġme sh
scri bed
prec ision
[ _
re store
un pack
TER N
ob s
stit ution
Pro b
G it
o res
ip v
ä ½
Ġst age
De v
k v
P ending
get Next
Ġtrain ing
Ġp ub
m igration
mer ged
Ġt urn
gen e
get F
Ġe v
O ther
Byte Array
Ġ' ]
s ince
get Max
Ġd x
Spec ification
Ġf allback
ame l
P ipeline
a udio
ume d
çĶ ¨
= -
ĠC opy
g g
Ġc ent
t ensor
ĠM AX
fin ish
mo use
andsh ake
res se
Ġde limiter
iss ues
Ġfin ished
C ost
ag er
ĠT ra
Ġevery thing
B lob
M appings
Ġsub process
rr or
Per cent
vert ex
se l
sig ma
Ġd ynamic
uto ff
Ġtrans l
Plugin s
currentTime Millis
Ġ' [
ĠCal culate
Ġg l
ener gy
ĠM o
iz ations
ri end
form s
leg end
ph rase
Ġcell s
Ġbu ilt
m ore
MO D
S dk
Ġ answer
Ġpre cision
s rv
å Ľ
ĠB Y
B oot
transl ations
ĠSQL Exception
N ative
= ""
let ion
Ġob tain
Ġp andas
ĠM odule
Le g
AX B
C redential
ag ger
me asure
Ġs yntax
ak en
5 4
Ġ" ]
ĠPro perties
Ġinitial ized
Ġin spect
ĠM od
Ġsub scription
reference s
list s
G EN
all eng
TE MP
V ert
pro x
fail ure
\ ":
ĠE ach
Servlet Request
" ];
__ __
N ested
pe ak
Ġm akes
b asic
St age
Ġs yn
ĠO ne
Ġp lease
Ref resh
Ġdo cker
ĠF F
ĠCom p
L ANG
` :
m ass
in ate
PA GE
w all
Ġl arg
mo ck
ĠH ow
ĠD O
B ACK
ver ity
ĠA fplibPackage
ĠIm mutable
H igh
Ġel s
as ource
Con sole
G rant
Ġfail s
b os
com poser
ĠEx tract
String Builder
scalar Node
Mo use
Ġgener ic
Ġf act
Ġto k
B rowser
Ġd uplicate
LI MIT
Ġh idden
Ġ) ?
Ġb order
du ced
ac c
SAR L
last Index
I R
Ġp ages
Ġan notations
Index es
hook s
ĠVAL UE
re vision
Ġdest roy
Set Context
po wer
re p
Ġ" {}
AN T
Config s
Ġdirect ories
Ġm ade
D en
S cheduler
Ġcon cat
ĠF e
Con ditions
For ward
Reference s
Del ta
Implement ed
ER Y
Ġen c
Ġe le
Tra cker
C enter
st amps
ĠApp lication
j i
at tempt
ass ociation
L D
An gle
Ġ[ [
Del ivery
== '
files ystem
In vocation
Ġpre dict
b c
Ġc riteria
AME TER
Fe atures
transl ator
Ġse p
ĠAn notation
Rece ived
last ic
Ġ -----
ack list
set Text
res ize
Err Invalid
ib m
ook ies
Ġco ords
chunk s
Ġp ower
5 00
ic les
ph ab
curs ively
t as
out il
Al loc
T ODO
connection s
pair s
Ġsh a
Not ify
warn ings
Http Request
R ot
ic ator
z on
P K
vel op
pan el
ial ect
ast ype
pol l
c mp
play er
6 8
pro gram
Ġind ividual
7 2
exec ution
t k
get Column
Key word
ac ing
_ )
t axonomy
ot ion
Man ifest
ĉ ĠĠĠĠĠ
Ġ1 4
trans ition
ins pect
Ġs v
Ġp ull
Ġtuple s
P R
Ġres cue
Ġent ire
cu ssion
ä» ¶
Ġn ative
Access or
w g
li ance
Ġter ms
: ",
var iance
Ġli k
At tempt
//////// ////////
get Model
Ġw x
Primary Key
En cryption
m icro
cook ies
ĠM ark
Ġact ivity
getS imple
Fin der
K NO
Ġs sl
cell s
H ub
ĠE X
Ġraise d
tc p
g able
Del im
Ġe poch
en ant
De precated
Ġch an
ð ĳ
get Client
ðĳ Ħ
Ġc op
Ġb etter
By Comparator
map s
b a
mo us
C D
po ssible
ĠI gnore
ĠJ OIN
ĠL E
Ġgo od
gram mar
d ap
g ame
Comp iler
P ixel
get Error
(' \\
F ollow
b ank
In dices
un ded
get Root
Ġmon itor
gener ic
-+-+ -+-+
av en
ĠT emplate
ĠI NT
prom ise
w ig
f uture
y es
Ġm ult
E MPTY
Access Token
Ġd ialog
Ġg p
Ġflat ten
C U
register ed
ĠIter able
UT C
medi ately
Ġco ordinate
ony mous
Ġrule Jvm
Ġext end
level s
Apply Options
Command s
"] :
err s
Ġm icro
Ġde cor
tag Name
else if
P lease
get Last
Ġsim ilar
al ette
d ialog
With out
Ġde p
Pr incipal
F ix
Com pute
rel ations
A CTION
ĠCom ponent
R Unlock
Ġp t
ld ap
ĠID s
m id
Ġwait ing
Read y
mag ic
Y ii
activ ate
get Source
Ġc ar
Ġ', '
k log
Ġ arch
co st
ĠIO Error
7 9
Query Builder
S afe
Set up
Co ord
gre en
el lo
ä¸ į
Ġadd resses
form er
Ġreplace ment
5 01
ass ignment
wh en
Rel ative
M anaged
Ġwork s
SC A
} ")
Distr ibution
5 2
S ince
] /
Ġbound ing
Ġassign ed
Tem plates
Ġr atio
C SS
P ane
Ġent ities
| \
Up dates
s a
Ġcal endar
'=> '
(" ",
en ance
ch a
Ġle x
Tag Name
Ġh it
art beat
c andidate
pl us
ol r
7 4
Ġc ycle
E LEMENT
l as
m form
s aved
f fic
ient ation
an te
+ '
Ġserial ized
f iler
ĠC P
Ġload ing
Ġl arge
g c
state ments
aw t
ĉ ĠĠĠĠ
Ġde cimal
Ġ(( ($
RE T
Ġmay be
Ġcon d
M s
ĠB ad
Ġ --------------------------------
N A
Lo aded
tod o
re pr
5 3
Ġc ross
ĠPro ject
od le
ad just
O W
Ex ample
cl ause
C LO
LE FT
Esc ape
ff ff
get Header
Ġ\ $
" +
b log
im plode
TR Y
Ġh andling
Ġb eta
get Base
start ed
d ynamic
T ensor
re trie
ime Type
get First
ĠSt orage
(! $
Ġse nder
Ġ! (
Ġtry ing
null able
R atio
bre vi
vok ed
nd im
Ġjob s
igr ate
me sh
(' ',
ig u
Ġde ployment
Com ments
Ġsequence s
Ġdocument ation
P ub
Ġre duce
T OP
Ġexec utor
Ġ' );
go ing
Mod ifier
Ġon es
Ġsh utdown
Ad ded
S ide
LE V
Ġwh ole
ast ic
ap es
Trans ition
str ategy
O perations
Ġconnection s
Ġc ost
m is
m ant
Con d
ĠSh ould
auth entication
set Data
PO INT
Ġtrans late
Ġcont act
Un iform
Ġcre ation
Ph one
(& $
get Absolute
ly ing
are st
pre d
Print ln
Que st
com parison
Sub net
Ġclean up
ĠTrans action
t ar
out er
Ġcon verter
iz ers
pos al
I AL
g i
ĠN etwork
sh are
Ġiter ate
Ġ ord
8 4
Ġvis ible
pattern s
t ot
all ery
B ook
so me
). '
Ass oci
Ġpre diction
C OR
P Y
HTTP Method
M iddleware
TR A
e of
QU ERY
Ġrece ive
R Lock
l anguages
M AN
ool s
Dis abled
Ġwork flow
e poch
m apped
Ġbe havior
Ġco untry
un lock
SER T
> =
ĠVar iable
Ġspace s
ĠWindow s
M er
Iter able
author ized
æ ŀ
Ġb us
AT H
depend ent
n it
cal cul
Ge o
Ġservice Callback
um my
getSimple Name
sp lice
- '
r d
ap sed
ĠĠĠĠĠĠĠĠĠĠĠĠĠĠĠĠĠĠĠĠĠĠĠĠĠĠĠĠĠĠĠĠ ĠĠĠĠĠĠĠĠĠĠĠĠĠĠĠĠĠ
Com pare
uplic ates
Ġauthor ization
R M
Ġuse ful
cogn ized
alleng e
Ġpl an
Ġlook ing
O Auth
FI L
F ree
Ġi outil
Ġbase name
4 04
lev ant
Ġpar allel
Im ages
Ġp ipe
BY TE
Ġcan vas
ĠN AME
Ġ$ (
boot strap
respon d
å ¼
ĠT uple
C CESS
T ax
tr as
new Line
Page Link
Ġun pack
Ġother lv
get Repository
Start ed
Lib rary
l iteral
Ġ" #{
A SS
W ID
pre dicate
get ter
Ġels if
err no
ĠEx t
6 2
de scribe
D ist
'] []
Ġ(! ($
re name
ser ved
Com posite
Ġcomp iler
Ġtra iling
Ġcollection s
Stat istics
" '
=' ',
F ill
ĠFI X
ĠP AR
callback s
output s
bl ank
ĠG it
Ġin struction
ifi able
ĠP ost
E W
'] ));
response s
Ġv ery
TIME OUT
D ynamic
on ed
Ġlay ers
o urnal
ro tt
Ġd y
Ġl a
n r
he st
Ġs s
Ġres pect
Ġc m
pan ded
evalu ate
Client Execution
pan y
frame work
Ġcalcul ated
Pri mitive
Char set
fin ite
w ire
set default
defin itions
Load Balancer
es ource
Ġcomp atible
phab et
Ġco efficient
bind ings
Ver ify
at ial
maj or
lin eno
H idden
im en
agn ost
f allback
R ound
m ysql
ĠD escri
Ġbefore ClientExecution
Ġbl ank
Ġdir name
writ ten
ron o
Ġsup ports
stack Ptr
} ";
Ġ1 9
ĠIn stance
Ġstart s
e ffect
b tn
ic ip
{} '.
is Assignable
f q
read cr
Ġs u
th rough
t ax
Ġ Id
NUM BER
ont o
E ven
M AR
pe g
Ġe st
cur se
C ached
P UB
ri ve
Ġ{ @
iter items
Byte Buffer
E quals
Ġspec ification
Ġfra ction
Ter min
get Status
Ġget ting
MS G
B B
Conn ected
Ġpre tty
j ar
Ġget s
} ");
Ġc at
Ġb ot
ĠĠĠĠĠĠĠĠĠĠĠĠĠĠĠĠĠĠĠĠĠĠĠĠĠĠĠĠĠĠĠĠ ĠĠĠĠĠĠĠĠĠĠĠĠĠĠĠĠ
ĠU I
HTTP Path
Ġcomput ed
ertific ates
PAR AMETER
r w
Ġcheck sum
ss ib
U nt
c rop
ĠO p
Ġ( -
Ġs ur
ced ure
get Bytes
Ġse g
array copy
Ġexec uted
pre view
spec ific
other lv
ĠFF DC
is file
Ġcl ause
z oom
as List
return Value
Log s
l a
ex cept
ed Dict
Ġa verage
6 9
ĠC ustom
Lock ed
ĠInitial ize
mg mt
ĠCh annel
Ġcur ve
OP EN
Pre v
Part ial
æĺ ¯
Err s
FF FF
Wh itespace
" `
Ġw on
P adding
h i
s izes
read able
: ],
Ġmap per
get Int
ang les
Upper Case
P M
Ġt z
Ġ' ('
ĠInternal SARL
q s
Ġd igits
ram mar
re ction
Ġin line
Block ing
ol s
ig hest
ĠService Future
serv ation
it ation
ĠY ANG
M y
Ð° Ð
Ġe ps
F amily
ip pet
Ġres olution
Ġg ive
Ġwh itespace
ĠUn supported
Ġexplicit ly
p d
ä¸ º
Sk ill
it al
column Name
Ġprob ably
help ers
ma zon
D ot
L ATE
} ),
Ġv s
ĠThe se
DI RECTORY
Inv oice
ĠĠĠĠĠĠĠĠĠĠĠĠĠĠĠĠĠĠĠĠĠĠĠĠĠĠĠĠĠĠĠĠ ĠĠĠĠĠĠĠĠĠĠĠĠĠĠĠĠĠĠĠĠĠĠĠ
ĠSe curity
Ġdevice s
ĠByte Array
F INE
le af
per form
(( *
Can onical
ur ther
Ġp lay
li ces
L F
bs ite
SER VICE
lo ur
qu eries
F ire
T mp
on al
Ġinter pre
remo ved
IF C
U D
event Name
Ġge o
Ġconstraint s
W ITH
Private Key
m time
5 7
un nel
Return Type
s olution
Ġgo ing
en coder
Ġmin utes
Check er
Cur ve
Ġcal c
Ġc red
el i
LEV EL
get Container
Ġhandle d
decode d
a i
z A
deli very
at ives
get Width
Ġe qu
namespace s
Ġ? >
COL OR
From String
F ront
velo per
RE SOURCE
Ġorder ed
st ar
(" --
Ġwe ek
max imum
Ġtem plates
c ertificate
amazon aws
Ġout side
dimension s
Ġpattern s
base d
Ġthread s
Ph p
x s
ut c
ĠRout e
ĠP attern
al ity
ad s
COL UMN
Ġ( @
ĠB it
an alysis
B o
t m
Ġdet ected
di ag
ag gregate
lic ations
j ac
Ġf ront
Sign al
Get ter
ĠM atrix
8 9
de ploy
Ġf all
ĠIf c
Ġro les
ĠNot es
cas Type
f r
comp ressed
ou ch
gener al
Ġ Entry
ut ing
ĠC R
ä¸ Ģ
Ġa ff
i or
ĉĉĉĉ ĉĉĉĉĉĉĉ
ĠU UID
cul ar
S ym
Ñ ĥ
Ġw s
Group Id
isAssignable From
item ap
M ac
Ġre vision
KNO WN
Ġfield Name
for um
(' [
Ġs in
sent ence
Ġ) *
ĠDescri be
ĉ ĠĠĠĠĠĠĠĠĠĠĠĠĠĠĠ
f v
s ame
Ġ und
Ġin cluding
Ġo l
ĠW ait
Ġsign ed
ĠCre ates
Ġsim ply
Ġnew Value
po w
get Item
lex er
6 1
se udo
Run ner
') ]
W T
ing leton
Ġh our
loc ations
cogn ition
C lear
Ġ ans
Ġlog s
Ġle ading
N C
Type Error
up dater
oc ial
ĠIn st
ĠP RO
ep s
get Version
In line
Ġcode s
æ į
Ġ) ->
ĠJ AXB
Scal ing
an chor
pre ad
node Name
Ġab le
ar ange
Co verage
com pletion
. <
at ar
ĠT est
Ġh ome
ĠAdd ress
Ġdefin itions
Persist ence
pos itions
Pro t
pre dict
Ġcom plex
av or
p ull
ar ing
Ġp olygon
Ġs urface
Ġin ject
oc ity
Ġbound ary
sw ing
E P
ĠH as
Ad resse
J ar
get Host
te in
NewErrParam Required
ĠA R
Ġac c
Ġ" {$
ĠCur rent
V ideo
h ist
âĶ Ģ
v ation
co uld
d id
Ġinclude s
S im
call er
Ġp rompt
oot er
b and
Ġre name
bos ity
( .*
P erm
Ġt ar
li k
ĠCal endar
L T
Ġ KEY
Ġl iteral
File Info
Res olve
Ġde ep
service Name
Ġvert ices
A ML
F R
Ġc n
, .
Ġv ec
and atory
Ġqu eries
ex ist
Num eric
Ġout er
Ġrout er
T ry
un able
Tool s
Ġc losing
Ġcom parison
Ġd r
ĠUn marshal
Ġ"/ ",
Next Token
Not Exist
Ġp g
At trib
Ġc ms
c ampaign
Ġcom merce
org anization
St amp
CON N
Day s
Ġre p
IN IT
: ',
Ġre ally
Ġv ideo
FIL TER
pi e
b ra
Re cursive
get Elements
Ġ" :"
Ġfull y
M ult
Ġre cover
Connection s
f un
/ .
Ġs pa
D NS
s ur
Ġim mediately
to uch
Ġc y
Ġ4 00
Ġparse Int
(' $
Ġr and
post s
Al pha
Sl ug
Ġget All
_ %
min imum
Ġpartic ular
l r
s at
ĠSt andard
End points
P ull
s ites
device s
Ġf ac
Ġth ree
Ġ'_ '
w rapped
Ġfind By
g iven
Cre ation
get Target
? )
Ġsend ing
Ġ" ");
Pro vision
Ġwh ose
RET URN
L aunch
S ame
Ġm u
) ];
ter min
Ġh ard
pix el
à ¤
ex plode
ĠA nd
Number Of
comp et
vi ded
oc ab
C N
S oft
add resses
Ġi i
! (
b am
ĠRe place
F ocus
P P
Ġde ploy
Ġsh ard
Ġline ar
Ġ" #
Ġstr ategy
Iss ue
pe ated
bu ilt
ĠĠĠĠĠĠĠĠĠĠĠĠĠĠĠĠĠĠĠĠ ĉĠĠĠ
Ġservice Name
Window s
ĠRe pository
Ġpixel s
S yn
th ers
w ind
set Type
Ġ" \\
Ġdefin ing
get Start
ĠSe lect
DI S
N an
se en
FO UND
Ġd ns
Ġ1 8
Ġ} ).
ĠC loud
E AR
Ġf req
ErrInvalid Params
get Result
get Child
Be havior
Sel f
Ġc ard
Ġan not
Qu antity
abs path
Re view
Ġp anel
Ġe vt
inv oice
Ġch oice
cip her
Ġg r
Persist ent
% (
6 3
> ');
d up
Ġover lap
Ġm id
ET CH
Error Code
Ġwrit ing
Sw itch
{ {
sup port
Ġ( :
Ġass ignment
Ġg uess
posit ories
Ġdif ference
er os
Ġjav ax
-- )
C red
ĠD ict
Col lect
t or
J B
p or
En ter
line ar
Ġparent s
Has Prefix
Ġc f
Ġrule X
AC L
or ical
ĠR ender
E mbed
io us
Ġsub set
rag ma
Ġresult ing
Ġp otential
Ġs heet
Ġoccur red
ĠD etermine
request ed
month s
put ed
ne gative
Ġlog ic
l p
ĠCom mon
Server Error
P H
il on
Do cker
st and
Ġlist en
E mit
o perations
Ġ" </
Ġconf lict
Sh ard
Ġdefer red
semb ly
Source s
ĠS Y
Ðµ Ð
ATTRIB UTE
={ '
Ġindic ates
L ike
Ġre main
Ġb r
ak ed
M ON
Ġm x
vid ence
w iki
Ġ" [
<? >>
Match ing
b i
trans fer
ultip lier
Ġset attr
and box
list en
ĠD es
Ġbegin ning
ag ed
Cl one
inal ity
web pack
get Index
f h
Ġtrans fer
ĠL abel
ĠJSON Object
} ]
fl ash
Ġlevel s
I LED
ĠE d
com pleted
ge om
ĠU s
Ġl c
an not
V O
A ge
Ġs sh
Fac ade
n u
(" \\
base Path
ĠChar acter
b ination
Ġ( {
ĠG ET
View s
5 1
ĠE m
Ġb ins
Ġa udio
(' @
k t
ance stor
ad line
Ali ases
Ġe quivalent
run e
Ġ er
ĠT ABLE
Ġframe s
WOR K
Even ement
Ġk lass
Ġbel ong
c ross
Format Exception
Ġtrans lation
V i
ide s
ĠQ t
Ġgrad ient
f lip
Text ure
Un ix
Ġrot ation
Ġm c
co ped
C ir
pe ek
ach es
Ġr trim
Ġal ert
P ur
b alance
Ġ' ['
log rus
D U
S n
v o
sup ports
PA SS
Ġre d
v ey
ro om
present ation
Lex er
O RE
Ġ' '.
Ġm ass
Ġdi ag
check box
ĠT H
ra ps
eli hood
t ics
0000 0000
Ġe z
C li
let ing
P LA
: -
ex ports
[] {
is Not
ro me
Ġkey words
Qu ote
Ġsub mit
Cell s
> %
e vt
IT S
de cl
he alth
Ġas c
CHE CK
Ġproper ly
ĠFIX ME
Ġj ar
Com pleted
j a
(' .')
Ġ|| =
Lif ecycle
Ġ ĉ
_ \\
Ġz oom
A MP
h olders
to ggle
M igration
m r
Ġ' `
Res p
LAB LE
C ause
Ġint val
inter sect
Expression s
Ġr gb
Ġcomp act
Ġre ached
) },
S CHE
åı ĸ
Ġp oly
ĠCon n
Ġad apt
ench mark
Ġcallback s
Ġprevious ly
le e
Mod ify
] ',
c ule
out ine
Ġlog ical
Ġre start
Ġhost s
lap se
getAbsolute Path
get In
feature ID
s f
z ure
new Value
Ġsub net
Ġr anges
Ġversion added
ĠAt om
Ġs leep
(" $
sub class
Ġget Value
id ence
å ľ
Ship ping
WID TH
R GB
feed back
fin ished
h dr
ampl er
åŃ Ĺ
r ation
Ġ" *
Call able
Lay ers
Ġp erson
f time
Ġex periment
A udit
ti cket
Ġf f
(" :
pre tty
Pre ference
Ġtest s
ĠMess ages
Ġk v
Sh are
ĠC ore
u zz
Ġth eta
Ġcont ract
Ġco ord
Quest ion
QUI RED
G O
O perand
Ġreplace d
Ġen coder
D igits
ĠF etch
illi seconds
hy dr
crypt o
Ġan chor
ĠP arser
ĠAssert ion
RE MO
TR UE
Ġth ing
r anges
Ġ/ =
ĠArgument Error
Ġs cores
co ordinates
FF ER
F ER
p f
m q
ĠU rl
Ġat tachment
ĠPO ST
Pl ural
Ġre dis
Interface s
F ETCH
Ġ} .
(" '
Ġc ut
Ġstate ments
com plex
Ġmat plotlib
Ġder iv
aj ax
int Value
An alysis
Th an
= ['
Ġs uc
Ġcon stants
re et
ĠB asic
MA IN
Ġre v
Ġserial izer
Ġr ather
AC CESS
lastIndex Of
D igit
de ployment
ĠM in
publish ed
ĠUT F
ĠM E
Remo ved
ĠR andom
R S
Ġre cent
NAME SPACE
h it
cont ract
to UpperCase
é Ģ
ĠAp ply
Ġtime zone
SECON DS
ĠĠĠĠĠĠĠĠĠĠĠĠĠĠĠĠĠĠĠĠĠĠĠĠĠĠĠĠĠĠĠĠ ĠĠĠĠĠĠĠĠĠĠĠĠĠĠĠĠĠĠ
Ph ase
Ġ" \"
De legate
Ġdecode d
W H
Ġ4 04
encrypt ed
c losure
de ps
det ect
find By
ab ort
Ġres olver
ĠO ptions
ENT ITY
ĠT ypes
Ġr hs
Encode d
v h
Ġs i
add Error
umer ation
QU AL
de serialize
ct ype
ce il
sup press
thread s
Ġto uch
F printf
K ernel
is k
Ġwork space
check sum
Target s
project s
Ġ12 8
scri pts
Ġsymbol s
C AP
)) ))
ĠSet s
Ġf urther
Ġsepar ate
ĠP ut
(" {
**************** ****************
Ġ question
com bine
__ .__
ĠS SL
loc ator
Ex isting
ro zen
Ġcom ma
ge ther
p us
Add itional
IS O
primary Key
is Null
ĠG oogle
Ġc e
get Token
initial ized
Ġlo ss
match ing
Ġ'/ ',
Ġim p
Th ere
æ ī
add Class
Po licies
Ref s
TI FI
ĠByte Buffer
get Cache
comp act
æľ ī
d y
ĠS ince
Ġcol l
l b
di ctionary
Ġcorrect ly
M gr
add Element
ĠG iven
over flow
Ġdoc s
CLI ENT
Ġde scribe
8 7
(" #
P olygon
ex change
get Url
Ġun expected
en ate
N s
v lan
Ġs a
Ġas k
S PE
Ġs peed
ABLE D
Ġc are
Ġb ook
rout ing
ext ended
Ġde li
ĠString Utils
vert ices
Le af
ĠP ermission
ug ht
T icket
pars ers
Un ion
GE X
Ġr m
up al
Count s
ĠNot Found
Ġc apture
Ġresponse s
Ġd ro
de cor
Dimension s
I ME
RE SS
4 00
Ġgrid BagConstraints
n itude
iv ers
En velope
ĠR etrieve
å º
/ (
is In
IP v
or al
ĠTime Unit
Sdk Internal
R oll
get StatusCode
jav ascript
ss ian
Ġ4 0
ĠOS Error
semb le
E K
str ib
s ynchron
ĠIP v
li ve
ler t
etri es
Fl ash
Watch er
g uid
i ans
un ion
Ġ" (
Re store
Ġpro jection
Ġ2 5
spe ed
C M
Al ready
get Param
get Page
get Height
S ibling
å ½
Ġm ail
Bind ings
Rad ius
mut ex
Annot ate
h ours
un shift
lat itude
Ġp in
inst alled
ĠApp end
B ottom
L ight
de s
Red is
Ġext ended
replace ment
ĠRe set
Co ordinate
Ġcomp atibility
FLA G
8 2
et ic
Ġ" &
aint enance
B LOCK
D if
ĠM edia
min utes
cache Key
ĠBig Decimal
ĠA WS
Http Info
R T
i rror
tick s
Ġc rypto
[] []
Qu eries
Input s
ĠG P
Ġif c
Un defined
Spec ific
cons ume
ĠJAXB Element
z a
')) ,
strict ed
SdkInternal List
comp atible
Z end
Inter ceptor
ĠF in
call s
Ġboot strap
s cores
Cre ator
R anges
let ter
Pointer Exception
ĠG o
Ġm v
Ġattach ed
sens itive
D ump
PAT TERN
( {},
Ġf i
sp arse
} ).
reg exp
Code c
p do
Ġd igit
Exception s
Ġen crypted
Ġu i
b el
k ill
] ];
m v
pri or
up dates
Ġexact ly
is dir
find One
post Body
pag ination
Ġ light
ĠNot Implemented
Ġo x
æ ł
SU CCESS
Ġexp ired
SIG N
ER S
an ded
) **
Ġuc first
' |'
Ġp ie
ĠZ end
Ġro utes
L ow
For ce
(" _
Ġt or
clar ations
ssib ly
m ix
7 3
b idden
(). '
min or
KE T
er ator
ic Exception
ĠLoc ale
OUT PUT
Ġf amily
pri se
ĠJ S
Tx n
Ġ Queue
En c
next Token
7 1
S M
Ġ utf
Def ine
De ploy
ĠI mp
Ġo verr
Ġd d
ser ve
riend ly
{} {
retrie ve
á ŀ
ĠCh ange
ĠAl low
inte gr
Ġc andidates
Dir s
Ġth ings
ob ile
Ġup grade
Dis able
6 00
b um
LIN K
De aler
cal led
include s
lock ed
ĠO Auth
Ġo bs
Vis ibility
n om
Ġstr toupper
Ġfilename s
es h
Ġ[] );
get I
') ||(
M anagement
interface s
data Type
f requency
å ¯
Ġs q
RE E
g ap
Ġindic ating
c lock
ĠT race
Ġsh are
EXT EN
Access Exception
a udit
ĠS ome
type Name
Ġen viron
Unt il
TYPE S
t b
() ]);
get Identifier
R a
Or d
mod ify
uff le
^ {
ĠN ormal
' m
S ender
Ġc ipher
Ġthe me
epCopy Into
as ing
RE ST
55 35
Ġ" ).
Ġbe come
MOD ULE
ä¸ ª
v ol
} _
os id
get Sub
ĠDi ctionary
pi cker
SI B
^ \
de g
NE W
p ip
Ġ il
In tegr
di stribution
IN SERT
Ġurl s
le cule
ar ante
Ġm t
Fin ished
vance d
u ck
LO AT
No Such
cognition Exception
th umbnail
get State
UB LE
Ġtem perature
C ategories
Token izer
Ġge om
Ġc ategories
Ġp b
im etype
gra ms
qu antity
Callback s
æ İ
ĠC H
Ġde cl
Ġac cum
Ġ( );
ĠR ule
Device s
b ulk
f ony
sm all
KE D
"] [
cip y
EX CE
exec utor
Ġread s
window s
Ġreg exp
s quare
Ġb and
! ==
Out Of
FA IL
P EN
get View
nit ro
File System
ri er
DE SC
ĠReg ion
get Uri
Ġbase string
comp iled
Ġloc ations
C ast
à º
course id
th esis
Ġlog ged
Ġlimit s
O ffer
Ġw ire
Ġp ag
o ct
Ġformat s
with out
ul ative
Ext ended
Do ctrine
exp iration
ĠA g
ĠE OF
MAT CH
! ');
': '
Ġm anaged
(/ \
TT L
Dis count
clean up
Ġ' {$
over write
vis ibility
arm acy
ORM AL
An imation
igu ous
Ġre peat
Ġcan onical
SS H
Ġh ist
Ġ'" '
ess age
Ġterm inal
ç ½
Ġin c
Ġm uch
ick er
Ġ'{} '
foot er
User Id
Date Format
Sw ap
Ġno ise
ĠSer vlet
p w
get Properties
Ġ' =',
struct s
get Line
ĠH andler
ub er
now led
Res olution
ON T
Ġd ates
Al t
Ġp c
get Length
symbol s
TRAN S
im ag
roll back
=> $
ann ed
Ġap pear
Ġb c
Ġis Valid
ĠW S
min ute
* \
O LE
R UN
Ġcp u
s copes
Ġh alf
Ġput s
Ġfl ux
Dest roy
ĠRef lection
M LE
D ial
r um
no v
Ġsl ug
gr ant
æĹ ¶
C ID
str ong
ĠS plit
her ited
ĠP art
ĠSe quence
ĠInternal Xbase
WR ITE
Ġl aunch
M ULT
Ġal ignment
access Token
ue print
Ġx y
reser ved
domain s
Ġdepend ing
GEN ER
Ġinterface s
Ġextract ed
Ġ__ (
Ġm ysql
Ġe c
Ġde legate
cri min
ĠEn um
: {
Load ing
Ġ2 56
apt cha
Ġd c
s Request
As sets
Ġstat istics
SE D
Ġsection s
Ġ Loop
Ġunder lying
Ġcom pletion
TE GER
Ġs cipy
Map s
qual ity
Ġa ut
pod s
ç Ľ
Ġv ectors
cap acity
run ner
o perand
ĠP ATH
not es
EN V
F ROM
* .
ĠPre conditions
OPTION S
RES ULT
MA IL
al ready
A ff
group Id
Ġrender er
Ġgener al
Ġfile Path
C AL
Ġso ck
Check sum
Ġiss ues
K eep
can onical
Style s
04 3
ist ency
Url s
ĠDe vice
ĠCms Resource
Align ment
is Directory
al tern
sh ard
local host
Iter ation
Ġh ad
Ġpri ce
? \
Ġaccept ed
D aemon
AR CH
Ġmag ic
Ñ ı
Ġh aving
MA C
Ġcap acity
æĸĩ ä»¶
é ĩ
is Trace
ĠUn icode
Di ctionary
ĠĠĠĠĠĠĠĠĠĠĠĠĠĠĠĠĠĠĠĠĠĠĠĠĠĠĠĠĠĠĠĠ ĠĠĠĠĠĠĠĠĠĠĠĠĠĠĠĠĠĠĠĠ
Ġiter ations
CONN ECT
st one
If Not
B A
S ys
f il
ill ar
rec v
D K
Pre view
Value Exception
+ (
f k
co v
Ġ( ((
Ġl n
Ġp a
Mut ex
ri ent
Pro viders
Cont ainers
compare To
Schedule d
in formation
Ġpro cesses
num bers
Res erved
ic ense
Ġprocess or
Port s
aint ext
P oly
c apture
ĠC riteria
D im
in ux
Ġp i
Ġmo use
M argin
Ġs izes
[: ]
ĠVer ify
Den ied
T ex
t im
quest ions
Ġcom bined
Num bers
ĠS ET
Sort ed
ĠIndex Error
l azy
r upt
EN TER
Ġle ave
space s
b f
d v
Up grade
ĠRem ote
ĠC SS
N N
Ġn c
j b
8 1
Ġs parse
Term inal
r ift
is ode
Ġ'/ ');
Ġr pc
Ġle af
ab stract
(' "
p u
n ers
get Size
form ula
Av ailability
Ġh ours
Ġmap s
pro d
av g
Ġ{ {
Ġo ps
=" %
embed ded
m n
id ue
With HttpInfo
9 3
Ġt aken
>> ()
te ction
PA Y
I MAGE
w as
Ġm iddle
å ĩ
tr ip
long itude
p at
get Event
Ġo cc
iv ing
) ],
; ',
Exp ired
Ġ9 0
ĠPHP Excel
A W
ãĢ Ĥ
df s
Ġm ime
ĠM y
/ ",
9 4
counter ed
Ġn v
()) ->
Sign ed
ĠGe o
) ");
t ure
de legate
Ġrepresent s
R IGHT
m appings
li o
Sub scriber
9 2
B ot
Ġre load
up on
Ch oice
ĠBe an
om ial
ef ault
v nd
cur acy
Ġde clared
T CP
et c
Dir ty
Register ed
aug e
E stim
Call er
QU O
al ive
stream s
( ["
m ux
} (
ĠOutput Interface
P ipe
Ġw ildcard
set Default
up grade
ca ption
o ad
ship ping
Ġcon firm
()) {
grammar Access
Boot strap
ID E
Ġen crypt
P lot
Ġ' (
mark up
To uch
ĠIn sert
Ali ve
over lay
bound ary
Fin ish
Pair s
Access ible
ce ler
ach able
Ġrun s
str ftime
Channel s
ĠIn it
Ġ è
Ġ onto
clar ing
Ġc lip
Ġre pr
% %
< =
b ridge
Ġsub class
INTER N
n ed
fig ure
ĠPl ugin
se quent
oo st
FA ILED
Files ystem
Ġ[] ):
Ġoffset s
Comp ile
Ġdid n
E val
M is
By TagName
Ġarg v
get Locale
Ġin verse
Ġm argin
Ġper formed
reg istration
Ġtable Name
cover ed
m iddle
az ure
Ġexpression s
Ġch oices
error Message
\", \"
vent ion
, ))
Ġcre ates
button s
Validation Error
Ġs pect
replace All
ĠStr uct
R ST
in herit
q Path
UN KNOWN
l g
us ion
Ġh int
ose n
Sc anner
direct ories
&& (
Ġb s
pre diction
l st
Ġto gether
Value Error
Ġcont inu
{} {}
Sh utdown
d get
get Application
AT URE
8 3
tr l
erm ark
ing ular
AR G
curren ce
A ware
get H
ĠV M
Ġappro x
ar avel
ĠM arshal
Request ed
ĠLoc ation
ĠT arget
compet ency
ĠC or
Ġ^ =
sing ular
ĠSh ort
Ġcontain ed
Ġv i
Or Create
Start ing
Ġp ast
po ut
Ġend s
ĠO K
Ġperform ance
Q t
get End
Ġro om
Bro ker
/ $
Ġpl ain
F ace
R ing
Ñ ĭ
Ġb b
ON LY
limit s
ple table
Cal led
ĠOrder edDict
(' ');
ĠT ri
number Of
std in
af ka
work ing
v v
is String
Ter ms
get T
r x
r strip
ĠS TR
CH ANGE
L AN
an ic
end points
Ġ2 1
m f
optional Args
) >
M Q
0 64
å Ĩ
s cheduler
ore d
Ġag gregate
G iven
x l
is Log
g id
Ġout file
tx n
comm un
COM MENT
Ġun able
le et
å Į
å į
Ġ rr
Ġget ter
Ġcur rency
t bl
st ock
P in
Error Exception
################ ################
OFF SET
in ity
so ap
Ġleg end
Frame work
S UP
AT CH
RE GEX
re tries
+ =
set Id
D yn
pos ure
Ġget type
Ġman ually
node Type
d uplicate
Ġn x
Ġg oogle
te p
base Url
Cre ating
date Time
collection s
Ġde serialize
ĠF rom
Ġ End
Ġdir s
rot ate
E ST
S ING
h ow
Ġm andatory
mod ifiers
ang ing
ir s
Ġcom press
get G
ir th
Con firm
Rel ations
"] ))
Ġembed ded
is fi
String Util
Value Of
Ġch oose
": "
k lass
comp ilation
get Annotation
Parse d
Ġqu ant
Ġim ported
Marshal er
ang er
work ers
te gers
ĉĉĉĉĉ Ċ
lap sed
BU FFER
K ube
Ġdata frame
wh ite
le tes
FA CT
ten ant
RA W
pre pend
Qu ota
voc ab
D ao
el ocity
Ġlong itude
S urface
s anitize
ĠE ND
æŀ ľ
= ?
w ers
Ġr f
ĠNot ification
Bit map
æį ®
ĠNotImplemented Error
Ġf ar
stat istics
12 7
F ast
E lastic
'] }
12 3
Ob server
get A
ĠF IL
qu oted
De c
Ġre cipient
Ġser vers
ĠNull PointerException
ch rom
sv c
D N
00 1
b box
pro viders
TEMP LATE
In struction
entic ator
ri ch
Ġch at
f lex
F ALSE
get Min
Ġcl usters
f ollow
ĠR ow
. ".
Parse Exception
in x
Ġc od
mo b
Check ed
high light
or er
ert ext
Base d
âĢ Ļ
M IL
ittle Endian
er ical
REF ER
Ġcom pression
local s
ĠEx ecute
R pc
In crement
ĠL et
L ambda
ĠC lear
ann ing
PI PE
se par
Ag gregate
an ity
account s
M X
Ed ges
Ġaccept s
Ġ( `
Ġs cheduler
List s
RO W
Configuration s
ĠPAR AM
Ġh ide
ĠA SC
Ġex change
RE AM
Response Body
E E
Ġind icate
-------- --
Ġrout ing
Ġin coming
he el
Ġdo ing
spec s
get Parameters
Ġlocal Var
Ġli ve
Ġre levant
Ġtest ing
at ermark
Ġs id
Check s
Gener al
add Attribute
ST EM
! ")
I ES
ĠD escription
sm arty
Ġplace holder
è¡ Į
st roke
get Full
Ġd ensity
ph ere
Th ing
RE SP
local es
Ġf h
week day
b p
li der
In ject
{} ".
Sh ift
VI EW
NewErrParam Min
O C
un link
ä ¿
Ġlik ely
In stant
Ġh o
ĠPre pare
Servlet Response
=' \
curs ion
Pattern s
Extract or
> ",
Configuration Exception
er n
Ġg rant
Http Client
f ld
re load
scri b
Ġar c
Ġident ify
Buffer ed
: .
} },
as array
write Attribute
( ($
L ive
Ġph i
net es
uber netes
) ')
all Errs
art ifact
ND Array
Sl ash
Ġex panded
Ġdi ction
Act ual
rece ived
å °
(' |
OP ER
( ()
re cognized
pro g
leg acy
Ġstyle s
al ignment
us r
alloc ate
CON TEXT
ç½ ®
Pos itions
L IT
W P
Stream s
ä¸ Ń
Type Of
Ġat tempts
Ġform ula
EXCE PTION
Ġm p
get Y
a verage
ĠB inary
Ġ3 1
n ick
ĠS cript
ĠC losure
un e
get Options
ĠB atch
C at
Com pletion
Collection s
q q
Ġp ayment
Ġde grees
10 24
prec ation
Ġtx t
ĠPer form
Ġproperty Name
Ġm igration
Ġres ize
Ġremo ving
Transl ator
ĠU P
Reflection Class
ĠFIL TER
I MP
i co
ĠĠĠĠĠĠĠĠĠĠĠĠĠĠĠĠĠĠĠĠ ĉ
Ġf ocus
get Document
Read Only
a h
Ġrequire ments
Ð¸ Ð
ĠW ill
MA SK
() ['
10 1
Ġprob lems
Ġhigh er
Ġsl ash
Ġcert ain
Ġcop ied
Ex change
ĠX XX
Ġconvert To
de crypt
In voke
at ter
Type Enum
ĠH ost
vis or
Ġprob ability
Ġl if
Com plex
Ġme as
client s
Ġlat itude
clus ion
c v
sub net
Ġo perand
Ġd aemon
im ap
fra ction
) ")
h ere
require NonNull
def s
ĠM etadata
L on
Ġsw ap
ĠAuth or
¦ Ĥ
Ġser vlet
ĠU sed
d rag
Ġ! !
ĠH elper
dir ty
r st
t wo
Ġs ampling
Ġclient s
Scal ar
el low
w ave
LE S
get Component
Ġpe ak
ĠInt erruptedException
Ġ' ='
Int ent
Writ able
B AD
ur ator
ph an
w orld
RE N
atom s
Std err
f tp
Ġp ragma
Ġ: ]
Ġex ponent
ail f
Ġac ross
Pri vile
m as
Ġc lock
un signed
attrib s
P ure
Ġto pology
ds n
Ġassume d
RE L
sl ash
b ut
Ġ unc
Ġfiles ystem
Serial ize
lo pe
atom ic
/ :
it able
NO RE
Ġsc anner
Ġp layer
man age
od b
iss uer
Sh adow
attach ments
ut ures
An sw
\" ),
Ġsmall er
V R
exec utable
ase d
f x
Ġ-------------------------------- --------------------------------
Re cipient
ĠP ersist
get Attributes
i h
ä ¼
ext ends
cur ve
Ġorder ByComparator
å® ļ
m igrations
ĠB ind
rig gers
t abs
ĠTh en
or a
im ize
getElements ByTagName
re quires
ĠE N
cap ability
åĽ ŀ
M ed
ist ers
transform er
âĶĢ âĶĢ
Ġpr incipal
SCRIPT ION
Sub mit
ĠEn vironment
[ [
n x
Ġo per
lip se
Ġtre at
Ġf ol
d igits
ĠHe ader
it ness
sub set
Ġport s
er ce
Ġs vc
Ġd etail
In c
). (
Ġpass ing
ct l
ĠL ay
Do es
Ġde coder
ĠSt ack
Fac et
Ġlarg er
S B
Ġgener ation
Ġw p
G ame
Ġb ond
ON SE
Ġv ol
Ġl s
N il
Ġ- ->
ĠM erge
Im mutable
plic as
Ġcalcul ation
f sp
Ġd ry
par able
OR TED
global s
C loser
i ated
Ġm oment
Fe at
ĠS im
ĠC A
Or Update
Ġsub mission
fast a
UR ATION
Ġtx n
ĠHow ever
Pack ages
Rec order
n m
ĠP ar
ĠP os
Ġsh util
ĠGet s
h at
pro j
inal g
SQL Exception
Ġf oo
Ġnon ce
Temp orary
Ġsy scall
um bs
ain ed
99 9
M ARY
s yntax
Ġpre ss
Ġdocument s
Ġexec utable
ĠĠĠĠĠĠĠĠĠĠĠĠĠĠĠĠĠĠĠĠĠĠĠĠĠĠĠĠĠĠĠĠ ĠĠĠĠĠĠĠĠĠĠĠĠĠĠĠĠĠĠĠĠĠ
require ments
User Agent
Dis covery
fin ally
Ġretrie ved
( ...
P id
Rem aining
h ertext
Ġ â
Ġlocal s
store d
Ġ8 0
Ġcontent Type
ile s
enc ryption
"" ",
' },
lic able
F ake
h ard
ĠT YPE
ph oto
set Error
ĠG rid
vers al
æ Ŀ
create From
LAB EL
Format ted
R C
An chor
iter ation
Ġn an
Ġreg istration
ch ant
Ġ1 80
To Lower
Ġa ck
raw ler
B ond
e NS
o ji
exp anded
Det ection
S N
v l
im ator
Host name
Ġse l
Result Set
i ence
Ġf ace
Ġcons ume
ver b
Ġhandle s
Max imum
N ORMAL
m aybe
new Builder
tra cker
Th row
Bound ing
Ġc v
Ġg ame
ne g
Ex clude
FA CE
m k
P layer
W HERE
get Children
Ġm appings
FO RE
ĠZ ip
A udio
Ġp ip
ĠĠĠĠĠĠĠĠĠĠĠĠĠĠĠĠĠĠĠĠĠĠĠĠĠĠĠĠĠĠĠĠ ĠĠĠĠĠĠĠĠĠĠĠĠĠĠĠĠĠĠĠĠĠĠĠĠĠĠĠ
Ġal iases
In jection
oin spection
A lert
T wo
ĠF actory
')) );
inter pol
_ :
ĠReg Exp
child Nodes
Ġpre d
ĠPh p
Ġinter vals
S CO
ĠA uto
col on
RE QUIRED
serv ations
pt ime
Ġ% .
c ron
at tempts
and Where
5 12
:` .
Ġthrow n
ĠĠĠĠĠĠĠĠĠĠĠĠĠĠĠĠĠĠĠĠ Ċ
defer red
CON STR
Ġmark ed
[ ],
() `
ail y
Ġse n
ĠS alt
H our
get Configuration
com pose
par allel
C ATION
ag g
ĠP ort
Ġcontain ers
Conf lict
Ġup dating
ĠRe port
Delim iter
F lat
DE FIN
ur er
ĠF ast
Pl ain
Sup plier
LIC ATION
9 1
er as
ĠHttp Response
Ġhy per
T yped
qu it
PRO TO
proto buf
Method Name
Host s
U id
ĠC ount
Ġph p
L ittleEndian
Cont inue
Ġ` %
b etween
d ashboard
ĠF rame
dis connect
Ġcomp ressed
MON TH
* ',
K nown
Ã ¡
ap ache
ĠOutput Stream
D AT
S id
Ġde claration
ĠLinked List
Ġvert ical
Ġ" @
grad ient
lif etime
t id
Ġp oll
G ithub
Ġres erved
Var int
LOC AL
Ġ ir
([] *
H AND
get Title
Handler Func
T wig
re pos
Ġrender ed
? :
D er
In sn
Ġl azy
fo lio
Ġde sign
ex e
ra b
Ġm iddleware
ĠT ensor
par k
] -
Ġdata store
in verse
i ator
Ġder ived
st ud
Ġin tegers
ĠW alk
Des erial
"> '
h ave
Ġexp iration
ĠTime out
Ex pect
Pro ducer
al ways
Ġpro x
Format s
.' "
is ation
Ġr h
SE TT
ĠGener ic
C andidate
ĠD b
Ġf loor
set Header
check s
Ġread able
Ġestim ate
Conversion Func
M et
Ġpre sence
start Time
Ġstream s
rot ation
S ur
en rol
ĠC allback
nb sp
Ġbro adcast
Ġp m
Ġch rom
Ad just
Over lay
In f
Tra in
C ATE
f all
l and
set ter
du ces
?( :
cont ainers
D r
u ation
Ġb box
ĠDe code
Operation Exception
getE Package
p yp
AN N
w ant
re ement
Ġp tr
load ing
A RE
Loc ations
ĠImport Error
Ġindex ed
Ġend points
sw ap
Ġc redential
AL LOW
handle d
import ant
P ol
Ñ Į
Ġin tern
ĠR ange
P ACK
u ent
Ġerr s
M aterial
Ġ`` '
Method Call
has More
Wh en
P lay
Bound ary
Ġex cluded
g amma
Ġe ig
conn ector
the us
Sec ure
Wrap f
Type Id
me theus
Ġp p
Ġcomp iled
Ġ[ {}
ĠV is
widget s
Set ter
Qualified Name
Ġre fer
Ġs ink
Ġfore ign
C URLOPT
array s
r aries
('/ ')
ap pro
ĠF low
ĠP DO
A K
ĠP ass
Ġin correct
Ġ[ {
ĠS m
ĠW rit
Field Value
updater esource
info s
Vi olation
un used
Ġo auth
add Content
Ser ve
åľ ¨
set Content
process Exception
ĠFe ature
th umb
p v
ar ound
de coder
Ġre m
Ġs r
Util ities
Ġ'. ')
El se
get attr
Ġde al
ĠM eta
ĠClass Loader
ĠLe vel
Ġb racket
Auth ority
, -
Ġw ave
cl usters
at able
Ġmo ck
dif ference
S em
S ink
el m
ĠCl uster
B racket
Ġt tl
ĠS ymbol
AA AA
get EClass
Ġ" ?
Ġ" .$
start ing
Ġver b
Ġorg anization
ĠAuth entication
Ġdiction aries
Ġp w
Ġl b
IT OR
Ġex ports
anag ers
Initial ized
D uplicate
F LOAT
Ġt olerance
ĠE l
getEClass ifiers
E ffect
tr an
Ġch osen
ĠAc count
ĠM ove
S pl
r ho
OL D
EXTEN SION
unc ated
Ag greg
d ash
Time s
Ġmin ute
ĠSE LECT
ĠF uture
sub process
Ġlin eno
h its
st ors
Ġb g
ne eds
; }
Ġt ls
ĠC lean
Ġgu arante
V ault
back trace
C art
[ %
Roll back
ĠDis play
Ġsepar ated
Pk g
Ġ' ':
AR GET
special chars
add EventListener
Ser vers
w i
Ġauth enticate
INTERN AL
comp any
Ġwindow s
Ġde ps
root Node
Ġclose st
Ne eded
Ġrun ner
<? ,
ĠCheck s
term inal
I o
in struction
T ail
ĠF ound
On Error
j oint
Ġreference d
Ġrespon d
18 0
ĠSh ow
arb on
ĠN aN
qu ared
IN PUT
b t
e g
con trib
ĠI SO
To Array
n i
Ġq s
ib l
Ġde crypt
ĠN et
ĠR ect
Ġlink ed
D rag
requ encies
sen ter
../ ../
A I
Ġh istogram
ip y
Int erruptedException
UST OM
Ġc wd
spec imen
Ag gregation
Ġf ew
get Bundle
res olution
Ġgroup Id
Ġspecify ing
Ġpar s
Ġtrace back
r df
crimin ator
Z oom
OR IZ
('\\ ',
Ġg amma
path name
St ub
Ġadd s
Res olved
Ġrece iver
ĠMatch er
t atus
chan ism
a head
) <
Ġd ummy
ĠSet up
PLA CE
q ub
CR Y
ĠP ack
Ġx s
ĠRe quired
Ġ Lock
ub y
CON ST
ĠS ec
Ġnew line
we et
ib ration
s uggest
Ġcheck point
Step s
poly gon
Ġn m
no ise
Ġl ab
for Name
sp acing
ĠÐ ¿
Re covery
ĠIter ate
adapt or
Ġb asis
(" {}
Ġinsert ed
]. (
ĠGener al
is instance
un tries
201 8
W IN
ĠC OM
ific ant
Mod ifiers
Ġ energy
ĠDe bug
A ck
M ongo
getS chema
C d
de sign
ee per
ĠAc cept
err er
C a
Ġskip ped
å Ģ
ç ¬
co in
Ġcom bine
direct ive
s ink
Ġatom s
url encode
m gr
en velope
Link ed
v r
gr pc
}/ {
åŃ ĺ
ĠEm pty
Ġh dr
C ycle
Ġr t
G rad
ill a
Exp iration
IC AL
P ress
limit ed
define Property
M ag
Ġ( ;
Rece ive
sc anner
('/ \
set Time
.' ''
ACT IVE
Ġorder ing
the EObject
is New
Ġc d
Ġa z
field Type
ĠUn known
Ġhigh light
Ġhapp ens
(': ',
Ġ escaped
ex periment
åĲ į
ĠS tep
CO DING
session s
S ens
Ġbu ff
F s
fir med
Menu Item
B asket
Ġconfig s
New Reader
Ġact or
Ġw orld
plo ts
B etween
is Object
aked irs
EX IST
Ġstop ped
_ [
o a
current Thread
ĠD own
é Ĺ
Ġs oft
Ġm ajor
ĠObject s
æķ° æį®
get Description
IN TEGER
Ġcom mun
Ġpri mitive
Ġre cursively
DO UBLE
ar p
ĠM apping
bo lic
Ġpl us
Ġre tries
get Headers
ex act
im p
F act
z ones
per ms
b old
ĠT O
G T
re view
ĠC OL
VAR I
NotFound Error
$ /',
C apture
de precated
Ġn l
offset s
With Error
eta iled
getName space
Ġa ux
Ġ& =
Input Interface
R etrie
CP U
W ildcard
pre vent
ĠD el
Ġover flow
pop ulate
h ot
Ġex amples
read File
L ONG
Ġv ocab
Ġ Builder
ri ces
Ġmin or
au ssian
m ongo
ri vers
ĠR FC
Ðµ Ð½
rece iver
SY STEM
agnost ic
ĠConn ect
isLog gable
Ġs pl
Ġget S
Ġ\ ""
Ġdisplay ed
b illing
j u
ĠG u
M aintenance
f olders
min ion
Sign ing
Ġst uff
RESP ONSE
C AT
Ġe f
get Database
[' $
L B
Ġw allet
to Blocking
Ġsub stitution
ĠCon sole
Ġprop ag
vi ation
col lector
prefix es
Mark up
Ġaltern ative
d h
Ġ Lo
'] ):
not ifications
Pro pag
Vis it
er al
ut ype
DO WN
bit rary
Ġbro ker
pre pared
error Code
ĠUn ion
R ank
Ġc nt
bl ack
Re striction
test s
æ ³
De corator
bu ff
inter section
FIEL DS
pletable Future
Ġset ter
Ġ'\ '
<?> )
CA SE
a ux
PE D
Det ector
trans pose
da emon
Ġatom ic
o i
pro f
Error Response
find all
tot ime
C lock
stit ute
G I
Tree Node
Ġcons istent
l inalg
un ix
H ierarchy
ĠP ackage
Request Exception
tod ay
L icense
Ġp reserve
[] >
IL D
comm ended
ĠCall able
b id
ĠĠĠ Ċ
Ġn u
Se ed
W D
Ġre pl
os a
scal ing
ĠFI LE
tr i
ers core
E DEFAULT
p andas
am il
Data Set
Ġal le
Ġnamespace s
. ";
w allet
Ġs copes
Un signed
Ġen cryption
rece ive
M ultipart
M ime
é Ļ
get J
Ġg zip
ĠE C
getS up
writ able
icip ant
ul us
hy per
Ġsens or
PRO P
NE CTION
ĠM UST
O c
Ġwrit able
MLE lement
R ULE
t ake
ĠC LASS
ĠD oc
DE N
b ias
aw ait
com position
Co ordinates
Ġt b
Ġg lyph
Ġview s
NewErrParamMin Len
P aren
ĠS O
Resource Type
Ġph one
Ġtransform er
Per form
N av
Ġ ].
Field Type
get Db
Sh ell
m ul
ĠA li
Ġct rl
Ġin herit
ĠĠĠĠĠĠĠĠĠĠĠĠĠĠĠĠĠĠĠĠĠĠĠĠĠĠĠĠĠĠĠĠ ĠĠĠĠĠĠĠĠĠĠĠĠĠĠĠĠĠĠĠĠĠĠ
Event Type
de clared
Ġin crease
({ "
Media Type
QUO TE
ĠA ST
ĠB ox
persist ence
r ans
v ement
Ġwh ite
ĠS ingle
Ġun ion
Ġspec ifies
])) )
spec ified
g log
Ġinter section
CL U
c redential
analy zer
Ġ1 7
([ [
Ġtrans formed
LA ST
Rout ing
Ġ ign
ans ion
need le
H ist
Ġas sets
DE NT
Execution Exception
ab lish
Key Value
F allback
get Form
Ġmsg s
V ec
f m
get Log
set Status
Ġset Timeout
wh at
s pl
ĠP lot
Ġopen ed
Y EAR
Ġcheck NotNull
Ġdoc string
Ġm ix
is Function
get Port
period s
Ġneighb ors
e h
es ian
Ġhe alth
F L
ĠN on
vert ical
ĠSer ies
> /
length s
compilation Context
B C
Ġp ot
Ġm ux
Ġex pires
Prefix es
Ġn a
Ġin place
Ġe as
Ġg c
Request Interface
Al tern
ĉĉĉĉĉĉĉĉ ĉĉĉĉ
il ine
query Params
\\ \\
Ġvis ual
as sessment
sh adow
ĠO ver
ĠFile s
And Set
array Node
r ating
Ġan imation
Ġreg ions
link ed
ĠState ment
on ds
Ġsm ooth
Ġg ap
C nt
c x
Proto buf
module Name
bro ker
Ġre versed
qu ad
ĠP air
vis ions
Ġevalu ation
k ube
Ġ') ';
ĠD irectory
ĠPro xy
O G
S izes
code c
n at
ĠRel ation
H R
ext methods
Ġext methods
ĠImp lement
Dyn Class
Ġin s
Ġover lay
Ġdirect ive
Ġpick le
ĠĠĠĠ ĉĉĉ
fi ce
cover age
get Template
Ġde gree
L C
S copes
Ġs ites
Ġh ighest
"] );
scri bers
Ġtrans formation
velop ment
op acity
ĠD raw
")) )
az ard
bind Value
Ġsynchron ous
PASS WORD
O rient
Ġs uggest
Re plica
() ``
Ġse ems
ĠP op
ST AMP
li ze
do ctrine
bro adcast
C r
add To
ain ter
Spec ial
synchron ized
j id
li ps
Can vas
Ġm aterial
ĠN ext
ĠR ole
_ '.$
w f
CON F
$ $
å ¾
is File
get TableName
() )))
ra pping
we ep
MP LE
ĠAdd s
eff s
Ġdetermin ed
Leg acy
op le
Ġen countered
ex amples
Ġb ulk
ST ORE
sub scriber
ict ure
Run e
) `
De ep
List en
ĠINT O
H istogram
v ault
Ġ# ##
IT LE
CO OK
Ġtrans actions
Level s
M icro
Ġexpect s
Ġcoefficient s
un expected
In spect
Ġan no
One of
PUB LIC
utom ation
ĠOR DER
Ġt d
Ġk ill
context s
ĠCon st
get Raw
ch ase
ĠExec ution
Security Group
b anner
reg ions
Pre ferences
ä ¹
Ġg rammar
SCHE MA
/ '.$
Transl ations
L anguages
Ġt p
Ġo thers
Ġm aking
Reg exp
std Class
Ġlength s
Non ce
ME DI
vis itor
C MS
m anaged
Ġto String
MAR K
ĠD S
Ġdict s
ĠValue s
attribute Name
fac et
C ipher
an a
Ġio e
activ ation
get Label
Ġto do
Pr inter
Ġleg acy
Ġ ri
Ġcom pound
Ġget Class
ĠO vh
ĠU sing
ced ence
Ab ort
OLE AN
Ġr df
New Request
Ġ6 5535
Ġneighb or
associ ate
' })
ct or
Ġl st
Ġassoci ation
Ġt enant
B S
pro jection
Parameter ized
Ġqu ick
ĠEn code
Get s
Rep orter
ANG UL
D raft
re at
in y
variant s
s urface
mod ifier
Ġ unt
ĠS ize
Com pany
ĠAssertion Error
Ġc ookies
read s
d ry
Ġs ay
++ ){
! ')
Ġc id
Ġstd in
get Long
co e
Col ors
LE N
Re verse
Ġ ERROR
con c
Char acters
c andidates
ĠCon straint
R ew
k m
Ġc mp
pro vision
Ġ(! \
Ġx range
Ġ'/ ';
html Options
FILE S
ĠC ell
Min imum
mime Type
3 00
exp ired
jav ax
l hs
con j
s Input
ir ing
p ot
Ġare n
Ġ'? '
ĠI E
Ġs cripts
Index ed
Ġurl lib
y ield
Exp and
Ġlock ed
ol ar
Ġimport ant
Place ment
Ex pires
ĠF ailed
] [:
è¿ Ķ
k l
n v
Ġt e
Ġr x
Ġoc curs
æĪ Ĳ
r ink
Ġst ud
p db
ç Ĳ
") [
getS ite
R etrieve
e asy
ĠT erm
g d
as pect
ach ines
place ment
CON TA
ĠUnmarshal JSON
Ġkey id
Add Generated
N ER
Ġt m
double Value
g th
Ġwork ers
] \
. ';
Ġh uman
mat erial
Ġr ho
Ġat trib
est ing
Descript ors
Ġroll back
AddGenerated ConversionFunc
V ED
Ġi de
Ġob served
"> </
persist ent
ĠN um
Ġqu ad
Ġn or
Bounds Exception
et Address
Ġvar iance
ĠD et
ĠK eep
neighb ors
Ġdepend s
get Num
Ġinstant iate
= !
O bservable
} -
User ID
dic ates
De epCopyInto
İ ·
Ġp mag
hash es
Direct ive
Bad Request
Ident ifiers
C trl
etime s
R FC
h ub
il io
entity Manager
Ġre striction
get List
Ġexp ire
/ ,
A U
split ext
Ġp ay
ĠM issing
ĠM ongo
ĠCon s
h ance
Ġ ic
get Date
field Value
ic ation
ĠJ oin
ĠCont roller
watch er
get Output
Read able
u v
un iform
To o
po licies
LD AP
m ultipart
loc ate
ec ause
ke leton
Analy zer
Ġraise s
Help ers
C ampaign
ar er
Ġun used
ĠValid ator
RA CE
D ashboard
Ġt im
ĠPro duct
Optional Parameter
or ientation
Qu art
ĠĠĠĠĠĠĠĠĠĠĠĠ čĊ
ĠE ither
book s
V S
i w
è §
Ġ"- "
c utoff
)) ]
Id le
ST Y
V endor
f ine
N ET
ar ia
get Metadata
Ġget Default
ĠRed irect
en us
Ġwh y
ibl ings
Ġs ilent
Ch at
product s
\"" );
j wt
ĠS V
N avigation
out file
Se ek
Ġpl ane
inter vals
PRE C
el og
ĠR PC
Ġlet ter
B est
Ġl hs
ance s
ignore d
sequence s
split lines
Rule Call
Ġsim pl
bucket s
Trim Space
HO ME
} ))
al one
Ġe quals
ateg orical
< -
get Package
pe m
Rece iver
m ixed
Ġgra b
å ī
Ġoverride s
Writ ten
Ġ license
uf act
bar s
Ph rase
ĠRed is
deep copy
F G
F atal
g if
get Tag
Ġh orizontal
Foreign Key
b readcr
)) ->
Ġpre ferred
UT ES
l is
Pro jection
Ġag greg
Ġinitial ization
F K
fin ity
Ġqual ity
O VER
get Record
ĠF OR
Ġass um
U i
U Int
Ġp ow
pro cesses
ĠA v
head ing
åı Ĥ
Or Empty
çĲ Ĩ
Ne gative
Ġ age
get Argument
return Type
cre ation
ĠApi Exception
R SA
s chemas
Ġ' ').
Ġr b
Ġfilter ing
Ġopen ing
Ġfol lowed
Ġm kdir
ĠM an
mar ies
_ "
ĠInst all
Cred it
st able
Ġt ell
urn ame
Ġin voked
Space s
F ault
` ):
o ffer
h alf
in stant
Ġcor relation
__ .'/
Attach ments
ed is
Ġformat ting
ĠSo cket
# ',
De ferred
ĠSt yle
f old
é Ķ
Ġ} ));
Re peat
Table t
prop Name
pen ded
conf lict
Place holder
Ġpl ural
war ded
Ġd uplicates
ĠS yntax
item id
è¿Ķ åĽŀ
Config ure
ject ory
Ġ{ :
get Timestamp
Ġm ultip
l aunch
m akedirs
Ġus ually
IG NORE
train ing
Ġrot ate
, ,
ast e
ren gth
g zip
=[ ],
ĠE valu
is or
Ġc losure
Ġt icket
Ġ' >
ĠS c
ĠNo thing
session Id
Ġl trim
ph em
Ġpod s
ff t
new s
content object
mt x
medi an
C USTOM
Ġc i
Ġcol lector
On ce
Ġbind ings
Std out
Ġ ur
Ġg ateway
Prob lem
Ġse ver
BYTE S
' +
[ @
w raps
Pre pare
W ide
g uess
Ġf ld
Answ er
j casType
ĠRun nable
j j
ad oc
Ġnumber Of
tc d
M C
Q Name
Ġel apsed
rott le
¦Ĥ æŀľ
Ġ ens
Ġsession s
2 000
h orizontal
is NaN
pr incipal
real path
ac er
Ġt i
Ġa way
Ġnew ly
Sign er
.... ....
qu ant
Config File
Evalu ation
graph ic
Ġshould n
Ad apt
Ġoccur ren
Ġactiv ation
ĠByteArray OutputStream
prob lem
B ulk
F aces
le arn
An ce
Ġz eros
ĠBuffered Reader
CUR RENT
ut ation
Ġin i
neighb or
P df
not ice
Tr ust
Ġobject ive
Ġcustom er
Ġth ough
time delta
ln g
m ing
an za
ĠC SV
ĠX Path
Ġsub sequent
Ġdown loaded
getDe clared
B alance
X Path
Res pon
Ġadd ition
ĠF ail
qui et
ident ifiers
cre ts
get Image
ĠURL s
getClass Name
Ġc map
brevi ated
COOK IE
Ġ esc
theme s
branch es
CONT RO
ĠG enerator
Me an
(/ ^
E MAIL
Ġt yped
lo s
im it
rf c
ar i
api Version
19 2
get Short
Con struct
com pression
Func s
CLO SE
next PageLink
dat as
uf ficient
g lyph
ĠCont rol
parent Id
è¡ ¨
U AGE
Ġ( &
pl orer
Cl aim
.. )
pa use
Ġqu otes
second ary
S leep
Ġf c
Ġf aster
Ġwh o
L LABLE
Ð º
D P
\ ".
g ui
Ġb i
Ġcom plet
Ġne g
Ġab stract
tool tip
Ġmo ved
CP Definition
Ġe q
Ġ` ${
ĠB undle
Property Name
Ġ] ['
Ġsc ene
WE B
Ġ Bytes
Ġscal ing
Ġlook s
$ _
Ġc um
j pg
Ġun ix
pop up
ĠS AX
ĠRem o
ĠA mazon
Ġdebug ging
M Y
) })
. /
Ġ2 3
EN CODING
ĠCon struct
Ġ{} ).
model Class
Ġpart itions
Ġmag nitude
W rong
Ġcode c
ĠNe ed
CU MENT
MIL LI
al g
') {
auth enticated
L azy
` );
o per
get Module
A jax
Ł ¥
f ab
Ġs quare
ĠOpen Cms
Ġdim s
LOC ATION
Ġin strument
Ġse ss
ĠD omain
cor r
assign ed
~~ ~~
Ġear ly
Res ize
Ġim plicit
reg ular
f b
m ol
Ġqu oted
ĠSY LLABLE
Ġp at
Ġoption ally
¦ ģ
() -
Start Time
Cap abilities
M u
d raft
serv let
A cl
ĠAr t
Ġinterpol ation
; \
V at
Ġxml ns
U CT
model Name
Filter ed
v a
ch arge
->_ ('
k g
Ġs om
priv acy
Ġ0 0
ĠO PTION
Track ing
Par allel
U MENT
Ġtr ust
Im g
Ġ4 8
Reg Exp
Per Page
E QUAL
el astic
Ġget Config
ht a
det ach
æ Į
Ġp aren
ĠParse Exception
dro ols
H orizontal
Ġpop ulation
pag er
ta u
Ġb a
to a
Ġpro duce
ĠP o
ER T
s lide
Ġf g
ind ividual
ĠM IN
\ -
Ġstart Time
ĠFile InputStream
multi ply
TT ER
(', ')
Ġh ack
ĠDe st
Ġdata sets
SK IP
! ",
ĠDe v
Document s
Ġvis ited
Ġestim ated
ĠExt ension
å¯ ¹
Ġm ot
T M
app Id
Ġde scrib
SE C
B illing
is Enabled
am odel
Ġ% +
{ \
S UM
get D
po ses
Ġr ing
Ġi x
Ind icator
ex cluded
ST REAM
Ġpre pend
Ġup loaded
session ID
Gener ation
c ritical
Ġ` '
config ured
Render ing
havi our
= {},
F requency
] '
æ Ķ
an cy
Ġget Instance
Ġpro j
åĪ Ļ
B ridge
in cluded
Un der
ĠE Package
xy z
Ġqu iet
Ġin f
AT IVE
G UI
Hook s
Py thon
ul ary
style sheet
sens us
Ġn n
Ġt l
ĠH ere
C IM
Ġpri v
Ġmicro time
H S
n avigation
Bu ffers
TA SK
F leet
or n
Ġse ek
yn omial
Ġne arest
Int errupt
package Name
Ġreal path
Second ary
, \
b n
Error Message
Ġvalid ated
Ġart icle
M irror
s u
mo odle
exp licit
Ġinter sect
gorith ms
E Enum
om inator
ĠS ql
Ġg ithub
object ive
C ALL
vert ed
fe at
Doc s
ind icator
icon s
ab c
der iv
Ġr id
Ġquery set
script ors
Ġb id
Wh ite
ĠF ix
Attribute Value
Line ar
+ )
ra ck
oo le
Ġ(_ .
foreign Key
re start
Ġf un
Ġcom parator
g sub
obj s
W ire
f atal
exp iry
Ġo ct
mod al
CON NECTION
; )
(" ")
Ġh ierarchy
vi a
add Column
start Element
ĠKey word
Atom Container
L ab
x t
Ġs low
ol ving
Ġq ub
o use
)== (
Ġd rag
ĠA rr
Ġ'\\ '
M apped
set Request
A sc
P ower
slot s
Res er
... ")
to pology
Ġloc ator
ag greg
ĉĉĉ čĊ
add Select
SECON D
ĠGener ated
-> {'
Ġb ias
ap ed
project Id
Ġp ause
Ġst ar
)[ (
ĠMax imum
> .
ĠAct ive
Assert ion
ce eds
(' ')
ĠJ ust
Co ords
gen es
Ġ"' ");
Ġ Ñģ
Pre cision
Ġsort ing
de corator
get Order
full Path
bad ge
add Listener
EN ABLED
h ierarchy
Con versation
( ('
= ",
w x
in el
ur o
ĠC ertificate
Ġarg parse
olt age
OPTION AL
ĉĉĉ ĠĠĠ
ic ast
Ġor ientation
ID EN
cred it
Ġf close
part ment
bundle s
concat enate
t mpl
get Task
Ġ' '),
Ġb p
is Present
vi e
Hash Set
ĠDo es
Ġrel ations
Ġf w
Ġh a
ĠO UT
ĠB ut
wh itespace
Ġmeasure ment
C ent
N L
er es
Ġprefix es
G ate
Z IP
al go
Pro files
ĠR O
Failed Exception
Qual ity
f illed
ynam o
w ares
le ave
Direct ories
ĉ ĠĠ
is er
Ġc as
ot ing
ĠD at
Bu g
Ġ"/ ")
Ġdet ection
M illi
S at
X A
} ')
Http Response
Ġip v
REFER ENCE
! ',
S amples
ç ±
mark s
Thread s
Ġbucket s
Ġs ymlink
Str ict
Ġbu ffers
Pre pared
j peg
get Row
Of Week
Ġ ------
Ġsec ure
T ITLE
æ Ń
Ġf open
`` :
access or
Namespace s
get Api
rad io
:: -
Response s
Ġ([] *
Hy per
J ournal
"" ,
Client s
filename s
Cond itional
ar ily
ĠI F
ho use
r h
Ġco me
Ġvis itor
Ġis o
33 33
ĠE Class
İ· åıĸ
} </
Ġproject s
Val s
sc ene
Se p
zz le
de claration
Ġ. '
ĠV irtual
auth enticate
Ġfor ms
Ġblock ing
pa ren
render ed
SH ORT
ĠL anguage
com pound
A ws
end ant
Ex act
Ġk b
ĠB l
ann o
Ġmis match
-+-+-+-+ -+-+-+-+
p el
Ġcreate Ifc
Cre ates
Web hook
---------------- --------
ul i
Ġb alance
and roid
char Code
C riterion
M alformed
cap s
A Y
im ports
ĠE Object
accept ed
z ed
cept ors
Ġdis card
FR AME
ç± »
y label
get Real
Ġasync io
Ġprovide s
ĠFFDC Filter
ance led
Form al
Ġgen es
Ġremain der
C LE
data sets
fer er
Le ader
box es
ĠĠĠĠ čĊ
... ,
convert ed
Big Decimal
Ġstr totime
f path
Ġ âĢ
Ġc art
sl t
ĠAdd itional
getC ause
ĠUn it
G C
get Definition
dat asource
OutOf BoundsException
ANN EL
S ome
app Name
Ġexec uting
l arge
if ace
(' {}
ind s
Ġlist ed
row se
ĠF S
Ġme mo
By ID
Ġmean ing
Ġ( ``
Ġd a
Ġn r
ad j
ĠI MAGE
Ġ2 8
())) );
Ġs d
ĠA fter
tool bar
A INT
S W
g res
de gree
Ġf illed
Ġh i
os ome
context id
author ize
alle st
ĠLE FT
read line
gu ard
get Action
[' __
ĠĠĠĠĠĠĠĠĠĠĠĠĠĠĠĠĠĠĠĠĠĠĠĠĠĠĠĠĠĠĠĠ ĠĠĠĠĠĠĠĠĠĠĠĠĠĠĠĠĠĠĠĠĠĠĠĠ
ĠUT C
U plo
cont rollers
T P
Ġp df
Ġpo ssibly
Ġin jection
ĠA x
Button s
ING S
) ``
, ),
is ing
api Key
document s
.'/ '.$
f ault
ab u
Pro cessed
Ġ2 04
ĠIn stant
block ing
mut ation
Xml Element
C url
Ġsh ut
Ro om
Is Valid
get Active
Ġfloat s
AB ASE
é ¡
get Alias
Ġcom bination
Dis card
CID R
Ġs f
set Max
ph en
Offset s
Ġ", "
ĠCal cul
q r
valid ators
ĠDB Constants
Ġb oto
to o
Ġint ro
ME TA
? ?
par agraph
ĠData set
ex tras
ver g
bl acklist
R R
b d
org an
wh itelist
n oinspection
F ooter
G RE
To Remove
Ġsecond ary
udi ence
Emit ter
get Re
Work ing
Min utes
Ġident ical
ER O
read Line
index ed
ASC II
top ics
st ation
et o
Ġas pect
Ġint ent
let s
pro duction
De letion
Ġcom posite
PA REN
Fra ction
Ġtool s
e qu
x label
ST OP
ĠRE ST
Ġ' |
([ \
transl ated
. =
end ants
Bu ilt
Local es
Ġ= ~
ĠS ym
Ġun link
ov y
O ID
ance stors
is ions
up loaded
ĠS ite
Ġre curse
ĠA N
Rot ation
k ops
de lim
un iq
Ġsh own
sub s
, [
Ġ Resources
get Block
und ler
dist inct
get Server
Ġd jango
F FIX
re ssion
en umer
Ġnode List
Ġdefault Case
c rc
Pro posal
Ġrender ing
s itemap
id ing
Ġg oto
User Name
Ġob servation
Sens itive
w a
Ġbuild ing
ITE M
P aint
vi ct
cour ses
pix els
en queue
Ġco verage
L n
er c
Service Name
")) );
Ġpre pared
at ypes
Ġt ol
Ġ' =
Ġget Type
æİ ¥
Ġ' ve
RO P
ĠY AML
PRO CESS
s dk
ne eded
c losing
in ated
el t
To File
Members hip
="" ,
log ged
sc ape
service Locator
G ro
c am
qual ified
Ġref s
por ation
å¼ ı
Ġurl encode
Ġauto Convert
Ġbounding box
Collect ors
; ");
Ġdi strib
s un
se mant
Ġend ing
MO DI
T ARGET
Ġt t
pro files
ãģ ®
D ro
dum my
Ġf our
ä¸ ĭ
Ġsever al
() +
end Element
ĠB EL
AD MIN
Pl us
dat atype
over lap
: ,
Ġ' ::
Ġ" __
In gress
Ġclean ed
de sired
add rs
pre f
Api Exception
ĠRe cognitionException
" %
Opt im
e th
In ventory
Qu ick
TH E
drop down
Ġpublish ed
Ġun safe
ĠRe ce
HA SH
Ġp ing
set Parent
ĠT op
Ġ/ ^
From File
Ġet ree
p ic
Ġf v
pre ferred
content Object
Ġe g
ens ors
AUT O
COMM AND
ĠVALUE S
pie ces
r hs
Ġal ter
ĠU ri
Ġcar ry
s ap
Ġ ĉĉ
FI RST
Ġob server
Ġle ader
ĠGe ometry
Ġprint ed
H it
Ġf ake
Ġnot es
ay stack
k i
chem y
lat able
Ġauth enticated
ĠCo unter
ĠA sync
At tempts
ĠRe st
Bus iness
EX EC
ĠLog ging
POS ITION
/ #
Inst alled
ud a
get Group
Ġde scribed
Display Name
String Value
Class ifier
ĠAd min
Ġ" ":
List Item
ĠAt tempt
Par sing
comm end
ĠMem ber
M F
R ob
Ġ Identifier
ime os
ĠP ush
Cl azz
HTTP Error
: #
B ank
Ġm g
param Name
ĠAt tributes
override s
Pre ferred
Ġident ifiers
ado op
ĠUs age
Ġtr uncate
Ġget Property
Ġ3 00
Exp iry
ĠP redicate
ob server
DE V
Ġ ][
get Extension
Check point
initial izer
Ġnot ifications
clean ed
set Enabled
Ġfeature ID
Rece ipt
ĠCo ordinate
En crypted
ĠL T
Min ute
ĠBig Integer
= ");
in o
an imation
con versation
Ġapp lies
Lim its
Pop up
ĠAtom ic
Ġget Ifc
Com poser
Http Exception
aff ected
Ġun serialize
msg s
Vertex Attrib
Ġcom bin
Ġsignal s
mob ile
pa city
Ġim pro
Ġindic ator
N a
Ġme th
cond itional
wait ing
fetch All
Ġloc ate
('_ ',
tr ial
(" ");
check NotNull
Ġmark ers
arb age
Ñ ĩ
e very
get From
Ġal phabet
ĠE mail
ĠEx pr
LI SH
Ġeps ilon
to List
ĠĠĠĠĠĠĠĠĠĠĠĠĠĠĠĠĠĠĠĠĠĠĠĠĠĠĠĠĠĠĠĠ ĠĠĠĠĠĠĠĠĠĠĠĠĠĠĠĠĠĠĠĠĠĠĠĠĠ
Un icode
Ġy y
iter ate
Red uce
b ul
k y
Ġs anitize
TE X
Bl ueprint
Big Endian
art icles
11 1
I toa
Ġout bound
ĠSe ction
go od
ufact urer
æ ģ
Ġs af
list dir
ag gregation
ĠD NS
ĠO b
S ip
l ename
ut ors
Add rs
=" '.$
VER BO
Ġcor ner
check out
Ġdecor ated
Grad ient
ĠJson Object
Ġsen se
K V
S olution
o e
co bra
Con v
auth ority
Ġany way
uplic ated
am ent
ext ent
to i
ĠRe ferences
Ġ: ,
)) [
Http ServletRequest
Vert ices
åī į
Ġs aving
el apsed
gr ading
Ap pro
ST IN
Ġ2 2
Ġapp s
Ġdistance s
Ġevalu ated
Hint s
ĠB E
AD DR
Dat etime
M at
R etries
pi ct
ular ity
P icker
p ivot
me ans
query String
By Type
check er
Bucket s
åĬ ł
L R
00 01
Ġ3 60
Ġchild Node
Ver ification
VALID ATE
H ref
L AT
Ġtoken izer
h c
By Key
Ġclass path
" /
. '));
f y
Ġth us
ĠM O
Ġpercent age
ĠLook up
qu ick
for t
int o
Ġan n
ex ponent
Ġin vocation
Ġa udit
ĠL I
cre ator
we bsite
! '
S uite
Ġc x
Ġpro ceed
Ġun marshal
sy scall
Does NotExist
STY LE
im a
Product s
Ġdefin es
out come
read only
Add ing
DI RECT
rs a
Ġhook s
Ġde ad
Ġimport s
Ne ighb
G uest
h n
ĠC raft
Ġr ng
____ ____
Ġsv g
Ġde letion
dis cussion
S uggest
Ġm illiseconds
al i
() ])
Ġif ace
Ġol der
Ġ' >'
St roke
ME lement
par ing
we ak
"> <
LANG UAGE
r pos
è ¦ģ
', $
oo ser
PRO JECT
Cal culate
Ġsplit s
Ġgra de
Ġprediction s
w ill
ers ister
Ġ0 7
AL I
nowled ge
L ess
ad vance
Ġ2 6
As sessment
Propag ation
que e
Ġof fer
Fe e
Ġdepend ent
S pa
h istogram
Ġ ancestor
Re v
sh ut
Ġag gregation
Ġtri es
s ymlink
de sk
]+ )
Ġs rv
iz ard
Ġun iform
Node Type
=" +
iter ations
Part itions
Ġasynchronous ly
ĠS SH
TE ST
com puted
åĪ Ĩ
M ixin
me ga
Base Url
full name
me ss
Ġ' ..
ĠL ength
ĠTrans form
Calcul ation
add Option
RO LE
press ure
Pag inator
Ġn at
mail er
C ross
new line
Cache Key
C LA
w ildcard
get Collection
set Accessible
'] .'
ĠT LS
AR B
cir cle
REMO TE
b ag
Ġf a
Ġc utoff
ĠO perator
unct ools
subscription Id
Ġm aint
Ġ% #
posit ive
ance ll
ĠCom pletableFuture
in flux
Ġapp ended
BO OLEAN
! "
M aker
IT ES
FI ED
Ġdat asource
br and
ĠUnsupported OperationException
Orient ation
Ġre duced
get Project
KEY S
Ġgener ating
Ġar bitrary
W AR
y ellow
CH ANNEL
SCO PE
C MD
ç ¼
ew idth
Ġst ub
Com pression
Ġim pl
JSON Object
expression s
avig ator
SING LE
e led
j query
re main
; '
= \
s ilent
Ġ1 0000
`` )
BIN ARY
Ġtrigger ed
APP LICATION
percent age
åĢ ¼
Un set
ĠEx pected
Ġh its
Ġkey base
Ġk ube
sub scriptions
http Client
Ġreg ard
vc f
Ġschedule d
get Input
Ġinput Stream
lik elihood
N arrow
re act
Ġs olver
ĠI NDArray
Ġvar ious
Ġskip ping
B and
P ID
h d
Ġ escap
ĠĠĠĠĠĠĠĠ ĉĉ
Ġav g
fall through
P ORTED
he ap
Ġx path
plit ude
Ġfollow s
1 0000
im uth
ĠD uration
create QueryBuilder
åı ¯
FLA GS
verg ence
L inux
t ice
str ipe
func s
ĠĠĠĠĠĠĠĠĠĠĠĠĠĠĠĠĠĠĠĠĠĠĠĠĠĠĠĠĠĠĠĠ ĠĠĠĠĠĠĠĠĠĠĠĠĠĠĠĠĠĠĠĠĠĠĠĠĠĠ
Ġclass Loader
Ġpress ure
åıĤ æķ°
T ON
e lect
m ot
et ag
ag ram
queue s
Parent s
IDEN TIFI
us pend
ĠW riter
è ½
(" </
Re presentation
Cont rollers
ug e
from Response
Ġmin ion
ac quire
ĠCol lect
Ġscal ed
q p
Ġ" ".
Ġa cl
Ġl dap
part itions
Ġback wards
09 6
ĠService Callback
åħ ¥
Integr ation
to wn
vers able
Last Modified
('- ',
Illegal ArgumentException
C s
re write
Ġun supported
G ot
data store
Ġmod ifier
Transaction s
En crypt
Ġsign ing
Ġhash es
Ġsu itable
v oice
str toupper
con version
Ġget Data
ĠFile OutputStream
Ġframe work
Ab breviated
Health Check
COMP LETE
IC K
Ġpredict ed
æģ ¯
ĠA L
')) :
ĠUn expected
Ġrepresent ed
E tcd
Ġl ittle
ĠC ould
Log Level
Initial ize
ĠRes olve
V pc
on ym
width s
writ ing
" })
p reserve
Trans late
Encoding Exception
SPE CI
Key words
Ġsub scribe
ĠReg istry
x p
str ide
Ġj ump
Ġ= &
ĠN UM
Get env
ĠS can
Ġmo ving
ĠDE BUG
Ġtw ice
? ',
ĠCan not
Ġoptim ization
) ['
Ġlocal es
AC CE
isTrace On
Ġre peated
Ġ) =>
Group Version
Auth enticated
Order By
U GIN
c map
l ug
Ġth ird
node Value
> '.
am eter
ĠA LL
Ġstr ide
DO CUMENT
jac ent
ĠD rop
Ġ'. ',
n y
p assed
ĠP ool
time stamps
ĠIn clude
ven ience
res ume
Ar c
ĠH y
ĠEx p
mode s
volume s
Dr upal
c riterion
de veloper
to ByteArray
cer n
B IT
C Y
([] )
ĠS creen
= \""
ac cum
Ġra ster
a Data
tree Builder
Ġtri ple
Ġph ysical
com bined
par sing
install er
SU FFIX
Ġget User
VARI ABLE
port al
code Coverage
mark down
86 01
F it
Ġ* ,
ve st
ĠM utable
UT ION
Ġc rop
ĠG lobal
Ġ'< '
Ġi e
ĠSet ting
LI B
å ¸
Ġin fer
gr p
Grant ed
Z ones
id le
ĠChar Sequence
E SCA
e in
in coming
Ġget Current
ĠR oot
Ver bose
Ġactiv ate
Ġre action
Ġ'# '
Lif e
F ULL
Object Meta
kip edia
xml ns
Check ing
Ġplot s
MT P
w cs
get Location
get Canonical
sum ers
TIME STAMP
G lyph
L etter
T C
bl k
om er
IN D
ĠD imension
Ġiss uer
D L
... ");
ĠDo cker
Ne ed
ĠAss ume
Estim ate
ç¬ ¦
M obile
Ġde leting
trans actions
Ġcir cle
en k
cs r
Ġb tn
W allet
n od
get Total
END POINT
uzz y
Ġn g
Ġtime delta
me as
get R
Ġresource Name
PRO XY
reference d
Ġweight ed
Ġsim ulation
codeCoverage Ignore
< >
s ocial
z ap
add Region
data Source
ĠW ord
lin ux
anit ized
s ip
Ġo id
Sh ould
: !
W s
m anagement
scal ed
inner HTML
åĪ °
I LE
Ġsq rt
+ \
C ertificates
Ġx hr
start Date
Ġuser Id
Ġshort cut
im ated
log out
AN Y
D M
me mo
ol vers
ĠT emp
el f
]) ]
man ual
Ġnext PageLink
Cl usters
ĠDe cimal
Rel oad
Dat um
åĩ º
Ġ um
ig ure
Draw able
e ven
x ref
Ġ Namespace
Ġg ather
ord inal
ĠO pt
Ġcontext s
". ',
Pe ers
J OB
Ġ Define
BE GIN
I X
Ġoptim ize
G ray
Com parison
ĠL ast
Time Zone
Ġmo odle
Ġbl ack
optim ize
Embed ded
quee ze
T s
j unction
Ġre use
Ġt ip
put All
ĠP olicy
Return Value
38 4
Ġobtain ed
Ġ Endpoint
ar l
__ ))
Not ifications
H dr
v d
al ter
To k
URL Connection
Activ ation
Le ase
fast q
ADD RESS
: ")
w l
PE M
process ors
chedul ing
DB Cluster
ĠUp load
Serial ization
Replace ment
åĲ ¦
Ġannot ated
ĠList s
Ġtra verse
Ġpersist ent
, %
d ensity
Type Code
ACK TOP
Ġcontrol s
Pag ination
r at
ĠM ag
Ġag g
Ġhelp ers
A toi
se verity
Ġ'- ',
Ġ angular
Ġh and
Ġcon versation
auth ors
Ġgroup ed
o ken
Con cept
ĠF ire
URL s
Syntax Exception
Train ing
Ġn ice
get Atom
ĠĠĠĠĠĠĠĠĠ Ċ
Se e
b asket
m imetype
s ampling
tr uncate
Object Name
sub type
Ab sent
Cons ume
Ġcir cuit
relationship s
ĠSpec ial
k p
Ġs it
(' &
isfi ed
check point
Ġpar agraph
m iss
Ġj j
SE VER
MP S
ĠMem ory
) .__
s ib
In vok
Ġ-- -
mask ed
Success ful
avel ength
CONTA IN
b rid
h mac
dict s
amel Case
y thon
get Params
ĠS N
ĠM etric
Un ary
Work sheet
Ġver ification
Ġeffect ive
g uest
Ġc rc
sp i
) ._
G ap
V ATE
De ps
DE SCRIPTION
Sto pped
tre es
e thod
Ġn t
Ġp rom
get Array
get Fields
Created At
Feed back
Ġlarg est
Ġoverr idden
S cripts
Ġd p
Ġtre ated
C ookies
set Description
ĠR ES
pop ulation
x i
Ġpro viders
Ġglobal s
ĠÐ ½
Ġvolume s
g m
Un authorized
Ġvariant s
G ra
K B
R W
s ult
Ġ3 600
ĠTh at
SI S
ĠSpec ify
get Style
ĉĉĉĉĉĉ Ċ
Ġsp in
Iss uer
Bounding Box
p alette
ra pp
Ġex ported
writ es
Ġst ores
pl ane
ĠD ATA
And Get
F req
get Meta
Ġs ingleton
1 10
= []
it ect
Ġm m
Ġinstance Value
schedule d
get Command
check Argument
[: ],
medi um
Ph ysical
4 55
pa int
Dis position
Publish er
: [
Ġp ivot
f its
State ments
Sc ene
get Reference
ĠP df
se lv
Ġf olders
get App
Pro c
Ġapp licable
ĠCom merce
Ġ__ ('
real m
ĠP assword
h uman
ĠA re
Ġup on
U AL
mod ifiable
Pos itive
Ġthere fore
M utable
P a
P ref
P ause
s ibling
Ġres ume
AN NOT
last Modified
auto load
SE S
He ap
Query String
comp at
test ing
namespace d
wait For
co ordinate
ĠS ORT
Ġkey space
ĠE NT
OD Y
Ġman age
Ġbranch es
R ol
c ers
de grees
Ġt y
Ġ` ``
ĠImmutable List
b racket
app a
ĠB o
Form ula
ĠConfig ure
Wait ing
ĠLinked HashMap
FAIL URE
F D
In former
(" @
ĠA zure
Ġ? ,
ĠE JB
ĠFunction s
(' *
Ġl l
ĠT CP
Ġk m
min us
object Name
Ġtermin ate
Y ANG
Ġpro vision
Ġtype Name
ta hta
PROTO COL
ent ially
Com put
gl Get
æ Ģ
to list
op enc
convert To
ĠS um
Ġget Name
sh apes
ph ysical
group Name
Ġcorrespon d
Quart ier
% '
O per
TER M
Big Integer
claring Class
R ename
l apping
set Allowed
ĠT HE
cl aim
E poch
K it
]) [
pri me
Log ical
Log icException
sql ite
Ġtemp file
Ġ') '
77 7
TRA CE
G re
ĠO verride
selv es
P G
get Manager
ĠS ync
Internal ServerError
ĠÐ ²
ĠM enu
Ġspec s
dis count
Ġap pe
w r
get FileName
char acters
PAT CH
ARG UMENT
Default Value
ĠArray Helper
Exec utable
get Language
Ġg ate
Number FormatException
M imeType
t yped
ĥ ½
__ );
ĠFor ce
Po ssible
STAT IC
gt k
Ġqual ified
set Current
emit ter
Ġbro ken
con crete
file Info
At t
CA LE
Ð ´
Ġpush Follow
fac ade
ul p
title s
sk u
C rypto
get Boolean
Ġl anguages
page Size
Chunk s
curr ing
FACT ORY
p ressed
ans wers
Ġdi e
separ ated
Ġg ives
field set
Node Name
EN G
NO TI
Ġcomput ation
ĠSign ature
charCode At
Com pound
Ġtime d
>> (
mac ro
Ġintegr ation
p al
Ġv endor
To Add
counter s
P AD
Q NAME
ma int
Ġpo licies
l strip
(' __
qu is
add Field
Ġhas n
Ġdb c
edit able
ĠResponse Interface
Ġpop up
tuple s
è ·
or b
Ġs olve
Ġsh adow
meta Data
Ġnormal ization
ĠField Item
Section s
Det ect
t v
resource Name
getS ystem
Ġ{ |
Ġext ent
Cl aims
åĲ İ
Ġn av
qu id
fo x
Not ifier
M ajor
Y our
ar ter
Ġun signed
An no
AF TER
Ġequ ation
- "
com parator
Un available
sort ing
TI ES
Account s
Ġcorrespon ds
il i
Client Config
Or m
Ġco variance
DEFIN ED
R F
ĠP ublish
SE ARCH
group ed
r g
pl ug
ick y
cr ud
Volume s
PREC ATED
D st
ĠL ib
Execution Error
m ultiplier
Ġre strict
add Body
ĠP REG
Context s
ĠV oid
Symbol s
Ġj casType
sc enario
Be ans
ct est
ĠR GB
Def s
Ġold Value
Graph ics
pag inator
] ]);
Ġrout ine
CONSTR AINT
S sl
er ior
Ġre covery
un i
ĠT rigger
Ġ*/ )
is Error
Ġs ip
Could n
[^ \
q n
Ġ ist
us ic
e er
q name
ph armacy
ĠB ound
Ġpos itional
alt y
umer ic
ĠField Location
Ġ" '.$
ĠF ull
Ġtyp ing
prevent Default
$ ',
un ing
Ġp db
root s
Ġinter mediate
Ġqu antity
MI ME
Ġget Resource
ash ed
Ġm ultipart
mpl s
measure ment
isNot Empty
1 16
U G
in ations
Instance Id
getClass Loader
2 04
g allery
ey e
To Many
Ġdis covery
x C
Ġh older
With Fields
cs rf
Ġdis connect
Option Value
lab or
getElement ById
il le
ĠS cal
(" #{
Ġk e
Out er
Ġtransl ated
ĠAuthor ization
get Storage
Ġo mitted
++ ,
Atom s
cred s
getLocal ized
get W
Ġ($ _
Ġz z
Ġff lib
IDENTIFI ER
Ġm k
qu ential
Call s
Ġar row
cas Feat
log o
Ġpartic ip
col lapse
send Request
Ġa mb
Not Supported
ĠCon dition
ĠConvert s
//////////////// ////////////////
b ond
Ġpro be
ĠIn fo
Ġdat atype
o User
Ð ²
in ja
(' ~
ĠĠĠĠĠĠĠĠĠĠĠĠĠĠĠĠĠĠĠĠĠĠĠĠĠĠĠĠĠĠĠĠ ĠĠĠĠĠĠĠĠĠĠĠĠĠĠĠĠĠĠĠĠĠĠĠĠĠĠĠĠĠĠĠ
cap abilities
i ro
an c
data Provider
Fail ures
Vert ical
Ġpro g
Method Exception
Ġdir ty
Ġalloc ate
C sv
{} .
ĠDe pend
Match ed
full Name
Struct ural
O s
r atch
int ro
Ġst ation
Ġdata Type
Ġch anging
ĠW atch
Des ign
Pri v
PA RENT
graph y
g w
User Segment
Ġfail ures
Ġstd Class
Ġaff ected
d ag
method Builder
TH ER
CS V
dat um
Bro adcast
ĠR aw
remove Child
Ð¾Ð ²
f ingerprint
is Blank
ĠCh ild
! ='
T c
r as
Ġ{ !
an ent
Ġ' ^
Ġd up
(" {$
Ġf write
get Controller
Ġv elocity
ĠT IME
pre ference
ĠString Util
Ġ{} );
ĠAr ch
Hash es
get Variable
(' =
ME T
} ?
Run nable
control s
enk ins
H andling
V oice
Ġ Ã
Object Id
Ġen velope
Ġstart Index
s z
Com ma
Ġwas n
le arning
Ġf t
Ġtra cker
ä¸Ģ ä¸ª
Ġre ach
Ġs ibling
Key Id
æĸ ¹
Ġmac ro
ĠSet tings
**** **
Per formed
Ġtop ics
HE IGHT
flat Map
ĠruleX Expression
o Db
w c
trib ution
SH OW
Comp atible
HO UR
L ng
Ġm ixed
Ġver bosity
ĠĠĠĠĠĠĠĠĠĠĠĠĠĠĠĠĠĠĠĠĉ ĠĠĠĠĠĠ
c rit
è ´
set Level
UN IT
C atch
H ello
x m
Ġcon vention
Serial ized
A nt
Z a
st em
get Route
ĠM anaged
Ġaccount s
ital ize
C ENTER
Ġp f
copy Of
medi ator
Ġ'- ')
ĠTime stamp
Ð° Ð½
th es
comp liance
Mod ification
C ar
:// '
Ġph oto
tre at
j d
Ġ" `
ST OR
Ġ`` (
remove All
Ġbyte array
DI SP
cons istent
W as
ut ive
re cover
sm tp
Ġ( [
call point
FILE NAME
F olders
Ã ³
stat uses
Dis cussion
ĠOpen Layers
R ANGE
s olver
de cess
Ġget Log
To pology
ref l
Ġlow est
hydr ate
XmlElement Decl
' ``
Ġin dependent
ĠJ s
Parse Error
BR L
T V
Ġc le
ĠClass NotFoundException
Ġimplement s
U tf
av atar
Ġle ase
recipient s
se cs
ctx t
Of Month
run s
inter pre
Warning f
ivers al
h h
l ti
n ic
L dap
int f
Ġcond itional
ĠASC II
â Ī
index er
ĠCon sumer
ĠEn gine
Ġmeta var
pread sheet
inu ous
8 00
h and
Ġs z
pe ers
=' .$
event Type
Ġlon gest
Lat itude
H H
le ader
lo ut
Key Name
_ ;
data frame
entity Class
Ġinitial Value
s uite
se o
Ġv t
var iation
Ġ} ),
ĠM anager
rows ers
Ġcollect ed
: ')
h ort
get Owner
De cision
Ġlist ing
Ġstruct s
0 33
orm ap
Attach ed
in strument
ld r
ĠStruct ure
ode s
ĠP K
Dif ference
and ra
Ġme ss
Ġclass ification
sl ashes
Ġmark up
Ġpe ers
plan ation
CLU DE
re achable
Ġto Array
Ġspec ies
Session s
car ry
H ours
Object Type
ere g
ATION S
MI SS
B IG
G UID
g h
tra verse
MODE L
pick le
P ie
m av
next Element
Ġ"_ "
Scheduler Support
C losing
P ing
un supported
ĠS P
view port
email s
Ġrequire ment
ĠTrans former
ĠResult Set
æ Ł¥
err Msg
qu iz
index Name
ĠW idget
ĠS cope
ierarch ical
k in
Ġc amera
Ġde coding
RE SH
Ġsub mitted
ĉĉĉĉĉĉĉĉ ĉĉĉĉĉ
34 56
ĠJson Response
expand user
ĠFl ag
+ )\
C b
s olve
Ġ( ))
Ġst and
Ġinter active
Comp ressed
members hip
B D
([ (
spec ies
Ġint s
Ġhe ap
replace ments
Ġtext ure
agnost ics
l aravel
Account Name
pict ure
rapp ers
C KET
t olerance
Ġf aces
__ [
sur vey
List Options
Ġthrow able
App s
queue d
Edit able
Implement ation
P N
Ġdata Source
pri vile
w k
Ġp v
ate ver
pro be
Property Value
Is Set
language Code
front end
h ello
x sd
ĉ ĠĠĠĠĠĠĠĠĠĠĠĠĠĠĠĠĠĠĠ
ĠD irect
bo th
Ġconf idence
Ret ention
PACK AGE
u pe
ing Mode
Ġse mant
out line
Ġ'" ';
ĠHttp ServletRequest
ĠAss ign
Ġf resh
12 5
Ġop code
Initial izer
; ",
s ible
Ġc ip
Ġs lices
File Size
ph ot
=' '):
Ġpe ek
PL UGIN
M Bean
e ol
Ġout come
Event Handler
Query Params
sw agger
xx xx
å½ ķ
. :
ĠT ake
tra cer
trace back
ä¿ ¡
æ³ ķ
re ports
'] =
Ġpro files
config File
åĪ Ĺ
Qu otes
write Int
gra f
ĠPro pel
Ġhtml specialchars
or ian
ch mod
vis ited
Ġ... $
dimension al
implement s
e ig
ĠL at
OR ITY
group by
ĠCon stant
view er
Ġback ward
Ġwatch er
gu ide
G auge
l m
Ġ` ~
Field Descriptor
H ide
V ID
face s
## #
Ġcl aim
Sub scribe
CRE ATED
Config ured
If Absent
Project s
Ñģ ÑĤ
DISP LAY
Ġc apt
ĠE MPTY
ĠBuffered Image
sp here
Ġserver Name
Qual ifier
> ')
M esh
sp ark
property Value
Ġdist inct
) ');
le ast
ĠL IM
istr ator
Ġsc enario
public Key
bu ffers
read Int
EN UM
ass andra
Ġv lan
token izer
16 0
havi ors
Ġhow ever
FE ATURE
G MENT
ĠS IGN
ĠL ex
Ġlower case
att ention
ra vel
In Progress
Ġindent ation
COR D
ang elog
IN I
Target Exception
Ag g
Ġ12 7
calcul ated
S y
Class Info
Ġbelong s
T X
Ġ' ~
trans ient
Y aml
ck s
Ġres er
Ġsign er
Work ers
H andshake
Ġis subclass
Ġwrit es
stand ing
ĠP r
client Id
Al location
ĠPro vider
add Header
sub plot
dis covery
Phone Number
Ġbecome s
A ES
st h
Ġm i
)) ),
add ir
J av
Ġ( /
Ġcon current
ĠP RI
Ġalign ed
h over
is Required
Ġt pl
ordin ator
Ġ ary
re cent
Ġf ingerprint
Ġreturn Type
Ġ{} :
ä¸ Ĭ
sen ger
Cap ability
b ri
s udo
Ġ"\ ""
Price List
Ġut ool
pur ge
Prot otype
Ġdescrib ing
Ġt ot
Ġas n
=' %
db name
find All
CH ED
ĠCom ment
BO OK
ĠAs set
request Params
entity Name
ĠRe ader
Read All
Require ments
b asis
d w
Node ID
Cms Object
Ġgen ome
Ġ(& $
get Offset
ĠP ointer
Ġstart up
attr Name
cat ter
Ġmod ification
Ġcons umed
Ġpie ce
` ).
Ġ é
Ġcom pose
Not ation
final ize
ĠDis patch
Ġear lier
set Title
ĠF ont
ĠException s
Ġmedi an
Re start
ĠC ase
tra iling
order ing
sk y
ĠL D
Ġloc ally
get env
app id
Se verity
ĠSt atic
Ġconfiguration s
Hex String
ro med
for ced
ĠN D
Ġsub tract
termin ate
å ¹
as er
fo pen
ĠI ss
Stream ing
ud p
h ib
t ex
(" .")
Resource Exception
ĠĠĠĠĠĠĠĠĠĠ Ċ
hash Code
ĠCom put
sn ippet
================================ ================================
f ake
m igrate
Ġ Definition
ol ations
Se en
ĠS ample
Ġget Next
sp ot
fe e
Ġreal m
getI ts
get Job
ME N
group By
sec utive
Ġmask ed
it ute
DE F
write File
Read ing
Ġvis ibility
ĠDE LETE
Ġnote book
Normal ized
Trans formation
Output s
throw able
hasMore Elements
z h
ĠV ER
Ġident ified
Ġca ught
s am
ul ations
In s
cre asing
Spec s
ĠChar set
ĠCP U
phem eral
tr ust
ĠY ield
Ġy es
Serial izable
rgb a
if rame
get Filter
ub ble
Ignore d
Socket Address
first Child
Skip ping
DAT ABASE
Ġp asses
Single Page
in ed
arg inal
di vide
Th rough
Ġyear s
D to
Ġb ank
pro filer
Nan os
Ġt bl
Key Pair
cl aims
private Key
http Request
ĠCon structor
Formal Parameter
Ġc aching
In spection
(" *
Ġset Value
- $
Ġp x
Ġne ar
åĲ Ī
D em
L ER
ç Ń
Com bo
Ġob servations
Ġmo lecule
ĠLIM IT
P s
De cor
child Node
field name
node Id
With Annotations
T im
k n
get Filename
ens ive
Buffer Size
DB C
LOG IN
>` _
à ´
ct ypes
ĠEn able
stop ped
Relation al
Virtual Machine
jo urnal
ĠDown load
P t
Ġth umbnail
(' ;
ĠM ain
CO RE
Over flow
pl aintext
Add s
div idual
Auto Scaling
easy json
p otential
str s
te le
Order ed
Ġdif fer
network s
blue print
ITES PACE
) ";
j ump
In correct
base s
10 2
Inter pol
ĠInter val
ĠSV G
U SH
Ġf ooter
ĠEx tra
close st
Access Control
Ħ çĲĨ
Ġf old
Ġj Query
Ġconn ector
mark ers
Ġconnect ing
Analy tics
ouch er
B eta
b ill
v ote
Ġc ampaign
ch allenge
Ġe asy
tern et
ĠW rap
Ġdefault dict
Im ports
open id
s nap
{} ),
DE P
select ors
ĠPro file
in a
Ġre write
add on
Web Socket
Ġmut ation
Ġre connect
Ġt gt
\\ '
Stat uses
Ġjoin ed
Rect angle
S aved
W in
Ġ Identity
im ported
Ġfloat ing
roll ment
findOne By
c df
tem perature
text area
AD ATA
Ġattach ments
AG ENT
ĠDe epCopy
è® ¾
ĠS ER
Account Id
D ates
ħ į
New s
temp orary
Pod s
A imeos
on line
get PrimaryKey
ĠO P
Ġinstruction s
C ron
S F
å ¿
num Rows
Ġlo st
Pub Key
y ii
get Count
co upon
Ġr p
Ġr w
pre p
Host Port
Ġgo es
ĠUtil ity
Clean up
WA IT
Ġderiv ative
Github Com
Ġappe ars
St ation
(': ')
Ġp seudo
From Array
raw l
P al
ro gate
ĠR etry
ret code
sens or
t ures
Ġex clusive
DB Instance
Ġcor rection
stack overflow
Ġfetch By
INIT IAL
amil ies
v pc
ç ©
ĠV olt
success ful
éĹ ´
* '
F LOW
se m
put s
im s
Up dater
ĠEx it
12 0
Ġpur ge
t ap
in ventory
ar ity
). "
\": \"
re pl
Ġf ine
Ġre commended
set State
C lip
ther net
ven ance
S olr
is Instance
Re plicas
Ca ption
# __
h l
Ġa ffect
Ġnot ation
und ing
( .
1 99
int errupt
Ġv a
ĠHE AD
Ġde viation
Read File
cmd s
SA CTION
implement ed
UNI QUE
Z ERO
Ġm r
end Date
Ġ... ,
EX P
Ġanaly ze
getLocalized Message
: /
Ġpre view
Ġbit map
cd n
MI SSION
Ġtre es
ĠRect angle
å ±
Ġf its
get Is
C amera
get N
AT ER
Ġun lock
v cs
Ġto ggle
ublic Key
tw itter
Ġproduct s
ĠLay out
G Y
re versed
User Data
(! (
ĠValidation Error
v ectors
an onymous
ĠT w
Type Exception
ĠOn ce
S ITE
v able
is Active
get cwd
Ġget File
be havior
Order ByComparator
ĠAct ivity
M ER
IT ER
l u
Ġalloc ated
get Post
Domain s
Ġoperator s
kw ds
P oll
Ġt mpl
serial ization
Ġbo ard
BE FORE
Ġre cursion
Ġch ains
Ġes lint
in p
Ġre ported
Ġg as
De adline
ME M
Sent ence
Ġaltern ate
Ġunt yped
SinglePage Async
it ors
od s
pro bs
CT ED
Ac c
Ġpackage Name
ĠRepository Exception
T enant
ĠS p
Override s
ĠĠĠĠĠĠĠĠĠĠĠĠĉ ĠĠĠĠĠĠ
Ġcomplet ely
b oto
(); )
ht able
ip p
ĠU ses
stmt s
H N
` ;
Ġd ialect
for k
sign er
Char Array
attach ed
ĠST AT
Ġ201 6
PAY MENT
ĠCommand ExecutionError
ASS OC
Ġrep lication
S ORT
f id
i ency
ver bosity
... ')
Tri ple
¨ ¡
get Columns
pre set
To X
Service Provider
Exp ire
High light
brevi ation
ynamo DB
h p
h old
or um
fi o
start Index
Im plicit
Ġsup ply
ĠST ACKTOP
Ġpie ces
G ui
L atest
P ad
h aystack
v rf
Ġ( ?
ĠV ec
Ġad vance
CRY PT
sub mitted
Qu oted
Ġret Val
DO MElement
Sto red
batch es
ĠST ATE
Co ver
Ġbutton s
Ġspect rum
en ses
pa ction
ĠFile Utils
ĠPro b
Ġfl ash
IL L
IG H
}` );
Ġ eng
er ation
Ġd n
New Decoder
do es
inter p
ĠLI KE
get InputStream
ĠIn terface
ĠSt at
IL ITY
Ġsl ave
Ġmat rices
Ġtick s
S G
re dd
Ġex posure
sc atter
sign ing
Publish ed
st o
is Column
He artbeat
Json Object
Ġtrack ing
g un
ĠO ffset
Ġsub scriber
Ġt au
to ur
Base Path
sl ave
lin space
Evalu ator
Ġm arshal
Ġv ox
ll um
ls x
PRI MARY
S parse
for cer
Ġiter tools
Ġfetch ed
contact s
c ies
Ġs nap
base dir
Ġ'_ ',
get As
um ps
10 5
pk t
hex digest
ĠCurrent ly
Ġpro cedure
Node Id
relative Path
result Set
Group Layout
current Page
Cms Resource
getRequest Context
ol ves
Ġh andshake
pro vided
filter By
Container Builder
ĠAl ways
VALUE S
gp Get
Counter s
Ġauthor ized
an ode
Key board
Ġq Path
uc first
addSelect Column
B ODY
th resh
Ġb son
Ġget String
prob ability
uid s
uc ene
TRANS FER
('| ',
C od
å İ
as n
Ġfor k
Ġcom pany
Ġtrans cript
Ġbl ue
Ġembed ding
Ġfast a
PARAM S
Ance stor
ç ī
Qu iet
Ġpag ination
Privile ged
WIN DO
c amera
y lim
Ġit r
Ġwh itelist
Wh ile
Ġdeli very
/ ')
id Evenement
(" &
add Parameter
Key Store
Ġ'' ))
gn oring
bit map
Ġ") ");
ĠMo jo
Ġac quire
SD K
Ġ' }
ĠIn vocation
Ġen force
current User
api Client
<?> []
Ġcom ple
group ing
Ġsup press
ĠEx port
Ġ\' %
Ġf rozen
Ġg reen
NAME S
ĠInput Option
(? <
X MLElement
ç §
get Values
get Transaction
Ġpro duced
com posite
ĠM aybe
remove Class
ç© º
/ ';
in validate
ss ip
ĠSet ter
VER IF
unct uation
. '),
/ {}
get Address
get Position
il s
function Name
ĠW ITH
Element Type
Ġnode Name
ĠStop Iteration
e i
Ġ" |
ap is
ĠT EXT
Ġr d
struct ured
Back off
] ].
() },
get ID
class List
Atom ic
è¯ ·
R L
me lis
ub ic
ĠD ir
Ġaccess ible
Ġtw ilio
T ier
Ġview port
site Id
Ge om
u it
set Length
im plicit
query Selector
ur um
ch ors
err msg
ĠS HA
per f
lib s
gen ome
+ $
P open
S alt
(' +
Ġ/ >
Ġbuffer ed
u ched
ch dir
Ġin finite
local Name
Ġindex Of
year s
å ŀ
Ġb am
Ġne ither
Ġfin der
Ġsp ans
Common Tree
ĠInputStream Reader
oct et
M eter
s ix
key id
pl t
ĠC F
sub tract
b alancer
y er
Ġclass name
ĠInternal X
Ġdomain s
N orm
d etermine
n di
Ġf r
Ġw or
ist ant
Ġplot ting
Ġtransl ations
B id
_ =
ĠC ookie
add Action
empty List
DO MAIN
pr inter
ĠFile system
cor ded
ĠInternalXbase WithAnnotations
Ġm ol
Ġde lim
ĠD Matrix
ĠB O
++ ];
ĠUn ique
Ġlex er
isNull OrEmpty
Ġ ì
ĉĉ Ġ
al bum
ĠA PP
Ġde s
Program Uniform
(" \"
ĠD ynamic
Grid BagConstraints
__ :
ĠHttp ServletResponse
Ġweb socket
H ard
] ?
Ġf m
Char Sequence
Ġlib kb
Ġfact ors
ĠMarshal JSON
> $
list ing
ĠD jango
Ch arge
join s
ĠStr ip
s Key
PROPER TIES
Ġalle le
R aster
ĠL azy
Status InternalServerError
Ġar ia
Ġ"' "
ĠSpec ifies
æĪ ·
WH ITESPACE
é ħį
Ġn args
ab out
DE LIMIT
seq s
Ġstrip ped
hint s
' ");
ç ł
Ġs ingular
DE VICE
assert ion
AV A
ALLOW ED
p illar
Ġp yp
get Contents
Ġ3 6
Chain code
C py
T ip
s olr
get Ref
set String
>> ();
Ġco mes
Annot ated
Leg end
ĠSec ret
s ms
-- -
Class NotFoundException
cre ments
cert s
Percent age
easyjson C
i B
us pended
ĠD ay
Ġcolumn Name
åŀ ĭ
F mt
Ġs ph
ĠP DF
Attribute Names
get Stream
Pro x
sp in
Ġmode s
D H
var Name
Ġ---------- -
Ġprot otype
/ #{
Ġf lip
ug ment
EX PI
cas cade
Ġdeli ver
F at
P DF
ĠS chedule
Ġtime stamps
num s
Ġsign ificant
il ler
Ġthe EObject
Max Results
Ġassume s
' %
] "
in vert
Bu dget
Ġun i
Ġle ad
Ġac curacy
Ġspa cing
1 12
d ialect
e b
al arm
ul se
ĠC RE
LE CTION
EN TRY
reflection Class
in complete
Ġw a
Ġpre fer
cent ers
O id
Ġ ul
ĠS uccess
ĠR ET
ĠH ANGUL
ED IT
Ġbound aries
Ġsp atial
) !
I ZE
r atic
in fer
'] ])
Ġadd To
`. `
Ġ` $
Ġhe at
Ġinsert ion
a co
Ġf requencies
Ġt riggers
ĠPro gress
non zero
ĠName d
Ġcause s
P rompt
Ġp added
ON ENT
Ġco lour
19 4
web socket
Pure Xbase
Ax es
activ ated
Tick s
S ending
get By
get New
'] ];
Ġres idual
Ġef ficient
Ġsom etimes
ut ter
\\ .
So ap
Ġasc ending
KED ITOR
Elastic search
CONTRO L
shut it
m oment
set Option
Ch romed
read ing
ateg ies
Text Field
Ġco res
ĠSh ape
ane ous
under a
I FI
v at
x hr
Ġs ound
arg ins
As sembly
Ġco v
aw n
Ġperiod s
ä» ¥
wp db
ĠFin ally
f ed
Ġstr rpos
Des cr
ĠCom pare
455 9
J OIN
è ¾
Ġr l
qu ota
Ġass oc
ater n
sim ilar
ĠSTR ING
STOR AGE
get s
Ġ3 4
ĠPro to
Esc aped
Chromed p
D RI
fix er
GR AM
V ol
x F
Ġ ub
ĠT imer
oo thing
Ġle arning
Reg ular
right ness
Ġ(' '
Ġlet ters
INTER VAL
Fire wall
GithubCom Chromedp
B L
se x
Ġg t
Th umbnail
Ġre plica
work sheet
ĠFile System
Ġ<< <
Normal izer
Inject or
Cd proto
GithubComChromedp Cdproto
A m
B UT
Group Input
Ġfind ing
VI SIB
Persistent Volume
U Y
Ġh aven
ER IC
ĠM ode
Tr usted
Ġpath info
SE CTION
mod s
11 4
SP LIT
Relationship s
F N
un register
Ġdo ctest
ĠW P
Author izer
Ġbl acklist
Ġens ures
B undler
() ],
tr usted
account Id
RM aj
A mazon
ĉ ĠĠĠĠĉ
Ġe ver
Com puted
[: ])
Ġloc ated
ATTRIB UTES
) >>
: ].
re striction
Ġre member
Par agraph
00 000
Nan o
getSup er
A verage
C DATA
P ainter
Ġo dd
ĠA CL
Auth enticator
"> ';
çł ģ
ĠT wig
As pect
Ip Address
S u
am er
AL T
ĠEd ge
ul er
Ġd w
Widget s
SEVER E
d on
le ading
start s
Tra cer
enc ing
Ġ5 12
Ġcre ator
? )\
Ġt ax
ic ated
DO C
= __
En umeration
sm ooth
Full y
Ġ201 5
SCA LE
x lim
Ġre ports
Ġ' #{
Ġ" ="
Sto ck
BO X
ĠSup port
æł ĩ
éĻ ¤
openc ms
Frame s
sn mp
ĠGP B
d jango
Ġm ixin
class ification
u k
ĠM ay
Ġser ve
execute Query
Ġ#{ @
skip ped
Measure ment
F ingerprint
y ing
Ġre porter
ab b
qu ot
red u
ĠSe gment
Ġattribute Name
('. /
t unnel
Re cent
pro vide
ç» Ħ
Const s
Ġinterpre t
! \
! --
M ux
up s
Ġerr no
Ġal g
Sub scriptions
sort By
Slot s
mat plotlib
For bidden
Warn f
ĠCms Exception
Aff inity
re member
co untries
Ġv ault
CO UN
idx s
Ġpur poses
Ġ angles
ĠC IM
Ġbe haviour
ĠĠĠĠĠĠĠĠĠĠĠĠĠĠĠĠĠĠĠĠĠĠĠĠĠĠĠĠĠĠĠĠ ĠĠĠĠĠĠĠĠĠĠĠĠĠĠĠĠĠĠĠĠĠĠĠĠĠĠĠĠĠ
Ġ2 7
OR D
p wd
ĉ čĊ
ĠM D
ĠĠĠĠĠĠĠĠĠĠĠĠĠĠĠĠĠĠĠĠĠĠĠĠĠĠĠĠĠĠĠĠ ĠĠĠĠĠĠĠĠĠĠĠĠĠĠĠĠĠĠĠĠĠĠĠĠĠĠĠĠ
Tag ged
Ġfe at
Ġeig en
Ġn om
Ġs pi
Ġel t
pre ferences
trans itions
Sh ards
ĠEn umeration
Ġest ablish
Ðµ ÑĢ
ĠB ecause
ref errer
g as
Ġg rpc
De leg
Mess aging
work shop
Command Line
Package Name
Ġexp iry
Ġstruct ures
Pag er
Ġspa wn
set Is
Ġget Object
new Node
input Stream
Ġindex ing
ĠLog in
lev ation
Gu ard
Rot ate
/ _
Set Name
ne arest
Ġsh uffle
UN K
Ġyield s
Handle s
Ġserial ization
free ze
Ġ( ++
ĠM ultiple
Ġme chanism
pri mitive
Invalid Argument
HTTP S
publish er
P D
b irth
c sp
und ant
DE PRECATED
split s
App lied
Java Script
RES OL
F old
g ray
Ġ[] []
ĠJSON Array
PRI VATE
MISS ING
re wind
ĠĠĠĠĠĠĠĠĠĠĠĠĠĠĠĠĠĠĠĠĠĠĠĠĠĠĠĠĠĠĠĠ ĠĠĠĠĠĠĠĠĠĠĠĠĠĠĠĠĠĠĠĠĠĠĠĠĠĠĠĠĠĠ
OR S
vert ise
Create Struct
cp us
To Be
IP Address
bl n
Ġorg an
ĠS cale
String Var
di strib
move To
Ġtc p
Ġbatch es
Ġsm allest
user Data
ĠService Response
h params
et ree
ĠString s
Tra it
fl u
li ers
Type Info
Valid ID
Ġmod ifiers
Ġk s
Ġmeasure ments
Walk er
b m
Ġp aint
Ġm anagement
De clared
ĠP RE
user Name
ep isode
Ġle arn
El t
)* (
V ote
ĠP ag
Text Node
Change Listener
Ġremo ves
Ð ¼
pro v
Ġx max
'} },
ĠT akes
Con cat
dis card
prop ag
iet f
+ /
is nan
un g
Ġg id
by ref
Ġnetwork s
pie ce
ĠNormal ize
B i
lo red
pe ech
Request Id
rain ed
Unexpected ValueException
O ct
S ales
IN FIN
Ġrun e
trim med
, (
t end
or row
Ġa f
Ex cluded
ver ified
ĠB oot
Ġaccess or
S peed
sh uffle
Min or
B T
if o
pack ed
ĠData Type
2 02
s x
Ġpre ce
ĠH O
create View
Ġtag Name
)/ (
I SH
] ")
Ġf atal
Ġp illar
Re stricted
qu otes
To One
Ġqu it
ĠRout er
Sym fony
H alf
L M
e vidence
t ol
z illa
PAR T
ins ide
Skip ped
AUTH ORIZ
Ġregard less
Ġd m
Ġd ashboard
ĠParam s
Ġpk t
QUE UE
: **
F Y
on ic
Ġg row
trans formed
? '
j sp
he artbeat
16 8
ĠPos ition
v g
v ity
er ay
get Methods
Ġs g
ĠF ill
YY Y
Ġocc ured
01 2
open ed
aff old
ÐµÐ ¼
llum inate
l ag
Ġb ridge
Ġst ypes
ĠM at
ALI AS
/ \
N ING
T ake
Ġm ongo
Ġcol on
Ġid le
object Manager
Require ment
Ġtor ch
Uplo aded
P ix
h aving
co ef
Ġl p
Ġex ceeded
ĠF ore
Argument Parser
M APP
s coped
Ġc loser
key Name
ant om
Line String
DA V
Ġoptim izer
Ġpot entially
Ġ ing
Ġp rune
com put
Data store
reg s
Write Header
Bl ack
Ġestim ator
ĠSort ed
ĠCO MP
optim izer
Ġconcat en
S chemas
è ĥ½
co lour
ĠS H
Ġfac et
ub ead
IT IVE
DO UT
PRO DU
Ġet cd
FT P
Related By
ĠComp iler
d ue
i am
font s
è¿ ĩ
Ġdro pped
Ġ{ //
Ġs udo
Ġcl aims
Ġconvert ing
------ +
Accept ed
= {})
un wrap
ĠC ategory
port ion
å §
Ġover all
rt n
Ġaccept able
Cor rect
COMM IT
built in
Deserial izer
Tra iling
root Dir
p itch
Ġlist By
Ġclass ifier
cod ings
Ġdiag onal
R DF
U V
Ġhe ading
cip hertext
ĠError s
Ġproject Id
Ġsystem s
ĠInternal PureXbase
s Name
Ġc oin
Act or
> (_
] ')
Ġ Bucket
con firmed
CON D
Ġnv ae
al phabet
get Left
get NumberOf
Ġ" ("
Ġint ended
Domain Name
Author ized
Fetch er
lif eray
Workflow Execution
Ġp alette
() (),
pre sence
>> ,
Ġgroup ing
Ver b
Ðµ ÑĤ
) ]);
A E
Ġg uest
Ġx x
Read s
isColumn Modified
ĠD river
Sh ader
Ġbase s
Ġhash lib
rad ians
track s
ech n
Ph oto
Week day
mis c
Ex clusive
ines is
gn c
Exp licit
grade s
Soft Layer
Ġal location
z y
re connect
add Item
ant ic
User Info
Ġsearch ing
Inter action
pub key
FOL DER
Ship ment
G l
ĠCh ain
Ġsnapshot s
Mac ro
qub its
Pro cedure
getM ain
pag inate
generator s
Ġ\" %
U C
c g
Al arm
Ġpri vile
Ġpack ets
Ġinv oice
(... $
or Else
Ġd ont
Ġun iq
content Id
http Response
Top ics
Ġst able
Ġ@ $
=' ')
åı ĳ
Monitor ing
Ġintern ally
Ġign oring
v x
ĠC N
Be arer
æĸ °
k k
o cket
v p
w rong
log p
Key space
Ġassert ion
ĠIN PUT
Ġfont size
ĠA UT
Ġcon cept
On line
ĠCom parator
Ġcor pus
------- +
W orld
â ķ
Ġth ink
cor relation
Ac cum
Ġlimit ed
D ry
r is
Ġd h
art ist
s as
In verse
Ġget By
Ġwant s
et ary
oid s
Ġso ap
Ġdi vide
Ġtermin ated
* ,
ĠC alled
Ġattempt ing
o logy
et y
Ġre cogn
res ample
ĠF A
CODE S
rand int
ĠPri vate
al ink
od o
int val
ĠC ipher
file size
Ġ2 9
Ch ains
Ġpre cedence
case s
EN TI
getS ign
nan o
ĠHtml Tree
deli ver
Ġmet av
fact ors
H ave
V m
le ad
is ot
de e
ra st
Re positories
Ġex tras
Ġwh atever
Ġ4 01
ĠSub ject
Relative Path
A GER
o li
Ġp en
ot ypes
Ġdispatch er
( ("
Ġn ic
ĠP ID
inter active
ĠDe ployment
document Element
ĠSh ared
ĠOperation Failed
decimal s
Maintenance Window
^ [
al m
In herit
Ġthis Obj
Build ing
z k
get Driver
With Stack
s lices
To Delete
short cut
Ord ers
æ ¨¡
el if
od ata
Ġcancel led
set Message
query set
Ġle ts
object Type
10 8
web hook
Ġ'\\ ')
Confirm ation
an imate
])) ,
ĠDE SC
dispatch Event
UD P
M R
m ong
com ma
Class path
field Definition
Ġpre c
ĠRe lease
round ing
Full Name
MB OL
Ġasc ii
B F
G N
Ġs lide
ĠL imit
est imate
Ġprob abilities
ĠPh armacy
Ġw ent
Ġj wt
ĠEvent s
[' @
ĠV olume
Ġver ified
yy yy
CAP T
S LA
St ar
Ġpersist ence
itect ure
C aching
r ss
Ġse mi
Ġget Path
ĠG en
ĠRe store
service Id
cy an
B el
t ur
ra ster
'] ).
Request Data
Ġobj s
Entity Id
dt uple
snapshot s
V s
t gt
Ġc ritical
ĠU SER
qual ifier
tra it
ĠSe cond
fail ures
Weight s
bus iness
è® ¤
MET ADATA
% ',
: \"\\
H K
ĠD istr
exp orter
Ġ6 00
WA Y
M Util
Ġget Field
Ġpro duction
Sh a
ĠRemo ves
b z
e fin
st ores
Ġl r
Pre tty
Ġinstall ation
ouse l
Milli second
Add Nested
Control s
Ġbox es
Ġmonth s
> :
Ġsh apes
Reg istr
handle s
11 5
Success fully
CONFIG URATION
Leaf Node
setAllowed Types
Ã £
row Count
Value Type
Col l
reg orian
isting u
mi rror
ros pected
Ġd ag
ĠWe ek
ĠModel Node
Ġmat ter
Ġnorm ally
re action
... "
App ender
")) ,
ĠTrans fer
YY YY
Include s
M G
m ay
Ġ 99
an alys
cor rection
mark et
Ġpop ulated
Ġreason s
ĠUP DATE
S ingleton
ol ated
Ġv c
Se g
ĠE S
Ġ4 5
Ġm gr
(' .');
Ġsub s
AN CH
V IS
b w
ĠĠĠĠĠĠĠĠĠĠĠĠĠĠĠĠĠĠĠĠĠĠĠĠĠĠĠĠ ĉĠĠĠ
Ġretrie ving
S quare
Ġt aking
get Right
id en
Ġpro tein
And roid
Ass oc
Ġplace s
Ġ'; '
N EXT
T W
\ ")
if ted
Ġre view
Ġstatus Code
ĠlocalVar ReturnType
å ·
Ġup stream
action Name
Spec ified
T e
Ġg or
SER IAL
D ROP
ç Ĥ
List ing
Ġpre f
======== ====
fra g
W W
Ä ±
if s
il oc
ĠS D
op code
Config urator
ĠIn ject
Ġwait For
agent o
Ġpur pose
SUP PORTED
DELIMIT ER
s andbox
Ġd l
En viron
Ġ(( !
ĠZ one
INTER FACE
Dat atype
Termin ation
get Double
Ġ' //
Ġin vert
Error Handler
Com press
from Array
Ġflatten ed
H EL
ro gram
lock s
Ch oices
Ġhold s
R s
} [
Ġnew Node
Ġe lect
ail s
place holders
An onymous
Month s
ä½ ¿
un modifiable
Ġpath name
Ġper f
Ġremo val
A f
m ixin
p seudo
Ã Ń
ĠR ound
Ġapp lications
As Stream
PRI ORITY
ĠGraph QL
re porter
is Event
valid ated
ac le
EN DING
Ġ4 4
.' </
Ġconvert s
C String
R ON
ä ¾
Ġget Persistence
read Only
Ġinitial izer
Front end
ĠDes cript
is Static
as m
el come
um per
ic a
Sub mitted
ĠWh ere
stri pos
N X
Ġ adata
Ġc ron
ST AR
CT YPE
Entity Manager
Ġ'{ '
Cert s
converter s
åį ķ
C ANCE
n f
u str
str Table
Ġto po
has Attribute
are as
element Name
Str ip
long Value
Ġ'* ')
BUT TON
em ber
Ġbase line
D id
b oost
set Body
Ġ3 3
ĠAt tach
analy tics
Composite Node
w heel
Ġc ertificates
get Remote
Ġmembers hip
et cd
ĠP el
ĠIllegal AccessException
NE G
Ġrespect ively
Ġs ampler
ad a
ĠĠĠĠĠĠĠĠĠĠĠĠĠĠĠĠĠĠĠĠĠĠĠĠĠĠĠĠĠĠĠĠ ĠĠĠĠĠĠĠĠĠĠĠĠĠĠĠĠĠĠĠĠĠĠĠĠĠĠĠĠĠĠĠĠĠĠĠ
Ġx i
Ġstop s
ĠMon th
cir cuit
^ (
k le
ex clusive
Ch ooser
AC C
Comp act
Ġin p
ert aint
Has Suffix
201 5
? >
S ynchron
In Bytes
(" "))
ĠC arbon
url encoded
var Value
config urable
Ġbl k
Mer ged
Prot ected
c rs
re ferer
add Component
ĠM ail
Session Id
Ġprefix ed
Bundle s
cons umed
88 59
Ġtile s
W ish
Ġ" ))
Ġm a
Ġim ag
Out bound
Ġtrans ient
255 19
78 9
distance s
ĠEl se
Ġin herited
set Response
Node List
With Field
Status OK
View er
VER Y
Ġroot s
ux io
ws dl
ĠTra ck
Ġ' |'
Time d
mt ree
Version TableMap
ds a
Ð¾Ð »
T abs
t u
Ġ} }
ĠA P
Ġg race
Response Exception
bl ur
Port let
Ġman ual
F println
Ġ{ \
Ġp ts
Ġb illing
Ġm igrate
Ġto olt
'] ],
De p
Ġstr tr
Start Index
Ġslot s
b ian
Ġof ten
Time zone
Ġloop s
BO OL
SE NT
Service Exception
eps ilon
ĠCH AR
' {
M W
(_ .
AC KET
ĠUp dates
SV G
J WT
s queeze
Ġ( {})
Ġp ix
---- -+
ĠM tas
ĠU int
assign ments
Ġsimilar ity
h df
n aming
p ct
Ġd ic
Ġcred s
O O
R B
ĠS IG
vi ction
Ġlik elihood
Ġpars ers
h op
re es
get Resources
token ize
]+ )\
Ġsm art
tick er
ĠPrint Writer
ĠGPB Util
Ex ponent
Long itude
Ġmark et
' >
add Property
mer chant
integr ation
instruction s
c loser
Ġst roke
readFile Sync
. '.$
Ġre build
ent ropy
get Role
ot er
In coming
Ġto day
start up
Ġå ¦Ĥæŀľ
jac ency
å§ ĭ
F RA
e Z
Ġre jected
Ġd fs
class path
Resource Name
ys q
Normal ize
align ed
aug ht
ĠLine ar
è®¾ ç½®
F lex
l it
t ell
Ġ[ _
Ġde g
Ġdata center
Ġcheck er
mon ey
/ '.
th ere
Ġd u
Ġg s
ĠE lastic
Or Path
Descri ptions
V C
q t
ra ction
Ġnew er
Ġh s
To Int
PE G
car ded
Ġsuc ceeded
éĶ Ļ
Reser vation
D ns
Ġ! ($
Mut ation
Ġinterpol ate
effect ive
P icture
S vc
set Query
Ġup dater
Var Name
ĠWork er
ĠServlet Exception
: ]:
p aper
° ĥ
new Name
pa que
Ġpre ference
next Int
Ġph rase
Ġ"] ");
ĠP Y
Ar row
Ġk sort
ĠRe quire
MA G
Ġfetch ing
:\" %
getService Locator
, _
d rive
æ ®
re ed
Ġs uite
key space
log file
RE CORD
md b
attribute Value
Re cognitionException
ĠString Tokenizer
ne cessary
ĠWh at
Ġrelationship s
str ptime
max Length
.$ $
gener ation
o y
Ġfunction ality
ir m
ref lector
Up dating
Trans ient
Ġcir cular
inject or
j vm
Ġ0 777
Com mun
** *
Ġhe artbeat
Form s
rel path
Tool bar
Ġmulti ply
ĠLD AP
M igrations
y ou
int ent
DO T
GLOB AL
DR L
ĠByteArray InputStream
Ġgr unt
NOTI CE
/ {$
ers hip
con cept
path To
Ġ2 000
Ġpack ed
Bucket Name
Ġrect angle
Ġpol ling
ToX en
E q
get Subject
ib er
sc p
Ġal arm
Ġle aving
tag ged
full path
04 30
CRE T
Ġpol ynomial
calcul ator
r sp
at ts
pro tein
Ġr sp
Ġget Content
Ġal ive
av ailability
Ġz ap
alle le
Provision ing
I AM
w ide
Ã ¤
ĠT er
IZ ED
Ġpropag ate
. </
I so
e o
f rozen
th etic
Ġb old
ri b
per Page
Ġtr an
Str ipe
Raw Message
G OR
c ube
r split
re covery
class Metadata
ST ACK
Ġemit ter
GRO UND
Bin der
VERBO SE
] `
ľ Ģ
bo u
PRE SSION
SETT INGS
Ġ Keys
Ġn ick
ĠTh row
lv l
- ',
Ġ ĉĉĉ
Ġplace d
T ar
is Set
ro bot
get Adapter
Ġon line
App lications
Ġ', '.
ĠZ ero
Ġassum ing
ĠP ayment
Cl s
Ġfig size
MB ER
ffff ff
ysq li
] &
Class ification
pi o
Ġro l
Le ast
lick r
extract or
analy ze
Ġeas ier
se crets
Ġw ish
ight s
CIM AL
d ense
Ġ[ ('
config Path
read lines
Min Max
etermin es
}: {
Ġatt ack
GENER IC
ch oose
Ġin validate
pr ing
getS ort
rs ion
DA O
st reet
get Items
Ġst ale
ĠTh ey
base Dir
Ġqueue d
ĠInternalX text
Ġconfig urable
Ġ*/ :
RO LL
head s
Ġt id
us able
Not Empty
Ġback off
IL S
ĠMy SQL
h w
set Context
Ġex ceeds
out s
ĠKey board
generate Url
b cc
Ġst oring
Ġ(! _
ĠO rig
Ġvalid ity
boolean Value
Ġenumer able
Ġdet ach
ĠDis able
M kdir
ul o
il iation
ĠA C
sc ipy
Add Param
çĽ ®
B N
Get Name
DE L
Ġassoci ate
Ġca ption
remain der
é Ŀ
pl uck
ĠM ac
([ ],
do g
LI KE
Ġwidget s
ĠPer iod
Ġadjust ed
S ites
ĉĉ ĠĠ
Ġ1 000000
Pro tection
En sure
PAR SE
confirm ation
ĠPack et
S lide
_ ):
Ġfor ced
Ġh c
Ġapp Name
Attribute Type
exists Sync
ĠGener ates
orth and
is Open
Ġh ot
Reg ions
Ġmark down
Ġqueue s
Ġsample d
A ri
Ġe DataType
Associ ations
s ound
æ ±
Ch rono
Plural Rule
Rob ot
C G
G allery
Ġo mit
to c
Ġerror Message
Config Exception
item pty
Ġdis cover
configuration s
INFIN ITY
c gi
Ġinfo s
ĠRa ise
lips is
)! =(
co efficient
ĠT otal
ĠT AG
\" ===
Ġcons istency
ga u
ĠLE TTER
D n
Ġin vok
ĠH elp
Ġsub type
New Buffer
template Name
Ag reement
go v
Ġdet ector
FIN DER
Mis match
prediction s
ä½¿ çĶ¨
ĠT RACE
Class Type
Ġco erce
m w
n z
Exception Handler
ob servation
from String
Ġnum erical
ND ER
fast path
s ch
ed u
ST ER
Attribute Name
Is NotExist
Work place
ipp ets
a con
Ġ" ").
Not es
cor ner
Ġtest ed
Ġcum ulative
ĠDev Failed
I lluminate
S OL
f coe
i om
Out come
buffer ed
Secret s
ĠCommand Line
TRAN SACTION
å¤ ĦçĲĨ
S pi
x min
ĠC ancel
sp ans
getS cheme
Comp liance
unce ment
ĠDet ect
ereg ister
e ast
em oji
Ġan onymous
Ġcom pared
Field Seq
ĠE V
ĠPro gram
Tx t
mag nitude
tz info
PR INT
è· ¯
D Y
g al
Ġn y
set Path
Process ors
QU ENCE
ĠeZ Debug
Pixel s
Try ing
ĠAg ent
T yp
t an
ç ®
Ġb t
Ġe e
IN VO
åŃĹ ç¬¦
ĠPATH INFO
in et
); }
AL IGN
parse Long
sg i
Det ach
inu ation
ĠSAX Exception
6 39
A st
'] ]['
string To
Ġbe am
Ġget Context
ĠB ody
Ġ3 5
Item Id
Ġmin us
)$ /
Network s
getEntity Manager
K ill
P rom
w atermark
re positories
ur st
Ġs x
ey ond
ĠF igure
ID S
spec ification
Ġtri angle
Ġob servable
Sort ing
S aml
r ates
x E
à ¨
get Channel
to CharArray
Ġy max
Sp ot
' <
C pu
P ick
W ill
Ġ que
get type
get Entry
ig s
unc ation
event Dispatcher
Ġcl oned
Ġv ote
Ġun register
of fice
AL TER
version ed
right s
(", ");
peak s
MAPP ING
U A
Distr ib
Ġimp act
N aming
O ra
de aler
um in
ap pear
Ġx min
Status BadRequest
ein sum
get Un
get Auth
Type Parameter
text Content
Resource Bundle
Ġquery Params
MP P
Tick er
: ");
g ather
Ġa a
set Label
(" >
Ġend Index
Ġinter est
Run s
15 0
Ġsentence s
Cir cle
get Formatted
By Path
write Error
Tra ffic
Ġtrans itions
parameter Name
A Z
F ar
z ier
ĠS ame
En forcer
Ch allenge
cal lee
Ġinter action
("/ ")
Ġqual ifier
ĠDest ination
L i
M ixed
vi r
Message Type
ĠG rab
Check out
S andbox
h ed
h ore
Ġp itch
ch ains
ĠS M
new ArrayList
Or Fail
10 3
Ġ] ));
getRequest Parameter
ĠDepend ency
Ġre cognized
ĠM OD
Ġch allenge
request Id
State ful
write Varint
Ġparse Float
root Path
Ġperform ing
evalu ation
Cir cuit
Spa cing
ch i
ch k
res idue
ĠT E
Tr an
are t
cle ot
ome ga
direct ives
ĠXML Stream
PHP Excel
Ġconstruct ed
/" +
rep lication
efin ed
de m
List er
Is Dir
Ġover written
ĠTree Map
P anic
s Value
è ĩ
ex plo
Class Names
Ġim mutable
Ġadd rs
modified Columns
get Environment
Ġin form
Ġin complete
Ver ifier
Ġassign ments
C op
s uc
Ø §
add Argument
Ġcap abilities
ãĥ ¼
$ .
c amel
m al
re w
Sub mission
enter prise
ĠÐ ¾
BO UND
Artifact s
Ġso lid
Network ing
pool s
Remo ving
commun ity
) """,
V PC
Ġr val
ĠIn f
Resource Group
Valid ators
ony ms
Ġcounter s
Ġsym metric
ĠOPTION AL
A IN
get Color
ex posure
Ġe vidence
Th en
Ġtra jectory
RGB A
Ġ Def
Ġp print
co effs
(' `
operation Type
getUser name
fire Event
annot ate
i ri
q m
ul ian
add resource
Pro filer
tem pl
num Cols
ĠNot ify
Ġwant ed
ĠTrans l
un subscribe
Class Metadata
Ġuser id
ĠCom mit
19 6
Ġapply ing
ãĤ Ĵ
Algorithm Exception
atern ion
DRI VER
a id
Ġc sr
it r
() ]))
Ġinter cept
Ġdat um
åĬ ¡
OPER ATOR
Ex ceeded
fig size
Ġget Service
cre ating
ĠY YYY
Ext ent
cod ers
ç» ĵ
isNot Blank
altern ative
C as
sp awn
ĠO k
ens us
order by
TR IC
ĠBack ends
N r
m ultip
m arshaller
)) ));
Ġcon crete
Sn ippet
a es
ra ses
let ions
NO TE
ĠY aml
Ġstream ing
D CA
M vc
d ent
Ġ ib
Ġn avigation
om itempty
ob served
Ġle d
ref und
Ġ-------- -
Pool s
TA S
cid r
B I
Model Element
G rammar
V iable
are house
CA S
Key Error
scal es
è¿ Ľ
getDe claringClass
ĠruleJvm FormalParameter
ACCE PT
C ity
I CT
x D
Ġs ong
li est
fo s
ĠRe act
Ġad j
l am
Ġ ----------------
Ġt abs
set Timeout
Un recognized
RE Q
RE PLACE
ĠSet NextToken
ĠV AR
... ');
Iter ate
Ġ", ")
Ġpar a
= ")
] /',
m etry
y r
Ġz ones
vis ual
Ġ'" ');
celer ation
I STR
T axonomy
Bu ff
=' .
pan e
Ġtrim med
ele ms
FIN ISH
T Z
get Modifiers
Ex periment
ID DEN
sk ill
/ <
Ġv pc
ĠM alformed
par a
Of Type
PRO FILE
- \\
j p
m orph
Ġpro d
__ ),
limit ers
ret ch
Mem o
Ġport let
Ġctx t
note book
Ġce il
Ġcod ing
ĉ ĠĠĠĠĠĠĠĠĠ
Ġ' !
Ġj oint
db Name
(& :
Ġcould n
d ial
ç º
to po
Con currency
out going
form Data
S ymlink
i ra
y e
text ure
target Path
Do Request
Ġpass phrase
cy cl
sm art
d anger
f resh
or ient
Ġget Request
ĠAn aly
Ġ". ")
cycle s
G G
g ender
Ġv cf
ĠD er
dis pose
Le ading
10 7
ĠRE AD
signal s
Bo ard
ĠĠĠĠĠĠĠ Ċ
get Http
Ġs amp
ĠT eam
ong sTo
Ġload s
Ġdif ferences
Ġet ag
extract ed
ĠSw itch
Adjust ment
Aggreg ator
( {})
Ġ Loader
ur is
Ġs anity
Ġch arge
Ġany more
Root s
ĠÐ ¸
off line
Ġsk y
j Query
Ġis Null
Se par
part icipant
")) .
Security Exception
Css Class
] ");
Ġin ferred
ab i
set Version
ri p
Ġde leg
IN F
ĠE F
resource Type
IP s
document ation
Ġthread ing
inner Size
åı ·
ĠPri mitive
Ġprox ies
d uplicates
Ġn dim
get ContentType
oo led
ized Type
Volume Source
ĠYANG DynClass
ĠPersist ence
interpol ate
YANG DynClass
ĠIss ue
Ġtoolt ip
G lob
J K
M anagers
è ±
LE T
PER MISSION
Ġconflict s
ĉĉ ĠĠĠĠĠĠĠ
Ġ{ %
get Email
Ġd rive
new axis
Part y
Ġct ype
USER NAME
Di agnostic
Ġseparator s
et SocketAddress
set Color
En g
ĠM AP
back off
Ġopen ssl
card inality
ih ale
hance d
E B
um or
ĠT yped
Error List
ĠCom parable
np m
SY MBOL
Ã£ o
= {$
J sp
it ers
Ġw g
Ġcom ps
write String
Ġent ropy
Literal s
() +"
Ġin ference
ĠR ew
Ġout going
Ext end
less on
require ment
Ġ201 7
Ġpublish er
Ġ'+ '
t art
Ġb ed
ĠC KEDITOR
log ic
mail box
Ð ¿
To Check
(). (*
('/ ');
Illegal AccessException
Viable Alt
\ ";
s List
get Expression
Ġb md
Qu ant
Std in
Ġcomput ing
ç±» åŀĭ
****** /
_ ',
get Level
Ġ- (
Ġcont our
gp u
ĠWeb Socket
Ġaccum ulator
ViableAlt Exception
) ';
get Uuid
Ġh mac
DE LI
Ġuser Name
Ġlisten ing
ä¿¡ æģ¯
Ġauth ority
get Provider
tr ins
In strument
ic ates
Ġel astic
Ġor bit
entity Type
Cur r
ĠDe ferred
Ġstop ping
want ed
Ġke pt
add Message
Sub set
Version ed
11 11
Factor ies
breadcr umbs
Q P
å Ŀ
Ġp as
err it
Query Param
font size
getParameter Types
Ġ orders
Ġre plic
om b
Ġcol lapse
Ġne ur
wh o
Ġref lection
Rate Limit
ĠExec utor
Associ ate
Dry Run
è± ¡
L P
T D
percent ile
ĠDescript or
h azard
Ġ ray
set User
En umer
user info
Tri p
Ġ[ {'
ĠM ore
op ener
ĠW ARN
size of
ĠE L
gra ins
Ġkw arg
ãĢ ģ
pur pose
Ġ{} .
Ġtri al
ĠIN DEX
Writ ing
ĠMojo ExecutionException
) ||
{ |
ct ime
ĠA void
Ġpl aintext
25 0
Ð° ÑĤ
Contract s
Pur chase
l bl
end ian
Ġde cision
index Type
STR UCT
ĠAl ready
Ġartifact s
ancell ation
or able
Not ice
Ġ'. ');
Connection Error
const s
WE EK
ĠeZ Content
ubead m
çĤ ¹
ul u
Ch rome
Resource Id
Base line
Ġpr inter
ĠThere fore
çĶ Ł
H I
n es
á Ł
ar ded
Y AML
ĠR ULE
ĉĉĉĉĉĉĉĉ ĉĉĉĉĉĉ
route Name
ĠNull Argument
Ord inal
C DF
h ind
w ater
Ex panded
var name
Ġun changed
SE CRET
text s
Ġevent Type
Ġlib xml
201 7
Offer ing
( .+
: $
C andidates
P URE
Ġf ault
get Prefix
ile stone
Iss ues
ĠSign al
precation Warning
Q A
em pt
Ġlo s
Ġcor rupt
ur istic
set Config
ĠP latform
ĠG O
TY PO
ten ded
ĠST ART
ĠMod ify
sentence s
Ġoccurren ce
ĠS UB
pro of
ow el
path Info
Instance Group
old Value
Ġ5 9
A ut
S cores
Ġreplace ments
Ġsepar ately
_ \
Ġtransform s
Ġactiv ated
associ ated
d ig
k ers
get Unique
Token Type
diff s
å½ ĵ
set Visible
Re quires
column Index
10 9
get L
Ġ' <?
Ġurl parse
Ġutil ity
Ġdec ide
clause s
Ġoutbound Marshaler
M TAS
v k
Ġh el
Ġl ag
ĠO B
mit ives
Log File
Ġtoken ize
Ġ[{} ]
[ ::-
à ¥
Ġ QU
Ġpro f
Im ag
Build s
Ġ'_ ')
ĠPre fix
b at
j dbc
is Info
ĠC ir
Ġ] ),
Ġaccount Name
Org an
Ġ"{} "
OPER ATION
mess aging
" {
= ["
} })
Ġ ]))
as String
ap prox
Ġon Error
trans parent
Sp ans
Ġcontinu ous
P ivot
f av
r ng
Ġbreak s
Ġ'/ '.
Ne g
iation Exception
p ast
Ġtr uncated
Ġget Parent
ĠJ WT
Debug ger
Ġgenerator s
R AD
ar o
Re ject
Ġmodule Name
COL ON
Ġappro ach
CONTAIN ER
re plica
to Json
error Handler
Ġcheck Argument
Des ired
Ġclient Id
(\ $
ater Than
CA ST
("/ "))
Ġcommit s
R en
b an
g ml
Ġf il
ad m
Ġr tn
pa rency
ĠB ro
XX X
Ġsym bolic
Install er
m ags
Ġd ash
pos ix
vid ing
AP H
Entity Type
ĠUn able
Ġ': ')
or de
get Hash
get Store
line Number
IF T
Success Response
ãĤ ĭ
scroll Top
E lect
F B
M d
Byte String
M ysql
[ ++
b all
Ġ// ================================================================
None Match
conn s
Ġdetermin es
M agento
__ ',
Ġsub system
ĠPro vide
äº İ
desk top
+ ',
S Z
r n
Ġp n
get Tree
ist ype
Ġfield Type
Match Set
agent s
Ġcert s
wi kipedia
L vl
h m
is fy
ex cel
RE SET
mand atory
IT AL
ĠFile NotFoundException
UP LOAD
web kit
T riggers
t body
ule s
Ġj ournal
())) ,
operator s
Ġden ied
readcr umb
; "
ro ids
Ġ" ',
Ġde clarations
with in
Rad io
P red
R D
ĠC UR
Ġg ain
{} :
:// %
Local ization
Ġbuild s
Temp File
ä½ į
Ġinterpre ted
ĠLogging Util
i ability
ĠS pl
key Type
Ġim mediate
Ġcal ibration
DI G
Global s
exclude s
semant ics
S itemap
è Ģ
Ġt lf
Ġm igrations
In cluded
'] ]);
est imator
Ġ6 3
Ġsuper class
Lim iter
c lic
q os
get Constructor
Ġ" ${
ĠĠĠĠĠĠĠĠĠĠĠĠĠĠĠĠ ĠĠĠĠĠĠĠĠĊ
ĠT urn
pre senter
To ggle
Request Context
Ġapp Id
db Handler
Ġoff line
L ON
on Error
get ReturnType
face book
pr une
depend s
Xml Content
äº Ĩ
Tex Coord
Fat alf
) /',
is Undefined
Ġin clusive
QU ARE
Comp ilation
Ident ify
\. \
ĠPart ition
åĨ ħ
+ -
S q
g em
v ect
lo pen
ĠT ool
RE P
ie ve
Font Size
updateresource s
ĠYield s
P ING
o log
(" |
ST ANCE
Of Day
Th at
ĠEx pect
Ġselect ors
display Name
Decode Error
(\" _
iw ik
Ġ ug
Ġf q
Ġm n
Ġget Attribute
Ġan im
Node Data
ick ness
Ġplace ment
ĠPh one
associ ations
P i
ĠS S
Ġnew Instance
cap italize
ĠAd just
ĠSimple DateFormat
Ġdecl are
b on
ĠĠĠĠĠ Ċ
In secure
write To
"] ]
Page Size
xx x
ĠSw at
Ġadapt or
H IT
K eeper
S AX
In bound
ĠS napshot
ĠT wo
Ġpro of
If Needed
0000 000
media Type
Author ize
Ġm l
Ġh d
Ġtag ged
Syntax Error
åŃĺ åľ¨
W ave
ĠĠĠĠ ĉĉĉĉ
Le ave
Pool Size
MO VE
ipel ines
ĠAli gn
Ñ ħ
get Password
pro metheus
Con current
base line
Ġ4 03
Ġac cessed
Ġfind All
Access Key
Quiet ly
i el
è İ·åıĸ
Ġres idue
oc c
ĠM IME
Ġun wrap
DS A
ĠCO UNT
N Z
Ġs coped
Ġpro ducer
trans formation
insert Before
embed ding
ss o
To Object
Ġexist ence
Ġport ion
BU ILD
Tool tip
FFFF FF
Ġguarante ed
Inspect or
E Tag
G uess
d able
al so
Ġtrans pose
ĠX A
Image Stream
rout ine
MAN AGER
Y es
ĉ ĠĠĠĠĠĠ
Ġg rp
Select ors
Document ation
40 3
Ġ201 8
æĺ¯ åĲ¦
E p
Ġse ason
Ġh ub
req s
Ġopt imal
Ġweb hook
(` ${
cnt l
ĠFe ed
' ")
b az
d os
In Seconds
set Field
Value Pair
ĠR SA
Write Byte
week days
pip es
Ġconfirm ation
B enchmark
g ain
de ad
Ġf riendly
Pro be
Ġint ensity
')) .
Port Type
quote Column
Ġatt ention
REMO VE
Ġn aming
Ġcon struction
log its
ip Address
sub j
Ġsub string
EX PRESSION
Ġgener ates
Ġcop ies
, **
C rawler
de clarations
Ġsub classes
Ġ'$ {
D ummy
d sl
Ġre act
Valid ity
Ġprop Name
ĠTrans port
E v
[ ...,
f info
end Time
ĠT ags
ell ite
Sto res
Wh itelist
pass wd
Ġequal ity
Updated At
getFirst Child
Ġb w
em ical
Ġ[ :
Ġ_ ("
ĠString Writer
Config Map
Ġpath Params
open ssl
handle Request
Ġexpect ing
MEDI A
Ġtim ing
contentObject Attribute
Ġsaf ely
al chemy
Key Type
Ġsub tree
']) ->
Red u
ĠÐ º
Ġil legal
get Doctrine
ĠT ile
out dir
path info
Lo st
Get Value
ac s
ĠPre pared
ense mb
DATE TIME
READ Y
Ġdecor ate
Ġinterpre ter
Ġcontinu ation
sessionID Arg
(\"_ \"),
in crease
Ġs lope
): ]
Un safe
ĠG dn
Ġversion Id
server Name
Char sets
Ġrecord ing
graph s
IG IN
Depend ent
Ġrecipient s
ĠScreen Constants
' /
E JB
Ġd etailed
Ġw f
ol ate
ĠA DD
Ġg iving
entity Id
HTTP Request
cer pt
C id
ĠC URL
ĠEx ternal
clus ions
IST ORY
implement ation
ĠSyntax Error
\ $
d atab
load Class
dis p
Ġ4 2
Ġsql ite
ĠruleJvm TypeReference
t el
get Previous
In Use
Ġv tk
ged com
Ġlock s
ĠLay er
4 01
b one
r mtree
et e
Ġp em
om it
dir Path
pk gs
prop Types
Ġcycle s
STIN CT
Ġt a
Ġex ceed
Security Groups
NUM ERIC
ä¼ ł
isEvent Enabled
M ass
R ich
e DataType
un serialize
ĠR ight
RE CTION
ĠH igh
Sum maries
Ġam plitude
Ġ ÑĤ
od ies
ĠC ard
Ref lect
Ġmod ifications
Ġdeep copy
HAND LER
g mt
n ight
ĠĠ ĉ
Ġb ra
Pl ane
Rew rite
Ġdistrib uted
V OL
[ \\
] ._
in file
in cr
Ġm imetype
Min us
Cancel led
ä½ ľ
Mag ic
ĠAv ailable
err str
ĠP arent
Ġsign atures
ACT IV
l ify
Ġ lf
Ġnot ice
ĠInst ead
MULT I
J AVA
i ations
p es
Ã ¶
get Search
node ID
bound ing
middle wares
B rand
D t
W rapped
è °ĥ
set Last
Ġcon secutive
oc used
block ed
URI Component
ĠToken s
T w
g cd
n ado
ĠF lat
RE PORT
Pre sence
Ġmin im
Connection Factory
Comp at
Ġfeed back
Ġcent ral
æ® µ
c ame
Ġ` .
__ */
est ra
User Pool
sum ption
store Id
tmp dir
quote Identifier
Ġ eta
get Errors
lic enses
Re act
File Entry
Al ways
ts v
quival ence
Ġbracket s
: </
h ers
ĠS parse
An n
Ġ/* #__
MIN UTE
([^ \
IMP ORT
Ġf tp
get Bean
il ence
ĠS oft
As Array
Associ ated
ĠReflection Class
mav link
á »
part y
Ġ5 7
Ġiter items
04 4
PRE FER
AND ARD
Ġ[- ]
Break point
ĠArch ive
st ype
). ..)
Ġcreate OrUpdate
cs i
Mode s
Work Item
SH IP
ĠCh art
Security Context
Ġeffect s
ĠFail ure
b olt
ex us
To Use
Ġk l
SE ND
Event Attributes
Auth enticate
Core Bundle
H C
b k
Ġm alformed
Ġpro metheus
sh ards
com bin
Ġrec v
Ġut c
Ġans wers
) !=
s ive
â ĸ
ĠS C
object Id
db s
Ġlocal Name
Ġfra gments
Ġcalcul ating
peri ments
Ġexclude s
H its
Y ield
Re action
ĠA TT
ĠF older
getClass Metadata
bucket Name
ĠBit map
getShort Name
m peg
al ed
Log ic
Ġvalid ators
Secret Key
C mp
d T
æ ¬
Ġl m
pro ducer
Ġcluster ing
fire wall
ĠOUT PUT
: _
D X
Ġt unnel
ĠT ab
com b
... ",
Sub tree
Ġenumer ation
MILLI SECONDS
? $
c aptcha
m enus
à ·
or ch
Ġp an
Ġin ventory
Ġd raft
Stat istic
Ġperiod ic
Ġam ong
utc now
decl are
Ġcip hertext
? "
s lider
Ġw r
)) |
Re jected
ĠB utton
mod name
Ġstd dev
Ġem oji
tab lename
Lif etime
Ġenter ed
s ale
re curse
Ġcon venience
sort able
Ġlib raries
commit s
Ġ'@ '
trip le
fab ric
P B
() })
get Selected
ĉĉĉ Ġ
Ġh ar
ĠT x
Ġfile size
ĠD ATE
Or Null
Hy dr
get Point
der ived
Ġg m
ĠJ MS
Ġret ain
Ġparent Node
side bar
Servlet Context
Assign ments
åĽ ¾
åĮ ĸ
d ark
Ġfor Each
Ġlog out
instance id
Ġso up
ĠK ind
Ġaccess Token
ĠLog icException
Ġtyp ically
G ING
n oc
in der
(' >
int s
add resources
Ġr g
Ġr at
ĠI Atom
ĠD iff
Ġspec imen
Block Size
og en
Ġ'* ',
ľĢ è¦ģ
at ively
get Link
Ġb enchmark
pa ired
Match String
Parent Id
Change Event
Over lap
Ġbundle s
I CON
Ar ns
Ġinter ceptor
Function Name
enum s
ĠDes erial
Ġqub its
C our
Ġm ultiplier
set S
Ġtr usted
Ġget OrCreate
pre fs
ĠO PEN
Order ing
plugin Name
Cms StringUtil
weight ed
transform s
Render ed
E cho
d ynam
i pos
n am
» ĺ
Ġw ater
Ġfore cast
Log ged
Group Request
Check ReturnValue
Ġcopy ing
controller Name
fic ult
ĠField s
ĠSup er
åĬ ¨
R q
n id
um mary
Ġg ran
ĠP olygon
Ġ% }
ĠD om
ĠAx is
Ã ¼
get Product
Ġv ers
tra de
Ġevent Name
page Id
»ĺ è®¤
if old
Data Object
SI C
web space
Identity Provider
activ ities
Ġgu ard
Ġcent ers
B AR
E qu
Ġb ail
19 7
PDO Exception
Ġgrammar Access
) ].
S Q
p key
r ub
z s
ĠO F
Dir Path
publish es
201 6
Writ es
Calcul ator
v iz
get Cell
key Code
\" },
:` \
Ġchrom osome
H z
P F
å »
Ġt ur
Ġvar iation
10 4
Parse s
ĠApi Response
Zip File
hard ware
C URL
Ã §
set Style
Ġg arbage
sp y
resource Id
prob lems
è¯ ¯
ĠPl ace
fact s
altern ate
ĠCalcul ates
ĠSTAT US
1 32
2 25
M ix
m eter
ç İ
co eff
Ġfor get
Ġde scriptors
(? :\
accept s
ACT ER
enar ios
mkdir s
_ ['
b gp
o Article
set Start
content Info
current Value
Mon ey
Ġplace holders
ĠQuery Builder
f riendly
i ment
return ed
Ġsh ip
Entity Name
breadcr umb
isInfo Enabled
is play
Ġp ure
let ters
Ġdis crete
Ġsession Id
Right s
Provision ed
D s
R G
s lope
up y
ĠS cheduler
im ens
add Method
Pro of
ĠB i
do i
19 5
Put Uint
loss ary
Ġwalk er
Ġox New
ĠRO OT
ch er
Ġm irror
ĠN S
ple vel
ec lipse
ĠCon verter
Ġpoint ing
pack ets
ĠAn alysis
Ġ9 2
person al
ĠJava Script
Ļ ¨
qu ares
und erscore
ess ian
ĠL inux
Out going
ĠRe cursive
Method Type
Ġblock ed
Job Input
Ġtri ed
Ġcause d
ĠFl ush
Gro upe
. ],
E Q
Ġst em
Ġl g
file obj
gra ded
lat ex
View port
Ġtra cer
Ġhash ed
Network Interface
Ġ") ";
ĠBe fore
Parameterized TypeReference
__.'/ ../
redd it
Ġw ind
ĠM P
Service Interface
cache File
Ġinter p
mem cached
commun icate
D ialect
s ay
v in
Ġb tc
key base
Ġor ient
LE SS
trans cript
Or Enum
ĠCon current
Column Index
Ġmin imal
Ġtable t
ik a
enumer able
bri ef
L ite
Ġo mega
Ġse verity
EN O
Ġqu ota
Api Key
getType Name
Ġoptim ized
p aste
é ¢
Ġs chemas
Ġa ir
ĠG RO
We bsite
Ġextract or
66 66
æľ ¬
Keep Alive
R ating
e a
g row
ĠT em
Object Reference
ĠL ambda
__ '):
create New
++ );
ĠCont ains
:`~ .
Ĵ Į
get Currency
pt ide
Ġint errupted
ĠL iteral
ĠE very
ĠG ot
\" >
Ġ5 6
ĠÐ ´
accept Language
IM UM
å Ļ¨
]) <<
Ġfinal ize
10 6
VER TEX
MM M
Sm all
Sim ulation
M ost
d ur
get Exception
com bo
ĠIn jection
From Cache
Ġper mitted
Store Exception
C y
M ul
] })
w id
st p
ar win
ro at
get Arguments
get Destination
return code
raw Data
raw types
ĠSub scription
Sp atial
L ed
g ies
g os
in ferred
var iate
Pre dict
Frame buffer
Cms Exception
Card inality
H EX
al em
ĉĉĉĉ ĠĠ
Col on
create Object
ĠU ID
Ġcor outine
Ġhappen ed
ĠCur rency
L U
get Map
get Trace
De leting
ure n
ST D
URL Exception
ĠUn ix
report ing
={ "
indent ation
mut ations
p Value
get Custom
Check Box
Ġport al
CR C
Ġproto buf
g ro
Ġf rag
Ġp aper
ĠCh unk
PRO G
Ġdraw n
Ġ201 4
s Output
Field Names
dis criminator
play list
Ġ', ',
Ġdr uid
I gnoring
Pro vided
sub tree
igr ated
Transl ated
Ġ' ).
Ġs am
ĠA D
Index er
Pre set
Ġos id
Ġcmd s
Ġpost s
Ġdraw ing
axonom ies
S PI
S peak
Ġre pos
(" ""
ĠC atalog
Ġget Child
ĠP oly
ĠM ult
ĠR etrie
ĠW arning
Ġoutput Stream
sd l
cycl er
) %
Ġ' }'
Ġreturn Value
Ġsend s
Ġcle ared
< $
F ONT
G reen
j e
m ic
Ġl bl
to HexString
ĠI R
next Sibling
Queue d
AS N
redirect s
Ġrad ians
åº ¦
isTrace Enabled
get Number
(' =',
ĠP E
Lo ss
Log out
Record ing
çĶ¨ æĪ·
PRODU CT
ĠKeyboard Interrupt
P ersister
Ġc k
oc s
Ġad jacent
Job Request
ĠEn coding
Validation Exception
Art icles
Test s
Ġauthor ize
$/ ,
V box
b ench
l ens
an im
Ġs catter
ex istent
Ġw i
Ġh azard
ig o
Ġget Message
AL OG
DE TA
CO PY
Msg s
fra gments
+ ".
I SS
R AN
() ");
Ġa mp
Ġ_ ('
bu st
join ed
ĠCom plex
ĠErr Invalid
è¯ ģ
Ġpersist ed
appro ved
Vbox PortType
F d
G ORY
V oucher
m om
in bound
de scriptors
Ġj u
target Class
Ġattr Name
gu ild
C V
æ ¯
Ġb eyond
Ġcon ver
ĠP erson
]) ->
place s
TH ON
Max Size
14 7
Comp iled
short name
Pull Request
T F
b io
æ ı
il og
ĠM AC
ĠM anagement
Ġch rono
Ġ/ >';
Se o
ĠH H
case cmp
Ġ`` "
Ġhttp Client
ĠPre vent
SA ML
) ++;
Ġget Method
Id List
fix ture
"] ),
Ġz k
Part icipant
Ġman ip
adapt ers
predict ed
Ġ07 55
$ (
J C
le ter
pt ype
Ġd uplicated
data Set
pi ed
"] [$
Ġfl uid
Ġrule Op
Ġextra ction
!! !!
ĠMin imum
stud ent
b v
Ġd ial
ab ling
ĠF ilename
com ps
group id
Form Builder
Sub system
Ref und
Ġapi Client
Parse Int
Internal Error
Ġpointer s
h ighest
² ¡
sp h
Qu ad
ĠX BRL
LI G
Short cut
ram id
ĠAnd roid
LAT IN
th ough
Ġd pi
In Millis
ĠS pan
Re pl
ĠM age
). """
Ġso on
=" {
core v
LOW ER
Price Entry
Der ived
er un
add Statement
Ġget Node
Ġ` "
Manager Factory
Ġdis p
}. {
SA FE
Ġoccurren ces
decess or
Ġ$ ('#
Ġf x
item Id
AD T
open ing
access ible
a ver
or arily
String Buffer
:// "
Ġexp ansion
ĠSerial ize
avor ite
at ile
Ġf utures
Ġc aches
Ġs urname
id ues
ĠP UT
class Loader
new LeafNode
Server RequestInterface
Ġprevent s
RUN NING
W I
b tc
Ġa head
Ġa jax
op eng
table t
Action Event
cor pus
ĠJSON Exception
lon gest
/ ******/
= ('
E very
L arge
b ands
at on
ĠA bs
Single Value
æľ Ģ
] ]))
h g
re present
get Layout
Ġl w
Ġstr and
Ġy min
ĠG aussian
copy Obj
11 7
)( ?
vt k
> ")
Z ONE
it ations
Ġ} ))
Ġs un
Ġse em
Ġw d
ant ares
Ġ[] ).
Ġblock Size
left Join
Ġfra c
E le
V ia
b iz
s ampler
æ Ľ
get Structure
tr ied
ĠP ol
Ġ/ \
Info List
write Object
Th umb
Order edDict
Parser OrEnum
exit Code
RESULT S
ParserOrEnum RuleCall
Ġse m
Ġd aily
(' ?
De ad
IN ET
Ġy s
so lid
wh eres
D ash
Ġ åĪ
Ġn est
it ivity
Ġl ng
cur ate
ĠE stim
ĠG L
ĠContent Type
å¼ Ģ
V pn
Ġb rowsers
ĠA ri
Ġg uid
ĠP atch
With in
Model Name
Ġversion changed
dat atypes
ĠImplement ed
d yn
f unctools
get Format
get Tokens
ig ma
St and
St ale
List Type
queue Name
æĹ¶ éĹ´
ĠWeek day
analys istype
d rivers
add Filter
cont ain
ĠM is
... ),
Body Handler
TH READ
Ġcomp at
delay ed
ĠWork flow
* )
L H
Add On
Query Result
hash ed
PRO VID
-------------------------------- --------------------------------
ĠReg ex
Sc enario
getPro tocol
Sl ave
Unsupported EncodingException
IfNot Set
2 24
k id
Ġf path
get AccessToken
node List
remove Attribute
ga uge
SM ALL
P alette
W arehouse
[ ~
ro te
get Runtime
co erce
set Layout
(" .",
Or Default
ĠLO CK
Unmarshal Handler
Dat as
C rypt
] ==
g om
i ded
get Doc
Get Object
Ġpre ferences
Ġund o
| \\
Ġf b
add Using
di e
An im
Mod al
getP ersist
Ġ'{ {
HEADER S
CANCE L
f ilt
in jection
ĠC ID
ĠString IO
Object ive
ac f
time series
SE LF
With Timeout
Char m
tl c
Bad Parameter
h ape
ime d
Ġor b
scal er
Ġtemp oral
UM NS
Ġder ive
h al
k o
l x
ĉĉĉĉ čĊ
Ġcurrent Node
current Node
ĠV PC
Dis connect
Is Zero
SC RE
Unmarshal Discard
ĠBack end
uro pe
irm ware
addUsing Alias
UnmarshalDiscard BodyHandler
T i
c lo
z u
en ess
et ypes
Ġ` {
struct ures
variable Name
ĠCh oice
Ġrandom ly
den y
SCHE ME
Ġf o
Ġpro posal
Ġde crypted
Ġav ailability
SI ST
ĠHttp Request
ident ify
* }
ar ms
get Domain
ad vanced
ext name
Ġde adline
Ġch ance
ĠH A
ĠE mbed
Ġindex er
oto pe
af ari
Ġct or
å¤ §
F riendly
s amp
Ġh op
to s
ĠB order
He ading
ĠSh op
ho le
ĠInt ent
COMP ONENT
Ġaccording ly
PARAMETER S
X D
l sp
u cli
v fs
Ð ·
is digit
Ġin file
ĠI o
ĠP ay
ĠH DF
Ġbu fio
Ġwork sheet
Ġsw agger
Port folio
getPath name
Ġlv l
Ra ft
Relational Database
éĶĻ è¯¯
F ed
Ġc riterion
Ġt up
Ġd v
De crypt
class ifier
RE NDER
LE G
Of Year
tra ffic
Ġshow ing
'=> "
d g
h ter
is is
'] ('
list Files
IN NER
Resource Definition
Manager Exception
SER VED
API Call
Ġdirect ives
Sequence Number
alloc ated
nick name
l w
un s
end a
Ġget First
ac curacy
dir path
source Path
Ġwork around
Op code
AS K
getSuper class
O THER
Ġt ele
back ward
Ġcheck out
ook eeper
tra j
Ġpart icle
Per f
the ses
USE D
Already Exists
M es
re strict
ri cal
art ype
tra il
parse Boolean
Pre diction
LO CALE
Ġrun nable
aw ay
B RE
Ġc ube
con current
ĠA st
Ġr isk
Ġget List
Pro cesses
pa res
Ġend Time
{} ]
New Error
Ġ'/ ^
Ġover lapping
#{ @
GR PC
S uc
b son
p mag
p added
Ġm ention
ĠC AS
ĠD IS
Ġrule ValidID
job Id
) """
W ay
f wd
Ġth umb
set Key
date Format
ĠW rapper
Ġsub scriptions
Group By
uint ptr
Ġmy minion
c str
h aps
v host
sub plots
Ġfield Value
Ġsup posed
ĠPersist ent
T MP
p q
set Date
Ġget Table
ME TRIC
UL AR
Int ro
over all
ĠParse s
Ġhy dr
Trim Prefix
æī Ģ
e per
t up
in vocation
in cluding
ing Exception
Ġo pacity
ig ible
ĠP ayload
To Map
Ġcode cs
Ġ... ]
." \
Ġsalt env
Assign ed
ĠOp codes
ĠWrit able
Ġf ilt
Ġwe ak
User Group
Executor Service
ĠValidation Exception
PUB LISH
- ]+
l arg
de adline
Ġin bound
ĠSt ats
Ref ToXen
Queue s
ĠTrans ition
Bl acklist
Ġart ist
Det ected
Sm art
Ġannot ate
ĠArt ifact
ĠInf lector
Ġc rit
get Tags
Ġm time
Ġe lems
son ata
000 2
ĠData Source
gl ue
menu Item
Replica Set
æ± Ĥ
D TO
F ax
ur ity
Ġt v
set Options
Ġvalue Type
Ġpri me
begin Transaction
Off line
Fld Foreign
V ocab
in ode
se ason
set Output
Ġnew lines
ĠN d
ĠF LA
Data Table
Ġlist a
send Message
det ection
Ġrec ipe
ĠAd apter
micro time
Ġrepl acing
å» º
T pl
c aches
is Public
if fer
Ġp res
(" (
res idual
ener gies
Ġra ce
Ġnode Id
Ġsome one
("/ ",
ĠOr g
ĠAb ort
/ >
de mo
De letes
event Manager
Form ation
Host Name
insert ed
auto complete
Ġc he
as sembly
Ġw rapping
ĠB lob
Ġlo t
Ġtitle s
Temp oral
Man age
ĠEX IST
ĠIn etAddress
Ġprocess ors
Task Field
Ġfe e
HTTP Client
Wait Group
Convert s
Ġ]) ->
Ġenviron ments
In clusive
im porter
ĠJ ar
has Option
Sto pping
Host ed
collection Name
Ġph ot
E ar
V A
p as
w av
get K
Ġtr uth
** :
Ġfull name
super class
VISIB LE
Ġdruid G
P aper
} $
on Delete
In direct
Ġe th
Ġget Connection
ĠSe q
ET A
REG ISTR
Ġsuc ceed
ä¼ ļ
N b
d ql
Ñ Ī
ĠD istance
Ġresult Set
ens ities
Service Account
write Lock
so lete
doc string
OL DER
Policy Input
conf idence
Encode ToString
team s
UNI CODE
some thing
Ġcombin ations
maint enance
S QUARE
h ar
Ġ[ ['
Ġget Key
") ]
Ġal bum
Ġdo i
EN ER
Order Item
sample d
ĠEvalu ate
ĠGRO UP
L ucene
O ES
v stack
Ġre li
ab ove
code base
AL Y
par m
Ġper ms
rec ipe
desc r
getM edia
rb ac
}` ;
MAN Y
æĸ¹ æ³ķ
get Info
get Original
Ġor th
To Index
PO ption
rec order
Ġrad io
Ġdiv isor
ĠOp code
ĠTop ic
x B
get Unit
Ġ* **
log level
Ġ- $
Ġpro viding
read th
Ġra f
sub scribed
ME MBER
create Request
Ġq r
pass phrase
) [-
S ensor
s aml
Ġs weep
Ġs iblings
ra ight
Ġv el
to logy
ĠR o
Read Closer
Call ing
04 35
[ *
is Dir
sub dir
LE X
Ġlast Index
Thread Pool
ĠTrans late
. ':
G MT
H i
b rowse
un install
Ġ" '.
(" ^
args pec
Tra il
record Data
SI MPLE
IST ER
ĠOption ally
Kube let
Asc ii
' ";
P at
Ġf fi
Ġv e
ĠV ertex
'])) )
Char Code
Ġ6 5
FOR WAR
oriz on
velop ers
Mult imap
RETURN TRANSFER
åº Ķ
C IP
J ms
is Number
Ġ( ),
Ġre stricted
Ġp ys
reg istr
resource Class
ĠList ener
... '
Ġad vanced
20 10
Ġwidth s
Ġ'] '
ĠNotFound Exception
lo om
user ID
Ġsub stitute
DE CIMAL
dis position
Ġmod al
ĠInvalid Argument
POST FIELDS
Ġ7 0
}} ',
ident ities
Ġrelease d
AUTH ENTI
Ġ\' {
PEN DING
Ġmaint ain
getCanonical Name
T unnel
s co
Ġget env
sub stitute
Ġen ded
Ġstyle sheet
s ol
Ġm f
ol ine
com bination
Ġal go
throw Exception
If Exists
getS ql
Ġsearch ed
alan cing
Ġpa ired
erc ise
ĠCraft y
M K
z r
æ ĭ
Ġout dir
Get String
Ġle aves
Ġcurrent Time
==== //
Ġgroup Name
Man ip
COM MA
Ġ"* "
quis ition
B r
T EN
); //
ĠS K
64 00
play ers
Ġ5 8
Root Path
14 4
mar ize
Initial ization
ĠGit Hub
ĠBoot strap
c apt
Ġc amel
De clarations
Ser ie
Ġ{} \
enc il
find Next
ĠBe gin
ĠSym fony
ĠND Array
I CE
S ingular
h andshake
in active
ne ar
TT OM
ĠCont act
commit ted
Ġ//================================================================ ====//
C ER
J dbc
V ille
v n
Ġ' ),
Ġs light
public ation
type Parameters
pect ive
getS ymbol
Ġtri p
Ġ'% '
Build ers
ĠMe as
Ð» Ð¸
Ġrespect ive
Sim ilar
Mkdir All
get Internal
'] ]))
pro per
(). (
append To
An imator
check State
For warded
.' _
Check box
Inter ceptors
Ġplot ted
Ġsp ot
Inv itation
CONST ANT
Hist or
Ġc class
Un used
Group ing
from string
getField Name
Ġfire wall
Evalu ate
ĠCl one
L V
N AM
Re peated
Ġv max
new CompositeNode
=' "
cache Dir
first Name
release s
ĠBuild Exception
ĠQu ick
nat ural
Ġm illis
Element Exception
ĠG C
ps i
From Context
Lock s
stop Propagation
after ParserOrEnumRuleCall
TRAN SL
} \'
ĉ ĠĠĠĠĊ
Ġg rand
mo lecule
prefix ed
cho sen
dec ay
Ġcap ability
Reflection Method
Ġhold ing
DIS ABLED
esh ell
Ġâ İ
M ID
m nt
n k
get Available
Ġget Column
Ġ_ (
app lications
ĠP ublic
ĠB ool
check For
PO OL
Cluster Name
XY Z
measure ments
Ġhint s
M iddle
ĠSet Name
ĠDe epCopyInto
Ġind irect
Parser RuleCall
Payment Method
" =>
log Error
loc s
div ision
Ġtool bar
Ġhard ware
æł ¼
A O
d pi
Ġc ategorical
ĠA F
Ġstat uses
write Line
ĠAl gorithm
Ġzip file
ĠRead s
DOM Document
åĮ ħ
j cas
v otes
get Stack
log Level
Ġ< ?
ĠR ate
Ġun available
send Error
xff ff
Ġround ing
âĢ Ŀ
Ġsn ippet
square up
FieldDescriptor Proto
ĠS Q
Ġst ock
ĠT itle
ĠSe lection
ĠIP ython
getReal Path
Ġre new
ĠN ative
IN CLUDE
ard own
inter cept
Job Output
Cal c
Ident ities
ĠSerial izer
ĠT S
Data Array
Node Info
Ġline Number
Ġ}) ->
201 4
Pages WithContext
walk er
Ġinstant iated
curren ces
M SC
Ġp ane
add Handler
ĠF ixed
sub stitution
output File
dis cover
... }?
Ġrece iving
ĠUs ers
instant iate
COND ITION
G V
ç ¤
ĠS lice
Ġ1 20
add Defaults
col lation
Ġfrom Index
response Data
Ġro bot
Ġpos ix
post al
post gres
ploy ee
Ġpe ople
protocol s
orph ic
M id
W atermark
Ġre vert
Ġin jected
ĠS ip
Re connect
ĠE mit
ok http
handle Error
OT AL
:" +
ele vation
Ġmer ging
Install ation
Forward ing
. {
H IGH
P W
T tl
Ġm iss
vi al
so li
Ġshow s
Ġrelative Path
Ġprimary Key
è¿ Ļ
) ((
P x
V a
ch es
Ġs pe
(' //
ĠT ango
Ġg z
Ġpro duces
order Id
Ġdatabase Name
ĠSerial izable
MULT IP
: <
Ġ# ################################
request er
Ġneed le
Open ing
ĠĠĠĠĠĠĠĠĠĠĠĠĠĠĠĠĠĠĠĠĠĠĠĠĠĠĠĠĠĠĠĠĠĠĠĠĠĠĠĠĠĠĠĠĠĠĠĠĠĠĠĠĠĠĠĠĠĠĠĠĠĠĠĠ Ġ
det ector
Cor rection
Ġ Results
in Cpy
is Closed
Ġv min
Ġas sembly
create Query
ĠG ra
Ġedit able
Ġlin ewidth
éĩ ı
Ġaggreg ated
Adapt or
in herited
set Item
add MethodCall
Ġj vm
Ġkey board
Of Work
CO ST
Ġorder By
go al
Del iver
Ġgo al
Ġreport ing
Ġask ed
: (
tr ash
value Type
Ġst amp
to URL
Ġ? ',
]) /
ä¸ ²
Mark et
Ġcommit ted
Ident ification
å® ¹
S SES
c ub
Ġ ER
um ing
inter action
Hash Code
(?: (?:
âĪ ħ
ĠP andas
SE QUENCE
we ets
pan els
11 9
Role Binding
Ġissue d
annot ated
QUOTE S
)) ):
ĠM er
ple ter
Sub stitution
doc let
Di adoc
Ġdistribution s
ĠLinked HashSet
ĠTH REE
Ġo m
Ġh p
Ġstr ipos
ob servable
output Line
norm path
ĠMod ifier
Ġs phere
Event Data
max Size
ps r
TER MIN
ĠCON FIG
Ġden ominator
Ġ[{} ]",
S ms
t ier
Ġ Bug
Ġget Last
()) [
Ġmsg p
Ġsc ratch
ET WE
redirect To
Ġplatform s
å¤ ±
ĠOption Parser
propag ate
3 60
> ());
Ġt ensors
ĠC ent
ĠB U
Ġnp m
Ġhttp Request
MA STER
Ġallow ing
font Size
ESCA PED
3456 789
> ]*
d j
f us
Ġf oot
Ġ' ",
local ization
Ġhas Next
http Method
Ġ4 096
())) .
inv ite
ĠIndex OutOfBoundsException
getRoot Path
nano Time
ç¤ º
ĉ ĠĠĠĠĠĠĠĠ
ro pped
Ġw ide
ĠA udio
ĠP EM
new Path
Ġdis connected
rece ipt
Gu zzle
Ġeas ily
Ġc ity
get To
Re cs
Ġget Parameter
Resource Inner
Im porter
Ġ3 8
Ġcalcul ations
Cons umed
Ġbig ger
Ġep isode
Alloc ator
ili ary
L d
T TY
li ant
In dividual
ll able
getId entity
Ġlat tice
SL T
ĠCur sor
ORIZ ONT
get Java
Ġis Empty
Ġget Response
time line
Time Series
Ġfunc s
rt l
Agent SIB
CB C
EXIST S
VERIF Y
ETWE EN
ORIZONT AL
+ ",
s Path
re aded
Ġd ense
cl oned
Ġour selves
34 5
Tri e
ĠPRO PER
i y
Ġf is
Ġb d
Ġb onds
app lied
ĠJ vm
ĠCom posite
ĠType Token
tick labels
Mail er
BOOK S
; //
sub scribers
Ġcur ves
Ġhash er
Feature Call
Find ing
ĠIO Utils
SIGN ED
ANNOT ATION
ertaint y
Ġp Entity
Ġo u
pe ater
err y
Get ting
Ġrequire NonNull
Split N
Ġfit ting
wb em
Bo th
I Q
J MS
Ġ' ))
Ġa i
Re cursively
File Type
cal ibration
End Time
End Of
Ġauth ors
owner Document
ĠAss oci
prox ies
Ġnat ural
ĠScal ar
} _{
st ory
am a
Ġv v
ver ification
Object ID
OR IGIN
bug s
Next SinglePageAsync
SC SI
factor ies
Ġsimpl ify
ĠVER SION
Combo Box
ucli de
= <
B log
C n
x lsx
In side
file System
Ġra ft
ĠG ray
ĠCon f
getDefault Value
Termin ated
ĠL ONG
For Key
Ġfl ask
Ġ12 3
Draw er
tim ing
MODI FIED
c w
Ġ ancestors
Ġf read
ĠP ub
RE TRY
Ġcol ormap
ĠB ASE
Ġcheck For
Basic Auth
diag onal
Ġè İ·åıĸ
ĠAre a
1 64
_ ')
d ists
Ġf id
Ġa e
ab ric
Ġv oice
Ġv oltage
ĠA V
Ġex e
Ġg aussian
ĠP od
Class name
source File
Recipient s
HAND LE
B tn
W L
d aily
o verr
Ġn w
Ġre ward
arg max
Ġcon sensus
mo ved
ne gate
Ġcheck box
Ġgroup by
look ahead
Ġstud ent
~~~~ ~~~~
redu ced
²¡ æľī
D URATION
F Q
N B
n w
an o
ad v
ad ic
Ġg allery
min o
vel ocity
IT ICAL
Flag Set
Ġtrack s
xFF FF
CLO SED
AI LABLE
d av
x or
al location
ist ed
00 2
Ġch i
ĠDo ctrine
Ġmark s
subject s
, :]
b yp
å ĴĮ
Ġ'/ ../
Ad resses
Ġav ail
sys log
OB J
FORWAR DED
uclide an
- '.$
M aybe
c name
c ors
is Primitive
() ==
ĠC HE
ĠM PS
Ġname dtuple
Com bined
RE A
PRO GRAM
Ġdesc ending
Ġsat isfy
Ġoverr iding
? ",
d ra
à ¶
() |
te ch
Com bin
ph ar
** (
\\ \
rol led
inter est
Device Type
Fore ground
addDefaults IfNotSet
D ONE
P ow
} |
Ġre named
il ot
user Info
Next Page
pag ing
è¯ ¢
lif e
ros a
LIT ER
Ġqub it
ĠBo th
] ][
s For
Ġw heel
Field Data
Array Type
resource Path
Ġtra de
FF Tok
ha usted
B race
F ul
s ers
de scriptions
ad os
Ġget Local
port folio
ne ur
Ġobject Name
Ġu v
Http ServletResponse
Lat ency
MESSAGE S
P rc
Ġh ql
put Int
over view
TEXT URE
ĠTree Set
Ġpercent ile
æĮ ĩ
' ^
M igrate
st ash
Ġst rain
Ġl t
ĠP ur
ĠP ipeline
ĠM W
Ġund erscore
Ġoper ating
b enchmark
} \"
re nd
de crypted
ag ain
Ġex plo
Ġ` _
Ġpre set
Ġtime series
par ms
Not In
Sign atures
Ġpost erior
.* ?
Ġ") "
typ ing
Ġjav ascript
Ġcr ash
Flat ten
Ġsay s
e js
Ġin active
Ġse crets
ĠC ap
ĠCont inue
ãģ Ħ
CHAR S
ĠAct iv
LAN K
REL ATION
g te
Ġc ame
Ġ( ['
(' ^
row Index
ĠM B
Ġ3 9
Ġ'. '.
Ġad v
env s
Ġparameter ized
Ġperm utation
ICK BOOKS
, {
å ¦Ĥæŀľ
è µ
Ġ ----
get value
Ġs cor
set Target
To Bytes
[" _
ĠEx tended
cat s
Ġentity Type
Ġpk gs
Ġguarante e
ĠExp and
CAPT URE
I AtomContainer
Ġw avelength
Data Provider
Ġdis ks
Mark ers
Language Code
Ġdirection s
Ġrgb a
S print
er g
re build
get Factory
Ġe Get
ĠA udit
Ġg a
request Uri
Ġtext s
Co upon
Search Result
Ð¾Ð ´
CATE GORY
c rawler
à ¸
Ġ} //
Ġ2 50
An g
Ġar ri
Ġip s
Ġdiff s
met ic
lif ecycle
Ġcid r
C oin
Ġs park
up sert
Ġv im
add Value
ĠIn crement
Ġle m
json rpc
down case
Comp atibility
rb ridge
Ġneighb our
effect s
Ġlif ecycle
SLA SH
S ocial
T ele
U ses
e ither
Ex press
act ic
av ail
Array Object
ĠJ sp
API Error
getP ayload
Bl ur
cum ulative
Ġsubject s
na if
get text
ul ner
Ġm ul
ĠP ER
tra its
lat tice
fl ate
Al ter
ĠLog Level
ĠUse ful
Place holders
éĩ į
ĠEXIST S
v server
w m
arg parse
ĠR x
sp ring
ec c
sub domain
Ġcreate ModelElement
Me as
ĠCon version
Ġindic ated
dro pout
C ENT
N AN
(" }");
Ġkey ed
ĠW arn
parse Double
')) ->
01 6
ĠCom plete
layout s
LAY ER
Groupe Adresse
v y
po ssibly
__ _
Ġsplit ting
Attempt ing
imp act
get Json
Ġe i
ff f
be am
Ġbl ueprint
Ġpolygon s
WINDO W
ĠWARN ING
b ash
ch alk
ex if
ĠC rypto
Ġan imate
Not Valid
Ġjson Object
Ġpatch es
E DataType
N P
re me
Ġt ex
Ġd z
ĠB reak
AR M
SE CUR
serial izable
SU CH
INVO KE
; $
P sr
} {$
get Process
Con crete
ĠD ump
Time stamps
__ ()
Response Inner
arch i
Column Names
remove Listener
Ġback ing
Ġenum s
isot ropy
* $
get Dimension
Ġd ists
Ġst ay
ĠC ached
Im p
EX IT
mask s
9999 99
Ġ':: '
SECUR ITY
H AS
h ue
Ġa ugment
ab br
And Filename
Iter ations
Order Id
Ġmedi um
ĠRef resh
ĠBind ing
casFeat Code
orch estra
E gress
s By
Ġ( ).
get Limit
ut s
ch ip
ach er
Con cern
ĠP ull
ĠP lan
ĠM sg
ta o
Module Name
ãģ Ļ
Equal ity
Ġemit ted
operand s
celer ator
/ ")
F un
"" .
Ġl am
ĠD irection
Sh aring
14 8
kw arg
Real m
Ġgra ins
decor ators
Ġstud y
- (
I ENT
c j
c aching
ĠR ot
Ġch k
=" '.
Is Nil
PO INTER
Variable Name
(', ');
w est
§ è¡Į
is Absolute
Ġkey store
gr ader
Ġag ents
å¯¹ è±¡
è´ ¥
f u
v oltage
is Running
Ġd ere
ĠF aces
Log Entry
ĠAdd ing
rect angle
Av g
Bl ue
ĠGit Lab
æĢ §
getFormatted Message
6 5535
G as
Ġp q
as semble
key board
Ġde veloper
ĠF ree
Ġcont rollers
Ġint errupt
config urator
Ad vanced
ĠMap s
Ġview er
Ġfast q
ĠRew rite
. '))
P NG
ª Į
is Annotation
und o
Ġen queue
Ġdi ags
Ġdirect ed
k ws
to JSON
ob servations
limit ation
Ġpart ially
Ġtra versal
Ġjob Id
ĠField Type
lex ible
Pe ek
DD L
Ġbus iness
******************************** ********************************
Enc losing
Ġmeas ured
privile ge
ĠPrepared Statement
Ġif rame
Ġif NoneMatch
set Position
Ch em
ĠW H
prot ect
Not Allowed
check ing
12 2
Ġref ers
sort Order
ĠMe asure
ĠPermission Denied
RESH OLD
æ¬ ¡
) &&
J VM
n or
s Type
get Endpoint
Ġm ags
up pet
Re cover
data center
ĠB us
Job Execution
voc ations
ĠLe ft
Sel ler
Ġenc losing
Ġapprox imate
X Expression
o thers
v b
Ġf ul
Ġt ier
Ġas sessment
Gener ating
Aff ected
re play
Ġe jb
error Msg
bo ss
Result Inner
Ġtra ffic
ĠRef lect
ĠAli as
B AN
K ER
W ER
f ers
m en
ag ue
(' ['
set Size
iss a
trig gers
ĠFl ask
ĠContainer Builder
pat ient
B ATCH
I Atom
æ µ
er vice
Ġn f
Ġ" //
Ġg round
Ġpro bs
ĠM ock
Ġcheck State
Ġsize of
patch es
Ġph en
ĠNo ViableAltException
Day OfWeek
BE AN
Rec v
Ġmonitor ing
e al
Ġre positories
Ġ" ["
om aly
Builder Factory
Tra de
Start up
CH O
compare AndSet
ĠSQL ite
Ġmulti processing
avig ate
Ġxy z
xl arge
. {$
A ux
A zure
f lo
} ));
ad or
co pied
Ġcom poser
Ġro unded
ĠV ert
has Class
lib raries
Ġinter act
04 40
BE M
semb ler
createFrom Format
R ates
Ġre corded
Ġb urn
ĠN E
Ġreg isters
Ġus able
post Data
Port al
tool kit
NC Y
] ]:
get Web
Ġget Index
File NotFoundException
build ing
lower case
card s
BR ACKET
GOR ITH
C anceled
Ġ Ñ
Ġc g
lf t
work dir
getS cope
vers ations
Mark ed
ĠSup ported
ĠSerial ization
ĠGeneral Utility
H over
Ġp wd
pro cs
") ->
Ġun install
object id
da o
SIGN ATURE
ĠPo ssible
C rop
D ensity
P assed
Ġm tf
(" ;
Ġg aps
Ġg auge
Ġme ant
Time Stamp
16 6
sl ack
Snapshot s
country Code
rain ing
tile s
Ġparticip ant
u ary
er ied
Type Element
AT AL
Log Record
context level
utomatic ally
pyp lot
è§ £
openg is
f ar
v ox
in str
Ġ" .");
(' ;',
ment ion
Ġnull able
To Update
Tra versable
QU ALS
SD L
Ġaz imuth
H MAC
S izer
T st
u u
id Adresse
Ġres ample
te e
Ġde scriptions
oo g
ateg or
Ġag o
PER I
("/ ");
cb c
Expr s
Direct or
Ġtrack ed
war der
IV ED
SCRE EN
f requencies
Ġt k
set Source
set Auto
ht t
pre process
Ġy label
response Body
Inter pre
Ġcluster Name
Ġez p
commend ation
P en
S MTP
Ġl d
Ġg ui
ĠF inal
Ġ` {$
OR G
lat ent
no op
DateTime Zone
period ic
Ġperform s
âĶĢâĶĢ âĶĢâĶĢ
ĠInvocation TargetException
flu ence
: ]))
W K
err ing
ps d
Or Whitespace
roll ing
Ġ'" ')
emon ic
ĠPri vile
('{ {
Ġsilent ly
N om
S AN
c uda
q ry
v pn
is True
Ġa utomation
ĠC C
'])) {
Ġchar m
ĠNode List
Ġrs a
S ous
h stack
un marshal
lic ity
add Post
sp atial
RE DIRECT
=' /
ĠValue Enforcer
12 4
12 6
sign atures
Top Level
phone Number
Note book
bel ow
w ning
Ġ( #
em u
om ic
(" );
ĠN V
out ube
Ġde crease
Ġare as
Client Id
lat er
Width s
Ġcorrect ed
Ð¾ ÑĢ
Ġpromise s
Activ ate
Ġsoft ware
F ork
e id
ç ¨
Ġw c
'] ."
min i
line To
AL F
mat ter
Ġco effs
nav bar
Ġbuilt in
Ġ({ ...}?
ĠComput es
; ';
st uff
is Granted
ĠS DK
Ġ! \
Not Set
ĠWh ich
Protocol s
Bool Var
Dist inct
S quared
e gg
p ids
x axis
ĠĠĠĠĠĠĠĠĠĠĠĠĠĠĠĠ čĊ
Ġh ence
args ort
ĠP erm
Ġsh rink
ann ers
DB Constants
Security Policy
Ġ'$ '
Ġscal es
sect or
ĠCON TEXT
epoch s
> {
get Font
Ġo t
Ġ. $
File Object
load ers
{} );
ps im
lat in
mod ification
Row Index
AC COUNT
relation Name
requ ent
Ġprivate Key
Ġexpect ation
Cons istency
Spl FileInfo
8 000
C AN
Ġs ufficient
ind ic
ĠR ad
ĠR DF
ST DOUT
PO SE
cor outine
Ġgraph s
FIX ED
getResource AsStream
G A
J O
] _
m anagers
} &
put IfAbsent
Ġr y
ĠRe quires
post Type
Ġinter ested
Pie ce
" -
> '.$
ar ith
is son
get info
get Member
ver ifier
Ġget Element
Res ume
ip ment
Ġcom position
last Name
Ġprint s
ĠSe lector
Exec uting
PI O
Role Arn
ĠOpt im
B anner
Z eros
get Execution
ver e
Ġg w
Ġfore ground
her its
Ġemail s
CHAR SET
Ġden om
MARK ER
ESCA PE
è¯· æ±Ĥ
d ip
Ġget State
ĠD etermines
pa used
Job Status
Inter section
SO AP
Operator s
Ġvox el
> &
S ampler
z mq
Time Unit
est ure
Ġprint ing
(* )
save fig
environ ments
micro soft
LIG HT
Ġ' ".
Ġs ol
Ġd os
not Found
\", {
Ġconnect ivity
(", ",
2 20
P HA
W IT
m illis
lo quent
ex ported
Ġnew Name
eld b
ĠN EW
ĠP e
create Command
Ġcreate From
`` ).
Ġdown stream
ĠÐ ·
Product Id
TO OL
ãģ «
Multipart Upload
i u
or ry
get ColumnName
ĠC art
Ġcon vergence
ac ion
][ -
ox id
Ġpair wise
Batch Size
Daemon Set
-+-+-+-+-+-+-+-+ -+-+-+-+-+-+-+-+
eshell arg
V ectors
th an
get Setting
el o
String IO
Ġcom bo
Ġstr ong
With Cancel
Ġquery String
Ġbuffer Size
Ġ"/ ";
Ġmeta Data
06 2
Ġamb iguous
B G
f ly
i FieldSeq
t weet
{ -
re levant
re stricted
in tern
al ic
ro unded
Ex ports
ĠĠĠĠĠĠĠĠĠĠĠĠĠĠĠĠĠĠĠĠĠĠĠĠĠĠĠĠĠĠĠĠ ĠĠĠĠĠĠĠĠĠĠĠĠĠĠĠĠĠĠĠĠĠĠĠĠĠĠĠĠĠĠĠĠĠĠĠĠĠĠĠ
di ags
reg round
ĠSer ve
KEY WORD
Iterator Iterator
STR ACT
book mark
utor ial
edit ed
ĠHe aders
Country Code
phan umeric
ÐµÐ½ Ð¸
L ater
T AB
Ġp u
ack s
log File
code d
Ġdi ameter
Ġreg ression
ĠClass Metadata
LITER AL
) ]))
tr unk
ĠS A
ĠA T
IO Error
Inv ite
plural s
Soft ware
H D
O pacity
c rt
ĵ į
get Writer
set StatusCode
Ġh l
field Names
pos able
Ġ'' ):
Ġ[' -
Update Struct
Create OrUpdate
ade cimal
06 27
GRE EN
poration Id
I face
n os
é ľĢè¦ģ
st rain
ch rome
up stream
ĠD id
]) *
... ',
ĠSt reet
12 1
nl p
éħį ç½®
C aches
C amelCase
W AS
li ding
ast ers
ĠIn voke
template Path
Go od
iso format
Sm arty
ĠSim ilar
O CI
c data
get Html
ort ex
ec ret
ST EP
ĠL ang
Ġsub domain
Ġraw urlencode
SY S
Ġenter prise
; &
S ound
S UR
\ ',
£ Ģ
Ġ lig
Ġs dk
set Model
lement s
Field Definition
Auth Token
Start Element
Dis associate
doc Block
Change Set
GP GET
fq dn
æį ¢
ĠRemote Exception
Temporary File
ĠRetrie ves
ur b
Ġa ver
join Column
Ġcomp ilation
Ġserial izable
ASS IGN
MEM ORY
/ ?
l ar
y our
Ġt axonomy
get Handler
ul ating
bu dget
File Loader
Un i
Ġun necessary
task Id
ĠAS N
"]. (
curren cies
psim Package
! )
m or
n as
th rottle
Ġ' '));
Ġd ao
str y
value d
cont our
Ġ\ ''
Is olation
ĠK ernel
igr ator
}} ",
WOR DS
Go String
getNode Type
1 55
N at
V fs
Ġ( '.
Ġto ok
Ġend ian
dis ks
Ġtrans parent
Be e
Ġtra il
Policy Request
upload s
ĠHas htable
Rol ling
I A
ç ´
Ġf unctools
)) ).
(' ('
Ġr slt
pre fetch
ĠR IGHT
[] .
Ġ[] .
ĠB ar
getC ategory
ĠĠĠĠĉ Ċ
Cor rupt
screen shot
å° ı
å½ĵ åīį
PROG RESS
Q R
h an
ch rono
Ġm eter
for d
di strict
Ġsh ards
Ġbase Url
Be Empty
UN ESCAPED
VER S
Ġqu ot
ĠTable Map
WN ER
ĠPri ority
Pur ge
L atch
T y
re visions
get Var
') ])
), (
Ġwe ird
api key
inter mediate
push Follow
Ġ6 1
33 39
Sequence s
firm ware
è½ ¬
mong odb
èĩ ª
ĠCHE CK
in crements
Ġc w
Ġm imeType
ĠS pace
Ġg ray
unt u
read Object
Ġpre fs
index ing
base URL
enc losure
Ġdis count
ĠEn ter
Ġway s
ĠME SSAGE
B orders
C WS
de leg
ra per
em ap
ers pective
Ġup sert
Contact s
ĠME THOD
if e
Ex plorer
Ġel m
arg ing
add Command
ĠF AST
ĠD AY
Com parable
ĠG ateway
State Change
Out line
Spec ifier
ĠĠĠĠĠĠĠĠĠĠĠĠĠĠĠĠĠĠĠĠĠĠ ĉĉĉĉĉĉĉ
week s
UST ER
Activ ities
Ġsemant ic
" ')
/ )
B g
J AX
R x
o Item
get Relation
Ġb alancer
set New
set Locale
ĠS afe
fo reground
Ġj id
ĠD ro
]+ )/
ĠAl tern
åħ ³
PLA IN
+ ')
f ri
h ps
AR GS
11 3
Ġdiv ision
Ġdelay ed
Click Listener
ĠComp ile
Ġord inal
Ġred undant
Ġattrib s
byp ass
get Directory
Ġm arginal
Pro vide
Group ed
=" #
property Path
Full Path
ĠLoad s
trins ic
Ġ âĶ
In sensitive
set Image
set Variable
Ġ* (
Ex amples
Ġget Item
new Key
ph ony
Ġlog file
base Name
AN TS
strip ped
ĠRel ative
Stateful Set
Ġslight ly
) [:
is F
un less
get Primary
Ġe levation
from Json
cent roid
ship ment
partial s
Ġtick er
TLS Config
k ubernetes
ra form
Ġerr wrap
Ġel im
fo bj
log gers
Ġcom ing
== "
ret Val
CH UNK
Background Color
Standard s
B EL
L java
Ġt ap
get Device
ĠJ ournal
trans it
(\ '
created At
train ed
WR AP
orderBy Comparator
Ġapprox imation
% ;
; $$
I map
h alt
Ġre play
co hort
ĠN B
Ġstr val
sp ent
back ends
New Client
cent ric
Ġ-- $
13 0
APP END
ARE A
G ene
S olver
w sgi
get Select
po re
De epCopy
file info
Ġde crement
Config Path
Ġwrite String
getParent File
Clause s
ĠCOL UMN
Altern ative
C AC
H OLDER
f ish
Ġ(! _.
++ ++
part icip
cent ral
net loc
mark ed
ĠQt Core
Ġba os
o Order
y axis
Ġ Î
ad at
Ġm achines
ĠS park
') .'
local ized
mat ic
pk l
boolean Node
Cloud Watch
Ġintegr al
Ġinject or
rospected Table
å¤± è´¥
) &
l te
se gs
et ing
il ver
Ġg ob
Ġget Logger
mount s
cons istency
rott led
æĮ ģ
> [
Ġc ub
Ġget Id
Ġout line
Ġsh orter
Ġrequest ing
cache Path
EX TRA
Ġmod name
}. '.
WA RE
Refresh Token
ĠEF aps
a Params
é »ĺè®¤
ch apter
Ġnew State
Ġpro jected
Im mediate
Ġgener ally
ãģ Ĺ
Ġ'\\ ',
HO OK
Ġown ed
monitor ing
Sig ma
ĠCustom er
ĠRET URN
D ed
ad manager
In ference
Ġwe bsite
For Parent
submission s
Ġdestroy ed
CONSTR UCT
E lems
q dm
y Axis
is Root
get Generic
Ġdis carded
UN C
first name
Pri or
Ġlat ent
Ġexit ing
AV AILABLE
Ġpub key
Ġol dest
Ġtor nado
R DD
S ampling
r ms
Ġsession ID
f ax
get Feature
:: __
Err No
Ġr ates
Ġch ip
ise ase
time Stamp
ĠIn formation
SE GMENT
LO Y
remove EventListener
bind s
Parse Uint
Notification Impl
Ġfraction al
Ġfront end
set Width
set Constraint
Node Interface
DB ID
Ġ'" >'
Directory Iterator
14 0
Network Policy
Ġcomput es
ĠBack up
Drop down
ĠMongo DB
S ITY
u oa
get Actual
to uched
ĠN umeric
ĠM Bean
ĠE NotificationImpl
UND LE
Serve HTTP
Ġn i
pt ic
Ġin creasing
// $
sc affold
Ġ` {}
ĠD ynamoDB
... ))
Dis criminator
BO TTOM
Upper Bound
SY NC
ĠSalt Cloud
ĠPop ulate
Ġide a
} `,
in place
es ome
In compatible
(' *',
Request Handler
CH ILD
Co lour
Ġback ends
Ext ends
the ad
Ġdat as
sim pl
ĠCre ating
Der iv
ĠFOR MAT
s low
x A
ve cs
ĠN ET
IN ode
With Value
round s
Ġcred it
H old
Ġre duction
Ġd istingu
for get
po le
Ġor phan
os p
Parameter Name
copy right
rel u
Ġdatabase s
("\ ""
Bind s
Ġalt itude
Ġperm anent
Ġcon trib
file Id
mit s
Al g
Ġ', ')
13 7
POS ITIVE
ov a
åŃĹ æ®µ
éĢ ļ
Ġimpro ve
I am
Ð ±
get URL
get Rule
err code
ĠC AP
cont aining
yn a
ok u
vert s
Property Type
Ġfilter By
comp lement
Server Name
ĠDe corator
isto grams
gom ock
C t
C ut
J ust
¶ Ī
at an
Ġf ired
get Plugin
ex plain
ĠA jax
man ip
Di agnostics
tim ers
H Y
S rv
is Interface
ĠT TL
Ġ1 01
point ment
Ġ'- ':
Ġsl ashes
æĸ Ń
Mock Recorder
ĠLe g
ĠSI MP
Ġ---------------------------------------------------------------- ----------
Sur vey
7 55
D UP
M V
Ġs andbox
Ġde serialized
Ġstat istic
Ġx label
ĠL aunch
LE ASE
Stream Handler
Start Date
Http s
socket s
COL LECTION
Notification Required
Failure Exception
K afka
O X
p Num
Ġp run
get Workspace
set Active
read String
AT OM
Not Implemented
fic ial
Over write
Ip v
TAG S
çŃ ¾
Ġled ger
C arbon
T bl
g ens
re plic
Ġc am
il ium
Ġo prot
Ġd ur
Ġget Image
Ġset Default
Read Write
ãģ Į
SA VE
Ġoperand s
set Int
cur red
gra b
Instance Name
ĠUser name
short Name
Invocation Error
Ora cle
ĠC ert
obj Page
so up
Ġab sent
ĠCms UUID
US B
ĠĠĠĠĠĠĠĠĠĠĠĠĠĠĠĠĠĠĠĠĠĠĠĠĠĠĠĠĠĠĠĠĠĠĠĠĠĠĠĠĠĠĠĠĠĠĠĠĠĠĠĠĠĠĠĠĠĠĠĠĠĠĠĠ ĠĠ
ĠIN SERT
Variant s
Ġconcat enate
Ġ'{}' ".
li a
ĠM icro
format Message
son g
Ġpre p
ĠE NV
With Headers
float ing
Open ID
Email Address
Fetch ing
Ġcoll ision
Ġcompany Id
= .
= #{
F qn
e NotificationRequired
ut y
li pped
Key Exception
EN ABLE
ĠSt age
TI CAL
Exp orter
Year s
ĠPar sing
conc ile
M illiseconds
N u
s ponse
ang ent
Ġcont ig
(). ..)
time Zone
current Index
SH IFT
Ġmut ations
Ġdro pout
GORITH M
is Connected
ra ble
str and
Ġh r
String To
ĠP mag
Col Name
ĠTh us
For Class
Sh ut
do ck
buffer Size
ĠRE QUIRED
payment Method
Ġcover ed
Ġgor outine
I AN
K ubernetes
W ARD
] },
get Queue
Ġ3 7
ld p
CO UR
module Path
DI RECTION
Ġpage Size
ĠCh rono
)$ /',
(__ ('
ÑĢ Ð°Ð
Ġcent roid
Ġcard inality
Effect ive
ĠSD Variable
: {}
l ac
and i
Ġst ages
Ġ1 50
cont ig
read ers
New Encoder
block Size
Next WithServiceResponseAsync
option Name
Process Error
ĠSup plier
hydr ated
Ġ"? "
Sy scall
> }
f ade
Ġc u
(' (
Ġ// /
Ġpro posed
ĠP UB
00 3
Ġstring ify
ĠR oll
Ġcom paring
has Method
target Type
Ġbase Path
TR ACT
TH AN
temp dir
Bean Name
fil eno
MethodCall Exception
Retrie ves
NET WORK
; ;
D on
R gb
k top
s it
By Index
11 8
tmp File
digit al
d al
se eds
is Visible
Ex cept
ĠT ele
Ġget Client
has Property
([] );
Ġdat atypes
Ġadjust ment
ĠSO AP
A utomation
b last
w v
get Duration
set Url
set View
[' --
Ġex posed
ĠI con
ĠD uplicate
be ats
msg id
Ġtra cing
getS c
ĠAt tr
ca ught
Html Tag
HO O
Ġuc words
Ġclause s
T B
Ġ Question
oc currence
create TextNode
write Byte
"] ],
ĠV ideo
])) :
ĠCol lector
Work book
total s
sk in
Sk u
Termin ate
Ġez c
Ġflux es
Ġsit uation
ĠSM ALL
( /*
C ERT
H ORIZONTAL
M IP
O URCE
u ing
lo ver
ate ur
ĠS Cons
00 7
Ġx l
Ġle s
With Name
Ġmax Length
replace d
ĠObject Helper
Line Number
Child Nodes
Action Performed
fic iency
ĠIN NER
getNode Name
Ġabort ed
ĠCRE ATE
) }.
+ ")
ch astic
pe ople
Ġst raight
Ġun escape
Ġat ts
Ġim porter
ĠIn tegr
create Form
flow s
13 6
perm alink
Prepared Statement
j mp
q te
x fer
get Display
Ġ" <?
Ġm orph
In i
Ġfunction al
sc ss
Get Int
ĠH orde
])) {
UN ITS
Ġprotocol s
Reference d
rel s
Ġright s
Ġrelease s
GR APH
ĠCON T
ĠEd it
Su ites
current Key
AN ALY
End Index
az imuth
AB STRACT
std dev
Handle d
Ġsplit ted
ro red
get OrCreate
ĠJ C
base url
Dis ks
16 7
AB C
bad ges
Ġ'& '
ĠMedia Type
ĠSec ure
Paren thesis
N AT
m os
Ñ İ
get Proxy
[' #
Ġparam Name
target Dir
Ġq ry
Ġexp ensive
Long s
author izer
ĠVar iant
WH ITE
[ ($
b rain
Ġm utable
Ġd ct
set Method
up ling
Ġis In
ime s
Ġcom m
default Options
Class Path
ĉĉĉĉĉĉĉ Ċ
ĠDe c
Sw ift
Convert ed
cleot ide
J oint
P c
s keleton
th ree
ext s
Ġk eras
Client ID
Up sert
Ġmod s
den ominator
ĠNotFound HttpException
Visit ors
elastic search
= :
O auth
] ');
^ ^
get ting
am i
nd x
For Type
Ġtrans it
... ]
target Entity
Job Id
Inter vals
STR ICT
13 9
chunk Size
Ġthreshold s
.'. '.$
Micro soft
ndi Name
ĠMOD ULE
ĠTE MP
fus c
$ ",
M ultiplier
se mi
ers cores
Ġh ue
pro venance
Ġr an
ĠĠĠĠĠĠĠĠĠĠĠĠ ĉĠĠĠĠĠĠĠĠĠĠĠ
db Q
Ġ4 7
Ġac curate
Ġ5 1
Length s
IP V
',' ')
Ġsm oothing
Ġkeep ing
prepare Statement
è® °
CHANGE D
ĠDispatch er
k es
Ġd ig
key Value
Ġ< %
ĠM AR
Param Name
RE SERVED
Ne got
respond ent
Ġdiag ram
Fact ors
eh icle
paren thesis
Ġstand alone
ç «
et as
Ġf out
Ġn esting
Ġw b
part ner
12 9
comp atibility
Ġsw arm
Ġcolor bar
sn ake
alan cers
ĠLocal Date
Poly line
T ango
x html
en umber
Type String
Pro duces
Open ed
ĠHandle s
æĹ ¥
å¹ ¶
f utures
Ġ ĉĉĉĉ
at least
un bind
ĠS l
En ding
pre load
ĠB psimPackage
Ġbuild Form
('/ [^
ĠQ R
Cor ner
decor ate
{ "",
Ġf ed
Ġb ag
__ ')
Ġno op
Ġmax Size
SO CK
Test ing
Draw ing
sel ler
ĠCmsResource Filter
ĠTri m
Ġinherit ance
c rl
Ġis Set
Re ports
add File
St ud
ans i
col lapsed
Ġbreak point
output Pos
No thing
Last Index
stop s
Float ing
Ġprot ect
Mount s
éĿ ¢
æ Ĭ
ĠC redentials
Ġde velopment
ht m
Int s
Cache Size
Block ed
Configuration Input
Ġq name
FF DC
Http Method
Ġfull Name
ty po
Hard ware
Ġse ctor
ab il
ĠN x
Ġj writer
ob servers
Ġne got
Ġmin imize
ĠEx cel
header Name
\' ',
band width
) ^
F P
Ñ Ĩ
if er
Ġf ft
tr uth
Ġse cs
ĠS anity
Ġnew Data
Data center
Request Info
ĠL ike
ĠG UI
ĠRe ason
\" ==
Base URL
Ġbytes Read
Certificate Authority
prom otion
Simple XMLElement
Man ual
L it
Ġ1 99
Ġres olving
Ġint f
Ġ4 1
ell ar
sw ift
xml db
Job ID
.$ .
15 2
SO CKET
BO TH
Ġcore Type
Cr ud
H and
f to
th ird
get Month
)) }
(' .$
Value List
Ġfile type
Ġj lexer
13 5
Ġ9 7
Ġrespon sible
getNext Token
ĠAR RAY
NoSuch MethodException
/{} /
iel ded
__*/ __
PREFER RED
ent ra
set Font
set ContentType
[' :
ĠF ace
Ġj c
Get Options
Build Bytes
Ġaccess ing
(': ');
aa a
arc sec
artifact s
! [
a ud
f write
s quared
ad c
Ġm otion
om p
read Lock
AT T
parent Class
Ġ<< =
Ġimplement ations
Mark down
ĠMe an
ru ption
æŀ Ĳ
Built in
B LANK
C e
th ost
get Security
us b
Ġcon currency
ĠF UNCTION
ast ropy
Ġ? ",
Ġco ef
LI P
Call Context
PRO TE
Direct Connect
SR C
compress or
Med ium
Ġvocab ulary
re index
ĠM S
Ġby pass
UR Is
ĠH ex
ĠE ar
led ge
throw Feat
vers er
mut ate
Ok Tst
Ġdynamic ally
Buffered Reader
feat OkTst
Ġrecogn ize
throwFeat Missing
S lider
t g
ĠĠ ĉĉ
list Item
mo ves
cache Id
dat al
bl ade
15 9
inc ident
ĠOB JECT
] _.
ar io
set To
our ier
Ġkey Name
sp rite
Ġpl ate
fl t
mag ent
ĠWork space
Ġ Â
Type Map
Ġch mod
ĠD one
Ġdis covered
Ġ5 2
Al go
Ġtask Id
Ġdate Time
Ġsp rite
"> %
Ġ'] ';
Mer chant
PROVID ER
C p
at im
Ġb ands
Ġst anza
ĠC L
Ġde letes
start col
be g
version Info
Work s
pk s
ĠWh ile
home page
Cir cular
Beta Api
Ġ( ));
ĠT db
Ġe of
ĠP DB
__ '
Client Error
Or Equal
Is NotFound
Root Dir
Ab out
ĠTime Zone
Av atar
operation al
Qual ification
unce ble
Ġfac ade
å¾ Ħ
é¡ µ
Dro pped
B LOB
t ic
en ode
it o
get Settings
Ġw all
Ġget Session
Event Name
Cache Entry
Ġinter actions
Wh at
ven ue
getCurrent User
PK CS
ĠTrace back
DEFIN ITION
G r
Y ES
m achines
æ ²¡æľī
en force
le aves
is First
it ored
)) ?
Ġl and
Ġex its
To Upper
File List
gr and
Inter active
System Exit
Vis ual
prom ises
Notification Template
catalog ue
Ġmut ate
ĠRece ived
A HOO
D etermine
a iter
o Basket
it ely
Ġm w
set Template
ĠS Frame
der ive
Rel ay
AG ING
ĠXml TypeCode
="" ):
termin ated
Ġgradient s
è½ ½
G zip
I ps
` ."""
d rain
q c
re addir
de activate
ue l
Ġp anic
ut ations
Ġin str
ab breviation
able Error
ĠC SR
IN K
pri ces
Ġco eff
ĠQ Name
gp g
åĪĹ è¡¨
ĠDMatrix RMaj
2 64
A utom
C W
in er
if ul
(' !
mp ot
Sub match
NAME D
aw r
Ġ"' ",
gl VertexAttrib
Ġseq s
ĠTree Builder
My SQL
qub it
ĠCons ider
m ysqli
u ow
not ifier
red raw
Resource Field
RO UTE
normal izer
Ġthem selves
ĠParse Error
B ITS
Ġ ang
Ġ" >
cont inuous
Ġpl ug
Ġwrite To
Application Context
Site Root
Ġsuffix es
ĠSpec ific
Ġdec ay
Calcul ates
Ġmult iline
Ġcontact s
Book mark
Pol ling
ĠPROPER TY
C um
O cc
P U
S orter
h z
Ġ ig
Ġp ng
get Byte
Ġh m
ĠP aged
SE P
len e
ĠGet All
getS ingle
Controller Configuration
Wh ich
Ġ". ",
visit ors
Cost s
White Space
0 10
F iber
K R
V olt
t iny
de velopment
get Kind
Re ached
pro cedure
ĠA ES
app name
Ġal gorithms
RE CE
ac ct
Service ID
Processing Exception
F unceble
h el
Ġs aves
our c
time d
auth enticator
Ġok ay
Ġinit iate
15 6
ĠTrace Component
semant ic
isAnnotation Present
G uid
h am
r dd
s pread
Ġc rs
Ġin verted
ag rant
set Required
add Group
Pri me
DI V
Ġgraph ics
DELETE D
Ġmount ed
ndim s
Ġbook mark
ĠTw itter
_ {$
e leted
s he
x ed
get Pre
ad ir
ab sent
ĠC LO
Ġcon tribution
ĠB its
debug ger
mem cache
Http Headers
Ġsim ulate
INST ALL
soft ware
ĠImmutable Map
atter y
ĠOb tain
STIN ATION
accum ulator
G race
h andling
Ġt weet
ĠN u
ĠR ename
sub title
current Path
ys ics
ĠSt d
Definition Id
Ġtri ck
COL UMNS
Ġbucket Name
getAttribute Value
åĲ Į
Ġ'& #
dif ferent
æĶ ¯
UserSegment Entry
gau ssian
H ANGUL
s weep
re ach
get Helper
Ġb v
Ġex pose
Ġsh all
start Pos
Service Locator
Configuration Request
pk cs
Ġsys log
PER SIST
ca iro
H ot
L aravel
a imed
Ġ' ".$
Ġw itness
ĠP R
== ='
64 4
Ġpublic Key
last name
DB IDs
FOR CE
Ġmo ves
aut iful
adjust ed
Unsigned Short
DEP TH
çĶŁ æĪĲ
X L
s uch
à µ
ĥ ¨
po ver
Ġand roid
not Empty
ĠIn dicates
Source File
Ġblock chain
16 9
Ġclear Timeout
Direct ives
ĠPer forms
cannot BeEmpty
Ð» Ñı
BA SIC
isfi es
Privile ge
ĠRelation ship
Organ izations
* ",
get URI
get Required
Get User
For User
Ġ9 5
ĠRun s
Branch es
uzz le
Appro val
å¿ ħ
C ritical
Ġc and
Ġre ly
In etAddress
)) },
File Content
request Data
ob tain
Ġwhen ever
Ġcomp lement
HTTP HEADER
Api Id
}' "
annotation Type
Ġdot s
Ġrestore d
Ġturn ed
lips oid
getSign ature
) }}
R ue
Z K
x UserAgent
get OutputStream
Ġ[ <
Ġex planation
pre dicates
Ġun subscribe
Ġend Date
context list
join Table
fetch By
Ġexit ed
åĪ ¶
Ġknow ledge
Prox ies
J ump
Ġf os
Ġin flux
Ġsh ifted
Ġ'" ',
Feature Type
ĠCo untry
ĠSI ResourceException
Ġtermin ation
tor ch
Expect ing
Altern atives
........ ........
SPECI FI
P otential
Cont ain
min s
For Deletion
Be haviors
ĠEn v
Ġlib s
database s
CR ITICAL
arb all
ĠMon itor
Parameterized Type
Less Than
ĠCN abu
Ren ew
1 123
F ATAL
| -
re cursion
Ġm obile
set Location
Ġex press
Ġpre fetch
aders hip
from timestamp
Instance Type
TR ACK
vers ing
CR LF
ĠAd ded
Unique Id
ä¹ ī
thes ized
in clusive
Ġt echn
Ġm av
able Type
pl ans
Ġj dbc
ob serve
Ġreg istr
call ing
Str ide
hash er
Rule Set
Ġbatch Size
ĠFilter s
fac ets
inherit ance
gcd message
K inesis
T K
g ates
Ġ( --
get Read
ĠM ask
Ġ@ @
Ġpath To
DE S
From Path
num erator
color bar
200 1
Wait Time
}` )
éĢ ī
. ([]
> {$
S coped
_ *
() /
Ġa zure
Ġget Text
ow els
format ters
est imated
CE LL
Ġblock size
TH RESHOLD
net ic
API Version
Ġchunk ed
coll Dealer
freq s
åĬ Ł
ĠUnexpected ValueException
ur y
get Operation
(" )
im mutable
ĠD ialog
est er
Ġsub j
PO P
ĠFor ward
clear Cache
dr upal
Ġpush ed
REG ISTER
Ġfall s
Ð¸Ð ¼
I ts
T urn
r ue
t ld
~ ',
le cular
Ġc anceled
ro i
ul ates
Ġs on
Ġs co
Ġd bs
set On
set Definition
ĠC apture
ĠC DK
Ġex am
Ġex plain
ĠG E
ĠJ av
([ -
Page Id
EX PE
Parent ID
Ag ain
upt ime
gre p
Ġinterpol ated
' `
M Shop
R AME
b are
ar ri
Ġre lay
get Integer
pe ating
ass is
Ġget View
code Point
ĠH ook
Ġmethod Names
From Config
Valid ated
Ġmin io
Back pressure
24 0
Ġ"' ";
ĠÐ ¼
Media Types
Env Var
MPS Constants
! ".
S sh
W iki
d ct
g ps
de crement
Ġhandle Error
20 8
Ġpar ms
17 2
del t
similar ity
OrWhitespace Only
3 64
S peech
f ol
x o
Ġre wind
ra f
set Formatter
ĠC ast
add Tag
Ġget Max
Ġx a
GE ST
module Id
Ġfind s
Ġexp ressed
Ġpo ss
normal ization
auto scaling
reser vation
Ġ'? ')
interpol ation
ĠEFaps Exception
J an
N IC
Ġin cl
ag rid
od d
ĠP I
oo f
source Map
cache Name
Ġappend er
Async WithHttpInfo
Ġnormal s
Ġ7 5
Transaction al
STAT S
getContext ClassLoader
getLocal Name
Git Hub
treat ment
M ot
e lete
con currency
Stream Name
Ġed ited
Ġtri angles
ĠCont ract
ĠNUM BER
ĠRES OURCE
ĠDistr ibution
D RA
J DBC
T olerance
W ater
s iblings
é ªĮ
Ġ( ~
Ġre call
Ġp icture
ĠA MQ
log Message
Ġj edis
Ġ` <
Ġkey Area
Ġcreate Service
parent Path
find First
exit ing
Par a
fort un
: \\
j k
æ ¶Ī
set Cache
ĠS yn
pro ceed
(). $
Un handled
Ġsh ader
Status Text
}/ {$
Ġli quid
ĠTR AN
Ġpeak s
Ġquad ratic
get MetaData
ĠN ONE
op h
par er
spec imens
render ing
ĠAt las
Sw agger
UNI FORM
Ġtransl ator
Ġkb fs
HEL P
c ID
ł éĻ¤
Ġm im
us ually
Ġv b
Ġ`` .
Content Length
")) :
Return ed
15 8
ĠĠĠĠĠĠĠĠĠĠĠĠĠĠĠĠĠĠĠĠĠĠĠĠĠĠĠĠĠĠĠĠĠĠĠĠĠĠĠĠĠĠĠĠĠĠĠĠĠĠĠĠĠĠĠĠĠĠĠĠĠĠĠĠ ĠĠĠĠĠ
Ð½ Ñĭ
Ġedit ing
åŃ Ĳ
lik ely
ä¿ Ŀ
coefficient s
: }
b onds
re use
le aved
Type Meta
ise ct
Ġpre dicates
node Data
Ġstart Pos
Ġevent ually
with Header
Target ing
Ġstruct ured
exec uted
ĠTrans lation
Category Id
dn a
refresh Token
ĠFl ags
B LE
y min
al gorithms
Ġs aw
Pro duce
Cont ained
End Date
Ġiter ating
ement s
Red shift
Ġoverlap s
,, ,,
J AXB
p AddParam
() &&
get Files
get One
Ġ" ),
Ġ== ========
(" //
pre fer
AL GORITHM
ĠG VR
other wise
Rad ians
ĠConfiguration Exception
get Types
Ġa ch
Ġd rain
and ir
set Entity
Re visions
col Name
=' $
Trans itions
break s
GP S
Ġupper case
TIFI CATE
REGEX P
Perform ance
Ġhydr ate
' $
P GP
è Ĭ
er gy
at k
get Parser
Ġs anitized
ĠT yp
ĠC li
Ġbe g
Ġfile obj
CT OR
LA CK
project Name
math bf
CRE MENT
æľ į
æľ Ł
Ob serve
ĠCON ST
singleton List
Ġsens itive
Some thing
ĠXMLStream Exception
ç¨ ĭ
CWS IP
g ss
Ġn orth
get Build
set B
Re plic
ĠT OP
De grees
sh aring
ĠP L
ĠM aven
Data Store
ry o
di o
erm al
Access File
25 4
fetch er
lig hter
Ġshort est
mi um
stud y
ĠDest roy
affected Rows
Ġuniq id
B RACE
C raft
D J
T REE
un ched
Ġp reserved
Ġm ong
ab ol
pro posal
ĠN aming
Ġget Sub
ĠP ick
Ġk n
Ġlog its
reg isters
Ġrun as
Ġcor ners
Ġanaly zer
FORM ATION
Pub Sub
Syn ced
/ ${
D urable
t ate
Ġa utom
Ġh gnc
Ġl it
file Size
Ġde vi
To Read
instance Name
Trans latable
"> '.$
}/ #{
Ġ'{ :
Ġspecific ally
Std Encoding
ĠMo zu
Ġcapt ured
ĠPrivile ged
is Sub
an isotropy
Ġ} ]
od a
Ġh df
String Array
ĠHttp Client
Decode d
unct or
IZ ATION
ĠDO UBLE
entra cing
re ward
or acle
is ms
is Whitespace
Ġs pread
id ler
Ġb other
to Path
he at
ĠP ret
ĠG ame
ĠG MT
wh ole
.") );
flatten SingleValue
ĠOne Login
('.') [
Ġoper ate
Ġcas cade
________ ________
Accum ulator
D umper
E List
b ol
in ent
get Messages
get Bounds
ug ar
CO D
Ġinitial izing
Tree Builder
Ġdocument ed
ĠĠĠĠĠĠĠĠĠĠĠĠĠĠĠĠĠĠĠĠĠĠĠĠĠĠĠĠ ĉĠĠĠĠĠĠ
Ġ>> =
CS P
Ġdrop down
mult iline
Skill s
? \"
b Encode
x sl
st m
st ones
ag em
Ġ// }
ĠN T
Ġget Cache
ĠF ra
ID X
trans latable
rc v
Attribute Error
led ger
break point
namespace URI
Ġapi Key
Ġreplace s
Ġdownload ing
LIC Y
mult is
DAY S
Cast Exception
ĠWrit es
codeCoverageIgnore Start
k vs
ul ename
ch angelog
ter eo
Re vocation
Ġg one
Ġde limiters
ĠM ULT
ĠD if
Ġconfig File
Im ported
Ġac quired
member Of
arm up
201 3
adjust ment
Ġign ores
S pect
V elocity
c and
s urname
} ."
ç ķ
is finite
Ġb ul
qu et
Ġg f
Ġser v
User Interface
ie f
Ġexist ed
15 1
ĠQuery Util
200 6
æĪ ĸ
oned DateTime
Ġlc dict
ĠMozu Url
' }}
) ($
U ris
c py
ur a
ed com
lo p
Ġas semble
ĠIn etSocketAddress
ep ar
DE CL
Form Value
direction s
Ġside s
MEDI UM
Chrono logy
å ĳ
Ġre draw
Ġt n
() "
Ġa w
em ma
set Icon
arg es
Ġget Model
ĠI Bond
ĠP A
ĠB in
Qu it
Write File
Ġfin ite
network ing
Ġretry ing
Ġsubstitution Head
ĠOPTION S
NotSupported Exception
REGISTR Y
G ID
b Decode
u iv
id Site
Re voke
Ġg em
read Value
mo ving
Ġtime Unit
fix tures
{} "
Ġappend ing
Inter sect
(/ ^\
elem etry
addPost Param
L ik
T p
d ings
w ell
un read
Ġv p
of Nullable
Status NotFound
Tra versal
SQL ite
PER M
common s
Remo val
labor ator
Tim ing
åŃĹç¬¦ ä¸²
C aptcha
O SS
al n
Ġf k
>> >()
av ings
last Error
Timeout Exception
Ġdebug ger
ĠProcess or
bus y
Oc currence
s al
ĠC r
De gree
Ġsh allow
Ġvalid ating
Ġ", ".
+" /
XX XX
Ġconv olution
D rive
y l
Û Į
re presentation
get Edit
ĠA SS
has Error
mer ica
Ġ8 6400
18 7
JSON Array
13 4
So up
Ġ') ');
ĠOpen SSL
ĠHe alth
Distrib uted
ENO ENT
) ]['
J o
k afka
y et
is Default
add Rule
Ġ< >
Ġtime line
has Text
Ġ4 6
Ġ... )
tx id
execute Update
Ġestim ation
Ġ": ",
Bracket s
AAAA AAAA
Sous Quartier
M tx
b ow
Ġre le
Ġh tt
bo unded
Var iation
Start s
UN DEFINED
ĠDe letes
Option Rel
stack s
"). (
Ġsim ulated
sym metric
Normal ization
met av
Ġ": ")
Lex icon
OW EL
Ġcommun ity
J wt
W itness
] ++;
j et
Ľ å»º
Ġp ressed
str conv
set From
set Defaults
user agent
Ġstr ides
Ġpre process
content type
obj Template
du cers
18 4
install ation
ĠCall s
calcul ation
decor ated
UserSegment Rel
regorian Calendar
M enus
m h
x n
z i
Ġ$ ('<
() ",
In active
Type Arguments
file Content
Ġpro tection
To Write
Ġfile mtime
Ġsub dir
Ġsub command
Ġ5 000
Ġbyte Array
grade book
symbol Variable
ĠStart ing
getError Message
ĠGeo Package
ĠLex er
B UNDLE
c ertificates
x max
re new
an other
get Foreign
Ġ# :
und s
ĠE qu
Item Stream
ĠWe ight
ating System
ĠDe precated
Ġmask s
ĠFind s
Man ufacturer
Annotate f
gap ic
ĠSalt InvocationError
ĠNum Py
/ ');
e arch
f uzzy
h param
Ġre achable
Ġb ump
ĉĉĉĉ ĠĠĠ
", $
ence s
Ġcontent Length
Ġjob Name
ORDER ED
00000000 00000000
T OTAL
d types
l trim
s preadsheet
st s
ĠA CTION
ĠF allback
ĠP eer
cess arily
Ġj p
Request Builder
DE LAY
ĠList en
Ġtra it
Ġimport lib
14 2
writ ers
Mo ved
ĠBY TE
getComponent Type
codeCoverageIgnore End
Ġprece ding
çĽ® å½ķ
COUR SE
A head
E vidence
T en
_ $
a as
Ġa es
Ġ* '
ĠC atch
Ġj Panel
ĠL i
temp oral
initial Value
Ġpol ar
('/^ \
ĠMon ey
C og
st icky
um id
ĠM ost
ID ENTITY
Ġoutput File
ĠDis k
anit izer
ĠSm art
è·¯ å¾Ħ
6 01
c itation
st ages
Ġth resh
Ġp ert
() '
Ġs pend
ĠS ent
Ġle ap
Event Id
Gener ates
Ġsat isfied
å¸ ¸
ĠLib rary
sth rough
. ]
Ġ{ ");
is Admin
Ġre voke
Ġo Settings
set Action
Ġis Array
(" +
Ġget Template
32 0
post fix
Dis cover
stream ing
search able
where In
API Client
Fail over
getM imeType
Ġpool s
Extra ction
LAY OUT
Ġroll ing
Round Trip
Ġdeal ing
H uman
x Axis
æ ĥ
as p
Ġb are
int ensity
File Mode
ĠL IB
base path
VI RT
lin ed
METHOD S
Ġentire ly
ĠBEL Script
en ed
il legal
Ġb oost
pe p
ass istant
Com pose
Ġal most
tra ces
Property Definition
dis crete
Sh ares
Ġimage color
Pl ans
PI E
ym orphic
ĠInvalid ConfigException
ãģ ¦
Ġcap s
(", ")
Ġteam s
[...]
