#version: 0.2 - Trained by `huggingface/tokenizers`
e r
e n
Ġ Ġ
i n
c h
Ġ d
Ġ a
e s
o n
Ġ t
n d
i s
ĠĠ ĠĠ
i t
Ġ s
i e
o r
a t
Ġ w
a n
r e
a r
a l
h e
Ġ S
t e
Ġ b
u r
u n
l e
g e
Ġ f
a s
Ġ in
Ġ m
Ġ e
i ch
u s
u nd
in g
Ġ A
Ġ o
Ġt he
Ã ¼
Ġd er
Ġ v
Ġ B
e l
i l
r o
i on
Ġ p
s t
Ġ c
Ġ n
Ġ M
Ġ und
Ã ¤
Ġ D
Ġ 1
t er
Ġ h
i g
en t
d e
Ġ (
a m
un g
o l
u t
Ġ T
o m
Ġ P
i c
i m
â Ģ
ĠĠĠĠ ĠĠĠĠ
Ġ F
Ġe in
Ġ I
Ġ G
Ġa nd
e t
e d
Ġd ie
r a
Ġ E
Ġ K
Ġt o
Ġ z
Ġo f
e m
Ġ W
Ġ H
ĠĠ Ġ
s ch
Ġ g
Ġ R
h r
t en
Ġ L
u m
Ġ C
Ġb e
Ġ l
i r
is ch
is t
u f
b er
a nd
Ġt h
u l
Ġ 2
Ã ¶
d er
a ch
e it
Ġ N
c k
Ġ V
Ġ er
d en
Ġ J
Ġa l
i er
Ġ1 9
Ġ k
o t
Ġ re
e in
c t
Ġv on
i v
at ion
i f
Ġa n
a b
er s
es t
l ich
a d
o w
c e
ĠS t
Ġ ge
Ġd en
g en
Ġ y
Ã¼ r
es s
o s
Ġ im
Ċ ĠĠĠĠĠĠĠĠ
Ġd es
Ġ O
Ġ2 0
ĠĠĠĠ ĠĠĠ
u ch
i k
Ġs t
i d
Ġm it
Ġf or
l a
Ġ is
) ;
i es
al l
as s
o u
an n
v er
Ġ U
Ġ âĢ
Ã Ł
t s
t h
Ġ on
p p
Ġa uf
a y
k t
ie l
Ġz u
it h
e w
ĠS ch
e b
Ġ Z
i en
Ġv er
Ġ r
o ur
a h
a f
o p
e i
Ġ ist
Ċ ĠĠĠĠĠĠĠ
ĠI n
l l
Ġf Ã¼r
Ġd as
at e
ich t
a g
Ġd em
er e
Ġal s
Ġw ur
Ġ =
Ġ un
o d
il l
a u
Ġ {
a v
isch en
o g
Ġw ith
n e
Ġd e
t r
in d
u b
q u
Ġp ro
s te
s e
p t
a hr
or t
en d
l y
Ġw h
Ġa us
a k
ĉ ĉ
er t
p e
i b
0 0
m en
Ġ j
z e
Ġth at
Ġein e
Ġy ou
Ġ }
ar t
Ġ Ċ
Ġ it
u g
el l
Ġs ich
Ġwur de
ĠR e
a us
Ġ20 1
Ġ i
er n
Ġw ar
in e
) ,
ĠV er
ĠA n
w e
s p
b en
f f
âĢ Ļ
Ġs e
a p
r an
o ch
h t
ĊĠĠĠĠĠĠĠĠ ĠĠĠ
a ge
Ġa b
Ġ he
o k
u e
Ġa s
Ġc on
u p
ge t
m ent
es ch
g er
sch af
Ġa re
ĠE r
ĠT he
ĠD ie
am e
Ġ le
Ġe x
ung en
Ġa m
Ġs ein
Ġc om
ro m
Ġ or
h n
Ã¼ ber
it y
u d
ig en
an t
f or
ur n
an g
Ġs ch
m er
ar d
us t
iv e
Ġbe i
g r
Ġn e
o v
o st
i al
Ġ ch
Ġa t
Ġ 3
isch e
Ġw e
a in
Ġa uch
i z
( )
Ġw ir
. .
Ġs o
ur ch
l in
p r
ĠU n
Ġm e
Ġ Ã¼ber
r ie
k s
ĠA r
Ġn ach
i p
as t
ol l
ung s
âĢ ľ
h en
te d
Ġth is
i a
ut sch
r u
u re
ĠB e
Ġw as
Ġ "
Ġ20 0
Ġ if
av e
or d
s en
ĠâĢ ĵ
ĠJ ahr
o c
l ic
is e
Ġ1 8
ĠS p
h er
l ie
Ġy our
Ġd ies
Ġal l
n en
Ã¤ t
Ġb is
or e
ĠP ro
h l
f er
Ċ ĠĠĠ
Ġb y
ĠD e
1 9
l o
r it
ab le
t urn
i de
Ġn ew
I n
Ã¶ r
Ġs p
Ġs ie
Ġf rom
om e
Ġz ur
Ġw er
h o
i le
ul t
ĠâĢ ŀ
schaf t
âĢ ĵ
Â ł
Ġn icht
en s
l ass
ct ion
j e
Ġ ent
Ġz um
ter n
Ġ es
d u
Ġ um
Ġ -
ul l
n er
pt ion
et z
) .
Ġwer den
ĠE in
ar k
Ġein er
m e
b e
Ġh ave
ic e
o ut
a ck
ĠA l
Ġ us
i re
ch en
er v
it e
il d
ĠS ie
Ã¤ n
Ġv or
ĠT h
Ċ ĉĉ
i ge
Ġh at
Ġz w
o b
Ġc an
a re
Ã¤ r
Ġw ie
Ġun ter
h al
ier t
l and
Ġw ill
ic k
i o
isch er
it ion
f t
Ġd urch
r Ã¼
Ġo der
en n
Ġwir d
Ġm an
us s
ĊĠĠĠĠĠĠĠĠ ĠĠĠĠĠĠĠĠ
i an
on t
Ġw or
Ġs ind
Ġ en
p er
Ã¶ n
r ing
a c
Ġ /
ĠT e
Ġn ot
ig ht
ĠC h
te l
Ġ 4
e ar
el t
ge l
ig n
o un
ĊĠĠĠĠĠĠĠĠ ĠĠĠĠĠĠĠ
D ie
Ġein em
l at
Ġr es
ĠS e
S t
for m
Ġ19 9
as e
ge b
er k
g es
ĠA us
Ã¤ nd
ro w
a il
te ll
im e
re ich
b eit
ch e
r y
m al
p h
g t
s s
o ok
Ã¼ n
on g
z en
ĠA b
at ur
Ġ Ã
Ġein en
lich en
x t
e y
st en
a uf
all y
Ã¼ hr
Ġp r
ah l
is ter
ĠM it
p ar
ĠL e
Ġt e
at h
Ġa d
2 0
Ġ 5
u te
ĠD er
E x
l er
Ġh as
ur g
Ġs h
( );
in al
Ċ ĉ
1 8
ĠO r
' s
c c
om m
u ÃŁ
Ġa r
f e
Ġge t
ĠE n
m p
Ġ Y
o de
Ã¼ ck
Ġcom p
ĠB er
ul d
at er
T he
t o
l os
o hn
ub lic
ation s
ĠG e
om p
Ġre turn
ich te
ation al
ad t
ĠA uf
ch t
ĠW e
an ce
R e
on e
th er
ak e
lich e
ce ption
je ct
a de
Ġd ass
Ġd o
Ġ up
we ise
Ġn ull
Ġo ut
ĠH e
k eit
t z
ent s
el n
Ġb es
in z
at ed
em ber
l an
ing s
in t
f en
st er
Ġ19 8
ĠM ar
or s
Ġ &
is s
am p
Ġo ur
y pe
Ġg o
te il
al t
t w
Ġ 0
ol og
a ut
Ġt r
m s
Ġ qu
Ġh er
c l
Ġ/ /
r en
ĠL and
Ġw o
Ġb ut
ĠP r
re e
iv ers
ion s
on d
a z
re is
Ġ 6
a pp
al s
ĠN ach
Ġm y
ar y
Ġ ro
Ã¤ hr
ĠD as
S tr
at en
ĠĠĠĠ Ġ
am m
ow n
ers on
Ġ +
or en
os e
an s
h re
l es
it z
ig h
k e
ĠM e
Ġi hr
on s
b urg
Ex ception
Ġ19 7
Ġm ore
a ct
Ġthe ir
he it
Ġg en
u pp
Ġ 9
or y
.. .
ol d
it er
ab en
Ġt ra
ol le
Ã ©
Ġon e
r i
de t
re i
ĠV or
ĠI m
ĠUn ter
Ġp er
Ġn ur
in k
ch n
ier te
( "
is h
Ġw eit
f ol
t ra
s er
Ġ( *
p ro
ik e
s h
Ġc o
v e
us e
v el
ic al
Ġs ow
Ġa pp
ro ÃŁ
Ġme hr
al ue
Ġde utsch
ĠF or
ut z
ĠSt ring
m it
ier en
Str ing
te t
Ġn och
Ġwur den
l d
am il
Ġ19 6
Ċ ĠĠĠĠĠ
ĠH er
ber g
eb en
de m
ĠF l
y ste
i ent
nd e
al e
g an
at ch
ĠZ eit
Ã¤ l
Q u
Ġb et
an z
on der
Ġv om
iel er
Ġ 7
1 7
ĠA m
f l
il m
ie d
Ġab out
Ġals o
er en
b le
Ġ1 7
1 0
oun t
z eit
Ġe v
ĠSch w
re at
at t
o ck
ig er
es e
ĠN e
te m
Ġ 8
N ame
t t
ein e
ste ll
at a
ĠM a
y s
Ġb est
ne h
Ġthe y
W eb
ĠDe utsch
âĢ Ŀ
Ġh is
i um
Ġwh ich
Ġs te
ĠG r
Ġl ie
ib t
f in
Ġf e
1 6
ĠI t
Ġ19 4
s el
Ġcon t
Ġge w
1 5
p ublic
k en
Ġa ber
ĠRe g
u en
is ten
ze ich
om men
b ar
Ġp re
Ġy ear
in n
lin ks
par am
D er
el d
r es
an ge
or n
re turn
kt ion
Ġ1 5
ĠSt adt
le ich
st and
ol it
ĠF ran
Ġwor k
Ġal le
ie t
Ġof f
en g
et h
c es
Ġs pe
Ġbe en
Ġt ime
Ġp la
Web links
Ġf in
n is
Ġ19 5
i ze
Ġwh o
f Ã¼hr
ay s
on n
u le
la g
a w
D e
Ġk n
ah n
Ġ1 0
s et
m ann
1 2
P ro
ie w
ĠP ar
Ġsow ie
ter s
Ġk Ã¶n
Ã¤ ch
a ce
o f
og ra
it t
Ġin s
C on
h Ã¶r
Ġk ann
m an
d r
ĊĠĠĠĠĠĠĠĠĠĠĠĠĠĠĠĠ ĠĠĠ
Ġo b
Ġ |
f ahr
ĠG em
r Ã¤
it Ã¤t
1 3
Ġb er
ĠI S
Ġd ar
b all
g lich
p ort
w o
n et
Ġre c
- -
re d
Ġ1 6
Ġan y
r if
etz t
ir st
le d
m in
ik er
o ol
1 4
ov e
E n
ĠU S
i x
at or
an k
at s
o und
Ã¼ d
el s
am men
Ġs ome
E inz
ig t
ĠâĢ ľ
im m
or k
ah re
ig keit
y p
Ġo ver
Ġ19 3
ann t
l ine
T h
Ġd is
g lie
Ġp art
ier ung
00 0
ess ion
et t
Ġin ter
a x
Ġg es
ĠG esch
at ing
Ġs c
at es
at z
ach weise
Ġs erv
ĠS te
Ġge gen
u de
o ber
b r
T ype
Ġein es
el y
eln achweise
ĠUn ivers
Einz elnachweise
d ition
Ġj ed
lat z
h aus
ar beit
r on
B N
in der
Ġs oll
h und
Ġ= =
Ġwie der
y n
am en
u er
id ent
l ung
is sen
yste m
g esch
el le
Ġsein er
A n
und en
Ã¶ ff
o le
Ġzw ei
ab e
Ġo ther
ÃŁ e
ĠP h
ĠIS BN
Ġe l
I N
ĠG ra
Ġl ike
Ċ ĊĠĠĠĠĠĠĠ
ĠD ies
ĠG es
ie der
Ġdies er
Ġ ich
s k
Ġa cc
Ġsein e
o h
ĠE x
Ġ Qu
ess en
lie ÃŁ
ie le
eit e
Ġp e
u al
t on
Ġhat te
Ġh aben
am er
p ut
c om
Ġin t
ik an
ver y
in ter
Ġwh en
ge ben
ur op
A r
ĠF ra
ĠGem ein
b st
ĠE s
Ã¼ nd
or f
Ġ !
ĠJ ahre
ĠS o
ĠA d
us ammen
ou g
if f
le ment
Ġs el
c ial
Ġpro du
o ff
Ġpro v
Ġ1 2
ach t
ĠG eb
S ch
ar n
E R
ic t
a is
o us
Ġj ust
ir t
m ein
form ation
a der
a ir
ĠTh is
" ,
os s
o y
ĠO b
ĠĠĠĠĠĠĠĠ ĠĠĠĠĠĠĠĠ
Ġst ud
ĠK on
w er
iel d
e k
ĠkÃ¶n nen
ĠC hr
Ġi hre
Ġn o
Ġbe g
i der
D as
Ġth row
ĠF re
Ġhe l
Ã¤ hl
p ert
as h
ent r
ĠJahr hund
ro ug
f all
ot h
n ah
E r
Ġzw ischen
Ġf ol
Ġe tw
Ġ ra
al d
ent lich
Ġp ar
Ġp h
iter atur
t es
h m
qu est
ĠM us
ĠTe il
our ce
) )
Ġth ere
in s
Ġin d
ic es
() .
Ġre g
p en
f ter
Ã¶ l
ĠK ar
ing en
Ġa g
u es
Ġit s
Ġne ed
ĠÃ ľ
ĠBer lin
ic s
le g
io us
Ġ :
I d
ĠJahr en
U n
Ġthe m
Ġb u
Ġh ow
Ġs eit
ĠN ew
Ġwh at
o id
Ġwar en
Ġin to
Ġ1 4
c re
Ġb o
c o
ĠU m
Ġl ook
st ra
ĠA nd
Ġin cl
en de
um ent
R es
l Ã¤
in a
op le
g s
v ent
un k
eit en
ĠT ra
gen d
ĠS h
l i
Ġd am
d ay
hal ten
Ġv ers
Ġf irst
aus e
und es
if ic
tr y
Ġ <
if e
b au
eit s
Ġw ere
c ted
ĠM an
la ge
Ġg roÃŁ
Ġth an
il der
Ġdies e
e p
Ġh ad
m a
ĠW elt
c ess
c ed
Ġf r
ĠB o
y m
Ġg r
Ġ1 3
Ã¶ s
Ġzur Ã¼ck
ro und
en e
p l
at ic
ĠK ir
de d
ĠB es
ro up
is te
ur r
ran s
ge w
O N
Ġm ake
f r
Ġm ost
f ul
ell en
Ġhel p
Ċĉĉ ĉ
Ġf inal
en er
" );
le t
a gen
Ġ .
a um
iel t
h and
ĠAr beit
I m
au pt
ra nd
Ġwo uld
Ã¤ ter
w erk
sch en
he im
Ġm on
Ġbe k
ĠB r
Ġh and
' t
or g
ck en
ĠA ug
ib le
ĠJ un
is m
uch t
ĠG er
neh men
V er
ĠJ an
le in
ar b
() )
ra y
ot t
Ġin st
Ġ201 8
Ã¤ s
A l
Ġbe c
in ess
Ã¤ d
Ġpe ople
Ġun s
Ġd r
b o
w ard
Ġus e
ĠJ ul
ĠA ll
ĠT r
ag es
ut ion
en ce
Ġth roug
ĠÃľ ber
it ies
Ġl oc
ĠSp iel
5 0
ĠB au
ĠA ut
ĠN ov
en den
Ġm us
am es
re am
Ġ! =
Ġs ho
Ġbe im
7 8
at ive
ad d
schaf ten
Ġh o
sch ie
ow er
iv er
Ġon ly
f Ã¼
ĠB l
Ġd ann
Ġkn ow
Ġw el
Ġe very
g l
ul ar
Ġw ell
Ġel se
ÃŁ en
Ġb el
Ġge hÃ¶r
ĠSt a
Ġer sten
p la
tell t
Ġf ind
ĠO ber
Ã¶ glich
ĠN or
ub l
ĠM en
v ers
c y
c on
() );
sp ieler
en k
al k
Ġer st
Ġm ay
tern ational
Ġb ack
Ġ *
le x
Ġw enn
us iness
1 1
Ġs he
uÃŁ ball
ck e
glie d
ĠI nd
Ġcom m
Ġs et
f ig
fol g
Ġ19 2
Ġa ct
Ã¤hr end
ster reich
un st
it al
ĠAr t
eb s
am t
it s
ien ce
C h
Ġver y
ra ch
L ist
ogra ph
h ne
ĠH and
p iel
Ġs upp
/ /
en z
rie b
r ich
Ġg ibt
ĠZ w
ist r
urr ent
Ġh ier
ra g
Ġd rei
ĠC on
ĠP f
Ġcon s
Ġk onn
p on
ĠM on
ar m
a id
Ċĉĉ ĉĉ
w n
Ġb re
ier ten
Ġge b
i pp
Ġg esch
p f
ĠAug ust
ĠSt ud
ĠGemein de
s on
Ġp l
L iteratur
ĠZ u
G eb
os ition
Ġst r
und e
em ent
P ar
and er
ĠE l
ĠF amil
ist or
O b
tem ber
Ġdes ign
Ġc l
f o
ĠJahrhund ert
ĠC ar
z er
ĠM in
m at
ĠB undes
al en
as ed
Ġg u
o der
âĢ ¦
z w
ru ck
Ġman y
Ġyear s
Ġf Ã¼hr
ĠÃ ĸ
me ister
Ã¼ t
Ġ '
ĠM ed
b ach
ĠP e
il ity
Ġt wo
Ġdeutsch er
ĠE urop
p s
Ġjed och
an y
Ġc re
Ġv oid
au er
vel op
k l
ĠB et
Ġg er
Ġweit er
Ġd ire
Ġm in
Ġas s
ĠSt ra
iv en
ĠH o
Ġer h
Ġs m
Ġan ge
ĠChr ist
ate g
ut h
ĠY ou
Ġse hr
te xt
e c
ĠF ilm
( ),
z ial
Ġ )
Ġund er
Ġin v
Ġv iel
F or
ĠP ol
Ġd a
ab ei
Ġh igh
um ber
ĠP erson
sch e
ch er
i or
ĠSe p
re m
je kt
et s
Ġsp Ã¤ter
if fer
it ed
o te
Ġver b
s o
ing er
for e
Ġ Â
v or
Ġex per
Ġz e
Ġd own
Ġs ub
i qu
o od
Ġthroug h
le ct
eng th
2 00
am s
oug h
pr il
ar ten
Ã¤l t
ĠB and
ru pp
Ġ3 0
O r
n ung
Ġ X
ass er
Ġh ome
ro l
Ġs ol
Ġth ese
b ild
ur t
Ġetw a
ar r
eth od
ĠSep tember
Ġre m
e il
ig ung
Ġi hn
ar s
3 0
ie f
C lass
ĠNov ember
a kt
f ach
Ġ [
u z
Geb oren
ĠDeutsch land
re g
p or
schie den
V alue
o int
a i
k te
v en
A T
lich er
Ċ Ċ
hal b
ur z
Ġ end
Ġt ry
Ġa fter
ass en
Ã¶n ig
lo ad
ment s
g est
ch ts
ff e
Ġp ublic
Ã¤r z
u ck
ĠM ann
W e
ow s
ur s
ost en
B e
ol f
ĠS c
as k
Ġde c
Ġre ad
ct s
ĠM al
uÃŁ er
2 1
ĠJan u
= =
ess age
is ion
Ġn ow
eit er
ier e
Ġgo od
ĠK inder
ĠGr und
ĠO n
ir k
r at
ag er
ĠP latz
ich er
Ġsein en
Ġf l
Ġs uch
un ter
ĠA pril
re ad
Ċ Ġ
lo ck
Ġ201 7
Ġdies em
un kt
Ġh in
ak ing
Ġch e
Ġg leich
ĠR es
ĠW h
ct or
I D
hal t
Ġver w
ge mein
erv ice
e x
ĠM Ã¼n
Ġpla y
M it
ĠPro du
Ġg reat
at ure
st Ã¤nd
ĠF e
Ġse e
ien st
r icht
Ġm ach
ĠN ational
Ġw ay
us tr
op h
Ġs om
ho f
Ġb l
al th
st it
Ġz usammen
Ġd ay
Ġv alue
ĠH aupt
Ġwh ere
ur ing
ĠF rie
k er
re ib
ĠI s
Ġsein em
Ġe igen
ĠFran k
b es
Ġm ark
pon se
Ġlie gt
Ġp erson
l ing
Ġa c
) );
g ang
Ġ201 6
if t
ĠVer ein
is en
ich ts
ult ur
kt ober
schaf ts
ĠV ol
ar i
iz ed
Ġb usiness
Ã ¡
ĠB ei
ste in
t il
ra d
Ġim mer
Ġber eits
Ġpro f
Ġst and
ĠE nde
sch l
u k
an ts
ar ch
Ã¼ tz
ke hr
af f
v iew
ot her
Ġf ree
ĠN ord
Ġm ed
ĠG roÃŁ
uf t
Ġk eine
ĠVer b
n ew
Ġein z
M ann
R E
ze ug
s atz
Ġand eren
Ġle tz
Ġa v
Ã¶ ÃŁ
Ġar t
ĠK l
Ġb esch
. )
c ri
es ten
Ġw rit
ĠMa i
ĠJun i
ĠK unst
ĠA s
he l
a ul
ĊĠĠĠĠĠĠĠĠĠĠĠĠĠĠĠĠ ĠĠĠĠĠĠĠ
Ġ201 5
al le
iv es
al ity
r or
Ġev en
lic k
Ġer w
ĠJul i
as ch
ust om
Ġth en
st adt
iv ate
Ġc ol
Ġer ste
Ġon line
Ġd ort
z ahl
in er
ĠM et
Ġl ong
Ã¶ff entlich
a den
o ver
es ter
ĠV ers
Ġsch on
a j
Ġte chn
Ġ ,
ĠD es
Ġd el
Ġ& &
Ġsel bst
in es
Ġbes te
Ġwh ile
Ġa kt
Ġ19 0
Ġh ere
Ã¼n st
A t
ĠO ktober
Th is
w ick
N ach
Ġde velop
Ġs k
ĠF r
Ã¤n g
it el
Ġfol gen
eb ru
o in
Ã¶ ch
up er
Ġwor ld
ĠK Ã¶nig
Ġe m
Ġw ant
ĠB ar
e g
ĠH aus
isch es
Ġ2 5
Ġ201 4
m Ã¤
S T
w ay
ĠP olit
ic a
m ar
ĠI f
tr ib
ĠG ew
issen schaft
ction s
ĠH och
Ġd iffer
im p
Ġsch w
Ġun ser
la gen
ĠI I
la uf
es en
4 0
st r
st ru
Ã¼r ger
Ġf un
ĠIn ter
ien d
[ ]
E N
Ġv is
ebs ite
Ġihr er
Ġco uld
Ġ1 1
ation en
al ien
f eld
omm un
Ġse c
Ġhe ute
Ġincl ud
gr Ã¼nd
al if
gr und
amer ikan
Ġkonn te
ĠM Ã¤rz
Ġo wn
Ġst atic
olog ie
f inal
le ase
re t
ĠĊ Ċ
ie b
ur es
T o
ĠA mer
Ġ201 3
b ahn
pert y
he d
Ġ| |
Ġch ar
ĠJanu ar
Ġ201 2
ĠF Ã¼r
v al
Ġbec ause
in ce
c ode
f ang
k reis
z ember
ran z
b uch
2 5
l ang
Ġ %
L e
Ġpro gr
Ġm ade
a ur
Ġ201 0
p art
Ġk e
Ġ201 1
Ġs aid
ole an
Ġw en
Ġus ed
ĠS Ã¼d
o ten
ais on
ĠS er
Ġs ur
Ġb en
Ġc lass
gan is
ĠB ild
Ġv ier
at her
ĠF ebru
Ġf re
ain t
il it
Ġm uch
e ich
ĠA t
Ġi de
stell ung
ĠU r
Ġl ang
Ġf amil
Ġ1 00
ĠW erk
Ġg ra
Ġbe fore
Ġver schieden
in o
S ie
Ġl ast
s w
Ġsho uld
Ġp ass
ĠF ahr
Ã¤n ger
mit tel
oh ann
ĠS pe
Ġb ook
z ie
ess e
ut en
Ġaus ge
ro p
Ġin formation
Ġte il
od y
ou ble
re it
le it
cc ess
ĠC l
ĠG ener
Ã¼ s
Ġres ult
in nen
ĠD r
8 0
om en
Ġe ben
w are
or ben
w alt
Ġch ild
f te
Ġall er
hr en
is k
Ġst art
Ġi hm
Ġtr ue
iss ion
ĠF ol
G e
ro ss
ĠMus ik
er y
Ġ2 4
Ġd on
Ġo hne
Ġt ake
Ġm od
omp on
ber t
ut t
A us
ĠO ff
Ġdam it
6 0
u ge
Ġk am
l ig
Ġs u
ed er
zeich net
ot s
Ġbe fin
Ġc ase
fall s
f ra
Ġl ife
ĠOr t
De utsch
Ġto p
s g
ater ial
al se
olog y
w ohn
Ġst att
ear ch
ĠDe zember
ra ft
Ġc ar
as on
um s
o gen
un n
qu ire
mal s
Ġer folg
Ġs er
le te
ing le
Ġne ue
ĠJ u
ĠM ark
sch lieÃŁ
ĠAr ch
-- --
Ġst ar
iv ing
en der
il t
ĠS k
ail able
H e
Ġr ight
A R
z ug
ill ion
Ġ >
ak es
S e
Ġf ound
Ġp lan
hr er
Ġp ol
ĠC he
Ġserv ice
Ġt rans
. ,
ĠPro f
Ġ200 8
Ġk ein
K ey
Ġ ur
sch n
ĠDies e
Ġge f
ĠUnivers ity
A m
Ob ject
Ġsp iel
č ĊĠĠĠĠĠĠĠ
ic an
kt ur
rie g
ĠPh il
im es
ĠCh ar
Ġprov ide
ĠLand es
ĠâĢ ł
ĠH ol
2 2
ist s
A L
tra g
9 9
ĠC omp
ĠV on
Ġw Ã¤hrend
app end
Ġe as
ĠĊ ĠĊ
Ġand er
Ġk lein
ĠW est
sh all
u ter
7 0
Ġbe ing
Ġad d
ĠL iste
Ġ200 9
ĊĠĠĠĠĠĠĠĠĠĠĠĠĠĠĠĠ ĠĠĠĠĠĠĠĠ
p os
ern se
ĠH am
oll ow
w w
Ġ $
Ġn ame
Ã¶ st
Ġgen er
er b
4 5
ĠGesch ichte
h ol
l en
Ġc olle
age ment
Ġgr Ã¶ÃŁ
Ġer sch
9 0
m ed
w end
ĠW ert
A N
ĠJ ohann
ade m
ĠG rÃ¼
Ġe ach
ĠR om
ide o
ĠC o
in ing
b and
ĠW ien
Ġbei den
re cht
ig te
Ġe t
Ġc urrent
âĢľ ,
ĠUnter nehmen
ĠP art
Ġpro cess
ip s
ĠB uch
Ġ200 7
b y
ĠS al
ism us
Ġc ustom
rif t
fÃ¼hr t
ell schaft
Ġc oun
w ahl
Ã Ń
ĠW or
ĠD urch
al ter
t ag
Ġd ata
Ġj e
f a
la ck
he mal
u ally
s etz
p ieler
Ġag ain
Ġe mp
ĠRe ich
Ġdo es
O R
Ġ9 78
is piel
ĠB est
z ent
Ġpr es
ĠUnivers itÃ¤t
ach sen
ĠD o
out h
Ġa round
ĠMen schen
ĠM ich
Ġcomm un
ĠAl s
Ã¤ch st
Ġof fer
Ġf est
Ġar beit
Ġre al
z u
b ew
g leich
i us
ranz Ã¶s
as ter
Ġne uen
ĠE ine
ĠW il
2 3
o hl
n ame
ĠK n
Ġc le
all s
Ġsh ow
Ġth ose
Ġd abei
lin k
k auf
Re quest
Ġc atch
ĠFebru ar
Ġs ign
ĠL eb
Ġe ing
Ġd id
ge d
Ġs ite
f ass
Ġl ove
los s
Ġ x
Ġh abe
Ã¤ hn
t re
ĠJ ohn
id es
Ġ #
Ġp ost
s ol
Ġen g
Ġste ht
Ġn umber
Ġ ...
ĠS aison
Ã¤t z
ig es
Ġ u
ĠVer lag
th is
sp iel
Ġk ey
Ã¼n f
Ġihr en
âĢľ .
Ġ200 6
ichte t
ach e
g abe
2 4
h af
in en
M ap
Ġthrow s
Ġdiffer ent
ten d
Ġ Ð
ĠD aten
Ġl ar
we en
Ġd u
Ġwe ek
Ġdies es
ĠN ieder
Ġc are
neh mer
y r
ĠMit glied
Ġz un
w ays
M ar
sch ule
le gen
c i
ĠE d
rie d
um mer
y le
ogra f
at us
G esch
ĠF uÃŁball
f ort
Ġpla ce
t he
v an
ĠM od
ĠKir che
it zen
ch s
ĠW ir
nah me
ch sel
Ġcre ate
ĠP er
ĠÃ Ħ
stra ÃŁe
Ġth ink
Ġd essen
ain s
ĠA ss
c ing
Ġg ab
Ġl ist
Ġp ra
Ã¤nd er
sp ort
il le
ĠM ag
ĠMit tel
sch utz
ĠG l
y l
Ġm ar
om mer
b t
n ess
los sen
ĠSt re
ĠN amen
D ata
Ġb ed
Ġc al
A s
la ub
Ġ5 0
le gt
us h
a e
iqu e
ĠB ew
ges tellt
ĠEn t
a ar
ĠReg ion
ĠW ohn
Ġre ally
ĠD ar
T e
ord s
ĠMÃ¼n chen
ĠL in
Ġbek annt
um e
fahr en
uf en
Ġc our
Ã¶r der
l ength
ĠP l
en ter
N ode
Ġv ar
u x
Ġf rÃ¼
ĠB ut
ap an
b in
9 5
uf fer
ĠEn tw
ĠG u
Ġb zw
Ġr est
le kt
Ġche ck
E D
ct ive
ĠB ere
ĠK r
ĠSchw ei
Ġh im
ĠY ork
all en
ab el
ĠSch ul
B y
S et
nde x
Ġp at
r ic
Ġav ailable
Ġent sp
et ail
al er
Ġbe f
3 5
F ile
č Ċĉ
Ġn or
az u
Ġ200 5
ten s
f ern
Â Ń
c a
an st
Ġs ystem
los e
Ġ20 00
Ġs l
O ver
7 5
ĠD an
h in
Ġp os
glie der
Ġus ing
im mer
ik a
T ra
Ġl og
Ġpro ject
itt le
an gen
ĠFor m
Ġt ype
Ġbet ween
ĠW asser
ĠT o
ĠP at
Ġb oth
I t
g ra
ĠF est
Ã¤hl t
p unkt
e ver
Ġo pen
Ġbu ild
Ġj ew
ĠG rupp
Ġph ot
Ġweit ere
ĠS an
ĠL ei
k ommen
Ġm ov
ut es
ĠB ay
Ġcomp any
A S
Ã¤ ude
iv id
Ġv iew
dr ich
Ġt er
ran k
Ġf ollow
Ġst ill
rie ben
Ġan n
ĠR Ã¼ck
grÃ¼nd et
op e
I T
ĠH Ã¶
Ġmon th
ard s
ĠSt and
c lass
Ġne xt
Ġb ring
9 8
re ch
9 3
it Ã¤
et ing
Ġerh ielt
Ġsch ool
Ġ2 1
A d
Ġg roup
ĠIn tern
is hed
Ġor der
Ġl a
de ut
omm t
ĠW ill
u gen
Ġdis c
aus pieler
Ġalle m
Ġb r
ĠI hre
ĠV ert
Ġsm all
Ġein fach
6 4
ĠW ahl
Ġfin den
Ġfr iend
Ġder en
Ġbes onder
Ġein ge
Ġs onder
C ont
2 8
schl uss
ĠT od
Ġa ut
lass e
ess er
Ġm oder
geb iet
b um
ĠR o
ar z
Ġob ject
un ktion
P ath
Ġexper ience
igh ts
ir d
Ġf ile
Ġg est
i den
il es
ĠLeb ens
Ġv al
ur y
ĠBer g
ĠW er
ĠPerson en
Ã¤ us
l s
Ġf alse
Ġinclud ing
ĠM or
sel f
uf f
A b
E in
Ġs Ã¼d
Ġf ew
ro ll
Ġ2 2
lass en
ĠSch l
it ter
Ġs ame
ubl ik
am ent
ĠB as
Ġp olit
Ġsonder n
ro om
re en
ĠA uch
ann te
ĠFra uen
ich ten
ĠR ad
k on
dr ess
Ġ201 9
use um
Ġ200 4
E S
Ġdeutsch en
ie g
ĠZ usammen
Ġm uss
ĠB re
im al
r ide
irt schaft
ly mp
av ing
ig ten
Ġl o
Ġn ah
Ġfamil y
ĠN atur
b l
Ġf ranzÃ¶s
8 8
al y
Ġc or
ap er
Gesch ichte
Ġim port
ĠH ein
lo y
ĠA pp
sch ied
ĠB Ã¼
ĠW ei
Ġserv ices
re uz
Ġf Ã¼nf
pr ess
Ġin ternational
ig inal
Ġhe alth
N e
or ts
le y
it or
Ġre quire
ĠEn g
Ġo per
Ã¤ uf
Ġm ember
Ġsupp ort
Ġ2 3
o ot
ĠM ot
ut ter
mÃ¤ ÃŁ
tell en
6 5
Ġd i
m m
oll en
A C
kt or
Ġbre ak
he in
ĠC ol
nis se
Ġv iele
Ġb ie
Ġb as
m et
Ġh al
Ġn un
ĠG o
Ġfor m
de x
L eben
ount y
I f
Ġcont in
k ten
b ack
z iel
om in
B u
e h
Ã ³
ĊĠĠĠĠĠĠĠĠ Ġ
Ġe hemal
ĠTe chn
Ġspe cial
ck er
it es
Ġd uring
Ġand ere
Ġer reich
d ate
ĠL a
Ġp op
du c
o ge
Ġat t
ĠB ra
ĠM o
hn en
G est
ĠM y
ĠW ar
ra gen
Ġgo ing
v ed
ĠC olle
Ġf ull
ĠS he
Ġh app
Ġge mein
lo b
ĠFamil ie
ĠM at
Ġper fe
iv al
ĠGe gen
ame ter
ĠPolit iker
ĠP re
Ġc a
h ard
Ġapp ro
ĠOr ts
ond on
ĠIn ternational
av a
Ġev ent
n a
y ch
Ġle arn
ĠN ot
h Ã¤lt
v es
ĠB el
ĠEin wohn
ĠT er
U S
Ġte am
an e
Ġim p
i at
st off
Ġspe c
re chen
ĠMe ister
tell er
ĠBere ich
ĠS eite
3 3
9 4
ĠL eben
Ġbefin det
ck t
Ġl and
h a
Ġloc al
fig ur
ĠK ap
ernse h
ur m
Ġro om
c le
Ġg anz
Ġch o
M an
7 4
d ings
ch es
cri ption
Ġm ein
Gest orben
2 6
Ġp oss
Ġg ar
Ġw icht
w ork
Over ride
Ġg ut
8 5
Ġk on
an ad
Ġf ast
sch ul
Ġincl ude
ĠT ag
ĠK ont
Ġbo olean
ĠFrie drich
ĠK reis
g y
Ã¼ ss
able d
Ġ â
ĠP aul
U R
our n
oc i
ĠB en
Ã¤n ge
9 6
fer ence
Ġbeg ann
l ess
Ġden en
al es
s am
iz ation
ĊĠĠĠĠĠĠĠĠĠĠĠĠĠĠĠĠ ĠĠĠĠĠĠĠĠĠĠĠĠĠĠĠĠ
Ġth ree
Ġre quest
Ġst or
k m
L E
ĠPro v
j Ã¤hr
Ġare a
Ġf act
Ã¶ sterreich
Ġst ate
Ġwor den
Ġf and
Ġc all
an a
Ċ ĊĠĠĠĠĠĠĠĠĠĠĠ
th ing
Ġ200 2
C l
Ġper form
am a
D R
ĠThe y
amp f
ĠDeutsch en
ĠJ e
Ġex p
Ġal ways
Ġ200 3
sch w
ĠD on
ĠE m
ĠN ame
W ith
ath ol
Ġprof ession
w ig
ir on
Ġ2 8
E lement
lich keit
7 6
ĠS ohn
ĠF il
M e
fÃ¼hr ung
Ġo ld
Ġdies en
Ġr und
gr upp
at ter
ess or
ĠIn stit
ĠB ahn
ĠL ist
Ġ2 6
we g
A ll
Ġsoll te
Ġb ig
Ã¶ m
Ġlook ing
M essage
Ð °
te te
Ã¤nd e
iet y
h ung
as st
M od
S p
ĠN o
A M
Ġfe el
Ð ¾
Ġeben falls
Ġz ahl
Ġm ust
K K
a el
č Ċ
um n
St ream
Ġre ce
I ndex
Ġ200 1
b ed
O n
Ġent stand
Ã¼nst ler
ho de
Ġl ittle
Ġzun Ã¤chst
pr ession
isch of
t ing
Ġto o
Ġpart ic
ĠSp ort
Ġwel che
Ġjew eil
I S
Ġw ater
r sg
Ġe ffe
ĠFl ug
Ġs ei
ĠL ie
er st
ĠD u
8 6
ĠS ystem
3 2
enn t
Ġs imp
ĠC ont
Ġm ir
Ġm Ã¶glich
ĠOb ject
en det
* *
ff en
Ġd ating
en nen
Ġe ar
ass e
Ġm ethod
p latz
Ġqu ality
ĠP ark
Ġ( âĢ
Ġwith out
Ġg row
um p
bild ung
Ġm et
Ġpro ble
ĠPe ter
ĠD em
Ġ4 0
ĠF in
Ġm en
9 7
ent ial
h ip
Ġf ield
ĠFran z
w ert
ĠB Ã¼rger
o x
Ġdar auf
Ġo ption
Ġke ep
ent ly
ĠH ans
ft ware
ĠP la
Ġm ax
ol ution
ĠJu gend
ĠM art
it te
us ch
ĠSt r
Ã¤ ll
Ġs ince
c r
k ir
g aben
ĠO st
Ġc r
Ġ199 0
are d
Ġj ob
Ġsch n
+ +
ent en
< /
ĠEntw ick
Ġpro m
er ts
ĠÃĸ sterreich
our s
Ġex c
Ġre t
3 4
ĠH ier
Ġer halten
ne y
ra um
id s
F ield
s icht
amerikan ischer
et te
atur es
ĠTh ere
ĠPar is
Ġa uÃŁer
Ġetw as
Ġb il
Ġth ings
rit t
ĠH el
ĠA k
em p
ĠH ar
f ilm
Ġle g
ĠL ondon
ĠS eit
Ġs w
O f
Ã¤ che
ei den
z el
IN G
Ġt yp
Ġein ige
Ġto day
um en
alt ung
9 2
it u
gr amm
Ã¶l ker
ann ten
ĠWelt k
Ġne u
ĠS pr
Ġent wick
e qu
Ã¤s ident
ĠT itel
F uÃŁball
Ġge ht
tr Ã¤
Ġs ure
sp rÃ¼
Ġ2 7
Ġis s
im at
omm and
Ã¤ re
Ġch ange
Ġor gan
oc ol
hel m
f ts
et en
for der
Ġh istor
Ġind ivid
ĠP al
j ahr
Ġapp lic
ĠB i
Ġander em
te gr
ĠIn formation
m us
ĠIn s
Ġcom e
ell er
Ġc ost
Ã¼ b
A uf
on es
or ge
ro s
Ġg ot
ĠU nd
Ġle vel
Ġre lat
ĠH ow
Ġ est
Ġakt u
se e
pe ct
ur ger
och en
Ġe qu
Ã¶ t
te i
is se
sch rift
b et
Ġbe aut
P D
. âĢĿ
ĠS il
e te
ĠHer z
Ġg ame
um m
ig ital
Ġbe h
tt p
d o
U til
Ġver Ã¶ffentlich
ĠSch n
kl Ã¤r
Ġin c
P r
8 4
ik t
b ook
Ġh ard
ĠC ounty
uÃŁ en
eth ing
i am
j oy
on nen
Ġin ner
ĠD re
Con text
Ġl ot
rie gs
in ner
Ġb ra
Ġst ark
z ig
ĠF ot
Ġse x
Ġdeutsch e
ies en
I I
Bu ilder
Ġletz ten
č ĊĠĠĠĠĠĠĠĠĠĠĠ
H and
m ark
ĠD av
gen ommen
Ġsec ond
e le
ver t
I C
af fen
a uch
ĠK om
ill s
if ied
d orf
ĠH al
min ister
Ġf lo
ur o
ĠC ity
! !
s ych
em s
ĠRe chts
z entr
il y
M et
Ġo pp
ĠH il
Ġw ei
Ġge m
Ġcon ne
. "
Ã¶glich keit
fa ult
Res ponse
nah men
ĠF ach
au g
ĠFra u
2 7
Ġs ay
Ġeing es
ĠD orf
teil ung
4 4
ĠKar l
Ġn eben
fÃ¼ g
Ġwith in
ĠT or
ĠgroÃŁ e
D es
ei le
ĠSta ats
Ġqu est
Ã¼ l
ourn al
Ġprodu cts
ĠR ich
ot he
Ġk ommt
Ġ199 9
Ð ¸
op f
Ð µ
it ing
Ġ ?
c ont
Ġm al
Ġv oll
ĠFamil ien
ĠK ultur
den s
ĠJ ose
imm t
Ġf ac
: //
Ġp ay
f urt
reich e
Ã¼ hl
ĠP ort
ĠgroÃŁ en
Ċ Ċĉ
ch te
ge ord
ĠI hr
ar get
Ġd azu
ce pt
Ġs ize
w ar
Ġho use
Ġimport ant
st ag
il ter
Ġge l
Ġle t
Ġl ine
g o
Ã¤ h
ĠB ed
sp r
rit er
Ġab sol
ĠJahr es
pr ivate
I ON
an c
Ġer r
ĠVol ks
Ġab le
it ive
Ġw ebsite
ĠS el
st Ã¼tz
W h
3 6
Ġbet ter
ĠC or
ĠD is
ges amt
E T
i as
Ġgew ann
Re g
ĠC om
T ime
ier s
ul ts
Ġp ower
Ġihre m
Ġspiel te
Ġauf ge
Ġd ays
il ome
ber eich
ĠAmer ican
ĠD a
our ces
or ie
Ġinv est
z t
ĠO lymp
Ġad v
ind ung
Ġall en
Ġm Ã¼s
ab ility
Ċ ĊĠĠĠ
Ġa uth
sch ein
A P
v alue
ĠB ro
iz iel
o ung
ĠSch auspieler
ĠBet rieb
om as
Ġr un
Ġ199 8
Ġstud ents
ĠM ay
ĠR uss
7 7
In fo
Ġg ive
h am
Ġsom ething
Ġg ing
ĠHam burg
Ġhe ad
ub e
g n
Ġm ind
st re
ut ure
ĠB esch
iv ed
in c
ĠP lan
um b
ĠS ol
ĠAus tr
ĠgehÃ¶r t
5 5
D ies
Ġlar ge
ĠGener al
p re
Ġ @
Ã¤ ft
um er
ic le
ĠD ire
ĠGrÃ¼ nd
uch s
trib ute
if ul
ic ally
equ als
ist ory
ĠM ain
Ġl assen
ver ein
Ġm ain
ach en
t ime
Ġpro te
ĠLand kreis
z ogen
m ut
igkeit en
Ġver l
Sie he
Ġad dition
ĠR ed
ĠT our
S ervice
Ġm ult
Ġres earch
entr al
Ar ray
ĠR ah
ĠBe g
am b
Ġc ert
Ġab ge
Ġbe zeichnet
um an
k a
ile d
Ġhat ten
Ġp ers
Ġde fin
yste ms
on y
Ġh och
gesch ichte
ĠG old
ur en
k ey
im ent
oug ht
Ġchild ren
Ġnah m
Ġ Q
ne te
Ġre f
D E
ĠFol ge
En abled
Ġm ich
Ġacc ess
ge ther
Ġwork ing
Ġl ight
Ã¤ m
ir m
Ġsh ort
Ġin cre
ĊĠĠĠĠĠĠĠĠ ĠĠĠĠ
Ġ20 20
Ġd ouble
ĠI ch
Ġre l
Ġd an
Ġp age
ĠWor ld
Ġle ad
Ġs uper
Ġp ut
En try
el te
ĠS m
g ument
ĠR aum
it ch
3 8
ilit Ã¤r
Ġcomp lete
Ġt ro
d ruck
rÃ¤ ger
E s
heit en
Ġinter est
icht ung
6 6
v Ã¶lker
eng l
B er
ra cht
ĠUS A
m l
Ġd och
Ġan other
fol ge
Ġh ol
ĠHer r
ĠSta aten
ĠNor th
H rsg
ĊĠĠĠĠĠĠĠĠĠĠĠĠĠĠĠĠĠĠĠĠĠĠĠĠ ĠĠĠ
4 8
f re
ĠB rÃ¼
f ert
ĠP reis
gan gen
th row
Ġeas y
Ġpra ct
v iron
Ġste hen
Ġ( !
ĠS eiten
ra w
Ġ ident
ion al
le i
ĠSch ool
Ġex ist
Ġco ver
Ġe ff
Ã¤ mp
Ã¼ ll
ĠG en
9 1
Ġmehr ere
Ġbeste ht
for d
op s
le tz
Ġs ingle
Ġb rit
Ġersch ien
C ol
Ġt urn
ĠAn t
Ã¶r per
as es
w or
N ot
Ġa ir
ĠSch rif
rit ten
ĠFor sch
pert ies
ĠMich ael
ĠT re
ĠAn fang
ĠEin satz
d ing
Ġprogr am
ĠW ind
Ã¤t ze
in ation
ĠL u
Ġmus ic
p end
ĠGe org
oc us
ĠS outh
ĠI l
Ġher aus
d ienst
t ocol
Ġperfe ct
Ġn ational
== ==
h Ã¤ng
lat t
ĠW ith
Ġk urz
Ġzw eiten
sh ip
P erson
ĠA lex
rit e
Ġen joy
Ġ194 5
B ei
Ġmach en
Ġmark et
il la
Ġ2 9
if y
Ġ198 0
3 7
ĠâĢ ¦
Ġw Ã¼r
Ġwor ks
un ch
ĠTe am
n ot
Ġm ight
Ġne ver
gr iff
utz t
O Exception
.) :
w est
Ã ¨
p lan
ier ungs
Ġsch lieÃŁ
az z
3 1
Ã ĸ
S h
ĠRah men
ost er
ch ten
ur f
ĠKir chen
d ie
ĠA ir
) :
e hen
Y ou
uch e
A nd
Ġcons ider
g ar
and s
Ġ199 6
Ġcon f
Ġsu ccess
ĠB ad
Ġb ro
Ġg l
ograph ie
ograf ie
ĠEinwohn er
ur ity
st Ã¼ck
ĠArch ite
ab or
der s
ĠF ar
ort un
Ġse arch
ul ation
de te
ĠK o
Ġse ver
ĠTe xt
ĠM Ã¤n
Ġt re
Ġwe gen
č Ċĉĉ
Ġk ommen
w elt
Ġw omen
Ġc reat
ĠK at
ĠâĢ ĺ
pla y
8 7
le ine
Ġp ict
Ġl ink
uch en
ĠG ar
Ġerst mals
Ġf ood
ĠB urg
ct ure
Deutsch er
u h
Ġ3 1
pt y
ĠI de
uch te
ĠU hr
i ol
Ġim pro
en a
Ġb ased
Ġ199 7
os oph
ĠO ur
Ġin it
Ġc ap
ĠLei p
ĠZ iel
C O
ĠW ebsite
Ġact iv
R O
is iert
tel le
an te
Ġt est
ĠA kt
Ġof t
Ġm aking
ic y
Ġl at
St ate
Ġs af
te ger
ĠG ren
schn itt
Ġneed s
. âĢľ
z y
ĠN eben
Ġe d
m b
Ġd av
ra che
Ġge grÃ¼ndet
ik el
Ġinst ance
2 9
w and
Ġv ideo
om at
onder e
an ten
ĠB ern
Ġw est
ĠChrist ian
l og
Ġden n
L oc
l Ã¤nd
ĠR ober
lie b
ĠL auf
ĠC lass
Ġsein es
8 9
ĠF er
ĠWil helm
L O
ire d
ĠR ei
ĠNe u
ĠS w
ag n
Ġaller dings
v ious
os en
st ance
de utsch
ĠT yp
ĠF all
p ublik
s ize
ar a
ĠB rand
G roup
Ġan t
Ġbu y
h ere
Ġh inter
w ort
Ġk m
den k
ĠâĢ Ķ
Ġres p
Ġ197 0
haus en
Ġcommun ity
ord ing
19 0
Ġto gether
Ġl aw
Ġas k
th ers
Ġd ah
och ter
Ġ199 4
and id
amp le
Ã¤s ent
ĠHein rich
un ft
ut s
Ġd etail
Mit glied
ĠIntern et
Ġne ar
> >
Ġtra dition
n ungen
h le
Ġal ong
ik en
{ @
ein ander
ver n
ĠAl t
ific ation
ĠG ed
Ġperson al
w issenschaft
ĠBe ispiel
ĠgehÃ¶r te
pp er
a pe
ĠZ ug
ilome ter
Ġer ne
read y
Ġtr at
viron ment
Ġ6 0
Ġn on
reich en
l ungen
ĠEr n
tre ten
Ġverw endet
Ġ199 5
Ġp ack
la v
Ġcon c
i ate
is ed
st ant
ĠLe ist
Ġb le
ĠD en
f el
ar te
Ġs tell
ward s
' m
ĠWe g
ĠI hnen
ĠfÃ¼hr te
zeich nung
ĠVer walt
y d
Ġeigen en
ut ions
s c
Ġ18 5
ĠOn line
op er
g art
we is
Ġk omp
amm lung
ĠMa x
Ġte xt
6 7
es ent
ĠS Ã¼
ĠR el
au p
z irk
ĠHe il
ver b
sprÃ¼ n
ĠL ud
tel s
ĠS en
Ġprodu ct
Ġverschieden en
le v
is ing
Ġ _
ig ent
g ie
Ġb it
le ben
in ks
al ten
ĠK Ã¶l
ig a
In ter
Ġen gl
ab ly
at Ã¼r
ĠD ienst
Ġre p
ĠZ ahl
b aut
ĠS ommer
b el
er in
Ġr ange
E C
ĠJahrhund erts
ganis ation
ie ve
Ġde v
ĠH ome
b urger
Ġt Ã¤t
il er
ĠS ervice
Ġto t
oc ument
ĠMe ter
Ġ Ã¶sterreich
Ġgen annt
' re
Ġ199 2
P h
ĠO l
Ġp ath
Ġl ess
os p
f s
Ġbeaut iful
ã ģ
Ġwe il
ain er
ab r
ĠEr st
ĠUn ited
Ġm atch
ĠDes ign
Ġhe ut
Ġre view
ĠA c
gr ess
figur ation
Ġf our
us Ã¤tz
Ġall ow
ĠEin zel
6 8
geb aut
ĠE he
ĠM c
et work
ĠSe e
bes ondere
ĠD at
Ġw all
a ÃŁ
Al s
Ġb ody
Ġg rÃ¼
, âĢĿ
b ol
b ei
Ġvis it
Ġp ort
ĠE nd
a at
ĠP ost
ĠSt utt
ĠW olf
ĠS oc
ik ation
nah m
s weise
Ġo pt
reib ung
g ing
in i
Ġa way
Ġim age
ure d
ĠRe c
grupp e
" .
ok en
sk i
ĠB y
ĠT ro
leg al
af Ã¼r
Ġcour se
ill er
ĠGrupp e
al og
ĠK ais
lich es
3 9
ĠJ apan
Ġre du
Ġse hen
Ġweit eren
l le
ĠmÃ¼s sen
Ġl ange
ĠEr z
qu e
ĠS itz
ĠTh omas
ĠF C
Ġ199 3
ĠGra f
Ġt able
ĠGeb Ã¤ude
l ow
Ġs etz
ĠG el
S o
ran sport
Ġwe chsel
ent ion
ĠW inter
Ġdevelop ment
Ġagain st
ĠEntwick lung
we hr
S c
E m
le hrer
i od
Ġ199 1
Ġe duc
Ġunder stand
il en
ou p
ĠC omm
j a
ab l
Ã¶r d
ĠD ort
Ġbe w
Ġfin det
G ibt
ĠS ein
g ent
Ã¤ fts
ĠH istor
ĠJ ust
Ġdire ct
4 7
o pp
Ġbel ow
ĠReg ie
L A
Ġein mal
ĠSch m
Ġl ive
h end
Ġp ast
ro du
ĠF eld
Ġse chs
Ġoff ers
Ġ18 0
V al
Ġle ft
ĠfÃ¼hr t
ĠW eb
ĠF unktion
Ġm aterial
ĠD abei
ac ter
id ge
schlieÃŁ end
4 6
Ġg ilt
Ġk ind
Ġdav on
ĠD i
Ġpro perty
Ġst at
ult ure
' ve
S er
Ã¤ ss
Ġex tra
ĠEurop e
Ġw eb
U N
Res ource
ĠT ochter
unk te
Ġposs ible
us try
ĠF rÃ¼
ĠE uro
ib r
Ġc ity
ĠSp ieler
ent al
Ġal ready
Ã¤t te
Ġt reat
---- ----
is on
lob al
Ġarbeit ete
d es
ĠP ra
Ġcle an
Ġl ov
Ġo cc
Ã¼ gel
Ġre pr
ĠM ont
part ment
Ð ½
ĠK ommun
c ent
Ġb in
ĠJ o
ser ie
wend ung
Ġh aving
ag ue
ĠEn gl
es ted
ĠV ater
Ġcont rol
Ġ( (
C H
Ġn ight
ĠEurop a
ĠPro ble
Ġdown load
ĠMit te
] ;
ĠN utz
ĠP ap
iz in
pro du
Ġfe atures
stell en
Ġen ter
P re
ar ing
ian s
Ġ196 0
k n
lich t
Ġun til
heit s
sche id
ob ei
ĠRe gel
m od
Ġp oint
unn ing
ĠLeip zig
id ing
ĠHol z
ze pt
ĠStra ÃŁe
con om
engl isch
u el
ut or
Ġg ir
la us
Cl ient
U T
Ġf av
ĠProv inz
Ġsever al
Ġjeweil s
ĠK Ã¼
Ġso cial
f ace
ĠB ilder
Ġn a
Ġwh y
ch an
ge ber
st ants
a ction
it chen
og le
ĠHÃ¶ he
ok ument
7 1
Ġp ot
ck s
ief ert
id ay
Ġd ist
tern al
Ġ198 9
ĠM illion
ĠW ald
F ilm
Ġn atur
8 3
em pl
iv ely
ĠEr geb
w irtschaft
Ġof ten
ĠEr w
i os
ĠE ner
Ġdel iver
Ġfollow ing
Ġbesonder s
7 2
Ġte ach
Ġlie gen
Ġmon ey
ĠK lein
Ġcon dition
Ġcont ent
Ġemp loy
irt schafts
to String
ib li
L og
Ġunter schied
Ġres ponse
Ġt imes
sch er
S ize
ĠThe ater
č ĊĠĠĠ
ĠB rit
Ġall es
ĠSchwei zer
Ġ ess
le ist
Ġf ocus
Pro perty
lig a
Ġopp ortun
und er
ĠArbeit s
ĠMart in
cr ib
ĠtÃ¤t ig
o o
l am
teil t
E L
Ġ Ã¤l
ĠAnd re
ĠSte in
ĠOb jekt
ge f
Ġj etzt
Ġen c
ĠS eine
Ġstud ierte
" )
Ñ Ģ
Ġb rand
ĠRom an
ak en
ĠM ap
ĠO per
Ġdire kt
cri pt
ĠZ e
m on
ĠR u
ĠR hein
ist ischen
fe hl
8 2
v oll
ĠH igh
ĠW hen
ĠN r
ob ile
Ġfolgen den
h Ã¶
v ille
ader s
Ġe lect
ĠR est
Ġe ver
Ġ198 8
b s
f est
O ut
re if
richt ung
Ġf ar
ĠM os
f ield
Ġ ens
im men
Ġst yle
8 1
ĠH of
Ġme et
Ġcal led
E M
O T
Ġmus ste
Un ivers
F rom
ĠStutt gart
ĠTe x
Ġp osition
op y
red it
ĠRober t
s ide
w ie
Ġinner halb
Ġ ir
.. ..
shall er
Ġm aj
ĠE is
ĠU l
am mer
ĠP ass
her r
C ode
Ġme isten
id d
Ġl im
ĠM useum
og n
om an
Ġl ow
au en
L ine
te chn
ĠF ir
7 3
Ġd est
ĠM Ã¶glichkeit
Ġw ind
Ġm akes
ion en
c er
Ġw obei
T r
g lichen
Ġ Ã¶ff
Ġoff ic
Ġac ross
Ġbec ome
ĠS am
ĠD am
la u
a it
n ov
ĠK Ã¼nstler
Ġfol g
w ei
Ġs im
lie gen
Ġh Ã¤uf
fahr t
Ñ Ĥ
ĠD own
ĠH ann
L iefert
ĠK omp
Ġbie tet
ĠM er
ĠTh ese
Ġp ubl
Ġcont act
ĠFrank reich
FuÃŁball spieler
F act
ran ken
ors itzen
ĠLud wig
on st
att ung
D F
Ã¼t zen
Ġsp ace
4 2
Ġ20 21
Ġh om
ĠGes ellschaft
Ġuns ere
ĠL ang
Un ter
ĠMann schaft
Ġst ory
V ers
ĠO ne
A pp
n ull
ene f
a pt
ĠK ind
geben en
M ethod
ĠP et
mb H
7 9
z immer
ĠC as
ĠGeb iet
A D
ĠSt ate
ob il
he ther
Ġstar ted
l ungs
i ber
4 9
I M
Ġof fen
age d
Ġins gesamt
ell ing
ĠW ie
Ġviel en
ĠÂ »
6 2
Ġpres ent
ĠInformation en
6 1
arbeit er
Ġin tegr
pr Ã¤
ict ion
ĠL uft
Ġs ide
Ġqu ick
Mar shaller
ĠFrank furt
is ierung
Ġbeg inn
j et
Ġme ans
t ain
Ġy oung
ĠK e
ĠK rieg
Ġent ry
Ġm ot
ang es
ĠPr Ã¤sident
Ġv ol
ĠE p
Ġp lease
Ġauf grund
Ġth ough
zeit ig
al itÃ¤t
ab les
und s
Ġp o
tell ung
A G
ra b
Ġkn own
ĠZw eiten
O S
ĠPro jekt
ĠB ischof
Ġerfolg te
Ġn ieder
ĠB eit
Ġan s
Ġpr ice
Man ager
ĠMit glieder
Ġjed er
gemein de
ĠFuÃŁball spieler
ĠE mp
uf act
Ġkonn ten
isten er
te ile
Ġer m
kir che
ts teller
ĠH all
6 3
ĠR olle
ĠSch iff
Te xt
ie gel
le ction
Ġbl og
Ġcoun try
C omp
it ten
ĠM utter
ĠSo zial
Ġze igt
ĠDav id
ĠKÃ¶l n
Ġet c
ĠI OException
4 3
ĠA fr
igen schaft
ett bew
ĠL ou
y er
Ġit alien
w Ã¤r
ĠO p
Ġre port
z Ã¼
eit ung
ĠS icher
ĠT rans
Ġth ing
Ġme ist
a un
ic o
Ġse ason
ĠMar kt
itÃ¤ ts
Ġcom es
tocol Marshaller
Ġn Ã¤ch
od es
ompon ent
Ġto ol
ĠW Ã¤hrend
ĠDeutsch e
ĠInd ustr
an ces
ĠT urn
land s
19 5
Ġpr ivate
Ġind ustry
Ġmaj or
ĠkÃ¶n n
b re
ĠBer uf
reib en
Ġer n
Ġb lack
Ġm ag
c ol
Ġm essage
as tr
Ġges am
s erv
Ã¼r z
ĠT age
ĠT V
For mat
ĠK ur
Ġ195 0
6 9
Ġfor t
ĠPro zent
ĠB ur
Ġ198 7
co ver
_ _
ĠCh ina
nde te
ĠL iteratur
Ġ8 0
F Ã¼r
an ks
ip l
Ã¤s st
Par ameter
b est
Ġk leine
Å ¡
itz er
ak er
Ã ľ
Ġsh are
Ġgo vern
Ġs pr
il ities
Ġn Ã¶rd
Ġcomp an
Ġklein en
Ã¤r en
Ġschn ell
em per
ĠL og
Ġar ch
ĠGesch Ã¤fts
Ġc los
ĠschlieÃŁ lich
ge gen
Ġeinz el
ĠK ant
Ġgegen Ã¼ber
or m
Ġle d
Ġb ar
Ġz we
Ġde ut
Ġmoder n
< ?
ĠC D
Ġget ting
Ġspec ific
ĠH en
ĠGer man
Ġe lement
ol oge
ich ter
ag s
Ã¶r t
Ġex ec
ĠG mbH
erk e
- ,
Ġd one
ord in
ĠE isen
Ġc la
e ter
ac y
Ġverschieden e
ĠMet hode
alif orn
im a
Ġbis her
ĠMe hr
ĠM el
Ġunser er
Ġd afÃ¼r
ĠF ile
ar ian
Ġm Ã¶ch
h or
ĠProf essor
Ġfriend s
ic ro
ĠB u
Con fig
Ġm om
ĠB ank
im s
etz ung
wo od
ĠStra ÃŁen
ar l
ĠSt art
pe cted
ĠFl or
es te
ak ter
ing ton
ĠS uper
4 1
Ġph ys
ĠDies er
Ġs og
ĠK le
ym bol
V or
Ġn atÃ¼r
ktion en
ann ot
ĠK ilometer
Ġprofession al
iv ision
b ank
ar en
ĠS ub
ĠWeltk rieg
ĠT est
ĠT op
ĠBe vÃ¶lker
Res ult
row n
ĠAr ray
an o
ir at
Ġwen ig
Ġus er
Ġser ies
Ġwechsel te
ĠW enn
ĠB ru
ĠM ore
Ġur sprÃ¼n
Ġ198 6
ĠProdu kt
ĠD enk
it ze
ra u
ĠK ompon
fl uss
le ge
Ġmember s
b u
Ġmod el
S S
ĠAl bum
ĠAm t
adem ie
Ġor iginal
ĠMin ister
Ġo ber
yn ch
ag o
' ll
or ed
ĠZ eich
Ġ id
ĠWh at
h as
Ġwo hl
ĠK reuz
Ġen er
pr int
ĠTh at
ĠO t
ver kehr
Ġstud y
ym n
end s
res h
Ġs ource
ĠC al
Ġg re
ĠR ock
Ġn am
et ter
anst alt
Ġj oin
m ost
um ents
ĠW ieder
put Stream
Ġinst all
r ist
Ġsich er
pla ce
I P
Ġsow ohl
Ġl Ã¤sst
Ġan geb
ag ing
s ub
ĠV ier
al ys
sp ir
ĠBeg inn
l ast
Ġp urch
ĠC oun
ĠK lasse
Ġ198 4
F A
EN T
ĠS and
ĠNor den
ĠAut or
Ġd eb
m el
z a
ĠBo den
Ġc amp
Ġun ique
W ir
c ome
ĠM il
ĠF rei
E vent
n am
in ge
ci ally
B C
te mp
ĠHe imat
Ġb enef
Ġo p
ĠP an
Ġk ur
ĠA uÃŁer
ĠMillion en
Ġz usÃ¤tz
Ã¼ ler
ĠB lack
Ã¶ ÃŁe
ap s
ĠColle ge
Ġins besondere
it en
Ã¤us er
Ġent fern
In stance
ĠPar tei
b an
Ġs n
Ġgew Ã¤hlt
Ð¾ Ð
Ġw atch
je kte
Ġad dress
t ype
w agen
ĠW eit
Ġgeb oren
Ġide as
Ġc ent
ĠW ochen
Ġwrit e
ĉĉ ĉĉ
ĠG od
E ine
rif ten
ĠHo use
B au
Ġp ie
Ġb lieb
ĠW al
St and
Ġh ours
arbeit en
on a
Ġt alk
âĢ Ķ
zie h
if fe
Ġproble m
ent wick
Ġen ough
ĠHo tel
Ñ ģ
T yp
ĠIn sel
av en
lÃ¤ uf
0 5
k o
zeich en
Ġdisc uss
ium s
ĠIt alien
Ġr en
ok al
Ġin dex
Ġ Ã¤
il s
deut ung
Ġgemein sam
ĠMÃ¤n ner
z ess
ul a
Ã¼r t
ĠSch utz
Ġres ults
p reis
ab in
ann el
Ġc ode
iv at
ĠAn geb
is c
Ġs ug
ĠW issen
ĠSel bst
ĠDe c
form at
Ġ197 2
b or
ĠG et
ver band
ĠD istr
ĠLe hr
Ġacc ount
Ġn ie
Ġze hn
Ġf uture
ok e
Ġvers ion
Ġbuild ing
it ure
ern er
ĠSp an
pp el
Ġdesign ed
S pe
Ġvor hand
ĠF ernseh
ĠSchwei z
Ġrel ations
Ġme an
Ġprov ides
ĠZ ur
r Ã¤n
ĠZ we
em in
Ġk osten
Ã¶s ung
O L
de b
Ġd ate
ĠD el
Ġmonth s
ĠSch loss
ĠAl ter
Ġ( )
itÃ¤ ten
Ġna he
om et
ab y
En t
Ġf ilm
Ġl iving
h men
ĠCl ub
O ption
as er
ĠD DR
ic ation
ĠVer kehr
sch lag
Ã¼r k
I mp
ĠF Ã¼hr
Ġen vironment
ish ing
a iled
Ġindivid u
ĠIl legal
ide d
g in
Ġhin aus
Ġ7 0
h an
Ġr uss
Ġl ik
g round
Ġw alk
stell ungen
p iele
ran ge
ĠMar ia
ide os
ges etz
Ġo thers
++ )
le b
ĠR ot
ĠL es
Ġle ben
J ahr
ĠA p
ay er
Ġvar ious
ĠH inter
ĠSt Ã¼ck
Ġge lang
Ġ{ @
ĠSta at
ĠSch ule
gr am
Ġinv ol
b Ã¼
f red
ĠT al
ĠI r
Ġver kauf
ran t
Ġstr ateg
Ġle b
N ull
ber ger
ĠJ ournal
ĠSt ad
ĠK urz
il led
ĠR ichtung
Ġr icht
Ġs en
Ġer klÃ¤r
ern en
Ġbes ten
Ġ198 5
in dex
Ġbest and
h aupt
ĠĠĠĠ ĠĠ
Ġrequire d
f ung
v olution
v is
Ġm ass
Ġc lose
Ġy et
I ch
ĠV al
ĠOlymp ischen
id el
Ġnor mal
Ġsimp le
Ġres ource
l as
w eit
Ġh istory
Ġerreich te
c el
Ġtechn ology
ĠH or
ĠSt ar
Ġst ay
Util s
Ġw oll
amer a
ĠZw ischen
C he
fÃ¼hr er
ĠB is
Ġh erv
Ġzw eite
ispiel sweise
Ġerne ut
Ġz eit
Ġs ett
ord nung
s etzt
ĠC enter
Ġauth or
f an
Ġd re
Ġcompan ies
ach ten
Ġn ord
ĠSchrif tsteller
led ge
ens ion
o on
ĠP osition
Ġg an
ast ic
L and
s pe
ÃŁ t
Ġtra ining
ĠS a
be k
schul lehrer
ĠSe x
ĠKais er
ou d
ĠBes uch
ĠD om
id a
ze uge
Ċĉĉĉĉ ĉ
yn am
1 00
ch ter
ip le
ĠPf arr
Ġcustom ers
ĠN Ã¤
Ġver st
auf en
mann schaft
ell s
Ġerfolg reich
Ġihn en
E igenschaft
Ġe y
e ded
k or
Ġeinges etzt
un e
Ġw onder
Ar gument
urn iture
C all
Ġdo ing
Ġear ly
M L
ich en
Ġh uman
Ġzw ar
0 1
v est
ol den
Ġth ought
pp ing
fl Ã¤che
Er ror
ant wort
Ġloc ated
cre ate
ĠK riegs
Ġ198 2
V on
Ġ3 5
ĠÃ¼ber nahm
bar en
Ġcol or
Ġinstance of
d i
ĠA g
ĠG eld
, "
ĠVer fÃ¼g
ho ck
lan zen
Ġ197 8
Ġs ing
Ġh Ã¶ch
Fact ory
zeich nungen
Ġcle ar
ĠS ant
fÃ¼ ll
ĠI mp
ab hÃ¤ng
Ġwicht ig
ĠSÃ¼ den
Ġw on
Ã¶st lich
Ġpop ular
I L
ĠB aum
ĠR em
s uch
tr itt
Ġcolle ction
Ã¤ch lich
ĠJ ames
T rans
Ġa ff
de ck
Ġ198 3
he mat
Ġc oup
wo hl
im ate
me e
Ġag o
ibli othe
g Ã¤n
c omp
Ġem ail
st ieg
at ors
U r
Ġ197 9
ĠP o
ĠReg ierung
P er
S eit
Ġm at
Ġ198 1
ĠMot or
n ers
Ġsoll en
f asst
or gen
ne ction
Ġbest imm
Ġoption s
z z
Ġeng ine
t ler
Ġoff ice
v ing
Ġn ichts
Ġj a
Th ere
Ġbeste hen
ĠM aterial
ĠhÃ¤uf ig
ã ĥ
Ġ9 0
( (
ĠSt Ã¤d
w ind
Ġhand elt
Ġc ard
Ġc lick
Ġle ast
ĠPr ess
Ġmed ia
leit ung
ĠS ong
ĠB or
20 18
Ġdah er
i j
Â ²
as ing
F ernseh
ĠH ers
D ate
ĠAn zahl
ĠMal er
Ġentsp rechen
Ġf ur
ĠK re
Ġal ten
Ġm acht
ĠH a
n ach
is es
ww w
itu ation
ĠAustr al
Ġg ames
Ġst ra
Ġwh ite
d f
es tern
Ġact ually
ul es
hl en
d a
ĠA ward
ĠG ott
Ġb lock
ic ks
Ġ197 4
N ew
Ġm iss
W elt
ĠAn ton
olit ik
ĠH in
der n
ĠPr es
stell t
Ã¤hl en
Ġevery thing
empl ate
Ġfolgen der
ĠG Ã¶
ste lle
hl er
ĠII I
Ġfe ature
ĠM ad
fin ition
Ch ar
r am
Ġc ame
em a
z ir
Ġcomp uter
ge geben
h ang
oin ts
Ġresp ons
air s
re ibt
Ã¼ ter
la den
Ġhe i
ĠA v
ĠThe ma
Ver ein
er ing
at is
ger ufen
ri x
U p
Ġh ig
C ount
Ġgen au
un t
Ġf it
rie f
ist ische
end ing
re icht
sch eiden
ĠPro gramm
ĠS im
z us
Ġ196 8
W hen
or ies
Ġdoes n
l ar
ra uch
ĠK ol
Ġbe vor
pr Ã¼
Ġh Ã¶
U L
asch inen
Ġp ur
ein en
Ġpartic ular
ĠK unden
Ġto ok
ad urch
ĠW esten
throw s
ynch ron
I tem
f ried
ien ces
Ġon ce
ĠZ um
Ġinclud es
ĠEng land
i ents
get Name
Ġ(âĢ ł
ĠS erv
Ġpro tocolMarshaller
IN D
ĠBe deutung
ib ility
Dies e
P ack
ĠIn nen
oci ation
un sch
ĠK or
Ġbe ispielsweise
ne xt
Ġtra vel
en burg
ĠP ers
ges ellschaft
ĠJose ph
Ġerr ichtet
ĠR ein
gesch lossen
ad s
anad a
b ie
ur ance
Ġm illion
Ġst amm
ue ck
Ġcert ain
. :
ail le
Ġin form
if iz
Ġapplic ation
or es
Ã¤nd ern
ĠB ach
ut zen
Ġso zial
b are
Ġh inz
ichte te
ĠHerz og
F e
ĠM ac
Ġst ru
ien s
ĠE ing
Ġam er
Ġeigen e
ĠfrÃ¼ her
Em pty
Univers itÃ¤t
Ġd ien
Ġtot al
Ġsog ar
min istr
Ġpro b
Ã¤ ischen
Ġk itchen
ĠverÃ¶ffentlich t
un ction
Ġcontin ue
c m
Ġw ahr
Ġv an
Ġzahl reiche
ĠB ook
ĠO sten
werk e
Ġcre ated
b rÃ¼
p age
te id
fol gt
id th
itz t
Ġre gel
fra ge
E nd
ĠS aint
get ragen
Ġ197 1
Or t
Ġfun ction
Ġcomm on
ung sp
ĠO ct
e ign
Ġso gen
Ġdid n
Â °
am in
ĠK ateg
Ġre por
ĠM iss
ĠSt ates
rich ten
aff el
Ġr Ã¶m
Ġa ud
Ġt w
Ġm em
hock ey
n es
ĠAuf lage
0 2
Ġman ufact
it le
ĠC an
ĠZ entr
Ġ197 5
iziel le
us ter
ĠT her
ok rat
B uffer
F l
ĠS achsen
Ġc m
ĠAuÃŁer dem
C om
ã Ĥ
it a
ĠJun e
Ġman agement
yn c
w ald
Ġwel ches
mÃ¤ÃŁ ig
ĠJ ack
ĠW eiter
sp rach
Ġ196 9
Ġfr ont
Ġbe de
och e
an cial
ain ing
ist ry
ag t
sche ch
or den
ist ik
Ġa ge
ful ly
ĠAn gel
ute t
rach te
Ġ ung
ol a
Ġsie he
ĠOrts teil
ge fÃ¼hrt
ĠO ut
Ġdam als
en en
Ġev ents
KK KK
B o
al tet
ĠG roup
Ġs ays
Ġsom it
ymn as
Ġlie ÃŁ
ĠC r
i ra
ann e
ĠV iel
Ġzu dem
Ġdan ach
Ġd iff
St atus
ĠVerwalt ungs
O ff
Ġc ir
Ġor ganis
fl ug
Ġpers Ã¶n
g a
im um
ial og
Ġd istr
ĠR und
ĠCh amp
Ġ197 6
Ġehemal igen
Ġex pl
Ġgef unden
ĠBay ern
Ġst arb
Ġam az
L o
c ement
Ġam ong
ĠC ommun
ho ut
u ed
u age
Ã¼ hle
âĢ¦ ]
al z
ĠE ben
ĠF inal
ĠHer ren
Ġheut igen
w rite
ct ors
val id
ele br
ĠZ ust
p ol
ĠD ay
ĠG arten
ĠArt ikel
Ġa cht
ĠM ass
Ġh ttp
Ġc ur
li ents
Ã¤ chen
Ġ Ã¤hn
Ġst ore
Ġsie ben
Ġre le
ĠTe le
ge hen
ĠB ron
geb Ã¤ude
Ġhapp en
e e
em ents
ar f
w asser
ĠG ot
At tribute
m as
Ġd at
Ġm ap
Ġh ost
ith er
Ġcon stru
Ġnew s
app en
ĠRich ard
ĠM r
b esch
k unft
ĠD ruck
ir es
ĠV o
geb ung
or ted
ach ed
Ġre d
ĠI D
Con stants
Ġdeut lich
ĠT ab
ĠK osten
ĠN ow
Ġab ove
ient en
Ġe conom
C omponent
le men
ĠM oder
ungs k
0 9
Ġl inks
Ġperform ance
Ġfav or
B ut
s eite
ik on
ak te
ĠVerfÃ¼g ung
T eil
iz es
ĠK auf
> ();
ĠR os
ein t
Cont ent
Ġ(âĢ ŀ
Â »
Ġin tern
eg ung
O ur
ĠN etz
Ġmin utes
Ġann oun
H er
Ġwen iger
tem berg
ĠDre h
Ġge ben
Ġpr ess
G r
Ġf ace
us ion
op t
ch ar
ĠA fter
ĠH af
Ġpr im
Ġb ad
ĠK Ã¶rper
P ol
il ar
ĠE hren
ikan ischen
haf t
ĠF el
Ġ197 3
Ġper iod
get S
ĠAm ts
i ar
Ġg iven
la w
Ġde al
geord net
ĠÃ¶ff ent
m ie
Ġapp ear
tr ieb
Ġs ong
ach er
ip ment
s burg
Deutsch land
ĠStud ien
ĠEr d
Ġcom fort
Ã¤t igkeit
č ĊĠĠĠĠĠĠĠĠĠĠĠĠĠĠĠ
le iter
ĠM ilitÃ¤r
ĠWill iam
I V
he b
Ġh on
ĠT ier
Ġare as
Ġ196 4
Ġf ive
Ġr ate
ĠAr m
ettbew erb
as ure
Ġv ia
Ġquest ions
ĠR ud
ĠA G
ĠSt at
Ġ4 5
ĠErn st
Ġne g
ĠY our
I G
Ġd igital
mal e
ed ia
ann ing
setz ung
Ġ );
ĠG ast
Ġstr ong
ĠC amp
iz er
Ġsome one
T able
ĠW irtschafts
ĠgehÃ¶r en
Ġpartic ip
Ġd ue
Ġse en
ĠFre und
P art
Ġa ch
k i
Ã¶ ll
ĠSal z
ĠB ot
ĠE lekt
hr te
A mer
H och
Ġgem acht
T oken
ĠDown load
Ġ197 7
Ã §
Ġreg ion
meister schaft
ĠVerein igten
ĠSch Ã¼ler
Ġhe art
Ġdar unter
0 3
ik o
Ġso ftware
Ġp lat
ra in
ian a
ĠMa ÃŁ
Ġ193 3
d in
Ġk lass
Ġex t
Ġa ction
ĠNÃ¤ he
Ġcomp et
ĠReich s
D at
us ive
ad a
vent ion
ĠPhil osoph
Å Ĥ
at ers
Ġh old
est s
ĠP rem
Ġst aff
br uch
ĠJ ur
Ġcom mit
S te
ĠW el
In t
Ġqu alif
Ġer k
che ck
ĠKar r
Ġin put
Ġlat est
we gen
ĠCar l
Ġl ag
Ġpre vious
Ã¼r d
Ġw elt
esten s
Ġbefin den
v a
ĠL age
end es
Ġdetail s
Ġabsol v
Ġs tellt
ĠwÃ¼r de
ell ow
he ad
ĠD res
Ġl ock
end ar
ĠSp iele
ĠGe f
Ġletz te
ist ic
0 6
Vers ion
Ġener gy
Ġl ater
Ne xt
Ġe urop
lie d
ĠJohann es
l ad
Ġd ivers
Ġp aper
M S
ĠHil fe
Ġh ope
Ġwho le
on en
Ġw ent
ĠLe ague
ĠA ct
Ġb ath
ĠG est
ĠL o
Ġer Ã¶ff
gen de
Ġ196 5
Ĥ ¬
an lage
ier ter
ĠZ Ã¼r
ĠEl tern
A B
f Ã¤h
t d
ĠJ azz
ĠGes amt
f ix
O G
Hand ler
ĠU K
te cted
ĠRe ad
l im
cre t
ĠR oy
Ġ194 0
Ġloc ation
M us
v in
ĠFe uer
as il
Ġver sch
ĠAl le
ĠGo ogle
Ġiss ues
Ġeduc ation
h ib
k r
et ten
ĠK ing
f ile
Ä į
Ġt arget
ĠS et
Ġp ick
ter m
0 4
Ġgen utzt
at iv
ĠB al
ĠO pen
Ġ196 7
Ġre ason
ac es
ges ehen
ĠSil ber
Ġnatur al
C E
ĠA ber
ĠSie g
Ġt aking
Ġerw Ã¤hn
Ġsel f
ĠM ill
Ã¤d ag
s eit
Ġn ode
ift ung
ĠA cc
tt y
Ġger ade
Ġbie ten
un ge
Ġre cht
u c
w h
ĠC ent
ĠAn n
Ã¼ll er
la ger
Ġ196 6
com ing
ĠP sych
ed ule
pe cially
Ġ- -
rol le
" ;
k an
p ark
ik al
lÃ¤ ss
ĠFin anz
p oint
Ġc ra
Re c
iz ei
U m
Ġrec ord
ro t
Ġc ook
ĠK ons
A ccess
ĠF ort
Ġ ill
ĠPhil ipp
Ġ196 3
iden ce
c urrent
. <
Ġs ystems
f rei
ger icht
leg te
Ġchar acter
s b
as en
Ġto ur
os sen
ste hen
A ss
ĠB ack
Aus wahl
ĠS telle
ĠG i
arbeit et
et y
iv il
ĠG leich
ĠC la
Ġgovern ment
ĠR iver
Ġ196 1
ĠM ess
G em
O per
or ing
an ted
ĠW ein
ĠU p
âĢľ )
Ġein igen
Ġ5 00
Ġpos ted
ĠRei he
Ġ Å
Ġle icht
Ġz og
Ġer reicht
Ã¤l fte
ĠB ig
Ġsch wer
ĠGe ist
Ġ[ âĢ¦]
ĠB ill
ĠC ons
ang s
Ġsoll ten
Ġb i
ier ungen
Ġzur ueck
Ġs ale
st ate
Ġzu vor
Ã¼ss eld
h ing
P S
0 8
ver age
Ġar r
Ġex ample
ĠFl uss
ĠB ud
ĠK raft
Ġreg ister
ĠKl oster
Ġide a
h inder
Ġcl ient
Ã¤t zen
Ġtra in
St art
y a
Ġp ain
ĠPh ys
d am
Ġc lients
in ts
gen cy
Ġs il
ĠSp rache
Ġad ded
Ġverb unden
Ġwei ÃŁ
as te
zeit en
Ġf alls
ĠP lat
Ġ194 4
arr iere
Ġhal f
c il
av y
Ġ3 2
V iew
ĠVert rag
I nd
x is
le cted
l ant
Ġe lekt
ĠEr folg
Ġcon text
Ġ193 0
ĠV ideo
Ġ193 9
ch ester
ir th
Ġ196 2
S ystem
ĠN am
ĠSer ie
ĠHow ever
5 3
Ġwir k
c ase
ĠK an
ade d
ĠVerb indung
Ġcurrent ly
k le
ĠM ult
ĠMus ic
Ġread ing
Ġv eh
in fo
ad o
b us
y ear
rupp en
schlieÃŁ lich
f Ã¼r
Ġ( =
ĠF ree
Ġro le
ĠB aden
Ġth er
Ġteil weise
f on
Ġz ie
Ġass ist
Ġens ure
Ġp an
ĠP or
ĠEr fahr
Ġup date
ĠSie d
ĠB on
Ġal most
tr ue
ring en
ĠMed ien
ĠgrÃ¶ÃŁ ten
ĠT on
ĠG al
ick en
ition s
u hr
or der
ĠE igen
lie ben
n o
ĠSe c
Ġv o
st ud
Ġne ues
ĠGrupp en
Ġstell te
Ã¼rt temberg
W er
Ġm er
Ġ195 6
jÃ¤hr igen
ge m
Ġf oot
Ġbu ilt
Ġevery one
Ãľ ber
Ġ193 8
ĠOt to
c is
ĠT ur
Ã¶ hn
ges etzt
ail y
Ġc as
fass ung
deb ug
S E
ĠW irk
ĠR and
ĠKarr iere
c ul
us st
hand lung
z ip
ich e
ĠL aw
arbeit ung
Ġw ide
Ġin nov
ame ters
Ġpr int
F F
iz ing
Ġb ase
Ġf und
ĠE lement
Ġ19 20
Ġent hÃ¤lt
ur al
C hr
om ot
Ġat tra
Ã¤ch s
ze hn
olog ical
ĠFrie d
f ten
Ġn etwork
sch iff
Ġne eded
G ener
h il
p aper
Ġakt iv
u it
st ring
Ã¼l t
ĠBevÃ¶lker ung
ĠP lease
Ġch allen
ĠBerlin er
ĠV is
ĠJ es
ibliothe k
ĠUn ion
enn ung
ĠPart ner
en ces
Ġf ul
ĠNew s
Ġread y
Ġf urniture
ĠF Ã¶rder
geb ie
5 2
mar shall
M A
ĠRe publik
Ġbel ieve
ĠRe al
Ġl ength
ĠMit arbeiter
Ġwrit ing
alys is
S ub
or a
Tra ce
k el
Ġbei de
Ex pression
bo x
ĠIs land
ĠWerk e
m ission
Ġfin ally
Ġh ot
ĠH is
entwick lung
w ord
Ġthroug hout
Ċ ĠĠĠĠ
Ċĉĉĉĉ ĉĉ
Mod el
Ġf rei
ĠRe ise
Ġw issenschaft
ĠA re
w es
le ted
ig ungs
b ro
Ġbe teil
Ġcho ose
5 7
Ġge hen
bo ard
Argument Exception
Ġappro ach
âĢ ĺ
Ġge legen
ĠĠĠĠĠĠĠĠĠĠĠĠĠĠĠĠ ĠĠĠĠĠĠĠĠĠĠĠĠĠĠĠĠ
S C
Ġg ute
Q L
ĠD enn
Ġauf genommen
it ts
an ger
ĠM ein
for sch
rie ges
ĠGe orge
P E
ĠB usiness
ĠL ong
b ra
g ere
Ġh air
ĠW issenschaft
idd le
Ġherv or
ĠAn ge
Ġsp an
Ġqu ite
G B
e ks
Ġc elebr
Ġby te
Ġproble ms
letz t
N ames
it i
Ġm ove
Ġc ount
ĠAlex ander
ut il
ĠR ang
ain ed
olog ischen
P age
Ġc annot
Ġal t
k und
ĠI ll
Ġse par
Ã¶r m
Ġra d
ĠSc ience
L S
ĠF ig
leit et
ĠLou is
ĠArray List
5 8
Ġw ollen
ĠF ace
ĠV orsitzen
v o
Ġt aken
Ġf ire
gr Ã¼
T R
ĠUnter stÃ¼tz
Ġmach te
ĠBahn hof
W est
aup ts
is ted
ï ¿
ĠT w
ra el
0 7
5 6
Ġfolgen de
ĠT om
ĠH ere
osp ital
L istener
ĠS in
b Ã¼rger
imm ung
ĠGra nd
r uf
Ġv ari
ĠD eb
ges tell
Ġsh ows
Ġt ax
Ġ195 9
Ġbo x
ĠF le
ĠW ebs
Ġk amen
ĠFest ival
ikan er
Ġvar iety
isse ur
Ġfur ther
Ġfolg te
he t
Ġrest aur
ar tet
ent ry
Ġw hether
ĠB und
tr ies
ĠFrÃ¼ h
ot o
Ġver m
Ġit ems
ask et
rit te
Ġtra ck
Ġhe ld
as chen
af fe
ĠnÃ¤ch sten
r ess
ĠJ ac
ot a
Ã¤t ten
Ġcustom er
ï¿ ½
nd er
Ġprovide d
ĠS at
ze ugen
S ON
z iert
ĠM ount
Ġho he
fÃ¼ gt
ĠA th
ell ent
ĠÂ «
ĠAr mee
Ġunter stÃ¼tz
ĠLe g
ĠfranzÃ¶s ischen
bed ing
ĠAus bildung
T Y
ĠI d
ann er
Ġt akes
aus ch
ren g
B IND
ĠUnter such
N o
Ġs ens
ĠAk ademie
en zen
th ough
N umber
f il
ĠS on
. -
Ġd og
pe kt
Ġent ire
Ġins ide
Ġjed en
ograph y
Ġsec urity
Ġde fault
ĠMe er
ĠBes itz
sch au
Ġer ster
Ã¼s se
h y
rÃ¼ ck
Ġger ne
Ġentfern t
st art
Ġp ark
ĠF und
Ġver lie
Ġnach dem
s ie
Ġdam al
C D
BIND ING
Ċ ĊĠĠĠĠĠĠĠĠĠĠĠĠĠĠĠ
ĠB Ã¶
gel Ã¶st
ĠMar ch
ĠEngl ish
Pack age
ĠA st
Ġp le
ten ded
zentr um
ig r
ĠL at
ĠHer mann
ra chen
Ġpr iv
I s
v ey
ĠK ampf
ĠNach dem
U E
Å į
ig lich
ĠMin uten
ĠS l
ĠV ir
olog ische
ill ing
zeug t
ĠEner gie
ĠS ing
Ġ195 2
ge hend
p ass
w art
we isen
Ġs we
Ġe p
ĠW and
Ġph one
or te
ĠR ob
ĠL icht
fol gen
Ġsimp ly
s m
ig entlich
Ġes pecially
Ġint rodu
v on
Ġbef and
Ġvoll stÃ¤nd
pp ed
ĠSte uer
Ġstand ard
ĠStre cke
Ġopportun ity
Ġw ww
ĠG reen
ed en
ho use
ĠU s
] .
c ast
u a
ow ed
g liche
Ġaus gest
Ġentwick elt
K on
Ġex ception
Ġso on
ĊĠĠĠĠĠĠĠĠĠĠĠĠĠĠĠĠĠĠĠĠĠĠĠĠ ĠĠĠĠĠĠĠ
ĠKont akt
Ġl iter
k ap
hal te
ĠK ranken
ab ase
lic ation
Ġamaz ing
ĠP DF
ĠL os
es h
ĠH Ã¤lfte
ĠC our
ĠDies es
ich ert
pp en
ĠAr ten
Ġgleich en
ĠBÃ¼rger meister
ĠGemein den
ĠM ond
p ath
iv ity
ĠVer gleich
Ġmehr eren
G ra
ĠR Ã¤
ĠPla y
er o
le tt
x y
Ġe ither
Ġto wn
5 4
H ol
ĠA uss
ay out
5 1
le icht
ĠMe x
it sch
Ġste p
Ġpre tty
Ġbook s
C olle
Ġd Ã¼r
ĠF rom
em b
Ġ195 5
aler ie
ĠJe an
ho ben
Ġp aint
ĠD Ã¼sseld
ou ver
In teger
mit t
Ġrelat ed
t est
Ð »
Ġknow ledge
ĠAc adem
ĠP op
z we
ĠW all
Ġ195 7
ĠAmer ica
==== ====
Ġre chts
ap ter
Ġw ays
Ġf ert
ĠfÃ¼hr en
Ã¼ ste
Ġr ule
ran g
ess el
rit z
ĠHe alth
bin ation
Ġs ites
Ġst op
ste ad
ĠGes etz
Ġphot os
rie ch
be zirk
Ġrec ently
Ġkein en
ĠErgeb nis
Ġh ab
ĠBe griff
Ġquest ion
ĠBru der
Ġb lo
ĠGra b
Ġw anted
Ġst re
Ġ195 8
Ver lag
W enn
Ġsk ills
p lat
Ġrec ent
zie hung
ĠDam it
Ġart icle
ĠN S
orn ing
it ar
ĠArbeit en
Ġpict ures
M on
oll ar
Ġ194 3
Ġany thing
ĠW as
ĠNach t
Ġgew esen
ĠEr sten
Ġtyp es
ĠC am
ĠâĢ ¢
Ġex tend
ĠW ash
Ġun ivers
me hr
Ġest abl
Ġde p
Ġgeb aut
do or
ĠWolf gang
Ġit em
Ġper cent
ix ed
ĠW ol
Ġim ages
Ġcon tra
ĠPolit ik
Ġl on
ĠAl b
ĠHal b
ĠHann over
ĠauÃŁer dem
w esen
Ġacc ording
Ð º
ĠD ach
ire ct
ĠT im
ĠBas is
ĠK opf
ĠL eiter
Ġlead ing
f ar
re ten
al a
ter e
os ph
Ar ch
Ge ographie
Ġs end
Ġr unning
ame ister
pro tected
Ġinter ess
Ã¤nd ig
E d
Ġmark eting
ĠA ud
Ġm eine
Ġus ers
ieren den
Ġd ir
ig ner
ĠÃ¼ber n
ĠHer aus
Pro v
ash ion
ĠThe men
aliforn ia
M y
ĠC ms
Ġprodu ction
Ġplan s
ic ult
ĠW o
rit ik
ĠSo ftware
Ã¤nd ert
5 9
Ġgener al
le cht
Ġe her
Ġ194 9
ĠA uÃŁen
stre cke
Ġcom mer
Ã¤n gen
ĠVers ion
ĠZÃ¼r ich
oss ible
ĠMan agement
F ilter
Qu ery
Ġsub ject
> (
d ien
An y
Ā Ā
ĠT emp
ĠE t
ug h
Ġso und
Con figuration
Ġwall paper
l it
i est
ĠI T
ĠIn n
bet rieb
ĠL iga
au b
ĠAl bert
ĠSpiel en
Ġpart y
ĠDres den
U ser
i w
ĠW alter
if fen
Fernseh serie
O D
ĠF uÃŁ
Ġpar ent
Ġrece ive
ict or
Ġproject s
ze igt
Ġspiel en
Ġeffe ct
ĠMod ell
b ark
Ġcom ing
Ġne cess
Ġ194 1
ĠJul y
k ret
he irat
Ġ194 6
re quest
S V
Ġs ession
st a
fol ger
ĠDo ppel
Ġbes uchte
Ġapp ly
Ġho hen
k au
if en
Ġaus gew
hal ts
Ã³ n
ur ren
ĠD och
ot te
Ġst ock
Ġsel ten
ĠRe gen
Ġp sych
ĠAss ociation
Ġindivid ual
g or
Ġk om
Ġam ount
Ġsch rieb
ond s
so zial
ĠComp any
at ten
sp iele
In ner
sch riften
Ġspe ziel
p ack
Ġc enter
par te
Ġconc ern
ĠIllegal ArgumentException
Ġdiff icult
ĠD okument
T H
\ "
ĠF en
ĠN ik
Ġrece ived
ĠSch Ã¶n
b ased
an ken
ĠD ate
S port
l ist
Ġben Ã¶t
ĠK as
ct ing
Ġentstand en
ĠBrit ish
ĠC ap
Ġstor age
ĠE U
l iste
ĠfranzÃ¶s ischer
ist an
ĠZu dem
ĠStre et
ca pe
Ġgir l
d t
Ġde f
Ġsetz te
b lick
u he
ĠM ath
ĠL Ã¼
Ġch anges
r ig
Ġs onst
ĠF irst
ĠO s
Ġout side
i pe
č ĊĠĠĠĠĠ
i ally
Ġj apan
Ġent halten
Ġfin ancial
aug h
ĠP il
ic les
Ġze igen
z uf
Ġs le
ic ate
Ġz erst
Ġhapp y
g arten
Ġg lobal
Ġwoll te
Ġt old
st all
Ġde g
zir ks
y g
ĠO f
H el
ĠSt ock
ho od
ĠFra ge
Ġpar ts
S ource
Ġk ids
ĠGeb urt
ed ding
ist ent
ĠV e
Ġfor mat
Ġlearn ing
ig in
ĠAuf trag
w esten
ver walt
ĠOr iginal
Ġco ol
dr esse
ĠW ild
tr ie
se qu
Ġpat tern
hÃ¤lt nis
m Ã¶
ĠR en
Ġiss ue
ĠL ive
Ġ194 2
h i
Ġfin anz
anst altung
er ror
Ġj ava
Ġunser en
ĠS onder
ĠInstit ut
ĠFace book
Ġk ont
Ġstud ent
Ġeben so
ĠS u
ĠS yn
Ġp ool
ĠK er
rech end
ĠE ast
if ier
ĠPf lanzen
Ġ194 8
ĠZu ge
ĠFol gen
Gem ein
L ength
n y
Ġsign ific
Ġter m
at iven
Ġn ice
Ġse em
cl ient
ĠStud ium
amerikan ische
ĠGl as
Ġvorhand en
Ġb us
ibr ary
Ġs tellen
l ern
Ġf all
oc al
Ġus ually
Ġrepr esent
Ġup d
Pro du
Ġaut om
ir ate
Ġpict ure
ĠG re
Ġal te
ad es
Ġdar Ã¼ber
Ġaddition al
ĠS upp
Ġcom ment
neh m
Ġ195 3
an gel
ar ts
Ġeinzel nen
ĠL im
ĠSt unden
G es
el ten
trÃ¤ ge
Ġs ix
Ġtry ing
ĠnatÃ¼r lich
d ata
sch uss
ĠRe cht
ĠAn g
Ġme eting
Ġcoup le
omm end
Ġ195 4
fahr er
** **
Ġprob ably
h ab
Ġw Ã¤re
Ġan schlieÃŁend
ran sp
F rau
Ġb ott
Ġex pect
ĠProdu ktion
Ġgemein s
F I
R el
Ġb al
Ġb ud
ĠW ider
ĠV en
ang ing
E X
Ġval id
f Ã¤ll
om b
Ġihr es
w irk
ch ange
ut her
ĠT eile
Ġer ziel
ib en
ĠWind ows
Ġyour self
ĠPr inz
Ġ195 1
ĠÃĸ ff
M ed
ĠC up
ĠLe hrer
Ġprov iding
Ġans wer
O M
Ġver ein
Ġsp ielt
ĠInd ia
Ġ> =
Ġactiv ities
Ġd raw
Ġs ave
Ġtro tz
S P
č Ċĉĉĉ
Ġres ources
Col umn
k reuz
um in
Ġwe eks
" ))
ĠC re
Ġval ues
Ġd et
ĠS und
m und
Ġse lect
erv e
C ms
as c
ĠEx per
ĠPr ivat
Ġdec or
Ġtreat ment
ic ient
Ġlook s
Ġerreich en
Ġcho ice
ĠOct ober
om a
Ġt un
Ġb esser
T rÃ¤ger
techn ik
ie ÃŁ
Ã¶ sen
ĠAut o
ĠChar les
ĠD ann
ĠL ink
ĠursprÃ¼n glich
ĠDenk mal
Ġbe deut
Ġbet rÃ¤
d om
t c
Ġm obile
Teil nehmer
iqu es
Ġf ig
final e
Ġpre p
De finition
ĠSoc iety
Ġw ords
ĠS ign
gen er
Ġreg ular
lichkeit en
ĠS Ã¤nger
Ġf ra
ab eth
Ġsch Ã¶
Ġs ent
n ow
Ġs ummer
ĠCar ol
ĠB all
il det
Ġ3 00
ĠKateg orie
Ġd ocument
Ġt ell
ĠSchw arz
ĠH u
Ġweiter hin
Ġw a
ov ers
ĠBo x
Ġsol utions
ĠWash ington
at ory
Ġreg ul
w ill
ĠM Ã¼ller
Ġdes cription
Ġex act
Ġhow ever
ĠA ugen
Ġto uch
Ġgra ph
Ġw ord
Ġne un
ĠEn ts
AM E
b ase
or ten
ĠFra gen
wie gend
ĠkÃ¶nn te
Ġmom ent
S etzt
Ġf resh
Ġre lig
la f
Ġo il
Ã¤ te
ĠT ype
ĠC alifornia
ĠLie be
ĠSchauspieler in
m ap
ĠF ern
ĠWien er
Ġvers te
ĠBr un
gr enz
Ġge geben
ĠStand ard
ĠSchl acht
Ġoffic ial
at ely
ir che
Ġsim ilar
ĠPres ident
O P
heirat et
Ġd ritten
de ten
ĠW ort
Ġin de
ne ter
ĠBe k
ĠZw ei
S upp
ound s
Ġc ut
ĠIn c
w issen
Ġcon fig
pro chen
g g
ot ion
Ġbel ieb
Ġpract ice
M in
Ġwo od
ĠSchw er
Ġdis play
Ġ row
sch t
Ġphot o
Ġge d
ĠGes und
Ġsk in
ĠKÃ¶nig reich
ro ffen
ĠI st
ĠG as
ĠEr k
Ġequ ipment
G et
o den
pr Ã¤sident
Ġp oints
etz en
Ġ Ã¼b
ĠH an
Ġfl ow
Le vel
ĠRest aur
Ġt c
ĠU N
Ã¤t ter
Ġinclude d
ĠerwÃ¤hn t
Ġwirk lich
a ill
ro id
ĠW ahr
ĠAus wahl
Ġin fl
ed s
ĠIn teger
ĠmÃ¶ch te
k athol
ĠZentr um
T ag
b i
Ġf il
itt ing
l ier
trib utes
ĠEnt scheid
ĠR at
Ġth ird
ad y
Ġd iv
de ckt
ĠBe zeichnung
Ġrec ogn
ĠgrÃ¼ ndete
w ner
Ã ¢
Ġh or
Ġext rem
on ym
Ġmit tler
mer k
ĠGr Ã¶ÃŁe
Ġerh Ã¤lt
Ġbesch Ã¤ft
Ã¼ ge
Ġer z
ht t
pos it
ĠEurope an
Ġc aus
Ġaktu ellen
is Empty
Ġo ben
ĠB ul
ĠL Ã¤nge
Ġall ows
Con nection
Ġdis cover
mar kt
Z u
on str
rÃ¤ ge
tr at
omm ission
Ġm aint
Ex ec
unter nehmen
P os
ĠH essen
Ġk ennen
ĠAn na
B A
Ġabsolv ierte
ĠH om
Ġinit ial
l ingen
5 00
e hm
ĠSt il
ĠS ow
ĠT ages
ĠK ern
Ġc oll
Ġge k
ĠEx ception
ĠLin ie
Ġincre ase
Ġs ales
ĠDan ach
Ġbeh ind
Ġopt im
N ational
ĠD or
ĠInstit ute
f amil
ite te
Ġa k
ĠB d
ĠD isk
Ġreg ard
ĠPol izei
Ad dress
asket ball
Ġsch Ã¶n
Ġpr ior
Ġm m
Ġv e
Ġmed ical
Me ter
h ers
l Ã¶sung
ĠT ime
Ã¤l le
ĠFir ma
L ink
Ġg lass
Ġdes crib
au ber
meister schaften
K E
k arte
ĠK ey
ĠPr Ã¤
az on
Ġcor re
c ies
Ġe mer
ĠI N
Ġer ror
fer enz
ateg ory
te x
ir it
Ġst ream
ĊĠĠĠĠĠĠĠĠĠĠĠĠ ĉ
h ips
ie ur
ut ive
im inal
sch ei
halt ung
cont ains
ic ago
Ġal tern
Ġwar m
ĠReg ierungs
ĠUm welt
Ġre ach
ĠAl so
k y
Ã ¸
ĠS ar
ĠD ipl
u ell
z i
Ġw es
ĠP unkt
ĠSt ru
ĠCh or
d own
Ġflo or
Ġfor ward
ĠP C
Ġl ate
qu are
ĠAb schluss
ĠPerson al
Ġstamm t
E O
ĠFr iday
ĠUnterstÃ¼tz ung
j ust
Ġw id
ĠS old
Ġin spir
ĠOr d
Ch ild
fra u
Ġd ur
ĠS ingle
Ã¤r k
Ã¤d chen
ĠL Ã¶
ĠU R
Ġany one
Ġfavor ite
r is
Ġc rit
ĊĠĠĠĠĠĠĠĠ ĠĠĠĠĠ
Ġins urance
ĠInd ian
Ġw ohn
F C
v ol
ar ter
Ġind ustr
r hein
u ted
ĠS Ã¤
Ġup load
ĠverÃ¶ffentlich te
Ġ rom
Ġun ver
Ġnot hing
Ġsol ution
Ġle ave
A cc
g u
Ġd ro
ĠS ome
ĠK ommand
vers ion
Imp l
l ament
Ġg round
ĠR itter
Ġk athol
Ġbes itzt
ĠBl Ã¼
r unde
Ġ194 7
An not
astr u
r c
Ġl ives
av es
ĠNach bar
Ġdr ive
M ail
p ose
ĠB onn
ĠK al
b ischof
ĠJ er
lan gen
Ent ity
l ers
Ġ Ã¼
Ġp orn
ĠPar te
Ġpot ential
b orn
Ġ193 7
Ġm orning
ers eits
ri pt
ĠGeb ie
Ġpl ant
ell o
fr astru
C o
in os
or ien
chn et
Ġsc reen
ĠH D
Ġch em
Ġse ems
Ġro ad
Ġc y
ĠVerein s
Ġz ust
Ġbe ein
Ġerh Ã¶
ĠHoch schule
u hl
Ġt ick
ĠV oll
eh men
Ġble ibt
w al
pend ent
end orf
richt ungen
ud es
Ġconne ction
f Ã¶rm
ic ated
rei ber
O ne
ĠN ic
Ġde ep
ĠDÃ¼sseld orf
ĠI hrer
Ġr isk
ĠMat hemat
ĠR a
ĠSt amm
St at
ren ch
Ġs b
ah nen
ieren de
Ġehemal ige
ĠForsch ungs
ĠIndustr ie
pr ise
ĠPol en
ĠI hren
over n
Ġla unch
ĠJose f
<? >
Ġkosten los
re cher
Ġsel ben
tag s
ĠhÃ¶ her
ĠR un
ĠJ ung
Ã¼r n
Ġup on
Ġdr ess
Ġwel cher
Ġexc ellent
ap ie
g le
ĠJ ob
Ġum fasst
Ar t
P ort
q l
te in
Ġprogr ams
. ");
Ġe igentlich
Ġne hmen
Ġd om
Ġm Ã¶
Ġ+ =
d k
ĠIn vest
Ġst ation
Ġsie ht
ĠSh ow
van gel
ymnas ium
ĠM em
lin ie
Ġex pert
res ult
re ise
Ġa verage
uf e
se hen
Ġ193 6
Ġdec ided
Ġeas ily
Ġplat form
ur a
gel n
ĠZusammen arbeit
ĠR unde
ĠQu alif
Ġw in
ur er
Ġm o
Ġm atter
ĠG ut
Hoch schullehrer
Ġsignific ant
C ache
p ielt
ind ing
Ġ193 4
ĠAut om
ĠRes earch
Ġausge zeichnet
ĠRel ig
Ġa ffe
Ġpro perties
Ġj Ã¼n
ĠEisen bahn
a ktion
ime ter
teil en
Ġt ransport
ĠHe im
ĠVerkehr s
ĠP ublik
âĢ ŀ
Ġho tel
m ot
ĠsÃ¼d lich
ĠKompon ist
Ĩ Ĵ
C T
ĠA ch
hl t
be ck
ĠQ ue
ĠW in
Ġis n
Ġwe ight
p hen
Ġre fer
Ġre lease
Ġan z
Ġne uer
yste me
Ġapplic ations
vers e
mus ik
Ġst reng
rem ove
Ġ ;
ĠH art
t itel
M ax
Ġmind estens
ĠKon z
Ġhigh ly
Ġunser em
Ġide al
om s
ist ics
Ġkn app
ĠS ter
ĠS tern
id t
ian o
ĠNe ub
abr ik
irate te
Ġm el
ĠWh ite
p ers
at tet
ĠF eder
att le
rÃ¤ fte
ĠVert re
Ġhei ÃŁt
Ġt ag
te ten
Ġex tens
fall en
ĠChe m
Ġ4 00
Ġgra du
Ġpra kt
ĠKant on
Ġsug gest
i i
Ġcomp on
Ġw r
Ġin fo
ĠH on
ĠFran cis
unk ten
Â ®
ĠW ork
ĠRoy al
Ġh uge
ĠOr gan
Ġgew orden
ĠOff izielle
ĠChe ck
ĠGÃ¶ tt
Ġbe ach
Ġeinz ige
Ġje de
ĠS omm
ĠAb end
ĠS S
Ġwork ed
D urch
J ob
Ġc ause
ĠL ake
Ġre qu
D is
P f
Ġs un
ess ages
Ã¤hl te
g ers
ĠD amen
Ġz uf
Ġer folgt
iz iert
Ġdo or
ĠZeit punkt
heim er
Ġimp act
ĠnÃ¶rd lich
ter ator
ĠT own
Ġk aum
Ġca pt
Ġs al
ens ive
Ġverl oren
H ow
Ġd ed
à ¸
und le
ĠIm m
im in
Ġl os
we chsel
Ġsp ort
ĠUm gebung
Ġcol umn
ĠN ur
Ġtr Ã¤
Ġpol n
Ġcare er
Ġbil den
z og
Ċ ĊĠĠĠĠĠ
d s
op en
Ġwrit ten
ĠServ ices
ĠD igital
ĠD ivision
oun ts
Ġmar shall
A fter
G er
ĠRad io
ĠChamp ions
ĠB lick
Ġso fort
Wh at
= "
at o
ĠL eitung
ad el
ĠAkt iv
T ER
c as
ce p
ĠN icht
all ery
Ġle ader
Ġpurch ase
T ree
j or
ĠTra dition
Ġrele ased
ĠbetrÃ¤ gt
ĠNach folger
as y
D a
Ġrem ember
Ġmult iple
st att
ad ata
Ġex pected
Ġsch loss
Ġum fass
Ġimpro ve
Ġd adurch
Ã¼ cht
ĠF ass
af r
rupp e
M ark
P oint
ĠB us
Ġzu ge
ĠDe partment
Ġentwick elte
ĠG reat
t schaft
w in
ĠL OG
Ġgrow th
Ġbil det
Ġquick ly
Ġc redit
wÃ¤r ts
g al
g ment
at alog
Ġro und
ĠE th
hr t
Ġ19 00
Ġwrit er
Ġsaf e
Ġd aily
ĠTra iner
Ġass oci
Ġrem ove
Ġplay ing
Ġs etzt
ĠO k
ĠPro gram
ab s
ĠgrÃ¶ÃŁ te
Ġsl ow
ĠM use
Ġex pla
Ġprov ider
Ġbo ard
ipp ing
ĠBay er
Ġgan ze
A ction
Ġw oman
st Ã¤tte
ĠKir ch
Ġben annt
ĠP unkte
ĠI V
ot es
ĠSt affel
Ġj Ã¤hr
Ġmov ie
Ġbeginn t
Ġlik ely
Ġvor her
ĠWe ise
Ġpre m
an i
Ã¤nd en
ĠComp uter
bu ild
S I
ph one
setz en
Ġeffe ctive
Ġmaterial s
grupp en
ĠÃ¶sterreich ischer
g ibt
l ong
ĠM ur
ĠL ife
zw ischen
atch er
Ġoff iziel
Ġinter ested
Ġhig her
A uch
Ġinternational en
v ents
ar io
Pro perties
Ġs aw
ĠM as
ĠH ard
ĠR et
alle l
ĠAngel es
R em
Ġf ilter
st aat
get Value
Ġaktu elle
ĠRec ords
Ġled iglich
Ä ģ
Ġb ank
Ġk rit
wind igkeit
M P
Ġb ald
uch ten
Ġse ction
res ource
T ask
ĠT ruppen
F irst
b aum
Ġh und
ĠK laus
ĠK ra
ot ing
Ġpos itive
Ġs ort
Ġsh op
Ġ193 5
jÃ¤hr ige
B lock
au x
Ġch ance
ĠEx p
ĠFre ib
Ġern annt
b it
m ont
ĠW ander
ĠVer wendung
ĠZeit schrift
Ġde ath
get Message
ian ce
ĠGrÃ¼nd ung
Ġf ail
ĠH ei
hen s
Ġ15 0
an cy
Ġb em
Ġlon ger
ĠVer Ã¶ffentlich
Ġex cl
Ġpr ices
Ġbed room
Ġver heiratet
ĠTex as
k om
re u
Ã¤d t
Ġgleich zeitig
m o
| -
ĠG Ã¤
Ġl ower
St ra
Ġpar ents
alle y
it ation
ĠM icro
Ġ1 20
ĠSp rach
Ġrec ommend
icher ung
Le gt
Ġimp lement
a ign
ĠH Ã¶r
Ġfor mer
Ġje dem
el ine
Ġg reen
ĠV ictor
ĠEng ine
Ġerm Ã¶glich
ĠAcadem y
ab il
Ġver fÃ¼g
Ġreg istr
wissenschaft ler
w ir
Ġs od
Ġd ra
amp les
ĠTeil nehmer
Ã¤ ten
Ġpr Ã¤sent
Re ad
Ġzahl reichen
bark eit
k ampf
Ġges tellt
()) );
Ġrem ov
an lagen
ĠBes te
ĠM aster
ĠP fer
ĠAngeb ot
n ing
Ġd oc
is er
Ġhand le
Ġlang uage
ĠT Ã¼r
ĠT enn
Ġne igh
ath let
Ġro t
ĠSicher heit
ĠL ove
ĠMed izin
utt ing
ĠBen utz
Ġw ish
Ġc opy
ĠK lass
ĠHer bst
Ġon es
St ore
y ing
ĠSt rom
Ġph il
Ġdevelop ed
ĠDan iel
Ġask ed
w ith
al ing
Ã¤ cht
ic ip
ver fahren
ĠAr ts
ĠAb s
Ġter ms
Ã¤n n
ĠGot tes
Ġh ous
ĠH y
Ġgar den
Ġcondition s
h Ã¤user
on om
re publik
ter min
app ing
k unde
Ġf ant
Ġg ives
ug s
ĠRo ad
Ã¼ss el
Ġtool s
at al
em ble
Ã¼n ft
rei he
i ro
ĠA ust
Ġg riech
Ġdes halb
Ġr ather
Ġ- >
ĠJanu ary
Ġ1 000
Ġse lection
iz ier
Ġdar f
Ġexper ien
P at
ĠCh icago
Ġpubl ished
ĠL ied
ak ers
inn ing
Typ es
ĠS uche
Ġf irm
ĠU ms
Ã¼hr en
spiel en
B r
i h
w a
er c
if est
Ġst ring
T V
Ġb and
Ã¶ p
Ġver k
ĠFl Ã¤che
Ġpl anning
Ġtradition al
al u
ĠG ro
sch lÃ¤
ĠC ast
ĠWeit ere
Ã¤n gt
C ase
it able
Ġbeg in
inc ip
H T
ĠP rÃ¼
Im age
Ġst ammen
il a
ĠStadt teil
Ġpol icy
Ġpie ce
or gt
ĠK olle
ĠL ager
Ġsw itch
Ġleg al
Ġful ly
d y
Ġj Ã¼d
ĠAus gabe
Ġev angel
Ġplay ers
ie gen
ĠI P
ĠAll er
f unk
is ierte
ĠK enn
Ġ3 6
pro f
spr uch
Ġt ask
em e
ĠfrÃ¼ h
Ġdev ice
ĠAndre as
ĠÃ¶ffent lichen
Ġsaf ety
verwalt ung
H E
Ċ Ċĉĉ
ĠG ood
ĠC y
od ing
Ġbring en
Ġfand en
k lasse
Ġf air
Ã¶ ss
af e
ĠfrÃ¼ hen
l n
ĠF ischer
isch em
p ret
ĠA tt
haus es
ĠRud olf
ĠerÃ¶ff net
ĠT Ã¤tigkeit
ĠW erner
Ġl isten
ĠProdu kte
ĠUnternehmen s
b as
Ġge ts
get C
Ġsch edule
Ġcommer cial
Ġzu letzt
AT E
ĠS ur
Ã¤ um
ĠN et
kt iv
ĠBe zirk
Ġgesam te
ĠO ver
r um
ĠS C
ĠT at
Ġer forder
ĠOr ganisation
zie hen
ĠP ublic
ul s
Ġan im
Ġst atus
Re ader
h op
l or
Ġin j
Ġim med
sp ro
ĠDe velop
les en
Ġinst ru
Ġt itle
Ġin dem
ĠD Ã©
Ġnot wend
ĠLe icht
Ġpl us
por ate
' )
O ber
j o
s ystem
ĠA f
ĠC le
ul y
ĠHand els
Be an
ĠG ir
Ġab ility
ĠPart y
Ġhal ten
Ġorgan ization
ĠSund ay
f alen
ĠZ uf
chn ung
im ar
Ġpre d
ĠEs sen
Ġke hrte
re chts
id ents
oc ation
Ġwor th
Ġgesch lossen
Ur l
z Ã¤hl
Ġn ov
ĠD azu
ĠJ os
ĠfranzÃ¶s ische
ĠNutz ung
; ;
Ġhe iratete
Ġ192 8
Ġpolit ischen
ĠM ail
pp e
ma ÃŁ
ĠWh ile
Ġmach ine
Ġn immt
Ġh it
ĠF ound
ist in
ĠMar y
ĠVol k
Tra cing
ĠÃ¤l tes
r al
Ġmit tel
Ġme chan
atur day
Ġange geben
Ġsuccess ful
Ġt im
Ġf iles
Ġg old
Ġre pla
ĠKÃ¶nig s
Ġser ver
anstalt ungen
ic on
Ġlo ad
Ãĸ sterreich
Ġbe ge
b rit
ĠV iew
Ġwer de
Ġd ream
ĠE dition
Ġl oss
ru it
Ä ĩ
ie ÃŁen
Ġv ideos
ĠD ata
Ġfin ish
D I
or th
rif f
ĠMen sch
denk mal
u elle
ur b
ĠP ower
ĠW ell
Ġbe gan
Ġl ic
ĠMar c
Ġcl ub
ultur al
ĠEinwohn ern
W riter
l ings
ĠY ear
schein lich
ĠzusÃ¤tz lich
at ung
gew icht
He ader
As ync
k raft
Ġz entr
ĠBe im
ĠBau ern
AT ION
Ġlevel s
ĠE duc
ĠS ach
Ġemp f
as ten
Ġl ost
ĠAl ten
n amen
Ġan alysis
Ġim m
ĠAn schluss
Ġveh icle
forsch ung
Ġb irth
se c
Ġso uth
ĠH off
Ġ193 2
Ġpart ners
ĠFahr zeug
m useum
Ã¼ gen
ent y
ne e
lie fert
Ġber eit
asch ine
Ã¤dag og
Ġe arn
zeich nis
Ġ* /
Ġdirect ly
g as
Ġh um
ĠSch les
Ġun it
PD F
Ġsing les
P osition
er r
Ge grÃ¼ndet
Ġbrit ischen
W Ã¼rttemberg
au te
Ġbrit ischer
Loc al
an walt
ĠE st
ĠH ash
ĠAn lage
Ġsch l
stand s
Che ck
B ahn
L ong
h istor
Ġd ig
it ial
Ġf iel
ĠM and
ĠT emper
un ion
Ġe uch
mÃ¤ ler
p a
in ed
ar ge
Ġl aut
ĠVer l
Ġwonder ful
Ġbath room
ĠS zen
Ġun mittel
Ġpre uÃŁ
Ġbu ilder
D r
ĠT urm
ĠJ ak
Ġdistr ib
Ġextend s
str ument
Ġrelations hip
Ġconstru ction
ar es
ĠMÃ¼n ster
Ġintern et
Ġw edding
Ġh Ã¤tte
end ung
Ġro ll
ĠBest and
Ġinvol ved
ho den
cre en
n s
Ġp aar
ĠSch le
ĠZ immer
Ġgen ommen
f unktion
Ġb ere
Ġtr ip
Ġatt ention
V ari
Ġn ames
ĠW ass
Ġre in
ĠO ption
Ġver lÃ¤
ei der
Ġgu ide
Ġgesam ten
ĠT ransport
ach ts
] ,
Ġf a
ind est
Ġcoun tries
Ġarch ite
R A
e es
u ert
Ġpro per
Ġcolle ge
Ġble iben
Ġb orn
ĠW ed
ĠCh urch
Re ference
ĠKinder n
D A
N AME
ran ch
aut or
geord neter
lemen te
Ġdamal igen
Ġc ross
ĠT ri
ib ly
Ġdien te
Ġd ise
Ġb row
aus t
ĠMar g
Ġgrow ing
ĠFen ster
p at
nd en
ĠS V
ed y
arm on
Ġgroup s
b ody
st attung
ial e
o oth
20 17
d at
Ġex am
Ġall gemein
ĠOr gel
fl Ã¤chen
-------- --------
ĠL et
ub en
Â «
ĠE very
ĠW ies
ĠAn tw
ĠAuf gaben
= '
ĠS atz
Ġv ac
Ġ19 19
Ġgo al
aug ht
Ġcreat ing
Ġm ount
ĠHe idel
Ġwen ige
van ced
Ġpat ients
ĠNam ens
D o
U M
p m
il den
ĠM aschinen
By te
ĠAustral ia
Ġver d
Ġ192 7
ĠFamilien name
F re
v i
Ġt hr
Ġn ature
pen den
ĠBo ard
Ġjeweil igen
Ġabsol ute
Ġgir ls
B ase
am ing
Ġ19 18
ĠBe ach
west lich
re l
Ġm id
ĠO x
la y
ĠZ entral
ok omot
Ġnor th
ĠE ss
ĠW oche
ĠCoun cil
ĠAn s
Ġ3 4
Ġmy self
ĠZeit ung
Ġ192 9
Service Response
D B
Ġs ag
tt ps
m ore
ĠM Ã¤dchen
ĠAn gaben
ks am
Pro cess
Ġmus sten
mittel t
spr ung
ĠGren ze
ĠProble m
C C
ĠM erk
hen sw
ĠH ill
UL T
ĠE ar
Ġpass ed
Ġarbeit en
ĠBÃ¼ cher
ĊĠĠĠĠĠĠĠĠĠĠĠĠ ĠĠ
Ġnecess ary
b is
n itz
v ier
iel ten
Ġent scheiden
ĠS onn
ig ungen
ĠEp is
ĠS uch
Ġaus schlieÃŁlich
stÃ¤nd e
ĠOff ice
p erson
ĠS um
ĠL A
wissen schaften
ĠP rom
ĠH ir
Ġhand s
mut lich
Ġhinz u
ĠJ ud
ĠSch lag
Ġver z
lin ge
Par am
esen ted
ĠS y
Ġout put
Ġcir c
as ons
Ġo l
gew iesen
lÃ¤nd ischen
ĠSomm ers
ĠH aut
ĠChrist mas
ĠK u
ei ge
Ġde pend
ĠgroÃŁ er
Ġstart ing
ĠunterstÃ¼tz t
Ġw ider
Ġc abin
ĠP ier
Ġbenef its
f ast
ĠP ubl
Ġbede utet
ĠR oll
all owed
qu ence
ĠCh in
imm el
ĠFot os
Ġreview s
ĠH alle
Ġan aly
Ġâ Ĥ¬
am ous
Ġch rist
ĠBes onder
ag d
ĠEin fluss
Ġ7 5
Ġpla ces
ĠMon ate
ï ¼
ĠVer kauf
ĠD V
gemein schaft
hil fe
C ON
| |
Ġin stead
ĠIs rael
Ġbusiness es
ĠBre men
Ser ver
ĠA T
ut n
ĠR Ã¶
Ã¶rder t
m ax
ĠT it
Ġent w
rÃ¼ cken
Ġcomplete ly
ĠDec ember
E urop
Ġb rachte
Ã© s
Un it
Ġinterest ing
Off set
ĠWebs eite
A A
it ude
Ġin tens
ĠN Ã¼rn
ĠZ usch
ipp ed
Ġdesign s
ĠspÃ¤ter en
etail s
R uft
st anz
os ed
Ġ3 3
Ġcomp lex
Amer ikaner
ĠE ll
Ġth ous
Ġfe ed
Ġt en
Ġb aby
ĠC anada
ul en
ock et
w ell
laub t
Ġb uffer
il i
ik i
(" \
âĢĿ .
By tes
lav ier
g arn
s ing
Ġe inger
ff er
so ft
Ġser ious
Ġ Î
Ġf ine
ak s
leg ung
k unden
l v
Ġse ek
Ob jekt
ĠArchite ktur
Cont ainer
Ġl ux
Ġrequire ments
w eile
Ġt emper
ĠL i
ĠSt ation
Ã¤hr t
or et
ĠS ammlung
ĠF ritz
ĠG ust
ĠC ook
Ġch ines
fr ont
Ã¡ n
Ġlar gest
Ġwelt weit
A ut
Ċ ĠĠ
ahr en
20 10
d is
| }
Ġf lex
Ġm ix
Ġl angen
Ġse ien
ĠFe hler
b ilder
Ã ½
un te
Ġc andid
Ġno te
ĠChar akter
Jahr hund
ĠWe hr
forder ungen
M at
ĠS icht
Ġf ab
ab et
Ġag re
Ã £
ĠS ho
Ġf ashion
if ts
Ġapp e
ĠPat r
ĠColle ction
L ast
d aten
m esser
ĠAn schlieÃŁend
ĠLe on
W ork
er al
ze igen
ĠAn aly
Ġdurch gefÃ¼hrt
ĠD ir
Ġwir tschaft
ron ic
Ġâ ĨĴ
Ġaktu ell
Ġannoun ced
ac ity
Ġges etzt
Id ent
org ung
ĠZeich en
S ession
all er
ĠZusammen hang
Met hode
E Class
R et
ĠP ot
ĠE vangel
Ġzw eit
ĠPh ot
r ug
sch auspieler
Ġpart ner
Ġehemal iger
k ra
er er
Ġcom b
ra ct
la x
ĠMed ia
Ġv iol
ĠF arb
Ġsom et
Ġoffer ing
Ġrep air
H ttp
ass el
Ġhe ll
aw a
Ġatt ack
ĠtrÃ¤ gt
ĠS aturday
Ġh our
ber s
Ġer setzt
id ung
r ats
ig ation
ĠGer ichts
H ier
par se
ĠLe x
wer ks
umen te
K ultur
g ab
o e
Ġ ign
Ġd ark
ĠAn th
ĠBe zirks
ĠQu alitÃ¤t
P A
d ouble
h te
ĠM ost
and a
Ġit self
ĠEn ter
Ġ6 5
ĠFot o
Ġregel mÃ¤ÃŁig
in y
Ġs ynchron
Ġh ttps
hal le
20 15
Val id
Ġstreng th
Ġ19 14
Ġle bt
Ġprogr ess
Val ues
F r
Ġact ive
Ġs ah
Ġar ray
kir chen
c up
m eld
ĠL ux
Ġaut omat
ĠFinal e
ĠÃ¼bern ommen
O C
D S
h old
Ġt al
ĠM un
Ġcl oth
B S
ot ten
we ig
ff ic
20 14
ms el
Ġspe ed
roug ht
Ġdec ision
imat ely
ĠLeist ung
geordnet en
um Ã¤n
Ġl Ã¤nger
ĠO h
' d
er weise
Ġent lang
Ġfol gt
Ġk aufen
s ere
ĠD rei
Ġro ck
ĠBl ue
Ġ192 5
y les
Ġd ich
ĠS ib
le ger
Ã¤ u
cript or
temp or
r t
is ions
() ))
haf en
ĠCol or
cle ar
Ġ ult
st ream
ĠAr n
Ġbest Ã¤t
Ã¶l f
Ġbek ommen
sub string
el a
ĠR ou
Ġqu ery
ĠÃ¤l ter
Ð ²
Ġschw ed
p i
ä ¸
ie ger
Ġgo es
Ġbec ame
hol z
oper ation
ĠFried hof
P reis
w here
Ġg ift
parte ment
w ide
Ġn utzen
ĠG overn
for men
ĠGl Ã¼ck
Ġstor ies
ĠFar be
ĠvollstÃ¤nd ig
Ġs us
ĠG olden
Ġge fÃ¼hrt
C L
en te
ĠS T
ĠS om
20 16
Ġm other
schaf ter
tra gen
rÃ¤ s
reif en
P RO
W Ã¤hrend
ĠR ennen
ĠAl fred
Ġ193 1
oh ol
Ġexist ing
aupts Ã¤chlich
Ġh ielt
Ġfor get
Ġn et
ber n
zahl en
ĠVertre ter
B undes
Ã ±
ber eit
b ul
ĠE vent
ĠD ro
Ġalle in
ĠWei hn
. ),
ĠS onnen
De fault
Ġhelp s
fass ungs
i xt
y e
Ã¼r gen
ver lag
E G
ĠZu kunft
Ġenc our
Ġw ait
us ed
ĠSchw ar
Ber lin
F amil
N A
ĠT hen
ĠE igent
Ġob tain
Sch w
Ġ192 6
Ġweek end
ĠGegen satz
Ġstru cture
p unkte
Ġv irt
ĠE re
Ġ} );
Ġ< =
Ġander er
Ġver hinder
Ġun abhÃ¤ng
Ġmethod s
Ġcreat ive
hensw Ã¼rd
l ies
t a
Ġcon du
Ġar g
uck y
ĠWer te
in put
or al
Ġex press
ĠAus stellung
Ġad ministr
ĠStru ktur
b a
Ġb ul
mit glied
Ġjed es
ĠMus iker
leist ung
u gend
ĠL ab
W ie
ĠE lect
gang s
ĠPat ienten
D eb
O W
P olit
Ċ ĠĊ
er be
au ern
Ġcons ult
N ON
Ġd unk
Ġd omin
ar ies
St ud
Ġbet re
A uth
s es
Ġg iving
ĠIde en
ĠErgeb nisse
ge legt
ĠApp le
ĠHome page
B and
k osten
ĠL ieder
ik ations
Ġst age
lin es
ikan ische
Colle ction
Å Ļ
20 11
Ġgesch rieben
imp le
ar ante
ĠM Ã¶
ĠSch e
ly ing
Ġor igin
par ator
Ġstr ess
ĠRuss land
ĠSm ith
Tracing Enabled
A ug
is Any
Ã¶r en
ĠHeil igen
V AL
az ine
Ġsur round
Z ur
p osition
Ġs old
le hn
ĠT able
ĠJ SON
amerikan ischen
ĠPhilosoph ie
ĠTemper atur
b ung
Ġf arm
Ġg uten
Ġmein er
Ġdefin it
Ġc ases
ĠG attung
ĠL ig
oh le
unn el
E l
K arriere
k omp
Ġd ry
ĠUr s
ĠBeruf s
P l
ĠF ernse
ra p
Ġg rand
Ġj unge
reit en
B ar
Ġbeh av
h agen
p ossible
Ġthe msel
zeich nete
Ġac cept
ĠRegion al
isAny TracingEnabled
D P
i ant
ĠS us
ĠHaupt stadt
Ġt Ã¤
Ġt ats
Ġh ar
ĠP orn
ĠPar lament
Ġsol che
Prov ider
b latt
w an
ĠSt off
pl ant
Ġe dition
sp rache
ign ment
lan k
fr iend
ĠSpe zial
roll er
Ġpolit ische
Ġcost s
Ġricht ig
htt p
l ike
ĠC entral
ĠKar ls
by te
Ġthemsel ves
T arget
r ies
v olle
v ement
Ġd ein
Ġe th
ĠKn oten
ĠFar ben
S ec
al led
Ġp df
ĠW irtschaft
Ġer baut
Ġ19 10
ers ey
pf licht
ĠFr ont
oot ball
ĠMet all
st at
Ġweiter er
ĠA R
ĠT agen
Ġge prÃ¤
ĠForsch ung
ĠVir gin
Ġs an
ĠF isch
ob by
com es
Ġbl ue
Ã¤ll t
Ġsen se
Verein igte
od or
Ġangeb oten
F ol
m and
in den
or re
ĠS Ã¶
ific ate
ul pt
ĠZ us
tr al
Ã¼hl en
ach ing
ĠV an
Ġk lar
ĠSt reit
Ã¤ss er
ĠBeit rag
Ġp en
ĠTechn ik
Ġroom s
ĠProble me
hockey spieler
g ner
Ä ±
Ġm aster
Ġc ulture
Ġdar an
we chs
Ġor d
ond ition
Ġ6 4
ĠDire ktor
Ġindividu als
ĠStÃ¤d te
ĠDreh buch
N eben
ĠM ik
Ġpre fer
Ġschool s
S k
ĠB lock
Ġout door
ĠDar stellung
Ġbeteil igt
Ġt emp
is ation
it ness
In s
Ġ4 8
Ġinter view
Ġwieder um
Ġ192 4
ĠKom ment
Ġgel ten
ĠSoc ial
Ġwind ow
Ġc ell
Ġl ines
k ont
l uss
s a
ĠC all
Ġ19 12
Ġso ft
br idge
Ġlog ger
Ġcomfort able
im me
Ġst ieg
ree k
h och
Ġre ve
ĠFran ce
R ad
ĠPap st
ĠMond ay
S piel
k g
ĠS ym
ĠA P
ĠM ach
Ġk anad
ind ungen
ĠGe heim
chn ik
Ġder zeit
ĠDeutsch er
Ġdar in
ĠInter esse
ĠPra xis
ĠHen ry
S U
m osph
un s
ĠB ol
Ġat tend
ĠMen ge
Ġsm art
ĠFÃ¼r st
Ġann ual
ð Ł
ic kt
ĠL aur
pf lich
Aus zeichnungen
n ode
ch ner
ĠVer fahren
Ġ3 8
ĠNe ue
ĠFebru ary
ĠMod el
Ġm ention
il lage
20 12
r est
ĠPro zess
Ġopportun ities
Ġhom es
henswÃ¼rd igkeiten
V ER
b our
Ġs ymbol
ĠS amm
ĠC ode
Ġhe ar
ĠPro p
print ln
R ule
Ã º
an zen
ĠÃĸ l
ĠZust and
Ġexact ly
ch em
ie fer
ĠL Ã¤ndern
ow a
ne ct
ĠOr ganis
Ã¤ her
y ond
Ġtrans fer
Ġcamp aign
ige m
Ġexp and
ĠVorsitzen der
ĠSt atus
pr Ã¤sent
ĠBl ut
Ġess ay
C re
ic ed
oun ter
Ġgew innen
ĠAt lant
ĠWei ÃŁ
Ġexperien ced
g ien
âĢĿ ,
Ġplay er
Ġphys ical
trie ben
c an
m y
Ġs on
Ġh auptsÃ¤chlich
im ension
zieh ungs
" :
ĠD Ã¶r
ĠFlor ida
g Ã¤nger
ĠPe ters
reit ung
S erv
ut ing
Ã¼t te
Rec ord
zip lin
Gemein de
N S
ess ions
age gen
fin den
ĠNational sozial
ĠSant a
Ñ ĥ
Ġhe at
ign ed
ĠString Builder
ken nen
Ġthink ing
Ġconsider ed
W erke
h auer
ĠK lavier
ĠL y
Ġres ol
Option s
K reis
Ġn omin
ĠPro ject
Ġback ground
Ġ( "
Ġto wards
ĠL ast
Ġ4 2
Ġhigh est
r id
is tet
ĠW estern
ĠL eit
Ġst uff
ĠBer eits
f rom
Ġf uer
ĠM acht
20 13
ĠAm azon
ĠBild ung
Ġlim ited
f Ã¶rder
ien en
Ġbas ic
B ox
n ungs
u id
mittel n
ĠPort ug
Ġerziel te
Ġcorre ct
ĠB it
ĠW agen
urs day
Ġown ers
Ġdeliver y
Ġsogen annten
f alse
Ġmit tels
ĠStud io
ĠÂ £
reg ierung
t y
ĠB rown
ĠErz Ã¤hl
Ġleb te
E is
ĠR is
ĠSpe cial
T hre
Ġb all
ber e
Ġex hib
In put
ĠWe chsel
Ġbet rieben
tem pt
Ġmod els
m iss
Ġ Ã¶stlich
Ġd ient
ak a
ĠBron ze
ĠFreib urg
un i
ĠO ld
Ġver treten
n ummer
Ġp ages
Ġn umer
Ġinst it
ĠChrist oph
Ġstat ement
ĠBeit rÃ¤ge
KKKK KKKK
g rad
er es
Ġg ro
Ġch at
Ġcons um
Ġadv ant
Ġer f
ow ski
De c
ĠGÃ¶tt ingen
p ace
Ã Ħ
ĠT schech
Ġer inn
Ġo wner
ĠN ummer
Ġsomet imes
an geb
Ġ3 7
iat ely
ĠMos kau
eign et
P ers
z if
Ġres olution
Ġbesch rieben
II I
Ġverkauf t
d as
Ã¼ hm
Ġst aat
Ġpro pos
ustr ie
Ġfamil ies
UR L
Ġblo od
O K
ĠW ood
Ġgeb racht
Ġpol ice
rech te
Ġactiv ity
ĠSt immen
lie der
ĠBetrieb s
ĠVerwalt ung
Ã£ o
č Ċĉĉĉĉ
ĠD ouble
Ġj ungen
iz ations
aut en
Ġoff set
ĠHinter grund
utn ant
S Ã¼d
ĠP a
og a
ĠÃ Ĺ
Ġfre qu
reit et
gor ith
ĠS un
ĠB rief
ĠG ran
Ġver antwort
Ġcomp leted
ĠCont in
s ervice
Ġg ere
our ney
ĠQu ellen
Ġerw eit
ar kt
ĠS P
gr en
D ir
d ire
f ur
at ives
ĠG Ã¼n
ĠR ing
get Class
ese hen
Ġste el
Ġcont ains
roug h
Re f
Ġtra gen
Ġsub mit
w en
te uer
ĠD et
Ġver fÃ¼gt
ĠSpiel zeit
ĠSc ott
Ġsuch en
stru ktur
Ġf ix
ĠRe p
Ġprom ov
Ġcla im
Ġg as
Ġl au
Ġal bum
Ġver lieÃŁ
ran ce
Ġad vert
Ġplay ed
Ġlet ter
ĠBrand enburg
g ern
j i
o is
ĠC ard
ist isch
ĠAuf gabe
az in
Ġfun ktion
r d
ĠW ach
geb racht
Ġarbeit et
Bau werk
us er
ir chen
lan z
ĠMar ine
ues day
( '
ter t
Ġdem onstr
gew and
leist ungen
p olitik
Ä Ľ
ĠMan ager
ven ue
zug s
Ġentsp rechend
Ġnam ed
Lo ader
Ġsod ass
tempor ary
g ut
k opf
ĠAb teilung
ĠerklÃ¤r t
ĠReg isseur
Ġwicht ige
ĠFir men
g roup
al m
se x
Ġum fang
ĠHerr schaft
Up date
Ġdivers e
Ġwr ong
A dresse
ĠSer ver
Des cription
ĠEduc ation
ĠHeidel berg
n ational
Ġe b
eb e
Ġcon trib
ĠAl tern
ident ial
Ġelement s
Ġunmittel bar
F K
ĠâĢ ļ
Ġab s
Ġunter st
C P
Ġbe legte
Qu ellen
ĠGrÃ¼ n
Ġpolit ical
Ã¤uf er
Ġlov ed
Annot ation
M ode
in ary
ne ur
ro at
ĠH ig
ĠRe volution
ok er
Ġwe ather
Ġ192 1
akt iv
minister ium
as che
fÃ¼ hl
Ġ192 2
ĠJu den
Ġess ential
m d
Ġs yn
ĠW omen
ĠL ind
Ġus es
io de
Ġpre vent
Ġsub s
Ġwest lich
low ak
h u
k ord
ĠS em
ĠF rench
ĠL ieb
ist ance
ry pt
ĠÃ¼ br
O p
or ial
an ischen
ib el
ĠSp Ã¤ter
ĠHein z
Ġrelat iv
C ons
T er
h ow
we gs
Ġmehr fach
ĠAd d
B ack
ĠW ettbewerb
Ġch urch
ail s
Ġgleich nam
Ġunderstand ing
el la
ot al
ichte ten
zieh ungen
lÃ¤uf er
A utor
at i
au d
Ġte le
tra iner
Ġpos it
ĠVert ra
ro ck
ĠIn tegr
ap y
act ive
Ġinvest ment
Ġaff ord
ĠSow jet
Z eit
Ã ´
ĠK ult
ĠR aj
Ġbe hand
ĠÃ ī
ĠGe h
Ġhealth y
Ġverl or
h aps
Ġit er
ĠEin fÃ¼hrung
ĠGeburt stag
Ġ Ã¶
Ġm iddle
rie be
19 45
ock ey
ĠInter view
Ġbestimm ten
Ġsle ep
N ieder
ĠM ethod
ĠW etter
Ġav oid
ĠJes us
Ġs av
omm od
D ouble
Ġ il
ĠG alerie
Ġwe ar
LO G
Ġemploy ees
erke hr
ĠSpan ien
us band
ver stÃ¤nd
th ur
ert ung
Ġsupp ly
ĠStud enten
Ġlim it
Ġey e
Oper ation
c lose
Ġs ell
ĠD E
Ġsp ent
ĠBlÃ¼ ten
F unction
d or
ĠP ak
ĠC are
res p
ĠDire ctor
tain ment
Ġfinanz iel
ĠverlÃ¤ uft
Ġf lat
ĠH istory
qu is
Ã© e
Ġacc omp
Ġclass es
Ġcoll abor
M ill
V erkehr
Ġhe ard
stell er
ĠGes pr
ra k
Ġl ots
ĠV illa
ĠV alley
Ġso c
iss ert
olog ies
nes day
m Ã¶glichkeit
w eite
ĠK rank
th a
Ġ5 5
los en
ĠBl og
ĠĊĠĊ ĠĊ
ha ber
ĠmÃ¶ch ten
j ava
m acht
Ġt ree
im er
Ġst ates
Ġr ights
Ġche ap
R ow
Ġp et
ĠC a
ĠV om
fra gen
Ġhistor ischen
ĠLeist ungs
ĠOp fer
ĠUR L
Ġest ate
ĠVer teid
Ġvers ucht
G ruppe
Ġver t
Ġro ot
Ġjob s
ĠBesuch er
p al
ĠS PD
ĠT ar
ĠR am
kt ions
St ack
Loc ation
i ation
posit ory
P an
as ion
ĠM att
ĠAn teil
Ġfeel ing
I B
ĠP ay
ck ing
ĠSt ahl
Ġver gleich
Ġ{ }
term ine
B l
Ġd auer
Ġb ill
Ġb atter
ĠGrund lage
lauf en
Ġwen igen
gangen en
Ġh Ã¤lt
sp er
lo ok
Ġar gument
Sch wei
Ġerschien en
A X
ĠV iol
up s
Ġunter s
gemein den
ĠStand ort
ĠLeist ungen
m ond
ĠH und
Ġsch le
omm ern
ĠAd olf
ĠSer ies
Ġeing esch
ĠDem okrat
kn own
ĠSin ne
Ġfert ig
2 000
A re
is her
Ġev alu
ĠAut ob
ĠSch aus
ink el
ĠWissen schaften
Ġc ru
ĠG lo
ĠKap elle
ĊĠĠĠĠĠĠĠĠĠĠĠĠĠĠĠĠĠĠĠĠĠĠĠĠĠĠĠĠĠĠĠĠ ĠĠĠĠĠĠĠĠ
ĠSold aten
Ġs em
Ġpar se
Ġart ist
ilit ary
ĠRich ter
augh ter
it is
Ġein st
ill on
ger ichts
Ġor ient
Ġbest immt
Ġgesch affen
ĠBesch reibung
is ieren
ĠE hr
R un
t l
Ġey es
Ġdeg ree
m Ã¼hle
Ġw ild
ĠF ind
ĠK ohl
iz en
ĠBas el
Ġill ustr
C al
ĠK ritik
ĠSt an
ĠHe ute
ĠIde e
ĠF lo
ach im
ad rat
Ġun bek
ĠAuf bau
fr ist
Ġelect ric
TY PE
Ġv Ã¶ll
ĠV arian
ei ÃŁ
Ġsc ient
Ġsc ience
vers ammlung
Ġitalien ischer
Ġeurop Ã¤ischen
ion e
tr ans
geb nisse
oren z
Ġinfl uen
Ġd Ã¤n
r ight
Ġe he
Ã¼ st
ĠI ndex
ĠU ser
ĠTh ursday
Ã© r
Ġlie fert
Ġklein er
denk mÃ¤ler
F ound
m t
p ool
stand ing
Ġ192 3
Ġview s
zÃ¼ ge
T op
z one
is abeth
ĠC ho
ist a
Ġwas n
Ġserv e
ĠKar ten
ĠdÃ¼r fen
g au
w ach
Ġn ied
ate ur
200 5
d ar
m ir
w ise
ĠK ammer
ĠSt iftung
ĠEn gel
ĠGroÃŁ en
Ġsag te
L ock
f Ã¤lt
re ci
ĠH ause
Ġan ges
ĠOb serv
ĠOb jekte
ĠMÃ¶glichkeit en
Ġs atis
ad or
ag ne
ĠÃĦ r
Ġbeginn ing
Ġpur pose
w s
ĠP ack
ic ine
sch m
Ġsow jet
hol t
Ġcontin u
ĠJac ob
mÃ¶ gen
Ã¤ den
Ġsp end
ac ters
ey er
ĠMar ie
lev ant
kret Ã¤r
rÃ¤s ident
\ \
ĠS eb
Ġg Ã¼nst
ĠIn fo
ĠBed ing
iti ative
Ã¼ck sicht
200 9
ĠGew inn
ĠÃĦ nder
ĠDevelop ment
Ġd ynam
ce ed
la h
Ġsp ot
ĠOr te
ĠNatur schutz
Ġfolg ten
Ġw issen
lin ik
ĠArch iv
Ġsett ing
ĠGust av
ĠP od
Ġ4 4
ĠVier tel
ĠCour t
Ġin sp
ol es
ic ing
ĠL ib
elt a
mal er
Ġpre c
ĠIhre m
ĠermÃ¶glich t
get Type
Ġ190 8
ĠCent re
sie he
brit ann
an ien
ĠA N
ro y
ren nen
Ġste ts
Ġschw ar
Ġcar ry
ES S
ĠTechn ology
ĠGren z
s itz
Ġw ife
al ed
wer te
ĠC O
ĠUnivers itÃ¤ts
hand lungen
Ġgu arante
Ġchange d
ĠPrem ier
N LS
Ġent stehen
stit ut
B esch
D irect
E hemal
c ia
m atch
Ġs and
baut en
d essen
Ġt ips
Ġw and
ro te
ĠNach richten
Ã¶st lichen
ĠDistr ict
el f
ĠT Ã¼rk
ĠF ert
ĠV ize
ĠAn wendung
Ġsp orts
ĠHam burger
ennt nis
Ġwichtig sten
Ġb rought
ĠT ok
ĠT uesday
ĠW affen
Ġth read
ĠJ ava
Ġviel leicht
Ġrepor ted
Ġin zwischen
Ġh op
Ġl ack
se ud
Ġzw Ã¶lf
Or der
ĠwÃ¼r den
ĠWill i
war en
Ġpack age
ĠSim on
Ġach ie
l ation
p olit
Ø §
ĠM uss
ĠD ah
Ġg esehen
Ġre v
Ġver lassen
ĠEin heit
Ġtr uly
Ġmov ing
Ġhol iday
ĠVo gel
ĠB Ã¤
if er
ĠPr ies
arch iv
Ġverlie hen
ĠGÃ¤ ste
L abel
W eit
ĠH it
Ġde ad
lin ien
Ġbut ton
Ġfe et
ĠIt al
gebie te
ĠDÃ© partement
ĠFound ation
Ġc amera
ĠVer lauf
Ġact ual
F rank
o ÃŁ
en se
Ġf amous
Ġm iles
and en
Client Exception
Mus ik
ĠNÃ¼rn berg
D isk
ĠIn t
ĠDe v
ĠGer hard
Ġentsp richt
Ph one
l Ã¤nder
ĠS ir
Ġn ation
Ġver mutlich
Ġaus getragen
Con stra
Ġappro x
ĠÃ¤ uÃŁer
Ġprim ary
c raft
Ġc lin
Ġc ards
ĠP enn
ĠG Ã¼ter
ĠH as
ĠEin s
stru ktion
ĠSm art
ĠTurn ier
Ġdefinit ely
n ern
ĠR enn
ied lung
Ġob serv
schul en
Ġdarauf hin
gent in
t liche
ch mal
Ã¤ ische
Ġ19 11
Ġre lax
Ã¼tz t
S ett
ĠH ub
ew ork
Ġkomp lett
v m
ĠS n
Ġver pflich
ĠBr asil
Ġdire ctor
yd ro
d urch
t or
ing u
Ġun ten
Ġsh ape
Ġsetz en
ĠEre ign
b lock
ĠChar l
A F
O st
Ġm il
ph an
ĠAuf nahme
ĠSpr ing
Ġf em
ĠF ire
ann ed
Ġaus tral
Ġme as
Ġsp Ã¤t
T ION
Ġr ates
Ġpro p
amer ika
ĠÂ §
ĠWohn ung
ĠGrÃ¼nd en
Ġre li
Ġpro ced
Ã¤nd ler
Ġdar gestellt
ĠauÃŁer halb
ĠÃ¶sterreich ischen
ĠCommun ity
ĠId ent
=' \
h ost
Ġ Ä
Ġa f
re c
ĠS ound
ĠM ake
Ġ// $
ous ly
din and
e lement
Ġs ym
Ġm ilitÃ¤r
ig an
ĠF ak
Ch ange
Ġunterschied lichen
Ġzerst Ã¶rt
- )
Ġc ast
ĠRe chte
form ations
Ġoffer ed
ĠAller dings
el se
ĠD ur
ĠG ene
et ch
crib e
D on
ar ischen
ĠD arm
ĠT ore
ver trag
ĠSte fan
I A
c are
p ite
Ġs ituation
ĠB la
ĠKar te
200 8
Ġeng ag
Ġwahr scheinlich
f le
Ġa im
ĠF un
Ġcon ven
xt ra
ĠBar bar
Ġleg te
Ġconne ct
1 20
Ġ uk
is Entry
ie fe
Ġe le
us te
ĠGes am
ĠEurop Ã¤ischen
Ġmot or
o z
r up
ĠM Ã¤r
ĠD ol
ic ious
Ġr ich
Ġj ud
Ġset s
Ġeffe cts
ĠArchite kten
Ġrepor ts
Ġt ried
ĠF al
Ġtra de
Par ams
stit ution
Ġelekt r
Ġassoci ated
isEntry Enabled
Ġf lieÃŁ
Ġg ave
ĠSch rift
qu es
Ã¤chs ischen
Ġb itte
Ġse lected
Ġab geschlossen
lie fer
stoff e
wes ome
ĠR osen
ĠSie ger
En g
Ġmay be
Ġgu ys
Ġnumber s
ĠSchul en
B et
f ree
Ġv ict
ĠD ank
ĠK och
Ġauf gerufen
Ġsho pping
ĠB ett
st on
ĠM om
Ġ19 13
ub s
ĠTh anks
ĠBew egung
Ġbesonder e
ĠNik ol
ĠWed nesday
D en
c ore
Å ¾
Ġf ather
ĠN av
Ġaus geb
ze ption
Ġent h
hÃ¶r den
Ġmult i
Ġeff ort
c s
g te
Ġfin ished
ĠBrÃ¼ cke
Ġthous ands
ol ar
Ġl ok
and ers
Ġver g
Ġgew onnen
Ġhel fen
ĠSalz burg
Deb ug
ĠVirgin ia
re f
ĠT iere
ĠR og
ver ter
ĠIn halt
art ige
ĠTra ining
ĠMat th
Ġpie ces
fan ter
W arn
ĠO pt
UR I
Col or
fel der
V ol
d b
ĠP en
ĠP aar
ĠW unsch
ĠN a
Ġan erk
ĠGel Ã¤nde
Ġcent ury
But ton
Trace Component
z ub
Ġand ers
ĠE ach
ĠH aw
ag ra
Ġar gs
r ates
ĠB ass
Ã¤ ger
Ġh usband
ĠT hr
ĠP ow
gef Ã¤hr
Ġmean ing
ĠS emin
Ġm ill
et ts
Ġl isted
Ġcon cept
ĠCh ild
ĠAll gemein
Ġcour t
AS S
ĠFÃ¼hr ung
Z um
Ã¤ b
ĠT Ã¼b
Ġent deckt
gew Ã¶hn
ĠMon at
L ayout
ĠÂ ·
Ġdev ices
l Ã¤r
ĠJ ew
Ġr Ã¼ck
anz er
r as
ic ations
ĠC ir
Ġres pect
čĊ čĊĠĠĠĠĠĠĠ
Ġturn ed
J son
T A
W idth
as ks
ic ul
ĠG reg
rie den
200 6
Ġadv ice
deutsch en
Thre ad
< >();
Ġ q
ĠS dk
ost on
arb on
ĠgehÃ¶r ten
Ġbas is
Ð¸ Ñ
T S
Ġd agegen
ĠH ab
ak ed
are t
For m
Ġverw ende
ĠgrÃ¶ÃŁ ere
Ġextrem ely
gr iffen
ĠAr zt
ĠÃľ berg
ĠAut oren
I F
m es
il ian
Ġer fÃ¼ll
Ġk Ã¼nstler
Ġim ag
sh aus
Ġco ffe
ĠMan y
200 7
ĠVerb and
ĠIntern al
Ġbro ad
Ġbud get
Ġw he
ar p
Ġf ight
ĠA ff
ten ance
os ite
ust ain
Ġte ams
Ġze ich
Ġincre asing
Ġz Ã¤hlt
ĠIs lam
Ġded icated
F ra
Ã¼ m
ĠT isch
ĠL ord
ck len
ay a
ĠÃ¼ber wiegend
Ġ190 7
Ġopen ing
ĠHÃ¶ hen
f ind
Ġd ining
ĠR ost
ĠJ on
gel t
St adt
Ġges pielt
Ġcol ors
Ġfriend ly
ĊĠĠĠĠĠĠĠĠĠĠĠĠĠĠĠĠĠĠĠĠĠĠĠĠĠĠĠĠĠĠĠĠ ĠĠĠĠĠĠĠĠĠĠĠĠĠĠĠĠ
umm ary
N on
Ġd ritte
Ġp f
st ation
Ġh y
im ens
ĠH uman
ĠR E
ze p
Ġqu e
Ġob wohl
Ġerst es
Ġerw arb
Ġstar tete
Ġbott om
ĠMicro soft
I terator
Ġge gebenen
get Key
Ġdiffer ence
ĠNieder land
Call back
I R
Ġb oy
Ġf ans
ra pper
ĠN ick
Ġre ference
Ġex erc
Ġclass ic
gy pt
Ġocc ur
Ġsogen annte
ĠÃĸff entlich
t op
ã Ģ
ĠT imes
ein s
ĠZ ent
ĠEn s
ĠMe tern
ĠKon fl
ĠChr on
Ġthan ks
Ġschw arz
ĠHers teller
B B
ĠE ck
ru he
Ġswe et
? ?
C R
el er
ĠG ame
ĠW ater
ĠR od
Ġj em
ĠY oung
Ġher gestellt
ĠReg ister
ĠDar Ã¼ber
brÃ¼ cke
] );
Ġw inter
Ġw uchs
Ġc ash
Ġk Ã¤mp
Ġcom par
Ġsp irit
med aille
Ġgan zen
Ġs agen
ĠK andid
Ġwe g
ĠBe zug
ĠSp ann
ĠLand schafts
ĠFahr zeuge
ĠTod es
ĠJak ob
L iste
S he
w itz
ly wood
Ġbel ie
Ġbre it
Ġeinges tellt
issert ation
D em
ĠS ituation
ĠSch laf
pe ctive
bild ungs
Nach dem
Ġdist ance
Ġstra ight
ĠL iter
ĠRe view
ĠZeit en
isten z
ĠsÃ¼d lichen
Ġcap ital
at re
ĠVer halten
tell igen
ĠHo hen
ĠUnd er
ĠSdk ClientException
J an
Ġge halten
ĠEr inner
ĠOr dens
cl ude
Ã¼nd ung
Ġstud ies
ĠAnd roid
ĠMain z
T E
ĠS av
ĠA wards
ĠL ook
ann a
Ġdem and
ĠAuf grund
pro gramm
ĠFl Ã¼gel
ĠSchw ester
mann s
Ġtop ic
++ ;
ĠGerman y
FA ULT
ĠOx ford
m aterial
ĠV iele
Ġer kennen
ill y
ĠRe is
pr iate
ore a
ix el
ĠKon k
Ġhelp ing
ĠJe ff
F uture
em por
ĠW ett
ĠLe e
set s
Ġprogr amm
Hel per
Ġin f
ug in
Ġacc ur
ĠAfr ica
Ġm is
ĠP fe
Ġapp reci
Ġdeutsch sprach
Ġhin gegen
ĠEin trag
erk unft
Ġsur face
ommer ce
Ġeff icient
ĠBu ild
Ġestabl ished
t i
ĠP lÃ¤
ĠE ven
Ġg ingen
ue ber
In putStream
ĠFor um
Ġac adem
Ġgef Ã¤hr
G ER
u ern
ĠG laub
ier n
Ġpro ud
In valid
rÃ¤ ume
ĠPf lege
Ġverw enden
Ã¤hn ung
Ġitalien ischen
Ġamer ikanischen
britann ien
C A
in it
at oren
he ute
ĠH Ã¤user
Ġwir kte
ĠBe handlung
ĠMeister schaft
Ġredu ce
i ot
el or
ĠR icht
Ġth ank
Ġpower ful
ĠCas ino
ĠhÃ¶ch ste
ĠFrancis co
es is
ĠB a
ĠF ord
ĠF ood
ĠLand tag
Ġwel come
ĠLin ks
Ġdi agn
k ammer
Ġt Ã¼rk
or b
al te
ĠH orn
ot ional
app er
Er baut
ĠBes atz
Ġdise ase
Ã¼ mer
de cken
ĠK en
ath on
icht lich
ĠVer Ã¤nder
lic e
sc ar
ĠComm itte
Ġpress ure
Ġregard ing
Ġimmed iately
ĠS ab
Ġl Ã¤ng
Ã¶r ter
ĠAb out
reg ister
Ġbe yond
Ġge mÃ¤ÃŁ
ĠArbeit er
Ġpass ion
Ġersch eint
Ġoper ation
Ġsynchron ized
i y
Ã ł
or ganisation
re al
ĠL as
Ġl Ã¤
Ġer gÃ¤n
gra ben
k lass
on ial
it ur
Ġg alt
Ġl es
be g
ĠGr Ã¤
Ġges etz
Ġ190 6
Ġview ed
Ġmet al
g Ã¼lt
Ġf ill
ĠK el
ĠC ra
Ġpr Ã¤
Ġacc ommod
Ġinc red
ĠFer dinand
D oc
s achsen
ĠS tellen
Ġ2 50
gr Ã¶ÃŁ
Ġent ity
Th ese
Par ent
ĠBundes liga
Ġhund red
Ã ¥
is a
Ġc ore
Ġer fahren
end a
Ġcon stant
Ġflo at
ĠGesund heit
H L
ĠP oint
ĠR y
Ġob j
ĠEx ec
Bo olean
Ġcoffe e
cklen burg
j ew
Ġw ants
ir ge
ĠAb schnitt
bÃ¼ cher
ĠL aut
ĠAb st
Ver Ã¶ffentlich
Ġchar ge
ĠTro tz
N or
Ġge tr
eiter te
Ã¤us ern
frastru ktur
B est
Ġc at
Ġc old
ĠL ine
ĠAn griff
ĠBe ck
gel d
N r
k ts
ĠM ov
ĠK urt
ip es
ord net
ĠAus druck
Ġsec ure
kon om
L a
Ġw ine
Ġro b
Pro ject
Ġbrit ische
Ġach ieve
ĠB ell
ĠF ield
ĠBe ge
Ġsh ared
ĠMon aten
ĠBild ungs
ĠLie fer
H ash
w ander
Ġ Ã¶ffentlich
am ed
ĠL ight
est ination
ind ustrie
ÃŃ n
Ġbeaut y
ĠSchrif ten
ĠDat ei
S G
Ã Ĺ
Ġn um
ĠK Ã¼n
ĠK urs
pe cts
Ġuse ful
stÃ¼ck e
ĠLauf e
ĠEben e
on ia
ĠL Ã¤nder
um ann
id den
ĠAn y
Ġme asure
Ġserv ed
Ġentsprechen den
ĠWirk ung
Ġchallen ge
Ġautom atic
ĠvÃ¶ll ig
V is
w riter
it o
Ġzu gleich
tr Ã¤t
ont o
Ġher r
let ter
Ġdr ink
Ġdevelop ing
ĠCol umb
Ġprofession als
ĠArchite kt
Ġleb ten
Ġeconom ic
ĠEntscheid ung
B es
in det
st uhl
Ġr ank
ĠVor der
Ġbek am
Ġeas ier
Ġfield s
ĠEhe frau
ĠSchm idt
Ġentw eder
v ar
an er
Ġf elt
os a
ĠAus land
Ġmax imal
igr ation
ĠK ron
iz z
Ġprodu ce
Ġprote ction
Ġallow ed
P ass
ĠG ames
ĠSch iffe
ap el
Ġgo als
Ġgen annten
Ġbet rug
bo gen
Par ameters
Ġur l
Wh ile
Ġprote cted
ar ily
Ġm ission
ĠG lobal
ste ht
ĠThe ologe
fl ow
ĠSchw eden
ĠChe f
K lasse
an en
ĠD B
ĠP M
Ã¶r ung
The ater
ĠErz bischof
ĠUl rich
Ġruss ischen
U ID
h orn
Ġf al
ĠD ub
ĠK ard
ĠIn ner
Ġj ourney
Ġmus ikal
Ġnear ly
ĠHistor iker
S A
m ess
Ġt ransp
ol o
ĠR ay
ĠEr de
famil ie
Ġd ish
ĠB M
Ġn ut
ĠC orn
ĠEr schein
Ġ6 00
Ġfind ing
ĠBern hard
Ġt ief
ĠM ission
ĠIn f
uss ion
Ġass ess
ĠDaten bank
West falen
ĠCarol ina
ĠMark eting
Ġtrans form
Ġphot ograph
ĠMor gen
bl Ã¤tter
ĠErfahr ungen
e vent
r un
Ġc op
iz ierte
Ġsp rach
ĠL ar
ap ers
app e
Ġbeen dete
ĠQu al
ĠMann schaften
wÃ¤r t
ĠSied lung
R oot
i Ã¨
Ġa head
ĠS up
ur l
st he
ĠP rag
Ġbe ob
if ik
Ġde termin
ov en
lat ed
Ġeven ing
ĠUr laub
Ġstrateg y
ĠSchaus piel
D ocument
ĠG olf
ĠR h
af el
ho ff
leg ant
Ġdr iving
Ġbestimm te
Ġcas ino
k ul
mer ksam
Ġres erv
ĠFlug zeug
Ġrespons ible
1 10
Ġh a
ohn er
Ġra ce
Se lect
ĠgrÃ¶ÃŁ eren
unsch weig
Ġinnov ative
hy th
Ġausgest attet
Q ue
s l
el and
ĠEl isabeth
part ner
ĠFil ms
ĠN ode
Ġr ules
Ġcon ference
Ġprodu z
akt or
Ġmov ed
Weit ere
O lymp
en kt
ĠT anz
Ġer heb
or row
ĠK ath
Ġk ommun
cre te
con fig
Ġkein er
D C
N O
Ġbe an
ĠTe ams
rach ten
Ġlink en
dien ste
Ġmittler weile
Aug ust
) {
M en
Ġge eignet
Ġum ben
Ġad vent
Ã¤hl ten
yl van
glieder t
c ause
m ail
Ġp al
ĠF alls
ĠW alk
ow l
ĠLand wirtschaft
ĠChr is
bo ten
cy cl
Ġident ify
lev ision
Ġdest ination
C ar
re hens
ĠH T
Ã¤n ner
ĠFor men
mit glieder
stra hl
ĠStr ateg
Ġret ail
Spe c
H o
R ed
l ife
ĠC ross
Ġzu erst
l Ã¶
Ġh il
Ġde termine
rie chen
int on
upp en
ĠTeil en
Al le
Ġerst re
Ġtechn ical
Ġinternational e
ĠIns gesamt
ĠKommun ikation
ĠFrÃ¼h jahr
ĠjÃ¤hr lich
V P
re y
Ġh ospital
ĠG le
ra ys
ĠK os
ĠV ar
ĠHe ad
Ġbek annten
liegen den
KE Y
Ġverantwort lich
Ġs itu
ph y
Ġprodu ced
Ġmon itor
Ã¤ll en
ĠProdukt ions
M atch
V ar
ĠS ince
ĠC ustom
Ver b
4 00
b aden
ĠH ospital
Ġl ab
Ġsh own
Ġkann st
Ġdam age
Ġheut ige
n t
Ġal ter
os is
ov a
Ġprodu ziert
Ġhelp ed
Ġtechn iques
K urz
Ġw ert
ĠW ag
Ġg ran
ce an
Ġle itete
Ġcan cer
auf trag
Ġsc ene
ĠAd ministr
co very
Ġspr ing
ĠBund est
meld ung
I OException
e ch
on ie
Ġf an
ĠB asketball
ĠP age
ĠL au
Ġ19 17
pf lege
B ild
k re
u ar
st ances
ĠT el
ĠArch Ã¤
Ġdien en
P ool
p ost
Ġ util
Ġat tempt
ick er
Ġexper ts
ĠRhein land
Ġd rop
Ġs icht
he m
Ġp ush
ĠW ohl
id ae
ver treten
Ġ3 9
Ġpr esented
Ġover all
Ġoper ations
Ġbenef it
Ġunterst Ã¼tzen
1 18
H aus
b aus
at te
ĠK lassen
Ġle er
ĠJahr zehn
zus tellen
beding ungen
ĠS ystems
ur ts
ad ies
Met adata
P ER
r Ã¶
ist ant
atur ing
Ġtr ust
ĠOrt schaft
ĠFer ien
Ġhig hl
Ġstre et
F inal
Ġc ategory
Ġ( ,
ĠR ath
Ġcom bin
ĠOr der
ĠFor st
Ġparticular ly
ĠTÃ¼b ingen
G ew
U s
re in
Ġg ather
Ġre chten
Ġre levant
Ã¤l de
Ġinter ior
ĠKon zept
Ġprof it
Ġverst Ã¤r
ĠPers Ã¶n
bie ter
ĠHaf en
ĠCommitte e
F L
un ehmen
ĠB lo
ĠK in
Ġ/ *
as ts
ĠC ost
ĠVer hÃ¤ltnis
Ġauth ent
ĠJur ist
1 15
E W
ĠK iel
ĠTh Ã¼r
ĠGra fen
ĠBundes republik
ĠProdu zent
ĠFunktion en
H ost
g ot
Ġf uck
ĠC lick
ak i
ĠVer anstaltungen
iz eit
Ġfr ame
Ġ190 9
Ġbring t
ĠÃ¤hn lich
M ult
ar in
fe ct
Ġweit gehend
Ġmein en
wert ung
Ġsong s
ĠGeist licher
ĠB ob
ĠP ed
im it
ĠN etwork
Ġch air
ĠAd am
ĠGener ation
Ð ¼
ro ad
ent in
ir ch
Ã¶ tz
Ġcom ments
Ġvor bei
ĠSh op
arz t
latt form
z ul
Ġa ward
Ġs up
ĠL td
ĠHand el
ĠFranz Ã¶s
Ġfac ilities
Ġgre ater
Ġm icro
ĠB ist
Ã¶ ne
ĠAn frage
gesch rieben
ĠBr ig
ĠÃĸffentlich keit
ĠS au
us es
st ab
Ã¼r en
ate ver
ĠDeutschland s
ĠNord osten
gem eine
b ibliothek
ĠPe ople
ĠPl us
hÃ¶ he
J ul
č ĊĠĠĠĠĠĠĠĠĠĠĠĠĠĠĠĠĠĠĠ
ĠN ote
af t
Ġqu al
Ġchar acters
Des criptor
Ġwest lichen
ĠBy te
ĠhÃ¶ch sten
ĠrÃ¶m isch
ĠgeprÃ¤ gt
W ind
Z w
ĠW appen
ber eitung
Ġvor gesehen
Ġze igte
Ġvis itor
ĊĠĠĠĠĠĠĠĠĠĠĠĠĠĠĠĠĠĠĠĠĠĠĠĠĠĠĠĠĠĠĠĠ ĠĠĠ
Ġstor es
Ġlov ely
H ome
âĢ ¢
ste uer
ĀĀ ĀĀ
j en
ĠS tell
Ġb uf
ag ers
S cript
u um
Ġfor der
ĠRe f
ĠÃ¼ber haupt
ite ktur
Out put
Out putStream
Ð ´
ĠB om
st ern
ab teilung
ad ing
Ġgu y
ĠKap it
gren ze
b ad
ĠM ah
if el
Ġse ven
Ġ190 5
ĠChin ese
k in
ar ische
ĠK ong
ĠV ari
Ġge zeigt
ĠIn gen
ĠVer antwort
Ġad min
Ã© n
ĠMount ain
Å «
Ar g
Ġverb ess
wahl en
Ġeinge fÃ¼hrt
ĠBÃ¼ ro
klÃ¤r ung
ĠAustr alien
ĠA ction
ĠF ein
ĠE v
ĠR oss
Al bum
Vari able
B ook
b al
il ien
ro chen
ol er
Ġcon vers
ri age
Ġ8 00
Ġsel ber
Ġweiter es
s ource
ĠO ther
Ġpre par
Ġsc en
ĠHaf t
T emplate
Ġp air
ĠN eb
Ġgu ests
Ġprof ile
grÃ¼ ndete
Ġh aven
ĠO tt
tr ast
ĠPr im
r ik
ĠB an
ĠVer d
Ġhe avy
du ard
ĠFamil y
Ġmoder nen
Ġpop ulation
ĠFlug hafen
Ġcover ed
Ġunterschied liche
k arten
à ¤
Ġs um
Ġs uffer
ĠP ac
Ġl it
ĠAuf stieg
leg ten
Ġcertain ly
Ġwes entlich
C ommand
Ġg olden
ĠMar s
!! !
Ġrelations hips
Ġphil osoph
G u
G roÃŁ
Ġs y
ĠL abor
um a
ick et
ĠTra in
Ġsol id
Ġteach ing
lÃ¤ss lich
Ġc it
Er st
Ġg one
ĠEr satz
ĠSp rachen
ĠPro z
ĠLe vel
stand en
ĠPol y
Ġart ists
ĠĊĊ ĠĊ
haf te
ĠFig ur
Ġbeein fl
ĠDV D
fur ter
t ml
Ġin kl
ĠT sch
aus stellung
Ġ4 3
ession al
son sten
por ation
ĠNetz werk
Ġwa iting
Ġeinger ichtet
ĠB ibliothek
ic ien
ĠN ap
ĠWor ks
ĠSonn tag
E E
P C
g reg
er em
ĠD ichter
ĠH ot
ĠBe ziehungen
ser ver
sk y
Ġmin ute
Ġplan ts
ĠComm ission
ĠTex te
plat te
Ġc entral
ol is
iert es
enn fahrer
Ġsh all
ĠGes ell
por ts
Ġthe me
ow e
Ġim press
Ġwh ose
sp ar
Ġle aders
ĠSp orts
je kten
be zogen
Ġneigh bor
ĠH ttp
Ġman ager
Ġ4 6
Ġvo ice
M ich
c al
ĠB oston
Ġp aid
ig ger
ĠT a
ed ition
Ġad vanced
onn a
pl Ã¤tze
Ġsur v
ĠStre cken
ĠfrÃ¼her en
ylvan ia
m essage
ar ray
st Ã¤tten
ĠL en
ĠL ear
Ġre asons
Ġent gegen
Ġgra de
Ġcommun ication
B el
a ctions
ĠS of
ol en
ei ht
ĠVer anstaltung
ĊĠĠĠĠĠĠĠĠĠĠĠĠĠĠĠĠ Ġ
bo olean
ĠTr ump
Ġrem ote
Ġhim self
Ġexec ute
Ġmem ory
Ġerweit ert
n um
Ġz Ã¤hlen
ĠR ail
Ã¤r ke
man agement
ĠSec urity
merk ungen
> ,
S H
c la
Ġs agt
ĠB ade
ot yp
ab ilities
c ount
ie den
ĠD rit
Ġfor ce
bahn hof
i Äĩ
p id
ĠM id
ĠD iv
Ġste ps
Ġlook ed
200 4
Ġstand ards
IT Y
Ġsay ing
ĠSommers piele
U I
ĠE lemente
ĠJ Ã¼rgen
ungs ver
Ã¶ff nung
Ġpe ace
ĠSc iences
bew egung
fass te
Ġupd ated
M ember
c en
Ġb ag
ĠA ktion
ir ing
Ġon to
ĠEin ige
Ġpop ul
Ġwei b
wor ks
ĠnÃ¶rd lichen
ĠErfahr ung
Chr ist
al b
Ġe at
ĠI ran
ĠZ ahn
Ġclean ing
ĠElekt ro
f abrik
ar ia
ul f
ĠIn strument
rom e
ph a
Ġexper iences
bre ak
U B
er te
at ik
ĠA ccess
ĠA rab
st ock
am i
ĠW a
Ġl Ã¶
Ġaus ger
Ã¶s ungen
Ġexc iting
Ġinvest ig
Ġincre ased
1 16
w Ã¼r
Ġ ut
Ġt it
ĠB ull
ĠW ho
ĠC anad
Ġbe legt
ahr t
lin der
Ġw ebs
ĠD ra
Ġver schw
ste iger
ĠPro perty
ĠAl pen
ĠVor aus
ĠRÃ¼ck en
Ġmax im
g Ã¤nge
z te
Ġ ðŁ
ĠF air
ĠW ord
ĠSch ritt
ster dam
ĠMich el
Ġhoch wert
Ġrestaur ant
B is
F in
it ors
st ar
ĠC ert
ir n
ach tet
Ġse cret
ĠBe teil
Ġrem ain
Ġeigen stÃ¤nd
Ġprote ct
Ġengl ischen
Ġkur ze
ĠKonz ert
N ord
Ñ ĭ
el ess
ĠW Ã¼rz
sch loss
Ġab geb
ĠAd els
ĠKon zer
Ġgeb ildet
ĠGroÃŁ britannien
Ġcompet ition
wh ile
ĠN ight
IN E
Ġvers ehen
heb ung
Exec ution
S QL
W el
Ġw ire
ĠB ord
ĠUn garn
ĠÃ¼ber geben
Ġcoun ter
time Exception
======== ========
1 13
m ethod
Ġb illion
ĠA M
Ġre ader
Ġst Ã¤r
ĠHer bert
Ġsc ale
ĠZw eit
Ġben ach
Ġentsprechen de
Ġep is
H ere
Ġin ternal
ĠF lag
Ġre ich
Ġber uf
Ġchallen ges
B ody
ĠH immel
ĠWe imar
Ġbes itzen
Ġbeg onnen
roll en
P ost
ĠR eb
Ġber Ã¼hm
Ġpat ient
ĠEm il
Welt meisterschaft
ĠWider stand
ĠBenutz er
1 12
f Ã¤lle
or age
ĠB ab
ĠL abel
if ft
Ġman age
pro cess
ĠPar ameter
Ġange legt
ĠSong s
Ġal one
ru pt
Ġ5 2
aj a
ĠDurch messer
Ġtre ffen
Inter face
ĠEnts te
N ov
c opy
or gan
Ġc ars
ĠE qu
ĠK rieges
ste dt
Ġi Phone
ĠKon gress
200 2
200 3
Ð¾Ð ²
ouver neur
Polit iker
P L
ĠLe op
Ġpar allel
Ġdr iver
ĠMed ical
ĠOper ation
fÃ¤h igkeit
' ,
G E
n icht
or dens
ĠP unkten
est ra
Ġr ent
ug u
ĠBe at
Ġ4 7
Ġear lier
Ġmen sch
Ġober en
ĠDeb Ã¼t
en ken
Ġt ruck
ĠM und
Ġg ren
Ġge kommen
Ġsm ooth
Ġstand en
ĠInternational en
ĠbeschÃ¤ft igt
Ġtats Ã¤chlich
ĠSeb ast
8 00
B i
G o
w arn
ĠL uf
kt ar
ĠEr b
reg ion
ĠKl ost
ĠHoch schullehrer
ĠKÃ¼ che
Pat tern
S eg
is Debug
ĠM ode
ol i
ic ial
ĠF ant
ĠK art
Ġk auf
ĠIn fanter
Ġ4 1
Ġcont ain
val u
L age
w all
ĠM ie
ĠH oll
Ġer stellt
ĠRe port
Ã¼n sch
ĠUnter nehmer
ĠNe uen
ĠLin ien
Ġadvant age
m ag
Å Ħ
ĠM ut
ĠF ootball
ĠK ommission
ĠN omin
ĠJ ersey
Ã¤n em
burg h
ĠBei de
oin ted
Besch reibung
: :
D u
k ur
or i
Ġw rote
Ġm ode
ĠD auer
Ġer b
sh ire
ĠFre unde
Ġschw ier
quire d
D ER
p an
il igen
ĠD ien
fÃ¼hr en
Ġir gend
Ġmot iv
ĠMaÃŁ nahmen
kathol ischer
ĠLeicht athlet
F O
Ġbe in
200 1
ĠGew icht
ĠJo achim
kra ine
n etz
le m
Ġf at
ĠD ialog
Ġto ken
ĠV ern
ĠIn halte
In ternal
ob ject
Ġappro priate
Ġorgan izations
P e
ĠA u
ĠD omin
ĠD etails
ĠW es
iv als
ap ed
ss on
Ã¤hr ung
Ġger ing
ex ec
ĠAustral ian
s ylvania
re form
ĠB aby
ĠRe public
Ġch annel
Ċĉ ĠĠĠ
Ġsc r
ĠGer icht
App lication
M ore
N ow
z ust
or ation
ann en
Ġfab ric
Ġd aughter
it ag
Ġs ucht
ĠT ax
ed om
Ġex change
Ġcomm and
T P
k rÃ¤fte
z iger
Ġa wesome
Ġt emplate
Ġl abel
ĠV el
Ġtra ffic
ĠGemein der
ĠfÃ¼hr ten
Ġeinz ig
ĠTer min
Ġbil dete
mitt lung
ĠWeihn achts
ĠR ab
ĠThe odor
ĠMet hoden
Ġcal cul
Direct ory
1 14
is or
le hr
os ing
ill en
Ġwe ist
ĠPro t
ĠOber st
piel en
Ġstr ug
At om
At tributes
Ad d
Ġexpl ore
ĠAst ron
D AP
f ilter
Ġm ut
ann ter
ick e
ĠMit arbeit
hand el
Ã¼s sen
ĠUntersuch ungen
Ġnov el
ĠLex ikon
isDebug Enabled
M B
k u
Ġe igent
ĠL Ã¶sung
af ft
aus schuss
ĠAb geordneten
Ġregister ed
ĠTw itter
Ġrequ ires
m ack
Ġm Ã¼nd
ĠC at
ĠU se
sp ace
Ġhe ight
ĠGest altung
> <
G en
b ungen
h aben
u an
ĠS ig
ĠS inn
Ġb ess
Ġf rag
ĠT wo
ĠI ts
Ġge plant
ho fen
iter ator
ĠBild hauer
ĠMax im
ĠTele fon
Gra ph
Ġumben annt
k ins
le hre
ĠSch on
ĠStra f
ĠSÃ¼d westen
Ġmein em
ĠnÃ¤ch ste
Ġkur zen
mÃ¶glichkeit en
c ons
ĠN ie
Ġan hand
we ge
Ġlie f
Ġkn ew
Ġben utzt
gra de
Ġaut o
ĠWilli ams
D ar
P AR
ĠK amer
Ġauf gelÃ¶st
ĠÃ¼ber tragen
ikan ischer
Ġinst r
hard t
lei hung
Ġclos ed
ĠQualif ikation
z ur
at om
st ad
ĠU t
Ġse ctor
Ġsch eint
ĠNord westen
Ġmed izin
fang s
ÃŃ a
Ġol der
ĠD adurch
ĠH ell
ĠL ibrary
Ġl ern
up date
Ġqu ant
Ġfe hl
setz ungen
Ġed ge
c u
k unst
Ġf allen
ĠP ast
ĠE duard
Id s
lig isten
It alien
Ġmov ies
Ġspr icht
Z E
Ġs org
il de
ĠL ED
ĠJ ones
Ġde lete
ific ations
ĠDaten schutz
ĠBra unschweig
ĠFeuer wehr
I gn
P lan
k ern
it em
ĠC H
Ġbe wer
Ġal though
Ġun er
Ġse ch
form ance
Ġsc ore
ĠTr ib
Ġcommun ities
ĠBre ite
ĠErw eiter
Ġgleichnam igen
Ġc red
Ġge plan
Ġst opp
Ġen h
ĠIm age
hÃ¶r de
ĠAfr ican
prÃ¼ ft
Stra ÃŁe
c ar
â Ĥ¬
Ġs at
Ġb la
ack en
20 19
Ġsh ot
ĠAuf ent
Ġnam ens
t um
ĠB ang
ĠM P
ĠK ub
ĠRe fer
Ġnot ice
Ġdis k
ĠJuli us
ordin ate
b ahnen
ĠE ber
Ġshe l
ĠStra ÃŁ
ĠMann schafts
ĠAngeb ote
Ġsepar ate
Ġf Ã¤llt
ĠF ro
Ġun be
urn ier
Ġsp read
row able
fl Ã¼gel
Ġwork ers
ĠBo olean
Ġverb reitet
ĠBar on
ĠSib Tr
c ard
Ġ19 15
ĠAn ne
Ġend gÃ¼lt
ĠNord rhein
Ġrad io
ĠR oh
ĠPro te
Th at
ĠBereich en
f lo
v ice
x x
st al
Ġh ers
ĠT ay
ĠK Ã¶
Ġdurch schnitt
tra gs
Ġexist iert
Ġtalk ing
B it
t yp
Ġm Ã¤nn
ent um
Ġle ider
Ġ4 9
bau er
Ġbek annte
alen der
new Line
ĠEd ward
Ġcor ner
ĠVerÃ¶ffentlich ung
Warn ings
F il
e f
st rom
ed ig
Ġer laubt
Ġj ournal
ĠRe v
ip end
Ġte en
cl es
Par ser
ĠSÃ¼d osten
ĠRei hen
ĠZahl en
ĠSicher heits
Ġsen ior
Ġcrit ical
ĠSchles wig
" ).
t able
t own
ĠK op
ĠC lin
ĠC ru
Ġsh aring
De f
Sch riften
Ġpar ameters
Ġdire ction
Ġopen ed
ĠTod ay
Ġlo an
Ġfact ors
ĠFil me
Ġvisit ors
ĠBayer ischen
ĠTenn is
id o
Ġres idents
Ġpr incip
ĠHe ft
Ġ190 2
Ġsur pr
M ot
k ow
ĠL ew
auf hin
upp er
Er folge
Ġpay ment
Ġdah in
Ġsoc iety
m inton
v ollen
ĠC hen
ĠSt rand
ĠSp itze
Ġstar ts
ĠMuse ums
ĠÃ¼br igen
3 00
z in
on i
Ġf ung
Ġin n
Ġm sg
ĠG ymnasium
ĠK assel
ĠAr men
ob el
Ġem pty
Ġsl ight
Ñ Į
ĠK anz
ĠSch uhe
amil ton
Ġinst ant
Ġcor porate
ĠCont ent
d el
v y
â Ħ
is ierten
Ġb ought
Ġf ish
ĠF ull
ĠJ agd
ies e
1 17
V e
is piele
aus gabe
teil s
ĠPre ise
Ċ ĊĠĠĠĠĠĠĠĠĠĠĠĠĠĠĠĠĠĠĠ
ĠP ok
iz enz
Ġspe ct
ĠTra um
Ġ190 4
lam ents
Supp ress
ĠW ay
ĠJ a
if act
() ).
ĠBe ziehung
Ġen dete
ĠHoch zeit
Ġexc ited
Ã¤m lich
Ġerm Ã¶
Ġaltern ative
d on
Ġf la
ĠD iffer
ĠT H
stra ct
ĠPre uÃŁ
or fen
an aly
ĠK amp
ĠK Ã¼nst
Ġer hoben
Ġr at
ĠWe ge
Ġrec ords
Ġel f
ĠTeil nahme
bere cht
B ad
Ġb ur
Ġb urn
ur ers
Ġh ast
ach te
Ġ/ >
ĠWeltk riegs
lÃ¤nd ische
ĠBarbar a
P R
Ġh Ã¤tten
con text
ĠGren zen
ĠPfarr er
Ġdat abase
ĠÃ¶ffent liche
ĠFÃ¶rder ung
Ġwebs ites
E hr
S ign
S ingle
Ġa p
ĠS QL
ĠR on
ĠL ot
ĠJ ed
ab elle
Ġfor ms
Ġver legt
rÃ¤ ft
ĠgroÃŁ es
Ġnah men
ĠRestaur ant
prÃ¤sent anten
Sett ings
in em
Ġw under
im ents
ĠF Ã¤llen
ĠH ug
omm iss
res ponse
Ġpres ident
Ġver kehr
Ġcon vert
ant ic
Ġbel g
Ch annel
Ġerh ielten
ĠParte ien
Ġfant astic
w urf
Ġp ull
ĠR ena
ĠSch lieÃŁ
ĠIn v
ĠVer letz
stell ungs
ur i
as p
ĠM isch
ist anz
Ġan c
ĠSp aÃŁ
Ġ190 1
ĠMittel alter
Ġref lect
Ġt on
Ġ1 10
ĠK FK
Ġear th
Field s
' :
Ġ ueber
Ġk ulture
sen s
Ã¤nd igen
Ġpar ams
gest altung
Be vÃ¶lker
ĠGroÃŁ e
ester day
schn itts
c ert
Â ´
Ġe ight
ĠB aus
ĠE ind
Ġauf gestellt
sp ann
ĠCh allen
Ġqu arter
Ġverw and
Ġcould n
C urrent
j ob
w el
un a
le bt
ĠA gr
Ġc overs
ĠE ur
je ction
ĠX ML
Ġgener ally
Ġclick ing
ifiz iert
Fe ature
C omm
n or
or ient
ĠS ens
ĠN ah
zeit ung
ĠSte ve
ĠQu elle
gra f
b ing
ĠK ent
ĠL okomot
Ġ19 16
ĠThe ologie
ĠSp itzen
Ġtr ug
Ġges pe
ĠzurÃ¼ck ge
ĠHand buch
Ġvis ual
Ġbig gest
ĠHel mut
Trans action
Ġfig ure
Ġcompon ent
D an
b on
k w
Ġb on
Ġg laub
ere ien
ĠFl Ã¼cht
Ġlearn ed
Ġmaint ain
B O
in zen
Ġt ritt
ĠV aters
ĠVer gangen
zen e
Ġlar ger
Ġeff orts
rehens ive
P latz
e an
Ġs rc
Ġh ook
Ġde te
Ġ18 90
Ġpo or
ĠDistr ikt
iw od
ĠHash Map
ĠP ath
ĠGra z
ĠKom bination
Ġindustr ial
ĠOh io
k rieg
ĠR ub
ĠC ur
Ġch amp
ĠWh y
Ġfre uen
wend ungen
ĠEng agement
Ġinc ome
ĠAlex and
ĠPier re
ĠSowjet union
A ct
F unktion
p ot
Ġv en
ĠW M
ĠN on
Ġfor eign
Ġr ub
we ight
ath an
alt y
Ġro of
Ġcons umer
Ġmov ement
ĠSchl uss
Ġeinzel ne
ĠHers tellung
ĠCam bridge
ĠFak ult
D ialog
Ġs ources
Ġn utz
ol s
ĠDie ter
ĠKomp osition
f alt
u ters
ĠN ahr
ct ures
Ġex pos
ex it
Ġcol our
ĠArm y
ĠPrinz ip
Ã¤nem ark
âĦ ¢
ĠermÃ¶ glichen
F S
P la
W erk
al bum
Ġb ound
ĠB os
ĠB oy
ĠP S
ĠP ots
ĠO R
ip fel
Ġman chmal
Ġad just
ĠCD U
E P
J ust
Ã ª
ĠĠĠĠĠĠĠĠ ĠĠĠ
ĠF ur
ans as
icher ungs
Ġnumer ous
f it
h s
in u
Ã¤ st
Ġge ist
ĠSch ne
Ġzum indest
log ger
Ġve get
ĠWies baden
D om
Ġa part
ĠK amera
ir us
ĠN un
est ic
Ġad ult
Ġpost s
gestell ten
Ġs ustain
or p
or ph
ĠP os
ĠG ang
lo aded
aut hor
let te
ĠÃľber setzung
lÃ¤r ung
! )
ĠP ul
ĠF ac
ĠK y
Ġl esen
ell i
ran che
Ġab gerufen
Ġ190 3
stru ction
ino is
Ġbr ight
value Of
ĠUntersuch ung
ĠFernse hen
ĠPries ter
ĠMatth ias
M ain
Ġd ance
Ġa partment
Ġf ear
Ġn Ã¤mlich
ĠH em
ein anders
ap es
Ġsh ip
ĠWe ek
aliforn ien
z em
il nehmer
Ã¶ pf
ĠV iet
Ġr ing
pt on
ĠThe orie
tel n
Ġber ufen
ĠCon ference
Te chn
ennt nisse
Ber g
Ġpract ices
ĠModer n
J uni
d d
h av
Ġf le
Ġf eder
ing ham
... )
Ġra nd
Ġeigen es
Ġadd ing
Ġfollow ed
Unter nehmen
has Next
afr ika
u i
Ġdie d
Ġver gangenen
Ġse a
Ġar en
let scher
Ã¼t ze
Ġdenn och
ĠObserv able
ĠDarm stadt
A v
W as
us sen
Ġc alls
ĠC over
ll en
Or ganisation
ĠRÃ¼ck kehr
akte ur
wirk ungen
Ġc ities
Ġge z
ĊĠĠĠĠĠĠĠĠ ĊĠĠĠĠĠĠĠ
Ġj ur
Ġdo ors
AG E
ungsp ro
P olitik
k riegs
Ã «
is lat
Ġs qu
ie fen
ĠA qu
Ġex pression
ĠOr ient
Ġsur vey
Ã¤tz lich
ĠJo e
Pol icy
] [
Ġf ein
ĠA ben
Ġv ision
ĠT rÃ¤ger
ĠR uf
Ġre icht
Ġpr in
hÃ¶r igen
Ġsupp orted
stÃ¤nd en
Group Name
Ġstell vertreten
Ġgelegen en
Ġinde pendent
Ġapprox imately
l ight
w ettbewerb
ic ians
ĠZeit raum
ĠÃ¤ uÃŁ
ĠJournal ist
L iter
ch or
ĠA S
ĠA achen
ĠB arb
ĠV ideos
gr iffe
ĠBe am
Ġby tes
St yle
ĠHo tels
Ser ie
H istor
ĠS her
Ġf ahren
Ġk l
Ġcon temporary
ĠSe cret
ĠMa jor
ER R
ĠFre izeit
Ġsee ing
Ġausge fÃ¼hrt
Ġann ot
asil ian
ĠIll ustr
Ġprep ared
Stat ement
o or
Ġs inn
Ġm ilitary
ĠSch ach
ial izer
Ġ5 4
ipp s
ĠMag n
Ġvol unte
ĠbenÃ¶t igt
ĠNeub au
Suppress Warnings
ĠM ol
ĠH arr
Ġle it
ĠÃ ł
ĠVor gÃ¤nger
isten ce
tens ion
ĠSchwer punkt
ĠBrasil ien
ĠP in
ĠL etz
ess ed
ĠO pp
Ġcom bination
kl us
Ġwind ows
ĠOrd nung
Constra ints
Ġf ailed
ĠA L
ĠK up
Ġl en
ĠEin richtung
Ġus w
reich er
ĠGe gner
Er ster
ask a
Ġinstall ation
Ġflow ers
P lease
ĠB ir
Ġn Ã¶t
ĠM Ã¶n
Ġl abor
Ġman aged
ĠPr esse
ĠAm sterdam
Ġpl astic
Ġmain tenance
ĠGovern ment
rup ted
B Ã¼rger
D ollar
d auer
Ġt ail
ĠH aar
Ġg allery
âĢľ ).
Ġra re
ĠWeltk rieges
ĠSam stag
Ġfoot ball
" ));
g red
ĠK ab
cl ar
erb ung
Pan el
icien cy
B undle
ĠR io
Ã¶ ÃŁen
ĠSer ien
ĠGu ide
ĠBek annt
P O
al tete
ĠN och
ĠV eg
ĠSp iegel
ĠAd el
ĠOb wohl
ĠEigen schaften
schei det
ĠH ockey
Ġcomp ared
ograph ische
ĠerklÃ¤r te
N um
U P
ĠK athol
sen z
rit iker
ĠMar ien
ĠBen ed
ĠPap ier
zÃ¼ glich
Ġop in
Ġsn ow
a ber
w uchs
ĠK eller
Ġk g
Ġber ichtet
ateg ories
Ġlaw s
ĠNic ol
ĠEngine ering
ĠKarls ruhe
T O
Ġo k
ĠM ike
ĠW Ã¤r
Ã¶ die
ap os
ĠSp ace
ĠBew eg
Ġbesonder en
ĠHar ry
Ġbuy ing
ĠNationalsozial ismus
P eter
k ultur
us ted
ĠR oth
ĠSt ory
ĠGesch ichten
Ġtop ics
ĠSchn itt
anc er
ĠFrei heit
ĠEar th
L ook
v as
v orsitzen
ĠL it
ot ic
Ġre ality
Ġsp rechen
ĠAl ters
ĠOr tes
En um
Ġcl oud
ĠEurop ameister
Ġkeep ing
Ġtro ub
ĠPfarr kirche
Ġneg ative
ĠKranken haus
Ġbal ance
ĠLeop old
re w
ĠG riechen
ĠL eder
Ġl auf
Ġev idence
iqu id
icher heit
Ġkon zentr
ĠZwe ck
ĠMex iko
adel ph
C ap
i able
k es
p her
Ġw eder
Ġn av
Ġ5 1
Ġloc ations
urren z
Ġinsp ired
A V
a ult
e ur
ch ild
ĠD J
Ġmit einander
ĠBer icht
iss ance
ĠBau werk
Ġhistor ische
Ġant i
Ġteach er
ĠrÃ¶m ischen
Ġbus y
e ff
s ichts
z ell
Ġv ierten
Ã¤ ÃŁ
ĠBe ob
Ġper man
Ġco ach
fÃ¼hr ten
Ġfac ility
Ġunterschied lich
Ġoffiziel l
b ell
Ġn Ã¤her
ĠR ollen
ist ischer
ĠN Y
Ġdes k
Ġle aving
Ġ18 70
ĠEin richtungen
Ġtr ial
ĠDan eben
Reg ion
Ġcap acity
ĠpersÃ¶n lichen
Ġnotwend ig
T od
il ing
ĠU fer
geb nis
ĠOr ch
int age
ĠBo ot
uz z
ĠVers uch
Ġfact ory
Ġbra in
ĠImm obil
p et
ch ip
ul ate
ĠU kraine
qu ery
ĠMa ur
Ġpl enty
ape ut
ĠJapan ese
ĠErw achsen
r ical
ĠS ud
Ġb ot
ĠH ay
ĠR ose
gen Ã¶ss
os h
imm ing
Ġra in
fort un
ĠInstit ution
Ġinit i
ĠDipl om
S ep
Ġs ample
ew ay
Ġgew Ã¤hr
Ġspe ak
wer den
verein s
fre und
ĠLu c
Ġnahe zu
ĠJack son
H aupt
Q U
Ġs Ã¤m
ĠS af
Ġh Ã¶ren
ĠL iber
Ġan schlieÃŁ
Ġauf gebaut
ap h
Ġ18 48
me er
ĠPr iv
Ġshow ing
deutsch e
Ġdist in
cel ona
ĠTab ellen
al em
ĠS tellung
ĠAn lagen
Ġsch affen
Ġvor aus
ĠGeb urts
Un able
Ġhelp ful
Ġdr am
ĠX X
ST R
Ġgemeins amen
ĠschÃ¶ ne
ĠVergangen heit
s ite
Ġs quare
ck et
Ġst one
Ġse at
Ġbet rieb
ĠAs ia
ĠFÃ¼r sten
Ġafford able
n ight
re gel
as i
ĠT en
ĠIn itiative
ex p
Ġcour ses
Ġmoder ne
go ing
ĠLauf bahn
Ġtick ets
Ġbirth day
Mat rix
lowak ei
o ted
Ġt schech
Ġt aste
or ia
Ġm ail
ĠL ag
den burg
ĠIn nov
Ġun its
ub il
Ġj ung
Ġsch reibt
Ġsh ipping
ĠBes itzer
Ġmax imum
D ay
n g
ĠS ender
de fault
ĠH Ã¼
ĠR oten
Ã¶ se
get reten
iz ieren
fen se
gesch windigkeit
ĠCoun try
Ġdet ailed
b ound
r asch
Ġc ache
ĠK am
ĠN ar
Ã© t
Ġstud io
Se henswÃ¼rdigkeiten
ĠEnt fern
ĠSÃ¶ hne
Ġt Ã¶
Ġf lag
ĠM auer
Ġan gesehen
Ã¼n fte
ĠMe cklenburg
ĠFrie den
ĠGew alt
haf ten
rÃ¤n k
U nd
t lich
Ã¼r f
ĠEr ich
ĠEr ste
Ġch ain
lie ger
19 99
Ġper haps
ĠAug sburg
ĠOff izier
ĠMag de
Ġpract ical
Ġzwe imal
Ġtemper ature
r aten
Ġp ow
ĠM eyer
ĠF unk
ĠSt ore
iz ien
ĠUn abhÃ¤ng
ĠEin sch
gel s
ink en
gesch lagen
ĠInd ien
ĠMon te
urf Ã¼r
ĠtÃ¤ glich
T C
Ġver ur
ĠAn forderungen
ĠBe aut
Ġbring s
ĠBro ad
Ġfocus ed
Ġeconom y
Ġpaint ing
Ġbatter y
b ury
y ball
z ern
ĠW ik
Ġbe coming
sel ben
ĠMin i
ĠOn ce
val ues
He ight
ĠProf il
denk male
**** ****
ĠRath aus
t arget
ĠT Ã¶ch
ĠL ittle
od ies
od urch
Ġle gend
B ag
b und
ar g
ĠS oph
ĠS aar
st atus
ĠL ock
Ġis land
iel le
ĠAr thur
ĠAus nahme
Ġ5 6
ĠFran ken
fÃ¼hr te
legen heit
ĠGed anken
produ ktion
Ġfav our
Ġwalk ing
ĠSon ne
ĠWo iwod
ĠAntw ort
ĠTÃ¼rk ei
ĠDah er
ol ogen
ĠSan kt
ĠWar en
Ġmen u
ĠSchn eider
ĠRund funk
ĠKÃ¼n ste
adelph ia
h ai
ĠA gent
ĠE ugen
ĠSch reib
Ġso unds
ĠPro jekte
Ġunter en
ĠCh ief
Ã¤nd ige
Ex p
Ġland s
Met a
ĠPrÃ¤sident en
ĠPublik um
Pf alz
ĠCanad ian
u ber
ch o
Ġp m
get Id
In nen
je kts
ĠmÃ¶glich st
Ġren ov
Ġcontra ct
Ġcombin ed
T ags
is at
ĠF arm
sch uhe
ĠSt imme
ĠNach richt
ĠJuni oren
ĠJohn son
Ġcontin ues
Film ografie
D own
ol z
im o
ĠF ab
ĠK anada
ĠO scar
we il
ip eline
rÃ¼ st
ĠAb itur
Ġag ree
sw ahl
Ġcolle ct
yd ney
Ġwatch ing
Ġaud ience
ĠRelig ion
Ġcompon ents
ĠBeding ungen
R ange
S ET
k Ã¤mp
o om
as tern
ir urg
ĠN iger
Ġzu geordnet
zie ht
ĠMark et
Ġzun ehm
ĠWahl kreis
ĠBach elor
plat ten
Ret urn
J ahre
in de
ĠB le
Ġc ivil
ad ow
Ġpla ced
ĠPar laments
grÃ¼nd er
ĠEntw urf
ĠFernseh serie
Ġhappen ed
ĠSupp ort
Ġsatis f
k Ã¶rper
Ġw odurch
an ie
Ġhe im
gr enzen
Ġpar ameter
rag on
ĠFahr er
Jahr en
h ar
r iss
Ġs ter
le vel
ĠL am
ein heit
Ġapp lied
Ġbeg innen
ĠWeit eren
ĠRost ock
Ġzunehm end
H S
us en
Ġc ream
ĠD inge
ĠH amilton
ĠJ im
Ġ18 96
Ġar m
... ]
ĠGr amm
Ġgener ation
Ġprocess es
Ġengl ischer
ĠNutz er
ĠÅ ł
Ġs ister
ĠK im
Ġver geben
ac ing
ĠNe ust
ĠGra d
Ġvers uchte
ĠInd ivid
Ġsol chen
ĠWir ken
Me ister
Ġest im
ĠPlan ung
1 19
H z
b ut
s ur
Ī Ĵ
ĠP red
Ġent steht
ĠFor ce
Ġmar ried
loy ment
k Ã¼nd
w ater
Ġ ice
ĠAn spruch
Ġar range
ĠLand schaft
Ġho her
ograph ic
ĠPf ar
AR T
Se quence
ĠBahn strecke
ĠAnton io
Ġaud io
ifest yle
ĠZusch auer
J ohn
M O
o ben
al i
ĠM ord
ut ch
ĠT ief
ĠH Ã¶ch
tr an
cont ent
ĠBevÃ¶lker ungs
ĠEing ang
Ġautomat isch
j u
ĠB R
tr ich
iz iner
Ġinter pret
kauf t
Ġtest ing
Ġpan el
ĠVen edig
Ġacadem ic
S PD
Ġs amm
Ġl ernen
ĠTh read
Ġend lich
bes itz
Ġenjoy ed
ĠJust iz
Ġunivers ity
ĠB row
ĠJ enn
ver anstaltung
so ap
Ġrem ains
Ġur kund
Ġprocess ing
ĠSchl Ã¼ssel
Ġprep are
Ġdoc uments
k Ã¼rz
re es
ĠW it
art igen
Ġex ter
ĠSp ielt
ĠKon rad
Ġpol y
Ġteach ers
VAL UE
h es
ĠS earch
ĠF ast
et ze
ĠK affe
ĠEr folge
ĠAuf lÃ¶sung
Ġra ised
Ġke pt
ĠPre uÃŁen
ĠMein ung
ĠAktiv itÃ¤ten
Ġabsolute ly
T ube
d oc
ĠS auer
ĠZ erst
ĠRe quest
ĠVer st
Ġ18 97
ĠTh ank
Ġunter sch
zeich nen
ĠMet rop
ĠMark e
Ã¶m isch
ĠZug ang
ĠFig uren
C la
M M
m ans
y t
Ġb ird
ĠB io
ĠF Ã¤h
um pf
ĠN umber
ad r
Ġun ge
Ġle ather
iz za
ring t
ffe kt
ĠInter essen
lÃ¤nd ischer
schlÃ¤ ge
Ident ifier
it at
art ig
In formation
ĠVor stand
ĠSte phan
ĠFahr rad
EM ail
ar ina
ik es
ĠDe ck
Ã¤r t
Ġoper ating
Ġrelig i
ĠChampions hip
J ohann
L C
f ir
an ische
ĠA C
Ã¼ nde
ĠW art
Ġg ain
Ġl ights
Ġzu k
Ġ18 50
ĠGesch ichts
Ġverb indet
ĠGegen wart
Ġspec ies
verkehr s
leb nis
ĠHeraus geber
Ġbehav ior
F ranz
Ġh off
Ġk id
Ġst ick
Ġad apt
Ġtr ifft
ĠBro ok
D DR
S eine
r us
È Ļ
ĠL oc
acht ung
irt y
leg entlich
Ġinst alled
ĠStud ie
ĠViel zahl
Ġfem ale
M em
o use
Ġd ou
Ã¶ z
Ġ18 95
ack er
amp s
Ġbet rach
Ġgu est
Ġass ert
Ġverschieden er
Ġsmall er
Ġsex y
ĠGar den
ĠgegrÃ¼ndet en
ĠStÃ¤d ten
Jahrhund ert
resp ond
ĠlÃ¤ uft
ĠWÃ¼rz burg
B as
P res
W rapper
ĠAn f
ĠFor mat
Ġfe aturing
ĠSouth ern
ĠS ymbol
ĠM ans
ĠI nde
et he
ĠC oll
Ġde partment
hl on
ĠKr ist
ĠBrÃ¼ der
histor iker
ĠbestÃ¤t igt
ziehungs weise
ar o
ĠC ro
ĠIn frastruktur
ug os
ĠAn h
Ġ8 5
ator ium
Ġklein ere
hol m
Ġstark e
Ġcover age
Hol stein
Ġreli able
W or
c z
â ĩ
urop a
ĠMan fred
Ġknow s
State Exception
Ġcent re
Cre ate
p o
Ġm aÃŁ
st aben
ĠM ak
ĠE le
ĠE ver
ĠL ow
Ġent schieden
ĠGeb rauch
Ġet abl
ĠNieder sachsen
Ġdom ain
Ġeb enda
c ious
d ro
m i
ĠS ak
ĠG it
Ġdes igner
Ġde fe
Ġcon figuration
tern oon
anz ig
w Ã¤l
Ġ icon
ch ern
Ġch anging
ĠAb t
ĠLe ute
Ġsu it
ĠB res
ĠW atch
Ã¶ gel
eben e
ĠDon au
ĠkÃ¶nn ten
h ops
ar ks
ut ors
ĠE g
Ġg ay
Ġbe comes
Ġ15 00
Ġsc ript
Ġgener ate
ĠBra un
Ġentwick eln
Ġpark ing
L in
ĠB atter
ĠM ir
ol and
we iler
Ġsch reiben
lic ken
Ã¤r ten
Ġ5 7
Ġco ast
En c
Ġbreak fast
Ġsozial en
Ġzie hen
Ġerinn ert
ĠPenn sylvania
g yp
p c
u ellen
Ä ĥ
es k
ĠD issertation
ann i
Ġde als
Ġserv ing
unter richt
Ġconne cted
Ġdiscuss ion
P o
ĠG all
Ġy outh
Ġver n
aus end
ens es
mar sch
Ġperform ed
Ġaufge fÃ¼hrt
L en
W irtschaft
ĠD ynam
AL L
Ġnor weg
ĠSec ond
re me
al o
ĠV I
Ġ18 98
Ġum geben
erv ation
The y
ĠDis ziplin
ĠRuss ian
ĠBook s
Ġzust Ã¤ndig
ĠVictor ia
j an
l iance
un Ã¤chst
le ts
Ġin nen
Ã¤ ure
ĠT ats
ĠG ab
ĠJ ord
ult y
ĠKn ow
Ġhapp ens
ĠHil fs
Ġcaus ed
ĠAutom obil
F ailed
o ire
Ġs elling
ĠE ich
em ann
ver tre
th aus
Ġzu g
Ġvor ge
ĠQu er
ĠRes ult
k urs
w as
Ġs orgen
Ġbe ziehungsweise
ĠSt ream
Ġst Ã¤dt
Ġr ide
ĠÃ¼ber nehmen
bo den
sw ers
geord nete
Ġenvironment al
Ġfa ith
ĠFakult Ã¤t
f aces
s upp
Ġa uÃŁen
ĠB itte
ĠM B
ĠF inn
ĠE conom
Ã¶r ungen
Ġmed ium
Ġverhinder n
a ver
Ð ¹
Ġs uff
Ġin gred
ĠB art
ic ies
ĠG ru
sh ot
Ġbek ommt
ĠDes cription
Ã¤ng nis
Ġland wirtschaft
ĠjÃ¼d ischen
Ġa ware
is tern
Ġm essages
ĠH ey
we ist
Ġ5 3
Ġbet roffen
Ġber Ã¼cksicht
Ġind ic
Ġange gebenen
ĠVerlag s
ĠEd el
Sc ope
Ġextens ive
ĠRou te
b uffer
z unehmen
ĠS oll
Ġf illed
ĠB Ã¤nde
ĠD og
ig s
ĠT y
um es
Ġat tribute
ĠFre ien
Ġwicht igen
Ġklass ischen
on ien
st Ã¤d
ĠO S
ag ent
Ġ18 99
uss y
ĠBer atung
hÃ¶r ige
Ġshe et
Ġnational en
ĠMehr heit
Ġjoin ed
Ġexpert ise
Ġerforder lich
Serv let
Î ±
Ġd inner
Ã¼ gt
Ġp oll
ĠV ors
end o
ĠBe hÃ¶rden
rit ing
Ġexper iment
Ġtechn ischen
ĠHol lywood
Ġstark en
ĠPlat ten
ĠSebast ian
F alls
X ML
c or
n itten
ĠS yr
de gang
iss es
Ġwel chem
ĠDes halb
ĠBar celona
ĠLei den
Ber eits
Ġengl isch
Ġhon est
Ġelekt ron
sta aten
Ġnomin iert
Ign ore
W E
Ġw idth
ĠT rieb
ĠC op
Ġer zeugt
Ġre place
th en
Ġsch rift
be am
Ġcomp rehensive
Ġtr uth
ĠFl Ã¤chen
IN T
Ġmin imum
Dies er
ĠOp ern
ĠverfÃ¼g bar
ĠGespr Ã¤ch
d rÃ¼ck
o ter
Ġw achsen
ĠK alk
ers te
Ġver Ã¤ndert
ĠIn formations
mit ted
Ġgr unds
rich ter
ret ch
On ly
Ġsex ual
Ġpo et
Ġerz Ã¤hlt
K ompon
ļ Ń
Ã¼ p
ĠB urn
st one
Ġk o
Ã¼r zt
ik ing
pr ene
ĠBe cause
inn es
ĠFrank furter
Element s
ĠPatr ick
B ere
m aschinen
Ġv s
for mer
ommen ded
Be im
Sp ace
Ġrun s
ĠPortug al
D el
Ġd ank
Ġa gency
ur ies
ber icht
Ġsh ower
Ġ6 3
beding t
emb ly
M essages
or ney
Ġb auen
ĠM oh
ĠD oug
ab end
ĠSt unde
Ġam b
oun ted
Ġdr ug
ĠMark en
Ġgest altet
ĠIns eln
Ġdefin ition
reu ung
Ġseek ing
ĠÃ¤lter en
ĠB ase
em it
ĠH erkunft
ĠRe de
iz ont
ĠVerb esser
Ġletz ter
ĠHaus es
ĠSchn ell
index Of
ĠSÃ¤nger in
ĠÃ¤ltes te
Que ue
ĠTay lor
C ert
g i
u v
if orm
ĠVer fassung
ĠUn sere
ip edia
Ġtra ding
Ġpart ies
ĠPh ase
uck s
Ġsom ew
setz te
ĠKont rolle
Ġmiss ing
Ġbenach bar
Ġrand om
M ilitÃ¤r
l Ã¤nge
he ben
ĠC EO
Ġl ay
teil ungen
reis en
ĠSal es
Ġsign ed
Ġmar riage
Ġengine ering
Ġgemeins ame
zÃ¤hl ung
ĠJos Ã©
J ava
P RE
S ome
Ġd oll
Ġle aves
auf nahme
igh ted
Ġbesch reibt
ĠBew ohner
athol ic
prÃ¼ fung
char At
ĠWoiwod schaft
D igital
re land
ĠT emplate
ĠL inz
Ġl ibrary
schaf fen
Ġent schied
Ġcomp are
sk a
Ġzie ht
ĠMex ico
S u
W ill
w ich
ĠS ul
ĠT ake
Ġdie t
ĠC A
sp recher
ĠThe ir
ĠUn fall
Ġen det
yn ast
ĠQu adrat
Ġange zeigt
umm ern
Pre fix
fÃ¶rder ung
S earch
r Ã©
s ein
Ġm ental
ĠB lan
Ġc ells
Ġbe ant
ist ing
Ġne ck
Ġsp ann
Ã¼ck en
ĠGe fahr
ons erv
stra ÃŁen
Ab sol
ĠFil mp
Ġtre es
umin ium
t x
ent ially
ĠT ob
ĠH um
ĠSt ill
ess in
Ġver urs
ste igen
ug ies
ĠVer fassungs
lic it
Ġunter halb
app y
ool s
ĠGra ph
Ġart icles
zuf Ã¼hren
aill en
E very
re ck
ĠA sh
ic er
ier end
av or
her zog
19 98
Ġsp lit
Ġget ragen
Ġob vious
ĠStud ies
Ġdel icious
ĠChe mie
Ġcr is
Ġcommit ted
Ġkathol ischen
le ucht
ĠB our
ĠM i
ĠM ang
ĠR he
ers dorf
St ar
Ġe legant
Ġ18 60
Ġwor ry
Re chts
ĠNor mal
ĠÃ¶sterreich ische
usÃ¤tz lich
Ġexcl usive
ĠBestand teil
Ġlux ury
A pi
} ,
Ġt empor
Ġp urs
ĠC apt
ĠJ ena
rÃ¼ cke
ĠFl ucht
Ġbest ritt
ĠHel m
ĠzusÃ¤tz liche
Ġprevious ly
Ġrepla cement
B ra
e per
Ġ Ã¶stlichen
Ġc up
ent lichen
Ġst yles
Ġr u
ĠEx press
Ġ: )
Ġtechn ologies
ĠKommun al
ĠEngl isch
sb ruck
ĠjÃ¼n ger
Ġp ul
Ġab ger
ĠWe gen
Ġsett ings
ĠMathemat ik
I ST
p aar
Ġd ates
st arts
Ġl ose
ĠSie ben
Ġgen ug
ĠGer Ã¤te
ĠMet al
Ġvis iting
rÃ¤n kt
c omm
ic ian
im ir
ĠH ong
Ġver f
ĠIn stall
Ġwh atever
be an
ail ability
inz ip
Ġcontin ued
ĠGeorg ia
Ġagre ement
âĩ Ķ
: âĩĶ
i rol
Ġs izes
an th
as ien
st il
Ġfor mal
ĠVer dienst
Ġhe ader
ard o
olog ischer
ĠAv ailable
mot or
Ġproper ly
|| (
ĠInfanter ie
ĠTÃ¶ch ter
S a
U ri
X ml
f ranzÃ¶s
h ou
te ms
ĠM ember
ĠW hether
ĠH eb
ĠL ein
Ġl i
Ġer lang
ĠLe hre
ĠMe chan
Ġda ÃŁ
Ġval u
Not Found
check ed
Ges ellschaft
D aten
p le
Ġm ine
ĠF Ã¼nf
Ġg Ã¼lt
ĠO der
kt op
ap est
gr Ã¶ÃŁe
Ġ18 80
In itial
ĠAm b
Sch ema
ĠHand ball
AC K
ĠErk rank
Ġanim als
Ġaf ternoon
B E
M apping
S ince
o es
v ater
Ġf ixed
ĠM io
ib e
ĠAr r
per atur
ph ase
Ġsu itable
Key s
ĠDem oc
Ġinc or
Ph il
Ġlaunch ed
Ġgriech ischen
miss ions
ĠColumb ia
Y our
b rand
Ġc ultural
ĠP y
ĠF ore
ĠL ipp
Ġre pe
ly n
ud ing
her ren
ĠEin heiten
Ġte levision
ĠOr chester
Ġinter face
Ġseit dem
Ġbas iert
esent lichen
best and
. /
B en
Ġt mp
Ġf Ã¶rder
us hed
ĠB am
ĠR ap
Ġl ayer
ĠN OT
ht ml
ger Ã¤t
lie f
Ġgr id
Te am
ĠTer r
Ġpriv aten
Ġbedeut end
Acc ount
ĠflieÃŁ t
S uch
m auer
z um
Ñ ı
al and
Ġo st
Ã¤ udes
ĠL ady
Ġbe grenz
ach s
ger Ã¤te
Ġsch ott
ĠCh am
Ġbes aÃŁ
Ġ7 2
Ġlie be
Ġges ellschaft
Ġvol ume
ĠpersÃ¶n lich
yg on
ĠWag ner
o ul
Ġc row
ĠK a
ĠZ oll
ĠAl though
ĊĠĠĠĠĠĠĠĠĠĠĠĠĠĠĠĠ ĠĠĠĠ
ĠMod elle
iate ilnehmer
ĠEpis oden
( _
r uss
Ġb ayer
ich ern
ra uf
ĠH ave
me ter
ĠAus zeichnung
Ġpar am
Ġviel fÃ¤lt
AN D
Ġmanufact uring
ĠHug o
ĠViet nam
c os
ar row
te am
Ġn ennt
ĠW en
Ġk ick
qu er
Ġbis lang
par ent
ĠGes ang
ĠPhil adelphia
ĠMot iv
ĠBesch Ã¤ft
LO W
Ġdirect ory
V E
n i
Ġb lieben
ĠK redit
sch irm
ĠZ ivil
Ġtra ce
Dat ei
Ġwissenschaft liche
chip karte
L ang
Ġw inning
re ffen
al ition
Ġc ry
Ġdo ctor
ĠWelt meisterschaft
ĠWerk en
Ġmass ive
Ġestabl ish
R est
S pieler
k Ã¼ste
Ġ upper
re h
ms g
ĠGrund stÃ¼ck
besch reibung
ĠIngen ieur
C ommerce
O UR
ĠS ydney
olog isch
Ġ9 5
ĠAfr ika
' );
J Ã¤hr
h art
Ġ iron
ĠV it
ver lÃ¤ss
Ġaus gesch
ĠAuf nahmen
En gl
med izin
Ġexerc ise
B M
Ġthe oret
ĠM obil
ĠF ox
Ġj u
ĠSe a
Ġ0 8
ĠGesch windigkeit
Ġacc ident
ais er
ĠKl im
ĠKl ima
Ġocc asion
Log ger
col umn
ĠMil ch
ĠTab elle
Ġveh icles
Ġmention ed
i op
he dr
ĠA le
ack s
fol io
Ġsho es
AC E
hÃ¤lt nisse
ĠprÃ¤sent iert
Ġbehand elt
Ġfeder al
g han
p asst
Ġs orgt
ĠM obile
ĠK Ã¶r
em burg
ul ated
Ġwas te
land es
Ġcl imate
ĠMark us
Ġbra ucht
ĠGrÃ¼nd er
ĠGal ax
Ġwissenschaft lichen
h aven
Ġ 00
in tend
Ġp ray
ĠL ike
ĠAn trag
rom os
Ġunter scheiden
ied elt
fÃ¼ gen
Ġhier bei
reg isseur
ĠCont rol
Ġconc entr
ĠKÃ¼ sten
seit ig
ĠerhÃ¶ ht
r s
ĠD ich
ĠF A
ĠK un
Ġunter r
Ġqu iet
ĠGem Ã¤lde
ĠTra g
ĠStud ent
Ġmark ets
Ġfun ctions
ĠMad rid
Ã¤dag oge
far ben
National mannschaft
W il
Å Ł
ach us
we ich
ĠkÃ¶n ne
Ġother wise
ĠRo om
Ġallow ing
Ġbrand s
verband es
Ġchines ischen
ĠArn old
el en
ĠW urz
ĠC reek
iz ens
Ġwir kt
imm ungen
arbeit ete
bach er
Ġstatt finden
ĠTer m
Ġspecific ally
ĠGesund heits
ĠBul gar
K l
re tt
ro ph
et ime
ĠR umÃ¤n
ĠSch ott
Ġun gefÃ¤hr
Ġex amples
hn te
ov ed
Ġ0 9
Ġtra f
Ġelect ronic
ĠAcc ount
Mill is
< >(
K om
Î ¿
Ġd eine
ie ck
ĠN az
19 90
Ġbes etzt
fÃ¼hr ungen
Pro f
off set
Ġschw eren
ĠCl oud
ĠCo ast
ĠBÃ¼ hne
jahr es
Ġdan ger
Ġappear s
r in
Ġb rief
Ġm ale
ĠA ar
ĠP av
sp latz
out s
ĠHe ktar
Ġsign s
ĠBM W
. ).
H ein
P M
r amm
z ens
Ġs in
or fer
Ġb rown
ĠK ost
if iers
Ġsp ons
Ġzw eiter
yste men
Ġgu ess
ĠSc ot
ĠEntwick lungs
ĠDav is
Ġlat ein
gorith m
Ġverpflich tet
Ġdeutschsprach igen
A bst
K o
k la
ĠK ob
ĠH alt
Ġ" ,
Ã¤n k
Ġ5 9
Pro xy
ĠSte phen
ĠFre itag
ĠMitglieder n
omet ry
Ġbestehen den
ĠSing ap
ĠerhÃ¤lt lich
ĠhÃ¶her en
ĠExec utive
O pen
S m
d ach
t te
Ġm ess
ĠM essage
om er
Ġre ag
Ġas pects
Ġacc essor
Ġdec ide
Ġgreat est
unn y
He aders
ĠDat um
mod ell
Ġdog s
Ġt oll
or able
Ġv illage
ĠB ert
ĠD un
ol ge
ĠP el
sch uld
ĠN R
ver zeichnis
Ġj ump
ĠSe kunden
ĠOr den
ole c
)) );
grÃ¼nd ung
folgen den
ĠUms etzung
Ġerstre ckt
> )
K irchen
r ate
Ġf ro
ĠR ett
Ġre chte
ĠSch mer
qu enz
age l
Qu alif
sel ves
Ġpres ence
ĠSpr inger
riter ia
ĠTher apie
Ġcompet itive
fortun ately
M Ã¤rz
Ġw al
ing ly
Ġst unning
ĠZ y
Ġsch lecht
Ġ" /
ĠAl te
reat ive
akt oren
Ġfre und
Ġther apy
ï¼ Į
ĠVeg as
h Ã¼ter
k ar
s st
ĠG anz
ĠH ild
eb all
sp art
Ġunter wegs
Ġcomp la
Ġreg ional
Ġmost ly
Ġfamil iar
wor th
Ñģ ÑĤ
ĠGef angen
Ġassist ance
Ġrestaur ants
Ġdiscover ed
ĠunabhÃ¤ng ig
F ahr
g ard
l u
Ä «
ĠB ou
ĠK rÃ¤
ĠN u
ant on
ĠCh air
lat es
fin der
Ġrec ipe
ĠGew erbe
Ġimport ance
orge ous
ĠQue en
ĠAutob ahn
ĠMagde burg
E U
N OT
in sel
ie ht
Ġer gibt
utz ung
irt ual
Ġshow ed
ĠWohn zimmer
Ġsecond s
ĠNorth ern
ĠRu hr
Ġintrodu ced
;; ;;
K an
V I
re place
Ġm ist
ĠM u
ĠT ai
Ġein iger
ir ts
pro v
Ġexp ensive
trÃ¤ ger
ĠPort al
ĠHor st
Sep tember
f irst
k amp
p ommern
ing t
ĠM iddle
om it
ĠP u
ĠK il
um ps
Ġge e
In sel
lass ung
Ġthere fore
Ġerw artet
ĠCor poration
deck ung
: .
P al
ä º
an ze
an bul
ĠM Ã¼hl
ĠD ark
ĠK alifornien
ĠJ ungen
ĠZ ul
ĠBe fehl
ĠAut hor
jÃ¤hr iger
hers teller
Ġcandid ates
v ard
Ġa ctions
Ġm anner
Ġh arm
ic ans
ĠEr ic
ĠOr ten
ma jor
Ġown ed
ĠPla ce
Ġspeziel l
ĠBesonder s
J ose
K r
he il
te en
Ġbe zeichnete
ist rÃ¤ger
Ġme ant
Ġapp oint
tes ten
Ġlight ing
ĠAndre w
Ġnied r
ĠEns emble
Ġgetr ennt
D estination
d h
l ik
l itz
m ain
st amm
ĠL ed
ĠN ation
ĠSch ei
Ġ18 89
folg ung
Ġerw orben
Ġphot ography
Ġeinfach e
Ġprom ote
Ġleader ship
im en
ĠE M
men ge
ĠAl k
Ġ9 9
Ġbeg leitet
Ġag ent
Ġobject s
Ġitalien ische
Ġmittel alter
ĠItal ian
achus etts
A kt
i ors
Ġm ort
ot ions
ĠVer mÃ¶gen
for ce
pro perty
ĠFran Ã§
com mer
Me hr
stre cken
Ġricht ige
ĠIll inois
ĠContin ue
Ġbetrach tet
B ew
h at
m acher
or ter
ro ot
Ġein getragen
ĠE ff
Ġre aders
ast ik
Ġes c
Ġen able
war ded
Ġcla ims
Ġbisher igen
Ġstrateg ies
Ġhous es
Ġneighbor hood
p ra
Ġ Ã¶rt
Ġs it
an ch
ĠB arn
Ġaus reich
Ġen ded
ĠCh ance
ĠSchw ier
Ġfe e
fahr zeug
ins on
Ġgood s
ĠRes ource
RE S
Se e
Ġgef ert
ĠInn sbruck
D ire
J apan
c at
g age
z usch
Ġa u
ĠS K
ĠB alk
Ġp ump
ĠT s
ang le
Ġ18 92
Ġpr ivat
Ġ5 8
fe uer
Ġreturn ed
Ã¤ch er
Ġrem aining
Ġbr asilian
ĠKap ital
Ġjapan ischen
Ġprem ium
e v
h Ã¤ndler
k ommand
ĠB em
ĠM assen
ĠD id
ĠF our
ĠE P
ĠK Ã¤
ĠL ocal
ĠV og
Ġk inder
ert al
ĠAn trieb
ĠEin kauf
ob j
ĠUnter schied
Ġdar aus
Ġmin or
Ġeinz igen
yr ight
Ġkom bin
Ġpattern s
Olymp iateilnehmer
b ett
Ġa th
Ġt utor
ĠM aus
ĠE N
ĠÃ¼ber sch
ĠAus einanders
Ġad ults
stell te
Ġoff izielle
Ġange hÃ¶r
ĠMann heim
R uss
i Ã³n
p ie
Ġs au
Ġf ruit
ĠA ster
st ers
ĠM S
ol ph
ĠP seud
Ġg lob
ĠR uh
ĠBe f
Ġ6 2
Ġapp s
ĠAm ateur
// //
ĠOn ly
ĠBÃ¼ hnen
Ġgar ant
Ġcall ing
Ġed itor
ÑĢ Ð°
Ġmajor ity
Ġruss ischer
Pers Ã¶n
Ġbein hal
r ics
Ġp reis
Ġl iber
Ġan imal
op Ã¤d
ĠGer Ã¤t
Ġfre ie
Ġfre ien
ĠTer rit
Ġthough ts
ĠStad ion
Ġverste hen
Ġconven ient
ĠPac ific
R S
Ġ ..
Ġd b
Ġd okument
le ute
ĠK urfÃ¼r
ct ural
Ġis ol
ĠRe form
Ã¶ff net
ĠYou Tube
ĠRegion en
Time out
ĠAir port
Ġregistr ation
A pril
W ert
c ohol
ĠV ie
pp ers
ĠĊ Ġ
fahr ten
ĠFe hl
Ġworld wide
rech ung
wirk ung
Bag Constraints
ĠE UR
ĠN C
ĠN ad
ĠV ort
uch er
qu elle
app ed
Ġdis app
Ġbesch Ã¤d
sw ald
Ġresp ond
Ġtot ally
m aschine
or ded
an on
Ġn ennen
ĠP anzer
ĠH aup
get Instance
Ġbeen det
Ar beit
ĠFre ude
bau te
ĠVerb reitung
forder ung
ĠFel ix
ĠQual itÃ¤ts
Ġsicht bar
Ġt rop
un ks
am ework
ĠK la
ĠN avy
Ġden k
gr Ã¤
19 96
Str u
ett ing
Ġfl ight
ĠDon ald
mus iker
ĠEpis ode
ĠAnaly se
ĠKard inal
S uper
ĠA dr
ĠC os
Ġr uh
ĠRe isen
ust on
Ġtr end
ĠBes ter
Ġlog o
Ġhistor ical
ĠTor onto
Ġerr ichtete
ĠSen ior
Ġsil ver
Ġaccomp l
Ġhundred s
Zw ischen
K n
M ENT
ĠD ampf
ĠK itchen
Ġan gen
Ġj son
ĠAn gabe
Ġ18 93
Ġ18 91
ĠSp ur
Ġup coming
spieler in
RE E
Ġklein es
ĠBew e
ĠWahl en
ĠAlt ar
ĠJer us
ugos law
f els
Ġc ute
Ġan swers
Ġab gesch
cl ub
igh ter
ĠGew erk
Ġperfe kt
ĠFranz isk
Ġoption al
ĠDire kt
kap elle
ĠDipl omat
F B
K inder
T L
Ġa st
Ġf unds
ĠB Ã¼r
ĠM Ã¼hle
de lete
Ġein schlieÃŁlich
ĠH ess
ĠJ etzt
Ġst ars
Ġ18 94
Ġ6 6
aw n
ĠMÃ¼n chner
ĠPl Ã¤tze
ĠKlost ers
H i
M ai
T est
Ġb ike
ĠA z
ĠB rad
ĠD I
and e
Ġre put
Ġi P
ger y
Ġcont ainer
ĠDies el
Ġteil s
pre c
ĠMill iar
ĠLÃ¼ beck
ĠjÃ¼n g
b indung
g reif
k as
it as
ur st
Ġein s
ĠL Ã¤nd
Ġk os
Ġst yl
id get
ĠSch aden
ien ne
ell es
ling t
ĠKÃ¶nig in
Cont rol
ĠElekt ron
Ġsurround ing
Frank reich
Seg ment
Ġt ab
ĠM atch
ĠD Ã¤nemark
ĠP ir
ĠP ian
op her
ap i
Ã¤hl er
Ġtrans action
ĠStr als
ocol ate
ĠD C
ĠO m
ver l
In ternational
pro p
ĠCon gress
Ġask ing
EC T
zep te
S ein
z ellen
ĠE arl
our cen
Ġaus ges
ak u
Ġsch ied
ĠPr ivate
Ġ6 8
ĠEl iz
AN CE
Ġsearch ing
Ġkomp lex
Ġeduc ational
Ġsug ar
Ġruss ische
Ċĉĉĉĉĉĉ ĉ
ĠFle isch
ĠWach st
k at
Ġs ink
ol ini
Ġto ugh
ĠN ag
ÃŁ ig
ay ern
get Property
Ã¤t t
Ġum ge
olle yball
stell ig
An merkungen
ĠBundes wehr
ĠNational mannschaft
ĠBre mer
Ġlo op
On line
riter ien
wor fen
ĠGraf ik
ĠRegen sburg
Ġremov ed
lehn t
T our
z ert
ĠS E
ĠF F
ĠL or
ĠV ill
Ġre ached
Ã¼n sche
Ġpla ys
bau en
con stants
ĠAt om
Ġexist ieren
mod el
ĠFÃ¼hr er
AB LE
ĠMik ro
NotFound Exception
m lich
w idth
at ische
Ġf uel
ĠA x
Ġc os
ĠSt ift
ĠPr int
fin ed
arb y
wohn er
ĠProf essional
ĠgrÃ¶ÃŁ er
ĠIntern ets
forder t
Ġhard ware
Ġtrotz dem
Ġhous ing
Ġt ables
and o
Ġth us
ĠN ull
ag ram
Ġde ck
ĠSp recher
teil te
ĠKl ub
Ġem otional
OR T
Ġwicht iger
Ġâ ļŃ
ĠModer ne
ĠPrÃ¼ f
ĠColor ado
Ġsym pt
Ġe ating
Ġ( ;
Ġl ayout
ir l
Ġy esterday
ĠZ Ã¼ge
Ġver trat
we et
Ġ18 85
Ġsp Ã¤ten
ĠBer nd
igh ten
Ġ7 00
15 0
Ġcre ation
Ġbesch lossen
opp el
ĠIllegal StateException
Ġmat hemat
ĠMÃ¶ bel
dire ktor
Ġw Ã¤hlen
re ht
ĠR al
ul ations
Ġver tra
for scher
ĠUn ser
Ġman ual
old ing
ĠGesch le
ĠBes etzung
fra gt
ĠSm all
ĠPor trÃ¤t
Ġemer gency
ĠVarian te
M ag
O B
h ome
Ġf ot
ĠB at
st ufe
ĠSch ild
ĠMar burg
br onn
Er gebnisse
ĠBr ust
Al t
Ã¼t ten
ĠVerein igung
ĠursprÃ¼n glichen
ĠÃ¤ltes ten
Ġdepend ing
Ġpromov iert
l ate
ĠA dresse
Ġc utting
Ġl unch
Ġan zu
iel len
Ġver anst
Ġany where
Ġges und
Ġgleich e
Ġnor m
Ġgar age
Ġcla zz
ĠHalb finale
Ġupd ates
S ymbol
ĠD ick
ĠN at
ĠWe il
ĠMar i
Ġrec ommended
ĠFr iend
Ġpriv acy
Ġtal ent
D i
I X
s ession
or ganis
Ġc urr
Ã¶ der
ot ton
au ert
Ġvor gestellt
ĠAus stattung
ph as
ĠFr ucht
ĠKr iminal
Ġposs ibly
Ġverkauf te
ĠDenkmal schutz
Ġpoln ischen
cep ted
Ġcabin et
S L
T im
z lich
Ġs itting
st yle
ĠT ode
ĠG il
ĠH amm
ĠJ son
Ġan genommen
sen de
Einz el
ict ions
ĠFre ist
ĠGrund lagen
ĠComm on
ĠschÃ¶ nen
ĠRun timeException
ĠZus atz
G rÃ¼
p es
en ters
Ġc ounty
ĠK Ã¤mp
sch le
ver teid
eb urg
Ġcon crete
Ġnot es
ĠAus gang
ief el
unkt ions
Ġemp fehl
bin sel
Ġcelebr ate
Ġdescrib ed
rÃ¼st ung
F rie
Ġm outh
ĠB och
ĠB latt
Ġan lÃ¤sslich
ak ademie
ĠAn wesen
sp rÃ¤sident
Ġ18 88
old s
Ġins ert
igkeit s
ĠMus ter
ĠVers and
ĠMich igan
Hand lung
Not Null
Ġdeliver ed
Ġorganis iert
Eng ine
Ġjem and
ĠPots dam
starts With
- /
m ach
t ten
v ens
im ation
Ġre form
ass ung
ĠAs ien
Ġcho ices
ĠInstit uts
ĠmÃ¶glich erweise
Ġident ity
ĠMom ent
k ov
x ml
ch a
he ber
Ġf oll
Ġ18 71
Res ol
ĠWil son
ĠAss oci
Ã¤nder te
Ġsl ot
weis ung
Ġfeature d
Ġhinz uge
Ġparticip ants
ĠHig hl
Ġinfluen ce
u is
Ã¼ h
ol id
Ġto ward
Ġbe er
Ġl if
la ut
esch oss
ĠThe atre
los ure
ock en
gesch oss
ĠOb last
Be fore
ĠFrie dens
Ġpass word
Ã³ w
Ġadv ance
ĠEner gy
bÃ¼rger meister
Ġinj ury
ĠGir l
ĠKomment ar
bour ne
Eis hockeyspieler
innes ota
V ert
ak et
Ġmy ster
haus e
Ob j
ĠBundes staat
ieb el
Ġdefin ed
Nov ember
6 00
Ġt asks
Ġn ative
ĠT ree
ĠH av
ĠSt urm
Ġme x
ast rop
19 97
Ġsp aces
20 20
Ġ6 7
ĠUnivers itÃ¤ten
", "
Ġgu itar
ĠEurop as
leit en
Ġeff iciency
stant in
Ġexec utive
ĠSyn ag
Ġinspir ation
ĠKrank heit
B re
C lick
c ur
{ }
ĠR ess
uf er
erk lÃ¤rung
fen ster
Ġges te
ĠForm el
ĠGrÃ¼nd ungs
Inter ior
ĠCharl otte
c us
ĠP as
ag on
Ġsch aff
ip her
geb lich
Ġad j
Ġro ute
ĠQu art
let ion
Ġdec isions
ĠRes erv
trag ung
Loc ale
ĠMaterial ien
ĠKateg orien
ĠĠĠĠĠĠĠĠĠĠĠĠĠĠĠĠĠĠĠĠĠĠĠĠĠĠĠĠĠĠĠĠ ĠĠĠĠĠĠĠĠĠĠĠĠĠĠĠĠĠĠĠĠĠĠĠĠĠĠĠĠĠĠĠĠ
Ġumfass te
ĠPfer de
telligen ce
strahl ung
E ach
a ktionen
Ġa w
ĠS ummer
ĠD ein
ĠD uring
ber atung
ĠO ster
ĠAll tag
Ġgest alten
Ġfact or
__ __
ĠEing abe
Ġmittler en
Tod ay
ĠHÃ¶ch st
gyp ten
b n
Ġt om
an isch
ĠT R
ĠF a
ĠF act
Ġein deut
ĠC ob
ĠSch all
Ġvor wiegend
Ġour selves
bar er
ĠUm gang
Ġdec ades
ĠÐ ¿
ĠDort mund
Ġoffen en
ĠHei z
ĠImmobil ien
K ar
R ock
S l
Ġf uhr
ĠG allery
ĠE mer
Ġver ab
pt op
aus bildung
Ġex tre
Ġsch uf
Ġnach halt
Ġspe zial
ĠHand werk
ĠPol ice
Ġhin ten
Ġbr ill
Array List
ĠAre a
ĠAng st
Ehemal ige
D ur
K unst
Ġf arb
ut y
Ġk orre
ĠWe ber
igt es
ĠAnt i
ĠAkt ien
ĠpersÃ¶n liche
ĠCast le
Europ ameister
Ġadvert ising
Ignore Case
k ind
us se
ĠP ie
Ġz er
Ġg olf
Ã¶ ck
Ã¶ nen
Ġcon ver
ail and
ph ones
Ġro ut
ĠTr ier
Ġersch einen
Ġhouse hold
Ġdistrib ution
ĠThÃ¼r ingen
k Ã¼
or r
Ġf aster
ĠB il
st ift
ĠSt ab
Ġr ental
tr im
Ġse gment
iz ierten
Ġher um
ĠPh oto
ĠSh ort
Ġevery day
ĠBundes ver
ĠGed enk
Ġkind s
Ġocc up
ĠGeschÃ¤fts fÃ¼hrer
ĠĠĠĠĠĠ ĉĉĉĉ
Acc ording
k anz
n ischen
ĠB ah
ĠT unnel
Ġl ived
Ġauf treten
ogra pher
cy cle
Ġander es
Pr ess
ĠKo operation
Ġgelegen e
Ġfil ms
ĠBened ikt
' .
ĠM d
ol t
ĠI ron
ĠW ales
ĠL ern
ĠVer w
lie gt
hal ter
gesch Ã¤ft
ma ÃŁen
werk en
ĠSk la
Ġbring ing
Ġlead s
lad ung
cep ts
Arg uments
Ù Ħ
is burg
un es
un ting
Ġp utting
ĠT aschen
ber ry
ĠVer wand
tem peratur
Ġges ucht
Ġbo ys
ĠPer formance
Pr im
Ġsozial e
Ġappear ance
ĠGebie ts
Ġincred ible
M art
s berg
v iel
st atic
ĠM ind
Ġge legentlich
ik as
Ġwar um
sp lit
Ġcl im
Ġsupport ing
ĠBrÃ¼ cken
ĠGed ichte
Ġintegr ated
maÃŁ nahmen
F OR
S an
us her
Ġthe ory
Ġp assen
ĠH aupts
ĠL okal
ĠEr m
ohn t
ober t
Ġlo ans
ĠBed arf
Ġdefin iert
gestell te
Ġtick et
A gent
Ġb order
Ġm ur
ĠSch Ã¼l
ĠEr Ã¶ffnung
erk ennung
uck er
ĠRes ponse
Ġeigen er
isc ons
Ġverst orben
pekt ive
ĠEth n
F iles
Ġin tr
ĠI reland
ĠG itar
Ġst ack
pe kte
19 94
Ã¶r g
ĠNach wuchs
Res ources
ĠspÃ¤ter e
Ã¡ s
ĠCl ient
Ġpol icies
Ġur ban
ential s
Ġconcern s
ĠSemin ar
clar ation
Ġaccessor ies
A c
h Ã¤
Ġc arr
ĠK ul
ĠAn z
19 95
Ġent lassen
Re p
ĠBl ues
ĠMin ute
Ġmin i
Ġ> >
ĠMag azine
ĠMaler ei
ĠAlb recht
Ġzentr alen
b ein
Ġ20 22
ste chnik
sen der
19 92
rÃ¼ ckt
Ġra w
Ġtechn ische
Ġbef Ã¶rdert
Ġbeh aup
Gener al
EX T
H inter
N C
h ire
w Ã¼rd
in formation
on ic
or ough
Ġw alls
an es
ĠH rsg
Ġdes ire
id i
id ays
ste ig
ĠDie go
Ġ18 00
Ġte a
inter est
ĠBl umen
legen heiten
Ġbuild ings
book s
Ġdistr ict
KKKKKKKK KKKKKKKK
Ġt end
it ale
und et
ĠT rom
Ġer mittelt
ĠZ iele
our i
etz te
ĠAus bau
Ġar ts
Ġher unter
co in
Ġwould n
bes itzer
ĠMat rix
With ServiceResponse
ĠBern ard
Ġfund ing
ĠCook ies
ĠÃĦnder ungen
WithServiceResponse Async
B oot
n ieder
w ing
w ords
y o
al in
al om
ĠB ier
ĠM A
sch icht
la red
ĠGesch mack
Ġbo at
ĠMan chester
Ġwei ÃŁen
Ġperfect ly
des ign
Ġricht igen
ĠBot schafter
ĠCla ud
Jahrhund erts
ĠS ynchron
st op
ĠC P
ĠO N
ĠO d
eb ens
ien e
19 91
aw ay
ĠTra vel
Class Name
licher weise
ĠSal v
ĠSchriftsteller in
wh ich
ĠverstÃ¤r kt
Ġslight ly
J SON
N atur
R ender
as ant
ĠG T
Ġver teid
ah m
ub a
iam i
ĠerÃ¶ff nete
far be
Ġprovider s
Ġunbek annt
M ost
P aul
l iteratur
he w
Ġp ed
ĠT ony
im i
ĠK G
gen cies
av ax
Ġj ack
ĠEr richtung
Ġent re
par atur
ĠHe er
ans ion
An t
ider s
Ġsuccess fully
bu ilder
Ġcommit ment
Ġarr ived
hoch schule
Ġautomatic ally
us ing
ĠB enn
ĠH at
ĠH yp
ĠV i
ĠVer zeichnis
Ġne ut
hen den
etz ten
Ġwill ing
oh ne
ĠOn t
ĠLebens mittel
ĠWei b
ĠCor ps
OD O
ĠCre ate
Ġexpla in
ĠVerÃ¶ffentlich ungen
Ġcandid ate
ĠHit ler
ĠVerÃ¤nder ungen
w irtschafts
Â ³
Ġv eter
Ã¤ ck
Ġg ern
ern ame
ain less
be cken
ĠGe gend
Ġ7 6
ĠUS B
An halt
ĠPol icy
EN D
Ġwoll ten
g ow
in us
ĠS now
Ġf rem
Ġv ent
ĠB ag
st ore
Ġn u
ĠV ent
la p
ok ing
Ġat om
ĠMittel punkt
ĠBed Ã¼rf
verb indung
ĠpreuÃŁ ischen
ĠSchlag zeug
Famil ie
/ *
o ir
ĠA D
ĠB ald
Ġh yp
ĠP R
os ted
Ġqu ote
ĠNe ur
ĠAll en
ret ung
Ġben ch
ĠSpe icher
He ute
setz er
Ġbef ind
jahr en
Ġworks he
Ġrepr Ã¤sent
ĠKant ons
Ġclin ical
Ġenh ance
Ġgrunds Ã¤tzlich
leucht ung
G C
S ow
Ġ å
or ders
ĠL em
ĠVer eine
sp l
Ġor g
Ã¤r m
ges ell
Ġ0 1
ĠPr ior
Ġmehr erer
ĠUm fang
Ġlang sam
pos es
ĠRo hr
ĠSpan ish
Ġimplement ation
ĠKolle gen
mosph Ã¤re
ĠJerus alem
R ou
m ade
Ì Ī
Ġb ist
Ġin tended
ĠB oth
Ġst ir
all as
Ġch osen
Ġ18 81
St affel
ĠChr isten
ĠBet on
ĠFahr t
Ġans Ã¤ss
ĠBud apest
ĠFeder al
open hagen
Ġoffiziel len
H all
c all
Ġt ast
ĠB ow
Ã¤ g
ĠP ut
Ġge grÃ¼ndete
ĠSp itz
Ġsp ending
hal f
Ġ9 00
ĠBau er
Ġfl u
Ġdort igen
fre ie
iller ie
Ġenter tainment
ĠRu he
Ġallgemein en
Ġresol ve
Ġconvers ation
Ġzuk Ã¼nft
iscons in
F i
W S
Ġf ly
Ġm ac
âĢ ĭ
ĠG att
ĠW y
ĠZ ell
Ġme al
ĠBer at
ĠNieder lage
ĠBi ograph
ĠMail and
Ġbrow ser
> ()
g asse
l isten
Ġ ).
at ible
ĠB iele
ed ing
ĠW end
ĠL ad
ĠL ust
Ġ18 67
Ġsc ope
bo ot
eil en
ĠJu an
Ġkey s
aun a
IV E
Ġdep th
frastru cture
Jan uar
c our
ĠS end
Ġin fe
Ġc raft
Ġth ick
ĠJ ar
Ġge Ã¤ndert
Ġdes pite
ĠSch uld
ei he
geb irge
ĠAus fÃ¼hrung
pro jekt
ĠNe ck
ĠHam mer
ĠNieder Ã¶sterreich
mÃ¤ÃŁ ige
ĠGar de
ĠhÃ¶ here
ĠUp date
Ġverbess ern
ĠmÃ¼nd et
t ree
Ġm ent
ro d
ĠK h
Ġum gebaut
Ġra pid
Al so
Ġbel ong
Cal endar
. _
K Ã¶nig
e ing
Ġf o
Ġf ellow
ĠB Ã¶r
Ġp or
ĠD orn
Ġein geb
Ġ6 1
ĠUnter richt
Th rowable
ER S
ĠInternational e
gÃ¤n glich
Ġspan ischen
ĠAud i
Pos ted
ĠGebie te
ĠSzen e
r ische
ĠT onnen
ĠT ransp
ĠT HE
ĠK rie
Ġst Ã¤rk
Ġaus fÃ¼hr
Ġdis p
ĠZu cker
ĠGroÃŁ teil
ush ing
ĠWieder auf
B ig
E qu
b ringen
Ġs essions
ar isch
Ġm ob
Ġl aufen
iv a
Ġab ges
ive au
Ġreturn s
ingen ieur
str umente
ĠGrÃ¼ nen
Ġhal b
Ġspec ified
ube hÃ¶r
DE FAULT
Ġtre ten
Ġdunk el
ĠPak istan
ĠstÃ¤r ker
er ei
ĠD ating
ĠP A
od ox
uk i
ĠGu ard
Ġconf lic
ĠSchiff s
Land kreis
G H
M aler
Ä Ļ
Ċ Ċĉĉĉ
ĠS ort
ĠS ache
Ġp latz
ĠG ard
Ġk illed
ow itsch
Ġun tern
ind ungs
Ġad s
man uel
Ġra ise
kl ar
hel ms
Ġmonth ly
ĊĠĠĠĠĠĠĠĠĠĠĠĠĠĠĠĠĠĠĠĠĠĠĠĠĠĠĠĠĠĠĠĠ ĠĠĠĠĠĠĠ
Ġbro ther
fÃ¤h ig
ĠIst anbul
Ġwes halb
Ġzuf olge
ĠBuild ing
B uch
F est
Z eich
Ġa ges
it ro
te e
Ġc ake
Ġh ieÃŁ
Ġl in
and t
ab geordneter
lin ed
Ġ18 68
ĠAl p
ph il
los ed
ĠVor bild
ĠBr enn
ĠIde as
Film schauspieler
prÃ¤ senz
leb te
ĠHin weise
Ġdur fte
ĠKup fer
j ar
v ideo
us k
el ing
ed ul
ĠH ope
Ġl ifestyle
Ġre volution
Ġan f
od a
ib ilities
ok es
ĠDe finition
Ġtr aten
Ġsol ar
leit ungs
ĠDorf es
Ðµ Ð½
ĠDire ct
Ġmatch es
Ġzie mlich
Ġscient ific
Ġlands cape
ch i
Ġm agn
ĠM es
ĠT oten
and al
ad i
Ġr ender
Ġwe aring
ĠDe f
Ġres idential
Ġfe els
add All
Ġmin im
room s
Ġappro ved
ĠSam uel
Ġpresent ation
Ġkur zer
Ġverst arb
Ġdescrib e
ĠmÃ¶ glichen
ĠEigent Ã¼mer
ĠBundest ag
Ġepis ode
k B
w Ã¤hnung
ĠB alt
il ot
ĠM ade
ĠF red
ĠH unde
Ġex ternal
Ġwir ken
âĢľ -
ĠSp irit
19 93
St iftung
auf nahmen
ĠEn vironment
ĠBr ian
ĠProf ess
ĠPl ant
fÃ¤ll en
contains Key
ĠGir ls
Ġcloth es
ĠD ollar
Ġh all
ĠH Ã¼gel
Ġan g
Ġver fasste
qu em
Ġ8 8
ĠWelt meisterschaften
Ġpl ate
Ã¼t ter
ĠGott fried
Ã¤u den
ĠAstron om
/ >
an teil
Ġin vent
ĠP ool
ĠF la
ĠG ouverneur
ĠK oll
ĠK abin
ĠV Ã¶lker
ier mark
Ġk ing
ag a
lic ations
ĠPro cess
Ġapp ar
Ġfe es
wer ten
Ġmus ical
Ã¡ r
Ġschw ere
ĠMc C
IM E
Schwei z
Ġe hren
ĠG Ã¼
ĠH Ã¤
Ġ0 4
hÃ¶r igkeit
Ġsur gery
ĠCl ark
Ġspiel ten
Ġtyp ically
Ġmanufact urer
ĠMult i
v arian
æ ľ
ĠM inder
ic z
ĠO ze
ĠSch nee
ĠFor est
ĠKunst stoff
Ġbef est
Ġiss ued
Ġequ ipped
anc en
bereich e
Ġpurch ased
omet imes
ĠPlÃ¤ ne
Ġingred ients
J vm
R Ã¶misch
S chn
p ap
Ġs ud
ĠF ans
ĠG a
ĠL orenz
ĠSch we
Ġne arby
Ġch arm
ph abet
Ġqu otes
ivers ary
Ġ[ ...]
ĠRes erve
Ġchar akter
Ġvorhand enen
Ġrecogn ized
ĠEntste hung
Ġgespe ichert
or ry
un checked
ĠP ic
ra f
Ġk Ã¼
Ġan geschlossen
est and
iz ona
Ġunter gebracht
Ġste igen
ĠHand lung
ĠTer ror
ilome tern
Ġengl ische
ĠGest alt
Ġofficial s
Ã¤dagog ik
ĠHir sch
Ġgren zt
zem ed
Ġvalu able
commer ce
C S
K irche
s ort
w eb
Ð ³
ch nen
Ġt arge
ĠE xt
ĠV alue
Ġan sch
Ġst Ã¤ndig
qu art
gr id
Ġat mosph
ĠAr k
Ġsie b
ĠEin en
Ġbeg ins
Ġho tels
ĠSk ulpt
Ġheraus gegeben
ĠFer r
ĠEis hockeyspieler
ĠAcc ording
ĠGleich zeitig
ĠAth en
n el
it age
Ġv ul
ĠK Ã¼hl
Ġge legt
ĠAn bieter
Ġam t
Ġ18 74
lan ge
ĠFor der
ĠFran ces
ĠGem ark
)) )
ĠFot ograf
Ġbestehen de
ĠGriechen land
Ġverur teilt
G A
č ĊĠĠĠĠĠĠĠĠ
Ġv ary
ĠE uch
ĠJ eder
Ġge zogen
Ġpro test
ĠÃ¼ber w
ho fer
Ã¼n schen
ond iss
mit tag
En tw
Sch ule
ĠUm bau
ĠAnd ers
ĠBuch staben
hÃ¤ng ig
Ġpropos ed
Ġdisk ut
ERR OR
M any
U se
Ġa id
Ġf asc
Ġp ink
Ġbe at
ĠV iz
Ġges prochen
Ġakt iven
Ġtrans ition
Not ification
ĠDi agn
Ġparticip ate
Ġvari able
ĠAust ausch
ĠZent imeter
ĠMilliar den
I O
s cription
Ã ĥ
ie ten
Ġv ote
ĠD iam
de cke
Ġz Ã¤hlte
Ġer geben
all eng
Ġr ise
Ġj oint
Ġne ur
Ġch airs
are tt
ĠLe o
Ã© l
Ġteil nehmen
ĠPolitiker in
ĠKÃ¼ ste
Ġgeboren e
fÃ¼ll t
ĠWissenschaft ler
ĠEnts p
ĠHon or
Ġinstru ctions
ĠRaj on
ĠÄ Į
ĠEliz abeth
v et
ĠK Z
ĠC R
isch Ã¶
Ġth reat
Ġpro min
Ġ18 79
inn ers
Or iginal
ĠGo ethe
Ġtest s
Mus iker
ĠSchwar zen
F R
c p
ĠT ank
ĠG h
ĠG n
ra ph
ĠR ie
od ge
Ġpre gn
co der
Ġbel ief
pf lanzen
urs or
Ġerreich ten
ĠAustr ia
ĠHerr n
iction ary
ĠCons ult
Ġvac ation
Ġcabin ets
ĠAltern ative
m essen
o ÃŁen
ĠF ellow
ra ucht
ĠK linik
ĠR Ã¶m
Ġst arten
ĠVer trieb
Ġbut ter
Un sere
Ġ< /
ĠJun ior
ĠBl u
Sie g
Ã¨ s
ĠAmts zeit
ĠDenn och
ĠTemp el
Ġadministr ation
ĠChild ren
ĠAben teuer
ĠgewÃ¤hr le
H ar
M T
Ġb aute
et enz
ĠW Ã¶rter
est amp
ĠNor wegen
AT A
ĠKap itel
ĠLie bes
sprÃ¼n glich
ĠPhys ik
ĠDrehbuch autor
Ġmeas ures
ynast ie
Ġd ipl
ĠD al
Ġg orgeous
Ġk Ã¼nd
lich em
ei ro
ĠIn g
ungs s
ia c
ĠAb d
oth ing
Ġgu ter
ĠNatur al
verein igung
ĠĠ Ċ
at eway
ĠB ush
em an
sch wer
ĠZ o
Ġver boten
men te
ĠVer g
ial s
rit ter
alt ar
cl uding
Ġ7 7
trÃ¤ gen
Sh ort
ĠMass achusetts
ĠAud io
Ter m
ĠErweiter ung
Ġopin ion
Ġurkund lich
B U
J ugend
en cy
il st
Ã¤ fte
ĠG uts
Ġg ifts
ĠZ usÃ¤tzlich
Ġ18 84
je cted
ĠTh ree
per iode
lan ze
fahr ts
port al
ĠWelt meister
ĠÃľber nahme
rol og
Ġvis ited
ros se
Ġimpro vement
Ġport ugies
scheid ung
ĠGi ov
vier tel
O ktober
Ġf ach
Ġn ine
ĠD ream
ĠP RO
ĠR ow
ĠL ok
Ġan fangs
sp ur
Ġverb rachte
ĠWerk statt
ĠĊĠĊ ĠĊĠĊ
Ġlic ense
dat um
Ġbeinhal tet
B ound
n ames
y ard
ar film
Ġb attle
ent hal
ĠH ung
ĠR auch
ber uf
gen ossen
Ġr iver
af en
art ikel
up le
Ġ3 000
ĠSp Ã¤t
mp el
Ġ7 4
ĠWelt cup
ĠOber flÃ¤che
ĠVerb rauch
ĠWei ÃŁen
equals IgnoreCase
ĠMinister prÃ¤sident
onom ie
K W
b ur
Ġt ight
Ġn annte
Ġ( ).
Ġk or
ĠO range
ver k
hn t
Ġ7 1
ĠSte el
vers orgung
ĠCon nect
Ġcl uster
ĠKl ang
Ġdisc ount
ĠTechn ologie
ĠSil ver
Ġcamp us
ĊĠĠĠĠĠĠĠĠĠĠĠĠĉ ĠĠĠ
fÃ¶rm ig
ĠSzen en
Auth or
Ġinstit ution
L P
S yn
r ischen
z ed
ĠP ur
ĠH op
ĠH als
ĠL yr
ĠV inc
Ġy ellow
Ġdies mal
ĠSe en
Ġbes uchen
Ġ0 5
Ġgen et
Ġsow eit
ĠGr iff
ĠIt aly
Ġpre fix
Ġbegann en
Ġorgan ic
ĠRuss ia
ĠgrÃ¼ nd
Ġzeit weise
Ġrespons ibility
Ġflex ible
ĠNomin ierung
ĠM O
ĠE vents
ĠK Ã¶n
od ie
ĠVer arbeitung
ip er
19 18
ĠHe art
Ġ6 9
por ter
[] )
Ge org
ĠTour ismus
Ġworks hop
ĠAutor in
Ġple ased
ĠSing les
Ġencour age
ĠendgÃ¼lt ig
C an
M Ã¼n
g ate
n chen
le ft
Ġc ro
ĠW i
ĠW Ã¼r
ĠH ind
ĠR ainer
ĠL uz
ĠJ ens
ik te
la ce
ĠAn st
ĠDe kor
be hÃ¶rde
ĠVor teil
ĠMon ats
ipp er
Ġpl anned
sw ert
Ġcolle cted
ĠColle ctions
Ġequ al
Ġconf idence
ĠSa al
ixt ure
ĠOrganis ationen
Ġcollabor ation
ĠKonfl ikt
Frie drich
( ...)
Q UE
f ue
Ġs ac
al ia
un ters
ĠM aschine
ach ter
ĠV ision
ang o
sh ips
ĠNe xt
ĠNe ues
off s
Ġhin ein
ĠSk y
schn itte
Ġnational e
Ġnord westlich
Ġmanufact urers
Ġqualif ied
ĠKons erv
": "
ĠLeichtathlet ik
L auf
T I
on ne
Ġf Ã¼hl
Ġc aught
ĠD unk
ĠF an
Ġver fÃ¼gen
Ġ3 50
ĠAus bildungs
ĠGemein schaft
ĠGemein sam
Ġdr ivers
Ġcal endar
Ġjeder zeit
urren cy
Ġvirt ual
ĠArr ondiss
Ð ·
ĠB rie
ĠW arn
ĠR av
ĠR unden
Ġl yr
Ġsh ares
Ġbo ot
ĠAll es
ĠPf ad
Ġakt ual
Ġatt ached
Reg istry
ĠWochen ende
Ġfail ure
Ġbege ister
merksam keit
A k
an ia
ĠS ed
ĠB Ã¼nd
Ġc art
ĠF I
ĠW Ã¼rttemberg
ach el
ĠIn spir
fer ences
ĠCh i
ĠAb geordneter
Ġrec over
ank a
Ġbre ath
bild ungen
ival ent
sprÃ¼ che
ĠEben so
bra un
Ġple asure
Ġcaus es
Ġlok alen
exec ute
B I
a o
Ġd az
re iter
un fts
ĠD ig
ĠF itness
ĠI terator
Ġer l
Ġer folgen
ad bach
ann els
ĠAn sicht
ok us
Ġwe alth
ĠPro test
ĠTh or
Ã¤r n
ĠAus zeichnungen
Ġout standing
De zember
Id x
Ġgeb lieben
Ġtyp ical
ĠpreuÃŁ ischer
Ġdynam ic
Ġaccur ate
Ġhil ft
H Ã¶r
K omp
le ten
ĠM all
am o
Ġbe zieht
Ġal cohol
Ġk ennt
os c
ĠSch la
ĠBe ispiele
Ġsh ift
Ã© d
ism ar
Ġunser es
ĠsÃ¼d Ã¶stlich
mÃ¤ÃŁ igen
ĠJugend liche
Ġemploy ment
Ġposition s
Ġangeb racht
ĠBron zemed
Ġextens ion
Cons umer
c ers
f Ã¤l
Ġs ad
ĠS endung
Ã¼ re
ol in
Ġbe we
ist ungs
Ġge h
ile y
ĠVor stands
Pro gramm
Ġdar um
vers icherung
Ġsupp lies
ĠFil ter
Ġopt imal
Ġlov es
MA X
cycl op
H P
W ird
e xt
l ach
Ġ ~
ĠF ed
ĠG abr
sch iffe
ĠR ome
ĠL uk
ĠL iving
ul der
ĠSch umann
get String
Ġ18 40
ĠAl i
Ġget Ã¶
pro ble
sk ar
ĠAd ler
ĠOff en
ĠKÃ¶l ner
Ġmag azine
ĠHen ri
ĠBu y
UL L
Ġamer ikanische
Ġkont roll
ĠProm otion
ĠTschech ien
Ġguarante e
waren ess
Ġentre prene
E nde
z ing
Ġb an
ĠL Ã¶sungen
19 80
Ġdurch aus
own ed
IN ST
ĠKon f
Ġvers etzt
Ġorder s
ĠDon ner
Ġcr iminal
ĠDis c
Ġober halb
ĠKan al
ĠNikol aus
beg inn
Ġfavour ite
k ette
u ine
ĠB ein
ig ers
ĠR olf
ir al
Ġ18 61
ĠAb stract
ex pected
fa iled
ĠsÃ¼d westlich
loy d
ĠKommand o
Ġkathol ische
Schwei zer
E p
i oren
k ing
k olle
x id
y c
Ġd ick
ie ber
ĠS itze
ent liche
ĠI gn
Ġfor ces
af Ã©
ĠAn lass
ru ption
ĠCh annel
ss el
Ġgen annte
ata illon
ĠAd vent
ĠAs ian
ĠOl iver
ĠKe vin
Ġregular ly
Ġpartners hip
Ġappe ared
ĠDÃ¶r fer
ĠAllgemein en
Jul i
< ='\
D ig
I l
K ap
M o
h Ã¤usern
å ı
Ġv ieler
ĠB uck
Ġh ire
Ġaus gebaut
Ġch ron
ho e
ens us
lex ikon
Ġsupp orts
Ġmod ule
stag ram
Ġaccess ible
gÃ¤n z
Com parator
ĠGef Ã¤ngnis
Ġspeziel le
ĠLim ited
ĠSar ah
Ġlau tet
ĠergÃ¤n zt
Final e
Kompon ist
I ter
W ien
c enter
f rÃ¼
Ġt ells
or er
Ġp ure
ĠG un
ĠSt aff
ah a
amp en
Ġ+ +
use ums
br id
Ġpat io
ĠSchm uck
ĠBilder n
Ġpubl ish
Ġfeed back
ĠJord an
> ='\
C or
ĠD afÃ¼r
ic i
im age
ĠL iver
me te
ick ets
Ġrec orded
ĠQu ell
ĠInter ess
Ġzun ehmen
met hode
Ass ign
Ġspan ischer
Ġproced ure
v ements
on te
on ed
re z
ar ischer
ĠS ax
Ġb ab
ĠB ath
st rÃ¤ger
st ritten
Ġc orn
ĠT u
ĠF Ã¼
ĠK ro
Ġz ul
isch t
ĠIn tel
Ġ} ;
Ġvor ne
Ġvers ions
ĠGemeinde gebiet
ournal ist
ĠDis ney
Ġinterest s
ĠschlieÃŁ en
Ġkanad ischer
Ġanc ient
vertre ter
an cing
ĠD ok
ĠP ict
ĠF ont
ĠC ommand
Ġan sonsten
Ġun less
ĠRe zept
ĠEr wer
ĠAb stand
Ġ7 3
aw t
ek te
Ġklein eren
iden z
Ġhistor ic
Ġpur poses
ĠMeer es
ĠBrun o
ĠMem orial
penden cy
Ġposit iv
Ġwhe el
Ġappreci ate
Ġinstr ument
V O
b art
Ġt at
ĠF abrik
ĠH agen
Ġk it
ĠSt ol
Ġsch Ã¼tzen
tw och
amm ern
ĠÃľber sicht
Ġmin imal
zahl ung
Ġeinfach en
ĠClass ic
Ġconstant ly
rupted Exception
T ro
T itel
a al
w eiter
Ġd ialog
ĠB ody
ach es
Ġ18 75
du ate
entr um
ĠBo gen
Ġgesch Ã¼tzt
Le ft
Ġser ial
ĠIntegr ation
zust and
ĠBres lau
. ",
e ber
an ischer
re uth
us ste
Ġein gew
ĠR eit
ĠJ am
men s
Ġ18 66
ss ystem
Ġerfolg reichen
ĠMor itz
Ġbro ken
Ġredu ced
Ġliegen den
opt ion
Ġconsum ers
mir al
ĠTrain ings
Abst ract
r ennfahrer
t ok
Ġt ile
Ġs ides
ĠT oy
ĠG ipfel
ĠE sp
Ġwar ten
ap ing
out ube
ĠY es
ĠNach folge
Ġel imin
ĠIr ish
Dat abase
Ġhold ing
Ġcook ing
ĠGÃ¼n ter
ĠEntfern ung
c olle
g ten
u ers
ç ļ
on line
re chnung
ar gs
tr itte
Ġse quence
Ġacc ounts
esse e
Ġreal ize
Amer ican
Ġarchite cture
Ġmount ain
Erster wÃ¤hnung
ĠSpielt ag
L ebens
M iss
O F
W rite
d raw
ĠS qu
ĠS imple
ĠL och
Ġbe ar
Ġde cre
ap shot
ud a
Ġunter scheidet
Ġtr ends
Ġtra il
Pro jekt
ual itÃ¤t
Ã¼nd en
Ċĉĉĉĉ ĉĉĉĉ
ĠÃĸ k
ĠUr ban
Ġrelat ive
Ġprogram me
Ġgraph ics
ĠPrÃ¼ fung
Fra uen
7 00
l ocal
w eiten
Ġa gr
ĠM innesota
ĠD ocument
ĠF els
la de
kt ive
ste ine
Ġhe aring
Ġex tended
Ġ9 8
Ġserv es
lieÃŁ en
amer as
Ġpl Ã¶tz
ĠAlt stadt
Ġverkauf en
G S
M useum
W R
Ġd Ã¼n
Ġf lav
Ġc and
ĠG ymnas
Ġl anger
ĠJ Ã¤ger
ĠJ ubil
Ġan alys
Ġr id
ĠVer k
ĠAn k
Ġle gen
ang hai
Ġ3 60
Ġ16 0
Ġel ig
Ġfound ation
ĠBut ton
Ġbig ger
Ġimpro ved
Welt meisterschaften
ĠOption al
wechs elt
ĠVertra gs
ĠNiederland e
ĠLew is
A tt
f ill
s Ã¤tze
ĠP Ã©
ak on
ĠVer dienste
Ġme at
In v
Ġent deck
ĠGe legenheit
ĠAuf merksamkeit
Re pository
tra ck
ced es
Ġmed icine
fre ien
Ġturn s
ĠRegel n
ĠStÃ¼ck e
ĠNap ole
Wel come
Ġlern te
m Ã¶glich
Ġa rab
Ġt ank
Ġh armon
ĠK leine
hr ung
ĠSt one
ĠSt ipend
all iga
ant in
ĠSp ark
ĠIm per
Ġ8 2
gew inn
gl ing
Ġwirtschaft lichen
ĠAnth ony
ĠBiele feld
O h
Ġp ic
Ġc atalog
em y
Ġl as
Ġer richten
ĠEr ster
ĠAr g
ĠLe h
ond a
ĠTr ust
Ġsur prise
ĠÃĦ hn
Ad apter
ĠMor ris
Ne u
ĠTechn ischen
ĠVal id
Ġzeit genÃ¶ss
Ġunters ucht
ĠEind ruck
Ġleit et
Ġsympt oms
f unction
ĠA cker
Ġp asst
Ġg rad
ĠC her
ein heiten
ik um
ĠZ unÃ¤chst
ĉĉ ĉ
ĠEin er
Ã¶n t
ĠPr ince
Ġ9 6
Ġco ck
zeit schrift
Ġfin de
Ġgesch ieht
Ġend s
Ġevent ually
Ġgrow n
Ġgel b
Ġgl Ã¼ck
Ġredu ziert
ĠPra kt
ĠAndre a
gef angen
ĠPass ag
Ġpick ed
stud ium
frist ig
F OL
L ex
R oman
Ġm ic
Ġwe isen
Ġ18 86
Ġ8 4
Ġgew Ã¼nsch
ĠUm feld
ams ung
Ġmach ines
Ã¤tz t
ĠEm ail
Ġfac ing
ĠKais ers
Ġfit ness
Gr und
bro chen
Ġaffe ct
Ġcirc um
Ġpromov ierte
ĠErinner ung
ĠRena issance
% .
A ud
C up
N odes
er a
it ate
ĠM ust
ĠM iami
Ġz one
ach ment
ĠN erv
Ġk Ã¼nft
qu alitÃ¤t
Ġj oy
oph on
Ġpolit isch
ĠMy th
ĠRechts anwalt
Ġident ified
haupt stadt
ĠLink ed
Ġprakt isch
ĠMarg are
Disk ografie
ĠKandid aten
ĠVerantwort ung
ĠUnabhÃ¤ng igkeit
n oten
y es
ĠH ills
Ã¶ scht
ĠVer stÃ¤nd
ord on
Ġes cape
ĠAl uminium
Ġsh ut
ĠMar x
ĠCar ter
ĠBel gien
ĠÃĸsterreich s
Ġcert ified
Ġkommen den
ĠAuss age
Ġaffe cted
ĠPfer d
hyth m
F ollow
b Ã¶
t ax
Ġf er
Ġm ont
Ġo s
ĠB uffer
ĠM ig
ĠT ry
ĠW ars
ĠC ann
ĠC ase
iz ist
19 88
olog ien
Ġsk ill
Dies es
ĠBad minton
ĠLes er
Gr id
Ġausgew Ã¤hlt
angeb ot
Mot or
N etwork
es heim
Ã¼ ÃŁ
Ġ( _
ens ed
ĠAuf ruf
Ġrec o
ĠOber Ã¶sterreich
Ġcar ried
Ġfound ed
the ater
ĠMeister schaften
ĠBereich e
ĠTre ffen
Ġconf ir
Ġnord Ã¶stlich
IG HT
Ġprin ted
V ideo
t oken
Ġ Ã¤ndern
st ens
ĠD M
am ar
ĠL uther
ĠC ore
Ġst retch
ĠSch Ã¼tzen
Ġ18 15
Ġ18 73
Ġget roffen
ĠGe fÃ¼hl
Or ts
kehr t
Ġem phas
Ġstrateg ic
ĠKre bs
ĠNS DAP
Sec urity
Ġfunktion iert
owe en
ĠGemeinder at
BevÃ¶lker ungs
Ġd t
ro h
Ġto urn
Ġor ange
Ġ" '
ĠDe leg
ĠPar ks
ital ien
ĠStud ios
zw ungen
ĠMed icine
Ġger inge
Ġinv ited
Ġoper ate
Ġpers pective
Ġconsider ing
ĠEinwohner zahl
CD U
ĠZuf luss
shaus en
Ve ctor
T ab
f act
m or
ĠE b
Ġk Ã¶rper
och em
oc ate
Ġbes ucht
Ġ8 1
Ġra di
wend ungs
ĠTre ffer
Null able
Ġhon or
Wer degang
Ġeffect ively
Ġviol ence
Are a
ĠAnh Ã¤nger
ĠRumÃ¤n ien
R C
j amin
Ġe ast
Ġp in
st reit
Ġc lock
ĠD ance
ĠL ange
Ġl istener
ĠJ r
ĠJ ury
Ġre ar
Ġun w
ĠÃ¼ber setzt
ĠAr z
Ġ18 62
Ġdar stellt
ĠGes icht
Ġra il
Ġvers uchen
Ġhand ler
Ġdr ugs
Ġgleich er
ĠWar schau
Ġstell ten
lad imir
Ġtrain ed
Ġgraph ic
ĠBrun nen
Ġperman ent
H A
H am
J azz
g io
k Ã¶nig
s end
w ird
Î ¹
es ents
ĠS ite
ĠS ac
ĠR ic
ĠO ak
ĠâĢ Ļ
Ġor th
min der
Ġfun ny
Ge ografie
Ġair port
Ġconf irm
ĠEis hockey
Ġadvent ure
jen igen
B rand
Z one
b urn
Ã °
re lated
Ġf ir
ĠA venue
ĠT ask
ĠW isconsin
sch ritt
Ġcon v
Ġ18 76
In stitut
ĠHe eres
ĠÃľber blick
ĠDar aufhin
Ġsw imming
ĠZe aland
hor st
ĠdÃ¼r fte
Ġzuf rieden
Ġschwed ischen
ĠRog er
Ġcit izens
ĠsÃ¤m tliche
Ġbenachbar ten
alleng ing
X base
f ers
à ¦
ĠE tw
ĠK ino
ĠL aden
ĠN ationen
Ġer leben
ĠAr izona
lie hen
ĠMar io
ĠVor stellung
ĠKon zentr
Ġ' "
Ġorder ed
AC T
ĠGeneral major
Ġ185 9
Ġlik es
Ġreve aled
ĠVerbesser ung
çļ Ħ
Ġa chten
un nen
Ġc able
ĠD istanz
ĠK Ã¼r
ĠL angen
ĠSch au
ĠZ ellen
geb oren
Ġsh ops
ĠBr idge
ĠÃĸsterreich ischen
Ġtradition ellen
ĠFreund in
ĠBill y
Ġdamal ige
sm ith
How ever
ĠGÃ¼n ther
imens ions
ĠDien ste
(...) ");
K lass
V om
ĠS achen
Ġm orgen
Ġein heit
ĠR ies
Ġ18 65
ĠPro tocolMarshaller
19 70
par ks
ĠPr ice
use eland
Ġalle ine
ĠGeb ir
Ġgr und
Ġbre iten
Ġdel la
ĊĠĠĠĠĠĠĠĠĠĠĠĠĠĠĠĠĠĠĠĠĠĠĠĠĠĠĠĠĠĠĠĠ ĠĠĠĠĠĠĠĠĠĠĠĠĠĠĠĠĠĠĠĠĠĠĠĠĠĠĠĠĠĠĠĠ
ĠHier bei
Ġvoll er
Ġak zept
Ġsowjet ischen
M ont
p op
ĠS ok
il ation
Ġp ill
Ġbe wegen
ĠRe prÃ¤sentanten
we ar
enn zeichnet
Ex press
Ġ14 0
Ġ13 0
ĠWh ere
ĠAth let
Ġinkl usive
Ġfoll ows
D av
st ahl
ent h
ĠG au
ĠL isten
ĠSch atten
Ġver teilt
Ġr an
ĠDie trich
Ġwe chs
hen de
Ġus ual
ĠNe uer
ĠMin er
the t
ĠWer be
Ġlink ed
ĠPra ct
ĠerklÃ¤r en
Ġclear ly
ĠPremier minister
ĠBeteil igung
ĠWÃ¤r me
Ġtroub le
kÃ¼rz ung
) -
F lag
T emp
in th
ĠS ale
ĠA lo
ĠH ut
ul iert
Ġge langen
Ġfor ec
00 00
Ġvor be
ĠIS O
ĠKon stru
ĠFre unden
Ġac cepted
Ġtechn ique
Ġren ew
gebie ten
---------------- ----------------
ĠMuss olini
Ġverg essen
ĠKonk urrenz
B rite
F ebru
S ing
a a
p unkten
v ision
in ent
in yl
le utnant
Ġe lev
ent ity
ol ine
ĠP ader
ĠC ell
ĠV f
Ġzu gÃ¤nglich
ĠÃ¼ber all
Ġ18 69
ĠAl ben
ob jekt
ĠkÃ¶n ig
Ġmach ten
ĠSer ge
ĠUr teil
Ġdisc ip
ĠParis er
Ġverl Ã¤ng
ilen ame
ĠFrÃ¼ hl
tl ere
Ġschwar zen
ĠSchlieÃŁ lich
. ;
B aden
S ocket
u ages
Ġw inner
el be
Ġp un
ĠM esse
ĠE w
ĠR och
ĠC ivil
Ġl agen
Ġan bie
Ġfor um
iel l
Ġwar rant
Ġ18 30
Ġber aten
bach s
ĠVerb indungen
ĠZug riff
ĠBur gen
ĠKompon isten
Ġbevor zug
ĠFass ung
ĠLOG GER
ĠNiederland en
b ring
č Ċĉĉĉĉĉ
ĠA y
ĠF alle
Ġg od
ĠR ats
ĠV ide
aus o
âĢĻ .
ult an
ĠSie gen
ac o
ĠMar sch
De lete
ĠGesch w
li ess
ĠfÃ¼hr enden
Ġerfolg reiche
ĠKont akte
ĠEnter tainment
lieder ung
Non Null
Ġerlang te
M er
S ER
W ell
g Ã¤ng
t al
Ġw ra
Ġb atch
ĠV ikt
ĠJ en
Ġk la
ĠSt ich
ass au
ĠSch icks
Ġr is
Ġj ener
Ġex cept
ĠCh art
Str ateg
Ġ7 8
Ġlie ÃŁen
De p
Ġpass iert
Ġcare fully
atÃ¼r lich
Ġinform iert
ĠbenÃ¶t igen
Ġschl ug
ĠMerk male
Ġexhib ition
ĠgÃ¼nst ig
Ġenth us
Ġbon us
Ġreco very
A ustr
D okument
T M
g Ã¤
or o
Ġf ell
ĠB auch
ĠB BC
Ġh l
ĠP okal
ĠK ai
ĠK ids
ĠK orea
and in
pp elt
Ġver letzt
ĠRe kord
âĢľ ),
Ġnew sp
Ġgen ieÃŁen
gend es
Ġ< <
ĠMin eral
Ġfl ash
tag on
Ġsign ature
AS E
minister iums
Ġredu z
Ġbew usst
Ġrepr esents
Ġverm eiden
Ġseem ed
Ġzentr ale
ĠCost a
Ġempfehl en
ĠGiov anni
9 00
L isten
m utter
Ġg un
Ġst im
Ġun bedingt
Ġwh om
Ġ18 64
ian ischen
ĠSe g
man ager
ĠPh arm
Ġfl ower
ÃŃ o
ĠMag azin
Ġenc ounter
Ġintrodu ction
ĠExper ten
B atch
f and
Ġa wards
Ġs alt
Ġ1 15
ent ums
Ġy es
ĠU d
ĠSe ele
ĠEx pression
arch itektur
zahl t
ĠAmer ika
Ġfre ige
ilit ation
Ġfest ival
Ġfile d
ĠBra z
Ġschn eller
ĠEmp f
Ñģ Ðº
idel ines
Ġinnov ation
ĠKu gel
Fol der
Ġproced ures
ĠM ort
ĠN ature
Ġver lang
Ġ18 87
Ã¤n glich
Ġwo oden
schie de
Ġcons ists
ĠfÃ¼nf ten
ĠRec ord
Ġgre w
ĠFrei herr
entry Set
å ®
Ġt ub
sch rank
ĠR ug
ĠL iv
Ġex cess
19 89
par ameter
res ources
Con verter
Ġ12 5
ĠMus ical
Res ults
ĠJul ia
Ã¤nger ung
ĠDo ktor
Ġbef re
Ã¨ re
CO L
ĠOl denburg
ĠnatÃ¼r lichen
omot ive
ĠJes u
ĠWahr heit
Ġ{} ",
Ġverwende te
. '
P air
d ung
Ġw et
Ġf urn
Ġf ishing
Ġin tel
ro vers
Ġc eil
im ed
Ġk irch
if ff
ver lauf
op ter
pr esent
Ġ" );
19 33
Ġ5 000
ĠOr th
fe ature
ĠUnivers al
gesch Ã¼tz
li as
Ġwel chen
Ġdeb t
comp are
ĠBot an
Ġfund ament
Ġhund ert
PAR AM
ĠOnt ario
I tems
c ue
l Ã¼ck
z o
re ll
as sten
Ġn erv
ĠP az
ĠR oland
ĠL av
Ġver arbeitet
se a
Ġch allenging
ĠAus sch
Ġlie ben
Ġset up
Ġletz tlich
Ġsk ip
ĠÃĦ gypten
ĠFin ancial
Ġerr ors
ĠAp othe
Ġhost ing
Ġdom estic
Ġcapt ure
ĠLuf tw
ĠArrondiss ement
BevÃ¶lkerungs entwicklung
V A
b at
g roÃŁ
in ne
ĠS Ã£o
Ġe lection
Ġv ital
ul in
ĠN AS
ĠBe fore
ĠPro perties
ĠGe or
Ġlie fern
Ġfe ierte
Th ank
Ġstand ing
Ġkon k
ĠBÃ¼rger schaft
Ġstellvertreten der
gesell schaften
ĠgetÃ¶ tet
l iers
ĠS A
Ġp apers
ic als
ĠW under
se y
sp iegel
Ġab hÃ¤ngig
ĠEin zugs
ĠTe en
St ation
ĠVor teile
stra fe
ĠBl Ã¤tter
iven ess
zeug ung
stoff en
Ed ge
ĠDokument ation
ĠUms atz
ĠSom it
ĠRis iko
ĠGreg or
ĠMaxim ilian
G ET
or um
Ġw ies
ĠB ure
ĠB orn
ĠD ak
ĠP ick
et on
ver letz
Ġab gest
Ġat tr
me chan
ĠPr ix
ble ib
ĠReg istr
ĠFre m
ĠInd ones
Ġchar ges
Ð° Ð½
ĠHar vard
spr uchs
ham mer
Ġfour th
UN D
Ġoffen bar
ĠPosition en
End point
Ġcy cle
ĠGlo cken
ĠKapit Ã¤n
K e
M E
U l
b oy
c ell
n ab
p rechen
it als
ent ine
ĠE astern
ĠC ass
Ġbe achten
gen den
iel en
ĠZ one
Ġr umÃ¤n
Ġat tributes
ungs gebiet
be zeichnung
ĠTh ailand
ac ious
Con f
imm y
Th anks
ĠAnd ere
akes pe
ĠMo ore
Ġcall back
Ġ185 4
Ġerm or
Ġtw ice
ĠJac ques
Ġbem erk
Ġcloth ing
ĠHaw ai
Ġschaff te
A uÃŁer
M al
S en
] )
ie gs
ĠA uge
Ġv intage
ĠB ran
ĠF REE
ĠN iel
Ġst ated
ac ted
Ġnot iced
fe ktur
ĠLand s
ĠVor bereitung
Ġfe hlt
ĠFre der
ĠStud ents
Mod ule
Film titel
ĠQue ens
Ġfertig gestellt
ĠInf os
ĠDrit tel
d ale
s rc
Ġt ube
Ġs ew
ĠS ession
ĠF u
Ġein gebaut
Ġz ero
ĠR au
lic ated
19 87
ĠEx c
Ġbo ost
ĠBar th
ĠEd in
Ġrece iving
Ġprote in
ify ing
Ġcra zy
ĠRÃ¤ ume
Ġdeg rees
grenz ung
Ġanaly t
opÃ¤d ie
U C
n ic
ei ÃŁen
ere cht
Ġsch eme
ust ic
Ġum gesetzt
mal en
tra cking
pro ject
Ġapp end
ĠFor ts
Ġsc re
Ġph ase
Ġknow ing
ĠCon f
Ã¤tz ung
Des ign
ĠRÃ¶ mer
Ġatmosph ere
S onst
j ahre
le un
as a
ĠM etz
ĠG ross
ĠIn stagram
dition al
lÃ¤ uter
ĠBr uch
Ġcomm ission
Ġsol cher
ĠSÃ¼d west
Ġmat ters
ĠLÃ¶ wen
Ġgradu ate
ĠTown ship
ĠSchlaf zimmer
Ġnut rit
Ġstopp ed
ĠGabr iel
D am
P op
W ar
Ġa fr
he ater
ra ben
ĠL ob
ĠN O
Ġge fallen
Ġsch olar
Ġso ul
ru cken
Ġent f
Pro zent
Ġsupp osed
Ġben annte
ĠAt mosphÃ¤re
Ã¼l le
Ġneg ot
ĠKing dom
ĠSign al
Ġcondu cted
ĠPeters burg
ĠOpt im
prec ated
: "
R o
S D
Ã ¦
å ħ
ĠS z
Ġb ond
ĠT um
ĠK it
ĠH ang
ĠL is
ĠL aser
Ġk Ã¼rz
ĠU til
Ġum s
Ġ9 2
ĠEx istenz
Ġger iet
Ġger inger
Ġerw eiterte
Ġyoung er
ĠMun icip
) ).
ĠM iller
Ġh idden
ĠE va
ul ous
Ġre ichen
Ġauf s
sp rech
gr Ã¼n
Ġ18 72
ĠCh at
Ġcont est
ĠGra nde
Ġhand elte
Ġfest gelegt
ĠAss istent
Ġbestand en
ĠPsych ologie
Aut o
clude d
ĠDoug las
B R
h ent
l enz
Ġf f
ĠB ird
ĠG oth
ĠG allen
Ġfor med
Ġwe ak
lin s
ĠDe ath
Ġum f
tell ers
ĠAb wehr
Re port
Ġ7 9
ĠEx pl
ĠMan ufact
Ġdire kten
ĠPol ize
ĠRes te
Ġbeste hend
ĠAmer icans
ĠAt trib
Ġcho osing
mus ter
wor tet
ĠTyp s
lÃ¤uf e
zir ke
ĠLat ein
prof it
ĠBesatz ungs
Ġgeplan ten
analy se
ĠBronzemed aille
! "
P ay
d ies
e ist
f ound
k andid
v ia
Ġb Ã¼rger
ĠE R
ĠW ellen
Ġst abil
ĠVer z
Ġ18 82
ĠEin stellung
pro b
rÃ¤ umen
ĠArbeit geber
Ġwrit ers
ĠIns besondere
yd ra
aser ne
Ġklass ische
Ġrelig ious
Ġsustain able
N ote
te le
Ġin frastructure
Ġo h
ĠT ipps
ĠC L
Ġer stellen
Ġver p
Ġde part
Ġhe ft
Ġle gs
ang a
Ġsch m
Ġch ocolate
ian z
cc a
sh ow
Ġ8 3
Ġsol o
ommer ziel
Ġperform ing
ĠHin weis
Ġinform ieren
Ġdoll ars
F T
M ath
y ou
y ll
on de
Ġt ags
an ing
Ġb rach
Ã¼ se
Ġp od
ĠT iefe
ĠK ay
ĠW at
ĠSch aff
Ġr ig
get Attribute
Ġnach gewiesen
Ġent worfen
ĠCh ange
ĠHe x
ose x
ĠGesch Ã¤ft
arch ie
Ġstatt dessen
ĠPart ners
ĠIhr es
Ġmain ly
Ġrel ation
Sh ow
Ġemploy ee
herr schaft
ĠEmp ire
ĠPhys iker
Ġorigin ally
Ġdou bt
endo ktor
B ounds
Ġw asser
al ters
ĠA cht
ĠE valu
ĠC ount
Ġbe wohn
ĠN est
ĠV illage
Ġas sets
Ġch ief
Ġent ries
Ġvor der
ĠBr ut
ĠPf alz
ĠBar ock
ĠOrt schaften
ĠCont act
Ġmir ror
ĠHow ard
ĠKat alog
Ġimpro ving
ĠHigh way
ĠIndustr ial
ĠKompon enten
bÃ¼ ro
ĠMiss ouri
Ġattra ctive
Ġak adem
Ġschedule d
Ð¸Ñ ĩ
? )
a ire
l oc
y ers
er ung
Ġa warded
Ġb at
ĠB B
ĠM ob
ĠR ent
Ġbe her
Ã¶ tt
ei zer
qu ir
Ġ18 49
Ġvor genommen
ear s
los igkeit
ĠWe is
Ġtra cks
fol gs
tra ce
ĠSchw anz
Ġ8 6
IN TER
ĠAnd erson
ĠKinder garten
Ġav ailability
ĠBre ak
Ġsuper ior
Ġtro cken
ĠGraf schaft
ĠKrieg sende
ĠHoff mann
abet es
ĠEreign isse
Ġanerk annt
ĠKaffe e
ĠEdin burgh
? "
D O
D enk
at ischen
le ep
ĠT au
Ġg al
ĠR up
id ance
ok o
Ġ0 7
ĠSchw imm
Ġwieder holt
ĠQu ery
ĠMo z
anc ouver
ĠBrit ain
ĠMathemat iker
ĠWehr macht
national spieler
M C
W eiter
k ommun
l och
t in
Ð ±
Ġa wareness
Ġt olle
ĠC it
ĠC laus
ĠN y
ab ama
Ġ18 77
Ġqu er
ren ce
Ġgen e
ĠFl orenz
Ã¤ch te
stit ute
Ġfre edom
Ġhealth care
Ġfood s
Ġdeb ut
ĠSieg fried
ĠBon us
Ġbefand en
Ġlisten ing
') ||(
ĠVerl ust
verstÃ¤nd lich
ĠÃľberg ang
ĠlÃ¶ ste
Ġbess ere
ĠKÃ¼nst lern
Ġreput ation
? âĢĿ
L ab
S im
n ur
in stance
Ġt aught
Ġh Ã¤ngt
ĠJ Ã¶rg
ier endes
ĠSt u
ĠO hr
qu alif
Ġj un
sp ring
Ġhe iligen
Ġcom pr
19 72
etz ungen
Ġ0 3
Ġro ten
ri or
olit an
ĠReich stag
ĠWir d
!! !!
ĠKe ep
gebie ts
ĠChallen ge
fir ma
j son
á »
ĠS imp
Ġf inn
Ġm ixed
ĠF L
ĠW are
ab schluss
Ġle ichter
Ġex port
Ġ18 83
19 75
ĠSe ason
ĠAus stellungen
Ġper mit
dem okrat
Ġeng agement
Ġfac ilit
ĠSen ioren
Ġmag net
Ġdeb Ã¼t
ĠRein hard
ĠUs ing
Ã¼ste t
A lex
B Ã¼
C ustom
M Ã¶
Â §
Ã ī
er ie
Ġs la
Ġf ing
Ġc ategories
Ġn arrow
ĠD NA
am tes
ĠC er
ĠZ auber
Ġr ies
ill o
gr at
19 74
19 85
Ġber u
Ġges agt
rich ts
ĠChrist opher
Ġerw arten
ĠHaus halts
AR D
Ġbra uchen
ĠHil f
ĠMont ag
ĠÃ¤l tere
Ġintegr iert
Ġstamm te
ĠStock holm
nehm ern
Dis play
ĠAf ghan
Ġsitu ations
D V
L AN
n isch
he ll
ĠS ysteme
Ġp atch
ĠG on
sch Ã¼tzen
Ġdes ired
Ġis lam
get R
Ġch icken
ĠAr gentin
Ġspe zif
ĠQu est
Ġbre ite
ĠEurop Ã¤ische
auch en
Ġgel ungen
Ġauth ors
ĠKat zen
Ã¤chs ische
Ġsignificant ly
wir ken
ĠDemokrat ischen
icul um
ĠKath arina
Digital isat
b undes
Ä Ł
Ġa gencies
Ġs ang
Ġb owl
ĠA ge
ĠF ame
sch te
ĠC ow
Ġver an
ĠMar co
als o
nis sen
lag ert
gesch lecht
ĠDes igner
roll ing
ĠFil men
Ġcr ime
Ġpay ing
ĠOl iv
ĠursprÃ¼n gliche
ĠFel der
ĠMult ic
ĠProgram me
Ġign ore
ĠÃĦr zte
ĠAdministr ation
ĠberÃ¼cksicht igt
K arl
P rÃ¤sident
k rank
le ide
ing o
ĠE rot
ĠL ov
Ġl iquid
Ġre venue
Ġst imm
ĠSch u
ind s
hn ung
Ġman aging
ond itions
ĠHo uston
stru ctor
zie her
ĠBew ertung
Cl uster
Ġcr ash
ĠCom ic
LO C
Ġmatch ing
ĠSa arb
ĠPrem iere
Ġprint ing
ĠRelig ions
Ġbrow se
Ġstaat lichen
ĠTok io
Ġproduz ierte
ugu ay
ĠHoll and
ĠOrch estra
INST ANCE
ĠLiver pool
l abel
p red
ĠD etail
ĠP ad
ĠP lattform
ĠG letscher
ĠE X
ĠE xtra
em pla
ĠV ul
ĠSt ationen
ver g
ĠRe paratur
ĠCh ile
Ġ| --
ĠDr ive
Ġzwe ier
Ġmom ents
ĠCamp us
ĠmÃ¶ gliche
Ġsud den
S ummary
b il
Ġt iss
Ġf if
ro it
Ġc erem
Ġk ill
ĠO bst
sp unkt
ĠSe gel
Ġhas h
ren ner
ĠSchw ein
yp en
Un ser
Ġpl ug
ĠAs pekte
ĠInter pret
Ġsign al
iges etzt
ĠBel g
ĠMÃ¤n nern
deutsch land
ĠKauf mann
Ġerk enn
Ġvalid ate
Ġuk rain
ĀĀĀĀ ĀĀĀĀ
Ġabger issen
ĠAnz eige
M edia
ĠS uz
ĠF reis
ĠG utsch
iv itÃ¤t
Ġge pf
ĠIn schrift
icht ig
get T
Ġle gt
ĠAr rays
ail ure
Ġ8 9
els on
Ġgesch lagen
ĠVers orgung
ĠHoch schul
Ġpres ents
Ġeinge laden
ĠLeip ziger
Group s
Ġmot ion
Rem ote
ĠVize prÃ¤sident
( @
F ind
in v
Ġw itness
Ġe cht
ent le
ĠC ab
ĠV il
Ġge Ã¶ffnet
Ġex ists
ial is
Ġso le
ĠSp er
Ġzum eist
amm elt
Ġ8 7
Ġprov en
ĠMen gen
Ġche ese
stit u
ĠGroÃŁ herzog
ĠLin den
ĠBel ast
Ġhold s
ĠLeg islat
Ġfrequ ently
ĠRy an
ĠBist um
Mich ael
Dom ain
ĠFranÃ§ ois
Ġgefert igt
F lo
in stitut
Ġe ase
ĠB ible
sch el
ĠL izenz
ĠC ry
ul ator
ĠJ ess
Ġk rÃ¤ft
ver hÃ¤ltnis
Ġum stritten
are l
ĠHer zen
Con ne
Ġsub t
Ġprof iles
Ġbesch loss
Ġdel ay
ĠAss istant
ĠschlieÃŁ t
Fl ug
Ġcur ren
CL ASS
ĠFÃ¤h igkeiten
! âĢľ
D etails
i pt
z ut
ĠM is
ĠD ave
ra iner
ĠK und
Ġk ompon
os er
aus chen
ĠVer handlungen
ĠAn erkennung
sp rechen
Ġ18 63
19 83
ĠUS D
ron ics
Ġsupp lement
ĠKr one
ĠJugend lichen
leist ungs
IL L
ĠGebie ten
Ġappe al
lah oma
Ġverwende ten
VerÃ¶ffentlich ungen
Ġhers elf
ĠNeust adt
empla re
F ont
b uf
e ister
Ġs ick
he iz
Ã¤ le
ic us
ĠW upp
Ġge lesen
Ã¤t igkeiten
ĠDe ad
19 84
cl ing
ett i
gesch ichten
ĠKon text
ĠKon struktion
Ġbl ow
ĠWohn haus
Ġorgan ized
ĠSol o
iol oge
zy kl
ĠZeich nungen
Ġimag ine
Ġdetermin ed
ĠSynag oge
ĠSchÃ¼l ern
ĠWeib chen
W A
Ġw omit
st an
Ġc arbon
ĠG lass
ĠL P
ab len
ĠZ DF
ĠEr furt
ĠSp enden
19 86
19 81
Ġsp l
Ġum gewand
ĠAus schuss
Ġspe aking
aw s
ĠMal ays
ĠDr am
Ġrest r
ragen de
ĠDu isburg
ĠverÃ¶ffentlich ten
ĠHal binsel
ĠDi Ã¶z
ĠSied lungs
ĠÃ¼bern immt
Ġjapan ische
nehm ung
ĠÃ¼b lich
ĠbeschÃ¤ft igte
ĠFass ade
Ġult imate
ĠKohl en
ĠMÃ¤r chen
ĠPreuÃŁ ischen
Ġwunder sch
D uring
R om
d ig
Ñ ĩ
Ġt ip
te ch
Ġe g
ĠM alt
Ġg g
ĠC ome
ier er
os k
Ġst il
ĠBe an
ĠAus gaben
Ġmehr mals
unk er
Ġverb lieben
Ġgra b
yl on
ĠBen jamin
Ġkeep s
ĠSen at
Ġoffic ers
Ġintens iv
Ġannot ation
Y es
d ir
in ity
it ative
ĠS ource
Ġin ch
ĠM eine
ĠE gypt
ĠR ange
ul den
ĠSch Ã¤d
ĠRe ferenz
ler in
ĠHe ck
Ġro ugh
Ġ9 4
Ġpre v
ĠzurÃ¼ck gegeben
pla ys
Ġstar tet
ĠReich en
ĠDo zent
ĠÐ ²
Ġausgest ra
essel ben
Ġspeziel len
Process or
Ġkauf te
ĠGemark ung
E B
H ans
p ur
æ ĸ
en ne
Ġb ags
Ġin ne
Ġm oral
ĠG Ã¶t
ĠK abel
sch ung
pp t
Ġso fern
ens is
ĠBer ater
Ch ain
Ġakt ive
grÃ¼nd en
ĠDr ama
ĠLin ux
ĠKreis es
Ġgl ad
Ġcap able
Ġenter ed
Ġmass age
Dat um
Ġdraw ing
ĠAtlant a
Ġmill ions
Ġextre me
N N
Ġd esselben
ĠS ide
ĠS creen
em m
Ġg ross
Ã¶ ger
ill es
Ġoff ens
ĠBet reiber
Ġac id
At tr
ather ine
glieder ung
ĠErn Ã¤hrung
Ġ185 6
zus etzen
Ġconcern ed
Ġwid mete
Ġaccommod ation
Po inter
I st
L ower
h Ã¼tte
r atic
Ï Ħ
ĠB ry
Ġp ussy
am ik
ĠT auf
ĠT irol
ĠI C
ra hmen
id met
pe ction
St ats
geb ra
Ġ0 2
cl usive
ĠSh anghai
hand els
iner y
Ġem otion
On ce
ĠMay be
Ġless ons
col or
Ġnie mand
Ġcook ies
Supp ort
ĠDisk ussion
prof essor
Ġprepar ation
Ġbeeinfl usst
Entw ick
H ello
S K
d ays
Ġd iss
ĠP ixel
ĠE ag
ĠK openhagen
ĠH inz
ĠC ON
ĠC urrent
Ġl ucky
ĠN i
ab schnitt
ĠSt aub
ĠO skar
ute te
18 0
Ġfe hlen
ellen ce
Ġmin ing
ĠSpe ed
ament o
Ġmember ship
ĠSol ar
ĠKo ordin
Ġclos er
ÅĤ aw
Stack Trace
ĠGesam tw
ĠJew ish
Mem ory
M atcher
at isch
ĠS G
ĠP ont
ic ted
ĠH im
ver kauf
Ġcon trast
ial en
Ġso il
ĠMit tler
ĠBer gen
Ġtr ib
bar ung
Ġges p
ais en
ĠProdu kten
Ġeng age
ĠFest ung
Ġmeisten s
ĠMill imeter
ĠjÃ¼d ische
ĠNaturschutz gebiet
ĠFert ig
ĠmilitÃ¤r ischen
Ġimpress ive
FOL LOW
F ar
d ner
k al
Ã¤ mm
Ġ1 14
ĠF lex
ĠK ann
Ġk Ã¼nst
Ġy ard
ĠO cean
Ġse qu
Ġcon sequ
Ġnew ly
ĠSe henswÃ¼rdigkeiten
Ġ10 1
Ġph arm
Ġange ordnet
ĠChrist us
ateg or
by tes
OR D
Des c
pre uÃŁen
ĠJust ice
ĠStraÃŁen bahn
ĠInnen stadt
Child ren
abil itÃ¤t
ĠLi bert
ĠBoch um
ĠdebÃ¼t ierte
b ot
Ġt ested
Ġf u
Ġe c
ĠB ucht
Ġp hen
Ġh aus
ou red
Ġaus drÃ¼ck
get X
ĠEr lebnis
ĠDe fault
19 28
ac on
Ġte eth
ĠEn cyclop
amen te
add ing
Ġgef Ã¶rdert
ĠHar ald
Ġnieder lÃ¤ndischen
Ġstre ets
ĠRet urn
Ãĸsterreich er
ĠSum me
Ġinstit utions
ĠerfÃ¼ll t
ĠGlaub ens
l inger
w ass
el ry
Ã¤ hne
ĠE k
ĠW he
ess a
ub b
ĠSe pt
ĠAuf l
âĢ¦ .
hol en
kon stru
Ġschn elle
Ġcert ificate
Ġoft mals
ĠDienst leistungen
Ġgelang te
ifiz ierung
Ġdiv or
fÃ¶rm igen
ĠHei de
Bundes liga
ĠSchwier igkeiten
L et
P AT
Z e
p ed
y an
ĠS U
Ġb ay
Ġb ranch
st Ã¤rke
ĠM ix
Ġh osted
om on
ĠR ÃŃo
ier bar
Ġge liefert
ĠRe aktion
19 76
ho b
ens wert
ĠAl an
ĠSe ver
ĠAb sol
ĠAuf tritt
ĠLand gemeinde
Ġbet reibt
Ġbre ad
Ġcre w
Ġbed s
ĠMo on
UN G
ĠkÃ¶nn t
Option al
Ġhappen ing
Ġged reht
Fr ame
ĠVarian ten
liefer ung
Ġprogramm ing
andin av
F ree
N T
S ION
b Ã¤
t im
Ġv i
ĠM ahl
Ġ( ),
am an
ĠF as
ĠW itten
Ġbe quem
ĠSt att
oun ge
att an
Ġgew eiht
Ġspe ech
schl Ã¼sse
ĠPal m
ĠDat abase
Ġstat istics
Ġenter tain
Ġleben s
Ġjapan ischer
Ġbedroom s
ĠVerteid igung
G ymnasium
W ahl
i ago
n isses
ĠS quare
ĠS amsung
il o
ĠL az
Ġr um
Ġr ating
sp itze
âĢĻ ,
ĠDie t
Ġle tt
Ġat tended
ĠÃ¼ber zeugen
me ier
ges ted
upp e
Ã© g
Ġlie fer
Con stant
fahr ens
ĠBet reuung
Ġsk y
Ġchar ged
ĠfrÃ¼ here
gress ive
ĠMel bourne
ĠEben falls
ĠSat ell
bereit et
Ġmonitor ing
ĠnÃ¶t ig
ĠInstitution en
ĠPfar rei
ĠstÃ¤dt ischen
supp orted
ĠDonner stag
O s
r ors
at tribute
Ġv ast
Ġn arr
Ġz ip
ĠC ole
Ġun gewÃ¶hn
ap olis
19 30
ĠTr io
Ġgener ated
Ġlist ing
ĠMer cedes
ĠTher es
frei heit
Ã¶p fe
ĠAN D
iÃ¨ re
Ġappoint ment
Ġbrill iant
H il
J oin
S n
ch at
ge ist
am ts
ĠJ ay
ct ic
ce ived
qu ert
Ġsch eiterte
19 69
fe ier
pro zess
ĠMa ÃŁe
Ġrec ording
ins ichtlich
gew Ã¤ch
hand lungs
Ġhier fÃ¼r
ĠLin col
Ġkon stru
Ġengl ish
Ġmeet ings
ĠKind es
ĠHall oween
Stand ard
Ġrequ ested
incip al
Ġdream s
ĠLein wand
f are
k lassen
s ign
v org
ĠH ack
Ã¼r tel
ĠO K
ĠZ ubehÃ¶r
op ol
gel Ã¤nde
ĠAus wirkungen
ĠMit twoch
Ġev ol
ĠMa j
ende te
ĠMan uel
ĠJun ge
mat ik
ĠOff icer
Ġter rit
Ġfact s
ĠSpr int
Auf grund
Ġfac ulty
fil me
inu ier
Ġconfir med
H igh
V C
Ġt iny
Ġs amples
te ine
Ġin ches
ĠA gency
ion ier
Ġn utzt
Ġl uck
ist ol
ein st
ĠSch reiben
19 10
iss a
Ġtr ick
Ġro se
Ã¤l ter
ĠHaupt rolle
ĠBed ien
Ġresearch ers
ĠAnfang s
ĠKÃ¼ chen
wei ÃŁ
Wer ft
SI ZE
Ġearn ed
Ġnorm ally
B und
r ufen
u ing
x i
} .
in ema
Ġa men
Ġs ql
Ġb undes
ĠB E
ĠB ond
sch reiben
Ġg lo
ĠSt imm
os es
qu et
Ġle isten
enn is
old t
berg s
ace ae
Ġfol ks
ĠSh are
Ġverb esser
Ġdevelop ers
Ġur i
ĠApp lication
Ġern st
Ġexpect ations
ĠPubl ishing
Ġcondu ct
ĠPast or
Ġmur der
K ind
k ommt
Ġt all
ĠS O
ĠS amen
ge mÃ¤ÃŁ
ĠB od
ĠF Ã¤r
ra ut
ĠW Ã¤l
ĠH ugh
qu ality
Ġpr ison
stell erin
Ġste igt
Ġber ichtete
ĠGeb Ã¤udes
Ã¼t tel
Hand le
zÃ¼ gen
Ġherv orge
Ġumfang reiche
Ġehren amt
L ie
M s
S B
m aking
t age
er ten
ĠM asse
Ã¤ use
Ġh ung
Ġer laub
Ġan gew
Ġi OS
ĠAn wendungen
ĠBe arbeitung
20 21
Ġnur sing
Ġnoch mals
Ġdar stellen
lÃ¤ s
ĠArbeit sk
ĠTr ennung
ĠSpiel klasse
ĠCar los
ĠChrist ine
ari us
ĠÃĦ l
Ġbekannt esten
ĠMot to
bed arf
Ðµ ÑĢ
ĠDis play
I E
K ilometer
M ac
M IN
d ated
ĠS ke
ĠA B
ĠA er
Ã¼ ch
Ġ1 13
ĠJ ag
Ġver haf
af ter
ant es
ĠÃ¼ber gebenen
Ġsp ark
hand elt
Ġdire cted
ĠUr sprung
ĠDurch fÃ¼hrung
ĠPla yer
Ġbil deten
Ġlet ters
Ġmult ip
Ġern annte
Ġrespons es
Ste p
ĠunterstÃ¼tz te
Ġzuge lassen
Ġwirtschaft liche
ĠÃ¤uÃŁer st
D istr
L ondon
R ot
S ol
g nung
Ð ¿
Ġc odes
sch ild
Ġg aming
ĠEr klÃ¤rung
Ġ" ";
fe kt
ĠString Buffer
ĠAll gemeine
ĠCon c
Ġange passt
reg on
buch autor
Ġ% )
leit ungen
hol ung
Bu ild
ĠerfÃ¼ll en
ĠNahr ungs
ĠSingap ore
S il
b ist
m outh
z uge
er ben
ĠS i
ĠG or
ĠC ock
ĠJ oh
Ġzu verlÃ¤ss
Ġdem okrat
ib il
Ġab use
Ġ" +
ong o
Ġgew Ã¶hn
res te
Er zeugt
ĠAnd rÃ©
ĠSh akespe
Ġperson en
Ġstand s
ĠSÃ¼d afrika
Ã¤nger in
Ġoffic er
Ġzerst Ã¶r
Ġdenk mal
ĠStrals und
ĠLincol n
P T
Ġ essen
Ġs oph
Ġder selben
st age
Ġein erseits
ĠR Ã¼
ĠSt ars
qu ellen
ue ft
19 20
19 38
St re
ĠEn joy
ĠPr in
ron en
gesch icht
off izier
rag ment
str asse
ĠReich es
Ġbra un
dienst kreuz
ĠHistor ic
ĠErw Ã¤hnung
ĠEner g
Ġelect rical
ĠWissen schafts
kan al
ĠWass ers
Ġhy per
" ),
K at
ä »
Ġm ature
ĠB og
il deten
ĠP le
sch Ã¤d
ĠJ Ã¼d
ĠO hne
ĠSch Ã¤den
Ġver grÃ¶ÃŁ
se kretÃ¤r
19 39
ens burg
ĠCh romos
ĠAuf sichts
Ġgen auso
ĠSte iermark
tes te
ene z
ĠSpiel s
Ġsub stant
Ġrem ark
ĠÐ ¸
ĠPat ient
Ġrequest s
ĠHerr scher
Ġreport ing
Ġfunction al
Ġinteress iert
Ġoccur red
ĠAlk ohol
Ġumgewand elt
r ick
s inn
w irt
Ġd ump
ie u
Ġb ow
Ġe gal
Ġp our
ĠK ore
ĠK ings
ĠN BA
Ġmit tlere
ĠU we
mp ath
Ġro les
En tries
ĠOb ama
ĠCar lo
Ġverb inden
fa ction
ĠWohn ungen
Cont roller
kon struktion
ĠauÃŁer gewÃ¶hn
mut able
ĠJust in
Ġmiss ed
ĠVorsitzen de
Ġhor se
famil ien
Ġwohn zimmer
Ã¤rt ner
agent ur
Ġdanger ous
. [
M ay
p ay
s y
ĠA ur
ĠM ale
ĠM eld
ĠD aily
ĠG reif
ĠH au
ĠR out
Ġl ift
Ġge laden
Ġauf w
Ġaus geschlossen
19 29
ĠAb satz
tw ork
ĠTra de
ĠSpiel ern
ĠÃĦ m
trÃ¤ glich
go ogle
ĠSol utions
Ġconc ert
sc ale
hÃ¶ fe
Ġdest roy
Ġpan els
Arch itektur
Ġged acht
uert o
Ġaktuell es
lehn ung
Ġmil k
PersÃ¶n lichkeiten
Sow jet
D ivision
Ġm aps
ĠB C
Ġc am
ĠP ent
ĠC atholic
Ġan x
Ġfor ced
ĠUn it
ru gen
Ġus age
St a
net en
Deutsch e
Ġter ror
Ġinner en
DE F
Ġtre ated
190 7
Part ition
ĠBot schaft
Ġexception al
ĠCap ital
Kurz film
ĠBom ben
Ġwire less
O k
h au
w affen
er d
Ġv illa
ĠM D
ĠH imm
ĠC av
ĠC urt
ver teilung
lic a
form ed
ek ing
Ġsho oting
ĠBundes regierung
Ġdire kte
Ġbook ing
Ġsu c
Ġweek ly
gra ph
ĠPlan et
Ġjoin ing
Ġindividu elle
ĠMach ine
wach ung
ĠSchott land
ĠSkla ven
Ġbewe gt
P N
is st
al is
al teten
ro ff
Ġp oker
ĠD R
ĠK av
ĠJ oin
Ġge g
ne ys
Ġ18 78
ĠTh rough
Ex tension
ĠGesch enk
Ġgr atis
Ver tex
liegen de
htt ps
ĠHoff nung
Ġassess ment
ĠAufent halt
Enc oding
Ġbegrenz t
Ġtom orrow
F Ã¼hr
N icht
S creen
k rit
r im
ĠB usch
ĠB apt
de f
ĠG ordon
Ġpro tocol
ste chn
aus geber
ĠVer y
sp h
Ġme ets
ign y
ĠSe il
Ġ0 6
ĠFl ach
Ġbest immen
ĠVol ume
ĠCo oper
Ġgest artet
ĠSpr eng
Ġhol idays
ĠFlor ian
gram me
Ġarr ive
ĠLat in
Ġfig ures
ĠExp edition
ĠMarc us
ĠEnter prise
Ġnet works
ĠÃ¶ k
Ġerheb lich
ĠSaf ety
M ein
X X
s dorf
st oÃŁ
Ġc um
ĠT alk
ĠG ib
ĠK lin
est r
Ġst ab
kt rum
ĠSch enk
ĠIn stanz
Ġas pect
ĠVor lage
Ġob lig
Ġsc an
Ġgu idance
Ġpass ende
Ġgest orben
Ġatt orney
Ġwei ÃŁe
Ġhol te
ĠKommun ikations
ĠStÃ¤d t
ĠOut door
Ġfrei will
Ġbox es
Ġindustr ies
Ġsubmit ted
ĠHT ML
ĠKonzer te
Ġincor por
" -
C ategory
F ran
O l
T urn
m oder
m Ã¤nn
Å Ľ
te or
Ġb ass
Ã¼ pf
ĠB auten
ĠP i
ĠG az
ĠE state
Ġbe it
kt on
get E
19 78
Ex pr
hel ess
Ġenjoy ing
kr ise
stehen den
ĠErzÃ¤hl ungen
Ġfal sch
ĠSoph ie
ĠRess ourcen
H O
S pr
k rÃ¤
s he
Ġs hr
ĠS M
ĠS low
ĠF uture
ĠK rÃ¼
Ġge he
Ġpro of
end or
ĠAn satz
Ġ18 55
ĠSp uren
amm lungen
Ġrec on
ĠFre il
Ġfol der
ari at
ĠVerb ands
ĠPhil ip
Ġbr idge
itu ationen
Reg iment
EL D
Gener ator
Hol der
fÃ¶rm ige
Ġque ue
Ġbeob achtet
D b
J o
L ife
n ik
z usammen
Ġ Ñģ
Ġd icht
Ġt ut
or chester
Ġw Ã¤chst
ĠP iet
ĠW ende
Ġbe zogen
ĠV eter
ĠSt yle
Ġon going
Ġauf gel
ĠAn meldung
get Field
ĠBe hinder
Ċĉĉ Ċĉ
Ġres istance
ĠLand tags
(" /
Ġoff ices
Ġfind s
ateg orie
ĠPol ar
ĠPart ie
ĠJohn ny
ĠIns urance
Ġpack ages
Ġexec ution
emin ar
Ġprior ity
Ġsuggest ions
ĠPader born
W ord
i our
k orea
m ember
er ed
ĠW esentlichen
ĠV ancouver
ow itz
ĠSt ark
ĠIn se
Ġun able
tr es
ob i
Mit tel
Mod ell
ĠVolks zÃ¤hlung
Ġstehen den
.... ....
ĠRestaur ants
Eis hockey
flo at
Rou te
J e
P rÃ¼
c am
p df
Ġb io
Ġo ven
Ġv ierte
ĠF ell
ĠF ollow
ĠK orn
Ġg aben
Ġl ust
Ġth orough
Ġsich ern
ĠAl aska
ĠDeutsch es
ĠReg iment
Ġhand ling
ĠOber bÃ¼rgermeister
ĠCon nection
Ġspecial ist
US A
sicht lich
Ġalong side
Ġoffen e
valid ate
Names pace
ĠSchÃ¶n heit
Ġmo ist
ĠLux emburg
ĠLear n
ĠfÃ¶rder n
ĠBerat ungs
A ber
U UID
W asser
u den
Ġt elling
Ġb undle
ĠB uff
ĠP osten
ĠK ein
ĠK ohle
em pty
Ã¶ mm
ĠN ations
ou is
ĠEr gÃ¤nz
19 14
ĠEin fach
Ġvor kommen
ĠÃ ģ
Ġrec re
ĠHand y
ĠBand s
ĠDo es
druck t
Ġconf ident
Ġed it
ĠZe ug
SS R
ĠÃ¤hn liche
Ġfra uen
Ġtransport ation
ĠTemperatur en
Ġsem i
ĠScot land
ĠSaarb rÃ¼cken
h armon
j ack
Ġs itzen
ĠS ug
ge legen
st unden
ĠG ur
ĠE C
ĠE cke
ĠJ Ã¼n
ab a
ver gleich
ĠSch rÃ¶
ak ten
ĠAn bau
Ġle ts
ungs ort
19 71
19 79
ign et
Ġmy th
ĠNe v
uer ei
Ar gs
iff s
ĠKon stantin
Ġfr amework
code d
Ġ% .
Ġpass enden
Ġander erseits
IT E
ĠgrÃ¼ n
ĠHÃ¶he punkt
ĠWeiter hin
ĠÃĦnder ung
Ġschwier ig
F ranzÃ¶s
d est
g ung
h ain
k ers
Ġs inger
at hlon
he ader
un ken
Ġm a
Ġp hr
ĠM Ã¼ndung
ig i
ĠT ran
ĠP unk
ĠK ader
ĠW esen
ĠH enn
ĠC onn
ĠV ic
Ġge le
Ġor din
19 25
ĠSe lect
ĠBer ger
ĠGr Ã¶ÃŁen
ober flÃ¤che
ĠSk i
Ġpost ing
ĠBerg bau
back tracking
ĠSpr ung
Ġport ion
Ġport folio
ĠzusÃ¤tz lichen
ĠLehr stuhl
Ġexpla ined
ĠPersÃ¶n lichkeiten
nor mal
ĠKent ucky
B ek
F rÃ¼
d ichte
Ġb odies
il iate
ĠG umm
eit her
Ġer a
est one
ass o
kt oren
Ġver zeichnet
op ran
ĠIn format
Ġde fense
Ġle hrte
ĠBe fest
Ġte x
Ġar gentin
ĠEx emplare
Ġag ents
ĠTra ck
ĠTr end
Ein wohner
Ġinvest ors
gere chnet
Ġsorg te
Ġfung ierte
F ull
f ire
l on
Î ½
ie ge
Ġm Ã¤cht
ĠA tem
Ã¤ nen
ĠW id
Ġbe auf
id ad
Ġauf merksam
ho en
tel la
ĠPr Ã¤sent
Ġinter active
ĠTr ip
Ġdesign ers
schl Ã¼ssel
ĠCo ach
ĠGu y
Ġturn ing
Ġpain ted
ĠEigent um
tor hÃ¼ter
Ehr ungen
Kirchen gebÃ¤ude
H C
a os
s ingle
or ks
le tes
ro se
Ġp rÃ¼
ĠF unction
ĠG rant
Ġz ogen
ĠH arb
ĠN ut
ĠSch uh
ĠJahr gang
ian e
An gabe
ĠFre md
Ġreg ions
ĠStand ards
uff ix
Ġconne ctions
ĠTest ament
Ġindividu ell
ĠIr land
Ġstru ctures
Ġmem ories
Gra f
Ġkont inuier
Ġrom antic
ĠTenn essee
ĠJos h
ĠFranzÃ¶s isch
Ġabgeb rochen
ĠKurfÃ¼r st
2 50
S ite
p iegel
le ans
Ġv olle
Ã¤ p
ic ts
ĠG ift
ĠR eiter
ber ater
ein richtung
if ikation
Ġfor est
ĠU rauf
Ġat temp
iz able
ĠÃ¼ber zeugt
19 19
19 27
ĠEin kommen
out put
az itÃ¤t
fin det
ett a
ĠGra ben
leg ate
ĠOber liga
Ġass ociation
Ġperson ally
alle utnant
Ġrelat ively
cont ainer
Ġcover ing
Ã¤mp fer
Ã¤mp fung
plan ung
ĠOs nab
Ġdur able
Ġagre ed
ĠtÃ¼rk ischen
ĠBesatz ung
Ġdistin ct
Ġagr ic
ydra ul
s n
w ein
w inkel
Ã ®
Ä Ĺ
Ġt ap
Ġt ack
ĠS yl
Ġb ars
ĠD y
ĠH ost
ĠC ott
Ġbe igesetzt
Ġst ainless
ou x
th at
ĠAb lauf
ĠPr ime
fahr ung
Ġrec ipes
Ð¾ ÑĢ
schein lichkeit
ĠKind heit
Method s
Ġclos ely
ĠKriegs gefangen
ĠPil ot
Column s
ĠKommand eur
ĠVerl Ã¤ngerung
Ġcompar ison
ĠPersÃ¶n lichkeit
ĠFant asy
ĠSecret ary
Ġuntersch rieb
Ġcris is
Ġelig ible
E hren
m os
Ġ 000
Ġt um
ĠS ri
ĠA lice
Ġv it
ĠB uk
ĠB urm
est het
ĠSt ick
ver halten
Ġbei der
Ġ" .
be teil
Ġpr icing
par tei
Ġbes tellen
ĠVor schlag
ĠQu ality
Ġra us
Ġgr ass
iste te
ĠSÃ¼d ost
Object s
ĠRem ote
Com ment
Ġbede uten
Mon th
Ġobtain ed
Ġengag ierte
ĠJahrzehn ten
Ġmensch lichen
ĠWik ipedia
ĠFilmp rodu
Ġhinzuge fÃ¼gt
N et
P ark
c ms
h our
ĠA ra
Ġn one
ĠD ame
ĠW erbung
ĠC ash
Ġre produ
if ies
ĠU C
Ġr Ã¤um
19 82
Ġent decken
Ġen orm
Ġ9 7
ĠSta ates
ĠMon ument
stÃ¤nd ig
ĠChar ts
Ġcoun sel
If c
ros sen
Ġcreat es
ĠCal c
Ġregul ations
Ġevangel ischen
Ġserious ly
ĠElect ric
ĠInner en
Ġestim ated
ĠHild esheim
Ġfasc in
P lay
o be
s u
w ender
ç Ķ
Ġ Ø
ĠA sp
Ġh art
ĠT un
ĠF inger
ed u
Ġfor ever
ĠSch los
eb au
ok a
Ġwe ap
Ġwas h
ĠWe iler
ĠIm mer
Ġev olution
Ġpublic ation
Ġdec ade
bre ite
Vor pommern
ĠZust immung
ĠSter nen
ĠEvangel ischen
Ġschwar ze
Ġengag iert
Ġjud ge
Ġhighl ight
ĠNiger ia
ĠGit arr
D etail
H al
S R
r ia
z ule
ar us
ĠA kte
Ġo cean
Ġc riteria
Ġh alt
ĠF o
ĠI ra
ra gs
em pf
ow o
ian ces
Ġres ume
Ġtr igger
Ġ9 3
onn ull
rif fe
ĠSo ft
Ġplan et
ĠWest falen
hol ders
Ġeing est
Ġla ptop
Ġposs ibility
Ġ185 3
Ġ185 8
ĠOper a
Ġprim arily
umin um
Ġgek ennzeichnet
Ġausgeb ildet
A g
in ch
ch annel
it led
Ġin du
Ġm i
Ġn Ã¤chst
Ġh ang
ĠF ortun
ĠR ick
tr ess
Ġaus einander
ĠVer sch
ĠEr hebung
ov iÄĩ
19 32
Ġen abled
Ġen han
ook ie
ator in
con nection
ĠCon fig
Ġass um
ograf ische
čĊ čĊĉ
film ung
war f
ĠEmp fehl
Ġinform ed
sequ ent
Ġwid ely
ĠAT P
Ġcru cial
ĠEqu ipment
Ġausgesch ieden
ĠRuh estand
ĠWachst um
Ġgg f
L ei
m g
n ische
ĠS D
ĠB enz
ra it
Ġl ake
Ġl Ã¶sen
Ã¶ te
ib us
ĠAn walt
lic ke
Ġwor se
ĠUnter k
ĠFe ier
ĠEd itor
Ġann iversary
Ġfac es
ĠBrÃ¼ ssel
ĠForsch ungen
Sh op
Ġfort an
kor de
Ġausgew iesen
Ġforder te
ĠEber hard
t ask
Ä ħ
Ġb lank
Ġf inger
ĠB ibel
st es
Ġch apter
ĠBe frei
Ã¤t tern
19 44
tell te
Re al
Ġtra g
Ġco ordin
Ġlie ber
Ġact or
Ġabsol ut
Ġinvest igation
ĠLu is
ĠEt appe
Ġimmed iate
dor fer
ĠverlÃ¤ng ert
! âĢĿ
( !
Ġa ck
ĠM aut
Ã¤ fer
ic ut
ĠI ss
ĠI owa
ĠH ip
ĠR ain
ĠL ade
Ġk aiser
tr itts
Ġunter teilt
Ġte ch
pro of
ĠMa ine
Ġgr amm
ĠSel f
wor ld
Ġ185 7
UT F
Ġblock s
Ġhei ÃŁen
ĠChamp ion
ĠPrem ium
Ġliter ature
Ġsup erv
ĠOpp osition
Ġpow der
I hr
M oder
Ġs tet
or ium
Ġv ollen
ĠM ul
ĠF Ã¤lle
ĠH P
ĠL ith
ĠN utzen
Ġy e
ĠSch atz
ag ues
Ġbes ter
ĠNe g
Ġgew idmet
ĠNord amerika
Ġide en
ohl en
bl og
Pr int
ĠKo alition
ĠIde al
ĠLou ise
ĠBru ce
Ġbott le
Ġrepla ced
Ġerinn ern
Ġil legal
Ġfinanziel len
Ġauthent ic
Ġscr atch
Ġeigent lichen
Wor ld
ĠCapt ain
Ġausreich end
Resol ver
B lack
s um
Ġd ental
ro tt
ĠF lieger
ĠG Ã¶r
ĠZ ut
ĠVer leihung
oc o
19 50
ens ation
atur en
Ġsh irt
Ġtra v
ĠAd vis
Ġno ted
Ġnun mehr
Ġstor m
Ġprom ise
Ġcap abilities
Ġarch Ã¤
ĠStat istik
Ġmer ch
Ġbedeut ende
Ġchrist lichen
ĠDir igent
Ġspirit ual
ĠeigenstÃ¤nd ige
ĠMisch ung
ĠHarr is
L ED
N onnull
Ċ ĠĠĠĠĠĠ
at sch
ro hr
ĠM ine
ĠD ass
ol as
ĠK riterien
ĠL ichten
ĠV ice
Ġk onserv
Ġan al
Ġan alog
ĠSch uss
ag an
qu ar
Ġres et
iss ions
ipp i
ĠSc ript
ĠVers icherungs
sw itch
ĠBel ager
ĠDu ke
stre ifen
ĠGed icht
ĠStad ium
ĠBaum w
Ġcommon ly
ĠViertel finale
Ġdiagn ost
Cert ificate
Ġstyl ish
Ġverab schie
Ġworkshe ets
Ġpersonen bezogen
H D
h ungs
nd orf
Ġv ib
ĠB ug
ĠB ott
ĠB lau
ĠD allas
ĠP ear
and ra
ĠU V
af eln
ĠAr ena
Ġ18 18
Re zeption
Ġfin ance
Ġseit her
pl us
gl as
ĠInd iana
Mit te
ĠSer b
trÃ¤ cht
ĠBi ografie
Ġ185 2
Ġ180 6
Per iod
ĊĠĠĠĠ ĊĠĠĠ
hab t
Ġinj uries
Ġnorth ern
ĠbeschÃ¤d igt
Ġb lau
Ġf esten
ig nete
ĠE ier
ĠL utz
ĠC art
Ġl ists
ck te
ĠO ste
Ġch ose
ĠBe cker
Ġent rance
ph ys
Ġbes tellt
ĠPr ize
zeit lich
Ġins ight
ĠSte wart
ĠEs c
Ġ12 00
Ġcons ist
ĠBet racht
ĠStra hl
Ġbl end
Ġgef angen
hol der
Ġphot ographer
Ġeinge gliedert
amb ling
Ġnieder lÃ¤ndischer
lemen ted
Ġcas ual
wal de
Ġlos ing
penden ce
ĠErschein ung
ĠNR W
Hinter grund
G ed
Z usammen
a ine
b te
h ten
h Ã¤ngen
m atcher
Ġ æ
le id
ich s
de p
ĠK han
Ġbe zÃ¼glich
est on
Ġst amp
Ġch annels
ĠAr ist
19 12
land schaft
ĠMar athon
res ol
Ġover w
ym ph
mÃ¤ cht
Ġclass room
ÃŃ k
ĠBut ter
ĠBas ic
ĠPaul o
ĠFlor a
Ð¾Ð »
ĠUrs ache
dor ff
Ġnied rig
ĠLokomot iven
ĠInnov ation
/ -
B ER
u ous
w enn
č ĊĠĠĠĠĠĠĠĠĠĠĠĠĠĠĠĠĠĠĠĠĠĠĠ
Ġm ask
Ġo vers
el ly
ĠD ial
ig o
ĠR as
ach se
ib l
Ġme als
ĠAr me
ĠBe cken
Ġres ort
ĠGra y
ĠKon ferenz
ins eln
RE D
ĠPal ast
Ġdivers en
Ġtal ks
Ġhop ing
Ġprincip les
Mart in
gewÃ¤ch se
F ot
M apper
T wo
f ot
s ql
le e
ro ke
ĠM Ã¼ll
ĠE ffe
ĠL ack
ĠL loyd
ĠAl abama
ĠAb ra
ahl en
amp a
fahr zeuge
org ungs
Ġgu ard
Ġpass ing
ĠOff iz
Ġfest gestellt
Ġdi am
Ġentwick elten
ĠKirchen gemeinde
ogn ition
ĠImp ro
Ġeurop Ã¤ische
ĠGesetz es
Ġrecogn ize
ĠMuse en
ĠEinzugs gebiet
Ġverhaf tet
C ost
C ounter
L imit
M erk
c ut
us che
ĠB reit
Ġ1 12
ĠT am
ĠK ate
Ġer leich
Ġk r
Ġge ar
Ġge fe
op ath
ag u
19 21
Ã¤hr ungs
ĠNe useeland
Er stellt
let ten
Ġmon at
ĠMin istry
ĠIs lands
ĠDurch schnitts
ĠFrei will
Ġwichtig ste
Ġgenau e
ĠMr s
Ġrecogn ition
Ġinstru ction
friend ly
ĠAP I
ĠProduzent en
I AL
R ole
f indung
en ke
in ternal
Ġw Ã¤ren
as ie
ĠD Ã¼
ĠT ell
ĠR ound
Ġl Ã¤nd
Ġk ommerziel
ĠSt if
ĠSt ufe
Ġge kauft
Ã¼r mer
ĠO F
end ant
ĠĊ ĊĠ
Ġex pr
ĠUn i
Ġvor Ã¼ber
Ġunter schieden
Ġad van
Ġup grade
chn ungs
pro perties
ĠZeit schriften
ĠKon stanz
ĠMon ey
Ġerfolg ten
Ã¤us ch
Ġpolit ics
kon zept
AC H
Ġerreich bar
ĠTro cken
Ġextra ct
ĠWal ther
ĠDel hi
Ġindividu ellen
Ġrule X
Annot ations
Ġchem ical
Ġsouth ern
ĠStruktur en
ĠDemokrat ie
ĠRett ungs
M el
R und
R ows
T her
l Ã¶s
n ord
u in
z elt
an ke
Ġm useum
Ġv ir
st het
ĠD OC
ĠT ieren
ĠI M
ĠK inos
ĠK alender
ĠR ight
Ġim per
ĠSch iller
ĠZ eile
qu ote
aus ende
Ġhe il
be griff
ac ular
tz t
ĠMar cel
ĠLand rat
ĠVor stellungen
ĠFl ur
Pro p
An fang
Ġgu idelines
Ġsm ile
ĠMÃ¤n nchen
ĠFinanz ierung
Ġverhinder t
Ġil leg
ĠPlÃ¤ nen
ĠlÃ¤ng ere
Ġeigent liche
ĠPok als
G R
K S
S aison
f angen
k ter
l uft
å Ī
Ġm ile
ĠH altung
ier ra
lich ten
Ġge arbeitet
ess ing
Ġcom men
.. ...
ĠJahr buch
Ã¤t igung
ĠTh ink
ick el
ian er
auf lÃ¶sung
Ġcomp act
cl udes
ĠGesch lecht
lÃ¤ ub
li ament
ĠZw ar
Ġcons istent
Ġmin ister
ĠÂ °
Ġabge lehnt
ĠLang uage
ĠMotor rad
ĠPublik ationen
Ġpoln ischer
Dec imal
rec ord
Ġvict ory
ĠWett kampf
K reuz
L Y
T ok
W eiÃŁ
n Ã¼tz
Ġ ^
en ted
Ġd ad
le ton
am ic
ut a
ĠT otal
ĠF usion
ĠW itt
ĠR ak
ĠC ommer
and el
and em
Ġan gle
ĠO regon
Ġauf zu
Ġver lei
ĠEr mitt
hn er
Ġch art
ast ing
19 00
ĠY outh
ĠY oga
ĠVor name
ĠStadt gebiet
De vice
ĠZw angs
Ġdown town
ĠProdu ct
ĠHaupt mann
ĠPart ien
laub nis
ĠMor gan
Sp an
ĠHel p
ĠAk adem
ĠBi ographie
Ġaufge geben
Ġref resh
chten stein
lÃ¤nd ern
ĠPan el
rÃ¤n ke
ĠViel falt
onym ous
Ġguarante ed
cla zz
Ġexter ior
ĠBam berg
hedr ale
Ġtourn ament
E A
p ons
å ¤
at ively
Ġf t
Ġm g
ĠB Ã¤r
Ġc ater
Ġ1 17
ed el
em eter
ĠL ug
Ġge lingt
la in
ver leihung
Ġver folgt
19 73
ens atz
me yer
ĠTh ai
ition en
Ġman chen
rÃ¤ der
ins atz
Class Loader
ĠGew inner
aur us
Ġfest ge
Ġreal ized
Ġâ Ī
bed ded
Ġlaw yer
Ġinstall iert
ĠKaiser reich
ĠHerzog tum
usst sein
ĠPop ular
ĠDisk uss
Ġprefer red
ĠBrig ade
vorsitzen der
ĠErwachsen en
ĠKabin ett
H tml
N a
S pl
T x
c ache
l ov
u der
Ġw rap
Ġin folge
ĠB in
ĠT reib
ĠI tem
ĠE asy
ĠH ed
ĠH ous
ĠL aus
Ġbe grÃ¼ndet
Ġer fasst
ann y
ĠZ eilen
Ġwar n
ĠAn im
Ġso fa
ĠDe kan
19 68
ĠSie ge
ĠTe uf
geb ir
ipp en
ĠAt tra
Ġmod ified
ĠKn ochen
Ġeng ines
Ġter min
Mod us
Ã¤ll ig
Ġaufge hoben
ĠTour isten
ĠSw inem
ĠPet ro
ĠRead ing
stud ien
Ġverste ht
Ġremov al
bas is
ĠJon athan
Down load
ĠLÃ¤nd ers
ĠFreist il
Ã¤rn ten
ĠDok umente
E ben
F uÃŁ
k ong
at in
at ile
ĠB ret
Ġp it
ĠT ODO
âĢ ²
ĠW asch
Ġbe ziehen
Ġdes c
() ),
ĠDe cken
ac ional
iet ies
ĠEx empl
Ġimp ossible
Wh y
ĠTre ff
ĠCla ude
Oper ator
ĠÃ¼b lichen
OW N
ĠMov ie
Ġsitu ated
ĠBundesver dienstkreuz
Febru ar
Ġausgestra hlt
ĠSwinem Ã¼nde
D oppel
I hre
K ur
N ummer
g ue
an ced
Ġv oc
ĠM other
ĠM Ã¼hlen
ĠT an
ĠF erner
ĠW inkel
ver Ã¶ffentlich
ÃŁ er
Ġun known
pe te
ĠRe chnung
ip ts
Ã¤n zer
Ġwor st
ac c
Ġcont aining
Ġrec ip
rif tsteller
Ġger ingen
Ġvis ible
kir ch
zentr ums
Ġerr ichteten
ĠAnt arkt
So ftware
fest ival
fÃ¤ll t
ĠJob s
ĠSchwar zw
Ø§ Ø
hav ior
Franz ose
H ers
M r
h igh
w atch
ĠB uen
om y
ĠK ansas
ĠH us
ĠN ich
ĠV II
ĠJ ason
Ġre iste
Ġden ken
ĠVer anstalt
iz on
ĠSp ons
19 35
erk raft
ĠAb stieg
ĠMar in
ser ien
sh op
schlieÃŁ en
ĠBas il
Ġkon zip
Ġaufge teilt
deutsch er
ĠEhe mann
Ġhor izont
Exec utor
Ġpoln ische
Ġbege g
Ġsav ings
ĠChron ik
Nor mal
================ ================
franzÃ¶s isch
C ard
b om
b ald
f ly
r ent
Ġa ims
Ġw ander
Ġf emin
Ã¤ ne
ol ith
ĠT ool
ĠI an
ver anstaltungen
Ġun us
Ġpro spe
Ġcon cepts
pr es
Ġ18 45
nen nung
uld a
ĠNe um
ĠBes tellung
ĠHand lungs
ĠMed ik
Ġreal isiert
ĠPat ri
Ġsever e
190 2
ĠKle id
Verein igtes
Ġcelebr ation
Ġerziel en
ĠPrÃ¤ fektur
ĠRegierungs bezirk
ĠSÃ¤ ulen
ĠOk res
ĠAust in
Ġbul gar
BÃ¼rger meister
Ġeingew eiht
J J
P okal
S M
c ements
r ible
w Ã¤hlen
z it
es c
Ġt ur
ar ma
ĠS ix
Ġf Ã¤hrt
ĠA hm
ĠH appy
den ken
Ġr ichtet
ĠIn halts
ate au
se ction
19 24
Ġsp ots
Ġent stamm
Ġen ables
Ġ4 50
Ġar ms
iker in
Sch on
ious ly
ĠAnd y
Ġdr iven
ĠArt ik
ĠMag net
Ġprom pt
ĠThere fore
ĠmÃ¼s se
Ġtreat ments
Ġocc as
Char acter
Ġbere chnet
ĠDet roit
ãĢ ģ
Ġbegeister t
O U
j oin
ĠS H
ĠP aint
ĠW iesen
Ġge heim
ĠO ran
19 31
Ġ9 1
mann schaften
br unnen
ĠSc ient
ex ception
ĠProdu cts
ĠGew Ã¤sser
ĠSw iss
190 9
Ġmag ic
Ġdiscuss ed
ĠZwe cke
kle idung
ĠFrÃ¼h stÃ¼ck
Ġkrit isiert
ĠprÃ¤sent ieren
ĠPorn o
ĠThr on
ĠTats ache
ĠÃ¶rt lichen
ĠVerstÃ¤nd nis
C ell
P G
P red
T ax
f ein
Ġd rag
es tet
Ġg utes
ĠJ immy
Ġis rael
Ġzu ges
ĠIn valid
Ġun ion
ib Package
ĠEr be
ĠSp ain
ĠTe ch
ĠSe attle
ĠEn kel
Ã¤hr en
Ã¶l z
gend a
pl ibPackage
Ġsupp liers
ĠHaupt bahnhof
ĠMag d
ĠRÃ¼ck tritt
less ly
Ġzahl en
ĠFin ance
ĠBro t
ĠBesch luss
ĠAnt ike
ĠRel ief
ĠÃ¶ff nen
ĠnatÃ¼r liche
ĠErk enntnis
mot oren
ĠSter ne
ĠverfÃ¼g te
Ġsav ed
Ġincred ibly
Ġbelg ischer
ĠBeam ten
ĠBurm ester
S y
s uper
Ļ Ĥ
re p
ĠS EO
Ġin tell
Ġund ert
Ġh insichtlich
ĠP est
ĠW ester
ĠC V
ein richtungen
gen s
Ġle istungs
iz ers
AS K
Ġoper ated
Ġflo ors
umb ing
Welt meister
Ġregion alen
Ġarr ival
sta ats
Ġcrit ic
Ġrefer red
Ġscient ists
Hash Map
Ġbeob achten
Ġscen es
ĠanschlieÃŁ enden
ĠKob lenz
Ġd ot
Ġt ill
ĠS ain
ĠB ibliothe
Ġc enters
ĠF res
ĠG R
et a
ĠR iv
Ġwh ilst
Ġcon tribute
Ġle af
erk rank
ĠOr leans
teil ten
Ġint ent
Ġfr ustr
ps ych
AT ED
halt ungs
Ġben utz
umm y
Ð¸ Ð½
Reg ie
ĠTyp en
Ph ys
Ġannoun ce
Ġcommit tee
ĠKomment are
ĠVerteid igungs
ĠVoraus setzungen
Comm on
verl ust
Ġlif etime
Ġeindeut ig
I con
O wner
S el
n umber
É Ļ
Ġ ul
Ġs ummary
Ġf as
ĠA uÃŁ
ĠA sk
ĠA gn
ro b
Ã¤ ts
ĠF iction
ĠF ashion
ĠL iss
ĠJ oy
ĠZ er
Ġver standen
Ġr ug
av ed
erv ed
St orage
ail ing
olog in
ĠSchw erin
ĠEx port
Ġprodu cing
Ġsho ot
ĠAt las
ĠSol id
Ġenter prise
Ġess ays
Ġaddress es
lemen s
Ġwissenschaft licher
Mon itor
ĠMary land
ĠÃ¤uÃŁ eren
Ġcrow d
ĠplÃ¶tz lich
ĠBuffer ed
ĠSok rates
F k
F eld
J a
M AT
f ranken
z es
Ã ¯
â ĪĴ
Ġn ights
ĠD Ã¼r
ĠP yr
ĠF ly
ĠW ettbew
ation Exception
ab ol
ver arbeitung
ĠSch ra
ĠZ wer
Ġpro s
iz a
19 34
ĠSe ktion
row s
fen b
amm ad
Pro gress
rif ft
oy al
ĠCon rad
ĠÂ ©
Ge gen
Ġeinfach er
IC E
190 8
Ġ185 1
hÃ¶ hung
Ġop ens
ĠCent ury
Ġcolumn s
Ġevangel ische
ĠAntw orten
ĠSym ph
wÃ¤rt igen
Ġrout ine
h ot
m ult
Ï ģ
Ġm ath
ĠA tel
ĠB lat
ĠM s
ĠW oll
Ġg iant
ĠR s
ĠR ights
Ġbe arbeitet
ber ge
Ġpro xy
Ġab gelÃ¶st
Ġsch lÃ¤
Ġcan cel
omp son
ĠSchw Ã¤b
Th omas
ĠEx am
Ġbek leide
Ġsol ve
Ġcol ours
ĠMittel meer
klÃ¤r t
Ġgewann en
190 5
ĠSÃ¼ ÃŁ
Ġens uring
ĠFÃ¼hr ungs
Ġresource GroupName
fried hof
ĠAuss agen
ĠCorn el
ĠGle is
Ġdram atic
izien z
Ġsomew here
ĠiP ad
A ir
F iction
M sg
m achen
Ġa er
Ġw und
ĠS ultan
ĠB eth
st ufen
Ġc er
ĠP ension
age ments
19 77
ĠLe ader
ĠGe fe
ĠFl ash
ĠGr ill
Ġ10 5
imm ern
ĠGrÃ¼ nde
ĠDesign s
Ġfocus es
Ġkosten lose
Ġkont akt
Rel ig
fÃ¤ll ig
Ġplatform s
Ġign or
ĠErzÃ¤hl ung
Ġevalu ate
Ġsurpr ised
ĠJed och
Ġchamp ions
' '
J ECT
j Ã¤ger
n ote
z ucht
Ġb are
as ted
Ġin telligence
Ġc otton
ĠT Ã¤ter
ĠC ape
Ġan grenzen
Ġver trieben
ne uer
ib ution
ran e
Ġle ague
Ġwe iss
Ġ18 47
ĠSp alte
19 60
Ġsp ir
ĠAl ban
los er
De claration
Ġevery where
Ġgesch ickt
Ġsu ite
ĠSaison ende
Ġbesonder er
Ġcr usher
ĠPal ace
bet riebe
Ġnational sozial
Ġocc urs
ĠProble men
ĠKle ink
ĠKol onial
ĠSilber medaille
ĠPrinz essin
ĠExper iment
Ġbem Ã¼
ĠRep ubl
Ġelektr ische
Ġrob ust
Ġphotograph s
ĠMitarbeit ern
ĠBeweg ungs
hoen ix
= \"
K ont
L uther
R ight
T ex
b rechen
u u
Ġt oler
Ġs ending
Ġs auber
al ben
ĠA BC
Ġn odes
Ġh urt
Ġh ydro
ĠF ett
ĠE ro
Ã¶ he
ĠSt Ã¤rke
Ġst ake
op ing
ern t
ĠAn other
sp reis
ant a
19 64
19 42
Ã¤r er
Ġad op
ish ment
Ġno ise
vent ional
let ing
ĠAut os
ĠNor bert
ĠStud y
Ġange kÃ¼nd
Sie ger
ĠWor te
Ġlist ings
ĠRuss ell
zy linder
Ġnatur ally
Ġzwe ig
Ġren omm
Ġcomb ine
ĠLear ning
Meta Data
Ġconflic t
H alb
K Ã¼nstler
c atch
o zi
Ġd ivision
Ġs amt
ĠS I
as ters
ĠT ap
ĠF okus
ĠH Ã¤usern
ĠC reative
Ġr ib
ĠIn fe
19 26
19 37
ĠAus gra
Ġad mit
olog ist
rei hen
Ġfin est
Ġger man
eiter ten
ĠGew ichts
Ġresult ing
Ġsl ots
190 4
Ġ180 3
kn Ã¼p
ĠAnn ual
ĠRob in
ĠVe ctor
Ġregistr iert
ĠUt ah
Ġbird s
L B
P ublic
f isch
r isch
t ages
or iginal
ĠD est
sch lossen
ĠC hal
ĠIn putStream
ĠAn not
Ġse ed
Ġhe ating
Ġ18 44
19 41
ake te
Ġper mission
ĠNe ug
fin anz
alen ted
Ġem b
Ġmar ks
Ġmethod Name
Ġident isch
ãģ ®
Ġcontrol s
ĠMos k
gesetz es
ĠStad trat
Ġcir ca
Ġdeal ing
Ġsil ber
Ġtag ged
ĠVertra uen
ĠReihen folge
Ġnav ig
ĠjÃ¼nger en
ĠMalays ia
A ctive
u als
he ast
Ġp Content
ĠK ilometern
ĠH ass
ĠC hl
ĠJ h
Ġge zwungen
ĠZ en
sp olitik
igen en
ĠSp ar
Ġunter stellt
ĠAus b
omm y
cl usion
fl Ã¼sse
ĠPar ad
ĠPh ill
Sch edule
bau werk
Ġfr isch
ĠRad rennfahrer
Ġgem Ã¼t
Ġabge leitet
Sc ale
ĠErw in
ĠTal ent
Fernseh film
Ġcra ck
Produ ktion
Ġachie ved
ĠBege gnung
ĠWeimar er
ĠInternets eite
Hall o
Ġermor det
C le
K ritik
M ass
S eite
g ast
k ommission
m Ã¤r
à ¹
at iver
ar ent
ĠS R
ĠK ok
ĠW affe
ĠR uth
ĠL yn
id as
ien te
Ġle ichte
Ġsie gte
enn zeichen
ĠUnter richts
ĠPf licht
Ġzusammen gef
Ġgra u
ender s
ĠWor ten
ĠWohn ungs
ĠWar um
ĠLandkreis es
Ġgre y
ĠHeimat stadt
gehen de
ĠRos a
ĠMount ains
ĠHu bert
Ġpred ict
iale kt
Ġintens ive
ĠWit we
Dav id
1 000
F ach
P ap
V iele
a ired
d ates
f onds
k am
m ass
p ower
á ¸
in cluding
at io
ĠM az
ut ung
ĠT iger
ĠT ower
ĠL ese
Ġl aser
ĠN an
ĠN ash
Ġfor th
Ġauf einander
ei de
og ramm
ĠEr ik
Ġle iden
19 67
ite kt
Ġman agers
use el
Pro file
Ã¼nd er
ĠAd ams
ĠGeb Ã¤uden
ĠÃľber leben
Ġact s
ĠBet riebe
kehr en
ĠChar lie
Ġsim pl
ĠSant iago
Ġreason able
Ġpriv ile
ĠDokument arfilm
ĠRen Ã©
ĠUR I
ĠOk lahoma
ĠkÃ¤mp fen
ĠPed ro
ĠWord Press
Ġnutz te
ĠBeaut y
ĠTai wan
ĠVerbrauch er
S w
f lag
i ologie
l iment
m isch
Ñ ħ
ch ens
Ġd ent
un sten
ĠA kten
ĠD eine
Ġh orn
am ents
ĠK enntnis
em er
em en
Ġl ib
Ġth in
ier re
Ġver dien
ĠVer pflicht
igen schaften
Ġall gemeine
fer red
iss ippi
Ġtr im
ĠFl otte
Ġprodu cer
off er
Er n
ĠSpiel film
ĠCar r
ĠIs a
ĠVers uche
Ġteil en
Ġgem essen
Ã¤m me
CO MP
ĠCD s
fon ie
ĠVis it
Ġregard less
Ã¤rk ung
Wind ow
ĠVinc ent
ĠAfghan istan
E lekt
L ud
T F
h all
k ol
l t
n n
z esse
Ġ iv
Ġd ual
ĠS W
Ġb uff
ge wer
ĠA ktionen
Ġo d
st urm
Ġc tx
ĠT afel
ĠH i
ĠR ied
ĠC OM
Ġl ady
ĠO il
Ġaus zu
ran ten
get Resource
19 40
ome ter
ĠSe kretÃ¤r
ĠNach lass
12 3
min a
reib ungen
Ġmark ed
uk le
Ġeinz eln
Ġfre ier
Ġgef Ã¤r
Ġcheck ed
ragen den
ĠDem onstr
ĠSeit dem
Met ric
produ kte
Ġdeliver ing
sprach ige
Ġbetre ut
Ġbelie ved
Ġsinn voll
ĠmaÃŁ geblich
A BC
e u
p g
s i
Ġ ib
re aten
Ġb ild
Ġb anks
ĠL aub
Ġk ost
iv ation
eb y
Ġver ring
ĠRe formation
ĠRe ktor
Ġsch ema
rit iken
ide en
sh ut
ĠNe ver
ĠSte ink
add y
con f
ĠArt illerie
Ġcl ar
sche f
Ġperson s
asch a
Ġx ml
Ġleg it
ĠText il
190 6
esent liche
ĠAp ost
Ġconcern ing
Ġrelig ion
wal ts
Ġexpla ins
Ġhum ans
Ġzweit es
ĠdÃ¤n ischer
VerÃ¶ffentlich t
ĠLeiden schaft
ĠSchicks al
ĠUrauf fÃ¼hrung
C opy
P P
g ert
g ins
u ce
Ġm un
ĠB rem
ĠD O
ĠG ute
ĠH ad
ĠH Ã¼tte
ĠR acing
Ġer e
Ġer ot
id al
th ese
op ed
ĠRe chen
ĠAn pass
for cement
19 23
ĠTh ough
ĠGem Ã¼se
min ute
Ġhier zu
Ġpl ugin
ĠMed aille
Ġass ign
RE AD
Ġfound er
Ġstor ed
Ġret ire
Ġlik ed
Ġnormal en
Ġauthor ity
ĠImp lement
ĠAth leten
Ġdur ation
Ġslow ly
ĠCir c
Men u
ĠFriend s
Ġris ks
Ġcerem ony
# #
P ubl
w enden
č ĊĠ
Ġs aving
ĠF unktions
ĠAn alysis
ok u
her it
Ġbis schen
ĠDe ep
Ġnew est
ĠEin ladung
io den
ac cess
Ġpr ide
los ion
Ġbut t
Ġro y
ĠVor les
Ġjust ice
Ġph ones
ĠTr ue
ĠEl f
arr ier
ĠVers ionen
Ġrequire ment
irm ingham
viron ments
Ġant icip
Ġsug gested
check EMail
ĠSat tel
Co uld
ĠNamens geber
angeb ote
ĠVorder grund
spann ung
ĠBrow ser
ĠDak ota
checkEMail Adresse
B Y
I ll
R aum
p n
Å ¼
in stall
ie m
re ff
ĠM Ã©
Ġh ole
Ġh anging
ĠF avor
ĠH ob
ĠH allen
ĠR it
Ġl ies
ĠV as
ĠO berg
ine a
sp f
Ġunter lag
16 0
Ġpart ition
Ġlang uages
Ġcommun ications
ĠRegion alliga
Ġpolit ischer
figur ations
ĠRechts an
Ġpay ments
ĠErn est
Ġdro pped
Verkehr s
Ġincreasing ly
Mult i
Ġfla vor
Su ccess
ĠAx el
L aut
w ahr
Ġb unch
ĠH ahn
Ġ2 20
se arch
ert ungen
Ġor ig
hn s
Ġges tern
ĠGes ichts
Ġra cing
Ġstr ict
Ġrest ore
Mod ified
omet rie
Ġentire ly
Ġhum or
ĠHash Set
Ġbetre ff
ĠEins Ã¤tze
ĠSau di
Ġgrid BagConstraints
Ġscre ens
Ġerkenn bar
Ġcurren cy
Fk EMail
D ienst
o ons
Ġt we
Ġin halt
ĠB ast
Ã¤ sche
ig rant
ent on
ol ia
ĠF eb
et tet
ĠK ritiker
ĠL Ã©
19 46
erv ers
auf gaben
ĠMit be
Ã¼ck t
ĠMe ier
arbeit ungs
ĠAd vanced
ograph ischen
ĠOn kel
Ġexp lan
Reg ister
Ġpack aging
fel de
ĠErw art
ĠRu der
ĠJournal isten
Ġfunction ality
ĠTele f
Ġmaint aining
ĠGene hm
Ġexpos ure
Ġbayer ischen
I Z
U K
f uÃŁ
m il
er ber
ch ain
al id
Ġf ru
ig l
ĠG lock
ed a
ĠH Ã¤nde
ĠH armon
se lect
Ġaus gestellt
Ġj avax
ĠVer leger
Ġ18 43
ĠTh ose
ĠNe uk
Ġinter act
ĠPh Ã¤n
Ġind oor
Ver walt
ĠOber leitungs
ĠVerb reit
Nach bar
str ateg
Ġausge prÃ¤
ĠPat tern
Ġappro val
ĠTag s
Ġincre ases
Ġkomp lette
Ġoffic ially
Ġinvol ves
ĠerhÃ¶ hen
Ġempf angen
ĠVerkauf s
ĠJeff erson
Ġven ue
irurg ie
ĠInde pendent
Absol ute
Ġcircum stances
Ġanbie ten
Ġdenkmal geschÃ¼tz
! =
F ootball
R ich
s Ã¼d
Ġw ann
re kord
ĠB un
Ġc ultur
ter y
ĠG ol
ĠE mm
ĠE volution
ĠR um
ĠR ote
ĠJ i
ĠZ ert
Ġse g
get Path
iz it
19 11
Ġdurch ge
ĊĠĠĠĠĠĠĠĠĠĠĠĠĠĠĠĠ ĠĠĠĠĠĠ
Ġ4 000
dition ally
Ġmake up
ĠJan e
ĠMann es
Ġfl or
ĠVerb indungs
Ġteil te
wohn ung
Ġstatt fand
ĠHol y
Ġadd s
figur en
Ġequ ivalent
key Set
ĠEntscheid ungen
ãĢ Ĥ
ĠWalk er
ĠGesell schafts
Servlet Request
ĠNapole on
G lobal
H R
R ichtung
S al
U ST
k asten
r unden
Ġt one
re port
un ivers
ge ts
Ġm and
Ġm erk
ĠM end
ĠD ag
ĠD ritt
Ġ( +
am ann
ĠT amil
ĠK etten
sch uh
ĠL ic
ĠN FL
Ġfor g
ann over
Ġde cl
Ġde kor
sp rechend
ile t
Ġdurch setzen
Ġsc ores
sw ing
Ġcolle ctions
ĠMo ers
Ġinc ident
west lichen
ĠHeil bronn
ĠZe hn
Ġintegr ation
Ġcra fts
Ġill ness
Ger man
Ġlic ensed
Ġattack s
Ġarg uments
Ġstaat liche
quis ition
ĠEreign is
Ġkeiner lei
ĠSauer stoff
Ġkorre kt
ĠkÃ¼ mm
Ġfir ms
ĠâĪ ŀ
D isc
b ow
s ed
Ġd uty
Ġm ood
Ã¼ g
om i
ĠH els
ĠN HL
ĠSt reich
Ġhe av
19 63
tel finale
ges pr
ĠLand gericht
ĠNach kriegs
Ġgen utz
Ġgew inn
orf ul
ĠTra il
ĠStud iums
ĠNord west
Ã¼nst ige
Ġben utzen
ĠGener alleutnant
ĠPlan eten
fre unde
ĠNeu zeit
wissenschaft lichen
Ġpack ed
verb Ã¤nde
kn oten
195 2
gehen den
ĠgrÃ¶ÃŁten teils
Ġspan ische
Ġdise ases
Ġschwed ischer
ĠTschech os
ĠStan ley
ĠkÃ¼nstler ische
Ġstrug gle
Ġsurpr ising
Ġack now
B al
B us
F Ã¼gt
Z wei
b org
p us
w id
Â ·
in ations
ur ist
Ġf usion
ĠA V
st lichen
ent schieden
om ing
ĠF DP
ĠI ce
ĠG len
ĠK roat
ĠL ohn
Ġst range
Ġver lauf
ei ra
au c
ov o
19 36
oun try
Ġsh arp
dem ann
Ġgew isse
rÃ¤ um
ĠSo ul
Ġgeb unden
ĠMed ium
Ġcheck ing
ĠTo uch
Ġview ing
ES CO
Date Time
flug zeug
ĠLaw rence
ĠVis ual
Ġinde ed
Ġerz ielt
Pl us
ĠJahrzehn te
ĠProz esse
Ġgarant iert
Ġwarrant y
ĠHawai i
B order
W ohn
h ash
z ure
Ġd raft
at um
as m
ĠF itz
Ġl ip
ĠN ort
get Parent
St atic
ĠAus bruch
ĠReg isse
ĠZu vor
ĠEl s
Ġdiffer ences
Le icht
Le ague
Ġclass Name
Ã¶st liche
ĠEnt ity
Ġbr ut
Ġsw ing
ĠTre k
Ġworks hops
ĠTex ten
erke ley
ĠCal endar
ĠrÃ¶m ische
ĠAuss icht
ĠPhot os
Famil ien
ĠSym pt
Ġkanad ischen
Vis ible
ĠProt otyp
ĠSQL Exception
Ġbedeutend sten
H ave
j er
å Ĳ
Ġt ier
ĠĠĠĠ ĉ
at ra
Ġf ran
Ġc ul
Ġh ind
om ed
ĠP rad
ĠF ul
ĠW Ã¤hler
ĠH uss
ĠL etter
Ġer g
Ġre ception
Ġvon einander
ĠBe h
Ġtr ips
ĠUnter schiede
Ġob s
-- ;
En ts
ĠGemein schafts
pl Ã¤tzen
pf alz
Ġcl ip
ĠBest immung
ĠWil helms
Ġbed ient
verb indungen
Ġstay ing
ĠChem iker
Ġstrength en
Ġcontinu ing
ĠRail way
Ġlauf enden
ĠBroad way
beam ter
Ġamen ities
ĠInse kten
T AG
m ers
o ft
s d
s Ã¤chsischen
ĠF R
ĠF aust
ĠW inn
sch les
Ġge folgt
Ã¼r zen
kt iven
Ġcon stra
ĠÃ¼ber rasch
Ġman ip
ĠSe ch
Ġgen auer
ĠAd l
ym met
ĠTr ink
Ġsk illed
ĠDar stellungen
Ġdan eben
ĠForsch er
ĠHistor ische
Ġlow est
Ġdat iert
Ġfair ly
ĠPak et
ĠdÃ¤n ischen
Ġdrink ing
ĠBeaut iful
ĠGitar re
ĠShakespe are
H ey
N av
Z ug
j s
k inder
re b
ar ded
ĠS ometimes
ĠD ritten
ĠT ib
ĠF ine
Ġein gemein
ĠN Ã¶rd
ĠU k
ĠSch al
ĠIn stead
Ġde posit
ĠSe kund
ĠAus stellungs
ieren der
Ġspe aker
ĠJan eiro
ĠChrist i
vor stand
Class es
Ġ% ,
Ġchild hood
Ġmov es
Ġland sc
Ġant ib
ĠBahnhof s
pass te
Ġprem ier
PRO PER
ĠLy on
match es
Vol ks
zub auen
ĠðŁ ĺ
tran sport
Ġentdeck te
inv oke
Ġeg gs
ĠOsnab rÃ¼ck
E st
he bt
Ã¼ ten
ĠD ays
de c
ĠH Ã¶l
ĠC lemens
Ġbe weg
Ġbe half
Ġge ile
eb o
Ġr ural
ĠEr stellung
19 62
ĠSe hr
ĠBer ge
Ġwhen ever
Ġbo ards
ĠPe er
ĠWh it
ĠMet ro
str Ã¶m
Ġtrans lation
Ġlog in
Ġfeel ings
ibr aries
ĠZwe ig
Arch Ã¤
ĠHan au
ĠKult urg
Ġzeich net
ĠKel ly
Ġmaxim ale
AuÃŁer dem
MÃ¶ gliche
emeter y
G ood
L ear
f ull
k ons
an zeigen
ar mee
Ġb id
Ġf ont
ĠB reis
Ġp ics
Ã¤ ischer
ĠH R
ir r
ĠSch icht
ĠVer f
Ġam p
ord nen
Ã¤n gs
ĠCh ap
ĠNach kommen
onder s
eng ers
ĠPar allel
13 0
wer ben
Al ben
ĠMot oren
ĠBra ut
Ġmet adata
Ġhead s
Ġverl ieren
Inter val
ĠKommun e
ĠTrans fer
artet t
Ġdisplay ed
Ġtit les
ĠFur ther
ĠBedÃ¼rf nisse
ĠMultic ast
L ayer
b Ã¶r
i ja
k Ã¼nstler
re quire
ĠĠĠĠĠĠĠĠ ĠĠĠĠĠĠĠ
ĠF unde
ĠI wan
ĠK ick
ĠH Ã¼r
ĠR af
ĠIn itial
Ġpro t
ĠVer teilung
Ġhe aling
19 43
ĠHe gel
Ġmus cle
We ek
ĠRes ort
ĠInter ruptedException
ĠSÃ¼d amerika
ĠUr heber
Ġoper ator
Ġperfe kte
Ġant iken
ĠDec or
Ġdre imal
Bo den
Ġqualif izierte
pekt iven
ĠMarg aret
dar steller
Ġneut ral
ĠEtw a
ĠWupp ertal
) (
S EC
V ier
i ÃŁ
v ari
Ġ ),
Ġt a
ĠB owl
Ġp ipeline
ĠH amp
Ġver mittelt
Ġun f
art z
ok raten
ĠDe g
19 22
19 65
19 66
In halt
Ġcomp atible
app ly
ĠVor gang
Ã¤ch ter
dr ama
ina e
Ġshe ll
ĠWh ich
Ġdevelop er
sport ler
ĠBel ow
ĠProv inzen
Ð° ÑĢ
mark et
ĠRober ts
190 3
Ġlov ing
mon th
Ġaccount ing
Spe ichert
vis it
kathol ische
iro ler
AX B
ĠmilitÃ¤r ische
Ġbess eren
Ġcurr iculum
ĠOze an
, ...
G old
S aint
h Ã¤ngt
er z
Ġm olec
Ġm ixture
Ġe hr
ĠA chter
Ġc ou
ĠW W
ĠH ydro
ber gen
if l
Ġge leitet
be fehl
ite e
Ġen ger
per rt
Ã¼n scht
ĠÃ ©
ĠEn try
ĠY am
oy a
ash i
iver y
Ġstr ip
fo ot
ĠGrund schule
ĠCont ainer
Pr ice
Ġtradition elle
ĠHistor ischen
Ġstat ements
Land es
ĠDenn is
Ġintrodu ce
ĠGlas gow
ĠQualif ikations
Ġumfass ende
eme ister
penden cies
ĠDro gen
Ġpropos al
Ġwand te
Ġgez Ã¤hlt
Ġvolunte ers
ĠZerst Ã¶rung
Ġmittelalter lichen
Ġceil ing
ĠausdrÃ¼ck lich
F low
R hein
V arian
W hether
h lich
x ic
Ġb its
ĠB auf
ĠT ol
ĠT rÃ¤
ĠF at
ĠI ter
Ġl aden
ber ichte
ru le
erv ative
ĠCh Ã¢
ĠSe ction
ĠWe iss
Ġro te
hÃ¶r en
ett y
Ġges ichert
ĠSte ine
ĠPh ant
Un garn
ott a
Al though
bes te
mar ks
ĠGegen stand
Ġsens itive
Ġbelieb t
CON T
Auth ent
ĠSup reme
Ġforder t
Ġsech sten
Pres ent
C ondition
R eihe
T hr
h aut
p it
Ù ħ
Ġs olle
Ġs itzt
Ġb ug
ĠP oten
ĠH inder
if iable
ad apt
ĠSt Ã¼tz
Ġge gangen
Ġj ene
Ġab zu
ĠEr folgs
Ġex haus
ov Ã¡
Ġtr usted
String Builder
Qu elle
Ġthem es
bo ards
Ġfind est
Ġbre ast
AT O
ĠRes ources
Ġdel ight
AR N
Ġcal m
Ġbef Ã¼r
ĠLie ben
Auf gelÃ¶st
ĠAp i
Ġtw enty
ĠSied lungen
ĠWebs eiten
oles ale
Ġton ight
L ive
h Ã¤nge
in itial
ch el
it iert
re ide
Ġb asketball
Ġf ut
ĠB erkeley
ig ern
ĠG ieÃŁen
ĠH eld
sch reibung
Ġbe herr
Ġan gest
ĠSch af
Ġpro ps
se Exception
ru der
Ġ18 35
ĠDe te
ĠAl f
ĠTh ompson
to o
use ppe
iger ung
res ted
ĠGra ham
Ġ: :
ĠÐ ½
ux e
Ã¤uf e
Ġmet all
ĠauÃŁer ord
fert igt
Ã¼ll en
ĠRel ations
Ġerk ennt
Ġdig itale
Ġtemper atures
Ġord entlich
Ġfinanziel le
ĠPow iat
sthe orie
ommiss ar
ĠGalax y
spart ner
ĠAuseinanders etzung
Ġlyr ics
Ġnewsp aper
Ġintel lect
G O
L EN
R obert
m aster
n acht
v Ã¶gel
Ġ Ã¤nderte
ĠS lowakei
ĠB irth
ĠP ommern
ĠF ron
ĠG row
ĠG ibt
ĠC ant
Ġl aid
ul us
ĠN elson
Ġge habt
la ps
aus cht
Ġ18 37
Ġsp in
ĠVor feld
ock e
bar es
Ġviel fach
por ted
stein en
ĠAt tribute
ĠMittel feld
jÃ¤hr ig
Ġexp lo
Ġexp ansion
umb oldt
ĠAir es
Bau denkmal
Ġcommer ce
kathol ischen
hers tellung
ĠNachbar gemeinden
ĠLaur a
ĠAtlant ic
ĠmÃ¤nn lichen
ĠBulgar ien
Jose ph
Ġtiss ue
Ġeingemein det
> .
I ts
M D
V ID
d iv
Ġm or
ĠB ilden
st iegs
ĠG ian
ĠL oth
ĠC rit
Ġst uck
id x
ĠIn tens
Ġpro ceed
ĠDe an
ĠEn zykl
ster y
ĠVor gehen
ike a
Pro ps
Ġvers orgt
ĠZw eite
Ġange messen
AT TR
Ġbesch rieb
mar ine
ĠHoch wasser
Ġkein em
Ã¤nder ung
Ġrest lichen
ĠSan ierung
Ġbas ically
Ð° ÑĤ
ĠFranz osen
Ġtext ure
kor ps
ĠKommand ant
ĠBlÃ¼ te
Ġexcl us
ĠAf plibPackage
ĠWeihn achten
Bet rieb
ĠkÃ¤mp fte
Ġsuffer ing
Ġphilosoph y
Ġverurs acht
ĠBewe is
Assign able
B L
E ven
H y
c amp
k W
z antin
Ġd auert
re de
ĠB A
ent z
ĠL an
Ġk ar
ein kommen
ess ischen
ĠSch re
Ġr anging
op es
Ġpro ve
ĠVer folgung
ang riff
Ġ18 16
19 13
ian ischer
ring s
ĠGe fÃ¼
ĠNe ut
ĠEx pert
ĠBo ys
ĠFe ature
ĠJohann a
Ġeinge zogen
Ġsicher te
ĠAg ain
Ġexpl oring
ĠWel come
Ġmaint ained
Ã¸ r
LOG GER
Ġfight ing
spar tei
Ġjun ior
C ho
W o
W idget
b ian
Ġt ran
Ġb ron
le itete
Ġm ad
ĠB ann
st ark
de cker
Ġg ig
ĠL ernen
ĠC ulture
ĠSch alt
Ġde leted
ĠAr sen
Ġ18 41
ĠEin tritt
Ġman che
18 99
ĠY e
Ġgen der
Ġins zen
Ġag greg
ĠAut omat
Ġact ing
rag ung
stÃ¤nd ige
ommun ity
Ġeng aged
ĠÐ º
anst alter
Ġjew elry
Ġobject ive
ĠGen f
gar ter
produ zent
ĠKomp lex
195 6
Parameter ID
Arch iv
ĠRen ov
ĠBit coin
ĠLieb lings
ĠTok yo
Ġzug unsten
ĠInstall ation
ĠkÃ¼nd igte
ĠEro ber
I r
L uft
S ach
Ġd ust
Ġt alented
un c
ĠB omb
Ġh ate
ĠK lagen
ĠL amp
ĠL isa
ĠV es
ein satz
iv ile
ĠU E
Ġr asch
ah ne
ĠVer ordnung
Ġ18 20
Ġ18 46
be c
ack t
ac cept
tell ten
reich es
auf tritt
ĠGe is
Ġtime out
lieÃŁ t
ON E
hand le
Ġmus lim
ipp e
ĠKl ar
Ġsk i
Ġsur f
Ġplan e
recht lichen
Te ch
ĠPat ent
ĠMo os
verb rauch
ĠDienst ag
ĠFrÃ¼ chte
195 7
ĠTur k
FI X
Ġfab ulous
Ġult ra
ĠAR D
ĠspÃ¤t estens
ĠVerÃ¤nder ung
Ġmusikal ischen
Ġmusikal ische
Ġdish es
auftrag te
Ġverbess ert
ĠMagn us
Strateg y
E vents
I K
R ennen
i ierten
l ot
ĠS ich
ĠB anken
ĠT Ã¤tigkeiten
ĠG Ã¤rten
ĠW Ã¼nsche
Ġg rant
ĠL ip
Ġl ob
ir i
ĠV olleyball
Ġer zeugen
Ġim pression
ĠâĢ º
ĠSch ienen
Ġr ated
Ġde fen
ste p
ĠRe vol
ran ts
Ġ" )
Ġ18 14
19 61
In tern
Ġsp ray
ho le
ĠAl lein
ob ody
ime tern
inal s
ĠNach frage
Ġ7 50
En vironment
ĠUm zug
ĠCon struction
ĠBundes straÃŁe
Ġgener ic
ĠPer fect
ĠFest ivals
ĠBrand t
Ġtradition s
Ġerk annt
ĠBud get
grÃ¼ nde
ĠHart mann
ĠSur vey
Ġtats Ã¤ch
orre ct
Run time
Ġsatis faction
ĠSmart phone
ĠErinner ungen
ĠGrÃ¤ ber
uum l
Ġrechte ck
Ġphen omen
E mp
d og
h ier
k linik
l ernen
m ol
m ord
Ġw Ã¼nschen
ĠS urf
im ore
ĠG age
et ition
ĠW rest
ĠC and
ir aten
Ġdes ktop
Ġr ising
ĠIn strumente
Ġj ahr
get Node
ĠEr nennung
Ġar men
ĠBer Ã¼cksicht
fl Ã¼ge
of ern
Ġprof essor
ĠPer u
Ġperform ances
ĠStr ess
ĠWinter spiele
ĠSchm id
Ġcontrol led
Ġliegen de
Unter nehmer
Gener ic
Ġpaint ings
ĠschÃ¶n sten
Ġrom ant
ĠSamm el
ĠWettbewerb s
ĠMatt hew
ĠFun c
Ġlok ale
Ġbelie ves
Pass word
Ġdurchschnitt lich
ĠCru z
ĠFlÃ¼cht linge
Lin ie
Wil helm
Flo at
B asketball
C ur
K or
R oll
T al
l iances
v ie
w alk
Ġt or
is lation
ĠS tet
ĠB h
ĠB ibli
il og
ĠI F
ĠK rÃ¤fte
ĠR A
ĠN oten
ĠJ av
Ġre vers
ĠSt ufen
ĠO v
ĠZ ig
sp or
Ġ18 28
St il
ink i
Ġdis abled
Ã¶l be
urr ican
ĠFe atures
Ġcommun icate
work ing
Reg istr
ĠhÃ¤uf iger
ĠAnge legenheiten
parse Int
Ġcorrect ly
Ġconsum ption
Ham burg
ĠAbra ham
Merk male
Ġzusammengef asst
B rit
B ilder
M ET
O ther
t ums
Ġd rain
he ft
Ġf ried
Ġf Ã¼hlen
ĠG B
ĠG reek
ra ce
ĠC ad
ĠJ ugoslaw
Ġk ap
Ġk reis
ĠZ oo
Ġab stra
for ward
Ġ18 12
Ġ18 32
Ġ18 42
Ġher o
ĠSchw ed
Ġgew orfen
ER E
gew alt
ĠMon th
ĠMon itor
Ġgeb raucht
Ġgesch Ã¼tz
Ġass ume
Ġass igned
He ad
gra fen
Ġland es
mark e
Ġflo oring
UT E
195 8
ĠKle ider
print StackTrace
Ġpurch asing
ĠPo et
zwe ck
ĠOs lo
Art ifact
Ġangegeben e
Ġelectric ity
Change d
Ġbroad cast
Ġsau ce
Ġspezial isiert
Ġgrund legen
ĠArgentin ien
Ġglo be
E xtra
G ar
M aj
S am
p fe
u eller
er gebnisse
Ġw aters
Ġf its
Ġm apping
ĠB aut
ĠM are
et tel
ra h
ĠL amb
Ġer ober
Ġer lebte
Ġre lief
ik ern
Ġse ctions
Ġsp ont
Ġsp acious
Ġres idence
Ġreturn ing
amm ed
ĠMe et
ĠNe ed
Ġfe iern
br unn
Sch utz
ĠInd ustry
Ġletz tes
Ġcustom ized
zent ren
Ġgest altete
ĠEntwick lungen
ĠSchool s
Ġstudy ing
Ġcharacter istics
ĠVorsitzen den
esh old
Ġdescrib es
Ġcontinu ous
Ġgeplan te
Ġunterr ichtete
B ro
P OS
b ungs
b els
i ak
p rechung
s or
v enz
å Ń
in strument
Ġd up
an os
ar is
ĠB attle
ĠM indest
ĠD ragon
ĠP uerto
ĠC C
ĠC afÃ©
ber gt
ĠV Ã¶l
est ag
ĠEr langen
Ġle hnte
ĠAb fahrt
Ġsh aped
ĠGr as
ĠEx il
ĠEx change
Ġstud ied
ĠEl be
ĠVol ker
fra uen
ender t
Ġtrans mission
ĠMag ic
ĠStre ifen
ĠNo Such
ĠSpr ings
Ġwalk ed
ĠLeg ion
Ġpercent age
ĠExper ience
ĠMas ters
ĠCa es
ĠGlaub en
ĠArchÃ¤ ologie
ÅĦ ski
ĠClin ton
ĠAgent ur
ĠWurz eln
c d
Ġd einen
it Ã©
Ġc rypt
ol stadt
ĠF ive
ĠG y
ĠG uer
et o
ĠK ies
ĠK upp
ĠH arz
ber eiten
Ġal arm
Ġan spruchs
ĠO ra
ag anda
aus stattung
for um
ov es
lic ate
Ã¶r n
Ġen vironments
ĠAb tei
to Array
ren e
Ġtra iler
Ġste uer
ĠFre ie
ĠMus lim
Ġbek annter
rol led
RE F
Ġbesch rÃ¤nkt
Ġem bra
ĠDo ctor
Ġâ ĪĴ
ĠTre ppen
rist all
fÃ¼ll ung
Ġrecommend ations
ĠCy ber
ruit ment
ĠYear s
Ġschwed ische
Ġehe mals
ĠStrateg ie
Î¿ Ï
B ased
G reat
N ur
T it
W M
k ore
k ritiker
le der
Ġf ahr
ig ter
Ġk unst
ik ten
ĠVer schw
Ġab gew
ĠEr ziehung
Ġvor stellen
urg ical
Ġsh ots
olog ists
Ġtra fen
Ġwork er
ĠQu ick
ific ial
ON G
ĠHaus halt
ST AT
Ġatt itude
ĠFach werk
urf ten
Ġsetz ten
Ġangeb lich
Ġleben den
spe c
Ġtravel ing
Ġapproach es
ĠGeheim nis
Ġconven ience
stad ion
Ġinn ere
ĠVort rag
S oll
T otal
U nder
W atch
j ing
k reise
t urm
Ġt iefer
ĠB eine
ĠM E
ĠM ack
ĠF ulda
ĠK Ã¤rnten
sch i
la fen
la yer
ĠIn haber
Ġun e
19 47
ĠAus gleich
ĠAb b
ock el
Ġalle ged
ĠHand eln
ĠPf lanze
AT OR
ĠCl ara
ĠGegen stÃ¤nde
ĠCor porate
Ser ial
195 9
Ġclos ing
Her r
Page Link
Ġtele fon
Ġiter ator
maler ei
db c
ĠTrotz dem
ĠCustom er
ĠBlo od
Bi ografie
mag azin
******** ********
Ġbetroffen en
ĠGeschle chts
M aster
N etz
k ompon
es er
ĠS ob
ĠS ierra
Ġf lying
ĠM ic
Ġh ip
om aten
ĠI van
ĠG ive
ĠK ie
ul se
ĠO P
Ġr ational
ĠEr ror
ard in
Ġcan vas
az ier
ri um
ald o
lÃ¤ chen
Ġperson ality
vert retung
Ġhol z
ĠKurz film
brÃ¼ cken
Lo ad
Ġassist ant
Sub scription
FI LE
Ġdra wn
ĠSus anne
Ġinvent ory
ĠFertig stellung
B ot
O pt
b ors
n on
r und
v oid
ĠS v
Ġb rachten
ge fÃ¼hl
Ġp itch
Ġc ush
et wa
Ġto ys
ten se
ĠC ool
ber to
and ro
ĠV iv
ĠAn nahme
Ġas set
ĠBer eit
ĠVor arl
sk on
Ġind ischen
ĠOber flÃ¤chen
ĠMed iziner
Ġwant ing
ĠĊĊ ĠĊĠĊ
Ġshould n
ĠFol k
utt a
ĠLebens raum
ĠStaats anwalt
ĠSen ats
Ã¤ss ern
Ġunterschied licher
Ġentfern en
Ġleb end
Ġdeal ers
ĠKas tell
Ġcaus ing
dis ziplin
ĠLux us
Ġerf Ã¤hrt
ĠLandtag swahl
wander ung
? !
B ern
B enz
C red
c ade
f ted
ĠB GB
ĠR ast
Ġ2 40
ĠN om
Ġge prÃ¼ft
th al
ĠTh ings
Ġen de
Ã¼hr t
Ex per
Ġ17 0
ĠGra phen
Ġcar pet
ĠPal ais
ĠBro thers
ĠUl m
ends With
Ġdeb ate
ĠFel sen
Ġparticip ating
ĠLouis iana
ĠKer amik
Ġexpand ed
ĠSab ine
Ġpassion ate
Select or
Ġspect acular
Hein rich
Sing les
J ac
S etz
k ens
an trieb
Ġo lymp
ĠM ole
ĠH ud
ĠN ike
Ġan th
gen au
Ġun expected
Ġex istence
be y
amm ers
ĠMe ilen
ĠUnter kunft
tra gt
ĠgroÃŁ em
ep ing
Ġgr at
Ġsho ck
Ġsupp lier
urrent en
AR Y
Data Type
Ġret ten
Ġgem el
Ġredu ction
195 1
195 3
Ġrele ases
ĠWand el
emb les
Ġgirl friend
ĠGre y
Art ikel
ĠTat ort
Ġsus p
ĠNationalsozial isten
ĠBÃ¤ ume
Ġkulture llen
A ch
a ise
l Ã¶sen
Ġ ]
Ġb ands
Ġf ern
Ġm ounted
Ġp ocket
ĠM au
Ġh ack
Ġh rsg
ĠT oken
ĠP oll
im edia
ĠC ut
Ġk ol
ow ers
ĠO ft
Ġver mitteln
ok ed
gr ammen
uss ia
ors es
Ġdr inks
ĠCon text
aid sch
Ġhin weg
aul ts
ĠKr im
Ðµ ÑĤ
Ġcreat ivity
Ġrepr esented
Ġdivers ity
ĠRÃ¤ um
Ġinteress ant
resource GroupName
Ġfrequ ency
Ġgere cht
ĠErkrank ungen
uis ine
ĠBure au
B ay
H op
b ayern
k ritik
l ab
on omen
Ġs q
ĠS ize
Ġf iction
ĠP L
ĠG uten
em on
ĠH end
ĠV irtual
Ġer lebt
ĠZ it
Ġaus gesetzt
Ġwar ning
schaf fung
ĠAus rÃ¼stung
ath ers
Ġher zlich
Ġgen ehm
ĠSchw estern
ĠÃľber setzer
Ġloc ale
ĠInter ior
ĠRechts wissenschaften
Ð¸ ÑĤ
Ġnormal erweise
ĠKonz ern
ĠDrei ÃŁig
Ġexpress ed
VAL ID
Top ic
Ġlab els
ĠDrit ter
Ġut ility
Liter al
uzz le
verteid iger
ĠNeck ar
Ġwechs eln
ĠForts etzung
ĠHimm els
ĠBuen os
D M
H istory
U t
a ik
m ung
v ant
Ġw estern
ur d
ge halt
ge gangen
Ã¼ sten
ĠB olog
Ġh es
Ġh its
ĠT X
ĠĠĠĠĠĠĠĠ Ġ
Ġto urs
Ġg entle
ĠL arge
ĠC ond
ĠC redit
Ġer baute
Ġre act
Ġre ward
Ġy oga
th iop
lic ks
be zirke
land e
Ġqu adrat
vel and
att ing
Ġspe akers
Ġdam aged
Ġinternational er
ĠHel den
Ġtyp ischen
ĠRed akteur
Ã¨ ne
Ġrep airs
Ġbew ir
Ġsing ing
Ġmat rix
Ġqualif iziert
Ass ignment
ĠBÃ¶ hmen
ĠHeraus forderung
Ġdef ine
ĠSho uld
Ġevalu ation
Don ald
Ġhochwert ige
ĠFinn land
Ġpoet ry
Lang uage
ĠPian ist
Ġuntern ahm
Ġumf assen
ĠNev ada
B inding
L iga
c ap
m Ã¼n
n atur
t ier
t lichen
ĠS ara
el led
im b
ĠG ary
Ġto w
ĠW aisen
sch ema
isch ten
Ã¶ hne
Ġre ichte
Ġst able
Ġmit ten
th on
Ġse ats
Ġse eds
esch ool
Ġ18 31
ĠDe part
Ġsp oke
Ġpr ize
mp os
ish a
fr iger
ĠArbeit nehmer
Ġdr ama
Ġdire ctions
ĠVol t
Ġeinz us
ĠMitglied s
schutz gebiet
By Comparator
Ã¤us chen
ĠRad i
Ġhistor isch
Ġbeh inder
ĠRuss ischen
Ġair craft
Ġbro ke
Ġbuy ers
ĠMitte le
zÃ¼ g
ĠErd gas
IG N
Ġdigital en
ĠAnge hÃ¶rigen
Ġtax es
Ġverm utet
Ġinteress ante
sta ates
Med aille
ĠSchles ien
Ġumfang reichen
ĠEins Ã¤tzen
ĠDub lin
Av ailable
ĠBeweg ungen
Assignable From
% ,
U uid
a ÃŁen
h h
s em
v ity
Ġd urften
Ġt v
is ierungs
re ement
ĠS hel
ĠT ed
ĠF urniture
ĠH Ã¤uf
ĠR in
ĠR an
ĠL anka
ĠC rist
ĠN assau
Ġer gab
Ġk lin
Ġre q
ĠSt iefel
Ġhe aded
Ġ18 13
ĠSp a
ĠPro tagon
Ġres ident
ĠAus flug
ĠBer ichte
ĠZeit ungen
lÃ¤ ser
ĠAll ianz
ĠNor weg
Ġmin istry
Ġ[ ]
Ġdel ivers
ĠAss embly
Ã¤nder ungen
Tra iner
Ðµ Ð²
ĠSchiff es
ĠKle idung
ĠPsych iat
Ġther apeut
ĠWol ff
Ġdet aill
ĠHy per
Ġdig est
Ġcop yright
Ġmedizin ischen
ĠVerletz ung
Ġster ben
ĠConnect icut
ĠLuz ern
ĠGebir gs
U RE
W ei
W issenschaft
e z
w riting
y k
Ġw ave
ĠS ten
Ġb old
Ġf illing
ĠD sch
Ġein sch
ĠG P
ĠH aving
ĠR ace
Ġst ren
ĠIn sol
ind el
ĠRe ifen
Ġsch auen
Ġsch afft
19 17
be zirks
Ġ/ **
ĠCh ines
Ġcomp lement
ren z
Ġ17 98
ĠZu hause
ĠRes idenz
ĠOst preuÃŁen
ĠOlymp ia
So zial
Comp uter
ĠFreund schaft
ĠWirk lichkeit
Ġdep loy
ĠIdent itÃ¤t
Go ogle
JÃ¤hr ige
Ġdokument iert
Dam it
B usiness
M I
N D
S ong
h Ã¶ch
v ik
Ġw is
ĠS ony
Ġb acter
ĠD amp
ig ert
ĠT ub
Ġg ained
ĠN ancy
ab on
Ġim pl
ĠSch ub
ĠIn put
rom an
rie t
ĠPro jekts
lo gen
ob a
18 90
Ġbet Ã¤t
rÃ¤ gen
ĠSte ck
ĠFra ktion
fr ies
Ch ina
Ġinv alid
ex ists
Ġac quire
Ġvis its
med iate
ĠIns zen
Ġsuper b
Ġbeautiful ly
Ġredu cing
Ġauthor ities
ĠSalz burger
ĠFluss es
Ġneues ten
zwe if
FI ELD
Ġprakt ische
build ing
pat tern
Ġdauer haft
Ġweib liche
Ġexpos ed
Ġmort gage
Ġkombin iert
Ġangen ehm
Sonst iges
+ "
S outh
U D
c ondition
w il
ĠS ay
Ġb elt
Ġb one
ĠA mal
ĠB oss
ro g
ĠD IN
Ġh am
ĠT ak
ĠG ay
ĠE L
ĠR Ã¼st
ĠC ord
Ã¶ ten
ĠN iveau
ĠN atÃ¼rlich
Ġy ield
ver hÃ¤ltnisse
ĠSch ichten
Ġpro port
Ġj en
ĠRe z
ĠÃ¼ber s
In stances
Ġapp ointed
ock er
Ġgew issen
Ġ12 8
ins ert
enk te
Ġact ress
Ġviel es
Ġschw eizer
Se lected
med ia
ĠBÃ¼ chern
ĠFot ografie
ĠSen ate
Ġenter ing
gef unden
Ã¼rz te
ĠGi useppe
Produ ct
person en
imple Name
ĠOrganis ations
schm idt
Ġhighl ights
Ġweib lichen
ĠðŁ ĻĤ
Ġschrift lich
Ġvul ner
ĠRug by
Lower Case
Ġbeauf tragt
S at
e ffe
f i
g alerie
h attan
t as
re fer
ĠS alt
ur teilung
Ġf iber
us a
Ġc ult
am ine
ĠF aktoren
Ġre action
Ġauf nehmen
ok ol
ang aben
pr im
ĠÃ¼ber liefert
ip se
Ġunter brochen
enn amen
ĠAb schied
ĠLe gende
Ġar twork
Ġcomp osition
Ġdo ctors
ĠFl Ã¼ss
Ġcont ained
Ġsc ulpt
ĠSo zi
ĠÃľber rasch
ĠEntw Ã¼r
ĠSen ator
Ġblog s
Ġinvol ving
Ġstrong ly
kle ide
ĠUN ESCO
ĠWahr scheinlichkeit
ĠAnth rop
mess ung
ĠWorks hop
ĠFlag ge
ĠberÃ¼hm ten
Ġprincip al
ĠWiederauf bau
ĠJoh an
ĠBelager ung
H in
T ransport
u tel
č ĊĠĠĠĠĠĠĠĠĠ
Ġd imensions
nd rom
al p
ĠS ind
ĠS IM
Ã¼ tt
Ġp ad
ĠM am
ĠM ilit
ĠM esser
ĠD irk
ĠD elta
ig sten
om o
âĢ ¯
ed ge
ĠH Ã¤nden
ĠC ache
Ġl ens
Ġl adies
ĠJ AXB
ier i
ab ad
Ã¼r ft
Ġst ations
ĠSch acht
ag ger
tr ang
Ġsch ul
19 55
los ing
Re prÃ¤sentanten
ork ommen
oth ers
Ġhand eln
Ġze igten
Or gan
Se q
Ġgef Ã¤llt
Ġpat ent
ĠLei b
Ġcor respond
ĠPre c
ĠFlug zeuge
ĠOlymp ic
190 1
ĠZahl ungs
ĠWeiter lesen
ĠJur a
Ġmount ains
Ġdepend s
komp lex
Ġhop es
Techn ische
Ġvi agra
F ernse
G EN
T itle
T IME
n ÃŃ
Ġt ons
Ġe ignet
ĠB att
ĠB irmingham
am azon
ĠH Ã¼tten
sch mer
ĠL O
ĠL ac
ver schluss
Ġcomp uters
ĠNe apel
Ġpla in
Ġger aten
Ġdec lared
ĠApp ro
Ġzahl reicher
Met al
ĠKat hedrale
osp el
ĠErz bist
ĠMont real
UT H
ĠImp ort
Ġamong st
Ġliter ally
Ġdemonstr ate
ĠJava Script
Ġvict ims
information en
MÃ¼n chen
Il legal
ĠÃĦm ter
Ġunus ual
ĠBreis gau
D abei
F ast
N orth
R itter
b ane
i ated
l Ã©
z k
Ġs our
Ġs uck
Ġw are
ur laub
ich i
ĠB ismar
Ġc ameras
Ġ( âĢľ
ĠF ish
ĠK unde
ĠH C
ĠL esen
ĠC lan
th y
Ġver stÃ¤nd
ĠAn leitung
we ilen
sp rachen
Ġcon j
ise x
19 15
St arts
ĠUnter grund
sh afen
Ġbre iter
Ob wohl
str ong
Ġbefore Client
Ġausge de
Ġed ges
ĠDen ken
ĠMc K
Ġbew aff
Ġzwe if
ĠMiss issippi
Ġversch oben
ĠDate ien
ĠFeder ation
ĠTÃ¼r en
sec urity
Gemeinde auflÃ¶sung
ĠWes er
ĠKÃ¶r pers
ĠVie h
ĠFrances co
ĠBÃ¼nd nis
ĠGeor ges
ĠBran chen
ĠGoth a
roff ene
ĠUE FA
ĠBerÃ¼cksicht igung
ĠbeforeClient Execution
C lose
E V
E t
M AN
S ho
W appen
b lau
b inding
k ilometer
n immt
o i
» ¿
Ġs aÃŁ
ĠG is
ĠE igenschaft
ĠK ot
ĠC ommerce
Ġse asons
Ġle ichten
Ġ18 21
Ġ18 38
ĠAuf klÃ¤rung
Ġout come
lan ke
vent ions
pla cement
Ġbre aking
fo hlen
ĠFrank lin
arch y
ĠWerk zeug
mittel alter
press ed
Ġless on
ĠSitz ung
Ġlim its
annot ation
fred akteur
ĠGef Ã¤hr
ĠGeist es
ĠTur in
Ġsubject s
Ġfall ing
Ġmo use
hyth mus
Ġgefe iert
T en
h um
o fen
ĠM ent
ĠL G
ĠL ies
ĠC hel
ĠV Ã¶gel
Ġal ive
Ġal ias
th es
og ne
get Default
ia z
iss er
pro fil
ock s
Ġpl ot
ĠFe ucht
Ġart istic
Ġtechn isch
AR L
ĠComp lete
bew eg
LE MENT
čĊ čĊĠĠĠĠĠĠĠĠĠĠĠ
Ġtable t
ĠOper ations
lim ited
ĠSteuer ung
Ġbedeut enden
ĠHard ware
Ġinj ured
Ġnotwend igen
Ġclub s
Ġelektr ischen
ĠLetz ter
Ġsomew hat
ĠTerr asse
Setz liste
> </
B ul
b sp
p Ã¤dagoge
w Ã¶rter
Ġs ke
ie ch
Ġb ull
Ġin k
us ts
ĠT U
ĠT all
ĠT auch
ĠI R
et r
sch ool
ĠN obel
ver w
Ġver Ã¤ndern
Ġcon version
Ġsch ein
ĠÃ¼ber prÃ¼
ĠBe griffe
oc on
In f
18 97
Ġlie b
ĠSh aw
rich en
Ġverb ringen
Mit glieder
ĠVers icher
Ġ> >>
ĠSchul z
gra duate
ĠBre tt
Ġspecial ists
Ġprom oting
druck s
Ġlink er
Ġnie mals
gesetz ten
gÃ¤n gen
ĠHa are
ĠEing angs
ĠWeiter entwicklung
ĠDres dner
istic ated
Ġbeteil igten
Ġtrack ing
Ġfil ters
Ġtele phone
Verb reitung
Ġmedizin ische
ĠErkrank ung
Ġnu clear
ĠFrÃ¼hl ing
Ġoffens ichtlich
F P
M aterial
P lat
Z ent
Î µ
Ñ Ī
ï »¿
Ġa de
at ro
Ġb reat
ĠA dress
ĠB ien
ĠD iss
ĠF uss
ĠF uchs
ul ating
Ġan gewand
ab wehr
Ġge be
Ġr ice
ah me
ei z
ind lich
pe icher
Ġcom edy
ĠEin zug
Ġcan ada
18 98
heit lich
Ġco at
String Utils
Ġany way
Sch lag
Ġra ising
ĠMus k
ĠGer d
ĠArch ive
ĠEd gar
Ġentsp ringt
Ġform ula
Cl ub
mark en
lei h
osoph ie
Ġ180 8
Ġfocus ing
Ġpubl ishing
ĠTurn iers
ĠRob inson
ĠvollstÃ¤nd ige
Ed itor
CT ION
ĠGeh Ã¤use
Ġrepe ated
ĠUd SSR
ĠGon z
N ein
R and
f arb
w inning
ie hen
ĠB ak
Ġp iano
st iftung
Ġ1 18
ĠF em
ĠL anc
ĠC T
Ġre ct
ĠSt au
od el
Ġam ounts
ĠAr gent
ia e
ord ination
oc a
lo h
ens er
ĠTh om
ob s
Ġwor auf
ĠMit ch
ĠLe gend
Ã¼ck e
own ers
iter ran
Ġ16 00
Ġemp ower
ĠMo or
Ġgel Ã¶scht
ĠGold medaille
ĠStutt garter
ĠDom ain
Ġparticip ation
Ġmer ge
ĠTur key
ĠRÃ¤ umen
Ð» ÑĮ
ĠAlb ums
trie be
ĠInvest ment
ĠAff airs
ĠViz emeister
Lud wig
D reh
E isen
T ake
U hr
Y ear
d re
d ra
p y
Ù Ĭ
Ġd ring
Ġt x
Ġt ape
Ġw Ã¤hlte
Ġb inding
Ġf liegen
Ã¤ ule
ĠF ut
ĠF ix
ĠF asch
ĠG am
ĠK ran
ĠL ub
ik ers
Ġauf geb
ĠSp ot
ob ahn
Ġpr ime
sh aber
ace ut
ĠZw eiter
Ġviel mehr
ĠBand e
ĠWer ks
ĠWer ft
met ter
Ġgar dens
Wh ere
rÃ¤n ken
Ġwonder ing
Ġple asant
spro zess
okomot iven
ĠScott ish
ĠCommer cial
ĠAnnot ation
f al
is i
Ġw inners
Ġe ure
Ġc ats
ĠC amer
Ã¶ hm
ĠV in
Ġer rang
eb ack
Ġver e
ĠAn wender
ant ie
ĠCh ancen
ĠAus lands
Ġ) ?
Ġbl ind
other apie
ĠUr sprÃ¼nglich
ĠSpe yer
unn able
OR Y
Te chnik
gn ungen
stÃ¼ck en
Ġerne uert
ĠWeb prÃ¤senz
lÃ¤uf ig
gener ate
Ġoptim ale
Ġporn o
Ġdeep ly
Ġdistrib uted
ĠUrs achen
Ġdein er
Ø§ ÙĦ
ĠkÃ¼nstler ischen
ĠKart off
ĠStraÃŁ burg
Ġkulture lle
Histor ische
Ġiniti ative
pie ce
Ġpromin ent
ĠPÃ© rez
C ity
F ailure
J ames
T ool
d ocument
m ic
Ġ ikea
Ġa rom
ar est
un en
Ġf icken
ic ular
ĠW oman
hr ingen
ĠC abin
id ges
ann ung
ĠIn it
Ġdem ent
ant ik
âĢľ :
Ġ18 10
ac ed
Ġpr est
ĠMar shall
mit tler
ound ing
schie ÃŁen
ĠCar ib
Deutsch es
ĠComp an
pos al
othe k
Ġinit ially
ĠSein en
Ġemploy ed
TR AN
Ġapply ing
Ġunmittelbar er
fle isch
ĠFal ken
Ġwhe els
ĠLiefer ung
Ġgather ing
Ġcalcul ate
Ġinstr uments
Ġrat io
ĠDisziplin en
ĠEconom ic
ĠTob ias
Ġtempor ary
Ġveranst altet
ĠSkulpt uren
ĠLuftw affe
Ġberu ht
ĠAtel ier
B ank
N R
S ort
V oid
k Ã¼hl
u ary
Ġd ei
Ġa ged
he ight
ĠS id
ĠD ess
ĠP hoenix
[...]
