{
  "version": "1.0",
  "truncation": null,
  "padding": null,
  "added_tokens": [],
  "normalizer": null,
  "pre_tokenizer": {
    "type": "ByteLevel",
    "add_prefix_space": false,
    "trim_offsets": true,
    "use_regex": true
  },
  "post_processor": {
    "type": "RobertaProcessing",
    "sep": [
      "</s>",
      2
    ],
    "cls": [
      "<s>",
      0
    ],
    "trim_offsets": true,
    "add_prefix_space": false
  },
  "decoder": {
    "type": "ByteLevel",
    "add_prefix_space": true,
    "trim_offsets": true,
    "use_regex": true
  },
  "model": {
    "type": "BPE",
    "dropout": null,
    "unk_token": null,
    "continuing_subword_prefix": "",
    "end_of_word_suffix": "",
    "fuse_unk": false,
    "vocab": {
      "<s>": 0,
      "<pad>": 1,
      "</s>": 2,
      "<unk>": 3,
      ".": 4,
      "Ġthe": 5,
      ",": 6,
      "Ġto": 7,
      "Ġand": 8,
      "Ġof": 9,
      "Ġa": 10,
      "Ġin": 11,
      "-": 12,
      "Ġfor": 13,
      "Ġthat": 14,
      "Ġon": 15,
      "Ġis": 16,
      "âĢ": 17,
      "'s": 18,
      "Ġwith": 19,
      "ĠThe": 20,
      "Ġwas": 21,
      "Ġ\"": 22,
      "Ġat": 23,
      "Ġit": 24,
      "Ġas": 25,
      "Ġsaid": 26,
      "Ļ": 27,
      "Ġbe": 28,
      "s": 29,
      "Ġby": 30,
      "Ġfrom": 31,
      "Ġare": 32,
      "Ġhave": 33,
      "Ġhas": 34,
      ":": 35,
      "Ġ(": 36,
      "Ġhe": 37,
      "ĠI": 38,
      "Ġhis": 39,
      "Ġwill": 40,
      "Ġan": 41,
      "Ġthis": 42,
      ")": 43,
      "ĠâĢ": 44,
      "Ġnot": 45,
      "Ŀ": 46,
      "Ġyou": 47,
      "ľ": 48,
      "Ġtheir": 49,
      "Ġor": 50,
      "Ġthey": 51,
      "Ġwe": 52,
      "Ġbut": 53,
      "Ġwho": 54,
      "Ġmore": 55,
      "Ġhad": 56,
      "Ġbeen": 57,
      "Ġwere": 58,
      "Ġabout": 59,
      ",\"": 60,
      "Ġwhich": 61,
      "Ġup": 62,
      "Ġits": 63,
      "Ġcan": 64,
      "Ġone": 65,
      "Ġout": 66,
      "Ġalso": 67,
      "Ġ$": 68,
      "Ġher": 69,
      "Ġall": 70,
      "Ġafter": 71,
      ".\"": 72,
      "/": 73,
      "Ġwould": 74,
      "'t": 75,
      "Ġyear": 76,
      "Ġwhen": 77,
      "Ġfirst": 78,
      "Ġshe": 79,
      "Ġtwo": 80,
      "Ġover": 81,
      "Ġpeople": 82,
      "ĠA": 83,
      "Ġour": 84,
      "ĠIt": 85,
      "Ġtime": 86,
      "Ġthan": 87,
      "Ġinto": 88,
      "Ġthere": 89,
      "t": 90,
      "ĠHe": 91,
      "Ġnew": 92,
      "ĠâĢĶ": 93,
      "Ġlast": 94,
      "Ġjust": 95,
      "ĠIn": 96,
      "Ġother": 97,
      "Ġso": 98,
      "Ġwhat": 99,
      "I": 100,
      "Ġlike": 101,
      "a": 102,
      "Ġsome": 103,
      "S": 104,
      "Ã«": 105,
      "Ġthem": 106,
      "Ġyears": 107,
      "'": 108,
      "Ġdo": 109,
      "Ġyour": 110,
      "Ġ-": 111,
      "Ġ1": 112,
      "\"": 113,
      "Ġif": 114,
      "Ġcould": 115,
      "?": 116,
      "Ġno": 117,
      "i": 118,
      "m": 119,
      "Ġget": 120,
      "ĠU": 121,
      "Ġnow": 122,
      "Ġhim": 123,
      "Ġback": 124,
      "ĠBut": 125,
      "ĠâĢĵ": 126,
      "Ġmy": 127,
      "Ġ'": 128,
      "Ġonly": 129,
      "Ġthree": 130,
      ";": 131,
      "Ġ2": 132,
      "The": 133,
      "1": 134,
      "Ġpercent": 135,
      "Ġagainst": 136,
      "Ġbefore": 137,
      "Ġcompany": 138,
      "o": 139,
      "ĠTrump": 140,
      "Ġhow": 141,
      "Ġbecause": 142,
      "Ġany": 143,
      "Ġmost": 144,
      "Ġbeing": 145,
      "Ġmake": 146,
      "Ġwhere": 147,
      "Ġduring": 148,
      "Ġthrough": 149,
      "Ġwhile": 150,
      "000": 151,
      "ĠThis": 152,
      "Ġmillion": 153,
      "ing": 154,
      "Ġ3": 155,
      "Ġmade": 156,
      "Ġwell": 157,
      "Ġ10": 158,
      "Ġdown": 159,
      "Ġoff": 160,
      "Ġsays": 161,
      "Ġme": 162,
      "ĠB": 163,
      "Ġgoing": 164,
      "Ġteam": 165,
      "ĠWe": 166,
      "Ġthose": 167,
      "Ġgovernment": 168,
      "Ġway": 169,
      "We": 170,
      "Ġmany": 171,
      "Ġthen": 172,
      "Ġwork": 173,
      "Ġtold": 174,
      "com": 175,
      "2": 176,
      "Ġgame": 177,
      "ĠAnd": 178,
      "in": 179,
      "year": 180,
      "Ġp": 181,
      "Ġvery": 182,
      "Ġday": 183,
      "Ġhome": 184,
      "Ġtake": 185,
      "Ġweek": 186,
      "Ġsince": 187,
      "ĠNew": 188,
      "Ġmay": 189,
      "Ġeven": 190,
      "Ġseason": 191,
      "Ġsee": 192,
      "Ġ2017": 193,
      "Ġstate": 194,
      "Ġ5": 195,
      "ed": 196,
      "Ġshould": 197,
      "Ġaround": 198,
      "Ġ2018": 199,
      "Ġsecond": 200,
      "Ġus": 201,
      "Ġstill": 202,
      "Ġmuch": 203,
      "Ġ4": 204,
      "Ġgood": 205,
      "Ġthink": 206,
      "%": 207,
      "ĠS": 208,
      "Ġthese": 209,
      "Ġmarket": 210,
      "ĠD": 211,
      "th": 212,
      "Ġgo": 213,
      "'re": 214,
      "Ġsuch": 215,
      "Ġknow": 216,
      "Ġincluding": 217,
      "Ġdon": 218,
      "y": 219,
      "Ġnext": 220,
      "ĠP": 221,
      "Ġdid": 222,
      "Ġunder": 223,
      "Ġsay": 224,
      "en": 225,
      "ĠL": 226,
      "Ġbetween": 227,
      "Ġper": 228,
      "ĠK": 229,
      "ĠC": 230,
      "Ġ6": 231,
      "Ġworld": 232,
      "Ġpart": 233,
      "ĠN": 234,
      "Ġright": 235,
      "Ġwant": 236,
      "Ġfour": 237,
      "),": 238,
      "Ġhigh": 239,
      "Ġneed": 240,
      "re": 241,
      "e": 242,
      "It": 243,
      "Ġhelp": 244,
      "5": 245,
      "3": 246,
      "Ġcountry": 247,
      "ĠR": 248,
      "Ġpolice": 249,
      "A": 250,
      "Ġlong": 251,
      "ĠThey": 252,
      "Ġend": 253,
      "er": 254,
      "ĠT": 255,
      "ĠM": 256,
      "u": 257,
      "Ġboth": 258,
      "Ġhere": 259,
      "an": 260,
      "on": 261,
      "Ġ7": 262,
      "Ġde": 263,
      "ĠShe": 264,
      "Ġbusiness": 265,
      "Ġreport": 266,
      "j": 267,
      "ers": 268,
      "Ġreally": 269,
      "ĠPresident": 270,
      "ar": 271,
      "ĠG": 272,
      "ĠFriday": 273,
      "ĠF": 274,
      "Ġbest": 275,
      "Ġsame": 276,
      "Ġanother": 277,
      "Ġset": 278,
      "old": 279,
      "ĠThat": 280,
      "as": 281,
      "n": 282,
      "Ġcome": 283,
      "Ġfamily": 284,
      "Ġpublic": 285,
      "ĠFor": 286,
      "ĠAs": 287,
      "0": 288,
      "ĠH": 289,
      "Ġ8": 290,
      "Ġ20": 291,
      "Ġfive": 292,
      "es": 293,
      "ĠTuesday": 294,
      "Ġn": 295,
      "ĠThursday": 296,
      "Ġquarter": 297,
      "h": 298,
      "Ġtop": 299,
      "Ġgot": 300,
      "Ġlife": 301,
      "ĠMonday": 302,
      "Ġfound": 303,
      "Ġuse": 304,
      "ĠW": 305,
      "4": 306,
      "ĠWednesday": 307,
      "Ġown": 308,
      "Ġaccording": 309,
      "Ġplay": 310,
      "Ġshow": 311,
      "ĠSt": 312,
      "Ġman": 313,
      "Ġleft": 314,
      "ĠUnited": 315,
      "Ġ12": 316,
      "Ġplace": 317,
      "ĠIf": 318,
      "Ġlot": 319,
      "Ġformer": 320,
      "Ġ0": 321,
      ").": 322,
      "Ġsupport": 323,
      "ie": 324,
      "Ġbillion": 325,
      "Ġt": 326,
      "Ġshares": 327,
      "!": 328,
      "z": 329,
      "k": 330,
      "ĠState": 331,
      "Ġpoints": 332,
      "Ġgroup": 333,
      "Ġschool": 334,
      "Ġinformation": 335,
      "Ġ2016": 336,
      "al": 337,
      "r": 338,
      "Ġwin": 339,
      "Ġnews": 340,
      "Ġused": 341,
      "Ġput": 342,
      "Ġcity": 343,
      "ĠJ": 344,
      "ĠThere": 345,
      "Ġnumber": 346,
      "C": 347,
      "'ve": 348,
      "Ġeach": 349,
      "Ġtoo": 350,
      "Ġwon": 351,
      "ly": 352,
      "Ġmonth": 353,
      "is": 354,
      "Ġadded": 355,
      "Ġlook": 356,
      "Ġbetter": 357,
      "Ġevery": 358,
      "Ġ&": 359,
      "Ġdays": 360,
      "Ġ9": 361,
      "Ġtook": 362,
      "Ġnight": 363,
      "Ġe": 364,
      "Ġ11": 365,
      "os": 366,
      "Ġfew": 367,
      "or": 368,
      "ĠNorth": 369,
      "ĠYou": 370,
      "Ġthird": 371,
      "Ġgreat": 372,
      "Ġcalled": 373,
      "ĠOn": 374,
      "Ġpast": 375,
      "Ġcame": 376,
      "Ġmonths": 377,
      "ĠSaturday": 378,
      "Ġ15": 379,
      "Ġbig": 380,
      "ĠE": 381,
      "ĠUS": 382,
      "Ġthings": 383,
      "ĠO": 384,
      "Ġd": 385,
      "Ġstart": 386,
      "B": 387,
      "Ġstock": 388,
      "Ġ30": 389,
      "Ġwomen": 390,
      "ĠSouth": 391,
      "ĠMay": 392,
      "Ġnever": 393,
      "Ġpresident": 394,
      "ĠSunday": 395,
      "Ġwithout": 396,
      "man": 397,
      "8": 398,
      "Ġdidn": 399,
      "Ġlocal": 400,
      "6": 401,
      "Ġsomething": 402,
      "Ġcase": 403,
      "ĠAll": 404,
      "it": 405,
      "7": 406,
      "ĠSo": 407,
      "Ġchildren": 408,
      "Ġaway": 409,
      "Ġlittle": 410,
      "Ġsix": 411,
      "ĠCity": 412,
      "ĠCounty": 413,
      "Ġdata": 414,
      "at": 415,
      "Ġalready": 416,
      "d": 417,
      "Ġmoney": 418,
      "Ġearly": 419,
      "Ġacross": 420,
      "Ġexpected": 421,
      "Ġrun": 422,
      "Ġlater": 423,
      "am": 424,
      "Ġprice": 425,
      "Ġgames": 426,
      "ĠMr": 427,
      "b": 428,
      "Ġmight": 429,
      "Ġdifferent": 430,
      "Ġreported": 431,
      "Ġdeal": 432,
      "Ġmedia": 433,
      "Ġgrowth": 434,
      "Ġcommunity": 435,
      "ĠChina": 436,
      "'m": 437,
      "c": 438,
      "Ġwent": 439,
      "ĠNo": 440,
      "Ġable": 441,
      "Ġmaking": 442,
      "Ġarea": 443,
      "Ġfar": 444,
      "Ġstatement": 445,
      "ĠHouse": 446,
      "Ġworking": 447,
      "M": 448,
      "Ġk": 449,
      "Ġseen": 450,
      "Ġcompanies": 451,
      "Ġtoday": 452,
      "Ġmembers": 453,
      "Ġuntil": 454,
      "Ġfull": 455,
      "Ġagain": 456,
      "Ġhalf": 457,
      "Ġshare": 458,
      "le": 459,
      "Ġalways": 460,
      "Ġcourt": 461,
      "l": 462,
      "and": 463,
      "Ġchange": 464,
      "Ġfind": 465,
      "9": 466,
      "Ġsystem": 467,
      "ĠV": 468,
      "ĠYork": 469,
      "ĠAmerican": 470,
      "Ġhead": 471,
      "Ġplayers": 472,
      "Ġdoes": 473,
      "Ġhealth": 474,
      "Ġm": 475,
      "Ġpower": 476,
      "Ġpoint": 477,
      "Ġhit": 478,
      "Ġ.": 479,
      "Ġ--": 480,
      "Ġfree": 481,
      ".,": 482,
      "Ġlead": 483,
      "Ġseveral": 484,
      "Ġrecent": 485,
      "Ġcall": 486,
      "N": 487,
      "Ġlaw": 488,
      "Ġkeep": 489,
      "Ġopen": 490,
      "ĠNews": 491,
      "Ġgive": 492,
      "ia": 493,
      "ĠMarch": 494,
      "D": 495,
      "ĠNational": 496,
      "ĠAt": 497,
      "Ġtimes": 498,
      "Ġfuture": 499,
      "R": 500,
      "Ġ14": 501,
      "ĠJune": 502,
      "Ġofficials": 503,
      "Ġ18": 504,
      "Ġimportant": 505,
      "f": 506,
      "Ġfinal": 507,
      "Ġ13": 508,
      "ĠOne": 509,
      "P": 510,
      "Ġfollowing": 511,
      "Ġcar": 512,
      "Ġleast": 513,
      "Ġwater": 514,
      "Ġevent": 515,
      "Ġline": 516,
      "Ġmove": 517,
      "Ġservices": 518,
      "Ġhaving": 519,
      "ĠWhen": 520,
      "Ġstudents": 521,
      "ĠPolice": 522,
      "el": 523,
      "Ġam": 524,
      "ĠZ": 525,
      "Ġside": 526,
      "Ġstory": 527,
      "Ġdue": 528,
      "Ġmeeting": 529,
      "K": 530,
      "Ġmust": 531,
      "ĠStates": 532,
      "Ġlikely": 533,
      "G": 534,
      "Ġcontinue": 535,
      "Ġago": 536,
      "Ġparty": 537,
      "Ġmajor": 538,
      "Ġindustry": 539,
      "Ġless": 540,
      "30": 541,
      "Ġun": 542,
      "Ġhard": 543,
      "Ġservice": 544,
      "Ġ16": 545,
      "Ġlooking": 546,
      "Ġheld": 547,
      "ve": 548,
      "Ġwhether": 549,
      "ĠJuly": 550,
      "Ġtaken": 551,
      "Ġalong": 552,
      "Ġasked": 553,
      "Ġstarted": 554,
      "Ġbecome": 555,
      "Ġforward": 556,
      "Ġresearch": 557,
      "Ġoffice": 558,
      "Ġpolitical": 559,
      "to": 560,
      "Ġtogether": 561,
      "Ġgetting": 562,
      "Ġplan": 563,
      "Ġ25": 564,
      "T": 565,
      "Ġamong": 566,
      "Ġcoming": 567,
      "Ġdecision": 568,
      "Ġvideo": 569,
      "Ġ2015": 570,
      "g": 571,
      "ĠAfter": 572,
      "Ġsecurity": 573,
      "L": 574,
      "Ġcare": 575,
      "Ġgiven": 576,
      "Ġavailable": 577,
      "âĢĶ": 578,
      "Ġs": 579,
      "ĠWest": 580,
      "'ll": 581,
      "Ġpay": 582,
      "Ġnear": 583,
      "Ġsaying": 584,
      "Ġannounced": 585,
      "Ġprogram": 586,
      "ĠApril": 587,
      "Ġreal": 588,
      "ĠUniversity": 589,
      "ĠWith": 590,
      "AP": 591,
      "Ġsocial": 592,
      "Ġclose": 593,
      "et": 594,
      "Ġcurrent": 595,
      "Ġwhy": 596,
      "F": 597,
      "ĠTo": 598,
      "ĠTwitter": 599,
      "Ġthough": 600,
      "Ġ17": 601,
      "Ġtaking": 602,
      "ĠInc": 603,
      "Ġmen": 604,
      "w": 605,
      "Ġcomes": 606,
      "ley": 607,
      "Ġdoing": 608,
      "Ġprocess": 609,
      "ĠJohn": 610,
      "ch": 611,
      "00": 612,
      "Ġfinancial": 613,
      "Ġlow": 614,
      "Ġenough": 615,
      "ĠWhile": 616,
      "Ġfurther": 617,
      "Ġpost": 618,
      "Ġfeel": 619,
      "st": 620,
      "Ġperson": 621,
      "ĠFacebook": 622,
      "ĠWorld": 623,
      "Ġwithin": 624,
      "ad": 625,
      "Ġdone": 626,
      "the": 627,
      "Ġlate": 628,
      "Ġtax": 629,
      "Ġdoesn": 630,
      "Ġthing": 631,
      "Ġnational": 632,
      "Ġjob": 633,
      "Ġusing": 634,
      "ĠHowever": 635,
      "ic": 636,
      "Ġcampaign": 637,
      "Ġrecord": 638,
      "Ġbehind": 639,
      "://": 640,
      "ĠDepartment": 641,
      "p": 642,
      "Ġothers": 643,
      "ĠJanuary": 644,
      "Ġorder": 645,
      "Ġ[": 646,
      "Ġsales": 647,
      "Ġyet": 648,
      "Ä": 649,
      "Ġsmall": 650,
      "Ġseries": 651,
      "Ġface": 652,
      "ĠWhat": 653,
      "Ġ50": 654,
      "Ġever": 655,
      "Ġearlier": 656,
      "Ġlove": 657,
      "up": 658,
      "Ġrights": 659,
      "ĠAn": 660,
      "ist": 661,
      "Ġmorning": 662,
      "ĠWashington": 663,
      "Ġyoung": 664,
      "Ġlatest": 665,
      "ĠIndia": 666,
      "Ġtrying": 667,
      "Ġfire": 668,
      "Ġled": 669,
      "Ġstrong": 670,
      "Ġreturn": 671,
      "Ġlevel": 672,
      "O": 673,
      "Ġaverage": 674,
      "Ġperiod": 675,
      "Ġexperience": 676,
      "ak": 677,
      "Ġpossible": 678,
      "Ġbelieve": 679,
      "Ġinclude": 680,
      "Ġoil": 681,
      "Ġrecently": 682,
      "Ġonce": 683,
      "Ġknown": 684,
      "Ġlost": 685,
      "Ġsure": 686,
      "us": 687,
      "Ġweeks": 688,
      "Ġfood": 689,
      "Ġreports": 690,
      "Ġrating": 691,
      "ĠMinister": 692,
      "Ġwoman": 693,
      "Ġprovide": 694,
      "Ġproject": 695,
      "Ġissue": 696,
      "Ġlive": 697,
      "10": 698,
      "Ġclear": 699,
      "he": 700,
      "Ġcost": 701,
      "Ġplayed": 702,
      "Ġreleased": 703,
      "Ġcoach": 704,
      "v": 705,
      "Ġ24": 706,
      "Ġseven": 707,
      "Ġplans": 708,
      "Ġdevelopment": 709,
      "ur": 710,
      "ĺ": 711,
      "Ġincrease": 712,
      "This": 713,
      "Ġpolicy": 714,
      "Ġcent": 715,
      "Ġbased": 716,
      "E": 717,
      "il": 718,
      "ĠDecember": 719,
      "Ġglobal": 720,
      "Ġtrade": 721,
      "Ġhours": 722,
      "Ġhigher": 723,
      "Ġgoal": 724,
      "H": 725,
      "ĠAl": 726,
      "Ġ100": 727,
      "Ġminutes": 728,
      "Ġelection": 729,
      "ĠAmerica": 730,
      "Ġrate": 731,
      "ĠCh": 732,
      "Ġ21": 733,
      "...": 734,
      "ĠWhite": 735,
      "Ġdirector": 736,
      "Ġposition": 737,
      "Ġshot": 738,
      "Ġlarge": 739,
      "Ġc": 740,
      "Ġb": 741,
      "]": 742,
      "Ġissues": 743,
      "Ġdeath": 744,
      "Ġbuilding": 745,
      "Ġtotal": 746,
      "Ġoften": 747,
      "Ġv": 748,
      "Ġcountries": 749,
      "Ġhistory": 750,
      "Ġoutside": 751,
      "Ġfederal": 752,
      "Ġ19": 753,
      "Ġfact": 754,
      "ĠHigh": 755,
      "Ġcareer": 756,
      "im": 757,
      "Ġinternational": 758,
      "ĠNovember": 759,
      "Ġfront": 760,
      "Ġkind": 761,
      "Ġkey": 762,
      "ra": 763,
      "ĠSan": 764,
      "Ġshort": 765,
      "Ġname": 766,
      "ĠAccording": 767,
      "Ġcourse": 768,
      "Ġre": 769,
      "Ġwanted": 770,
      "W": 771,
      "ĠSeptember": 772,
      "Ġinterest": 773,
      "Ġrole": 774,
      "Ġresults": 775,
      "Ġeconomic": 776,
      "Ġ2014": 777,
      "Ġchance": 778,
      "ĠOctober": 779,
      "Ġspecial": 780,
      "Ġofficial": 781,
      "Ġneeds": 782,
      "um": 783,
      "Ġl": 784,
      "Ġproducts": 785,
      "Ġnon": 786,
      "Ġ@": 787,
      "ĠBank": 788,
      "Ġahead": 789,
      "Ġhouse": 790,
      "U": 791,
      "Ġboard": 792,
      "Ġold": 793,
      "Ġsaw": 794,
      "Ġlower": 795,
      "ĠEuropean": 796,
      "Ġcontrol": 797,
      "ĠRussia": 798,
      "Ġeight": 799,
      "Ġrelease": 800,
      "Ġpotential": 801,
      "Ġthought": 802,
      "Ġinvestigation": 803,
      "Ġonline": 804,
      "based": 805,
      "Ġtechnology": 806,
      "ĠDonald": 807,
      "id": 808,
      "Ġbody": 809,
      "Ġrisk": 810,
      "ian": 811,
      "Ġcapital": 812,
      "Ġstaff": 813,
      "Ġaction": 814,
      "ĠLeague": 815,
      "Ġplaying": 816,
      "Ġmakes": 817,
      "Ġalmost": 818,
      "Ġperformance": 819,
      "Ġ22": 820,
      "Ġg": 821,
      "Ġfilm": 822,
      "Ġnearly": 823,
      "ĠCenter": 824,
      "Ġvisit": 825,
      "ĠGroup": 826,
      "Ġbank": 827,
      "Ġbit": 828,
      "Ġreceived": 829,
      "ĠAugust": 830,
      "Ġmilitary": 831,
      "ĠHis": 832,
      "ine": 833,
      "Ġchief": 834,
      "ĠSchool": 835,
      "Ġbring": 836,
      "ĠCourt": 837,
      "Ġ(@": 838,
      "Ġmeans": 839,
      "ĠSh": 840,
      "Ġfans": 841,
      "Ġse": 842,
      "Ġ40": 843,
      "20": 844,
      "\".": 845,
      "V": 846,
      "Ġcut": 847,
      "Ġkilled": 848,
      "Ġ#": 849,
      "Ġprices": 850,
      "Ġgave": 851,
      "ĠStreet": 852,
      "ir": 853,
      "ĠY": 854,
      "Ġcurrently": 855,
      "Ġf": 856,
      "ay": 857,
      "ne": 858,
      "te": 859,
      "Ġtry": 860,
      "ĠPark": 861,
      "ĥ": 862,
      "J": 863,
      "Ġquestion": 864,
      "Ġhand": 865,
      "Ġeconomy": 866,
      "Ġinvestors": 867,
      "able": 868,
      "Ġplayer": 869,
      "ĠBy": 870,
      "ĠDavid": 871,
      "Ġloss": 872,
      "ab": 873,
      "Ġbelow": 874,
      "Ġwrote": 875,
      "co": 876,
      "ate": 877,
      "Ġrunning": 878,
      "un": 879,
      "Ġbegan": 880,
      "Ġsingle": 881,
      "Ġfield": 882,
      "Ġ23": 883,
      "Ġleader": 884,
      "Ġw": 885,
      "ĠCalifornia": 886,
      "Ġfourth": 887,
      "Ġactually": 888,
      "Ġlist": 889,
      "ll": 890,
      "Ġcouple": 891,
      "Ġstudy": 892,
      "Ġteams": 893,
      "He": 894,
      "ah": 895,
      "ĠCanada": 896,
      "Ġla": 897,
      "Ġresult": 898,
      "Ġaccess": 899,
      "Ġvote": 900,
      "ĠMore": 901,
      "ĠFebruary": 902,
      "Ġrevenue": 903,
      "Ġoffer": 904,
      "Ġlet": 905,
      "ier": 906,
      "Ġbuy": 907,
      "Ġattack": 908,
      "Ġblack": 909,
      "Ġr": 910,
      "Ġareas": 911,
      "Ġstop": 912,
      "Ġimpact": 913,
      "Ġmatch": 914,
      "Ġinvestment": 915,
      "Ġcustomers": 916,
      "Ġleaders": 917,
      "ies": 918,
      "Ġmember": 919,
      "Ġchild": 920,
      "Ġroad": 921,
      "ul": 922,
      "Ġvalue": 923,
      "Ġshows": 924,
      "ĠDr": 925,
      "ĠDe": 926,
      "ant": 927,
      "ĠLondon": 928,
      "Ġroom": 929,
      "Ġmusic": 930,
      "Ġproduction": 931,
      "Ġanything": 932,
      "Ġfirm": 933,
      "Ġbiggest": 934,
      "Ġair": 935,
      "Ġproblem": 936,
      "Ġgeneral": 937,
      "Ġwasn": 938,
      "Ġi": 939,
      "Ġprivate": 940,
      "Ġespecially": 941,
      "Ġadministration": 942,
      "Ġadditional": 943,
      "ĠCo": 944,
      "Ġopportunity": 945,
      "Ġhold": 946,
      "&": 947,
      "Ġmatter": 948,
      "Ġsenior": 949,
      "Ġclub": 950,
      "Ġsomeone": 951,
      "ĠÃ": 952,
      "ĠEast": 953,
      "Ġ2019": 954,
      ".'": 955,
      "Ġneeded": 956,
      "ĠJames": 957,
      "time": 958,
      "Ġhowever": 959,
      "Ġeverything": 960,
      "Ġeveryone": 961,
      "Ġdied": 962,
      "Ġinvolved": 963,
      "Ġfriends": 964,
      "Ġisn": 965,
      "Ġworth": 966,
      "ik": 967,
      "ĠCup": 968,
      "Ġshowed": 969,
      "There": 970,
      "Ġ28": 971,
      "Ġmeet": 972,
      "Ġ26": 973,
      "Ġ27": 974,
      "Y": 975,
      "Ġregion": 976,
      "ĠPress": 977,
      "ĠNow": 978,
      "Ġson": 979,
      "Ġspace": 980,
      "Ġleading": 981,
      "Ġstates": 982,
      "Ġweekend": 983,
      "ĠÂ£": 984,
      "Ġmother": 985,
      "Ġprevious": 986,
      "ĠUK": 987,
      "ĠMichael": 988,
      "Ġleave": 989,
      "est": 990,
      "em": 991,
      "Ġz": 992,
      "ĠSome": 993,
      "ors": 994,
      "out": 995,
      "15": 996,
      "Ġwar": 997,
      "Ġwebsite": 998,
      "Ġstar": 999,
      "X": 1000,
      "ro": 1001,
      "Ġtarget": 1002,
      "Ġhimself": 1003,
      "Ġturn": 1004,
      "ĠEurope": 1005,
      "Ġworked": 1006,
      "Ġenergy": 1007,
      "Ġscored": 1008,
      "Ġ*": 1009,
      "Ġsoon": 1010,
      "Ġball": 1011,
      "ĠTV": 1012,
      "Ġannual": 1013,
      "Ġ2013": 1014,
      "Ġrace": 1015,
      "ĠInternational": 1016,
      "'d": 1017,
      "ĠMarket": 1018,
      "Ġconference": 1019,
      "io": 1020,
      "Ġo": 1021,
      "Ġchanges": 1022,
      "ig": 1023,
      "Ġofficers": 1024,
      "Ġinside": 1025,
      "Ġform": 1026,
      "Ġpublished": 1027,
      "Ġphone": 1028,
      "Ġco": 1029,
      "Ġlegal": 1030,
      "Ġexecutive": 1031,
      "Ġfight": 1032,
      "ings": 1033,
      "Ġhope": 1034,
      "Ġsummer": 1035,
      "Ġofficer": 1036,
      "Ġfootball": 1037,
      "Ġproperty": 1038,
      "@": 1039,
      "Ġbook": 1040,
      "Ġparents": 1041,
      "Ġcosts": 1042,
      "ac": 1043,
      "Ġmanager": 1044,
      "Ġcreate": 1045,
      "Ġage": 1046,
      "Ġemail": 1047,
      "Ġmarkets": 1048,
      "Ġmain": 1049,
      "Ġhuman": 1050,
      "Ġsent": 1051,
      "Ġmanagement": 1052,
      "ĠDay": 1053,
      "ton": 1054,
      "Ġcash": 1055,
      "Ġfocus": 1056,
      "Ġexpect": 1057,
      "Ġtraining": 1058,
      "Ġbecame": 1059,
      "Ġwhose": 1060,
      "Ġevents": 1061,
      "Ġround": 1062,
      "ĠLe": 1063,
      "Ġfell": 1064,
      "Ġabove": 1065,
      "Ġanalysts": 1066,
      "Ġtalk": 1067,
      "Ġsituation": 1068,
      "ri": 1069,
      "ated": 1070,
      "ke": 1071,
      "Ġwants": 1072,
      "ag": 1073,
      "Ġlives": 1074,
      "om": 1075,
      "Ġal": 1076,
      "Ġdemand": 1077,
      "Ġsafety": 1078,
      "Ġrest": 1079,
      "ĠCouncil": 1080,
      "Ġpersonal": 1081,
      "Ġsite": 1082,
      "ĠRussian": 1083,
      "Ġmid": 1084,
      "Ġnothing": 1085,
      "Ġwhole": 1086,
      "Ġbill": 1087,
      "Ġsold": 1088,
      "ĠBritish": 1089,
      "se": 1090,
      "Ġremain": 1091,
      "12": 1092,
      "Ġforeign": 1093,
      "Ġshooting": 1094,
      "Ġstay": 1095,
      "50": 1096,
      "ang": 1097,
      "Ġhospital": 1098,
      "Ġbad": 1099,
      "Ġaddress": 1100,
      "ĠKorea": 1101,
      "Ġhappened": 1102,
      "Ġcharges": 1103,
      "Ġwhite": 1104,
      "Ġ31": 1105,
      "If": 1106,
      "Ġearnings": 1107,
      "Ġbreak": 1108,
      "Ġlight": 1109,
      "Ġterms": 1110,
      "ĠChinese": 1111,
      "ĠSenate": 1112,
      "ana": 1113,
      "Ġidea": 1114,
      "ap": 1115,
      "of": 1116,
      "Ġnine": 1117,
      "Ġcompared": 1118,
      "Ġbuild": 1119,
      "ard": 1120,
      "In": 1121,
      "Ġsimilar": 1122,
      "Ġgas": 1123,
      "Ġvictory": 1124,
      "Ġ2012": 1125,
      "Ġdebt": 1126,
      "ĠMar": 1127,
      "Ġarrested": 1128,
      "Ġcomment": 1129,
      "Ġincreased": 1130,
      "Ġmedical": 1131,
      "Ġ29": 1132,
      "ĠJan": 1133,
      "Ġgroups": 1134,
      "Ġdespite": 1135,
      "Ġfall": 1136,
      "Ġtell": 1137,
      "Ġworkers": 1138,
      "Ġtown": 1139,
      "Ã©": 1140,
      "Ġwife": 1141,
      "Ġquestions": 1142,
      "Ġcontinued": 1143,
      "Ġheart": 1144,
      "Ġmet": 1145,
      "Ġbrought": 1146,
      "Ġhelped": 1147,
      "ĠCongress": 1148,
      "Ġstep": 1149,
      "Ġfather": 1150,
      "Ġmoment": 1151,
      "Ġproduct": 1152,
      "Ġprobably": 1153,
      "Ġlargest": 1154,
      "Ġvehicle": 1155,
      "ĠEngland": 1156,
      "Ġallow": 1157,
      "Ġstarting": 1158,
      "Ġkids": 1159,
      "Ġincident": 1160,
      "Ġnet": 1161,
      "Ġrates": 1162,
      "ĠRead": 1163,
      "Ġpressure": 1164,
      "Ġincluded": 1165,
      "Ġread": 1166,
      "Ġissued": 1167,
      "ol": 1168,
      "Ġeither": 1169,
      "Ġefforts": 1170,
      "Ġincludes": 1171,
      "ĠRepublican": 1172,
      "ish": 1173,
      "âĢ¦": 1174,
      "Ġgoals": 1175,
      "aj": 1176,
      "Ġen": 1177,
      "x": 1178,
      "Ġraised": 1179,
      "au": 1180,
      "Ġlonger": 1181,
      "ut": 1182,
      "Ġwatch": 1183,
      "ĠTexas": 1184,
      "You": 1185,
      "Ġrange": 1186,
      "nd": 1187,
      "Ġfunds": 1188,
      "Ġremains": 1189,
      "ĠMark": 1190,
      "Ġ60": 1191,
      "Ġque": 1192,
      "sh": 1193,
      "Ġinterview": 1194,
      "Ġrather": 1195,
      "Ġresidents": 1196,
      "Ġgrowing": 1197,
      "Ġpre": 1198,
      "Ġpaid": 1199,
      "Ġcases": 1200,
      "ĠReuters": 1201,
      "Ġdifficult": 1202,
      "Ġsign": 1203,
      "ĠGoogle": 1204,
      "Ġhttps": 1205,
      "ĠPaul": 1206,
      "Ġliving": 1207,
      "day": 1208,
      "ĠQ": 1209,
      "iz": 1210,
      "ĠRed": 1211,
      "Ġland": 1212,
      "They": 1213,
      "ĠRoad": 1214,
      "_": 1215,
      "ĠThese": 1216,
      "Ġview": 1217,
      "Ġagency": 1218,
      "Ġreason": 1219,
      "Ġallowed": 1220,
      "ĠAustralia": 1221,
      "az": 1222,
      "ĠRe": 1223,
      "Ġturned": 1224,
      "11": 1225,
      "Ġnation": 1226,
      "Ġready": 1227,
      "Ġpress": 1228,
      "Ġbudget": 1229,
      "Ġdaily": 1230,
      "ĠChief": 1231,
      "Ġfamilies": 1232,
      "Ġsignificant": 1233,
      "ĠFirst": 1234,
      "Ġthemselves": 1235,
      "Ġj": 1236,
      "Ġruns": 1237,
      "Ġaccused": 1238,
      "Ġtakes": 1239,
      "Ġspent": 1240,
      "Ġvia": 1241,
      "ot": 1242,
      "ina": 1243,
      "25": 1244,
      "land": 1245,
      "Ġexample": 1246,
      "Ġauthorities": 1247,
      "Ġdate": 1248,
      "Ġended": 1249,
      "all": 1250,
      "Reuters": 1251,
      "Ġbusinesses": 1252,
      "ans": 1253,
      "Ġdetails": 1254,
      "Ġground": 1255,
      "Ġpretty": 1256,
      "ĠApple": 1257,
      "ation": 1258,
      "ĠSmith": 1259,
      "ĠCompany": 1260,
      "ĠFlorida": 1261,
      "Ġdrug": 1262,
      "Ġresponse": 1263,
      "one": 1264,
      "Ġeducation": 1265,
      "Ġmean": 1266,
      "Ġleague": 1267,
      "Ġanyone": 1268,
      "Ġminister": 1269,
      "Ġtitle": 1270,
      "Ġadding": 1271,
      "Ġproblems": 1272,
      "Ġopening": 1273,
      "Ġconditions": 1274,
      "Ġred": 1275,
      "Ġdecided": 1276,
      "Å": 1277,
      "Ġposted": 1278,
      "term": 1279,
      "Ġamount": 1280,
      "ĠEU": 1281,
      "Ġsuccess": 1282,
      "Ġevidence": 1283,
      "ĠObama": 1284,
      "Ġaddition": 1285,
      "Ġprovided": 1286,
      "ĠLos": 1287,
      "Ġagreement": 1288,
      "Ġstage": 1289,
      "ens": 1290,
      "Ġrelationship": 1291,
      "ĠGeneral": 1292,
      "Ġsector": 1293,
      "Ġstudent": 1294,
      "ating": 1295,
      "Ġtest": 1296,
      "\",": 1297,
      "Ġwinning": 1298,
      "Ġfelt": 1299,
      "Ġsource": 1300,
      "Z": 1301,
      "Ġseems": 1302,
      "Ġcause": 1303,
      "Ġschools": 1304,
      "Ġdrive": 1305,
      "Ġensure": 1306,
      "Ġhuge": 1307,
      "ĠMy": 1308,
      "ĠHealth": 1309,
      "Ġscene": 1310,
      "Ġgiving": 1311,
      "Ġcenter": 1312,
      "Ġpositive": 1313,
      "Ġyards": 1314,
      "Ġjobs": 1315,
      "Ġaccount": 1316,
      "Ġheard": 1317,
      "Ġquality": 1318,
      "Ġways": 1319,
      "Ġimmediately": 1320,
      "Ġemployees": 1321,
      "are": 1322,
      "Ġpass": 1323,
      "ĠCEO": 1324,
      "Ġreceive": 1325,
      "Ġlooks": 1326,
      "ĠAfrica": 1327,
      "Ġthroughout": 1328,
      "led": 1329,
      "Ġrelated": 1330,
      "Ġsell": 1331,
      "ĠUnion": 1332,
      "ĠPhoto": 1333,
      "ter": 1334,
      "Ġquickly": 1335,
      "ĠHow": 1336,
      "Ġvarious": 1337,
      "Ġreach": 1338,
      "Ġpick": 1339,
      "Ġcharged": 1340,
      "Ġquite": 1341,
      "ent": 1342,
      "q": 1343,
      "ins": 1344,
      "Ġphoto": 1345,
      "Ġunderstand": 1346,
      "ĠâĢ¢": 1347,
      "Ġreached": 1348,
      "Ġtrack": 1349,
      "uk": 1350,
      "Ġeffort": 1351,
      "ville": 1352,
      "Ġcentral": 1353,
      "Ġdaughter": 1354,
      "Ġcontract": 1355,
      "Ġinjury": 1356,
      "Ġopened": 1357,
      "Ġ($": 1358,
      "Ġstraight": 1359,
      "17": 1360,
      "Ġcredit": 1361,
      "ĠIndian": 1362,
      "Ġsexual": 1363,
      "Ġworks": 1364,
      "Ġeasy": 1365,
      "18": 1366,
      "Ġclosed": 1367,
      "Ġh": 1368,
      "Ġhappen": 1369,
      "Ġforce": 1370,
      "ler": 1371,
      "Ġhappy": 1372,
      "Ġshared": 1373,
      "Ġoverall": 1374,
      "Ġmoving": 1375,
      "á": 1376,
      "Ġprojects": 1377,
      "ĠBlack": 1378,
      "Ġconcerns": 1379,
      "Ġclass": 1380,
      "Ġtried": 1381,
      "Ġappeared": 1382,
      "Ġcontent": 1383,
      "ĠDistrict": 1384,
      "Ġterm": 1385,
      "Ġinstead": 1386,
      "ĠOffice": 1387,
      "Ġcontinues": 1388,
      "Ġlevels": 1389,
      "Ġafternoon": 1390,
      "Ġfund": 1391,
      "Ġsale": 1392,
      "Ġdriver": 1393,
      "Ġask": 1394,
      "Ġcannot": 1395,
      "ner": 1396,
      "end": 1397,
      "ĠHere": 1398,
      "field": 1399,
      "Ġstore": 1400,
      "www": 1401,
      "Ġcertain": 1402,
      "Ġself": 1403,
      "Ġdollar": 1404,
      "ĠHer": 1405,
      "Ġpopular": 1406,
      "Ġfollow": 1407,
      "Ġspending": 1408,
      "by": 1409,
      "Ġmoved": 1410,
      "Ġgoes": 1411,
      "Ġcreated": 1412,
      "Ġstand": 1413,
      "Ġoperations": 1414,
      "Ġlooked": 1415,
      "Ġtreatment": 1416,
      "ov": 1417,
      "Ġdistrict": 1418,
      "Ġsigned": 1419,
      "Ġhands": 1420,
      "Ġmodel": 1421,
      "ĠAngeles": 1422,
      "Ġy": 1423,
      "Ġborder": 1424,
      "Ġincome": 1425,
      "ĠLast": 1426,
      "Ġcharge": 1427,
      "Ġdriving": 1428,
      "ĠJapan": 1429,
      "Ġrise": 1430,
      "Ġtalks": 1431,
      "Ġfollowed": 1432,
      "Ġpreviously": 1433,
      "Ġusers": 1434,
      "Ġfunding": 1435,
      "ĠJohnson": 1436,
      "Ġ": 1437,
      "ou": 1438,
      "ai": 1439,
      "Ġnamed": 1440,
      "Ġfriend": 1441,
      "ĠNov": 1442,
      "Ġdefense": 1443,
      "ĠBritain": 1444,
      "Ġentire": 1445,
      "Ġtrading": 1446,
      "Ġfailed": 1447,
      "ĠEl": 1448,
      "Ġclaims": 1449,
      "Ġcomments": 1450,
      "Ġbeat": 1451,
      "ib": 1452,
      "Ġbasis": 1453,
      "ĠJones": 1454,
      "Ġpresent": 1455,
      "ĠBe": 1456,
      "Ġdouble": 1457,
      "Ġrose": 1458,
      "ite": 1459,
      "Ġability": 1460,
      "Ġoriginal": 1461,
      "Ġdead": 1462,
      "ĠCommission": 1463,
      "ĠMe": 1464,
      "Ġcompetition": 1465,
      "Ġ2011": 1466,
      "Ġknew": 1467,
      "Ġmaterial": 1468,
      "av": 1469,
      "ĠFrance": 1470,
      "Ġscore": 1471,
      "Ġsense": 1472,
      "Ġserious": 1473,
      "Ġconfirmed": 1474,
      "Ġanti": 1475,
      "Ġviolence": 1476,
      "Ġimprove": 1477,
      "son": 1478,
      "Ã³": 1479,
      "ĠAP": 1480,
      "Ġsh": 1481,
      "Ġhost": 1482,
      "ĠMike": 1483,
      "Ġpatients": 1484,
      "ĠNFL": 1485,
      "Ġcrisis": 1486,
      "Ġrevealed": 1487,
      "ach": 1488,
      "ĠPrime": 1489,
      "Ġbuilt": 1490,
      "ĠNot": 1491,
      "Ġrules": 1492,
      "Ġelse": 1493,
      "Ġdepartment": 1494,
      "Ġitself": 1495,
      "ise": 1496,
      "500": 1497,
      "Ġcomplete": 1498,
      "ion": 1499,
      "Ġtrial": 1500,
      "ĠBay": 1501,
      "ĠDec": 1502,
      "Ġattention": 1503,
      "Ġtravel": 1504,
      "ĠCentral": 1505,
      "ry": 1506,
      "Ġagreed": 1507,
      "Ġmind": 1508,
      "ĠMc": 1509,
      "Ġ70": 1510,
      "Ġcontact": 1511,
      "ari": 1512,
      "ĠTimes": 1513,
      "Ġspot": 1514,
      "ĠFrench": 1515,
      "Ġgets": 1516,
      "op": 1517,
      "Ġbrand": 1518,
      "Ġcalls": 1519,
      "Ġbanks": 1520,
      "Ġdesign": 1521,
      "Ġsafe": 1522,
      "Ġoffers": 1523,
      "Ġpractice": 1524,
      "ĠOf": 1525,
      "Ã¡": 1526,
      "ling": 1527,
      "Ġtrue": 1528,
      "off": 1529,
      "Ġnumbers": 1530,
      "Ġfun": 1531,
      "Ġlearn": 1532,
      "Ġmultiple": 1533,
      "ĠIs": 1534,
      "res": 1535,
      "als": 1536,
      "Ġcommon": 1537,
      "ized": 1538,
      "Ġchallenge": 1539,
      "Ġcommittee": 1540,
      "ĠOur": 1541,
      "Ġbase": 1542,
      "ani": 1543,
      "ĠAssociation": 1544,
      "ung": 1545,
      "Ġnetwork": 1546,
      "ĠBrown": 1547,
      "Ġapproach": 1548,
      "16": 1549,
      "Ġfinished": 1550,
      "Ġreview": 1551,
      "Ġrequired": 1552,
      "Ġapp": 1553,
      "ĠMan": 1554,
      "ĠâĢ¦": 1555,
      "twitter": 1556,
      "ĠDemocratic": 1557,
      "13": 1558,
      "Ġevening": 1559,
      "ĠTom": 1560,
      "Ã¤": 1561,
      "ĠAssociated": 1562,
      "ĠCanadian": 1563,
      "Ġcollege": 1564,
      "Ġspokesman": 1565,
      "Ġarticle": 1566,
      "Ġtowards": 1567,
      "ĠChicago": 1568,
      "Ġmovie": 1569,
      "14": 1570,
      "ity": 1571,
      "Ġforces": 1572,
      "ĠChris": 1573,
      "ĠDemocrats": 1574,
      "Ġfeatures": 1575,
      "Ġhearing": 1576,
      "ĠX": 1577,
      "ĠAlso": 1578,
      "Ġmessage": 1579,
      "age": 1580,
      "Ġnoted": 1581,
      "ĠSuper": 1582,
      "Ġthousands": 1583,
      "aw": 1584,
      "ĠBill": 1585,
      "ĠAr": 1586,
      "ĠLa": 1587,
      "ip": 1588,
      "Ġ/": 1589,
      "ĠDuring": 1590,
      "Ġnote": 1591,
      ".)": 1592,
      "Ġwrong": 1593,
      "if": 1594,
      "Ġpassed": 1595,
      "ĠTwo": 1596,
      "Ġdie": 1597,
      ",'": 1598,
      "ĠDon": 1599,
      "ĠGermany": 1600,
      "Ġletter": 1601,
      "Ġdescribed": 1602,
      "ĠIran": 1603,
      "ĠWilliams": 1604,
      "Ġparticularly": 1605,
      "Ġadd": 1606,
      "Ġconversation": 1607,
      "ĠSe": 1608,
      "Ġhighest": 1609,
      "be": 1610,
      "Ġhomes": 1611,
      "Ġsports": 1612,
      "Ġgone": 1613,
      "ĠAd": 1614,
      "Ġel": 1615,
      "Ġopportunities": 1616,
      "Ġwords": 1617,
      "Ġleaving": 1618,
      "ĠChristmas": 1619,
      "As": 1620,
      "ĠGovernment": 1621,
      "Ġsimply": 1622,
      "Ġhusband": 1623,
      "ĠResearch": 1624,
      "ĠMexico": 1625,
      "ates": 1626,
      "ale": 1627,
      "ĠGreen": 1628,
      "$": 1629,
      "od": 1630,
      "ĠHall": 1631,
      "Ġnatural": 1632,
      "Ġoperating": 1633,
      "les": 1634,
      "ations": 1635,
      "ĠKim": 1636,
      "Ġgold": 1637,
      "ok": 1638,
      "Ġprovides": 1639,
      "(": 1640,
      "ell": 1641,
      "Ġbegin": 1642,
      "ĠParty": 1643,
      "back": 1644,
      "ĠAmazon": 1645,
      "19": 1646,
      "Ġmajority": 1647,
      "ĠEven": 1648,
      "Ġcheck": 1649,
      "Ġweather": 1650,
      "Ġorganization": 1651,
      "Ġstories": 1652,
      "ĠCar": 1653,
      "Ġforced": 1654,
      "ĠGeorge": 1655,
      "Ġwalk": 1656,
      "ong": 1657,
      "Ġfiled": 1658,
      "ĠJustice": 1659,
      "Ġlaunched": 1660,
      "Ġoffered": 1661,
      "Ġwww": 1662,
      "Ġconstruction": 1663,
      "ĠBen": 1664,
      "Ġserved": 1665,
      "Ġ...": 1666,
      "Ġparts": 1667,
      "Ġcancer": 1668,
      "Ġguys": 1669,
      "Reporting": 1670,
      "ash": 1671,
      "less": 1672,
      "Ġleadership": 1673,
      "ĠCommittee": 1674,
      "Ġregular": 1675,
      "Ġcouncil": 1676,
      "Ġcars": 1677,
      "ĠDirector": 1678,
      "Ġjudge": 1679,
      "Ġvictims": 1680,
      "ĠDaily": 1681,
      "Ġkept": 1682,
      "Ġeffect": 1683,
      "Ġbeyond": 1684,
      "pm": 1685,
      "Ġtalking": 1686,
      "Ġconsidered": 1687,
      "ore": 1688,
      "ĠAdvertisement": 1689,
      "Ġst": 1690,
      "ED": 1691,
      "Ġmiddle": 1692,
      "Ġraise": 1693,
      "we": 1694,
      "Ġclaimed": 1695,
      "ino": 1696,
      "Ġalleged": 1697,
      "ĠPro": 1698,
      "ĠScott": 1699,
      "ĠOct": 1700,
      "Ġconsider": 1701,
      "ĠShare": 1702,
      "Ġtraffic": 1703,
      "ĠAfrican": 1704,
      "Ġcouldn": 1705,
      "Ġtoward": 1706,
      "Ġsearch": 1707,
      "But": 1708,
      "Ġlaunch": 1709,
      "Ġinjured": 1710,
      "That": 1711,
      "Ġalthough": 1712,
      "Ġactivities": 1713,
      "Ġchanged": 1714,
      "Ġsources": 1715,
      "Ġmissing": 1716,
      "Ġu": 1717,
      "Ġ35": 1718,
      "Ġcover": 1719,
      "ised": 1720,
      "Ġ|": 1721,
      "ow": 1722,
      "ES": 1723,
      "Ġdecades": 1724,
      "ich": 1725,
      "Ġcaused": 1726,
      "Ġelections": 1727,
      "ane": 1728,
      "IS": 1729,
      "Ġfeet": 1730,
      "ĠBar": 1731,
      "Ġversion": 1732,
      "Ġgrow": 1733,
      "Ġvehicles": 1734,
      "Ġoptions": 1735,
      "Ġindividual": 1736,
      "Ġenvironment": 1737,
      "ĠRobert": 1738,
      "ĠValley": 1739,
      "ĠFrom": 1740,
      "per": 1741,
      "ara": 1742,
      "Ġsystems": 1743,
      "Ġprotect": 1744,
      "ĠKing": 1745,
      "Ġinjuries": 1746,
      "Ġfinally": 1747,
      "Ġnuclear": 1748,
      "40": 1749,
      "Ġratio": 1750,
      "Ġgun": 1751,
      "ĠPakistan": 1752,
      "ĠManagement": 1753,
      "ĠAir": 1754,
      "ce": 1755,
      "Ġopposition": 1756,
      "ment": 1757,
      "ick": 1758,
      "Ġpro": 1759,
      "Ġact": 1760,
      "Ġplatform": 1761,
      "Ġlack": 1762,
      "Ġpair": 1763,
      "Ġ500": 1764,
      "Ġcalling": 1765,
      "ary": 1766,
      "Ġprograms": 1767,
      "Ġscheduled": 1768,
      "Ġfast": 1769,
      "Ġjoined": 1770,
      "ĠWar": 1771,
      "ĠEditing": 1772,
      "ĠSince": 1773,
      "ĠRyan": 1774,
      "ĠMac": 1775,
      "ĠBig": 1776,
      "ĠLake": 1777,
      "Ġdigital": 1778,
      "When": 1779,
      "ue": 1780,
      "Ġassets": 1781,
      "Ġseeing": 1782,
      "ĠAct": 1783,
      "Ġpartner": 1784,
      "ĠBoard": 1785,
      "Ġbeginning": 1786,
      "Ġsupply": 1787,
      "Ġmiles": 1788,
      "Ġprison": 1789,
      "ons": 1790,
      "ĠAmericans": 1791,
      "ub": 1792,
      "ĠOr": 1793,
      "me": 1794,
      "Ġbenefits": 1795,
      "Ġbenefit": 1796,
      "Ġmeasures": 1797,
      "Ġhear": 1798,
      "Ġparties": 1799,
      "Ġsuccessful": 1800,
      "ĠJust": 1801,
      "Ġvictim": 1802,
      "Ġblock": 1803,
      "Ġlimited": 1804,
      "Ġtrip": 1805,
      "ĠPeople": 1806,
      "Ġserve": 1807,
      "Ġart": 1808,
      "ism": 1809,
      "Ġwide": 1810,
      "ĠSch": 1811,
      "Ġ80": 1812,
      "ĠThomas": 1813,
      "Ġ90": 1814,
      "Ġstocks": 1815,
      "Ġgirl": 1816,
      "ĠAsia": 1817,
      "Ġseeking": 1818,
      "Ġcertainly": 1819,
      "ĠServices": 1820,
      "ĠCollege": 1821,
      "Ġcommunities": 1822,
      "Ġextra": 1823,
      "Ġ2010": 1824,
      "ness": 1825,
      "Ġholding": 1826,
      "ous": 1827,
      "Ġtough": 1828,
      "ade": 1829,
      "Ġmobile": 1830,
      "Ġowns": 1831,
      "ĠDo": 1832,
      "ĠFire": 1833,
      "Ġspoke": 1834,
      "Ġreturned": 1835,
      "Ġsize": 1836,
      "Ġcriminal": 1837,
      "ĠInstagram": 1838,
      "Ġoffering": 1839,
      "ĠGod": 1840,
      "ĠService": 1841,
      "Ġpage": 1842,
      "her": 1843,
      "Ġdeep": 1844,
      "wood": 1845,
      "Ġcrime": 1846,
      "ĠSports": 1847,
      "ile": 1848,
      "ĠGlobal": 1849,
      "Ġproposed": 1850,
      "ain": 1851,
      "Ġsession": 1852,
      "ĠFederal": 1853,
      "ĠSyria": 1854,
      "Ġch": 1855,
      "Ġthreat": 1856,
      "Ġallegations": 1857,
      "ĠRepublicans": 1858,
      "ĠGerman": 1859,
      "Ġstrategy": 1860,
      "Ġcommercial": 1861,
      "ING": 1862,
      "ĠSecretary": 1863,
      "Q": 1864,
      "Ġreporters": 1865,
      "100": 1866,
      "ĠCapital": 1867,
      "ĠBoth": 1868,
      "ĠPost": 1869,
      "ĠIsrael": 1870,
      "Ġsave": 1871,
      "ts": 1872,
      "ill": 1873,
      "Ġdrop": 1874,
      "Ġreserved": 1875,
      "ĠMany": 1876,
      "Ġavoid": 1877,
      "Ġ200": 1878,
      "iv": 1879,
      "Ġdamage": 1880,
      "Ġcondition": 1881,
      "Ġdropped": 1882,
      "Ġdoor": 1883,
      "Ġplanning": 1884,
      "ire": 1885,
      "Ġcard": 1886,
      "Ġdesigned": 1887,
      "Ġreduce": 1888,
      "AN": 1889,
      "ĠUn": 1890,
      "ford": 1891,
      "ĠThen": 1892,
      "Ġpic": 1893,
      "ĠCopyright": 1894,
      "Ġrain": 1895,
      "ĠMartin": 1896,
      "Ġdomestic": 1897,
      "45": 1898,
      "ge": 1899,
      "Ġmurder": 1900,
      "Ġspeech": 1901,
      "line": 1902,
      "Ġhelping": 1903,
      "Ġplanned": 1904,
      "Ġfeature": 1905,
      "ud": 1906,
      "Ġtype": 1907,
      "ham": 1908,
      "ĠPublic": 1909,
      "ja": 1910,
      "Ġinsurance": 1911,
      "Ġattacks": 1912,
      "ĠCorp": 1913,
      "Ġforecast": 1914,
      "Ġresources": 1915,
      "ma": 1916,
      "?\"": 1917,
      "ĠAm": 1918,
      "ĠSept": 1919,
      "Ġpush": 1920,
      "Ġattorney": 1921,
      "23": 1922,
      "Ġemergency": 1923,
      "Ġwinner": 1924,
      "Ġblood": 1925,
      "Ġnorth": 1926,
      "ĠFeb": 1927,
      "Ġbaby": 1928,
      "Ġfloor": 1929,
      "Ġspend": 1930,
      "Ġex": 1931,
      "Ġdollars": 1932,
      "Ġunit": 1933,
      "ĠHill": 1934,
      "Ġder": 1935,
      "ĠAbout": 1936,
      "Ġalone": 1937,
      "ization": 1938,
      "Ġpresidential": 1939,
      "Ġactivity": 1940,
      "ĠTHE": 1941,
      "ee": 1942,
      "ber": 1943,
      "ĠOther": 1944,
      "Ġowner": 1945,
      "Ġhour": 1946,
      "Ġcities": 1947,
      "Ġanswer": 1948,
      "ide": 1949,
      "Ġfully": 1950,
      "ek": 1951,
      "ists": 1952,
      "Ġcoverage": 1953,
      "Ġvs": 1954,
      "Ġfigure": 1955,
      "Ġpopulation": 1956,
      "org": 1957,
      "Ġsnow": 1958,
      "Ġbecoming": 1959,
      "ĠSam": 1960,
      "ĠCarolina": 1961,
      "Ġjoin": 1962,
      "Ġprofit": 1963,
      "Ġitems": 1964,
      "Ġindex": 1965,
      "Ġanalysis": 1966,
      "Ġtournament": 1967,
      "Ġstake": 1968,
      "Ġperfect": 1969,
      "way": 1970,
      "Ġband": 1971,
      "Ġgirls": 1972,
      "Ġoption": 1973,
      "Ġplays": 1974,
      "oc": 1975,
      "Ġproviding": 1976,
      "ÃŃ": 1977,
      "24": 1978,
      "Ġwouldn": 1979,
      "Ġones": 1980,
      "Ġdeclined": 1981,
      "Ġwritten": 1982,
      "Ġvoters": 1983,
      "Ġcandidate": 1984,
      "Ġsuspect": 1985,
      "Ġpolicies": 1986,
      "Ġpeace": 1987,
      "ast": 1988,
      "Ġparticular": 1989,
      "for": 1990,
      "Ġhopes": 1991,
      "Ġstation": 1992,
      "ĠMost": 1993,
      "Ġspeak": 1994,
      "ĠRiver": 1995,
      "Ġasking": 1996,
      "Ġstatements": 1997,
      "Ġfifth": 1998,
      "ha": 1999,
      "ĠNigeria": 2000,
      "af": 2001,
      "Ġexplained": 2002,
      "Ġbar": 2003,
      "Ġhousing": 2004,
      "ĠSanta": 2005,
      "Ġidentified": 2006,
      "Ġsimple": 2007,
      "Ġcritical": 2008,
      "ĠClub": 2009,
      "ĠSecurity": 2010,
      "ĠLike": 2011,
      "Ġstarts": 2012,
      "art": 2013,
      "Ġstreet": 2014,
      "Ġreality": 2015,
      "Ġheavy": 2016,
      "Ġprogress": 2017,
      "Ġshowing": 2018,
      "Ġchallenges": 2019,
      "Ġban": 2020,
      "Ġcommitted": 2021,
      "35": 2022,
      "»": 2023,
      "Ġdirectly": 2024,
      "Ġaren": 2025,
      "Ġclaim": 2026,
      "ĠWestern": 2027,
      "ind": 2028,
      "Ġgives": 2029,
      "ĠSaudi": 2030,
      "Ġchoice": 2031,
      "ĠTh": 2032,
      "Ġapproved": 2033,
      "Ġlocated": 2034,
      "Ġarrived": 2035,
      "22": 2036,
      "Ġcaught": 2037,
      "Ġprofessional": 2038,
      "Ġmissed": 2039,
      "Ġculture": 2040,
      "ĠYear": 2041,
      "ĠOhio": 2042,
      "ĠLtd": 2043,
      "ĠAnother": 2044,
      "Ġseem": 2045,
      "Ġbelieves": 2046,
      "Ġbelieved": 2047,
      "Ġcharacter": 2048,
      "ĠAug": 2049,
      "red": 2050,
      "Ġfine": 2051,
      "Ġprior": 2052,
      "Ġthinking": 2053,
      "Ġhttp": 2054,
      "Ġ+": 2055,
      "Ġzone": 2056,
      "Ġputting": 2057,
      "Ġcrash": 2058,
      "ĠAustralian": 2059,
      "ĠAb": 2060,
      "Ġfocused": 2061,
      "ĠREUTERS": 2062,
      "ĠFox": 2063,
      "ĠSp": 2064,
      "Ġtraditional": 2065,
      "Ġanalyst": 2066,
      "Ġwait": 2067,
      "IT": 2068,
      "Ġrequest": 2069,
      "ru": 2070,
      "ians": 2071,
      "ize": 2072,
      "Ġfinish": 2073,
      "Ġlaws": 2074,
      "Ġran": 2075,
      "ER": 2076,
      "Ġsouth": 2077,
      "Ġspeed": 2078,
      "Ġmovement": 2079,
      "Ġassault": 2080,
      "Ġexchange": 2081,
      "Ġappear": 2082,
      "ĠSun": 2083,
      "Ġle": 2084,
      "Ġmaybe": 2085,
      "Ġlosing": 2086,
      "Ġsubject": 2087,
      "ive": 2088,
      "mer": 2089,
      "ĠBusiness": 2090,
      "ĠBl": 2091,
      "Ġappears": 2092,
      "Ġadvantage": 2093,
      "ĠLee": 2094,
      "ada": 2095,
      "ĠUnder": 2096,
      "Ġprevent": 2097,
      "Ġrespect": 2098,
      "Ġsex": 2099,
      "Ġcentre": 2100,
      "ĠJoe": 2101,
      "ado": 2102,
      "Ġtable": 2103,
      "Ġequipment": 2104,
      "Ġfair": 2105,
      "Ġtour": 2106,
      "Ġ32": 2107,
      "ĠFinancial": 2108,
      "Ġcounty": 2109,
      "Ġdevices": 2110,
      "Ġcustomer": 2111,
      "Ġinfrastructure": 2112,
      "Ġexpectations": 2113,
      "Ġfacing": 2114,
      "Ġupon": 2115,
      "Ġcross": 2116,
      "ĠOpen": 2117,
      "AL": 2118,
      "Ġquick": 2119,
      "Ġattempt": 2120,
      "Ġcompleted": 2121,
      "Ġfacility": 2122,
      "Ġconfidence": 2123,
      "ĠSupreme": 2124,
      "Ġpiece": 2125,
      "our": 2126,
      "Ġplaces": 2127,
      "Ġsometimes": 2128,
      "Ġpoor": 2129,
      "Ġstorm": 2130,
      "Ġhot": 2131,
      "Ġaffected": 2132,
      "na": 2133,
      "Ġabuse": 2134,
      "ĠMs": 2135,
      "Ġword": 2136,
      "over": 2137,
      "Ġbrother": 2138,
      "Ġnecessary": 2139,
      "Ġeventually": 2140,
      "ĠStar": 2141,
      "Ġsend": 2142,
      "Ġboy": 2143,
      "ĠRs": 2144,
      "Ġremember": 2145,
      "21": 2146,
      "Ġclimate": 2147,
      "Ġcapacity": 2148,
      "Ġresponsible": 2149,
      "ĠMatt": 2150,
      "month": 2151,
      "Ġsuffered": 2152,
      "%.": 2153,
      "og": 2154,
      "ĠPeter": 2155,
      "Ġ,": 2156,
      "Ġfeeling": 2157,
      "ze": 2158,
      "Ġbuying": 2159,
      "oy": 2160,
      "ij": 2161,
      "Ġbought": 2162,
      "Ġactions": 2163,
      "Ġowned": 2164,
      "Ġ___": 2165,
      "Ġphysical": 2166,
      "Ġspecific": 2167,
      "Ġbattle": 2168,
      "ĠEnergy": 2169,
      "Ġpicture": 2170,
      "Ġactive": 2171,
      "Ġindividuals": 2172,
      "Ġguy": 2173,
      "Ġregional": 2174,
      "Ġbond": 2175,
      "ows": 2176,
      "ĠToronto": 2177,
      "Ġrule": 2178,
      "Ġdevelop": 2179,
      "Ġcrowd": 2180,
      "Ġguilty": 2181,
      "Ġfemale": 2182,
      "Ġselling": 2183,
      "ĠFollow": 2184,
      "Ġmyself": 2185,
      "ata": 2186,
      "Ġdevice": 2187,
      "Ġreasons": 2188,
      "Ġrecords": 2189,
      "Ġfighting": 2190,
      "ON": 2191,
      "ities": 2192,
      "ĠHome": 2193,
      "Ġstatus": 2194,
      "Ġplant": 2195,
      "Ġdrugs": 2196,
      "ĠChurch": 2197,
      "Ġcompletely": 2198,
      "Ġdisease": 2199,
      "Ġhighly": 2200,
      "ĠParis": 2201,
      "Ġdecade": 2202,
      "Ġowners": 2203,
      "Ġwall": 2204,
      "Ġcamp": 2205,
      "ĠSteve": 2206,
      "Ġreporting": 2207,
      "Ġearned": 2208,
      "ĠImages": 2209,
      "Ġexisting": 2210,
      "ĠSen": 2211,
      "Ġconcern": 2212,
      "Ġhundreds": 2213,
      "Ġsong": 2214,
      "Ġknows": 2215,
      "Ġunique": 2216,
      "Ġlose": 2217,
      "ĠKh": 2218,
      "Ġapproximately": 2219,
      "Ġhaven": 2220,
      "Ġpark": 2221,
      "Ġindependent": 2222,
      "ĠAlthough": 2223,
      "ĠAndrew": 2224,
      "Ġpaper": 2225,
      "Ġdeveloped": 2226,
      "Ġrising": 2227,
      "Ġdirect": 2228,
      "Ġpurchase": 2229,
      "Ġexactly": 2230,
      "Ġq": 2231,
      "Ġmassive": 2232,
      "Ġbox": 2233,
      "Ġchampion": 2234,
      "ĠClinton": 2235,
      "Ġvoice": 2236,
      "Ġarrest": 2237,
      "ĠKorean": 2238,
      "Ġlearning": 2239,
      "ĠVirginia": 2240,
      "Ġsa": 2241,
      "Ġpar": 2242,
      "Ġchairman": 2243,
      "Ġagencies": 2244,
      "Ġhealthy": 2245,
      "ĠThose": 2246,
      "Ġpowerful": 2247,
      "Ġ45": 2248,
      "Ġdifference": 2249,
      "ĠJackson": 2250,
      "Ġenforcement": 2251,
      "Ġdividend": 2252,
      "qu": 2253,
      "Ġenjoy": 2254,
      "Ġruling": 2255,
      "Ġongoing": 2256,
      "Ġsoftware": 2257,
      "ks": 2258,
      "Ġlocation": 2259,
      "Ġmostly": 2260,
      "Ġcandidates": 2261,
      "men": 2262,
      "Ġbroke": 2263,
      "What": 2264,
      "ĠBr": 2265,
      "Ġ2008": 2266,
      "Ġconsumer": 2267,
      "Ġdiscuss": 2268,
      "Ġdi": 2269,
      "Ġprimary": 2270,
      "ĠEn": 2271,
      "Ġgreen": 2272,
      "Ġconcerned": 2273,
      "Ġimage": 2274,
      "ĠPremier": 2275,
      "ĠMeanwhile": 2276,
      "Ġfired": 2277,
      "ĠBoston": 2278,
      "ann": 2279,
      "Ġcamera": 2280,
      "Ġtraded": 2281,
      "Ġhasn": 2282,
      "Ġexcited": 2283,
      "Ġincreasing": 2284,
      "ĠDespite": 2285,
      "Ġcitizens": 2286,
      "Ġeuro": 2287,
      "Ġreportedly": 2288,
      "Ġminute": 2289,
      "ĠWill": 2290,
      "ĠLLC": 2291,
      "Ġsp": 2292,
      "ĠMichigan": 2293,
      "Ġstopped": 2294,
      "Ġeye": 2295,
      "Ġdenied": 2296,
      "Ġmodern": 2297,
      "ĠWall": 2298,
      "Ġdefinitely": 2299,
      "point": 2300,
      "Ġlines": 2301,
      "Ġpolitics": 2302,
      "Ġhotel": 2303,
      "Ġretail": 2304,
      "Ġstated": 2305,
      "ĠOver": 2306,
      "Ġgrew": 2307,
      "Ġbroadcast": 2308,
      "Ġlegislation": 2309,
      "Ġfresh": 2310,
      "Ġbid": 2311,
      "Ġmanaged": 2312,
      "Ġsociety": 2313,
      "Ġscoring": 2314,
      "ĠGet": 2315,
      "Ġintelligence": 2316,
      "Ġholiday": 2317,
      "Ġgovernor": 2318,
      "Ġestimated": 2319,
      "Ġexperts": 2320,
      "ĠJeff": 2321,
      "Ġstruck": 2322,
      "Ġhits": 2323,
      "Ġcarry": 2324,
      "Ġplaced": 2325,
      "Ġstores": 2326,
      "Ġexpressed": 2327,
      "Ġvalued": 2328,
      "Ġad": 2329,
      "Ġtwice": 2330,
      "ala": 2331,
      "Ġdisplay": 2332,
      "Ġusually": 2333,
      "Ġresponded": 2334,
      "Ġdog": 2335,
      "AS": 2336,
      "ĠFed": 2337,
      "Ġ2009": 2338,
      "Ġdocuments": 2339,
      "Ġnormal": 2340,
      "Ġtrain": 2341,
      "Ġfl": 2342,
      "Ġshown": 2343,
      "ĠEd": 2344,
      "Ġsort": 2345,
      "Ġallegedly": 2346,
      "Ġshots": 2347,
      "ka": 2348,
      "Ġaccounts": 2349,
      "Ġyesterday": 2350,
      "Ġcreating": 2351,
      "Ġchurch": 2352,
      "Ġbus": 2353,
      "Ġaward": 2354,
      "Ġequity": 2355,
      "Ġphotos": 2356,
      "Ġ33": 2357,
      "Ġfiscal": 2358,
      "je": 2359,
      "Ġconsumers": 2360,
      "ĠManchester": 2361,
      "no": 2362,
      "ĠKevin": 2363,
      "Ġgain": 2364,
      "Ġcorporate": 2365,
      "Ġcivil": 2366,
      "ĠMiddle": 2367,
      "ally": 2368,
      "Ġsound": 2369,
      "ĠEnglish": 2370,
      "IC": 2371,
      "Ġwinds": 2372,
      "Ġworst": 2373,
      "ĠGrand": 2374,
      "Ġeffective": 2375,
      "ĠIsland": 2376,
      "Ġdrivers": 2377,
      "Ġfan": 2378,
      "pe": 2379,
      "Ġsides": 2380,
      "ĠGo": 2381,
      "Ġclean": 2382,
      "âĢĵ": 2383,
      "Ġtelevision": 2384,
      "ĠJr": 2385,
      "Ġallows": 2386,
      "My": 2387,
      "Ġgreater": 2388,
      "ance": 2389,
      "Ġdecisions": 2390,
      "Ġrestaurant": 2391,
      "ĠHospital": 2392,
      "ĠTr": 2393,
      "Ġbalance": 2394,
      "Ġmph": 2395,
      "Ġkeeping": 2396,
      "Ġseconds": 2397,
      "Ġweapons": 2398,
      "ert": 2399,
      "Ġpain": 2400,
      "ass": 2401,
      "Ġsteps": 2402,
      "ger": 2403,
      "ĠBrexit": 2404,
      "Ġremaining": 2405,
      "Ġbringing": 2406,
      "ure": 2407,
      "Ġweight": 2408,
      "And": 2409,
      "Ġwriting": 2410,
      "Photo": 2411,
      "ĠChristian": 2412,
      "ob": 2413,
      "Ġsport": 2414,
      "Ġfigures": 2415,
      "Ġtrust": 2416,
      "Ġskills": 2417,
      "Ġseat": 2418,
      "Ġfaces": 2419,
      "ck": 2420,
      "Ġborn": 2421,
      "Ġsuper": 2422,
      "Ġfuel": 2423,
      "Ġdel": 2424,
      "Ġmeant": 2425,
      "ica": 2426,
      "Ġjustice": 2427,
      "Ġspring": 2428,
      "Ġkilling": 2429,
      "Ġnegative": 2430,
      "ĠRichard": 2431,
      "Ġund": 2432,
      "Ġfactors": 2433,
      "Ġsigns": 2434,
      "Ġlearned": 2435,
      "ĠGame": 2436,
      "Ġaudience": 2437,
      "Ġdeliver": 2438,
      "Ġillegal": 2439,
      "Ġblue": 2440,
      "Ġscreen": 2441,
      "Ġremained": 2442,
      "Ġannouncement": 2443,
      "IN": 2444,
      "Ġwaiting": 2445,
      "Ġthanks": 2446,
      "Ġimmigration": 2447,
      "ĠFBI": 2448,
      "Ġwarned": 2449,
      "Ġmeasure": 2450,
      "Ġdraw": 2451,
      "Ġpositions": 2452,
      "Ġdebut": 2453,
      "ĠMedia": 2454,
      "Ġallowing": 2455,
      "air": 2456,
      "hen": 2457,
      "Ġmark": 2458,
      "ys": 2459,
      "Ġprepared": 2460,
      "ĠVegas": 2461,
      "ep": 2462,
      "ice": 2463,
      "2018": 2464,
      "Ġdefensive": 2465,
      "60": 2466,
      "ĠBeach": 2467,
      "Ġpulled": 2468,
      "£": 2469,
      "Ġlawyer": 2470,
      "Ġcast": 2471,
      "Ġsolution": 2472,
      "Ġeyes": 2473,
      "Ġmarketing": 2474,
      "ĠFoundation": 2475,
      "Ġrisks": 2476,
      "ĠToday": 2477,
      "za": 2478,
      "Ġdraft": 2479,
      "Ġice": 2480,
      "26": 2481,
      "ĠHar": 2482,
      "ĠExecutive": 2483,
      "Ġtruck": 2484,
      "ions": 2485,
      "ĠYour": 2486,
      "ĠIreland": 2487,
      "ĠJim": 2488,
      "Ġha": 2489,
      "Ġfear": 2490,
      "Ġ36": 2491,
      "UR": 2492,
      "ĠFord": 2493,
      "Ġwatching": 2494,
      "ien": 2495,
      "Ġstyle": 2496,
      "ĠGood": 2497,
      "Ġwearing": 2498,
      "ĠHouston": 2499,
      "Ġonto": 2500,
      "Ġboost": 2501,
      "Ġapplication": 2502,
      "ĠDan": 2503,
      "Ġspread": 2504,
      "ĠDavis": 2505,
      "Ġstrike": 2506,
      "els": 2507,
      "Ġwind": 2508,
      "Ġinterested": 2509,
      "Ġguard": 2510,
      "Ġmission": 2511,
      "Ġyourself": 2512,
      "Ġoperation": 2513,
      "Ġlarger": 2514,
      "She": 2515,
      "Ġseasons": 2516,
      "28": 2517,
      "27": 2518,
      "Ġrespond": 2519,
      "ci": 2520,
      "ĠCentre": 2521,
      "Our": 2522,
      "Ġnames": 2523,
      "Ġflight": 2524,
      "Ġquarterback": 2525,
      "Ġstandard": 2526,
      "so": 2527,
      "Ġsuggested": 2528,
      "ĠMal": 2529,
      "Ġolder": 2530,
      "ini": 2531,
      "Ġperhaps": 2532,
      "ont": 2533,
      "ĠInstitute": 2534,
      "Ġmillions": 2535,
      "Ġmental": 2536,
      "ÃĤ": 2537,
      "ga": 2538,
      "Ġclients": 2539,
      "Ġplease": 2540,
      "Ġloan": 2541,
      "Ġaware": 2542,
      "ft": 2543,
      "int": 2544,
      "75": 2545,
      "05": 2546,
      "AY": 2547,
      "ĠOut": 2548,
      "Ġhair": 2549,
      "ied": 2550,
      "Ġseemed": 2551,
      "ene": 2552,
      "ty": 2553,
      "NYSE": 2554,
      "Ġoffensive": 2555,
      "Ġtaxes": 2556,
      "Ġinitial": 2557,
      "ren": 2558,
      "Ġseparate": 2559,
      "la": 2560,
      "ĠMiami": 2561,
      "AC": 2562,
      "Ġclearly": 2563,
      "Ġfit": 2564,
      "ĠCoast": 2565,
      "Ġfirms": 2566,
      "Ġpartners": 2567,
      "Ġupcoming": 2568,
      "Ġcold": 2569,
      "Ġproposal": 2570,
      "AT": 2571,
      "Ġshut": 2572,
      "ĠCommunity": 2573,
      "Ġnature": 2574,
      "ĠSal": 2575,
      "Ġbottom": 2576,
      "ting": 2577,
      "ĠClick": 2578,
      "Ġnice": 2579,
      "ets": 2580,
      "Ġhurt": 2581,
      "itt": 2582,
      "ama": 2583,
      "Ġcarried": 2584,
      "ĠCon": 2585,
      "rd": 2586,
      "Ġestate": 2587,
      "ĠLas": 2588,
      "ĠLaw": 2589,
      "ng": 2590,
      "Ġprotection": 2591,
      "Ġproduce": 2592,
      "Ġcurrency": 2593,
      "Ġhappens": 2594,
      "ĠPer": 2595,
      "ney": 2596,
      "ĠLong": 2597,
      "Ġfellow": 2598,
      "Ġcuts": 2599,
      "Ġreading": 2600,
      "ano": 2601,
      "Ġproud": 2602,
      "ost": 2603,
      "ĠUN": 2604,
      "ĠArizona": 2605,
      "AD": 2606,
      "Ġhelps": 2607,
      "Ġwinter": 2608,
      "Ġfinding": 2609,
      "ĠGold": 2610,
      "att": 2611,
      "ĠWhy": 2612,
      "Ġbasketball": 2613,
      "lin": 2614,
      "ĠCan": 2615,
      "ĠBowl": 2616,
      "ial": 2617,
      "ĠAlex": 2618,
      "200": 2619,
      "AM": 2620,
      "Ġpresence": 2621,
      "Ġproduced": 2622,
      "Ġdeveloping": 2623,
      "Ġregarding": 2624,
      "Ġdebate": 2625,
      "Ġvice": 2626,
      "ĠItaly": 2627,
      "Ġsu": 2628,
      "its": 2629,
      "ator": 2630,
      "Ġ34": 2631,
      "Ġcomplex": 2632,
      "Ġpresented": 2633,
      "Ġresearchers": 2634,
      "Ġslow": 2635,
      "ya": 2636,
      "Ġsanctions": 2637,
      "Ġloved": 2638,
      "Ġseek": 2639,
      "Ġresponsibility": 2640,
      "Ġadmitted": 2641,
      "Ġalbum": 2642,
      "Ġsolutions": 2643,
      "Ġfacilities": 2644,
      "ett": 2645,
      "ĠGu": 2646,
      "ĠWell": 2647,
      "Ġlawmakers": 2648,
      "Ġmiss": 2649,
      "ful": 2650,
      "ĠNick": 2651,
      "'.": 2652,
      "Ġfeels": 2653,
      "Ġprime": 2654,
      "Ġknowledge": 2655,
      "Ġdeals": 2656,
      "ĠTaylor": 2657,
      "Ġsurvey": 2658,
      "ĠFrancisco": 2659,
      "Ġjoint": 2660,
      "Ġwhom": 2661,
      "Ġsit": 2662,
      "01": 2663,
      "Ġtr": 2664,
      "Ġorganizations": 2665,
      "ĠAvenue": 2666,
      "ĠTheir": 2667,
      "ĠTim": 2668,
      "Ġrally": 2669,
      "game": 2670,
      "Ġbigger": 2671,
      "Ġlawsuit": 2672,
      "Ġrecorded": 2673,
      "Ġfavorite": 2674,
      "yard": 2675,
      "Ġtransaction": 2676,
      "Ġqu": 2677,
      "oh": 2678,
      "Ġinteresting": 2679,
      "Ġinflation": 2680,
      "ath": 2681,
      "Ġstuff": 2682,
      "Ġindustrial": 2683,
      "ico": 2684,
      "TS": 2685,
      "Ġspeaking": 2686,
      "Ġlosses": 2687,
      "ID": 2688,
      "ĠStadium": 2689,
      "Ġstars": 2690,
      "ĠWomen": 2691,
      "ĠBlue": 2692,
      "Ġwins": 2693,
      "Ġdes": 2694,
      "Ġcompetitive": 2695,
      "ters": 2696,
      "Ġpounds": 2697,
      "Ġdirection": 2698,
      "Ġinnings": 2699,
      "ĠBest": 2700,
      "Ġactor": 2701,
      "Ġdangerous": 2702,
      "Ġrequire": 2703,
      "Ġplus": 2704,
      "Ġsolid": 2705,
      "Ġgeneration": 2706,
      "Ġstrength": 2707,
      "ĠMary": 2708,
      "For": 2709,
      "Ġplenty": 2710,
      "ĠTeam": 2711,
      "Ġinfluence": 2712,
      "Ġfaced": 2713,
      "Ġes": 2714,
      "ĠIslamic": 2715,
      "let": 2716,
      "ĠDevelopment": 2717,
      "Ġpath": 2718,
      "Ġyouth": 2719,
      "Ġcommitment": 2720,
      "Ġbeautiful": 2721,
      "ĠJack": 2722,
      "ort": 2723,
      "Ġten": 2724,
      "Ġattend": 2725,
      "ars": 2726,
      "Ã³n": 2727,
      "Ġviews": 2728,
      "Ġeuros": 2729,
      "Ġauthor": 2730,
      "Ġcore": 2731,
      "Ġsupporters": 2732,
      "ĠiPhone": 2733,
      "Ġfashion": 2734,
      "Ġsmaller": 2735,
      "Ġelected": 2736,
      "Ġuniversity": 2737,
      "Ġpicked": 2738,
      "wa": 2739,
      "Ġordered": 2740,
      "ĠSc": 2741,
      "ĠÅ": 2742,
      "Ġlargely": 2743,
      "+": 2744,
      "ĠAttorney": 2745,
      "Ġpaying": 2746,
      "AR": 2747,
      "Ġconnection": 2748,
      "Ġsetting": 2749,
      "Ġna": 2750,
      "ĠRock": 2751,
      "Ġrecovery": 2752,
      "ew": 2753,
      "Ġserving": 2754,
      "Ġsurprise": 2755,
      "Ġoccurred": 2756,
      "Ġdivision": 2757,
      "Ġtelling": 2758,
      "Ġmargin": 2759,
      "Ġ2020": 2760,
      "Ġsister": 2761,
      "ĠNBA": 2762,
      "Ġvoted": 2763,
      "Ġcon": 2764,
      "By": 2765,
      "Ġ49": 2766,
      "Ġfoot": 2767,
      "Ã¼": 2768,
      "ĠTurkey": 2769,
      "Ġamazing": 2770,
      "Ġcombined": 2771,
      "Ġappearance": 2772,
      "Ġeasily": 2773,
      "DAY": 2774,
      "Ġnotes": 2775,
      "ĠStart": 2776,
      "Ġlanguage": 2777,
      "Ġextremely": 2778,
      "Ġcloudy": 2779,
      "ĠLet": 2780,
      "Ġdelivered": 2781,
      "Ġimproved": 2782,
      "Ġcollection": 2783,
      "ĠPM": 2784,
      "Ġestimates": 2785,
      "Ġboys": 2786,
      "izing": 2787,
      "Ġtext": 2788,
      "Ġcloser": 2789,
      "Ġprotest": 2790,
      "Ġprovince": 2791,
      "Ġshop": 2792,
      "Ġsmart": 2793,
      "de": 2794,
      "ĠSheriff": 2795,
      "EN": 2796,
      "Ġcorner": 2797,
      "Ġpanel": 2798,
      "Ġbooks": 2799,
      "Ġsupported": 2800,
      "Ġmentioned": 2801,
      "ver": 2802,
      "ĠMinistry": 2803,
      "ĠPrince": 2804,
      "ĠUSA": 2805,
      "Ġreceiving": 2806,
      "Ġchoose": 2807,
      "ĠIN": 2808,
      "ĠSpain": 2809,
      "Ġsection": 2810,
      "Ġconsidering": 2811,
      "ĠCor": 2812,
      "Ġwish": 2813,
      "Ġwelcome": 2814,
      "ĠConference": 2815,
      "ere": 2816,
      "ĠOfficer": 2817,
      "Ġhoping": 2818,
      "Ġportfolio": 2819,
      "Ġstandards": 2820,
      "Ġgrand": 2821,
      "ĠReal": 2822,
      "Ġsecure": 2823,
      "ĠCorporation": 2824,
      "ĠRep": 2825,
      "ĠKelly": 2826,
      "Ġstreets": 2827,
      "Ġsitting": 2828,
      "Ġslightly": 2829,
      "ĠInvestment": 2830,
      "99": 2831,
      "ond": 2832,
      "Ġunits": 2833,
      "Ġvotes": 2834,
      "Ġsegment": 2835,
      "Ġchampionship": 2836,
      "Ġsquad": 2837,
      "iting": 2838,
      "ron": 2839,
      "®": 2840,
      "Ġem": 2841,
      "Ġtouch": 2842,
      "Ġ38": 2843,
      "Ġceremony": 2844,
      "Ġdecide": 2845,
      "Ġapproval": 2846,
      "So": 2847,
      "ĠPort": 2848,
      "Ġsub": 2849,
      "Ġsc": 2850,
      "Ġrep": 2851,
      "ĠWeek": 2852,
      "Ġupper": 2853,
      "Ġagree": 2854,
      "ny": 2855,
      "Ġmatches": 2856,
      "ics": 2857,
      "Ġtweeted": 2858,
      "Ġheat": 2859,
      "ĠGreat": 2860,
      "Ġpenalty": 2861,
      "Ġmass": 2862,
      "Ġalongside": 2863,
      "Ġherself": 2864,
      "berg": 2865,
      "Ġscience": 2866,
      "Ġentered": 2867,
      "Ġappeal": 2868,
      "ĠPr": 2869,
      "Ġfile": 2870,
      "che": 2871,
      "ĠReport": 2872,
      "ĠThree": 2873,
      "ĠNorthern": 2874,
      "ĠJordan": 2875,
      "Ġamid": 2876,
      "Ġpace": 2877,
      "Ġjail": 2878,
      "Ġfinance": 2879,
      "ĠYoung": 2880,
      "32": 2881,
      "Ġwilling": 2882,
      "Ġconduct": 2883,
      "ĠPar": 2884,
      "Ġestablished": 2885,
      "Ġreturns": 2886,
      "Ġaid": 2887,
      "Ġinternet": 2888,
      "IA": 2889,
      "29": 2890,
      "Ġmeetings": 2891,
      "Ġwarning": 2892,
      "ĠCl": 2893,
      "Ġcampus": 2894,
      "Most": 2895,
      "ĠFund": 2896,
      "ĠWilliam": 2897,
      "ĠJapanese": 2898,
      "Ġconsensus": 2899,
      "Ġbrain": 2900,
      "!\"": 2901,
      "Ġpoll": 2902,
      "Ġtech": 2903,
      "Ġtrend": 2904,
      "Ġpotentially": 2905,
      "Ġreduced": 2906,
      "ĠShow": 2907,
      "Ġ37": 2908,
      "Ġhappening": 2909,
      "ĠBrazil": 2910,
      "pl": 2911,
      "ĠCal": 2912,
      "Ġcovered": 2913,
      "Ġenter": 2914,
      "TV": 2915,
      "Ġcatch": 2916,
      "foot": 2917,
      "Ġunion": 2918,
      "Ġexpansion": 2919,
      "ĠSingapore": 2920,
      "ĠDetroit": 2921,
      "Ġattended": 2922,
      "ats": 2923,
      "Ġnewspaper": 2924,
      "ĠDivision": 2925,
      "news": 2926,
      "Ġcap": 2927,
      "Ġremoved": 2928,
      "Ġ48": 2929,
      "ĠRoyal": 2930,
      "Ġwindow": 2931,
      "Ġparking": 2932,
      "Ġdark": 2933,
      "Ġstanding": 2934,
      "Ġupdate": 2935,
      "Ġagent": 2936,
      "Ġtransfer": 2937,
      "ĠArmy": 2938,
      "Ġuses": 2939,
      "80": 2940,
      "ĠTe": 2941,
      "Ġintroduced": 2942,
      "Ġmale": 2943,
      "ĠSouthern": 2944,
      "Ġratings": 2945,
      "Ġisland": 2946,
      "ĠMiller": 2947,
      "Ġteachers": 2948,
      "Ġadvice": 2949,
      "Ġfamiliar": 2950,
      "uf": 2951,
      "Ġsought": 2952,
      "Ġpor": 2953,
      "ĠEric": 2954,
      "Ġda": 2955,
      "Ġideas": 2956,
      "uh": 2957,
      "Ġsixth": 2958,
      "Ġtalent": 2959,
      "ĠImage": 2960,
      "ering": 2961,
      "run": 2962,
      "ments": 2963,
      "Ġconducted": 2964,
      "300": 2965,
      "Ġurged": 2966,
      "Ġdiscovered": 2967,
      "Ġpl": 2968,
      "Ġunderstanding": 2969,
      "Ġoffense": 2970,
      "Ġsecretary": 2971,
      "Ġsk": 2972,
      "Ġloans": 2973,
      "ĠGr": 2974,
      "Ġapplications": 2975,
      "Ġcrude": 2976,
      "go": 2977,
      "ĠInstead": 2978,
      "Ġopinion": 2979,
      "Ġdoubt": 2980,
      "ey": 2981,
      "Ġdis": 2982,
      "31": 2983,
      "Ġexperienced": 2984,
      "Ġleg": 2985,
      "ĠCleveland": 2986,
      "ven": 2987,
      "Ġfailure": 2988,
      "market": 2989,
      "ack": 2990,
      "Ġdecline": 2991,
      "Ġchanging": 2992,
      "Ġ300": 2993,
      "Ġdefence": 2994,
      "ĠBrian": 2995,
      "Ġdelivery": 2996,
      "Ġmarried": 2997,
      "Ġdeclared": 2998,
      "Ġpull": 2999,
      "Ġlimit": 3000,
      "ĠMORE": 3001,
      "Ġdefeat": 3002,
      "Ġexpand": 3003,
      "ĠColorado": 3004,
      "ĠRob": 3005,
      "iss": 3006,
      "Ġworse": 3007,
      "Ġperform": 3008,
      "ising": 3009,
      "Ġ2007": 3010,
      "ĠDel": 3011,
      "Ġsurgery": 3012,
      "Ġeasier": 3013,
      "Ġmaintain": 3014,
      "ĠEx": 3015,
      "Ġtied": 3016,
      "Ġeast": 3017,
      "Ġuser": 3018,
      "ola": 3019,
      "Ġprogramme": 3020,
      "Ġmanufacturing": 3021,
      "Ġhitting": 3022,
      "Ġx": 3023,
      "Ġskin": 3024,
      "Ġartist": 3025,
      "Ġtells": 3026,
      "Ġnearby": 3027,
      "ĠDaniel": 3028,
      "ĠPower": 3029,
      "Ġdetermined": 3030,
      "Ġactual": 3031,
      "Ġtreated": 3032,
      "Ġlived": 3033,
      "Ġcomputer": 3034,
      "Ġcool": 3035,
      "oo": 3036,
      "ĠPl": 3037,
      "Ġeffects": 3038,
      "Ġenvironmental": 3039,
      "ĠMorgan": 3040,
      "Ġflow": 3041,
      "Ġachieve": 3042,
      "ĠBell": 3043,
      "Ġtesting": 3044,
      "ĠBob": 3045,
      "Ġwhatever": 3046,
      "ĠBecause": 3047,
      "US": 3048,
      "ĠHollywood": 3049,
      "Ġconflict": 3050,
      "Ġwalking": 3051,
      "ĠJudge": 3052,
      "ĠAlabama": 3053,
      "Ġaircraft": 3054,
      "Ġte": 3055,
      "well": 3056,
      "Ġgoods": 3057,
      "Ġidentify": 3058,
      "Ġassociated": 3059,
      "ĠVer": 3060,
      "ĠEducation": 3061,
      "Ġairport": 3062,
      "IL": 3063,
      "Ġfalling": 3064,
      "Ġgiant": 3065,
      "ĠMa": 3066,
      "ĠMedical": 3067,
      "Ġride": 3068,
      "Ġden": 3069,
      "º": 3070,
      "ĠJose": 3071,
      "Ġwest": 3072,
      "ĠPacific": 3073,
      "Ġvisitors": 3074,
      "ĠWatch": 3075,
      "ĠNations": 3076,
      "Ġgains": 3077,
      "Ġschedule": 3078,
      "34": 3079,
      "ĠExchange": 3080,
      "Ġpayments": 3081,
      "ĠII": 3082,
      "70": 3083,
      "No": 3084,
      "ĠSyrian": 3085,
      "ĠAdam": 3086,
      "Ġne": 3087,
      "Ġpartnership": 3088,
      "Ġbl": 3089,
      "ĠGeorgia": 3090,
      "Ġsites": 3091,
      "Ġmodels": 3092,
      "Ġdegree": 3093,
      "Ġdetermine": 3094,
      "ĠWilson": 3095,
      "Ġcontest": 3096,
      "Ġprofessor": 3097,
      "ĠChelsea": 3098,
      "Ġmeaning": 3099,
      "ĠGames": 3100,
      "ĠTrust": 3101,
      "ĠAsian": 3102,
      "33": 3103,
      "Ġlink": 3104,
      "ĠUp": 3105,
      "Ġholds": 3106,
      "ĠTop": 3107,
      "ĠItalian": 3108,
      "ord": 3109,
      "ĠKansas": 3110,
      "Ġfarmers": 3111,
      "Ġextended": 3112,
      "Ġbirth": 3113,
      "Ġreform": 3114,
      "Ġrelations": 3115,
      "Ġwrite": 3116,
      "Ġsupporting": 3117,
      "55": 3118,
      "ita": 3119,
      "Ġnotice": 3120,
      "ster": 3121,
      "Ġanimals": 3122,
      "ĠJersey": 3123,
      "Ġarm": 3124,
      "ĠForeign": 3125,
      "ĠLife": 3126,
      "Ġtruly": 3127,
      "ĠOnce": 3128,
      "ĠMayor": 3129,
      "ĠFree": 3130,
      "ĠAgency": 3131,
      "ĠWood": 3132,
      "Ġpassing": 3133,
      "DA": 3134,
      "Ġ52": 3135,
      "Ġmoves": 3136,
      "Ġcom": 3137,
      "house": 3138,
      "ĠIts": 3139,
      "Ġmarijuana": 3140,
      "ines": 3141,
      "Ġveteran": 3142,
      "Ġvariety": 3143,
      "ki": 3144,
      "ff": 3145,
      "amb": 3146,
      "Ġlisted": 3147,
      "Ġpushed": 3148,
      "Ġvolume": 3149,
      "Ġincreasingly": 3150,
      "Ġkick": 3151,
      "Ġrock": 3152,
      "ank": 3153,
      "Ġfees": 3154,
      "Ġenable": 3155,
      "Ġimages": 3156,
      "Ġtruth": 3157,
      "Ġministry": 3158,
      "Ġrare": 3159,
      "ĠDallas": 3160,
      "ĠMinnesota": 3161,
      "Ġcontributed": 3162,
      "ĠCharles": 3163,
      "Ġpercentage": 3164,
      "Ġtechnical": 3165,
      "ĠApp": 3166,
      "Ġassistant": 3167,
      "Ġinterests": 3168,
      "Ġimmediate": 3169,
      "38": 3170,
      "ĠTown": 3171,
      "Ġclosing": 3172,
      "ĠAnthony": 3173,
      "Ġsouthern": 3174,
      "ase": 3175,
      "ĠPutin": 3176,
      "ĠForce": 3177,
      "ba": 3178,
      "Ġrefused": 3179,
      "ĠStill": 3180,
      "ix": 3181,
      "ĠCol": 3182,
      "Ġmaterials": 3183,
      "Ġstructure": 3184,
      "Ġdriven": 3185,
      "Ġpatient": 3186,
      "Ġbroken": 3187,
      "Ġradio": 3188,
      "Ġscale": 3189,
      "Ġreplace": 3190,
      "Ġ39": 3191,
      "ĠLand": 3192,
      "Ġdeputy": 3193,
      "und": 3194,
      "Ġcolor": 3195,
      "OS": 3196,
      "Ġroads": 3197,
      "Ġcorruption": 3198,
      "ĠRose": 3199,
      "Ġemployee": 3200,
      "ĠWater": 3201,
      "Ġseats": 3202,
      "Ġwalked": 3203,
      "ec": 3204,
      "Ġcents": 3205,
      "Ġchain": 3206,
      "Ġpayment": 3207,
      "ĠAndroid": 3208,
      "eb": 3209,
      "Ġcommission": 3210,
      "Ġthrow": 3211,
      "Ġcount": 3212,
      "Ġaccident": 3213,
      "Ġexpensive": 3214,
      "ered": 3215,
      "ĠYes": 3216,
      "ĠLouis": 3217,
      "Ġstudies": 3218,
      "Ġinvestigating": 3219,
      "Ġcentury": 3220,
      "Ġdiscussion": 3221,
      "Ġinter": 3222,
      "DAQ": 3223,
      "ĠBefore": 3224,
      "Ġinitially": 3225,
      "*": 3226,
      "Ġinvestments": 3227,
      "Ġmulti": 3228,
      "Ġtight": 3229,
      "Ġconfident": 3230,
      "Ġcounter": 3231,
      "ĠQu": 3232,
      "Ġgovernments": 3233,
      "Ġarmed": 3234,
      "Ġsuit": 3235,
      "Ġrow": 3236,
      "Ġlocations": 3237,
      "Ġepisode": 3238,
      "itch": 3239,
      "Ġyounger": 3240,
      "Ġfestival": 3241,
      "Ġpitch": 3242,
      "ĠOF": 3243,
      "Ġtalked": 3244,
      "ca": 3245,
      "Ġprotests": 3246,
      "Ġtargets": 3247,
      "90": 3248,
      "Ġoriginally": 3249,
      "Ġsinger": 3250,
      "Ġjourney": 3251,
      "ug": 3252,
      "Ġapply": 3253,
      "Ġteacher": 3254,
      "Ġchances": 3255,
      "):": 3256,
      "Ġdeaths": 3257,
      "isation": 3258,
      "ĠStephen": 3259,
      "Ġcode": 3260,
      "ĠChampionship": 3261,
      "ĠJason": 3262,
      "ĠAT": 3263,
      "Ġaccept": 3264,
      "ĠSeries": 3265,
      "Ġvalues": 3266,
      "Ġbed": 3267,
      "ĠHarry": 3268,
      "Ġflat": 3269,
      "Ġtools": 3270,
      "Ġpublicly": 3271,
      "37": 3272,
      "Ġpointed": 3273,
      "ĠGolden": 3274,
      "ps": 3275,
      "Ġunable": 3276,
      "ants": 3277,
      "Ġestimate": 3278,
      "Ġwarm": 3279,
      "Ġbasic": 3280,
      "ern": 3281,
      "Ġraising": 3282,
      "ĠRelated": 3283,
      "Ġultimately": 3284,
      "Ġnorthern": 3285,
      "Ġplane": 3286,
      "ĠVice": 3287,
      "ĠRaj": 3288,
      "ĠJustin": 3289,
      "anc": 3290,
      "Ġbrings": 3291,
      "ĠArt": 3292,
      "OT": 3293,
      "Ġshift": 3294,
      "ĠBBC": 3295,
      "ĠSu": 3296,
      "BS": 3297,
      "Ġbag": 3298,
      "Ġdoctor": 3299,
      "Ġfill": 3300,
      "Ġdowntown": 3301,
      "Ġpossibility": 3302,
      "ĠAg": 3303,
      "Ġest": 3304,
      "44": 3305,
      "Ġstruggling": 3306,
      "Ġlinked": 3307,
      "Ġtickets": 3308,
      "ĠJay": 3309,
      "ĠCall": 3310,
      "Ġstands": 3311,
      "Ġwedding": 3312,
      "Ġresident": 3313,
      "eng": 3314,
      "Ġleads": 3315,
      "Ġadvance": 3316,
      "ĠAtlanta": 3317,
      "Ġtie": 3318,
      "Ġadvanced": 3319,
      "pt": 3320,
      "burg": 3321,
      "ĠEarlier": 3322,
      "ĠSw": 3323,
      "ĠZealand": 3324,
      "Ġexercise": 3325,
      "ĠAM": 3326,
      "Ġaffect": 3327,
      "Ġpossession": 3328,
      "Ġinvolving": 3329,
      "Ġ42": 3330,
      "Ġwriter": 3331,
      "ĠBeijing": 3332,
      "Ġdoctors": 3333,
      "Ġobviously": 3334,
      "Ġer": 3335,
      "ĠOlympic": 3336,
      "Ġ75": 3337,
      "ĠKhan": 3338,
      "ĠFort": 3339,
      "app": 3340,
      "like": 3341,
      "Ġsea": 3342,
      "ock": 3343,
      "Ġmix": 3344,
      "ĠIraq": 3345,
      "ĠMuslim": 3346,
      "ĠFinally": 3347,
      "Ġcontinuing": 3348,
      "Ġpr": 3349,
      "ĠKe": 3350,
      "ĠJoseph": 3351,
      "Ġexpects": 3352,
      "Ġinstitutions": 3353,
      "Ġconservative": 3354,
      "own": 3355,
      "ĠChairman": 3356,
      "Ġreturning": 3357,
      ".-": 3358,
      "Ġstood": 3359,
      "Ġvision": 3360,
      "ess": 3361,
      "Ġadults": 3362,
      "Ġyield": 3363,
      "Ġprove": 3364,
      "Ġorders": 3365,
      "Ġdream": 3366,
      "36": 3367,
      "related": 3368,
      "Ġsl": 3369,
      "Ġeverybody": 3370,
      "ui": 3371,
      "Ġrepresents": 3372,
      "Ġdiscussed": 3373,
      "Ġbecomes": 3374,
      "Ġvillage": 3375,
      "CC": 3376,
      "Ġnegotiations": 3377,
      "ĠPhiladelphia": 3378,
      "Ġcelebrate": 3379,
      "Ġfarm": 3380,
      "Ã§": 3381,
      "Ġregistered": 3382,
      "ĠGovernor": 3383,
      "OL": 3384,
      "ĠMon": 3385,
      "Ġfiling": 3386,
      "04": 3387,
      "SE": 3388,
      "ĠAssembly": 3389,
      "Ġactress": 3390,
      "Ġsi": 3391,
      "Ġthank": 3392,
      "Ġheading": 3393,
      "ĠWho": 3394,
      "Ġfamous": 3395,
      "Ġconsecutive": 3396,
      "Ġmarriage": 3397,
      "ette": 3398,
      "NAS": 3399,
      "acks": 3400,
      "ĠPlease": 3401,
      "ĠDiego": 3402,
      "Ġbaseball": 3403,
      "ĠMoore": 3404,
      "Ġties": 3405,
      "Ġcarrying": 3406,
      "que": 3407,
      "Ġturning": 3408,
      "ĠMcC": 3409,
      "ĠKen": 3410,
      "OR": 3411,
      "ĠStock": 3412,
      "Ġbuildings": 3413,
      "49": 3414,
      "ĠVan": 3415,
      "39": 3416,
      "ĠSeattle": 3417,
      "Ġwild": 3418,
      "Ġcrew": 3419,
      "Ġroute": 3420,
      "ĠTime": 3421,
      "Ġtonight": 3422,
      "Ġmoments": 3423,
      "Ġvideos": 3424,
      "Ġinternal": 3425,
      "ĠLiverpool": 3426,
      "port": 3427,
      "Ġchair": 3428,
      "Ġrival": 3429,
      "ĠScotland": 3430,
      "round": 3431,
      "ith": 3432,
      "Ġbreaking": 3433,
      "Ġvoting": 3434,
      "ically": 3435,
      "Ġproducer": 3436,
      "ĠLove": 3437,
      "Ġremove": 3438,
      "PA": 3439,
      "Ġasset": 3440,
      "Ġrequires": 3441,
      "Ġsigning": 3442,
      "ages": 3443,
      "Ġimpressive": 3444,
      "ĠIrish": 3445,
      "Ġauthority": 3446,
      "Ġruled": 3447,
      "Ġaimed": 3448,
      "Ġcaptain": 3449,
      "AG": 3450,
      "Ġplants": 3451,
      "ĠAnderson": 3452,
      "ĠSpanish": 3453,
      "Ġbanking": 3454,
      "Ġthreats": 3455,
      "Ġsuspended": 3456,
      "Ġtests": 3457,
      "Ġreligious": 3458,
      "Ġelectric": 3459,
      "ĠREAD": 3460,
      "Ġstrategic": 3461,
      "Ġsplit": 3462,
      "ex": 3463,
      "Ġpractices": 3464,
      "ĠIsraeli": 3465,
      "ĠArabia": 3466,
      "ĠMoscow": 3467,
      "Ġfranchise": 3468,
      "Ġcustody": 3469,
      "ĠOld": 3470,
      "Ġrequirements": 3471,
      "Ġquarterly": 3472,
      "Ġcomfortable": 3473,
      "Ġcrimes": 3474,
      "Ġheaded": 3475,
      "Ġnewsletter": 3476,
      "Ġanimal": 3477,
      "Ġregulations": 3478,
      "long": 3479,
      "ĠCNN": 3480,
      "Ġassists": 3481,
      "Ġshopping": 3482,
      "ĠGov": 3483,
      "ĠSecurities": 3484,
      "Ġassistance": 3485,
      "Ġnor": 3486,
      "Ġrelatively": 3487,
      "Ġincreases": 3488,
      "Ġgenerally": 3489,
      "Ġ55": 3490,
      "Ġgained": 3491,
      "Ġ41": 3492,
      "Ġpictures": 3493,
      "gan": 3494,
      "Ġpop": 3495,
      "Ġupdates": 3496,
      "ĠRepublic": 3497,
      "Ġrebounds": 3498,
      "ĠPatrick": 3499,
      "Ġrelief": 3500,
      "Ġacting": 3501,
      "ĠFestival": 3502,
      "Ġ2006": 3503,
      "Ġboss": 3504,
      "Ġtypes": 3505,
      "65": 3506,
      "ĠYet": 3507,
      "Ġpurpose": 3508,
      "ning": 3509,
      "Ġmatters": 3510,
      "Ġcompete": 3511,
      "ball": 3512,
      "ĠRam": 3513,
      "Ġsw": 3514,
      "ĠFollowing": 3515,
      "ĠBush": 3516,
      "Ġtroops": 3517,
      "Ġsupposed": 3518,
      "Ġfreedom": 3519,
      "Ġfeatured": 3520,
      "Ġstorage": 3521,
      "ĠInformation": 3522,
      "ĠHong": 3523,
      "Ġgolf": 3524,
      "Ġagents": 3525,
      "Ġfraud": 3526,
      "Ġminimum": 3527,
      "Ġartists": 3528,
      "Ġeat": 3529,
      "high": 3530,
      "ĠFormer": 3531,
      "ĠKong": 3532,
      "ĠJosh": 3533,
      "ĠDelhi": 3534,
      "Ġshowers": 3535,
      "ĠAcademy": 3536,
      "Ġapartment": 3537,
      "Ġvan": 3538,
      "Ġfish": 3539,
      "oe": 3540,
      "Ġfilms": 3541,
      "ĠBo": 3542,
      "Ġedge": 3543,
      "Ġpossibly": 3544,
      "Ġtweet": 3545,
      "09": 3546,
      "Ġresolution": 3547,
      "jo": 3548,
      "Ġkill": 3549,
      "Ġ44": 3550,
      "Ġcell": 3551,
      "Ġscheme": 3552,
      "Ġth": 3553,
      "Ġbonds": 3554,
      "Ġentry": 3555,
      "Ġsecret": 3556,
      "Ġ43": 3557,
      "Ġending": 3558,
      "Ġweren": 3559,
      "ĠCredit": 3560,
      "ĠLive": 3561,
      "Ġretired": 3562,
      "Ġmachine": 3563,
      "Ġsummit": 3564,
      "Ġsharing": 3565,
      "Ġacquired": 3566,
      "Ġera": 3567,
      "Ġwear": 3568,
      "ical": 3569,
      "07": 3570,
      "Ġexciting": 3571,
      "li": 3572,
      "BC": 3573,
      "ĠSocial": 3574,
      "Ġhistoric": 3575,
      "ĠChe": 3576,
      "ĠLewis": 3577,
      "ira": 3578,
      "Ġstolen": 3579,
      "ĠSpeaking": 3580,
      "Ġsleep": 3581,
      "Ġspokeswoman": 3582,
      "week": 3583,
      "Ġpurchased": 3584,
      "Ġimportance": 3585,
      "EC": 3586,
      "Ġends": 3587,
      "Ġdress": 3588,
      "Ġparliament": 3589,
      "ĠCruz": 3590,
      "Ġcards": 3591,
      "hi": 3592,
      "ĠEmail": 3593,
      "Ġrepresent": 3594,
      "Ġbrands": 3595,
      "ĠSenior": 3596,
      "Ġparticipants": 3597,
      "Ġfly": 3598,
      "Ġidentity": 3599,
      "ĠHam": 3600,
      "ĠSky": 3601,
      "ĳ": 3602,
      "SA": 3603,
      "Ġpromised": 3604,
      "Ġtrouble": 3605,
      "Ġsuffering": 3606,
      "Ġleaves": 3607,
      "Ġsuggest": 3608,
      "Sh": 3609,
      "Ġbusy": 3610,
      "Ġproperties": 3611,
      "Ġworldwide": 3612,
      "Ġcloud": 3613,
      "ĠSEC": 3614,
      "Ġclosely": 3615,
      "Ġmanage": 3616,
      "Ġnumerous": 3617,
      "Ġbackground": 3618,
      "ĠExpress": 3619,
      "Ġ65": 3620,
      "ĠTony": 3621,
      "ĠMadrid": 3622,
      "ev": 3623,
      "der": 3624,
      "Ġsignificantly": 3625,
      "Ġalternative": 3626,
      "Ġship": 3627,
      "head": 3628,
      "ators": 3629,
      "Ġdinner": 3630,
      "ax": 3631,
      "SC": 3632,
      "Ġcriticism": 3633,
      "ĠMah": 3634,
      "ĠMin": 3635,
      "rie": 3636,
      "ĠTour": 3637,
      "Ġbench": 3638,
      "Ġadds": 3639,
      "Ġseriously": 3640,
      "star": 3641,
      "ĠJournal": 3642,
      "ĠDi": 3643,
      "ali": 3644,
      "Ġsentence": 3645,
      "ĠSeveral": 3646,
      "Ġmayor": 3647,
      "ati": 3648,
      "Ġsuggests": 3649,
      "Ġbehavior": 3650,
      "Ġstronger": 3651,
      "ĠFood": 3652,
      "Ġclient": 3653,
      "not": 3654,
      "ĠPrice": 3655,
      "Ġtargeted": 3656,
      "ĠSingh": 3657,
      "ĠNetwork": 3658,
      "Ġprosecutors": 3659,
      "Ġdirected": 3660,
      "ĠDemocrat": 3661,
      "bl": 3662,
      "ues": 3663,
      "ĠFamily": 3664,
      "Ġconnected": 3665,
      "ĠChampions": 3666,
      "Ġroughly": 3667,
      "Ġabsolutely": 3668,
      "08": 3669,
      "Ġpassengers": 3670,
      "Ã¶": 3671,
      "ĠSpecial": 3672,
      "Ġcoast": 3673,
      "Ġcomplaint": 3674,
      "Ġ400": 3675,
      "ĠEm": 3676,
      "ves": 3677,
      "Ġdogs": 3678,
      "Ġhandle": 3679,
      "Ġotherwise": 3680,
      "Ġsees": 3681,
      "Ġticket": 3682,
      "ĠAward": 3683,
      "All": 3684,
      "Ġtask": 3685,
      "Ġsongs": 3686,
      "ĠAmong": 3687,
      "Ġdedicated": 3688,
      "Ġsteel": 3689,
      "looking": 3690,
      "Ġshortly": 3691,
      "Ġtackle": 3692,
      "ative": 3693,
      "Ġminor": 3694,
      "Ã¢": 3695,
      "Ġprovider": 3696,
      "vers": 3697,
      "use": 3698,
      "ives": 3699,
      "Ġtypically": 3700,
      "Ġarms": 3701,
      "ĠAnt": 3702,
      "ĠIS": 3703,
      "Ġjump": 3704,
      "ĠÂ©": 3705,
      "47": 3706,
      "aff": 3707,
      "Ġmonthly": 3708,
      "ĠMicrosoft": 3709,
      "ĠCBS": 3710,
      "Ġthreatened": 3711,
      "Ġhonor": 3712,
      "ĠMo": 3713,
      "42": 3714,
      "Ġinning": 3715,
      "Ġpool": 3716,
      "Ġhealthcare": 3717,
      "ĠStory": 3718,
      "ĠTennessee": 3719,
      "Ġpromote": 3720,
      "EL": 3721,
      "Ġemotional": 3722,
      "Ġpe": 3723,
      "Ġfactor": 3724,
      "Ġinvestigators": 3725,
      "Ľ": 3726,
      "ĠBack": 3727,
      "ĠProject": 3728,
      "Ġcu": 3729,
      "side": 3730,
      "Ġmessages": 3731,
      "TH": 3732,
      "eg": 3733,
      "Ġexperiences": 3734,
      "Ġcausing": 3735,
      "Ġjoining": 3736,
      "Ġpackage": 3737,
      "Ġbodies": 3738,
      "Ġlots": 3739,
      "ĠHarris": 3740,
      "Ġcl": 3741,
      "ĠInternet": 3742,
      "free": 3743,
      "Ġperformed": 3744,
      "Ġpieces": 3745,
      "buy": 3746,
      "Ġcaption": 3747,
      "Ġweb": 3748,
      "Ġcontracts": 3749,
      "At": 3750,
      "Ġattempted": 3751,
      "Ġunlikely": 3752,
      "Ġclick": 3753,
      "Ġinvest": 3754,
      "IM": 3755,
      "ĠView": 3756,
      "Ġneighborhood": 3757,
      "Ġring": 3758,
      "ĠFour": 3759,
      "ail": 3760,
      "46": 3761,
      "One": 3762,
      "Ġnative": 3763,
      "CH": 3764,
      "OM": 3765,
      "Ġalcohol": 3766,
      "ĠVal": 3767,
      "Ġcharacters": 3768,
      "ĠPat": 3769,
      "Ġpoliticians": 3770,
      "ĠMag": 3771,
      "Ġbegins": 3772,
      "ĠAk": 3773,
      "Ġlos": 3774,
      "Ġpersonnel": 3775,
      "Ġenjoyed": 3776,
      "ĠTechnology": 3777,
      "Ġsun": 3778,
      "ĠIT": 3779,
      "Ġdocument": 3780,
      "Ġdeficit": 3781,
      "Ġcoalition": 3782,
      "Ġmemory": 3783,
      "Ġpushing": 3784,
      "any": 3785,
      "ified": 3786,
      "Ġfounder": 3787,
      "Ġ2000": 3788,
      "2017": 3789,
      "Ġvisited": 3790,
      "ĠThough": 3791,
      "ph": 3792,
      "Ġsoft": 3793,
      "Ġflag": 3794,
      "Ġmom": 3795,
      "inch": 3796,
      "ĠSamsung": 3797,
      "Ġapps": 3798,
      "Ġtouchdown": 3799,
      "ĠCare": 3800,
      "ĠMrs": 3801,
      "Ġredistributed": 3802,
      "Ġencourage": 3803,
      "ched": 3804,
      "Ġtend": 3805,
      "Ġregions": 3806,
      "pp": 3807,
      "IP": 3808,
      "br": 3809,
      "ush": 3810,
      "Ġargued": 3811,
      "Ġjunior": 3812,
      "BA": 3813,
      "Ġsevere": 3814,
      "ĠNIGHT": 3815,
      "Ġdef": 3816,
      "Ġsurrounding": 3817,
      "48": 3818,
      "Ġengine": 3819,
      "Ġfilled": 3820,
      "Ġseventh": 3821,
      "Ġbattery": 3822,
      "ĠAllen": 3823,
      "Ġguidance": 3824,
      "Ġroll": 3825,
      "Ġrural": 3826,
      "Ġexpert": 3827,
      "Ġconvicted": 3828,
      "Ġlikes": 3829,
      "ĠRo": 3830,
      "Ġgrown": 3831,
      "Ġretirement": 3832,
      "Ġintended": 3833,
      "Ġmis": 3834,
      "Ġarmy": 3835,
      "Ġdance": 3836,
      "ĠThank": 3837,
      "Ġent": 3838,
      "Ġoutlook": 3839,
      "Ġpara": 3840,
      "Ġdry": 3841,
      "ĠTO": 3842,
      "era": 3843,
      "Ġwaste": 3844,
      "Ġfaster": 3845,
      "ĠEagles": 3846,
      "TA": 3847,
      "ĠFrank": 3848,
      "Ã": 3849,
      "LE": 3850,
      "ura": 3851,
      "ko": 3852,
      "ao": 3853,
      "Ġdistribution": 3854,
      "Ġimprovement": 3855,
      "Ġplayoff": 3856,
      "Ġacquisition": 3857,
      "ĠCH": 3858,
      "Ġtomorrow": 3859,
      "Ġstruggle": 3860,
      "ĠHuman": 3861,
      "Ġnewly": 3862,
      "oon": 3863,
      "ĠNe": 3864,
      "con": 3865,
      "sc": 3866,
      "Ġunless": 3867,
      "Ġtransition": 3868,
      "ten": 3869,
      "ĠInter": 3870,
      "Ġequal": 3871,
      "Ġrec": 3872,
      "Ġappointed": 3873,
      "Ġwake": 3874,
      "ĠEarth": 3875,
      "ose": 3876,
      "ĠEastern": 3877,
      "Ġsoldiers": 3878,
      "ĠParliament": 3879,
      "Ġsets": 3880,
      "Ġattempts": 3881,
      "ĠIllinois": 3882,
      "Ġrevenues": 3883,
      "ĠWil": 3884,
      "Ġheads": 3885,
      "Ġprepare": 3886,
      "Ġpriority": 3887,
      "PS": 3888,
      "ĠJo": 3889,
      "ĠNBC": 3890,
      "Ġtherefore": 3891,
      "yn": 3892,
      "Ġinitiative": 3893,
      "ct": 3894,
      "Ġcoffee": 3895,
      "ĠFair": 3896,
      "43": 3897,
      "den": 3898,
      "form": 3899,
      "ova": 3900,
      "Ġappropriate": 3901,
      "ĠPlay": 3902,
      "Ġaccepted": 3903,
      "Ġcreative": 3904,
      "Ġfollows": 3905,
      "Ġrescue": 3906,
      "Ġtree": 3907,
      "With": 3908,
      "ĠNetflix": 3909,
      "ĠFootball": 3910,
      "Ġsurprised": 3911,
      "Ġlowest": 3912,
      "800": 3913,
      "amp": 3914,
      "Ġworried": 3915,
      "mar": 3916,
      "ran": 3917,
      "Ġvisiting": 3918,
      "Ġselected": 3919,
      "ĠMusic": 3920,
      "ĠAnn": 3921,
      "Ġexplain": 3922,
      "ging": 3923,
      "Ġwidely": 3924,
      "Ġsquare": 3925,
      "Ġtrends": 3926,
      "Ġimproving": 3927,
      "ĠHead": 3928,
      "ĠQueen": 3929,
      "ĠSociety": 3930,
      "Ġcutting": 3931,
      "ĠGOP": 3932,
      "03": 3933,
      "',": 3934,
      "ET": 3935,
      "ĠDrive": 3936,
      "oll": 3937,
      "ato": 3938,
      "ĠSea": 3939,
      "Ġjury": 3940,
      "ĠRights": 3941,
      "Ġinvestor": 3942,
      "ĠABC": 3943,
      "Ġtool": 3944,
      "ĠAre": 3945,
      "Ġrejected": 3946,
      "Ġemerging": 3947,
      "Ġcounts": 3948,
      "Ġnations": 3949,
      "Ġfalse": 3950,
      "Ġtreat": 3951,
      "va": 3952,
      "Ġweak": 3953,
      "ĠHighway": 3954,
      "down": 3955,
      "Ġstruggled": 3956,
      "ĠMP": 3957,
      "Ġguests": 3958,
      "Ġgender": 3959,
      "Ġhouses": 3960,
      "rit": 3961,
      "ĠWild": 3962,
      "Ġstreak": 3963,
      "uc": 3964,
      "ĠReserve": 3965,
      "ĠRatings": 3966,
      "alt": 3967,
      "Ġgreatest": 3968,
      "Ġlawyers": 3969,
      "Ġreaching": 3970,
      "Ġtemperatures": 3971,
      "To": 3972,
      "Ġoutstanding": 3973,
      "Ġpasses": 3974,
      "Ġfaith": 3975,
      "inc": 3976,
      "Ġcr": 3977,
      "Ġinformed": 3978,
      "oz": 3979,
      "Ġtrees": 3980,
      "Ġsending": 3981,
      "Ġ150": 3982,
      "bo": 3983,
      "Ġwine": 3984,
      "ros": 3985,
      "Ġsuspected": 3986,
      "Ġrepeatedly": 3987,
      "Ġhat": 3988,
      "Ġshape": 3989,
      "ĠWh": 3990,
      "Ġassist": 3991,
      "Ġstress": 3992,
      "Ġfeed": 3993,
      "ark": 3994,
      "ored": 3995,
      "Ġwatched": 3996,
      "Ġincredible": 3997,
      "cl": 3998,
      "nt": 3999,
      "Ġentertainment": 4000,
      "ih": 4001,
      "Ġbeauty": 4002,
      "Ġbi": 4003,
      "ĠLocal": 4004,
      "Ġsat": 4005,
      "41": 4006,
      "Ġbroad": 4007,
      "Ġheavily": 4008,
      "Ġengaged": 4009,
      "Ġspecifically": 4010,
      "ĠMen": 4011,
      "ĠRoss": 4012,
      "Ġ2005": 4013,
      "ST": 4014,
      "95": 4015,
      "Ġdownload": 4016,
      "400": 4017,
      "Ġsentenced": 4018,
      "ĠCatholic": 4019,
      "ĠOklahoma": 4020,
      "Ġthrew": 4021,
      "Ġworry": 4022,
      "Ġimp": 4023,
      "Ġdrove": 4024,
      "Ġcolleagues": 4025,
      "Ġagenda": 4026,
      "64": 4027,
      "ĠEach": 4028,
      "Ġfee": 4029,
      "New": 4030,
      "ium": 4031,
      "Ġspokesperson": 4032,
      "Ġbills": 4033,
      "Ġ47": 4034,
      "ĠAfghanistan": 4035,
      "Ġinvited": 4036,
      "ĠYouTube": 4037,
      "Ġanniversary": 4038,
      "Ġdozen": 4039,
      "ram": 4040,
      "ĠOnly": 4041,
      "Ġemployment": 4042,
      "Getty": 4043,
      "Ġgap": 4044,
      "Ġsweet": 4045,
      "ĠLittle": 4046,
      "Ġinf": 4047,
      "ying": 4048,
      "Ġglass": 4049,
      "Ġclasses": 4050,
      "Ġcoal": 4051,
      "ĠSub": 4052,
      "Ġduty": 4053,
      "CA": 4054,
      "Ġcoaches": 4055,
      "Â": 4056,
      "anna": 4057,
      "ĠSk": 4058,
      "Ġ46": 4059,
      "ison": 4060,
      "ille": 4061,
      "ĠST": 4062,
      "ric": 4063,
      "Ġparticipate": 4064,
      "Ġequ": 4065,
      "Ġrich": 4066,
      "Ġrespectively": 4067,
      "Ġexpenses": 4068,
      "Ġcombination": 4069,
      "right": 4070,
      "Ġshareholders": 4071,
      "Ġturns": 4072,
      "Ġearn": 4073,
      "Ġ51": 4074,
      "ured": 4075,
      "Ġdrink": 4076,
      "ĠKar": 4077,
      "ĠShares": 4078,
      "ĠMid": 4079,
      "ĠGetty": 4080,
      "Ġbridge": 4081,
      "lo": 4082,
      "Ġinspired": 4083,
      "Ġsurface": 4084,
      "Ġgift": 4085,
      "ence": 4086,
      "Ġchallenging": 4087,
      "Ġoffices": 4088,
      "Ġsuspects": 4089,
      "ĠFinance": 4090,
      "Ġab": 4091,
      "bound": 4092,
      "Ġmomentum": 4093,
      "Ġbacked": 4094,
      "Ġparent": 4095,
      "Ġcrucial": 4096,
      "ave": 4097,
      "Ġdealing": 4098,
      "Ġregulatory": 4099,
      "Ġapparently": 4100,
      "ĠMat": 4101,
      "Ġapart": 4102,
      "Ġport": 4103,
      "ole": 4104,
      "Ġbeach": 4105,
      "Ġcultural": 4106,
      "Ġinstitutional": 4107,
      "Ġbeating": 4108,
      "ĠIowa": 4109,
      "ĠAli": 4110,
      "67": 4111,
      "Ġje": 4112,
      "ays": 4113,
      "Ġweekly": 4114,
      "Ġbirthday": 4115,
      "Ġpipeline": 4116,
      "Ġknee": 4117,
      "Ġsolar": 4118,
      "ĠPe": 4119,
      "Ġcategory": 4120,
      "ĠArea": 4121,
      "ky": 4122,
      "ures": 4123,
      "06": 4124,
      "ĠBall": 4125,
      "Ġsemi": 4126,
      "ĠHamilton": 4127,
      "hip": 4128,
      "ĠPh": 4129,
      "ĠNext": 4130,
      "Ġathletes": 4131,
      "ii": 4132,
      "Ġmovies": 4133,
      "han": 4134,
      "net": 4135,
      "Ġplastic": 4136,
      "Ġbehalf": 4137,
      "gen": 4138,
      "Ġfindings": 4139,
      "Ġstretch": 4140,
      "ĠSa": 4141,
      "Ġofficially": 4142,
      "ĠSarah": 4143,
      "Ġprivacy": 4144,
      "ĠMad": 4145,
      "Ġnone": 4146,
      "gh": 4147,
      "On": 4148,
      "Ġdrama": 4149,
      "ĠFl": 4150,
      "ika": 4151,
      "ĠArsenal": 4152,
      "Ġviolent": 4153,
      "UN": 4154,
      "called": 4155,
      "59": 4156,
      "Ġhate": 4157,
      "Ġrelationships": 4158,
      "Ġgranted": 4159,
      "ĠJon": 4160,
      "Ġlisten": 4161,
      "season": 4162,
      "Ġfewer": 4163,
      "GA": 4164,
      "ĠLabour": 4165,
      "Ġremarks": 4166,
      "ĠJonathan": 4167,
      "ĠRos": 4168,
      "sey": 4169,
      "ĠOntario": 4170,
      "ĠThompson": 4171,
      "ĠNight": 4172,
      "Ġranked": 4173,
      "ĠUkraine": 4174,
      "Ġimmigrants": 4175,
      "Ġdegrees": 4176,
      "ĠGe": 4177,
      "Ġlabor": 4178,
      "umb": 4179,
      "ĠYORK": 4180,
      "Ġallies": 4181,
      "sp": 4182,
      "hed": 4183,
      "sw": 4184,
      "Ġtariffs": 4185,
      "SP": 4186,
      "Ġclassic": 4187,
      "Ġawards": 4188,
      "ents": 4189,
      "Ġfix": 4190,
      "Ġsoccer": 4191,
      "Ġconcert": 4192,
      "ust": 4193,
      "Ġadult": 4194,
      "Ġoutput": 4195,
      "Ġmanaging": 4196,
      "02": 4197,
      "Ġpromise": 4198,
      "Ġawareness": 4199,
      "Ġgross": 4200,
      "Ġentering": 4201,
      "Ġpo": 4202,
      "oj": 4203,
      "Ġmetal": 4204,
      "Ġexit": 4205,
      "Ġexcellent": 4206,
      "Ġclubs": 4207,
      "hold": 4208,
      "Ġreplaced": 4209,
      "ĠClass": 4210,
      "Ġscientists": 4211,
      "Ġprimarily": 4212,
      "ĠMer": 4213,
      "Ã£o": 4214,
      "Ġcircumstances": 4215,
      "ades": 4216,
      "Ġsupplies": 4217,
      "aker": 4218,
      "ĠSand": 4219,
      "Ġscandal": 4220,
      "Ġsettlement": 4221,
      "ĠWisconsin": 4222,
      "ĠWarriors": 4223,
      "ĠAustin": 4224,
      "Ġjournalists": 4225,
      "ening": 4226,
      "Ġreflect": 4227,
      "ĠBuy": 4228,
      "ĠAwards": 4229,
      "Ġselection": 4230,
      "ĠBel": 4231,
      "bury": 4232,
      "Ġtechnologies": 4233,
      "%,": 4234,
      "ime": 4235,
      "ĠÄ": 4236,
      "ĠAdministration": 4237,
      "Ġchannel": 4238,
      "Star": 4239,
      "Ġtransport": 4240,
      "Ġawarded": 4241,
      "ena": 4242,
      "Ġmotor": 4243,
      "orn": 4244,
      "kin": 4245,
      "Ġfeaturing": 4246,
      "Ġphones": 4247,
      "ĠAND": 4248,
      "Ġrelevant": 4249,
      "ĠSee": 4250,
      "Ġwinners": 4251,
      "Ġdad": 4252,
      "ĠSource": 4253,
      "ĠCheck": 4254,
      "aut": 4255,
      "ĠFar": 4256,
      "Ġopponents": 4257,
      "Ġoutcome": 4258,
      "Ġdoors": 4259,
      "Ġsuicide": 4260,
      "ima": 4261,
      "Ġjumped": 4262,
      "Ġperspective": 4263,
      "Ġtransportation": 4264,
      "Ġthinks": 4265,
      "ĠMor": 4266,
      "Ġdeadline": 4267,
      "Ġ53": 4268,
      "ĠDeputy": 4269,
      "ery": 4270,
      "Ġdetailed": 4271,
      "uch": 4272,
      "ĠBur": 4273,
      "Ġtrades": 4274,
      "ĠGreg": 4275,
      "Ġzero": 4276,
      "erson": 4277,
      "ĠChildren": 4278,
      "Ġdu": 4279,
      "66": 4280,
      "Ġmixed": 4281,
      "ĠBarack": 4282,
      "54": 4283,
      "Ġterritory": 4284,
      "Ġac": 4285,
      "Ġconcept": 4286,
      "ĠAdd": 4287,
      "Ġourselves": 4288,
      "Ġreaction": 4289,
      "ĠSydney": 4290,
      "ink": 4291,
      "Ġconsistent": 4292,
      "Ġboat": 4293,
      "room": 4294,
      "Ġdozens": 4295,
      "Ġeffectively": 4296,
      "but": 4297,
      "Ġmotion": 4298,
      "Ġalive": 4299,
      "ĠKey": 4300,
      "weight": 4301,
      "Ġexports": 4302,
      "Ġoperate": 4303,
      "Ġregime": 4304,
      "ĠAuthority": 4305,
      "och": 4306,
      "ĠCR": 4307,
      "leg": 4308,
      "Ġforget": 4309,
      "American": 4310,
      "bs": 4311,
      "Ġthoughts": 4312,
      "ĠSign": 4313,
      "ĠPatriots": 4314,
      "Ġbrief": 4315,
      "ĠOregon": 4316,
      "ĠBal": 4317,
      "Ġmine": 4318,
      "Ġciting": 4319,
      "Ġmagazine": 4320,
      "more": 4321,
      "ERS": 4322,
      "ĠBer": 4323,
      "ua": 4324,
      "ox": 4325,
      "ĠMain": 4326,
      "Ġinstance": 4327,
      "tr": 4328,
      "Ġrestaurants": 4329,
      "ora": 4330,
      "Ġharassment": 4331,
      "\",\"": 4332,
      "Ł": 4333,
      "Ġsilver": 4334,
      "ĠMueller": 4335,
      "ĠSenator": 4336,
      "ĠEvery": 4337,
      "Ġfootage": 4338,
      "ms": 4339,
      "Ġopposed": 4340,
      "ĠLink": 4341,
      "Ġver": 4342,
      "Ġpleased": 4343,
      "ame": 4344,
      "ending": 4345,
      "Ġrivals": 4346,
      "ida": 4347,
      "ike": 4348,
      "ta": 4349,
      "ĠCook": 4350,
      "Ġheadquarters": 4351,
      "ear": 4352,
      "Ġaggressive": 4353,
      "Ġcourts": 4354,
      "ĠMuseum": 4355,
      "Ġim": 4356,
      "ĠHoldings": 4357,
      "Ġcommunication": 4358,
      "Ġphase": 4359,
      "yl": 4360,
      "Ġpowers": 4361,
      "Ġproved": 4362,
      "Ġcarbon": 4363,
      "Ġaside": 4364,
      "ĠOlympics": 4365,
      "Ġgathered": 4366,
      "ĠPennsylvania": 4367,
      "Ġsmartphone": 4368,
      "ĠMet": 4369,
      "ĠHurricane": 4370,
      "Ġprotected": 4371,
      "Ġcommunications": 4372,
      "Ġemerged": 4373,
      "Ġaim": 4374,
      "Ġstable": 4375,
      "ides": 4376,
      "GB": 4377,
      "Ġentirely": 4378,
      "Ġmissile": 4379,
      "ĠGen": 4380,
      "Ġunclear": 4381,
      "Ġelectricity": 4382,
      "ology": 4383,
      "away": 4384,
      "Ġlicense": 4385,
      "ĠPittsburgh": 4386,
      "Ġcameras": 4387,
      "Ġmusical": 4388,
      "Ġmanagers": 4389,
      "57": 4390,
      "Ġscores": 4391,
      "Ġprofile": 4392,
      "hel": 4393,
      "¼": 4394,
      "Ġshouldn": 4395,
      "RA": 4396,
      ");": 4397,
      "Ġpermanent": 4398,
      "ome": 4399,
      "Ġet": 4400,
      "Ġmar": 4401,
      "Ġfavor": 4402,
      "Ġmaker": 4403,
      "Ġdiscussions": 4404,
      "ory": 4405,
      "Ġsharp": 4406,
      "Ġpleaded": 4407,
      "Ġpassenger": 4408,
      "quarter": 4409,
      "Ġdem": 4410,
      "Ġversus": 4411,
      "Ġmainly": 4412,
      "Ġeighth": 4413,
      "ĠAirport": 4414,
      "ĠCross": 4415,
      "million": 4416,
      "ĠNas": 4417,
      "Ġcited": 4418,
      "56": 4419,
      "Ġyes": 4420,
      "ĠBelow": 4421,
      "arn": 4422,
      "ĠTurkish": 4423,
      "ĠSl": 4424,
      "Ġstepped": 4425,
      "Ġproducers": 4426,
      "Ġovernight": 4427,
      "Ġsounds": 4428,
      "52": 4429,
      "Ġ64": 4430,
      "Ġ54": 4431,
      "58": 4432,
      "ĠClark": 4433,
      "ĠRick": 4434,
      "Ġgr": 4435,
      "ĠMont": 4436,
      "Ġbeer": 4437,
      "une": 4438,
      "Ġreporter": 4439,
      "Ġcharity": 4440,
      "Ġeating": 4441,
      "Ġextend": 4442,
      "Ġguess": 4443,
      "NA": 4444,
      "Ġhedge": 4445,
      "Ġencouraged": 4446,
      "owned": 4447,
      "ĠMel": 4448,
      "ĠKentucky": 4449,
      "ace": 4450,
      "Ġlineup": 4451,
      "Ġhosts": 4452,
      "Ġcapable": 4453,
      "PR": 4454,
      "ĠArts": 4455,
      "Ġcontroversial": 4456,
      "Ġhosted": 4457,
      "ries": 4458,
      "Ġroster": 4459,
      "Ġfixed": 4460,
      "ĠWalker": 4461,
      "ged": 4462,
      "Ġdisaster": 4463,
      "Ġdispute": 4464,
      "ĠDenver": 4465,
      "ĠTrade": 4466,
      "ute": 4467,
      "ese": 4468,
      "cy": 4469,
      "Ġgrant": 4470,
      "ĠMax": 4471,
      "Ġdistance": 4472,
      "isc": 4473,
      "Ġeditor": 4474,
      "ĠDave": 4475,
      "Ġperformances": 4476,
      "Ġlay": 4477,
      "Ġvulnerable": 4478,
      "ĠMurray": 4479,
      "ĠâĤ¬": 4480,
      "Ġmining": 4481,
      "Ġ2004": 4482,
      "level": 4483,
      "ability": 4484,
      "Ġauto": 4485,
      "Ġfake": 4486,
      "Ġattacked": 4487,
      "ona": 4488,
      "ups": 4489,
      "ened": 4490,
      "Ġfallen": 4491,
      "Ġstations": 4492,
      "ĠContact": 4493,
      "itz": 4494,
      "Ġincidents": 4495,
      "Ġcomplaints": 4496,
      "Ġoperates": 4497,
      "Ġrefugees": 4498,
      "Ġessential": 4499,
      "ĠTest": 4500,
      "Ġdemands": 4501,
      "Ġroles": 4502,
      "yr": 4503,
      "Ġacts": 4504,
      "Ġusual": 4505,
      "ring": 4506,
      "Ġhanded": 4507,
      "ĠMatthew": 4508,
      "hour": 4509,
      "Ġindustries": 4510,
      "Ġshoot": 4511,
      "ĠAuthorities": 4512,
      "Ġprobe": 4513,
      "ĠUtah": 4514,
      "ĠRBI": 4515,
      "ĠAD": 4516,
      "Ġprospect": 4517,
      "outs": 4518,
      "ĠUber": 4519,
      "Ġbright": 4520,
      "Ġmention": 4521,
      "Ġsavings": 4522,
      "ĠMiss": 4523,
      "ONDON": 4524,
      "Ġ1990": 4525,
      "arm": 4526,
      "ĠTen": 4527,
      "These": 4528,
      "Ġexplains": 4529,
      "minute": 4530,
      "85": 4531,
      "Ġmaximum": 4532,
      "Ġro": 4533,
      "Ġrookie": 4534,
      "Ġstudio": 4535,
      "ĠCam": 4536,
      "ĠGal": 4537,
      "Ġdefend": 4538,
      "hand": 4539,
      "53": 4540,
      "ĠOil": 4541,
      "Ġserves": 4542,
      "Ġsn": 4543,
      "ios": 4544,
      "ĠDefense": 4545,
      "AB": 4546,
      "Ġhired": 4547,
      "Ġsupports": 4548,
      "Ġpremium": 4549,
      "ef": 4550,
      "Ġfailing": 4551,
      "ĠIndiana": 4552,
      "Ġexp": 4553,
      "Ġobjective": 4554,
      "Ġaffordable": 4555,
      "ĠCom": 4556,
      "ĠThanks": 4557,
      "Ġanywhere": 4558,
      "Ġconfirm": 4559,
      "ited": 4560,
      "Ġrepresenting": 4561,
      "Ġwitness": 4562,
      "69": 4563,
      "Ġclaiming": 4564,
      "Ġviolation": 4565,
      "Ġhistorical": 4566,
      "med": 4567,
      "Ġpreparing": 4568,
      "ĠTech": 4569,
      "Ġposts": 4570,
      "OC": 4571,
      "ĠGraham": 4572,
      "ĠGl": 4573,
      "ĠLions": 4574,
      "ales": 4575,
      "ĠID": 4576,
      "Ġcorrect": 4577,
      "ĠAntonio": 4578,
      "Ġadvertising": 4579,
      "Ġeastern": 4580,
      "OW": 4581,
      "Ġholdings": 4582,
      "Ġpolls": 4583,
      "ĠSH": 4584,
      "Ġexecutives": 4585,
      "ĠJewish": 4586,
      "ĠGary": 4587,
      "Ġprize": 4588,
      "ĠCommissioner": 4589,
      "Ġcells": 4590,
      "ify": 4591,
      "Ġlunch": 4592,
      "Ġdemocracy": 4593,
      "ĠEr": 4594,
      "Ġregularly": 4595,
      "Ġresulted": 4596,
      "ĠAve": 4597,
      "ĠPartners": 4598,
      "Ġrewritten": 4599,
      "Ġlo": 4600,
      "Ġcooperation": 4601,
      "ĠGulf": 4602,
      "Ġsmoke": 4603,
      "ĠMemorial": 4604,
      "Ġwave": 4605,
      "Ġfears": 4606,
      "Ġkid": 4607,
      "ĠGiants": 4608,
      "Ġrecovered": 4609,
      "row": 4610,
      "ĠRadio": 4611,
      "ĠBarcelona": 4612,
      "Ġwonderful": 4613,
      "ĠDow": 4614,
      "Ġstream": 4615,
      "ĠSimon": 4616,
      "Ġdetail": 4617,
      "Ġvolunteers": 4618,
      "ĠInd": 4619,
      "Ġforms": 4620,
      "mann": 4621,
      "ĠRay": 4622,
      "oor": 4623,
      "ĠTake": 4624,
      "Ġrepresented": 4625,
      "het": 4626,
      "Ġblow": 4627,
      "aged": 4628,
      "RE": 4629,
      "ĠMissouri": 4630,
      "Ġcovering": 4631,
      "Ġprofits": 4632,
      "Ġconcluded": 4633,
      "Ġthus": 4634,
      "ĠColumbia": 4635,
      "ode": 4636,
      "ĠZimbabwe": 4637,
      "Ġdisclosed": 4638,
      "Ġlifted": 4639,
      "ĠSean": 4640,
      "ĠHarvey": 4641,
      "ĠPlus": 4642,
      "ces": 4643,
      "ĠGreece": 4644,
      "ĠLady": 4645,
      "Ġdelay": 4646,
      "Ġkitchen": 4647,
      "ĠIndex": 4648,
      "Ġbear": 4649,
      "Ġputs": 4650,
      "new": 4651,
      "88": 4652,
      "ĠAsh": 4653,
      "Å¡": 4654,
      "Ġperforming": 4655,
      "law": 4656,
      "ĠPart": 4657,
      "Ġindicated": 4658,
      "Ġannounce": 4659,
      "Ġcompensation": 4660,
      "Ġka": 4661,
      "ĠScience": 4662,
      "ris": 4663,
      "Ġrecommendations": 4664,
      "ĠSecond": 4665,
      "Ġlights": 4666,
      "Ġtemporary": 4667,
      "urs": 4668,
      "Ġwestern": 4669,
      "stone": 4670,
      "68": 4671,
      "ĠDisney": 4672,
      "Ġplayoffs": 4673,
      "Ġjudges": 4674,
      "Ġengineering": 4675,
      "ĠPen": 4676,
      "ĠPal": 4677,
      "Ġobvious": 4678,
      "ĠBridge": 4679,
      "ĠEnd": 4680,
      "ĠArab": 4681,
      "Ġexcept": 4682,
      "Ġhole": 4683,
      "class": 4684,
      "Ġcauses": 4685,
      "Ġconnect": 4686,
      "ĠAI": 4687,
      "An": 4688,
      "Ġchose": 4689,
      "ĠElizabeth": 4690,
      "min": 4691,
      "Ġproper": 4692,
      "ĠNHL": 4693,
      "Ġraces": 4694,
      "Ġinnovation": 4695,
      "Ġsugar": 4696,
      "600": 4697,
      "ĠModi": 4698,
      "illa": 4699,
      "Ġtrillion": 4700,
      "ĠSar": 4701,
      "ĠAffairs": 4702,
      "Ġimpossible": 4703,
      "Ġguide": 4704,
      "Ġcaptured": 4705,
      "ĠSales": 4706,
      "Ġspecies": 4707,
      "51": 4708,
      "Ġar": 4709,
      "Ġmaster": 4710,
      "Ġstayed": 4711,
      "iro": 4712,
      "ĠEconomic": 4713,
      "Ġvast": 4714,
      "ili": 4715,
      "Ġpet": 4716,
      "ye": 4717,
      "77": 4718,
      "Ġkeeps": 4719,
      "ĠPhil": 4720,
      "ĠEPS": 4721,
      "ĠRegional": 4722,
      "Ġsectors": 4723,
      "Ġdesire": 4724,
      "ĠStanley": 4725,
      "¾": 4726,
      "Ġunknown": 4727,
      "Ġpot": 4728,
      "ĠPR": 4729,
      "Ġknowing": 4730,
      "Ġflying": 4731,
      "ĠTreasury": 4732,
      "iers": 4733,
      "enn": 4734,
      "ably": 4735,
      "Ġsick": 4736,
      "Ġmanner": 4737,
      "Ġmanufacturers": 4738,
      "Ġchampions": 4739,
      "gy": 4740,
      "Part": 4741,
      "ister": 4742,
      "ĠMountain": 4743,
      "Ġimagine": 4744,
      "Ġportion": 4745,
      "ĠCamp": 4746,
      "Ġchemical": 4747,
      "ible": 4748,
      "ĠAnaly": 4749,
      "ĠBureau": 4750,
      "Ġpm": 4751,
      "Ġupdated": 4752,
      "Ġetc": 4753,
      "ĠField": 4754,
      "iles": 4755,
      "Ġobtained": 4756,
      "Ġstick": 4757,
      "Ġcat": 4758,
      "har": 4759,
      "Ġmarked": 4760,
      "Ġmedium": 4761,
      "ĠDes": 4762,
      "People": 4763,
      "Ġwealth": 4764,
      "ores": 4765,
      "ĠBaltimore": 4766,
      "Ġtip": 4767,
      "Ġdismissed": 4768,
      "ĠVictoria": 4769,
      "ĠBrad": 4770,
      "Ch": 4771,
      "Ġ56": 4772,
      "Ġstadium": 4773,
      "eth": 4774,
      "Ġthunder": 4775,
      "Ġtested": 4776,
      "Ġdrawn": 4777,
      "Ġcounsel": 4778,
      "ld": 4779,
      "Ġspirit": 4780,
      "uss": 4781,
      "Ġtheme": 4782,
      "my": 4783,
      "Ġnecessarily": 4784,
      "Ġelements": 4785,
      "Ġcollected": 4786,
      "ĠRes": 4787,
      "ĠMaryland": 4788,
      "ĠEnter": 4789,
      "Ġfounded": 4790,
      "ae": 4791,
      "Ġpilot": 4792,
      "Ġshoulder": 4793,
      "PC": 4794,
      "Ġargument": 4795,
      "Ġyen": 4796,
      "Ġreceiver": 4797,
      "Ġharm": 4798,
      "ĠET": 4799,
      "Ġprotesters": 4800,
      "Ġ72": 4801,
      "ĠAaron": 4802,
      "Ġed": 4803,
      "Ġexpecting": 4804,
      "\":\"": 4805,
      "Ġbike": 4806,
      "Äĩ": 4807,
      "Ġluxury": 4808,
      "half": 4809,
      "ĠBarbara": 4810,
      "Ġfoundation": 4811,
      "Ġill": 4812,
      "Ġsubmitted": 4813,
      "Ġdeeply": 4814,
      "Ġhospitals": 4815,
      "ĠBJP": 4816,
      "Ġshock": 4817,
      "Ġplatforms": 4818,
      "Ġsummary": 4819,
      "ĠWhere": 4820,
      "Ġcelebration": 4821,
      "iff": 4822,
      "Ġveterans": 4823,
      "Ġachieved": 4824,
      "fl": 4825,
      "Ġactivists": 4826,
      "ĠManager": 4827,
      "Ġformal": 4828,
      "Ġformed": 4829,
      "Ġinvestigate": 4830,
      "ĠKyle": 4831,
      "Ġ:": 4832,
      "ĠRa": 4833,
      "ovic": 4834,
      "Ġdrinking": 4835,
      "Ġnetworks": 4836,
      "ĠAlexander": 4837,
      "ĠOs": 4838,
      "Ġ)": 4839,
      "Ġbomb": 4840,
      "Ġrecalled": 4841,
      "ito": 4842,
      "ient": 4843,
      "Ġrepresentatives": 4844,
      "ĠChrist": 4845,
      "ĠWay": 4846,
      "Ġdeadly": 4847,
      "Ġinvesting": 4848,
      "ĠRussell": 4849,
      "Ġconsumption": 4850,
      "Ġharder": 4851,
      "Ġbail": 4852,
      "Ġcritics": 4853,
      "Ġdanger": 4854,
      "Ġdrew": 4855,
      "ĠSol": 4856,
      "Ġcopyright": 4857,
      "ĠHenry": 4858,
      "Ġbuyers": 4859,
      "Ġresidential": 4860,
      "Ġmaintenance": 4861,
      "pr": 4862,
      "Ġmarks": 4863,
      "Ġages": 4864,
      "Ġcovers": 4865,
      "Ġton": 4866,
      "Ġtitles": 4867,
      "ĠPS": 4868,
      "ĠEvans": 4869,
      "Ġmigrants": 4870,
      "Ġflights": 4871,
      "Ġmonitoring": 4872,
      "Ġaddressed": 4873,
      "Ġvital": 4874,
      "Ġcontrolled": 4875,
      "Ġweapon": 4876,
      "Ġinches": 4877,
      "Ġreduction": 4878,
      "Ġurban": 4879,
      "Ġcoaching": 4880,
      "Ġreducing": 4881,
      "ila": 4882,
      "Ġrealize": 4883,
      "Ġmeat": 4884,
      "Ġref": 4885,
      "Ġoverseas": 4886,
      "Ġblame": 4887,
      "Ġterrorist": 4888,
      "Ġstuck": 4889,
      "ĠUs": 4890,
      "esh": 4891,
      "pro": 4892,
      "Ġ58": 4893,
      "ough": 4894,
      "Ġexposure": 4895,
      "ĠAbu": 4896,
      "state": 4897,
      "Ġproviders": 4898,
      "Ġfore": 4899,
      "Ġjet": 4900,
      "bar": 4901,
      "Ġownership": 4902,
      "ret": 4903,
      "Ġupset": 4904,
      "Ġfacts": 4905,
      "Ġpurchasing": 4906,
      "Ġreforms": 4907,
      "Ġriver": 4908,
      "Ġsomebody": 4909,
      "Ġguest": 4910,
      "iy": 4911,
      "Ġauction": 4912,
      "ĠReading": 4913,
      "Ġconsequences": 4914,
      "Ġrepresentative": 4915,
      "Ġappointment": 4916,
      "add": 4917,
      "Ġcollaboration": 4918,
      "ĠTesla": 4919,
      "ĠCohen": 4920,
      "Ġengagement": 4921,
      "Ġspeaks": 4922,
      "EST": 4923,
      "Ġexposed": 4924,
      "Ġmaintained": 4925,
      "rs": 4926,
      "Ġdating": 4927,
      "ĠProgram": 4928,
      "board": 4929,
      "Ġracing": 4930,
      "Ġpension": 4931,
      "ign": 4932,
      "iti": 4933,
      "ĠFive": 4934,
      "Ġextensive": 4935,
      "ĠHa": 4936,
      "ĠPoint": 4937,
      "ĠMexican": 4938,
      "Ġexpanded": 4939,
      "Ġtotally": 4940,
      "Ġinvestigations": 4941,
      "ĠOrleans": 4942,
      "Ġcycle": 4943,
      "ĠESPN": 4944,
      "ifying": 4945,
      "Ġcup": 4946,
      "ĠAz": 4947,
      "ĠInvestors": 4948,
      "Ġengage": 4949,
      "reg": 4950,
      "Ġfought": 4951,
      "Ġterrorism": 4952,
      "Ġblocked": 4953,
      "ĠOK": 4954,
      "Äį": 4955,
      "72": 4956,
      "Ġdestroyed": 4957,
      "«": 4958,
      "Ġstaying": 4959,
      "Ġafford": 4960,
      "Ġappearances": 4961,
      "ĠHills": 4962,
      "Ġcrore": 4963,
      "Ġstrategies": 4964,
      "Ġtips": 4965,
      "ĠSm": 4966,
      "ĠFr": 4967,
      "Ġbanned": 4968,
      "ĠSon": 4969,
      "ask": 4970,
      "Ġlimits": 4971,
      "Ġrecognition": 4972,
      "Ġeligible": 4973,
      "ĠGar": 4974,
      "Ġvolatility": 4975,
      "Ġlaid": 4976,
      "nes": 4977,
      "Ġgrade": 4978,
      "ĠRE": 4979,
      "ĠHart": 4980,
      "Ġ57": 4981,
      "oma": 4982,
      "Ġuncertainty": 4983,
      "Ġrecognized": 4984,
      "ĠPC": 4985,
      "Ġchosen": 4986,
      "uz": 4987,
      "Ġadviser": 4988,
      "una": 4989,
      "Ġassessment": 4990,
      "Ġreveal": 4991,
      "mo": 4992,
      "After": 4993,
      "ĠBro": 4994,
      "ĠOff": 4995,
      "Ġpeak": 4996,
      "Ġreferred": 4997,
      "ĠSC": 4998,
      "Ġ2003": 4999,
      "ification": 5000,
      "Ġshutdown": 5001,
      "ĠOfficials": 5002,
      "ias": 5003,
      "Ġextreme": 5004,
      "Ġflood": 5005,
      "Ġhockey": 5006,
      "Ġwage": 5007,
      "ĠNet": 5008,
      "Ġdamaged": 5009,
      "Ġreplacement": 5010,
      "ĠMaria": 5011,
      "Ġcreation": 5012,
      "Ġguns": 5013,
      "aci": 5014,
      "Ġworker": 5015,
      "do": 5016,
      "Ġviewers": 5017,
      "Ġseed": 5018,
      "sts": 5019,
      "Ġtouchdowns": 5020,
      "Ġmistake": 5021,
      "ray": 5022,
      "ull": 5023,
      "Ġpricing": 5024,
      "Ġstrongly": 5025,
      "Ġaims": 5026,
      "ĠNavy": 5027,
      "ĠEgypt": 5028,
      "ker": 5029,
      "Ġve": 5030,
      "ĠSteven": 5031,
      "Ġres": 5032,
      "ational": 5033,
      "Ġrequests": 5034,
      "Ġemissions": 5035,
      "ĠArena": 5036,
      "uma": 5037,
      "ĠAtlantic": 5038,
      "hr": 5039,
      "ĠAFP": 5040,
      "ĠSquare": 5041,
      "Ġcontribute": 5042,
      "Ġfunction": 5043,
      "Ġdec": 5044,
      "ĠNelson": 5045,
      "89": 5046,
      "Ġreferendum": 5047,
      "ĠPre": 5048,
      "Ġapplied": 5049,
      "ĠGMT": 5050,
      "ĠIranian": 5051,
      "ĠNigerian": 5052,
      "ĠAny": 5053,
      "NG": 5054,
      "Ġacknowledged": 5055,
      "Ġreferring": 5056,
      "Ġventure": 5057,
      "Ġimports": 5058,
      "Ġblog": 5059,
      "Ġfutures": 5060,
      "OU": 5061,
      "ĠUFC": 5062,
      "Ġneither": 5063,
      "Ġextension": 5064,
      "hes": 5065,
      "ĠMed": 5066,
      "76": 5067,
      "Ġsustainable": 5068,
      "ains": 5069,
      "Ġreputation": 5070,
      "ĠVancouver": 5071,
      "Ġbasically": 5072,
      "acy": 5073,
      "Ġsad": 5074,
      "ĠFrancis": 5075,
      "ĠKennedy": 5076,
      "ĠNevada": 5077,
      "ĠLu": 5078,
      "ras": 5079,
      "ĠAv": 5080,
      "Ġrear": 5081,
      "ĠHo": 5082,
      "Ġproperly": 5083,
      "abe": 5084,
      "ĠHotel": 5085,
      "Ġopinions": 5086,
      "under": 5087,
      "ĠStation": 5088,
      "ĠFOR": 5089,
      "ops": 5090,
      "Ġadopted": 5091,
      "ĠSwiss": 5092,
      "ĠCountry": 5093,
      "ĠTer": 5094,
      "ĠAndy": 5095,
      "Me": 5096,
      "ĠCooper": 5097,
      "ĠTigers": 5098,
      "ĠCreek": 5099,
      "Ġgay": 5100,
      "iner": 5101,
      "ĠAN": 5102,
      "Ġbird": 5103,
      "lla": 5104,
      "ĠKate": 5105,
      "ĠPet": 5106,
      "ni": 5107,
      "Ġprospects": 5108,
      "ater": 5109,
      "ites": 5110,
      "Ġescape": 5111,
      "lam": 5112,
      "ake": 5113,
      "Ġ1980": 5114,
      "ĠLag": 5115,
      "Ġsuccessfully": 5116,
      "Ġdistricts": 5117,
      "Ġministers": 5118,
      "aries": 5119,
      "Ġframe": 5120,
      "ĠON": 5121,
      "ĠEuro": 5122,
      "ĠMarkets": 5123,
      "Ġregister": 5124,
      "Ġdefeated": 5125,
      "Ġdevelopments": 5126,
      "Ġninth": 5127,
      "Ġquiet": 5128,
      "Ġgenerated": 5129,
      "Ġvaluable": 5130,
      "Ġrecommended": 5131,
      "ĠTheatre": 5132,
      "ĠCap": 5133,
      "bed": 5134,
      "Ġreference": 5135,
      "Ġease": 5136,
      "oring": 5137,
      "Ġ66": 5138,
      "Ġimprovements": 5139,
      "Ġelsewhere": 5140,
      "ĠHillary": 5141,
      "Ġdefender": 5142,
      "ĠRight": 5143,
      "zy": 5144,
      "Ġcomprehensive": 5145,
      "Ġspotted": 5146,
      "ĠOakland": 5147,
      "ĠOk": 5148,
      "ĠSystem": 5149,
      "ique": 5150,
      "Ġpersons": 5151,
      "Ġexist": 5152,
      "Ġbroader": 5153,
      "Ġclinical": 5154,
      "Ġ2001": 5155,
      "oul": 5156,
      "Ġsecurities": 5157,
      "ghan": 5158,
      "Ġshelter": 5159,
      "ero": 5160,
      "ATED": 5161,
      "Ġhosting": 5162,
      "Ġselect": 5163,
      "ĠKavanaugh": 5164,
      "Ġrestrictions": 5165,
      "osa": 5166,
      "Ġyields": 5167,
      "ĠLA": 5168,
      "Ġ59": 5169,
      "Ġwonder": 5170,
      "Ġabsence": 5171,
      "Ã¼r": 5172,
      "ÅĤ": 5173,
      "DP": 5174,
      "Ġelectronic": 5175,
      "Ġillegally": 5176,
      "Ġmicro": 5177,
      "ĠNEW": 5178,
      "Ġhall": 5179,
      "Ġaged": 5180,
      "Ġtemperature": 5181,
      "cast": 5182,
      "atic": 5183,
      "Ġlegacy": 5184,
      "Ġaffairs": 5185,
      "ji": 5186,
      "ĠResources": 5187,
      "Ġgang": 5188,
      "winning": 5189,
      "Ġattending": 5190,
      "aro": 5191,
      "Ġfriendly": 5192,
      "aine": 5193,
      "Ġcannabis": 5194,
      "Ġairline": 5195,
      "Ġnoting": 5196,
      "Ġprofessionals": 5197,
      "ĠFREE": 5198,
      "RC": 5199,
      "Ġfinancing": 5200,
      "Ġindependence": 5201,
      "ved": 5202,
      "Ġresulting": 5203,
      "Ġsteady": 5204,
      "ĠWinter": 5205,
      "uring": 5206,
      "Ġhoped": 5207,
      "98": 5208,
      "Ġpresentation": 5209,
      "aya": 5210,
      "Ġrated": 5211,
      "osh": 5212,
      "ĠAnalysis": 5213,
      "=": 5214,
      "Ġdonations": 5215,
      "IR": 5216,
      "Ġcombat": 5217,
      "ĠHoward": 5218,
      "anda": 5219,
      "79": 5220,
      "Ġinvested": 5221,
      "Ġexpanding": 5222,
      "omb": 5223,
      "ress": 5224,
      "ble": 5225,
      "Ġjournalist": 5226,
      "ĠWoods": 5227,
      "Ġcenters": 5228,
      "ott": 5229,
      "Ġstreaming": 5230,
      "Ġterror": 5231,
      "Ġsustained": 5232,
      "ĠWWE": 5233,
      "pre": 5234,
      "ÅŁ": 5235,
      "ait": 5236,
      "Ġarrival": 5237,
      "Ġresidence": 5238,
      "Ġextent": 5239,
      "Ġarrive": 5240,
      "Ġ2002": 5241,
      "Ġestablish": 5242,
      "74": 5243,
      "ĠArgentina": 5244,
      "ĠDem": 5245,
      "inn": 5246,
      "aud": 5247,
      "ĠNCAA": 5248,
      "Ġquestioned": 5249,
      "Ġballot": 5250,
      "Ġmin": 5251,
      "Ġlandscape": 5252,
      "Ġhorse": 5253,
      "Ġopponent": 5254,
      "iel": 5255,
      "Ġprompted": 5256,
      "atory": 5257,
      "Ġlift": 5258,
      "Ġassociation": 5259,
      "cher": 5260,
      "Ġdefending": 5261,
      "Ġtiny": 5262,
      "Ġpoverty": 5263,
      "ĠSafety": 5264,
      "Ġpetition": 5265,
      "ĠLimited": 5266,
      "ĠCA": 5267,
      "FC": 5268,
      "Ãł": 5269,
      "oni": 5270,
      "Ġmonitor": 5271,
      "ÃŃa": 5272,
      "MA": 5273,
      "Ġanswers": 5274,
      "ĠMitchell": 5275,
      "Ġbo": 5276,
      "ĠShah": 5277,
      "Ġsm": 5278,
      "Ġmedal": 5279,
      "ĠCivil": 5280,
      "Ġrecognize": 5281,
      "key": 5282,
      "Ġpregnant": 5283,
      "Ġspots": 5284,
      "ante": 5285,
      "Ġacademic": 5286,
      "Ġinitiatives": 5287,
      "Ġsecured": 5288,
      "ĠCL": 5289,
      "ils": 5290,
      "Ġanticipated": 5291,
      "Ġinvolvement": 5292,
      "ĠMake": 5293,
      "Ġinsisted": 5294,
      "ĠWales": 5295,
      "Ġclothing": 5296,
      "Ġtracks": 5297,
      "Ġsymptoms": 5298,
      "Ġplate": 5299,
      "ĠNY": 5300,
      "Ġretailers": 5301,
      "ĠPan": 5302,
      "Ġfled": 5303,
      "Ġquoted": 5304,
      "Ġsaved": 5305,
      "ĠCarter": 5306,
      "Ġteaching": 5307,
      "ĠTokyo": 5308,
      "ĠCr": 5309,
      "ĠSix": 5310,
      "ĠPicture": 5311,
      "Ġrecover": 5312,
      "Ġcomedy": 5313,
      "ree": 5314,
      "Ġstrikes": 5315,
      "ĠSanders": 5316,
      "sel": 5317,
      "Ġgraduate": 5318,
      "Ġpending": 5319,
      "St": 5320,
      "Ġwarrant": 5321,
      "Ġhonest": 5322,
      "ĠGM": 5323,
      "Ġnoticed": 5324,
      "ĠGalaxy": 5325,
      "ider": 5326,
      "Ġproposals": 5327,
      "Ġwore": 5328,
      "Ġindeed": 5329,
      "EM": 5330,
      "ĠChannel": 5331,
      "ances": 5332,
      "ĠBrady": 5333,
      "86": 5334,
      "Ġgotten": 5335,
      "Ġthrowing": 5336,
      "ĠLeader": 5337,
      "ĠVideo": 5338,
      "71": 5339,
      "Ġwelcomed": 5340,
      "NEW": 5341,
      "Ġfairly": 5342,
      "Ġpromises": 5343,
      "ĠSilver": 5344,
      "Ġrape": 5345,
      "Ġopener": 5346,
      "ares": 5347,
      "ĠSir": 5348,
      "making": 5349,
      "Ġcur": 5350,
      "Ġrooms": 5351,
      "73": 5352,
      "Ġamounts": 5353,
      "ĠIndustry": 5354,
      "ĠDar": 5355,
      "Ġ62": 5356,
      "ted": 5357,
      "Ġabroad": 5358,
      "ĠMaybe": 5359,
      "Ġreaders": 5360,
      "oke": 5361,
      "Ġpublication": 5362,
      "ĠJean": 5363,
      "Ġoperator": 5364,
      "ĠHaving": 5365,
      "ĠMil": 5366,
      "life": 5367,
      "Ġgenerate": 5368,
      "ĠCraig": 5369,
      "ĠMass": 5370,
      "ĠBh": 5371,
      "Ġrequested": 5372,
      "Ġcrazy": 5373,
      "ĠSpace": 5374,
      "Ġcopy": 5375,
      "Ġexport": 5376,
      "Ġcontext": 5377,
      "Ġbr": 5378,
      "62": 5379,
      "ĠRobinson": 5380,
      "Ġcyber": 5381,
      "ENT": 5382,
      "BI": 5383,
      "arg": 5384,
      "Ġspeaker": 5385,
      "Ġdramatic": 5386,
      "ĠOl": 5387,
      "ĠMill": 5388,
      "Ġtrained": 5389,
      "Ġediting": 5390,
      "Ġsalary": 5391,
      "Ġdirectors": 5392,
      "Ġexplore": 5393,
      "Ġlucky": 5394,
      "Ġprominent": 5395,
      "Ġbrothers": 5396,
      "Ġneck": 5397,
      "icht": 5398,
      "ĠWatson": 5399,
      "born": 5400,
      "Ġproven": 5401,
      "Ġprincipal": 5402,
      "Ġedition": 5403,
      "Ed": 5404,
      "Ġswitch": 5405,
      "maker": 5406,
      "Ġrelative": 5407,
      "mi": 5408,
      "ĠBruce": 5409,
      "ho": 5410,
      "ĠScottish": 5411,
      "water": 5412,
      "ĠSport": 5413,
      "ĠKings": 5414,
      "ĠCollins": 5415,
      "adi": 5416,
      "Ġcelebrated": 5417,
      "Ġclothes": 5418,
      "Ġsunny": 5419,
      "ĠCharlotte": 5420,
      "ees": 5421,
      "Ġscenes": 5422,
      "ĠData": 5423,
      "Ġwounded": 5424,
      "Ġunusual": 5425,
      "Ġrealized": 5426,
      "ĠPlan": 5427,
      "ĠTrans": 5428,
      "ĠFC": 5429,
      "Ġletters": 5430,
      "Ġalerts": 5431,
      "ĠWarren": 5432,
      "DS": 5433,
      "oss": 5434,
      "pping": 5435,
      "Ġsuspension": 5436,
      "Ġbenchmark": 5437,
      "ĠAcc": 5438,
      "Ġalert": 5439,
      "Ġpassion": 5440,
      "ĠEst": 5441,
      "Ġlatter": 5442,
      "Ġstability": 5443,
      "Ġarts": 5444,
      "Ġpursue": 5445,
      "ĠSeason": 5446,
      "Ġfields": 5447,
      "Ġmethod": 5448,
      "63": 5449,
      "Ġfolks": 5450,
      "Ġexclusive": 5451,
      "Ġcrews": 5452,
      "Ġsessions": 5453,
      "ĠMajor": 5454,
      "ĠMount": 5455,
      "Ġmap": 5456,
      "Ġ=": 5457,
      "Ġsituations": 5458,
      "ĠBerlin": 5459,
      "rey": 5460,
      "Ġdates": 5461,
      "Ġsheet": 5462,
      "ĠLo": 5463,
      "Ġfighters": 5464,
      "ĠMart": 5465,
      "Ġatmosphere": 5466,
      "Ġillness": 5467,
      "Ġcompeting": 5468,
      "ĠChristopher": 5469,
      "ĠRoy": 5470,
      "mm": 5471,
      "iano": 5472,
      "Ġge": 5473,
      "ĠRams": 5474,
      "Ġconversations": 5475,
      "ĠPa": 5476,
      "ĠTel": 5477,
      "Ġappreciate": 5478,
      "78": 5479,
      "ĠTotal": 5480,
      "low": 5481,
      "ĠStone": 5482,
      "Ġopposite": 5483,
      "Ġbarrel": 5484,
      "Ġdevelopers": 5485,
      "Ġexpress": 5486,
      "Ġhighs": 5487,
      "which": 5488,
      "par": 5489,
      "ĠVietnam": 5490,
      "Ġblocks": 5491,
      "Ġrecording": 5492,
      "Ġadjusted": 5493,
      "Ġret": 5494,
      "ĠAR": 5495,
      "Ġmilitants": 5496,
      "Ġinnovative": 5497,
      "ĠGhana": 5498,
      "FR": 5499,
      "Ġfantastic": 5500,
      "Ġmortgage": 5501,
      "ando": 5502,
      "ĠLane": 5503,
      "ises": 5504,
      "ĠÂ": 5505,
      "Ġhomeless": 5506,
      "ĠKal": 5507,
      "Ġapproached": 5508,
      "Ġrounds": 5509,
      "Ġmargins": 5510,
      "ament": 5511,
      "ĠMotor": 5512,
      "Ġencouraging": 5513,
      "ÂŃ": 5514,
      "uru": 5515,
      "Ġhandling": 5516,
      "ĠMassachusetts": 5517,
      "Ġplanet": 5518,
      "ĠSpring": 5519,
      "ĠBon": 5520,
      "gu": 5521,
      "Beat": 5522,
      "Ġdrawing": 5523,
      "ĠPhoenix": 5524,
      "very": 5525,
      "aid": 5526,
      "ĠSte": 5527,
      "ĠEntertainment": 5528,
      "ĠRon": 5529,
      "Ġassigned": 5530,
      "ĠSA": 5531,
      "News": 5532,
      "Ġinterviews": 5533,
      "ĠOh": 5534,
      "media": 5535,
      "vel": 5536,
      "Ġpermission": 5537,
      "Ġtransactions": 5538,
      "Ġtraders": 5539,
      "Ġsolo": 5540,
      "Ġprovincial": 5541,
      "Ġsuggesting": 5542,
      "¡": 5543,
      "Ġdiverse": 5544,
      "Ġ67": 5545,
      "Ġranks": 5546,
      "ĠFre": 5547,
      "Ġfavourite": 5548,
      "Ġ63": 5549,
      "Ġdifferences": 5550,
      "Ġtargeting": 5551,
      "Ġactors": 5552,
      "Ġ76": 5553,
      "icated": 5554,
      "Ġcollect": 5555,
      "akes": 5556,
      "war": 5557,
      "Ġcontained": 5558,
      "ches": 5559,
      "Ġlibrary": 5560,
      "Ġsegments": 5561,
      "ĠLine": 5562,
      "Ãª": 5563,
      "ual": 5564,
      "Ġbags": 5565,
      "Ġfactory": 5566,
      "Ġear": 5567,
      "Ġsomewhat": 5568,
      "Ġrail": 5569,
      "ĠUP": 5570,
      "ula": 5571,
      "ĠNiger": 5572,
      "Ġlas": 5573,
      "Ġimplementation": 5574,
      "Ġemails": 5575,
      "kel": 5576,
      "wing": 5577,
      "Ġadvised": 5578,
      "--": 5579,
      "istic": 5580,
      "Ġdepth": 5581,
      "Ġshoes": 5582,
      "ĠJennifer": 5583,
      "Ġvenue": 5584,
      "Ġcontain": 5585,
      "Ġhighlights": 5586,
      "Ġcapabilities": 5587,
      "Ġprocesses": 5588,
      "Ġtradition": 5589,
      "Ġcontacted": 5590,
      "Ġproducing": 5591,
      "Ġtrail": 5592,
      "rem": 5593,
      "Ġ600": 5594,
      "Ġ68": 5595,
      "AA": 5596,
      "ĠBa": 5597,
      "ĠSuch": 5598,
      "ĠTyler": 5599,
      "ipp": 5600,
      "Ġsurvived": 5601,
      "ami": 5602,
      "ĠContinue": 5603,
      "Ġcapture": 5604,
      "bi": 5605,
      "61": 5606,
      "96": 5607,
      "Ġthreatening": 5608,
      "Ġkeen": 5609,
      "dale": 5610,
      "Ġtrailer": 5611,
      "Ġstages": 5612,
      "ĠGordon": 5613,
      "Ġfinishing": 5614,
      "Ġlegislative": 5615,
      "Ġuseful": 5616,
      "ĠGreek": 5617,
      "ald": 5618,
      "Ġgrounds": 5619,
      "ĠDu": 5620,
      "storms": 5621,
      "ills": 5622,
      "Ġexpense": 5623,
      "Ġdetained": 5624,
      "Today": 5625,
      "Ġdiet": 5626,
      "Ġwood": 5627,
      "ĠCameron": 5628,
      "Ġthrown": 5629,
      "Ġcricket": 5630,
      "Ġideal": 5631,
      "with": 5632,
      "Ġteammates": 5633,
      "ours": 5634,
      "Ġprojected": 5635,
      "Ġpersonally": 5636,
      "ĠBoy": 5637,
      "rom": 5638,
      "ĠPhilippines": 5639,
      "win": 5640,
      "ges": 5641,
      "Ġcounties": 5642,
      "ĠBaker": 5643,
      "Ġprosecutor": 5644,
      "Ġroof": 5645,
      "met": 5646,
      "Ġpartly": 5647,
      "ĠMoon": 5648,
      "eman": 5649,
      "Ġfocusing": 5650,
      "Ġfishing": 5651,
      "than": 5652,
      "ĠJeremy": 5653,
      "ĠBad": 5654,
      "ais": 5655,
      "Ġcontrols": 5656,
      "Ġtonnes": 5657,
      "Ġshall": 5658,
      "Ġ61": 5659,
      "Ġgathering": 5660,
      "ĠERA": 5661,
      "Ġpresidency": 5662,
      "Ġ85": 5663,
      "ĠGas": 5664,
      "Ġscenario": 5665,
      "Ġquarters": 5666,
      "Ġang": 5667,
      "Ġsettled": 5668,
      "ĠCommerce": 5669,
      "Ġanybody": 5670,
      "Ġgarden": 5671,
      "ĠLibrary": 5672,
      "Ġbet": 5673,
      "Ġtopic": 5674,
      "olo": 5675,
      "Ġintense": 5676,
      "87": 5677,
      "Ġlinks": 5678,
      "Ġmed": 5679,
      "ĠAG": 5680,
      "Ġflooding": 5681,
      "ĠMurphy": 5682,
      "PM": 5683,
      "Ġfinds": 5684,
      "Ġsensitive": 5685,
      "pped": 5686,
      "Ġcompletion": 5687,
      "Ġminority": 5688,
      "Ġvon": 5689,
      "Ġstriking": 5690,
      "rich": 5691,
      "Ġbars": 5692,
      "Ġefficient": 5693,
      "Ġcontributions": 5694,
      "Ġvisits": 5695,
      "Ġattract": 5696,
      "ĠMalaysia": 5697,
      "ĠREL": 5698,
      "Ġopens": 5699,
      "Ġessentially": 5700,
      "Ġreasonable": 5701,
      "Ġsentiment": 5702,
      "ĠMelbourne": 5703,
      "Ġfitness": 5704,
      "Ġfrequently": 5705,
      "ĠRangers": 5706,
      "Ġmuseum": 5707,
      "ĠDNA": 5708,
      "Ġcontrast": 5709,
      "ĠAdams": 5710,
      "ĠWin": 5711,
      "Ġfalls": 5712,
      "Ġimposed": 5713,
      "250": 5714,
      "ood": 5715,
      "ĠRio": 5716,
      "Ġchoices": 5717,
      "Ġyellow": 5718,
      "rin": 5719,
      "ben": 5720,
      "ĠStaff": 5721,
      "ĠIndonesia": 5722,
      "Ġcarries": 5723,
      "Ġtourism": 5724,
      "UM": 5725,
      "ĠOrange": 5726,
      "sell": 5727,
      "Ġresolve": 5728,
      "ĠMumbai": 5729,
      "Ġpan": 5730,
      "Ġimplement": 5731,
      "Ġmidfielder": 5732,
      "OP": 5733,
      "Ġtensions": 5734,
      "Ġ800": 5735,
      "ĠLord": 5736,
      "ĠLight": 5737,
      "Ġlies": 5738,
      "Ã©s": 5739,
      "Ġparticipation": 5740,
      "Ġtries": 5741,
      "Ġsheriff": 5742,
      "degree": 5743,
      "Ġcongressional": 5744,
      "Ġmode": 5745,
      "Ġregulation": 5746,
      "ĠJacob": 5747,
      "ĠCrown": 5748,
      "Ġbowl": 5749,
      "ĠMississippi": 5750,
      "Ġtheft": 5751,
      "ĠKingdom": 5752,
      "Ġresort": 5753,
      "Ġroyal": 5754,
      "Ġunemployment": 5755,
      "PP": 5756,
      "Ġnomination": 5757,
      "ĠTR": 5758,
      "Ġbehaviour": 5759,
      "bank": 5760,
      "ĠForest": 5761,
      "WASHINGTON": 5762,
      "ĠOthers": 5763,
      "Ġslowly": 5764,
      "Ġmenu": 5765,
      "vo": 5766,
      "ĠSy": 5767,
      "ĠMetro": 5768,
      "ĠLisa": 5769,
      "Ġregistration": 5770,
      "While": 5771,
      "ĠJesus": 5772,
      "Ġ250": 5773,
      "Ġprocessing": 5774,
      "Ġmonetary": 5775,
      "ape": 5776,
      "ener": 5777,
      "ĠSystems": 5778,
      "Ġdisappointed": 5779,
      "Ġprint": 5780,
      "uy": 5781,
      "ħ": 5782,
      "Ġdemanding": 5783,
      "Ġincredibly": 5784,
      "play": 5785,
      "Ġsurveillance": 5786,
      "ĠStandard": 5787,
      "Ġperiods": 5788,
      "Ġwrites": 5789,
      "ĠLuke": 5790,
      "ĠPalestinian": 5791,
      "Ġwalks": 5792,
      "Ġriding": 5793,
      "Ġwaters": 5794,
      "ĠSox": 5795,
      "Ġtraveling": 5796,
      "Ġtap": 5797,
      "Ġorganized": 5798,
      "Ġresource": 5799,
      "Ġangry": 5800,
      "Ġtiming": 5801,
      "Ġempty": 5802,
      "Ġmilk": 5803,
      "Ġtherapy": 5804,
      "ĠBrandon": 5805,
      "mon": 5806,
      "Ġnationwide": 5807,
      "Ġnovel": 5808,
      "ĠStorm": 5809,
      "iet": 5810,
      "ĠBre": 5811,
      "Ġbegun": 5812,
      "Ġdiplomatic": 5813,
      "Ġads": 5814,
      "ĠDC": 5815,
      "ĠOb": 5816,
      "ĠMontreal": 5817,
      "ĠDown": 5818,
      "ĠMilwaukee": 5819,
      "Ġmeal": 5820,
      "ĠPuerto": 5821,
      "ĠMas": 5822,
      "Ġjoy": 5823,
      "Ġdeparture": 5824,
      "ĠWright": 5825,
      "Ġspoken": 5826,
      "style": 5827,
      "ĠAction": 5828,
      "ĠComey": 5829,
      "Ġdelivering": 5830,
      "Ġtoll": 5831,
      "Ġmidnight": 5832,
      "ĠRevenue": 5833,
      "Ġfiring": 5834,
      "Ġstunning": 5835,
      "Ġkicked": 5836,
      "ĠOttawa": 5837,
      "Ġefficiency": 5838,
      "ĠLincoln": 5839,
      "Ġtaste": 5840,
      "ez": 5841,
      "ĠWeather": 5842,
      "ĠMorning": 5843,
      "Ġhadn": 5844,
      "Ġdiversity": 5845,
      "ily": 5846,
      "ĠAy": 5847,
      "Ġargue": 5848,
      "Ġerror": 5849,
      "Ġtaught": 5850,
      "Ġche": 5851,
      "Ġoccasion": 5852,
      "Ġinc": 5853,
      "ĠOrlando": 5854,
      "ĠOnline": 5855,
      "Ġlegs": 5856,
      "ĠNation": 5857,
      "uck": 5858,
      "Ġwidespread": 5859,
      "ĠOcean": 5860,
      "Ġconstantly": 5861,
      "ĠLatin": 5862,
      "Ġcomfort": 5863,
      "Ġrely": 5864,
      "uff": 5865,
      "ĠCard": 5866,
      "aring": 5867,
      "Ġhumans": 5868,
      "ĠThomson": 5869,
      "aka": 5870,
      "BIT": 5871,
      "ĠReview": 5872,
      "po": 5873,
      "Ãº": 5874,
      "Ġtrucks": 5875,
      "Ġforecasts": 5876,
      "view": 5877,
      "Ġlongtime": 5878,
      "ĠConstitution": 5879,
      "Ġreserves": 5880,
      "bit": 5881,
      "Ġstressed": 5882,
      "Ġcontribution": 5883,
      "Ġchicken": 5884,
      "ĠDE": 5885,
      "Ġfat": 5886,
      "ĠOscar": 5887,
      "Ġcriticized": 5888,
      "Ġtestimony": 5889,
      "Ġapparent": 5890,
      "Ġconstant": 5891,
      "Ġcabinet": 5892,
      "ĠDuke": 5893,
      "Ġaspects": 5894,
      "lic": 5895,
      "ĠVol": 5896,
      "Ġwing": 5897,
      "Ġreb": 5898,
      "ĠSessions": 5899,
      "ĠSmart": 5900,
      "car": 5901,
      "ĠIm": 5902,
      "Ġoperational": 5903,
      "Ġregulators": 5904,
      "ĠJimmy": 5905,
      "eter": 5906,
      "Ġnobody": 5907,
      "ĠMarc": 5908,
      "Ġliterally": 5909,
      "Ġresistance": 5910,
      "ĠKam": 5911,
      "Ġsexually": 5912,
      "Ġ69": 5913,
      "uth": 5914,
      "Ġviewed": 5915,
      "Ġpicks": 5916,
      "Ġdin": 5917,
      "Ġtalented": 5918,
      "Ġtennis": 5919,
      "Ġstrengthen": 5920,
      "Ġgl": 5921,
      "ĠProtection": 5922,
      "Ġinstalled": 5923,
      "ways": 5924,
      "ĠCampbell": 5925,
      "ĠPortland": 5926,
      "Ġintent": 5927,
      "ĠPalace": 5928,
      "Ġsecondary": 5929,
      "Ġlocked": 5930,
      "ĠPA": 5931,
      "Ġlanded": 5932,
      "Ġlength": 5933,
      "Ġboosted": 5934,
      "Ġpurchases": 5935,
      "Ġcommand": 5936,
      "ĠAsked": 5937,
      "Ġspaces": 5938,
      "Ġiconic": 5939,
      "Ġrecommend": 5940,
      "Ġduties": 5941,
      "Ġseized": 5942,
      "Ġdelayed": 5943,
      "FA": 5944,
      "AND": 5945,
      "daq": 5946,
      "Ġhiring": 5947,
      "Ġoccur": 5948,
      "DC": 5949,
      "ĠMus": 5950,
      "Ġag": 5951,
      "Ġhopefully": 5952,
      "ĠPenn": 5953,
      "ards": 5954,
      "Ġstriker": 5955,
      "Ġrent": 5956,
      "ĠTy": 5957,
      "ĠBuffalo": 5958,
      "ĠKy": 5959,
      "Ġhike": 5960,
      "pper": 5961,
      "Ġ120": 5962,
      "Ġop": 5963,
      "Ġwheel": 5964,
      "ĠIan": 5965,
      "Ġchart": 5966,
      "tt": 5967,
      "Ġvolunteer": 5968,
      "IG": 5969,
      "person": 5970,
      "ight": 5971,
      "ĠBook": 5972,
      "unt": 5973,
      "ĠTechnologies": 5974,
      "Now": 5975,
      "Ġfavour": 5976,
      "ĠGh": 5977,
      "ĠQatar": 5978,
      "ĠDutch": 5979,
      "ĠGrant": 5980,
      "ĠBan": 5981,
      "rel": 5982,
      "Ġagreements": 5983,
      "Ġeducational": 5984,
      "worth": 5985,
      "ĠWard": 5986,
      "700": 5987,
      "Ġanymore": 5988,
      "Ġrepair": 5989,
      "Ġoperators": 5990,
      "ĠLi": 5991,
      "ots": 5992,
      "ĠLouisiana": 5993,
      "ĠWhether": 5994,
      "Ġodds": 5995,
      "Ġnoon": 5996,
      "ĠStr": 5997,
      "Ġfail": 5998,
      "iser": 5999,
      "Ġforever": 6000,
      "Ġrecall": 6001,
      "ĠPo": 6002,
      "ĠHot": 6003,
      "Ġdesigner": 6004,
      "ido": 6005,
      "LL": 6006,
      "ĠControl": 6007,
      "Ġsurvive": 6008,
      "iam": 6009,
      "Ġorganisation": 6010,
      "ĠWork": 6011,
      "Ġwider": 6012,
      "Ġtank": 6013,
      "work": 6014,
      "ĠAS": 6015,
      "Ġposting": 6016,
      "Ġsuddenly": 6017,
      "MC": 6018,
      "ĠAL": 6019,
      "ĠProfessor": 6020,
      "ĠCoach": 6021,
      "Ġrushed": 6022,
      "Ġafraid": 6023,
      "Ġactivist": 6024,
      "that": 6025,
      "ĠFilm": 6026,
      "Ġbacking": 6027,
      "Ġhousehold": 6028,
      "Ġsignal": 6029,
      "Ġaccurate": 6030,
      "str": 6031,
      "ĠThread": 6032,
      "ĠBears": 6033,
      "ATION": 6034,
      "ĠAlliance": 6035,
      "ĠMcDonald": 6036,
      "ĠVenezuela": 6037,
      "ogg": 6038,
      "ĠWindows": 6039,
      "makers": 6040,
      "Ġutility": 6041,
      "Ġrapidly": 6042,
      "Ġattractive": 6043,
      "Ġpa": 6044,
      "ĠLarry": 6045,
      "Ġmisconduct": 6046,
      "Ġfreshman": 6047,
      "Ġqualified": 6048,
      "Ġcleared": 6049,
      "Ġcrashed": 6050,
      "Ġparticipating": 6051,
      "Ġpages": 6052,
      "Ġhighlight": 6053,
      "Ġdialogue": 6054,
      "ĠAlberta": 6055,
      "Ġca": 6056,
      "Ġwitnesses": 6057,
      "ables": 6058,
      "Ġfollowers": 6059,
      "Ġensuring": 6060,
      "Ġpromoting": 6061,
      "Ġsearching": 6062,
      "Ġremote": 6063,
      "Ġclash": 6064,
      "Ġfirefighters": 6065,
      "Ġteen": 6066,
      "ĠPlace": 6067,
      "ĠNote": 6068,
      "Ġregardless": 6069,
      "ult": 6070,
      "oney": 6071,
      "ander": 6072,
      "ional": 6073,
      "ining": 6074,
      "Ġdemanded": 6075,
      "ĠCommunications": 6076,
      "Ġconsideration": 6077,
      "TC": 6078,
      "ĠSoutheast": 6079,
      "aga": 6080,
      "ĠGarden": 6081,
      "inger": 6082,
      "ht": 6083,
      "Ġbranch": 6084,
      "Ġmouth": 6085,
      "Ġaudio": 6086,
      "Ġraw": 6087,
      "Ġcoordinator": 6088,
      "Ġexact": 6089,
      "ĠHan": 6090,
      "Ġdelays": 6091,
      "ĠWal": 6092,
      "ĠWells": 6093,
      "Ġng": 6094,
      "Ġhandful": 6095,
      "Ġgirlfriend": 6096,
      "Ġtypical": 6097,
      "ĠWayne": 6098,
      "ĠFranklin": 6099,
      "Ġconstitutional": 6100,
      "ĠChance": 6101,
      "Ġblamed": 6102,
      "rim": 6103,
      "Ġpreliminary": 6104,
      "Ġlie": 6105,
      "da": 6106,
      "ĠCapitol": 6107,
      "Ġroutine": 6108,
      "ĠNASA": 6109,
      "Ġtre": 6110,
      "ĠGolf": 6111,
      "Ġsight": 6112,
      "ĠDer": 6113,
      "Ġreserve": 6114,
      "150": 6115,
      "Ġspeculation": 6116,
      "Ġcompetitors": 6117,
      "ĠMacron": 6118,
      "ony": 6119,
      "Ġovertime": 6120,
      "Ġ71": 6121,
      "Ġdepending": 6122,
      "ĠWarner": 6123,
      "Ġaccusations": 6124,
      "ius": 6125,
      "Ġpredicted": 6126,
      "ĠCharlie": 6127,
      "Ġeverywhere": 6128,
      "Ġcable": 6129,
      "ĠSaint": 6130,
      "ĠRegion": 6131,
      "Ġhero": 6132,
      "ĠEmb": 6133,
      "Ġkinds": 6134,
      "Ġstarter": 6135,
      "Ġsolve": 6136,
      "ĠGuard": 6137,
      "Ġloves": 6138,
      "ĠDouglas": 6139,
      "Ġfunded": 6140,
      "ĠBrent": 6141,
      "ĠAnyone": 6142,
      "Ġsubstantial": 6143,
      "ĠMarine": 6144,
      "ĠMichelle": 6145,
      "Ġcelebrating": 6146,
      "Ġoffset": 6147,
      "Ġbutton": 6148,
      "gg": 6149,
      "Ġmedicine": 6150,
      "uri": 6151,
      "Ġsomewhere": 6152,
      "PD": 6153,
      "Ġmon": 6154,
      "Ġfires": 6155,
      "final": 6156,
      "oth": 6157,
      "ined": 6158,
      "Ġunderway": 6159,
      "Ġmistakes": 6160,
      "Ġgrateful": 6161,
      "Ġcheap": 6162,
      "È": 6163,
      "Ġ95": 6164,
      "Ġviolations": 6165,
      "arr": 6166,
      "Ġsurprising": 6167,
      "Ġob": 6168,
      "ĠNATO": 6169,
      "Ġcontroversy": 6170,
      "ĠSweden": 6171,
      "Ġfuneral": 6172,
      "Ġreviews": 6173,
      "Ġpromotion": 6174,
      "TY": 6175,
      "Ġliberal": 6176,
      "Ġpromising": 6177,
      "ĠSP": 6178,
      "How": 6179,
      "Ġmemories": 6180,
      "Ġbreast": 6181,
      "zi": 6182,
      "ights": 6183,
      "Ġpattern": 6184,
      "Ġoutdoor": 6185,
      "ĠMu": 6186,
      "Ġrush": 6187,
      "ĠTheresa": 6188,
      "ĠPol": 6189,
      "Ġdescribe": 6190,
      "ĠBand": 6191,
      "ĠStewart": 6192,
      "Ġ1999": 6193,
      "ĠRaiders": 6194,
      "mp": 6195,
      "Ġprocedures": 6196,
      "Ġplot": 6197,
      "Ġhire": 6198,
      "used": 6199,
      "Ġ1970": 6200,
      "Ġpicking": 6201,
      "ĠSim": 6202,
      "Ġregard": 6203,
      "inal": 6204,
      "backs": 6205,
      "ĠHard": 6206,
      "ĠLow": 6207,
      "ĠAc": 6208,
      "Is": 6209,
      "Ġguarantee": 6210,
      "ĠGiven": 6211,
      "Ġbeta": 6212,
      "ĠTre": 6213,
      "Ġtrans": 6214,
      "Ġretailer": 6215,
      "Ġpurposes": 6216,
      "ĠHol": 6217,
      "Ġenjoying": 6218,
      "Ġbrown": 6219,
      "ĠPerry": 6220,
      "Ġplea": 6221,
      "MS": 6222,
      "ĠDakota": 6223,
      "ĠParker": 6224,
      "Ġcommit": 6225,
      "ĠLawrence": 6226,
      "ĠMorris": 6227,
      "ended": 6228,
      "Ġvirtual": 6229,
      "ÃĹ": 6230,
      "Ġfruit": 6231,
      "84": 6232,
      "ĠHas": 6233,
      "ishing": 6234,
      "Ġdominated": 6235,
      "ĠFA": 6236,
      "Ġchannels": 6237,
      "Ġunderstood": 6238,
      "Ġcitizen": 6239,
      "Ġchecks": 6240,
      "ĠKenya": 6241,
      "Ġdisabled": 6242,
      "SD": 6243,
      "Ġprotecting": 6244,
      "Ġtweets": 6245,
      "Ġsparked": 6246,
      "ĠCO": 6247,
      "§": 6248,
      "ori": 6249,
      "ĠGDP": 6250,
      "ĠSer": 6251,
      "ĠVisit": 6252,
      "ĠMS": 6253,
      "Ġbarely": 6254,
      "Ġsand": 6255,
      "Ġap": 6256,
      "aging": 6257,
      "Ġrel": 6258,
      "ĠPerhaps": 6259,
      "ĠMourinho": 6260,
      "ĠJets": 6261,
      "Ġdisclosure": 6262,
      "Ġhighlighted": 6263,
      "Ġimplemented": 6264,
      "Ġcompliance": 6265,
      "ĠAB": 6266,
      "ĠAssistant": 6267,
      "ĠCape": 6268,
      "Ġfunny": 6269,
      "Ġleverage": 6270,
      "Ġmachines": 6271,
      "Ġranging": 6272,
      "Ġfastest": 6273,
      "ĠRoberts": 6274,
      "ĠPolicy": 6275,
      "gar": 6276,
      "Ġcollapse": 6277,
      "ĠThrough": 6278,
      "Ġrobbery": 6279,
      "ĠHay": 6280,
      "Ġelite": 6281,
      "ĠDigital": 6282,
      "ĠFun": 6283,
      "ĠAlan": 6284,
      "ement": 6285,
      "Ġmit": 6286,
      "Ġspin": 6287,
      "Ġlistening": 6288,
      "ĠDoug": 6289,
      "ĠSaints": 6290,
      "Ġinterior": 6291,
      "Ġenhance": 6292,
      "ĠCardinals": 6293,
      "ever": 6294,
      "Ġrobust": 6295,
      "Ġinform": 6296,
      "Ġsuffer": 6297,
      "book": 6298,
      "ĠMuslims": 6299,
      "Ġagriculture": 6300,
      "Ġkm": 6301,
      "Ġdivers": 6302,
      "Ã±": 6303,
      "ĠReg": 6304,
      "Ġequivalent": 6305,
      "Ġcraft": 6306,
      "Ġsettle": 6307,
      "Ġcontains": 6308,
      "ĠMack": 6309,
      "ĠDis": 6310,
      "ĠFore": 6311,
      "ĠSudan": 6312,
      "ĠMail": 6313,
      "ĠBrooklyn": 6314,
      "izer": 6315,
      "bn": 6316,
      "Ġhundred": 6317,
      "Ġexhibition": 6318,
      "ĠHave": 6319,
      "vin": 6320,
      "Ġcivilians": 6321,
      "ĠCincinnati": 6322,
      "Some": 6323,
      "ĠSE": 6324,
      "Ġbat": 6325,
      "ĠIns": 6326,
      "Ġcalm": 6327,
      "Ġtone": 6328,
      "Ġnormally": 6329,
      "Ġseeks": 6330,
      "ĠAss": 6331,
      "Ġmembership": 6332,
      "Ġannually": 6333,
      "Ġemployers": 6334,
      "CO": 6335,
      "Ġcomplicated": 6336,
      "Ġheadlines": 6337,
      "ĠLabor": 6338,
      "Ġlifestyle": 6339,
      "ĠRen": 6340,
      "ĠRich": 6341,
      "cent": 6342,
      "ude": 6343,
      "Ġawesome": 6344,
      "Ġpaint": 6345,
      "Ġrolling": 6346,
      "Ġwalls": 6347,
      "Ġlab": 6348,
      "Ġtourists": 6349,
      "care": 6350,
      "Ġgear": 6351,
      "izz": 6352,
      "Ġcream": 6353,
      "ĠTro": 6354,
      "ices": 6355,
      "Ġpack": 6356,
      "Ġdiseases": 6357,
      "ĠSpeaker": 6358,
      "ĠOfficers": 6359,
      "Ġsky": 6360,
      "83": 6361,
      "ĠBE": 6362,
      "Ġcategories": 6363,
      "Ġindicate": 6364,
      "Ġru": 6365,
      "ĠSony": 6366,
      "ĠDun": 6367,
      "ocks": 6368,
      "Ġconcrete": 6369,
      "ĠMadison": 6370,
      "ĠSab": 6371,
      "IV": 6372,
      "Ġobserved": 6373,
      "ria": 6374,
      "Ġinterim": 6375,
      "Ġencounter": 6376,
      "ista": 6377,
      "Ġanger": 6378,
      "Ġrapid": 6379,
      "mail": 6380,
      "Ġdestination": 6381,
      "ĩ": 6382,
      "Ġbreaks": 6383,
      "rell": 6384,
      "ĠChase": 6385,
      "Ġattorneys": 6386,
      "Ġrolled": 6387,
      "ĠSprings": 6388,
      "ĠVillage": 6389,
      "TO": 6390,
      "HS": 6391,
      "Ġcampaigns": 6392,
      "ologist": 6393,
      "ĠTax": 6394,
      "ĠIII": 6395,
      "Ġteach": 6396,
      "Ġprovision": 6397,
      "Ġrem": 6398,
      "Ġshirt": 6399,
      "Ġdeployed": 6400,
      "Ġguidelines": 6401,
      "Ġav": 6402,
      "zer": 6403,
      "Ġrushing": 6404,
      "94": 6405,
      "place": 6406,
      "Man": 6407,
      "Ġdivided": 6408,
      "ĠGun": 6409,
      "Ġwindows": 6410,
      "Ġcomponents": 6411,
      "aba": 6412,
      "ĠSwitzerland": 6413,
      "election": 6414,
      "ĠTampa": 6415,
      "ĠAri": 6416,
      "Ã¡s": 6417,
      "Ġhighway": 6418,
      "Ġacres": 6419,
      "Ġcrown": 6420,
      "known": 6421,
      "Ġinquiry": 6422,
      "url": 6423,
      "Ġexpertise": 6424,
      "Ġpraised": 6425,
      "yer": 6426,
      "Ġconclusion": 6427,
      "Ġabortion": 6428,
      "Ġlady": 6429,
      "Ġtribute": 6430,
      "Ġunveiled": 6431,
      "Ġbeaten": 6432,
      "TE": 6433,
      "ĠMot": 6434,
      "unk": 6435,
      "Ġtriple": 6436,
      "Ġforcing": 6437,
      "ĠTickets": 6438,
      "uit": 6439,
      "Ġiron": 6440,
      "Ġscientific": 6441,
      "ĠIP": 6442,
      "Ġdiagnosed": 6443,
      "Ġocean": 6444,
      "wide": 6445,
      "ĠCowboys": 6446,
      "LC": 6447,
      "Ġmethods": 6448,
      "ĠFind": 6449,
      "ĠDean": 6450,
      "Ġfundamental": 6451,
      "ĠGill": 6452,
      "Ġfeelings": 6453,
      "IO": 6454,
      "hu": 6455,
      "Ġfeedback": 6456,
      "ote": 6457,
      "Ġduo": 6458,
      "fully": 6459,
      "get": 6460,
      "Ġproof": 6461,
      "story": 6462,
      "Ġlongest": 6463,
      "Ġshops": 6464,
      "ĠJong": 6465,
      "ĠCro": 6466,
      "ĠHawaii": 6467,
      "91": 6468,
      "ĠJake": 6469,
      "ĠSusan": 6470,
      "Ġsubmit": 6471,
      "rav": 6472,
      "Ġmodest": 6473,
      "Ġlit": 6474,
      "Ġattempting": 6475,
      "Ġsits": 6476,
      "Ġaddressing": 6477,
      "93": 6478,
      "ĠBi": 6479,
      "Ġlying": 6480,
      "ĠOrganization": 6481,
      "ĠOak": 6482,
      "oli": 6483,
      "Ġfatal": 6484,
      "Ġmountain": 6485,
      "val": 6486,
      "lu": 6487,
      "ĠMaine": 6488,
      "Ġcharging": 6489,
      "Ġresigned": 6490,
      "illo": 6491,
      "Ġrecommendation": 6492,
      "party": 6493,
      "ĠWeb": 6494,
      "ĠPanthers": 6495,
      "Ġnoise": 6496,
      "ĠBrussels": 6497,
      "awa": 6498,
      "Ġambassador": 6499,
      "Ġaccessible": 6500,
      "ĠCalgary": 6501,
      "idd": 6502,
      "ĠAirlines": 6503,
      "gr": 6504,
      "Ġnu": 6505,
      "roy": 6506,
      "ĠMars": 6507,
      "ĠPoland": 6508,
      "ĠJerry": 6509,
      "ados": 6510,
      "ĠRico": 6511,
      "ĠMir": 6512,
      "ĠFin": 6513,
      "ious": 6514,
      "Ġpacked": 6515,
      "Ġinsider": 6516,
      "President": 6517,
      "ĠBull": 6518,
      "ĠYemen": 6519,
      "ĠConnecticut": 6520,
      "Ġ73": 6521,
      "Ġdepartments": 6522,
      "Ġorganic": 6523,
      "ĠSummer": 6524,
      "ĠBet": 6525,
      "ste": 6526,
      "zo": 6527,
      "rat": 6528,
      "Ġalliance": 6529,
      "Ġintervention": 6530,
      "wan": 6531,
      "ĠOR": 6532,
      "Ġdefined": 6533,
      "ĠÃł": 6534,
      "ĠChiefs": 6535,
      "Ġknocked": 6536,
      "ared": 6537,
      "Ġholes": 6538,
      "Ġpulling": 6539,
      "ĠTodd": 6540,
      "ĠJamie": 6541,
      "ĠSher": 6542,
      "Ġsignature": 6543,
      "ĠSur": 6544,
      "Ġgym": 6545,
      "ĠVladimir": 6546,
      "ĠThailand": 6547,
      "Ġgaming": 6548,
      "Ġsaving": 6549,
      "ceive": 6550,
      "82": 6551,
      "ĠBern": 6552,
      "ĠDid": 6553,
      "Ġhardware": 6554,
      "ished": 6555,
      "Ġconspiracy": 6556,
      "ANS": 6557,
      "ĠIntelligence": 6558,
      "Ġassembly": 6559,
      "Ġ101": 6560,
      "Ġconcise": 6561,
      "ĠManhattan": 6562,
      "Ġbelief": 6563,
      "Ġsurge": 6564,
      "Ġdeserve": 6565,
      "Ġconsistently": 6566,
      "ĠNor": 6567,
      "okes": 6568,
      "ðŁ": 6569,
      "ME": 6570,
      "ĠAsset": 6571,
      "Ġsubstance": 6572,
      "Ġprefer": 6573,
      "Ġburning": 6574,
      "ĠNik": 6575,
      "ook": 6576,
      "ĠPinterest": 6577,
      "Ġboyfriend": 6578,
      "ĠHal": 6579,
      "ĠMerkel": 6580,
      "Ġintroduce": 6581,
      "ĠLinkedIn": 6582,
      "ĠFull": 6583,
      "ĠFarm": 6584,
      "Ġchildhood": 6585,
      "ĠTransportation": 6586,
      "Ġterrible": 6587,
      "du": 6588,
      "Ġintention": 6589,
      "Ġseemingly": 6590,
      "elle": 6591,
      "Ġfoods": 6592,
      "Ġtitled": 6593,
      "Ġdual": 6594,
      "Ġimport": 6595,
      "Ġdeveloper": 6596,
      "UL": 6597,
      "ington": 6598,
      "ĠDelta": 6599,
      "?'": 6600,
      "iness": 6601,
      "Ġquit": 6602,
      "ĠGarcia": 6603,
      "ĠSri": 6604,
      "Ġhip": 6605,
      "ĠBrazilian": 6606,
      "elt": 6607,
      "ively": 6608,
      "Ġstructures": 6609,
      "Ġlabour": 6610,
      "Ġneighbors": 6611,
      "Ġtill": 6612,
      "Ġsoil": 6613,
      "Ġdropping": 6614,
      "Ġnominee": 6615,
      "Ġmeets": 6616,
      "92": 6617,
      "rant": 6618,
      "isa": 6619,
      "Ġluck": 6620,
      "aa": 6621,
      "jet": 6622,
      "ĠTor": 6623,
      "ĠCrime": 6624,
      "Ġlane": 6625,
      "Ġflu": 6626,
      "Ġlaunching": 6627,
      "ĠAutom": 6628,
      "aks": 6629,
      "Ġuniversities": 6630,
      "Ġpollution": 6631,
      "ĠAdvis": 6632,
      "ĠMall": 6633,
      "ls": 6634,
      "Ġdeeper": 6635,
      "Ġrepeated": 6636,
      "Ġmeanwhile": 6637,
      "Ġchip": 6638,
      "Ġoutlets": 6639,
      "Ġliked": 6640,
      "Ġsal": 6641,
      "Ġwelfare": 6642,
      "ago": 6643,
      "Ġmakers": 6644,
      "ving": 6645,
      "fer": 6646,
      "Ġovercome": 6647,
      "mb": 6648,
      "Ġshocked": 6649,
      "akers": 6650,
      "Ġnonprofit": 6651,
      "Ġdonated": 6652,
      "eral": 6653,
      "Ġresume": 6654,
      "Ġlogo": 6655,
      "Ġsubscription": 6656,
      "Ġ74": 6657,
      "ela": 6658,
      "Ġaspect": 6659,
      "html": 6660,
      "Ġsorry": 6661,
      "Ġupgrade": 6662,
      "Ġstance": 6663,
      "Ġfr": 6664,
      "Ġpapers": 6665,
      "Ġattacking": 6666,
      "Ġmeaningful": 6667,
      "81": 6668,
      "ĠWeinstein": 6669,
      "Ġcreates": 6670,
      "Ġhonour": 6671,
      "ĠReply": 6672,
      "oph": 6673,
      "Ġmarch": 6674,
      "Ġsmile": 6675,
      "Ġcomparison": 6676,
      "will": 6677,
      "ĠSanchez": 6678,
      "Ġvoter": 6679,
      "Ġtheory": 6680,
      "Ġequally": 6681,
      "ĠRoger": 6682,
      "Ġperfectly": 6683,
      "Ġlanding": 6684,
      "Ġbillions": 6685,
      "ĠBloomberg": 6686,
      "Ġpermit": 6687,
      "Ġfinals": 6688,
      "Ġracial": 6689,
      "Ġpregnancy": 6690,
      "iled": 6691,
      "ĠFederation": 6692,
      "Ġforest": 6693,
      "Ġtag": 6694,
      "aul": 6695,
      "Ġdrinks": 6696,
      "Ġ(\"": 6697,
      "ĠMobile": 6698,
      "Ġtouched": 6699,
      "Ġclock": 6700,
      "Ġreg": 6701,
      "Ġasylum": 6702,
      "igan": 6703,
      "Ġsenator": 6704,
      "Ġ99": 6705,
      "ĠKumar": 6706,
      "Ġskill": 6707,
      "Ġ1998": 6708,
      "pa": 6709,
      "ĠAf": 6710,
      "Ġmood": 6711,
      "ston": 6712,
      "Ġhang": 6713,
      "ĠMPs": 6714,
      "Please": 6715,
      "ĠEve": 6716,
      "Ġdocumentary": 6717,
      "Ġpersonality": 6718,
      "ĠCast": 6719,
      "Ġdiscount": 6720,
      "bing": 6721,
      "ĠBoeing": 6722,
      "Ġdepend": 6723,
      "Ġcrossing": 6724,
      "EX": 6725,
      "Ġsucceed": 6726,
      "Ġhumanitarian": 6727,
      "ĠMuhammad": 6728,
      "Ġwages": 6729,
      "Ġcolumn": 6730,
      "Ġexternal": 6731,
      "Ġstatistics": 6732,
      "ĠTODAY": 6733,
      "Ġtrips": 6734,
      "Ġta": 6735,
      "Ġpenalties": 6736,
      "Ġwriters": 6737,
      "Ġshipping": 6738,
      "ĠIndians": 6739,
      "Ġsalt": 6740,
      "ĠIndustrial": 6741,
      "ĠYankees": 6742,
      "ĠDen": 6743,
      "Ġrough": 6744,
      "Ġbarrels": 6745,
      "ĠHor": 6746,
      "bert": 6747,
      "ĠDep": 6748,
      "Ġresign": 6749,
      "97": 6750,
      "Ġballs": 6751,
      "ĠJun": 6752,
      "ĠBab": 6753,
      "Ġassociate": 6754,
      "Ġstring": 6755,
      "Ġhub": 6756,
      "Ġorgan": 6757,
      "ĠMarshall": 6758,
      "ĠFIFA": 6759,
      "ĠMun": 6760,
      "ency": 6761,
      "research": 6762,
      "Ġpeers": 6763,
      "Ġtall": 6764,
      "ĠGoldman": 6765,
      "Don": 6766,
      "Ġparade": 6767,
      "Ġparks": 6768,
      "Ġdet": 6769,
      "Ġdisappointing": 6770,
      "Ġreflects": 6771,
      "ĠLakers": 6772,
      "Ġfiles": 6773,
      "Ġrelatives": 6774,
      "ĠUSD": 6775,
      "ĠArticle": 6776,
      "Ġcustom": 6777,
      "ĠCarlos": 6778,
      "Ġtracking": 6779,
      "Ġmaintaining": 6780,
      "ĠCur": 6781,
      "ardo": 6782,
      "ĠSkip": 6783,
      "Ġattitude": 6784,
      "Just": 6785,
      "Ġinstitution": 6786,
      "Ġnarrow": 6787,
      "Ġsnap": 6788,
      "Ġenterprise": 6789,
      "Ġdrives": 6790,
      "Ġ77": 6791,
      "Ġcrop": 6792,
      "Ġvirus": 6793,
      "Ġcelebrity": 6794,
      "Ġeconomies": 6795,
      "ued": 6796,
      "Ġsum": 6797,
      "ĠDubai": 6798,
      "ĠInsurance": 6799,
      "Ĺ": 6800,
      "ury": 6801,
      "ĠUnfortunately": 6802,
      "Ġclosure": 6803,
      "ota": 6804,
      "ĠPhilip": 6805,
      "oms": 6806,
      "Ġinvestigated": 6807,
      "Ġgenerations": 6808,
      "ĠETF": 6809,
      "ĠKeith": 6810,
      "ĠLater": 6811,
      "isk": 6812,
      "Ġpreferred": 6813,
      "Ġdefault": 6814,
      "Ġtowns": 6815,
      "ĠRod": 6816,
      "ĠDie": 6817,
      "Ġintegrated": 6818,
      "Ġacquiring": 6819,
      "Ġvoices": 6820,
      "Ġser": 6821,
      "Ġpresents": 6822,
      "ĠBR": 6823,
      "ĠEmergency": 6824,
      "Ġreligion": 6825,
      "HA": 6826,
      "Ġresponding": 6827,
      "ĠThings": 6828,
      "Ġbeef": 6829,
      "ĠWithout": 6830,
      "urd": 6831,
      "ĠCarl": 6832,
      "Ġadministrative": 6833,
      "ĠWhich": 6834,
      "Ġchallenged": 6835,
      "Ġcooking": 6836,
      "ivid": 6837,
      "ĠFer": 6838,
      "Ġtremendous": 6839,
      "ĠTerry": 6840,
      "iri": 6841,
      "CS": 6842,
      "ĠJunior": 6843,
      "ĠReddit": 6844,
      "Ġtea": 6845,
      "Ġaccounting": 6846,
      "lan": 6847,
      "Ġdetention": 6848,
      "Ġreplied": 6849,
      "SI": 6850,
      "ĠHel": 6851,
      "ns": 6852,
      "ĠProf": 6853,
      "Ġramp": 6854,
      "ĠConservative": 6855,
      "Ġattendance": 6856,
      "Ġspecialist": 6857,
      "ĠFinal": 6858,
      "Ġadvertisement": 6859,
      "Ġacquire": 6860,
      "ĠWhatsApp": 6861,
      "Ġworkforce": 6862,
      "ĠCalif": 6863,
      "Ġspeakers": 6864,
      "ĠEPA": 6865,
      "Ġconviction": 6866,
      "hire": 6867,
      "ĠFisher": 6868,
      "ĠIntel": 6869,
      "Ġbin": 6870,
      "ĠWas": 6871,
      "Ġearth": 6872,
      "vi": 6873,
      "Ġhurricane": 6874,
      "Ġholidays": 6875,
      "Ġassume": 6876,
      "Ġinvolve": 6877,
      "Ġdynamic": 6878,
      "ĠGre": 6879,
      "Ġitem": 6880,
      "Ġpound": 6881,
      "Ġanxiety": 6882,
      "ĠPrint": 6883,
      "rop": 6884,
      "Ġautomatically": 6885,
      "Ġdiscrimination": 6886,
      "ĠLam": 6887,
      "ĠColl": 6888,
      "Ġimpressed": 6889,
      "Ġinvolves": 6890,
      "ĠLes": 6891,
      "ĠTri": 6892,
      "ĠLook": 6893,
      "ĠiOS": 6894,
      "Ġgrab": 6895,
      "ĠAngel": 6896,
      "Ġstops": 6897,
      "ĠPay": 6898,
      "ĠECB": 6899,
      "Ġbunch": 6900,
      "Ġletting": 6901,
      "ele": 6902,
      "ĠAdditionally": 6903,
      "Ġboards": 6904,
      "NC": 6905,
      "Ġtragedy": 6906,
      "Ġpink": 6907,
      "Ġgonna": 6908,
      "ones": 6909,
      "Ġrev": 6910,
      "ĠIndependent": 6911,
      "ĠCambridge": 6912,
      "ĠPence": 6913,
      "Ġprosecution": 6914,
      "Ġdeputies": 6915,
      "ĠAhmed": 6916,
      "Ġlows": 6917,
      "ĠAmy": 6918,
      "ĠBuilding": 6919,
      "mark": 6920,
      "Ġsmooth": 6921,
      "Ġsole": 6922,
      "Ġwanting": 6923,
      "ĠHeart": 6924,
      "Ġobtain": 6925,
      "ĠBus": 6926,
      "Ġexchanges": 6927,
      "friendly": 6928,
      "Ġlabel": 6929,
      "elect": 6930,
      "ĠCompanies": 6931,
      "owing": 6932,
      "ĠCB": 6933,
      "RI": 6934,
      "ĠMaster": 6935,
      "Ġliquid": 6936,
      "ĠDanny": 6937,
      "Ġproceeds": 6938,
      "ĠLaura": 6939,
      "card": 6940,
      "Ġtears": 6941,
      "Ġexploration": 6942,
      "Ġdepression": 6943,
      "ken": 6944,
      "ĠFe": 6945,
      "Ġlending": 6946,
      "ĠYouth": 6947,
      "ality": 6948,
      "NS": 6949,
      "Ġmoon": 6950,
      "ĠTaiwan": 6951,
      "Ġstruggles": 6952,
      "Ġdiscovery": 6953,
      "Ġqualify": 6954,
      "Ġwireless": 6955,
      "alia": 6956,
      "Ġwitnessed": 6957,
      "Ġheight": 6958,
      "ĠGuy": 6959,
      "left": 6960,
      "KE": 6961,
      "Ġfoul": 6962,
      "ĠMohammed": 6963,
      "Ġgrass": 6964,
      "ĠNon": 6965,
      "Ġswim": 6966,
      "Ġbrilliant": 6967,
      "you": 6968,
      "ĠFlynn": 6969,
      "Ġsinging": 6970,
      "eria": 6971,
      "UT": 6972,
      "ĠMcCain": 6973,
      "ĠSep": 6974,
      "ĠWars": 6975,
      "Ġburden": 6976,
      "Ġpas": 6977,
      "Ġabandoned": 6978,
      "Ġint": 6979,
      "ĠTurner": 6980,
      "Ġcollective": 6981,
      "ĠEnvironmental": 6982,
      "ĠStudents": 6983,
      "Ġofferings": 6984,
      "Ġresignation": 6985,
      "Ġexplosion": 6986,
      "ĠKoh": 6987,
      "ager": 6988,
      "Ġthrows": 6989,
      "Ġasks": 6990,
      "light": 6991,
      "Ġanyway": 6992,
      "Ġyard": 6993,
      "Ġcarrier": 6994,
      "Ġwaves": 6995,
      "backed": 6996,
      "TR": 6997,
      "oud": 6998,
      "Ġbreach": 6999,
      "Ġdated": 7000,
      "Ġdressed": 7001,
      "ĠDodgers": 7002,
      "oles": 7003,
      "Ġ78": 7004,
      "Ġreads": 7005,
      "Ġpredict": 7006,
      "ĠJerusalem": 7007,
      "ĠPT": 7008,
      "Ġcrack": 7009,
      "yan": 7010,
      "Ġnights": 7011,
      "eline": 7012,
      "Ġconvinced": 7013,
      "Ġlock": 7014,
      "Ġcarefully": 7015,
      "ĠMercedes": 7016,
      "Ġultimate": 7017,
      "Ġdist": 7018,
      "Ġslight": 7019,
      "ĠEdwards": 7020,
      "Ġswing": 7021,
      "iling": 7022,
      "Ġknife": 7023,
      "ĠNashville": 7024,
      "IF": 7025,
      "inder": 7026,
      "udd": 7027,
      "Ġsenators": 7028,
      "ĠFurther": 7029,
      "ĠXi": 7030,
      "Ġstr": 7031,
      "ĠOd": 7032,
      "days": 7033,
      "Ġcomm": 7034,
      "Ġverdict": 7035,
      "Ġconfirmation": 7036,
      "king": 7037,
      "ĠCS": 7038,
      "Ġadvocates": 7039,
      "Ġpride": 7040,
      "Ġmemorial": 7041,
      "ams": 7042,
      "erman": 7043,
      "Ġteenager": 7044,
      "ĠNeil": 7045,
      "uts": 7046,
      "Ġsoul": 7047,
      "see": 7048,
      "post": 7049,
      "Ġchest": 7050,
      "fire": 7051,
      "ĠLynch": 7052,
      "Ġpeaceful": 7053,
      "OND": 7054,
      "ĠIndustries": 7055,
      "ĠJuan": 7056,
      "Ġrestore": 7057,
      "Ġreliable": 7058,
      "ming": 7059,
      "agan": 7060,
      "Source": 7061,
      "ĠCabinet": 7062,
      "Ġremarkable": 7063,
      "ĠTrudeau": 7064,
      "ĠEs": 7065,
      "Ġintegrity": 7066,
      "ove": 7067,
      "fe": 7068,
      "Ġproceedings": 7069,
      "Ġconnections": 7070,
      "Ġunprecedented": 7071,
      "ĠGlen": 7072,
      "ux": 7073,
      "Ġearning": 7074,
      "Ġingredients": 7075,
      "Ġnominated": 7076,
      "ĠBangladesh": 7077,
      "made": 7078,
      "Ġlessons": 7079,
      "Ġbreakfast": 7080,
      "ĠRelations": 7081,
      "Ġloose": 7082,
      "Al": 7083,
      "Ġupgraded": 7084,
      "ral": 7085,
      "ĠPage": 7086,
      "oto": 7087,
      "ĠQueensland": 7088,
      "Ġprocedure": 7089,
      "ĠSmall": 7090,
      "Ġrespective": 7091,
      "Ġpictured": 7092,
      "ĠBas": 7093,
      "Ġpreparation": 7094,
      "ĠMyanmar": 7095,
      "Ġdonation": 7096,
      "Ġvisible": 7097,
      "iest": 7098,
      "ĠBroadway": 7099,
      "rick": 7100,
      "ĠSchools": 7101,
      "Ġarrests": 7102,
      "ĠJessica": 7103,
      "ĠBengal": 7104,
      "Ġhell": 7105,
      "Ġannouncing": 7106,
      "Ġmail": 7107,
      "ĠMcG": 7108,
      "two": 7109,
      "rest": 7110,
      "OD": 7111,
      "ĠBradley": 7112,
      "Ġdoubled": 7113,
      "Ġpledged": 7114,
      "Ġcomeback": 7115,
      "Ġextraordinary": 7116,
      "Ġslide": 7117,
      "Ġassess": 7118,
      "Ġagricultural": 7119,
      "ĠKay": 7120,
      "Ġvendors": 7121,
      "Ġnarrative": 7122,
      "Ġreviewed": 7123,
      "ĠPass": 7124,
      "Ġinspiration": 7125,
      "ĠHunter": 7126,
      "Ġcalendar": 7127,
      "ĠDiamond": 7128,
      "Ġremoval": 7129,
      "ners": 7130,
      "ĠKap": 7131,
      "Ġconsent": 7132,
      "Ġvisual": 7133,
      "Ġcheese": 7134,
      "ĠTher": 7135,
      "ĠFR": 7136,
      "ĠShanghai": 7137,
      "iah": 7138,
      "ĠCole": 7139,
      "AK": 7140,
      "Ġranking": 7141,
      "Ġcook": 7142,
      "Ġhalftime": 7143,
      "ĠStars": 7144,
      "Ġroutes": 7145,
      "aim": 7146,
      "Ġestablishment": 7147,
      "ĠMug": 7148,
      "Ġsurvivors": 7149,
      "urg": 7150,
      "ĠBrett": 7151,
      "Ġunexpected": 7152,
      "ained": 7153,
      "Ġrarely": 7154,
      "ĠGall": 7155,
      "Ġadvocate": 7156,
      "ĠNad": 7157,
      "Ġ911": 7158,
      "Ġracist": 7159,
      "erer": 7160,
      "ĠRev": 7161,
      "ĠSection": 7162,
      "Ġhelpful": 7163,
      "CT": 7164,
      "agg": 7165,
      "Ġgovernance": 7166,
      "Ġfelony": 7167,
      "Ġoptimistic": 7168,
      "Ġelectoral": 7169,
      "EG": 7170,
      "town": 7171,
      "Ġdaughters": 7172,
      "Ġanswered": 7173,
      "Ġthin": 7174,
      "ĠClassic": 7175,
      "Ġshareholder": 7176,
      "ĠBlake": 7177,
      "ĠFla": 7178,
      "Ġparliamentary": 7179,
      "dy": 7180,
      "Ġcommented": 7181,
      "Ġtri": 7182,
      "Ġglobe": 7183,
      "Ġmandate": 7184,
      "Ġslipped": 7185,
      "ĠTower": 7186,
      "Ġoperated": 7187,
      "gers": 7188,
      "Ġassured": 7189,
      "ĠMartinez": 7190,
      "Ġdesigns": 7191,
      "ĠModel": 7192,
      "Ġstakeholders": 7193,
      "Ġdefended": 7194,
      "Ġseniors": 7195,
      "Ġvacation": 7196,
      "Ġglobally": 7197,
      "ump": 7198,
      "Not": 7199,
      "Ġclip": 7200,
      "Ġarticles": 7201,
      "BR": 7202,
      "km": 7203,
      "ĠFront": 7204,
      "PL": 7205,
      "Ġadoption": 7206,
      "Ġsudden": 7207,
      "Ġframework": 7208,
      "Ġhanging": 7209,
      "gl": 7210,
      "ĠSel": 7211,
      "Ġmoderate": 7212,
      "Ġreverse": 7213,
      "income": 7214,
      "cor": 7215,
      "ĠGB": 7216,
      "Ġphysically": 7217,
      "Ġtransparency": 7218,
      "ĠElectric": 7219,
      "Ġrefugee": 7220,
      "profile": 7221,
      "iva": 7222,
      "ately": 7223,
      "ĠAC": 7224,
      "Ġtransferred": 7225,
      "Ġaffair": 7226,
      "ĠAlaska": 7227,
      "oria": 7228,
      "ĠChange": 7229,
      "Ġrepeat": 7230,
      "Ġscreening": 7231,
      "ender": 7232,
      "ĠCas": 7233,
      "ĠDav": 7234,
      "Ġfocuses": 7235,
      "Ġcommissioner": 7236,
      "Ġupside": 7237,
      "ĠKeep": 7238,
      "ĠBlues": 7239,
      "ently": 7240,
      "Ġaut": 7241,
      "Ġexperiencing": 7242,
      "aman": 7243,
      "Ġapprove": 7244,
      "Ġmile": 7245,
      "Ġcheaper": 7246,
      "ĠWind": 7247,
      "ĠStore": 7248,
      "Ġgrabbed": 7249,
      "Ġsons": 7250,
      "Ġfighter": 7251,
      "Ġum": 7252,
      "ĠBased": 7253,
      "don": 7254,
      "Ġconstitution": 7255,
      "finals": 7256,
      "act": 7257,
      "¢": 7258,
      "Ġmill": 7259,
      "Ġorganisations": 7260,
      "ĠToyota": 7261,
      "Ġyuan": 7262,
      "Ġterrorists": 7263,
      "Ġforth": 7264,
      "Ġavailability": 7265,
      "Ġentrance": 7266,
      "Ġvolumes": 7267,
      "Ġmult": 7268,
      "plus": 7269,
      "ĠColumbus": 7270,
      "ĠSummit": 7271,
      "Ġbabies": 7272,
      "ĠMur": 7273,
      "ĠGray": 7274,
      "ĠChar": 7275,
      "ĠButler": 7276,
      "Ġpose": 7277,
      "ĠNatural": 7278,
      "ĠAtt": 7279,
      "Ġdecrease": 7280,
      "Ġtens": 7281,
      "kt": 7282,
      "Ġminds": 7283,
      "Ġimpacted": 7284,
      "Ġchapter": 7285,
      "ĠOp": 7286,
      "ĠHarrison": 7287,
      "ĠRodriguez": 7288,
      "Ġethnic": 7289,
      "Ġtravelling": 7290,
      "ĠBond": 7291,
      "ader": 7292,
      "core": 7293,
      "Ġgallery": 7294,
      "founder": 7295,
      "ĠVill": 7296,
      "Ġdecent": 7297,
      "ĠHistory": 7298,
      "ĠInt": 7299,
      "ĠNa": 7300,
      "ĠHad": 7301,
      "Ġmainstream": 7302,
      "ĠTs": 7303,
      "Ġbottle": 7304,
      "sen": 7305,
      "Ġrecession": 7306,
      "Ġsophomore": 7307,
      "Ġsilence": 7308,
      "cc": 7309,
      "Ġqualifying": 7310,
      "Ġcomplained": 7311,
      "ĠRad": 7312,
      "Ġactively": 7313,
      "Ġbacks": 7314,
      "ĠMusk": 7315,
      "Ġcareful": 7316,
      "Ġmeals": 7317,
      "ĠDor": 7318,
      "Ġmess": 7319,
      "ĠBelgium": 7320,
      "Ġke": 7321,
      "ĠLopez": 7322,
      "Ġbow": 7323,
      "Ġhelicopter": 7324,
      "was": 7325,
      "Ġstone": 7326,
      "kins": 7327,
      "Ġunlike": 7328,
      "Ġcollision": 7329,
      "ĠAlt": 7330,
      "HP": 7331,
      "ĠMason": 7332,
      "has": 7333,
      "Ġclimbed": 7334,
      "Ġindication": 7335,
      "Ġhotels": 7336,
      "Ġloud": 7337,
      "ĠMilan": 7338,
      "kes": 7339,
      "Ġbadly": 7340,
      "Ġtrials": 7341,
      "Ġimpacts": 7342,
      "ĠJane": 7343,
      "Ġcrossed": 7344,
      "Ġdiscussing": 7345,
      "ĠSM": 7346,
      "Ġpopularity": 7347,
      "ĠWant": 7348,
      "fall": 7349,
      "Ġartificial": 7350,
      "ĠBu": 7351,
      "akh": 7352,
      "Ġdominant": 7353,
      "gov": 7354,
      "Ġpremier": 7355,
      "Ġexecution": 7356,
      "gate": 7357,
      "Ġswimming": 7358,
      "Ġchat": 7359,
      "Ġdevastating": 7360,
      "acking": 7361,
      "Ġreception": 7362,
      "urt": 7363,
      "Ġtheater": 7364,
      "Ġgather": 7365,
      "Ġtear": 7366,
      "uro": 7367,
      "Ġdemocratic": 7368,
      "Ġrebels": 7369,
      "Ġlifetime": 7370,
      "Ġradical": 7371,
      "uan": 7372,
      "Ġtechniques": 7373,
      "ache": 7374,
      "ior": 7375,
      "Ġcamps": 7376,
      "Ġtelephone": 7377,
      "ĠDublin": 7378,
      "ĠBrand": 7379,
      "ĠMarcus": 7380,
      "aun": 7381,
      "ĠRec": 7382,
      "Ġ82": 7383,
      "ban": 7384,
      "Ġsafely": 7385,
      "aku": 7386,
      "aki": 7387,
      "Ġbankruptcy": 7388,
      "FF": 7389,
      "Ġformat": 7390,
      "Ġattached": 7391,
      "ĠFame": 7392,
      "ĠEdward": 7393,
      "Ġmerger": 7394,
      "ĠRepresentatives": 7395,
      "izes": 7396,
      "Ġhidden": 7397,
      "Ġval": 7398,
      "zz": 7399,
      "Ġexcess": 7400,
      "Ġscope": 7401,
      "Ġdivorce": 7402,
      "Ġburn": 7403,
      "Ġrequirement": 7404,
      "BB": 7405,
      "ĠHand": 7406,
      "Ġcons": 7407,
      "Ġrisen": 7408,
      "Ġtwitter": 7409,
      "Ġoffseason": 7410,
      "ĠSometimes": 7411,
      "ĠInf": 7412,
      "ĠAng": 7413,
      "uer": 7414,
      "report": 7415,
      "Ġdreams": 7416,
      "Ġ700": 7417,
      "ips": 7418,
      "ĠDream": 7419,
      "Ġgifts": 7420,
      "Ġsomehow": 7421,
      "ĠTur": 7422,
      "ĠRachel": 7423,
      "can": 7424,
      "Ġlog": 7425,
      "ĠMedicaid": 7426,
      "Ġles": 7427,
      "Ġtired": 7428,
      "ĠArkansas": 7429,
      "Ġliquidity": 7430,
      "ĠPhillips": 7431,
      "ĠBTC": 7432,
      "Ġhide": 7433,
      "Ġpun": 7434,
      "ĠRun": 7435,
      "lyn": 7436,
      "ĠUC": 7437,
      "ĠDesign": 7438,
      "ĠDev": 7439,
      "Ġvaluation": 7440,
      "Ġreveals": 7441,
      "ĠChild": 7442,
      "other": 7443,
      "Ġposed": 7444,
      "lee": 7445,
      "Ġships": 7446,
      "ĠTrue": 7447,
      "Ġdescribes": 7448,
      "Ġrunner": 7449,
      "bro": 7450,
      "Ġankle": 7451,
      "Ġod": 7452,
      "ĠAnnual": 7453,
      "CL": 7454,
      "Ġoverhaul": 7455,
      "ned": 7456,
      "Ġbold": 7457,
      "Ġmo": 7458,
      "ĠFalls": 7459,
      "Ġemployed": 7460,
      "ĠGro": 7461,
      "Ġflash": 7462,
      "ĠTD": 7463,
      "Ġnervous": 7464,
      "Ġintegration": 7465,
      "Ġsmartphones": 7466,
      "Ġmovements": 7467,
      "nie": 7468,
      "ition": 7469,
      "ĠThird": 7470,
      "Ģ": 7471,
      "Ġmetres": 7472,
      "Ġeconomist": 7473,
      "omp": 7474,
      "Ġteens": 7475,
      "Ġeveryday": 7476,
      "Ġinterviewed": 7477,
      "Ġbriefly": 7478,
      "],": 7479,
      "uke": 7480,
      "ĠFOX": 7481,
      "Ġunderlying": 7482,
      "ĠLuc": 7483,
      "Ġcourses": 7484,
      "ss": 7485,
      "amed": 7486,
      "°": 7487,
      "ju": 7488,
      "ĠBanks": 7489,
      "Ġoutfit": 7490,
      "illing": 7491,
      "Ġtrafficking": 7492,
      "Ġurging": 7493,
      "Ġbelt": 7494,
      "Ġrid": 7495,
      "CP": 7496,
      "Ġelderly": 7497,
      "ĠGrowth": 7498,
      "Ã¡n": 7499,
      "ĠSn": 7500,
      "Ġsurrounded": 7501,
      "Ġsisters": 7502,
      "ĠIslam": 7503,
      "Ġsynd": 7504,
      "ĠCosta": 7505,
      "di": 7506,
      "ĠKl": 7507,
      "Ġmanufacturer": 7508,
      "holders": 7509,
      "Ġelement": 7510,
      "Ġload": 7511,
      "Ġbooked": 7512,
      "Ġaccompanied": 7513,
      "ĠChamber": 7514,
      "Ġbriefing": 7515,
      "Oh": 7516,
      "imi": 7517,
      "ĠDefence": 7518,
      "ĠCurrently": 7519,
      "aking": 7520,
      "Ġhandled": 7521,
      "ĠCD": 7522,
      "ĠBenjamin": 7523,
      "Ġpocket": 7524,
      "ĠKashmir": 7525,
      "Ġlighting": 7526,
      "aps": 7527,
      "Ġ1997": 7528,
      "ech": 7529,
      "Ġaddiction": 7530,
      "Ġbases": 7531,
      "Ġpriorities": 7532,
      "Ġhardly": 7533,
      "ĠQuebec": 7534,
      "ĠEarn": 7535,
      "IES": 7536,
      "ĠZach": 7537,
      "ĠAlong": 7538,
      "MI": 7539,
      "Ġins": 7540,
      "ĠRogers": 7541,
      "ĠKan": 7542,
      "ĠFuture": 7543,
      "Ġtriggered": 7544,
      "ĠUnit": 7545,
      "Ġweighed": 7546,
      "Ġpointing": 7547,
      "Ġchocolate": 7548,
      "ĠBrowns": 7549,
      "ĠISIS": 7550,
      "Ġgoalkeeper": 7551,
      "Ġsaves": 7552,
      "ĠAndre": 7553,
      "burn": 7554,
      "ĠCont": 7555,
      "ĠNetherlands": 7556,
      "Ġpolitically": 7557,
      "ĠAshley": 7558,
      "ĠWhit": 7559,
      "aded": 7560,
      "PH": 7561,
      "Ġborders": 7562,
      "ORE": 7563,
      "Ġally": 7564,
      "Trump": 7565,
      "istan": 7566,
      "ĠHunt": 7567,
      "ĠCancer": 7568,
      "ĠGrace": 7569,
      "ĠTottenham": 7570,
      "Ġ1960": 7571,
      "ĠMarg": 7572,
      "ĠBryan": 7573,
      "ĠAgain": 7574,
      "acing": 7575,
      "Ġarguments": 7576,
      "ĠSouthwest": 7577,
      "Ġvocal": 7578,
      "Ġjudgment": 7579,
      "Ġengaging": 7580,
      "Ġadopt": 7581,
      "Ġrental": 7582,
      "Ġlinebacker": 7583,
      "ĠKardashian": 7584,
      "Ġepisodes": 7585,
      "..": 7586,
      "Ġunt": 7587,
      "Ġvowed": 7588,
      "Ġ79": 7589,
      "ule": 7590,
      "Ġtransit": 7591,
      "Ġoffshore": 7592,
      "Ġsuppliers": 7593,
      "Ġarguing": 7594,
      "Ġsatellite": 7595,
      "ĠLind": 7596,
      "ĠTaliban": 7597,
      "Buy": 7598,
      "ĠCaribbean": 7599,
      "ĠBarry": 7600,
      "Ġauthors": 7601,
      "ĠWolf": 7602,
      "Ġviewing": 7603,
      "ĠCubs": 7604,
      "From": 7605,
      "Ġ%": 7606,
      "Ġcurrencies": 7607,
      "Why": 7608,
      "ĠBroncos": 7609,
      "Ġtrick": 7610,
      "Ġdiesel": 7611,
      "ĠLiberal": 7612,
      "FL": 7613,
      "Ġtopics": 7614,
      "Ġretain": 7615,
      "ĠLiberty": 7616,
      "Ġacquisitions": 7617,
      "ced": 7618,
      "Ġfre": 7619,
      "Ġfleet": 7620,
      "Ġcopper": 7621,
      "ĠPot": 7622,
      "jen": 7623,
      "ĠElliott": 7624,
      "ĠPyongyang": 7625,
      "Ġobject": 7626,
      "ĠUse": 7627,
      "Ġmutual": 7628,
      "MP": 7629,
      "Ġev": 7630,
      "Ġdeny": 7631,
      "ĠEveryone": 7632,
      "lling": 7633,
      "Ġpays": 7634,
      "Ġdrought": 7635,
      "Ġcorn": 7636,
      "Ġworkplace": 7637,
      "rig": 7638,
      "ĠMn": 7639,
      "Ġadvisory": 7640,
      "ĠCat": 7641,
      "Ġchronic": 7642,
      "ĠSteelers": 7643,
      "Ġboxes": 7644,
      "ĠNap": 7645,
      "Ġdemonstrated": 7646,
      "ĠTournament": 7647,
      "Ġsymbol": 7648,
      "ĠAfghan": 7649,
      "ĠTan": 7650,
      "ired": 7651,
      "ĠEv": 7652,
      "ĠConsumer": 7653,
      "Ġmoral": 7654,
      "ĠAdditional": 7655,
      "Ġwebsites": 7656,
      "Ġoccasions": 7657,
      "Ġfate": 7658,
      "Ġpitcher": 7659,
      "Ġtaxpayers": 7660,
      "Ġdeemed": 7661,
      "ĠLibya": 7662,
      "Ġpriced": 7663,
      "Ġdistributed": 7664,
      "ĠForum": 7665,
      "Ġrice": 7666,
      "Ġbloc": 7667,
      "Ġprovisions": 7668,
      "agh": 7669,
      "Ġpen": 7670,
      "Ġattracted": 7671,
      "ĠEdmonton": 7672,
      "Ġthousand": 7673,
      "Ġpainting": 7674,
      "Ġil": 7675,
      "Ġcourtesy": 7676,
      "Ġeliminate": 7677,
      "Ġacc": 7678,
      "Ġmeters": 7679,
      "Ġreflected": 7680,
      "Ġcomponent": 7681,
      "Every": 7682,
      "Ġsells": 7683,
      "Ġfault": 7684,
      "Ġburned": 7685,
      "ĠKirk": 7686,
      "ĠAnna": 7687,
      "Ġappeals": 7688,
      "Ġeggs": 7689,
      "Ġfrequent": 7690,
      "Ġtrigger": 7691,
      "Ġrevised": 7692,
      "ĠAngela": 7693,
      "Ġ81": 7694,
      "Ġsingles": 7695,
      "Ġviral": 7696,
      "Ġworries": 7697,
      "ĠShould": 7698,
      "profit": 7699,
      "Ġraises": 7700,
      "ĠBryant": 7701,
      "ĠProduct": 7702,
      "Ġtenure": 7703,
      "Ġdiabetes": 7704,
      "Ġcolour": 7705,
      "azz": 7706,
      "ĠGirls": 7707,
      "Ġpractical": 7708,
      "Ġblind": 7709,
      "ancing": 7710,
      "pictured": 7711,
      "Ġfinale": 7712,
      "ĠElection": 7713,
      "Ġathletic": 7714,
      "Ġpromoted": 7715,
      "Ġflowers": 7716,
      "Ġtrains": 7717,
      "ario": 7718,
      "Ġsufficient": 7719,
      "IE": 7720,
      "Ġexamples": 7721,
      "Ġshed": 7722,
      "Ġbirds": 7723,
      "Ġchaos": 7724,
      "Ġwound": 7725,
      "Ġrocket": 7726,
      "Ġwet": 7727,
      "Ġsample": 7728,
      "ĠNag": 7729,
      "ĠOliver": 7730,
      "Ġscrutiny": 7731,
      "ĠSeven": 7732,
      "ĠRoman": 7733,
      "ĠFred": 7734,
      "Ġweird": 7735,
      "ĠTam": 7736,
      "ĠSupport": 7737,
      "ĠNathan": 7738,
      "Ġstudying": 7739,
      "Ġintroduction": 7740,
      "Ġtons": 7741,
      "cer": 7742,
      "aus": 7743,
      "ION": 7744,
      "Ġcritic": 7745,
      "ĠAh": 7746,
      "alo": 7747,
      "pur": 7748,
      "Ġstorms": 7749,
      "ĠMission": 7750,
      "Ġcredits": 7751,
      "Ġgrants": 7752,
      "Ġcomp": 7753,
      "Ġhearts": 7754,
      "part": 7755,
      "Ġpin": 7756,
      "Ġsubsequent": 7757,
      "Ġmad": 7758,
      "ĠSacramento": 7759,
      "woman": 7760,
      "from": 7761,
      "Ġoutcomes": 7762,
      "Ġoldest": 7763,
      "Ġdesperate": 7764,
      "ĠTal": 7765,
      "ĠDJ": 7766,
      "ward": 7767,
      "Ġaudiences": 7768,
      "Ġimportantly": 7769,
      "ĠEmily": 7770,
      "sk": 7771,
      "ĠHeat": 7772,
      "ĠType": 7773,
      "ĠPeace": 7774,
      "Ġsuspicious": 7775,
      "aly": 7776,
      "ĠGET": 7777,
      "ĠCAP": 7778,
      "dis": 7779,
      "ĠIraqi": 7780,
      "ĠReed": 7781,
      "Ġstrange": 7782,
      "ĠParent": 7783,
      "900": 7784,
      "Ġglad": 7785,
      "ĠTroy": 7786,
      "ĠShort": 7787,
      "Ġheritage": 7788,
      "Ġarriving": 7789,
      "ingly": 7790,
      "Ġtransformation": 7791,
      "Ġlease": 7792,
      "Ġcollapsed": 7793,
      "cha": 7794,
      "ĠPatrol": 7795,
      "Ġcomputers": 7796,
      "Ġprinciples": 7797,
      "Ġsporting": 7798,
      "ĠHughes": 7799,
      "mile": 7800,
      "ĠCit": 7801,
      "Ġdrilling": 7802,
      "ĠBox": 7803,
      "ÃŁ": 7804,
      "bre": 7805,
      "ĠOverall": 7806,
      "Ġopioid": 7807,
      "Ġdelighted": 7808,
      "Ġhonored": 7809,
      "ĠCold": 7810,
      "Ġunions": 7811,
      "ĠCou": 7812,
      "ĠCircuit": 7813,
      "Ġblast": 7814,
      "sson": 7815,
      "ĠHernandez": 7816,
      "ĠLooking": 7817,
      "Ġlegally": 7818,
      "ĠWalmart": 7819,
      "bridge": 7820,
      "Ġmat": 7821,
      "rad": 7822,
      "ids": 7823,
      "Ġdining": 7824,
      "Ġrebound": 7825,
      "abad": 7826,
      "ĠRom": 7827,
      "Ġimpose": 7828,
      "ĠAlpha": 7829,
      "ĠWeekly": 7830,
      "TER": 7831,
      "ĠJam": 7832,
      "Ġabsolute": 7833,
      "Ġinventory": 7834,
      "ĠBilly": 7835,
      "ĠKaren": 7836,
      "ĠFriends": 7837,
      "ĠCent": 7838,
      "ĠVikings": 7839,
      "ĠMuch": 7840,
      "cell": 7841,
      "ads": 7842,
      "Ġph": 7843,
      "Ġkiller": 7844,
      "ĠMembers": 7845,
      "Ġshooter": 7846,
      "ĠInvestigators": 7847,
      "ĠJoshua": 7848,
      "Ġparticipated": 7849,
      "Ġinnocent": 7850,
      "ĠRichmond": 7851,
      "itor": 7852,
      "ĠDal": 7853,
      "ĠOperator": 7854,
      "Ġmakeup": 7855,
      "Ġconf": 7856,
      "ĠNEWS": 7857,
      "ĠDef": 7858,
      "Ġchase": 7859,
      "ĠCost": 7860,
      "mont": 7861,
      "\":": 7862,
      "Ġarrangements": 7863,
      "stein": 7864,
      "Ġretire": 7865,
      "ĠLuis": 7866,
      "Ġrenewed": 7867,
      "ĠTownship": 7868,
      "Ġchecked": 7869,
      "arts": 7870,
      "ĠCash": 7871,
      "Ġcentres": 7872,
      "chers": 7873,
      "ĠSolutions": 7874,
      "Ġlegend": 7875,
      "ige": 7876,
      "most": 7877,
      "osed": 7878,
      "ĠPor": 7879,
      "Ġpremiere": 7880,
      "FS": 7881,
      "Ġmissiles": 7882,
      "ĠLang": 7883,
      "Ġsing": 7884,
      "best": 7885,
      "Ġtail": 7886,
      "Ġriders": 7887,
      "Picture": 7888,
      "zen": 7889,
      "ĠKent": 7890,
      "Ġtransform": 7891,
      "Ġwildlife": 7892,
      "Ġsmoking": 7893,
      "Ġpreseason": 7894,
      "ĠLucas": 7895,
      "ĠAnne": 7896,
      "owski": 7897,
      "Ġtape": 7898,
      "Ġdisplayed": 7899,
      "Ġforum": 7900,
      "Ġanonymity": 7901,
      "ĠIndianapolis": 7902,
      "hips": 7903,
      "acc": 7904,
      "ĠMoreover": 7905,
      "lers": 7906,
      "area": 7907,
      "ĠIndeed": 7908,
      "Ġconducting": 7909,
      "Ġinfection": 7910,
      "Ġdealt": 7911,
      "OB": 7912,
      "asing": 7913,
      "ĠGaza": 7914,
      "itter": 7915,
      "ĠKa": 7916,
      "Ġhopeful": 7917,
      "ĠSnow": 7918,
      "Ġentitled": 7919,
      "Ġaffecting": 7920,
      "Ġeager": 7921,
      "Ġcircle": 7922,
      "Ġlaugh": 7923,
      "ĠProsecutors": 7924,
      "ĠDur": 7925,
      "Ġbarriers": 7926,
      "ĠPoll": 7927,
      "oun": 7928,
      "ĠPalm": 7929,
      "chi": 7930,
      "Ġsamples": 7931,
      "Ġcompromise": 7932,
      "atter": 7933,
      "Ġenormous": 7934,
      "ĠÃ©": 7935,
      "coming": 7936,
      "ĠPharmaceutical": 7937,
      "Ġrank": 7938,
      "Let": 7939,
      "Ġtransgender": 7940,
      "ĠCloud": 7941,
      "FO": 7942,
      "ĠBor": 7943,
      "Ġbonus": 7944,
      "Ġordinary": 7945,
      "ĠPres": 7946,
      "ĠHIV": 7947,
      "ires": 7948,
      "OSE": 7949,
      "Ġdancing": 7950,
      "ĠHD": 7951,
      "Ġversions": 7952,
      "Ġ88": 7953,
      "rate": 7954,
      "Ġtackles": 7955,
      "Ġknock": 7956,
      "ĠEmma": 7957,
      "Ġmotivated": 7958,
      "ĠBennett": 7959,
      "ĠBurn": 7960,
      "Ġgrid": 7961,
      "Ġembrace": 7962,
      "ĠSpurs": 7963,
      "Ġflows": 7964,
      "ĠGer": 7965,
      "Ġsponsored": 7966,
      "Ġsurvival": 7967,
      "ching": 7968,
      "Ġ1995": 7969,
      "Ġreward": 7970,
      "Ġdepends": 7971,
      "Ġpostseason": 7972,
      "Ġloaded": 7973,
      "Ġneutral": 7974,
      "ĠPop": 7975,
      "BL": 7976,
      "Ġrevolution": 7977,
      "ĠFreedom": 7978,
      "Ġrecovering": 7979,
      "Ġrequiring": 7980,
      "ALL": 7981,
      "ARE": 7982,
      "Ġmini": 7983,
      "lt": 7984,
      "ĠFDA": 7985,
      "Ġcarpet": 7986,
      "ĠPrior": 7987,
      "Ġadmission": 7988,
      "ĠEver": 7989,
      "ĠTribune": 7990,
      "ĠRonaldo": 7991,
      "Ġthick": 7992,
      "Ġlanes": 7993,
      "Ġ84": 7994,
      "ĠMemphis": 7995,
      "Ġopt": 7996,
      "BO": 7997,
      "Ġfaculty": 7998,
      "ĠChad": 7999,
      "ĠSUV": 8000,
      "ĠHen": 8001,
      "Ġeste": 8002,
      "ĠHu": 8003,
      "ĠAgriculture": 8004,
      "store": 8005,
      "ĠDrug": 8006,
      "inter": 8007,
      "Ġ1996": 8008,
      "ident": 8009,
      "Ġbackup": 8010,
      "ĠHonda": 8011,
      "ĠHope": 8012,
      "oes": 8013,
      "ums": 8014,
      "amer": 8015,
      "Ġbreath": 8016,
      "Ġ110": 8017,
      "Ġjoke": 8018,
      "ĠAld": 8019,
      "Ġwondering": 8020,
      "ĠAssad": 8021,
      "ĠRem": 8022,
      "Ġfundraising": 8023,
      "pot": 8024,
      "Ã¨": 8025,
      "Ġquestioning": 8026,
      "Ġpent": 8027,
      "ĠMoney": 8028,
      "ĠMedicine": 8029,
      "wick": 8030,
      "ĠKnights": 8031,
      "Ġbatting": 8032,
      "ĠMos": 8033,
      "Ġdesignated": 8034,
      "isse": 8035,
      "Ġspotlight": 8036,
      "Ġlake": 8037,
      "Ġcaution": 8038,
      "Ġinmates": 8039,
      "Ġlap": 8040,
      "CE": 8041,
      "ĠJavascript": 8042,
      "ĠDeutsche": 8043,
      "ĠFargo": 8044,
      "Ġguaranteed": 8045,
      "borough": 8046,
      "Ġfunctions": 8047,
      "ĠElementary": 8048,
      "ĠChuck": 8049,
      "Ġpitched": 8050,
      "ĠKrist": 8051,
      "Ġsteal": 8052,
      "Ġchips": 8053,
      "Ġalarm": 8054,
      "Ġbeloved": 8055,
      "scale": 8056,
      "Ġassaulted": 8057,
      "ĠPentagon": 8058,
      "Ġtemporarily": 8059,
      "Ġ93": 8060,
      "Ġ>": 8061,
      "ĠPortugal": 8062,
      "ti": 8063,
      "HL": 8064,
      "Ġdecreased": 8065,
      "Ġexistence": 8066,
      "Ġisolated": 8067,
      "Ġdeposit": 8068,
      "Ġstudied": 8069,
      "\")": 8070,
      "Ġtrophy": 8071,
      "ĠBrooks": 8072,
      "Ġbattling": 8073,
      "Ġweaker": 8074,
      "ĠPrivate": 8075,
      "ĠAccess": 8076,
      "Ġvirtually": 8077,
      "Ġshortage": 8078,
      "Ġgaining": 8079,
      "Ġbathroom": 8080,
      "TON": 8081,
      "Ġconcerning": 8082,
      "Ġengineer": 8083,
      "Ġbread": 8084,
      "Ġdemonstrate": 8085,
      "ĠDh": 8086,
      "Ġhorses": 8087,
      "Ġintersection": 8088,
      "Ġcolors": 8089,
      "Ġdelegation": 8090,
      "Ġnotable": 8091,
      "Ġwithdrawal": 8092,
      "ĠDennis": 8093,
      "Ġlocally": 8094,
      "Ġcoastal": 8095,
      "Ġcomply": 8096,
      "ĠMoh": 8097,
      "ĠAlbert": 8098,
      "Ġclosest": 8099,
      "ĠCITY": 8100,
      "Ġ83": 8101,
      "Ġcancelled": 8102,
      "ĠðŁ": 8103,
      "Ġsharply": 8104,
      "RS": 8105,
      "Ġproductivity": 8106,
      "Ġbasket": 8107,
      "SS": 8108,
      "Ġadmit": 8109,
      "ool": 8110,
      "ination": 8111,
      "ĠBB": 8112,
      "Ġsur": 8113,
      "ĠSteel": 8114,
      "ĠTed": 8115,
      "ĠPac": 8116,
      "Ġpatterns": 8117,
      "Ġlisting": 8118,
      "Ġreplacing": 8119,
      "ĠPradesh": 8120,
      "Ġroots": 8121,
      "Ġbroker": 8122,
      "ĠWriting": 8123,
      "Ġsued": 8124,
      "Ġorganised": 8125,
      "ĠThanksgiving": 8126,
      "ĠNOT": 8127,
      "Ġjournalism": 8128,
      "uel": 8129,
      "Ġkilometers": 8130,
      "Ġhunt": 8131,
      "berry": 8132,
      "ĠMother": 8133,
      "Ġlegitimate": 8134,
      "Ġinput": 8135,
      "ĠRel": 8136,
      "ĠGuardian": 8137,
      "Ar": 8138,
      "Ġtransported": 8139,
      "Ġbedroom": 8140,
      "ashing": 8141,
      "Ġbats": 8142,
      "Ġcleaning": 8143,
      "Ġwrapped": 8144,
      "Pacific": 8145,
      "Ġfence": 8146,
      "Ġtestified": 8147,
      "Ġ1994": 8148,
      "Ġinterference": 8149,
      "Ġmatching": 8150,
      "Ġexpression": 8151,
      "eta": 8152,
      "ĠSpencer": 8153,
      "Ġstrategist": 8154,
      "who": 8155,
      "Ġvictories": 8156,
      "Ġ2022": 8157,
      "Ġstakes": 8158,
      "Ġbuses": 8159,
      "ĠHousing": 8160,
      "Ġeditorial": 8161,
      "Ġ86": 8162,
      "ĠBishop": 8163,
      "Ġfrustrated": 8164,
      "Ġappearing": 8165,
      "http": 8166,
      "IGHT": 8167,
      "Ġmemo": 8168,
      "Ġinsiders": 8169,
      "Even": 8170,
      "Ġclassroom": 8171,
      "Ġchef": 8172,
      "aining": 8173,
      "].": 8174,
      "ĠMcD": 8175,
      "Ġ87": 8176,
      "ĠPunjab": 8177,
      "Ġancient": 8178,
      "Ġresolved": 8179,
      "Ġdying": 8180,
      "Ġdestruction": 8181,
      "Ġgoverning": 8182,
      "Ġrestructuring": 8183,
      "ĠPick": 8184,
      "Ġmunicipal": 8185,
      "Ġengines": 8186,
      "ĠHudson": 8187,
      "Æ": 8188,
      "Ġrepeal": 8189,
      "standing": 8190,
      "Ġbound": 8191,
      "ĠOS": 8192,
      "ĠCommonwealth": 8193,
      "Ġdescription": 8194,
      "Ġhouseholds": 8195,
      "Ġmal": 8196,
      "Ġstopping": 8197,
      "equ": 8198,
      "Ġregulator": 8199,
      "Ġcontaining": 8200,
      "Ġremoving": 8201,
      "Ġwithdraw": 8202,
      "Ġburied": 8203,
      "Ġlists": 8204,
      "ĠGil": 8205,
      "Ġlowered": 8206,
      "Ġformally": 8207,
      "ĠRound": 8208,
      "asi": 8209,
      "¥": 8210,
      "lett": 8211,
      "Ġprogressive": 8212,
      "ĠFalcons": 8213,
      "ĠRaw": 8214,
      "gun": 8215,
      "Ġcontributing": 8216,
      "Ġhunting": 8217,
      "Ġvalid": 8218,
      "Ġexception": 8219,
      "ĠPlayers": 8220,
      "ĠTra": 8221,
      "Ġracism": 8222,
      "hing": 8223,
      "chen": 8224,
      "Ġdifferently": 8225,
      "Ġchampionships": 8226,
      "ĠEng": 8227,
      "ĠNO": 8228,
      "ĠAuto": 8229,
      "ĠErdogan": 8230,
      "iding": 8231,
      "Ġwarming": 8232,
      "Ġcivilian": 8233,
      "ĠDam": 8234,
      "Ġfantasy": 8235,
      "ĠNav": 8236,
      "itions": 8237,
      "ĠDrew": 8238,
      "ĠNancy": 8239,
      "Ġtrapped": 8240,
      "ĠRussians": 8241,
      "ĠIC": 8242,
      "Ġflexibility": 8243,
      "ular": 8244,
      "Ġviolated": 8245,
      "ipped": 8246,
      "Ġgarage": 8247,
      "ĠDeep": 8248,
      "Ġpraise": 8249,
      "ĠLab": 8250,
      "ĠPlayer": 8251,
      "Ġjudicial": 8252,
      "Ġdonate": 8253,
      "Ġseparated": 8254,
      "Ġreleases": 8255,
      "nik": 8256,
      "Ġexplanation": 8257,
      "aph": 8258,
      "Ġloyal": 8259,
      "Ġstrongest": 8260,
      "ĠShar": 8261,
      "Ġrescued": 8262,
      "Ġambitious": 8263,
      "Ġclimb": 8264,
      "Ġscared": 8265,
      "Ġignored": 8266,
      "cut": 8267,
      "Ġstole": 8268,
      "Ġweakness": 8269,
      "ĠRidge": 8270,
      "oa": 8271,
      "LA": 8272,
      "Ġdep": 8273,
      "ĠPowell": 8274,
      "Do": 8275,
      "Ġprotein": 8276,
      "Ġreiterated": 8277,
      "ĠCox": 8278,
      "aling": 8279,
      "ĠUnlike": 8280,
      "ĠKane": 8281,
      "ĠMcConnell": 8282,
      "Ġshowcase": 8283,
      "Ġuniform": 8284,
      "ower": 8285,
      "Ġdiscover": 8286,
      "stop": 8287,
      "ipper": 8288,
      "Ġtreatments": 8289,
      "Ġgrocery": 8290,
      "Ġsubscribers": 8291,
      "lock": 8292,
      "ple": 8293,
      "Ġflew": 8294,
      "ania": 8295,
      "Ġstepping": 8296,
      "ĠSoviet": 8297,
      "Ġconsultant": 8298,
      "ags": 8299,
      "ĠLim": 8300,
      "Ġ91": 8301,
      "ĠCode": 8302,
      "ports": 8303,
      "box": 8304,
      "Ġlakh": 8305,
      "Ġreminder": 8306,
      "ym": 8307,
      "ĠTravis": 8308,
      "Ġpure": 8309,
      "now": 8310,
      "ĠVR": 8311,
      "Ġachievement": 8312,
      "ĠEmirates": 8313,
      "ĠThunder": 8314,
      "Ġmerely": 8315,
      "ĠCa": 8316,
      "ĠAverage": 8317,
      "ĠDa": 8318,
      "Ġtopped": 8319,
      "ĠCurry": 8320,
      "Ġchemicals": 8321,
      "Ġamendment": 8322,
      "ĠBorder": 8323,
      "ĠBat": 8324,
      "Ġ130": 8325,
      "Ġprogramming": 8326,
      "Ġtele": 8327,
      "ĠKarl": 8328,
      "Ġaveraged": 8329,
      "ĠSpe": 8330,
      "world": 8331,
      "PG": 8332,
      "Ġfights": 8333,
      "ĠPrincess": 8334,
      "ĠCIA": 8335,
      "ĠAbe": 8336,
      "Ġacted": 8337,
      "only": 8338,
      "Ġinsight": 8339,
      "Ġathlete": 8340,
      "ĠTar": 8341,
      "commerce": 8342,
      "Ġaveraging": 8343,
      "cr": 8344,
      "ĠPalestinians": 8345,
      "Well": 8346,
      "Ġbull": 8347,
      "Ġchoosing": 8348,
      "Ġsurely": 8349,
      "ĠSecret": 8350,
      "Ġteammate": 8351,
      "ĠAmendment": 8352,
      "ĠBirmingham": 8353,
      "Ġexcitement": 8354,
      "strong": 8355,
      "ĠSin": 8356,
      "Ġdamages": 8357,
      "rated": 8358,
      "Ġrankings": 8359,
      "Ġconservation": 8360,
      "home": 8361,
      "erm": 8362,
      "ield": 8363,
      "Ġdisorder": 8364,
      "acher": 8365,
      "Ġnaturally": 8366,
      "atur": 8367,
      "Ġpackages": 8368,
      "Ġapproaches": 8369,
      "icks": 8370,
      "ourn": 8371,
      "Ġodd": 8372,
      "Ġshore": 8373,
      "ĠBeing": 8374,
      "Ġmagic": 8375,
      "Ġtourist": 8376,
      "largest": 8377,
      "Ġwhenever": 8378,
      "Ġlenders": 8379,
      "Ġegg": 8380,
      "ĠChair": 8381,
      "Ġlets": 8382,
      "Ġwarnings": 8383,
      "į": 8384,
      "Ġpol": 8385,
      "Ġdrag": 8386,
      "ĠAmb": 8387,
      "ĠCle": 8388,
      "ĠLouisville": 8389,
      "ĠShaw": 8390,
      "lands": 8391,
      "Ġanthem": 8392,
      "ĠTrail": 8393,
      "Ġaccepting": 8394,
      "anger": 8395,
      "good": 8396,
      "ĠBroad": 8397,
      "ĠLebanon": 8398,
      "ĠMillion": 8399,
      "ĠHenderson": 8400,
      "Ġwh": 8401,
      "Ġdust": 8402,
      "Ġ92": 8403,
      "ĠMend": 8404,
      "Ġchecking": 8405,
      "ĠCow": 8406,
      "sized": 8407,
      "Ġautomatic": 8408,
      "Ġcelebrates": 8409,
      "Ġarena": 8410,
      "Ġfinger": 8411,
      "ĠHarvard": 8412,
      "Ġfrustration": 8413,
      "Ġstrict": 8414,
      "Ġpreserve": 8415,
      "Ġsleeping": 8416,
      "Ġconverted": 8417,
      "Ġinsights": 8418,
      "Ġtra": 8419,
      "Ġjailed": 8420,
      "Ġchamber": 8421,
      "Ġtoxic": 8422,
      "ading": 8423,
      "ĠTriple": 8424,
      "grade": 8425,
      "ĠRest": 8426,
      "ĠHoly": 8427,
      "oper": 8428,
      "Ġdesk": 8429,
      "Ġmatchup": 8430,
      "Ġsteep": 8431,
      "ĠGot": 8432,
      "lay": 8433,
      "ĠCab": 8434,
      "aked": 8435,
      "ĠFoster": 8436,
      "Ġrunners": 8437,
      "ĠNA": 8438,
      "Ġdestroy": 8439,
      "Ġsupportive": 8440,
      "ĠRacing": 8441,
      "Ġtrademark": 8442,
      "Ġjacket": 8443,
      "Ġhorror": 8444,
      "ĠAle": 8445,
      "Ġass": 8446,
      "Ġsch": 8447,
      "abb": 8448,
      "Ġplanes": 8449,
      "Ġimpression": 8450,
      "ĠEarly": 8451,
      "ĠPompe": 8452,
      "Ġking": 8453,
      "Ġsilent": 8454,
      "ĠCuba": 8455,
      "Ġmedication": 8456,
      "ences": 8457,
      "list": 8458,
      "ailing": 8459,
      "WA": 8460,
      "ella": 8461,
      "Ġprop": 8462,
      "Ġhalt": 8463,
      "Ġslowing": 8464,
      "ĠFoods": 8465,
      "Ġanonymous": 8466,
      "kh": 8467,
      "Ġtraveled": 8468,
      "Ġcommunicate": 8469,
      "Ġter": 8470,
      "ĠHockey": 8471,
      "ĠRobin": 8472,
      "Ġswept": 8473,
      "Ġclinic": 8474,
      "ration": 8475,
      "len": 8476,
      "Ġau": 8477,
      "Ġcareers": 8478,
      "ĠSound": 8479,
      "Ġaddresses": 8480,
      "China": 8481,
      "ĠSr": 8482,
      "Ġexhibit": 8483,
      "ĠMotors": 8484,
      "ĠIl": 8485,
      "Ġinstall": 8486,
      "ĠOkay": 8487,
      "Ġ>>": 8488,
      "hood": 8489,
      "stand": 8490,
      "Ġaudit": 8491,
      "Ġcake": 8492,
      "Ġflames": 8493,
      "bel": 8494,
      "ĠMust": 8495,
      "ĠManafort": 8496,
      "Ġcommodity": 8497,
      "night": 8498,
      "ĠRoom": 8499,
      "ĠLanka": 8500,
      "Ġcommander": 8501,
      "ln": 8502,
      "Ġdatabase": 8503,
      "ĠSet": 8504,
      "Ġgraduated": 8505,
      "ĠTarget": 8506,
      "Ġoutbreak": 8507,
      "rou": 8508,
      "ĠPope": 8509,
      "ĠEqu": 8510,
      "Ġpolling": 8511,
      "Ġdig": 8512,
      "Ġbrutal": 8513,
      "ĠBarn": 8514,
      "Ġdefinition": 8515,
      "Ġpit": 8516,
      "Ġpickup": 8517,
      "ĠBitcoin": 8518,
      "ĠReid": 8519,
      "Ġloving": 8520,
      "ĠHerald": 8521,
      "ĠCanadians": 8522,
      "Ġneighbor": 8523,
      "Ġdies": 8524,
      "ione": 8525,
      "ĠRef": 8526,
      "big": 8527,
      "Ġguards": 8528,
      "including": 8529,
      "ente": 8530,
      "Ġpartially": 8531,
      "Image": 8532,
      "Ġbulk": 8533,
      "Ġslot": 8534,
      "ĠNorthwest": 8535,
      "ĠBarclays": 8536,
      "Ġairlines": 8537,
      "iver": 8538,
      "isi": 8539,
      "Ġsubsidiary": 8540,
      "Ġcont": 8541,
      "ĠDaniels": 8542,
      "Ġscript": 8543,
      "Ġunfair": 8544,
      "Ġscreens": 8545,
      "Ġprof": 8546,
      "ĠIrma": 8547,
      "Ġ1992": 8548,
      "Ġmandatory": 8549,
      "ĠSant": 8550,
      "Ġsuspicion": 8551,
      "NES": 8552,
      "ĠLauren": 8553,
      "igen": 8554,
      "Ġprevention": 8555,
      "Ġtension": 8556,
      "ema": 8557,
      "Ġtasks": 8558,
      "Ġshake": 8559,
      "Ġexplosive": 8560,
      "Ġaffects": 8561,
      "Ġmum": 8562,
      "ĠDog": 8563,
      "rer": 8564,
      "Ġopted": 8565,
      "Ġtrio": 8566,
      "Ġlesson": 8567,
      "Ġautomotive": 8568,
      "where": 8569,
      "ĠMontgomery": 8570,
      "Ġcouples": 8571,
      "Ġ89": 8572,
      "AF": 8573,
      "Ġinfo": 8574,
      "ĠForm": 8575,
      "Ġspectrum": 8576,
      "Ġbands": 8577,
      "Ġokay": 8578,
      "Ġstroke": 8579,
      "ĠNetanyahu": 8580,
      "Ġwealthy": 8581,
      "ĠAround": 8582,
      "ĠGlenn": 8583,
      "sec": 8584,
      "there": 8585,
      "ickets": 8586,
      "ĠBudget": 8587,
      "ĠBMW": 8588,
      "Ġflagship": 8589,
      "rier": 8590,
      "Ġpodcast": 8591,
      "Ġpursuing": 8592,
      "Ġpos": 8593,
      "ĠIslands": 8594,
      "ĠUrban": 8595,
      "page": 8596,
      "Ġemotions": 8597,
      "ided": 8598,
      "Ġdividends": 8599,
      "Ġboom": 8600,
      "Ġaccusing": 8601,
      "ird": 8602,
      "ĠNam": 8603,
      "ava": 8604,
      "Ġwishes": 8605,
      "ĠNy": 8606,
      "ĠStanford": 8607,
      "Ġcriteria": 8608,
      "ĠJews": 8609,
      "Ġengineers": 8610,
      "Ġaccuracy": 8611,
      "Ġdisplays": 8612,
      "Ġdeserves": 8613,
      "ridge": 8614,
      "omm": 8615,
      "aur": 8616,
      "Ġdramatically": 8617,
      "Ġunity": 8618,
      "speed": 8619,
      "Ġdeclining": 8620,
      "Ġpermits": 8621,
      "ĠKn": 8622,
      "Ġconsulting": 8623,
      "aux": 8624,
      "ATE": 8625,
      "ĠWat": 8626,
      "ĠEditor": 8627,
      "sy": 8628,
      "urn": 8629,
      "ĠUsing": 8630,
      "asc": 8631,
      "ital": 8632,
      "Ġcre": 8633,
      "quality": 8634,
      "Ġce": 8635,
      "Ġenemy": 8636,
      "Ġoffence": 8637,
      "icket": 8638,
      "ĠDick": 8639,
      "ĠTH": 8640,
      "ĠChampionships": 8641,
      "Ġoverwhelming": 8642,
      "rib": 8643,
      "ku": 8644,
      "rap": 8645,
      "Ġhomer": 8646,
      "acion": 8647,
      "member": 8648,
      "erv": 8649,
      "aney": 8650,
      "MB": 8651,
      "eded": 8652,
      "Ġpunishment": 8653,
      "Ġnegotiate": 8654,
      "ĠFile": 8655,
      "stream": 8656,
      "ĠHur": 8657,
      "Ġnose": 8658,
      "ĠFab": 8659,
      "iter": 8660,
      "Ġpainful": 8661,
      "ITY": 8662,
      "eren": 8663,
      "Ġcollecting": 8664,
      "Additional": 8665,
      "Ġentrepreneurs": 8666,
      "bal": 8667,
      "Ġexploring": 8668,
      "Ġguitar": 8669,
      "Ġpartnerships": 8670,
      "Ġfurniture": 8671,
      "Ġauthorized": 8672,
      "Ġeasing": 8673,
      "shirt": 8674,
      "ĠGross": 8675,
      "Ġpolitician": 8676,
      "ĠSimpson": 8677,
      "Ġdrone": 8678,
      "ĠKatie": 8679,
      "Ġprofitability": 8680,
      "ĠNHS": 8681,
      "ĠSierra": 8682,
      "ĠNorway": 8683,
      "ASHINGTON": 8684,
      "ific": 8685,
      "Ġcondemned": 8686,
      "team": 8687,
      "ĠNebraska": 8688,
      "Ġthrilled": 8689,
      "iller": 8690,
      "Ġpatrol": 8691,
      "ĠWR": 8692,
      "orm": 8693,
      "Ġspectacular": 8694,
      "ĠKnight": 8695,
      "ĠTravel": 8696,
      "nam": 8697,
      "Ġmuscle": 8698,
      "ĠRain": 8699,
      "ĠColombia": 8700,
      "Ġnursing": 8701,
      "Ġmigration": 8702,
      "ĠMitch": 8703,
      "Ġreleasing": 8704,
      "ĠBesides": 8705,
      "ĠMul": 8706,
      "Ġheadline": 8707,
      "Ġcontemporary": 8708,
      "Ġdev": 8709,
      "ĠChan": 8710,
      "Ġindicates": 8711,
      "ĠAp": 8712,
      "ĠLt": 8713,
      "ĠMarvel": 8714,
      "Ġremembered": 8715,
      "Â®": 8716,
      "ĠForces": 8717,
      "ĠColin": 8718,
      "ĠGabriel": 8719,
      "Ġobjects": 8720,
      "ĠRHP": 8721,
      "kar": 8722,
      "ĠKo": 8723,
      "Ġsignals": 8724,
      "Ġinner": 8725,
      "real": 8726,
      "RO": 8727,
      "Ġromantic": 8728,
      "cat": 8729,
      "ĠKel": 8730,
      "Ġgut": 8731,
      "ĠBoys": 8732,
      "Ġyoungest": 8733,
      "ĠCeltics": 8734,
      "Ġslated": 8735,
      "Ġremind": 8736,
      "Ġproductive": 8737,
      "set": 8738,
      "Co": 8739,
      "ĠBailey": 8740,
      "Ġrenewable": 8741,
      "ĠCarson": 8742,
      "ĠDj": 8743,
      "ĠKos": 8744,
      "Ġurge": 8745,
      "Ġfin": 8746,
      "Ġpursuit": 8747,
      "ĠCON": 8748,
      "ĠChapter": 8749,
      "Ġpal": 8750,
      "Ġgate": 8751,
      "ĠPackers": 8752,
      "ĠReports": 8753,
      "ĠRugby": 8754,
      "ĠMasters": 8755,
      "MO": 8756,
      "Ġ98": 8757,
      "Ġcatches": 8758,
      "ĠAgreement": 8759,
      "ĠTillerson": 8760,
      "ĠIce": 8761,
      "Ġrumors": 8762,
      "ĠLeonard": 8763,
      "ĠDolphins": 8764,
      "ĠLP": 8765,
      "top": 8766,
      "ĠCrist": 8767,
      "ĠHon": 8768,
      "Ġblaze": 8769,
      "Ġrhetoric": 8770,
      "ands": 8771,
      "ady": 8772,
      "David": 8773,
      "igh": 8774,
      "Ġbuzz": 8775,
      "ĠStrong": 8776,
      "Ġshocking": 8777,
      "ĠRh": 8778,
      "Ġnegotiating": 8779,
      "Ġtender": 8780,
      "ĠJohnny": 8781,
      "ĠMario": 8782,
      "Ġ97": 8783,
      "ĠHeritage": 8784,
      "Ġexists": 8785,
      "Ġprayers": 8786,
      "Ġlengthy": 8787,
      "Ġsafer": 8788,
      "ĠHalloween": 8789,
      "ĠJared": 8790,
      "ĠConnect": 8791,
      "Ġbump": 8792,
      "Ġstrain": 8793,
      "Ġfilling": 8794,
      "Ġtrauma": 8795,
      "Ġcompleting": 8796,
      "cht": 8797,
      "Ġkillings": 8798,
      "anne": 8799,
      "GE": 8800,
      "ĠRescue": 8801,
      "Ġdealers": 8802,
      "Ġlocals": 8803,
      "ĠVictor": 8804,
      "Ġtragic": 8805,
      "Ġdelivers": 8806,
      "orts": 8807,
      "Ġrugby": 8808,
      "Ġinstallation": 8809,
      "asa": 8810,
      "ĠBart": 8811,
      "Ġjournal": 8812,
      "school": 8813,
      "ĠCome": 8814,
      "ĠVeterans": 8815,
      "Sun": 8816,
      "Ġcrowds": 8817,
      "Ġtransparent": 8818,
      "Ġimplications": 8819,
      "ĠHuawei": 8820,
      "sex": 8821,
      "Ġrallied": 8822,
      "Ġresponses": 8823,
      "Ġdebris": 8824,
      "Ġconvention": 8825,
      "Ġmothers": 8826,
      "BE": 8827,
      "ĠRoute": 8828,
      "Ġrebel": 8829,
      "ĠEmmanuel": 8830,
      "aster": 8831,
      "Ġunderstands": 8832,
      "pound": 8833,
      "ĠCastle": 8834,
      "Ġ2021": 8835,
      "rik": 8836,
      "ĠGR": 8837,
      "Ġconvince": 8838,
      "ault": 8839,
      "Ġpassionate": 8840,
      "ĠSciences": 8841,
      "Ġarrives": 8842,
      "idad": 8843,
      "Ġcelebrities": 8844,
      "ends": 8845,
      "ĠFans": 8846,
      "Ġdish": 8847,
      "ĠCorps": 8848,
      "hat": 8849,
      "Ġemployer": 8850,
      "ĠHy": 8851,
      "Ġpowered": 8852,
      "Ġgrandmother": 8853,
      "ĠFL": 8854,
      "oured": 8855,
      "VE": 8856,
      "ĠInst": 8857,
      "ĠPerez": 8858,
      "Ġtune": 8859,
      "Ġcitizenship": 8860,
      "Ġignore": 8861,
      "Ġdoubles": 8862,
      "IB": 8863,
      "Ġprogrammes": 8864,
      "inda": 8865,
      "Ġentities": 8866,
      "ĠInterior": 8867,
      "Ġprompting": 8868,
      "Ġwire": 8869,
      "Ġtheatre": 8870,
      "%)": 8871,
      "Ġheels": 8872,
      "ĠJu": 8873,
      "Ġdeposits": 8874,
      "Ġtrash": 8875,
      "mond": 8876,
      "she": 8877,
      "iana": 8878,
      "Ġislands": 8879,
      "ĠTommy": 8880,
      "Ġpub": 8881,
      "Ġdiscipline": 8882,
      "ĠSW": 8883,
      "Ġmusicians": 8884,
      "Ġembassy": 8885,
      "ĠQB": 8886,
      "hander": 8887,
      "UES": 8888,
      "ĠFerguson": 8889,
      "Ġblocking": 8890,
      "ahn": 8891,
      "Ġfines": 8892,
      "Ġtactics": 8893,
      "Ġbullet": 8894,
      "Ġequipped": 8895,
      "Ġescaped": 8896,
      "ĠSil": 8897,
      "ĠPack": 8898,
      "ĠAthletic": 8899,
      "ĠMic": 8900,
      "ĠDoes": 8901,
      "ĠCarr": 8902,
      "ĠChargers": 8903,
      "ĠKyl": 8904,
      "Ġzones": 8905,
      "µ": 8906,
      "iki": 8907,
      "Ġgreatly": 8908,
      "ĠMD": 8909,
      "Ġimmigrant": 8910,
      "ĠConstruction": 8911,
      "ĠBorn": 8912,
      "iment": 8913,
      "ĠWade": 8914,
      "Ġvisa": 8915,
      "Ġgenuine": 8916,
      "Ġelectronics": 8917,
      "ĠSat": 8918,
      "Ġsponsors": 8919,
      "ĠMontana": 8920,
      "Ġspell": 8921,
      "ĠSachs": 8922,
      "ĠEt": 8923,
      "Ġfoster": 8924,
      "Ġlocker": 8925,
      "Ġexplaining": 8926,
      "ĠAge": 8927,
      "Ġgunman": 8928,
      "Ġsauce": 8929,
      "Ġcry": 8930,
      "Ġstimulus": 8931,
      "Ġarray": 8932,
      "Ġcompare": 8933,
      "Ġboats": 8934,
      "Ġext": 8935,
      "iders": 8936,
      "ĠAst": 8937,
      "ĠParks": 8938,
      "ester": 8939,
      "Ġ94": 8940,
      "Ġrelating": 8941,
      "Ġvegetables": 8942,
      "Ġaccountable": 8943,
      "Ġhyper": 8944,
      "ĠWim": 8945,
      "Ġnewest": 8946,
      "ĠRome": 8947,
      "ĠChancellor": 8948,
      "CBS": 8949,
      "Ġbusinessman": 8950,
      "ĠDelaware": 8951,
      "Ġlands": 8952,
      "court": 8953,
      "aria": 8954,
      "Ġapproaching": 8955,
      "cker": 8956,
      "ĠSalt": 8957,
      "ĠMak": 8958,
      "Ġtreating": 8959,
      "Ġsubsequently": 8960,
      "ĠEll": 8961,
      "xton": 8962,
      "Ġ180": 8963,
      "Ġdetermination": 8964,
      "ĠSalman": 8965,
      "ĠJoel": 8966,
      "Ġclassified": 8967,
      "Ġspan": 8968,
      "Ġearthquake": 8969,
      "ranked": 8970,
      "Ġ96": 8971,
      "ĠTiger": 8972,
      "Ġadvocacy": 8973,
      "mit": 8974,
      "Ġcolleges": 8975,
      "ĠYeah": 8976,
      "ĠCaptain": 8977,
      "Ġorange": 8978,
      "Ġprojections": 8979,
      "Ġelectrical": 8980,
      "ĠMA": 8981,
      "olog": 8982,
      "ĠNewcastle": 8983,
      "oppers": 8984,
      "Ġrepresentation": 8985,
      "Ġlawsuits": 8986,
      "just": 8987,
      "aced": 8988,
      "ĠRace": 8989,
      "ĠAqu": 8990,
      "ĠBills": 8991,
      "Ġexclusively": 8992,
      "ĠProfile": 8993,
      "Ġhometown": 8994,
      "ĠStan": 8995,
      "Ġstarring": 8996,
      "Ġdeciding": 8997,
      "ĠRating": 8998,
      "ĠMedicare": 8999,
      "ĠTransport": 9000,
      "Ġmystery": 9001,
      "ĠTa": 9002,
      "ĠPad": 9003,
      "ĠSwedish": 9004,
      "ĠCarroll": 9005,
      "about": 9006,
      "Ġtorn": 9007,
      "Ġnurse": 9008,
      "NE": 9009,
      "Ġwaited": 9010,
      "ĠJeffrey": 9011,
      "ĠUntil": 9012,
      "Ġbone": 9013,
      "ĠBobby": 9014,
      "Ġpronounced": 9015,
      "Ġpharmaceutical": 9016,
      "ĠGallery": 9017,
      "ĠMatch": 9018,
      "Ġeconomists": 9019,
      "ĠMarketing": 9020,
      "face": 9021,
      "ĠPetroleum": 9022,
[...]
