#version: 0.2 - Trained by `huggingface/tokenizers`
e r
e n
i n
c h
Ġ d
Ġ a
e s
n d
i s
o n
i t
i e
Ġ t
Ġ s
o r
Ġ w
a n
t e
a r
Ġ S
h e
a l
a t
r e
Ġ b
u r
u n
Ġ in
u nd
i ch
a s
e in
e l
Ġ f
u s
Ġd er
Ġ m
Ġ A
Ã ¼
l e
g e
Ġ B
Ġ v
Ġ 1
Ġ M
Ġ und
Ã ¤
Ġ o
i l
Ġt he
Ġ D
s t
in g
r o
t er
un g
Ġ p
i g
d e
i on
Ġ P
o l
Ġ n
Ġ h
Ġ (
Ġ c
â Ģ
Ġ T
Ġ ein
Ġ F
a m
Ġ G
Ġ K
Ġd ie
i m
Ġ E
u t
en t
o m
r a
s ch
Ġ z
Ġ I
e m
Ġ H
Ġ W
e t
Ġa nd
Ġ R
h r
Ġ L
i c
t en
is ch
Ġo f
Ġ g
e d
Ġt o
u m
Ġ C
b er
Ġ 2
u f
a nd
Ġb e
Ã ¶
i r
is t
Ġ1 9
e it
a ch
Ġ er
Ġ l
Ġ N
Ġ J
Ġ V
d en
Ġv on
i er
Ġa l
Ġt h
c k
d er
Ġ k
u l
Ġa n
Ġd es
l ich
Ġd en
er s
i v
g en
Ġ im
o t
Ġ2 0
Ã¼ r
i k
at ion
Ġ e
ĠS t
o w
Ġ O
a b
o s
es t
Ġm it
a d
u ch
Ġ y
Ġ ge
an n
l a
Ã Ł
Ġ re
Ġ âĢ
t s
Ġ U
Ġd as
i es
i f
e b
Ġs t
al l
es s
Ġy o
Ġa uf
c t
Ġf or
e i
k t
Ġ is
Ġ Z
ĠS ch
a f
a h
i en
Ġw ur
v er
ie l
Ġv er
Ġz u
o p
i d
a y
Ġ on
isch en
Ġd em
Ġal s
Ġ ist
u p
c e
Ġf Ã¼r
te l
ĠI n
t h
a hr
Ġ Ċ
ich t
it h
u g
er e
Ġwur de
a g
Ġa us
Ġd e
il l
o g
Ġ un
as s
n e
b en
or t
m en
Ġ r
w e
Ġein e
er n
a v
in d
Ġw ar
Ġw ith
er t
0 0
a k
a p
a te
s p
Ġ20 1
a u
ĠR e
Ġs ich
o d
el l
a us
sch af
Ġw h
z e
Ġp ro
ĠV er
l in
ĠA n
l y
) ,
an g
Ġyo u
ĠE r
ĠD ie
o ch
Ġth at
Ġ j
ar t
us t
es ch
Ġs ein
Ġn e
i b
en d
Ġ i
r an
f f
Ġa m
s te
Ġ it
Ġa b
âĢ Ļ
h n
isch e
q u
Ã¼ ber
ung en
r ie
i p
ĠT he
g er
u d
s e
ig en
Ġs p
Ġ he
ĠS p
Ġbe i
u b
h t
ut sch
Ġ le
k s
Ġ 3
Ġa s
s en
an t
g r
Ġa re
Ġ1 8
Ġs e
Ġs ch
ĠB e
âĢ ĵ
Ġ20 0
Ġa uch
ar d
Ġs o
ur ch
m er
ĠJ ahr
ĠA l
Ġn ach
ĠU n
l er
Ġ Ã¼ber
Ġ or
1 9
i a
o k
âĢ ľ
o v
Ġb is
l ie
Ġc om
ĠA r
ro m
o st
ung s
Ġw ir
ĠâĢ ĵ
iv e
f or
m ent
i z
Ġw e
schaf t
i al
h en
Â ł
it y
is e
Ã¤ t
as t
Ġe x
Ġm e
ĠE in
ĠD e
h er
Ã¶ r
Ġa t
a in
ol l
Ġz ur
Ġc on
Ġd ies
r u
tel l
Ġ ch
Ġs ie
ĠâĢ ŀ
or d
b e
n en
a ge
Ġz um
ĠP ro
h o
r it
r Ã¤
Ġw as
isch er
h l
et z
Ġyo ur
av e
Ġw er
o ur
Ġ um
Ġein er
. .
m e
ch en
Ġz w
ic k
r Ã¼
te d
om e
u re
o nd
en s
Ġ ent
l and
Ġn icht
Ġwer den
Ġv or
in e
Ġ19 9
Ã¤ r
n er
Ġun ter
ar k
Ġd urch
o b
ier t
g el
Ġh at
or e
us s
Ġ es
f er
h al
i ge
Ġb y
Ġwir d
g es
Ã¤ n
Ġf rom
u e
Ġw ie
i an
it e
el t
Ġth is
i de
ter n
Ġal l
) .
en n
D ie
re ich
er k
ur g
Ġh ave
ĠT h
ĠC h
il d
ĠG e
p e
am e
Ġs ind
ĠL e
i o
i re
Ġein em
m al
ĠS ie
Ã¼ n
Ã¶ n
Ġo der
ĠT e
is ter
ge b
g t
Ġ 4
p l
Ġ us
p er
Ã¤ nd
f t
ch e
at ur
Ġ Ã
ĠO r
d u
ĠM it
ĠS e
p ar
st en
ĠD er
lich en
Ġc an
a c
Ġw ill
b eit
Ġ en
ion s
Ġw or
a uf
ah l
o c
p h
z en
Ġm an
Ã¼ hr
o ut
ĠN e
Ġein en
u ÃŁ
2 0
ic e
a ck
ul t
ĠA b
ĠB er
s s
Ġ 5
ich te
ad t
at z
1 8
Ã¼ ck
Ġ19 8
j e
on t
ig ht
er v
Ġ -
Ġc o
we ise
in z
p t
ĠE n
r y
ation al
el n
ĠA uf
ĠM ar
ig n
o hn
Ġn ot
A A
de m
Ġ Y
el e
for m
ur n
f e
l o
lich e
ĠL and
ĠA us
on e
at er
a il
Ġt e
ch t
Ġs h
st er
i le
l l
p r
Ġ19 7
om m
on g
t z
Ġ( *
all y
ĠG r
' s
e ar
ar e
re i
Ġh as
te il
ĠH e
f en
it ion
Ġde utsch
re is
T he
al t
p en
ĠN ach
Ġb es
t ra
ĠW e
b urg
or en
em ber
Ġdas s
iv ers
ab le
Ġa d
ĠI m
k eit
it z
u te
l os
re t
l ass
is s
Ġp r
ĠM e
am m
ul d
c o
Ã¤ hr
Ġa r
r at
Ã ©
I n
Ġ19 6
ol og
im e
a ut
ber g
at t
ĠV or
ier te
ĠD as
an s
ation s
de t
ak e
il m
k e
th er
Ġd o
Ġ 9
f ol
a z
Ġwur den
Ġi hr
ing s
Ġ 6
iel er
al e
ĠA m
Ġ1 7
ĠH er
f l
he it
ro ÃŁ
it er
Ġ up
o u
at h
Ġw o
ent s
Ġo ur
p p
ct ion
te t
Ġh er
ers on
Ġ "
eb en
Ġg o
Ġs ow
ĠUn ter
ein e
eit er
Ġcom p
w er
ĠZ eit
ol d
ĠF l
Ġi h
W eb
at en
os e
o ok
lin ks
Ġo ut
Ġr es
Ġv om
un t
Ġ19 4
an z
am p
ĠF or
Web links
as e
ĠM a
ug h
ĠP l
Ġ Ġ
Ġn ur
t o
ĠDe utsch
Ġ19 5
Ġb ut
Ġf e
Ġg en
us e
c c
om p
ch n
Ġ qu
Ã¤ l
par am
on s
or s
ĠF ran
i um
m ann
Ġ ro
ab en
ol it
z eit
Ġme hr
l es
v e
Ġm y
ig er
ut z
ze ich
Ġn och
ĠSt adt
ig h
Ġ et
ĠRe g
r en
am il
m it
Ġ 7
s el
p ort
Ġ1 5
g an
al s
ĠG em
Ġge w
te m
Ġthe ir
Ġt ra
is h
re e
ier en
Ġl ie
in k
ah n
ow n
ik e
ik er
om men
Ġon e
ne h
r ich
Ġm ore
el d
Ġb et
an ce
ĠSch w
D er
ĠP r
ar y
r if
ie t
Ã¼ d
ate d
ie d
f in
S t
y s
ic al
E inz
st and
Ġ 8
ib t
an k
og ra
Ġp er
el s
Ġ1 6
Ġ19 3
h Ã¶r
Ġsow ie
ĠP ar
in n
a de
c l
Ġa ber
ol le
on n
Ġb est
h und
ach weise
b all
le ich
g lie
es e
ĠI S
l d
eln achweise
kt ion
f Ã¼hr
Einz elnachweise
Ġals o
e c
or n
b ar
Ġ Q
esch ichte
u en
is sen
la g
it Ã¤t
Ġab out
nd e
ann t
o ck
w a
ah re
r ing
ĠI t
re at
.. .
n et
ĠU S
ub l
er en
ĠGem ein
Ġs te
Ã¤ ch
a up
p ro
Ġd ar
Ġge t
B N
Ġne w
Ġthe y
ie der
h aus
Ġ1 0
Ġe v
o y
Ġwh ich
ĠIS BN
ĠUn ivers
Ġsein er
or f
am men
u al
Ġin s
Ġb er
etz t
o ber
ier ung
Ġge gen
o f
Ġf in
s k
Ġcon t
ĠG ra
n is
Ġp l
âĢ Ŀ
el le
y ste
Ġzw ei
a is
o h
Ġ &
ĠJahr hund
f ahr
ig t
u er
Ġsein e
Ġbe en
Ġy ear
Ġein es
lie ÃŁ
ĠS te
ĠP h
v el
m in
l ung
m an
Ġp la
Ġwh o
ge ben
ĠC o
Ã¶ ff
ĠJ ahre
am en
ĠK ar
ro w
ay s
Ġhat te
Ġal le
ik an
g l
00 0
et t
Ġh is
x t
a ct
is ten
ig keit
Ġj ed
Ġof f
Ġg es
1 7
iter atur
w o
g lich
i ent
m p
Ã¼ nd
ar beit
ur op
ĠB r
Ġwie der
Ġwor k
im m
ĠA d
k en
or y
ĠS o
1 6
s tell
ĠK ir
Ġt ime
am er
Ġdies er
Ġk n
1 0
m ein
ĠG es
eit e
it t
ÃŁ e
n ah
ĠG eb
ĠM us
Ġs oll
re d
t on
Ġk ann
ĠC hr
ter s
ĠD ies
al d
an ge
Ġan y
ie le
at s
u le
re m
und en
us ammen
ĠE s
Ġs ome
ĠBer lin
Ã¶ l
Ġf ol
el b
yste m
e k
Ġzw ischen
id ent
b r
Ġ1 2
Ġ |
c es
AA AA
rie d
Ġk Ã¶n
a w
ent lich
Ġo b
if f
Ġs eit
ĠK on
ie w
Ġ1 4
i x
ck e
s er
t t
u de
ĠB l
ĠW elt
Ġwar en
is te
ret urn
ĠTe il
ĠJahr en
ĠU m
ĠâĢ ľ
D as
f all
Ġp art
Ġo ver
ĠK l
ĠF ra
in ter
w erk
ach t
Ġd is
ľ ber
in der
1 5
w ick
ir t
Ã¶ s
ab e
ent r
ot t
le d
or k
Ã¤ ter
g esch
S ch
Ġin ter
iel t
lin e
ĠA nd
eit en
in a
ing en
Ġzur Ã¼ck
Ġbe g
T h
Ġre c
os s
Ã¤ hl
und es
Ġ em
ĠT r
ic t
r on
b au
Ġl ike
o ol
ĠF re
ĠE x
ir st
Ġp e
eit s
Ġdeutsch er
ra d
ĠJ an
y n
at es
Ġs erv
gen d
Ġ1 3
Ġw eiter
Ġst ud
r es
m a
Ġd am
y p
s h
he im
ĠA ug
ver y
ĠJ un
aup t
schaf ten
ar n
ĠB o
Ġo ther
Ġ19 2
Ġs c
Ġthe m
en e
rie g
ĠSt a
rie b
ĠNe w
Ġpro v
ĠB es
o ff
ĠS h
Ġge hÃ¶r
ot h
or g
ĠJ ul
hal ten
Ġh aben
ge w
ĠSp iel
at ing
Ġpro du
glie d
un k
c om
E r
la ge
sp ieler
Ġg roÃŁ
in t
Ġbe k
et h
en de
am t
ĠGemein de
Ġwh en
Ġp h
form ation
en z
a um
Ġhe l
ĠJahrhund ert
1 2
ar b
is m
e p
g te
ell en
Ġn o
ĠSt ra
st ra
me ister
ov e
ĠF ilm
Ġj ust
Ã¤ d
Ġer sten
ck en
o us
G eb
p f
L iteratur
Ġdies e
ĠTh is
ĠM an
uÃŁ ball
A n
in s
u ar
ro und
V er
Ġs up
a ir
ĠEn t
ĠG er
f r
ĠÃ ľber
Ġ if
ist or
Ġk l
Ġin d
Ġbe im
ster reich
ĠN ov
ĠG en
ul l
a x
ar r
ĠE l
Ã¤hr end
en k
1 4
I m
y m
b le
ĠAr beit
Ġ 0
Ġer st
ĠO ber
Ġp re
op le
tell t
Ġth ere
Ġwh at
ĠZ w
Ġit s
ÃŁ en
Ġh ow
Ġge b
ĠAug ust
Ġv ers
i der
Ġre g
Ġd rei
ra ch
ogra ph
neh men
tern ational
if e
ĠB au
al en
f ter
7 8
Ġa g
aus e
Ġjed och
d ay
Ġne ed
h and
ra nd
ic es
ra g
Ġk onn
a ce
ĠA ut
sch ie
und e
un st
Ġj e
Ġm us
f ess
Ġg r
sch en
Ġin cl
Ġw ere
Ã¶n ig
A l
ier ten
Ġin to
D e
Ġf o
ĠN or
ĠC ar
Ġh ad
ĠkÃ¶n nen
ic s
Ġsp Ã¤ter
Geb oren
as h
p iel
Ġf r
ĠM in
uch t
Ġw el
l Ã¤
z er
Ġth an
ĠB undes
el y
Ã¤l t
io us
Ġh o
Ġc l
Ġm ost
Ġg esch
b o
Ġt r
w ard
er al
ĠSt ud
ĠÃ ĸ
u k
Ġih re
Ġf irst
Ġg el
le x
Ġ201 8
e ich
Ċ Ċ
ass en
ĠI nd
2 00
tem ber
ĠE urop
un ter
Ġer h
ĠChr ist
ĠM en
Ġm ake
au er
ar s
ĠP e
Ġd ann
f Ã¼
ĠF amil
Ġb o
k l
es ten
ie f
ĠH and
elb st
Ġa cc
h ne
it al
c ed
Ġbe c
ĠM o
ĠAr t
z ial
Ġwo uld
je ct
ĠB and
Ġa pp
1 3
Ġf Ã¼hr
Ã¤r z
ur t
Ġ ra
U n
Ġk e
and er
ol f
Ġpe ople
Ġb u
p s
z w
in ess
ib le
pr il
p or
Ġa c
il it
Ġd a
ĠM Ã¼n
rÃ¤ s
je kt
r ess
he l
Ġth ro
eb s
ch er
Ġi hn
Ġet wa
5 0
ĠSe p
Ġh and
ru ck
b l
Ġl ook
de d
up pe
Ġ ich
n ung
ar m
Ġa p
Ġb el
ĠĊ Ċ
f ul
s o
st it
Ġe very
Ġkn ow
iv er
le t
u z
ĠP ol
en den
Ġg ibt
Ġver b
M ann
ĠM ed
ĠN ational
v or
ow er
ĠDeutsch land
ĠM al
ge mein
b ach
Ã¼ t
Ġsein em
ho f
Ġw enn
k er
lich er
R e
ĠG roÃŁ
r icht
ĠNov ember
ĠFran k
ĠSep tember
ĠH o
ĠJun i
Ġw ell
Ã¶ glich
ion al
ul ar
ĠV ol
b ild
ĠN ord
Ġw eit
Ġus e
ĠT ra
ĠK Ã¶nig
at ive
re it
schaf ts
ĠA pril
us iness
v ers
ĠVer ein
ste in
u es
ĠP f
uf t
ĠPl atz
' t
ch ts
Ġon ly
ĠP erson
2 1
Ã ¡
ass er
ĠM on
ĠAl l
uÃŁ er
ĠE nde
Ġ3 0
oh ann
at or
kt ober
g ang
k a
ier e
Ġdes ign
Ġer fol
Ġsein en
ien ce
ro l
i qu
Ġm o
Ġh ier
ur z
k reis
ĠQ u
hal b
Ġf l
ĠJul i
Ġb ack
ir k
if ic
a gen
a id
ĠM ann
w n
ĠH aupt
g est
ran z
a den
op h
ĠMa i
Ġlie gt
p la
Ġver y
issen schaft
v en
on st
ien st
Ġg er
ĠG esch
ab ei
et s
ĠS c
u c
it el
un kt
ag es
schie den
Ġhel p
der n
i ze
Ġad d
Ġcom m
ment s
is en
. )
Ã¶ff entlich
ran s
st adt
M it
a kt
ĠI I
Ġan ge
ĠP olit
w ohn
s atz
we g
an y
ĠY ou
ke hr
Ġer ste
ĠO b
ĠF e
a ul
u ge
Ġg leich
hal t
Ġ19 0
al k
Ġm ay
Ġ /
ĠM Ã¤rz
Ã¶ ÃŁ
es en
Ġa ct
m at
Ġz usammen
gr Ã¼nd
ĠOr t
Ġver w
ig ung
ĠI s
Ġ201 7
a i
ut ion
ĠO ktober
Ġd r
ar ten
ĠVer b
ĠJan uar
u ck
ĠH och
Ġman y
G e
iv en
ult ur
am s
ĠB ei
at a
v ent
eb ru
Ġyear s
Ġfol gen
sch l
al ien
ĠK unst
b ahn
ĠS Ã¼d
Ġt wo
Ġdies em
Ġle tz
ein g
Ġber eits
Ġun s
Ġ201 6
ĠGr und
an c
ut h
it ed
Ġs he
Ġ X
Ġl oc
ic a
es ter
ich ts
Ġb esch
Ġs ol
Ġas s
af f
Ġs ho
Ġd ort
in er
Ġ201 0
ĠB et
âĢ ¦
vel op
m s
Ġd ire
w alt
Ġh in
ais on
amer ikan
ĠR o
b es
N ach
Ġb l
ĠJ ohann
Ġf ind
or ben
Ġd own
if fer
um ent
ap p
Ġund er
as ed
Ġe ben
Ã¼r ger
Ġ201 5
Ġkonn te
z ember
1 1
re g
Ġer w
Ġs m
Ġh igh
Ġh ome
Ġein z
Ġ .
c ts
olog ie
isch es
Ã¼ tz
Ġex per
it s
De utsch
st Ã¤nd
ĠB ar
Ġcon s
Ġand eren
Ġth ese
f eld
ĠF ried
Ġih m
Ġe igen
Ġz e
ze ug
Ġthro ugh
= =
Ġse hr
m Ã¤
ust r
ge t
em ent
Ġv ier
ess en
at ch
if t
ei d
ĠF ebru
is ion
Ġ201 4
he mal
ĠO n
Ġsp ec
ce pt
Ġ201 2
l i
Ġst and
Ġ| |
op p
as ch
Ġ201 1
Ġ18 9
Ġihr er
z ahl
c ess
f ang
Ġk am
i or
S ie
ĠW h
ĠH aus
ĠMus ik
a ur
Ġv iel
Ġ201 3
k te
ĠW erk
ich er
ĠĠ ĠĠ
b uch
r s
Ġbes te
ein en
Ġ Â
ĠL iste
ĠV ers
Ġhe ute
Ã¤n g
Ġk eine
gr und
am es
Ġbe fin
ĠK inder
Ġin v
ak ing
il ity
zeich net
W e
ar ch
ĠDe zember
ip p
ĠM et
Ã¤n ger
ĠF ol
Ġaus ge
Ġte il
O r
la gen
Ġde c
ĠW il
Ġ [
3 0
Ġ2 5
a j
ĠAr ch
ist r
ranz Ã¶s
Ã¼n st
ĠB ild
tra g
in es
Ġa kt
ation en
Ġg u
Ġm ach
os ition
ĠKir che
ber t
f ach
Ġgo od
w ahl
Ġ1 1
Ġs uch
ion en
ĠC on
ĠJ u
ĠâĢ ł
Ġg reat
ing er
Ġs elbst
it ies
Ġa fter
ĠĊ ĠĊ
Ġ200 8
i us
ĠF Ã¼r
ĠPh il
w ay
ĠG o
ĠE d
Ġn ow
ĠPro du
ebs ite
ĠR es
um s
ur ing
ern se
Ġm on
Ġp erson
fall s
y l
sch lieÃŁ
sch e
Ġm ed
v iew
ĠF r
in al
Ġp ar
al th
ost en
Ġw ay
Ġm ark
Ġ200 9
ur s
ĠG eschichte
s etz
Ġsch w
ĠLand es
Ġpla y
A us
Ġse c
la uf
rif t
tel ler
o gen
ĠA mer
Ã¶ st
Ġb usiness
omm un
gan is
l ig
Ġm in
g ra
he d
f te
ĠR om
19 9
AAAA AAAA
rit t
o ugh
ĠRe ich
Ġl ang
ut t
hr en
Ġb en
Ġw Ã¤hrend
Ġp o
Ã¶ ch
Ġer sch
Ġe ff
ges tellt
Ġal ler
ĠV on
ow s
Ġ2 4
Ġver schieden
ĠUnivers itÃ¤t
ĠO ff
ic an
hr er
Ġd ay
an gen
ĠC l
P ro
p ieler
Ġ9 78
ĠW est
ĠS er
rie ben
ĠB uch
mit tel
ĠUnivers ity
ĠA s
ĠIn ter
B e
in nen
iv es
ell schaft
ig te
Ã¼ l
ĠG l
for e
ĠS k
c y
los s
Ġs om
r ip
ut en
ĠE le
n o
ĠS aison
ĠFebru ar
ism us
Ġim mer
mal s
Ġar t
Ġwh ere
Ġbei den
Ġwor ld
Ġ( âĢ
Ġte chn
ĠN ieder
Ġ200 7
h ol
al ter
kt ur
Ġd el
Ġin c
ĠMit glied
Ã¤ch st
Ġsp e
Ġst att
Ġf ree
ĠW ert
we il
Ġand er
Ġa v
ien d
e h
Ġ ,
sp iel
A m
ĠG rÃ¼
up pen
z ie
ĠH am
A r
Ġgr Ã¶ÃŁ
Ġdam it
ĠH ol
Ġsp iel
Ġev en
Ġ %
Ġ ele
ĠMÃ¼n chen
Ġw en
s on
ĠD r
ĠAl s
Ã Ń
Ġs ub
Ġse e
Ġsch on
ĠD es
ĠKar l
ĠF ahr
âĢľ .
ain t
an ts
te te
Ġre m
ĠW ien
ach sen
Ġbec ause
z ug
Ġh ere
ĠV ert
Ġqu al
ĠS al
ĠC he
p ert
. ,
Ġde velop
Ġne ue
Ġge f
{ @
ĠVer lag
il t
Ġ200 6
Ġ end
ĠT o
Ġz un
il le
ik a
ra ft
Ġ18 8
ĠSt re
Ġth en
Ġs aid
ĠM ark
Ã¤ hn
ĠDies e
ogra f
T e
Ġon line
Ã¼n f
om en
lin k
Ġg ra
ĠCh ar
Ġm ade
Th is
a der
Ġo wn
Ġdes sen
Ġre ad
Ġ1 00
ust om
ur es
ĠM ich
neh mer
Ġc re
z ent
Ġw ant
fÃ¼hr t
ĠMit tel
Ġd iffer
Ġs Ã¼d
ĠN amen
Ġf ranzÃ¶s
t re
Ġincl ud
ĠF uÃŁball
sch ule
ot her
Ġs ystem
sch n
ichte t
at her
b and
o hl
in ce
y r
Ġin formation
Ġo hne
isch of
Ġs ur
un n
âĢľ ,
Ġp ol
iss ion
ch s
ro up
Ġco uld
Ġg ab
grÃ¼nd et
ĠB ay
Ġar beit
tel le
en ce
ĠZ u
Ã¼ s
ĠL in
h re
ĠB as
Ġ ed
Ġpro gr
ro p
ĠW or
Ġf rÃ¼
ĠL eb
Ġf est
ĠK r
b t
iv ing
Ã¤nd er
Ġe hemal
Ġ200 5
co de
i ra
Ġf re
Ġv is
ĠD urch
Ġf amil
Ġerh ielt
ro ss
ĠH al
L e
c ted
w ert
Ġbe f
Ġ20 00
ĠA t
re cht
Ġ el
Ġs im
ĠP er
m ed
le ase
Ġin st
Ġre qu
o ge
est orben
Ġm uch
g abe
all s
ubl ik
ĠK omp
ly mp
Ġt ake
ĠJ ohn
z u
pr ess
ch sel
Ġbek annt
Ġs k
Ġihr en
ĠSchw ei
ĠH Ã¶
ig es
2 5
Ġi de
ĠEin e
4 0
ernse h
ĠI f
is k
m ar
Ġc ar
6 0
ĠSch l
Ġv al
ĠÃ Ħ
in ing
ur r
olog y
ar i
Ġl ife
ater ial
h in
ĠM at
p le
un ktion
Ġne uen
in en
f ra
rÃ¤s ident
aus pieler
is piel
ĠU r
ĠW ill
ĠAn t
Ġst ar
ĠFried rich
ĠM ill
ct or
Ġd on
stra ÃŁe
G eschichte
ie g
nah me
ĠG u
Ġp ubl
w end
o te
Ã¤ ude
los sen
Ã¤hl t
uf en
ot s
it zen
um mer
ĠFor m
ĠD ar
iel d
ĠP art
ap an
Ġre al
kt or
Ġus ed
g leich
Ġe as
L eben
ĠH ein
w w
le y
ent ly
Ġste ht
Ġprov ide
ĠF in
Ġ200 4
Ġdeutsch en
ir che
Ġb zw
k rieg
Ġc ol
ĠMen schen
ĠM ag
all en
ĠT od
b ur
ak es
ĠW er
in o
Ġo pt
ĠUnter nehmen
Ġdies es
um ber
Â Ń
as on
Ġs el
Ġ2 2
wick lung
geb iet
stell ung
de ut
Ġder en
Ġ18 7
t ag
p unkt
a e
ĠC omp
Ã ³
at ure
ĠL ei
Ġsho uld
Ġn ah
Ġ #
Ġb eing
ĠK rieg
l en
k auf
Ġ $
Ġ ur
d orf
ĠJ e
Ġ201 9
Ġch e
ĠPolit iker
ĠA ss
G estorben
w are
ĠMe ister
ĠB ere
re uz
w ig
ir d
Ġ2 1
ar ge
ath ol
Ġweit ere
re en
ĠSch ul
ag er
Ã¤t z
ĠD an
ĠBer g
im es
la ck
ig ten
use um
Ġd abei
ann te
ond er
an st
ĠB est
lass e
id es
f ern
Ġp ra
Ã¶ m
iqu e
ĠS an
y le
oll ow
Ġf Ã¼nf
Ġp olit
ug ht
Ġl ast
ĠOr ts
ĠD o
Ġof fer
ĠR Ã¼ck
Ġl a
ĠK ap
ĠP aul
Ġs u
gel e
Ġ5 0
2 2
g y
Ġcomm un
Ġr ight
ide o
8 0
f ass
he in
age ment
Ġa round
lo ad
l ing
rs g
ĠL a
ĠY ork
h ard
Ġalle m
Ġbefin det
re ib
Ġb ed
ĠW asser
sp ort
sch ul
Ġer reich
ĠN atur
Ġs ei
u ter
sch utz
ip s
Ġ2 3
u x
ĠPerson en
am ent
Ġen g
al er
Ġb r
tel y
Ġent sp
g or
u gen
om in
Ġent stand
ĠLeb ens
Ġbe fore
wohn er
irt schaft
ond on
ĠPro v
Ġein ge
ĠDeutsch en
Ġwh ile
ĠR ad
Ġ200 3
ĠB ahn
hel m
ĠA uch
Ġc ustom
en der
Ġl ong
A b
as ter
Ã¤ us
b um
ĠS ohn
Ġdeutsch e
i den
fahr en
od y
Ġ200 1
Ġp ost
ĠD aten
Ġre t
out h
Ġe ach
e y
ol v
Ġth ink
ed er
Ġ200 2
Ġin ternational
an ad
az u
u ally
es ent
ĠP at
rit ten
Ġre l
Ġ u
Ġwe ek
schl uss
Ġbeg ann
Ġth ose
b in
ĠM ot
ĠFran z
Ġch ild
ĠB ra
Ġ Ð
Ġc olle
E in
p art
ĠSt and
Ġto p
omm t
Ġag ain
Ġ :
a ar
Ġg l
ur m
Ġ199 0
ĠB re
Ġsh ow
it Ã¤
Ġ =
ĠE m
Ġzun Ã¤chst
k ommen
ĠW ei
lo ck
Ġav ail
en det
ĠH ans
ru e
Ã¶r der
ĠK reis
ĠZ usammen
ĠRe p
r ib
c ial
Ġt rans
Ġs er
Ã¶ sterreich
ĠM od
ut ter
4 5
a el
our n
ĠF est
Ġ18 6
Ġs ite
er st
e ct
ĠEn g
Ġ2 6
ĠFamil ie
Ġb as
itt le
Ġd id
ĠW ohn
ar z
Ġl o
re ad
sch rift
ich ten
Ġfo und
k m
Ġ2 8
um e
iz ed
Ġc le
E x
it ter
w ays
Ġ ...
ear ch
ĠGe w
glie der
N e
ĠB i
Ġc are
Ġ2 7
< /
d ings
f ilm
Ġeben falls
ĠLand kreis
o ks
er ts
ĠB el
Ġco unt
n a
ĠIn ternational
mÃ¤ ÃŁ
ran k
ho de
Ġer r
Ġge mein
Ġden en
ĠW ahl
ĠS up
re ch
sch ied
ck t
c a
Ġf and
ĠB en
ĠT itel
we en
Ġserv ice
ing le
nd ern
s w
ĠGen eral
ĠN ame
ĠGe gen
ĠL ondon
M e
g ie
om mer
Ġ *
Ġb il
Ġl ove
Ġm od
Ġdo es
ist s
ĠP la
ĠM ain
ĠCo unt
ĠD re
Ã¤n ge
Ġwor den
r i
I t
F or
rÃ¤ ger
stit ut
z iel
Ġr est
Ã¶l ker
c on
Ġs tell
ĠBere ich
e te
ĠO st
an a
F uÃŁball
an e
ĠB Ã¼
ĠL eben
ĠP ort
pl ic
2 3
Ġre ally
f ort
ĠVol ks
Ġg est
ĠSch rif
Ġpla ce
gl isch
ĠTe chn
ĠK n
h Ã¤lt
ĠPar is
Ġp ass
Ġgew ann
Ġs l
19 8
Ġs ign
t he
Ġf un
P D
Ã¼ ss
z og
Ġso ndern
Ġh im
Ġc our
Ġs et
am a
ĠÃĸ sterreich
Ġdiffer ent
rip t
ess e
ĠJu gend
Ġn or
Ġ20 20
ard s
Ã¤ uf
Ġand ere
nis se
m us
is se
ra um
ĠO lymp
st r
st re
Ġne u
le it
im al
Ġh al
il der
ĠS eit
Ã¼nst ler
Ġm ov
amp f
r ic
Ġk ein
Ġver l
Ġavail able
ch es
h af
Ġje weil
y ch
sch w
I I
ĠL ie
iv id
te i
rÃ¼ n
ĠFra uen
Ġph ot
Ġf ollow
y d
Ġd u
i as
st off
amerikan ischer
h ung
o de
Ã¤ h
ire d
Ġbet ween
Ġh istor
fÃ¼hr ung
en ter
7 0
ik t
h a
al y
it ions
ĠD orf
et te
ann ten
ĠS eite
k ten
Ġz ahl
ĠH el
ĠPe ter
p os
is hed
Ġn umber
ord s
ĠC ol
Ġpro cess
re chen
ge d
ne y
Ġfr iend
f urt
Ġab s
ĠJ ose
Ġander em
ĠB ut
lich keit
ĠSp ort
Ġc lass
ĠB Ã¼rger
ro om
n ess
ang el
Ġt er
Ġp os
le i
iet y
y pe
as st
af fen
pl atz
ĠK ont
ten s
Ġv ar
Ġver Ã¶ffentlich
Ġmark et
gen ommen
ĠS il
E R
ur en
Ã¤nd e
D R
ap t
ĠM y
ĠD em
Ġdar auf
Ġst ill
ĠP ark
ĠT er
Ġ199 9
min ister
igh ts
ĠKir chen
Ġst r
Ġb oth
j Ã¤hr
C h
s c
on nen
ĠM or
ĠE v
j ahr
ĠPro fess
Ġinclud ing
ges etzt
Ġpro fess
bild ung
Ġsch ool
i am
E n
ck er
ent en
Ġst art
s am
ĠC or
Ġ2 9
2 4
ot he
Sie he
il ome
U S
Ġ199 8
or ge
ĠHe im
ĠRe chts
Ġ(âĢ ł
Ġus ing
Ġa uÃŁer
ĠH ar
ond ere
sel f
Ġb re
Ġmon th
z ig
ver n
- -
Ġl and
w ork
ĠP re
ĠSta ats
Ġat t
Ġn un
ĠK om
Ġad v
Ġfamil y
ĠT or
Ġexper ience
Ġhe alth
Ġcomp any
ĠM art
Ġbu ild
tra gen
ass e
I N
Ġro om
m et
Ġch ar
e hen
Ġr und
ap pen
Ġf ast
Ġdies en
al es
Ã¼ h
ĠD on
um en
ief ert
den s
gr amm
e ver
Ġh abe
ĠB urg
ĠD av
st ru
en nen
Ġbe zeichnet
Ġw icht
ĠR ich
Ġa ut
ess er
Ġv iele
Ġserv ices
Ġletz ten
ĠSch auspieler
Ġent wick
ll en
ĠW ar
Ġc al
cc ess
Ġb ook
w ei
4 8
Ġfin den
us ch
b y
w issenschaft
rÃ¤ gt
haus en
ourn al
b el
iz iel
ell er
Ġ '
ge ord
Ġt rat
g aben
Ġsm all
g ar
g ung
oc i
Ġnah m
Ġfe w
ĠB ro
Ġim port
ir l
Ġer halten
ĠAl t
fol ge
Ġsup port
Ġst ra
Ġn eben
ĠSta aten
Ġm uss
Ġsoll te
ĠWil helm
a uch
Ġein ige
A uf
z entr
Ġo pen
cept ion
Ġp at
ĠFol ge
Ġspiel te
teil ung
Ġ <
w as
ĠReg ion
c i
oll en
Ġfor m
Ġd uring
nah m
d ienst
Ġst ark
19 3
Ġersch ien
Ġm ember
ĠH il
om at
ĠJahr es
av ing
ĠP al
se e
uÃŁ en
ĠC ont
enn t
2 6
Ġf ull
Ġth ree
b et
ĠC om
ct ions
Ġp op
Ġ198 0
Ġ4 0
ĠN o
oss ible
tell ung
el te
Ġwel che
H rsg
alt ung
ais er
ĠK ultur
ĠT ag
Ġpro m
Ġapp ro
ff en
tern et
Ġte am
nah men
ĠGe org
ĠS erv
2 8
at ter
om as
ĠFor sch
us h
ĠS he
s icht
la v
ies en
Ġ199 6
an ten
Ġg ing
ĠGrÃ¼ nd
ograph ie
.) :
de te
ĠThe y
ĠHer r
ap er
Ġgo ing
Ġcomp le
ĠD a
Ġor der
Deutsch er
Ġerfol g
m m
ei den
h am
iv al
z t
ĠF ach
uch s
ĠT our
op e
ĠW ir
Ġg ut
Ġm Ã¶glich
Ġs ame
de utsch
ĠgehÃ¶r t
Ġv iew
Ġle arn
o le
ges amt
l ess
Ã¤ re
ar ly
im mer
ĠAn fang
ĠHein rich
op f
9 0
Ġd i
ĠC al
w or
ub e
imm t
den k
Ġpr iv
et en
ĠFra u
ar l
Ġ199 7
la u
Ġ194 5
Ã¼ b
2 7
Ġl ittle
Ġih rem
ĠgehÃ¶r te
v Ã¶lker
ĠgroÃŁ e
ber eich
t r
ĠUS A
Ġk ommt
Ġlook ing
Ġincl ude
kl Ã¤r
Ġb ro
Ġb ring
Ġ18 5
ilit Ã¤r
Ġb rit
Ġzahl reich
lass en
um p
Ġare a
g eschichte
Ġin ner
Ð ¾
Ġ â
Ġd et
Ġfe el
or ts
ol ution
Ġper form
I D
o ver
ĠF o
an zen
Ġke ep
Ġse x
Ġspec ial
Ġakt u
Ġw rit
ĠBe g
ĠFamil ien
ab el
ĠT em
Ġerst mals
och en
Ġc or
ĠHam burg
ĠWelt krieg
i at
n ungen
ur y
ĠMich ael
k on
uf f
ĠgroÃŁ en
ĠR uss
Ã ¨
Ġge grÃ¼ndet
Ġpart ic
ten d
Ġkl ein
Ġc ond
z el
Ġein fach
ĠH ier
Ġb ig
g o
ĠJ o
ĠIn s
ĠN ot
ĠD u
it es
Ġal ways
ograf ie
ĠA lex
rÃ¤ n
f ts
Ġ197 0
Ġch o
wer b
es te
Ġper fe
ur o
w ort
ĠA ir
z ogen
um b
Ġtra d
ol oge
Ġ199 4
ĠG old
th ing
l Ã¤nd
Ġdis c
Ã¤ mp
st Ã¼tz
ic ally
P erson
Ġf ac
Ġ199 2
an te
w est
m ut
ĠEr z
Ġw ater
ind ung
Ġqual ity
ver ein
ig ital
ĠMa x
Mit glied
icht ung
ost er
Ġc los
sp r
Ġzw eiten
ne te
ro s
Ġvis it
Ġc urr
sch ein
19 7
ilome ter
on es
ĠR ah
l ang
y er
Ġst ate
ar a
Ġan t
ap e
2 9
Ã¤ ft
ĠS ol
Ġsch lieÃŁ
ĠJahrhund erts
19 6
ĠB ern
en a
Ã¤ che
ĠCount y
il es
Ġto o
Ġm en
Ġauf ge
le hrer
ĠK Ã¼
s st
Ġto day
Ġb ie
4 9
ond ers
s ych
ch te
u h
ĠL ud
ĠAmer ican
ĠProv inz
Ġmehr ere
3 5
Ġth ings
id s
Ġ199 3
Ġer ne
in ner
ĠEr n
Ð °
Ġpro ble
ĠGra f
Ġg ar
utz t
ĠC ity
Ġsein es
Ġw est
ate gor
ĠB ad
Ġor gan
ĠH ow
och ter
Ġcom e
H e
B er
Ġg row
ĠC olle
ĠG ott
ail s
Ġwe gen
19 0
it u
ĠB ischof
Ġg anz
b ed
Ġ199 5
ig a
w elt
ĠR ed
ĠTh ere
ra cht
Ġg roup
ĠEin satz
igkeit en
ier ungs
b aut
v es
h ip
Ġo per
Ġbel ie
Ġbe h
heit en
Ġher aus
j oy
Ġw ei
ĠSch n
ĠD ire
Ã¶ t
Ġbeste ht
Ġk on
Ġex c
zeich nung
ĠB esch
) :
w ar
is iert
d ie
ĠW ebsite
if iz
Ġp ower
sp rÃ¼n
ra che
Ġn ational
Ġhat ten
A d
ĠChrist ian
for d
Ġt yp
ĠH istor
hn en
ĠEin wohner
Ġin t
Ġacc ess
le tz
Ġg ot
Ġg ame
our s
g art
st ag
ĠB rÃ¼
ĠWor ld
Ġv oll
ts teller
Ġ est
lie b
Ġs ay
Ġob ject
Ġme et
== ==
at iv
ĠGr uppe
Ġres p
b ack
Ã¤t ze
Ġ Ã¶sterreich
Ġ199 1
ĠTe am
amm lung
ĠW olf
at ten
ĠP ap
re as
ab r
Ġs ince
ir on
Ġab le
j a
ĠA uss
ĠF ot
ver t
entr al
ĠLei p
az z
ĠTe xt
Ġd azu
uch te
ĠVer walt
Ġs ure
Ġwith out
ĠArch ite
ĠK at
ĠA ustr
ĠM ay
ĠR ei
Ġverw endet
ĠS ystem
G ibt
F ilm
= "
bur ger
ĠSp ieler
ĠR aum
Ġ196 0
S p
im a
Ġcont in
Ġbe aut
ĠSt utt
i ents
Ġst yle
ĠFl ug
ĠfÃ¼hr te
Ġind ivid
Ġd ata
il la
ĠF eld
Ã¶r d
D ies
Ġd re
gr uppe
Ġm ind
eth ing
d ruck
ĠHe il
e e
ĠEr st
ĠS eiten
Ġc r
Ã¶ h
m ark
Ġhe ut
ĠA p
ik en
Ġaller dings
ĠM Ã¤n
Ġun ser
Ġl ot
d o
ĠH of
one y
ĠH a
Ġre ce
h Ã¤ng
Ġge m
Ġt Ã¤t
Ġw ebsite
Ġst or
sk i
Ġsch n
am b
ĠNe u
ĠRah men
Ġo pp
Ġre p
ĠSch ool
Ġh ard
omm and
os en
ĠF er
. âĢĿ
/ /
z irk
Ġis s
Ġk urz
AAAAAAAA AAAAAAAA
gr iff
unk te
ĠN eben
A N
ser ie
Ġgen annt
ĠBet rieb
ĠL auf
tre ten
Ġt ry
on y
ĠIn formation
Ġe qu
k irche
w and
Ã¶r per
ĠR ober
ĠS en
4 4
ganis ation
9 9
f el
il y
ib li
Ġle t
ĠQ ual
Ġge ht
A S
ain s
ĠA g
um m
ent al
Ġc ost
Ġ3 1
ĠS m
Ã ĸ
Ġg ive
ze pt
Ġval ue
ĠG ed
Ġn ame
ers Ã¶n
la us
Ġd ah
Ġgen er
on ist
ĠZ e
ĠK o
ĠD is
ier s
Ġet was
ĠTh omas
Ã¼ gel
ĠS a
Ġwe chsel
ĠSp e
ĠS Ã¼
pe ct
schlieÃŁ end
Ġt ro
ĠE nd
ĠD ort
atur es
Ġev ent
. âĢľ
os oph
Ġqu est
ĠT ochter
ĠFrank reich
ur f
ĠN r
Ġm ust
Å į
Ġho use
Ġarbeit ete
Ġ20 21
Ġwith in
ent ial
Un ivers
Ġall en
sh ip
ĠB ed
ĠK Ã¶l
Ġse chs
ĠZ ahl
Ġimport ant
her r
we is
ach en
ĠO l
ft ware
Ġsec ond
Ġloc al
l ungen
Ġbet ter
A T
ĠV al
Ġ198 9
: //
Ġc a
ir m
gan gen
st a
irt schafts
ĠSte in
Ġh ol
g al
for der
I f
ĠS outh
reib ung
ĠB rand
f re
Ġp ay
ka dem
schn itt
Ġinv est
ĠSchwei zer
Ġl ight
B ei
um an
Ġg ele
la ub
ĠE he
und s
co unt
3 3
ist ory
Ġk omp
ĠAm t
pl oy
ĠGeb Ã¤ude
gen den
Ġsom ething
Ġd av
Ġeas y
Ġmus ic
ill s
ĠZ iel
Ġne xt
ĠLud wig
ĠH ann
fol g
Ġstud ierte
ch ten
ĠZ ug
Ġprodu cts
ob ei
ĠP reis
Ġh inter
in c
if ul
Ġl ist
bes ondere
gemein de
Ġm et
Ġcon c
Ġd ays
heit s
Ġverschieden en
hl en
ĠV ater
Ġweiter en
Ġf act
Ã¤ ss
Ġn ieder
4 7
der s
Ġwork ing
o x
Ġle ad
ĠMit te
4 6
Ġs etz
ĠGeb iet
L iefert
Ġste hen
ver b
ĠRom an
Ġa ff
! !
19 5
ĠK aiser
Ã¼s sen
ĠP o
Ġ18 0
ĠS im
ĠW ith
ĠStutt gart
ĠSe e
ĠNor th
ĠSchrif tsteller
n ame
ĠT ro
un ft
ĠP ost
pro du
and s
Ġch ange
rÃ¤s ent
ĠMe ter
Ġerfolg reich
ig inal
w irtschaft
ĠF C
f il
Ġd och
ein ander
em s
Ġhe ad
Ã¤ m
ig ent
Ġp ict
Al s
if ik
Ġb ra
Ġres earch
ĠProfess or
ĠtÃ¤t ig
Ġsh ort
Ġk m
ĠW inter
tell en
ge geben
Ġ198 8
en glisch
Ġl assen
Ð µ
Ã¶glich keit
ĠSch m
ĠE p
ĠEnt wicklung
if ied
Ġpubl ic
ĠI hre
ĠM useum
Ġm ain
ĠW ald
3 6
m b
Ġstud ents
E S
Ġa ir
z y
ist ischen
Ġex ist
rÃ¤ ge
Ġjeweil s
Ġco ver
" ,
ĠS itz
c ript
ĠStra ÃŁe
ĠM c
O N
ĠD ienst
Ġbe w
ĠThe ater
w h
ĠD en
a he
l am
ĠEurop a
ĠW al
est s
ĠK e
ĠLeip zig
Ġpl an
ĠOb jekt
he mat
ĠG ar
Ġt urn
ab l
Ġperson al
we hr
Ġb ele
ra y
Ġw obei
it te
ĠBe ispiel
Ġpro te
ĠZw eiten
Ġs ele
op s
ge f
Ġadd ition
ĠW ind
ĠfÃ¼hr t
ĠS oc
ge ber
ort un
Ġo ld
i os
G r
ĠL uft
Ġpra ct
O b
h end
Ġmus ste
iv ed
ĠL ang
st Ã¼ck
ut es
iv ision
Ġ x
Ġc ert
E s
in i
ĠS ommer
ure d
Ġfolgen den
sch er
Ġof t
Ġen joy
Ġw Ã¼r
ĠB rit
t ing
ĠA ward
gen de
v ille
Ġchild ren
ĠSt at
Ġs af
ar te
ĠW o
geb aut
3 7
al ten
ĠFrank furt
Ġk ommen
ĠSt ring
ĠU nd
Ġt rue
p end
ĠHÃ¶ he
ĠâĢ ¦
ge ther
8 9
Ġw omen
ĠP rÃ¤sident
ĠS ein
ĠR el
z ess
Ġm ight
st Ã¤t
le ben
Ġj ob
s weise
t il
Ġl Ã¤
ĠUn ited
teil t
Ð ¸
ĠE isen
ĠR hein
ĠO p
lich es
Ġm ax
ĠF all
en g
ĠS eine
ic le
FuÃŁball spieler
Ġl ink
Ġl aw
ĠRe c
wa gen
y ing
g round
lig a
ĠPl an
Ġg rÃ¼
ĠBes itz
Ġap plic
Ġ6 0
Ġprogr am
att ung
ĠâĢ ĺ
ĠMal er
ĠL iteratur
Ġfo od
Ġh och
th ers
ĠFuÃŁball spieler
ĠT re
ĠWe g
ach e
p ly
ĠF ar
ĠK ol
Ġd ating
ĠReg ie
ĠU l
ĠE ner
ik el
ĠH ome
E igen
u el
ĠK ant
Ġg ilt
iz ation
nde te
ĠSch iff
Ġpro ject
ĠKl ein
Ġn Ã¶rd
W h
Ġw id
Ġ195 0
ach er
Ġeigen en
Ġan other
ĠK ommun
j et
w ald
d a
ĠD i
Ġm aking
Ġ198 6
F ernseh
Ġt re
Ġit alien
ĠD abei
ã ģ
Ġer n
Ġperfe ct
im men
Ġl arge
ĠMart in
as k
Ġ198 7
ĠSo zial
8 6
im ent
id ge
M ar
ut s
Ġwe il
ĠJ apan
iz in
p rÃ¤
ig ur
it or
ing ton
Ġche ck
Ġd an
Un ter
Ġact iv
Ġre view
Ġne ver
g ten
' m
ĠGes ellschaft
ĠA kt
ĠM ont
b ank
ĠC omm
o ten
Ġerfol gte
ran sport
ĠO ur
ĠP ra
ĠâĢ Ķ
ĠMann schaft
ber ger
4 3
i ol
ĠI hr
ab or
Ġc all
ĠF il
ĠW Ã¤hrend
us Ã¤tz
ĠE is
oc us
ie gel
ĠU hr
Ġm ult
gr ess
o in
ĠS am
7 5
t y
ab ility
ok ument
ĠLe ist
Ġsu ccess
sch eid
ult ure
Ġs w
Ġ197 2
schul lehrer
Ġinner halb
ĠB ur
ag ue
ĠOlymp ischen
Y ou
Ġp age
Ġim pro
Ġm ir
ĠB ru
an ien
Ġde fin
Ġneed s
richt ung
Ġcons ider
Ġm al
Ġc reat
ĠMar ia
Ġm ar
ĠDav id
O R
b ei
f o
ul ation
ĠEr w
ein t
E N
ĠF unktion
issen schaften
A s
un ch
Ġdav on
arbeit er
e x
Ċ Ġ
ĠSch loss
Ġb ased
tel s
ĠW eiter
it ive
ĠB ank
ĠG el
ra u
a ÃŁ
ĠEin zel
Ġcon f
ĠF rÃ¼
Ġl ess
in ks
ĠMin ister
9 5
ĠH en
am mer
Ġ198 4
ĠTe x
Ġ198 5
A R
uch e
ĠE uro
Ġins gesamt
f le
it i
zeit ig
ĠK Ã¼nstler
ĠC as
Ġl ive
il nehmer
Ġauf grund
Ġur sprÃ¼n
f it
row s
ill ion
ĠPf arr
ĠP ass
S o
ok rat
ĠÃ¼ber nahm
Ġcommun ity
ĠF ernseh
ĠHer zog
Ġgeb oren
is ing
Ġal ong
ĠRober t
lich t
Ġ ident
ĠDeutsch e
Ġprodu ct
Ġ }
. "
ĠK ilometer
Å ¡
Ġver fÃ¼
op er
b te
Ġv ideo
ibli othe
st ieg
ĠK reuz
ĠL ou
ĠR u
te gr
Ġerreich te
ĠM os
ĠJ ust
Ġwechsel te
ian s
v iron
ĠEr geb
8 8
Ã¤ fts
ĠF rei
ver band
ei le
te chn
Ġz we
ob il
ĠMet hode
if en
ett be
Ġm ag
Ġto gether
ĠAn gel
Ġc ap
ul ts
w ie
ĠF ir
ĠSt r
f red
ord ing
Ġwor ks
c le
p iele
Ġf lo
rei ben
m on
Ġex p
ĠNor den
ĠStra ÃŁen
uch en
Ġv ol
Ġn ord
ust ry
Ġse arch
f an
wend ung
Ġme ist
Ġ198 3
l ungs
Ġse ver
ĠHol z
Ġtrad ition
ĠH igh
i ber
Ġde v
Ġo ber
ĠKÃ¶l n
Ġcont rol
Ġgew Ã¤hlt
Ġa uth
ĠO t
ĠEurop e
af Ã¼r
Ġs ingle
Ġ198 2
eit ung
ĠBe vÃ¶lker
ĠIt alien
Ġb lieb
ĠT yp
ĠAl ter
Ġden n
ĠMill ionen
P h
Ġmach en
Ġn atur
ĠDes ign
ĠS l
Ġas k
on a
ch an
ĠMar kt
Ġfin det
ĠM er
ĠHeim at
Ġp ort
Ġ197 9
ill er
Ġr un
id ing
ĠschlieÃŁ lich
Ġen gl
Ã¼r z
rif ten
ĠAut or
i ate
ĠSup er
I S
ĠR ang
ar ing
ĠD am
Ġgel ang
3 9
Ġbeaut iful
ĠS w
Ġcon ne
Ġp ut
Ġp ast
ra b
Ġap pe
ĠOn line
' re
Ġein mal
Ġunter schied
t es
ĠD enk
ĠIn ternet
w Ã¤r
Ġl ine
A C
ĠSta at
s etzt
all er
c ing
is ierung
Ġpro pert
Ġin sp
fl uss
Ġl ange
Ġse hen
und er
Ġ( )
, âĢĿ
Ġa way
Ġ197 4
om an
ĠBay ern
os p
ĠCh ina
8 5
Ġme isten
ĠCar l
Ġt em
Ġcour se
Ã¤ ll
4 2
b Ã¼
Ġkonn ten
ern er
ĠBeg inn
Ġc ity
ĠR olle
ĠA pp
mann schaft
setz ung
Ġ197 8
ĠA fr
ĠAn ton
deut ung
en burg
ĠRe gel
al le
ĠO per
Ã¶st lich
ĠJ ournal
geben en
ĠM utter
Ġ196 8
it ing
gele gt
Ex ception
sche ch
is ed
Ġf ile
ĠB is
Ã¶r t
ru ct
f est
O n
ĠS icher
ĠV ier
Ã¤r en
Ġ198 1
ĠC r
am ens
Ġk ind
fer ence
Ġbes onders
3 2
ĠM il
zeich nungen
Ġunder stand
b est
ip l
ru ktur
Ġinter est
ĠW ieder
Ġges am
Univers itÃ¤t
Eigen schaft
ĠGer man
Ġerne ut
Ġh Ã¤uf
ĠVert rag
Ġof fen
ĠSt ate
Ġgegen Ã¼ber
Ġdevelop ment
f ert
Ġre du
Ġcre ate
Ġle ben
ĠRe v
Ġoff ers
mb H
Ġzw eite
z Ã¼
is on
ir chen
d ing
ĠS and
ab ly
ium s
Ġbel ow
Ġ197 5
Ġb ar
ĠM ad
Or t
4 1
ak ter
Ġeff ect
Ġ197 1
m el
ran ken
ĠII I
be k
ĠReg ierung
g lichen
en zen
and id
ver kehr
opp el
W elt
Ġl ov
Ġfor t
6 5
3 1
Ġ {@
Ġn et
al og
ĠPar tei
ĠA kadem
Ġt reat
ĠR ichtung
te ile
ic o
Ð ½
erk e
Ġ )
Ġ Ã¶ff
fahr t
ĠIn n
' ve
Ġmo der
ue ck
lÃ¤ uf
ĠK ur
Ġs ide
g ing
Ġerr ichtet
g a
Ġins besondere
Ġfollow ing
Ġh tt
Ġre la
ob ile
ĠLe hr
ĠA uÃŁer
eth od
Ġf our
Ġviel en
ich ter
Ġn ahe
Ã¼r t
Ġde ut
Ġh aving
Ġagain st
Ñ Ģ
ĠDies er
ĠK lasse
ail le
red it
z a
ĠArbeit s
c er
ĠR est
ĠL o
Ġb ody
Ġent fern
Ġg irl
Ġed uc
ĠK al
Ġbest and
p reis
if orn
it ten
Ġn ight
ĠH or
Ġan s
Re g
olit ik
ĠJose ph
Ã¤us er
L and
Ġver st
ĠJohann es
Ġf av
B au
Ġm aterial
Ġdire kt
Ġun til
E D
J ahr
ĠAm ts
Ġbis her
land s
Ġ196 9
Ġze hn
ent ion
Ġof ten
ar ian
ĠS ong
ĠĠĠĠ ĠĠĠĠ
id ay
ĠP ubl
ĠPro ble
Ġf ocus
ĠSch ule
Ġex pl
ĠW hen
ĠC D
ĠM iss
anst alt
ĠBer uf
ĠPro jekt
Ġen ter
ĠH inter
Ã¼t zen
P l
3 8
ist ik
ĠIn stitut
ok al
Ġopp ortun
ĠSÃ¼ den
ĠB eit
Ġre le
con om
h Ã¶
Ġp ot
ĠI r
Ã¼ ler
le ist
ĠI ch
Ġfe atures
ĠPr iv
ur ity
ger ufen
Ġr uss
ĠChe m
Ġw eb
ĠB or
Ġst amm
viron ment
i j
ĠT urn
Ġein gesetzt
D F
ĠI de
ĠTh ese
ĠZw ischen
Ġp lease
St and
Ġverschieden e
Ã¼ ter
af en
itÃ¤ ts
k o
de ck
Ġdown load
ĠAl bum
ord in
ĠPr ess
an o
V on
Ġ197 3
ym n
b rÃ¼
c el
Ġle d
- ,
Ġm oney
mal e
en ze
Ġver kauf
ak en
as es
ĠR ock
Ġz eit
ĠN utz
Ġke y
Ġfolgen der
et ter
Ġd ra
ĠW esten
Ġso cial
je kte
ak er
ĠH all
Ġwh y
ĠSt Ã¤d
h or
om b
Ġp ossible
ĠIn sel
ĠColle ge
ge gen
h an
ĠG mbH
ĠVor s
ges etz
ĠSchwei z
7 6
ol a
Ġn Ã¤ch
Ġ ir
Ġkl eine
Ġall ow
Ġ197 6
ktion en
ĠErn st
ot or
ib r
s ide
ho cke
ĠV e
Ġto t
ĠJ ur
if fe
ĠZ eich
Ġ +
Ġ Ã¤
Q u
S eit
ĠK ind
ĠO ne
Ver ein
Ġw all
d in
ze uge
an ks
Ġ ess
Ġeinz el
5 5
ĠBe deutung
ist ische
Ġcount ry
ĠT V
ĠD DR
Ġv an
an ze
amp le
Ġm ein
Ġp ack
ĠO sten
ĠKrieg s
Ġd ist
k an
ĠD res
Ġind ustry
ĠZ ur
um er
Ġbeg inn
vern ment
18 9
ĠFl or
aff el
a un
l as
it en
F Ã¼r
o is
s burg
ĠSt Ã¼ck
Ġac ross
t ain
ges ellschaft
ĠT age
Ġgemein sam
Ġm ich
Ġer m
Ġn on
ĠAl b
Ġpr es
it ze
ĠT al
ann e
Ġf ilm
Ġsch wer
O S
ĠAn zahl
il en
at Ã¼r
ĠSt ar
ck s
ĠVerein igten
ĠG ast
ĠSch utz
Ġar ch
Ġcle an
Ġh erv
Ã¶s ung
ĠS yn
f s
A L
Ġr ange
row n
ĠGes amt
it chen
Ġm Ã¼ssen
Ġdel iver
m o
ĠT rans
asch inen
v ed
Ġhin aus
al z
Ġh app
Ġyo ung
h aupt
Ġsow ohl
ĠRich ard
Ġw he
Ġan geb
og le
ĠEng land
iziel le
un c
ĠHo use
Ġze igt
ĠS ub
ĠS achsen
ĠB lack
ag s
ust rie
id d
ĠVerwalt ungs
Ġs og
ĠK or
Ġpr ice
stell en
Ġ196 4
. :
f ried
ĠF Ã¼hr
Ġe ver
ĠVer kehr
Ġlie ÃŁ
Ġ196 7
Ġt imes
Ã §
Ġm aj
Ġm akes
rit te
ĠfrÃ¼ her
ĠP osition
Ġvor hand
ag o
Ġcom es
Ġem ploy
z ir
ĠReich s
y e
Ġsie he
Ġk ur
unn ing
on en
Ġb rand
7 7
I C
sp e
Ġal ten
je cts
ĠE ing
Ġ ung
f asst
Ġ3 5
ol den
Ġkl einen
ĠW irtschafts
ĠBo den
Deutsch land
zie h
Ġ196 5
ĠB aum
Ġto ol
I T
at te
Ġehemal igen
ĠMot or
ichte te
Ġ8 0
A P
k i
ĠAuf lage
arbeit en
Ġdire ct
ĠE hren
Ġa cht
ut ions
ĠPro zent
ĠfranzÃ¶s ischen
ĠverÃ¶ffentlich t
Ġcal led
ĠK urz
ĠSt art
ord nung
ĠR ein
zeich en
Ġdar unter
Ġb ene
ien s
ag n
ro ll
ir g
ĠEn gl
Ġele ct
ĠT op
Ġ197 7
rach te
g Ã¤n
Ġ ens
ab hÃ¤ng
fÃ¼hr er
meister schaft
itÃ¤ ten
Ġr Ã¶m
re icht
Ġsever al
ĠPh ys
o o
ĠS u
ĠR ot
uf act
Ġle vel
Ġpr esent
Ġcont act
Ġd ien
Ġbec ome
* *
Ġh Ã¶ch
p re
r ist
am in
ĠL es
Ġex tra
Ġqu ick
ĠGesch Ã¤fts
Ġspec ific
ĠS aint
3 4
Ġin n
ĠE t
anad a
Ã¤ ischen
Ġf ar
au en
co ver
Ġcomp an
v al
Ġprov ides
Ġo cc
E ine
Ñ Ĥ
sp rach
sch lag
geb Ã¤ude
ĠH in
Ã¤ch lich
ĠR und
Ġ Å
ar en
ĠT ur
Ġdan ach
Ġst re
Ġm om
Ġc ase
Ġse ason
Ġth ough
V or
ĠPro gramm
ĠOrts teil
H och
Ġso zial
ob al
M us
Ġh inz
Ġver t
me e
Ġsh are
tem berg
Ġoff ic
k ap
Ġl ag
g ent
ch ter
ĠG od
ĠMe hr
ict ion
Ġz usÃ¤tz
Ġd afÃ¼r
hr te
Ġs ize
ung sp
wo hl
ĠMÃ¤n ner
il s
ĠM ore
c is
l ad
ĠG Ã¶
Ġheut igen
c ent
Ġan n
v ious
Aus wahl
Ġo p
Ġc amp
Ġz og
Ġst arb
ĠGemein den
ĠD el
ic ro
ĠKl oster
w eit
ĠS elbst
Ġst ory
Ġbe vor
Ġth ing
ĠS ant
Ġhand elt
g n
it ch
Ġt est
ĠStud ien
Ã¼r k
Ġget ting
ĠRep ublik
Ġet c
ibliothe k
te id
ĠZ we
ĠlÃ¤ sst
ĠJ ames
id a
gesch lossen
ĠI l
âĢľ )
Ġme ans
ĠSe c
k n
Ġkn own
br uch
Ġdah er
Ġpo int
v oll
ich en
ĠZ Ã¼r
ilit ies
Ġentstand en
ĠR os
ian a
re w
ĠG i
ĠCl ub
ul a
r ies
i ÃŁ
hocke y
ro du
ĠW eb
Ġzur ueck
ut ure
ĠW ie
Ã¶ ÃŁe
Ġzahlreich e
og n
Ġ193 3
ĠKar r
wo od
read y
kt r
Ġdam als
Ġ9 0
Ġl ow
rich ten
Ġmember s
Ġso gen
Ġinst all
ĠZ entr
ĠF el
Ġstar ted
ĠD istr
ĠW ochen
Ġer klÃ¤r
Ġle ft
Ġh om
pla y
part ment
v an
mÃ¤ÃŁ ig
Ġco up
h ang
ĠM el
Ġihn en
Ġbeste hen
isse ur
Ġw ind
i od
ĠP et
sch eiden
up p
ac y
ispiel sweise
ĠDre h
g g
ĠM ilitÃ¤r
ic ks
ĠC enter
stell t
H er
Ġ Ã¤hn
ĠH ers
eit ere
Ġsp ace
ur ance
ik on
Ġ196 3
Ġ193 8
Ġprofess ional
Ġmaj or
Ġn ie
sch iff
Ġ196 6
Ġwo hl
ut or
Ġres ult
d es
ĠGen er
werk e
Ġsie ben
weg ung
ic y
Ġbie tet
Ã¤ chen
Ġwel ches
ĠGe orge
Ġph ys
Ġdesign ed
' ll
ĠN Ã¤
ap s
r or
or den
av en
th rows
ĠEr d
ĠE igen
ab in
ĠAkadem ie
n am
Ġd one
ĠTh at
ĠSal z
Ġl og
ĠAuÃŁer dem
Ġ193 0
ikan ischen
ell ing
al tet
A mer
Ã¤d ag
ĠMat hemat
Ġ193 9
led ge
Ġbl og
Ġen er
itz t
ĠR ud
ĠIn stit
Ñ ģ
Ġ7 0
ettbe werb
ge fÃ¼hrt
Ġfriend s
b ung
ĠgehÃ¶r en
em ents
Ġ19 20
ĠSch wer
ĠHo tel
Ġb lack
ĠhÃ¤uf ig
ik al
ĠD om
ĠDe c
ast ic
ell s
Ġjed er
auf en
ier ungen
Ġ196 2
Ġb it
ĠK re
u a
re ibt
os sen
E M
ĠK rit
Ġzu dem
Ġzu vor
geb ie
ra el
ĠAss oci
ĠR oy
Ġser ies
te xt
ute t
ĠMit glieder
z i
ĠB y
ĠW ein
.. ..
in ts
Ġ( =
ame ister
ĠFl uss
n ach
at ers
Ð¾ Ð
ĠB ach
ĠAn n
Ġletz te
ĠSie d
v est
z us
ĠT ab
Ġte xt
bar en
arr iere
Ġim p
Ġfol gte
Ġbuild ing
at um
Ġeigen e
Ġide as
ĠZ um
Ġzw ar
Ġt alk
ĠM Ã¶glichkeit
ĠRei he
Ġ(âĢ ŀ
fl Ã¤che
b ol
ĠkÃ¶n n
ĠHal b
Ġrequ ire
on ne
Ġmo dern
" .
w esen
Ġbu y
B C
Ġw ahr
Ġw oll
Ġbe de
Ġ196 1
s eite
par te
ant wort
ĠBerlin er
ĠK an
Ġ194 4
ĠEr folg
8 7
or m
Ġ194 0
ĠK le
ish ing
Ġsoll en
ĠInformation en
la w
Ġvorhand en
t ler
ang es
Ġw atch
Ġgen utzt
cript ion
ĠP rem
un sch
Ġbefin den
ĠIn nen
as il
g re
s uch
Ġd eb
ĠServ ice
Ġret urn
ĠLe ague
es tern
rie f
b ro
ĠB ot
ĠHer mann
eh men
es ted
Ġre gel
b ten
ĠD ruck
Ġwen ig
ang er
ift ung
Ġchar ac
in ge
Ġal ready
em in
Ġschn ell
geb ung
Ġun ique
Ġsup er
Ġcol or
6 6
Ġs en
Ã¼h le
Ġf al
ĠWh at
ĠGr uppen
ĠKarr iere
o int
im s
Ġl iving
ĠKomp onist
ĠK ategor
ĠPhil osoph
G em
rit z
o unt
ĠW enn
och e
Ġlie gen
Ġp ie
ymn as
k r
Å Ĥ
Dies e
ĠAuf trag
Ġw a
ĠJ azz
F l
Ġ195 8
te g
ĠE mp
Ġl im
ing t
Ġgef unden
Ġt ype
ĠF ort
ĠOt to
ern en
un e
Ġp ur
Ã¼r d
itz er
al ys
âĢ Ķ
Ġfr ont
esten s
ĠP an
Ġ195 6
Ġ195 9
Ġtechn ology
k el
ub le
Ġbe ispielsweise
or ie
ze hn
for sch
ward s
Ġf ield
he ira
re p
Ġer Ã¶ff
ĠCh amp
Ġmed ia
ww w
Ġrel ations
Ä į
Ġh ours
ĠM aterial
Ġc ent
pl an
Ġabs olv
is c
Ġauf genommen
ĠNach dem
ĠSt ates
r unde
as er
b ischof
Ġl at
Ġim age
Ġne ar
ĠD et
ad urch
d am
Ġerw Ã¤hn
Ġentsp rechen
P ar
w asser
ak te
ĠSie g
Ã¼rt temberg
Ġver m
Ġam er
un ge
Ġver lie
Ġsich er
Ġso ur
Ġloc ated
ĠG eld
Ġsim ple
Ġcompan ies
Ġo thers
ide os
n ow
ĠB u
Ġdeut lich
ĠP op
m ost
Ġh istory
Ge ographie
ĠAlex ander
A nd
Ġf alls
ĠO s
m as
. <
ĠL Ã¶
Ġeng ine
ĠSch Ã¼ler
ĠProdu kt
Ġm ass
Ġch allen
an ischen
we gen
ach ten
Ġpriv ate
an lage
as en
el eb
Ġp urch
qu e
Ġdam al
ĠT ele
Ġe arly
fl ug
ĠE du
M et
ĠBahn hof
rie ch
Ã¼s se
S h
ĠEr sten
Ġbest imm
ĠGe f
Ġall es
ikan er
Ġ195 2
A ll
b st
ch ester
ĠS telle
ik o
Ã¤l fte
ĠGra nd
Ġwicht ig
Ġer reicht
fin ale
ĠFre und
7 9
fol ger
Ġverb unden
el ten
ĠE ben
ĠWerk e
Ġfolgen de
ĠG re
Ġver sch
ĠSer ie
ĠJ ack
ay er
ĠCh or
ĠÃ¶ff ent
en er
te in
ĠSp iele
Ġtra ining
ĠÂ »
ĠP rÃ¤
Ġs ug
ĠL u
ĠA ct
1 00
it a
etz ung
Ġb in
Ġen vironment
Ġadd ress
Ġdisc uss
Ġpropert y
ĠF ac
Ġk lass
ĠM ass
Ġcustom ers
5 9
k und
w ind
Ġsom it
ĠLou is
ĠgrÃ¶ÃŁ ten
ĠHann over
8 4
Ã¤t zen
ĠBr on
Ã¤nd ern
stre cke
Ġm iss
ier ter
ak a
Te ilnehmer
f a
ĠM ac
ĠPr es
; ;
Ġe urop
Ġwh ite
ĠDres den
w in
Ġte ach
ĠWill iam
ĠHil fe
Fernseh serie
ĠRe al
age d
ir es
ĠWolf gang
Ġst at
Ġup d
anc ial
ĠFe uer
Ġcomple te
Ġproble m
ĠSp rache
Ã¤l ter
ĠBevÃ¶lker ung
b are
ĠA ben
ĠK raft
ĠW issenschaft
Ġm ethod
ĠUn ion
C hr
b or
f ung
p ark
ĠC la
onst ru
ĠB ilder
geord net
ide d
Ã¼ hl
ĠG est
res h
Ġj etzt
ges ehen
Ġw on
Ġbe teil
ens ion
Ġmonth s
Ġre pr
leit ung
haf t
ĠL age
Ġre port
ien ces
lie ben
ĠVors itzen
rol le
o ught
Ã ľber
Ġw issenschaft
ĠMus ic
ĠJ es
enn ung
ĠB aden
er ing
as te
ent wicklung
Ġcert ain
yn am
ran ge
Ġ195 5
ĠAustr al
nd er
ar ed
Ã¼l t
ĠC ommun
Ġsog ar
ĠStre cke
n es
it sch
ĠG al
ĠR iver
la ger
ĠF le
ĠJun e
ge hen
ĠR em
Ġcurr ent
ĠC an
Ġge p
Ġteil weise
T rÃ¤ger
Ġbes ten
ĠPhil ipp
h il
p ut
Ġpop ular
ĠK Ã¶rper
Ġ194 6
Ġtra vel
) ;
iz ei
n ers
b s
ĠPro f
amer a
Ġgleich en
il er
Ġ195 7
por ts
Ġw elt
ĠAl le
b ra
k et
W est
Ġvar ious
st ant
Ġk amen
Ġman agement
ĠBÃ¼rger meister
ot a
Ġme an
arbeit et
Ã³ n
d t
Ġmach te
r ig
Â °
ag t
ĠG roup
ec ts
ĠW alter
ĠA k
ĠI D
ĠD eb
ĠPolit ik
y a
ĠS Ã¤nger
Ġf ur
Ġs tellt
Ġst ay
Ġl inks
ĠAr m
fahr er
7 2
Â ²
ĠHer ren
Ġstell te
i w
ger icht
ile d
ĠGe ist
Ġc ame
ĠT est
Ġoff ice
Ġor ganis
ĠL Ã¼
Ġwen iger
P S
c ome
Ġn ichts
ĠB ud
ĠT her
Ġein igen
ĠZÃ¼r ich
P r
Ġs ett
Ġnach dem
ĠKÃ¶nig reich
schlieÃŁ lich
ĠSil ber
Ġh uman
Ġon ce
Ġen ough
e ter
ĠK ons
lie d
ĠAr ten
Ġ195 4
no ten
Ġinc re
fra ge
8 3
Ġman ufact
ĠBru der
ĠNÃ¤ he
Ã¼ss eld
Ġa ud
ĠK ing
Ġth ought
fl anzen
ĠK auf
ab eth
ungs k
E T
ĠBes uch
Ġbef and
Ġ rad
ĠD own
Ġgeb aut
an ces
im ate
ĠMit arbeiter
Ġstud y
h ler
m od
om et
gr Ã¼
Ġn atÃ¼r
b esch
le iter
ĠB al
ig lich
ĠP sych
or gen
r uf
ĠJe an
0 5
ut her
Ġpartic ular
s eit
Ġle g
Ġle ader
ĠGra b
O ur
g liche
ĠC amp
ĠD ay
Ġ194 3
Ã¶r m
Ġer k
Ġan no
Ġgen au
Ġw onder
ĠI hnen
ĠVer fÃ¼
us st
ĠArt ikel
Ġto ok
ĠZ ust
ab y
Ġw alk
k ret
Ġm ess
Ġl ate
Ġsch rieb
ĠA G
Th ere
Ġevery thing
Ġperform ance
Ġindivid u
ĠG leich
Ġer ster
wert ung
Ġk athol
Ġac count
be zirk
ĠT ier
Ġ5 00
Ġentfern t
Ġl ar
letz t
Ġnew s
S port
ĠMe er
Ġdo ing
ĠL iga
ad a
ĠK ampf
av y
i ar
ĠB d
G es
k athol
Ġf uture
ot te
fe hl
r ation
Ġresp ons
C D
w esten
Ġer ziel
ĠN ow
ate i
ĠAus bildung
Ġauth or
ig in
Ġ194 9
6 4
ĠL og
rie ges
ip ment
ĠSpiel en
bet rieb
Ġde al
Ġsetz te
U m
f ten
ĠR unde
olog ischen
jÃ¤hr igen
b ie
Ġent hÃ¤lt
air s
Ġ195 3
f ield
ring en
Ġy et
f Ã¼r
v is
Ġin de
ag ing
Ġbes uchte
H and
o den
Ã¼l ler
A M
z iert
ge m
Ġev ents
Ġcl ick
Ã¼ ste
ĠW all
it ure
ĠF Ã¶rder
r am
Ġh old
heira tet
Ġfav or
Ġe conom
Ġres ults
ĠI d
ĠR ob
ĠR en
itu ation
Ġl ik
sp iele
Ġcont ent
ran t
tag s
W hen
st ud
Ġ194 8
ĠC am
u hr
ress e
Ġs ays
ĠW and
ĠThe ma
Ġgele gen
b Ã¼rger
at ors
Ġ194 1
Ã¤t igkeit
p age
us ion
iv ely
Ġam ong
Ġh ig
ges tell
Ġinv olv
Ġbei de
if y
Ġcomp uter
Ġd oc
ĠSt amm
Ġj apan
av a
ĠF en
aup ts
g ere
w art
ur a
ĠN ik
ic ation
ĠVerb indung
Ġf it
ĠB ill
v in
Ġm illion
ig ungs
Ġ4 5
ieren den
s ie
ir c
ĠJ ac
gel Ã¶st
l iste
ĠF rie
Ġaus gest
ĠÃ ľ
ĠH Ã¤lfte
ĠGeb ie
Ġ194 2
9 3
k or
ĠL uc
Ġc ard
Ġmod el
ĠfranzÃ¶s ischer
h m
r up
or ies
ĠO ct
Ã¤ch s
Ġh Ã¤t
at o
em b
ĠauÃŁer dem
eit et
ĠBe zeichnung
ho ut
ĠMed ien
ĠC le
Ġ194 7
i ro
Ġm acht
M ed
ĠN etz
Ġso ftware
ĠHer aus
F rau
c ol
Ġd ate
0 6
Ġprofess ion
k reuz
Ġm atch
Ġz erst
ĠL aw
Ġag o
ful ly
Ġakt iv
ĠM ess
ĠT it
Ġinclud es
ĠA fter
ame ter
ĠfrÃ¼ h
ĠB und
ĠP il
im in
Ġcom fort
Ġt able
lÃ¤ ss
ĠEner gie
im ar
Ġact ually
b an
t d
ick en
l ant
r al
ĠW ash
amerikan ische
ge hend
ĠStud ium
ĠSe x
A t
âĢ ĺ
Ġto ur
ne ter
Ġm Ã¶ch
eit her
Ġab ge
oll ar
Ġdid n
zentr um
ĠSt ock
ann ing
ĠAn geb
Ġmin utes
Ġnatur al
et y
Ġre cht
Ġ193 6
ĠA c
ot ion
, "
E L
ĠY our
ĠG et
Ġare as
so zial
iv il
ĠursprÃ¼n glich
Gem ein
ĠA st
olog ische
Ġcomm on
or te
Ġle ast
ĠK laus
ĠAr mee
Ġherv or
ĠM ond
Ġ195 1
ĠA tt
ĠC ent
Ġcolle ction
Ġcomp et
f Ã¤h
ot ball
ĠAl bert
Ġg ames
Ġg re
fass ung
m und
ĠT on
Ġbre ak
Ġmehr eren
ĠGo ogle
ĠFin anz
Ġpre par
urn iture
Ġrec ommen
ct ive
20 18
h men
or a
a at
ĠV iel
ĠRe gen
Ver lag
S e
Â »
Ġf ive
0 1
it ar
or es
ed en
Ġunter stÃ¼tz
mal er
ĠBr un
ĠFrÃ¼ h
Ġar r
0 8
T o
t ritt
w ill
Ġd ivers
Ġan schlieÃŁend
ze ugen
ĠW ol
Ġk itchen
rÃ¼ ck
Ġpr ess
S etzt
l ow
ar th
ĠF ern
f rei
Ġc ra
sch riften
ĠO pen
ĠPla y
he t
zeug t
press ion
h ib
w es
ĠD Ã¼sseld
ĠR and
ĠEl tern
iden ce
==== ====
Ġd ue
ĠA th
ell ow
v a
Ã ¢
ĠLe hrer
ĠN et
Ã¤hl en
Ġho he
âĢ¦ ]
e ign
Ġc op
ĠHer z
ren g
ĠForsch ungs
Ġhal f
wohn ern
Ġgew esen
6 7
Ġp aper
ĠH eid
ĠComp any
U R
Ġdoes n
le ge
ĠChar les
Ġres our
ca dem
Ġd ritten
he ad
i i
r hein
Ġs il
ĠW irk
Ġgo vernment
e ded
ĠZ uge
end es
ĠUnter stÃ¼tz
ĠBrit ish
il led
ĠH essen
Ġle icht
0 9
Ġ3 2
AAAAAAAAAAAAAAAA AAAAAAAAAAAAAAAA
ĠSchauspieler in
g le
Ã¶ hn
. -
Ġre ach
Ġsoll ten
ang s
ĠMar ch
Ġev angel
Ġpartic ip
p el
on ie
ĠD ivision
ĠE st
8 2
M an
w irk
Ġb ath
Ġver d
Ġen c
ĠMe x
wissenschaft ler
Ġt ax
ch ie
or ed
ĠD ach
ra chen
c m
h istor
ĠG reen
Ġaut omat
Ġam az
meister schaften
zir ks
E C
ur al
ĠJ er
vent ion
Ġrest aur
Ġb ad
Ġem ail
Ġvoll stÃ¤nd
z we
ad o
Ġj oin
ĠNach t
ĠNach folger
0 7
Ġhe art
ĠT om
if fen
gr am
ĠOr gel
Ġcl ients
W ir
u ed
Ġt aking
Ġse en
Ġor iginal
ĠBas is
ci ally
h inder
ĠS old
ĠB ack
ĠSoc iety
et ten
Ġge ben
aler ie
ĠZeit schrift
ĠverÃ¶ffentlich te
ra in
ĠC our
Ġne un
ho ben
Ġstamm t
Ġh ope
ĠMo unt
ĠVerfÃ¼ gung
ĠB on
ient en
Ġp ick
ĠV og
Ġ ill
Ġin tegr
ĠL os
bo ard
ĠDenk mal
Ġp osition
Ġread ing
ĠS in
ĠW ider
Ġevery one
Ġcre ated
p rÃ¤sident
Ġf rei
Ġquest ions
Ġin form
ĠVer l
ĠStadt teil
ĠIs land
Ġdet ails
wie gend
ĠG arten
ĠK ommand
ste hen
hand lung
ĠSc ience
ow jet
ĠB usiness
Ġcom par
Ġco ok
Ġener gy
Ġsch loss
ĠÂ «
Ġpol n
0 3
ĠF ree
Ġv eh
ing les
ĠM as
ĠP unkte
all ow
Ġab ove
Ġs ong
Ġfe ature
ĠLin ie
Ġappro ach
af r
hr t
we isen
ail y
Ġsome one
ĠMin uten
6 8
gew iesen
S S
ĠL eiter
ĠRe ad
ifik ation
Ġstr ong
ĠA v
Ġth er
ug hout
Ġpro b
Ġph one
ĠgrÃ¼ ndete
Hoch schullehrer
ĠAmer ica
Ġern annt
Ġbe deut
Ġge d
ific ation
ĠA cadem
am ed
Ġuns ere
ĠwÃ¼r de
ĠW ild
Ġger ade
arbeit ung
Ġv ia
ĠK opf
Ġd iff
mus ik
5 7
ĠWien er
N ational
Ġhe ira
l ern
ĠA re
Ġch ines
M od
imm ung
ĠG ut
ab les
Ġihr es
ĠDies es
ple ment
il det
Ġf ert
ĠM ein
ĠR itter
ib ility
ip e
g ers
ĠFol gen
M S
Ġp ersÃ¶n
ĠU K
ĠBe k
Ġcom mit
de ckt
Ġw ide
ut zen
ĠH an
gen cy
ĠÃ¶sterreich ischer
p ed
Ġclos e
Ġwei ÃŁ
ĠU p
Ġass ist
ĠK unden
ĠZw ei
ĠS omm
ĠM ult
Ġre f
Ġehemal ige
Ġiss ues
ĠD oppel
ite te
Ġk osten
Ġlat est
9 8
per atur
ĠJose f
ĠnÃ¤ch sten
ĠD okument
be ck
zeit en
Ġvar iety
ĠMar c
Ġcho ose
9 4
Ġc la
erv e
Ã¶ ll
0 2
le cht
ĠO ut
Ġh appen
Ġsp ielt
Ġd istr
n itz
Ġc eleb
ĠBe griff
amil ie
ĠsÃ¼d lich
Ġabsolv ierte
B A
ĠT urm
ĠF und
ĠÃ¼ber n
Ġre d
iz es
ĠKÃ¶nig s
Ġb i
Ġk einen
Ġst aff
Ġf und
com ing
Ġentwick elt
Ġver ein
ĠGes und
ĠArbeit en
ĠAnd reas
re cher
ĠT rad
ĠT eile
ĠL im
ĠKant on
ĠFir ma
ĠR at
Ġide a
Ġpos ted
g ien
ĠS ym
un a
ĠC ap
p ol
p hen
u hl
Ġa ge
Ġl ater
fÃ¼ ll
ĠAssoci ation
9 6
Ġb le
ĠRe ise
Ġper iod
Ġwho le
ĠfranzÃ¶s ische
Ġex t
ĠNe ub
Ġgemein s
Ġw ent
Ar ch
eb ook
ich e
ĠU s
ĠH is
Ġs ale
Ġg iven
Ġd igital
ĠSt il
Ġj a
mer k
ĠDam it
G B
ĠV ideo
ĠWash ington
Ġro ad
stell ungen
Ġreg ion
ip le
ist an
Ġre ason
ĠC ons
Ġal te
um ents
Ġcon stru
end orf
Ġhe iÃŁ
Ġwrit ing
ra te
ĠD Ã©
Ġn ull
ĠK op
ĠMod ell
Me ter
7 4
ĠD or
S V
Ġ193 5
zie hung
Ġm em
Ġinn ov
Ġver heiratet
Ã¤nd ert
idd le
l Ã¶sung
Ġr icht
ĠReg ierungs
on ym
Ġv o
ĠSp r
ial og
ir th
ĠEle kt
7 1
et ing
ic les
ograph y
er ie
end ing
Ġ[ âĢ¦]
de ten
Ġsel f
O T
i est
ĠSt ad
e ks
g u
Ġre chts
Ġne g
ĠDan ach
x is
por ted
Ġeben so
5 6
Ĥ ¬
ze igt
Ġho hen
l or
us ive
z immer
Ġt it
omm ission
ĠC up
au d
Ġ193 4
abr ik
Ġfin anz
Ġbu ilt
Ġ Ã¤lter
ĠUnter such
t ime
ĠZu dem
ĠerwÃ¤hn t
Ġp an
f Ã¶rm
Ġh ot
ĠH ere
Ġj Ã¼n
is es
ĠSchw arz
Ġgem acht
Ã¤ um
om ot
ver walt
unk ten
ĠEngl ish
an ted
ĠSte uer
Ġschw ed
ĠA uÃŁen
Ġknow ledge
ĠRoy al
ĠGes etz
B o
ĠSch Ã¶n
p rÃ¼
ich ert
Ġ193 7
F C
olog ical
Ġwid th
ĠOff izielle
sch au
Ġfun ction
ĠGrÃ¼nd ung
ie ur
Ġf ace
ĠP lease
ĠP ublik
ĠPr inz
7 3
or ing
rÃ¤ fte
b ark
o on
ĠN S
ĠVer Ã¶ffentlich
ĠTr uppen
Ġl iter
ret ty
i ally
ĠVer d
Ġass oci
os ph
Ġum fasst
ĠDan iel
5 3
ĠP DF
ĠV is
ĠKir ch
k unde
ist ic
Ġ19 18
ĠH art
ĠB ig
lin ie
ĠHow ever
gr enz
mit t
pro chen
Ġsel ben
ĠEisen bahn
S tra
r ug
sch t
ĠR ay
as chen
ĠM use
ĠBay er
ĠL Ã¤nge
Ġr en
ict or
ĠVerein s
ĠnÃ¶rd lich
Ġnet work
Ġf ire
ĠW ort
Ġtra in
En t
te ten
ĠB a
Ġread y
8 1
Ġp le
Ġbo x
pe cially
ĠFre ib
ĠHoch schule
ĠB onn
Ġ19 19
ĠNach bar
ĠV an
lichkeit en
u age
fall en
Ge grÃ¼ndet
unter nehmen
re ten
ĠVol k
Ġad min
Ġpict ures
p ielt
ĠP unkt
Ġk om
ĠSchl acht
Ġconc ern
Ġopt ions
anst altung
Ġwoll te
Ġfur ther
ro t
bl ick
Ġsec urity
I ch
b aum
istr ation
ĠProdu ktion
ĠZentr um
w al
Ġc ur
ĠK as
ot o
iz ier
Ġent ire
aut or
sta at
b i
ĠPro t
( )
sch ei
Ġbo oks
im um
ĠFran cis
ĠÃĸ ff
parte ment
Ġp ain
Ġwel cher
Ġapplic ation
Ġ Ã¼b
Ġs onst
ĠK ra
Ġal most
ct ing
ĠOr gan
ie ÃŁ
Ġz ie
Ġpart y
ĠStre et
9 2
a ktion
Ġben annt
Ġproble ms
Ġ Ã¼
ĠMa ÃŁ
bin ation
Ġhtt p
ĠH Ã¶r
Ã¼r gen
6 3
Ġweiter hin
Ġanno un
ĠPol en
ĠStand ard
Ã ¸
ur er
ĠR a
neh m
Ġ192 8
Ġsel ten
Ġeduc ation
Ġge pl
Ġst ammen
Ġcon tra
Ġbil det
v on
Ġbes itzt
Ġerreich en
ul es
Ġent halten
iforn ia
E le
s a
z ip
Ġs ym
Ġh Ã¶
ath let
0 4
6 2
ĠV en
sp ar
Ġqu ite
Ġentwick elte
Ġcurr ently
rech end
ĠF rom
ĠPar te
Ġthro ughout
S C
f unk
Ġinternational en
Ġf ul
ĠD ipl
Ġex ample
Ã¤nd ig
osp ital
rei he
Ã¤hl te
k y
Ġvers ion
ĠVers ion
denk mal
el berg
sch uss
Ġme as
Ġke hrte
in os
Le gt
at is
ĠL eitung
Ġ193 2
ĠRe cht
end s
Ġausge zeichnet
ĠKategor ie
Ä ģ
reit en
Ġh ost
Ġbesch Ã¤ft
K on
f ar
ĠVert re
ĠPart ner
ĠA ber
ra uch
Ġpro jects
Ġrec ent
d f
f its
ĠK ern
Ġsystem s
Ġpolit ischen
Ġbelie ve
ĠD enn
ĠL ied
ĠE ast
ĠH u
ĠSt unden
richt ungen
Ġheira tete
f alen
ing ungen
ĠF uÃŁ
ĠO f
ĠIn c
ve y
h i
ĠJ ak
Ġeinz ige
Ġer z
Ġst ore
Ġj Ã¤hr
ĠI V
iz ing
j or
ir it
Ġrec ently
Ġcle ar
Ne w
Ġpict ure
g arten
Ġw ays
ers eits
Ġre lig
ĠEn ts
ĠGr enze
ĠfrÃ¼ hen
Ġt w
Ġquest ion
w issenschaften
aus ch
Ġins urance
od es
ell ent
los e
orn ing
Ġbil den
Ġa chie
Ġfin ancial
geord neter
lÃ¤uf er
Ġopportun ity
Ġeinzel nen
at form
iqu es
Ġf iel
Ġk ids
Ġge geben
ok e
Ġat tra
Ġindivid ual
y th
Ġe p
ĠThe men
Ġunser er
Ġe her
Ġst ruct
ĠSp rach
Ġ Ã¤lt
ig ner
Ġj Ã¼d
Ġens ure
Ġt aken
qu al
wh ere
Ġsch l
6 1
Ã¶ sen
Ġtot al
Ġm at
-- --
Ġprovide d
Ġhapp y
rep ublik
Ġs le
Ġne uer
Ġne eded
ĠPol izei
ĠS Ã¤
t schaft
ĠS ur
un s
Ġabs ol
5 4
C ont
ĠL icht
Ġk ont
haus es
Ġem pf
Ġcustom er
ess ion
ien ste
ĠSomm ers
Ġbet rÃ¤gt
ymnas ium
f Ã¤l
Ġch em
ĠWh ite
Ġh air
ĠR ennen
ĠAl ten
techn ik
s b
ĠM r
ĠInstit ute
es h
W er
ĠVer m
Ġes pecially
Ã¡ n
Ġrequ ired
bur y
Ġcom ing
Ġverl oren
o id
Ġge hen
ain ing
forsch ung
Ġh ab
all el
f ace
ĠSt affel
ĠBl Ã¼
Ġreg ul
ĠEurope an
f igur
ĠI st
Ġto wn
ĠAn s
ĠSp ring
ain ed
ie ger
ĠW ahr
ĠAr n
Ġdar Ã¼ber
ank en
b us
ĠEr fahr
Ġ192 9
k ur
r is
Ġw ww
ĠH y
ĠZeit punkt
spiel en
th ough
Ġoff iziel
Ġt akes
ĠS ar
Ġm obile
il ar
ĠHe alth
5 1
I P
Ġ either
Ġequ ipment
h ing
ĠA ud
Ġstand ard
ĠFest ival
Ġw es
ĠRec ords
un ts
le tt
ĠMan agement
Z u
Ġp ark
Ġp aint
ĠF irst
af fe
ĠVer gleich
Ġad ded
Ġp sych
Ġgesch lossen
Ġsim ply
do or
Ġwhe ther
ed ding
Ġst op
ĠgrÃ¶ÃŁ te
ĠKon z
ĠEx per
Ġmarket ing
O M
Ã¶ p
hl t
Ġyour self
ĠNew s
c rib
Ġd og
ig entlich
Ġso on
PD F
ar f
ĠB us
Ġal t
ĠAn na
g as
ĠEv angel
ĠS tern
ĠA ugen
Ġo il
Ġ19 14
id t
opp ing
h ab
ĠF ritz
Ġge k
ct ors
ime ter
ĠFin ale
ĠDÃ¼sseld orf
Ġan alys
Ġsh ows
Ã¤d chen
Ã¤n gen
sel ves
5 8
Ġ3 00
Ġdamal igen
ĠT enn
Ġint rodu
H ol
z uf
Ġc rit
fer enz
Ġpl ans
Ä ±
Ġh on
Ġne ues
ĠRud olf
ĠUnterstÃ¼tz ung
Ġs ales
re ise
ĠF ass
E urop
y ear
g arn
Ġins ide
le gt
am ing
Ġphot os
Ġcharac ter
ĠI T
hal ts
Ġtra ck
pe cted
mar kt
Ġmind estens
ĠRel ig
Ġamaz ing
b is
Ġb ud
ĠK er
ang ing
fra u
lav ier
5 2
Ġhe ld
Ġlead ing
k om
ã ĥ
Ġd Ã¼r
ste ad
etz en
ian o
Ġrela ted
ir ch
ieren de
halt ung
k au
Ġs ens
anz er
ĠCar ol
ĠFÃ¼r st
Ġled iglich
a ill
Ġs we
Ġb lock
Ã¤r k
Ġus er
ele g
ĠPat r
ĠLe g
Ġerfol gt
at ik
Ġm ove
l ament
ĠW erner
Ġde ter
unc il
Ġange geben
mÃ¤ ler
ĠS ter
Ġ192 5
ĠF ischer
ĠV oll
ch ron
it ts
9 7
Ġaktu ellen
ro ffen
Ġw ollen
ĠB il
ĠGÃ¶ tt
w urf
Ġr unning
ĠPriv at
C l
s m
Ġf a
ver age
mut lich
re l
ĠM Ã¼ller
ic ult
ĠC lass
Ġdec or
Ä ĩ
Ġg riech
sp l
ĠSp ec
R E
ĠA ust
Ġun ver
Ġa ction
ĠK ranken
Ġkn app
ĠUm welt
ĠG as
ne w
ist in
Ġ ut
Ġmit tler
ĠSp anien
D es
ĠTra iner
s erv
u ary
w en
ill ing
W ith
ĠWill i
Ġrece ive
ĠD ir
Ġim ages
ĠEp is
Amer ikaner
ĠH om
ĠGl as
Ġro le
u it
Ġp retty
ig uren
Ãĸ sterreich
ĠMÃ¼n ster
Ġsk ills
ĠErgeb nis
d y
e kt
ut n
Ġspiel en
Ġtro tz
ĠK osten
Ġ19 00
ĠJ ung
ĠO pt
au b
Ã¤n n
Ġvers te
p ass
Ã¤ ten
ĠL ake
Ġmit tel
Ġra te
h auer
l ingen
ĠB ook
Ġp oss
ĠMed izin
Ġv e
ĠGott es
chn et
Ã¼r n
O ber
Ġun ivers
reich en
Ġnieder lÃ¤nd
en ces
Ġl on
Ġt old
um Ã¤n
ĠSch les
Ġehemal iger
T V
ï ¿
un ion
is ted
Ġo ben
ic ago
ĠGeb urt
Ġpre vious
Ġerh Ã¤lt
Ġest abl
ist ent
Ġse em
Ġse par
Ġsign ific
Ġactiv ities
Ã¤t ter
ĠEin wohnern
Ġgen eral
Ã¶ ss
ĠBe zirk
Ġbeh ind
| }
ĠS ingle
ĠS ammlung
ren ch
Ġrece ived
Ġdien te
6 9
Ġwe eks
Ġspe ziel
ĠA ch
af t
ah nen
stÃ¤t te
at iven
Ġbrit ischen
h ers
Ġw anted
Ġm ix
ho use
ĠL ove
Ġany thing
Ġdr ive
Ġgesam te
ĠOr ganisation
Ġper cent
V ers
Ġt ell
ï¿ ½
Ġso und
zen e
Ġdiff icult
ĠCal ifornia
Ġtry ing
A D
Ġs ites
ĠM em
ĠBre men
ĠW ass
ade d
fr ast
we chsel
ĠUm gebung
Ġmom ent
Ġstell en
ĠM att
Ġco ol
g ibt
Ġb em
ed ia
I L
v els
ã Ĥ
at ory
Ġb us
ĠK lass
ho od
me hr
Ġstud ent
onst ants
men te
ĠPres ident
M y
al u
Ã¤d t
Ob jekt
Jahr hund
ĠFen ster
Ġb lo
au te
ĠP flanzen
Ġam ount
Ġ4 00
S te
is ierte
Ġreg ular
ĠfÃ¼hr en
Ġprov iding
ĠS onder
ĠM ur
Ġjed en
str ument
ĠM aschinen
Ġh or
Ġer he
ĠDe partment
ĠJul y
Ġs od
an lagen
Ġprodu ction
Ġloc ation
c up
ĠD och
Ġz ust
ĠAb s
ĠGer ichts
ĠheiÃŁ t
t a
re chts
ell o
ĠI nde
ĠAb schluss
ĠHand els
Ġfand en
k arte
ĠW ies
ĠFra ge
Ġinter ess
Ġze igen
o der
al a
as c
ĠT im
ĠMar ie
ĠIs rael
p ose
Ġc m
um in
ĠGr Ã¶ÃŁe
ĠRes earch
Ġs ummer
an ische
Ġacc ording
pla te
B r
op t
ĠStÃ¤d te
ann er
Ġrel ativ
ar tet
Ġth ird
att le
west lich
Ġst ock
hen s
Ġind ustr
R uft
Ġk rit
ad es
Ġart icle
Ġbie ten
at tet
k ra
Ġs ix
Ġcoup le
Ġw Ã¤re
Ġn ice
gew icht
ĠGroÃŁ en
wÃ¤r ts
an i
ad el
ĠOr d
ĠEnt scheid
zw ischen
ĠW as
ĠAn schluss
ĠAn schlieÃŁend
ĠN ic
Ġus ers
Ġout side
Ġfin al
ĠMo der
y c
on se
ĠS ome
Ġges tellt
ĠRad io
S pe
ĠS C
ĠS atur
ĠB ul
ash ion
ĠT own
Ġerschien en
e ff
p ret
nd en
ĠAl fred
rei ber
rat s
Ġtreat ment
Ġpre uÃŁ
Ġf ra
ic ip
ĠC ast
Ġap art
ĠerÃ¶ff net
D P
ĠU N
Ġ192 4
Ġ192 7
ĠD rei
Pro du
ĠZusammen arbeit
ibr ary
U N
ul pt
gr uppen
Ġco de
asch ine
Ġzu letzt
at in
ĠM un
Ġben Ã¶t
Ġer setzt
ĠCh urch
ĠHer bst
Met hode
ĠW in
ĠPart y
ĠChamp ions
hal te
ĠAus wahl
heim er
d s
Ġf urniture
ĠT schech
lie gen
ĠAut o
ĠL ong
ĠO x
In ter
Ġbrit ischer
ĠRest aur
ĠG ust
fass te
ĠG reat
Ġver lÃ¤
aus t
m useum
Ġb ott
ĠZ uf
Ġwir k
ĠHeil igen
S T
w ell
ĠS amm
Ġc ut
ĠT Ã¤tigkeit
ĠVerkehr s
ĠL i
ad y
5 00
ĠS on
Ġbele gte
Ġn immt
Ġer baut
ĠInd ian
ie gen
Ġn omin
ed s
Ġpr int
Ġlearn ing
Ã¤ te
Ġf ig
ĠK enn
ten ded
ĠEin fluss
Ġhow ever
he m
Ġre pla
ĠspÃ¤ter en
Ġerziel te
t itel
ĠW el
ĠO k
ĠEle ment
Ġpract ice
ĠL ife
Ġch anges
Ġwo od
G en
b orn
ĠP fer
Ã¤nd en
Ġmed ical
ĠFamilien name
Ġb ald
ĠL ive
Ġg ute
ĠIn vest
Ġit ems
ant as
Ġcom mer
ĠFl Ã¤che
Ã¶l f
ĠBo x
ĠBes te
ĠOct ober
ĠT ages
ĠG attung
Ġk aum
ĠInd ia
ĠhÃ¶ her
isch em
ĠkÃ¶nn te
Ġg round
ĠAr ts
Ġ- -
Ġph il
Ġto uch
pl es
Ġus ually
h ips
y es
an ischer
ĠT Ã¼r
au x
ĠAus gabe
Ġem er
T ype
ie fer
Ġcont rib
Ġbed room
Ġne cess
ov ers
ĠM aster
st att
ĠT ar
Ġgleich zeitig
ĠHal le
Ġzahlreich en
B ahn
W enn
er o
Gr uppe
zeich nis
ĠHerr schaft
Ġgrow th
b ased
ĠW agen
Ġ3 6
ĠInd ustrie
ĠKont akt
ĠE th
Ġdes t
ĠVorsitzen der
W Ã¼rttemberg
ĠEnt wick
ĠK lavier
im inal
ĠJ ud
ĠV ictor
h Ã¤user
Ġin dem
ĠH ir
ĠH ill
Ġ rom
ar ts
Ġf resh
ĠD azu
ĠW ebs
ach im
Ġre v
hockey spieler
% "
9 1
Ġfal se
ĠAl ler
ĠRo ad
ĠLie be
Ġprob ably
wer ks
Ġhinz u
K ultur
Ġs etzt
ĠS und
Ġ1 000
Ġs n
ĠT w
Ġnor mal
schein lich
E F
u ert
ĠSh ow
Ġd at
we ig
b rit
om a
iel ten
ger ichtet
for men
itt ing
_ _
Ã¶ gen
Ġsour ce
c ast
Ã ½
ĠD isk
Ġbo ard
Ġa sp
Ġm atter
Ġgew orden
Ġpolit ische
hÃ¤lt nis
spr uch
is abeth
Ġsp ort
Ġlo oks
p ossible
Ġsol utions
Ġiss ue
ĠTex as
ĠAkt iv
verwalt ung
B ut
ĠB ol
back ground
Ċ ĠĊ
Ã¤ llen
end ung
ĠWe hr
ĠReg isseur
ĠÃ¶ffent lichen
ĠE U
I nd
om s
Ġinclude d
mit glied
ĠServ ices
k lasse
fl Ã¤chen
umen te
Ã¤ll t
G er
p unkte
Ġd adurch
ĠP ier
Ġal tern
ag d
ĠEr k
ĠAngel es
P reis
k ampf
Ġin fl
Ã¤ cht
ĠJ os
Ġ192 3
ĠForsch ung
t i
Ġm er
ĠLe icht
ĠQ ue
l ers
ĠCh icago
K l
r as
ow a
Ġt rÃ¤gt
ĠR Ã¶
ĠBau ern
P olit
ĠS PD
ud es
Ġex act
Ġpl ant
ĠDire ktor
N ieder
Ġd ro
el la
au ern
ĠMar y
ou ver
Ġgl obal
st all
hal le
teil en
yste me
ĠFried hof
Ġsaf e
Ġfavor ite
ĠAcadem y
W erke
Ġsh op
i h
it ial
Ġt ele
ĠE ss
Ġl ives
Ã© e
sw Ã¼rd
D urch
sch auspieler
Ġup on
ĠSchw ar
allow ed
an walt
ĠS ign
Ġne hmen
ib el
m ond
or et
ĠW eitere
ist rat
Ġex pect
ain er
Ġeff ic
ĠVer wendung
ĠChrist oph
amerikan ischen
ĠR enn
Ġall ows
Ã¤ss er
ĠPerson al
Ġsignific ant
E O
n amen
ĠS S
Ã¼ ge
ĠD ann
Ġp orn
Ġrec ogn
ĠUnternehmen s
Ġaddition al
el a
ĠB all
se hen
Ġpar ts
Ġstra teg
Ġc ann
Ġpr im
ars teller
u ell
Ĩ Ĵ
Ġw ords
Ġc as
ĠN amens
Ġcom ment
gemein schaft
ĠRuss land
ĠT at
ĠH off
schaf ter
ĠZeit ung
ĠDeutsch er
ĠAut om
ĠMat th
k irchen
ens ive
g Ã¤nger
Ġc apt
ent y
ĠN ur
ver lag
Ġerm Ã¶glich
r ang
Ġf all
Ġg reen
Ġdes cription
ĠBest and
irg in
ĠVertre ter
er es
Ġwar m
Ġvor her
ĠDem okrat
g ab
ren nen
Ġ15 0
ĠI P
Ġfor ward
au ber
Ġprom ov
v ing
Ð »
ĠF ak
se qu
um n
Ġrepr esent
bark eit
Ã ±
Ġs qu
I V
Ġz entr
ass el
Ġle bt
Ġex am
Ġpr esen
ipp ing
Ã¼ss el
Ã¤dag og
E is
P f
Ġl ock
mittel t
Ġwest lich
aller y
Ġb and
Ġall gemein
ĠDreh buch
lin ge
ĠMus iker
Ġwir tschaft
ec ut
Ġphot o
pend ent
lau ben
iti ative
Ġs al
Ġc aus
Ġinsp ir
ĠAben d
| -
ĠP C
Ġtyp es
ĠW issen
ĠPro zess
ĠAd d
ĠFreib urg
as ten
Ġf ix
Ġprogr ams
ĠWer te
Ġbeteil igt
st anz
ĠP rom
ĠSch le
Ġm aint
ub s
Ġwen ige
brÃ¼ cke
Ġse ems
ron om
Ġsk in
Ġbeginn t
Ð º
ĠG olden
Ġaktu elle
Ġcho ice
ĠFac ebook
V D
or th
setz en
Ġla unch
ĠK ohl
ĠSt rom
ĠF arb
ist ry
Ġk ennen
Ġan z
Ġsc reen
gent in
and a
ĠZ uk
ĠPro p
Ġho tel
icher ung
Ġsl ow
: #
Ġb rachte
Ġver k
Ġch rist
lo ud
Ã¼ cht
Ġp ers
ĠPap st
Ġext rem
ĠSt reit
Ġc enter
ĠG ro
Ġz uf
ĠBe im
I M
r id
Ġ1 20
ĠFra gen
ĠSicher heit
Ġbe ach
ĠFr iday
K arriere
ĠM ach
b ook
ge hÃ¶r
ot es
ĠWind ows
wind igkeit
Ġzw eit
Ġflo or
ĠS um
uf e
ĠZ entral
Ġpl atform
fr ont
Ġhigh ly
Aus zeichnungen
ifiz iert
r est
ver fahren
Ġin j
Ġk anad
ĠRep ubl
Ã £
ĠÃ¼bern ommen
A uch
I s
er er
Ġd ed
Ġt ransport
Ġcontin ue
Ġb al
ĠH ei
Ġ192 6
Ġdra w
ket ball
spr ung
Ġb ank
Ġm el
ĠD ro
ĠW issenschaften
ĠN icht
uch ten
Ġausge tragen
Ġmeet ing
Ġs ent
Ġm orning
ĠM erk
il a
em ble
N ame
ĠR h
ĠSt ruktur
20 17
Â ®
ĠB rad
ad s
sp rache
ĠIm m
rÃ¤n k
B l
a ign
II I
Ġble ibt
Ġp rem
Ġex pert
ach s
Ġun mittel
Ġany one
Ġeas ily
Ġtool s
ĠM Ã¤dchen
ĠY ear
imm el
ĠDown load
ĠR ing
Ġst reng
rie be
Ġrec ord
Ġexc ellent
b a
ck len
od or
utt ing
Ġel se
w an
ph one
din and
ĠD igital
ĠZ usch
Ġste p
Ġsaf ety
T ra
sp ro
Ġsch ed
ĠBl ue
aupts Ã¤chlich
Ġ Ã¶stlich
Ġpo ints
Ġide al
E l
k unden
ĠT ransport
Bau werk
O L
h agen
m ission
at us
at ic
ĠĠ Ġ
Ġ192 1
ĠM icro
ĠKarl s
Ġd aily
Ġc redit
Ġnot hing
ĠPr ies
Ġverl or
Verein igte
ĠTrad ition
M L
Ġd ress
Ġw ord
Ġl aut
Ġle ave
ĠAl so
ĠFran ce
Ġgesam ten
F rank
Å Ļ
ar io
Ġsol ution
kret Ã¤r
ĠS el
ic kt
Ġ19 10
Ġpubl ished
Ġst ieg
Ġf irm
ĠR Ã¤
ĠBe zirks
ĠSc ott
utn ant
ĠW ell
ĠgroÃŁ er
w itz
ĠQu ellen
ĠS onn
Ġcare er
Ġmaterial s
d aten
at al
Ġb ere
Ġh und
ink el
Wh at
Ġges etzt
Ġdis play
ma ÃŁ
ĠHen ry
Ġoffic ial
h old
st attung
if ts
ĠJak ob
l im
ĠDar stellung
" |
ĠL ab
Ġall ein
un i
ian ce
Ġgen ommen
en te
Ġw oman
ĠM ail
Ġc oll
ien en
Ġpra kt
ĠG Ã¼n
av es
ĠWe ise
org ung
k omp
o z
ĠH ab
Ã¶ ne
ĠGegen satz
ĠAd olf
Ġmach ine
Gemein de
C H
Ġd ig
Ġ193 1
pos ed
Ġrele ased
ĠB ist
20 16
anstalt ungen
f unktion
Ġfl ow
jÃ¤hr ige
ĠHeid elberg
ĠLe x
stand s
ĠRev olution
swÃ¼rd igkeiten
Ġdes halb
k rit
âĢ ŀ
ĠW affen
Ġl os
Ġem p
aly se
Ġregel mÃ¤ÃŁig
S piel
p aper
Ġin ternet
ne ur
ĠFo und
k g
Ġ >
or fer
Ġsie ht
Ġ3 3
F in
iv ity
ĠAn lage
W Ã¤hrend
k raft
ĠCh in
Ġdis cover
tern al
Ã© r
ĠComp uter
19 45
lie der
Ġdurch gefÃ¼hrt
tra iner
ĠS Ã¶
Ġm m
em pl
ĠAuf gaben
urn ier
Ã¶rder t
Ġd ur
Ġs yn
ĠP ers
w ir
z Ã¤hl
ĠBer eits
Ġpot ential
d r
ĠS ing
ĠA T
Ġso fort
Ġme chan
ĠReg ional
Ġreg ard
hol z
ĠChar akter
Ġcommer cial
g ner
ĠS y
ĠM and
la f
Ġincre ase
os ted
Ġimpro ve
ĠS us
ĠC anada
20 11
bl att
ĠBÃ¼ cher
Ġappe ar
cklen burg
ĠOr iginal
le g
ĠP ower
ĠL ieder
v i
Ġb esser
Ġr isk
zie hen
ĠzusÃ¤tz lich
ĠV ize
ĠSchw ester
Ġwork ed
S Ã¼d
Ġf uer
il i
ĠD at
ĠR og
ĠDÃ© partement
T r
ĠS atz
ic ated
ĠL aur
ĠSp Ã¤ter
ĠDe velop
pr ise
Ġro und
Ġdec ided
Ġs ave
Ġans wer
Ġre fer
Ġaus gew
20 15
Ã¤hr t
Ġc y
Ġfor mer
Ġdo or
Ġ192 2
erke hr
Ġsug gest
ind ungen
our ce
Ġgar den
ĠK olle
ĠSt immen
Ġ3 4
ĠMen sch
Ġapp ly
Ġpol icy
hil fe
E hemal
V erkehr
Z eit
Ġp rÃ¤sent
Ġjeweil igen
Ġhistor ischen
Ġh ielt
ĠG lo
Ġaus schlieÃŁlich
ĠNe ue
anc y
A G
w ide
it ation
ne e
ĠAn g
Ġitalien ischer
ce p
le icht
ik ation
ĠAt lant
Ġw in
ĠE ff
Ġver lieÃŁ
Ã© s
Ġcond itions
ĠErz bischof
Ġquick ly
ist isch
ĠÃ ī
Ġpr ices
Ġ6 5
ĠArchite ktur
ed y
ĠGr enz
Ġver z
ĠLe on
ĠEle ct
Ġwrit e
s ystem
v ier
D o
K omp
Ã¼ st
ĠL et
th ur
Ġde ep
Ġle bte
reich e
zahl en
Ber lin
ĠS owjet
Ġis n
Ã¼hr en
ĠAb teilung
Ġgesch rieben
ĠNational sozial
c ement
w el
Ġt un
le gen
ĠEn gel
Ġmov ie
ĠJan uary
ĠEl isabeth
Ġsim ilar
med aille
b as
ĠGo od
Ġrem ember
m acht
re u
Ġgu ide
Ġresour ces
d as
Ġhal ten
fan ter
ch em
Ġst ation
ĠPe ters
Ġzun ehmen
ĠPhilosoph ie
Ġwelt weit
Ġh auptsÃ¤chlich
em a
Ġdes crib
ĠFe hler
ĠM acht
Ġre lease
St adt
ĠBo ard
ĠSatur day
ĠR aj
ĠSte fan
Ġexper ien
Ġdevelop ed
h och
sch lÃ¤
Ġent w
Ġd om
Ġl angen
ĠV iew
ow ski
ak ers
Ġbesch rieben
stÃ¤nd e
ĠBen utz
laub t
Ġpie ce
A utor
v ors
Ġun bek
Ã¼n ft
f ur
o oth
ar es
ĠI ll
Ġex tens
H ow
Ġe igentlich
ĠSt ahl
ĠIn form
Ġgo al
w Ã¼r
ĠS V
ĠP or
20 12
ĠEng ine
eit ert
ĠunterstÃ¼tz t
ĠH ard
S c
Ġc irc
Ġdar f
Ġinter ested
ĠBild ung
ĠNieder land
on ial
ĠR od
ue ber
reit ung
ĠHoch schullehrer
Ġex pla
Ġbet rieben
ĠCo uncil
ĠgehÃ¶r ten
s dorf
ir us
Ġl oss
kt ions
ren z
ikan ische
bo x
Ã º
Ġ Î
ĠB ob
ĠD arm
ĠL ux
ĠĊĠĊ ĠĊ
S P
uf fer
Ġ19 12
ĠZ immer
ov en
ĠSm ith
Ġlon ger
b it
k opf
Ġver mutlich
Sch w
ĠFer dinand
Ġverkauf t
ar ter
Ġh uge
ot ing
m ir
in ed
Ġp rÃ¤
omm iss
ĠOff ice
Ġgra du
ĠPort ug
Ġw ider
Ġv ari
ĠT y
Ġgesch affen
Ġger ne
ĠZusammen hang
ĠBrand enburg
ĠHome page
Ã¼ ll
ver trag
ĠTeil nehmer
B undes
brit ann
j i
le ger
ĠW ander
20 10
ĠvollstÃ¤nd ig
F re
ch ange
Sch wei
ru it
Ġfol gt
D a
Ġf air
Ġm Ã¶
Ġsod ass
ĠT ok
Ġse ction
Ġlang uage
M in
ĠL ager
por ary
Ġbath room
O C
ĠS at
ro id
ĠV arian
ĠEdu c
Ġrecommen d
ĠWilli ams
g rad
ab il
sel ben
Ġgra ph
Ġcount ries
ĠhÃ¤t te
n ummer
r Ã¤t
ot ten
Ġe arn
Ġge fÃ¼hrt
Ġweiter er
Ġopt im
a ber
u elle
ĠMon ate
Ġsu it
ĠVerwalt ung
h op
Ġs ah
ĠS om
ct ure
Ġr ather
sp er
ĠAn gaben
ĠmÃ¶ch te
g ut
er in
Ġbe ein
Ġver treten
Ġapplic ations
ĠErgeb nisse
k ord
ĠN Ã¼rn
age gen
ho den
ĠBes atz
Ġs aw
aus piel
ĠNatur schutz
ĠM ik
and en
Ġbe ge
rat es
ĠChrist mas
ĠSold aten
ar ischen
ĠK ult
Ġch arge
Ġtradition al
Ġeffect ive
Ã ´
Ġin tens
Ġg lass
Ġan im
Ġun abhÃ¤ng
ĠBl ick
Ġmo unt
Te chn
ĠSant a
Ġv ac
im il
ĠL ig
ul s
oc al
Ġpr ior
Ġbeen dete
Ġpart ners
200 9
Ã¶st lichen
Ġbest Ã¤t
Ġje dem
Ġplay ing
ĠFahr zeug
b re
ĠW ork
Ġst aat
Ġde f
Ġzw Ã¶lf
Ġnot wend
ĠHaupt stadt
ĠPrem ier
ĠR et
ĠSch lag
t or
Ġh it
ĠFl ugh
Ġmus sten
ĠÃĸ l
ap el
Ġso uth
ĠE hr
ĠH on
rif f
Ġtr ip
I d
K reis
Ġm eine
ĠSpiel zeit
s itz
Ġf ab
ĠFl Ã¼gel
ipp ed
ĠK ath
et ts
ap ie
ĠThe ologe
ĠMar ine
Ġconstru ction
ĠW ed
ĠPar lament
Ġhand s
ĠverlÃ¤ uft
Ã£ o
Ġv ideos
ff er
Ġlik ely
Ġw ritten
ĠT H
ĠJ ob
ĠAuf stieg
P ol
f on
Ġt ick
Ġent ry
Ġpl us
gang s
ultur al
Ġinterest ing
C on
Z ur
r ix
ĠEin fÃ¼hrung
gemein den
ĠFar be
Ġsogen annten
p ers
az ine
Ġon es
we chs
ks am
ĠPro gram
Ġpl anning
Ġpurch ase
N eben
ĠK urt
ĠL ast
ĠL Ã¤nder
por ate
Ġhig her
l uss
le gung
ĠHistor iker
Ġstor age
zeich nete
Ġfol gten
br idge
reit et
ĠZeich en
ĠL ok
ĠBeit rag
Ġwe ight
az in
Ġb ul
us te
los en
ĠFr ont
N A
ĠS onnen
al ing
Ġf il
ĠL ink
ĠO ver
gew and
E P
is ation
Ġc ross
Ġk or
ger ichts
Ġle gal
d ire
ro at
Ġp ool
Ġp df
Ġh um
Ġ3 9
Ġsch Ã¶n
Ġbest immt
ĠMain z
denk mÃ¤ler
ĠJ Ã¼rgen
Ġter ms
Ġpos itive
Ġbede utet
ĠSpec ial
A ug
w eite
Ġw ohn
Ġander er
Ã¼ gen
je w
ĠHo hen
ĠArch iv
Ġplay ers
Ġcond ition
Ġzerst Ã¶rt
ĠS icht
Ġ7 5
ied lung
deutsch en
Ġaktu ell
e es
ĠH aut
ĠW ettbewerb
Ġgleich nam
ĠKap elle
k le
l Ã¤nder
ĠHÃ¶ hen
Ġdarauf hin
Ġc ause
ĠPol y
stru ktur
B esch
b u
s telle
Ġde ath
ind est
20 14
ĠLand schafts
ĠLeist ung
Ġm ot
Ġent scheiden
Ġbring en
ĠS uche
Ġ19 13
P re
ĠVer kauf
ĠAuf nahme
ĠSo ftware
ĠGer hard
em e
ĠL Ã¤ndern
and ers
Ġwieder um
ĠOrt schaft
ĠWh ile
ĠArch Ã¤
Ġreview s
Ġarch ite
ie den
Ġse ek
Qu ellen
Mus ik
t um
le b
ĠR osen
Ġbe gan
Ġle gte
Ġ3 8
20 13
iss ert
Ġpat tern
ĠVier tel
ĠPubl ic
m esser
o od
ie ÃŁen
ĠT ore
ĠEd ition
ĠMeister schaft
as ing
ĠE re
ĠV om
ĠâĢ ļ
erk unft
lei ben
u ted
im me
ber e
ul en
ĠOr te
Ġlie fert
O ne
p olitik
Ġs old
ĠV illa
ĠAn teil
hn t
ĠBe ach
Ġdev ice
ĠGÃ¶tt ingen
ĠSch rift
ĠRe is
Ġsp Ã¤t
ĠPh ot
Ġenc our
. ),
d om
ĠV iol
ĠMe tern
Ġerst es
ĠBas el
ĠJur ist
Ġverlie hen
in y
Ġh ous
For mat
ĠTechn ik
Ġg anze
ĠGrÃ¼ n
ĠsÃ¼d lichen
Ġser ious
ð Ł
Ġ ult
ĠM ost
ĠN ummer
Ġgeb racht
so ft
reg ierung
Ġask ed
zieh ungs
gebie te
ig ungen
ĠH D
ĠW omen
Ġarbeit en
Ġb irth
ul y
if er
Ġcomp lex
Ġsuccess ful
i ant
ond s
" :
or der
ĠA C
Ġim m
ad rat
ĠEn ter
Ġbet re
ĠP a
ĠH istory
Ġer forder
Ã Ħ
ar kt
Ġc at
Ġer f
ĠHein z
Ġinvest ig
Ġeurop Ã¤ischen
ĠGust av
ĠA cc
Ġl if
Ġd omin
Ã¤ u
Ã¤ ste
geb nisse
v o
ĠG Ã¼ter
ĠK ammer
ei der
Ġ4 8
Ġwor th
ĠY o
ĠerklÃ¤r t
ĠÃ¼ br
Ġw ish
Ġre in
chn ung
ĠEs sen
ĠBron ze
r d
ĠE very
geb racht
vers ammlung
Ġopt ion
n issen
or ial
ate ur
ichte ten
Ġmehr fach
inn ing
Ġent lang
ĠNieder s
ĠNe uen
Ġrem ov
Ã¤hn ung
ĠDec ember
Ġannoun ced
Ġful ly
Ġro t
glieder t
ĠBesch reibung
Ġinvolv ed
m l
ĠJ on
Ġver pf
omm ern
Ġreg ister
britann ien
p erson
ĠÃ Ĺ
Ã¤ ische
ack s
ĠKinder n
Ġd Ã¤n
ĠD ol
Ġch ance
ĠJo achim
ĠTurn ier
Ã¼t te
Ġrelations hip
ĠH it
ken nen
ĠSchrif ten
Ã¼h m
ĠverfÃ¼ gt
n y
Ġver hinder
Ġun be
Ġab ility
c ies
ĠD Ã¶r
eb e
Ġle vels
St ud
rech te
ĠRich ter
ĠBeit rÃ¤ge
V P
Ġauf gerufen
gele gen
ĠSund ay
r enn
as ons
Ġre fle
ill y
ran sp
Ġfe ed
Ġveh icle
j ust
ĠK en
sie he
b ibliothek
n ational
Ġt en
Ġein gestellt
ĠAr zt
Ġwer de
Ġerw arb
ĠNutz ung
ĠP ak
ĠR am
Ġg iving
ach ts
ĠEin s
k ore
al m
ĠB la
ĠÃ¼ber wiegend
Ġspe ed
L iste
z o
Ġo l
ĠG ran
Ġinter view
ĠSer ies
Ġweek end
aut en
at ives
ĠArbeit er
Ġdec ision
ĠBeruf s
Ġn ied
Er baut
Ġje de
Ġd unk
ĠP ok
Ġl Ã¤nger
hand lungen
ĠJu den
Ġsei en
Ġwonder ful
Ġw uchs
Ġw edding
Ġl ower
ĠVer fahren
hol t
Ġrequ est
Ġcolle ge
Ġorgan ization
ĠSim on
v ant
Ġpla ces
ĠStud io
Ġ Ä
Ġp ath
ĠW ach
Ġgirl s
w rit
Ġpro f
ĠAuf t
Ġdar in
minister ium
tr al
p a
Ġsol che
ĠArchite kt
zieh ungen
ĠZuk unft
Ġb leiben
Ã¤ her
Ġn ov
ĠVer teid
se x
ĠAd min
amer ika
200 8
ĠWo od
Ġfinanz iel
B and
ĠOr dens
ĠMÃ¤n n
ĠFlor ida
Ġcann ot
B S
Ġd ient
on om
ĠL y
Ġg ives
Ġpat ients
Ġheut ige
Ġwirk lich
Ġs us
Ã¶ d
ĠV o
ip pe
b ul
Ġm id
Ġim med
tell ungen
Ġgew innen
Ġgel ten
ĠÂ £
S ystem
Ġd iv
at i
Ġm ilitÃ¤r
ra k
ug s
Ġcl oth
R ad
ĠS em
ĠA f
Ġ19 17
ha ber
ess el
Ġwe ather
200 7
oper ation
Ġangeb oten
2 000
g au
at ung
Ġge gebenen
ug u
Ġpar ents
Ġdistr ib
ĠSommers piele
ĠO h
200 6
Ġverw ende
gra ben
ĠCont in
ĠBern hard
rup t
m ine
p o
ch ner
Ġt al
ĠW irtschaft
ĠSt iftung
Ġge ts
id ents
Ġoffer ing
Ġbene fits
p olit
Ġd ark
ĠM ission
Ġer inn
Ġs on
ĠW appen
ĠC at
ist a
Ġl es
our ney
ĠWe chsel
Ġpart ner
Ġfert ig
Ġs end
la p
ĠSp an
Ġsm art
wahl en
Ġanalys is
is l
Ġj ungen
Ġne igh
Ġsow jet
Ġatt ention
' d
u he
Ġver antwort
ĠAustral ia
ĠBlÃ¼ ten
or gt
Ġl ic
Ġth ous
Ġgew onnen
Ġbet rug
ĠStat us
ap pe
lin es
ĠGra fen
Ġmult iple
ĠAngeb ot
G ra
I ON
a dem
m ore
ĠS ab
ic on
ste dt
ain e
ont o
ĠTem peratur
ima tely
Ġt ats
Ġs ort
Ã¼ m
ĠL eit
ed eral
ĠBe w
Ġinc reas
ĠSchm idt
Ġd ise
sch m
Ġl ok
Ġdeutsch sprach
Ġcor re
Ġa k
ĠE igent
ĠĊĊ ĠĊ
ĠAller dings
Ġs un
ĠMann schaften
ÃŃ n
wei le
ĠOp fer
Ġwall paper
Ġa verage
ĠC entral
Ġsom et
Ġhtt ps
O lymp
T yp
Ġv iol
os a
Ġle bten
ag te
Ġor igin
Ġdoc ument
P er
n ot
Ä Ľ
Ġf lex
Ġl ux
ĠAn th
Ġle itete
Ġ190 8
ĠF al
Ġ3 7
Ġdo uble
Ġrequire ments
Ġ ;
em ann
ak s
Ġj unge
fr iend
is tet
ein er
ĠF rench
ĠK och
ei ge
Ġ4 2
Ġno te
Ġstor ies
Ã¼ hlen
Ġh a
ic ed
Ġan ges
Ġag re
zug s
unsch weig
rÃ¼ cken
Ġjed es
Ġbek am
u gend
ĠS uch
ĠL am
ist ics
wer be
Ġstar tete
ĠHinter grund
ing u
ĠK u
ĠL ib
ĠC re
Ġum fang
S G
ĠO ld
ĠQ uer
c ul
ein s
Ġpro per
Ġstart ing
Ġgrow ing
ĠC y
kt iv
ĠKrit ik
d essen
ĠT ime
ra ted
akt iv
c ia
Ġd auer
un te
ĠD ah
ĠD ub
ĠAuss tellung
ĠPra xis
ĠÃ¤ uÃŁer
ĠrÃ¶m isch
grÃ¼ ndete
ĠJac ob
g ree
i y
ig an
ĠHe ute
co very
Ġthink ing
la h
Ġver gleich
ĠEin trag
uck y
Ġmess age
is er
Ġg old
ac es
Ġd ry
or dens
ĠP aar
Ġl ost
Ġmy self
geordnet en
m y
Ġt ar
ag ne
ĠAut oren
ĠSalz burg
K lasse
m Ã¼hle
Ġb all
em ark
iz iert
ĠPr im
it ur
ĠR ost
ei en
Ġout door
Ġres pect
Ġro ck
Ġsup pl
ĠFahr zeuge
ĠDar Ã¼ber
Ġrep air
Ġbestimm ten
Ã¼ mer
ĠD ate
Ġent deckt
ron ic
Ġcreat ing
Ġcamp aign
d own
is at
ĠUnivers itÃ¤ts
Ġbec ame
gy pt
Ã¤chs ischen
j o
ĠSt ation
ĠKar ten
pf licht
Ar t
Ġwicht ige
Ġcomple tely
ecut ive
Ġ Ã¶ffentlich
Ã© n
Ġeng ag
Ġdirect ly
R es
ĠS T
ĠF isch
Ġhe ar
Ġâ ĨĴ
ĠJes us
Ġd ritte
Ġb reit
ĠB rown
ik i
ĠAuf grund
ĠKon stru
ĠProble me
Ġwahr scheinlich
R A
ter e
ĠW oche
Ġ19 11
ĠU rs
ĠOr ganis
gra f
Ġarbeit et
Å «
Ã¤ ger
Ġwir kte
lieÃŁ t
or ten
il ien
Ġg alt
Ġe ye
ord net
iker in
Ġorgan iz
L a
s et
Ġf ine
ĠP unkten
Ġg rand
ib ly
Ġele ktr
gef Ã¤hr
West falen
ĠnatÃ¼r lich
Ġstreng th
m es
v ol
ff ee
fass ungs
Ġimp act
ĠS ach
bahn hof
g Ã¼lt
is a
Ġs an
eiter te
Ġtra gen
ĠAd els
ĠVerb and
Ġentsp rechend
ĠStand ort
r ong
il lage
ĠLe e
ĠBr asil
Ġindividu als
c ont
an ced
el and
ĠB lock
ĠF lo
ĠL ord
Ġl au
ĠChar l
st he
ĠT el
ĠBe wegung
ru he
ĠIs lam
y ond
Ġor ient
ĠKon zept
Ġthem selves
Ġklein er
ĠZust and
ĠEurop Ã¤ischen
Ġgep rÃ¤gt
Ġunmittel bar
M ail
Ã¤ den
Al bum
eng th
F e
i xt
Ġd ir
ĠS P
res p
Ġ19 15
ath on
ĠKap it
ĠWei ÃŁ
ĠP rÃ¼
ĠR ap
Nach dem
Ġentsp richt
ĠS eb
ast ian
ĠFebru ary
ĠauÃŁer halb
ĠNik ol
H L
ĠB M
est ra
ei ht
ĠCh ild
ugh ter
ĠInter esse
Ġsched ule
issert ation
ĠD amen
ph an
ĠSchw eden
Ġfin ish
ĠInter view
ĠDaten bank
ĠFak ult
on isten
ĠP S
ol o
Ġein st
ĠSt an
Ġgo es
Ġhom es
am ous
im ed
ĠâĢ ¢
ĠRe chte
Ġpro t
Ġor d
fl Ã¼gel
m and
ow l
ĠIn gen
ĠGe h
Ġprov ider
Ġ190 4
l ike
Ġf iles
ĠL ind
Ã¤n gt
Ġdar gestellt
Ġber eit
ĠTod es
baut en
or b
Ġr Ã¼ck
be w
âĢĿ .
Ad resse
Ġl isten
Ġver lassen
io de
Ġbusiness es
Ġsub ject
is ions
Ġb ase
ĠR ath
gr iffen
Ġat tem
Ġ5 5
Ġopportun ities
Ġsen se
Ġd agegen
ĠK a
ĠLe op
ĠWelt k
vers e
p al
ĠK os
ĠH afen
ĠC ra
Ġex cl
tell igen
ĠGew inn
ĠJournal ist
ĠC a
Ġter m
Ġitalien ischen
ĠMond ay
ĠD Ã¤n
Ġan aly
ĠIn tern
ĠGroÃŁ britannien
ĠHam burger
ĠKom ment
ĠErz Ã¤hl
ĠCo de
ĠPries ter
Ġb orn
Ġin zwischen
Ã¤ ne
ĠK ron
fel der
at re
ĠE ck
Ġaus tral
ĠLand wirtschaft
ree k
Ġtit le
or al
ĠF eder
ĠG alerie
ĠR oll
um pf
ir ge
ĠMos kau
in den
ĠD ichter
Ġh our
oh le
Ġcost s
ĠUl rich
ĠnÃ¶rd lichen
Ġt hr
ĠK rank
Ġlet ter
ĠGe heim
Ġfo ot
M ark
Ġf arm
ĠH Ã¤user
ĠL au
ĠC O
s berg
re te
ĠA sp
ĠV irgin
ĠSch auspiel
ĠÃĦ nder
ĠB an
Ġv irt
ret t
ĠCour t
W ie
ahr en
ĠStud enten
ĠProble m
Ġann ual
Ġein gel
Ġge halten
Ġroom s
lin der
be wegung
Ġgroup s
ĠG ame
ei ÃŁ
gr Ã¶ÃŁ
Ġat tend
wer te
stit ution
yd ro
Ã¤h ler
ĠAustr alien
ĠWebs eite
g ern
Ġf ashion
fin den
ĠMet all
Ġele kt
zÃ¼ ge
ĠFÃ¼hr ung
E G
Ġg as
Ġun ten
Ġher gestellt
ĠOb jekte
ĠSÃ¼d westen
Ġwichtig sten
;; ;;
Ġexperien ced
Ġb ein
Ġlar gest
ĠH arr
Ġcons ult
A fter
Ã ¥
ĠT anz
ĠSie ger
Ġcl ient
Ġp et
ĠF ernse
Ġfr ame
Ġ190 7
urs day
f Ã¶rder
ĠD omin
Ġn ature
Ġde pend
ĠVer halten
ĠFot o
Ġpur pose
ĠS un
ĠP enn
ĠC ho
ĠSt off
ĠUn garn
Ġsele ction
Ġnecess ary
m ont
an er
Ġ( ,
ĠG ene
ab et
Ġwest lichen
Ġmax imal
ar in
ĠA R
ĠG irl
ĠW ater
ers ey
ĠÃľber setz
Ġ190 5
zip lin
ĠK iel
ĠL it
Ġschw ar
Ġwen igen
ĠLauf bahn
C om
k lass
ar ische
re form
Ġent h
ĠBar on
arch iv
w ander
st ation
ĠEr inner
200 4
ĠFot os
Ñ ĥ
in ation
ay a
ill on
ĠAl pen
Ġ4 4
ĠAuf gabe
bar a
ven ue
Ġ190 6
Ġplay er
mittel n
ĠMag de
ĠSied lung
d urch
Ã¶ der
Ġl ay
Ġl Ã¤ng
Ġmit tels
Ġvers ucht
wÃ¤r t
tain ment
st amm
ĠP ot
Ġh Ã¤lt
qu is
ĠInd ustr
Ġbrit ische
Ġverpf lich
u ver
ĠEin heit
Ġhel ps
ĠBas ketball
Ġpos it
ĠÃĸff entlich
I A
Ġm ention
ĠE ich
ach ing
200 5
ĠFranz Ã¶s
Ã¤mp fen
ĠSpe zial
ĠGel Ã¤nde
merk ungen
h orn
ĠH rsg
ad or
ige m
glie dern
ĠFlug zeug
ĠDevelop ment
Z um
f amilie
ur ts
Ġc ulture
ĠF ire
ĠG rÃ¤
ĠEr b
Ġersch eint
ĠgrÃ¶ÃŁ eren
ĠCent re
B is
ĠK ey
ĠNach richten
Ġar g
ĠMed ia
ĠWeltkrieg s
Ġin stead
ĠB ibliothek
Ġgen annten
ĠNord osten
ĠProdu kte
ĠWei hn
Ã¨ re
ĠB Ã¤
ĠM Ã¶
ĠG ele
Ġbek annten
Ġdar an
ĠLin ien
B est
s es
Ġp assen
ĠK noten
rÃ¤ ume
sk y
ĠRhein land
ĠB ass
ĠHer bert
ĠMan ager
p m
Ġs and
ĠP en
ĠP rag
se ud
Ġges pielt
ĠTeil en
ĠBild hauer
ĠT hen
ff ic
I F
Ġsup ply
ĠEduc ation
h le
Å ¾
at oren
Ġp en
ann el
ov a
ĠCol umb
ĠFrancis co
ĠjÃ¤hr lich
Ġs ingles
Ġh ar
ver treten
eld ung
ĠgrÃ¶ÃŁ ere
it ely
Ġder zeit
ĠH ub
Ã¶ nen
Ġhe il
Ġus es
Ġback ground
ĠGl Ã¼ck
leist ung
E d
b aden
ĠIn fanter
Ã¼ck sicht
ĠPfarr er
ĠSin ne
fur ter
ĠK Ã¼n
ĠR y
ost on
ĠEn s
ĠUnter nehmer
Ġle er
ĠAuf bau
az on
ĠIt al
ĠBl ut
m osph
ĠD ra
ĠAn ne
Ġit self
Ã¶r en
Ġerw eitert
Ġhealth y
Ġcomfort able
k ammer
Ġm aster
ug el
ĠVer lauf
ĠTh Ã¼r
ĠReg ister
pla ce
ĠSchul en
IN G
o ÃŁ
ar o
Ġm il
Ġuns eren
Ġess ential
ĠfrÃ¼her en
D r
ĠT agen
ĠR is
ĠL aut
Ġfamil ies
ĠCol or
ĠSoc ial
ĠA ff
Ġn umer
ĠT iere
Ġunter s
ĠVor der
Ġprodu ziert
Ġbil dete
Ġbele gt
Ġc ases
Ġg ese
rit e
ar ies
Ġg ro
her zog
Ġob tain
stra hl
Ġcl ub
Ġsogen annte
ĠÃľ berg
ad d
ĠMe cklenburg
Ġcreat ive
ĠK athol
pro gramm
Ġbl ue
Ġengl ischen
l an
ĠS qu
ion e
Ã¤hl ten
rach ten
schul en
Ġnor th
kathol ischer
ĠGesund heit
ĠS af
ĠS inn
ĠAn wendung
Ġex hib
ĠHe ft
Ġad vert
Ġinternational e
ĠH uman
ĠN eb
av ig
qu es
Ã¤r t
ĠWe imar
ĠL ine
ĠL iter
Ġto wards
ĠDie t
Ġinst ru
Ġpolit ical
ĠQual itÃ¤t
Ġp ages
ĠBe ck
The ater
ĠBundes liga
unn el
Ġprogr ess
Ġsomet imes
er a
ĠB ell
Ġein gesch
Ġz eich
ic ine
Ġzu gleich
ĠTra ining
Ġunterschied lichen
C O
ĠS ho
ran ce
Ġdesign s
Ġ189 0
ĠÃ¶sterreich ischen
Ġdivers e
ĠAl tern
Sch riften
i ot
Ġm other
ĠG reg
Ġim plement
ab teilung
ap y
Ġum ben
bo gen
mar sch
stoff e
P olitik
Ð ²
olog ies
ĠChr on
ĠStra ÃŁ
Ġact ive
ĠOx ford
D on
ek te
ilit ary
Ġtrans fer
ĠAward s
ĠDeb Ã¼t
ĠB rief
Ġqual ifiz
ĠWider stand
ĠFound ation
ĠG le
ĠR ail
ĠJahr zehn
iz en
ke y
ĠGrund lage
unn y
W eitere
ur b
Ġaus geb
ĠBr ig
Ġob wohl
b ungen
f abrik
ĠT isch
ent um
Ã¶ z
ĠIn strument
ze p
Ġsp end
rit ter
Ġunter st
ĠTex te
Ġess ay
ĠDistr ict
iw od
ĠKl ost
ĠhÃ¶ch sten
f ast
g ment
re y
ĠI N
Ġ190 9
? ?
ĠÃ¼ber tragen
Ġch urch
wor ks
Ġruss ischen
U T
v ision
Ġ Ã¶
ĠS ig
al te
Ġre ve
ĠEr de
Ã¤uf er
ĠBrÃ¼ cke
Ġconsider ed
en kt
ĠT Ã¼rk
lie fer
Ġmus ikal
lei hung
ra gen
rif ft
ĠLauf e
ĠSchles wig
Ġerhe b
Z w
al led
Ġb aby
el or
ĠB Ã¶h
ĠP fe
ĠF ert
Ġwe ar
ĠFor st
200 3
Ġhigh est
Ġschool s
ĠFar ben
ĠGeist licher
Besch reibung
te uer
ĠK ard
ĠK andid
ĠDeutschland s
ĠMuse ums
ĠEre ign
ĠH orn
Ġl ots
ock ey
hand elt
ĠBra unschweig
Ġm otor
st ab
ĠL ar
rich ter
ĠArchite kten
r Ã©
Ġs atis
ĠZ us
ĠÃ¼ber geben
Ġex pected
pe kt
ĠCommun ity
ĠBayer ischen
C o
Â «
arm on
war en
ersÃ¶n lichkeiten
h ow
ĠS et
ĠA P
ĠTe ams
ĠVor gÃ¤nger
Ġfe et
Ã¤l de
Ġerst re
ĠAut ob
Ġphys ical
ouver neur
Ġ ueber
Ġs ell
as ts
st ern
ic ate
gen er
Ġst uff
ap ter
Ġsp orts
ĠGes prÃ¤
Ġsc ience
Ġlim ited
afr ika
C C
a ug
or ganisation
lin ien
Ġso c
Ã¼nd ung
uck er
ĠId ent
D em
d ach
ĠW ag
Ġg ere
ĠC orn
com es
Ġsur round
forder ungen
el f
Ġk aufen
gr enze
ĠZeit en
tem porary
Ġschw arz
ĠHel mut
Ġlink en
I G
k rÃ¤fte
p ost
ie fe
sch loss
ĠC ard
ĠGemein der
ĠStra f
he ute
Ġcom b
200 1
Ġw and
ĠK ore
Ġg ingen
ĠPro fil
ĠSo und
ĠSÃ¼d osten
Chr ist
ĠBund est
B Ã¼rger
W il
p ack
Ġn amens
ĠTh ursday
Ġown ers
ĠEhe frau
ĠFir men
a ction
Ġg ift
Ġro ll
bÃ¼ cher
ĠFrÃ¼h jahr
ĠI hren
Ġer gÃ¤n
ĠIn ner
Ġso ft
B ild
ho fen
ĠKar te
ĠZw eit
ader s
erst Ã¶r
Ġest ate
Ġexact ly
re al
Ġse ch
ĠLeist ungen
gem eine
ĠVerÃ¶ffentlich ung
frast ruktur
Ġt schech
la den
ct ic
Ġeinge fÃ¼hrt
a iled
ier n
Ġoffer ed
Ġmov ing
ĠKonz ert
Aug ust
ĠYo ung
r ik
v olle
ul f
gel n
Ã¤nd ler
Ġen dete
ĠLeop old
te gy
ĠP ast
Ġer kennen
aka dem
D A
i Äĩ
Ġ id
ĠT hr
Ġg uten
Ã¶ pf
ĠZ ent
Ġcons um
ĠStre cken
Ġdeliver y
Ġcoll abor
el er
am at
ĠE ber
ĠW Ã¼rz
ĠhÃ¶ch ste
k ts
an geb
ĠA achen
Ġc ell
ĠMin eral
ĠBundes republik
Ġbas ic
Ġnomin iert
z ur
st ock
ĠT sch
ick e
stand ing
ĠAd am
bl Ã¤tter
ĠMor gen
Ġâ Ĥ¬
L age
te x
ent in
ĠW it
pp ed
Ġamer ikanischen
p ot
ĠW etter
ĠW estern
ĠL ight
Ġan erk
ly ing
Ã¼tz t
Ã¤us ern
Ġs icht
an en
ĠT ay
Ġein gerichtet
ĠR ena
ir n
ick er
Ġsc ient
ĠEurop ameister
ĠÃĸffentlich keit
Ġv Ã¶ll
ann a
Ġde ad
ident ial
ĠNord rhein
Ġweit gehend
Ġst ress
lin ik
Ġab geschlossen
ĠAus druck
In s
Ġsub mit
ĠTechn ology
Ġmax im
ĠÃ¤hn lich
ĠNÃ¼rn berg
b al
Ġt Ã¼rk
ĠM id
ĠBl og
Ġlov ed
leist ungen
ĠDarm stadt
n etz
Ġo w
Ġc amera
ĠC ross
ĠZ ahn
ĠAb schnitt
Ġgef Ã¤hr
Ġtem per
ĠV ort
our ne
Ġgeb ildet
fÃ¼ hl
ĠFlugh afen
c u
Ġw ife
ĠS n
Ġl Ã¶
ind ustrie
Ġcon vers
Ġste ts
ograph ische
z ub
ĠM ah
ĠP ed
iz iner
mann s
Ver Ã¶ffentlich
ĠPf ar
ĠRo ten
Ġcar ry
ĠVal ley
itte e
n ungs
Ġs em
Ġf ung
Ġn ation
ĠK ab
ĠN ight
ĠFilm s
Ġpre fer
ĠBild ungs
ĠChe ck
us ed
Ġsp ot
Ġhe ard
ry pt
ĠBei de
Ġgese hen
Ġk Ã¼nstler
ĠIn tegr
ahr t
ĠVer Ã¤nder
ĠTr ump
Welt meisterschaft
P la
Ġn utzen
ĠC op
Ġal bum
Ġbek ommen
ĠPf lege
ĠÃĦ r
C omp
k in
Ġp red
ĠI ran
Ġsch le
ho ff
St ring
icher ungs
Polit iker
Ġm iles
onn a
Ġprodu z
Ġkomp lett
Ġunderstand ing
histor iker
G u
G roÃŁ
d i
at r
Ã¤ nen
ĠC are
bild ungs
Ġeigen stÃ¤nd
Ġpol ice
AAAAAAAAAAAAAAAAAAAAAAAAAAAAAAAA AAAAAAAAAAAAAAAAAAAAAAAAAAAAAAAA
Ġw ild
om or
Ġg anzen
Ġ19 16
ĠN ie
ĠInternational en
ĠMathemat ik
B i
as ion
ĠK ong
Ġz Ã¤hlt
men s
ub a
Ġac cept
Ġnah men
Ġappro x
Ġwei b
akte ur
C ode
is ieren
Ġbeg onnen
It alien
eign et
Ġm ission
Ġview s
ĠAfr ica
ĠermÃ¶glich t
Ġw inter
ro llen
ĠH ause
ĠW he
ul i
Ġ190 2
ĠChe f
ĠTenn is
p osition
in zen
Ã¶ se
Ġup load
Ġfin ally
ĠGrÃ¼nd en
ĠSl ow
ĠVog el
u ber
ar ia
Ġc lin
ĠC all
Er ster
uar ante
ues day
I R
ĠH und
isten z
ĠEd ward
Ġdah in
on ia
ar ina
ĠA qu
ĠM ov
Ġcon ven
Ġel f
kon om
ĠUnd er
ĠK amer
ap ers
ĠAn griff
Ġj ourney
ĠCon c
D ollar
J an
ĠP od
ĠT Ã¶ch
up s
Ġsp irit
ĠKon fl
Ġober en
g ory
Ġ2 50
ĠAll gemein
u um
Ġt Ã¤
he bung
al ed
Ġre ported
Ber g
Ġhol iday
ĠPfarr kirche
B ar
N o
k osten
al b
Ġb oy
ia ge
klÃ¤r ung
stÃ¤t ten
Ġt im
ein d
auf hin
Ġserv e
anc ing
Ġeff ects
ĠVerlag s
Ġpower ful
ĠWirk ung
Ã ł
ĠD atei
Ġst age
** **
A F
b il
l ast
ĠE ur
ab elle
Ġge zeigt
Ġr ights
Ġsp ent
ht t
Ġdr ink
Ġadv ant
Ġfeel ing
Ġresp onse
Ġrela x
C S
N ord
y t
ĠW M
et he
art ige
ĠJuli us
ĠLeicht athlet
D S
ĠP ay
ĠI hrer
ĠOr der
Ġactiv ity
ĠS av
st uhl
ĠF ro
Ġe uch
ver stÃ¤nd
ste chn
Ġend gÃ¼lt
ĠWor ks
ĠDire ctor
b aus
m ag
ĠK assel
icht lich
ĠBe zug
ans as
Ġcol ors
Ġaff ord
Ġemploy ees
y les
ĠEr ich
ild ing
zen en
ikan ischer
ĠMod el
ĠTro tz
ĠSicher heits
ĠChem ie
Ġbeginn ing
ĠFakult Ã¤t
le utnant
ic ing
Ġes c
ĠMen ge
ĠProdu zent
sc ar
ĠEdu ard
Ġverantwort lich
D igital
K urz
z ell
kt ar
ob by
Ġcomp on
Ġze igte
w s
z if
Ġf ight
ro te
ĠT Ã¼b
ĠThe ologie
son sten
Ġche ap
it o
Ġc ards
Ġhe at
erk l
hÃ¶r de
ĠAnton io
B es
E hr
S PD
ĠN ahr
be g
bau er
Ġchallen ge
ĠLand tags
Ġsh opping
Ġm ap
Ġtra de
ĠNord westen
Or ganisation
akadem ie
T A
t l
re a
ĠE ach
ia tely
ĠEle mente
ĠEm il
Ġclass ic
Ġbro ught
======== ========
Jahrhund ert
g Ã¤nge
Ġ @
er weise
Ġt ried
ĠD iv
Ġp al
Ġp aar
ĠG olf
ĠSch iffe
Ġver kehr
gel d
Ġben ach
Be vÃ¶lker
ĠWo iwod
in de
ĠF iguren
ran ch
âĢĿ ,
Er st
200 2
lig isten
inc ip
ĠComm ittee
Ġsle ep
ĠM auer
ĠEr satz
ĠTh anks
Ġ4 3
ĠMar ien
ĠEx empl
fr ist
yl van
fÃ¼ll t
ĠF arm
ĠIn halt
Ġaus gel
Ġkl ar
Ġprofession als
L E
k unst
ĠF ind
ĠK lassen
Ġim ag
iz eit
Ġex cept
Ġbro ad
lÃ¤ss lich
ĠCarol ina
S ehen
ĠD ur
ĠR eb
ste ht
ĠThe odor
Ġbes ondere
Ġstand en
Ġplay ed
Ġzwe imal
ĠProdukt ions
Ġassoci ated
b ilder
ĠA N
Ġber ufen
ĠGra z
ĠChr is
ĠOber st
ĠRÃ¼ck kehr
ster dam
ĠHand buch
Ġpass ion
ĠLeist ungs
nes day
Ġeconom ic
t liche
ĠK art
ĠR uh
ĠV aters
ly wood
Ġne arly
ĠBe ziehungen
Ġ6 4
ĠHand el
arl ier
ol i
ĠN ap
ĠO bl
Ġre chten
ĠZ erstÃ¶r
ate gory
ĠÃľber setzung
Ġass ess
un ehmen
je kten
Ġausgest attet
Ġw ants
Ġf unktion
Ġm Ã¤nn
Ġv ict
ing ly
ĠK y
Ġdem and
Ġun it
ball spieler
ous ly
ĠwÃ¼r den
Ġdev ices
z one
gesch rieben
Ġapp re
Ġprogr amm
ĠBetrieb s
Ã¤dag oge
ĠParte ien
) )
ab ase
Ġ18 48
ĠMittel alter
Ġwa it
p ite
Ġl ines
Ġk auf
Ġver schw
ĠThe orie
Ġsetz en
Ġmoder nen
ĠbeschÃ¤ft igt
ĠA rab
st on
Ġent stehen
krieg s
Ġcent ury
Ġsett ing
gestell ten
m aterial
ĠB oston
sp rÃ¼
Ġverb reitet
Ġbeh av
Ġunser em
Ġa f
hÃ¶r den
ĠKon gress
ĠfÃ¼hr ten
Ġhin gegen
H aus
ĠB ang
ĠH oll
ĠL ot
ell i
ĠPro ject
ĠForm el
ĠBahn strecke
Ġnor weg
bed ingungen
Ġinvest ment
Unter nehmen
Ġbud get
O P
m iss
on ien
ĠR ol
ĠIn f
Ġweiter es
fra gen
deutsch e
ĠPrÃ¤sident en
ĠGeburt stag
ĠPier re
ĠD VD
ro ad
ĠT a
ĠR icht
ĠC os
ĠC ustom
ÃŁ ig
Ġbeg leit
Ġple as
h aps
ic ations
ĠSt ro
Ã¤n ner
Ã© t
Ġ6 00
Ġbeg in
Ġ189 9
Ġexp and
kra ine
C he
ch mal
Ġd ynam
Ġf em
Ġn amed
Ġl ength
lie genden
Ġch at
Ġste el
ĠFÃ¼r sten
Ġmod els
ĠHeraus geber
Ġumben annt
J ohann
Ġm iddle
il ing
Ġab gerufen
Ġhelp ing
us band
omm od
teil s
ĠBen ed
Ġdien en
te hung
ĠL ate
ĠRe view
Ġhe im
pl Ã¤tze
Er folge
Ġwes entlich
ĠA S
ĠK up
Ġan gelegt
ĠAnd roid
Ġ190 3
Ġverst Ã¤r
ĠS tellung
ĠP orn
Ġge mÃ¤ÃŁ
Ġex er
Ġbek annte
akt or
denk male
T H
i ation
m ot
Ġb ill
ĠD ialog
Ġk ommun
ag a
20 19
Ġbestimm te
or ia
Ġc abin
aus stellung
ĠAn k
Ġex press
Ġtr ug
ĠGl obal
Ġgleichnam igen
Ġw rong
im ents
ĠOr chester
co unts
Ġinc red
ĠCD U
ĠInde x
M A
f al
m Ã¶glichkeit
ĠS tellen
Ġc ru
ĠEin ige
ĠPre uÃŁen
D en
o e
ch ip
Ġle it
ĠWe ber
Ġber Ã¼hm
ĠLex ikon
Ġde gree
ak ed
Ġpro fit
Ġvor gesehen
arb on
ĠOrt es
Ġstruct ure
ĠSowjet union
N ov
Ġre ich
rie den
let ter
ĠPat ienten
te gra
ĠS oph
ĠB oy
Ġh y
ĠG h
ĠE ll
ĠR oss
Ġpro p
ĠGes ell
werk en
Ġtr uly
ĠBar bara
Ġsele ct
M ich
S k
S er
b und
o ire
Ø §
ein anders
ĠP os
Ġwe ist
Ġlie f
Ġges etz
weg s
Ġexist iert
Ġkur ze
ĠEben e
B y
h aben
ĠK rieges
ĠH immel
ĠSp iegel
ĠSp rachen
iz enz
Ã¤r ke
burg h
F F
F ra
H aupt
H istor
ĠB lo
ĠE ugen
Ġand ers
Ġre li
Ġre ports
atur ing
ĠQ uar
pf lege
fang s
Ġpar allel
urf Ã¼r
Ġded icated
ĠH ell
Ã¶ die
Ġfor get
Ġwe g
ĠPe ople
Ġ190 1
Ġed ition
Ġfre qu
Me ister
Ġphot ograph
ĠAlex and
lam ents
e ur
à ¸
ĠM ath
ĠF alls
ĠG ames
Ġdire ctor
Ġdefin itely
ĠMicro soft
V ol
Ġm Ã¼nd
ĠT uesday
Ġpre vent
Ġeff ort
Ġkathol ischen
j en
ĠF inal
ĠG ymnasium
ĠGerman y
Å Ł
ĠAr thur
uss ion
Ġbene fit
ĠPhys ik
Ġentw eder
H ier
w ise
Ġb row
ĠM ig
Ġge z
id ae
Ġr ent
se c
Ġgo als
ĠAd el
Ġadv ice
Ġprote ction
im b
rie chen
ip fel
gr enzen
Ġcon ference
piel en
ĠKommun al
ĠWies baden
ro ck
ĠHers teller
resp ond
H o
ĠS ak
le m
ĠP anzer
ol ar
Ġc ash
Ġcon cept
Ġcont ains
Ġrespons ible
vors itzen
ĠK ommission
Ġe igent
Ġzu erst
Ġr ates
gew Ã¶hn
ĠIns gesamt
ĠDistr ikt
v y
Ġf uck
ĠL ittle
ver anstaltung
Ġerh Ã¶
arz t
hÃ¶ he
J uni
Ġf ail
Ġg olden
Ġl it
af el
Ġj ud
Ġ4 6
dem okrat
Ã¶ff nung
zept ion
ĠSÃ¶ hne
M on
k ow
ĠS ituation
ĠF igur
ĠOr ten
Ġpre c
Ġ188 0
Ġmean ing
Ġthous ands
v ement
it ude
ĠG lauben
em ed
Ġauf gelÃ¶st
Ġger ing
ĠRei hen
Ġt ief
or i
Ġf elt
ĠSc iences
ĠBÃ¼ ro
Ġelect ric
us ter
Ġjob s
ĠEntscheid ung
ĠW es
c are
k ont
es is
al em
ĠM om
ro chen
Ġg ave
Th ese
Ġmen sch
Ġut il
P art
u an
Ã Ĺ
ĠN ag
Ġfor der
D isk
w ettbewerb
ĠG il
fol gt
Ġblo od
Ġbeein fl
k onstru
ĠB ab
ĠT able
Ġst ates
Ġit em
iert es
ĠPl us
ĠKr ist
iforn ien
Ġl ern
op ing
mer ksam
Ġwas n
Ġhund red
Ġt ips
ĠB ett
Ġ4 9
ĠCon ference
hard t
Ġstra ight
bere cht
ĠNieders achsen
Ġ uk
in ted
ĠW unsch
ĠL en
Ġstell vertreten
r ast
Ñ ı
ĠF rem
ers dorf
hn ung
ĠBe teil
Ġ5 2
cl ient
Ġben utzt
ĠSan kt
Ġfriend ly
Ġdet ail
N r
ak i
ite ktur
Ġhistor ische
Ã¤mp fer
Ġturn ed
L C
t rue
is piele
ĠK anz
ĠW ohl
ĠR ab
ĠSch lieÃŁ
ĠVer anstaltungen
ust ain
ĠMa jor
min ton
B el
N ot
S a
Ġin f
ĠK Ã¼nst
Ġg ran
Ġdr iving
Hol stein
G o
n icht
ĠA gr
ĠK anada
Ġim press
Ġ4 1
Ġbut ton
ĠF inn
ĠE vent
ĠH ug
Ġe yes
af ft
Ġeas ier
ĠPre uÃŁ
ĠBesitz er
ĠApp le
ĠvÃ¶ll ig
w ith
ĠG ru
Ġent gegen
Ġcomple ted
Ġengl ischer
ĠSÃ¤nger in
F unktion
b ell
l og
Ġf ant
Ġc old
ĠT imes
et ze
ten ance
Ġr ich
Ġ189 8
ĠBre ite
gangen en
ĠWed nesday
Sehen swÃ¼rdigkeiten
S erie
ĠF air
Ġerh ielten
reg isseur
ĠQual ifikation
ĠAutom obil
Ġextrem ely
ĠTÃ¶ch ter
Ġf amous
ĠK in
ent hal
ĠW ay
ic ious
Ġbe ob
th a
ĠUn abhÃ¤ng
ĠKon zer
Ġocc ur
Pf alz
d ate
ĠP ian
Ġn utz
ĠK ais
ic ul
emin ar
ĠKarls ruhe
R ep
w all
it ness
gen Ã¶ss
Ġem ot
ĠCam bridge
Ġappre ci
4 00
g on
Ġd ich
ĠO pp
Ġpro ced
ĠEr folge
ĠDie ter
ĠPar laments
Ġfin ished
ĠComm ission
g ot
ĠK il
ĠR he
ste iger
ĠDon au
sb ruck
R L
r uss
ir ing
ĠN omin
ĠJ ones
Ġfor mat
Ġzu geordnet
ath an
Ġ8 00
Ġgu ys
Ġ187 0
ĠRÃ¼ck en
ĠSm art
Ġkosten los
W erk
u v
Ġf ather
ĠM ike
ĠW a
ĠL at
ĠRe port
be zogen
Ġ4 7
Ġco ffee
Ġher r
gesch oss
Ġ189 7
f Ã¤lt
Ġra ce
ĠIde e
zus tellen
ped ition
Europ ameister
ĠWoiwod schaft
F ranz
È Ļ
er em
Ġk ulture
ĠIn t
ĠAb itur
ĠTeil nahme
ĠMan y
ĠDurch messer
Ã¶m isch
stÃ¼ck e
Ġinnov ative
Ġinfl uen
ĠTÃ¼b ingen
ĠK ob
ĠV ar
ip end
Ġsp ring
Ġvers ehen
Ġpie ces
Ġmittler weile
Ġs itu
st ift
ĠV ill
Ġthan ks
r ennt
al is
ĠD auer
Ġl ack
ad ies
Ġac adem
ĠMc C
ĠSchwer punkt
Ġentsprechen de
ylvan ia
k op
w ach
ĠV iele
Ġch air
stand en
Ġ189 5
Ġsuch en
ÃŃ a
lÃ¤nd ischen
ĠBesuch er
k ins
p pe
r t
aus gabe
Ġbes itzen
ĠMa ur
Ġart ist
ĠFo otball
Ġentsprechen den
ĠK im
ĠE as
ĠAn y
ĠEr schein
ĠFor ce
ĠWir ken
Ġmet al
T S
Ġs av
ĠS of
Ġin itial
ann ter
ĠU ser
199 9
Ġatt ack
Ġopen ing
ĠgegrÃ¼ndet en
ĠMagde burg
al bum
Ġm icro
ĠC anad
ist ischer
aus schuss
end o
ĠAus land
Ġvers uchte
Ġuse ful
ĠGraf schaft
Film ografie
produ zent
h te
ĠE P
ĠL ag
ĠL abor
ĠRe fer
ĠGe walt
ĠAm sterdam
ĠMon at
Ġnumber s
Ġb ag
ro ugh
ol en
im p
Ġz Ã¤hlen
Ã¶ ck
d h
Ä ĥ
ar p
Ġb atter
ĠL td
we ge
ĠDan eben
Ġkein er
Ġswe et
g yp
in det
Ġb lieben
st ad
ol z
ĠO tt
ĠFor men
iate ilnehmer
ĠRund funk
Ġupd ate
ĠTay lor
O W
r amm
Ġt ag
Ġg uarante
ĠOr den
Ġres erv
Ġpe ace
Ġverw and
- )
or ff
ĠB ord
Ġsp rach
Ã¶r ter
Ġfac ilities
Ġsym bol
ĠjÃ¼d ischen
Ġdig it
ĠÃ¼br igen
Ġtar get
ĠWeltk rieges
m ie
Ġb ur
Ġc andid
oren z
ĠFamil y
grÃ¼nd er
weil er
ĠNeub au
f els
ĠL ibrary
ĠBe ge
zeit ung
W irtschaft
c raft
z ust
Ã ª
ĠF lag
ach tet
Ġver geben
ĠAn h
Ġen glisch
Ġap pl
Ġur kund
A B
f assen
Ġs agte
Ġf an
id ung
ĠMax imil
un ted
ĠP ow
ĠR ollen
ĠL as
Ġfe hl
Ġserv ed
L ist
ĠW ho
ĠL iber
ons erv
asil ian
D AP
ĠC ost
ce ed
Ġab gel
ĠGeb urts
Ġinter ior
Ġsur face
J e
l le
r ight
Ġb ot
le ment
Ġan hand
ĠRe form
stÃ¤nd en
Ġsec ure
Ġexist ing
l ings
re in
ĠB ert
Ġge ist
sp recher
ĠVer dienst
ĠJo e
Ġstate ment
ĠPap ier
ĠFernse hen
h ar
l it
ĠFor um
Ġev alu
ĠSystem s
Ġw ine
ze igen
olog ischer
ator ium
ĠSer ver
ĠGegen wart
ĠFernseh serie
ĠBek annt
ĠUntersuch ungen
o ben
em p
ĠL abel
os h
od urch
ĠCh allen
ĠNe ust
rat en
Ġbas is
ĠCont rol
Ġnational en
Ġcorre ct
Ġs ituation
Ġf ans
ĠM ake
ĠH ospital
Ġmay be
rÃ¤sent anten
Pl atz
Ġestabl ished
ĠC ru
Ġbe yond
ĠOff izier
Ġricht ig
g ant
er te
ĠR ett
ell y
ĠAm azon
Ġeffic ient
ĠMatth ias
k ultur
z in
ĠS ender
ĠT ax
ĠDe v
ĠBr es
Ġprodu ce
Ġsol id
Ġdiffer ence
Ġcontin u
Ġconne ct
ĠRost ock
Ġow ner
S eine
Ġg Ã¼nst
her ren
Ġte acher
Ġacc ommod
aj a
wes ome
Ġdeter min
Ġregard ing
K irche
ĠA le
Ġh usband
ĠH erkunft
ĠN ar
se kretÃ¤r
ĠAuf lÃ¶sung
Ġte ams
ĠTra in
Ġret ail
Ġ1 10
ĠM Ã¶n
ro y
ĠP R
Ġstud ies
ĠCon ne
Ġmult i
or gan
re hens
ĠM d
ĠEin heiten
Ã¤hr ung
b ahnen
r iss
z ul
ĠH aup
ĠWelt meisterschaft
bes itz
Ġtechn ical
Ġgra de
Ġteach ing
U r
en ken
Ġw odurch
ĠS ir
ĠSch on
ĠMan fred
ĠBra un
wirk ungen
ĠE ven
ĠV ie
ĠLand tag
Ġsh own
ĠErw eiter
ĠFrie den
m ess
Ġm is
Ġm ill
ĠA M
Ġv ierten
Ġver g
oc ol
Ġ189 6
ĠWohn ung
ĠGew icht
gangen heit
Ġgelegen en
ĠÃ¤lt este
F ol
Ġin fo
ĠM und
Ã¤ b
ber n
Ġad vent
fÃ¼hr ten
ĠJe ff
m ail
s ur
Ġt ritt
ung er
Ġer l
ĠJuni oren
ĠOb wohl
ĠMark eting
ĠBevÃ¶lker ungs
Ġnahe zu
ĠFÃ¶rder ung
ĠErfahr ungen
ĠVirgin ia
b ad
ĠS tell
ĠT ob
Ġge kommen
ĠIn itiative
ĠInn sbruck
Ġinstall ation
ĠGener ation
ĠV ern
Ġcom ments
199 8
ĠPer form
ĠdÃ¼r fen
Ġs ession
ĠA ktion
Ã¶ tet
ick et
ĠFahr er
ĠOp ern
fÃ¤l le
D an
s ylvania
en se
Ġb ayer
ol es
Ġc ast
ĠN ah
ĠGes ang
Ġpop ul
ĠEpis ode
Ġa ward
Ã¤ fer
ra p
id el
ĠPl atten
Ġfind ing
Ġredu ce
ĠÅ ł
Ġmeas ure
ĠIngen ieur
Ġunterst Ã¼tzen
w is
ein heit
ĠB aus
Ġsch eint
ĠÃ¼ber haupt
Ġet abl
Ġdis k
Ġgemeins amen
Stra ÃŁe
n ing
Ġ Ã¶stlichen
is ierten
ie b
us en
ĠH ot
Ġer hoben
Ġsp richt
Ġum geben
ĠMe yer
ĠFran ken
ĠFil me
Ġwind ow
ber eitung
ĠSt ory
Ġzw eiter
ĠOr ient
Ġbest ritt
Ġstre et
k Ã¼rz
w uchs
ĠT wo
ĠG Ã¤ste
im en
ĠH ay
ĠW ett
ĠV I
ĠSp orts
ĠQu elle
zie ht
Ġcertain ly
Ġmot iv
ĠWÃ¼rz burg
H ein
v ard
Ġer le
ĠJ agd
ard o
Ver b
ĠGer icht
Ġra p
so ap
reg ion
setz te
produ ktion
ĠHers tellung
Ġ ign
ber s
ann en
Ġab geb
ĠBl ues
ĠTer min
Ġappro pr
K o
b rand
s ere
iss ance
eich er
ĠOff ic
hol m
Ġbeaut y
verband es
ĠSong s
ĠD im
Ġh ers
ĠK am
ĠSp ielt
Ġse ven
Ġsh ape
Ġinter act
Ġsay ing
Ġpresen ted
N S
P ort
f ree
Ġs hel
or fen
an ia
ĠP M
Ġe he
ĠSt ift
ann ung
Ġsur v
ĠWeiter en
V al
isch Ã¶
att form
ĠKon rad
Ġwel come
ĠKomp osition
ĠFeuer wehr
chip karte
! )
ĠS her
ĠB our
Ġer stellt
ak ei
Ġhe ll
ĠAus nahme
ĠjÃ¼n ger
ĠPortug al
r um
ĠS ince
as che
st al
ĠG ang
ĠE M
Ġl isted
ant in
Ġber uf
Ġoffiziel l
ĠDÃ¤n emark
ol is
Ġver legt
Ġpro ud
Ġover all
Ġprodu ced
fÃ¼ gt
Ġchange d
ĠIde en
Ġimmed iately
C onstants
S yn
l Ã¤nge
u ct
ann i
ap h
ĠZeit raum
por ation
Vers ion
l ar
ĠB om
Ġp aid
de gang
ĠT rieb
Ġcon stant
Ġeben da
Ġtats Ã¤chlich
ĠRath aus
D ar
ĠC ur
ĠV ari
ĠU fer
Ã¤nd igen
bo ten
Ġgu y
Ã¤mp fe
ĠSchriftsteller in
Ġkur zen
ĠNationalsozial ismus
B ad
E W
W ert
o und
de cken
ist ance
ĠJ ersey
Ã¼r zt
est yle
ĠGe gner
Ġ15 00
arbeit ete
Ġ189 2
verein s
ĠrÃ¶m ischen
Ġpress ure
an isch
ĠD adurch
Ġauf gestellt
ĠVer antwort
let te
Ġmethod s
Ð ´
al ity
ĠD J
am ter
Ġ5 1
ĠFrank furter
Ġrestaur ant
Ġfab ric
c en
Ã «
Ñ ĭ
le hre
ĠT rÃ¤ger
ir at
id o
Ġdurch schnitt
pro fess
gor ith
ĠnÃ¤ch ste
Ġclean ing
ĠÃ¶ffent liche
Ġn ames
Ġverw enden
ĠÃ¶sterreich ische
ĠZahl en
ĠverfÃ¼ g
Ġhig hl
Ġphil osoph
Ġin iti
ĠV Ã¶lker
rom e
ss on
ĠGr enzen
teil ungen
199 0
Ġser ver
geord nete
Ġgepl ant
ate ver
amil ien
Ġhel fen
ĠEnt wurf
ĠMÃ¶glichkeit en
ĠHalb finale
ĠMex iko
Ġf Ã¤llt
ĠB it
ĠM ak
Ġhe avy
erv ice
ĠgroÃŁ es
ĠMon aten
Ġcommun ities
Ġstra tegy
Ġsen ior
Olymp iateilnehmer
ĠBrasil ien
s ichts
ĠM ol
ĠD iffer
ĠJ ed
ub il
Ġsch ied
ĠBe wohner
for scher
ĠSchl uss
F L
ĠB art
ĠO scar
Ġst Ã¤r
Ġwh ose
ĠVer hÃ¤ltnis
end ar
hn te
Ġ5 6
ĠBo oks
ĠInd ien
ĠWahl kreis
ĠLÃ¼ beck
schei det
Ele ment
ĠDipl omat
ĠD issertation
ĠH aft
ĠAb t
Ġbes etzt
urop a
Ġsc ene
Ġrelations hips
ĠInfanter ie
8 00
den burg
os is
ĠU kraine
ĠSp itze
Ġunter sch
Ġen h
Ġexper iences
Ġland wirtschaft
ĠGest altung
m or
al i
ĠM P
Ġz er
ĠN ick
ĠAr men
ĠStud ies
ĠArm y
ĠElekt ro
Ġbott om
ĠChin ese
Ġdise ase
Ġab ger
ĠBe ziehung
Ġres olution
Ġverb ess
Ġcour t
ennt nis
ĠFrei heit
Ġsong s
> <
F ried
Ġc ars
ĠL ow
ed om
if ying
ĠAn frage
ĠLe hre
fÃ¼hr te
part ner
kap elle
k at
Ġa head
ĠP ack
ĠR umÃ¤n
ĠL etz
Ġe at
gr iffe
ĠPro te
ĠMet hoden
Ġpat ient
omot ive
antas y
renn fahrer
C ar
M ill
f ranzÃ¶s
Ġw ebs
ĠF un
Ġth ank
Ġan schlieÃŁ
ug ies
sen z
Ġ18 60
Ġhim self
haf te
Ġunterschied liche
Ġeinzel ne
Ges ellschaft
O D
Ġ ?
il de
Ġer fahren
ann ed
Ġre asons
ag ra
âĢľ ).
ied elt
fin ition
ĠJos Ã©
ĠSeb astian
Å Ħ
Ġb illion
Ġf at
Ġe arlier
iel le
ĠSte phan
hand el
stre cken
Ġview ed
Ġlov ely
Ġorganiz ations
Ġw ert
Ġc entral
Ã¼r en
ĠVer gangenheit
Ġj ournal
Ġviel leicht
Eis hockeyspieler
N ow
â Ĥ¬
Ġt ree
ol ogen
ĠN a
Ġan gesehen
ĠBer icht
ĠVor aus
Ġreg ional
Ġange gebenen
Ge w
Ġgu ests
199 7
Ġbig gest
Ġexc iting
ungsp ro
ĠSonn tag
Ġw issen
Ã¤ st
ĠR ub
Ã¶ ÃŁen
Ġcommun ication
Ġpop ulation
Ġmoder ne
ĠZwe ck
Ġprim ary
ĠColumb ia
i Ã³n
Ġs uffer
Ġc overs
ĠT i
Ġal ter
Ġco unter
ĠPar ameter
ĠBrÃ¼ der
J ust
h art
Ġ ðŁ
ĠP red
ph y
ĠFl ucht
ĠPr esse
Ġfre ien
lad ung
Ġmittel alter
K irchen
k Ã¶rper
s l
ĠD ata
ĠH as
ĠR al
ĠR ose
ess ions
Ġcan cer
ĠEnt fern
Ġtr ust
gest altung
Ġstand ards
Ġmon itor
ĠSer ien
ĠBuch st
Ġmov ies
Ġant i
ĠBenutz er
S up
ĠS ud
ĠF Ã¤h
Ã¶ gel
Ġ5 3
je kts
wer ben
Ġdevelop ing
ĠJack son
National mannschaft
ĠObl ast
A ut
G esch
K arl
im o
iv als
Ġ189 3
b on
u ern
ĠB os
ĠM ap
ĠP ac
sch te
ul in
Ġmit einander
ĠEr ste
Ġj ur
ip pen
ĠWe gen
Ġeven ing
Ġprote ct
m auer
ch o
ĠP in
am i
em burg
ei he
tel n
sh ire
ĠKÃ¶nig in
Ġverschieden er
zÃ¤hl ung
T C
g ow
j an
Â ³
ip per
ĠHe ad
ĠFl Ã¤chen
cy cl
p at
ĠL Ã¶sung
rÃ¤ gen
ĠLe arn
Ġbet rach
fÃ¼hr en
Ġho her
ĠGroÃŁ e
m aschinen
ĠM ir
ĠG uts
ĠR oh
ĠEin richtungen
Ġerr ichtete
Ġbring t
Ġcap ital
Ġzunehmen d
Ġnumer ous
m otor
ĠB at
ĠM inn
ĠM oh
Ġst Ã¤dt
ĠSp ace
sen s
ĠAr ray
ĠSte ve
Ġstr ug
ĠHar ry
Ã¤m lich
Ġpropert ies
F amilie
J ahre
u i
ĠE arl
Ġcom bin
Ġsm ooth
ĠTer rit
Ġrad io
Ġlate in
bie ter
ĠÃ¤lter en
ĠKÃ¼n ste
T ube
l ife
p aar
ĠB am
ĠK urfÃ¼r
ĠJ ena
ce an
ĠEin richtung
ĠCh am
ĠÃ ł
ĠAug sburg
Ġletz ter
ĠVers uch
Ġcover ed
Ġmein er
Hand lung
Ġachie ve
ĠBist um
] ,
un Ã¤chst
ĠM ang
ĠM assen
ĠC A
Ġk new
la ted
Ġges pe
ĠFre unde
Ġbel g
Ġ187 1
Ġdi agn
K rit
f un
Ġt a
or ient
ro nd
Ġn ut
ĠOr ch
wend ungen
ĠKom bination
ĠEing ang
Ġparticular ly
Ġrelig i
B B
u ellen
Ġ !
en gl
ĠM Ã¤r
ĠK amp
Ġj em
Ġunter en
ack en
Ġnot ice
Ġsh aring
Ġber ichtet
ĠTr ib
ĠMo dern
Ġeinz igen
Ġpay ment
adel ph
f Ã¤ll
Ã¼ gt
Ġn ar
ĠW Ã¼r
ĠĊ Ġ
ĠBe handlung
lie f
ack er
ĠAus einanders
ĠNach richt
In stitut
199 6
ĠEng agement
ĠAfr ika
Ġd ining
ĠSch ach
Ġbes aÃŁ
Ġad ult
Ġ/ >
Ġ188 9
c z
w ing
on i
el ess
Ġbe grenz
Ġer lang
ip es
wer den
les en
Ġart ists
ĠOrd nung
à ¤
Ġo st
Ġausge fÃ¼hrt
schn itts
Ġep is
y ers
on enten
us alem
Ġam t
ĠAuf nahmen
Ġtra f
Ġland sc
a wa
al tete
Ġf le
ĠK ent
ĠC S
Ġal one
Ġsp anischen
ĠSte phen
ĠMon te
Ġ189 4
ĠS yd
ĠM u
ĠF ab
Ġer laubt
ĠBe ob
Ġsh ot
Ġdam age
Ġel ements
sta aten
Ġaltern ative
Ġnied r
H ere
M ax
r in
ach us
Ġste ps
Ġdr iver
Ġmed izin
mitt lung
e f
in yl
or ien
ik as
ring t
ĠFre izeit
Ġexper ts
Gen eral
ĠK urs
ĠC H
Ġauf gebaut
Ġver ur
Al le
ĠÂ §
ĠTem pel
Ġsozial en
ĠDah er
Ġbenach bar
Ġin tern
Ġc it
ĠK eller
ĠH Ã¼
ĠR uf
ĠV el
est ic
Ġsch reibt
olle y
Ġchallen ges
ĠC ond
Ġ20 22
Ġge eignet
Ġsp read
pt ion
An merkungen
Ã¼t ze
R el
Ġde te
land es
Ġseit dem
Ġpres ident
ĠPublik um
Ġs org
Ġan c
art ier
ĠX X
Te xt
Ġaufge fÃ¼hrt
Ġunterschied lich
fÃ¤h igkeit
ĠNet work
ĠMount ain
Ġneigh bor
d auer
z z
z ern
z iger
Ġd ish
Ġt ruck
Ġs ets
im er
ĠE ind
ed ig
Ġal though
Ġ18 50
me er
ĠGesch ichts
ĠGrÃ¼nd er
p pen
ĠE arth
ĠW en
ĠSt ab
ĠSch ritt
qu est
iz ien
ac ity
pt on
ĠMar i
ĠMar gar
Ġte en
St re
ĠBereich en
Ġsele cted
ĠÃ¤ uÃŁ
ĠRelig ion
Ġs ing
Ġf allen
ĠP ots
ĠH ig
ĠL oc
ay ern
Ġkon zentr
dire ktor
k urs
l itz
an ke
st rom
ĠL ist
sen de
ĠVor stand
Ġacc ur
ĠMann schafts
ĠZug ang
cel ona
Ġchines ischen
p her
w irtschafts
Ġw rote
ĠG all
ĠH ong
ĠO ther
ug os
Ġr ules
ĠHe eres
yn ast
Ġschw ier
Ġsur pr
ĠLin ks
Ġclass es
ĠFunktion en
ĠMil ch
Ġverkauf te
Ġwissenschaft lichen
ĠAustral ian
ĠMaÃŁ nahmen
ĠB Ã¤nde
st Ã¤d
Ġg ren
Ã¶ tz
ĠN ation
gel assen
ĠBau werk
it ag
ĠK rie
men d
rÃ¼ st
ĠSh op
Ġadv anced
ĠWar en
ĠCas ino
e g
ĠI C
ĠV iet
ib l
gesch lagen
kl us
Ġsec ret
eh m
Ġheraus gegeben
Ph il
Ġtalk ing
ĠbenÃ¶t igt
ĠHug o
F alls
M P
k Ã¶nig
Ð ¼
ad ing
ast rop
ĠJe w
Ġstark en
ĠGrÃ¼nd ungs
ĠJust iz
Ġerz Ã¤hlt
Ġsoc iety
k ern
p et
r us
Ġg ather
ach ed
Ġr at
ign ed
In ternational
ograph ic
Ã³ w
ĠBach elor
ĠRegen sburg
Digital isat
ĠS onne
ĠL ook
ist ant
ĠN iger
ien ne
lo ok
ĠFran Ã§
Ġbet rieb
ĠBl att
An halt
ĠKap ital
ĠSchn ell
Ġconne ction
Ġerinn ert
g han
x x
Ġs agt
Ġb la
ol as
Ġn Ã¤mlich
ĠC ert
Ã¤l le
stra ÃŁen
grÃ¼nd ung
ĠWei ÃŁen
ĠBÃ¼ hnen
ĠKont rolle
ĠerklÃ¤r te
Ġwebs ites
F ahr
ut ing
Ġon to
ĠVer letz
Ġsch reiben
St affel
Ġpl enty
uer ung
Ġreg istr
d is
h ire
ing ham
ĠP ul
ik es
Ġvor bei
anz ig
Ġac qu
Wh ile
ĠKal ifornien
ĠSec urity
Ġcrit ical
adelph ia
F rom
z te
al o
Ġh aven
Ġh ospital
ĠC lin
Ġre icht
we ist
Ġman age
ĠMe chan
ester day
Ġexc ited
ĠSyn chron
Ġcharac ters
ĠEntwick lungs
Ġunbek annt
u is
Ġf ill
ĠH um
Ġge grÃ¼ndete
Ġde p
esch oss
rÃ¼ cke
Ġunter halb
pl atten
fen ster
fÃ¼hr ungen
gesch windigkeit
bl ing
Ġcould n
Ph one
K an
c an
n g
lauf en
ennt nisse
Jahr en
ĠBot schafter
Ġincre ased
ĠFrie dens
Ġvo ice
Î ±
ĠHe ktar
fa ult
kur renz
Frank reich
c ause
c onstants
k arten
v ater
ĠD atum
ĠH ockey
um a
ĠN och
Ġsh all
Ġro of
Ġsc en
199 2
Ġbr ings
3 00
S ein
g red
an ie
ĠP ur
Ġc ities
ĠL or
ĠN Y
ste igen
ĠAnd rew
Ġeinz ig
ĠJu an
ĠSchn eider
!! !
Ġstat us
ĠGesund heits
Ġzust Ã¤ndig
Ġw ire
ĠK la
ĠEr l
20 20
ix el
ĠInd ivid
Ġfl at
ĠSc ot
Ġmov ed
. /
M B
U L
ĠA L
ĠAn lagen
Ġtechn iques
ĠDo ug
Ġexpl ore
Ġattem pt
J apan
ĠR on
ist rÃ¤ger
ĠV it
ĠAn spruch
Ġsch ott
ĠBe cker
Ġinst r
ĠDet ails
Ġfig ure
ziehungs weise
Ġthe me
Ġr ank
ĠBer nd
Ġcol our
ĠLei den
Ġtre ffen
Ġjapan ischen
ĠM i
ĠM ord
ĠK ost
ĠI ts
ĠH eb
Ġent schied
In sel
stell ig
ĠInter essen
ĠWei b
Ġvisit or
ĠDort mund
Ġverst orben
Ġcop y
Ehemal ige
achus etts
R o
is her
ĠT ief
Ġer zeugt
zeich nen
ron en
rÃ¤n kt
ĠArn old
M ilitÃ¤r
f alt
it at
Ġs y
ĠM isch
Ġein schlieÃŁlich
ĠH ess
Ġfor ms
ass au
ĠWe ge
arr iage
Ġvisit ors
ĠhÃ¤t ten
Ġgemeins ame
Ġindustr ial
h Ã¼ter
u ters
er r
Ġf lieÃŁt
ĠD ank
ol ph
Ġh il
ĠC ob
Ġun gefÃ¤hr
Ġqu arter
Ġpl astic
Ġwel chem
ĠNational mannschaft
ĠPo int
O st
f ue
Ġs ter
ĠS ens
od a
ond eren
Ġbeen det
ĠTod ay
mus iker
Ġsex ual
ĠMad rid
ĠLÃ¶ wen
ĠAtt rib
---- ----
n ight
Ġs amm
ĠT en
ĠL inz
Ã¶ ten
ies e
Ġde partment
Ġ5 7
alt y
Ġdar aus
Zw ischen
S pieler
W el
u tely
he il
ien cy
ial s
Ġdo ub
Ã¡ s
Ġange hÃ¶r
199 4
Ġdre am
ĠpreuÃŁ ischen
Ġapart ment
ĠCanad ian
i op
ĠD ist
ĠW Ã¤r
av el
Ġent steht
ĠInn ov
Ġverst arb
Ġapprox imately
B et
ĠF red
ĠL isten
Ġaus ges
fe ct
eben e
ĠCl ick
ĠMich el
zÃ¼ glich
deck ung
Ġwissenschaft liche
ĠTÃ¼rk ei
M ag
m ans
Ġb aute
em it
Ã¶ glichen
ĠAn gehÃ¶r
ĠLand schaft
Ġ7 2
ĠGra d
haf ten
Ġklein ere
ĠMehr heit
Ġwa iting
Ġerstre ckt
T our
Ġw achsen
ĠD ob
ĠF Ã¤llen
ĠE qu
ĠH em
ĠW urz
ly n
ĠPro jekte
ph il
Ġqu ant
Ġteil s
Ġbas iert
ĠAlt ar
verkehr s
EM ail
ĠGebie te
ĠJer usalem
ĠbestÃ¤t igt
Ã¼ p
ĠH Ã¶ch
ĠTh ank
ĠSie ben
pl atte
Ġsh ip
ĠGesch ichten
ĠHaus es
ĠmÃ¶ch ten
ĠG riechen
ent lichen
ial e
ĠCh ief
Ġgo vern
ĠEx pl
ĠWh y
ĠInstitut s
Ġklass ischen
Ġcompet ition
ch or
ch ern
Ã¤ ure
ĠF unk
ess in
Ġad just
ĠEl iz
unter richt
ĠMet rop
Ġallow ed
Ġbedeut end
rehens ive
R S
Ġv en
ic ians
ĠOn ce
Ġcor ner
Ġmain tenance
Ġdenn och
Ġpoln ischen
m eldung
z ens
ĠM ans
ĠC ro
Ġbe ziehungsweise
ĠJ enn
ĠSt urm
ap est
ĠAus zeichnung
mit glieder
Ġges ellschaft
Sie g
ĠMy th
ĠFo od
ĠAir port
Land kreis
Ġleader s
CD U
Ġcla im
Ġmem ory
g Ã¤ng
Ġ Ã¶rt
Ġl ab
ĠO d
ran che
ond e
Ġ8 5
Ġhand le
Ġtrans form
ĠAfr ican
Ġfant astic
ĠF Ã¼nf
sch uld
ĠH op
ier er
ĠAl k
Ã¼n fte
Ġ5 4
ĠBau er
Ġhelp ed
icher heit
ĠZusch auer
o ul
it ors
re ck
Ġv ision
ol er
ĠVer st
ĠAm ateur
Ġob serv
ĠNor wegen
ĠBron z
ĠEpis oden
J ohn
L in
P lease
Ġ ille
ĠJ ord
Ġe ight
Ġver fasste
Ġr ub
ĠAn wesen
ĠMit arbeit
aut hor
Ġro b
Ġtra ffic
Re chts
Ġrem ain
K r
O ff
o ir
as ien
ĠN az
Ġsp Ã¤ten
Ġ188 8
ĠPolitiker in
Ġkon k
ĠKommun ikation
ĠWieder auf
mÃ¶glichkeit en
M Ã¤rz
S he
s ol
Ġk o
Ġun er
ĠKl im
Ġda ughter
ĠCount ry
ĠTab elle
gre if
Ġgre ater
ĠMex ico
": "
ĠPenn sylvania
w Ã¤l
ĠF ore
ĠW ord
ĠR oth
Ġk g
ĠU t
ĠIn frastruktur
ĠAuf ent
wer tet
trag ung
ĠAs ien
Ġ188 5
ļ Ń
Ġa wesome
it arr
Ġf ish
ĠD ark
aus end
ĠSp itzen
Ġbis lang
Ġum fasste
elt a
Ġgew Ã¤hr
Ġ189 1
ĠBened ikt
k amp
ter m
ĠJ a
os low
ĠMed ical
Ġbesch reibt
ĠStraÃŁen bahn
Ġve get
S ep
g un
Ã¤nd ige
imm ing
ĠSk ulpt
ĠIns eln
Ġinde pendent
ĠK alk
ĠV ideos
our i
ĠAb d
Ġsh ipping
ĠGr amm
ĠFl Ã¼cht
Ġoff izielle
Ġeigen es
ĠTo de
ĠMich igan
Ġmov ement
Ġresp ond
Ġcover age
ĠInstit ution
ĠBrun o
ĠBM W
H S
M art
u y
it is
Ġt on
ĠK el
gen ossen
ĠU se
ĠZ y
ver tre
id den
ĠMar s
aw n
An t
omot iven
ĠUnabhÃ¤ng igkeit
k ul
ĠD C
ver zeichnis
lin ois
Ġen able
fol genden
Ġbeg innen
199 5
Ġgest altet
ĠGed ichte
Ġol der
ĠMaximil ian
T L
g in
ĠS ul
el en
ĠP as
om er
Ġse eing
Ġav oid
bÃ¼rger meister
far ben
Ġbus y
Ġdeutschsprach igen
B ere
g roÃŁ
w ater
ĠH Ã¤
Ã¤r ung
ĠAm b
Ġlook ed
ĠQu adrat
ĠAlb recht
ĠjÃ¼n g
ĠBestand teil
ĠKlost ers
gyp ten
al and
Ġm aÃŁ
eb urg
Ġsh ared
ohl en
t al
Ġin kl
ĠZ oll
ip ps
Ġsp rechen
ĠWerk en
Ġ188 7
Ġrele vant
Ġadvant age
B en
e v
ent ur
ĠSch ott
ĠVer anstaltung
ĠAn trag
Ġzum indest
ĠGe gend
St iftung
ĠEigen schaften
Ġkathol ische
a tely
Ġs agen
st il
ĠT rag
im ir
ĠC ook
ber eit
ĠAb geordneten
Ġpo or
Ġfollow ed
Ġpromov iert
k es
Î ¿
Ġa st
Ġc loud
ier end
eb all
fl anz
199 1
Ġlaw s
ĠHor st
ĠDipl om
i ang
Ġis land
ĠSch e
ak u
Ġunter r
vers ion
Ġsl ight
M o
P aul
R uss
ĠB aby
ĠM io
ĠL ern
ĠN ote
ĠN avy
Ġfor ce
ĠBar celona
Ġ187 5
ĠDi Ã¶z
Ġveh icles
ĠHarr is
k ommand
ĠD orn
Ġp air
Ġbe auf
Ġbe coming
Ġinc or
Ġvol unte
strahl ung
. ).
J ose
o ter
p an
in u
ie fen
or ation
ĠS ele
Ġan genommen
ĠSie gen
ĠspÃ¤ter e
Be im
Ber eits
ĠStÃ¤d ten
D DR
ĠMar x
Ã¤ng nis
B uch
v ens
an th
ur ers
Ġf ear
ĠSt ich
ind ing
tet t
ĠUnivers itÃ¤ten
ĠFre ien
Er gebnisse
Ġdire ction
ĠÂ ·
Ġcor porate
besch reibung
" )
p ommern
Ã¤ udes
Ġc atch
ĠL ange
ĠL Ã¶s
ĠC onst
ĠSt ill
ĠAn im
Ġcom pl
Ġex ter
ock en
Ġfo otball
Ġitalien ische
ĠPass ag
mod ell
ĠTw itter
ĠEns emble
Ġs Ã¤m
st one
sk a
Ġpass ed
Ġgener ally
ĠGebie ts
D I
ã Ģ
Ġm ilitary
ĠT aschen
Ġst yl
ĠDe ck
Ġco ach
stell te
Ġrequ ires
Ġop in
ĠPatr ick
ĠKranken haus
D atei
ĠK Ã¶r
ĠZ o
schaf fen
lin s
Ġcom bination
iz ont
Ġman chmal
ĠBundes ver
gra de
Ġtrad ing
Ġinsp ired
best and
Ġbisher igen
P eter
T od
U C
n ik
ĠM aschine
ut ch
ab ilities
Ġinc ome
med izin
ĠSchl Ã¼ssel
e ch
ge zogen
om it
ra uf
ĠR io
ver l
ĠRes erv
sw ald
Ġdet ailed
Ġruss ische
ĠFle isch
Ġappropr iate
P C
Ġf uhr
Ġg one
Ġl iber
af e
Ġ18 00
iz z
ĠAb geordneter
ĠWelt meister
Ġerw orben
ush ing
Ġpract ices
H ome
j u
k Ã¼ste
or ps
ĠP ie
ĠW end
Ġaus gesch
rat ing
zeit schrift
ĠReg ionen
ink en
Ġget rennt
Ġcour ses
Ġir gend
Ġpan el
ĠWeihn achts
r ia
us sen
ĠH aar
ĠL ike
ic ans
ĠN ob
ĠPro pert
ĠGem Ã¤lde
fahr zeug
ĠBr ust
Ã¼t ten
ĠLie fer
ĠmÃ¶glich st
ĠmÃ¶glich erweise
wor th
ĠNiederland e
Ġs now
Ġin tegra
ĠW atch
ĠW Ã¼rttemberg
ĠZ ivil
Ġsch affen
gel t
bau te
Ġeff orts
Ġ187 4
ĠMinister prÃ¤sident
Ġvert rat
ĠAktiv itÃ¤ten
Ġmaint ain
p ool
w Ã¤hnung
ĠS yr
ĠSt imme
ĠO S
ĠSch reib
sp rÃ¤sident
ĠAr gentin
ph ys
ĠNe um
ĠGra ph
Ġbo ught
Te am
Ġbegann en
ĠBre mer
ĠHil fs
Ġupd ated
aill en
fÃ¶rder ung
Ñ Į
ĠS auer
ĠB Ã¼r
Ġo d
ĠRe de
Ġpr incip
Ġel ement
ĠGu ide
esent lichen
ĠTor onto
ĠViel zahl
ĠEngine ering
Ġnotwend ig
ĠSyd ney
D aten
Ġb rief
ĠK abin
ĠH Ã¼gel
Ġdes igner
ies s
th aus
ia c
Ã¤r ten
Ġfe aturing
Ġdist ance
Ġwatch ing
Ġcontra ct
ĠWag ner
ĠA u
Ġn ennt
ĠCo ver
get reten
Ġ187 9
Ġ186 7
Ġpack age
Ġren ov
w ord
ĠS W
Ġc ore
ĠE sp
Ġbe zeichnete
ĠU RL
ĠNach folge
ĠVerein igung
ĠHol lywood
ĠInternational e
ĠPort rÃ¤t
ĠJapan ese
ĠEing abe
Ġsepar ate
ĠPremier minister
h as
m aschine
z esse
el ine
ĠT ats
Ġl ose
Ġi Phone
Ġcomp os
Ġeinge tragen
Ġlim it
rond iss
Ġm ut
Ġn Ã¤her
ĠF ull
ĠJ im
hen den
ho u
erk ennung
ĠSe kunden
auf t
rat h
ĠKo ordin
ĠÃ¤lt esten
P al
w ich
Ġa im
Ġa uÃŁen
ac ing
out s
amil ton
Ġbet roffen
ĠGesch le
Ġpol y
Ã¤nder te
Ġengl ische
Ġautomat isch
ĠCharl otte
g s
ar ischer
Ġp ow
Ġg allery
ĠPr ix
igt es
ĠBundes staat
ĠCon gress
Ġmed ium
199 3
Ġteach ers
Ġlar ger
ĠChampions hip
k olle
re ht
un es
ĠM ut
Ġdie d
ĠEin sch
Ġ9 5
fol gen
Ġspe ct
Ġbr ight
Ġtop ic
Ġoper ating
ĠFer ien
ĠKard inal
E B
U p
z um
Ġw eder
an ch
re me
ĠM iddle
Ġ( ;
Ġc ategory
ĠSt unde
est and
Ġle ather
ober t
ĠYou Tube
Ġmin ute
ĠOff en
Ġart icles
str umente
Ġschwer en
Ġengine ering
ĠBrad bury
Schwei z
Ġverpflich tet
n ieder
} ,
Ġb ess
ur ies
ĠB le
ĠG ot
and o
Ġre form
if el
Ġr u
ine a
Ġinter pret
Ġworld wide
Ġrem ove
Ġreal ity
a o
n i
Ä «
as p
ic i
ens es
ĠAuf l
ĠVerb reitung
ĠKÃ¼ sten
ĠOper ation
ĠItal ian
s ein
Ġn Ã¶t
ĠG att
ir urg
we ich
Ġbes onder
Ġverb indet
ĠHoch zeit
Ġpost s
Ġclos ed
ĠGed enk
Ġafford able
f ir
h ai
Ā Ā
ie ht
ĠS aar
Ġin gred
le ute
ĠG ab
ĠH ild
Ġst ick
Ġver Ã¤ndert
ĠThe atre
Ġunter scheiden
Ġman ager
olog isch
iqu id
Ġbesch Ã¤d
ĠRes erve
ĠVerÃ¶ffentlich ungen
Ġgriech ischen
R Ã¶misch
k B
ĠB Ã¼nd
ĠF ur
ot yp
rÃ¤ ft
lieÃŁ en
Ġval ues
Ġbr asilian
ĠGar den
Ġaud io
ĠVen edig
ĠRaj on
l Ã¶
te am
re pr
ĠC apt
Ġab gesch
ges ell
ins on
Ġbef Ã¶rdert
ĠBel gien
Ġcompar ed
Ġpromov ierte
ĠMik ro
Ġtick ets
M aler
ĠP el
ĠH yp
Ġzu k
ĠGe werk
Ġar en
ĠPl Ã¤tze
pf ul
ĠPf ad
Ġ188 6
Ġprocess es
ĠCor ps
ĠSpring er
Ġverhinder n
Nov ember
N or
P e
e ister
z unehmen
re gel
ĠR Ã¶m
ĠL av
ĠUn fall
ĠÃ¼ber nehmen
Ġpart ies
ĠSec ret
Ġt aste
ĠH amm
Ġden k
ib e
Ġcont ain
Ġspe ak
ĠGott fried
Ġaff ect
ĠAmts zeit
Cont ent
ĠMail and
E X
H Ã¶r
k as
k ov
â Ħ
er ei
Ġs elling
ĠB io
ĠD al
Ġ( ),
ĠG itar
me te
ĠMar burg
ĠMark et
ĠBÃ¼ hne
hÃ¤lt nisse
ĠSec ond
ĠLate in
Ġf inn
ĠE conom
ĠSch laf
Ġun ge
geb nis
ma jor
vers icherung
Ġgu ess
Ġ186 9
ategor ies
Ġfav our
ĠGal ax
B ox
C ol
H inter
c ore
in us
in sel
un ters
ĠB em
sch wer
ber icht
Ġer mittelt
ĠSch ei
alen der
ĠerÃ¶ff nete
ĠRog er
W or
Ġs ister
ĠA ction
ĠC EO
ĠAr rondiss
rÃ¼ ft
ĠWe il
Ġhier bei
akt oren
ird s
Ġstark e
Ġcontin ues
Ġfact ors
ĠErw achsen
ĠSym bol
ĠUntersuch ung
ĠVictor ia
A pril
d atum
m acher
Ġt ask
as i
Ã¤ ÃŁ
ĠL ady
ot ic
ab geordneter
qu enz
ens is
Ġ5 8
Ġpla ced
ĠBes etzung
Ġletz t
Ġlearn ed
ĠBed ingungen
ĠPfar rei
K om
Ġ ice
ch a
at om
as is
ĠL ock
og a
ĠBe f
oh ol
ĠWelt meisterschaften
Ġaut o
ĠStÃ¼ck e
Ġhinz uge
ĠTab ellen
ĠPfer de
E E
F r
l enz
ĠB ier
Ġre chte
op ter
lie ger
Ġum gebaut
Ġus w
go ing
Ġpract ical
Ġmax imum
G et
L auf
M Ã¼n
N atur
ĠD ial
ach te
wer ten
Ġres idents
ĠFre ist
ĠPhil adelphia
Ġsel ber
jahr es
Ġoper ations
Dies er
ĠSchiff s
ĠCla ud
ĠPrinz ip
] .
Ġa fr
ĠS now
ĠD ynam
Ġc ivil
ĠW ang
alt ar
ĠAnd ers
Ġbu ying
ĠSk y
Ġfre ie
stag s
ruct ure
Par ameter
Ġschwed ischen
hoch schule
ĠL uk
ĠAn gabe
ĠkÃ¶n ne
Th at
ĠGemeinde gebiet
Ġstor es
schlÃ¤ ge
c ise
c omp
Ġb urn
Ġer b
Ġl ights
Ġsch aff
iz er
ail and
fen se
iss es
Ġ6 6
ĠBes ter
Ġdort igen
ĠGrÃ¼ nen
ĠFel ix
ĠNetz werk
Ġneg ative
Ġmat hemat
Ġelekt ron
us se
Ġp ull
ger y
Ã¶r g
bo den
Ġbetrach tet
E nd
Ġs inn
ĠB ade
Ġl i
Ġge tragen
ĠZ ul
ap ed
geb irge
Ġper man
bach er
unds Ã¤tz
Ġwalk ing
ĠErfahr ung
ĠH agen
ĠSp itz
ĠEin t
ĠBi ograph
Ġseek ing
i ors
Ġin stitut
st at
ĠP s
ĠAn f
Ġj o
rÃ¤ cht
The y
Ġpl ants
bes itzer
ĠMod elle
Ġopen ed
iller ie
Ġadmin istrat
ĠDir igent
Q L
a ver
r un
am ik
ver teid
ĠKr one
Ġshow ing
the ater
ĠGef angen
vier tel
mir al
K Ã¶nig
à ¦
ĠM Ã¼hl
Ġc utting
ĠMÃ¼n chner
ĠMet al
Ġstar ts
bin sel
Ġ186 8
ĠDire kt
Ġsatis f
b Ã¼t
p asst
es ota
el be
ĠP seud
ĠW ik
Ġg Ã¼lt
Ġe arth
ĠBe aut
ĠAl ph
Ġum fassen
ĠSchw ier
Ġra in
Ġverb rachte
Ġfocus ed
Ð¾Ð ²
ĠGleich zeitig
Ġsqu are
Ġfem ale
ho e
Ġbes onderen
ĠBr enn
gesch lecht
ĠEner gy
ĠBur gen
Ġbein hal
Ġreli able
Sep tember
ĠM Ã©
ter t
ĠO ze
Ġst one
ĠLe v
Ġar m
ĠFe hl
Ġ188 2
iden z
ĠKÃ¼ che
", "
Y our
z ed
er ien
ĠB och
ĠBe weg
ĠEurop as
Ġsho es
Ġ188 4
ĠsÃ¼d Ã¶stlich
Ġerm Ã¶glichen
ĠFÃ¼hr er
wirk ung
b ody
d on
d ar
v ia
Ġm ental
ĠB ibel
ĠM Ã¼hle
Ġl esen
ĠN am
ĠEr ic
Ġvor gestellt
acht ung
Ġspiel ten
ĠLin den
Ġvis ual
Ġerreich ten
umm ern
ĠgrÃ¼ nd
ĠFrei herr
Ġjoin ed
Ġhappen ed
zuf Ã¼hren
ĠDrehbuch autor
ĠOh io
ĠNikol aus
T itel
r ian
in stitut
Ġt rifft
Ġs ustain
le ide
Ġn am
ĠW ales
Ġyo uth
Ġse ctor
Ġcon temporary
ĠMar g
utz ung
ĠPf alz
ĠRo hr
Ġspe zial
Ġbelie bt
ĠKant ons
ĠMein ung
b ein
le te
ĠB Ã¶
ĠI h
em ie
ĠR ats
ic ian
Ġver urs
Ġaus reich
Ġle gend
Ġvor wiegend
Ġkann st
ĠGroÃŁ herzog
ari at
Ġnational e
ĠursprÃ¼n glichen
Q ual
o or
r asch
ĠG allery
Ġk id
Ġver n
inz ip
ock et
Ġsol chen
ĠDon ald
Ġwind ows
Ġzie hen
E m
S ee
e en
h ops
Ġan lÃ¤sslich
Ġfor mal
Ġsch uf
ĠAl ters
ĠStra nd
ĠGo vernment
Ġpriv aten
ĠEis hockeyspieler
M at
Ġd inner
ĠM ember
ĠF our
ent wick
iel len
up pert
me ter
fol gung
Ġhel pful
Ġ188 1
ĠMeister schaften
Ġjapan ischer
Ġcommit ted
n itten
Ġs ample
Ġf ahren
Ġ( ).
Ġdes k
ĠZ Ã¼ge
Ġad apt
ĠWelt cup
ool s
Ġstud io
Ġadd ing
ĠTem plate
sprÃ¼n glich
usÃ¤tz lich
ĠRu hr
Mus iker
umin ium
ĠSing ap
âĦ ¢
h Ã¤ndler
Ġ ĠĊ
ind ungs
Ġse at
int age
Ġapp lied
ĠGroÃŁ teil
Ġ188 3
bed ingt
ĠEth n
ĠGlo cken
an bul
ĠP ut
Ġein iger
ĠF abrik
ĠN un
ers te
all iga
od ie
ĠEr Ã¶ffnung
Ġch anging
ĠAus gang
ret ch
ĠAlt stadt
Ġtest ing
Ġaud ience
Ġextens ive
ĠPots dam
k unft
us k
ĠD og
Ġc alls
ĠK amera
ĠW y
ste ine
ĠAl p
Ġ9 9
Ġap par
ĠMark us
198 9
ĠDem oc
Ġnord westlich
r ical
Ī Ĵ
ĠA x
ĠK un
ĠL yr
ĠN on
Ġun its
ĠRe kord
art igen
gr Ã¶ÃŁe
ĠBe fehl
Ġex change
ĠEn glisch
anc er
Ġ186 6
Ġklein eren
Ġruss ischer
ĠNutz er
ĠGi ov
Ġbestehen den
Ġgelegen e
Ġexpert ise
ĠunabhÃ¤ng ig
Ġbirth day
Ġnov el
ĠChild ren
es heim
el ing
st ar
Ġn annte
Ġre ag
we ight
rie t
Ġvor aus
ĠBer atung
Film schauspieler
ĠzusÃ¤tz liche
ĠHir sch
ĠThÃ¼r ingen
A cc
ĠF ord
Ġg olf
Ġre ference
ĠMit gliedern
Ġdr ug
Ġgef ert
ĠAnt wort
Ġexist ieren
g i
Ã ľ
Ġd rop
ĠA ccess
st um
ĠT ake
ĠT onnen
ĠF a
ĠF els
ĠG au
ĠR av
19 18
Ġum fass
ĠLe vel
ĠGrund stÃ¼ck
ĠKn ow
ĠCor poration
ĠPre ise
ĠAst ronom
ĠColor ado
A ss
z usch
Ġin nen
ĠB ag
ĠF ield
and e
ĠJ ava
la in
lass ung
ĠVerb ands
Ġtrans l
ĠMass achusetts
ĠJes u
Ġsuit able
Erster wÃ¤hnung
am ts
ap es
Ġpl atz
ett i
ĠTo ten
ĠBro ok
ĠBrÃ¼ cken
obil ien
Ġcent re
ĠerhÃ¶ ht
ugos law
al ition
re h
und le
ĠEr m
ste ig
Ġ6 3
ĠKl ima
Ġ187 3
Ġmittler en
Ġbal ance
c ar
k w
n ab
r ale
Ã ī
Ð ¹
is or
ĠB ir
ĠK Ã¶n
sch icht
ĠO m
os ing
art ig
Ġapp oint
ĠNieder Ã¶sterreich
ĠĠĠĠĠĠĠĠ ĠĠĠĠĠĠĠĠ
stud ium
ĠKais ers
M ai
Ġm ail
Ġbe we
kt op
Ġde als
ĠBr uch
pos es
ĠBro ad
Ã¨ s
Ġinde x
c ious
Ã ¦
Ġm ist
ol t
ĠG ouverneur
ĠE C
ile y
ĠMo z
Ġmanufact uring
ĠKath arina
O G
O ktober
n or
Ġs it
Ġw under
ĠO R
qu er
Ġen det
ss el
Ġ5 9
ĠMin ute
aly t
Ġaut om
ĠBesch Ã¤ft
Ñģ ÑĤ
Ġthe oret
ĠP ict
Ã¶ te
ĠN av
Ġaus ger
fe ktur
Ġ6 2
Ġget Ã¶tet
Ġev idence
Ġserv ing
ĠCl ark
Ġgeboren e
ĠhÃ¶her en
Komp onist
l iteratur
w affen
Â ´
Ġer gibt
if ff
19 80
ĠAd ler
elb ourne
Ġtechn ischen
Ġentwick eln
ĠKo operation
Ġenvironment al
ĠQue en
F B
a al
d arsteller
g ium
v ar
ĠS zenen
ĠG U
sch le
ĠAn alyse
Ġse a
hl on
Ġdo ctor
ĠEd el
Ġ187 2
ĠGeorg ia
ĠMaler ei
kn own
Wer degang
l u
ut y
ĠL angen
od ox
ĠBe cause
Ġent schieden
Ġper haps
ĠAut hor
licher weise
Ġange zeigt
Ġfac ility
ĠSouth ern
Ġlight ing
Ġsw itch
gÃ¤n glich
Ġsozial e
Ġprepar ed
Ġassist ance
Ġzie ht
Ġoffiziel len
Ġdeter mine
V I
s ite
t w
al om
Ġb itte
ĠA sh
Ġh Ã¶ren
ĠE mer
ĠH amilton
ul ations
ad ow
irt y
Re gie
Ġgleich e
app y
Ġstatt finden
Ġwicht igen
gebie ten
Ġleader ship
Ġeconom y
Ġresour ce
ĠGÃ¼n ther
S A
d rÃ¼ck
h u
h y
v ideo
ol ge
ĠSt one
ĠAr g
ungs gebiet
ĠpersÃ¶n lichen
W ill
Ġn ennen
Ġver anst
Ġcomp rehensive
man agement
uck s
Ġinst alled
ĠKap itel
ĠHel m
herr schaft
Ġabsol utely
T R
ar ma
und et
ĠD rag
st immung
ĠSt ore
gr Ã¤
ĠÃ¼ber setzt
berg s
ĠFor mat
Ġber Ã¼cksicht
Ġrec ords
ĠHand lung
ĠMann heim
ĠMag n
kauf t
Ġcolle ct
Ġchar akter
ĠmÃ¼nd et
l ight
Ġ icon
Ġd ance
Ġs ucht
re land
ĠM ix
ĠD iam
ĠK Ã¼r
Ġz Ã¤hlte
geb lich
che ck
ingen ieur
ĠNieder lage
ĠJohn son
ĠSam uel
On line
ĠRestaur ant
Ġanim als
Ġh ieÃŁ
eb ens
19 70
Ġch amp
ac ts
Ġdo ors
ĠBar ock
opp ed
Ġersch einen
For m
ĠBud apest
ĠAre a
ĠProt est
Fin ale
writ er
ĠEliz abeth
t own
Ġs um
ĠA ster
ĠB ath
ĠT ot
Ġein geb
ĠG abr
ip edia
Ġ18 78
pen den
off s
ĠDorf es
Ġorganis iert
col n
ĠBul gar
Ġprof ile
ĠBuchst aben
f iel
Ġd ank
ĠH at
ĠL ad
Ġan imal
ĠVer eine
ĠVer fassung
Einz el
fahr ts
br onn
ĠStud ie
ĠHoch schul
ĠDes halb
Ġenjoy ed
ĠCast le
l Ã¼ck
Ġf rag
Ġm arriage
sch uhe
ĠW itt
ĠWe ek
cl ub
ĠEv a
bro chen
ĠGest alt
c os
g reg
h ere
Ġh ast
ik ing
iz ens
ĠGe fahr
Ġbek ommt
ĠLin coln
jÃ¤hr iger
ĠSchn itt
Ġrep rÃ¤sent
verb indung
isc ons
ĠVarian te
Ġcombin ed
er d
ĠA ar
ĠK Z
ĠL iv
ĠBe eth
ĠUnter richt
old ing
Ġqu er
Ġsc ore
Ġag ree
Ġke pt
ĠEnts tehung
ĠGÃ¼n ter
Ġerforder lich
F il
v ollen
us es
ĠD ick
ĠG Ã¼
ĠJ ar
op her
ob jekt
Ġind ic
Ġknow s
ĠAs ia
ĠAnt i
Ġkeep ing
Ġport ugies
A pp
D ivision
h es
Ġin ne
ĠB rem
ĠR ou
ĠL ein
ĠN R
Ġver teid
ass ung
ap os
ĠEr richtung
ĠKomp onisten
jahr en
Ġest im
Ġbra in
Ġrun s
ĠGebie ten
ĠMun icip
u j
u ben
en hagen
ĠM es
Ã¤ use
ĠP ic
Ġc ells
am ten
ĠL Ã¤nd
Ġan geschlossen
Ġr ule
ĠRo om
ĠlÃ¤ uft
Ġdist in
ĠPak istan
ĠPerform ance
z ert
ĠS ummer
ĠP iet
ĠL uther
ĠIn halte
ag ers
ult y
Ġval id
Ġsex y
Ġcap acity
ĠDenkmal schutz
Ġpark ing
Jahrhund erts
ĠProm otion
Ġheil igen
ĠGesprÃ¤ ch
D ata
Ġv s
et on
Ġbe handelt
Ġe hren
Ġfor eign
od ies
ĠÃ¼ber sch
ĠTra um
Ge ografie
Ġloc ations
ĠgrÃ¶ÃŁ er
ĠPla ce
ĠTechn ischen
ĠKÃ¼ ste
ĠIl linois
ĠKauf mann
Ġrestaur ants
ĠSpielt ag
Ġd okument
Ġf la
le ar
ĠL ed
lie gt
ĠMot iv
wor fen
Ġvisit ing
ĠBern ard
Ġgener ation
ĠInform ations
Ġlok alen
repr ene
L o
ĠD ak
ĠD ok
Ġc ry
ir ts
ĠSt or
Ġver boten
etz ungen
Ġent lassen
ĠSe en
ĠUr laub
Ġober halb
Ġdoc uments
una tely
Ġfa ith
Jan uar
ĠWeib chen
C A
ĠS ed
re iter
ĠT s
ĠG oth
ĠJ ungen
ant on
teil te
setz ungen
Ġkomp lex
ĠMathemat iker
ĠKan al
Ġkanad ischer
Ġflow ers
ĠContin ue
ĠVerÃ¤nder ungen
ĠViet nam
x id
it age
Ġb auen
ic ies
uf er
Ġwir ken
ĠLe o
fe uer
ĠFran ces
Ġ7 00
ĠkÃ¶n ig
ĠVerb esser
ĠsÃ¼d westlich
Ġed ge
Ġprote in
ĠkÃ¶nn ten
Ġsicht bar
H T
H z
L A
Ġd ein
at ische
ĠB ull
ĠL ov
Ġbe ant
Ġl auf
ow ohl
og ie
Ġsp ons
iz ist
Pro gramm
Ġ187 6
Ġhal b
ĠWehr macht
ĠBesatz ungs
Ġurkund lich
Ġa gency
or ded
ĠM ie
Ġp ul
Ġr ing
ĠLe ute
ĠMar cel
Ġad ults
Ã© l
St ar
ĠKon stant
198 6
Ġoper ation
Film titel
fre und
lieder ung
ĠHÃ¶ch st
M en
Ġa th
Ġm einen
ĠF A
Ġaus gebaut
ph ase
Ġges prochen
Ġestabl ish
Ġtemper ature
in et
Ġa ware
Ġs am
te gie
re ffen
Ġb on
Ġc e
iv a
ell es
Ġsp ending
ĠAus bau
ĠHe er
kl ar
rech ung
Ġsour ces
Ġkom bin
ĠNiederland en
ma ÃŁen
Ġspec ies
ĠGu y
193 9
ifik ations
Ġprot est
Ġconven ient
ĠtÃ¤ glich
Ġacadem ic
Ġgren zt
g asse
Ġc art
ĠG un
ĠVer zeichnis
Ġwork ers
Ġmark ets
ĠInter pret
Ġopt ional
minister iums
Ġtrat en
193 3
ĠColle ction
Ġzeit genÃ¶ss
ĠFass ung
hers teller
EF A
ĠÃĦnder ungen
/ >
g entlich
Ã¤r n
ĠFer r
ĠWissenschaft ler
fÃ¶rm ig
endo ktor
Ġ iron
Ġd im
be hÃ¶rde
co uver
Ġakt iven
Te il
Ġperform ed
Ġbegleit et
Ġerlang te
K at
or ough
ar ett
Ġc row
ĠV inc
âĢľ -
ĠMus ter
arb y
Ġbo und
Ġact ual
Ġgl ob
Ġ186 1
ĠGed anken
gestell te
Ġfeature d
O K
Z eich
o es
o ted
w ird
ar isch
ĠE xt
av or
iz ona
Ġ9 00
ĠCo ast
Ġprom ote
Ġâ ļŃ
Ġcontin ued
gebie ts
ĠerhÃ¤lt lich
Ġspeziel l
Ġlaunch ed
P R
l ach
in tend
ĠB Ã¶r
ĠD ampf
ĠT rom
ĠSp recher
Ġme ant
ile t
Ġar range
Ġrec ipe
Ġhin ein
ĠFr ucht
Pro zent
wor ten
ĠEinwohner zahl
Ġhoch wert
Ġhapp ens
ĠMaterial ien
K unst
k anz
y o
er z
re uth
Ġf rem
Ġf ederal
ig ration
Ġein gew
geb ra
ĠGemein schaft
gesch Ã¤ft
Ġfl u
ĠGesch windigkeit
ĠHam mer
ĠKr iminal
Ġ186 2
ĠWahl en
Ġbeh aup
Ã¶h ere
Ġasp ects
ĠWhe ther
iscons in
J uli
R ock
v et
it able
ie u
ĠB rie
Ġc up
ĠK ul
Ġk aiser
ĠSp Ã¤t
iz za
rit tel
ĠIm age
ĠKl ub
Al t
Ġpo et
Ch ar
US A
ĠDav is
Ġkomp on
telligen ce
ĠRena issance
VerÃ¶ffentlich ungen
BevÃ¶lker ungs
Ġlern te
rÃ¼st ung
Ġa u
ĠE g
Ġg ain
ĠSp irit
Ġunter gebracht
ac o
pp ing
ĠPh ase
ĠHo tels
ĠOrt schaften
Ġerfolgreich en
Ġnord Ã¶stlich
Ġschwed ischer
Ġpaint ing
ĠBres lau
ĠIh rem
B M
F est
n s
v iel
ĠB alt
ĠR och
Ġk Ã¼nd
lich em
gen cies
Ġe ating
ow itsch
ĠZ wer
qu elle
uss y
ĠIm p
Ã¤ch er
Ã¶ff net
ĠBo ot
ĠNor mal
Ġerh Ã¶h
unkt ions
Ġlo an
ĠTele fon
Ġhon est
H C
or ney
ar film
al ia
ĠB ody
st reit
ĠO ster
ĠDie go
Ġ3 000
ĠAus zeichnungen
amm ern
ĠRo ute
Ġbef ind
ĠSup port
ĠTer ror
ĠFot ograf
ĠSen ior
Ġdefin iert
Ġmass ive
Ġunivers ity
Ġpers pect
Ġincreas ing
Ġexcl usive
ĠGemeinder at
Ġleit et
S m
Ä Ł
ĠS oll
Ġf ruit
ĠM S
ĠC reek
Ġan zu
Ġwh atever
Ġacc om
Ġbesch lossen
Ġbeste hend
ĠFr iend
ournal ist
Ġthough ts
ĠKategor ien
ĠSar ah
ĠModer ne
zep te
ĠendgÃ¼lt ig
ynast ie
ĠBronz emed
D u
ĠB ou
Ġein deut
ĠV f
Ġdem onst
ĠCh air
auf nahmen
ĠVor stands
Ġvers etzt
S ome
W ird
un nen
ĠL iving
ĠN ad
ĠN AS
ĠGe werbe
igh ted
ĠEx p
ĠÃĦ hn
ĠCom ic
Schwei zer
Ġlux ury
Fried rich
A kt
H i
W ien
g ard
Ġd Ã¼n
ie hen
Ġw inning
Ġl abor
ĠSt Ã¶r
ab end
ĠSch aden
ĠIn v
ĠÃ¼ber w
rÃ¼ ckt
ac ter
ĠNe ur
ĠGl ad
Ġcre am
ĠNatur al
Ġgele gentlich
ĠDÃ¶r fer
or um
ĠB R
sch ung
sch ild
ĠR olf
ĠC oll
all as
ran e
ast ik
Ġwas te
ĠBl u
ĠGo ethe
ĠPeters burg
Ġfertig gestellt
p ie
ar ks
ĠF ast
ĠG on
im i
aus bildung
fin der
Ġtr uth
Ġacc ident
ĠUr ban
Ġtre ten
Ġspecific ally
Ġcas ino
ĠKrank heit
p ra
Ġf illed
am o
Ġbe comes
ier mark
tel finale
ĠBe at
ĠBe hÃ¶rden
iz ierte
Ã¤r m
ĠNe ck
ĠBr idge
lex ikon
ĠVert ra
Ġ187 7
iar den
ĠKup fer
ĠPac ific
gesell schaften
b n
Ġt rop
ĠM au
ĠD opp
ĠG n
ĠL och
Ġr ide
Ein wohner
Ġverl Ã¤ng
ĠKommand o
Ġrom ant
R oman
Z e
on ischen
or ganis
ĠT ony
ĠK oll
Ġdie t
hr ten
ĠV ikt
Ġst yles
Ġj ump
âĢľ ),
ĠSe hen
Ġman aged
Ġnot es
ĠAus stattung
ĠEs c
aw ay
ĠFre der
ĠGrund lagen
Pro v
Ġ186 3
Ġmen u
Ġauth ent
maÃŁ nahmen
ĠRumÃ¤n ien
D C
T E
W as
b ist
ĠT u
ĠG a
ĠSch atten
ĠAl te
be cken
tern oon
Ġthere fore
ĠMin i
Ġra ised
Ġdel icious
ĠLebens mittel
orge ous
Ġsmall er
ape ut
ĠKol onial
spe kt
M otor
m ack
Ġb Ã¼rger
Ġf arb
ĠL uz
Ġl ibrary
ĠSch all
Ġne ck
ĠEin en
Ġany where
ĠOber flÃ¤che
ĠStud ent
Ġval u
ĠÃĦ gypten
ĠLandkreis es
198 8
ilome tern
Ġbuild ings
Ġwid mete
ĠSyn ag
Ġappear ance
ĠKolle gen
ĠArrondiss ement
k Ã¼nd
Ġm ort
Ġk os
Ġst unning
Ġ6 1
use ums
Ġob vious
arr ier
Or ts
ĠMark en
He ute
Ġdamal ige
Ġverur teilt
it iat
Ġb rown
ĠB enn
ĠB apt
Ġn a
ĠG ipfel
Ġan fangs
Ġr ental
Ġsh ower
ĠFahr t
ĠMag azine
198 4
pos it
seit ig
Ġzentr alen
ĠTi rol
ĠW ester
ak et
au ert
ungs ver
Ġges te
ĠUm setzung
Sch ule
ĠPol ice
ĠAmer ika
Ġsur vey
Ġvol ume
Ġvorhanden en
Ġpoln ischer
ĠDiet rich
P A
T er
Ġp or
ĠT ho
ĠH aupts
ian e
ĠVor bild
ĠUnter schied
ĠTr ier
ĠBes onder
spieler in
Ġtop ics
ĠFil men
ĠHit ler
Ġmention ed
ĠverfÃ¼g bar
c ard
l ein
in th
Ġf uel
Ġc ultural
ĠF ein
Ġbe zieht
Ġl abel
ul ated
ot ograf
ill en
ĠRe f
ĠVer wand
ĠSp ark
Ġso unds
Ġwor ry
ĠPar ks
De zember
ĠBundes wehr
ĠVerb indungen
Ġerr or
ĠSm all
Ġtre es
Ġans Ã¤ss
ĠMatt he
Ã¤dagog ik
Ġverwende te
htt p
b ase
s ing
ĠN ationen
ĠIn g
ĠHe y
ĠPl ant
Ġfl ight
Ar beit
Ad d
profess or
Ġneighbor hood
B aden
P osted
a ktionen
t op
on line
ĠM aus
ĠM obil
Ġis rael
ag on
ĠThe ir
Ġsch rift
Ġ9 6
Ġgen ug
ĠSo zi
ĠBes onders
Ġdec ide
ĠMill er
ĠHen ri
ĠniederlÃ¤nd ischen
Ġbeauf tra
> ,
H am
Ġs izes
Ġf ro
ĠG anz
ĠK h
um es
Ġwir kt
ans ion
ett ing
gew inn
fort unately
Ġhistor ical
ĠPlan ung
Ġconne cted
Ġtot ally
Ġrecommen ded
ĠS zene
ĠM ind
ĠL em
Ġk Ã¤mp
af eln
Ġqu iet
ĠBr ian
off izier
formation en
schn itte
Ġshow ed
Ġaccess ories
wechs elt
ĠergÃ¤n zt
is p
ent ially
ra gt
ĠH T
ĠH alt
Ã¶ scht
ĠV ul
Ġk irch
ĠZ unÃ¤chst
Ġ18 40
ret ung
... ]
Ġmost ly
Ġtechn ologies
ĠÃĸsterreich ischen
Ġlog o
ĠBrun nen
ĠVerd ienste
c us
Ï Ħ
ie ck
ĠM B
ĠD id
isch t
Ġver ab
ĠEr ster
ond a
ian ischen
Ġmehr erer
Ġ8 8
ĠKon zentr
mÃ¤ÃŁ ige
ĠSam stag
Ġausgest ra
ĠKapit Ã¤n
ĠDoug las
BevÃ¶lkerungs entwicklung
D E
i ben
ĠH als
ĠW rit
ĠR auch
Ġto ward
Ġj u
Ġab ges
ost ol
ĠTh or
Ġbes etz
ute te
pro jekt
amt es
rand enburg
Ġgu est
Ã¤tz t
ĠfÃ¼nf ten
mÃ¤ÃŁ igen
Ġwei ÃŁen
ĠMeer es
Ġemot ional
sch irm
ĠC ass
ĠJ ens
ĠSch ild
Ġbes ie
port al
ĠSer ge
Ġmar ried
Ġeduc ational
Ġelect ronic
Ġclick ing
kÃ¼rz ung
E very
ĠB iele
ĠM uss
Ġr umÃ¤n
Ġab stra
ĠUm bau
ĠBo gen
Ġteil nehmen
bereich e
Ġzeit weise
Ġkor re
ĠAllgemein en
Ġabger issen
B rite
c our
f Ã¤llen
k ind
ĠF reis
Ġer richten
Ġe gg
Ġzu ge
ust on
geb oren
ĠNach wuchs
ĠFre itag
Ġtechn ische
Ġbro ther
deck te
ĠKons erv
Ġhous es
ĠAutob ahn
K inder
S onst
m i
w eiten
Ġy esterday
ĠZ iele
ĠVer fassungs
20 21
bau en
ĠGu ard
ĠKirchen gemeinde
Ġwicht iger
ĠTour ismus
ĠAkt ien
c s
s Ã¤tze
Ġd oll
ĠS itze
al ters
Ġv ul
Ġp m
ol ve
ĠC her
Ġst Ã¤rk
ĠIn se
men ted
ĠPr ior
Ġben annte
Ġfun ctions
ĠKÃ¶l ner
Ġzwe ier
ĠAutor in
C up
E nde
M ont
R eich
b ut
it as
or ges
ĠP ir
ĠH ave
ĠC ommer
Ġde fe
ok us
ĠPr ince
Ã¼nd en
ĠBen j
ĠMor itz
dienst kreuz
Ġcond uc
ĠKat alog
Ġbestand en
Ġallgemein en
h Ã¼tte
i ÃŁen
st ers
ig o
Ġth us
ot ton
ĠAb stand
ĠHe x
rat is
ĠMark e
Ġ186 4
fre ie
ĠBil dern
__ __
Ġadvert ising
ĠverstÃ¤r kt
ĠAnh Ã¤nger
b lock
or ry
ur ger
st ritten
Ġh op
ut ation
ent le
ra f
ĠR ainer
Ġver gangenen
Ġex tre
Ġme x
form at
pr int
fÃ¼ llen
Ġshe et
Ġeigen er
sw ers
ĠRechts wissenschaft
Ġhol te
gef angen
ĠAth let
S ince
Ä Ļ
Ġ Ø
Ġc ir
ach ter
ĠJ ay
Ã¼r f
ĠO der
og el
Ġle aves
Ġco ast
amp s
vers orgung
Ġinst ant
ĠKrieg sende
athol ic
ĠDo ktor
193 8
ĠRuss ian
Ġern annte
cycl op
ĠMinn esota
S an
un sel
ic ient
Ġpro min
ĠTh ailand
Ġcomp let
Ġ7 6
Ã¤nger ung
Ġsign ed
ĠRechts anwalt
deutsch land
lÃ¤nd ische
196 9
Inter ior
Ġinspir ation
ĠAng st
Ã¤u den
stechn ik
tl ere
L ou
un en
Ġv ent
Ġh Ã¶here
ĠW uppert
ow o
tell ungs
Ġum ge
imm ungen
Ġsc ale
ĠChrist us
Ġlang sam
198 7
Ġklein es
EN T
ĠSied lungs
ĠVerm Ã¶gen
Ġcaus ed
ĠlÃ¶ ste
Ġcompon ents
Ġaccom pl
B Ã¼
D atum
d ung
o ÃŁen
Ġb at
Ġin ternal
ĠK itchen
ĠH us
et enz
ĠN C
ĠSch ne
ĠAn forderungen
ĠAn erkennung
Ġman ual
ĠBr ut
ĠJul ia
ism ar
Ġeinfach e
emb ly
prÃ¼ fung
ĠniederlÃ¤nd ischer
B I
ĠT oy
ĠK redit
ĠI reland
Ġge e
men ge
Ã¶r dern
fl anze
ĠGem ark
igkeit s
ek ing
uz z
Ġger iet
ĠVers icherungs
ĠMittel punkt
ĠSil ver
ĠOl iver
ĠGef Ã¤ngnis
Ġvac ation
ĠKore a
ĠPast or
ĠBege g
d orfer
n ern
el ement
ĠB ah
Ġk Ã¼
Ġan sonsten
Ġge zogen
19 30
ĠEx ecutive
ital ien
Ġda ÃŁ
buch autor
ĠĊĠĊ ĠĊĠĊ
Ġele gant
Ġprocess ing
ĠschlieÃŁ en
Ġbefand en
Ġintrodu ced
Ġrap id
D av
Ġ </
Ġv illage
ĠD ollar
Ġz ul
ĠV ent
ver lauf
sp art
ia e
Ġunter scheidet
par ks
Ġ6 7
Ġhand elte
ĠWerk statt
iam i
Ġoffen en
Ġbestehen de
ĠStad ion
ĠSchlag zeug
ĠTH E
Ġfung ierte
Ġexer cise
E A
Ġt ail
Ġp urs
ĠW ellen
Ġg ay
Ġbe wohn
ĠJ ubil
Ġge Ã¤ndert
sp ir
Ġgr undsÃ¤tz
Ġfamil iar
ĠPort al
prÃ¤ senz
scheid ung
Ġill ustr
r Ã¶
Ġ ..
Ġw al
le gte
ĠM elbourne
ĠI O
Ã¶ gliche
ik um
ik ations
Ġle aving
Ġse qu
me yer
ĠCh ile
ĠLe h
ĠWil son
Ġwrit er
Ġgele gt
Ġdiscuss ion
ĠJac ques
ĠIst anbul
ĠAud io
Ġrev olution
Ġstrateg ies
Ġwirtschaft lichen
Ġpattern s
Ġbatter y
Ġdisk ut
H el
M useum
ĠAn st
sen der
ĠAl m
19 14
19 78
be zeichnung
lo aded
Ġgen annte
arch ie
Ġsur f
ĠHerr scher
far be
ĠDenn och
Ġschl ug
ĠSpan ish
ĠNeust adt
ĠEntfern ung
ĠKurfÃ¼r st
D ur
K ap
Ġf ly
ĠB orn
Ġh arm
sch el
ĠL ED
ĠSch la
ud ing
Ġum s
Ġ6 8
ĠJuni or
ĠSÃ¼d west
ĠX ML
iges etzt
ĠGeneral major
ĠschlieÃŁ t
b indung
y ard
Ġd anger
ĠM inder
ĠP ersÃ¶n
ĠK orn
ĠW ars
ĠSch we
we et
ĠVer w
ger Ã¤te
Ġnach gewiesen
Ġwe isen
auf nahme
198 1
198 5
ĠSa tell
ĠursprÃ¼n gliche
Ġask ing
Ġtem plate
ĠOs nab
Ġexam ples
ĠstÃ¤r ker
Ġm outh
ĠB in
ĠB atter
ĠM obile
Ġre aders
Ġde ck
Ġun c
Ġfe e
tem peratur
ĠRes te
ĠNorth ern
ĠGiov anni
n ull
ĠS endung
Ġ( "
Ġer geben
Ġst ir
Ġst rip
ĠzurÃ¼ck gegeben
ĠSh ort
198 2
Ġbring ing
ĠSchwer in
ĠOrganis ationen
U l
e ist
an teil
Ġc ute
âĢ ¯
ĠL an
ĠZ ell
ak on
Ġdar stellt
ĠEx press
Ġrem ains
ĠFo x
Ġstamm te
ĠGeschÃ¤fts fÃ¼hrer
ĠTown ship
Ġstellvertreten der
ĠKob lenz
Ġs itting
or p
Ġl in
ĠSch aff
Ġzu gÃ¤nglich
Ġnach halt
ĠSe a
Ġgew Ã¼n
pro zess
Ġadv ance
Fernseh film
R ed
ĠS A
as ks
ĠD ave
ĠP az
Ġh off
ĠH ind
ĠV iz
19 20
rÃ¤ umen
ult an
Ã¡ r
ÃŃ o
ĠMill ion
ĠDar aufhin
ĠLie b
197 4
Ġexp ensive
ĠMult ic
ĠprÃ¤sent iert
e per
te en
ĠD ich
and in
Ġauf treten
Ġam b
ĠLe wis
auf trag
Ġco ordin
ĠAuf ruf
Ġgew eiht
ĠSpiel film
Ġend lich
stoff en
Ġ185 9
ĠAustr ia
Ġallow ing
Ġdescrib ed
Ġagre ement
Ġingred ients
s burger
Ġd ates
ĠB ele
ĠL izenz
Ġk ick
Ġk inder
Ġr iver
19 19
pl ant
ren ce
Ġlie genden
198 3
Ġsearch ing
Ġwes halb
ĠErweiter ung
Ġbenachbar ten
- /
A p
p iegel
w inkel
Ġs a
el em
ĠM L
Ġauf gel
op ol
Ġj en
ĠFor der
Ġ7 7
anc en
Ne u
Ġgar age
ĠZuf luss
ĠKohl en
D okument
P ersÃ¶nlichkeiten
ĠH ope
ĠV ene
ier endes
ul ate
ĠVer handlungen
Ġ18 15
Ã¤ch te
Ġreg istration
ĠAnt rieb
met hode
fre ien
ĠHerzog tum
haupt stadt
Ġprem ium
Ġlau tet
ĠNahr ungs
Disk ografie
F ebru
il ot
Ġn ine
ĠT ran
ĠW arn
ĠSp ann
Ġ18 49
rit ts
rat or
ĠVor stellung
Ġgeb lieben
Ġgel angen
ĠHand werk
kehr t
ĠOn t
197 9
Ġmiss ing
Ġzuf olge
ĠÄ Į
ĠMÃ¤nn chen
Ġflex ible
Ġproper ly
ĠÃľbersetz er
vorsitzen der
Ġhundred s
ĠJew ish
ĠGabr iel
A ccess
ĠD uring
ger Ã¤t
Ġ3 50
Ġ3 60
unt ing
ank a
ider s
ĠPol icy
ĠIr land
Ã¼ste t
ĠKommand eur
Ġdistr ict
Ġdog s
Ġinj ury
Ġbehav ior
f as
w Ã¼rd
w affe
is tern
ein heiten
ĠM atch
ĠP okal
ĠG T
ach el
Ġver letzt
ĠAl ben
ok es
Ġcl imate
Ġtr end
Ġhin ten
Ġgu itar
Ġ186 5
ĠComm on
Ġcommit ment
Ġausgew Ã¤hlt
Ġaf ternoon
ĠFranÃ§ ois
H il
g age
u ers
Ã¤ s
st rÃ¤ger
Ġc os
ĠC er
Ġis ol
ĠEr werb
ĠAl though
ĠEin z
Ġzum eist
ho fer
ĠMar io
Ġ6 9
ĠGer Ã¤te
Ġnor m
ĠProfess ional
Ġmag azine
Ġgelang te
Welt meisterschaften
reu ung
ĠLeichtathlet ik
ĠRuh estand
zust and
N ode
R ec
u ine
x y
Ġd ipl
un fts
Ġm ale
ĠB erk
Ã¤ fte
ĠD rittel
ĠK av
em an
ĠR ess
ĠR uth
Ġg elb
uch er
Ġver tra
sp ur
Ġch ain
per iode
Ġdr ivers
Ġviel fÃ¤lt
ĠWest falen
Ġpolit isch
Ġimport ance
verein igung
Ġfield s
ĠVerl ust
Ġschaff te
e ber
on te
Ġf lag
Ġf unds
ĠP ont
ĠR ain
Ġj ava
br id
stit ute
ĠAll en
Ġpol icies
ĠAss istent
ĠDis ziplin
Ġconf idence
Ġbrand s
Ġevangel ische
ĠSchwar zen
ĠKonstant in
r ischen
ĠR up
Ġj ener
reis en
Ġout standing
hÃ¶r igkeit
ĠMus ical
por ter
Ġcla ims
Ġdat abase
Ġzentr ale
cep ts
ĠNaturschutz gebiet
Wil helm
K ey
S E
us her
ĠB alk
ĠF uchs
ĠI F
ic us
um ps
ĠC irc
ĠSp ur
Ġle ider
In nen
Ġ8 3
ĠChr isten
Ġapp s
aun a
Ġverste hen
M ain
S im
r ische
he ber
ĠB arn
Ġl unch
ĠSe arch
Ġen ded
ĠAb out
erv ation
Ġ7 3
ĠUm gang
ax oph
Ge org
Ġbef re
197 6
ipend ium
ĠOrch estra
J Ã¤hr
T ER
T ags
m ach
it ate
ĠD inge
ra ut
sch Ã¼tzen
ĠR ome
ei ro
ĠDe ad
ĠGemein sam
gesch Ã¼tz
ĠĊĊ Ġ
Ġgleich er
Ġarr ived
ĠTschech ien
Tod ay
o use
Ġw omit
Ġp utting
Ġc red
ĠI ron
ic z
ĠC laus
id ays
ill o
Ġsp aces
gr at
igh ter
ĠCont ent
Ġident ify
Ġmajor ity
BÃ¼rger meister
ĠZent imeter
g ert
ur i
ĠD B
ĠT ai
sch iffe
ul iert
Ġre pe
ĠÃ¼ber prÃ¼
Ġex ec
Ġad s
ĠFor est
ĠFor ts
man uel
Ġother wise
Ġsub sc
Ġphot ography
ĠGraf ik
Ġsil ver
ĠAT P
ĠSoph ie
k ons
ĠB ret
ĠD eleg
ĠK ansas
ĠL okal
ber uf
ĠSp ar
ĠBe ispiele
Ġcol umn
Ġappe ars
Ġocc up
ĠEben falls
Ġchines ischer
ĠmÃ¶ glichen
b art
he ben
ĠP age
Ġl ernen
ĠSt ol
ĠSt aff
if orm
ĠSch enk
ĠBe h
Ġcon cl
ĠBl umen
ĠMan chester
Ã¼t ter
Ġerw eiterte
Ġupd ates
Ġcook ing
frast ructure
ĠErk rank
ĠKomment ar
k ar
ch i
Ġs umm
Ġs orgen
ĠD ig
ig ers
om on
ien te
ver lÃ¤ss
Ġr uh
Ġunter lag
ĠBer ge
Ġro ut
ĠAs ian
ĠPer u
Ġamer ikanische
A ustr
ie ten
ĠS G
st ens
ĠP unk
ĠW ende
Ġto ugh
Ġver haf
se y
Ġte a
ose x
act ions
Ġdec ades
Ġcre ation
ĠZe hn
ĠTre ffer
gesetz ten
ĠPosition en
Ġprepar e
Ġemer gency
vertre ter
ĠBronzemed aille
H P
O per
b Ã¤
Ġt ran
ur st
ut ors
sch ten
ĠW alk
Ġj ack
Ġ16 0
yste men
ĠGeb rauch
Ġpar ent
197 2
ĠRy an
E t
G ener
d ner
ĠS z
Ġein heit
ĠR unden
ĠZ ucker
ĠSch uld
Ġdis p
ĠSpiel s
Ġevery day
Ġmin imum
ĠÐ ¿
197 5
Ġhard ware
forder t
oin ted
Ġmanufact urer
beg inn
c lass
Ġa kadem
ĠF ame
ĠK Ã¶
op ran
ĠVer leihung
ip t
ĠSp eicher
Ġ8 2
Ġper mit
Ġbo at
Ġautomat ically
ĠVize prÃ¤sident
ĠHon or
Ġincred ible
L isten
L ebens
w eiter
Ñ ĩ
Ġ {
Ġa rab
Ġb an
us ted
Ġm anner
Ġv ieler
Ġv irus
ent h
ent he
ĠC urr
ĠRe isen
Ġne ut
Ġ18 30
Ã© d
ring er
gele hnt
ĠBut ton
ĠPhys iker
ĠEt appe
ĠElect ric
Ġposit iv
) -
c ase
ie bel
te au
ĠM ul
ĠM etz
ĠD ance
ĠK G
ĠR E
ĠIn schrift
ĠOr igin
Ġfe ierte
ĠAnd rea
ĠMiss ouri
Ġmein em
Ġcloth es
liefer ung
Ġanc ient
b our
Ġ1 15
Ġp ure
ĠG Ã¶r
ĠG ord
id met
ĠSp aÃŁ
ĠMit be
Ġmy ster
Ġet hn
ĠUm fang
ata illon
ĠBad minton
ĠEreign isse
k rank
w irt
ĠP le
ĠF ans
ĠW eit
ĠL P
tell ers
ens us
Ġres idential
Ġpl ug
Ġges ucht
yl on
Ġown ed
ĠMill imeter
ĠJugend liche
Ġtro cken
ĠEis hockey
Ġleg isl
iro ler
Ġcompet itive
ĠunterstÃ¼tz te
ĠMarc us
Ġconcern s
Ġregister ed
ĠGreg or
ĠZus atz
v arian
ĠA y
ĠA z
ĠB ene
ĠR ele
ĠU C
Ġver teilt
ag u
Ġsp anischer
ĠAp plic
ĠTyp s
figur ation
ĠGele gen
Ehr ungen
ĠNap ole
Ġbeinhal tet
K ilometer
re ifen
Ġv ary
ĠH aw
la y
ĠIn stall
Ġme al
ĠDe ath
Ġch osen
ende te
ĠMo le
Ġcal cul
ifiz ierung
ĠRegel n
Ġprevious ly
Ġfil ter
Ġsurround ing
Ġclin ical
ĠKÃ¼nst lern
A uss
U nd
v as
in fo
ch nen
Ġs au
or ter
Ġf lav
ĠB row
ĠB oth
ĠB arb
il den
ig ar
Ġein s
Ġein gest
ĠF ederal
ĠC it
ĠV II
ĠAl ice
19 28
co hol
ĠÃľber sicht
ĠVol ume
Ġdec isions
ĠKreis es
Me hr
Ġpur poses
Ġpresen ce
ĠImm obilien
ĠTok io
ĠAdmin istrat
ĠJord an
D ire
k la
ĠM esse
Ġst ars
ht ml
ĠAr izona
ĠAuf tritt
Ġup coming
ĠQu ell
Ġdre imal
Ġkind s
Ġenter tainment
Ġbreak fast
ĠAth en
Ġreach ed
in ent
ĠA cker
ier re
Ġdes selben
ĠSch Ã¼l
aus geber
19 12
ogra pher
ĠCar los
bild ungen
Ġger inge
Mit tel
Ġbed ro
Ġocc asion
ĠNS DAP
Ġtele vision
Ġhous ing
L ast
m ade
ĠB aker
Ġp fle
ĠW isconsin
Ġdem on
th al
ok o
Ġbes ucht
fol io
Ġbet reibt
ĠAnd rÃ©
ipp i
Ġgood s
ĠRep rÃ¤sentanten
Ġeinfach en
Ġdeb Ã¼t
ĠAngeb ote
ĠEnts p
Ġdom ain
Ġverwende ten
Ġpleas ure
E hren
F ran
h aven
p oint
Ġm ine
ĠB ran
st ate
ĠK affe
ĠR eit
sp iegel
ĠAn bieter
Ġex ecutive
rÃ¤ um
ob i
atur en
ĠAll tag
Ġsur gery
ĠFrei will
Mart in
Ġslight ly
il st
ig s
ĠI gn
et a
ĠV i
ab len
19 44
Ġch annel
mal en
ĠAus fÃ¼hrung
bar er
Ġ12 5
ĠBesatz ung
leb nis
Ġencour age
ĠIntegr ation
Ġt utor
Ġw alls
ĠW art
os ite
ĠEr furt
Ġch arm
Ã¼ck en
Ġher um
Ġges und
entr um
let scher
Ġcount y
ategor ie
forder ung
Pl an
gÃ¤n z
qual ity
spl atz
Ġposs ibly
ĠEnter tainment
ĠEigent Ã¼mer
ĠWeimar er
ĠKandid aten
ĠBiele feld
O p
Ġdes pite
sp ect
ok er
Ġlie fer
fahr ten
ific ations
ĠMag azin
Reg iment
ĠBot an
Ġceleb rate
ĠRelig ions
ti rol
Ġfeed back
K e
S L
S ervice
Ġa ges
an alyse
ĠB ald
ĠB uk
ĠT unnel
ĠE ver
ĠL eder
ĠVer g
Ġhe ight
19 29
ĠEx tra
Ġac counts
Ġ185 6
ĠZe aland
ĠErw Ã¤hnung
Ġtradition ellen
ĠHin weise
fÃ¶rm ige
ĠjÃ¼d ische
Ġeffic iency
ĠHei de
H A
V ert
d el
r unden
v olution
Ġb or
ĠA D
Ã¤ p
ĠC reat
Ġth row
19 00
glieder ung
Ġgewann en
ĠEv ents
Ðµ Ð½
Ġbew usst
ĠDokument ation
Ġdistrib ution
Ġkauf te
T ag
Ġw Ã¼n
Ġin vent
Ġin tended
ĠB od
Ġthe ory
ĠP A
Ġn ative
ĠT an
ĠG ert
ĠK ino
ĠE ro
ĠN assau
ĠJ am
Ġk ing
Ġver arbeitet
og ramm
Ġsch lecht
Ġsch Ã¶ne
Ġdies mal
Ġvor der
ĠCh ance
ĠSe il
ĠNe ues
elb ach
ĠEx pedition
oth ing
gew Ã¤ch
Ġgreat est
ĠReich es
Ġel imin
Ġpriv acy
ĠKÃ¼ hl
Ġpresent ation
pre uÃŁen
Ġenh ance
B re
H ans
O ver
ĠT hal
ĠK ro
ow itz
for ce
ition en
ĠUm feld
ĠInd iana
ĠHand ball
ĠMo ore
Ġange ordnet
ĠRegion alliga
ĠZe ilen
ĠLux emburg
Ġtal ent
Ġuntersch rieb
d ies
h Ã¤usern
p unkten
u der
Ġp reis
ĠL aus
ĠC P
Ġdes ire
Ġzu gehÃ¶r
ĠRe aktion
gr Ã¼n
lie fert
ĠEx c
Ġwould n
zw ungen
Ġ% .
197 7
Ġbelie b
ĠSa al
ĠKe vin
Ġkur zer
Pr iv
spar tei
yth m
Ġtrotz dem
Ġdur fte
Ġsowjet ischen
ĠRett ungs
ĠArgentin ien
B ra
W ei
f iguren
ĠP osten
ĠZ usÃ¤tzlich
ĠDe finition
gesch icht
Ġpre gn
ĠInd ones
ĠDo zent
Ġtyp ically
ĠVe gas
Ġbevor zug
ĠEben so
ĠPrÃ¤ fektur
ĠpersÃ¶n lich
ĠMem orial
waren ess
J o
S il
r imin
or ium
ĠS ams
Ġb ike
ĠB uck
Ġp ed
ĠF ellow
op en
du ate
St ation
ott a
Ġbeg ins
Er zeugt
ĠÃľber nahme
Ġ0 9
ĠEurop Ã¤ische
Ġmin or
ĠParis er
Ġsupport ing
ĠForsch ungen
ĠIns besondere
Ġlead s
ÑĢ Ð°
Ġangeb racht
ĠSieg fried
Ġcaus es
Ġgespe ichert
T ro
Î ½
ĠB owl
Ġh ook
ĠK ub
ĠR ic
ad i
ĠZ er
Ġsch eiterte
ive au
iz ieren
ĠSe kretÃ¤r
Ġgen et
fr ies
ĠSal v
ĠFreund in
ĠVan couver
ĠBam berg
Ġzuk Ã¼nft
Ġausgestra hlt
A uÃŁer
L iter
c or
n ischen
Ġd az
Ã¼ pf
Ġth ick
ĠVer z
sk irche
Ġ0 4
zeug ung
ĠKÃ¼ chen
ĠErinner ung
g ger
l isten
in ch
or ph
as a
ĠB ow
Ġg orgeous
Ġst retch
Ġver an
Ġj oint
ĠEin zugs
ac c
ahl en
ĠHe art
tra ck
cl ing
Ġgesch ieht
Ġerw artet
gra fen
ĠDaten schutz
deutsch er
ĠStock holm
Ġsym pt
Ġdiscover ed
ĠExempl are
T P
U M
k Ã¼
ĠM A
ion ier
Ġh osted
am ents
ĠH ed
ĠR un
Ġbe her
ia de
ĠfÃ¼hr enden
Ġbel ief
Ġsol cher
Ġmin i
Ġgest alten
Ġsecond s
ĠRein hard
ĠLes er
Ġparticip ants
ĠAf ghan
Ġsuppl ies
ĠErzÃ¤hl ungen
Acc ording
K lass
M ore
r asse
ĠA cht
st immen
ĠG itarr
ĠE R
ĠW at
Ġan swers
ab schluss
ib ilities
Ġar ts
ĠAd v
res te
ĠSpiel klasse
Ġsup ported
ĠStud ios
Re zeption
ĠNord amerika
Ġcons ist
Ġakt ual
Ġander es
ĠFranz osen
Ġlo ans
ĠDis ney
Ġcall ing
ĠVertrag s
Ġdeliver ed
fÃ¤h ig
ĠLim ited
ĠKop enhagen
;;;; ;;;;
Vol ks
ĠSchlieÃŁ lich
Ġdenk mal
V om
p per
ĠB urn
ĠM iami
ĠT auf
ust ic
ĠAl an
nen nung
ho b
ĠBer ater
Ġet h
ren cy
Ġ7 8
ec ted
Ġfest gelegt
Ġ: )
ommer ziel
En g
weis ung
ĠVerl Ã¤ngerung
ĠpreuÃŁ ischer
ĠRÃ¤ ume
Ġscient ific
ĠMom ent
F irst
V A
f i
k ilometer
l t
Ġ rand
Ġt ab
ĠM alt
ĠF alle
ĠK rÃ¤
ĠSch nee
Ġpr inted
amer as
Ã¶l be
ĠAnd erson
uk i
Ġsol ar
ĠFin ancial
Ġgar ant
ĠPers pekt
ĠBundesver dienstkreuz
Ġverhaf tet
B L
Ġd t
Ġs at
ĠS K
ĠS end
ĠB ry
Ġc and
ĠW itten
ic als
ĠSch atz
Ġwe aring
our cen
fahr zeuge
ĠFest ung
193 7
ĠBed arf
Ġconc rete
gre es
ĠLuc as
ĠHu bert
ĠKonfl ikt
ĠNiger ia
ĠGriechen land
ĠBenj amin
p es
Ġf aster
ĠA uÃŁ
ĠA uge
ĠL yn
la ut
ĠEin er
Ġat mosph
ĠAus bildungs
Ġsh ares
sk ar
imm y
ĠAd resse
ĠOn ly
ĠPra ct
ktr um
Ġwoll ten
ĠTat ort
tor hÃ¼ter
ĠViertel finale
ĠVerantwort ung
Ġbegrenz t
Ġintegra ted
b oy
Ġb attle
Ġf ellow
ĠB h
Ġre ar
Ġab hÃ¤ng
ĠPl Ã¤ne
Ġro w
Ġ8 4
oh an
ĠKon text
ĠEx istenz
An fang
Ġtr ends
Ġmach ines
Ġstatt f
ĠRuss ia
Ġwhe el
ĠSum me
ĠstÃ¤dt ischen
L og
t ums
es a
Ġs essions
or o
Ġv inyl
ĠG az
ĠG ymnas
sch ritt
ĠH ack
ĠJ Ã¶rg
ip er
ant es
Ġsie gte
Ġbut ter
els on
Sie ger
yr ight
Ġstell ten
ĠDis c
fil me
omet imes
Ġged reht
ĠdÃ¼r fte
ĠEber hard
ĠdebÃ¼t ierte
D is
T it
Ġt end
ĠT ype
Ġein gebaut
ĠK ai
ĠR ies
Ġg estorben
ĠC af
Ġan f
Ġr ise
Ġhe ft
Ã¤n glich
olit an
igh ten
Ġget roffen
Ġpla ys
Ġbekannt esten
ĠÃĦ m
Ġ185 7
ĠHa wa
zir ke
Ġreturn ed
Ġsug ar
ĠÃľberg ang
ĠPreuÃŁ ischen
Hinter grund
ĠverlÃ¤ng ert
B ek
F o
b ing
p Ã¤dagoge
Ġt ast
Ġb rach
ĠD oc
ĠT ak
ĠT ib
and t
ĠÃ¼ber gebenen
ĠDe kan
Ġdurch aus
ĠSie ge
ĠSchw anz
ĠGra ham
Ġ13 0
Ġverb esser
Ġger inger
Ġmed icine
Ġmin im
ĠMat rix
ĠKaiser reich
ĠDemokrat ie
ĠMerk male
M C
b ett
Ġb reiten
Ġ1 14
Ġo k
Ġn avig
ĠSp uren
hal f
Ġ7 1
ĠPar allel
iste te
grÃ¼nd en
Ġstatt dessen
ĠAuss tellungen
nehm ern
Ġmeas ures
Ġmount ain
ĠTrain ings
Ġepis ode
Ġaccur ate
ĠgewÃ¤hr le
ar ium
ĠD NA
ĠK ugel
ĠJ ag
Ġge fallen
ÃŁ t
Ġst arten
ĠUn ser
Ã¤hr en
Ġdar um
ĠSte el
Ġdis pla
ĠBereich e
Ġmonth ly
193 6
ĠOl denburg
ĠBu ilding
ĠÃ¼b lich
Ġhost ing
ĠLÃ¤nd ers
j ahre
ĠP ad
ĠK linik
ent liche
ĠW rest
ĠJ r
Ġan gel
Ġge he
Ġr id
ĠAn z
ok a
ph ones
ĠAus wirkungen
net en
ĠCo up
ict ions
ĠMan uel
ĠMon ats
ĠTechn ologie
Ġabsol ute
Ġanerk annt
ĠKabin ett
w ein
y ll
ĠW under
ist ungs
ĠN BA
ĠU rauf
Ġaus fÃ¼hr
Ġum stritten
ĠMar co
St at
ĠIt aly
Ġhier fÃ¼r
Ġbesch loss
ĠCon rad
ather ine
ĠAnfang s
lad imir
ĠSom it
Ġdepend ing
AAAAAAAAAAAAAAAAAAAAAAAAAAAAAAAAAAAAAAAAAAAAAAAAAAAAAAAAAAAAAAAA AAAAAAAAAAAAAAAAAAAAAAAAAAAAAAAAAAAAAAAAAAAAAAAAAAAAAAAAAAAAAAAA
ĠHoll and
Ġlandsc ape
ĠAlk ohol
Ġconduc ted
G C
f indung
l at
ein richtungen
Ġf ing
ĠA er
ĠH arz
ĠR in
Ġl agen
Ġy ellow
ver Ã¶ffentlich
ĠNe use
ĠLand rat
Ġ9 8
ĠRes ult
Ġschw ere
ĠÃĸsterreich s
Ġ185 8
Ġperfect ly
Verein igtes
mo der
Ġchines ische
Ġfund ing
ĠAcc ording
mosph Ã¤re
Mich ael
jen igen
' .
y en
Ġm ur
Ġv eter
ĠP ader
ĠG R
ĠR ie
ber ge
Ġan grenzen
ĠVer stÃ¤nd
ĠAl i
ain less
ens ed
auf lÃ¶sung
ĠMar sh
ystem s
Ġact ions
Ã¤nger in
ĠAt om
Ġsign s
apt op
Auf grund
Ġaufge geben
des ign
ĠMult i
Ġkont roll
ĠAltern ative
Franz ose
ĠBeeth oven
S en
b org
en ters
ĠF ile
ĠG Ã¶t
ĠH ills
Ġmit tlere
Ġcomp la
Ġrec orded
An gabe
kan al
Ġstre am
ĠTest ament
Ġbedeut ende
ĠWass ers
Ġausgeb ildet
sprÃ¼ che
ĠRol and
olley ball
Rel ig
p ap
z usammen
le ten
âĢ ¢
ĠG ul
Ã¶ he
ĠJ Ã¤ger
ĠSt att
ĠJahr gang
Ġch ocol
Ġen co
ĠSchw imm
org ungs
Ġmach ten
Ġentwick elten
ĠHier bei
war ded
Welt meister
Ġther apy
Ġaktuell es
kore a
ĠBeteil igung
ĠOsnab rÃ¼ck
P rÃ¤sident
R eihe
f ig
is burg
it us
ro vers
ĠR ug
ĠC ann
Ã¶ tt
ĠN ull
ĠSch um
ĠAr k
Ġch ief
Ġum gewand
Ġad mit
ĠEl s
ĠMo de
ĠOb ama
ĠMotor rad
ĠHoff mann
ĠVarian ten
ĠAdmin istration
Ġproduz ierte
ĠBoch um
6 00
D enk
L P
P at
W ell
s ub
Ġt ells
ĠM D
Ã¤ hne
Ġc raft
ĠC ase
ei zer
ste t
19 22
Ġ7 4
ĠBl Ã¤tter
Ġmo de
aur us
sche f
ĠSaison ende
ĠVolks zÃ¤hlung
196 8
ĠEmp ire
frei heit
wÃ¼r fe
Kirchen gebÃ¤ude
J azz
} .
it als
Ġs orgt
ĠD un
ĠF Ã¼
ra h
ĠH enn
ĠR ent
ĠC ab
ĠC ock
Ġk it
ĠSt reich
ĠAn lass
19 23
ru gen
fl ow
ced es
Ġur ban
190 1
wh ich
Ġeffect ively
cep ted
Ġengag ierte
L ink
k al
n isch
ĠB itte
st ances
sch reibung
ĠC hl
ach es
Ġi P
19 27
Ġch ron
erv ers
ĠLand gemeinde
Ġher unter
ĠVerb reit
ĠRes p
ĠHerr n
Amer ican
zus etzen
Ġrespons ibility
Ġhold ing
ĠFass ade
Ġrepla cement
ĠMÃ¤nn ern
Ġinfluen ce
T em
g ate
y pen
z it
Ġs ides
ar ily
at ischen
ĠZ eile
ĠSch mer
Ġver grÃ¶ÃŁ
ud a
ok ing
ĠEn vironment
co in
Ġar gentin
Ġsc re
ĠSpiel ern
Ġmus ical
hel ms
Ġerfol gen
ĠOl iv
ĠHigh way
ĠAben teuer
ĠSilber medaille
ĠRepubl ic
Ġconsum ers
ĠjÃ¼nger en
ĠWuppert al
m os
y ou
Î ¹
Ï ģ
is is
ĠA ur
ĠB ein
Ã¤ sten
ĠF as
Ġk illed
ess ed
iel l
od ge
hen de
ĠEin kauf
ong s
old s
Ġqu e
gele gten
Ġappro ved
197 1
ĠSen at
fÃ¶rm igen
Ġadmin istration
ixt ure
Ġprovider s
Ġbeeinfl usst
J ugend
P an
k ol
ch el
Ġd ick
ĠS yl
ĠD afÃ¼r
ĠF ell
Ġbe igesetzt
ik te
ĠSch icks
op Ã¤d
sp h
lin ed
Ġent worfen
Ġus ual
ĠOr th
ĠMar sch
ivers ary
rÃ¤s id
ĠGesch Ã¤ft
Ġehemal s
ĠHal binsel
Ġhistor ic
kathol ische
grenz ung
Ġviol ence
ĠFÃ¤h igkeiten
' ,
f ers
i Ã¨
z il
Ġs ad
Ġf ir
Ġm ent
ro d
Ġc orn
ĠF res
ĠK roat
hr ung
ĠN y
os ion
ĠRe formation
ang a
Ã¤hr ungs
ĠVor arl
Ġour selves
Ġfe els
ĠSÃ¼d afrika
Ġsol o
Deutsch e
ĠMill iarden
Ġequ ipped
Ġbra ucht
ĠStat istik
Ġbrow ser
Ġgefert igt
g io
z ing
ĠS ac
Ġp apers
em y
ĠSch Ã¤den
Ġmehr mals
Ġste igen
ĠAd vent
Ġseit her
ĠBar th
Ġakt ive
Ġaccess ible
ĠTre ffen
Ġjapan ische
ĠSpr int
ĠbeschÃ¤ft igte
Ġak zept
f rÃ¼
g ott
t rieben
Ġd eine
Ġa gencies
Ġb ist
Ġf oll
ge h
ĠP ick
Ġh yd
ĠG allen
ĠW Ã¤l
ten berg
Ġk onstru
Ġis lam
ass te
Ġsp ir
Ġle hrte
ĠHe ck
Ver walt
Ġ0 1
ĠMon ument
Ġdire kten
Ġcle arly
Ġ185 4
Ġhouse hold
ĠFel der
Ġhervor ra
Ġinnov ation
S aint
f ix
g ast
an es
ro it
Ġp od
ĠAn sicht
ler in
Ġwe ap
Ġwe chs
Ġ5 000
ĠWe is
ĠPr int
ual itÃ¤t
gl ing
ĠOber bÃ¼rgermeister
ash i
Ġho tels
ĠPat ri
wh at
ĠverfÃ¼ gen
ĠverfÃ¼ gte
ĠGre if
ĠWissen schafts
ĠAnth ony
ĠNomin ierung
Ġjem and
D oc
J J
K ar
k k
Ä Ĺ
Ġf Ã¼hl
us hed
Ġ1 17
ĠP ool
ĠW Ã¤hler
ĠC N
ĠN ich
19 50
19 60
ĠNe uer
Ġ14 0
gend es
Ġag ent
Ġcons umer
hed rale
ĠSk i
Ġgef angen
Ġeinge gliedert
Ġbil deten
ĠHar vard
190 5
Ġconf ir
ĠLou ise
Ġoffen bar
Ġple ased
UN G
ĠPfer d
Ġlif estyle
Ġunters ucht
Ġinstru ctions
Ġvalu able
A lex
k ommun
Ġd ritt
Ġf ach
ĠA ge
Ã¼ re
ĠB lau
ĠD ien
Ġp ump
ĠT iefe
am ar
ĠH ad
ĠH av
ĠH ob
ĠO ak
ab ama
19 26
ĠMa de
ĠPl Ã¤nen
schie de
ĠEhe mann
ask et
fried hof
Ġvert rieben
ĠInnen stadt
ĠÃ¤lter e
Ġbayer ischen
K W
z lich
Ġf ein
ĠB ase
Ġv ote
st ufe
ĠP L
ĠH els
ĠC art
Ã¶ ger
ĠSt ationen
la ce
ĠU d
Ġun less
ĠAn gelegen
ĠJahr buch
ĠAr me
ĠEin stellung
Ġvor ber
Ã¶n t
Ġlie ÃŁen
ĠAnd ere
ĠzurÃ¼ck ge
ĠSta ates
bo ot
Ġed itor
film ung
ĠAp othe
Ġfilm s
ĠKre bs
Ġeingew eiht
gewÃ¤ch se
? )
F S
F i
i ierten
Ġt ight
re f
Ã¤ mm
ĠE UR
ĠC loud
and al
Ġre ichen
Ġst imm
och em
Ġj oy
Ġab gest
ĠIm per
Ġtra v
oh ne
Ġwieder holt
Ġ12 00
ĠChrist opher
ĠMed icine
opp elt
Ġfre uen
ĠFranz isk
rue ft
esse e
Ġorgan ized
ĠBot schaft
Ġwissenschaft licher
ĠEvangel ischen
Ãĸsterreich er
Ġhund ert
ugu ay
ĠReihen folge
ĠSchott land
Ġehren amt
ĠSehen swÃ¼rdigkeiten
ĠOnt ario
L uther
P ass
S owjet
ĠS M
ĠB reit
ĠF an
ĠF antasy
ab schnitt
ĠZ one
Ġver zeichnet
Ġwar um
Ġcon text
ĠGra ben
ays ia
ron ik
Ġbro ken
Ġca ught
alys is
Ġfund ament
ĠKult urg
C al
G rÃ¼
p ur
ĠB BC
ĠL ichten
tel ier
th en
Ġr h
ste uer
Ġup per
ĠUnivers al
ĠGra nde
ĠKl ang
Ġra il
Ġcare fully
Ġgest artet
ias ieger
ĠKe ep
Ġmag net
ĠAc count
Ġbege ister
Ġadvent ure
M ost
Ġa chten
Ġin fe
ra it
ĠR ick
Ġth reat
Ġauf t
me ier
Ġent stamm
ĠÃ ©
ĠKl eine
Ġsc ript
ĠHaupt rolle
Ġlang er
Ġ185 5
ĠProfessor in
ĠIll ustr
ĠdÃ¤n ischen
national spieler
Ġcollabor ation
Ġmaxim ale
f ranken
Ã ĥ
ĠP i
ĠG ard
im ental
ĠH ang
ĠN at
ĠU A
ĠSch r
Ġ18 20
ial en
ĠNe xt
iven ess
eid ung
ĠDem onst
Ġimpro ved
ĠKind heit
onstru ction
Ġevangel ischen
Ġparticip ate
ĠMÃ¶ bel
l ist
Ġp ink
ĠP av
Ġg la
ĠSt ars
Ġsp ann
19 46
me chan
hal ter
Ġco ck
ĠMar athon
los igkeit
Ġfe es
elle d
ĠAd l
ĠGeb Ã¤udes
ĠJan e
ĠMo on
ĠSÃ¼d ost
Ġair port
zy linder
ĠAust rag
ĠmÃ¶ gliche
ĠInner en
F ranzÃ¶s
h au
te e
Ġb undes
Ġm Ã¤cht
ĠB ent
ĠM ust
ĠM Ã¼hlen
de cke
ĠC urt
Ġge Ã¶ffnet
ah a
id i
qu et
Ġle gt
ĠCh a
ĠGeb irg
ĠKon kurrenz
Ġbre ath
197 3
ĠSol o
rÃ¤sent ation
ĠChem nitz
Ġerm or
Ġarch Ã¤
kr ise
Ġpurch ased
Ġmix ed
Ġintens iv
ĠVerteid igungs
Ġreve aled
ĠPian ist
Ġverbess ern
D i
E v
M al
Ð ±
Ð ·
ch ar
es ents
Ġf f
Ġv ital
ĠK ommiss
ĠC ommand
Ġl Ã¤nd
ĠV ide
Ġk Ã¼nst
Ġst Ã¤ndig
we ar
Ã¼hr t
Ġinter ests
Ġlo ad
Ġfound ed
ham mer
Ġcho ices
hor st
ĠSpr ung
Ġwirtschaft liche
Ġofficial s
Ġdoub t
ĠsÃ¤m tliche
an on
ĠS au
ĠA venue
Ġn Ã¤chst
am as
ĠG la
ĠK ast
ĠW ird
ĠC R
Ġj un
ĠUn sere
olog ien
Ġgew idmet
rich ts
193 4
Ġconsider ing
ĠTher apie
ĠClass ic
ĠStruktur en
Ġdom estic
Ġanaly t
ĠFert ig
ĠCost a
Ġinstr ument
ĠbeschÃ¤d igt
ĠEro ber
T or
b undes
d ale
k urr
l s
ie ber
Ġt ube
Ġt ransp
ol s
Ġein erseits
Ġde cl
Ġne arby
qu ir
19 21
pe te
ĠY es
ĠAus schuss
Ġ9 7
pro ble
pf alz
ilit ation
ĠHistor ic
Ġlov es
Ġmanufact urers
Ġzerst Ã¶r
ĠExper ten
Ġexpla in
Ġopin ion
ĠGemark ung
E H
V ier
c ue
p fe
Ġt ur
Ġm ont
ĠA h
Ġ1 13
ĠG y
ĠI owa
ĠR ÃŃo
ĠC ow
Ġr are
ĠVer arbeitung
ition al
min a
ĠChrist ine
Ġverb lieben
ĠVers orgung
Ġtechn ique
Ġele ction
ĠWar schau
ES T
Ġplan et
Ġsett ings
ĠLeg isl
jew itsch
franzÃ¶s isch
ĠÃ¶rt lichen
Ġumgewand elt
Ð ¿
Ġt or
Ġs ac
te le
ĠM all
Ġp oll
ĠK rÃ¼
Ġg ern
ist o
Ġk onserv
Ġan g
ver halten
Ġ8 7
Ġgesch Ã¼tzt
uc lear
ĠUr sprung
196 3
190 7
Ġturn s
ĠRu he
Ġpres ents
ĠPsych ologie
ĠRegierungs bezirk
ĠKer amik
ĠJahrzehn ten
Ġerheb lich
Fra uen
Ġdemon stra
Ġ ).
ĠB ibliothe
Ġge druck
ÃŁ er
ĠGr iff
fl Ã¼sse
Ġro ten
Ã¤ch ter
pro p
br unnen
ĠMed iziner
Ġdel la
ĠBi ografie
Ġchar ges
ĠHil de
196 5
war f
Ġconf irm
ĠeigenstÃ¤nd ige
ĠFrem d
andin av
H ar
k ette
Ġw Ã¤hlen
re b
Ġp ush
ĠF usion
Ġl ayer
Ġbei der
ĠAuf sichts
Ġ7 9
Ġgew Ã¶hn
ĠSte iermark
ser ien
Ġra ise
Vor pommern
ĠfrÃ¼h ere
Ġremov ed
frist ig
O f
p it
Ã ¯
ĠS ort
ĠS ingles
Ġf ishing
ĠM ethod
ĠD M
st oÃŁ
ul ous
Ġde grees
ru der
Ġvor kommen
enn zeichnet
par tei
ohn t
Un garn
ific ate
ĠGo vern
ĠReich en
Ã¼l le
ĠSal es
Ġter min
Ġprote cted
Ġappe ared
ĠPubl ishing
ĠPriv ate
Ġbem erk
Ġpartners hip
merksam keit
Ġimpress ive
ĠInse kten
L ook
t im
Ġw et
Ġm ac
Ġv ierte
Ġh yp
ra ucht
ĠL ocal
est on
sp unkt
Ġpro pos
se a
Ġor th
19 10
ov iÄĩ
ens burg
Ġvor ne
Ã¤n zer
ĠAb stieg
ĠAus gaben
old t
ĠUS D
Ġsup ports
enk o
Ġvers uchen
Ġsk ill
Ġhealth care
ĠIr ish
ĠpersÃ¶n liche
Ġseem ed
ĠKonstru ktion
ĠIntern ets
Ġappreci ate
Ġausgesch ieden
b ringen
Ġt arge
at on
ĠG ross
ĠR Ã¼
Ġg ifts
ĠSch au
Ġent reprene
ian z
Ġwill ing
ĠBer gen
rei hen
rat ic
ĠUS B
Ġem ph
ĠGer Ã¤t
Ġ0 8
bo oks
ĠTo uch
ĠDre am
Ġorder s
Ġ185 1
Ġarchite cture
Ġcloth ing
ĠGle is
d ra
Ġ ==
in ne
ĠS ache
le vel
ĠB eth
ĠF act
ĠW inkel
ĠC onn
Ġfor ces
Ġver p
ĠGe fÃ¼hl
als o
Ġdis count
mÃ¤ cht
Pro jekt
Ġrem ote
ĠAnt ike
Ġkeep s
ĠQual itÃ¤ts
ĠGed icht
Ġ180 3
Ġvol ler
Ã¤chs ische
Ġfix ed
ĠTy pen
ĠSqu are
Ko ordin
Ġcit izens
ĠWÃ¤r me
Ġinkl usive
Febru ar
F A
P ress
S ub
W asser
f ic
f uÃŁ
n ur
z ut
z uge
á »
Ġin folge
ĠB uen
ĠB auch
ol in
Ġl ived
ĠAn bau
ick ets
gel Ã¤nde
Ġro ute
ĠGes icht
ĠJun ge
ĠOber liga
Ġbo ys
ĠBet on
ĠEd in
196 7
ĠSchm uck
Ġimpro vement
ĠWit we
omor row
ĠPropert y
ĠgrundsÃ¤tz lich
D own
O V
Ä ħ
ĠS v
Ġb read
us ing
Ġp ic
ĠC in
ĠV il
Ġk Ã¼rz
ver k
ap ing
sp olitik
ib us
Ġ18 18
Ġvor genommen
amm elt
sh ips
ĠSh ang
ĠFe ucht
Ġfest ival
ĠBi ographie
ĠHel den
Ġlet ters
Ġsw imming
ĠRu der
ĠHin weis
Ġrepr esents
Ġfit ness
ĠCons ult
ĠHild esheim
K Ã¼nstler
N ummer
V iew
n el
Å Ľ
le hnung
ĠP ixel
et ch
ĠJ Ã¼n
ĠV ision
ĠSt ark
ĠSch reiben
art ikel
Ġhe aring
Ġsch Ã¶nen
ĠFl u
ĠPr ice
Ġgr undle
Ġ% )
Ġqual ified
Ġerr ichteten
Ġ185 2
ĠSchm id
Ġbede uten
Ġenth us
Ġconstant ly
B este
D ialog
ĠM rs
Ġc able
Ġz ogen
ĠL ess
ĠC arr
eit ern
ĠV ic
ĠIn stanz
eld ungen
pro fit
Ġ10 1
ĠTr ink
ĠChar ts
ĠHil f
Ob ject
Ġredu z
Ġeurop Ã¤ische
omet rie
kathol ischen
Ġeigent lichen
S ec
W ind
Ġf asc
ĠL isa
sp itze
Ġwh om
ĠEn joy
ele y
own ed
gesch ichten
Ġgel ingt
ĠPe er
zahl ung
ĠBerg bau
ĠLie bes
Ġcert ified
ĠPlan et
Ġredu ziert
Ġherv orge
Ġhold s
ĠMuse en
ĠRÃ¶ mer
ĠProgram me
Ġdynam ic
ĠHig hl
ĠScot land
Ġappoint ment
m outh
w id
in chen
ĠB uff
ĠP ho
sch les
ĠL ust
Ġl aufen
Ġauf s
Ġfor um
Ġfor med
Ġr ene
Ġsp r
19 13
ite e
ite kt
ĠSchw ein
Ġstand ing
ĠDr ama
ÃŃ k
ĠWohn haus
196 6
wh ile
bÃ¼ ro
Ġrelig ious
Ġhon or
Ġrecogn ized
ĠGirl s
Ġschwar zen
n ord
ĠS Ã£o
un er
Ġp our
ou v
Ġber u
Ġass ign
ĠPra kt
Ġill ust
aud i
ĠBundest ags
angeb ot
ĠIO Exception
B ook
m ischen
z ellen
z ucht
it Ã©
Ġf u
ĠD ienste
Ġh all
ĠF unde
ov o
ĠTh ree
ĠSe g
ĠVerb rauch
reg on
ĠVert rieb
ĠAt las
ament o
193 1
ĠCont act
Ġerfolg ten
Ġworks hop
Ġerk enn
Ġdest ination
Ġmil k
ĠRail way
fal se
Ġuk rain
ischÃ¶ fe
Ġfavour ite
F rÃ¼
c les
Ġs ud
at ra
Ġin frastructure
ing o
ĠP eking
ed ing
ĠJ eder
ier bar
ĠSch Ã¤d
Ġr an
19 25
Ġunter wegs
ĠNe ug
az itÃ¤t
Ġserv es
ble iben
lÃ¤ uter
Ġpass iert
Ġbre ite
ĠIns urance
Ġevangel isch
ĠWahr heit
RE E
Ġregular ly
Ġprint ing
Ġgez Ã¤hlt
R om
a er
b ayern
c enter
Ġ1 12
ĠM ei
ĠD allas
ĠT ank
ĠK ann
ĠV illage
ĠâĢ Ļ
Ġaus gewiesen
hn er
Ġor ange
Ġex pression
ĠEn cyclop
Ġpla te
Er stellt
Re ad
ĠJugend lichen
Ġadv oc
ĠRuss ischen
ĠPublik ationen
Ã¶p fe
uert o
Ġstaat lichen
Ġspirit ual
gun sten
fir ma
Ġletzt lich
Ġath let
Ġs in
re lated
le ts
ĠF inger
ĠK inos
um me
ĠJ etzt
ot ische
Ġde part
ĠTe en
ĠMit tler
tz t
Ġnew sp
ĠSte iger
bau werk
Ġmom ents
Ġgepl anten
wir ken
ĠAtlant ic
ĠmilitÃ¤r ischen
Ġlic ense
ĠPrÃ¼ fung
Hein rich
Ġchocol ate
S chn
n isses
v ie
nd orf
Ġt asks
Ġs ang
ĠS ei
ĠS ultan
al teten
il iate
ĠF ed
ĠK ader
ent ums
ĠL Ã©
ĠC hen
ĠN OT
Ġk Ã¶rper
ĠSch Ã¼tzen
Ġwar n
ĠEr hebung
ĠEr nennung
end el
ru cken
ure au
pl ung
Ġpl Ã¶tz
ĠBet racht
ole an
Ġemploy ee
Ġmass age
ĠDemokrat ischen
ĠBrig ade
Kurz film
Ġperspect ive
Ġrand om
G ed
i oren
k W
l ov
l uft
m Ã¤nn
te ger
ĠS ad
ĠS ysteme
Ġf unny
Ġp un
ĠE ichen
ĠR eiter
ber atung
ier ra
Ġe ast
ab a
ann y
Ġre covery
ĠEr be
qu ire
19 24
ob s
inter est
arch itektur
Ġreal ize
Ġfac ilit
ĠHow ard
Ã¤ss ern
ĠJust ice
Ġcamp us
ĠnatÃ¼r lichen
bas is
Ġexhib ition
ĠGlauben s
R ennen
m lich
ĠB enz
Ġv it
ĠD ritter
et ime
ĠZ DF
ĠMar in
utz te
Er n
ĠPf licht
Ġfl ower
ĠProv inzen
ĠRad rennfahrer
Ġpost ing
193 2
ĠWeiter hin
ĠSand stein
Ġgraph ic
Ġconvers ation
Wel come
F uÃŁ
L et
ä ¸
Ġa gr
on c
or er
ĠD unk
ra ham
ĠH imm
ĠW esentlichen
ĠL oh
ĠC av
ĠC hal
ĠO berg
Ġun gewÃ¶hn
Ġle gen
Ġle tt
ĠLand s
ett a
ĠGen f
ĠMen gen
ĠRes idenz
Ġmin imal
stre am
190 6
190 9
chten stein
zÃ¼ gen
Ġfort an
Ġverkauf en
ÅĤ aw
Ġfrei will
ĠÃ¤uÃŁer st
I O
T ime
ĠS ite
ol ine
Ġh l
ĠK ids
ĠW Ã¶rter
ĠC e
ĠU EFA
Ġst ated
ĠVer leger
Ġle isten
ĠAl les
ĠWer be
ĠGew inner
Ġorgan ic
Ġiss ued
Ġevent ually
zy kl
ĠSozial demokrat
ĠJob s
ĠCorn el
ĠDok umente
I B
T rans
k os
k reise
v org
z es
z antin
Ġp ill
ĠH ass
ĠR out
ul ing
ver leihung
Ġzu gunsten
ĠFl otte
ĠOber Ã¶sterreich
Ġinv ited
Ġmin ing
ĠAnt arkt
ĠLeip ziger
ĠSen ator
ĠChem iker
flug zeug
Ġschwed ische
Ġdat iert
ĠLaur a
F eld
m ers
or chester
ĠS eminar
ĠB ock
Ã¤ ck
Ġein gemein
ĠF L
ĠE gypt
ĠC ant
ber ry
Ġbe er
Ġpro posed
oc ation
olog in
ĠZeit schriften
Ġnoch mals
ĠArbeit sk
Ġgesch lagen
ĠArt illerie
Ġ[ ...]
ĠsÃ¼d kore
Ġbr ill
Ġeinge zogen
Ġter ror
Ġinner en
ĠDu ke
196 4
ĠAp ostol
ĠWinter spiele
ĠDi agn
leist ungs
Ġmess ages
ĠIndustr ial
================ ================
ĠFinn land
ĠEdin burgh
7 00
Ù Ħ
en ix
on ent
ĠB ucht
Ġp Content
ig i
Ġein ges
ĠF ollow
sch Ã¤d
ĠW i
Ġg rÃ¼n
eb au
kt oren
sp ann
19 40
19 43
Ġme at
ĠNe apel
ĠAus bruch
Ġ8 6
Ġ8 9
ĠTra vel
Ġdr amat
ĠRÃ¼ck tritt
ĠEv alu
190 4
ĠHÃ¶he punkt
So zial
Fl ug
Techn ische
Ġstaat liche
Ġcabin et
Ġproced ure
Ġdenkmal geschÃ¼tz
M any
O h
Ġt iny
re ide
ur ist
us ste
Ġc lock
ĠK ond
ĠE b
ĠL aden
Ġsch Ã¼tzen
lie hen
ĠSe ktion
eiter ten
stell ungs
ĠBet reiber
ĠGold medaille
west lichen
ĠAuss age
Ġintrodu ction
Ġguarante e
Sonst iges
B as
c ers
f are
Ġa men
ĠI ss
ĠN est
Ġaus geschlossen
Ġvor Ã¼ber
ĠY am
ĠVor teil
ĠMa urer
ieren der
ĠTr ennung
Ġange passt
app ing
Ġander erseits
ĠDr amat
Ġbef est
ĠBischof s
AN D
Arch itektur
Bo ot
L uft
l ik
Ġm ic
Ã¤ le
ĠD E
ĠF DP
ĠK Ã¤rn
ĠE N
ĠE ier
em en
ten nis
Ġg aben
gen s
ĠO il
Ġre venue
Ġ18 35
ĠAr ena
ĠDe g
ock e
ĠPh oto
ĠAll gemeine
Ġgef Ã¤r
Ġfact or
Ġintegr iert
Dav id
A re
O ut
Ġb order
ĠA V
il ation
ĠL ett
Ġk Ã¼nft
ere cht
od ing
ĠAl uminium
ĠAr z
Ã¤t tern
Ġch airs
land schaft
ĠAuf merksamkeit
lo h
ĠNach kommen
ĠIm pro
Th ank
ĠÃľber blick
Ġgel aden
ĠChrist i
Ġfre und
ĠKomp onenten
ĠTem p
Ġoffen e
Qu elle
ĠRos a
ĠPrÃ¼ f
wÃ¤rt igen
ĠSaf ety
ĠKonzer te
Ġhil ft
ĠSchwier igkeiten
ĠPader born
D ate
f amilien
à °
ï ¼
er ten
Ġt ables
te ine
ĠS le
Ġf er
ĠE cke
ĠC ell
ĠC ome
Ġer stellen
os c
Ġy es
ill es
ĠRe ferenz
Ġex tend
ens ions
ens wert
ĠGe orges
fe ier
ĠStadt gebiet
Ġbest immen
ĠSh ir
akt ik
Ġsur prise
ĠBel g
ĠverÃ¶ffentlich ten
ĠHar ald
ĠSol ar
verb Ã¤nde
Ġfour th
Ġversch oben
ĠPrinz essin
Verkehr s
ĠDub lin
M erk
R enn
Ê ¿
ĠK it
ĠR iv
if est
ĠAb b
ĠHoch stift
the t
Ġnun mehr
wor tet
ĠDire ct
ĠHeil bronn
ĠRober ts
Ġerfolgreich e
Ġsuccess fully
Ġless ons
ĠZeich nungen
iction ary
eme ister
Ġumfang reiche
ĠMultic ast
F Ã¼gt
Ġa id
Ġin telle
ĠP ersÃ¶nlichkeiten
Ġbe at
Ġbe grÃ¼ndet
Ġer fÃ¼llt
ĠN i
ĠJ ury
ĠV ik
th ese
19 15
19 48
be amter
Ġall gemeine
dem ar
Ġqu otes
ink i
Ġ8 1
ĠSo ft
ellen ce
ĠPol ize
ĠMon uments
ĠKunst stoff
ĠOn kel
ĠCl ient
Ã¤tz ung
ĠNeu zeit
Ġident ified
Ġwichtig ste
Ġpick ed
ĠDrei ÃŁig
ĠMÃ¤r chen
ĠabhÃ¤ng ig
E ben
L ud
a ire
d ienste
Ġin put
ĠM Ã¼ndung
ĠD I
ĠG ol
ĠH altung
ĠW W
Ġal cohol
Ġth orough
Ġk ennt
ul der
Ġan gew
Ġauf merksam
Ġsich ern
Ġso ul
19 41
Ġum gesetzt
Ã¼ck t
ĠEn kel
Ġ9 2
Ġacc omp
ĠHal f
Ġnet works
Ġreturn s
ĠHei z
Ġcirc um
ĠVort rag
ĠPersÃ¶n lichkeit
m utter
Ġb owl
Ġf urn
Ġh Ã¤ngt
Ġein ger
ĠE sch
ac ious
ĠAb lauf
ail able
cc a
stit u
Ġmo le
Nach bar
ĠPhil ip
Ġrem aining
Le icht
Ð° ÑĢ
sta ates
Ġverm eiden
ĠAust ausch
ĠThr on
Ġhinzuge fÃ¼gt
ĠberÃ¼cksicht igt
B rit
G old
P M
Ġt oll
ge ist
ĠB ible
st het
ĠF ortun
ĠG ur
ĠN Ã¶rd
ĠO K
Ġst ring
ĠZ en
ĠRe par
Ġcon fl
rÃ¤ glich
Ġfe hlen
Ġcomm and
Ġstand s
gra b
Ġclass room
Auf gelÃ¶st
zentr ums
ĠErz bist
195 8
bÃ¼ hne
Ġchallen ging
Mod us
Ġricht ige
ĠVie h
Sup er
/ *
k irch
t yp
an ing
ĠS R
al itÃ¤t
ĠB utter
Ġv i
Ġv ib
ĠF R
ĠC ivil
Ġth read
Ġk ommerziel
ang o
ok u
Ġwe alth
Ġcon sequ
Ġ9 1
Ġac cepted
reg ister
ĠWh it
hol en
ĠUr teil
Ġcol ours
ĠWer ft
wei ÃŁ
Ġmain ly
ĠFlor ian
ĠOs lo
Ġspeziel le
ĠÃĦnder ung
Ġforder te
e ction
Î µ
re ll
Ġm ature
Ã¤ ts
Ġfor ec
od s
Ġab gegeben
Ġ18 46
ĠTr in
Ġwel chen
Ġass ets
zahl t
ĠDes igner
zu geben
Ġatt ached
stag ram
Ġenter ed
ĠCamp us
Ġschwar ze
ĠErschein ung
ĠGitar re
ĠUrauf fÃ¼hrung
! âĢľ
R em
v ements
Ġt ests
ĠD est
âĢ ĭ
ĠF la
ĠZ auber
Ġver folgt
Ġdem okrat
Ġcon v
Ġunter schieden
iss ippi
ĠFra ktion
gend orf
ĠStra teg
Al so
ĠCar lo
halt ungs
Ġfre edom
lÃ¤nd ern
Ġgrow n
190 2
ĠÃ¤hn liche
ĠSym ph
Ġchrist lichen
Ġcy cle
S et
a a
Ġ 00
ĠD ating
ol id
ĠH inz
ĠC atholic
ĠJ Ã¼d
Ġad opt
att an
inn ers
Ġtr ig
Ge gen
Ġeff ekt
ĠBas il
sport ler
Ab sol
ĠPla yer
hÃ¶ fe
Ġleg s
Ġextre me
Ġeingemein det
B ack
G H
Ġd ent
ĠS U
Ġo h
il deten
ĠG uten
Ġr is
ĠRe ktor
ĠDe f
Ġcon ver
be teil
Ġar ray
ĠMa j
Ġlie be
cl uding
fahr ens
Ġnational sozial
ĠPrem iere
ĠBahnhof s
Ġklass ische
Ġlik es
Arch Ã¤
Ġrepla ce
Ġinj uries
lah oma
Ġsech sten
Ġmensch lichen
G A
P okal
T urn
r ations
s Ã¼d
Ġa wareness
as ka
Ġm oral
ĠA gency
ĠM ort
Ġc arbon
ut a
ĠH ydro
ĠL atin
Ġl yr
ag ert
Ġab gelÃ¶st
ĠAl f
ĠNach kriegs
ĠPr ime
stra fe
ĠEl be
ĠZw eite
Ġgesch ickt
Ġdire cted
ĠFahr rad
ĠSpe ed
ĠLang haus
Ġneg ot
Spe ichert
Ġverstorben en
F ach
F iction
p g
ĠD ame
st Ã¤rke
ol ith
ĠH allen
Ġg rad
ĠSch los
qu ert
19 42
Ã¶r ung
ian er
Ġnot iced
lo gen
Ġfe hlt
hand els
Ġgel esen
Ġger ingen
schl Ã¼ssel
Ġdire kte
Ġcolle cted
ĠBed Ã¼rf
ĠVal ent
Ġmag n
ĠChron ik
erkl Ã¤rung
Ġbeob achtet
M ay
h ungs
t ur
ĠM ong
ĠG P
ĠG am
ĠK ate
sch reiben
Ġg am
Ġl ib
ĠO F
ĠSp ain
Ġcom plic
Ġqu ote
ude d
ĠWh ere
Ġter rit
Gr und
fa ction
ĠKu hn
Ġelektr ische
ĠEind ruck
inu ier
B O
Ġd icht
Ġt omorrow
el in
ĠK Ã¤
ĠL anc
Ġg rew
la te
Ġzu ges
19 11
iz a
ĠLe ader
amm lungen
Ġ9 3
ĠSchw estern
br unn
Th anks
Ġtr ial
ĠHo uston
Ġche ese
ĠauÃŁer ord
ĠRuss ell
Ġfig ures
ĠDisk ussion
ĠVerteid igung
idel ines
ĠInstitution en
ĠFreist il
Ġinstitut ions
h ost
w ik
Ġs alt
Ġf ell
ĠB auten
Ġ1 16
Ġbe it
ĠJ immy
Ġan x
ĠSch ult
for mer
ĠCh art
act ive
Ġges p
ĠFre il
ace ae
Ġdec ade
wend ungs
Ġgl Ã¼ck
Ġverl ang
Ġfac ing
Ġaufge teilt
Exception Constants
Ġenter tain
ĠVe ter
gere chnet
qual itÃ¤t
sm ith
ĠHoff nung
ĠNationalsozial isten
Ġfinanziel len
Ġengag iert
ĠFranzÃ¶s isch
E U
Ï Ĥ
ar us
ĠB og
st art
ĠF at
ĠV III
Ġj ung
ac on
ĠBer at
Ġbes uchen
use ppe
rif tsteller
amen te
Sch l
Ġexper iment
Ġcar ried
Ġperform ing
Ġwei ÃŁe
Ġchem ical
Ġmonitor ing
ĠVerbesser ung
G ymnasium
I st
W ar
f ile
re ts
ein richtung
Ã¼ ch
ĠC ry
Ġbe ar
Ã¶ ner
Ġge h
if ier
Ġauf w
qu ellen
Ġ18 37
Ġex ception
ĠTh rough
mit tag
sk o
Ġpl anned
ĠTr ust
Ġbo ost
Ġopt imal
193 5
Ġzwe ig
ĠWochen ende
Ġgradu ate
Ġmittelalter lichen
Ġconfir med
t est
le v
Ġc erem
ĠE ag
ĠH au
ĠR ow
Ġst il
ĠZ iegel
ver letz
id ance
Ġhe ating
Ġso fern
ĠCh i
inn t
ĠIS O
Ġgel iefert
bach s
Ġbed ient
ival ent
195 6
Ġ180 6
ĠEner g
ĠLehr stuhl
ĠZwe ig
ĠFel sen
gram me
Ġregion alen
ĠQue ens
ĠSat tel
h ain
m ung
n acht
Ġder selben
Ġn utzt
Ġer fÃ¼llen
Ġge fe
if l
Ġsp anische
Ġ18 44
our ces
ac ional
ĠGr upp
Ġtra il
ĠzurÃ¼ck kehr
ĠDr ive
ĠÐ ²
190 3
ĠDienst leistungen
Ġfood s
Welt cup
Mod ell
Ġkanad ischen
P op
i Ã¨re
ĠM oney
ĠF ul
ĠI L
em er
ĠH arb
ĠL aub
ĠL LC
Ġg g
Ġl as
Ġge arbeitet
Ġre min
Ġzu gelassen
ĠBe frei
Ġwo oden
ĠUnter b
man ischen
ĠMag net
Ġtrain ed
ĠArchÃ¤ ologie
Ġeingel aden
ĠGord on
Ã¤p st
O U
p he
Ġs uff
Ġw Ã¤chst
te or
ĠL j
ĠSt Ã¤rke
ann over
ĠU we
id ad
Ġon going
ff e
Ġex tended
ĠAb tei
rieg s
ĠZw eiter
ĠVerb indungs
li ament
Ġgef Ã¶rdert
ey er
ĠRechts wissenschaften
ĠTem ple
Ġdisc ip
Ġpoln ische
ĠNic ol
ĠDro gen
ĠAsp ekte
ĠBÃ¶h men
Ġnutz te
Ġperman ent
k ommt
al in
un ivers
Ġf Ã¶rdern
Ġv ast
ĠP y
ĠF iction
ĠF itness
ĠK rÃ¤fte
im it
ĠH Ã¤usern
and emie
Ġan al
ag us
ĠSp alte
Ã¤t igkeiten
be h
rat ive
bar ung
Ġcont rast
Th omas
ĠVol ker
ĠTra de
ĠQu est
Deutsch es
ĠDon ner
ĠBrÃ¼ ssel
ĠAnn ual
ĠPil ot
ĠFinanz ierung
Ġprepar ation
ĠNachbar gemeinden
Ġconcern ed
ĠAust in
How ever
Ġcandid ates
Ġnorm ally
H ers
k ers
m Ã¶glich
Ì Ī
er ung
Ã¤ g
ter min
ĠG or
Ġg un
Ġto urn
ĠC ore
Ġaus gestellt
Ġ18 47
19 49
land e
ĠGe fe
iss a
Ġres istance
ĠFre ude
ĠAmer icans
195 3
ĠAlb ums
ĠDet ail
ĠnatÃ¼r liche
usst sein
Ġtw ice
rupt ion
ĠEas tern
ĠOffic er
fÃ¤ll ig
D ienst
I X
M ap
k ommiss
at sch
ĠA kten
Ġo ven
Ġh idden
Ġc ategories
ĠT ol
ĠT alk
ĠF ont
ic ts
Ġfor ced
ĠSch uh
Ġr ig
ĠPro cess
ob a
ĠHer zen
Ġber ichtete
ĠNor bert
ucht ung
ĠBand s
Ġknow ing
Ġbig ger
196 1
ĠZug riff
ĠFernseh film
Reg ion
Ġoffic er
Ġricht igen
ĠSamm lungen
Ġwand te
Ġassess ment
Ġeigent liche
Ġproced ures
ĠNAS A
! "
H ello
N et
P ost
p rechen
p flanzen
Ġ Ã¤ndern
on o
Ġb ags
Ġv intage
ĠD ritten
ĠD aily
st es
ig el
de cker
ĠP att
ĠT U
ĠT am
ĠI tem
ed el
Ġge omet
Ġ18 16
Ġsh ops
ĠWe iler
ĠDeutsch es
St a
asch a
196 2
fel de
fo ot
ĠDres dner
ĠzusÃ¤tz lichen
Ġdeb ut
ĠEmp f
ĠBill y
Â» ,
ĠMount ains
ĠSy mp
ĠmilitÃ¤r ische
Ã¤rt ner
ĠAuseinanders etzung
ĠSynag oge
elem ente
C hem
S pr
ar est
at iver
ĠK han
ĠH ugh
Ġbe zogen
enn zeichen
Ġro ugh
Ġmy th
Sch iff
ĠArbeit geber
Ġag gress
ĠDurch fÃ¼hrung
ĠJohn ny
Ġtrans ition
Ġtyp ical
Ġcr ime
Ġhol idays
ĠErw in
ĠFrÃ¼ hl
ĠMer cedes
ĠFÃ¼hr ungs
Ġcompar e
ĠWach stum
Ġsympt oms
I K
k am
p op
u bert
ĠS or
at ible
Ġin ches
ĠP ear
Ġc ake
ĠI ra
ĠR iesen
eit h
os ed
Ġre iste
Ġr ating
aus o
ok en
Ġex amin
enn is
ĠTe uf
Sch utz
Ġend s
ĠPart ners
Ġpos itions
Ġland es
fred akteur
Ġmeisten s
Her r
ĠKrit iker
Ġverm utet
SS R
Ġkrit isiert
ĠBist ums
Ġabgeb rochen
ĠMoh amm
verteid iger
ĠkÃ¼nd igte
, ,
Ð ³
Ġa w
Ġb ab
ĠC ir
Ã¶ b
ach se
ĠN ature
ĠV alen
aus chen
ĠSp er
19 47
ĠTh ai
ĠVor name
ĠVor bereitung
Ġoff ens
ĠÃľber leben
ĠOb st
Ġzusammen gef
Ġgu ter
ĠKriegs gefangen
Ġverlie f
ĠBu y
Ġcra zy
wal de
ĠOrgan ist
Ġmat ters
Ġult imate
ĠÃĦr zte
**** ****
ĠZerstÃ¶r ung
Ġta ught
ĠM az
ĠH Ã¶l
ĠR ight
ĠL ob
iv itÃ¤t
Ġst abil
ĠRe ifen
âĢĻ .
Ġle ichter
Ġ18 39
Ġ18 42
ĠBe fest
18 99
ĠKon ferenz
15 0
Ġbek leide
ograph ischen
ĠMed ium
Ġcomm ission
Mit te
Ã¶st liche
akes pe
ĠWei h
Ġdeb t
ĠRen ov
Ġregul ations
Ġqualifiz ierte
konstru ktion
ĠBom ben
Parameter ID
ĠAfghan istan
H al
H alb
L aut
M Ã¶gliche
R und
S etz
m aus
he ater
ĠM is
ol ia
ra iner
ĠC ad
lich ten
Ġab gelehnt
ren ner
isten ce
ĠAnd y
ĠHaus halts
ĠVolks republik
ĠErn est
ĠHistor ischen
verb indungen
Ph ys
lÃ¤uf e
ĠDet roit
ĠgrÃ¶ÃŁten teils
Ġmiss ed
ĠKing dom
Ġsitu ations
ĠAufent halt
Ġausreich end
ĠGelegen heit
ĠSchÃ¼l ern
P ark
g alerie
Ġ q
et ooth
Ġk reis
Ġre ader
Ġ18 45
ĠBe wertung
ĠDe cken
ĠSe attle
oc aust
Ġte eth
als ieger
fin det
Ġdar stellen
Ġspe zif
Ġel ig
Ġfound ation
mus ter
lÃ¤nd ischer
Ġoper ate
ĠMont ag
189 6
Ġyoung er
kap ital
Ġcook ies
ĠTenn essee
Ġtransport ation
ĠLok omotiven
uum l
ĠSkulpt uren
L ied
W A
b aid
d ro
d im
m il
r ufen
s inn
Ã ®
ĠS ay
ĠS amen
ge mÃ¤ÃŁ
Ġc um
ĠK ay
et tet
ĠL il
ĠC ott
ber gt
ĠV at
ĠVer k
ĠEr klÃ¤rung
Ġ18 13
Ġcom pr
Ġex ternal
schie ÃŁen
ĠMed aille
Ġfl ash
Ġsub t
Ġsub stant
ĠBel ager
Ġrest lichen
ĠEv ans
Ã¤mp fung
Ġrep utation
Ġprakt isch
Ġorigin ally
Ġschedule d
ĠPseud onym
D oppel
P osition
V ideo
Ġt ile
ĠA ra
ĠD arsteller
ĠK ohle
ĠJ ess
Ġan gen
ĠSt ifts
ver w
âĢĻ ,
ĠEin kommen
Ġunter stellt
ĠLe hn
ĠSe ele
Ġprov en
Ġgesch Ã¼tz
ĠGesch lecht
ĠEle ktr
Ġvis ited
Ġinst ance
ĠAir es
Ġstehen den
195 9
ĠTur ner
Ġbedroom s
Ġarchite ct
mot oren
Ġhers elf
ĠKent ucky
k ommission
Ġd ental
ar ie
ĠM ale
ĠM asse
ĠG lass
ĠW id
Ġre cover
ei ra
ĠAn wendungen
ĠSp enden
Ã¤t t
rÃ¤ uch
ĠCh ange
Ġbes ter
stand es
ĠQu art
Ġcons ists
ĠĠĠĠ Ġ
Ġweek ly
Ġgl ad
ĠKont akte
Ġmember ship
ĠGef Ã¤hr
Ġdivers en
ĠMas ters
ĠKenn edy
Ġprogramm ing
ĠNeuse eland
: :
E isen
e ck
k noten
Ġm Ã¼s
Ġh Ã¶l
sch Ã¼tz
ĠR um
Ġbe wegen
Ġbe zÃ¼glich
Ġge g
00 3
ĠDe ep
be griff
ction al
ĠEx ception
ĠOff iz
Ġfest gestellt
ĠDar stellungen
ender t
ĠPal ast
Ġ185 3
Ð° Ð½
ĠRed akteur
Ġlist ing
Ġkommen den
Ġtre ated
pass te
Ġhor se
Gemeinde auflÃ¶sung
r ud
Ġt ub
Ġw asser
as ters
Ġ1 18
ĠL ub
ĠJ as
ĠJ ason
ĠO ran
op ath
ap olis
ard in
lie gende
ĠSe gel
ĠEx il
hol ung
Ġgra b
ĠDo uble
Ġangeb lich
ĠErd geschoss
Ġfa iled
Ġbere chnet
Ġnut rit
D uring
S eite
k lassen
l och
o ft
ĠS ony
ein satz
Ã¼ tt
Ġv end
ĠP ension
Ġn one
Ġc ro
ĠI ce
ĠR acing
ist ol
ĠN ak
ac ted
Ġsho ot
Ġbl ow
schlieÃŁ en
Ġperfe kt
ĠQual ifikations
Ġresearch ers
Bundes liga
abil itÃ¤t
Ġgraph ics
ĠChallen ge
ĠInnov ation
ĠBÃ¼nd nis
S aison
W appen
g ro
j ar
Ġs itzen
Ġw Ã¤ren
Ġo vers
ĠF erner
Ġer gab
ess a
ĠAn satz
Ġi OS
Ġad op
Ġres ume
zeit lich
ĠTra ck
ĠGrund schule
ĠAt mosphÃ¤re
ĠPart ien
ĠDo ctor
auch en
ube hÃ¶r
Ġwrit ers
ĠDu isburg
ĠText il
Ġrece iving
ĠRel ief
ĠCla ude
Ġged acht
Ġsignificant ly
abet es
ĠEuropameister schaft
Ġatmosph ere
K reuz
M M
T urnier
m Ã¤r
Ġd iss
or able
Ġw ies
ge tragen
ĠM ilit
ĠL A
ĠL orenz
Ġer ober
ĠN an
ik s
Ġun bedingt
Ã¤t te
Ġex cess
Ġunter teilt
Ġte ch
ĠFl orenz
Ġges ichert
ina e
rol og
olv ed
met ter
ĠHistor ische
Ġaff ected
Ġident isch
189 8
ĠFlor a
ĠTur k
ĠFreund schaft
Ġreport ing
Ġinvestig ation
Ġtal ks
Ġbrow se
ĠVinc ent
D am
E p
O t
ar ab
Ġp ussy
am ann
em pf
ir i
Ġan bie
ĠO regon
ib ir
Ġhe iÃŁen
Ġ18 12
ĠAl ber
ĠAl abama
Ġat tended
Ġent deckte
Ġall eine
fol k
mann schaften
ish es
Ġob s
ĠUm satz
hel ess
Ġsho ck
ĠMag d
Ã¶m m
ĠWohn ungen
bet riebe
Ġaufge hoben
ĠErn Ã¤hrung
Ġschn eller
Ġtro uble
Ġdan eben
Unter nehmer
Ġdefin ed
ĠStÃ¤d t
sprach ige
Par is
Ġattra ctive
ĠBlÃ¼ te
Ġstrateg ic
Ġbedeutend sten
O s
i ja
k arriere
n ische
Ġb ars
ĠB omb
Ġv illa
ro hr
ĠH unde
ic ted
ĠV ice
Ġaus drÃ¼ck
Ġde fault
ass o
qu artier
Ġsp lit
Ġex port
erk irche
alt itel
ĠVor les
ium ph
ĠAd miral
ep ing
Ġsup posed
Ġ0 7
ĠBundes straÃŁe
ĠHaupt ort
mittel alter
Ġcre w
ĠMot oren
Ġhistor iques
Ġcho osing
ĠRen Ã©
Ġsil ber
ĠCap ital
ĠHÃ¶r spiel
hers tellung
Ġapart ments
Ġimag ine
ĠRal ph
ĠMitarbeit ern
baid sch
A tt
W eiÃŁ
l atz
s he
ĠS ich
st ahl
ĠF Ã¤r
ĠG ieÃŁen
sch reiber
ĠN ations
Ġst opped
Ġor din
19 17
ov Ã¡
Ġco unsel
Ġar men
Ġgen e
Ġro se
An y
ĠEl f
schl Ã¼sse
Ġrel ative
Ġident ity
Bau denkmal
ĠÃ¼bern immt
Ġhor izont
Ġcapt ure
ĠIll ust
ĠPor sche
Ġcompon ent
Ġerle bte
Val ue
ĠmaÃŁ geblich
Ġspezial isiert
ĠFrances co
: .
d ichte
k andid
z ule
Ġw ander
Ġw inner
Ġw Ã¤hlte
re chnung
Ġm orgen
ĠB B
ĠB ug
ĠB ush
Ġn erv
ent sp
ĠV irt
ĠO N
os se
ran ten
Ġ18 38
ĠÃ¼ber all
Ġman chen
ĠY outh
Ġad j
Ġdesign ers
rip pen
Ġspe ech
Ġavail ability
Ġrest r
En ts
Ġkon zip
ĠKat hedrale
Ġcr ash
ĠBru ce
On ce
Ġemploy ment
ĠSied lungen
Ġevangel ischer
Ġverste ht
Ġbott le
Ġearn ed
Ġvirt ual
ĠGesell schafts
ĠErl angen
Ġbewe gt
O l
h ome
h yd
m isch
t ier
u den
Ġ á
Ġt ank
or ne
ĠS ri
ĠD ass
ig sten
Ġc am
ĠK und
ĠW iesen
ĠL etter
Ġl ucky
Ġe ase
ts piel
ĠIn fe
ĠEr gÃ¤nz
ĠUn it
ĠEin zug
ĠLand gericht
Ġpr icing
Ġlie fern
ĠPr ize
St art
ĠTr ip
ins ichtlich
ĠStud iums
ĠIs lands
ĠInter ess
ĠPat ient
ript ion
ĠPo et
ĠTurn iers
Fl uss
imar ily
Ġerz ielt
ĠAtlant a
Ġfrequ ently
ĠDiÃ¶z ese
E vent
P res
R ich
c ular
p in
Â ·
Ġd ual
Ġin ch
ge k
ĠB elle
ĠD ritt
ro b
ĠJ oy
ik ern
la de
ĠVer y
Ġle ichte
Ġvor be
pe z
ĠOr din
ĠAb wehr
Ġrec ipes
ins eln
ĠĊĊ ĠĊĠĊ
ĠFach werk
welt meisterschaften
Ġconc ert
Ġprogram me
parte ments
Ġfiel en
Ġempf angen
Ġmer ch
ĠStreit krÃ¤fte
Ġdraw ing
ĠJon athan
ĠLÃ¶s ungen
F ield
b rechen
i ologie
u in
st urm
Ġh ire
Ġk ol
Ġst im
ĠVer teilung
ĠSp ons
Ġle hnte
ĠBe arbeitung
ens atz
ite es
Ġout put
ĠBau reihe
Ġentsp ringt
ĠZusammen schluss
ĠStaats anwalt
schein lichkeit
ĠTro cken
ĠMinister ium
Ġauth ors
ĠPop ular
ĠlÃ¤ng ere
ĠBundest ag
Ġsubmit ted
Ġsorg te
Ġregistr iert
Ġfoll ows
I nde
k Ã¼nstler
m Ã¶gen
at isch
at ile
Ġb io
ig nete
ĠH ost
ĠSt Ã¼r
ĠO skar
Ġab use
Ġ18 14
ĠPro tag
ian i
ss ystem
ĠAus scheiden
co le
Ġfin ance
ĠGra phen
Ġgel eitet
ĠVers ionen
ĠChar lie
ĠMay er
ĠSen ioren
195 7
Ġfile d
ĠCamp bell
Ġinform iert
Ġindustr ies
Ġzweit es
ĠFal ken
Ġumfang reich
Ġprincip les
MÃ¼n chen
opÃ¤d ie
Ġa wards
an as
ar is
ĠS uz
ĠB innen
ĠG ift
ĠW ettbe
ĠL ith
ĠN umber
ĠRe zept
ĠCh rom
ĠSe ver
ĠBer ichte
olog ist
Ġtra cks
Ġfol ks
unk er
Er ste
Ġeng age
ros se
ĠQual ity
ĠMitte le
ĠMer c
stud ien
Ġcra ck
ĠMach ine
Ġcharge d
Bi ografie
Ġincred ibly
Histor ische
Europameister schaft
D et
k rÃ¤
Ï ĥ
Ġ essen
Ġt iss
Ġs oph
Ġf ran
st age
am ic
ĠK ilometern
ĠR as
Ġbe arbeitet
ver kauf
Ġwar ten
ĠAn to
ant a
ungs ort
St ate
pro v
ork ommen
Ġinter face
ĠStra hl
Ġ0 2
ĠHaupt bahnhof
ĠTre ff
Mod el
ĠTob ias
ĠNR W
1 20
R obert
S to
k ular
w ass
z ien
Ñ ħ
Ġ Ñģ
Ġ Ã¤nderte
ĠD R
st urz
ĠR ied
ĠL uf
ĠJ en
ĠO range
Ġre produ
Ġun w
Ġ18 28
uss ia
ĠReg iment
ĠAd vis
ĠHand lungs
ĠMot to
ĠBi ber
spr uchs
Ġcr iminal
ĠSÃ¼ ÃŁ
ĠVe ktor
kn Ã¼p
van ced
Ġdiscuss ed
Ġliter ature
Produ ktion
htt ps
Ġdetermin ed
K n
R itter
S ach
T ION
Z ug
Ġ ~
le un
ĠF eb
ut ung
ent schieden
ĠR ange
Ġl ust
Ġvon einander
ul u
Ġver standen
ond o
ĠTe ch
ĠCo ach
ĠHaupt mann
âĢ¦ .
ĠNieder lagen
Ġdevelop ers
ograf ische
ĠDurch schnitts
Le x
ĠSan ierung
ĠGew ichts
ĠGeneral leutnant
Ġsetz ten
189 7
maler weise
Ġkont inuier
ĠSlow akei
Ġincor por
Merk male
B R
F k
W eiter
v ik
ł Ģ
Ġw itness
ĠS ale
ĠD sch
Ġp asst
ĠT ieren
ĠK reat
ent urm
et wa
ĠL us
Ġl aser
Ġl iquid
ĠN erv
Ġan gest
ad os
Ġy ard
Ġne ur
be zirks
ĠAb geordnete
Ġrec ording
ron ics
Ġtr ib
Ġverb inden
bes te
Ġausge de
ĠDu o
ĠAuss agen
Ġcreat es
ĠSchloss es
ĠPet ro
Ġsicher te
Med iziner
ĠSold at
ĠVog t
ĠTschech oslow
ĠSign al
Ġtick et
ĠInf os
fun ks
B ern
y an
in strument
ĠS hel
Ġm obil
ĠA kte
ro de
ĠK od
ĠH im
ĠL iver
Ġbe an
ĠN FL
ĠJ i
Ġe ar
ĠZ ellen
Ġ18 41
Ġ18 31
ĠÃ¼ber le
Ã¤r er
tra cht
ime tern
ĠSh akespe
Ġeng agement
Ġerr ang
En gl
Ġerhalten en
Ġant iken
ĠBesch luss
Dies es
Ġinvest ors
195 5
ĠKol umb
ĠEt wa
Ġjeder zeit
ĠGlas gow
Ġrecogn ize
Ġmusikal ische
ĠMov ie
ĠViz emeister
ĠEinzugs gebiet
ĠVerstÃ¤nd nis
n Ã¼tz
Ġ Ù
ein kommen
Ã¼ sten
ĠB aut
ĠB org
ĠL iss
Ġbe herr
Ġl ift
qu ote
Ġex pos
ĠCh ap
18 95
ĠGr Ã¶ÃŁen
ĠVor gehen
ake te
Ġ9 4
ĠUnter richts
Ġins zen
Ġob lig
ĠFre unden
Ġgel ungen
gra ph
ĠUr kunde
ĠEm ail
190 8
ĠHeimat stadt
Ġtreat ments
.: .:
ikal ische
ĠCent ury
maler ei
Ã¢ n
ĠKÃ¶nigs berg
ĠStad ium
Ġentire ly
ĠSÃ¤ ulen
sthe ater
ĠChallen ger
Ġaccommod ation
Krit ik
m ain
w enn
Ġf if
Ġf Ã¤hrt
Ġp hen
Ġc odes
ĠR af
Ġg al
ver arbeitung
Ġaus gerichtet
ĠEr ne
ens ation
Ġman aging
Ġqu adrat
ĠAd ams
Mann schaft
Ġdr ugs
Ġspe aking
fra uen
ĠSeit dem
ES CO
ĠMiss issippi
gre ifen
zwe ck
Ġpow der
ĠBapt ist
Listen er
2 50
S ol
T F
d re
u ages
Ġt ack
re z
ĠF ig
ĠF ay
ĠK ot
ĠH eld
ul us
est adt
ver eine
ĠIn stagram
Ġ18 10
Ġ18 34
ĠBe fore
ĠVor gang
ĠMal aysia
ĠFe ier
Ġbl end
Ġselbst stÃ¤nd
ĠTechn ische
ĠKn ochen
Ġunser es
AT ION
Ġpay ing
Ġoft mals
Ġelect rical
ĠLu is
Ġgepl ante
Ġgek ennzeichnet
ĠNamens geber
ĠPed ro
Ġign or
Ġdoll ars
Ġsud den
K ont
t age
u ing
Ġa ben
Ġt all
re kord
ich i
ĠT oren
ĠK ies
ĠK ok
ĠSt aub
ag an
iz isten
enn ame
ĠMa ÃŁe
ock el
Ġdis app
fess ion
ĠZu vor
ĠMain e
Ġclos er
sta ats
ploy ment
Ġlink ed
ĠKol onie
Ġwid ely
Ġern st
ĠLouis iana
ĠDokument arfilm
Ġhab ilit
Ġcontrib ute
ĠEins Ã¤tzen
ĠÃ¶ k
mag azin
Ġfail ure
Ġstyl ish
ĠSecret ary
Fo otball
B ay
C la
N icht
S W
a ult
b rief
l Ã¶s
Ġs tet
le hr
ĠM other
ĠG ary
ĠH af
ĠW edding
ĠL oth
ĠN ash
Ġge heim
ĠIn strumente
ĠEr mitt
ste her
ok oll
Ġcon cepts
rÃ¤ g
Ġunter nahm
erk raft
ĠSe pt
Ã¼ck e
In halt
ĠZw ar
Ġpolit ischer
wor ld
ĠBrit ain
gehen de
Ġexpect ations
ĠVorder grund
Ġexcept ional
ĠClaud ia
ĠDak ota
ĠFertig stellung
Ġd ialog
ĠB auf
ĠD Ã¼r
ĠP ommern
ĠT ower
ĠG lÃ¤
ĠK ings
ĠW icht
ĠW Ã¼n
hr ingen
Ġg entle
Ġl ake
ck te
for cement
ges ted
Ġen ger
ĠPh arm
ĠSpiel ers
ĠGen re
Ġgeb unden
ĠEd itor
ender s
ĠBel ast
Ġsign al
klÃ¤r t
onen te
stehen den
Ġdisplay ed
sthe orie
ĠRis iko
inde x
ĠKart off
miss ions
ĠWiederauf bau
Ġeindeut ig
Ġverab schie
ĠHels inki
ĠBuen os
J ul
j Ã¤ger
Ġb ond
un fall
Ġm a
ra ul
sch lossen
ĠI rak
ĠH R
ĠH ahn
ĠC ort
Ġan alog
ry l
ĠIm mer
ĠVor stellungen
pro fil
alen ted
ress en
Ġben ch
Ġ% ,
Ġqual ifiziert
ĠLin ux
ĠKÃ¼ hn
ĠAg ain
195 2
Ġmar ks
Ã¼rz te
Ġredu ced
Ġorganis ierte
ĠRob in
ĠWand el
Arch iv
Des cription
Ġdescrib e
Ġnied rig
ĠOze an
Ġkorre kt
ĠShang hai
Lud wig
B u
B lack
C P
f isch
t sch
on ic
Ġt ested
ĠT um
em m
ĠH Ã¤nde
ĠR Ã©
ĠL Ã¼n
ic ulture
Ġg lo
ĠAr range
Ġunter brochen
ĠSe ch
St atus
Ġnew ly
ĠEx change
ĠGer d
Ġvers ions
Ġag ents
Ġreal isiert
ĠWer ks
Ġcommun ications
ĠFrankreich s
Ġpublic ation
ĠKommun e
Ñģ Ðº
ĠEmp fehl
ĠCle mens
ĠInde pendent
rÃ¤nk ischen
Ġbege g
ĠPow iat
ĠÃ¤uÃŁ eren
Ġbeauftra gt
Ġeingest uft
Setz liste
K al
b urn
Ñ Ĩ
Ġb odies
ĠB ess
ĠM ack
ĠM eine
Ġp in
ĠJ ugoslaw
ĠSch re
Ġr ies
Ġ18 21
ĠÃ¼ber liefert
19 16
enn a
ĠAb raham
ĠBer ger
utz ten
uk a
Ġsk y
Ġpolit ics
ĠWohn ungs
ĠWal ker
ĠPan el
Ġzie mlich
nehm ung
Ġcat alog
ĠJahrzehn te
ĠSak r
ĠDist anz
Lou is
ĠDreiÃŁig jÃ¤hrigen
G E
K ur
R ichtung
V ID
c al
Ġa warded
re if
ĠP ent
Ġh ang
ĠF okus
ĠG ay
ĠW alt
Ġk roat
ĠSch uhe
op y
Ġun e
Ġsch m
Ġch icken
18 90
Ġtra fen
Ġev olution
entlich er
Ġph ase
ĠHaupt darsteller
ĠPart ie
Ġheraus ra
ĠAuss tellungs
ĠSw iss
ĠRead ing
ĠScott ish
ĠtÃ¼rk ischen
Ġabgel eitet
Ġbesonder er
ĠWik ipedia
Ham burg
G l
L ie
W he
l inger
in cess
om ing
ĠR ak
ĠN avig
Ġle istungs
dem ann
ĠSchw ed
ĠGemein schafts
man ager
Ġoff ices
por ters
ĠSer b
ĠLebens raum
umb oldt
ĠBur k
ĠÅ ½
ĠGi useppe
grÃ¼ nde
Med aille
quis ition
Ġfunktion iert
Jose ph
ĠVerbreit ungsgebiet
A ir
B E
H R
S al
T op
k ter
s an
Ġm Ã¼sse
le ans
ĠT R
ĠF ly
ĠG ib
ĠN elson
ĠVer sch
igen en
Ġnach t
oll o
pl Ã¤tzen
Ġte x
Ġste igt
ĠSte ine
ĠGes ichts
enk te
let ten
ator in
Ġbesch rieb
ĠAss istant
Ġconf ident
ĠIde as
kap it
Ġneg ativ
ĠKirch spiel
ĠÃ¼b lichen
fÃ¤l ischen
marsch all
Ġweib liche
ĠSingap ore
B ot
H erkunft
R aum
T O
W ahl
m ay
o a
ie de
Ġs aÃŁ
Ġb omb
ĠB ond
ĠH ert
Ġl uck
Ġr Ã¤um
ĠVer schw
ĠAn other
Ġso fa
rÃ¤ der
Ġwas h
Ġsow eit
ober flÃ¤che
Sch on
sh aber
Ġprodu cing
ĠAll ein
Ġele v
Ġfre ier
wissenschaft lichen
Ġorder ed
Ġmeet ings
Ġleben den
189 4
ĠerklÃ¤r en
ĠKre u
ĠGesetz es
dr ama
gerichts hof
ĠTemperatur en
ĠEigent um
ĠStan ley
ĠAR D
ĠAuseinanders etzungen
Ġunterr ichtete
Ġjo ining
Ġdanger ous
Ġstattf and
N etz
R hein
W olf
m ord
t urm
es er
il o
ĠT ap
sp reis
iz on
ĠTh om
Ġen ables
Ġsh ift
ren e
Ġfind s
Ġperson en
Ġstar tet
ĠPaul o
Ġbook ing
hÃ¶ hung
sprach igen
ĠUs ing
Ġconcern ing
ĠAud i
hab t
ĠOpt im
Ġspeziel len
ĠOk res
Ġzuf rieden
Christ ian
ĠanschlieÃŁ enden
Ġbess ere
ĠBrook lyn
? âĢĿ
P ublik
W M
c ell
h Ã¤ngt
p ubl
on ed
ĠS i
ein trag
ĠD ress
Ġh ydro
ĠF unktions
ra hmen
ĠR Ã¤um
ir s
ĠSch er
og ne
ind s
ĠAn gl
ĠSe chs
pr esent
ĠMus lim
Ġjust ice
ĠGen ossen
anc a
ĠGrÃ¼ nde
ĠHol ocaust
recht lichen
ĠÃĦ l
Ġatt rib
ĠWeiter entwicklung
ĠStr Ã¶m
ĠJournal isten
ĠSicher ung
Ġfocus es
gesetz es
189 2
Ġannoun ce
krit iker
ĠErinner ungen
ĠAN D
ĠJed och
Kan al
kurr enten
H g
L ei
P ierre
l ler
u cc
Ġs ink
ge ts
ĠP Ã©
ĠP itts
ĠG reek
ĠK iss
ĠW Ã¶r
ĠL ion
Ġg ross
ĠJ h
est het
ĠDe part
ian ische
je ction
ĠSte ink
Ġsc ulpt
Ġgu idance
Ġbed s
Ã¶h le
Ðµ ÑĢ
ĠLang uage
Ġsw ing
Ġoffic ers
Ġoffic ially
ĠViel falt
bu ilding
Ġerf Ã¤hrt
Ġtschech ischer
ĠkÃ¼nstler ische
Ġmill ions
ĠLetz ter
ĠMargar et
Leicht athlet
Ġzusammengef asst
A uth
H or
S tein
y st
is emit
ĠS ide
Ġin stitution
ĠD elta
ro se
Ġp hr
ig l
ĠI van
ot ter
ab lo
ĠZ it
ĠIn haber
Ġr iding
ib il
ok ol
ĠTr io
ĠMan ufact
Ġ0 5
ĠZw angs
ĠAut os
ĠBundes regierung
Ġange kÃ¼nd
ĠProdu ct
ĠfranzÃ¶s isch
ros sen
Mar ie
aller ie
Ġleben s
rist all
ĠBon us
ĠYear s
ĠSab ine
ĠEas y
ĠCham ber
ĠWurz eln
EMail Adresse
Lin ie
verl ust
check EMailAdresse
ĠAnz eige
g lo
h ielt
y nd
Ġs Ã¤chsischen
Ġin tr
ĠB ast
ĠP est
Ġge zwungen
ien e
sp rachen
Ġ18 36
Ġ18 32
ĠBe weis
ĠBe amten
ian ces
Ã¤nd igkeit
Ġwor se
auf tritt
pt y
omm y
teil ten
ĠVor teile
ĠPh Ã¤n
Ġob jects
Ġno ted
Ġact or
esent liche
ĠFest schrift
str Ã¶m
ĠIns zen
ĠAir lines
irm ingham
Ġkomp lette
Ġport ion
Ġerziel en
ĠEst ate
Des ign
Ġnorweg ischen
ĠMatthe w
> .
A K
B ur
F ind
H K
M r
h essen
Ġd ust
ĠB ibli
ĠB attle
st yle
ĠP rad
ĠE uch
ĠL az
ber gen
ber ater
ĠSt ief
Ġauf einander
ver teilung
Ġzu verlÃ¤ss
ĠÃ¼ber zeugen
Ġch ose
ĠMit tw
Ġro les
eite te
Ġho le
ĠVerein igte
ĠQu ad
ĠBuch en
ĠKr im
ĠKomp etenz
ĠUr sprÃ¼nglich
ĠMeister titel
ĠÐ º
Ġfac ulty
195 4
Ġbew aff
Ġzurueck gegeben
ĠAth leten
Ġangegeben e
Tra iner
ĠPok er
ĠErzÃ¤hl ung
ĠFranzÃ¶s ischen
russ isch
Ġtag ged
Ġverg essen
organis ationen
Absol vent
Fk EMail
. ;
S M
h ier
j on
n immt
w eb
Ġs ed
Ġb rachten
de i
ĠT ed
ra ums
ĠC and
Ġan onym
ies sen
if ter
ĠMit ch
fe hlen
ĠJan eiro
rol ler
ĠBet riebe
Ġperson s
Ġperson ally
Ġret ire
anad ier
do ors
Ġentstanden en
Ġsuper ior
Ġfunction al
Cl ub
ĠDat abase
Ġille g
A g
P N
V C
m auern
it iv
Ã¼ g
ĠB ark
ĠB usch
Ġo s
ad ion
ĠEr ziehung
Ġhe aling
Ġch apter
Ġ4 50
ĠAuf klÃ¤rung
Ġbes tellt
Ġac id
ĠMann es
Ġbef Ã¼r
lei hen
ĠWal ther
Ġfinanziel le
Ġerinn ern
Ġcandid ate
Ġdep th
F amilien
S K
Z usammen
h Ã¤n
Ã¼ nde
ge gangen
Ġp atch
ĠP ink
ĠG ibt
ĠN HL
Ġk Ã¤mpfen
ĠSt imm
ĠZ ut
ĠSch ienen
Ġaus einander
Ġr ural
Ġpro of
ĠPro zesse
ĠCh irurg
Ġgen auso
sk Ã½
ĠGeb Ã¤uden
ĠSpiel zeiten
Ġra ck
ĠNord west
Ġbesch rÃ¤nkt
ĠPat ent
jÃ¤hr ig
Ġkurz zeitig
Ã¤m mer
ĠKind es
gÃ¤n gen
ĠKle idung
ĠdÃ¤n ischer
ĠnÃ¶t ig
ĠBulgar ien
Ġdipl omat
ĠSams ung
Ġmur der
A BC
L iga
b ot
f angen
m ing
m aking
p us
u art
Ġh armon
ĠH ung
ĠL is
ĠC ulture
Ã¶ hne
ĠV Ã¶gel
Ġk rÃ¤ft
ĠZ ar
Ġver me
Ġ18 43
Ġcon vert
Ã¼n ster
18 89
Ġar ms
Ã¤d te
hand lungs
ĠIs abel
ĠÂ °
ĠOrts teile
ĠBra zil
ĠMor gan
IN E
gar de
Ġobject ive
Ġlink er
Ġcap able
ĠBud dh
ĠTher es
ĠAst ron
Ġbedeut enden
Ġille gal
Ġsustain able
% .
c ons
p ts
Å ĳ
in f
Ġm aps
ĠB ismar
Ġc in
ĠT ransp
ĠH onda
Ġk onst
ik ers
ik ts
id as
Ġr um
ĠEr sch
Ġ18 29
ĠSe ason
ĠBer Ã¼cksicht
ign et
ĠAus gra
ĠVor runde
rich en
pro of
ĠDies el
ĠMed ik
ĠRo te
ĠStre ifen
ĠBest immung
Ġdav or
Ġlaw yer
atÃ¼r lich
Ã§ a
ĠspÃ¤t estens
Ġarg ument
Ġsatis faction
ĠÃĦm ter
Ġgg f
I hr
b ow
j ing
k inder
y k
is pr
Ġm otion
Ġo cean
ĠD irk
ĠP om
Ġc otton
ĠK ass
ĠH P
ĠH appy
ĠR ace
ann els
ĠSch ein
je cted
iss ions
Ġpr ison
ĠFl Ã¼ss
Ġgen der
zeich ner
Ġlie ben
Ġind ire
ĠStud y
stein er
Ġsho oting
Ġerw arten
ĠMittel feld
Ġhistor isch
ĠHel p
Ġclos ely
ĠSol utions
Ġimpro ving
ĠCas par
ĠOper a
ĠMiss ions
Ġenter prise
Ġleg it
Ġceleb ration
ĠKanz el
Sa ale
Ġinteract ive
ĠAngelegen heiten
B asket
U s
Y es
d ays
Ġd ivision
it iert
Ġt ip
ĠA tem
ĠG rant
ĠK rem
ĠW asch
Ġer leben
ĠN om
Ġre chter
ĠSch uss
ver anstaltungen
ĠIn fo
th is
ob el
ĠTh ose
18 87
ors itzen
ĠPar ad
haus e
Ġber aten
sk on
vel and
Ġass um
Ġmin ister
ĠDo es
ĠBro thers
umb ing
195 1
Ġmag ic
Ġtradition elle
ĠBaum eister
Ġreason able
Ġmem ories
ĠPhot os
Ġserious ly
ĠEnter prise
ĠStraÃŁ burg
ĠOpp osition
izien z
ĠKrie ger
astrop he
Ġvolunte er
ifff ahrt
M ot
P L
m ol
Ġd ienten
es tet
ĠS ED
ĠA ktionen
ra ce
ĠL ingu
ĠN u
ĠJ ohan
Ġst ainless
Ġfor est
ith er
ĠEr forschung
ĠBe cken
Ġnach weis
Ã¶r n
oc on
Ġvers orgt
Ġhand ling
ĠKunst geschichte
ĠVers and
Aus gabe
ĠNo ten
Ġfac ts
ĠUl m
leg ungen
Ġextens ion
ĠEins Ã¤tze
Ġframe work
Ġmusikal ischen
Ġjud ge
Ġsitu ated
ĠGeschle chts
Ġumfass ende
ĠMarsh all
Ġfir ms
P ubl
e z
k ok
es c
ĠS D
Ġin halt
Ġf Ã¼
Ġv olle
ro ph
ĠT ry
ĠT reib
ra c
ĠW esen
Ġbe aring
all o
ver d
th iop
ell ers
ĠUn i
ome ter
Ġ16 00
Ġ10 5
Or dens
ĠBre ak
Ġkein em
ĠKom bin
ĠHall ow
ĠSalz burger
kor de
Ġsle e
sequ ent
komp lex
ĠEff ekt
Ġbetre ff
friend ly
penden ce
AuÃŁer dem
A c
C ount
Ï Ģ
Ġb ron
us che
ĠB ott
ig rant
Ġc ater
ĠT un
ĠG ate
ĠE id
iv o
ot os
ab on
eb o
kt ive
ĠZ ag
ĠAn aly
uld a
ĠFl ach
ĠMittel meer
ĠfrÃ¼ he
rÃ¤n gt
ĠSol id
Ġworks he
Ġinform ed
ĠDor othe
ĠAbs ol
Ġinteress iert
Ġexpla ined
Ġaustral ischen
Ġimplement ation
ĠConc ert
Ġphotograph s
ĠgrÃ¼nd eten
Ġveranst altet
ĠGon z
Relig ion
B ank
W o
k u
es telle
Ġt ags
Ġt iefer
ĠS ug
Ġb ibl
ĠB C
Ġp ocket
ĠT Ã¤ter
ĠR it
ĠL ac
ĠC ash
Ġk ill
ul ationen
Ġr ib
sp rech
ov ed
ĠHe irat
Ġpr imarily
Ġtra g
Or igin
ĠPort land
gar ter
Ġpriv at
Ã¨ ne
Ġcond uct
He il
Ġtyp ischen
laub nis
ĠÃ¤ gypt
Ġerk annt
ĠniederlÃ¤nd ische
ĠEntscheid ungen
Ġdur able
ĠSus anne
ĠLit urg
ĠIdent itÃ¤t
ĠVerdienst ordens
Koordin ate
" -
A V
M ess
N orth
S ingle
W ohn
f Ã¤llt
r ick
s or
â łĢ
Ġd iam
ĠS ven
al ign
Ġm and
ĠT rue
ĠF ive
ĠF uture
ĠE arly
ĠW oll
ck now
Ġan gle
Ġdes ktop
Ã¼r tel
rie ge
Ġ18 25
Ġsch olar
ĠLe hen
ĠOr leans
auf lage
ĠFilm regisseur
ĠNov a
ĠFrank lin
ĠBere chnung
Ġerne uert
Ġfact ory
Ġenjoy ing
Ð¾Ð ¼
Ġautomat ic
Ġrelativ ely
funktion Ã¤r
Ġfair ly
Ġdunk el
BevÃ¶lker ung
Ġkulture llen
Ġverbesser te
R ot
Ġs itzt
ĠS O
ĠS ix
ĠA telier
ĠP aint
ĠF REE
ĠG elb
sch i
ĠH Ã¼r
Ġl uther
ĠEr ik
Ġj ahr
gr id
ele ct
ĠUnter k
omp son
gl Ã¼ck
arbeit ungs
eth yl
Ver band
Ġviel fach
Or gel
gele gte
Ġcal endar
Ġ180 8
Ġdefin ition
Ġunterschied licher
ĠGast geber
Ġbeteil igte
Ġimmed iate
Ġniedr iger
Wor ld
Ġbon us
E ner
Z wei
f rom
l Ã¶sen
p il
Ġa ims
es k
he iz
Ġf emin
Ġm un
ĠD ag
ig ra
ig ation
ĠF aust
Ġbe ziehen
Ġge kauft
eb y
ess ischen
ver hÃ¤ltnis
Ġun able
ĠVer anstalt
sk op
ĠInd ustry
ĠNational versammlung
ĠSÃ¼d tirol
ĠRom ans
Ġla ugh
Ð¾ ÑĢ
amb ia
ãģ ®
ĠAuftrag s
ĠVorsitzen den
Ġerk ennt
Ġarr ive
Ent fern
Ã¶p fer
ĠUN ESCO
Ġrepla ced
ĠOk lahoma
ĠGene hm
Juni oren
ĠCru z
dis ziplin
Ġscen es
ĠLuz ern
Ġfasc in
Ã °
Ġd uty
Ġt um
ĠB akter
ĠP aper
ĠK elly
ĠH K
ĠH end
ĠL aser
Ġer zeugen
Ġge folgt
th at
av ier
Ġch art
ĠVor lage
Ġgew orfen
ied s
ps ych
ĠRo und
Ġzahl en
Ġprom ot
ĠZe ug
Ġexp ansion
gesetz te
ĠJur a
Ġstre ets
Ġgenau e
Ġinde ed
wes ens
Ġhappen ing
ĠInterpret ation
G ar
P ap
p ower
s endung
v re
ĠS emin
ĠB irmingham
ĠT SV
ĠK ie
sch a
ĠC ord
ĠC ape
Ġan th
iv ia
Ġge ar
Ġfor th
rom an
ĠDe te
io den
per rt
ĠNe uk
ĠAb satz
ĠNach lass
ĠIm plement
ĠPl attform
ĠStadt rat
Ġcont est
bild ner
Ġerreich bar
Ġbr idge
ĠStand ards
Ð¾Ð ´
Ġanno unc
Sport veranstaltung
ĠInvest ment
ĠInform atik
Ġdauer te
omor ph
Ġwire less
ĠUt ah
Ġestim ated
ĠkÃ¼ mm
T her
c as
h ill
u als
w ende
ĠA sk
ge halten
ĠP erk
ĠT O
ĠI X
ĠH Ã¼tten
ĠL enn
ĠL oren
ĠC rit
Ġth re
ĠU k
eb t
ĠVer folgung
Ġle istete
Ġ18 24
Ġsch lossen
ĠNe ut
ĠAb hÃ¤ng
ĠAb stamm
ĠAnt ar
Ġreal ized
ĠLei h
ĠOst preuÃŁen
dienst es
ĠKat zen
Ġ180 4
189 1
Ġassoci ation
Ġhum or
Ġsuppl iers
ĠKomposition en
ĠTaschen buch
ĠkÃ¤mp fte
Ġcir ca
Ġenco unter
ĠHallow een
F ar
H ave
l alom
Ġt alented
Ġs ick
ĠS L
us er
ig r
ĠF aktoren
Ġer leich
ĠO cean
Ġle ts
Ġwe ak
Ġme ets
Ġdurch setzen
Ġwor aufhin
ĠNe v
ĠAb schied
18 86
ĠGr en
Ġ17 00
Ġsc ored
ĠMan ual
Ġmo ist
ĠFr ame
ĠReich sk
ĠHol y
wert ungen
ĠBel ie
wei he
ĠBeg leit
Ġcr isis
Ġturn ing
Ob wohl
Ġless on
Ġcap abilities
ĠTal ent
ĠVorsitzen de
Ġauthor ities
Ġill ness
Ġasp ect
Ġcas ual
Ġlok ale
Ġzeich net
ĠMaur ice
ÅĦ ski
Ġschott ischen
ĠHT ML
ĠGreif swald
L ife
W al
ĠS id
Ġb anks
ĠF oss
Ġbe qu
ĠN O
ers e
ĠO hr
Ġge gliedert
Ġre lief
ĠIn telligen
ak ten
sp ec
ĠRe eder
ang riff
Ġj ene
art z
ĠBe zeichnungen
ĠEin ladung
ĠCh annel
ĠPl atte
Ġgew isse
ĠSte wart
Ġra w
ĠJohann a
Ġpubl ish
ĠPal ais
bed arf
Ġschn elle
ĠTex ten
fle isch
ĠJust in
Ġtem por
roll ing
Ġbuy ers
ĠGre y
Ġagre ed
klass igen
ĠNeb el
ctic ut
Verb reitung
Ġster ben
Ġerkenn bar
I mp
w iesen
y ter
is st
te ch
ar mee
ĠS uf
Ġf usion
st iftung
ĠF land
Ġwh ilst
Ġ18 19
ĠAr sen
tell te
Ġus age
lo ÃŁ
chn ungs
ĠReg isse
Ġsome where
Ġgesch Ã¤tzt
ĠMo os
ĠVol umen
ĠIs a
iner y
ĠKomp lex
Ġgest altete
Ġpass ing
stre ifen
ĠTor ped
189 3
ĠPhilipp inen
Ġdeal ing
Ġapproach es
Ã¸ r
Eis hockey
Techn ik
Ġsem i
Ġcabin ets
Ġsurpr ised
Ġausges prochen
Ġven ue
ĠCapt ain
ĠBeweg ungs
Ġrout ine
D ynastie
H en
X X
l uther
o i
or ders
ĠA B
Ġund ert
ĠT au
ĠL ip
Ġbe achten
Ġer a
Ġal arm
Ġk ar
ab ol
ver ordnung
Ġ18 17
ĠVor schlag
Ġins ight
Al ben
ĠCar ter
ĠBand e
ĠReich stags
ĠFot ografie
Ġ180 9
gef unden
Ġmir ror
Ġann iversary
ĠMathemat ikerin
Ġtable t
ĠFund ament
ĠermÃ¶glich te
Ġfab ulous
ĠEuropameister schaften
Ġweib lichen
ĠRal f
K ol
k ologie
Ġs amt
ĠS alt
ĠS ierra
Ġm ad
Ġm ixture
ĠB L
il ang
ĠK az
ĠH Ã¼tte
kt on
ast ing
ick te
ue z
ĠAuf fÃ¼hrung
ĠGr Ã¶n
orn o
Ġges agt
ĠTr i
arb rÃ¼cken
lÃ¤ chen
Ġcl imb
ĠMed al
Ġsol ve
Ġstar ben
ĠÐ ¸
ĠGew Ã¤sser
ĠBi ologie
ĠEv olution
ĠForsch er
Ġcr usher
Ġocc as
Ġfal sch
gehen den
Ġgre y
Ġplatform s
Ġles b
verstÃ¤nd lich
icul um
ĠAx el
Ġermor det
E ins
M er
c am
g iving
j ana
r isch
Ġs olle
ĠS einen
at hlon
ĠM T
st an
ĠI wan
iv an
Ġne ug
se il
ĠBe griffe
rÃ¤ gern
fer enzen
ign y
ma x
ĠArt ik
Ġverw altet
zie her
Ã¤us ch
Ġatt orney
Ġant icip
ĠAuss icht
Wh y
ĠWein bau
plan ung
Ġengine er
ĠZust immung
ĠLaw rence
gle is
Ġinform ieren
Kl ein
Gra f
ĠUrs ache
ĠmÃ¤nn lichen
ĠberÃ¼hm ten
wach ung
Ġdigit ale
ĠMd L
Ġrechte ck
ĠLein wand
ĠBrie fe
ĠplÃ¶tz lich
ĠHimm els
! âĢĿ
S I
p flanz
Ñ ĸ
Ġb ird
ur teilung
ĠM ine
ĠD Ã¼
ĠG is
ĠW ink
ĠJ Ã¤nner
we iger
aus stattung
Ġsp l
Ġsp ark
Ã¼hr ung
18 83
ele ge
amm ers
wer ber
fin anz
oy al
gl as
Ġem otion
Ġger aten
akt ions
ĠOb ject
mat ik
Ġletz tes
ĠGrund riss
ĠMet ro
Ġinternational er
sc reen
wissenschaft liche
itu ationen
Ġung arischen
ĠDel hi
Ġklass ischer
ĠDenkmal pflege
Ġrelig ion
Ġlic ensed
ĠFeder ation
ĠToy ota
ĠHawa ii
B urg
C or
V is
d orff
ie m
Ġt ap
Ġs ight
ĠS ain
ĠB Ã¤r
ol y
ĠF Ã¤lle
ĠK um
ĠH amp
ĠV as
Ġge pf
Ġver fasst
ĠIn stead
Ġr ichtete
Ġnach folgenden
ĠÃ¼ber s
Ġsie bten
ĠVor lauf
ald o
enk el
Ġ0 3
Ġgr ass
Ġmo unted
ĠKunst denkmÃ¤ler
Ġeinz eln
ĠLondon er
lav a
ĠSchiff es
ĠProble men
Ġpain ted
umin um
yc inet
ĠEntwick lungen
Ġnormal en
Ġremov al
ĠLy on
ĠAnth rop
ĠCos m
Ġangrenzen den
. âĢĵ
1 10
F R
c in
Ġd rag
it ations
ĠS achen
Ġb lau
ĠD ad
st Ã¤dt
Ġn ights
Ġh insichtlich
ĠT amb
ĠG ent
ĠK em
Ġl ady
Ġim per
ĠSt Ã¼tz
ad Ã©
ĠIn tel
Ġse ats
be c
Ġpr ide
ĠFl ur
amp a
rif fe
ĠMin istry
Ġverb lieb
Ġmark ed
Ġvis ible
bereich en
ĠnÃ¶rd liche
ĠKommun ikations
Ã¤ll ig
Ġverlie h
Ġsuggest ions
ruit ment
ĠGrÃ¤ fin
ĠLearn ing
Ġcrow d
ĠBegeg nung
ĠForts etzung
M ass
c io
r und
Ġs yr
ĠS E
Ġm ile
ĠM ob
ĠD utch
Ġn ic
ĠH C
ĠH Ã¤nd
ab i
Ġver ring
Ġun us
Ġ4 000
ĠSe ction
18 0
18 79
ĠVor jahr
ĠUnter schiede
ĠFl ash
ĠSchw ert
ĠKon stanz
Un sere
Ġfl ights
ĠSÃ¼d amerika
Ġbl ank
lig as
Te x
Ã¤nder ung
FuÃŁball trainer
!! !!
ĠErw art
ĠGerman istik
brÃ¼ cken
ĠFluss es
ĠPil oten
ĠVis ual
ĠKomment are
Pla y
Ġdrink ing
Ġhy per
ĀĀ ĀĀ
ĠPict ures
ĠRess ourcen
Verwalt ungs
P oint
h um
r ible
u eller
is i
Ġs inger
ĠS ten
Ġb id
ĠK ein
ĠK emp
ĠH unter
ir al
Ġdes ired
ĠZ oo
ĠIn spir
Ġor al
ĠAr te
age ments
ĠAb u
bar es
ĠEx port
gew orfen
ĠInter ior
weil ig
mar ine
ĠBÃ¼ chern
ĠSchool s
Ġalong side
ĠCle veland
ĠKommand ant
pol izei
Ġren omm
ugu inea
Ġhighl ight
Ġreligi Ã¶sen
ĠErwachsen en
Ġsam ples
ĠCaf Ã©
ĠKroat ien
beteil igung
A fr
H D
K ommand
T est
T schech
u tel
Ġt Ã¶d
ar ters
ĠS H
Ġb old
Ġm ath
Ġp itch
Ġh rsg
ĠK no
ĠH ut
ĠH Ã¤uf
Ġer fasst
ĠV iv
den ken
Ġst ab
ard i
ĠGr as
Ġgew innt
utt le
Ġinc ident
ĠOlymp ia
zentr ale
Ġzahlreich er
ĠMay be
AR D
Ġflo ors
alle tt
ĠrÃ¶m ische
Ġkathol ischer
lÃ¤ufer in
Ġstruct ures
Ġbetre ut
Hein z
ĠTats ache
ĠMoz art
Ġdiskut iert
ĠSchicks al
T al
h armon
Ġd ad
it led
Ġs uc
us ions
ĠM uh
st atus
ĠT ree
ĠSt ick
Ġge prÃ¤
ĠAr gent
ĠLe gende
18 82
Ġbut t
Ġlie gende
iet ies
Ġthem es
ĠStra tegie
ĠNord ost
pla in
ĠSk la
Ġret ten
Ġbas ketball
Ġmov es
room s
ĠNeben fluss
Ġbisher ige
voll stÃ¤nd
ĠbenÃ¶t igen
krit ik
bre ite
ĠWettbewerb s
Ġverhinder t
onom ie
Ġanges iedelt
ĠAltern ativ
ĠLar ry
ĠProduzent en
t iere
al ben
Ġb elt
Ġf ern
ĠA pos
st imm
ĠE rot
ra ben
ĠI an
ĠW are
ĠR Ã¼st
ist oire
ĠV es
Ġan gebaut
ĠSt yle
ĠZ wick
Ġr asch
ĠLe er
St unden
gew alt
Ġbek annter
ĠOber flÃ¤chen
esen ted
ĠProdu cts
schutz gebiet
ĠKom Ã¶die
ĠFil ter
Ġconne ctions
Ġappe al
ĠGesamt wertung
Ġdirect ory
Ġens uring
Ġinstall iert
Med ien
Ġachie ved
ĠEvangel isch
Ġelektr ischen
Ġvict ory
Ġcru cial
ĠPho enix
S D
S cript
V e
c at
el det
le e
ĠF avor
ĠE k
ĠL ese
ber ichte
Ġbe hand
os es
Ġre ichte
Ġauf weisen
ĠSch metter
sp anisch
ang aben
be fehl
ĠPro jekts
io xid
ail ing
rat ch
ĠPl ug
utz er
ĠFre ycinet
oth y
gew Ã¶lbe
Ġmus cle
Ġmus lim
ĠStud ents
Ġsm ile
ĠVers uche
ĠLei b
Ġphot ographer
ĠauÃŁer gewÃ¶hn
Ġpersonal ity
ĠTele f
ĠDÃ¼sseld orfer
Ġcompar ison
lern te
ĠEss ay
Ġmaint aining
Ġrefle ct
ĠAdels geschlecht
Ġscient ists
ĠWett kampf
Ġdurchschnitt liche
ĠKaffe e
Ġbeher bergt
ĠErober ung
9 00
k re
k Ã¤mpfe
m ass
ĠS MS
Ã¤ ischer
Ġo lymp
st ance
ĠF uk
ir kt
Ġl adies
Ġge gangen
ah me
ĠAn w
ĠJahr t
ĠÃ¼ber rasch
ĠAr mut
cht es
uer te
Ġind ischen
ĠGesch mack
ĠPer fect
ĠOlymp ic
Ġdre ams
Ã¤m me
Ġlov ing
Ġdeb ate
Man ager
ĠAch telfinale
Ã´ ne
ĠAuft ritte
Bild ung
ĠCustom er
ausschuss es
Ġdigit alen
bÃ¼t tel
ĠAuÃŁ ens
Ġpersonen bezogen
ĠBerÃ¼cksicht igung
S am
d an
Ġt ut
Ġs ending
re volution
Ġin telligence
Ġf esten
ĠD ritte
ĠP ath
ĠK lagen
ĠW affe
ĠR oche
ĠL ater
ĠL amb
ĠC redit
and el
ĠU V
Ġauf nehmen
Ġzu gewiesen
og an
ĠSp alten
ĠCh ines
ĠTe e
18 85
Ġgen ehm
sk Ã¤mpfer
Ġsup erv
ĠSc ient
Ġze igten
mÃ¤ h
Ġele gan
ĠVolks schule
ĠPal Ã¤
Ġspecial ist
ĠEnd spiel
Ġ180 1
ĠKreuz es
zwe if
ĠÃ¼b licherweise
ĠSchwar zw
ĠViol ine
wander ung
Ġobtain ed
Ġverbess ert
ĠNeck ar
Ġcerem ony
. ]
E st
V iele
b ele
i ago
l ong
È Ľ
Ġ 000
ie ge
at ro
re de
ĠP yr
Ġh anging
ĠE D
ĠR W
Ġge teilt
ĠU ll
op fer
ĠVer ordnung
Ġle iden
be an
ĠY e
Ġ17 94
ĠFilm fest
alen a
ĠMo or
ĠArch ive
zent ren
ĠÐ ½
ĠCom ments
Ġgem isch
Ġtradition ell
ĠTrans fer
haupt mann
ĠZÃ¼r cher
Ġamer ikanischer
ĠMur ray
ĠEich stÃ¤t
ĠRail road
ĠBlo od
Je an
ĠBiograph isches
Ġdistin ct
ĠgefÃ¤r bt
ĠAbstamm ung
L ang
h Ã¤ngen
j ap
w ords
Ġa er
Ġa cknow
un o
el i
ĠB ird
ĠB reiten
ig ern
ĠH Ã¤nden
ĠL ic
Ġl ists
Ġst ren
ĠAn walt
Ã¤t igung
ho ur
lo yd
ons o
Ġbet Ã¤t
ĠSte ven
Ġover w
ĠEnt deckung
Ġger ufen
hol ders
ĠÃĸsterreich ische
ĠTour isten
Ġeinfach er
ĠBrit en
ĠBesitz ungen
pre ise
Ġimp ossible
Ġverbunden en
Ġlik ed
ĠRestaur ants
ĠDigital isat
ÅĻ ÃŃ
lim ited
Ġbul gar
Ġhum ans
Ġbesetz ten
Ġbrill iant
Ġgefe iert
M or
S u
S outh
s il
s ucht
w elle
ar isches
ĠS ob
Ġm useum
Ġh ate
ĠG A
ĠN ort
ĠO hne
Ġde fense
Ġsie d
ord nen
Ġen orm
ack t
ult iv
18 84
ĠY or
att a
ĠVor sprung
Ġfe iern
ĠCo oper
Ġtr ick
stein en
ĠGesch w
ĠX box
Ġeinz us
Ġbelie ved
ĠZahl ungs
ĠApp ro
AL L
ĠWeb prÃ¤senz
Ġrestaur iert
Ġfunction ality
Ġsens itive
ĠSter nen
Kultur denkmal
ĠBÃ¤ ume
zub auen
Rep rÃ¤sentanten
ĠDob bert
ĠVene zu
ĠTai wan
Ġcircum stances
> -
D ruck
M iss
P ersÃ¶n
b at
b ungs
c re
k asten
p ted
} .<
on omen
ar ius
Ġb ass
Ġf ried
ig ste
ol utions
ĠF ron
ĠK etten
ĠE llen
sch rau
Ġg ast
Ġ2 20
ir en
ot ischen
ĠSt apel
ĠO ste
ab ad
ĠU ran
ĠSch al
ver gleich
be y
rÃ¤ ts
ss itz
reis gau
ĠMe eting
ade us
Ġpl ane
Ġem b
sh ow
Ġgel Ã¶scht
ĠDurch bruch
ĠZusammen setzung
ĠSchrif ts
ĠKn ight
Ã¤uf e
ĠBro ck
ĠPal m
Ġequ al
ĠSen ate
ĠSen ats
ĠEing angs
ĠKÃ¶nigreich s
serv ice
ĠRepubl ican
ĠLaur ent
Ġnar row
ĠMisch ung
ĠNapole on
ĠBundesverdienstkreuz es
' '
M ein
a ired
f und
g ymnasium
h all
n ommen
ĠS EO
ĠS ource
Ġb ay
as tern
Ã¤ hre
ĠF ett
ĠI hm
ĠH i
ĠL ade
ic ultural
Ã¶ ster
ir aten
ik ro
ann ers
kt ors
Ġver letz
Ġver passte
ag entur
Ġsp eich
tell igent
ĠPro gr
ob ahn
pl ates
Ġwor st
Ġpr est
ĠPh ill
ĠMan h
Ġ0 6
ĠBau arbeiten
ĠGesch enk
ĠBet reuung
Ġhin weg
Ġeinz iger
ĠRom ant
hol der
ĠMag ic
Ġsu ite
Ġbr ush
ĠGegen stand
Ch ina
Ã¶h ler
Ġcover ing
Ġcheck ing
ĠPass au
Ġredu cing
Ġir re
ĠBaum w
Ġnie mand
ĠPrem ium
zwe ig
ĠVerkauf s
Ġumfang reichen
Ã©n Ã©
Ø§ Ø
stad ion
ĠEvalu ation
i ak
á º
â ĪĴ
ĠM iet
Ġh ind
ĠF urniture
ĠK Ã¤mpfe
et o
and ro
Ġl aptop
ag ues
Ġaus gesetzt
ĠBe hinder
ĠNach ruf
los ed
Ġ7 50
min ute
ĠgehÃ¶r enden
ĠTra il
Ġrem ark
ĠWer bung
ĠSchul z
ĠCom edy
Ġgem essen
ĠMaler in
Ġsever e
zÃ¼ g
Ġaddress es
Ġinvolv es
emb les
Ġpan els
Ġtw enty
Ġrefer red
Ġprof iles
ĠNahr ung
stÃ¤d ter
Ġdokument iert
ĠSozi ologie
ĠPitts burgh
E ach
G V
R h
r Ã¶m
z ure
ĠS ometimes
re ff
ig ert
ĠF ashion
Ġk ap
Ġan gewand
ĠSch mal
Ġr ug
Ġam o
ia z
fer ences
enn amen
18 88
ĠFilm produzent
fr iger
ĠAut omat
Ġra us
Ġdr iven
Ġausge geben
ĠCl ar
ĠHa ag
laub te
verb ot
fo und
Ġpack ages
upp el
ĠDec or
rup ted
col or
Ġroad s
Ġregul Ã¤ren
ĠLig as
ĠApplic ation
g h
g Ã¤u
k ong
Ġt elling
at io
Ġm angel
Ġc er
âĢ ³
ĠR umpf
Ġg ate
ĠV amp
ĠSt ufe
est es
eb ack
Ġun ex
aus stellungen
Ġsch lÃ¤
Ġum liegenden
ĠSe kund
Ġen han
able d
Ġro y
Ġgew issen
ĠEx am
bo ards
ĠPe ace
ĠAll ianz
Ġhier zu
ĠTag s
ĠAg ent
herr n
Ġworks hops
ĠInn ere
Ġung arischer
Ġcommon ly
Ġregion ale
Ġbox es
Ġful f
ĠSur vey
ĠSchles ien
Ġerhe bt
Ġpassen den
Ġsurpr ising
ĠGitarr ist
ĠLiver pool
C olle
H in
W ald
b og
Ġw ave
he ide
Ġf erner
ĠD ess
st yp
ĠP uerto
ol la
im aur
Ġz entral
ĠW oman
ĠR ade
ik at
ĠSt orm
ĠSch alt
ern t
ĠEr stellung
Ġ18 11
Ġ18 33
Ġup grade
ĠPr inc
Ġteil te
Ġmark iert
Ġdel ay
ĠMark graf
Ġcar pet
ĠOst see
AT O
Ġnatur ally
ĠCD s
ĠÃ¤hn lichen
Ġgriech ischer
ĠTar if
Ġrecogn ition
Ġtats Ã¤ch
Art ikel
Ġsy mp
Ġgesellschaft lichen
ĠPassag iere
ĠBeaut iful
ĠMittw och
ĠFreycinet ia
C an
L ive
M a
w il
z elt
Å ¼
en cy
Ġw ra
he ast
Ġb ands
un ken
le itete
ĠB eing
ol stadt
Ġh ung
Ġh aus
Ġc enters
ĠT et
ĠT auch
ĠK opp
ĠH ud
et tel
ĠL utz
ĠL ords
ĠC amer
ow ers
ct ual
ĠVer hÃ¤ltnisse
ĠTh ompson
ire ktor
oc ated
ĠMe et
Ġsc rew
Ġreg ions
ĠSc reen
ĠVers ammlung
ĠWor te
Ġeng aged
Ġcolle ctions
rib e
kon zept
Ġpay ments
Ġaff iliate
ĠEigen schaft
Ġlos ing
Ġfight ing
Bere chnet
Ġexter ior
F ree
W issenschaft
b Ã¼l
d ig
Â ½
or ted
Ġf iber
Ġh oping
Ġc arr
im ore
ĠH inder
ĠC ut
Ġl Ã¶sen
ĠV in
ab wehr
est ag
ess piegel
Ġr ichtet
ran ty
Ġ18 22
Ġor ganisation
Ġme als
be cker
land o
ian ischer
ĠCh Ã¢
ĠOr n
olog na
Ġ17 93
Ġcomp act
Ġro te
mp el
arbeit s
ĠEd gar
40 6
Ġcommun icate
viron ments
ĠRein hold
ĠZwe cke
ĠKrit erien
Ð¾Ð »
Ġsug gested
ĠProf i
ĠZusch auern
wel ry
Ġdauer haft
Theater schauspieler
ĠEqu ipment
ĠGoth a
Ġelig ible
A ch
g irl
ĠS ap
ĠS ara
ĠM C
Ġh orn
ĠK id
ĠK alender
ĠH uss
Ã¶ y
Ġer baute
Ġl ob
eb el
Ġst ake
od el
ĠGe fÃ¼
pl us
18 80
Ġ- --
ĠLand wirtschafts
ĠAus richtung
ĠGr ill
los er
att oo
wer fer
ors hip
ĠAnd re
ĠJul ian
ĠArt ist
Ġschw eizer
lauf bahn
FuÃŁball nationalspieler
Ġset up
ĠRed aktion
Ġoper ated
ĠLuft waffe
Land es
ĠEhren bÃ¼rger
ĠTur in
Ġdest roy
Ġexpla ins
ĠSlow en
Bad minton
Ġliefer te
ĠStatt dessen
B und
E ss
L it
Ġd ele
Ġ( âĢľ
am te
ĠG ian
ĠW ire
ĠL Ã¤ng
ĠO ft
Ġfor ever
ĠBe werb
ĠAl aska
ĠDe kor
18 70
ats on
Ġcl ar
ĠTra uer
ling ton
str asse
lei h
Ġflo oring
mel det
Ġans telle
ĠChamp ion
ĠCons erv
schei be
Ġgegeben e
ĠLi bert
Ġkanad ische
Ġlisten ing
ĠWorks hop
ĠGru yter
ĠErschein ungs
Ġbelg ischen
Ġrub ber
ĠSauer stoff
ĠerhÃ¶h te
Ġtourn ament
t ages
w inning
â ĨĴ
Ġb ranch
Ġf inger
ĠD ein
Ġh art
Ġz one
ĠL er
ten de
Ġbe ur
ist anz
ist urnier
Ġl ip
ĠJ g
ĠV Ã¶l
ul ierung
Ġden ken
Ġauf bew
ĠSch Ã¶ne
up t
ĠEn zykl
ĠMar ion
mit te
mit tler
ĠCo le
ĠAd vanced
ĠTr end
ĠProdu kten
ĠRom ane
Ar ray
ĠsÃ¼d afr
Ġbas ically
hÃ¤lt nissen
Ġâ Ī
Ġwest liche
ĠRu ine
ĠDesign s
Ġbede ckt
Ġtravel ing
Ġstay ing
Ġcommit tee
Ġsouth ern
Ġdise ases
cu ador
Ehr endoktor
ĠWay ne
ĠMetrop olitan
ĠGU I
ĠVertra uen
ĠMitbe grÃ¼nder
ĠAdministrat or
C as
M as
S ong
f ted
i u
j ob
Ġa rom
ĠP ionier
ĠF u
ten se
ĠSt uck
ĠSch icht
ĠIn fl
ĠIn halts
ĠVer f
Ġle ere
iz it
Ġman che
ĠZeit ungen
ym ph
Al b
Ġra cing
ĠPol ar
Ġfl our
icher ten
ĠBay reuth
ĠBas eball
Ã¼h ler
Ġfac es
ES S
ĠKÃ¼nstler in
Ð½ Ñĭ
Ġexpl oring
Ġbeteil igten
ĠGet reide
ĠMary land
ĠWeihn achten
Ġkulture lle
Ġton ight
ĠTot al
ĠkÃ¶nig lichen
Ġbefind lichen
Ġris ks
Ġbekleide te
ĠShakespe are
E ff
Ġb ild
ĠP Ã¤dagoge
Ġn uclear
ĠL ars
ic ide
ul er
Ġst uck
ahr ung
ges prÃ¤
ame ters
Ġen ge
auf ent
teil ungs
ĠNach weis
Ġbes iedelt
Ġseiner zeit
res ted
enk ung
Ġhand y
ĠPhil ologie
Ġgra u
anst alter
ux e
ĠSport ler
Ġprofess or
Ġâ ĪĴ
mark et
ĠKo alition
Ġhead s
Ġcreat ivity
ĠJournal istin
Ġblock s
Ġpercent age
Ġerschienen en
ĠJos h
Ġrecommend ations
sper re
ĠVerÃ¤nder ung
Ġpleas ant
ĠVoraus setzungen
ĠSkulpt ur
D reh
I l
L ondon
T able
b ald
o iden
er ia
ĠS ax
ĠA K
ĠA part
Ã¤ ums
Ġn ude
ĠW eing
Ġg iant
Ġk unst
Ġst ieÃŁ
Ġaus gelegt
Ġun klar
Ġcon vent
ĠTh read
ĠAb bildung
18 75
18 63
ĠWe iss
In t
Ġind oor
ĠAll iance
ĠQu ick
ĠX II
app ed
Ġgu idelines
Le ague
ĠComp an
Ġprom ise
rÃ¤n ke
Ġmet all
Ġmoder ner
ĠBeruf ung
Ġpurch asing
Ges etz
Ġcharacter istics
spl an
ĠTok yo
ĠKult us
IF A
-------- --------
ĠMyth ologie
ĠArg ument
ĠFriend s
ĠKÃ¤rn ten
G leich
w ed
is le
it ative
Ã¤ ule
ter y
ĠG lock
om o
ĠI M
ĠR inder
ĠSch iffen
ver hÃ¤ltnisse
au e
ov es
her it
Ġsh irt
Ġcomp uters
ĠCo ol
ĠQu in
Ġdr inks
ĠVerb rechen
ĠAs yl
Ġspe aker
weil en
ĠFest ivals
ĠCont est
Ġrep airs
Ġconf igur
ĠGener ationen
ĠHart mann
Ent wicklung
gelegen en
polit iker
ĠCa es
ĠWes er
ĠangehÃ¶r te
ĠPiet ro
ĠWrest ling
ĠLiss abon
ReprÃ¤sentanten haus
N ote
T wo
b els
c amp
k ing
p rach
Ġb ow
Ġf ikt
ĠB att
st Ã¤rk
Ġp ets
ig ter
ĠT iroler
Ġbe grÃ¼ndete
Ġer zeug
ĠRe z
ĠTe ich
ĠÃ ģ
ĠAuf stand
Ġ17 0
Ġ17 89
ĠPl Ã¤tzen
Ġgen Ã¼
Ġlie ber
ĠBo ys
12 3
ism s
ĠNor m
Ġmake up
ĠHand eln
ĠHand werks
Ġhand eln
ĠWh ich
ĠGl en
ĠTo ul
ĠUr heber
ĠRad sport
Ġchild hood
ĠJo an
ĠStutt garter
ĠFil ial
ĠSub st
ĠrÃ¶m ischer
Ġgep rÃ¼ft
ĠKlass ische
Nieder lande
spro zess
Ġqualifiz ierten
ĠFlag ge
ĠAngehÃ¶r igen
Ġunterr ichtet
ĠDonner stag
M os
N amen
g Ã¼ter
j un
Ù Ĩ
Ġt ill
re c
Ġ1 11
Ġh urt
ĠT ir
ĠT reat
ĠG B
ĠK i
sch lagen
ĠR aub
ĠJ ochen
iel ler
Ġver lauf
ind el
ak ischen
esch e
Ġse ctions
ok omotiven
fe kt
ĠMe ier
Ġher o
Ġgen auer
ĠFran co
fin al
ĠCo us
gend a
kreis es
ĠPhil ippe
pert oire
ĠMittel alters
schn itten
Ã¤nder ungen
Ġbef asst
Ġsk i
Ġprom pt
Ġgener ate
ĠSpe ktrum
ĠEhe paar
ĠWeiter bildung
ĠPublik ation
ĠProp ag
Ġsmart phone
ĠRena ult
bil den
Ġbeob achten
Ġsav ed
Ġschwier ig
Ġadministrat ive
ĠFerr ari
spart ner
Down load
ĠVerbrauch er
ĠBelager ung
Ġhabilit ierte
Leichtathlet ik
G ott
I hre
J a
j as
k linik
z oll
in um
ĠB rÃ¼n
ĠM s
ĠM indest
ĠD uc
ĠD OC
st unden
ĠF ine
ĠG umm
Ġz iv
ĠL ay
ĠL ug
Ġg ained
ĠC rew
Ġth in
ap o
aus cht
Ġsch afft
18 76
los ure
olog ists
row ave
Ã¼nd er
ym met
ĠBundes land
ata ill
ĠUr kunden
Ex per
ifiz ierte
Ġvoll kommen
Ġposs ibility
ĠBox er
ĠGeh Ã¤use
angeb ote
ĠkÃ¼nstler ischen
ĠGalax y
Ġtransl ation
Ġauthent ic
Ġvorber eitet
FuÃŁ noten
C L
H igh
Z E
w ache
er gie
in as
ĠB j
Ġv oc
ĠF lex
ĠW ladimir
ĠV R
id al
ap elle
ĠAr c
Ġgen ieÃŁen
ĠGes etze
Ġstud ying
sh afen
Ã¤rz t
vers uch
ĠX V
ĠMusik pÃ¤dagoge
ĠFahr zeugen
reib ungen
Ġbr ut
FuÃŁball torhÃ¼ter
Ġhistor ique
ĠCont ainer
ĠRec ord
Ġport folio
ĠIde al
ĠBil den
Ã¤cht nis
gorith mus
Bet rieb
. âĢĻ
J ournalist
P et
e xt
Ġb irds
ur d
ĠW els
ĠR ights
ed a
ĠC hel
Ã¶ bel
ier i
Ġim pression
iel en
sp or
ĠAn reg
ĠAn alysis
ĠMar mor
ition ally
Ġinter action
Ġdec re
Ġsk illed
ĠBra uer
ĠSup reme
Ġerhalten e
Ġtrad itions
ĠPlan eten
ĠMos k
ĠhÃ¤uf iger
Ġgirl friend
Her ausgeber
BC I
Ġwonder ing
ĠRay mond
ĠEvangel ische
ĠSus an
Ġnorweg ischer
Ser ver
Ġphilosoph y
Ġbrasilian ischer
Ġromant ic
Ġegg s
ĠiP ad
Ġjun ior
Ġanx iety
P ra
b ane
h aut
Î »
Ñ Ī
Ġf its
Ġf otograf
Ġm or
Ġp it
ĠF ix
ĠH Ã¤ft
ĠW onder
ĠL ost
Ġg rant
Ġto oth
ik ale
Ġ18 23
ĠUn fortunately
ĠEin tracht
ĠTh ink
heit lich
Ġres ort
ule tzt
ĠÃľber reste
Ġbel ong
ĠMed aillen
Ġben annten
Ar ten
Ġsub s
ĠsÃ¼d liche
ĠFriedrich s
Ġpubl iziert
Ġbre iter
Ġtyp ische
Stand ard
ĠDenn is
Nieder lage
Ġprem ier
Ġsyn thet
Ġkombin iert
ĠBlu etooth
Einwohner entwicklung
Ġdispla ys
ĠUd SSR
Whe ther
ĠangekÃ¼nd igt
D ec
E uro
f lieger
h Ã¶ch
on er
ĠS umm
Ġb ug
Ã¼ ÃŁ
Ġh its
ĠF utter
sch Ã¼tze
Ġz o
ĠL ane
ĠC yr
ck et
ik ten
ĠO ra
ĠAn pass
Ġsch eme
Ġvor n
Ġsh ut
oy a
Ġfin de
ĠBl ind
Ġdown town
ĠEd itions
lÃ¤nd isch
Person en
bed ing
mark en
urf ten
Ġzwe if
bÃ¼ chern
ĠGeist es
ĠBayer ische
Ã± a
Ġlay out
ĠKab arett
ĠTrieb wagen
Ġprotest ant
ĠEncyclop edia
Ġamen ities
ĠIntelligen z
B ass
C lass
D istr
p anzer
is men
Ã¼ bt
ĠB ien
ĠM ira
ĠP au
ĠT all
im on
Ġer setzte
ĠN athan
ul ator
ĠSt ufen
est in
we hren
Ġpro port
ĠBe fÃ¶rderung
iz itÃ¤t
be ge
Ġro ot
ĠBes tellung
ĠMÃ¼n zen
Ġadd s
schl iess
ĠEd mund
ĠWor ten
Ġsign ature
Ġatt acks
Ġgut es
Ð° ÑĤ
Sp iele
Ġ180 5
leben s
ĠPubl izist
Ġbede utete
Ġmatch ing
ĠWol ff
inos aur
System atik
Ġscre ens
Ġexpos ure
G S
U K
b eing
f licht
s achsen
as sten
ĠT ell
ĠF abr
ĠK eith
ĠH ous
Ġg ym
ĠSt op
Ġst able
Ġver e
sp Ã¤ter
ĠEr finder
Ġab schloss
Ġsp acious
Ġ18 26
Ġch annels
be hÃ¶rden
be zirke
geb ot
ele kt
fl Ã¼ge
ĠFre y
ĠÃľber tragung
Ġke ys
Ã¡ l
ĠLandes regierung
ĠWei den
Ġbeh ielt
Ġbele gen
deck ten
Ġpack ed
Ġarr ival
Ġcur rency
ĠHy per
Ġenth ielt
Ġkeiner lei
ĠBeob acht
Ġmedizin ischen
Ġrapid ly
Ġinvent ory
ouv elle
ĠausdrÃ¼ck lich
Entfern t
C ity
C arl
T ur
r igen
er folg
ch at
it ime
Ġs hr
ĠB ureau
ĠB reisgau
ĠM ick
ĠP eng
Ġh alt
ĠG iebel
ĠH yd
ĠR ank
ĠSch olar
ĠSch Ã¤fer
ĠIn spe
Ġch er
enn ungs
co ck
Ġfin est
ĠGra y
Ġph ones
Al though
ĠHand ballspieler
Ġmon at
setz er
Ġlang uages
Ġbezeichnet en
Ġlist ings
ifik ationen
ĠLuft fahrt
ĠMont real
ĠKre ise
bra uch
ĠEnts te
Ã¶ss er
Ġinj ured
ĠLandtags wahl
ĠAgr ar
ĠFore ign
ĠBeaut y
ĠAuthor ity
Ġfla vor
ĠOberg eschoss
ĠvorÃ¼ber gehend
G reat
J Ã¼rgen
b ig
in haber
at ius
ge halt
ĠP un
sch ool
ĠL ohn
ĠC V
Ġk andid
ĠSt ade
ab s
Ġge habt
if i
ste ins
ĠÃ¼ber zeugt
Ã¤nd iger
ac ular
Ġen vironments
ĠPl anning
Ġnur sing
ĠSte vens
ser baidsch
Sch war
ĠSh are
ĠÃĸ konom
Ġact ing
Ġgu ard
ĠCon f
Pro fess
Ġdiffer ences
ĠHal te
fass ade
Ġbed ingt
Ġser b
Ġperform ances
ĠThere fore
ĠGar de
ĠStaat lichen
Ġrele v
ĠJazz musiker
ĠLog o
Ġcop yright
ĠAre al
ĠSchÃ¶n heit
Ġkom ment
Ġrepresent ative
Ġstrug gle
ĠSchei ben
Ġvul ner
B ro
B enz
K or
S Ã¶hne
b rem
g les
j pg
Ġt ired
Ġw is
ur ious
Ġin itiative
Ã¼ se
Ġp rÃ¼
ĠT ool
sch Ã¼ler
ĠSt all
est one
ĠIn vent
ĠSp a
ick el
Ġent rance
gel y
ĠTh ird
18 74
Ġsh ots
ĠIm ag
fahr ung
ĠSo ul
Ġdr ama
ĠVerb ot
Ġdire ctions
ĠEm ma
sicht lich
Ġdre hte
ox id
produ kt
fil men
ĠOper ations
ĠÃ¶ff nen
ĠZeich ner
Ġop ens
Sh op
Ġindividu elle
Ġmatch es
Ġut ility
ĠWin ters
ĠGolden en
ĠprÃ¤sent ierte
ĠZweit ligisten
Ġpassion ate
ĠZerstÃ¶r er
ĠSchreib weise
ĠSchr Ã¶der
R ud
e u
e hemal
f ische
s ysteme
w issen
Ġt rugen
Ġb unch
Ġf Ã¶rder
ĠD ays
Ġp ics
Ġp iano
ĠF eind
ĠG os
ĠK ante
ra ÃŁe
em ester
ĠH air
Ġg aming
Ġl aden
if ies
th alter
ĠVer pflicht
gr en
Ġent decken
18 48
18 68
ĠAus sch
ans k
Ġdo ctors
Ġalle ged
Ġstud ieren
13 0
ĠKunst s
ĠWerk zeug
ĠDar in
leit ungen
ĠLie chtenstein
Ġdarauf folgenden
ĠGraf iker
vert retung
osoph ie
Ġbra uchen
aun us
Ġnie mals
Ġther ap
Ġsyn chron
ĠHochschullehrer in
Ġwohn te
ĠUrs ula
ĠNikol ai
Ġmedizin ische
ĠCommer cial
Ġwechs eln
ĠIra q
F er
N ein
Ġd urften
ĠS ah
Ġm att
ĠF uss
ĠG Ã¤rten
ĠE y
em eter
ĠR ib
ĠR ates
ĠC abin
Ġbe zog
Ġer re
ĠN utzen
ĠN acional
os hi
Ġver mittelt
ant o
iss er
ĠVor feld
ĠVor haben
Ġbeen den
ĠKar os
Ġges ungen
br ig
ĠFre ie
ene ver
Ġevery where
Ġverb re
Ã¤nder ten
Ġsim pl
ĠCor porate
less ly
Sh ow
ĠWirk lichkeit
ĠCour se
ĠTages zeitung
Ġnotwend igen
ĠPok alsieger
Ġvergleich sweise
Ins gesamt
Ġconven ience
ĠTrotz dem
Ġdurchschnitt lich
ĠNeum ann
Ġpromin ent
Ġsumm ary
Ġbegeister t
i ast
s Ã¤chsischen
v Ã¶gel
» ¿
Ġf ru
ĠD ikt
ĠP flanze
ĠT uch
ĠT Ã¤tigkeiten
ĠF ather
ra cy
ra uchs
Ġz ip
Ġal ph
Ã¼r zen
ĠZ ert
ĠSch ichten
ag ram
ell meister
ĠAn nahme
ĠPro gress
18 78
ĠPl att
St il
ĠNor mand
ĠNieder schlag
ĠProfess ur
ĠCom ics
Ġerfolg los
ĠErst ligisten
ĠTre ppen
Mar ia
ex p
ĠAmts gericht
Ġdeliver ing
ĠEngl ischen
.... ....
Ġversch le
ĠVis it
ĠBa ug
Ġcaus ing
ĠSel f
Ġprior ity
ĠÄ °
Mill ionen
Russ land
ĠBroad way
ĠDiam ond
S R
f aktor
m esse
u ke
v all
Ġd ot
ĠD raft
ĠP ause
Ġh ip
ĠR ast
Ġe gal
ag el
ass in
ĠEr ziehungs
ĠAl ois
Ġex istence
ĠGe iger
18 81
ster y
fin ed
ĠJahrhund erte
ĠJul ie
ĠEl ite
Ge ographische
rech ten
Ġjeweil ige
Ġbre aking
Ġatt ach
mark e
ĠWinter spielen
Gr uppen
Ġpot ent
spe zif
Met al
ĠRand e
Ġslow ly
Ġapply ing
Ġencour aged
ĠmÃ¤nn liche
Gew Ã¤sser
Ġdiagn ost
Ġsamm elte
Ġrob ust
Qual ifikation
ĠBesonder heit
ĠLoth ar
B ud
B aum
B oden
P G
S U
r ise
ch ild
ch witz
is ka
ĠS audi
as ar
ĠA mal
ge ht
ĠT afel
ĠK PD
om i
ĠH umboldt
ĠC L
ik ot
ĠSt urz
Ġst amp
ei de
Ġr ief
ĠAn teile
ib ia
Ġsp in
ard t
ĠTh ings
ĠGr ass
Ġnew est
ĠStud ierenden
Ġexper imen
ĠĠĠĠ ĠĠ
ĠFin ance
Ġtrans mission
ĠPark er
Ġnational er
lÃ¤uf ig
Ġess ays
Ġinn ere
Sport liche
Ġintegr ation
ĠSym pt
Ġintrodu ce
Don ald
ĠSof ia
ĠMÃ¶n chen
ĠConne cticut
Ġhighl ights
ĠProte ction
Ġce iling
Ġlin ke
ĠBerk eley
ĠRug by
Ġconfl ict
ĠBerat ungs
ĠTschechoslow akei
Auth or
C R
V org
i ah
r h
u ous
Ġ ell
Ġt ape
ar ien
ĠS QL
Ġm erk
ĠD um
ro g
ĠF F
am atic
ĠE V
ut age
Ġg all
ahr ts
Ġr ice
Ġwh enever
end t
igen e
Ġ18 27
ok ed
iz ierten
ĠGe is
auf gaben
pp ich
ĠSte iner
ĠUm frage
Sch ul
sh ut
Ġpre v
Un ser
ĠKinder garten
Ġsuch te
other apie
recht liche
ĠWill y
ĠYork er
ĠPort o
Ġpower ed
ĠFlug zeuge
ĠStat ist
ĠMaterial s
Ã¤um t
Ġliter ally
Ġstammen de
ĠChampions hips
ĠGeheim nis
ĠCO VID
Ġattend ing
Ġcompl iance
Ġchamp ions
ĠCreat ive
ĠShir Åį
D N
W ein
W ork
g ia
ï »¿
Ġ \
Ġd raft
Ġt Ã¶ten
ĠS r
ĠB ens
ĠM essen
ĠP ain
ĠP aw
ĠF itz
ra ck
ĠR idge
ĠC B
ach i
ĠN aum
Ġan treten
ik ameister
ang ers
Ġsch ein
Ġyour s
ĠSchw Ã¤b
ek ten
ser ver
ps is
vor stand
ĠRes ort
ĠMitglied s
ĠAss embly
Me x
Ġsl ot
ĠOlymp iasieger
ĠHerr schafts
Ġfeel ings
ĠMax im
Ġstehen de
eint rÃ¤cht
Ġwhe els
ĠPet rus
Ġtext ure
Ġstat istics
ĠKraft werk
ĠÃ¼b te
ĠOpt ion
Ġtele phone
Ġdescrib es
national mannschaft
ĠThÃ¼r inger
ĠKandid at
Ġoccur red
Ġerl itt
ĠFÃ¤h igkeit
Ġdish es
Ġlauf enden
ĠDeg gendorf
ĠValen cia
D ep
L abel
S ingles
ĠS ession
Ġf t
Ġein fluss
ĠF resh
ĠG ig
ĠE pp
sch rank
Ġz us
and ra
ĠN ut
Ġwh oles
etz te
erk rank
Ġman agers
ign al
ĠAus b
ret to
ĠFl Ã¼sse
ĠSchw aben
Ġ10 2
ym bol
Ġra ted
ĠFe atures
ĠRo ver
Ġviel mehr
Ġperson nel
gra duate
Ġben utzen
Ġsub jects
ĠChar ter
ĠGott lieb
ĠSa arbrÃ¼cken
Ġstamm ten
Ġbene fic
ĠSied ler
ĠRem ote
Ġindividu ellen
gien e
ĠEntwick ler
Ġsn ap
Ġlif etime
Ġdeutschsprach ige
ĠKrank heiten
ĠGrÃ¤ ber
ĠAff airs
Ġqualifiz ieren
ĠGh ost
Ġsav ings
ĠJenn ifer
ĠKonzentr ations
ĠJubil Ã¤um
ĠWeih bischof
ĠBismar ck
A ber
N ur
S B
b rÃ¤
h Ã¼gel
o an
en ne
ch lor
Ġs auber
Ġw estern
ĠB ologna
st ark
ĠF OR
Ġbe half
Ġim ple
os te
Ġre ception
Ġst ro
ĠZ elt
Ġj unger
Ġab gebaut
ick ing
auf bau
18 77
tem pel
ikan ten
ĠMus kel
Ġ12 8
Er z
pf el
bo le
ĠfÃ¼hr ende
ĠHoch schulen
ĠRes ources
Ġbef asste
ĠRep air
ĠGeneral stab
ĠTechn ical
He im
Ġbelie ves
ĠGed enkt
Ġair craft
Ġengine ers
Sport ler
Ġdecor ating
ĠDisk uss
Bundes staat
ĠContin ental
ĠMig uel
ĠNob el
ĠMunicip io
ĠBuk arest
schles ien
ĠErzbist um
ĠEichstÃ¤t t
D EF
P O
s heim
Ġd Ã©
ĠS ow
Ġin neh
as ted
ĠM Ã¼ll
ĠM ilitary
ĠT ipps
ĠT Ã¤nzer
ĠG ive
ĠK anten
ĠK abel
ĠH Ã¤r
ĠH ins
ĠC atherine
Ġe G
ĠO P
Ġre ward
Ġaus zu
ne k
aus strahlung
ĠEr haltung
18 66
Ġdam aged
ĠJe de
Ġret ro
ĠMot ive
Ġbre ast
ĠBro t
ĠCont ra
Ġpriv ile
amb od
ĠFrÃ¼ chte
ĠCas tell
Ġober e
Ġcontrol s
fÃ¼ll ung
ĠHu ber
ĠTÃ¼r en
ĠGlo cke
Ġlau tete
ĠTisch tennis
ĠberÃ¼hm t
Ġsuffer ing
ĠFlÃ¼cht linge
ĠDial ekt
Tro tz
ĠKrÃ¼ ger
M il
M ad
S oll
T I
h ir
v ari
nd t
Ġb one
Ġin du
Ã¤ sche
ĠP end
im ente
ĠH l
ĠH arm
Ġg od
Ġal gorith
ĠZ Ã¤hne
ill i
we alth
ĠVer mittlung
ĠEr lebnis
qu in
Ġwor auf
pen se
ĠTeil nehmern
yn a
ĠAug uste
An other
ĠÃĸ VP
stit el
ĠAll iierten
ific ial
any on
Ġbesch reiben
ĠWar ner
ĠFolge zeit
ĠPal Ã¤st
Ġopp osite
fre unde
ĠBank en
ĠVerwaltungs sitz
ĠEhren mitglied
All gemein
Ġnetwork ing
schei ben
antas ie
Ġintens ive
Ġmount ains
Ins eln
has Access
Ġbesie gt
Ġneut ral
ĠInstall ation
Ġsau ce
Denk mal
ĠAnto ine
) }
M oll
M ult
P andemie
c ium
g us
ĠD amp
Ġc urt
am an
sch ers
sch atz
ĠR ene
ic um
ĠC ON
ĠSt ories
ĠIn cl
ĠEr ben
Ġsp oke
Ġso il
ĠÃ¼ber arbeitete
Ġvor gegeben
pl ies
ĠAuf fassung
fe hler
ĠAus sehen
ĠGr unde
ĠHe avy
Ġ17 98
mit gliedern
of ern
Ġno ise
ĠNor man
Ġfl ach
Ġcons istent
Ġperson als
Be fore
Ġdel ivers
ograf ien
ĠSchul ter
ĠRel ations
Ġentfern en
ĠBor is
Ġresult ing
Ġindividu ell
Ġrespons es
Ġcra fts
hib ition
ĠZuge hÃ¶rigkeit
spar ent
spar agus
Ġgriech ische
ĠSy nd
Ġverz ichtet
Che ck
Ġguarante ed
ĠLiber al
ĠEint rÃ¤ge
ĠKÃ¶n ige
ĠSpark asse
Bek annte
A ktiv
G el
L es
N O
l Ã¼sse
Ġ ×
he id
ĠB aup
ĠM ast
ĠF em
om aten
Ġto ys
ĠN it
ĠSt ress
ĠO w
Ġdem nach
18 73
ĠY oga
ĠMe g
ĠZeit ungs
Ġout fit
Ġfe ier
Ġgew alt
ish ment
stell ten
ĠAnd er
Ġbeg leitete
ause e
Ġacc eler
Ġac ts
bes uch
Ġsur ve
ĠWill en
Ġverl ieren
ĠDen ken
stÃ¤t igkeit
Ġcheck ed
ĠIhr es
Ġcoup les
ĠPsych iat
ĠvollstÃ¤nd ige
Ġfinanz iert
ĠtÃ¼rk ischer
Ġumfassen den
ĠGÃ¼ ters
cour t
bour g
B rig
a endert
g ier
m asse
p rechung
ĠS age
al p
Ġf ahr
ĠD iss
de hnung
ĠP am
Ġh ielten
ĠF Ã¶der
ĠH obby
ĠW als
ĠU eber
ĠAn ordnung
ĠAn merkungen
ran ts
iz ismus
ens er
che f
ĠMar qu
ke e
Ġgo ogle
Ġgew Ã¤hlten
Ġcont aining
ett es
ĠOb serv
Ġdel ight
link plain
ĠComp lete
ĠRÃ¼ck zug
ĠRad i
ĠRechts wissenschaftler
ĠBurg und
ĠWar ren
iat hlon
ĠHistor ical
ĠHeil ige
Ãĸ ff
ĠComm ons
Ġinsp ection
Ġschwer er
ĠKle id
Ġinvolv ing
ĠHeraus gegeben
Ġfall ing
Ġanz ut
ĠMand at
Ġult imately
ĠÃ¼bergeben e
Ġgere cht
Ġforder t
ĠRon ald
Ġausger Ã¼stet
Prov inz
ĠSatell iten
ĠGÃ¶t ter
ĠKreu zer
E ven
H op
S Ã¤nger
c il
f arb
ch sen
Ġt win
ĠB ib
st hal
ĠP ep
ĠG uer
Ġz Ã¤hlten
ĠH ip
Ã¶ cke
ĠN ancy
ad ier
ĠZ ister
sp annung
Ġent s
Ġvor ange
ou x
ĠStadt bezirk
ogra fen
Ġsup plement
Ġgeb rÃ¤uch
Ġvers uchten
ĠBau werke
Ġverb and
utt a
Be griff
Ġed it
ilder s
Ġbro thers
ĠHier zu
Ġconc ent
Ġcontrol led
Ġredu ction
Land tags
Ġgeschlossen en
Ġcrit ic
Ġdro pped
ĠEss ays
ĠSP Ãĸ
Ġaustral ischer
Ã¤rt yr
ĠÃ¶ konom
Ġpred ict
ĠVerletz ungen
ĠZy linder
Ġwunder sch
ĠVul kan
ĠGebirg s
ĠArz ne
ĠMitch ell
ĠDorothe a
ĠâĪ ŀ
A ct
K ategorie
O k
r ass
in cluding
Ġt y
Ġf lying
Ġo m
ĠD ion
ĠD FB
ĠK lin
ĠH its
ĠW DR
ĠR Ã¼d
ĠL ap
ĠC old
Ġst ations
Ġzu geschrieben
aus s
ĠBe grÃ¼ndung
ast ische
ĠNe ver
ack e
Ġcont ained
Sch lag
Ġtr ips
ĠX I
Ã¶st licher
ĠReich stag
ĠHans estadt
ĠMain zer
haf en
Ġdet aill
Ġstor m
ĠCr icket
cis es
Ġtalk ed
ĠSpr ings
ĠWahr scheinlichkeit
Ġposs ess
ĠEhr endoktor
ĠlÃ¤nger en
Ġincreas es
ĠVerhalten s
Ġcontinu ing
Ġacqu ired
ĠKÃ¶r pers
Ġverurs acht
Ġhop es
Ġnewsp aper
ArchÃ¤ ologischer
Publik ationen
? "
B elege
M el
m Ã¼ller
s im
s up
Ã ²
ch ed
is ierungs
at ts
ĠA ub
ĠA BC
ĠB irth
ĠD anzig
Ġp ad
ig neur
Ġh az
ĠL arge
Ġl itt
ĠN ike
ul se
ul ierte
gen stein
Ġyo ga
ĠZ irk
up e
ĠIn tens
Ġde posit
ĠSp reng
Ġso cc
ĠCh at
ĠCh ancen
ĠAus gleich
Ġres idence
ĠGra ce
Ġsc ores
Ġcl ip
oph ys
ĠKunst historiker
stÃ¤nd igkeit
ĠCon temporary
Ġspe akers
Ġgemein nÃ¼tz
ĠDre ie
23 4
ĠKont o
Ġspecial ized
Ġcor respond
Ġcert ification
fert igt
aun ist
Ã¶p fen
Meister schaft
ĠðŁ ĺ
Ġvorder en
Ot to
ĠVorles ungen
âłĢ âłĢ
ĠGenehm igung
B ilder
I r
L Ã¤ufer
P ack
S ho
j ournalist
w achsen
Ġs tem
Ġs aving
al la
Ġb ol
Ġf liegen
ĠB Ã¤ren
Ġc ush
ĠK ell
ĠH ain
ĠR inger
ad ows
la imed
ĠZ ier
ĠSch af
Ġr ising
Ġhe aded
ĠEin tritt
Ġent warf
ĠSe es
18 67
16 0
ĠKir k
ange hÃ¶r
Ġdis covery
wick elt
irt schaf
com mer
ĠgroÃŁ em
stra ct
ĠHaupt rollen
ĠSc ript
Ġbl ind
Ġcons erv
cy cle
ĠSal on
ĠComp et
ĠKreis stadt
ĠHel en
Ġview ing
Ber uf
ĠMc K
EM A
ĠFle cken
betrieb s
ĠWall fahrts
ĠNik ola
Ġcop per
Ġparticip ation
ĠLeg ion
Ġinteress ant
But ton
Ã¤dagog ischen
Ġchrist ian
ĠNÃ¼rn berger
ĠdÃ¤n ische
ĠStell vertreter
Ġsamm eln
Ġvolunte ers
ĠBremer haven
ĠKoordin aten
Ġkompon ierte
ĠBundestags wahl
ĠHinz u
ĠAusgra bungen
. [
C amp
v illa
w ski
nd ung
Ġt one
ĠM ahl
ĠD ing
ro tt
ĠF ulda
ĠR ott
Ġe hr
Ġy e
ĠU g
Ġver bleiben
ib a
end ungen
ĠThe aters
be vÃ¶lker
ĠPro jekten
Ġum gest
ĠCh ang
18 65
ĠY et
ĠLand e
Ġdeutsch es
In itial
ĠBr istol
Ġover view
bl Ã¼
ĠNational rat
ĠHaus halt
str ong
verb rauch
Ġ180 2
AR T
ĠBud get
ĠNic olas
ĠLab our
ĠÃī d
ĠZimmer mann
person en
ĠBasketball spieler
ĠInner halb
ĠMari anne
ĠTho ugh
ĠVorarl berg
Rich ard
B rÃ¼cke
C onne
H J
J ames
K anada
R Ã¼ck
f onds
h ot
r ike
z essen
in is
in ental
Ġd auert
ĠS ind
ĠS owohl
ur l
Ã¼ ndete
ĠB oh
ĠM ent
ĠM TV
st Ã¶r
ro th
ĠT yr
im ation
Ġg riff
og s
Ġvor nehm
Ġ- >
Ġco aching
ĠGr ube
Ġges ammelt
imm ern
ĠGes and
Ġbeg raben
Ġrec re
Ġrec ip
Ġtr usted
ĠMed ic
ĠBar ry
Ġteil en
Pro zess
ĠBuch es
Ġfre ige
ĠDurch schnitt
ĠPaul us
Ġpat io
Ġappro val
Ġspecial ists
ĠVors itz
ĠInnen raum
aser ne
ĠKonz ern
Ġkrit isierte
ĠSchwar ze
rÃ¤nk ungen
Ehemal iges
Ġveget ables
ĠjÃ¼ng ste
Ġpul led
kanz ler
Ern st
Ġglo be
3 20
F rei
P rÃ¤
W ieder
c ut
g ler
h Ã¤nge
o be
r il
Â §
Ġw eite
Ġw aters
ĠS ag
ge tt
ĠB ischÃ¶fe
ĠP oll
ĠP kw
ĠK ran
om ed
ĠN as
ĠV olleyball
ĠSt o
ĠSt uart
os o
os om
ad al
Ġge fahren
ei z
ĠAn ime
se ille
.. ...
Ġen de
Ġco at
inz eit
ĠIm pf
amm ad
ĠHer itage
own ers
Ġgesch w
ĠPol izisten
ĠKÃ¶nig lichen
Ġange trieben
ĠVers orgungs
ĠFr ies
ĠKr ise
Ġerr ors
con ne
Ġsecond ary
ĠAmt es
Ġhead ing
Ã¤m ter
ĠVe get
Ġprepar ing
Ġabsol ut
ĠBil anz
ĠKenn zeichen
Ġmaint ained
ĠGolden e
Ehemal iger
ĠbestÃ¤t igte
struktur en
Pre istrÃ¤ger
ĠPak et
Ġexcl us
Ġprefer red
Ġschle chter
ischÃ¶ f
ĠClin ton
ĠGatt ungen
ĠEconom ic
ĠZul assung
Ġzul Ã¤ss
ĠInternets eite
ĠMittele uropa
Ġtiss ue
D el
O B
b Ã¼r
m all
o fen
Û Į
in formation
Ġt olle
Ġw Ã¶ch
ar ben
ĠS oci
ĠB Ã©
ĠB ruck
Ã¤ er
ĠD oll
ĠD Ã¼n
ĠD ix
ĠK iew
ĠW elle
ĠW atson
ĠR asse
Ġl ibr
Ġmit hilfe
Ġver schl
tel la
âĢľ :
Ġcon ce
Ġzw anzig
Ġ17 90
Ġher itage
ors es
ĠBr id
gew achsen
ĠMin er
Ġrequ ests
gebiet es
Ġhistor ischer
ĠCol lins
Ch arts
othe k
Ġprom otion
ifiz ieren
Ġint ent
Sp anien
verband s
ĠAngel a
ĠUp date
Ġassist ant
wal ts
Ġemp fehlen
ĠCra ig
ĠEreign is
Ġvict im
Ġmensch liche
ĠSmart phone
ĠFur ther
ĠVikt or
Ġfundament al
Ġdemonstra te
A v
L ear
f lo
g riech
o ise
und ry
ĠD amm
ĠD ictionary
ro v
ig ue
ĠP rÃ¤sid
âĢ ²
am pton
ĠL ippe
ĠL anka
Ġbe zeichnen
Ġal b
ĠSch acht
Ġdem ands
Ġr ational
ĠRe chnung
ĠAn c
Ġsch ul
ĠBe grÃ¼nder
ĠDe an
ac iÃ³n
ĠDies en
aw are
hand werk
ĠVerein ten
Ġdesign ing
ĠBet rag
Ġpo unds
ĠChe fredakteur
olv ing
Ġnor malerweise
ĠHel ene
ĠStaats sekretÃ¤r
Ġtro ub
ĠMad ison
ĠTit an
Ġliter arischen
Stra ÃŁen
ĠElement en
Ġincreas ingly
ĠÃ¤uÃŁer te
Ġnorth ern
Ġgran ted
Ġevalu ation
ĠVoraus setzung
ĠHess ischen
Ġod d
ĠDemoc ratic
ĠLed iglich
ĠKav allerie
Ġlegisl ation
ĠKolumb ien
F rance
O pt
Z ent
f uÃŁball
g ne
Ù Ī
ch ing
it on
Ġt we
an ter
Ġb Ã¶h
Ġm g
Ã¤ ub
[...]
