#version: 0.2 - Trained by `huggingface/tokenizers`
e r
e n
c h
Ġ d
i n
i e
u n
s t
e i
a n
s ch
o n
Ġ S
e in
e s
a u
a l
un d
Ã ¼
e l
a r
i ch
Ġ w
Ġd er
t e
Ġ s
g e
o r
i t
Ã ¤
Ġ und
u r
Ġ A
Ġ v
a t
Ġ B
un g
Ġd ie
Ġ b
Ġ D
Ġ ein
a s
Ġ M
e m
Ġ in
h r
Ġ i
Ġ m
Ġ z
Ġ 1
t en
Ġ K
Ġ au
t er
Ġ F
Ġ G
Ġ E
a m
d e
g en
Ġ P
Ġ n
o l
d er
Ġ f
Ã ¶
Ġ (
Ġ W
Ġ H
d en
e t
i sch
Ġ T
a ch
Ġ R
b er
Ġ L
i s
â Ģ
i l
Ġ er
i g
l e
Ġ h
Ġ I
u m
i er
l ich
Ġ V
Ġv on
u s
i r
Ġ k
Ã¼ r
an d
o m
c k
ei t
Ġ 2
Ġd en
i on
Ġ N
u t
r a
Ġ J
Ġm it
Ġ g
r e
Ġ1 9
a b
r o
Ġ ge
Ġd as
en t
Ġi m
Ġ an
Ġ C
s e
ĠS t
Ġd es
Ã Ł
Ġz u
Ġ al
k t
r ei
f t
an n
Ġau f
s en
Ġi st
Ġv er
ich t
b en
i k
el l
Ġ Z
Ġf Ã¼r
Ġ2 0
ĠS ch
Ġb e
Ġ U
Ġ O
a hr
ie l
e h
Ġ o
Ġ âĢ
Ġd em
Ġ l
s p
f f
a h
Ġau s
isch en
ĠV er
Ġ un
Ġw ur
w ei
i en
Ġs ich
a g
ĠI n
Ġein e
i st
m en
ĠD ie
v er
Ġal s
in g
e u
a d
Ã¤ n
o t
o ch
Ġb ei
er n
ĠA n
e st
s er
Ġ t
h e
Ġ p
at ion
ei ch
e g
o s
h n
u l
sch a
ung en
Ġ st
Ġwur de
i m
Ã¼ ber
Ġw ir
Ġw ar
in d
e hr
Ġ Ċ
u ch
ĠE r
e b
ei l
Ġau ch
Ġs ein
Ã¼ n
or t
Ġ sch
e d
ĠJ ahr
er t
al l
st en
i v
g er
et z
r u
Ġ Ã¼ber
isch e
n en
r ie
o p
Ġn icht
ĠS p
an g
e ut
l in
0 0
Ġs o
ung s
Ġn ach
Ã¤ t
r i
m er
u f
ĠS ie
ur ch
Ġ20 1
ĠU n
scha ft
Ġ j
ĠE in
o g
ol l
i gen
Ġ am
Ġ es
r an
Ġw er
au s
st er
ar t
Ġs ie
âĢ ľ
) ,
ch en
l a
Ġb is
Ġ um
Ġwer den
Ġw ie
l er
l ie
Ġz ur
Ã¶ n
p p
ĠâĢ ŀ
Ã¶ r
Ġz um
Ġv or
Ġo der
b e
ĠA r
en d
ĠA l
Ġs ind
Ġh at
Ġein er
eut sch
ĠG e
i c
ier t
st ell
e ch
h al
Ġ 3
en n
r Ã¤
h l
Ġwir d
ĠP ro
i ge
D ie
Ġun ter
Ġ1 8
Ġ a
Ġi hr
Ġd urch
Ġ20 0
Ã¤ r
âĢ ĵ
ĠâĢ ĵ
el t
z en
Ġ ab
ter n
au f
u g
ĠB e
te t
Ã¼ ck
r au
Ġ ent
Ġein em
it t
Ġein en
1 9
er s
ĠE n
ge b
st e
g t
w er
lich en
ei ter
e ben
Â ł
es s
p t
el n
ar b
Ġs p
i ck
ĠB er
us s
Ã¼ hr
h er
isch er
Ġ Ã
ah l
ch e
k s
g r
as s
or m
b t
ĠA us
o d
a p
at z
an t
Ġdas s
ĠD er
Ġ r
i z
or d
n er
p f
o w
il l
lich e
e kt
ei ten
b l
l and
g el
n e
de t
u d
Ġh ab
t s
ein e
h en
ur g
Ġ -
an z
ad t
. .
i a
u st
o hn
i d
sp iel
Ġ19 9
ĠG r
ĠM a
Ã¤ l
rei ch
h o
) .
k en
ĠO r
it z
ĠM it
g es
ĠD as
al t
o b
ier en
at en
o k
Ġ 4
Ã¤ hr
w ie
ĠA b
a k
e x
om m
Ġn och
ach t
wei se
eit s
Ġn ur
ÃŁ en
ar d
2 0
Ġm ehr
ĠM ar
at t
Ġd a
il d
ĠV or
ĠA uf
s s
in z
at ur
Ġn eu
ĠL and
f en
on t
ĠC h
Ġ ich
Ġz wei
b ar
a st
i al
m al
ĠR e
ĠH er
am m
p l
Ġk Ã¶n
ut z
1 8
rei s
ĠI m
Ġan der
p ar
l eich
f ol
Ġ re
Ġ 5
Ġk ann
sch l
el le
Ġa ber
r Ã¼
or en
ĠN ach
ĠK l
der n
b urg
etz t
ĠF l
f l
ch t
Ġm an
k eit
ÃŁ e
q u
m e
b r
Ġdie s
ier te
kt ion
k l
b au
om men
eh en
o v
Ġv om
z e
ĠZ eit
sch en
k e
Ġal l
h t
Ġ19 8
n is
it Ã¤t
z eit
ich te
u ÃŁ
z u
as sen
Ġl ie
ver s
a y
a ge
Ġb er
p er
el d
Ġhab en
Ġz w
f ahr
Ġwur den
r it
I n
ĠD eutsch
Ġd eutsch
Ã¼ t
ber g
ei m
Ġb es
e k
h a
Ġw eiter
g lich
ĠR eg
ff en
al e
Ġge w
d u
Ġ c
ei gen
D er
Ġ et
Ġ19 7
sch ie
c e
p h
ĠP l
ig er
ĠSt adt
ra g
Ġso wie
S t
ei te
ĠA m
und en
Ã ©
in e
ĠkÃ¶n nen
eh men
f ten
et t
Ġd ar
ei st
ur n
ĠI hr
i an
b st
z eich
f er
Ġk l
d em
r at
f Ã¼hr
Ġ( *
f orm
Ġ gen
Ġo f
Ġs oll
Ġ "
Ã¤ ch
ier ung
am en
a te
am men
Ġwie der
ei ster
h eit
i bt
ah n
m ann
ĠS o
r ich
Ġ 6
Ã¤n d
ie le
ĠB r
l ung
Ġbe st
ell en
w a
i o
on n
Ġ 9
ĠG em
te m
il m
s k
ĠB l
e z
Ġ19 6
Ġg es
ĠSp iel
Ġge gen
ĠK on
im m
Ġ1 7
Ġun ser
n et
i f
ĠS e
ĠUn ter
ul t
ĠGe sch
e ter
W eb
ĠE s
Ġein es
Ġg ro
lin ks
iv e
om p
ĠU m
Ġd e
at er
Ġj e
ĠF ran
Ġdie ser
ĠR o
Ã¶ l
Ã¼ d
ol og
Ġ le
Ã¶ ff
Q u
Web links
is sen
u b
a v
Ġ19 4
ĠG es
in gen
ation al
par am
us ammen
g lie
ge sch
g l
ĠB au
Ġh er
r et
ĠT he
Ġsein e
el s
i um
ru pp
ol it
ge ben
t eil
a ck
in n
ann t
n ah
Ġg el
Ġ19 5
D as
r ach
Ġhat te
on der
m ein
ik er
Ġsein er
ĠÃ ľ
c t
Ġf in
it er
ĠM us
f all
Ġ1 5
ĠG eb
ol le
in der
i p
v or
ĠT h
w ick
ar l
ers on
Ġdie se
ĠEn t
ie der
ĠGem ein
Ġ 7
ar k
ĠJahr e
i vers
Ġs el
hal ten
ĠJ o
ĠP r
w ar
au t
E inz
ĠB ei
f Ã¼
und ert
au pt
f in
ĠT eil
S B
s el
er k
ĠW ir
Ġzw ischen
a is
Ġg r
y m
or g
gen d
s i
Ġh in
Ġv iel
em ber
it ion
Ġ Ġ
Ġd ann
Ġ 8
re u
b all
spiel er
Ġ1 6
Ã¤ hl
z eu
Ã¶ glich
ra f
en z
or f
Ġb et
h Ã¶r
ie t
e w
Ã¶ s
ach weise
Ġh ier
e gen
s b
Ġw enn
ĠJahr en
l o
ĠB o
S ch
ĠAr b
Einz eln
Ġj ed
u ft
g ab
l en
ĠW elt
Einzeln achweise
p r
ik an
h m
Ġg ibt
Ġs eit
h undert
ĠE ur
Ġal le
ĠSch l
am e
Ġ19 3
Ġ Qu
m a
Ġwar en
e ck
al d
ation en
SB N
o hl
eh t
c o
ĠI SBN
itt el
h aus
Ġbe k
y st
am il
ei d
Ġun s
hn e
lie ÃŁ
Ġs ehr
ein en
ĠM en
Ġ e
f ach
o ff
Ġbei m
eu te
ra gen
Ġaus ge
Ġ eigen
ar ten
.. .
1 7
ĠÃľ ber
Ã¤ d
rie b
an k
an gen
ig keit
h ol
Ġd am
al en
Ġf ol
iter atur
ra d
ĠK ir
ĠSt a
Ġzur Ã¼ck
und es
ĠBer lin
ig t
ĠU S
am t
ĠJahr hundert
en s
Ġ Y
f e
Ġ1 0
Ġd rei
p ro
t schaft
ĠE l
ent r
o st
ĠL eben
y p
und e
Ġw as
ar r
n ung
la ge
stell t
Ġer sten
or den
an s
Ġim mer
yst em
a z
st and
ru ck
l ag
Ġan ge
Ġihr e
Ġer st
scha ften
ĠG ro
is s
l au
ĠH and
ĠL e
ĠZ u
am er
Ã¤ ter
or n
o sten
o ur
an der
Ġsch on
m us
an den
un st
A n
ab ei
f or
r on
ĠP h
Â Ń
r icht
as ser
ĠG er
ÃŁ er
u le
en de
ent lich
ier ten
s atz
ĠA ut
iel t
z w
Ã¤l t
un k
Ã¤hr end
t h
schie den
fol g
Ġge hÃ¶r
o f
Ġp ro
00 0
as se
Ġ 0
ĠUn ivers
a c
Ġ1 2
A l
ĠN eu
m in
o ck
ĠB et
a kt
V er
ĠB es
I m
Ġ1 4
ĠO ber
Ġg er
Ġk onn
wer k
1 0
Ġw el
E r
ing s
U n
w ir
Ã¶ ch
ret urn
ĠSch w
rie g
j ekt
ist e
Ġt he
os s
hn en
ĠF rau
i ff
tern ehmen
ol d
at s
d r
ra ÃŁe
Ġdies em
b ild
ĠÃ ĸ
Ġ &
au er
lich er
1 5
ĠC hr
Ġbe g
y n
ach en
Ġjed och
ĠM in
in ter
1 6
i te
Ġf Ã¼hr
Ġg leich
a gen
uch t
w eg
ĠAr t
o ber
hal b
Ġk eine
es en
ĠC o
ĠG en
ĠM on
l ei
a den
al s
l Ã¤
ĠDeutsch land
Ġ1 3
ur z
glie d
r en
a de
hal t
ig ung
s etz
Ġo b
l t
ot t
ĠF ilm
stell ung
ch er
ĠGemein de
G e
ĠP art
ck en
ĠP f
ĠB undes
ĠE x
Ġer h
ĠGr und
z t
Ġin s
âĢ Ļ
ĠF amil
Ġander en
st adt
ĠR ei
Ġsel bst
ion en
en den
1 2
ich er
uÃŁ ball
ster reich
k er
ien st
ri ft
m eister
Ġ /
ur t
z ahl
ĠF or
ĠOr t
Ġz usammen
t t
ist en
ĠAn t
b o
rie d
am p
eit ung
u ten
ĠP erson
ĠJ an
ĠH aupt
ĠPro du
e y
ĠW er
i de
ĠR ech
un kt
ĠA ug
Ġ Â
g ang
Ã¤n der
in nen
ĠSt r
Ġa kt
un i
ĠM Ã¼n
s o
Ġsp Ã¤ter
Ġg anz
Ġet wa
Ã¼ s
Ġo hne
ĠW ei
sp r
Ġver w
Ġber eits
ĠF r
ĠB est
Ã¤ u
in a
ho f
G eb
1 4
i b
z er
ĠA d
m an
al er
Ġsein en
ge mein
ĠS er
h eim
k eiten
st ein
a il
it y
es sen
f te
a in
ist or
ge w
ie s
f r
ĠK inder
Ġ19 2
ult ur
Ġs on
Ġw o
L iteratur
ĠF Ã¼r
ĠP ar
an ge
ĠJ ul
ier e
Ġlie gt
Ġ en
ĠM ann
b ach
ra in
Ã¤ m
Ġ |
k ehr
Ġver b
Ã¼n st
ĠL ie
st Ã¤nd
ĠH aus
Ġneu e
ber t
Ġsein em
Ġein z
Ġw en
sch e
Ġhab e
ĠB ild
ĠB and
Ġge f
Ġ eben
M it
u p
rupp e
ĠD r
w ohn
y s
ĠPl atz
m Ã¤
ei g
la gen
w ert
Ġver schieden
Ã¤n ger
ĠEn de
os sen
u bl
ein er
ĠK unst
ĠF ahr
Ã¶n ig
Ġdam it
p rÃ¤
Ã¤n g
es se
Ġ eh
ĠP ol
Ã¤ ft
7 8
Ġd u
Ġl etz
ĠS te
ist er
ie f
Ġh eute
Ġd ort
Ġein fach
Ã¼n d
on d
ĠN ord
Ġihr er
ĠF rei
Ã¶ff entlich
Ġ ex
ĠM o
ĠM ed
lin e
oll en
u te
den t
Ġdeutsch er
ĠH och
ig n
at h
st r
o ten
1 3
ĠN ov
au m
un ktion
ĠVer ein
w alt
ĠVer b
z ial
ĠM an
ĠW est
ĠMen schen
re chen
z ie
u ar
isch es
S p
f eld
o gen
gr und
ĠFran k
un ter
ĠVer t
an is
sch n
u e
it al
ĠD aten
Geb oren
ĠEur op
h and
Ġ and
ĠM Ã¤r
it el
en k
ra ph
Ġfol gen
ĠUn ternehmen
ĠD e
S ie
ĠK omm
ĠJ uni
Ġer ste
ĠAug ust
ĠIn tern
N ach
Ġt eil
issen schaft
g ar
Ġge b
z ug
ĠW eb
2 00
k reis
Ġal ler
Ġb ie
ing er
Ġfin den
Ġn ah
de ut
i pp
on s
l ig
ei le
ĠF re
ro t
Ġkonn te
Ġg ut
Ġd ir
ĠO b
ĠG l
ĠA u
olog ie
h in
kt ober
ĠB uch
g leich
im mer
or e
tem ber
Ġbe sch
r itt
a pp
ĠDie se
E in
f ang
ĠVer s
rau m
ĠJ u
Ġein ge
Ġge sch
ation s
o u
ĠM et
Ġi hm
w end
ol f
rei chen
ĠMa i
f Ã¼r
Ġb el
ĠU r
ach sen
s icht
Ġd abei
Ġv ier
ĠS h
ĠK Ã¶nig
ĠW asser
sch utz
. )
ĠB eg
ĠS Ã¼d
p tember
em en
Ġneu en
k ommen
Ġge st
Ġver l
Ċ Ċ
m ent
ĠJul i
Ġdies es
Ã¼r ger
le x
fahr en
Ġi hn
ĠV ol
Ġk omm
fall s
ĠT ag
ĠW ohn
w ahl
w as
M ann
ĠSt ud
Ġbe fin
5 0
ĠD a
a ar
Ġb en
ĠO ktober
Ġst att
er e
k on
s st
âĢľ ,
ran z
stell en
ais on
iv en
Ġgr Ã¶
Ġk am
h ann
el e
1 1
ĠT r
Ġsp iel
ĠF ol
rie ben
ck e
kt ur
ĠJan uar
ĠEin e
ĠN amen
ĠT e
ech n
Ġ201 8
ĠĊ Ċ
Ġw Ã¤hrend
Ġbes onder
ĠSch ul
ĠIn ter
ĠSe ptember
Ġihr en
Ġst eht
m it
ĠD ar
Ġ3 0
eh n
i ent
pr il
re g
al ter
A us
ri ff
Ġf est
ell schaft
ĠD urch
b uch
ĠD u
Ġm uss
Ġv iele
ĠLand es
Ġ19 0
ĠF orm
ver b
Ġw ei
ĠL in
f ern
Ã¤n de
gr Ã¼n
n eh
b ung
a x
ĠMÃ¤r z
ĠIn d
Ġbei den
ĠNov ember
ez ember
ic e
Ã¼ l
ĠMus ik
eu er
gab e
2 1
Ġm ir
schl uss
ĠIhr e
h au
ing t
ĠO l
e um
il der
om mer
ĠChr ist
ĠAl s
ei tet
Ã ¡
nah me
ĠP olit
og raph
ĠGro ÃŁ
un t
ei den
Ġer sch
m ar
Ġer folg
or ben
ĠGesch ichte
re cht
ĠV on
b ahn
re ch
zeu g
al ten
op p
nis se
Ġg ab
ĠI I
auf en
on g
ĠA pril
Ã¤t z
Ġm us
op h
ĠN ew
ĠC l
at or
icht ig
i x
er st
Ġ arb
Ġson dern
ar te
A m
ĠW ert
stell er
ĠL iste
el m
ran k
Ã¶ st
o c
ĠÃ Ħ
Ã¤ch st
st Ã¼t
ĠUnivers itÃ¤t
Ġb zw
ĠGe w
wick lung
eg t
ĠSch wei
amer ikan
gr amm
an st
Ġm ich
Ġsch n
mal s
fÃ¼hr t
Ġer n
ĠD ezember
Ġl ang
ĠZ wei
D eutsch
zeich net
Ġn un
it zen
âĢľ .
ĠK ont
Ã¶ t
Ġs ei
re ten
ĠS u
m itt
Ġb r
Ġall em
Ġ201 6
Ġander e
ech s
ĠIn form
on e
pt ion
l os
ĠA uch
ei gt
ik a
Ã¤ uf
ĠArb eit
ĠN ieder
ĠJo hann
ĠZ w
sch ule
ĠD es
em al
sch lieÃŁ
t ag
Ġet was
Ġ %
Ġf rÃ¼
ĠKir che
v ent
ĠH am
Ġweiter e
rupp en
ĠM al
ĠF ried
ie g
is mus
s am
ĠN ational
s g
al itÃ¤t
ĠW ien
Ġ201 5
k te
ĠP rÃ¤
ĠBer eich
p unkt
Ġver s
Ġ201 7
kl Ã¤r
ĠS k
uch en
ĠR Ã¼ck
ff iz
Ġent sp
Ġz un
ranz Ã¶s
ĠE m
= =
ra ft
z ent
ra ge
P ro
ĠS eite
ĠR eich
ĠI ch
Ã¤ hn
Ġge ht
ĠG ra
ann te
Ġm Ã¶glich
Ġ201 0
re d
Ġm al
3 0
ig es
schie d
eb ru
st it
ĠF in
ebru ar
ĠM ittel
Ġ X
ĠH Ã¶
ĠK r
Ġ ch
ĠB as
ĠK n
s h
er g
A r
Ġ18 9
Ġst ell
Ã¤hl t
Ġ201 4
ĠS aison
ĠZ usammen
Ġ201 1
um ent
ĠAl l
ut t
h ein
Ġakt u
in en
ĠH al
ch n
W ir
och en
og raf
Ġh o
ge stellt
wei l
Ġ201 3
ich ten
Ġ2 5
Ġl assen
ĠDie s
ern se
s ol
ie d
ĠMit glied
Ġ201 2
u er
or k
ĠSp ort
ĠE is
ĠSt and
Ġge mein
um en
mÃ¤ ÃŁ
ĠMÃ¼n chen
Ã¤ re
O r
Ġ u
schl ossen
ĠT ex
Ã¶r der
Ġsoll te
Ġr und
Ã¤ h
ĠF ot
ĠK omp
ĠN atur
st off
ĠLeben s
Ġdie sen
ĠH a
ĠVer lag
l auf
in o
Ġf Ã¼n
en det
ĠU hr
ĠH ol
s on
d orf
ĠPro f
m ittel
ĠFrau en
Ã¼ ss
Ġdes sen
Ġp er
w ort
ĠF ebruar
ĠR om
Ġk on
ĠĊ ĠĊ
d ruck
as st
ver t
s eite
ek te
ĠO n
Ġder en
ĠF uÃŁball
ym p
Ġ200 8
t r
is k
sch rei
Ġ200 9
h Ã¤lt
ĠH o
ĠAr ch
gab en
w ohl
Ġbe f
Ġdeutsch en
te chn
Ġer halten
Ġm achen
Ġ1 1
ĠL a
ĠI hnen
st raÃŁe
sp ort
Ã¤n ge
b el
Ã¤u de
ĠM od
enn t
ĠB i
ĠM il
ĠW il
ĠH ier
ig te
Ġp r
Ġda zu
et te
est er
v on
w e
ĠS al
ar m
j e
ĠPerson en
ĠM ill
Ġge m
il e
Ġden en
ut ter
Ġd och
st ag
âĢ ¦
fÃ¼ g
ĠSt ra
Ge sch
ĠL ehr
em ent
ĠPh il
Ġm Ã¼s
am pf
ar e
Ġwel che
an zen
om e
ĠE d
Ġ2 4
er en
ĠUn d
Ġletz ten
i ver
z ir
ĠĠ ĠĠ
Ġ9 78
ĠB ay
j ahr
Ġ200 6
y l
ĠBer g
Ġk ein
ech sel
Ġer reich
ĠReg ion
Ġkomm t
j Ã¤hr
ĠGe gen
19 9
d ings
as e
Ġbek annt
k ir
ĠW ie
sch ein
ur s
i ft
imm t
ĠGen er
ĠSch au
on nen
i us
Ġh ei
te te
ĠP er
ĠM e
geb iet
arb eit
Ġk ommen
sch ul
Ġv oll
ĠâĢ ł
ĠF est
ĠD an
Ġ200 7
st ru
pl atz
ĠFl ug
bild ung
Ġmit t
ĠL ei
ar ch
os ition
en nen
Ã¼ b
ber eich
Ġh och
ag er
de ck
Ã¤ us
ubl ik
L eben
Ġent wick
o der
Ġein ige
Ġz ahl
ĠL u
Ġbefin det
ĠK ap
in k
Ġje weil
E n
glie der
for der
ĠW eiter
ĠK arl
ĠM ot
alt ung
uf en
{ @
al is
ĠF ach
Ġf ranzÃ¶s
Ġ18 8
ĠJu gend
ur en
ĠW erk
ges etzt
ĠM ich
ĠK rieg
at Ã¼r
Ġau ÃŁer
lin k
Ġ1 00
Ġs Ã¼d
ur m
Ġver t
Ġab ge
au l
ĠFamil ie
bl em
Ġerh ielt
Ġden n
et ten
Ġw orden
Ġeh emal
. ,
Ġw Ã¼r
ĠD i
de te
Ġ [
et ter
at ive
sch w
ĠSch n
ur e
Ġsch w
ĠB ar
ĠH il
ern e
ion s
h eits
v en
ĠW ahl
Ġgro ÃŁe
4 0
ĠK Ã¼
Ġall en
ĠP at
wohn er
g or
Ġauf ge
h Ã¶
ĠR ad
co de
h le
un ft
ann ten
om b
Ġgro ÃŁen
s ent
ur op
Ġj etzt
neh mer
o te
ĠB ahn
at iv
Ã¶ m
ig ten
ĠS ommer
ech t
ĠA t
Ġer w
ell er
Ã¼nst ler
Ġ200 5
Ġ el
Ġf rei
au ft
Ġals o
p en
z entr
Ġeben falls
ĠC on
ein ander
Ġver st
ir e
Ġent st
Ġst ehen
o de
w w
icht s
al ien
ĠfÃ¼n f
ĠR u
Ġh and
ĠB el
Ġi s
uch e
op f
ĠN e
ĠDeutsch en
em a
B ei
eich t
A uf
eite te
Ġ on
k rieg
Ġunser e
ck er
Ġf or
ers Ã¶n
Ġf r
ĠG el
ĠB en
gen ommen
a f
Ã Ń
Ġk urz
rei che
l an
w est
Ġ em
sch rift
Ġ â
ĠM ag
ĠK reis
h ard
b et
ĠP eter
o se
b ei
ĠT er
an ten
Ġdar auf
Ġm Ã¶ch
Ġin tern
reu z
stit ut
h ei
6 0
Ġl Ã¤
it te
z ogen
z immer
ĠEur o
o ge
ĠI s
ĠR ah
Ġ20 00
ĠH e
k a
ad em
Ġ ,
Ġin ter
Ġall es
Ġw ill
schn itt
Ġzun Ã¤chst
ra kt
ĠS el
k auf
Gesch ichte
w and
ap an
rÃ¤ ger
w elt
Ã¶r per
or gen
Ġn eben
Ã¤ ten
ĠArb eits
ach ten
ul l
G est
um s
Ġ2 2
ĠAl b
Ġ ur
Ġ2 1
ĠTe am
ĠM eister
p ort
isch of
ĠF all
Ġihr em
nah men
r y
zie h
ĠK ultur
E s
i der
w ig
ind ung
Ġdeutsch e
Ġbeg ann
ĠW eg
ĠS c
Ġver m
ĠB Ã¼rger
ĠT echn
ĠJahr es
ĠS eiten
le g
ĠJ e
ĠK o
Ã¶l ker
Ġ5 0
ĠT itel
f urt
fol ge
ĠW ar
ĠA k
uÃŁ er
u ter
ĠS ohn
al if
ein t
ĠO st
l es
Ġin ner
ĠB Ã¼
7 0
fÃ¼hr ung
Ġs ehen
um mer
o ol
ater ial
ho de
ar i
ĠEin satz
ĠFamil ien
Ġc a
ĠH ein
z el
und er
it ter
y r
Ġein mal
2 5
Ġb il
ĠA uft
Ġver Ã¶ffentlich
hr en
Ġ :
Ġbie tet
ĠGr Ã¼n
ĠS eit
ĠFried rich
ĠRah men
gl isch
ob il
ĠS an
d ienst
ik el
ĠgehÃ¶r t
ĠF ir
g angen
ig keiten
E R
Ġ200 4
wir tschaft
ĠSp rach
at ten
Ġk osten
Ġ Ã¶
Ġander em
lich t
Ġunser er
ĠAn d
sch au
iz in
sp rach
Gest orben
ĠmÃ¼s sen
ĠHer z
Ã ³
fl Ã¤
sten s
h elm
am ent
Ġ201 9
ĠT od
ang el
Ġw eil
ah er
ĠP ort
ĠFran z
ĠE igen
se e
t ragen
ĠÃĸ sterreich
ĠZ iel
ot he
le ben
k unft
ĠS ystem
ĠK at
2 2
c a
Ġhat ten
âĢ ŀ
ĠN ame
in de
Ã¼ck e
Ġin d
b es
icht ung
sch er
t lich
ĠP reis
Ã¤t ze
ĠB ed
h eiten
A b
den k
it Ã¤r
m b
n a
setz ung
Ġher aus
iel le
ĠB ern
ĠkÃ¶n n
ges amt
8 0
Ġ2 3
l ungen
Ġbest eht
sp iele
ernse h
4 5
ĠT ran
Ġg ing
ĠN eben
Ã¼ hl
Ġre ch
Ġsch Ã¶n
Ġs ol
ĠgrÃ¶ ÃŁ
ĠF er
sch ung
ĠH eim
in s
Ġo ft
Ġ .
gesch ichte
Ġn ie
ĠZ ahl
h il
z ig
arb eiter
et s
Ġ ...
in t
Ġeigen en
om it
ĠB eh
ur ger
hau sen
. âĢľ
a i
ĠM Ã¶glich
I ch
ach te
s w
Ġm ein
ĠLand kreis
ach e
- -
el te
utz t
Ġ200 3
e c
Ġ qu
ĠOr g
k m
Ġgro ÃŁ
j a
ĠG o
ĠHer r
ĠF ar
a el
ĠBet rieb
r sg
is e
f ort
B e
Ġje der
Ġdir ekt
ĠInform ationen
h Ã¤ng
ĠW ill
ĠC ar
ĠD ienst
Ġsich er
ge gen
as h
Ġge grÃ¼n
ĠAl t
ĠRech ts
d ie
ĠMar k
si dent
ic a
Ġverschieden en
ĠBei spiel
st a
ĠD ir
ass ung
ĠVol ks
Ġhin ter
Ġb in
c om
y ch
Ġbesonder s
Ġ18 6
es ser
ĠPolit iker
Ġschn ell
f Ã¤l
ĠK ar
Ġ =
f ilm
om at
ĠJ ohn
ĠSt re
ze pt
ĠW inter
rei se
si te
n ungen
a ÃŁ
ĠD em
us Ã¤tz
ĠS itz
ĠK unden
ĠA kt
Ġn atÃ¼r
ver ein
lich es
Ġ200 1
ĠAn fang
ĠGesch Ã¤ft
ĠÂ »
Ġgew ann
n ehmen
il t
ich tet
ĠL eist
ĠWir tschaft
ik en
Ġaller dings
ĠFol ge
ĠR aum
ĠW enn
m Ã¶glich
at a
ĠD orf
ate gor
< /
sp ro
ĠAn geb
Ġmehr ere
E x
ĠW or
Ġ200 2
ien en
uch s
ĠEr n
onder e
ĠM art
bau t
Ġj a
min ister
Ġfin det
s weise
ĠHam burg
Ġ #
er v
ĠL uft
Ġentsp rechen
ne te
le hr
Ġ2 6
ier ungs
om in
sch t
Ġl ange
d es
ĠT our
ei der
ĠF unktion
ge ber
Ġ2 8
Ġviel en
g te
ĠIntern et
l ang
Ġer z
es e
ĠT em
ĠS icher
rit ten
ĠH ot
wer b
ow n
ĠTex t
ĠB urg
Ġzwei ten
sb es
2 3
F uÃŁball
ĠT or
f el
v oll
arr iere
Ġb lei
f est
P D
Ġw eit
Ġum f
B er
v Ã¶lker
Ġs etz
ĠSch rift
ĠK il
Ġ199 0
d a
ge ord
Ġw egen
rÃ¤ ge
st re
ĠS il
Ġverw endet
Ġnah m
ĠD abei
eu ch
Ġ18 7
Ġda fÃ¼r
Ġunter schied
Ġsch wer
ĠPro v
nah m
ge f
us e
ĠPart ei
ĠZ entr
or s
Ġp olit
sch eid
Ġo ffen
z ung
amerikan ischer
ĠSch iff
ĠE le
Ġf ast
ĠPro jekt
ĠH ans
o ster
ĠZ ug
c l
ĠS ex
ĠSch m
ĠI de
Ġda von
Ġre g
au ch
a ff
Ġkl eine
ĠKir chen
ĠEnt wicklung
ĠB ad
unk te
an a
l eist
te st
om pl
ĠG u
ĠF rÃ¼
ĠG ott
ĠPar is
Ġm ei
p s
ĠT rain
wei s
ief ert
u pp
ei er
an ce
ag t
ab en
ĠS a
is se
ĠH eil
ab el
ess ion
2 4
Ã¤m pf
ĠHol z
ĠK ur
ri ften
ik ation
Ġbe de
Ġ2 7
k o
ĠK Ã¶l
ĠAl ter
ĠN utz
Ġh eut
Al s
ĠMar kt
Ġw ichtig
H rsg
la y
Ġst ud
Ã¼ck en
lau b
Ġg ilt
ĠG eh
ĠW ochen
ĠWeb site
Ġspiel te
ĠK ais
ut h
ĠD re
wei ter
ĠW ald
all en
Ġbe sten
is h
il le
ĠKomm un
Ġ *
w eit
ar a
om eter
Ġ199 9
.) :
ĠEr geb
g lichen
f rei
ĠG ruppe
u ck
Ġver k
Ġsp ez
mb H
ĠB ilder
rot z
F Ã¼r
ĠD ort
ĠL auf
Ġp rÃ¤
ĠSchau spieler
st ra
ĠOn line
Ġbe w
I N
ig ht
ĠB eit
Ġbe zeichnet
ĠS en
st att
Ġm acht
ĠR hein
ow s
ĠEurop a
ĠSt ein
ĠSta ats
w or
schl ag
ĠI t
lich keit
Ġh istor
ograph ie
ĠE v
age ment
och ter
sbes ondere
ĠVer walt
Ġgen au
Ã¤t te
du z
ie w
19 8
ĠK an
ro p
Ġn Ã¤ch
rei ben
rau ch
Ġkl einen
m et
ĠWil helm
ĠD at
Ġweiter en
Ġunter stÃ¼t
r es
Sie he
ĠS am
ĠPl an
ĠPro blem
ĠHÃ¶ he
ĠPro zent
Ġz eigt
amm lung
ĠV ide
l ungs
ge t
ĠG ast
k ten
ĠIn f
wend ung
Ġ4 0
fÃ¼ l
ĠSta at
ĠC omp
ran ken
ĠOl ymp
Ġerst mals
ĠSta aten
ograf ie
Ã¼ ler
ĠfÃ¼hr t
Ġsch l
s ystem
ie b
z Ã¼
ĠD en
ĠSpiel er
it ten
ĠT re
Ġf and
ĠEn erg
ust r
Ġb rit
Ġan geb
ĠGes ellschaft
Ġ2 9
ÃŁ t
lieÃŁ lich
Ġab sol
I I
ĠB ru
org anis
ĠG raf
ĠBer uf
m m
ekt or
ĠGener al
Ġ Ã¶ff
on en
ĠR est
u k
ĠB ro
Ã ĸ
e der
ch es
rad ition
it u
Ġsein es
ĠMann schaft
spr Ã¼n
au se
ĠPro gramm
war e
lig a
zeit ig
ĠEin wohner
ĠlÃ¤ sst
i as
uch te
war z
ĠG mbH
Ġw ohl
zeich nung
D R
C h
ig a
Ã¤t ig
Ġt o
ĠA mer
im e
R e
ĠS ol
ĠSt raÃŁe
ĠM Ã¤n
Ġ199 8
ĠP aul
Ġ20 20
3 5
in al
sk i
Ġst and
r Ã¤n
ĠJo se
rÃ¤ gt
at hol
Ġbes ser
at te
Ġlie gen
f re
ĠKl ein
4 8
ut zen
schlieÃŁ end
im men
ĠGeb Ã¤ude
am mer
lie gen
ĠTh ema
ĠP al
ĠUS A
ĠA pp
ĠMich ael
s ych
ra un
w ehr
ĠY ork
kir che
ĠMa x
ar en
9 0
Ã ľ
ĠR es
Ġs echs
i qu
Ġd an
arb eiten
scha ffen
Ġg l
f ert
ich ter
v e
ĠM ont
ĠEin zel
Ġk m
Ġbie ten
im ent
ĠReg el
ĠM ehr
Ġge ben
Ġjeweil s
ĠP ap
ĠH in
ĠEr z
ĠEr st
teil t
ĠG eld
ĠWelt krieg
T he
p art
Ġ <
Ġgr Ã¼n
ational en
ĠH inter
Ġinner halb
ob ei
Ġst ark
2 8
Ġnicht s
Ġ18 5
am es
Ġle ben
ĠF eld
ĠF il
Ġg ar
Ã¤n dern
fahr t
Deutsch er
ĠA ben
b ed
ĠS Ã¼
ond on
ĠK ind
ri d
ol e
w ard
U S
ern en
Ġwen ig
- ,
je ct
ab r
Ġgen annt
de ten
Ġd eut
y t
ge st
Ġ194 5
ĠJahrhundert s
et h
ĠEn g
Ã¶ ÃŁe
lie b
ĠM eter
Ġverschieden e
om en
Ã¶s ung
ĠgehÃ¶r te
ĠH istor
g art
ĠT yp
ĠLei p
Ġh Ã¤uf
Ġem pf
W er
z ess
om as
ĠVer fÃ¼g
Ġ ro
ĠP ark
Ġw ahr
ĠSel bst
o x
um e
ge hen
richt ung
ĠUnivers ity
P erson
ĠMill ionen
Ã¤r en
ĠK Ã¼nstler
rei fen
l ing
Ã¤hl en
Ġmus ste
Ġ Ã¤l
ĠV ater
Ġkonn ten
o ver
schrei bung
ĠT ochter
ist ischen
opp el
i kt
ĠHein rich
ĠMus eum
le gen
in ner
Ġgemein sam
zir k
ĠM itt
Ġges am
an te
i at
ĠGe org
am a
j ekte
Ġn e
ust rie
iv id
Ġ199 7
m Ã¶
âĢ Ŀ
och e
ser ie
) :
ĠT a
ĠT Ã¼r
ĠD am
Ã¼r t
ges etz
ĠBes uch
Ġbis her
Ġge t
ĠA c
Ġz usÃ¤tz
ĠSchl oss
eh l
Ġvor h
ĠfÃ¼hr te
Ġm eist
ĠN r
p ublik
3 3
Ã ¨
le ch
w issenschaft
Ġm eine
V or
I D
Mit glied
her ap
ne ten
ĠFrank furt
an ken
K l
fÃ¼hr er
le ge
te x
ĠSt at
Ġso gar
s burg
ĠD on
Ġt rat
Ġwir k
Ġ x
Ġw ollen
am b
lie ÃŁen
ant wort
ĠSo zial
4 9
em at
g ruppe
ud wig
ĠA ber
Ġfolgen den
it h
ĠL o
ĠSchwei zer
ri gen
ital ien
rei bt
b ie
Ġp ersÃ¶n
ĠSt art
Ġent fern
ĠgrÃ¶ ÃŁer
um m
verb and
a e
it Ã¤ten
ivid u
E N
st ieg
bl ick
2 6
Ġw obei
ĠSt utt
ĠG old
den ten
b est
se hen
ĠL iteratur
iss ion
an c
Ġgegen Ã¼ber
m ed
Ġl in
Ġ199 4
w Ã¤r
ĠG arten
s itzen
a ktion
en zen
ĠDie ser
ar s
Ġ199 6
ĠH of
E ine
iv at
Ġf l
all s
im a
t on
ĠR olle
ĠProdu ktion
Ġger ade
ot s
gel egt
k ung
bar en
wa gen
ĠK ant
Ġer klÃ¤r
Ġd aher
ĠStra ÃŁen
rie den
Ġ197 0
iz ei
ĠArt ikel
ĠT ab
Ã¶r d
Ġg erne
ru g
Ġk n
Ġins gesamt
ĠL ondon
ĠN Ã¤
2 7
ĠwÃ¼r de
i am
ĠGes amt
ĠD ruck
Ġ or
ge geben
le b
her r
Ġso wohl
ĠK osten
b eh
ĠGeb iet
ĠW Ã¤hrend
ĠW olf
ĠArch ite
al k
Ã¼nd ung
urn al
l Ã¤nd
ic al
v ol
ĠM utter
rÃ¼ f
au r
Ġ198 0
pro du
ĠSchwei z
is ion
Ġw est
Ġzw ar
Ġw oll
ĠF Ã¼hr
Ġw icht
an e
ĠA ss
ĠD o
ĠE t
ĠN ot
2 9
R eg
al b
ĠEr fahr
ĠKais er
ĠP o
ĠA uÃŁer
ĠV iel
ĠMit arbeiter
ge h
ĠVer anst
ĠÃ¶ sterreich
Ġmei sten
ĠIn nen
ĠD av
ik e
Ġ199 5
ord nung
ĠG est
an de
ĠT age
st elle
os oph
ess or
iel l
ĠD is
ĠR at
ie gel
ct ion
ĠKÃ¶l n
rau en
ĠAm t
G ibt
ĠA lex
ĠSch utz
ĠAn g
Ġvorh anden
J ahr
Ġm oder
deut ung
ĠgegrÃ¼n det
fl uss
Ġi hnen
ĠL ang
Ġt Ã¤tig
19 7
Ġon line
ĠDeutsch e
Ġauf grund
Ġre cht
O b
Ġsoll en
ak ter
Ġz eit
ĠMit te
stell ungen
ĠSer v
ĠR en
19 0
ĠB is
rich ten
ĠBo den
Ġhin aus
ĠOb jekt
Ġeigen e
bl i
rit te
Ġgem acht
st eil
ĠfrÃ¼ her
ĠVerfÃ¼g ung
A N
ett be
ĠFrank reich
== ==
ĠH ann
ĠF C
ent lichen
ĠK in
Ġf re
" ,
g ra
Ġd r
ĠDes ign
ĠSch ule
ĠAut or
ĠEis en
Ġp l
ĠSch Ã¼ler
Ġ199 3
F ilm
un ge
ĠH ar
ru e
3 8
lehr er
ĠT ri
ĠThe ater
ĠProv inz
a sch
Ġje den
Ġbe d
ĠW ind
3 7
itz er
ĠT est
Ġn ieder
is iert
bar e
ĠOrg anis
s l
el ig
ĠL i
Ġin sbesondere
st Ã¼ck
ĠIn stitut
or ge
M ar
h aupt
geb ung
ĠS eine
ĠS ein
Ġsch lieÃŁlich
Ġ18 0
sch eiden
Ġge k
19 6
ĠL es
Ġo ber
ĠVer kehr
ick en
4 6
Ġunser en
Ã¤ te
Ã¶r t
ar f
ĠR ichtung
ĠK Ã¶rper
Ġge hen
b urger
Ġ Ã¼b
ĠH ei
lin gen
ĠB ischof
la st
flÃ¤ che
lÃ¤ ss
Ġh Ã¶ch
g Ã¤n
ĠStutt gart
ha ft
n ach
ĠR ot
Ġ199 2
ĠSp r
ĠRei se
Ġge geben
ĠC as
ol oge
wie sen
Un ivers
ĠF ort
ĠVer l
ĠE he
ĠZ um
s uch
Ġher vor
ĠM aterial
Ġer fol
3 9
re ffen
ab e
m o
ation ale
b ank
Ġstud ierte
ĠN etz
Ġ6 0
Ġ3 1
n ame
te gr
Ġges p
Ġarb eitete
omb in
e ten
f ter
d ig
ĠLeip zig
4 7
au en
ig h
Ġkl einer
M ail
Ġal ten
ĠP ost
3 6
ĠEr folg
ĠC arl
az z
a der
ĠProdu kt
Ġur sprÃ¼n
ĠL udwig
Ã¤ch lich
ĠMart in
ĠBe vÃ¶lker
s etzt
on ist
ĠN acht
ge m
ĠOr ts
gemein de
ĠG ed
ok ument
ĠW ein
ĠnatÃ¼r lich
Ġz ehn
Ġerfolg te
ĠBay ern
Ġw echsel
ra x
ĠZ eich
ak te
Ġ20 21
ad urch
spiel sweise
Ġi r
ig ur
ce ption
ĠR ed
ĠBeg inn
ĠHeim at
if iz
ĠIn sel
ĠF euer
Ġstell t
Ġhand elt
Ã¤n den
ĠVert rag
Ġs ex
Ġbe vor
y d
k omm
Ġ199 1
ĠâĢ ľ
iel len
ĠCh ar
Ġwen iger
ĠW ieder
ver kehr
E igen
ien ten
itz t
ĠZwei ten
ĠB u
f ft
m el
ĠKl oster
ĠZ ur
ĠR a
ab il
ĠSt Ã¤d
al tet
Ġc m
ab hÃ¤ng
ĠA bt
Ã¼ ter
ber ger
ist ik
ĠEle kt
zeu ge
ĠK ategor
Ġer k
Ġinter ess
k el
ĠIn s
Ġso zial
Ġan t
as en
L iefert
p reis
ĠG ar
f rage
Ġf ort
Ġl eicht
ĠP fl
ĠBe deutung
ut ion
ĠPf arr
ĠI l
Ġgeb oren
Ġ italien
eh ler
ĠMin uten
o od
18 9
an ien
al z
Ġdeut lich
s eit
ĠG ut
ĠS ing
Ġz ie
zeich en
Ĥ ¬
sch iff
ĠAn zahl
den burg
ĠMot or
Ġwirk lich
s f
al le
Ġw elt
Ġ198 9
ĠQu alitÃ¤t
Ġgef unden
w asser
ĠKil ometer
ĠN orden
ĠâĢ ¦
stÃ¤nd ig
ĠTh omas
ele f
H er
W enn
ĠIhr en
ĠMit glieder
Ã¤us er
adem ie
ĠEnerg ie
Ã¼t z
ĠK auf
S eit
on st
ro ffen
ĠA s
Die se
p el
Ġd i
B au
. :
8 9
Ġk ompl
ĠMet hode
Ġk ur
ĠKl asse
wei sen
ĠReg ierung
ĠM aler
ĠZ ust
ĠMÃ¶glich keit
Ġs omit
Ġn Ã¶rd
Ġ196 0
l i
be k
ĠAnd re
itz e
I S
ĠH el
st at
pf er
Ã¼ gel
rich tet
ĠverÃ¶ffentlich t
ĠT ra
ĠAl le
t rag
ĠKont akt
e e
ĠC ol
ist ische
ad a
inz u
Ġst ar
geb aut
mÃ¤ÃŁ ig
C H
Ġbest ehen
Ġerfolg reich
Ġern eut
ig ital
ĠMa in
Ġl a
Ġk omp
Ġsoll ten
U m
Ġwei ÃŁ
Ġh Ã¶
im al
pl an
fall en
en glisch
ĠM or
Ġunser em
ĠC or
ĠAlb um
lÃ¤ uf
ĠL icht
Ġbest imm
ĠmÃ¶ch te
Ġ Ã¤
ĠF rage
ĠAuÃŁer dem
ĠFre und
ĠT o
ĠMed ien
r om
ic s
Ġbei spielsweise
ĠEl tern
ĠE p
A S
ĠD och
ĠK urz
ĠRo bert
ier ter
arb eitung
g n
ĠCo unt
19 5
ĠChrist ian
ĠC omm
Ġo pt
us st
ĠRech t
ser v
la f
urn ier
ĠZw ischen
ĠB us
ĠD enn
Ġein gesetzt
ĠHal b
k ur
la v
ain t
ĠK or
b y
sch inen
eh len
ern er
ende te
ĠF ragen
ĠhÃ¤uf ig
ont r
ĠP ass
ten s
mann schaft
ĠHil fe
ĠS l
FuÃŁball spieler
ĠRom an
r Ã¼n
en der
Ġg ute
l eitung
ĠD ach
ĠE U
4 4
is ierung
Ġ Ã¤hn
Ġwel ches
' s
ger icht
b eg
olit ik
j et
Ġ ar
ĠSp iele
ĠE ing
Ã¶ hn
al y
Ġzwei te
ic t
Ġgel ang
Ġgel egen
ĠK raft
ĠIhr er
ĠGeschÃ¤ft s
ĠK reuz
Ġgew Ã¤hlt
L and
b le
Ġdan ach
issen schaften
Ġb lieb
Ġso gen
M us
ek ten
b and
Ġ end
ĠV ort
gen t
/ /
Ġ ru
ĠEr w
Ġst ellen
ĠFin anz
Â »
ĠK ol
othe k
l d
ĠD enk
A T
en ze
o ok
ĠgehÃ¶r en
ĠU l
un n
Ġn ot
k eits
and lung
Ġk einen
op er
ĠW issenschaft
in ge
Ġ euch
sch ech
Ġre gel
Ġzahl reiche
f il
Ã¤ ischen
arb eitet
Ġd Ã¼r
schaft s
Ġ techn
ĠL age
ei ger
ĠW e
ĠStr ing
ĠO ffiz
ĠNÃ¤ he
ĠR uss
ĠC he
Ġwechsel te
ĠkÃ¶nn te
V on
ru ktur
ok rat
Or t
h ang
Ġ198 8
Ġnah e
k ungen
Ġp ol
ĠPart ner
ĠA p
ĠHot el
3 1
in i
W elt
ium s
ĠGe f
ĠM ein
Ġt h
in es
3 4
ĠJ ur
Ã¶st lich
ĠSÃ¼ den
Ġn ord
ĠP osition
ĠO tt
Ġzu dem
Ġau t
ĠSe e
ar y
Ã¼r z
ck t
wer ke
Ġkl ein
ft ware
ĠEn d
ĠIt alien
an o
ĠAut o
ĠMar ia
p or
ĠB ran
Ġk aufen
Ġentst anden
s ie
schlieÃŁ lich
el ten
on ne
rax is
ĠM er
ĠN or
Ġerreich te
Ġen gl
ge fÃ¼hrt
ĠHer ren
ĠF Ã¶rder
ĠSt u
Ġ195 0
an lage
F l
: //
Ġdam als
Ġn ehmen
ĠS achsen
ĠG re
Ã¤t zen
ĠnÃ¤ch sten
z eiten
teil ung
Ġw Ã¤re
rei te
ĠM el
Ġ reich
leich t
ĠBl ick
ĠF en
ĠT ro
ĠAngeb ot
Ġm ax
ĠG ruppen
pp en
ĠSch wer
l ass
ungs k
Ġkl ass
ĠUnter stÃ¼t
ĠSu per
Ġent stand
Ġben Ã¶t
os it
ing ungen
St and
ĠT op
imm ung
ĠR ein
ym n
m od
ĠSt unden
ĠDr es
ĠVerb indung
ger ufen
ĠGes und
u tet
Ġein igen
Ġakt iv
Ġeh er
r acht
ĠÃ¼ber nahm
Ġehemal igen
Ġ acht
it i
eil en
Ċ Ġ
ei en
an ischen
h am
Ġge z
ĠPol izei
v est
ichte te
ĠMin ister
Ġ( )
ĠSch Ã¶n
Ġspiel en
Ġel ekt
ann e
Ġz eigen
ĠAn gel
ĠD rei
Ġ( âĢ
ĠW al
ok al
ĠSt elle
zeich nungen
ol a
ier ungen
Ġletz te
Ġ ung
ĠSchrift steller
ĠEr d
ges ehen
ĠA ir
kl us
wert ung
ĠS yn
ĠO sten
ĠOlymp ischen
Ġw es
eig net
ĠE ben
rei sen
ikan ischen
20 18
ĠA G
Ġmitt ler
per atur
Univers itÃ¤t
tex t
Ġheut igen
Ġsie ben
ĠFuÃŁball spieler
ĠGes etz
8 5
ĠR ud
S o
Ġst amm
ĠAben d
eil nehmer
a w
8 6
Ġp assen
ĠM u
ĠSal z
Ġ }
ĠAm ts
a ce
ĠAu gen
ettbe werb
ĠR und
f ekt
ik al
stru ktur
ĠEr k
Ġentwick elt
Ã¤ s
Ġverb unden
Ġind ividu
ĠAus bildung
w ald
an ger
ĠB ank
Ġ198 7
Å į
st all
ĠF el
ĠW as
ĠMil itÃ¤r
au sch
i den
in den
Ġ +
geb ie
Un ter
7 5
ĠAuft rag
Ġbefin den
Ġe urop
D F
ĠK rit
ĠCh em
zeu gen
ten t
Ġo ffiz
ĠII I
3 2
Ġp aar
it en
br uch
ĠF ernseh
le y
Ġver sch
Ġ198 4
ĠD ann
u x
re ter
ĠTh emen
Ġ198 6
ĠO per
hal te
eu cht
w esen
ĠS and
ĠAnt on
sp l
ĠWest en
ĠAu ÃŁen
ĠhÃ¶ her
ĠK opf
ĠT ier
lo se
Ġ(âĢ ł
ĠG i
Ġ y
ges ellschaft
ĠRei he
Ex ception
ul ar
Ã¼s se
mar kt
eh m
ĠMe er
al og
Ġ198 5
Ã¼t zen
f red
Ġr uss
r ist
ift ung
Ġob ject
Ġbet eil
ĠT al
at iven
4 2
h op
ĠVerwalt ungs
Ã¼ss eld
ĠFrÃ¼ h
ĠW and
z uf
ĠDam it
Ã¤t ten
a un
Ġentfern t
ĠBe sch
E S
ĠO s
ĠgrÃ¶ÃŁ ten
geb Ã¤ude
ĠH or
Ġzu vor
enn ung
ha fen
Ġson st
h ung
fÃ¼ gt
Ġent hÃ¤lt
ĠHer aus
Ġfolgen der
ur f
ar ian
ĠR ich
Ġso fort
Ġr ichtig
ĠMÃ¤n ner
Ġlie ÃŁ
a ir
ĠB ur
Ġer richtet
Ver ein
ĠMod ell
ĠS ong
or y
ĠVer gleich
Ãľ ber
Ġi de
Ġdar unter
Ã¶ tt
4 3
ĠErgeb nis
ĠB Ã¼r
Ã¼ lt
Ã¶ sen
Ġ8 0
Eigen schaft
Ġabsol v
ĠG leich
Ġer Ã¶ff
ĠAuf lage
rie f
par k
fÃ¼ hl
Ġer reichen
weg ung
ĠDies es
ĠJ apan
ĠFor sch
ĠStud ien
ĠVide o
g liche
Ã¼ hle
zeu gt
Ã¤d chen
ĠD et
u he
z ehn
ĠProdu kte
ĠMa ÃŁ
Ġgen utzt
ĠSo c
* *
ĠW ort
ĠN icht
ĠfÃ¼hr en
deck t
Ġb rach
ik o
on es
ĠHerz og
Ġh inzu
Ġdar Ã¼ber
iv al
ĠBeg riff
z i
al ue
ĠAr n
ĠJo urnal
Ġ {@
ag s
z y
Ġver z
Ã¤n gen
jÃ¤hr igen
5 5
Ġl ag
fl ug
ĠReg ie
ath emat
il ien
En t
ĠAus wahl
Ġ )
ĠW a
spiel en
ĠH en
Ġz og
Ġerh Ã¤lt
Ġersch ien
ĠTag es
Ġaktu ellen
Ġho hen
app en
ho ck
7 6
sp ekt
Ġgleich en
herap ie
tem berg
hr e
Ġbei de
ĠB or
lie ben
ĠBas is
Ġt rotz
ang s
setz en
9 9
ĠDre h
Ġ at
ĠZ Ã¼r
meister schaft
rau cht
eil ung
Ġpro f
Ġb l
in ne
u eck
il ler
ĠSprach e
Ġver d
Ġkosten los
ĠP e
ri c
ser e
inn t
Ġr icht
Ã¤l fte
Ġle b
Ã¼r d
d i
Ġ198 2
Ġeben so
ĠSt Ã¼ck
Ġteil weise
" .
v iew
ĠIn n
ĠFl Ã¤
ĠKrieg s
ĠC om
Ġange geben
8 8
ĠK ranken
ist r
ĠRe gen
sen d
ĠSp ez
fahr er
ĠM y
Ġer f
sch uss
ĠBerlin er
ĠPolit ik
ĠD om
Ġ( âĢŀ
t ra
T yp
p e
w ill
ĠI r
! !
Ġk ennen
Ġsie he
o o
ĠE hren
Ġt r
ĠL og
v el
em in
rain er
Deutsch land
Â ²
Ġst arb
ĠProf essor
ĠS im
w ind
ig ungs
ud em
f ried
ĠA ward
Ġ198 3
Ġ197 4
Ġeigen tlich
Ġw ohn
Ġr Ã¶m
Ġ197 8
geh end
ie ÃŁen
ĠW oche
schul lehrer
ym b
Ġerreich t
Ġwoll te
w egen
te g
ĠB rÃ¼
sp h
Ġsie ht
ĠSer ie
Å ¡
f Ã¤h
il la
g arten
ff er
O N
Ġ197 9
ag te
ĠprÃ¤ sent
gr ess
Ġ Ð
on a
ĠGr Ã¶ÃŁe
Ġ197 2
ak e
as ste
ĠH ome
ĠBau m
ĠFl uss
ĠPrÃ¤ sident
um b
ĠStand ard
ieren den
Ġex ist
en e
ĠÃĸ ff
ĠSte uer
zentr um
hock ey
me e
ail le
ĠauÃŁer dem
Ġgew esen
ĠOrt steil
u ell
ĠK ampf
ĠV oll
A R
W est
Ġd ich
u hr
ĠB aden
ĠIntern ational
zie hen
ĠB all
ot h
Â °
ymn as
u h
Ġe v
Ġge d
ĠBevÃ¶lker ung
ĠÃ¼ber n
Ġ7 0
ĠFol gen
ĠGl as
arl ament
ĠFir ma
ĠErn st
K on
Ã¤nder t
hÃ¤lt nis
F ernseh
r ing
Ġen g
ĠJohann es
Ġeinz el
ĠBahn hof
G em
Ġsel ten
sch riften
Ġmehr eren
Ġ198 1
reu en
ĠPr ivat
Ġ3 5
ĠCount y
l eiter
Ġ196 8
Ġf al
Ġfolgen de
d aten
f ar
Ġw issenschaft
and id
Ġo ben
ĠM os
ĠEnt scheid
ĠÂ «
Ġbr ingen
om ot
H och
Ġver ein
Ġnach dem
Ġ197 6
ĠD DR
ĠM Ã¼l
Ġbek ommen
ĠT on
c m
au ber
Ġk amen
âĢľ )
ĠBru der
Ã¤d ag
ĠLie be
zieh ung
6 5
ĠS tern
ĠSpiel en
Ġjed em
re cher
ĠS aint
ĠF uÃŁ
ĠM ass
ik on
ĠVor sitzen
o y
Ġ '
ei s
ĠG Ã¤
Ã¤t igkeit
en a
ĠS m
Ġm achte
ir t
Ġm ed
or te
7 9
G es
c y
Ġ197 5
k rÃ¤
ach er
ien te
ĠSie g
Ġ197 1
klÃ¤r ung
ĠC D
4 1
f s
sta at
Ġam er
denk mal
o ut
ĠM at
ĠB ot
re uÃŁ
ĠK arriere
ĠGemein den
aler ie
Ġstell te
Ġm einer
Ġal te
ĠR ang
ĠWill iam
w art
Ġauf genommen
em er
ĠD Ã¼sseld
ĠH all
ĠVerein igten
icher ung
or ie
Ġl Ã¤nger
ĠNach dem
f Ã¶r
Ġer ster
Ġ197 3
or gt
o is
Ġz entr
Ġ197 7
Ġk aum
ar n
ĠBr and
ĠL Ã¶
t hr
B r
dr esse
ĠSt ell
Ġent halten
Ġje de
ĠGeb urt
ĠAr ten
ĠB ach
Ġal t
Ã¼rt temberg
le cht
rei ten
Ġpro duz
Ġsp ielt
ĠUm gebung
Ġerw Ã¤hn
ĠSie d
Ġdar f
ĠUm welt
ĠA g
ag n
etz ung
ĠHann over
ĠDres den
l assen
olog ische
Ġblei bt
au b
ĠD oppel
Ġn orm
Ġeinzel nen
Ġp rakt
Ġneu es
M an
Ġ9 0
kl asse
ĠInd ustrie
. -
P l
ikan er
c c
ĠBeit rag
t um
ĠP unkt
A ut
Â «
ic an
ĠZu kunft
ĠFot o
ĠP sych
ha ber
Ġ196 9
Sp iel
ĠmÃ¶ch ten
in er
ĠUnterstÃ¼t zung
s itz
ĠArb eiten
bli othek
Ġho he
Ġ organis
k arte
ĠS uche
am s
u el
ĠS Ã¤nger
it s
ĠG eist
iert el
G r
P r
Ġver lie
Sp ort
0 9
) ;
Ġver f
ĠKon z
Ġihr es
ĠOtt o
ĠFen ster
Ġganz e
ĠfranzÃ¶s ischen
elef on
Z u
b Ã¼
E l
rie s
ĠF arb
halt ung
Ġun ver
Ġf ert
Ã¼hr en
Ġpr iv
Ġj apan
d o
Ġbesch Ã¤ft
ĠA ust
el fen
Ã¤t ter
olog ischen
Ã¼n ft
Ġwer de
z ip
au st
l ad
c es
ĠD ist
Ġh alten
ag ue
i os
Ġt un
fol ger
ei sen
ĠD el
inde stens
f ord
ĠW ahr
ĠWei hn
ĠS ek
ĠBes itz
O R
ĠS onnen
ĠP an
it a
ĠK om
ĠSt il
0 6
Ã¤ch s
Ġhei ÃŁt
Ġ te
ĠH Ã¤lfte
m und
Ġzur ueck
l ern
ĠKategor ie
Ġfin anz
ĠM c
ĠW h
W ie
am eister
stre cke
ĠSil ber
b i
ent wicklung
Ã §
den s
ĠT eile
an ische
ĠH essen
ell a
mus eum
0 5
Ġin form
ĠWor ld
ĠB Ã¶
ĠAn der
la ck
ĠMed izin
ĠEs sen
Ġarb eiten
Ġ rei
Ġm indestens
Ġk ont
ill en
z te
z us
zw ischen
k n
Ġh tt
E D
hal ts
ra gt
7 7
Ġ( =
ach ts
ho ben
ĠUnter such
ĠA uss
onn tag
ĠH aut
ĠB und
A uch
ĠCl ub
Ġblei ben
Ġt yp
fr ika
Ġerfol gt
r olle
Ġm m
ĠZ immer
ĠPhil osoph
Ã¶ pf
Ġw under
Ġer war
ick t
S V
ĠN o
Ġver fÃ¼g
Ġerz iel
ff el
ĠC ity
ĠK re
ĠP ublik
Ġ193 3
rÃ¼f ung
n ungs
ĠVer f
Ġ193 9
p ol
ĠWer ke
Ġbest and
bet rieb
ĠP il
ĠM ad
Ġr el
Ġgemein s
Ġan schlieÃŁend
Ġdam al
thr ows
h an
ĠI st
techn ik
Ġrech ts
Ġs uchen
hil fe
M et
Ġg Ã¼nst
ra y
ĠP unkte
ir m
wei g
un ternehmen
ĠB al
ĠFot os
ĠK olle
ĠPhil ipp
Ġf unktion
ĠZ udem
Ġh ol
ingt on
I T
Ġge pl
ĠRich ard
Ġdes halb
tem ent
l as
_ _
so zial
ĠWei se
en ter
fin ale
spr uch
ĠLehr er
ri ck
ĠBe k
Ġneu er
ĠZusammen arbeit
ĠC olle
Ġ ad
prÃ¤ sent
richt ungen
Aus wahl
ra b
ĠP et
ĠB ack
Ġh Ã¤tte
ĠPr inz
ĠJ azz
Ġg uten
ien s
ĠSicher heit
ĠZÃ¼r ich
D a
le gt
ĠOr ig
ĠCh arl
Ġ196 4
ĠL eiter
9 5
ĠL Ã¤nge
l iste
ĠH an
vol ution
ĠDav id
Ġ| |
forder ungen
Ġbede uten
ĠVers ion
it sch
Ã¶ nen
Ġt ran
g o
M od
ĠÃ¤l ter
ĠM Ã¶
Ġp ar
unk ten
ĠJose ph
Ġkn app
sch ei
Ġvor her
al te
ie fer
en er
br ingen
ĠPfl anzen
w ay
s a
Ġer weiter
ĠK amer
ff ekt
ĠOr d
Ġf alls
fer enz
ĠPr em
ĠA ktion
am in
zir ks
ĠW ider
Ġsetz te
Ġkann st
m ehr
al a
Ġm Ã¶
ic o
Ġn utzen
ĠAr m
Ġerh Ã¶
Ġweiter hin
ĠFahr zeug
ĠStud ium
ĠRe c
ĠRo ck
A L
alt ungen
i j
n am
Ġb as
ĠPr ess
ĠBÃ¼rger meister
sp rechen
g ten
ĠB on
st o
Ġ Å
k ap
ĠM ess
il ian
ĠSt amm
ĠF ern
Ġer mÃ¶glich
ĠS onder
Ġfol gte
d am
ĠD amen
ĠL iga
be ck
D urch
un sch
ab le
ĠTran s
ieren de
br acht
Ġgew orden
y a
8 7
ĠM att
rau t
ĠC amp
ĠLand tag
ĠĠĠĠ ĠĠĠĠ
Ġsch rieb
schl Ã¤
hei ra
isse ur
ĠD eck
bar keit
l Ã¶sung
Ġwel cher
ĠLin ie
ĠR Ã¤
8 4
or a
Ġ194 4
Ġjed es
ĠAk ademie
g ut
r hein
ol den
Ġgr und
rech ts
u hl
ĠP orn
ro w
eich er
z a
Ã¼ gen
Ġgleich zeitig
neh m
gel Ã¶st
schein lich
Ġ >
Å Ĥ
ĠB ab
ĠM Ã¤dchen
Ġ196 1
ĠKin dern
rie ch
ĠHer bst
st eh
ĠW o
hal le
ĠS w
ĠT ur
ĠCh or
ĠHer mann
wie gend
ĠTeil nehmer
k raft
ĠR os
ĠSt ar
ĠN ur
ĠB raun
jÃ¤hr ige
m eld
Ġne un
ĠH u
Ġ19 20
ru f
ĠServ ice
p ert
Ġâ Ĥ¬
Ġnot wend
an geb
ĠDa zu
ĠStadt teil
land s
Ġbes itzt
Ġd adurch
an ad
Ġin dem
ant s
Ð ¸
ver walt
ĠRe publik
Ã¼r n
ĠIde en
lag er
ĠNach bar
Ġbe ste
org ung
ĠS ant
ĠBe f
p age
ĠStr om
ĠAkt iv
Ġkl ar
L e
lin ge
hl et
mitt eln
Ġs u
ĠD isk
ĠGl Ã¼ck
ĠAlex ander
Ġl and
ĠFar be
Ġ196 5
sch ine
ĠP op
k i
Ġ193 8
Ð ¾
Ġgesam te
T rÃ¤ger
Ge ographie
st ud
Ġj Ã¼n
Ġj Ã¤hr
fÃ¶r m
ww w
Ã¼ cht
Ġ196 3
ĠR unde
m on
Ġk ehr
ma ÃŁ
Ġ196 6
hol z
d ien
Ġz erst
be zirk
ĠSch warz
ĠAn schluss
Ġ194 0
Ã¼ss el
lich keiten
Ġr es
Ġ195 6
ĠgrÃ¶ÃŁ te
iqu e
N eu
Ð °
ĠStre cke
Ġs etzt
âĢ ĺ
ĠJ ack
ĠForsch ungs
ĠZentr um
an lagen
ĠDÃ¼sseld orf
Ġ196 2
Ġein ger
Ġer forder
ort h
Ġber eit
t liche
ĠBr on
ĠursprÃ¼n glich
Ã¼ ten
Gem ein
ĠWolf gang
Ġir gend
Ġb itte
ahr en
O S
ĠT V
lau ben
p rÃ¼
ĠD eb
Ġbe ein
ĠBest and
M ed
k reuz
Ġd ritten
ĠP arlament
Ġ4 5
ks am
ĠWien er
ĠG et
ĠW alter
ag o
ĠEnt wick
ĠW etter
iel d
ĠAb schluss
Ġ193 0
Ġbes uchte
Ã¤d t
S er
n der
Ġw issen
eid ung
west en
ĠFar ben
ĠW ander
Ġbe gl
rie ges
Ġ196 7
ĠW ol
ĠIm m
Ġb ald
ĠVer kauf
Ġa k
Ġbet rÃ¤gt
ran t
ĠAn gaben
Ġbil den
c ri
. <
ĠZu ge
zahl en
at ung
ĠIhr em
Ġbel ieb
f rau
ab l
ĠEr sten
r im
eh mer
Ġge schlossen
pro chen
0 8
ĠB il
ĠF ehler
F rau
o ot
ĠSo ftware
ĠFor schung
Ġge stellt
ĠGeb ie
pr ess
ĠKomp onist
Ġintern ationalen
ĠS old
Ġumf asst
g ruppen
l etzt
Ġp h
zeich nis
wohn ern
F orm
par tement
ĠzusÃ¤tz lich
0 4
on y
ĠD iv
om ent
ge g
Ġt Ã¤
iv il
ĠMen sch
v olle
ei ge
itu ation
5 9
ord in
ĠKant on
ne e
ĠDan ach
Ġl eich
Ġt radition
ĠA ch
ĠK u
st ehen
il det
ĠC a
Ġwir tschaft
ĠG att
ĠP raxis
ĠF Ã¤l
ah nen
Ġp ass
A mer
ĠB rit
Ġjeweil igen
Ġm in
lin ie
emen te
ĠUnternehmen s
Ġaktu elle
ĠBen utz
Ġp osit
ri b
ĠZeit punkt
ĠfrÃ¼ h
s dorf
Ġle dig
Ã¤ cht
ĠD ek
Ġge baut
6 6
h or
ver stÃ¤nd
haus es
Ġbede utet
b ischof
ĠÃ¶ff entlichen
Ġ us
ĠT el
ĠBÃ¼ cher
ĠFer ien
Ġst Ã¤r
Ġl ei
iz iert
m ark
Ġent scheiden
an ter
ĠKomm ent
ĠCh ina
Ġbeg innt
ĠMon ate
ĠT om
flÃ¤ chen
l ow
ĠT agen
ĠBes onder
Ġn immt
on ie
ĠVer Ã¶ffentlich
end es
ĠTrain er
r unde
Ver lag
T eilnehmer
a at
ĠS icht
ĠJ ung
Ã¼hl en
ĠunterstÃ¼t zt
Ġer fahren
ĠAb s
as k
wei le
ĠAuf gaben
aly se
Ġledig lich
ĠPat ienten
stra hl
ĠAl bert
Ġverl oren
ĠVerein s
-- --
ĠL Ã¤nder
ohl en
ĠNutz ung
s es
ĠEx per
statt ung
Ġ195 8
ge stell
Ġeinz eln
A P
sprach e
ĠW ild
Ã¤s ser
b ungen
ĠL ou
au ern
ver fahren
imm el
f alen
Ġder zeit
ĠM ult
ho den
Ġ5 00
ĠB d
ĠP fer
ot or
ĠBr un
ĠT urm
Ġk athol
Ġl aut
Ã¤l lt
z og
si denten
il itÃ¤r
Ġ194 9
Ġstamm t
0 1
b ro
Ã¤ ss
ter t
ĠV og
ĠB ud
zen e
em ann
ĠK ern
ĠV iz
sp art
rie be
ne ter
w urf
ĠfranzÃ¶s ischer
ĠDenk mal
ĠA ustr
Ã¤uf er
Ġabsolv ierte
w Ã¼r
ĠBay er
ĠFir men
ĠD igital
ĠR itter
Ġeinz ige
d at
ĠR h
k athol
Ġ195 9
Ã¤n gt
ĠBe zeichnung
Ġ195 7
v is
ĠS ow
Ġ194 6
ri x
Ġersch ienen
y er
Ġzu letzt
ir g
ymb ol
H ier
ĠNach folger
ĠEm pf
ĠZust and
0 7
G er
ĠSchl ag
ĠL ager
ĠLe ague
J o
kt or
Ġbek annte
z lich
Ġt rue
ĠN ik
Ã³ n
ĠLeist ung
ĠP la
Ġviel leicht
mitt elt
ĠPol en
v ille
ig it
Ġall ein
ĠerwÃ¤hn t
p la
Ġm ag
Ġh elfen
G B
ĠD okument
in c
ĠL eitung
ĠAl ler
Ġaus schlieÃŁlich
Ġin tegr
ĠJ ust
isch em
etz en
E L
K ir
Ġs agen
Ġt ats
ri ffen
ra ktion
Ġr ein
ĠVerb and
ĠOrganis ation
Ġau ft
ĠVerkehr s
ĠN orm
ĠC al
for men
Ã¤n n
ĠReich s
Ġmitt el
s Ã¤tze
C hr
ent liche
Ġ194 3
o den
fol gen
ĠKir ch
ech net
amil ie
d ass
Ġumf assen
r ang
ĠGes prÃ¤
Ġgel ten
ĠF rieden
Ġm o
ĠV i
Ġ195 2
ĠK arten
Ġ3 00
Ã¤hr t
ĠZw eck
ĠH ause
Ġst ammen
Ã¤hl te
ĠSchl acht
6 7
iel ten
ĠTer r
Ġwelt weit
ip s
fr ist
u elle
Ġehemal ige
ĠR ie
ĠVer wendung
Ġt ragen
Ã¼ ge
Ġfin de
red it
s ein
ĠS ach
ra el
Ġgro ÃŁer
ĠP ubl
ĠS onntag
ĠPro zess
pro gramm
ĠV en
scha ff
Ġhoch wert
ĠL au
ĠB eim
ĠSch laf
8 3
g ibt
ĠK er
ĠKÃ¶nig reich
ĠTechn ik
Ġbil det
Ġangeb oten
eg te
Ã¼ ch
ĠH eid
ĠR Ã¶
Ġ194 1
meister schaften
ver l
Ġaktu ell
Ġ195 5
ie gen
ĠAr mee
Ġaut omat
ri ge
ĠAndre as
ch ester
Ġall gemein
heira tet
deut sch
Ġzahl reichen
Ġf orm
sp ir
w en
an walt
ĠK al
ord s
ite d
en sch
as er
ĠAmer ican
lo sen
ĠSpez ial
ĠGr Ã¼ndung
6 4
k ampf
for schung
Ġw ww
ne y
ĠProblem e
al es
Ġan zu
Ġd ein
Ġdar an
Ġ195 4
Ġj Ã¼d
Ġ194 2
Ġbek omm
Ġentwick elte
Ġ195 3
ĠInter esse
a j
ĠH Ã¶r
pf el
ken nen
i ar
p ack
Ġj unge
Ġhei ra
ĠDet ail
h u
s berg
ĠWeiter e
ĠT radition
ian a
P f
ĠSt ruktur
Ġausge w
ĠVer m
ĠBe zirks
setz ungen
iff er
ĠGott es
Ġs agte
Ã¼ st
spr ung
ĠWeb seite
ĠL ab
Ġver gangen
ul a
ĠHal le
ĠH igh
gr Ã¶
yn am
tern ehmer
ĠPf lege
ie ÃŁ
Ġm einen
te sten
gemein schaft
ĠverÃ¶ffentlich te
l esen
Ġt rÃ¤gt
ĠÃĸ l
Ġwen ige
stru ktion
rei he
id a
sch m
ĠAb geord
Ġpol n
Ġgesam ten
S etzt
ĠReg ierungs
og le
0 3
f igur
ĠM athemat
Ġer he
Ġh aupt
ĠfrÃ¼ hen
f Ã¤lt
Ä į
abr ik
b Ã¼rger
Ġbest immt
Ġsetz en
ĠEisen bahn
Ã¼t zt
p unkte
Ġgen ommen
ĠA st
ĠP lay
ag d
ĠBr emen
ĠWirtschaft s
ĠT im
Ġk rit
pp e
E is
h Ã¤user
0 2
at ter
lieÃŁ t
ĠP aar
ĠH ir
ĠH art
ĠAn na
p os
la den
A d
U N
om ie
tr em
ĠI D
ĠdÃ¼r fen
ie ur
sp ann
lau bt
Ġschl oss
r Ã¤t
ĠA tt
ĠErgeb nisse
ĠJose f
C D
b us
ĠS Ã¤
Ġw eg
ĠD Ã©
ĠAl ten
gew icht
umen te
ĠEng land
l eit
Ġv an
ĠKl ass
Ġ194 8
ĠR is
Ġsei en
ĠerklÃ¤r t
k unde
Ġdurch gefÃ¼hrt
mus ik
ĠF e
Ġ Q
ĠW issen
Ġpolit ischen
Ġs e
Ġs agt
ber n
ut lich
uf e
ĠMÃ¼n ster
ĠT isch
ĠKl aus
op t
ast ian
at ik
av a
ĠSchauspieler in
6 9
ĠF und
Ġgesch rieben
sicht lich
ĠJe an
ĠEv angel
w al
âĢ¦ ]
ĠF ac
ĠComp uter
S ystem
n ess
r and
u be
sch lieÃŁen
Ġ195 1
ĠO p
Ġbest Ã¤t
g ien
ĠK ab
ĠPro t
7 1
ĠV ier
amerikan ische
ĠB onn
Ġf iel
o sen
ĠW all
ĠTem peratur
stoff e
ĠHinter grund
f unktion
n amen
ĠBe zirk
Ġausge zeichnet
b is
form ation
ĠVert reter
Ġlin ks
==== ====
ge hÃ¶
pf l
ĠErfahr ung
Ġev angel
ĠEin fluss
wÃ¤r ts
w echsel
c el
bau ten
ĠSt raf
ĠLie fer
ĠgrÃ¼n dete
W eiter
er ei
bl att
hol t
ĠSt ock
ot te
ĠGer man
weg s
Ġwicht ige
S h
ĠZeich en
f an
Ð µ
Ġl au
ĠAus gabe
Ġsel ben
ĠBesuch er
k an
ĠR el
ĠHer steller
S S
men s
eg el
ĠSta ffel
bie ter
ĠZeit schrift
P ar
ĠH aar
Ġ ra
ĠG al
Ġver gleich
ymnas ium
Ġg anzen
Ã¤nd ig
dr Ã¼ck
ĠAus stellung
ay er
k osten
Ġun ten
ĠÃĦ r
Fernseh serie
ĠM acht
ĠG Ã¶tt
eit ag
ĠAn lage
Ġm on
le ger
ir ol
Ar ch
eich ert
ĠF ischer
be w
Ġkompl ett
ĠBl ut
ĠBl og
at ein
M S
Ã¼ h
Ġv alue
um p
Ġge eignet
ĠHand els
ĠwÃ¼r den
g a
ach st
Ã¤ ger
V erk
rat s
ĠMa schinen
rÃ¼n det
Ġj em
er in
ĠJ ames
ĠGew inn
Ã¶rder t
ĠfranzÃ¶s ische
own lo
ĠM erk
Ġver fÃ¼gt
6 8
ĠK art
ĠBild ung
at ers
as p
Ġet c
Ġwichtig sten
an y
ĠJ er
ĠD ank
Ġf reuen
ĠAut om
n ern
Ġs h
ĠA v
ĠGra b
ĠRud olf
h istor
k or
ĠUn ion
Ġgew innen
akt iv
ink el
k omp
Ġsol che
i or
z ul
Ġn o
ot o
ĠWohn ung
ĠL eg
Ġh il
ĠV al
Ġbe gr
ass ungs
ĠnÃ¶rd lich
Ġregel mÃ¤ÃŁig
ĠS atz
V ers
ĠVor stand
ĠsÃ¼d lich
ĠN Ã¼rn
Ġl eider
ĠPh ys
ut her
Ġintern ational
d ar
ĠO pt
ontr oll
9 8
ĠH off
ige m
ĠAb st
fÃ¼l lt
ĠR ob
Ġun mittel
.. ..
ĠHoch schule
Ġer setzt
se x
anz e
ov e
ĠermÃ¶glich t
c on
ĠMÃ¶glich keiten
verwalt ung
ch mal
Ġd el
ĠG lo
Ġl angen
T h
Ġmus sten
Ġpr om
Ġer inn
Ġver antwort
n ummer
ro s
Ġmein em
ĠStÃ¤d te
ĠC r
ĠGr enze
ĠZeit ung
i w
ĠW unsch
ĠSt off
Ã¤nd ler
Ġdar in
ĠBeh andlung
Ġge prÃ¤
be sch
ĠMen ge
ĠVer fahren
ĠRest au
wer te
uch ten
t el
ar kt
Ġf anden
ĠR and
ĠMÃ¼l ler
7 4
D at
ĠD ial
ĠSt ad
Ġw ider
ĠM iss
enz t
z ern
omm un
ag es
ĠVol k
ion al
ĠUr laub
ri fft
Ġvor bei
Ġausge stat
b il
Ġern annt
Ġander s
ĠQu alif
8 2
im eter
Ġrel ativ
ĠSt ellen
ha gen
and o
ĠKÃ¼ che
leist ung
. "
Ġges etzt
ĠLie d
bau m
ĠDi pl
l am
Ã ¢
Ġ193 6
ĠChar akter
Ã ¸
Ġge bracht
ĠCh amp
Ġ194 7
Ġv Ã¶l
ĠN S
oll ar
Ġzun ehmen
Ġb ein
ĠK ron
Ġh Ã¤lt
ĠGe orge
if e
z in
ĠS V
g Ã¤nger
ĠF ernse
W Ã¼rttemberg
s m
kir chen
leist ungen
Ġso dass
ĠDar stellung
ĠE ich
sw Ã¼rd
ĠSicher heits
O ber
ĠAn n
de cken
Ġn ull
Ã¶ sterreich
Ġzw eit
Ġsel ber
ĠGÃ¤ ste
Ġander er
Ġbesonder e
leg ung
ĠIde e
Ã¼ ste
ĠW es
ĠBe zug
ĠT ruppen
reu ÃŁen
Ã¤dag og
7 2
Ã¼r k
gesch oss
y le
ĠMet all
S e
Ġ3 2
ĠAuf gabe
ĠSchl es
ĠWei ÃŁ
ĠOffiz ielle
ier s
ĠIn str
ĠUr s
m ack
m esser
ĠW ehr
Ã¼ck sicht
ĠT urnier
ĠR elig
Ġheira tete
5 6
N eben
ĠW el
Ġsch warz
ĠSam stag
Ġh ast
Ġab gel
ĠJ ac
ck s
d urch
ĠA f
ĠR em
ĠC re
lin ik
Ġs ah
eg rÃ¼ndet
ĠStand ort
G ro
ĠFl or
ĠB Ã¤
ĠH y
Ġbe hand
9 3
1 00
z Ã¤hl
Ã¶r en
Ġfol gt
ĠÃĦ nder
Ġde fin
gar n
ĠFlÃ¤ che
t a
Ġk or
art s
Ġges ehen
Ġs ucht
be zogen
ĠPerson al
Ã¼ m
ĠK rÃ¤
W Ã¤hrend
ĠM ik
mÃ¶glich keiten
Ã¶l f
Ã¡ n
au te
or ten
ĠL im
zu stellen
ĠZusammen hang
ĠÃ¤ uÃŁ
ĠH eute
Ġst ets
id t
de x
ĠR iver
sp ar
la w
P S
Ġd ah
Ã¤ den
ĠD ro
ĠBetrieb s
Ġopt im
l y
ĠT Ã¤tigkeit
ungs st
Ġm el
ekt ion
h och
ĠM and
ĠIn ner
ehen swÃ¼rd
N ational
ĠSt ahl
st Ã¤nde
wer be
ĠBau ern
Hoch schullehrer
ĠS S
ĠSch war
ĠL Ã¼
ĠDÃ© partement
u ster
ĠB ett
ĠG it
Ġh al
ab eth
20 17
ĠAu ff
te d
ĠG ran
ĠZ uf
Ġ193 7
Ġben annt
ĠErfahr ungen
Ã¼ hm
ĠâĢ ļ
d in
Ġd iver
Ġge fÃ¼hrt
ĠWer te
ĠRad io
ĠL ive
z ur
ĠR enn
schl oss
ikan ische
ĠGeburt stag
am eter
ĠunterstÃ¼t zen
Ġver lÃ¤
ĠS uch
Ġb i
ĠK ombin
ĠP DF
Ġun abhÃ¤ng
ĠMon at
Ġ[ âĢ¦]
ĠHome page
k au
ĠL ok
Ġher r
Ġum fang
P h
20 16
e v
ĠS amm
ĠL eicht
ig uren
Ã¶s ungen
Ġeinz ig
Ġkehr te
s al
ĠH um
ĠOr gel
k und
ĠH elm
un e
meld ung
E T
z ut
ĠB ill
ĠG Ã¼ter
ĠSchw e
7 3
p a
ĠK op
ĠE vent
Ġbrach te
g ro
in os
ĠIn vest
ĠMa il
ĠFlug hafen
ĠÃ¼bern ommen
9 6
ĠVerwalt ung
ĠG ru
ĠV is
sp er
gel d
H ol
ĠB re
Ġver heiratet
ï ¿
Ã¤ her
ĠSp aÃŁ
Ġpolit ische
ĠFeuer wehr
ipp s
9 4
B C
b as
ĠR icht
Ġbr ingt
Ġd re
E urop
ĠJ es
ĠMus iker
Ġein st
Ġz eig
Ġ193 4
Pro du
ĠW erner
Ġvoll stÃ¤ndig
ï¿ ½
in sel
ĠAn wendung
ĠAll gemein
ĠT at
ĠCas ino
ĠOrig inal
m acht
ĠC an
l Ã¤nder
u sch
Ġz eich
ĠF isch
ĠO ut
Ġj ungen
alis iert
Ġd eine
ĠL Ã¤ndern
wer ks
ennt nis
ĠT it
pf licht
Ġbeteil igt
Ġwen igen
Ã¤n e
ack en
ĠSc ien
Z ur
Ġdamal igen
8 1
rei tet
ĠAr zt
Ġunterschied lichen
Ġw ert
Ã¼r gen
ind ungen
ĠK och
ĠâĢ ¢
Ġbesch rieben
sen de
G egrÃ¼ndet
an i
se k
zen z
ul en
ĠÂ §
ĠStr eit
Ġvert reten
art ige
Ġent lang
ass el
gew Ã¶hn
ĠerÃ¶ff net
ownlo ad
L egt
ĠS inne
teil en
s Ã¤chlich
ĠS ter
ĠR ennen
ig keits
ĠV arian
ĠFÃ¼hr ung
Ġin t
ĠHand el
Ġt ro
ib el
Ġan ges
ĠTran sport
ver anst
ĠEin wohnern
Ġbestimm ten
an isch
ĠRo y
l et
em m
Ġ1 20
Ġaus ger
ĠLand schaft
ĠLand wirtschaft
aut or
6 3
ĠD or
Ġl esen
scha fft
ĠB ir
rei ber
Ġges etz
c ar
ĠMo der
Ġbr eit
if ik
ehenswÃ¼rd igkeiten
p on
eb ook
Ġverw enden
O l
d as
rÃ¤ ume
gef Ã¤hr
ĠC ap
Ġst arte
ĠSp anien
Ġqu alif
e an
Ġfert ig
all el
ĠKl assen
alif orn
te ste
ĠSch ritt
ĠLeist ungen
Ġsch war
ze p
ct or
e p
Ġl ok
anz er
ĠDeutsch er
ĠspÃ¤ter en
d essen
Ġbet rach
( )
ed ia
we der
K ultur
Ã Ħ
ĠNach richten
ou ver
f unk
ĠAl lt
PD F
A C
5 1
A dresse
ĠS PD
ĠM orgen
i i
s Ã¤tz
w issenschaften
ĠFin ale
ĠS ammlung
ĠK rank
Ġverl assen
Ãĸ sterreich
et ing
ey er
Ġsogen annten
M eter
ĠE ss
Ġbef and
rei g
ist in
6 2
e en
r aten
ĠK arte
ĠVor der
inde st
wind igkeit
d t
ĠL ad
t eile
at hlet
Ġb y
ĠR um
ĠJ ak
ĠW ettbewerb
ĠSch ool
B ahn
ĠA ud
ĠAn schlieÃŁend
Ġle bt
ĠSm art
in f
at es
Ġ19 00
Ġbrit ischen
ĠK enn
unk el
ar tet
ĠV iele
ĠB lack
pf en
Ġprof ession
end orf
prÃ¤ sident
n itz
ĠT iere
Ġ19 18
ĠÃ¶sterreich ischer
ĠI V
az in
ren nen
ĠKarl s
ĠN ummer
mal e
Ĩ Ĵ
em d
si ble
Ġausgestat tet
ĠL Ã¶sung
Ġl os
Ġhistor ischen
h i
Ġ ;
Ġt reffen
ĠDan iel
Ġd iente
kl ass
ĠBeit rÃ¤ge
g u
Ã¤ um
ĠH ard
Ġ193 5
Ber lin
Ġmoder nen
ĠH oll
Ġ15 0
s em
c is
f ragen
Ġver pf
reg ierung
Ġentsprechen d
9 2
ĠV om
Ġ4 00
ĠWeihn achts
5 8
st echn
Ġst ra
ĠNamen s
Ar t
gebie te
b s
| }
re publik
fin den
stÃ¤nd ige
Ġwahr scheinlich
ĠSing le
ĠRo sen
A G
ant as
alis ierung
ĠEr inner
ic es
bau en
Z um
ĠZ us
ur a
ĠPr esse
zip lin
b a
el berg
ĠFÃ¼r st
Ġlie fert
Ġarb eitet
Ġentst ehen
ber eitung
Ġweiter er
ĠPap st
u gen
Ġm ass
ed es
Ġg riech
lin ien
ĠGr and
s achsen
ro h
Ob jekt
ĠVor aus
reu de
ĠJu den
ĠGesund heits
Ġp erson
ĠTer min
K reis
ĠO pen
Ġmitt els
p o
ĠB a
C l
t d
z un
ch em
rech te
Ġvers ucht
r is
ĠGegen satz
gel assen
d f
od or
ĠVert eid
ĠEntscheid ung
ĠP a
ĠMa c
vent ion
vert rag
r um
ĠKl ima
br it
ĠNatur schutz
ei sch
ĠIn t
6 1
an en
ĠS ituation
ter s
ĠDar m
st Ã¤r
ĠF ak
ĠHerr schaft
Ġverk auft
ĠBeruf s
g ern
z eigen
ĠÃ¼ber geben
ĠschÃ¶n e
u c
u gend
Ġd ient
5 3
ĠEin fÃ¼hrung
ĠAut oren
B l
T e
Ġin zwischen
ĠGrund lage
ĠSold aten
ĠT ar
ĠZ ahn
ri kt
ay s
S G
Ġ ehr
rei f
Ġehemal iger
ĠHeil igen
Ġvergangen en
Ġer r
ĠMus ic
west lich
T V
ĠG alerie
geb nisse
ĠNeu e
Ġeurop Ã¤ischen
ĠT enn
P reis
ul ation
ed t
ĠÃ¼ber haupt
ĠSchul en
der s
ĠT elefon
te uer
ĠM as
ĠE g
ĠUnter richt
ĠDar Ã¼ber
st ock
ĠZ eiten
Ġsch eint
ers eits
ĠAngeb ote
lÃ¤nd ischen
ĠTÃ¼r k
Ġw Ã¼n
ĠVer br
ĠArchite ktur
iti ative
r am
wei te
ĠGeh eim
ĠW echsel
ach tet
ĠEin t
ĠHaupt stadt
Ġ ed
ĠA bl
ĠCharl es
5 4
ĠT au
ĠVer Ã¤nder
scha fter
ĠLou is
all er
Ġob wohl
echs eln
ĠvÃ¶l lig
w o
Ġ19 19
ess el
ĠGo ogle
Ġher gestellt
s sen
ĠW eil
ĠU N
v al
ĠS um
ĠT her
ĠAl tern
ĠBe wegung
ĠOb jekte
Ġhaupt sÃ¤chlich
St adt
ĠColle ge
W as
ĠB ra
ĠÃľ berg
Ġentsp richt
fel der
ĠS ub
ĠStu denten
ĠN et
r Ã¶
Ġge halten
ent al
ĠGro ÃŁen
ĠKommun ikation
C on
ĠVer halten
vers ammlung
hand el
ĠSt immen
ĠVorsitzen der
ĠC at
ĠO ffen
Ġsch reiben
Ġgew onnen
ĠTrain ing
Amer ikaner
Ġda gegen
ĠSchn itt
Met hode
5 2
m at
Ġge schaffen
mer ksam
Ġbet roffen
Ġeng ag
H and
b ad
d ir
o z
ĠK lav
ĠN av
ĠAuf bau
B ild
B undes
h auer
un ion
ig ungen
ĠIn halt
mÃ¤ ler
it or
Ġs icht
ĠM ex
ĠKon zept
onst ants
Ġk ultur
he ater
Ġch ines
k ultur
Ġschw ed
ĠL aut
Ġh ielt
ĠV an
im me
all ow
Ġre duz
Ã© s
ĠRuss land
r enz
ĠR oll
ĠVer antwort
Ġersch eint
Ġmittler weile
Ġerziel te
Ġst aat
Ġw or
ĠL os
ĠRe al
ĠChrist oph
ir l
Ġan s
ĠWir k
Ġ192 8
Ã¤ ische
ĠW ohl
ĠQu ellen
p ft
ĠR ing
ĠN ic
re st
ĠS inn
ha fte
ĠDaten schutz
A M
p hen
u es
Ġverm utlich
Ġp orn
ĠFried hof
Ġbrit ischer
ĠAller dings
te ten
ĠMa inz
Ġ192 5
F or
ĠDat ei
mÃ¶ gen
krÃ¤ fte
Ã¤hr ung
Ġz Ã¤hlt
ĠO pfer
ĠIn halte
att form
sel ben
ide o
mÃ¶ glichen
ĠT schech
Ġge h
Ġaus geb
5 7
ĠG Ã¼n
Ġk einer
qu e
Ġbet rieben
pl Ã¤tze
f assung
an ischer
gang s
G ruppe
Jahr hundert
Ġunmittel bar
ĠSt iftung
ist isch
ĠBo x
minister ium
ch ron
st uhl
eist ert
hockey spieler
R uft
zeich nete
amerikan ischen
9 1
ĠK a
et ball
Ġgef Ã¤hr
ĠFrei burg
Ġst ieg
Al le
ĠHa fen
ĠauÃŁer halb
in det
or fer
ser t
ĠBer eits
ĠEin trag
Ġunter s
ĠMon aten
ĠBest e
ĠÃĸff entlich
Ġmo dern
Ġw ith
wissenschaft ler
ĠZ eu
I C
Ġb em
ĠI T
eich en
t her
ĠEn gel
Ġwieder um
st rÃ¤ger
ĠP reise
ĠL eit
ichte ten
k ont
u a
sch te
ver lag
20 15
ĠInform ation
ĠEp is
ĠBran denburg
f ur
Ġd ur
u z
ĠG ust
ĠMann schaften
zÃ¼ ge
t au
bo gen
ĠArb eiter
sch uhe
ĠEr satz
ĠFamilien name
ad rat
ret Ã¤r
ĠPhilosoph ie
ĠFest ival
I t
k arten
ar zt
at oren
ĠH om
ĠR ichter
Ġre st
S Ã¼d
z ust
ĠSp ann
j ekten
Ġk anad
ges sen
F A
rei b
ehr t
Ġer kennen
pf lege
Ġzw Ã¶lf
Ġschw ier
ĠGel Ã¤nde
n etz
ĠU p
ges p
ĠR eb
ma schinen
Ã¤m lich
y e
ech te
Ġkur ze
ĠS n
Ġlie be
ain er
Ġd igit
fÃ¤l le
ĠSt ate
Ġbe ob
Ð ½
ĠS at
ĠGer ichts
Ġverpf lich
ĠG as
ĠFre unde
ĠVeranst altungen
ĠFr eitag
or et
ĠB arb
ĠRech te
ĠpersÃ¶n lichen
- )
el a
Ġgleich nam
ĠPol y
obil ien
Ġhtt p
K omp
amen s
w an
Ġ Ã¶stlich
b ilder
hl en
geb racht
ĠFr itz
ĠLin k
ĠKonz ert
v a
ak et
ĠKon s
Ġ193 2
klus ive
ð Ł
zieh ungen
zieh ungs
ĠG rad
Ġf uer
Ġgen annten
E G
u al
Ġl ernen
auft rag
Ġtats Ã¤chlich
ĠT hr
ĠO ff
ĠBe schreibung
arch ite
et a
ĠHÃ¶ hen
ĠAng riff
Ġbekomm t
Ġun bek
ĠAn teil
Ġbek annten
Nach dem
f alt
Ġf ahren
is ierte
Ġ3 6
d re
ĠT anz
man agement
K arriere
Ä ģ
ĠC ont
ĠBl Ã¼ten
g rad
st anz
ĠC ro
ĠY ou
ob ile
b lich
ĠF ert
20 13
Ġgesp ielt
ei ert
ĠB ade
ĠH und
ab end
Ã¶r ter
D en
ĠN orth
eck en
ash ington
ĠKrit ik
Ġw and
ĠM ur
ĠK urs
produ ktion
Ġmehr fach
ĠGew icht
ĠDir ektor
Ġd auer
ĠSp Ã¤ter
20 12
eck len
ĠDaten bank
ĠLeist ungs
P art
ĠGr enz
ĠInter view
sie he
Ã ĥ
ĠV iertel
ĠEd ition
sch Ã¶n
ĠM ir
ĠN un
ad el
ot ten
ick e
Ġda ÃŁ
w in
ĠE reig
r t
om a
iv es
Ã¶r den
Ġunterschied liche
sch auer
on ym
rid ge
s ied
st ab
ĠS ign
ĠE hr
ĠI S
Ġsch lech
Die ser
Ver Ã¶ffentlich
k unst
Ġd ritte
Ġh eim
ĠI P
ĠJ ob
T echn
ĠW agen
Ġent deckt
Ġ192 9
ĠSte fan
d el
Ġzu gleich
Ġp reuÃŁ
c up
ĠP C
sp rÃ¼
Ġaus zu
glie dern
ĠGatt ung
f a
h men
ĠE ind
ri a
ĠNational sozial
ĠUn ited
ĠKr im
ĠLu x
ĠB ig
stell te
olog y
t lichen
ĠGer icht
gest altung
Ġverantwort lich
ĠM un
lie der
Ġentsprechen den
ĠVer d
Ġsp rach
Ġs orgen
Ġm od
Ġgen er
brit ann
d ung
rei ter
Ġerst es
ĠMan agement
Ġverl or
an er
Ġer gÃ¤n
Ġp sych
iet y
bo ten
ĠHo hen
Ġelekt r
h el
ĠK andid
Ġ1 000
ist enz
Ã¼ mer
Ġb lau
ĠE st
Ġh eil
Ã¶r de
ennt nisse
o us
Ġein gel
ĠT rau
er ien
ĠInter essen
ĠLin ks
Ġper f
A D
Ġn Ã¤mlich
den ken
Al b
Ġleb te
ĠT rotz
Ġentwick eln
ĠDreh buch
P olit
ir n
Un d
B est
ĠB itte
Ġ19 10
In nen
Ġwest lich
9 7
Ġent gegen
ĠWa ffen
Gemein de
B i
m or
Ã¶ se
iert es
ar re
Ġabge schlossen
ge wiesen
Ġber uf
alen der
ĠElekt ro
B is
c i
ĠO der
ĠFor men
ĠNÃ¼rn berg
t es
Ġein gesch
Ġin tens
ĠUn sere
wer ten
Wer ke
or ient
ĠK aff
ĠF ein
ra struktur
Ġp art
Ġsp ann
r Ã¼ck
st il
ru he
mit glied
ouver ne
ĠAuf stieg
schen k
D e
Ã¤hl ten
ĠbenÃ¶t igt
ĠSh ow
lÃ¤uf er
Typ e
pos sible
Ġi dent
ĠW ett
Ã¼hr ung
ĠBr as
ĠSchw ester
ele v
em pl
ĠnÃ¤ch ste
N ieder
j o
bild ungs
h emal
ĠF al
n ov
ĠH it
ĠM ol
Ġer baut
Ġp f
ard s
ĠReg isseur
ĠbeschÃ¤ft igt
ĠKlav ier
k opf
w ander
ĠB rief
ĠT urn
Ġl etzt
ger ichts
ĠMittel alter
Ġz er
schau spieler
w ood
ar ischen
ĠÃ¼ber wiegend
rie chen
Ġbel egte
ĠLauf e
Ġsogen annte
ĠGesprÃ¤ ch
ĠGÃ¶tt ingen
ecklen burg
ĠR au
20 14
n ers
g Ã¼lt
sch weig
ĠAus druck
ĠEl ement
ĠVeranst altung
zen s
stÃ¤nd igen
ĠBereich en
Ġge mÃ¤ÃŁ
ĠC ast
ĠC up
ĠG eg
ach im
Ġintern ationale
Ġth is
Ã¼s sen
Ġm ark
Ġgen ug
ĠDeutschland s
rau chen
ĠAuf grund
wa ff
Verein igte
ĠMatt h
ĠgeprÃ¤ gt
U R
an ia
ĠL eute
ĠDem okrat
ĠhÃ¶ch sten
Ġf Ã¤llt
ĠJ etzt
ĠTeil en
ĠVer lauf
ĠP ersÃ¶n
Ġ19 14
ĠStr and
ĠHa ft
schul en
ĠtÃ¤ glich
Verk ehr
ie fe
Ġd o
ler s
Ġle gte
ĠBest ell
ĠWe ge
ĠEr de
ĠSer ver
st Ã¤tte
ĠAn forderungen
Ã¶st lichen
Ġd ank
Ã¼r f
ĠS emin
ĠAn frage
fÃ¼hr en
wir kungen
ĠmÃ¶glich st
Ã¤us ern
w ork
ĠT raum
Ã¼r en
Ġmus ikal
ĠErw achsen
Ã¼ mm
Ġn ational
Ġent weder
ĠÃ¤hn lich
N ame
wor ten
I L
Ċ ĠĊ
in ess
hei mer
allow ed
k ord
ĠD auer
amil ien
ĠEurop Ã¤ischen
ell es
Ġbestimm te
Ñ Ģ
ĠD aher
Ġf ehlen
eg al
Ġ192 7
iel en
Ġ3 3
Z eit
ĠWar en
ĠFÃ¶rder ung
m aterial
Ġer stellt
Ġt ot
ĠFahr zeuge
West falen
Ġbeein fl
Ġ as
ĠP unkten
Ġricht ige
ĠverfÃ¼g bar
ĠRe volution
Ġbeg innen
k rit
ĠBl att
Ġdenn och
Aut or
ĠB ist
Ġver h
cl ub
ĠAbt eilung
Ġitalien ischer
ĠjÃ¤hr lich
ĠA sp
Ã¤n en
ĠMar c
Ġle er
vert reten
hÃ¶ he
I P
r amm
s icher
Ġber Ã¼hm
ur y
eh e
fre und
ĠGesund heit
v ollen
Ġd isk
ĠSpiel zeit
g au
Ġs orgt
Ġz Ã¤hlen
ug h
ĠgrÃ¶ÃŁer en
Ġend lich
A kt
ĠS eb
r ig
ĠJahr zehn
ott o
ĠZentr al
part ner
gent in
Ġt au
ind ustrie
ĠMar ke
ĠgrÃ¶ÃŁer e
z um
ĠD Ã¶r
ot a
end ung
ĠOr te
Ã¼t te
is abeth
ir ge
ĠKÃ¶nig s
Ġverst Ã¤r
p ret
Ġ Î
Ġ Ã¶ffentlich
sch rank
eim ar
stell ungs
D es
Ġm ensch
us ion
ĠMar ken
ĠBundes liga
mitt lung
II I
j en
ei ÃŁ
ĠZahl en
p olitik
. ),
ĠM au
ĠC O
Ġproduz iert
ĠWider stand
Ġprom ov
= "
ĠS Ã¶
Ã¼ g
ĠUn fall
omm ern
ĠTeil nahme
Ġ192 4
ĠBas el
Ġmax imal
ei tern
ic ro
ĠWir kung
Ġfol gten
V D
o ben
Ġw id
ĠAl fred
Ġausge tragen
hand lungen
Ġ schaffen
ĠK ult
ĠGed anken
st on
om et
Ġsch Ã¶nen
Ġeinge stellt
ier end
ĠĊĠĊ ĠĊ
ĠW Ã¤r
Ġge kommen
20 10
n o
ĠS ar
ak er
ĠÃ¼b rigen
ĠDiv ision
F rank
ĠS onne
pl atte
Ġ193 1
ĠPort ug
Form at
p ed
un a
ĠAus land
ĠBro w
ĠW issenschaften
ob by
ĠSh op
Ġdarauf hin
ĠMeister schaft
ĠFunktion en
S C
z eigt
ma schine
ĠGre en
i ation
el and
ĠB art
ĠH immel
Ã¶r ung
arr en
Ì Ī
ĠM em
ĠAuf nahme
ĠTeam s
britann ien
g Ã¤nge
r ein
et ts
Ġp lan
ĠBe w
ĠMo unt
Ġkomm un
Aus zeichnungen
Ã¤mpf en
Ä ĩ
Ġm ilitÃ¤r
Ġzu erst
Ġ192 1
zug s
zÃ¼ glich
S yn
n icht
ĠBl ock
B and
ad o
deut schen
Ġ ag
or ia
it ur
arch iv
gem eine
zun ehmen
ĠL ex
bl Ã¤tter
sph Ã¤re
Ġsu per
ĠGust av
st eiger
ĠW ashington
ĠVer hÃ¤ltnis
Ġc on
ĠverlÃ¤ uft
Ġstarte te
D u
ra fen
Ġr en
gr enze
Ġzerst Ã¶rt
Ġt ief
ĠPart y
Ġb raucht
Ġwar um
lie fer
ĠFrei zeit
ĠRÃ¼ck en
ĠArch iv
ĠKo oper
ar ische
ĠK os
Ġerweiter t
st euer
sp rech
Ġdar gestellt
at o
er weise
Ġfor der
Ġgez eigt
ĠRoy al
st ern
ĠS C
leb nis
ĠIn tegr
be wegung
rÃ¤ um
ĠFran cis
omin iert
wÃ¤r t
Ð¾ Ð
P ol
ĠK ammer
ĠP au
Ġge tr
gemein den
ĠFÃ¤l len
Ġn Ã¤her
Ġkur zen
Ã¤chs ischen
ie bt
19 45
Ġsp rechen
Ġgew Ã¤hr
ĠMet hoden
sh ip
Ġunterschied lich
ĠPro jekte
Ġsp richt
Ġn utz
ss ystem
ze ption
ei ben
amer ika
p ut
Ġper fekt
ĠkÃ¶nn ten
ĠgroÃŁ es
Ġmed izin
ĠjÃ¼n ger
au x
ĠF eder
Ġh Ã¤tten
ĠAl pen
ĠKon fl
Ġi l
Ġr Ã¼ck
ĠStat us
Ġmoder ne
ĠIl l
ĠFrÃ¼h jahr
Ġsp ort
gesch rieben
Ġverlie hen
ĠSchwe den
j i
Ġk o
ĠÃ¼ber ra
Ġ3 8
Or g
j or
ĠD adurch
Ġg ern
Ġver schw
Ã© e
ĠBes atz
ĠHam burger
ie m
ĠW appen
ĠGer Ã¤t
Ġch rist
Ġreg ion
bed ingt
M L
h orn
ĠT ore
Ġt oll
rÃ¤ gen
Ġman chmal
anc en
Ġs org
ial e
arr y
cri ption
Ġf ein
ĠH on
ach s
ho ff
ue ber
ĠMil ch
ie ger
em e
ĠI dent
ĠMa ster
Ġ rot
ĠD inge
ĠG au
Ġer mÃ¶glichen
ĠFr ont
son sten
ĠLu c
Ġâ ĨĴ
l ant
Ä ±
ĠK urt
ĠC ent
Ġ192 6
Ġbesonder en
ĠMein ung
E m
P rÃ¤
g reifen
ĠGesch ichten
ĠBed ingungen
er b
ĠG rÃ¤
ĠFor um
ĠEd el
Ġgar ant
Bau werk
ĠH au
ĠAn spruch
ow ski
wend ungen
Ġus w
n ant
Ġs inn
ĠZ ul
wer ken
20 11
ĠBild ungs
med izin
Ġzie hen
E C
o e
Ã¶ ss
mann s
ĠgehÃ¶r ten
k op
ĠMar ie
vor sitzen
organis ation
ĠN ahr
Sch wei
ĠB ert
ĠBund est
p erson
ĠK iel
ĠE ck
Ġk Ã¼nstler
Ġdeutsch sprach
ĠBl au
ĠGra fen
ĠKombin ation
Ġver kauf
ex t
Ġbel egt
Ġreich t
Ã ´
Ġn Ã¶t
ĠEr b
ĠBenutz er
ĠSt ift
vers icherung
ĠGer hard
i ber
ĠO ri
Ġjem and
st ant
ĠSo und
ĠErz bischof
) )
Ġver br
art ig
b orn
ĠR ab
ĠL ust
Ġauf zu
ĠEigen t
Ġamer ikanischen
dien ste
ĠL eiden
Ġl Ã¶
ĠSo uth
sÃ¤tz lich
en g
ĠÃ¼ber tragen
auf nahme
ĠGer Ã¤te
lan de
ĠFac ebook
ĠJak ob
ĠSch on
Ã¤n ner
Ġzum indest
Ġ3 4
Ġentst eht
gesch Ã¤ft
Ġgegeben en
ĠNetz werk
p asst
ĠAb schnitt
ak a
ĠSoc iety
Ġeinger ichtet
st ation
ĠGr enzen
ĠZeit raum
ĠBas k
Ã ±
ĠHer stellung
ĠPlan ung
Ġfal se
ĠSied lung
Ġg ingen
E hemal
z esse
Ġbek am
ĠFahr er
S T
ro at
Ġsch reibt
Ġentsprechen de
ĠZug ang
ĠGe walt
ĠGrÃ¼n den
Ġempf ehlen
ĠF a
ho fen
ĠIs land
R ad
in ken
rie ster
iz ierte
ĠBern hard
ĠMaÃŁ nahmen
B es
Ġ19 12
mit h
ĠKn oten
Ġrech ten
Ġg alt
Ġan erk
ess ern
Ġbrit ische
d ach
ik ations
Ġ4 2
akt or
Ġ att
Ġber ichtet
az on
ĠAc adem
fÃ¼l len
ĠBraun schweig
Ã¤h ler
Ġlin ken
ĠMÃ¶ bel
Ġnotwend ig
eu ert
Ġst anden
ĠÃ ī
Ġbeg onnen
ĠMax im
din and
d is
Ġw uchs
ĠB reite
Mus ik
ĠF igur
Ġn atur
ĠL ig
Ġauf gerufen
Ġt Ã¼rk
ĠAuf ent
ĠTod es
h te
k urs
ĠJ Ã¼rgen
Ġ19 11
wer den
Ã¤ st
ĠH Ã¤user
Ġab zu
ĠTex te
ĠEr weiter
Ã¤l de
ĠFranz Ã¶s
ĠPap ier
ĠSchwer punkt
mod ell
ĠMe tern
Ġerz Ã¤hlt
ĠhÃ¶ch ste
ĠM und
2 000
g ie
ĠF le
ĠW M
and a
ĠDes halb
ĠNutz er
â Ĥ¬
ĠL ieder
ĠAn bieter
Ġ4 8
rÃ¼ st
Ġben utzt
lÃ¤ss lich
k om
Ġs amm
ĠChem ie
ĠS ur
Ġ7 5
ĠBei de
ĠAut ob
Ġ192 2
hand lung
ĠRhein land
Ġerforder lich
s se
Ġun er
ĠBet eil
prÃ¼ ft
w es
hal ter
ĠBe weg
ĠKap elle
F C
ar akter
ĠK ing
Ġersch einen
ĠKap it
b Ã¼r
ell i
ed ig
Ġ192 3
Ġ Ã¼
Ġ6 5
Weiter e
O n
Ġw achsen
ĠP or
ist ent
ĠTh Ã¼r
ĠVers icher
at in
ro ck
Ġweiter es
bo x
ĠfrÃ¼her en
ĠprÃ¤sent iert
ĠVerÃ¶ffentlich ung
Ġwes entlich
ĠM obil
ber eit
ĠD ien
Ġer l
Ġheut ige
ĠComm un
ĠF Ã¤h
Ġer laubt
Ġhin gegen
ĠNieder sachsen
ĠSchm idt
o h
sch irm
ĠP ri
Ã¤hn ung
ĠT ief
br Ã¼cke
p ul
au ff
ĠD ich
Ġan al
Ġverb reitet
ĠDisk uss
R ei
s wert
Ġs an
ĠEn gl
ĠBer atung
ate ur
Ġmit einander
Ġaus reichen
d s
wir t
Ġklein es
ĠE du
ĠOr tschaft
Ġgew Ã¼n
reu ung
ĠAnt wort
R O
u ff
ĠsÃ¼d lichen
art igen
fol gt
rich ter
ĠEl emente
seit ig
ĠSow jet
Ġk ombin
ĠAn h
Qu ellen
ifiz iert
ĠB ord
A ug
L iste
ĠW Ã¼rz
ĠJ a
Ġan hand
ĠâĢ Ķ
ĠDie t
Ġgest alten
f rieden
ĠB ol
Ġp reis
fen ster
bo den
B et
o und
ot el
ĠGel egen
ĠK as
ĠJ agd
la pp
Ġvor gesehen
Ġunter wegs
fÃ¼ gen
U r
ĠS eg
Ġn eg
aus schuss
ĠLe on
Ġverb esser
d y
s ab
ĠVer k
ĠEin heit
ohn t
ĠEin ige
wer ben
ĠNord rhein
spl atz
ĠP ok
Ġso w
ond s
D em
ĠVer gangen
eu ten
ĠGr Ã¶
ĠVor gÃ¤nger
ger s
sb aden
ĠLe der
ĠVide os
liegen den
Ġor ient
ĠStell ung
ĠHeid elberg
ĠK Ã¶
ĠGes icht
ĠZw eit
t o
sb ach
ĠVers and
ĠRec ords
m ut
ĠSchl Ã¼ssel
ĠFahr t
200 8
utt on
glieder t
Ġfre und
zep te
fur ter
om an
bau er
200 9
stit ute
Ġzeig te
au lt
ĠE rot
ĠUn ternehmer
ĠRe fer
200 7
ul gar
Ġvor aus
ĠMin er
atÃ¼r lich
schlÃ¤ ge
p olit
s wahl
Ġw eder
Ġp ort
od es
Ġletz ter
ĠGroÃŁ britannien
anst alt
ĠBÃ¼r o
Ã £
ĠM Ã¶n
ĠHein z
ph an
med aille
Ġricht igen
m l
ĠE uch
il s
ann ter
ĠU ser
zeich nen
ĠAustr alien
B A
il a
Ġh e
denk mÃ¤ler
Ġleb ten
ĠImm obilien
k y
Ġb auen
ĠH ell
ig ner
ann en
ĠBed arf
sp rÃ¤
Ġl ern
ha ften
w och
ĠMod elle
t or
ĠG olden
ag ne
Ã¼t t
Ã¶ff nung
af el
Ġsow jet
ĠC enter
ch ten
Ġd ienen
ĠS oll
Ġbe ant
Ġaus gel
ĠBe ziehung
Ġunser es
ĠMo de
str om
ĠlÃ¤ uft
k ul
st edt
ĠF la
Ġver sehen
ĠRe aktion
Ġbet rug
ĠHo use
Ġgemeins amen
ĠM isch
Ġf ile
m lich
Ġan gen
ĠIn gen
ri z
ĠSchl uss
ĠEl isabeth
Ġ ?
rat is
ĠPr im
Ġverst ehen
Ġweit gehend
Ġautomat isch
ĠS ab
ĠStud io
ĠEhe frau
p al
Ġbe weg
ĠLe op
ĠHot els
ict ion
N ord
ĠD ichter
est en
ĠSie ger
ĠAd olf
200 6
Wir tschaft
Ġfr om
ĠIns gesamt
Ġend gÃ¼lt
Ġeinzeln e
ĠDetail s
sp iegel
w uchs
ĠUn ser
ĠEn glisch
ĠQu elle
Ġerst re
th ur
ĠS ei
ĠAn f
ow a
Kl asse
ĠÃ¶sterreich ischen
Ġelekt ron
D P
I M
Ġw eist
Ġb ist
ĠÃ Ĺ
vers orgung
Ã¶rder ung
b ett
w Ã¤l
at al
ĠSch riften
ĠAng st
C o
ein s
ug el
g y
s eiten
Ġg eist
Ġ5 5
Ġges ellschaft
ĠStud ie
ĠWochen ende
ĠAllt ag
ĠA achen
Ġin nen
ĠO x
inder t
c u
ĠS em
le d
ĠUm setzung
gesch lagen
ĠG lauben
ĠSt Ã¤r
ĠSp itze
ian o
av e
ĠEigen schaften
Ġober en
u ellen
ra k
ĠRei sen
erv ice
** **
v iel
on isten
arb urg
ock en
ĠDarm stadt
ĠÃĸffentlich keit
ill on
ĠTÃ¼rk ei
g raf
and t
ĠÂ ·
us en
re form
ell igen
ort s
Un sere
ĠGest altung
ĠPublik um
n es
Ã ½
ĠF reude
Ġbe endete
ĠSe c
t ur
z wei
Ġk auf
ĠÃ¼ber w
Ġru h
Ġs Ã¤m
ot ische
ger Ã¤te
onen ten
oot ball
C O
I V
J Ã¤hr
Ġn amens
ach bar
T r
or b
Ġnach halt
Ġ3 7
Ġviel fÃ¤lt
Ġdah in
Ġtro cken
F unktion
m ir
in u
Ġent schieden
ks hop
ell schaften
Ġsch rift
ĠFer dinand
ĠEng agement
ĠArchite kten
ĠSt unde
ĠErz Ã¤hl
k r
Ã ¥
er er
Ġwir kt
ĠGe fÃ¼hl
ĠFl Ã¼cht
sk a
ĠGesch mack
ĠHen ry
Ġtrotz dem
if ic
It alien
ĠA T
Ġlie f
st eigen
ier re
Ġ19 13
ĠP S
qu enz
ĠSer ien
ĠerhÃ¤lt lich
ei ern
em ark
we ge
Ġnahe zu
Ġgepl ant
ĠKamer a
ver lÃ¤ss
ĠPro p
ĠBo ok
ĠSchiff e
p aar
Ġm aÃŁ
Ġf ot
pl atten
ĠViel zahl
Ġsozial en
ĠBek annt
H aupt
b liche
Ġt rifft
gr Ã¶ÃŁe
Al l
ĠBab y
b ack
ol z
ech ten
Ġ3 9
io de
Ġ190 7
Ġ190 8
ĠLin ien
ĠWind ows
Ġl Ã¤ng
ĠUn garn
m ie
o ks
ĠR ett
Ã© r
ĠGro up
amp e
ĠSalz burg
In ter
orden s
min ist
J uni
at us
ĠV ict
ĠBer icht
ĠQu er
Ġkon k
ie fen
Ġver geben
Ġver lieÃŁ
Ġstell vertreten
ĠFil me
ĠS us
Ġsol chen
Ã º
ĠV illa
ger Ã¤t
Ġs ub
ĠZ ent
ĠSch uhe
fÃ¼hr ten
zie ht
ĠWie sbaden
ĠMaterial ien
v o
Ġbe qu
Ġbis lang
reu e
unter richt
ĠSchn ell
an ke
Ġw Ã¤hlen
ĠC lau
ĠSp itzen
ĠstÃ¤r ker
Ġin stall
ĠW Ã¼r
ĠR ollen
ĠPartei en
Ol ymp
f le
ĠS au
Ġj ahr
gr enzen
form ationen
ĠGeb rauch
upp en
ĠrÃ¶m isch
Ã¼ te
ĠSchau spiel
Ġspez iell
ĠVergangen heit
N ew
c en
ĠW ag
he bung
Ġjeder zeit
ĠG anz
ber echt
ĠL y
ĠSch a
ĠÃ¼ber nehmen
ĠCh ance
Un ternehmen
hin dern
Ġwest lichen
ĠM ecklenburg
ĠBe ziehungen
ief el
ĠVers uch
Ġeinge fÃ¼hrt
ĠArchite kt
ouverne ur
t reten
z iger
ĠD Ã¤n
ĠW Ã¼n
Ġges und
Ġerw arb
Ġstar ken
L in
ĠK redit
Ġl eitete
Ġp df
Ġbes itzen
ĠEnt fern
umen ten
Be schreibung
g ol
ĠP u
ĠN och
ro chen
ĠKon gress
ĠDurch messer
Ġitalien ischen
sp f
ĠSp iegel
Ġsp Ã¤t
ha i
ĠBi bliothek
bÃ¼ cher
angeb ot
iel ler
ende ten
ren g
ĠPfarr er
far ben
ĠB io
ĠThe orie
ĠMÃ¼n ch
Ġnah men
ĠLebens mittel
ĠGro ÃŁe
ĠZu schauer
akt oren
geord net
bed ingungen
ĠAutom obil
Ġwir kte
ĠÃľber setzung
schei det
a frika
p lay
Ñ ģ
ik i
ĠNach richt
C ode
F in
c ol
Ġd Ã¤n
St ud
off iz
Ġengl ischen
ĠQualif ikation
k ammer
ĠK assel
hn ung
geb nis
ĠAus nahme
str al
b ran
ĠUn abhÃ¤ng
ran ge
ĠFran ken
lo ck
Ġkon zentr
i oren
st Ã¼cke
ver k
Ġdurch schnitt
ĠAuf lÃ¶sung
ĠHer kunft
h aben
Â ®
eite ten
Er baut
ĠpersÃ¶n lich
p ubl
od urch
Ġklass ischen
ĠEin richtung
bahn hof
D E
ĠN ah
sp lan
Ġun be
ĠAn lagen
St raÃŁe
F ahr
Ã¤ ÃŁ
ĠZ iele
ĠZ ivil
ĠGe fahr
B eim
st Ã¤d
Ġein geb
ud es
ĠOr dens
Ã£ o
B o
on ien
ĠM auer
re ff
ĠIntern ationalen
ĠRes erv
S a
d auer
all o
rit ter
ĠzusÃ¤tz liche
ĠVog el
ĠNeu en
F rei
Ġf ach
ĠEin richtungen
rain ing
b indung
ĠT w
ĠFÃ¼r sten
ĠIs rael
ĠDist rikt
Org anis
ol ine
ĠBru st
ĠUl rich
b und
r ollen
ĠBe wohner
In tern
ĠPrÃ¤ sidenten
Ġel f
ĠGrÃ¼n der
ĠAss oc
low ak
ĠD ownload
Ã¶ die
gra ben
ĠMos kau
y th
ir che
ĠMar ine
N r
ĠH ill
Ġr om
ĠRei hen
ĠScien ce
Ġgleichnam igen
ĠGeg ner
v in
ĠP rag
Ġver kehr
lie ger
ĠBes itzer
Ġvers uchen
ĠEm il
Ġpriv aten
ur ts
Ġm ar
Ġber Ã¼cksicht
ĠWeltkrieg s
fÃ¤h igkeit
Ġd at
Ġw odurch
ĠM oment
20 19
Ġgen ieÃŁen
ub il
ĠT ats
zen en
Ġab geb
ĠSÃ¼d westen
Ġ190 6
ĠkÃ¶nn t
K W
ĠA cht
sen z
sp ez
Ġp asst
ĠEin sch
sk y
ĠDort mund
zuf Ã¼hren
ch te
stell ten
wor tet
Ġstar ke
Ġerwar tet
ĠOrd nung
f abrik
l Ã¶
Ġer hoben
Ġnie dr
ĠEben e
h em
el en
il de
Ġk inder
ĠArn old
ĠM icro
ĠV ari
Ġ2 50
Ġt ritt
he orie
ĠNeu bau
ath ar
Ġs ech
Ġbe grÃ¼n
Ġander es
ition en
hard t
Ġ4 4
ĠFor st
j ew
v i
ul d
lin der
ĠMar gar
olog isch
Ġ190 5
Ser ie
ĠBayer ischen
m Ã¼hle
ĠK anz
usÃ¤tz lich
ĠÃ¶ff entliche
pla te
ĠFernse hen
ĠP re
wei st
wei ÃŁ
wei ht
ĠProf il
ĠNik ol
gen de
ĠP en
ĠRegion al
ĠerklÃ¤r te
ĠFak ult
ĠM esse
ĠZ oll
ĠĊĊ ĠĊ
ĠKont rolle
ĠnÃ¶rd lichen
ĠT Ã¼b
is a
Ġfrei en
rÃ¤n kt
K an
er o
Ġbe h
ĠRu he
ĠSmart ph
Å «
Ġf eier
ĠJ os
ĠVer arbeitung
ĠAl so
Ġher unter
ĠMont ag
ich ert
etz ten
D aten
k rieges
Ñ Ĥ
ĠA re
ĠP ul
ro st
se ud
ĠZ erst
ĠG ymnasium
ĠV o
Ġpriv ate
ĠB ier
Ġh Ã¶ren
Ġan gelegt
end s
fÃ¼hr te
hau se
Ġreg istr
ĠDial og
ĠBask etball
f amilie
s ur
ver zeichnis
M in
ĠH ig
ĠH ub
ir urg
ĠSt ation
mal er
ĠBed Ã¼rf
The ater
Ġfunktion iert
iar den
S te
r ik
ĠF ass
I A
w echs
ber icht
eb e
ĠNord osten
ĠKat hol
elig i
z o
Ġt schech
zahl ung
ĠFahr rad
200 5
ĠAktiv itÃ¤ten
ĠLeop old
z one
sch i
au ert
ĠB ass
Ġex trem
ĠErk rank
O P
Ġp ubl
Ã© n
Ġdar um
Alb um
In stitut
Ġeigen es
Ġhistor ische
ĠS ache
ĠT ipps
ĠMu ster
ĠKranken haus
ĠBesonder s
Å Ļ
ĠAl p
ech ts
ĠTa schen
ĠPfarr kirche
Ġexist iert
Ġerinn ert
l ings
Ġun gefÃ¤hr
aus stellung
enn e
wer tet
Ġverb essern
R E
w itz
st ift
ĠS ym
ĠF iguren
her zog
ĠThe odor
Un ser
Ġho her
us sen
eh lt
ran s
hol en
ĠEurop ameister
ĠBÃ¼ hne
r oll
Ġle gen
ĠAnt rag
ĠVerb esser
umm ern
ĠDeb Ã¼t
st ahl
ol ogen
D N
acht ung
ĠKon kur
Ġgef ert
ĠRÃ¼ck kehr
g ing
ĠP riester
ĠThe ologe
ĠBundes republik
f els
Ġ ueber
ĠSch aden
ĠSch nee
ist ischer
eg ten
ĠEr schein
Ġeinfach e
r Ã¼cken
ĠHistor iker
Ġor ig
lad ung
b ul
ier er
ĠSchles wig
Ġzu frieden
Ġgeb ildet
ĠStre cken
ategor ie
st aben
ĠA frika
ĠF Ã¼n
Ġf allen
and elt
ĠGegen wart
unn el
ĠRestau rant
it ation
rÃ¤ umen
Ã¤r ten
ĠGra z
arm on
ĠUntersuch ungen
e te
ĠG ang
ol i
eich e
c ia
d ate
le bt
Ġt rug
qu alitÃ¤t
O L
ĠO ne
Ġt olle
etz te
ĠOber st
ĠArch Ã¤
lÃ¤nd ische
Ġmax im
Ġoffiz iell
ĠUntersuch ung
em p
Ġm Ã¤nn
ĠKomm ission
ĠHe er
5 00
sch icht
gen er
ĠW eimar
ĠR od
ad s
ot iv
Ġwir ken
Ġzie ht
Ġgemeins ame
G ew
ir us
ĠJo achim
Ġgest altet
ĠHeraus geber
grÃ¶ ÃŁ
p osition
Ġin nov
ab t
kl ei
ĠBr Ã¼cke
ĠT herapie
Ã¤t t
Ġbet rieb
ĠbestÃ¤t igt
ĠTenn is
G ener
z n
ĠGemein schaft
ĠSprach en
Ġwicht iger
Z w
Â ´
om aten
ĠAn dr
mer kungen
ive au
ĠCD U
K urz
ĠL ipp
ell o
Ġunter en
Ġbil dete
J ul
m and
um in
teg ie
ĠH unde
Ġver urs
lig isten
ĠMot iv
Pl atz
T S
Ã¼ se
ĠV aters
Ġun ge
Ġre ag
fr ont
ĠBesch Ã¤ft
M eister
a ct
h eute
k Ã¼nft
ĠS on
ĠA R
il ber
auf hin
ĠRe v
Ġbes uchen
reg ion
Ġwicht igen
Ġ ðŁ
Ġge fallen
ĠBild hauer
ĠSim on
ab teilung
Ġun bedingt
ekt ar
ĠMed ia
200 4
ko hol
ĠKan ada
ĠChe f
ĠgÃ¼nst ig
ĠZus atz
P ort
Ġl aufen
ĠMar ien
ĠT un
ĠL ein
ord net
ĠHand buch
ĠMin ute
oten t
mo sphÃ¤re
z ellen
ie ten
ĠA qu
ĠM io
Ġh aus
Ġan gesehen
Ġt Ã¶
Ġerh ielten
ĠLa w
ĠFall s
Ġkomp lex
ĠEing ang
ĠInstr ument
D ar
Ġein s
ĠL Ã¶sungen
ĠU k
ĠKategor ien
Ġein zu
ist an
ert al
Ã¤ch er
Ã¼nd ungs
ĠForm el
eten z
Ġinform ieren
Ġhil ft
ĠBras ilien
Ġv ierten
ĠD omin
Ã© t
ma il
ĠSeb astian
u ste
sp recher
ĠFlug zeug
bie ten
g as
h eil
ĠD ok
de st
ĠP ir
Ġk g
ĠN ag
ab elle
id o
Ġbesch reibt
ĠBron ze
al tete
at i
ĠG riechen
ĠT rÃ¤ger
ĠAn z
H L
s eits
y si
ĠAd els
gehÃ¶ rigen
r al
Ġd ek
or weg
Ġ19 17
ĠTab ellen
Ġzie mlich
Ġgelegen en
P er
ĠB och
ĠW egen
ĠN a
ri an
Sch riften
ĠJournal ist
ar io
or fen
ĠK le
ĠAn alyse
Ġab ger
reich er
F r
k k
Ġer stellen
Ã¶r ungen
fl Ã¼gel
ĠSong s
ĠPrinz ip
ĠjÃ¼d ischen
h et
ach ung
ĠEin z
rau cher
ĠSchw ier
ĠEx empl
app e
H aus
Ã ł
st eine
ĠR am
Ġver ur
verstÃ¤nd lich
ĠWÃ¼rz burg
h Ã¤ndler
ĠB M
ĠP reuÃŁen
ĠIn stitute
ĠDir ekt
__ __
D ollar
ĠM eg
ĠF ans
ĠH ock
ĠV it
ĠSt att
Ġzwei mal
ÃŃ n
steh ung
t itel
Ġein iger
Ġau stral
Ġer leben
he ber
Ġger inger
ĠFrei heit
deut sche
ĠDon ner
Die ses
lei hung
ĠStÃ¤d ten
Welt meisterschaft
A B
Ġb ar
Ġm Ã¼n
Ġn ominiert
Ġwar ten
wir kung
Ã¤ng nis
rÃ¼st ung
k ern
ĠL ind
Ġp hil
ĠSp eicher
id es
akte ur
Ġzunehmen d
ĠS ig
Ġg uter
ĠSch mer
ay a
ĠfÃ¼hr ten
ĠpersÃ¶n liche
Ġ echt
st ad
ĠK Ã¼n
Ġdes cription
ss el
ĠFilm s
ĠGener ation
ĠAcadem y
Ġ Ã¤ndern
ĠS P
Ġh ell
ĠHer bert
Ġwel chem
bo ard
maÃŁ nahmen
kathol ischer
M on
ĠL ove
Ġk re
ĠCh ic
ĠAm azon
ĠChr on
ĠHaus es
ĠVert rieb
ĠLes er
k unden
ĠK ey
kl eidung
b eit
k Ã¼r
Ġb rauchen
ĠW ell
ĠT ok
ĠFl Ã¼gel
Ġdar aus
ĠÃľber sicht
ĠExper ten
r in
ĠD ampf
ĠW it
ĠBe ob
Ġges agt
imm ungen
Er st
ĠInf os
ĠKomment ar
ĠF it
ĠEin heiten
Ã¤r t
alt h
ĠAug sburg
f ot
Ġverschieden er
ĠBus iness
achst um
F ran
ĠA ct
ĠM ig
Ġver Ã¤ndert
ĠBe ck
ub eh
riff e
Be vÃ¶lker
ĠMatth ias
Ġ !
ĠHer zen
ĠMo dern
geord neter
ĠPrem ier
W il
ĠM ission
ab et
Ġ4 3
ss on
Ġjapan ischen
ĠKarls ruhe
h ler
ĠK rieges
ĠHil fs
Ġgl Ã¼ck
A F
Ġin spir
ĠIn itiative
est e
aus gabe
Ġum ben
ub a
ĠDa fÃ¼r
Ġ190 3
veranst altung
k Ã¼nd
od y
ĠRe zept
ĠIhr es
ĠRo h
Ġ190 4
ĠGeschÃ¤fts fÃ¼hrer
ĠGeist licher
D I
Ġvor gestellt
Ġber ufen
Ġges ucht
Ġange zeigt
schrei ben
Ġkommen den
Ġbas iert
K omm
l Ã¤nge
Sch w
ma ÃŁen
ĠOb wohl
ĠInf rastruktur
ĠFlÃ¤ chen
ĠK amp
ĠV f
Ġk ennt
ograph ische
ĠNieder l
yl v
ĠTÃ¼b ingen
b aus
Ġver n
Ã¤r z
ĠMark eting
- /
st Ã¤tten
Ġzu kÃ¼nft
Ġver hindern
ien z
ĠOr den
Ġet abl
pr ession
ikan ischer
Pf alz
f tet
l or
t rainer
Ġ endete
em pf
op s
ĠSÃ¼d osten
Ġruss ischen
sch wer
Ġs ystem
ĠSch le
Ġlang sam
ĠEU R
Aug ust
Ġh alb
ra te
wei ler
Ġj ung
ĠJur ist
g i
ein heit
ĠZ un
ess our
ĠFl eisch
eck t
ĠCo ok
bereich e
verein s
ĠMex iko
F re
L ie
setz te
200 3
lehr e
sek retÃ¤r
ĠS ort
ĠH Ã¶ch
ĠVer stÃ¤nd
ver hÃ¤ltnis
sb ed
iffer enz
Ġge tragen
ĠBr enn
Ġhtt ps
F alls
h ar
o ir
ĠKunst stoff
Ġ190 9
Ã¡ s
ĠInf anter
V P
k in
Ġau ÃŁen
ĠG ot
is ieren
ĠSek unden
ĠE ber
Ġf rauen
Ġt reten
ri te
far be
L age
Ã¤ ure
as ino
ĠR uf
is on
ĠAus gang
ĠQu adrat
ĠAlter s
ĠViz e
Ġbehand elt
H eute
Ġk om
ĠEin kauf
Ġ190 2
deck ung
ĠHe ft
verband es
E P
Ã¤ fer
Ġl auf
zeit ung
ĠFer r
ĠK linik
ol o
ĠH yp
Ġdurch aus
In d
Ġ6 4
Er ster
ĠJac ob
ĠLeicht athlet
ap el
land es
ial isiert
ĠSommer spiele
ĠK eller
ir d
Ġauf gelÃ¶st
ĠFrank furter
eucht ung
aliforn ien
I G
k g
Ġb au
Ġein schlieÃŁlich
ĠFl ucht
ĠNord westen
serv ice
ĠK ost
Ġzu stÃ¤ndig
ĠAr g
Ġlie ben
ĠNew s
aff el
P olitik
m as
ĠS ymbol
ĠW in
ĠVer z
Ġunter scheiden
ok us
ĠAll es
Ġoffen en
Ġbetrach tet
H istor
sch ten
at ch
ĠK ard
ol in
ĠH ab
ĠR et
Ġbe achten
Ġst arten
enn fahrer
itÃ¤t s
hau p
ĠKÃ¼ chen
ĠMark us
ĠDon au
A pp
E M
ĠAn al
ĠSp e
aus o
ĠMag de
ĠEntwick lungs
Ġsh ort
d ner
Ã¼ gt
her ren
F ol
Ġauf gebaut
ĠkÃ¶n ne
ĠOrt es
Ġtechn ischen
am at
ĠDie ter
rÃ¤ cht
ick s
Ġ6 00
ĠT Ã¶ch
ĠL ern
ĠZ y
ĠZ it
be schreibung
ĠMitt woch
Ã¨ re
ĠPfer de
b ahnen
ĠG rau
ĠG olf
ĠH ug
ĠL en
le ut
ĠCl ass
M art
g Ã¤ng
t al
ĠGe schenk
Jo hann
ĠKooper ation
p ap
Ġn ennen
ra st
Ġgesch Ã¼tzt
Ã¼l l
Ġbein hal
ar ia
Ġw echseln
Ã¶ ck
ĠSt urm
Ġsch lecht
ĠAm ster
teil s
prÃ¤sent anten
Ġdisk ut
ĠK Ã¶r
ĠO t
Ġ4 6
rit or
spro gramm
ĠS zene
Ġh off
Ġver p
Ġst at
ĠbenÃ¶t igen
S eine
g s
ĠH orn
Ġzu ge
ick er
ges prochen
S u
c ess
gen Ã¶ss
ĠP ast
is ation
Ġr aus
An t
Ġpass iert
W ert
ĠM ord
ĠM id
ĠP anzer
ft ig
ĠBundes staat
Ġverb indet
ĠmÃ¶glich erweise
ĠServ ices
Ġindividu ell
sprechen d
Chr ist
iw od
ĠLex ikon
ĠP ra
ĠN ie
zen ten
Ġ4 9
ĠÃľber blick
ĠOrg an
weis ung
ĠElekt ron
ĠP rÃ¼fung
sp olitik
ĠRo ten
Ġe vent
Ġen glisch
ĠIns eln
B erg
c er
ĠP rÃ¼f
ĠJ on
eb el
olog ischer
ĠLie bl
kon om
ĠBestand teil
ĠVarian te
K unst
ach ter
is st
gesch n
ĠBo ot
Ġben achbar
k Ã¶rper
ĠF u
ĠJ ud
eu ern
qu elle
ĠReg ionen
Ã¶l l
ĠMik ro
aus bildung
ĠPl atten
ĠBahn strecke
ĠBÃ¼ hnen
dar steller
sert ation
. ).
D isk
ĠT own
eich ern
ĠHoch zeit
mit glieder
ĠInform ations
H e
a schen
Ġb lieben
Ġin klusive
ra ine
ett o
Er folge
schau en
ĠDat um
st Ã¤nden
re ut
Ġvor ber
Ġhin ein
ĠBar on
fre ie
Ġverpflich tet
m ag
ĠM ech
ĠM assen
Ġl es
her steller
ĠKap ital
B Ã¼rger
ĠE arl
Ġan gel
ĠVer n
war en
ĠComp any
Ġengl ischer
ĠÃ¤lter en
al ia
Ġer zeugt
ĠN R
ĠRe de
Ã¼t ter
St art
ĠUm gang
ĠEm p
Ġerw orben
ĠFakult Ã¤t
ubeh Ã¶r
Ġ ter
Ġg ratis
Ġver anst
ha il
Ġ8 00
Ġperson en
Polit iker
Ġf arb
isch t
sen der
Ġbe c
Ġst eigen
Ã¶r dern
ĠPort rÃ¤t
ĠBevÃ¶lker ungs
---- ----
ĠJust iz
ĠVerÃ¤nder ungen
W erk
in ten
Ã¤ b
Ġt raf
ĠGeb urts
ĠFre e
ĠMill iarden
ĠPo wer
Vers ion
ĠSÃ¶ hne
M ark
ge gangen
ĠW urz
ĠL ast
Ġab gerufen
id s
ĠInd ividu
ĠPer spekt
ĠLauf bahn
ĠTre ffen
ĠTab elle
M o
Ġ rad
or es
utz ung
r iss
Ġ Ä
Ã¤ ck
ĠB an
ak u
Einz el
druck t
is at
Ġg Ã¼lt
Ġt rain
ĠAus einander
ĠMit gliedern
Ġe ffekt
Ġbegl eitet
gestell ten
Te am
k at
ay ern
ĠAben teuer
Ġkleiner e
ĠKolle gen
ĠjÃ¼n g
Ġkathol ischen
Organis ation
B el
Ã «
ĠS mith
as ilian
Ġm orgen
ĠT irol
ĠEin en
usst sein
ĠSt imme
ĠSÃ¤nger in
g g
ra c
ĠDurch schnitt
ĠSk i
Ġpl atz
ĠVort eil
ĠMathemat ik
ĠS et
ul pt
ĠBe wertung
ĠAb itur
Ġtechn ische
Ġgrund sÃ¤tzlich
ĠAst ron
L a
ĠF unk
Ġ( ,
Ġk Ã¶rper
Ġan genommen
ot ter
ĠEr folge
iz ieren
ĠLand schafts
licher weise
fÃ¼r st
Ġch em
ĠSl ow
iwod schaft
I d
ĠVer eine
inz ip
ĠEnt wurf
alb um
ĠHelm ut
Ġatt rakt
S k
Ġf lie
arb eitete
ehn t
ĠSant a
j on
Ã¤r m
iz e
ĠGr amm
ĠFl ag
ĠSchn eider
Ã¤mpf er
ĠAngel es
al it
ĠB ein
Ġausge fÃ¼hrt
forder ung
Ġschwer en
Ġbisher igen
ĠSoc ial
B ad
ĠR Ã¶m
bar er
me er
ĠBl umen
ĠUnter schied
ĠRu hr
k as
be cken
ĠAr ts
alt ungs
yp en
ĠMuseum s
ĠInn ov
Ġbec ause
ĠD ein
et he
ĠMon ument
ĠWeiter en
Europ ameister
S en
m ess
re en
Ġbe endet
ĠKon rad
S ehenswÃ¼rdigkeiten
ĠD ol
ut s
ĠC ur
âĢľ -
anz ig
Ã¼t ze
Ġeinz igen
E hr
ĠF ul
re gel
ĠRe form
Ġ189 8
urop a
histor iker
J an
K inder
n eu
er r
ĠP od
ĠSch ach
be f
St ring
ĠBr ig
hol m
Ġgem Ã¼t
Ġvoll er
forder t
Ġver ab
Ġaus fÃ¼hr
ĠMar y
ath on
S c
i Äĩ
Ġ19 16
ĠC amb
Ġver fÃ¼gen
ing u
Ġsch Ã¼tzen
ard o
qu es
ov a
ĠPl us
ĠDan eben
ĠChic ago
ĠL iter
Ġzu geordnet
ed ikt
Ġ189 0
ĠKomp osition
ĠTem pel
ĠAbgeord neten
Ã¶ z
Ġher um
pro f
ore a
p rÃ¼fung
Ã¼ ÃŁ
Ġauf gestellt
ot ion
ĠEr ste
âĢľ ).
Ġteil nehmen
Ġvers uchte
ĠAkt ien
ĠKommun al
ĠBon us
ĠÃĦnder ungen
Ã¼ ÃŁe
Ġ19 15
ĠC y
ob el
ĠThe ologie
ĠGemein der
ĠSte phan
igh ts
Ġkor re
ĠAssoc iation
m auer
ĠF ell
Ġst Ã¤ndig
Ġpro blem
M ich
un s
ĠSch ne
ĠKon zer
ens ion
ĠVerantwort ung
p ass
en gl
ĠS auer
ĠG lei
Ġh a
os a
ĠBe am
ont o
Ġger ing
echs elt
ĠBeh Ã¶rden
komm t
ĠMeer es
ĠLok omot
d lich
Ġer geben
ĠAus stattung
ĠAd el
opp elt
ĠKÃ¼ hl
Ber eits
ĠerhÃ¶ ht
O T
j u
o ire
r as
ĠA dresse
il en
ĠAus bau
pro jekt
ĠVerlag s
ĠSchm uck
ĠunabhÃ¤ng ig
ĠM iet
Ġer mittelt
Ġan f
Ġhin ten
200 1
Ġland wirtschaft
Ġm et
Ġver gessen
sb urger
ĠCo de
200 2
ĠJuli us
ĠInd ien
Ġverk aufen
on i
ĠK Ã¶n
jahr es
ĠOri ent
K o
b te
Ġden k
Ġg u
pp ich
======== ========
Ġd Ã¼n
ĠL it
Ġk Ã¼nft
Ġp ost
ĠY o
ĠRat haus
f ield
p ost
ĠA ff
ĠM ut
ĠL ag
ĠAn gabe
par atur
ide os
Ġex tra
ĠWohn zimmer
Gr und
sto ffen
spann ung
ziehungs weise
Ġein deut
ĠN omin
ĠWir ken
min ton
Ġgleich e
bach er
ĠSu bst
ĠHerr n
Ð º
Ġaus drÃ¼ck
Ġst abil
ial en
fahr zeug
co unt
Ġreg ul
A ber
b lichen
is ierten
ik um
ĠIn dex
ĠMon te
ĠTechn ologie
ĠWor kshop
O C
ĠB ell
ĠEr ich
Ġ4 1
nis sen
erk ennung
mitt ag
Ġum geben
amp en
ĠBest er
ĠLehr e
ĠTrain ings
ĠBrit ish
b an
m otor
z ert
Ã Ĺ
ĠS ir
ent wick
ĠO k
ĠMa k
wir ken
Ġ188 0
ĠKÃ¼ sten
ĠPorn o
stechn ik
Ġumben annt
M ehr
Ġ tem
te am
ĠL angen
ĠO hne
ĠEr l
kl ar
ĠFr ucht
ĠKo ordin
ĠSa al
V ert
a illen
ĠS achen
Ġge Ã¤ndert
ĠO ster
Ġunter sch
ĠGes ang
lau be
ĠZu cker
ĠIs lam
Ġregel mÃ¤ÃŁ
s inn
Ġ orden
ĠO pp
ĠIn stall
ĠHand ball
ĠGrund lagen
krieg s
Ġprof it
ĠGelegen heit
E d
p at
el f
Ġbe stellen
Ġsch m
ĠKon struktion
ĠMer c
ĠHor st
ĠRelig ion
Ġdiver se
âĢ ¢
ĠSt ab
geb lich
av or
schn itten
ĠmÃ¶ glichen
Hol stein
ĠW art
Ġbe schlossen
Ġr eligi
Ġschn eller
Ġangegeben en
ĠAust ausch
S P
Ġf Ã¼hl
ber ts
Ġhier bei
ĠP rakt
ĠT rag
ast rop
frist ig
Gro ÃŁ
ĠS ul
Ġst Ã¤dt
Ġ18 48
ĠAd am
ĠPar ameter
C he
h y
te au
Ã¶ff net
ĠPh ot
ĠSchlaf zimmer
k le
z em
Ġbe haup
ĠVer dienst
ug ies
ĠAuf nahmen
Ġkosten lose
Ġspez ielle
ĠK ra
Ġver legt
eil er
ĠGe gend
ĠMittel punkt
ĠWo iwodschaft
h es
ĠJ ungen
Ġwoll ten
Ġsozial e
B S
ĠM Ã¼hl
Ġn ennt
Ġbe ziehungsweise
art ikel
anz eigen
Ġbestehen den
g riffen
n ational
ĠVer zeichnis
ver gleich
arb eitern
ais er
Ġstatt finden
ge d
ĠF an
ĠT u
ess in
ĠHoch schullehrer
ĠWh ite
it es
ĠBe wer
Ġ190 1
ĠBereich e
ĠEind ruck
N A
U T
k Ã¼n
au d
ar ben
ur o
ĠM r
ĠN eum
sp unkt
wir k
Ġeinge tragen
ĠDonner stag
in zen
an ie
Ġin kl
ĠU fer
ĠNach wuchs
cl ient
Spiel er
UN G
ĠSowjet union
G en
sch ritt
ĠAn meldung
Ġ18 70
ĠHand y
ĠrÃ¶m ischen
ĠOp ern
b ieren
n y
el or
Ã¤ g
ak ademie
ĠJe der
ĠHalb finale
Fl uss
ĠBil dern
E t
v ater
ch ip
Ġf ung
is c
sb ruck
Ġteil s
ĠÃ¤l teste
Ġsicht bar
ĠS ak
Ġl eist
ĠOr ten
ĠFrei en
ĠBrÃ¼ der
ĠTÃ¶ch ter
B uch
R o
z ell
de cke
um er
Ġeigen er
ĠMod el
jÃ¤hr iger
ĠRis iko
r ische
en ce
ei se
ĠA dr
et on
Ġan schlieÃŁen
ĠGemein sam
ĠOber flÃ¤che
Ġ1 10
Ġer gibt
ĠSch ild
ĠVer w
Ġbes etzt
Ġgel esen
Ġen det
199 9
a ster
se y
Ġzwei ter
Ġre prÃ¤sent
lÃ¤nd ischer
ĠAmster dam
ch ern
Ġl iter
Ġsch wei
id ae
Ã¤nd ige
Ġgel ungen
fÃ¤l len
ĠKaff ee
m es
ĠM eyer
Ġber aten
In s
ĠOper ation
Kir chen
ĠIngen ieur
D igital
b rÃ¼
Ġeinfach en
ĠMan ager
Ġpl Ã¶t
Ġ schaff
us k
hÃ¤lt nisse
m ont
au ben
Ġb ayer
Ġm ont
ĠP ian
auf bau
ied elt
vert eid
denkmal e
Ġpar allel
Ġd unkel
in stitut
ĠT oten
ĠAn s
Ġvor ne
iz ierten
ais s
Ġbesch Ã¤d
ĠLÃ¶ wen
m s
ļ Ń
ent in
ent um
ĠZ ut
ĠAl te
zahl t
ĠJuni oren
Ġwissenschaft lichen
Ġallgemein en
Ġgetr ennt
ĠH av
ĠV ar
ĠC op
lin es
vers ion
opp en
Ġmittel alter
ĠT onnen
eh end
ĠWelt meisterschaft
ĠEd ward
ĠJugend liche
Ġoffiz iellen
Ġkont akt
ĠKrank heit
sprÃ¼ che
V ol
ĠP reuÃŁ
Ġso weit
ĠKon zentr
ĠNational mannschaft
Ġbew usst
M ill
b ein
ĠK abel
ĠW under
Ġk ontroll
Ġg arten
Ġp o
ĠGe werk
wohn ung
ĠMan fred
S U
ĠB iele
ĠM ie
ĠAr men
ĠHam mer
dir ektor
Ġ Ã¶stlichen
ĠE ast
am i
ĠSch reib
Ã¤n k
ition s
ĠStre et
Ġfre ie
Ġposit iv
f ir
Ã¤ sche
em den
ĠF inn
kt iv
ĠSpiel tag
leg te
Ġorganis iert
ĠÃĦr zte
P ersÃ¶n
k anz
in str
sen s
ĠZ usÃ¤tzlich
ri p
ri pt
Ã¤r n
ĠBi bli
ĠSan kt
ĠAs ien
fÃ¶rm ig
T our
de gang
Ġ0 8
Ġaufge fÃ¼hrt
ĠNor wegen
leut nant
ĠS omit
Ġb ot
op ul
R Ã¶m
f o
Ġf uhr
ĠH Ã¼
ĠR ay
ĠV I
ĠC orn
ĠGe werbe
ĠAus fÃ¼hrung
Ġgen auso
Ġ189 9
ĠNet work
Ġpersonen bezogen
ĠK athar
ĠJ ena
Ġge zogen
ĠC am
ÃŁ ig
verkehr s
r el
ĠS ens
Ġw eite
Ġv ari
ĠG Ã¶
Ġn ationalen
se qu
ĠBe geg
ĠGl ob
ĠMÃ¼nch ner
Ã¤ fte
ĠK ul
ĠP ed
Pro gramm
ĠGraf ik
Ġget roffen
ĠLÃ¼ beck
an dern
sch el
ĠF raktion
ĠL ong
ĠL ife
ĠÃ¼ber all
Ġ/ >
erg ie
Ġur kund
ĠgegrÃ¼n deten
Ġzentr ale
ĠChamp ion
ĠK ann
ĠL ande
ĠHand werk
ĠGrund stÃ¼ck
Ġkurz er
ĠDienst leistungen
Ġabsol ut
ĠPortug al
ĠVer mÃ¶gen
Ġseit dem
ĠProdu kten
ĠMotor rad
an alyse
ĠK rie
Ġge eig
Ġbis schen
Ġgel angen
bild ungen
alis ieren
Ġauft reten
archite ktur
ĠNationalsozial ismus
Ġd okument
ĠVer wand
all iga
etz ter
ant eil
ĠÃ¶ k
ĠAnh Ã¤nger
Ã¼ che
ĠF antas
Ã¶ der
ist a
men ge
ass au
Sch l
entr al
ĠInd ian
yt hm
gÃ¤n glich
y k
Ġf lex
il me
ĠSch atten
ist et
Ã¼ck t
ret ung
ĠDenn och
Ġerwar ten
n i
ge zogen
at tet
ĠF inger
ĠUm fang
ĠKap itel
ĠAlt stadt
Ã¤mpf e
ĠGi pfel
D r
al om
ĠG ames
gen den
Ġ4 7
St affel
wert ungen
Ġrech te
Ġlok alen
d ing
l uft
u en
ĠÃ¼ber zeugen
ĠStra ÃŁ
ĠDÃ¤n emark
Ġbeinhal tet
r uss
ĠZ ubehÃ¶r
ot ischen
Ġ5 2
Ġbes aÃŁ
ĠNieder lage
ĠAllgemein en
Ġgefert igt
K rit
b rechen
i men
l aufen
w ettbewerb
ar o
ĠEr f
Ã¼t ten
ĠReg eln
gesch windigkeit
ĠNeu stadt
ĠFor der
fÃ¤l lig
Å ¾
in ett
Ã¤ udes
Dat ei
ĠWÃ¤r me
F ranz
Ġ achten
Ġs yn
Ġge be
ĠBe at
ste te
ĠOr chester
fahr ts
aler weise
wend ungs
ĠHin weise
National mannschaft
D i
W ei
on str
ge ht
ol and
Ġzu folge
ver halten
for scher
ĠKÃ¶l ner
system e
Â §
ĠL am
ĠL ED
ĠV Ã¶lker
me ter
ĠFÃ¼hr er
ĠAltern ative
ĠBarb ara
B ew
ĠN ation
ro id
Ġl og
ĠĊ Ġ
Ġsch eiter
ĠSp recher
geb irge
ĠPh ase
ĠLie b
ĠPer form
Ġindividu elle
F ried
M ax
b ungs
m ine
Ġk ost
Ġauf s
Ġaus einander
Ã¼n den
etz ungen
ru fen
Ġunter halb
ĠGr Ã¼ndungs
pl ement
Ġwas ser
ĠGroÃŁ teil
ĠFranz isk
Ġfinde st
ĠHig hl
g ier
Ã¼ ÃŁen
ĠI d
est ern
ĠÃĦ g
ĠMich el
ĠdÃ¼r fte
zÃ¤hl ung
ĠHock ey
Ġl atein
Ġgel egt
Jahr en
ĠLi ber
ĠursprÃ¼n glichen
ĠK G
Ġ18 60
ha in
ĠAm ateur
ĠĠ Ġ
ĠAt mosphÃ¤re
Mus eum
Ġpassen de
Ġerstre ckt
Ð »
ie h
ĠS av
ĠMa y
ĠBes etzung
merksam keit
h ab
as i
is en
ow itsch
Ġc o
olog ien
An halt
ĠInn sbruck
b eln
w el
al em
Ġh ieÃŁ
teil te
Ġtran s
ĠB om
ĠV e
ad or
ri ce
ĠQu art
Ġbel g
ator ium
ĠModer ne
a fr
Ġ ries
il ometer
ĠÃ¼ber t
ph ase
ĠMin i
verb indung
ĠArbeit geber
Ġoffiz ielle
zust and
f u
ĠG ame
am burg
ĠT ick
Ġo p
Ġj ur
ĠKl ub
b raun
n ot
ĠP ow
ĠW asch
ĠAn th
ĠVor bereitung
ĠVers orgung
wahl en
ĠErn Ã¤hrung
ĠMehr heit
ĠBur gen
ĠGleich zeitig
Ġperf ekte
ĠMount ain
ĠR on
ir chen
sp itze
Ġent schied
Ġall eine
Ġange schlossen
ĠFrieden s
ĠM ah
ĠW en
Ġer lang
ing ung
ĠAuf l
ÃŃ a
ĠPort al
ĠÃ¤l testen
ĠEntfern ung
h Ã¼ter
wei ten
atz e
ese arch
ĠLi zenz
Ges ellschaft
Ġ egal
ĠK e
ĠT ode
ber ater
ĠPl Ã¤tze
rat h
so ap
ĠBaum w
ĠP ack
port al
Ġgesp eichert
l im
t rue
Ä Ľ
er z
ĠG ab
ĠL or
so ft
ĠOrganis ationen
Ġindividu ellen
Ġruss ischer
ĠwÃ¼n schen
chip karte
Ġs en
ĠM ang
Ġeben da
Ġ189 5
Ġ189 6
Ġbew egen
ĠhÃ¶her en
Ġbequ em
P eter
ĠB it
ĠT ol
mus iker
Ã¤nder te
ĠKr ist
ĠFernseh serie
Ġprakt isch
ĠJes u
el be
ĠA gent
ĠD eine
fahr ten
ĠGem Ã¼se
ĠPr iv
ĠÃ¤ uÃŁer
El ement
Ġintens iv
H inter
p ern
ur es
ĠV il
ĠJ ubil
ĠO bst
ĠEin s
atur e
oren z
ĠVen edig
k w
gen ossen
ĠH ow
ĠR al
ĠAn wesen
amm elt
ĠkÃ¶n ig
ate d
ĠGem Ã¤lde
ragen de
ĠOx ford
R echts
Ġden ken
rei strÃ¤ger
Ġsp Ã¤ten
Ġph ys
k u
ĠL ar
ut sch
lie d
ĠEurop as
ĠAt lant
stre cken
ĠProduktion s
Ġpassen den
w ell
sch all
ĠD VD
ĠW upp
ĠH Ã¤nde
ann i
ĠKÃ¶nig in
P hil
ĠK oll
ĠK alifornien
Ġg eile
ĠC our
sta aten
Eis hockeyspieler
B B
R es
k al
Ġs c
ĠB enz
Ġbes ucht
Ġel eg
Ġwissenschaft liche
ĠAutob ahn
om er
ack t
leist ungs
ĠDis sertation
Ġleich ter
ĠInfanter ie
ĠM ix
Ġlau tet
Ġd einen
on ial
ĠB os
ĠD J
ĠM is
ges ellschaften
Ġlie ber
ĠBau werk
ĠAd vent
spro zess
ĠTour ismus
ĠGef angen
ĠMagde burg
. /
S PD
T E
m ond
p ool
de p
il er
ra hmen
ĠAus zeichnung
br and
spr uchs
ĠFot ograf
Ġdur fte
D an
es ien
ĠM ath
ĠW ik
ĠSp ekt
Ã³ w
ĠErot ik
Ġzu verlÃ¤ss
ĠMa schine
fang s
des ign
O st
b or
sp ur
ĠBl Ã¤tter
Ġbeg eistert
ĠRei fen
Ġerfolg reichen
> <
ĠM otto
qu est
Ġspiel ten
ĠZug riff
I E
ĠL ib
ĠN ick
ĠRo hr
H ein
k olle
ein heiten
ĠP as
mer k
Ã¶r g
Ġent decken
ĠAuf sicht
ĠWelt krieges
ĠForm at
stra ÃŁen
Ġvorhanden en
Jahr e
F amilie
Ġs auber
ĠG all
ber atung
Ã¼r e
ĠN atÃ¼rlich
ĠSp Ã¤t
ĠUm feld
wor fen
Film ografie
Ġide en
ĠErweiter ung
ĠGrÃ¶ ÃŁen
A t
N e
à ¤
in us
st ar
ĠS aar
ĠM arburg
ĠKl ar
ĠBau ch
Ġwel chen
Ġeh e
ĠIntern ationale
ĠDienst ag
ĠRechts anwalt
ĠRie sen
C onstants
M Ã¤rz
T ext
und et
ten d
ĠL iv
lich em
ĠSch reiben
Ġvor stellen
Sch n
ĠSchw anz
gew inn
Ġverl etzt
ĠKÃ¼ ste
ĠHin weis
Ġget Ã¶
sto ÃŁ
ĠPhys ik
h amm
Ġer fÃ¼llt
Ġer fÃ¼llen
Ġlie fern
ĠPf ad
ĠIntegr ation
J e
w inkel
Ġst il
ech ter
ĠMar i
ommer z
met hode
pfl anzen
jen igen
ĠsÃ¤m tliche
f ranzÃ¶s
ĠP ots
og n
ran ts
ak i
ron d
folg ung
bes itz
ĠKan al
ĠFrÃ¼h stÃ¼ck
cy cl
ĠThÃ¼r ingen
r ess
Ġd omin
Ġs er
ĠPf licht
Reg iment
Ġpoln ischen
Ġausreichen d
ĠWag ner
ĠHÃ¶ch st
r ischen
ĠP red
ra v
ĠUm satz
hol d
ĠFre unden
ĠAu ge
Ġpr ivat
Ġbegann en
Ġehr en
o ul
Ġn ied
Ġsch lieÃŁen
ĠEn sem
rat es
? ?
D AP
O M
it is
ĠM inder
Ġn orweg
Ġg rau
Ġviel er
ĠJugend lichen
Ġheraus gegeben
hÃ¤ng ig
Ġ187 1
ĠÃ¶sterreich ische
gehÃ¶ rige
mens ion
ĠZ er
sp reis
Ġst ation
rau ben
ĠGesch ichts
Ġle gt
ande ur
trag ung
Ġverur teilt
T eil
h art
s orge
ĠB y
Ġg olden
ĠAuf merksamkeit
St iftung
Ã¼l le
Ġhei ÃŁen
ĠSchiff s
ĠEle ct
ĠerklÃ¤r en
ĠEdu ard
ĠG Ã¶t
ann er
Ġver teilt
ver n
Ġbest ritt
ĠMon d
Ġgut es
ĠRu h
Ġgl ob
ĠMaler ei
ĠVerbr eitung
m essen
Ġn am
ĠAb stand
Ġle hr
Ġgest ern
ĠAuft ritt
Ã¶ gel
ĠU lt
ĠAus wirkungen
Pro jekt
frei en
ĠOffiz ier
Ġdeutschsprach igen
K ategorie
f lex
g on
Å Ħ
le ute
ĠN ow
be am
ĠMann heim
ĠFreund in
ĠhÃ¶her e
ĠÃ¼bern immt
ĠVerf assungs
ĠKomment are
b al
j an
bl emen
ĠBr es
Ġabge st
fÃ¼l l
ĠBestell ung
un nen
as ien
Ġin vest
Ġf a
ĠW ellen
us h
wei chen
os lowak
br onn
gend es
ĠAll i
ĠOs car
Ġbedeuten d
bil den
ĠErinner ung
ĠB ull
em s
ĠL as
Ġan lÃ¤sslich
Ġl ive
Ġvor wiegend
ĠHei z
gebie ten
ie ck
ar rei
ĠM ach
ahr t
Ã¤nd igen
sche f
ĠBi ograph
Ġitalien ische
Ġ Ã¶rt
Ġver ste
ster o
Ġ5 1
ĠGesch lech
Ġakt iven
Ġ189 2
Ġ189 3
m acher
Ġal ter
ĠBr emer
Ġverst orben
Ġerfol gen
rim in
ĠGlo cken
Mart in
S ervice
g ung
o ÃŁ
Ġm obil
ĠK alk
Ã¼r zt
Ġlie fer
ĠKont akte
K at
c ast
ĠG irl
ĠH agen
ĠT ob
Ġver boten
ĠAr thur
ĠUnivers itÃ¤ten
ĠCo ach
setz er
ĠX X
zus etzen
Arch ite
n ieder
st anden
ĠS oph
ĠD ub
ĠL aden
ind ungs
ĠÃ¼ber setzt
ĠSp ec
pp er
Ġdies mal
ĠSe en
199 6
ĠAt hen
Ġamer ikanische
stud ium
Ġgarant iert
Zw ischen
d h
ĠT sch
Ġer ober
ĠÃ¼ber zeugt
ĠEin stellung
schie de
Ġbr asilian
Ġhol z
K n
K arl
R A
ĠB atter
ĠD ur
ĠH eck
ir r
ĠPl attform
Ġange hÃ¶r
ĠRegen sburg
ĠAuss age
bÃ¼rger meister
I hr
k Ã¼ste
ĠF ett
is burg
ĠAn lass
ĠIm mer
zeug ung
vert reter
rÃ¼n der
ĠAp ost
ĠGet rÃ¤n
ĠVerstÃ¤nd nis
aiss ance
N S
k ow
ĠM uss
ĠE ier
ĠSp itz
ant es
Ġoffen bar
z eits
ĠB Ã¤nde
ĠM i
ĠE ugen
ĠP enn
Ġbe zieht
ĠEr Ã¶ffnung
Ġnach folgen
ap s
ĠFr emd
ĠBel gien
ĠFrÃ¼ hl
Ġbesser e
ĠVerf assung
ĠTemperatur en
Ġ arch
Ġal tern
bl enz
Ã¤l ter
schie ht
ĠAut os
N ov
b Ã¶
am ing
ĠSch Ã¤den
he ben
ĠSp ir
In sel
form at
ĠApp le
ĠMitt ler
ĠEing abe
ĠKandid aten
S ein
| -
ĠP ay
ĠR io
ĠSie ben
othe ken
d on
Ã ª
ĠSt ich
rat or
Ã¤us e
Ġgek auft
send ung
ĠprÃ¤sent ieren
ĠS ha
ĠE th
Ġl eitet
ĠEr lebnis
ess ischen
ĠEigen tum
ĠnatÃ¼r lichen
zÃ¼ g
umin ium
ĠAnz eige
E E
p ers
ĠS endung
it o
ĠK ino
Ã¶ scht
Ġum gesetzt
Ã¶r se
Ã¤r zt
Ġged acht
bi bliothek
Ġerinn ern
D S
l ar
z iel
ĠM eine
Ġgleich er
scheid ung
ĠDis ziplin
ĠVerÃ¶ffentlich ungen
Kir che
ĠergÃ¤n zt
E Mail
I s
M aler
d orfer
v ar
ĠL abel
le un
ĠC av
ĠU t
ĠAus bildungs
ĠUm bau
ĠWohn ungen
ĠWahl kreis
ĠSen ioren
H ome
s ort
or p
ĠM es
ĠF ehl
ĠW Ã¶rter
ĠL ew
ĠSt iefel
ĠSch ott
ant el
bl eiben
Ġ8 5
Ġzentr alen
I ON
ĠB rot
as on
Ġf lieÃŁt
ir k
ĠJ ones
ant ast
ĠGr ill
ĠOr ch
ĠRe kord
Ġ189 7
gesetz ten
ĠmÃ¶ gliche
c z
g al
r or
s et
st em
Ġb eit
Ġb reiten
ĠL inz
us ste
eil ungen
ĠÃ ł
ĠSystem e
t ritt
Ġgeb lieben
Ġmei stens
ĠÃ¤uÃŁ erst
H allo
P al
ĠG reg
Ġf Ã¶rdern
Ġver arbeitet
ĠIn g
ĠLab or
ĠK Ã¼r
Ġver lei
ĠAn erkennung
hn te
ĠSp ur
stell ig
att le
ĠBr uch
Ã¤m m
ĠPol iz
Ġdort igen
ĠKant ons
D A
F B
v as
Ġ reichen
ĠE w
Ġbe zeichnete
ĠBen edikt
Ġâ ļŃ
Ġspez iellen
Ġopt imal
Ġres ult
D am
v iertel
at is
Ġf ehlt
ĠH as
im it
Ġ188 8
Ġverm eiden
ĠDek or
hoch schule
ĠBiele feld
H andlung
g elt
ĠSt Ã¼cke
est and
gl as
Ġerfolg reiche
ĠEpis oden
ĠLein wand
B en
il it
ĠAn ne
iv ision
stell ers
zw eck
ĠOl denburg
Ġ188 9
produ kte
strahl ung
ĠCamb ridge
ĠK im
ĠL ine
her e
St ra
ĠWer bung
Ġwei ÃŁen
iqu es
ĠBoch um
b n
ĠB rau
Ġk rÃ¤
Ġr um
gesch icht
Ġ15 00
egen heiten
Ġ0 1
reg isseur
Pro f
angeb ote
ĠRett ungs
s Ã¤nger
Ġk Ã¼nd
Ġst imm
ha ven
Pro zent
ĠAlex and
Ġtradition ellen
spart ner
Ġreduz iert
B ez
L ist
M P
M Ã¼n
t urm
ĠB rie
as zin
ĠT eu
geb oren
bau te
zeich neten
ĠEnt stehung
schn itte
schul d
Ġnie mand
iat eilnehmer
G u
ĠWe ber
ĠAward s
ĠHug o
F F
P lan
c onstants
v es
ĠE h
ĠT elef
ĠL ange
Ã¤n omen
ffiz ienz
Ġengl ische
Ġmon at
ĠAufent halt
Ġport ugies
ĠKÃ¼n ste
S ow
p assen
ĠD ynam
ĠH ektar
re ck
Ġzu gÃ¤nglich
im ir
op e
ĠUn i
ĠRe paratur
ĠRo ad
ĠMon ats
ĠspÃ¤ter e
emen ten
ĠverstÃ¤r kt
V om
Ã¼ cher
ĠA x
ĠB ob
ĠG riff
ĠZ DF
ĠEr klÃ¤rung
Ġj en
ĠWeiter lesen
sw ald
Ġruss ische
kap elle
ĠGebie te
ĠBrun nen
N icht
l ein
Ġb reite
ĠD ass
ag a
ad bach
ul iert
bl ock
lÃ¤ uter
199 8
ĠGef Ã¤ngnis
Ã¤dag oge
Ġak zept
m Ã¤r
ĠM eld
ĠK ohlen
ĠWer ken
ĠBuch staben
kon struktion
Ġangeb racht
Ġro ten
ĠVerbesser ung
ĠS ehenswÃ¼rdigkeiten
ĠP ierre
et tet
im er
ĠBe ach
ĠGesch windigkeit
Ġwei sen
ĠWerk statt
Ġfr isch
abil itÃ¤t
VerÃ¶ffentlich t
ĠberÃ¼cksicht igt
L AN
T A
Â ³
un ken
ar ett
ĠK am
ĠT ax
ĠSp uren
bar ung
omp uter
hol ung
Ġwes halb
Ġhochwert ige
inu ier
ĠT an
Ġh um
ĠZ e
ver kauf
Sch ule
ĠDr ittel
Ġbel iebt
plan ung
Ġlei sten
ĠRum Ã¤n
Ġunbek annt
s an
ĠK reu
ĠF eucht
ĠJ unge
ech nung
Ġ189 1
Ġ189 4
ĠAlt ar
Ġstar tet
ĠBot schafter
ĠSmartph one
B eg
Ġv ia
ĠB Ã¼nd
hr op
ol en
ĠVor stellung
Ġbef est
ĠauÃŁer gewÃ¶hn
Ġschwar zen
sicher heit
ĠendgÃ¼lt ig
J ugend
Î ±
or ien
Ġb raun
ol ph
ĠR essour
Ġge Ã¶ffnet
199 0
Ġinform iert
ĠEigent Ã¼mer
E U
I CH
un c
sch wei
ĠP last
ion e
Ġzu gelassen
Ã¶n t
wie s
An merkungen
ĠBet on
ĠAnton io
Ġide al
ĠPsych ologie
stehen den
dat um
M A
ein satz
ĠF okus
ĠZ ell
ip end
Ġ0 4
Ã¼l ern
ix el
Ġbef Ã¶rdert
Ġintegr iert
ĠAtt rib
ĠFÃ¼n f
ĠFit ness
Wil helm
F est
h Ã¤nge
h Ã¤ngen
n d
ĠD ra
ĠP seud
Ġf u
Die s
Ġ5 6
Ġ5 9
ĠSu pp
Ġbestehen de
ĠVorstand s
ir ch
se h
Ġo per
ack er
ontr ol
Ġmittler en
ĠKonfl ikt
B ar
p ommern
Ġent lassen
Ġsp anischen
schl Ã¼sse
ĠWer be
ĠNieder lande
ĠBern d
ĠgegrÃ¼n dete
itu ationen
ĠVort eile
ĠDipl om
Produ ktion
b u
l assung
s aison
ul in
iss ar
ĠDe v
Ġschn elle
ĠNe ur
ĠMag n
ĠAmer ika
ĠÅ ł
Ġse par
P o
at ische
ĠH als
ĠT auf
ber uf
ĠSt au
Ġo ption
ock e
ĠVerein igung
ĠRÃ¤ ume
Frank reich
ĠFÃ¤h igkeiten
k rank
ĠW achstum
Ġzu g
Ġauf gel
ĠAl kohol
ĠTr ier
Ġwei ss
Ġern st
ĠMag azin
ĠGrÃ¼n en
agn ost
ĠGriechen land
h Ã¤usern
s heim
ĠH D
re ht
Ġge pf
ĠEr gÃ¤n
Ġsch ied
land schaft
ĠKl ang
fahr ung
tem peratur
ĠRo stock
ĠInd ust
ĠRund funk
Ġverf asste
Ġunters ucht
Ġbenachbar ten
b chen
u ver
in ia
og ramm
ĠBer at
spieler in
igt es
Ġans Ã¤ss
ĠDien ste
ĠZent imeter
t irol
uch er
ĠEin blick
ok oll
Er gebnisse
ĠAnt i
199 7
Ġ188 5
sf Ã¤h
ĠGebie ten
ĠStad ion
ĠZuf l
M e
un sten
Ġl ock
yp ten
Ġvert eid
Ġschwer e
ĠÃ¶ff nen
ĠBach elor
L E
u v
ĠP el
ĠSch lieÃŁlich
ĠMit arbeitern
Ġch arakter
Ġverkauf te
ĠplÃ¶t zlich
ĠgetÃ¶ tet
k amp
ĠM ei
Ġn Ã¤chst
Ġn ationale
ĠL ake
Ġent h
Ġ5 4
ĠKl eine
ack e
ĠBet roffen
ĠMed ik
ĠSc ott
ĠCar ol
minister iums
frei heit
M ai
M ilitÃ¤r
b Ã¤
k ar
ein richtungen
Ġw Ã¤ren
ĠB astian
ab len
ver lauf
Ġges prochen
Ġgr enzt
rech nung
ĠfÃ¼n ften
Ġerk enn
f al
l iteratur
ge kehr
ungs mittel
ohn e
ĠCh ancen
kl oster
kon zept
Ã¼l len
ĠSk ulpt
jahr en
ĠBern ard
Ġkleiner en
ĠAnder e
ĠAsp ekte
E O
S ing
f rÃ¼
Ã¤ se
ĠF alle
ĠR esearch
ht t
wohn ungen
Ġteil en
199 5
ĠAnd roid
best and
ifiz ierung
Ġexist ieren
ĠS y
ĠB R
ĠD ollar
ĠT rieb
um pf
ĠV iew
rei ft
lie s
Ġ18 50
rag ung
ĠPr omot
Ġange passt
ĠKo hle
Ġsol cher
ĠnatÃ¼r liche
ĠGraf schaft
herap eut
Ġerr ichtete
ĠnÃ¶t ig
b eu
Ġm ult
ĠAn st
iss ement
Sie g
ĠAlb recht
ĠWeihn achten
ĠMc C
Ġtran sport
on line
at iver
Ġi d
rÃ¤ der
ĠTro cken
ĠEint ritt
ĠBist um
Ġpromov iert
m Ã¼n
il i
ĠN at
ĠAr ray
ant ie
ĠVor bild
ĠSe ele
ĠBei spiele
ĠEurop ean
ĠKloster s
Land kreis
ĠSchriftsteller in
!! !
J a
ĠF els
ĠF ootball
re y
Ġge schieht
Ã¤t igkeiten
Ã¤u den
ome tern
ĠViel falt
ĠInstitut s
Ã¤te stens
Ġ org
in ce
ĠS zenen
ĠSch Ã¼tzen
ĠNeu er
ĠKn ochen
ĠWissenschaft ler
ĠVarian ten
ĠDiskuss ion
ĠNach folge
zw ungen
ĠPf arrei
Ġjapan ische
cel ona
Ġheil igen
vorsitzen der
p ekt
t i
ĠN ap
og a
aus s
Ġmehr erer
St re
Ġhier fÃ¼r
ĠSchw anger
ĠÃĸ k
ĠPubl ic
b Ã¼t
on ia
ar ma
Ġb undes
ĠK Ã¼nst
Ġn annte
ĠT en
ĠT ank
ĠN az
ĠN ote
aktion en
ĠEben so
ĠGebie ts
ĠMaxim ilian
or i
ĠR y
ĠC la
ĠEr mitt
ingen d
ĠLie bes
schaff ung
wal ts
Ġgriech ischen
S A
w ein
on te
or ff
ĠL eb
Ġer leich
Ã¤t zt
fin ition
ĠAd ler
ĠÃĦnder ung
Ġchines ischen
ĠCro ss
Ġb aute
ĠT ot
ĠL isten
ĠV irg
ĠJ ed
Ġl anger
ĠAn sicht
eb urg
ok ol
ipp en
ĠÃĦ hn
ĠAutor in
Ġklass ische
ĠNic ol
Olymp iateilnehmer
g ert
g ru
n chen
Ġb emer
Ġan sonsten
ik eln
ĠSch u
ĠMet rop
ĠSÃ¼d west
ĠGroÃŁ herzog
ĠHistor y
ĠVerl ust
ĠÃ¤lter e
bro chen
ĠFert ig
ĠUk raine
ĠS un
Ġs itzen
ĠL at
ges prÃ¤
Ġ5 7
ĠBl ue
ĠRo berts
ĠKat alog
ĠStat es
deutsch land
ĠDipl omat
ĠFrancis co
ĠVersicher ungs
a dern
o ugh
au ten
Ġsich ern
end el
ĠLe e
ĠDokument ation
Ġverbr achte
n abr
ĠE i
Ġl ust
Ã¶n e
ke a
Ġc asino
ĠBet reuung
ĠKauf mann
ĠerÃ¶ff nete
ĠNR W
ĠT ime
os law
Ġsch lieÃŁt
ed y
Ġr elev
zeit schrift
Ġbest immen
ub le
ĠWahl en
Ġfrei will
f euer
ĠK ompl
ĠV el
Ġent f
Ã¤hr ungs
ĠFel der
A uÃŁer
Ġ eignet
Ã¼ sten
ĠK alender
re e
auf nahmen
ap e
ob jekt
if ikation
ĠWir d
yn ast
Ġkompl ette
Ġeingel aden
Ġdek or
w Ã¤hlen
ĠW inkel
ĠSt aub
ĠÃľber w
ĠPf alz
ĠVerb indungen
ĠMet al
Ġkathol ische
ĠKonkur renz
B as
b art
l og
l isten
u i
ur er
ĠB em
ĠG rupp
ĠH arry
us se
ĠO ption
att ung
ipp e
Ġwei ÃŁe
ĠKomp onenten
ĠPass ag
ĠEpis ode
! âĢľ
r ation
ĠG il
ĠG lÃ¤
ĠP i
Ġ20 22
lie gt
ĠBer ater
per iment
Ġgen auer
ron en
ĠTr end
leb te
z ten
Ġd einer
es p
Ġm ech
Ġh art
Ġh alt
Ġt ut
Ġst ruktur
ĠfÃ¼hr enden
ĠFrei will
haupt stadt
Ġinteress iert
Ġgelegen tlich
Ġtr aten
b eut
o ter
w Ã¤hnung
st raf
ĠF ast
ik as
ĠEin kommen
ĠKind heit
ĠVort rag
ĠFel ix
ĠMy th
ĠBef ehl
ĠSort iment
ĠausdrÃ¼ck lich
nabr Ã¼ck
ĠEr richtung
ĠGe denk
tern e
ĠY e
ĠWei ÃŁen
ĠOb last
Ehemal ige
ĠWÃ¼n sche
M B
W ill
g rÃ¤
l itz
um l
be zeichnung
aut omaten
ĠSyn chron
ĠB ast
Ġm er
ĠK ein
ĠL atein
ĠO ze
Ġp rÃ¼
Ã¤nger ung
Ar b
199 4
ĠGal ax
f amilien
ĠN ationen
ĠJ ens
ran sport
Ġher zlich
ĠKomm and
ĠInnen stadt
ĠCol umb
ĠAuss icht
Ã¶pf e
Ġwunder schÃ¶n
ĠSemin ar
m Ã¤nn
t he
w issen
it hm
Ã¤ hne
ĠK Z
ĠW itt
ĠH at
ĠL eh
Ġbe zÃ¼glich
est o
ru st
ĠPr om
Ġzahl en
Ġinteress ante
ĠStruktur en
Ġerhe blich
ĠS G
ĠG ouverneur
ĠH T
Ã¤n glich
ĠAn im
ĠSp enden
Ġ5 3
Ġverw endeten
ĠDenkmal schutz
L auf
ĠV ul
wa ffen
egen de
Ġgeb raucht
Ġdir ekten
Ġverl Ã¤ng
ĠMinister prÃ¤sident
Ġwirtschaft lichen
M en
m ot
ĠS yr
ĠU R
Ġun gewÃ¶hn
eg er
gr enz
kl assen
ĠVerb raucher
ĠKind es
ĠGi ov
Ġleich te
Ã¤dagog ik
v ard
y c
sch end
Ġv ol
Ġz Ã¤hlte
ĠR eh
ĠL och
ĠC lo
im ierung
ĠEin fach
fÃ¼hr ungen
eck er
ĠBundes wehr
Ä «
ĠS qu
ĠB eu
em als
Ġk Ã¼mm
ant on
ĠRo ute
ment s
ĠFin al
Ġverst arb
Ġbevor zug
Ġbegl eiten
ĠHum an
Ġm achten
ĠP ool
ĠSt ory
eb t
ĠBo ston
str eit
Ġverst eht
ĠWar um
cri pt
4 00
M otor
c ore
u ay
ei f
ĠF ab
Ġsch uf
ed el
Ġvor genommen
ĠAl uminium
od a
20 20
amm ern
ĠLe v
ĠRegion alliga
Ġ188 1
c r
ĠS T
Ġn utzt
ĠR av
ier bar
199 2
Ġkont inuier
Ġschwier ig
w Ã¼rd
ĠI C
rei de
ru z
hl t
Ã¤ch te
org ungs
ĠStaat sb
herr schaft
ĠGÃ¼n ther
! )
b ten
st het
Ġs ing
ĠM asse
em ie
am ts
Ġh undert
ĠV orm
rit er
pro zess
ĠInter ess
ĠPrÃ¤ sent
sol v
sprÃ¼n glich
S hop
Z wei
s id
Ġd ata
ĠF assung
ĠR oss
ĠO hr
ĠIn sbesondere
Ġum s
inder ung
ĠRech nung
Ġ186 7
O G
V iele
Ġw ann
ĠF rie
isch Ã¶
Ġan bieten
ĠSch all
Ġt op
Ġunter scheidet
fahr ens
Ġgen annte
Ġbef ind
ĠDo ug
ĠBran chen
D DR
F rÃ¼
e ber
Ð ²
ĠE ch
ĠH ey
lich ten
ĠC lin
Ġt elefon
Ġst ill
ĠAbgeord neter
ĠRestau rants
ĠZeu g
M ag
es i
ur r
Ġdes ign
Ġo st
ĠEr ster
Ġso fern
ĠAmts zeit
iden z
Mod ell
E le
p um
em burg
ĠF abrik
Ã¶r sen
ial og
Ġgel iefert
rach en
Al t
Ġgest artet
ĠNieder Ã¶sterreich
ĠSystem s
ĠWor te
ĠBal kon
g asse
l eiten
ĠS ud
ĠR ail
is l
Ġh Ã¤ngt
ĠJ Ã¤ger
Ġl aden
ern t
ic ip
ĠPro test
Ġ9 9
Ġthe oret
Ġben utz
Ġvert rat
ĠBed ien
Ġoffen e
ĠMor itz
N atur
h under
p le
st ron
Ġf icken
ĠL oc
ĠBer gen
Ġgew Ã¶hn
ĠPl Ã¤ne
Ġ0 9
ĠSte u
ĠBel ast
beg inn
d om
er a
Ġd ro
Ġab hÃ¤ngig
Ġgel ingt
lo h
Ġe ffiz
Ġverw endete
Ġumf asste
ĠKais ers
Ġober halb
ĠTerr or
ĠSt reifen
Ġauf merksam
Ġsch auen
end o
amt es
ĠGemeinde gebiet
Ġgef Ã¤llt
verb Ã¤nde
Ġerreich bar
ĠNe use
Ġfal sch
f uÃŁ
al u
Ġs ign
or ial
Ġv irt
ĠB utter
ĠE ff
ĠAn wendungen
Ġsch ott
ak es
ĠHand lung
Ġ0 5
prÃ¤ senz
Ã¤tz ung
Wir d
ĠHier bei
ĠLog istik
ĠJos Ã©
ĠKard inal
ĠB am
ĠG ir
Ġzusammen ge
ĠBrow n
ĠMiner al
T itel
ĠK ro
ĠR eit
ĠAn satz
Ġt ollen
Ġa pp
br ig
Ġ6 3
kir ch
ĠGo ethe
Ġgeboren e
Jan uar
W ien
st ufe
re te
ĠAus schuss
alt ar
ĠUr teil
yd ro
Ġschwar ze
D on
M ein
ĠE cke
ĠL enn
ĠC ra
Ġbe geg
ĠReg ister
imm ern
Ġviel es
ĠKomm ando
ĠWohn ungs
ĠBrun o
Par ameter
ĠGit arr
ĠVoraus setzungen
Ġdigit ale
F ach
ĠH ex
re uth
ent s
ech e
che ck
ett i
az itÃ¤t
En de
inf o
rond issement
D oppel
h ammer
o fen
Ġd ritt
Ġs ort
ĠP eg
Ġf ahr
ot yp
ĠBer ge
ap h
gesch ichten
ĠChr isten
ib le
Ġverb inden
ĠBar celona
Ġbegr enzt
ĠGÃ¼n ter
RÃ¶m isch
P C
z usammen
ein st
ĠW Ã¤l
ĠT iefe
ra ges
ro hr
sen den
ĠSch uh
iv a
Ġent deck
ĠCh allen
Ġvers etzt
ĠEis hockeyspieler
Ġ188 4
Auf grund
verein igung
ĠRed aktion
dis ziplin
g ard
v arian
ĠT Ã¤ter
ĠN utzen
ann a
sp or
ĠAm b
ĠBundes ver
ĠEmpf eh
l igen
y ball
ĠA th
ĠA ction
ĠB raut
Ġein heit
ĠG n
ĠH allen
ĠH aust
ĠC ir
eh me
St ar
ĠEx istenz
ka sten
Ġ187 4
ĠMisch ung
ĠBedÃ¼rf nisse
S el
Ã ¦
ĠA C
ĠB la
ĠG ieÃŁen
ag ten
Ġdefin iert
I R
] ,
sch Ã¤d
ft igen
ip edia
hÃ¶r igkeit
ĠSer ies
ĠEreig nisse
S eite
f eier
m achen
ĠJ ava
ĠIn te
Ġnach gewiesen
ass o
Ġdar stellt
ĠRo se
ingen ieur
bo ok
mar ken
Ġ187 9
ĠVertrag s
Ġhinzu ge
er klÃ¤rung
ge fÃ¼hl
ĠD E
ĠL ord
ĠZ ert
ad r
eben e
ĠMa jor
ĠCh urch
ĠMo z
ĠsÃ¼d westlich
ĠRu der
sied lung
ĠBeteil igung
ĠZun Ã¤chst
ĠPerform ance
g ast
p ot
ĠS ehr
Ġm y
Ġf eiern
Ġver sp
la fen
ĠBl ues
stand s
ĠHoch zeits
produ zent
h Ã¼tte
Ġ text
Ġv ar
ĠK ohl
ĠE M
ĠR ac
ĠV inc
Ġan fangs
eut r
gel Ã¤nde
ĠRe publ
Ã© l
ĠWelt meisterschaften
ĠGed ichte
ĠCor por
Ġgelegen e
ĠBrÃ¼ ssel
gestell te
ĠK el
ĠAr rondissement
Ġber u
ĠBeh and
ĠHei de
Ã¼st et
Ġtot al
F rauen
i h
i Ã³n
w achsen
Ġ art
ur b
Ġb ad
ĠC all
Ġp opul
Ġsch mal
ĠAr gentin
Ġnoch mals
ĠKat zen
ĠpreuÃŁ ischen
d ia
g Ã¼nst
Î ¿
an al
ĠB anken
ĠD own
ĠH eb
ĠN ar
os se
ĠAb satz
Ġ9 5
Ġgel aden
Ġex klus
ĠEurop Ã¤ische
Ġschl ug
beh Ã¶rde
nehm ern
pfl anz
ĠWehr macht
ĠNiederl anden
ĠBres lau
p unkten
Ġd auert
Ġs ymbol
ĠC le
ik te
igen t
Ġ0 7
wir d
ĠSchw imm
ĠSum me
J apan
Ġs im
is er
Ġver mitteln
Ã¼hr t
par ks
ĠFran Ã§
Sch on
ĠLe o
eig ung
ose x
ĠMont age
ĠSpr ing
cc ess
ĠJes us
Con tent
ĠMicro soft
st ritten
ur st
Ġb Ã¼rger
Ġ1 15
ĠR ats
Ġan n
od ie
ĠÃľber nahme
Ġfest gelegt
Ġdamal ige
Ġausgew Ã¤hlt
ĠLad y
Ġsinn voll
Schwei z
Ġanerk annt
C ar
C om
H o
ĠC ons
ĠIn haber
rÃ¤ glich
ĠBe arbeitung
agen tur
JÃ¤hr ige
R uss
Â ¼
as sten
Ġbe stellt
ĠO m
ĠAus zeichnungen
Ġoft mals
Ġpolit isch
ĠSen der
Wer degang
Ġzeit genÃ¶ss
ĠDÃ¶r fer
liefer ung
Ġmaxim ale
ĠKonzer te
J ose
W ar
w enden
Ġb ill
ĠM B
Ġh om
Ġhab t
Ġlie ÃŁen
Ġbest anden
ĠUrs ache
Ġdiver sen
ĠS att
es h
ĠD ay
ĠW Ã¼rttemberg
ĠH rsg
ĠR unden
le pp
ver ordnung
ĠEin ladung
ĠBl u
Ġausge schlossen
Ġex pl
ĠCon c
Mus iker
ĠTerr asse
Ġlern te
n g
ĠK und
ĠP in
Ġf Ã¼hlen
ĠL ot
Ġk Ã¼rz
ĠSie gen
og el
ĠBet reiber
ĠEt hn
ehm igung
Ġverh indert
ĠDiet rich
ĠBM W
f ranken
v an
Ġ 00
Ġ( ;
ĠT unnel
ĠI N
Ġk Ã¼nst
ĠC H
Ġp at
ĠProf ess
ĠMÃ¤n nern
Med izin
ĠHoff nung
Ġstellvertreten der
B itte
K ap
n ik
ĠS he
al ismus
ĠD B
Ġf inn
ir en
Ge ografie
ĠAnt rieb
ĠLei der
Ġ188 2
ĠWerk zeug
ĠMeister schaften
Ã¤mpf ung
ĠGast geber
Ġliegen den
do or
ĠMad rid
Ġwirtschaft liche
ĠÃľberg ang
s ung
ĠK orn
Ġn ew
ol ution
den berg
ĠKon text
ĠVert rauen
Ġzeit weise
f angen
v inz
ie ber
ei fen
ĠH Ã¼gel
Ġge gangen
dem okrat
geben en
ĠPar ad
ĠJahrzehn ten
f ass
ĠS ind
ĠP ho
ĠSch ick
ĠReg istr
entr um
ĠChrist us
los igkeit
Ġstell ten
Ġerreich ten
Ġ188 7
nehm ung
ĠMult i
On line
gy pt
" -
F L
st es
ein richtung
or der
Ġb ild
ĠG h
ĠNeu es
ĠsÃ¼d Ã¶stlich
bed arf
spart ei
ĠHir sch
ĠMerc edes
ild es
amer a
H alb
V O
l och
Ġz ogen
ĠK ugel
ĠH Ã¶l
ĠR oland
ĠO h
ĠVer handlungen
ien ne
str asse
ĠTer ritor
euch ten
schiff e
Ġirgend wie
kÃ¼n fte
ur i
ĠM ans
Ġn ame
ĠVer pack
Ġakt ive
Ġhand elte
ĠCre ek
Jul i
ĠPots dam
W asser
m ord
n ur
t l
Ġm Ã¤cht
ĠK y
ĠK Ã¤rn
ĠE ffekt
ĠH obby
ĠL aus
ĠMa ÃŁe
if ischen
ĠProdu zent
ĠHoch schul
geschn itten
ĠFul da
N ummer
l Ã¶sen
on ischen
at sch
ĠSt an
ah e
ver mÃ¶gen
Ġj ener
Ġum gebaut
enn er
Ġ18 40
ĠSo zi
ĠQu ell
ĠMin dest
ĠDar aufhin
Ġsicher lich
ĠOs nabrÃ¼ck
ĠEntscheid ungen
Erster wÃ¤hnung
C up
I st
k ette
ch or
it iv
ĠK ader
ĠR ap
ĠZ war
ĠSch atz
Ã¤t igen
Ã¤t igung
gr Ã¼ndung
Ã¤uf e
gef angen
ĠG umm
Ġbe her
Ġl an
ĠIn spir
ĠEin er
Ġvor der
Ġfre e
" )
r ennfahrer
Ã¼ hen
ĠA cker
ĠH ang
os h
ĠOl iver
ĠTex as
ĠschÃ¶n sten
ĠMerk male
Ġporn o
ĠTschech ien
ĠUnabhÃ¤ng igkeit
zem ed
Z ug
ĠG Ã¶r
ĠL ight
ĠL etzter
Ġer mor
Ġge arbeitet
ĠZ auber
our ce
ĠEx pl
Ġgef Ã¶rdert
Ġwichtig ste
ĠNaturschutz gebiet
stant in
ĠSt ol
ĠSch Ã¼lern
Ġ3 000
Ġneu esten
pl ant
Ġc ool
ĠBand s
Ġch ron
Ã¶m m
Ġverst anden
ĠSen at
Ð¸ Ñ
Ġniedr iger
n oten
al i
um ber
reich es
ĠOr th
Ġzwei er
ail s
Ġkon zip
beh alten
Ġmensch lichen
S L
ĠL okal
ĠC oll
ĠSt ick
Ġver bringen
Ġmehr mals
Ġbest ehend
ĠSpiel ern
ĠBau er
Ġselbst verstÃ¤ndlich
Ġ186 6
ĠKom fort
ĠMathemat iker
ĠErwachsen en
, -
r ise
Ġd eb
ĠH altung
ot herapie
ers dorf
Ġ5 8
ĠGem ark
lei sten
gebie ts
au g
ar isch
ur laub
hl on
ĠAus gaben
ap est
ĠAnt worten
ĠInter pret
ĠEben falls
ĠWahr heit
wÃ¼r fe
ĠVerband s
ĠDro gen
ĠHoll y
ĠSchwier igkeiten
Ġurkund lich
Ġehren amt
F ranzÃ¶s
ch a
Ġi Ph
Ġg g
ĠAr zn
bl au
Ġdar stellen
alte ten
Ġbeob achten
ĠLeiden schaft
ĠNikol aus
G H
K E
K Ã¶nig
T L
e o
an bul
ĠA stero
ĠK ok
Ġk Ã¤mpf
Ġg eil
ĠZ o
eh le
ot ik
ĠJahr hunder
ĠAr me
Ġbet reibt
Ġger ingen
Ġeinfach er
Ġgest orben
ĠFir st
ĠzusÃ¤tz lichen
Film schauspieler
ĠÃ¼b lich
Ġkomp eten
Ã¤chs ische
Ġfeier te
an ik
et o
ĠT ieren
ber ge
ier endes
eit ungs
ĠN iveau
ĠSch alt
Ġst et
Ġes sen
Ġzum eist
Ġvor kommen
me te
amen te
ct ic
lo ÃŁ
ĠDu isburg
ĠRÃ¶ mer
ĠKathar ina
p il
it as
Ġden ke
ra gend
Ġge g
Ġge fl
Ġunter gebracht
ĠMus ical
ĠKomp onisten
ĠDi Ã¶z
fÃ¤l lt
ĠDorf es
ĠÃ¼b lichen
Ġgepl anten
Ġkanad ischer
s ylv
w Ã¤sche
ĠM d
Ġf ur
ab or
op Ã¤d
ĠAus stellungen
ĠY or
ĠTre ffer
ĠKu pfer
ĠErwachsen e
ĠStÃ¤r ke
solv enz
ĠM etz
ĠC ho
iv als
ant in
ĠÃľber ra
ĠMÃ¤r chen
verb rauch
199 1
Ġ188 6
ĠGrÃ¼n de
m utter
ĠIn it
ser ien
ĠMar s
Ġverw and
Ġinner en
ĠLi br
ĠHoff mann
ĠWel che
ĠKapit Ã¤n
ĠmÃ¼n det
E B
ge mÃ¤ÃŁ
ĠSch Ã¤d
Ġsch laf
enn zeichnet
ĠKl eid
ĠWest falen
ĠTr ink
ĠZahl ungs
ĠEinwohner zahl
ĠSing les
ĠAktion en
Ġoptim ale
Ġzeich net
ĠPromot ion
w endet
er ing
Ġs eiten
ĠE cht
ĠW ende
et isch
Ġver Ã¤ndern
Ġver folgt
ĠSch icht
ĠUn der
ĠAl ben
ĠRe ferenz
ĠWelt cup
hand els
ĠursprÃ¼n gliche
ĠMail and
at isch
ĠR ainer
ra ben
Ġbe ster
ragen den
Ġ14 0
Ġger iet
ib il
ĠAt om
ÃŃ o
fÃ¼l lung
ĠFil men
BevÃ¶lker ungs
an iker
ĠM alt
ĠF un
Ġf Ã¤hrt
ĠL esen
Ġmit ten
ĠIn halts
ĠWest ern
ele ge
ĠKron e
Ġstra teg
ĠBeweg ungs
h ten
ĠA kte
ĠM aus
ĠK unde
ft ige
ĠSch aff
ĠSch reibt
ĠO f
Ġsch ul
Ã¤t tern
ĠPro zesse
qu art
ĠHand lungs
ron e
dr om
Ġverl ang
ĠÃĸsterreich ischen
ĠErk enntnis
ĠBron zemed
G egen
k B
w ender
ie hen
ĠF eier
ĠW ood
Ġbe wohn
ad d
Ġre al
ĠJul ia
Ġmus st
jahr e
ĠPat rick
ĠPolitiker in
ĠLiebl ings
O ktober
S an
e ct
r ol
t ums
w s
sch ungs
ĠM Ã¼hle
ĠF lex
ĠP osten
sp ital
bar es
br unnen
ĠGrund schule
ĠHaus halt
mÃ¤ cht
ĠSÃ¼d afrika
ĠApp l
ĠStat istik
bÃ¼r o
ĠTats ache
D is
k ov
sch lagen
Ġw omit
ig an
Ġl eiden
si den
Ġ8 8
ĠDurch fÃ¼hrung
Kl ass
Ġdr auf
Ġerziel en
ĠPri or
B aden
S onst
i zen
ĠP ant
ĠH ut
ĠL em
ĠV ent
ĠC hl
Ġbe ziehen
ĠU SB
Ġt rop
lie fert
ĠVor gehen
ĠCh in
ĠUm zug
ĠFran ce
ĠMen gen
Ġgef angen
ĠGew inner
ĠSpr inger
fil me
ĠKÃ¼nst lern
y o
ĠF aktoren
ĠG a
ĠP az
ĠP aket
ĠZ ehn
ĠZ Ã¼ge
ak ten
ĠMill imeter
Ġwill kommen
ĠLandkreis es
Ġ186 5
Ġposit ive
Ġorig in
E ben
ĠA tem
ĠK en
ĠK un
et ische
Ġst eigt
19 18
ett el
ĠPar allel
ĠEis hockey
Ġeurop Ã¤ische
ĠDrehbuch autor
Ġbeeinfl usst
T o
} ,
Ġ schafft
in formationen
Ġein iges
ĠW alt
ist anz
ĠDie sel
ken s
ĠAb wehr
ĠKl eidung
199 3
ĠTechn ischen
198 9
aur er
ĠAT P
c al
Ã¼ chen
ĠF lieÃŁ
ĠH end
ĠAn bau
Ġsp aren
ĠOr der
rÃ¼ m
qu er
ph il
Ġdir ekte
komm ission
Ġerweiter te
verl ust
Ġbeob achtet
ĠNahr ung
Ġkombin iert
A s
T R
sch Ã¼tzen
Ġin ne
ĠG raph
ĠP L
Ġf ehl
ind lich
ĠBar ock
hÃ¶ hung
ĠSpr ung
ĠStern e
Ġver an
iv itÃ¤t
etz e
ug oslaw
iz ont
ĠSpiel s
ys ik
Ġstatt dessen
ĠAbl auf
Ġ ĠĊ
sch ild
Ġ18 78
ord nen
ĠCh a
Ġ187 5
ĠTre ff
waff e
ped ition
ĠEdel stahl
ĠRumÃ¤n ien
Ġw Ã¤chst
ĠA rab
ĠG ert
ĠE N
ĠL ob
us alem
ĠC af
ĠIn stanz
ul f
all y
ri ca
Ġ6 6
onn a
An fang
ĠProf i
ĠPark platz
ĠTest ament
Ġjapan ischer
3 00
T er
U p
ĠB utton
ĠH Ã¤ndler
Ġg lauben
ĠSt ill
ĠU s
ver schluss
ĠBo gen
ĠFrei herr
schrei ten
ĠDo ktor
ĠFlor ian
Ġschwed ischen
Ġschaff te
n acht
ei ro
ĠB ulgar
ĠT ool
Ġl Ã¶sen
ĠAl i
ĠNach mittag
ĠKl im
Ġman che
Ġ7 2
ĠCo ver
Welt meisterschaften
Ġmittler e
ĠOrig in
Ġdigit alen
Ġangen ehm
Ġkom fort
ĠbeschÃ¤d igt
i od
au ung
ĠK ell
et ischen
ler in
Ġsp r
Qu elle
co ver
ĠGro ss
ĠDe part
ĠGott fried
D ruck
K ar
o ÃŁen
Ġ ol
Ġ </
es er
Ġv ollen
Ġb rauch
ĠH amm
se kten
Ġaus gebaut
ĠVer dienste
Ġj eg
ĠDeutsch es
Er n
mÃ¤ ss
Ġ186 1
Ġgenau e
Ġs k
Ã¤ le
ĠG ute
ig sten
ĠV ikt
ĠZ wer
ĠAb d
ĠWeb seiten
Ġben utzen
Ġfest gestellt
ĠRest e
ĠRen aissance
ĠFÃ¤l le
ĠKart off
ĠRob in
N un
P aul
f Ã¶rderung
m ass
em it
ĠF ur
ĠP sal
ĠW ach
ic us
ierte m
Ġ6 8
ĠChr is
Ġgef ragt
kreis es
euer ung
ĠSk y
ĠFinanz ierung
hor st
H a
H il
ei de
ĠA S
am ik
ĠH Ã¤nden
Ġt iefer
ĠRe port
Ġ6 1
ĠKon f
Ġgesch lagen
Ġ187 7
Ġinteress ant
ĠSyn ag
ĠHeraus forderungen
ĠHeraus forderung
ĠCook ies
D ienst
G l
w ahr
ĠB in
br eitung
Ã© d
ĠBild schirm
Ġstatt f
ĠKont o
ĠWeiter hin
ĠKrieg sende
Ġged reht
leit ungen
ĠBesatz ung
Ġbeweg t
l eister
Ġs erv
ĠD ick
Ġm ex
ĠF utter
ĠG ymnas
Ã¶ ger
ĠW omen
Ġer for
fahr zeuge
zeu ger
sb et
lo ser
ĠHaus halts
ĠUr heber
ĠMag net
Ġung laub
Ġbeein druck
ĠjÃ¼d ische
ĠBade zimmer
Schwei zer
f ries
h ow
k rain
l l
st unden
Ġz us
ĠK ast
is p
ĠN ull
ent hal
ĠSt immung
Ġl agen
ĠEr furt
ĠJahr gang
ĠEin stieg
Ġeiner seits
ho fer
aut hor
ĠGer ade
ide en
ĠTr ennung
ĠDes igner
Ġis rael
ĠSitz e
Ġ187 2
ĠerhÃ¶ hen
Ġhochwert igen
Ġumfang reiche
Ġabger issen
Start seite
ĠInstall ation
BevÃ¶lkerungs entwicklung
st art
al m
ĠH ung
ĠT Ã¤n
ĠR auch
ĠJ Ã¶rg
Ġsch lÃ¤
Ġ7 00
ĠUr sprung
klÃ¤r t
arch ie
ĠInternet seite
Ġentfern en
Ġfinanz iellen
ĠInner en
ĠTok io
Ī Ĵ
ĠM ap
ten nis
ĠR up
ĠL eu
Ġ18 00
tet t
ĠIm pf
ĠOber liga
ĠDr itt
Ġgab en
Ġ186 4
ĠRot h
Ġar ab
ĠIr land
Ġprofession elle
Ġstaat lichen
Ġerlang te
sylv ania
E vent
s ucht
u alitÃ¤t
it ch
ĠP ader
Ã¼n der
Ã¶l z
Ġhin sichtlich
ĠOber flÃ¤chen
ĠRei fe
ĠLu zern
ĠEng ine
ĠEvangel ischen
straf e
L og
c io
Ã¼ pf
Ã¤ ste
Ġf rag
ĠH ert
ĠT ay
ĠL uther
ĠN am
ĠJ im
Ġbe zogen
ru p
âĢľ ),
Ġall gemeine
org an
Ġzusammen gef
ĠÂ °
ĠDi am
ĠKo al
ari at
ĠSan ierung
Ġerz ielt
ĠQualitÃ¤t s
Jahrhundert s
ĠHit ler
N ode
u an
Ġ( ).
Ġr ichtet
ok omot
fl Ã¼sse
ĠKon serv
ĠKon ferenz
ĠOrt schaften
ĠWei bchen
ĠSchul ter
Ġnie mals
ĠWor ten
liegen de
ĠFil ter
ĠAc cess
Ġnord westlich
Ġbetroffen en
Ġletzt lich
Fried rich
I hre
K ur
L aut
R und
R ock
T H
ĠB ag
ĠG abr
ĠH arr
Ġer richten
re al
vers icher
Ġc l
ĠGesch w
ens burg
az ier
ĠText il
ĠTre ppen
mel den
Ġstamm te
ĠVorsitzen de
ĠPfer d
Komp onist
ĠWupp ertal
st eig
el ier
Ġau st
ĠT y
ĠSch e
Ã¶r te
ill ing
ĠMar x
ĠVor lage
Ġeigen tlichen
ĠzurÃ¼ck kehr
Ġerst mal
ĠKinder garten
ĠRessour cen
ynast ie
B M
B ox
P at
P lay
Ġv is
ru gen
ĠRe prÃ¤sentanten
du ktion
Ġwieder holt
ĠBr Ã¼cken
bo ot
oten zial
Film titel
ĠRein hard
fÃ¶rm igen
ĠTel ek
Ġhil f
ĠVorder grund
Ð¾Ð ²
ĠÃĦg ypten
i ffen
Ġd unk
Ġin folge
Ġk ommerz
Ġk irch
ck el
ĠC entral
ĠFl ach
ack te
ĠzurÃ¼ck zu
Ġ186 8
Ġnorm alen
ĠBrow ser
f arb
w enn
ĠS A
el emente
ĠB ibel
ĠM all
ĠF ra
ĠN ight
Ġbei der
Ã¤hr en
Ġnoch mal
ober flÃ¤che
Ġ186 3
Ġ187 3
upp e
Ġnord Ã¶stlich
ĠNorm al
Ġdein em
ĠKrim inal
x t
ĠB od
Ġan ger
od ox
eck ar
Fl ug
Ġanal ys
sprÃ¤ sident
Ġerkenn bar
gekehr t
L ehr
T ube
U M
b ist
r us
Ġ ei
ĠS ho
em an
ol is
ĠC ott
ĠZ eile
Ġent worfen
Ġander erseits
Ġ6 2
geord nete
ĠSil v
Ã¨ s
ĠGesetz es
ĠLux us
k inder
ã ģ
or um
Ġv ierte
19 33
ĠBr em
ĠZu hause
Ġgesch ickt
yl l
Ġ187 6
ĠSol o
ĠViel leicht
Ġevangel ischen
ĠVerteid igung
Ġeindeut ig
ĠNeuse eland
B ran
r em
ar is
Ġz it
ĠP ie
ĠR eiter
ĠR olf
ĠSch enk
... ]
pro fil
ost a
ĠWie sen
ĠDel eg
ĠCamp ing
Cl ub
Ġpromov ierte
Ġsamm eln
ĠlÃ¤ng st
ĠGemeinder at
k ons
ĠSp er
ek ul
ĠBet racht
ĠX ML
omb ard
ĠverÃ¶ffentlich ten
ĠLeip ziger
iller ie
ĠBud apest
Ġhoff e
Dam it
b ell
r ight
ar ischer
ab schnitt
ro ss
Ġdes wegen
ĠO ft
ow o
gesch lecht
Ã¼l ler
ied lung
Ġind ustr
Ġmel den
Ġinstall iert
Ġscheiter te
V A
Ġd ynam
ĠA L
ĠA ar
Ġein gebaut
Ġin halt
Ġm uÃŁ
ĠK ie
ĠN oten
Ġa v
ĠKomm andeur
eier mark
laub nis
Ġempf angen
Ġpl us
Ġwohn zimmer
ĠScien ces
ĠIdent itÃ¤t
irurg ie
ĠYo ung
/ >
T ER
c le
ĠS amen
ar z
Ġ( ),
ir a
ĠAn liegen
âĢĿ ,
ĠÃ¤hn liche
Ġausgeb ildet
ĠGiov anni
g eln
Ġ up
Ġs enden
wei lig
ĠAn at
eg a
ru der
uf er
auf gaben
ĠFl Ã¼ss
Ġbesonder er
Ġern annte
Ġvers orgt
ĠStaat es
urnal ist
fÃ¤h ig
lad imir
CD U
ĠEvent s
eta ill
ĠÄ Į
D och
Q L
n t
ĠD rag
Ġf ragen
ĠH enn
ĠN er
Ġge weiht
ĠO ran
ah ne
ĠBe weis
ĠUnter schiede
Ġen orm
ĠAll ein
Ġbef anden
ĠBerg bau
Ġqu er
aff e
ĠTa geb
Ġerk ennt
ĠErinner ungen
Ġverab schie
D re
H ans
S oll
k reise
en te
Ġs a
re ste
ĠC ann
ĠZ wie
ĠSch acht
ĠPro jekten
ĠMar co
ĠNach frage
ĠFran ces
ĠSchw ein
Ġen ger
ĠEv a
ĠGit arre
ĠmaÃŁ geblich
ĠJed och
r eit
s z
Ġs ilber
ĠK lin
ĠK eine
ĠJ Ã¼n
ĠSt imm
ĠZ eilen
ĠfÃ¼r s
ĠAn reg
ĠKl eider
me yer
Ġ6 9
ĠPart ie
ĠCon tent
ĠKommun ikations
ĠErw art
ĠAuss agen
ĠSchwar zen
ĠSter nen
ĠVerteid igungs
Digital isat
C ol
h aut
in ental
ĠD ia
ĠE C
il den
Ġl Ã¤nd
ver g
ĠEs c
iet z
Ġeigen tliche
Ġange kÃ¼nd
af eln
ĠÃĸsterreich s
ĠMitt ag
aun a
ĠLeichtathlet ik
Nov ember
M Ã¶
v ideo
ĠK uchen
um me
he dr
ĠÃ¼ber sch
ĠVor schlag
ĠRe alitÃ¤t
fÃ¼ hle
ĠKirchen gemeinde
ĠAp othe
figur ation
Se ptember
kont akte
Ġchrist lichen
ĠlÃ¶ ste
t Ã¤u
Ġw eich
ĠT SV
Ġt our
eg ung
Ġst re
art h
Ġsp eichern
kl eid
ĠKomp etenz
ĠIst anbul
Dat um
Ġren omm
ĠBesatz ungs
kÃ¼r zung
Ġprofit ieren
e f
l ige
ĠVer st
ĠAn walt
schen ke
ĠReg iment
ĠFor scher
ĠMan uel
ĠÃĦ m
ĠmÃ¼s se
Ġ186 2
ĠSam uel
AS S
ĠPosition en
ĠKolle g
strahl t
ĠNomin ierung
U L
h lich
j amin
or ph
ĠE mail
ĠO ver
sp eicher
ĠIn solvenz
Ġj ene
itt le
reich t
Ġschn ellen
blem e
ĠJe ff
ontr olle
ĠKrit erien
Ġforder t
Ġil leg
ĠZut aten
Ġgg f
D ezember
ĠH ay
and s
ion ier
ger echt
Ġum stritten
ct ions
ĠWelt meister
Ġnun mehr
Ġ188 3
Ġnieder lÃ¤ndischen
zy linder
fÃ¶rm ige
Ġverbesser t
Ã¤rt ner
; ;
Ġs amt
im o
ru d
ĠSp ark
rau ÃŁen
ĠBer eit
ian ischen
Ġ9 6
Ġausge wiesen
ampf adern
arbeit ungs
Ġentwick elten
ĠgÃ¼nst igen
ĠRÃ¤ um
ĠTrotz dem
ĠDemokrat ie
spf licht
s ame
ĠM ike
ber ichte
ab schluss
ĠSp ar
ĠBe frei
ĠAb stieg
ĠZeit schriften
ĠSpiel film
ĠWohn haus
ĠFest ung
ĠZust immung
ĠBot schaft
agn ose
ĠZweck e
Ã¢ teau
ĠKrÃ¤ fte
mir al
J ohn
N ur
O K
Ġm otiv
Ġver mittelt
zie her
ĠGew Ã¤sser
ĠFranzÃ¶s isch
m uster
w all
en ken
ei fe
Ġan spruchs
Ġauf nehmen
sk on
Ġe ure
ĠStr ess
ĠSÃ¼ ÃŁ
ĠKre bs
ĠStock holm
ĠSpann ung
Ġregion alen
ĠM esser
Ġr etten
Ġeinge st
hÃ¶ fe
ativ es
Ġgewann en
ĠTÃ¼r en
ĠJournal isten
Ġumfassen de
ĠS egel
ĠK enntnis
ĠF ord
Ġbe herr
ĠUnter kunft
ĠLehr stuhl
ish ing
ĠhÃ¤uf iger
Ġkauf te
ĠDok umente
b org
m il
Ġs itzt
ĠF air
ĠP ause
ĠT hre
ach el
Ġauf einander
ik ationen
ver arbeitung
ic ast
Ġber ichtete
Ġ13 0
ĠJuni or
Ġben annte
Deutsch e
Ġ% .
ĠMittel meer
ĠfrÃ¼her e
Ġd is
ar film
Ġf aszin
ĠW ork
ĠL Ã¼n
le ten
ĠSt ationen
Ġl Ã¤dt
ĠVor feld
Ġlie b
ĠGeb irg
Ã¤m pft
IN G
zÃ¼ gen
ĠGut schein
Ġfertig gestellt
ĠGeheim nis
lieder ung
Ġphil osoph
ĠEnsem ble
L uft
Ġ rÃ¤um
ĠV iet
Ġzu st
ĠBe fest
19 39
ha ftet
St ation
Or ig
ĠSitz ung
Ġspez ialisiert
Ġro b
ĠAndre a
ĠErd be
M ittel
k ind
l ernen
r un
un en
sch rau
ĠK roat
ĠW itten
Ġver schl
Ġt rafen
ran ten
ĠLe vel
th ese
Ã¤m mer
ĠZwei g
glieder ung
Ġbekannte sten
gesp ielt
ĠMÃ¶n chen
Ġkost et
L eist
n s
w Ã¼n
z elt
ĠS ed
ĠP av
lie sen
ĠPh Ã¤nomen
ĠZw angs
198 6
ĠHÃ¶he punkt
ĠWes entlichen
ĠAud i
Ġrom ant
H Ã¶r
b reite
en hagen
ĠF Ã¤r
Ġf il
ĠJ ew
Ġan zeigen
ĠEr stellung
19 80
ma jor
ĠEl f
Ġ0 2
gew Ã¤sser
Ġverl ieren
ĠHil f
ĠCom ic
Ġdiskut iert
A pril
un fall
ĠB ang
ĠV alle
wei ch
ech er
ill y
ok a
per iode
Ġges ichert
Ġges ammelt
Ġ16 0
Ġseit her
off er
ath an
ĠCl ient
alis ierte
ĠPeter sburg
ĠLiefer ung
ĠAndr Ã©
M ain
k ol
el ekt
Ġm athemat
20 21
ĠMus een
ans as
ĠReich es
ĠAll gemeine
ĠHeil bronn
ĠAmer ica
Ġhol en
sab geordneter
ĠBerat ungs
b ald
l iger
m ung
t licher
ĠB ald
ĠD un
ĠD IN
scha den
Ġst er
gew alt
hand elt
ĠFranz osen
ĠKur fÃ¼rst
IS DN
Ġhol te
Ġkeiner lei
ĠVict or
offiz ier
ĠBronzemed aille
A u
k la
s ver
w id
ĠB reiten
ĠM eier
Ġwir st
pf alz
auft ritt
ĠSa arb
ĠKosten los
197 5
Ġkomp on
ĠAnder s
ĠVoraus setzung
> ,
G o
t yp
w ann
ĠS ech
ĠH Ã¤usern
Ġer werben
Ġdes selben
ĠVor arl
amm lungen
St at
ĠFor ce
prÃ¤ sidenten
sg ruppe
ĠKo blenz
Ġ186 9
Ber uf
ĠSchÃ¼ler innen
Ġprakt ische
ĠJer usalem
Ġengag ierte
ĠstÃ¤dt ischen
W E
en ten
Ġd icht
ĠB at
ber gen
ĠV amp
Ġan grenzen
ĠSch al
aus stattung
Ġunter lag
ho st
qu ellen
sk irche
Ġhier zu
system s
sph ase
ĠSym pt
ĠAgent ur
N etz
Ä ĥ
Ġ echte
Ġb ilder
Ġz ert
ĠP okal
ĠL av
ck te
ro ph
Ġl ohnt
nen nung
rie t
Ġvor Ã¼ber
Ġber echnet
Ġ6 7
ĠOber Ã¶sterreich
Ġger aten
lex ikon
ĠStud ies
ĠSchul d
ĠRÃ¼ck tritt
druck s
ĠAss istent
Ġwissenschaft licher
ĠHan se
Ġnotwend igen
ĠFrÃ¼hl ing
Ä Ł
Å Ł
Ġder selben
Ġm oment
ĠW esen
um a
ĠN u
ĠN est
Ġan sehen
im es
ĠEr hebung
ĠBer ichte
Ġbet reffen
ĠUniversitÃ¤t s
ĠOlymp ia
ĠberÃ¼hm ten
ĠTw itter
Kirchen gebÃ¤ude
A k
H C
k ins
l Ã¤ndern
ĠS z
ĠS id
Ġk aiser
og ra
ho ven
kl en
Sch utz
Ġger echt
Ġvoll kommen
ĠParis er
ĠGest alt
eistert itel
Des ign
Ġplan en
ĠIll ustr
Ġevent uell
PersÃ¶n lichkeiten
v ort
Ġ est
ĠM ent
ĠG U
ĠE ro
Ġn a
ĠL ow
ĠO d
Ġl eiten
ĠAn leitung
stell ern
pl Ã¤tzen
ĠGeb Ã¤udes
Ġ7 8
Ġbet reut
recht lichen
ĠVerl Ã¤ngerung
ĠWilliam s
aller y
ĠMun icip
ĠÃ¼brigen s
PrÃ¤ sident
ĠiPh one
M a
M itt
h as
n ischen
an el
ĠM ov
Ġer lebt
le hnung
ĠGesch lecht
mÃ¤ÃŁ ige
ĠGeh irn
198 8
ĠRes ult
Reg ie
ĠlÃ¤nger e
ĠPrem ium
ĠEreig nis
Ġfot ograf
k Ã¶nig
ĠP yr
ĠP ension
Ġk Ã¼r
Ġsp anischer
id akt
ĠVor stellungen
iker in
ĠAut on
ĠZeich nungen
beg riff
ĠSat ell
Ġren ov
Ġvorber eitet
ĠHolly wood
W ohn
Ġ echten
en kt
el ement
ĠD Ã¼n
ach us
ĠL eucht
Ġvon einander
Ġun k
Ġ18 30
ĠAus gleich
ĠRe zens
ĠStadt gebiet
unk er
Ġex periment
sport ler
Ġgelang te
fekt ur
Ġwid mete
Ġforder te
B rite
r unden
w il
Ġd etaill
al o
al in
ĠD ritte
ĠR ÃŃo
Ġk unst
ĠJ ord
ĠO R
Ġ7 6
ator s
Ġkon stru
ĠRechts an
ĠunterstÃ¼t zte
ĠErw Ã¤hnung
ĠAud io
wechs lungs
ĠverlÃ¤ng ert
D ata
V I
s uche
Ñ ĥ
ĠA gr
ĠF avor
ĠG od
ĠG ard
um fang
ĠV in
Ġge fahren
Ġl ine
Ã¶r er
ĠBer Ã¼cksicht
Ġgen Ã¼
ĠzurÃ¼ck gegeben
Ġ12 5
ativ itÃ¤t
Ġgl Ã¤n
ĠKol onial
ĠHen ri
Ġwunder bar
Ġtats Ã¤ch
Mich ael
H S
ch i
Ġd ella
ĠD ire
ĠF I
ĠF uchs
Ġg laube
Ġum gew
ĠAus flug
ĠWest er
ĠKomp lex
ĠKonz ern
u dent
Ġw eb
or o
ĠB ut
ĠF ound
ĠG T
ĠL ichten
ĠL aub
ĠV ill
lin ois
ri o
ĠCh i
Ġber lin
In f
Ġbil deten
Ġbesser en
part ei
ĠHel den
ĠPublik ationen
ĠKab inett
Ġgesetz lichen
f rauen
k Ã¼hl
n immt
r asse
Ġman chen
ĠTe en
verb indungen
ĠMod ul
Ġstehen den
Ġangeb lich
ĠBro ad
ĠWand el
ĠTim es
Ġhinzuge fÃ¼gt
Ġw enden
ĠM P
ĠF uss
Ġer led
ig i
ĠSt or
ĠZ in
ĠBe schluss
fl Ã¼ge
fl eisch
ĠTh or
hÃ¶r en
ĠBundes land
Ġfest en
Ġkon serv
Ġvert rieben
ĠStaats anwalt
Ġmoder ner
Ġerk annt
ĠMargar et
ĠglÃ¼ck lich
F ot
K ont
g ott
i op
n ommen
em eister
et scher
ĠSt ufe
ien e
ag el
Ġp fl
Ġvor zu
ĠCh ile
ĠIm age
ĠHand eln
deut scher
grÃ¼n den
ĠMag az
ĠTyp s
ĠFreund schaft
rein igung
ĠPremier minister
K ey
b it
b undes
o ffen
ĠH Ã¤
ĠL ohn
la de
19 14
ĠFl Ã¼sse
Ġber ichten
ĠNeu zeit
ator in
Ġkein em
Ġbed ient
ĠStÃ¤d t
ĠPrinz essin
ĠEntwick lungen
ĠVerkauf s
Ġak adem
ĠViertel finale
R ed
n ull
ĠR i
Ġab ges
auf lÃ¶sung
Ġgew isse
ĠSo ft
vor stand
Ġger inge
Ġgef eiert
ĠNord amerika
schn eiden
ĠFre der
ĠKreis es
ĠLog o
ĠWirk lichkeit
ĠPast or
E X
H K
ĠF A
ĠP ont
ĠL ack
ĠL ade
ien ce
ĠAn gehÃ¶rigen
ĠEr be
19 70
Ġkl icken
ĠTem plate
ĠFÃ¼hr ungs
ĠWal es
ĠPrem iere
Ġra sch
ĠKrÃ¤ uter
Ġengag iert
ĠOrch est
ĠArgentin ien
T ra
f utter
st eile
ĠL ese
Ġwar m
Ġ0 6
man uel
Ã¤m me
ĠVers ionen
Ġkomm ent
ĠSport s
zir ke
Ġhand eln
ĠWar schau
ĠTour isten
fre unde
ĠHalb insel
Ġproduz ierte
ĠSied lungs
Ġrest aur
Ġsorg te
Bet rieb
ĠGabr iel
r isch
ĠH alt
ĠRe formation
sb ild
ĠKn ow
ĠSol ar
ĠBischof s
ĠEich en
ĠVerÃ¤nder ung
Ġdur ften
ĠCarol ina
a sten
y b
ĠIn sekten
Ġsch me
per rt
old t
ĠEx tra
Ġgesch m
ĠTe ppich
ĠHerr scher
geord neten
prÃ¼ fen
ĠOff ice
Ehr ungen
kle ber
B ek
s hafen
v ier
ĠB enn
Ġ1 17
Ġf e
ĠL aur
le der
ĠSch ult
ĠO ste
ver d
ing ham
fol ie
Ã¤ch ter
fin det
Ġpro test
test et
Reg ion
Ã¼tz ten
ĠCor ps
ĠSchÃ¶n heit
ĠChamp ions
Ġausger ichtet
ĠZeu gen
ĠBew usstsein
ĠWurz eln
T schech
l u
p reise
es a
ĠM Ã¼hlen
Ġmit ge
Ġge prÃ¼ft
ĠSch uss
sp aren
ĠIn c
hen den
ht ml
if ische
Ġgeb unden
wort h
ĠStra tegie
ĠDan ke
ĠLo ok
Ġte uer
Ġbehand eln
O Exception
R hein
ĠB eb
ĠB ucht
ĠG allen
ĠJ ungs
Ġbe auft
Ġ18 49
ĠRo ger
Ġgel eitet
ĠKinder zimmer
ĠInstitut ionen
Ġrest lichen
ĠðŁ ĺ
ĠPreuÃŁ ischen
ĠTelef onn
M erk
c enter
h ier
ĠS K
ĠD ritter
Ġm ut
ĠR ub
Ġbe zahlen
wei he
wei tern
wei len
ed a
ĠAl f
form ular
dienst kreuz
gesetz es
Ġbedeuten de
Ġletzt es
Ġbeeinfl ussen
Ġkorre kt
Ġuntersch rieb
] .
v ey
Ä Ļ
Ġver haftet
lin s
schl Ã¼ssel
fer ence
ĠKon sol
Ġverb lieben
Ġu krain
bereich en
wirtschaft s
ĠBad minton
Ġfort an
Ġnorm al
ĠAustr al
Gener al
b ase
s ive
Ġw a
Ã¼r mer
ĠJ enn
ĠBr eit
anis mus
Ġbesonder es
ĠCon ne
Ġwill st
Ġgek ennzeichnet
ĠJur y
Ġide ale
sbed ingungen
siden tschaft
C C
T est
g reg
h us
m ech
t z
Ġ hr
Ġd auern
Ġs uche
ĠM ul
ĠT Ã¤tigkeiten
ber s
ĠI ran
ĠN assau
ĠJ en
ang aben
aus geber
be auftrag
ĠPro blemen
elt a
ĠEn tert
atur en
ek ter
ren ten
ĠBundes regierung
Ġbesch reiben
ĠMill ion
jÃ¤hr ig
ĠCas inos
Ġtechn isch
ĠmilitÃ¤r ischen
Ġveranst altet
hail and
Hinter grund
AuÃŁer dem
u eller
x x
y en
ich en
em ens
Ġ( :
ĠT am
ĠV W
ĠZ ellen
ĠSch ein
ic ation
geb ot
uss ia
St a
ett a
rich en
stein er
ĠArbeit nehmer
bes itzer
ĠDat eien
abil itation
ĠVorsitzen den
Ġabgel ehnt
opÃ¤d ie
g han
ĠB alt
ĠVer pflicht
her stellung
ho u
ĠBo ots
Sch iff
Ġger ufen
ĠHaupt rolle
ymp ath
ĠÃ¶ fter
ĠDres dner
VerÃ¶ffentlich ungen
ĠErkrank ungen
ĠAuseinander setzung
ĠkÃ¼nft ig
ĠPader born
F uÃŁ
O per
T ag
h Ã¶ch
i br
Ã¼ pft
ge halten
ĠA z
ent z
sp ark
Ġaus wÃ¤hlen
ĠAn sprech
ĠAl len
ĠPl ug
rach ten
ĠGen f
ĠHoch stift
ins eln
198 7
ĠMÃ¤n nchen
rÃ¤n kungen
ĠVeranst altungs
ĠRegierungs bezirk
bas is
ĠReihen folge
ĠfÃ¼hl t
ĠBaumw olle
ĠÃ¶rt lichen
Ġdeb Ã¼t
F il
k es
om on
ĠVer ordnung
op ath
ĠBe cken
ob i
ĠSÃ¼d tirol
sl etter
Â» ,
Ġleich ten
ĠExper iment
Ġevangel ische
Bundes liga
ĠP rix
ĠC os
Ġbesch rÃ¤nkt
Ġpr im
ĠWeiter bildung
ĠDist anz
Ġfinanz ielle
ĠDeck en
ĠParlament s
pap ier
Ġzusammengef asst
T or
Z usammen
b ayern
in kt
sch mer
Ġz ut
ĠT ipp
and in
rei hen
Ġ7 7
of ern
ĠBet riebe
ĠRech er
ĠEurop e
mar sch
Ġvert rau
bet eil
ĠWill en
schlag wortet
ias ieger
Ġy ou
ĠjÃ¼nger en
ĠAqu ar
ĠRuh estand
ĠEh emann
8 00
È Ļ
st isch
ĠW id
ĠW Ã¤hler
Ġh Ã¤ngen
Ġbe arbeitet
ĠEr sch
schie ÃŁen
if est
eck e
our en
ĠDe f
ata illon
gehen de
ĠNS DAP
Ġnational sozial
c us
f iguren
j Ã¤ger
p st
r und
Ġ eig
ĠM obile
ĠG ibt
am o
ĠH Ã¤uf
Ġbe fÃ¼r
Ġwie s
ktion en
ĠSpiel klasse
Ġgel Ã¶scht
olle yball
icher heit
ĠBest ehen
Ġ185 5
ĠEt appe
Ġelektr ische
ĠOpp osition
ĠGemark ung
achus etts
I F
Ġb un
ĠK ran
ĠK ick
ĠE leg
Ġdem okrat
ver Ã¶ffentlich
Ġst euer
Ġsch ein
ĠCh arts
Ġ8 2
Ã¶s ser
ute te
oc ument
schrei bungen
sprach en
ĠschÃ¶n er
onen te
ĠKin os
Ġaktuell es
veranst altungen
ĠSign al
wander ung
Ġmedizin ischen
ĠgewÃ¼n schten
A lex
Î ¹
ĠS om
Ã¼ pfen
Ġb ett
ĠE sp
Ġk ap
ĠN ad
ro d
ĠSch ritte
19 10
ĠAuf wand
Ġ8 3
Ġausge prÃ¤
ĠSchw estern
eint rÃ¤cht
ĠGo od
ĠgrÃ¶ÃŁten teils
Ġverz ichten
Ġnorm alerweise
Rei he
Ġm en
ĠW im
ĠC ob
ĠC ard
Ġbe schloss
ĠVer leger
ĠIn schrift
Ġent spr
Ein wohner
197 3
ĠAs yl
ĠHu bert
Ġland es
Ġtradition elle
**** ****
Ġdenk mal
ĠPian ist
Ġoption al
M ass
T urnier
ĠR Ã¼d
ver leihung
Ġbei gesetzt
ĠAn ge
end em
ho use
ĠAuf ruf
schen den
Ġgew id
ĠBo oks
Ġger eg
wir kt
ain ment
198 5
fert igung
Ã¼rt el
ĠBran che
meld ungen
Ġdauer haft
adel ph
âĢ¢ âĢ¢
endo ktor
D ir
H amburg
k W
Ġm e
ĠK ub
ĠG on
ĠH op
ĠH ahn
il deten
ĠC ock
ĠEr werb
19 20
Ġbet reiben
ĠMot ive
ĠVolks zÃ¤hlung
Ġro te
ĠVog t
stÃ¤r ke
s Ã¤
ĠS or
ĠT eig
Ã¤l en
ĠMar io
ine a
si de
ĠSta ff
Ġis lam
ĠgroÃŁ zÃ¼g
ps ych
legen de
verstÃ¤nd nis
Fin ale
H z
ĠF as
ĠE P
Ġf reue
Ġ( "
ĠR app
ĠL ist
ĠVer g
ap ter
ĠLand gericht
ĠNach lass
ĠThe at
ĠBo hr
ĠÃľber leben
reg ister
ĠReich en
ĠReich stag
ĠMot oren
Ġ185 6
ĠFel sen
ĠGÃ¤ sten
Ġorganis ierte
ĠBerÃ¼cksicht igung
D abei
k eln
on us
Ġ1 14
ĠH ong
ĠR eu
ver teilung
ehr ung
Ġunter schieden
ĠEn kel
pt on
gl adbach
fin anz
Ġ8 4
ĠOber bÃ¼rgermeister
lei h
Leben s
stitut ion
leist et
Ġgeh abt
ĠGlauben s
ĠBegeg nung
B ern
F eld
i Ã¨
o ine
sch alten
it ies
Ġge zwungen
ĠEr ziehung
eist ern
ĠInd ones
ĠNational park
Ġ: )
Ġqu alit
ĠTem p
ĠSchwer in
Ġgez ielt
Ġumfang reichen
Ġstaat liche
ĠTrau er
Ele kt
P okal
d ichte
ei ra
Ġh l
ĠAr min
wer fen
io x
ĠPh ysi
Ã¤u er
eig ert
Ġschn eiden
ĠBen jamin
ĠBÃ¼ chern
Ġerf Ã¤hrt
aust ausch
drÃ¼ck t
ĠBÃ¤ ume
ĠYou Tube
Ġsowjet ischen
ĠErzÃ¤hl ungen
ĠExempl are
Ġbayer ischen
R ennen
S aison
T rainer
ĠD ritten
Ġ1 16
ĠH ed
ĠL iss
Ġer zeugen
Ġk roat
ĠIn tens
Ã¤l lig
ĠKl einen
Ġc omp
ĠGew ichts
Ġhei ÃŁ
Ġsetz ten
mÃ¶ bel
Ġgez Ã¤hlt
BÃ¼rger meister
D enk
R aum
st einen
ĠW ay
ehr en
Ġnach t
Ġ18 15
ĠBe cker
ĠFl o
Ġ9 8
Ġgro ss
ĠEl l
ĠGen au
ĠĊĊ Ġ
schein lichkeit
Ġinter pret
leg ungen
Ġ180 6
Mod us
ĠHaar e
ĠPenn sylvania
E ner
g alerie
z ucht
ĠD M
Ġm ang
ĠF ri
ĠT ai
ach se
Ġver g
hn t
ri um
ĠKl ick
mann schaften
ĠSport ler
Ġaufge hoben
Ġerz Ã¤hlen
ĠRest aur
Ã¼tz te
ĠForsch ungen
Ġtyp ischen
ĠPil ot
ĠPubl iz
Ġzweit es
ĠNationalsozial isten
person en
Ġregistr iert
ĠClo ud
h Ã¤
w Ã¶rter
Ï Ħ
Ð ´
ĠA B
ah me
Ã¶r n
19 21
gel egen
Ġgen utz
ron omie
ĠAut omat
ĠDu sche
ager ung
Ob wohl
Ġsorg fÃ¤lt
M eine
f lieger
an ier
ĠS ven
Ġs ur
ĠA D
ĠM Ã©
Ġsp Ã¤testens
ĠAus rÃ¼stung
ĠAuf klÃ¤rung
Ġ5 000
Ġgew alt
Ġc ir
ĠJo e
Er zeugt
ĠLie ben
Ġeh emals
Ġaufge geben
ĠgroÃŁ em
sie ht
Ġarch Ã¤
B us
B ook
K or
i ol
ĠD al
ĠK etten
ĠW ater
ĠJ Ã¼d
Ġunter r
Ġab gesch
Ġgew issen
ĠSilber medaille
Ãĸsterreich er
ĠInt elligen
ĠHeer es
D okument
b els
ein d
el det
ĠR as
ĠSt ars
ĠEr halt
ph y
ĠGeb Ã¤uden
Mit te
Ġabge geben
Ber eich
ĠKommun e
198 4
ĠUl m
ake te
ĠSÃ¤ ulen
ĠKab arett
aliforn ia
ĠÃ¼bergeben en
Ġlauf enden
D o
k orea
Ã¼ ben
ĠG ie
Ġf liegen
ĠL yr
ik ro
Ġbe halten
Ġo ut
Ġre alisiert
Ġdrei mal
for um
ĠStra hl
ĠVerl etzungen
oslowak ei
Ġ ord
Ġd igital
ĠB eine
ĠG ul
ĠP reisen
om os
Ã¤r er
19 78
sk o
ĠEl s
min a
ĠLie ber
ĠVerb indungs
ĠTechn ische
film ung
organis ationen
ĠStraÃŁen bahn
Her r
ĠHel fer
Art ikel
ĠSoll te
Sel bst
N ein
W el
m isch
Ġ ew
Ġb uchen
ĠR ic
Ġer weitern
ĠJ ar
Ġge p
ĠU d
ĠAus sehen
Ġc ol
ĠEx port
ĠEx trem
ĠMo hamm
Ġeinge gliedert
ĠKont roll
ĠschÃ¶n es
Ġunterschied licher
ĠDesign s
ĠMinister ium
Ġerf asst
ĠbeschÃ¤ft igte
ĠCommun ity
ĠInnov ation
G el
P ap
v alue
ĠF ut
and te
Ġaus sehen
Ġt rau
ĠVor jahr
ĠPr es
ĠBet rag
ĠJu an
ĠSÃ¼d ost
ĠBi ografie
En g
ĠKat astrop
Ġrei ste
Disk ografie
verteid iger
ĠSchreibt isch
I K
c ul
n Ã¼tz
Ġd esto
ĠS ucht
it Ã©
ĠB uk
ĠL ett
Ġh armon
Ġver sen
Ġaus gesprochen
ist s
ĠAn wendungs
ic i
Ã¤r bt
19 30
onder s
Ã¤nder ung
ĠKur se
res pon
ĠHar ald
ĠSpr int
Ġverd ient
Ġgepl ante
ĠVerbr eitungs
ĠNav ig
adelph ia
z it
Ġs w
Ġm eint
ĠK av
Ġau spro
Ã¼n de
ĠSie ge
uss ion
ĠZeit ungen
fer enzen
ĠKon d
ĠPr inc
Ġeinge weiht
ĠFot ografie
En d
Ġmein es
ĠDir k
ĠErk enntnisse
Ã¶pf en
ĠgewÃ¤hr leistet
fir ma
ĠSpekt rum
ĠSoph ie
G ymnasium
V iel
Ġd ick
ĠS i
ĠS yd
ar be
ar mee
Ġb reiter
ĠF Ã¤hr
ĠC ass
ul ieren
ahl en
Ġda vor
ĠVor name
gl Ã¼ck
Ġbet ont
sb rauch
Ge org
ĠSte ck
grÃ¼n de
Ġaufge teilt
ĠTyp en
lÃ¤uf e
Ġkrit isiert
ĠPersÃ¶n lichkeit
ĠCent re
in ent
ĠD unkel
ĠK ent
ĠP ic
Ġf ern
Ġk r
Ġk Ã¤mpfen
Ġge schafft
Ġver stÃ¤nd
ed s
iz z
ob ald
Ġ9 00
ĠUnter halt
ĠÃľ bungen
Ġhin weg
ĠWei s
ĠMann es
Ġgest altete
ĠGel b
Ġ185 8
197 6
ĠCol or
ĠRelig ions
Ġil l
Arb eits
ĠDoug las
B eh
H eil
K Ã¼nstler
b rech
k Ã¶mm
y pt
in th
ter e
ĠSch aum
ĠEin zug
ĠEin zugs
ok raten
ĠMus kel
ograph ischen
ĠauÃŁer orden
ĠDir igent
voll er
Ġ185 2
Ġth emat
ĠMass age
Ġprakt ischen
ĠLandtag swahl
ĠJac ques
ĠNav y
ĠErschein ungs
ĠFantas y
ĠSyr ien
ĠdebÃ¼t ierte
Ġd oppel
ĠA fr
ĠE R
om s
Ġl ux
ver se
Ġa fr
19 38
ĠGr as
Ġ% )
ĠKr ampfadern
gef unden
ĠProgramm e
ĠCarl os
ĠverfÃ¼g te
ĠEntwick ler
Ġerr ichteten
ĠFÃ¤h igkeit
ĠErkrank ung
Sow jet
C I
f ehler
t rieben
al ts
ĠD orn
ĠH Ã¤r
et sch
Ġer lÃ¤uter
eh er
ĠAn kunft
ĠKl etter
eig ern
Ġteil te
ĠIS O
ĠPersÃ¶n lichkeiten
ĠBundest ags
ĠVict oria
D ialog
n isch
s Ã¤chsischen
st urm
ĠS eil
ĠS her
al p
Ġk ar
Ġk alt
se g
Ġauf weisen
ag on
19 25
ok o
ĠNach halt
inder ten
ĠBest immungen
ĠTour en
Ġregion ale
ĠFlÃ¼cht linge
stÃ¤d ter
ĠErl angen
ĠAufsicht s
ĠSpec ial
D ann
E hren
M ont
h um
Ġ @
st reifen
Ġm ache
ĠK rei
ĠT H
ĠU we
aus wahl
ĠGe fahren
her ine
ant ik
ĠKon stantin
Ġle gend
sh ire
ĠHier zu
sprach ige
ash ion
ĠHar z
stehen de
Ġmusikal ische
Ġgesund heit
Ġermor det
S ee
Ê ¿
Ġ 000
Ã¤ uren
Ġb itten
ĠD ame
lich keits
ĠâĢ º
ver antwort
ĠEr nennung
19 19
ĠLand gemeinde
Ġange ordnet
An gabe
ĠPart ien
man ager
ĠSte phen
Ġeinge zogen
buch autor
ĠJe de
produ kt
ĠRen ov
ĠUp date
Ġlehr te
ĠgenÃ¼ gend
) -
W eiÃŁ
Ġ raum
Ġd ruck
ur teilung
ĠB ug
ĠB urn
lie be
Ġunter teilt
19 12
ĠSchl os
Ġausge st
ite e
ĠTex ten
ĠWeiter entwicklung
Ġ185 1
ĠNor bert
Ġbrach ten
ĠKaff e
Ġmusikal ischen
ĠtÃ¼rk ischen
ĠdÃ¤n ischen
ĠEro ber
s c
Â ¤
ĠD opp
ĠM ust
ĠF erner
ĠT eich
od ium
ĠMar cel
Ġdeutsch land
Ġle g
ieg elt
Gesch Ã¤ft
Ġinner e
ĠGu ide
Ġleben s
ĠStu hl
Ġbeteil igten
Fernseh film
ĠSieg fried
ĠTrans fer
ĠMult icast
Ġzeich nen
ĠgewÃ¤hr leisten
Ġverurs acht
otent ial
Ġnachfolgen den
K rieg
L uther
P ark
st Ã¼cken
ge halt
or men
Ġ1 18
ra de
ad i
ĠRe view
Ã¶l be
war f
ĠTeil nehmern
ĠSchw Ã¤b
Ġen ge
Ein en
Ġnieder lÃ¤ndischer
bran che
ĠTay lor
A K
G leich
H g
N ot
s amen
ur ce
ĠF ro
ĠBe wertungen
bl ei
zw ald
met hoden
zy kl
nungs zeiten
ommun ity
ĠpreuÃŁ ischer
Su per
ĠPerspekt ive
ĠLokomot iven
ĠColumb ia
D C
J azz
R eich
R oman
Ġv ideo
Ġi kea
ĠC er
Ġver zeichnet
ĠZ iegel
Ġbe wertet
ĠVer sch
Ġst ren
enn zeichen
rÃ¤ fte
Ġab wechslungs
bl es
Ã¶ff entlichen
Ġ7 1
ĠAk adem
197 4
gn or
ĠHerzog tum
fried hof
Ġkanad ischen
wÃ¤rt igen
Ġmedizin ische
kanz lei
ĠVirg inia
ibil itÃ¤t
H in
L ei
M al
R om
b anken
f ix
m eier
ã ĥ
ĠS ymb
ĠB orn
Ġein setzen
Ġau th
ĠF DP
ĠW is
ĠW are
ĠT R
ik at
ahr ung
op le
ĠAr c
19 28
arb eits
qu ote
du kt
Ã¤nd igkeit
ĠBet reu
oten z
ĠFre d
Ġarb eits
ied s
Vor pommern
rue ft
Verein igtes
ĠDatenschutz erklÃ¤rung
ĠBundesver dienstkreuz
ĠSchick sal
G A
T it
z essen
ĠA M
ĠA ur
ĠG R
et ik
Ġun zÃ¤hl
ĠLand rat
sk ar
erk rank
Ġausge stellt
Sie ger
ĠAnfang s
emin ar
ĠbeschÃ¤ft igen
stud ien
ĠCa pt
ĠPlast ik
ĠkÃ¼r zer
H P
p assung
ĠK upp
ĠP ixel
ĠW ettbe
Ġk reis
Ã¼r zen
ĠSch rÃ¶
mal erei
ian i
ĠBau ten
Ġausge strahlt
stÃ¤nd igkeit
ĠSte ve
Sp ez
ĠAt hlet
ĠZahl ung
Ġget an
ĠJer sey
ĠSamm lungen
ĠKop enhagen
Ġqualif izierte
ĠPriv ate
ĠFertig stellung
T em
l ach
Ã °
em de
ĠG reif
den kt
ĠC ab
br unn
kl ang
Ã¤ch se
Ġ7 4
Ġ8 7
ĠEl be
Ã¶ch er
ĠBest immung
ĠChrist ine
ĠBi ographie
zentr ums
ĠSeit dem
198 2
ĠMannschaft s
197 2
Ġfre ut
ender t
ĠChem nitz
ĠKom Ã¶die
kn oten
ĠDek an
Ġabgeb rochen
ĠEinkauf s
ĠNap ole
ĠSynag oge
g reif
g Ã¤rten
ĠB j
ĠB ul
ĠW eit
Ġg Ã¤ng
re de
re gen
Ġbe werten
Ġj ava
Ġam t
ĠIm pul
ĠFl ora
ain s
Ġfest e
sh all
ĠAk ten
ĠRen ten
Ser ver
ĠSamm el
Ġzug unsten
beut el
ĠprÃ¼ fen
ĠSaarb rÃ¼cken
f onds
m os
Ã ¯
or ges
Ã¤ be
Ġein gemein
Ġm iss
ĠE y
teil ten
werk statt
ĠGen e
kon omie
zentr en
Ġverk n
ĠGeneral major
ĠBegriff e
ĠInstr umente
Ġmass iv
h od
p reuÃŁen
sch Ã¤den
at ischen
ĠB ow
ĠK enntnisse
ĠH inzu
ir ts
Ġl it
ag ert
ill es
berg s
Ġange messen
ĠUr kunde
ĠTe e
gÃ¤n gen
ĠGed icht
ĠRein igung
ĠAngel egenheiten
bÃ¼ hne
ĠEg al
Ġfung ierte
ĠTob ias
S ol
b ing
el ia
Ġsch icken
ĠPl atte
Ġange wand
ĠLe er
ĠStud iums
Ġaktu alisiert
Ġerfol gl
Ġtradition ell
ĠUrs achen
ĠLux emburg
omet rie
Ġproblem los
ĠSauer stoff
Archite ktur
S aint
u tern
at on
Ġf rau
Ġer gab
Ġh y
ĠAn wender
ind el
Ġ18 45
Ġausge de
als o
ĠNord west
ĠDe finition
hau ser
ĠHal te
Ġempf ohlen
ĠAbt ei
ĠVi ol
ĠHon or
Ġruh ig
ĠFinn land
Franz ose
A ss
B oot
b ur
Ġ ).
Ġ test
sch ungen
ĠP s
ĠP iet
ĠT oren
and al
pp el
ĠVor les
ĠNach kommen
sk op
Qu alif
Ġviel fach
ĠZu schau
Ġjeweil ige
198 3
Ã¼rz te
Ġrei fe
Ġeinzig artige
klass igen
ĠJahrzehn te
ĠBundest ag
ĠkÃ¼nstler ische
ĠBewer bung
ĠRal f
ĠBam berg
A c
A ccess
a ste
Ã ī
Ġ q
ie den
st heorie
Ġw Ã¶ch
or er
ĠD uft
Ġm obile
ĠF usion
et tern
Ġo ff
ag an
ĠGr atis
ĠMa z
ĠUnter haltung
ĠRo te
ym met
Ã¤d te
ĠCl aus
198 1
ĠScha ffen
ĠJubil Ã¤um
cycl op
T rotz
p rakt
ĠD ata
ĠI wan
ĠC alifornia
Ġ- -
sk ap
ult an
of a
Ver walt
Ġkosten losen
ĠWinter spiele
ĠhÃ¶ch st
Ġpoln ische
Ġlok ale
Ġgesellschaft lichen
ĠschlÃ¤ gt
E A
V ideo
t re
ĠS ektion
Ã¼ bung
ĠB ent
Ġm or
ĠG ur
Ġh inz
Ġge he
ĠSch okol
ow itz
ss itz
ĠBau reihe
Ġeigen stÃ¤ndige
mÃ¤ÃŁ igen
ĠGegen stand
ĠWirtschaft sw
ĠTa sche
gesetz te
ĠKaiser reich
ĠGre at
sa al
Ġzeig ten
Ġkultur ellen
minist rat
ĠSchwanger schaft
Ġumgew andelt
J etzt
h ire
w Ã¤nde
ĠD R
ĠV eg
Ġl iber
ĠVer teilung
ĠSp ace
Ġsie gte
ĠMar in
ma x
hol ungs
Ġange mel
ĠGen uss
ĠVers orgungs
Ġho hem
Ġschwer er
ĠFrÃ¼ chte
ĠEv alu
Re zeption
Ġwes entlichen
ĠSteuer ung
ĠSek retÃ¤r
Ġkontakt ieren
franzÃ¶s isch
/ -
f ig
w etter
Ġ it
Ġd rauÃŁen
ge tragen
ĠH us
den z
ĠR ied
ĠC arr
Ġbe fr
ĠAn nahme
ĠEr ic
Ġsch lagen
rÃ¤ g
zeit lich
ĠPl Ã¤nen
kon ferenz
ĠKr ise
ĠOn kel
ĠMil it
ĠGener ationen
ĠPat ient
euch te
ĠProv inzen
Ġ185 4
Ã¤ss ern
ĠViz emeister
ĠLeg isl
ĠOut door
ĠMonument s
E W
N och
V B
Ġd t
al ben
ĠE ver
ĠT hal
ĠÃ¼ber liefert
og rafen
19 26
19 29
19 44
arb on
ph abet
ĠVerb rechen
mÃ¶glich keit
ĠDen ken
Ġjeden falls
seit igen
Ġpoln ischer
ĠAstron om
N O
f it
k os
v ik
Ã¶ ster
ĠH ad
Ġbe waff
pp chen
Ġvor n
19 24
Ã¤ch ern
io den
Ġ8 1
ĠGer ichte
ĠDr ama
schw itz
ĠTer mine
ĠTri b
ĠAmts gericht
will igung
ĠÃ¤uÃŁ eren
ĠWeil er
ĠFal ken
ĠDemokrat ischen
ĠSchmer zen
ĠWell ness
ĠZufl uss
ĠFranÃ§ ois
W or
m esse
n utzung
an es
ĠA le
ĠD igit
ĠM S
ĠM essen
ĠK ay
ĠF unde
ĠP ur
ro tt
Ġun ivers
Ġ18 46
iz er
omm el
Ġgew innt
sb eg
ĠAnt arkt
ĠFr isch
ĠKn ie
ĠErz bist
ĠDon ald
197 9
ĠZur Ã¼ck
Ġbeteil igte
schei be
kathol ischen
ontroll er
Ġnutz te
Ġstattf and
Ġdenkmal gesch
g ument
ich e
Ġdie jenigen
ĠJ am
ab y
ĠC art
ĠÃ¼ber prÃ¼ft
ok u
St ein
ĠGra ben
ĠBas il
ĠĊĠĊ ĠĊĠĊ
inde x
mod elle
ĠKlass iker
con om
Ġgener ell
Lin ie
stad ion
z weig
ĠA P
ĠB uck
ĠD ark
Ġf f
ĠH imm
ĠT ap
ĠR ow
Ġg laub
Ġge fÃ¼llt
Ġauf geb
ot her
Ġsch einen
19 11
olog in
olog ical
Ġgel b
bo urg
ĠDe fen
Ġverl iert
ĠAlb ums
197 7
gra fen
Welt meister
Ġpassen d
teg ien
kathol ische
ĠGottes dienst
ĠPhys iker
Ġberuf lichen
Ġmittelalter lichen
ĠGlob al
ĠUR L
G rÃ¼n
H R
g h
k asse
o in
ie de
Ã¼ ht
ar ter
at hlon
as a
ĠV II
ĠSch um
Ġbe klei
op ran
ieren der
Ġ9 2
Ġange kommen
ĠPh ant
ĠTr ump
Ġho ffen
ĠPat ent
ĠRa jon
seit ige
wal de
ter nen
ĠP le
ĠP ers
ĠT s
ĠSch mal
Ġvor an
ak ul
qu ert
ĠAnt ike
Ġbel egen
verb ot
Ġvoll stÃ¤ndige
ĠJohn son
Ġth at
ĠRos a
ĠGlÃ¼ck s
ĠInner e
zut age
ĠChron ik
ĠkÃ¼mm ern
ĠangekÃ¼nd igt
ĠMÃ¶nchen gladbach
ĠAnsprech partner
w riter
ĠD eut
Ġer setzen
Ġk op
re tern
Ġst ein
ick te
ĠFl otte
Ġc om
Ġle cker
ĠMÃ¼n zen
ĠBest en
ĠLin den
tr acht
Ġkein es
ĠKor re
ĠStu dent
Ġbelieb testen
Ġinternational er
ĠErzÃ¤hl ung
Ġjung er
ĠElektron ik
ĠOze an
L A
L ang
O s
Ļ Ĥ
ĠS eh
ĠB ie
ĠF aust
ĠH els
Ġsch mer
ĠÃ¼ber legen
ĠVor gang
amm t
Al p
ĠBeg leitung
Ġerfolg ten
ĠProf ession
Ġdan eben
ĠStat ist
lÃ¤uf ig
Ġtyp ische
ĠKlass ische
ĠÃĦm ter
L iter
W M
g riff
i y
} .
ĠL il
ĠZ en
Ġaus gelegt
ul ierung
ang riff
Ġso g
Ġdurch ge
ĠCh am
ĠMen Ã¼
Ġe p
gew achsen
ĠDar stellungen
test elle
Ġ185 7
Ġ185 9
out ube
Ġvergleich en
Arch iv
Ġchines ische
Ġdauer te
ĠWit we
ĠEber hard
ĠBÃ¼nd nis
L isten
Î ½
ie u
al on
ĠG ol
Ġf und
ĠI OException
Ġge folgt
ah m
eg g
hn er
ĠGe fÃ¼hle
ĠAb sol
ĠCh art
rÃ¼ ger
kl eider
amil ton
Ver band
Er stellt
ĠChrist i
ĠAuft ritte
ĠMitt eln
Ġfl ach
ĠPfl anze
ĠPartner schaft
So ftware
Ġposit iven
ĠSar ah
ĠAlli anz
A A
sch Ã¼ler
ĠW end
ĠH P
le hen
Ġk ol
Ġge testet
ĠSt eiermark
Ġbe deckt
Ġst yle
ĠBe au
fol gend
ĠBl Ã¼te
iet ung
Ġ12 00
ĠDar steller
ĠmÃ¼s ste
ĠAkt uell
ĠHistor ische
ĠEt wa
196 9
ĠGar antie
ĠArm y
ĠImm un
ĠSchott land
i zenz
l ot
ĠP um
ĠW ichtig
ĠSt ufen
ann over
ik ern
Ġ3 60
ĠTr in
Ġwei bliche
ĠfrÃ¼ he
Ġsicher te
ĠKil ometern
ĠEv olution
ĠPo int
190 3
ĠWett kampf
ĠÃ¼berra schend
wÃ¤l te
ĠVize prÃ¤sident
? âĢľ
W olf
n ing
Ġ ==
ĠB akter
ĠT afel
Ġver grÃ¶ÃŁ
ĠAn k
ĠEr haltung
bl ing
id d
ok er
ĠBl as
Ġde aktiv
iss ionen
ĠHaupt darsteller
ĠSk la
ĠSal v
ĠKÃ¼nstler in
Ġhervor ragend
ĠGesetz e
ĠWahr nehmung
ĠĠĠĠĠĠĠĠ ĠĠĠĠĠĠĠĠ
ĠWol ken
ĠRh ythm
ĠergÃ¤n zen
ĠArzn eim
ĠS ich
Ġan schauen
rei be
men gen
ad y
ĠSp alte
ĠAr ena
Ġab weichen
ho se
fol io
ov o
ip e
Ġbek annter
Al so
Ġverschieden sten
Ġverm utet
ĠDruck er
ĠtÃ¤ glichen
archite kt
ĠPow iat
P ost
S Ã¤nger
k ab
z onen
Å Ľ
ĠS v
ĠD ing
ĠK la
ĠE b
Ġf ix
is m
ĠVer stÃ¤r
ĠPro tag
Ġa p
19 34
Ġgew orfen
ĠKon stanz
our i
ĠGen ehmigung
ĠRei s
Nach bar
ĠNew sletter
ĠGra bst
ĠZusammen schluss
Ġind ir
fel de
Ġumfassen den
ĠFlor ida
ĠFass ade
Ġbeauft ragt
E p
F amilien
a ber
b rief
s Ã¼d
ĠS ituationen
de uten
ĠP est
ĠV ik
ĠJ r
op ol
be weg
stell bar
19 37
ĠFl ur
ank a
port iert
190 1
Ġ180 3
196 8
Ġar men
Pr ess
ĠVerf asser
ĠJack son
pack t
ĠErschein ung
G old
R h
a pt
ch s
ĠM ater
ĠN i
ĠDie sen
ill o
ian s
ĠUnter lagen
rach e
ĠEx il
ib us
Ġerw achsen
ĠSchm id
ĠBeruf ung
emat ik
ĠTo y
krÃ¤ ften
Ã¤cht nis
ĠSow ohl
grÃ¶ ÃŁer
ommun ikation
antas ie
ĠFle cken
ĠkÃ¼nd igte
K D
T C
Ġ ult
Ġs olle
Ġf ehler
Ġaus gesetzt
19 50
ste ck
iz za
ĠAb hÃ¤ng
ĠMar l
Ġher z
Ġviel mehr
ĠZu vor
Ver b
ĠKÃ¶nig sberg
Ġoffen sichtlich
ĠprÃ¤ z
wissenschaft lichen
ĠTra ck
aly sen
ĠKol umb
ĠTal ent
Ġmin im
Ġsech sten
I X
L o
W ahl
w ider
an ch
ur ity
ĠA pfel
ĠD og
sp rÃ¼fung
Ġun verb
Ġst immt
ĠBe aut
19 00
Ġsp anische
io us
ĠGesch Ã¤fte
aut omat
Ġzusammen gestellt
man ischen
ĠMan chester
Ã¶st liche
ĠSaison ende
ograf ische
Ġgem essen
ĠAt elier
ĠBel euchtung
ĠBetrieb ssystem
por ter
ĠErd geschoss
Ġverbunden en
Ġorganis ieren
ĠstÃ¤r k
grÃ¶ ÃŁen
ĠOpt ionen
Ġwor auf
D ivision
H Ã¶
H eim
L ink
P rot
S ehr
r Ã¼ndung
s u
ĠG uten
ĠW orm
ĠH Ã¼r
ier n
ĠN eg
ra ham
rei tete
ĠAn gehÃ¶rige
Ġt raum
ĠÃ¼ber prÃ¼fen
mer s
ĠEin stellungen
Ġa c
rau ff
Ġc ont
Ġbet rifft
ĠWer ks
ĠBeg leiter
Ã¡ r
ĠPrÃ¤ sidentschaft
ĠHil de
Ġfrei er
west lichen
ime tern
pert y
Ġwand te
lapp t
G raf
e uropa
s ammlung
er d
el er
ĠW y
ĠW oll
ĠH ass
Ġbe enden
ĠAn zeigen
eb all
Ġso bald
Ġsie d
end ish
bl og
gel aden
Ġ8 9
str Ã¶m
ĠPrÃ¤ fektur
sh op
vert retung
ĠPhil adelphia
En glisch
Mar kt
Land es
ĠSchwar ze
Ġspann ende
ĠBrie fe
G ut
L udwig
k aufen
m y
m ol
m ach
p ir
Ġ1 12
ut in
Ġg reifen
Ġauf w
ik ale
ĠSch eiben
ehr ten
Ġ18 47
auf lage
19 27
19 32
In halt
Ġet hn
Ġ8 6
mit te
mit ten
ĠRÃ¼ck seite
ĠTechn iken
sta ats
ĠRes idenz
Ent wicklung
ĠPorn os
ĠDiv is
ĠStoff e
ĠmilitÃ¤r ische
ĠCav endish
htt p
ĠGlÃ¤ ub
ĠKoal ition
Ġ $
ĠS W
au sen
ĠD FB
as y
ĠK Ã¤ufer
ĠH ildes
ĠV at
ĠSch Ã¤fer
ĠAn sonsten
ĠJahr buch
Ġ3 50
ĠAus richtung
ĠAb schied
br Ã¼cken
ĠSh ar
Ġzahl reicher
Ġschw ach
spro jekt
ĠSchm etter
ĠKosten lose
190 7
gra ted
ĠFort setzung
ĠVerl etzung
komm and
ĠBu en
ĠKriegs gefangen
ĠGeist es
ĠNachbar gemeinden
Ġfiel en
Ġverbesser te
ĠPok er
Ġjahr el
Ġreag iert
ĠWorkshop s
Vol ks
ĠBom ben
ĠViet nam
B enz
R itter
f la
an on
ĠK ai
ĠT ak
ĠL yn
Ġer lebte
ĠI hm
Ġge teilt
ĠC hal
ger echnet
19 46
Ġber echt
Ã¶l n
reu te
ĠGer Ã¤ten
ĠBuch es
ĠDu ke
ĠOl d
ĠZwei fel
Ent fern
ĠSw inger
kan al
komp lex
ĠFlag ge
ĠWik ipedia
Ġgewid met
S et
g in
ĠS onn
ein gang
Ġf Ã¶rdert
ĠW LAN
ĠH ip
ĠT akt
ĠL td
Ġh Ã¶rt
rei bst
Ġsich eren
ian e
ian er
ĠUm stÃ¤nden
ĠMittel feld
ĠLei b
ĠNe apel
ĠEigen schaft
met ik
ĠGef Ã¤hr
ikal ische
Ġverd ienen
Ġnorm ale
ĠWissen s
ĠStatt dessen
A bt
F ebruar
O D
r Ã¶m
z end
Ġd un
ĠS ax
Ġein richten
ĠM am
ĠL ud
Ġbe stens
Ġsich ere
che f
ĠAus stellungs
off s
Ġins zen
Ġbesch rieb
ĠTechn ologien
ĠSam sung
ĠAndre w
schei ben
ĠTur ner
ĠDigital isierung
Ġunmittelbar er
Ġident isch
ners uche
Ġorden tlich
Ġschwei zer
ĠKonzentr ations
Ġdokument iert
Ġbedeutend sten
L ex
a a
e urop
h ut
sch u
ĠA N
at ing
ĠM inn
Ġf ilm
Ã¶ cke
ber eiten
ĠL an
rÃ¤ uch
Ġ18 16
wer fer
St il
up s
ĠChrist op
mar ke
ĠPer u
ĠFach werk
Ġhinter lassen
190 8
ĠHeimat stadt
ĠÃ¤hn lichen
ĠSand stein
Ġbetrach ten
ĠanschlieÃŁen den
dep enden
B ilder
S ong
g eist
t reffen
w n
ur ist
ĠD ez
ĠG ord
Ã¶ hnen
ĠT U
ĠR iv
Ġsch au
ang o
utz er
ĠStadt rat
St unden
Ġ9 4
Ġgro sse
ĠUm frage
Ġ16 00
kon stru
ĠNieder schlag
Ġsol ange
weis ungen
ĠBesuch ern
ĠDis play
196 6
ĠGesprÃ¤ che
ĠThr on
h at
l aus
st yp
Ġv olle
Ġm erk
Ġ1 13
ĠN ichts
Ġst eckt
ĠEin sÃ¤tze
19 40
ĠRe chen
ĠIm per
kl ein
Ġkl ingt
Sch lag
ĠGen ossen
ĠVol ker
ĠLebens raum
ĠPhil ip
itte e
ĠRat geber
ĠBor ussia
ĠPe er
schlÃ¤ gen
ĠSold at
Techn ik
ĠSab ine
ĠVf L
ĠSlow ak
ĠStraÃŁ burg
ĠAx el
ĠRac ing
L eicht
S im
w ochen
sch atz
ĠS ac
ĠS echs
ĠL ehen
ĠV Ã¶gel
ĠN AT
ĠVer leihung
Ġum welt
ĠGes ell
ĠMon ster
ĠFilm fest
ĠVol umen
ĠPat ri
ĠÃ¶ konom
197 1
ĠRed akteur
ĠNachbar n
Ġschwed ischer
Ã¼mm ler
Juni oren
Intern ational
ĠPerspekt iven
ĠBeam ten
ĠGetrÃ¤n ke
ĠGreg or
" :
F Ã¼gt
b in
c ard
s haber
st iftung
an schluss
or ger
ĠB GB
ĠP ad
ĠP unk
ĠW att
ĠH em
ĠT rage
ĠV ieh
ir bt
Ġan st
ĠC ultur
ĠVor schriften
ĠLand haus
fl Ã¼ss
inder te
str and
ĠJohann a
tag es
ĠPlan eten
ĠgrÃ¼n en
ĠBu ff
ĠEing angs
ĠKer amik
ĠNamens geber
L u
i bliothek
k re
u uml
Ġd ran
un er
ĠD A
ĠK lagen
Ã¶ pfer
ĠT uch
ĠJ Ã¤nner
ĠSt abilitÃ¤t
ben e
ĠSch af
ĠVer hÃ¤ltnisse
ĠVer folgung
ser ver
Ã¤t sel
Ġunter st
gr ammen
Ġr eine
eigen en
fÃ¼r sten
gebiet es
ament o
Ġspez ial
IN E
Ġant iken
ĠChem iker
Ã¼g eln
Ġdat iert
Ġaustral ischen
ĠSupp ort
ĠSteu ern
P O
P ass
f elt
ĠP ek
et wa
ĠT um
ĠR ies
ĠL ernen
ĠL ittle
ĠJ edes
Ġzu stÃ¤ndigen
Ġdem nach
Ġ18 18
id as
lÃ¤ sst
ĠProdu zenten
ĠInf o
Ġliegen de
ĠRegel ung
ĠHin sicht
Ġleben den
ĠTon y
Ġverf asst
Ko ordin
ĠLew is
Ġberu ht
K om
T enn
b eb
n ord
p ause
Ġ are
Ġf erner
ĠSt ipend
ver eine
ĠAn sprÃ¼che
ĠEin bau
oll er
Ġvor erst
19 13
ren ce
ĠMo or
ĠVers uche
deck er
ĠOst see
ifiz ieren
ĠPan or
Ġqualif iziert
ĠPrÃ¤sent ation
Merk male
I B
W o
Z iel
w oche
st Ã¤dt
st heater
sch uh
Ġb o
ĠD Ã¼r
ĠC her
ĠSch ichten
Ġp re
ĠBer echnung
ĠPl att
Ġher kÃ¶mm
ĠÃľber setzer
ĠBundes straÃŁe
ond a
Mann schaft
ĠÃĦ l
ĠRom ane
zentr ale
Ġfr ucht
eint rag
ĠInnen raum
osoph ie
Land tag
Ġentstanden en
ĠBrit en
ĠUrs ula
Ġwert volle
ĠAllt ags
Ġschlech ter
W appen
h essen
s ieg
at her
Ġn Ã¼tz
ĠW Ã¶r
ĠH old
ĠSt eine
Ġver Ã¶ffentlichen
ĠSch lieÃŁ
iel les
19 23
ĠCh at
Ġre form
burg h
ĠSo f
ĠKn o
Ġkon sequ
ĠWil son
Ġpolit ischer
ĠNutz ungs
ĠRÃ¤ umen
ĠAf ghan
orient ierte
wes ens
ĠZerst Ã¶rung
au chen
Ġs Ã¤chsischen
ĠA spekt
Ġi sol
ĠJ un
Ġp osition
Ġdurch setzen
Ã¼hr ungen
ĠKon stru
Ġle ck
ĠUnivers al
ĠMÃ¼n dung
oc aust
gor ithm
Ġqu adrat
Ġ185 3
ĠDav is
ĠSl ot
fil ter
ĠSalz burger
SS R
ĠNÃ¼rn berger
ĠHy per
Ġschlech ten
ĠbegrÃ¼n det
ĠEuropameister schaften
Ġkonzip iert
ĠFound ation
sch Ã¶nen
ĠB arr
Ġh Ã¼b
Ġg old
ent ial
Ġver eint
he d
ak el
Un ternehmer
urt stag
sche e
ĠDe ad
ĠWohn en
Aus gabe
ĠGew Ã¤hr
eth od
ĠGold medaille
ĠVeranst alter
ĠKrit iker
Exception Constants
Ġgeschlossen en
Ġausgew Ã¤hlten
Ġevangel isch
ĠChampion ship
ĠGeschlech ts
ĠBehand lungs
ĠEntert ainment
ĠSyd ney
G it
J J
c s
ge werbe
or chester
ĠF eiert
Ġf amil
ĠW ies
ĠH ost
ent schieden
Ġbe zeichnen
Ġab sch
19 22
19 42
ill i
ĠSe eh
gew Ã¤chse
Sp eichert
ĠProjekt s
ĠIde al
Ġhistor iques
Ġvorhanden e
ĠChe ck
ĠAir es
ĠRel ief
ĠOh io
S I
W ieder
c ts
w Ã¤sser
Ġd oppelt
ĠS tem
ur al
ĠE mer
ra h
Ġg laubt
Ġl o
Ġunter nehmen
Ġr unden
anz eige
ĠAuf stand
qu is
fahr ungen
amen ten
ĠHand werks
ĠZwei te
ĠArbeit splatz
ĠCont ainer
ĠEigent ums
ĠlÃ¶ schen
================ ================
Sonst iges
S M
ĠM ore
ĠP R
ĠC osta
ĠSt urz
ag in
be arbeitung
auf ent
ess a
ant rieb
ak eten
Ġausge geben
Er ste
ĠDe c
ĠLandes regierung
ement s
Auf gelÃ¶st
Ġdr ingend
ĠErfolg s
pol izei
ĠCharl otte
ĠerhÃ¶ hte
Ġprofession ellen
ĠVerk Ã¤ufer
Ġdurchschnitt lich
ĠTelefonn ummer
A ch
h otel
j ob
Ä Ĺ
ĠF ox
ĠH ess
ĠR ektor
om o
ĠSt eiger
ri f
Ġ18 43
tern ehm
ĠBe et
id ar
ĠVor haben
fer ien
Sch Ã¶n
Un garn
iff ern
ĠEx p
ĠFahr zeugen
ĠCl ar
hei de
ĠHe ad
Ab sol
Ġhistor isch
Ġbisher ige
ĠSied lungen
ĠAust ria
vis or
ĠSchles ien
unc il
Ġstet ig
1 10
D ass
E v
O ut
an as
ĠS einen
it ive
ĠP y
ĠP fe
ell ung
ĠPro be
Ġab gew
19 60
ĠGer d
ĠGegen stÃ¤nde
ĠÃ¶ff net
ĠAmer ikaner
gehen den
Ġdr amat
eten zen
ÅĤ aw
Ġpass ieren
kor de
Ġint elligen
Ġkultur elle
ĠHaft ung
Ã¤nk ischen
ĠKroat ien
Ġunterr ichtete
h ers
l inger
Ġ reisen
an leitung
Ġein setz
Ġi gnor
ĠR un
ĠL Ã¶s
Ġan melden
Ġver ring
he ft
ri ct
ĠAr k
Ġab gelÃ¶st
Ã¤l le
ĠPh arma
Ġ% ,
sh ut
ĠPeter s
Ob ject
ĠTo il
Ġte sten
ĠEvangel ische
Ġelektr ischen
national spieler
fal se
ĠLaus anne
ĠZuschau ern
S K
d own
k am
in haber
ĠL egende
lich ung
ab on
Ġaus ser
Ġp Content
eb st
ger Ã¤ten
ech nen
19 31
ĠCh ild
sb ahn
schieden e
ĠRei ÃŁ
ĠBuch en
Ġwei blichen
Ã¼l lt
schrei ber
Ġbed ingt
ĠMass achusetts
Ġhal ben
oir es
S zene
Ġ {
Ġ rie
or ch
ĠK anten
ĠW arte
ĠC ust
ĠBo ard
ens is
up e
ipp er
ĠForm ular
recht liche
ĠZusammen setzung
Her steller
ĠDrei ÃŁig
Ġverlie f
ĠHoll and
Ġperf ekten
ausschuss es
Ġinnov ative
ĠForder ungen
andin av
D enn
t heater
an bieter
ĠD ess
ĠE qu
ĠR och
Ġer lern
Ġer mitteln
Ġk rank
Ġt at
19 36
wer de
ĠVor bereit
Ġ7 9
ĠHaupt bahnhof
Ġen gen
ĠOl iv
ĠNieder lagen
ĠLu is
ĠBahnhof s
Arch Ã¤
ĠBÃ¤ cker
ĠStreit krÃ¤fte
ĠKrank heiten
ĠTschech oslowakei
Ġnachhalt ig
ĠReserv e
ĠApost ol
gesprÃ¤ ch
M er
W issenschaft
m oder
w ende
un ks
it us
Ã¤ ub
ĠD eh
Ġge schnitten
ĠSch ei
ad es
ĠEr ik
Ġab gelegt
ĠAd min
ĠFre y
ĠGl etscher
190 2
Bau denkmal
Ġangegeben e
ĠStandard s
ĠAf D
sprech ung
ĠSus anne
ĠSchmer z
ĠFerr ari
Histor ische
prof essor
MÃ¼n chen
G C
f aser
t Ã¤
ĠS ib
au schen
ĠK ot
ĠF asch
ĠL ay
Ġver folgen
ul s
Ġnach zu
be ziehung
ĠAl ice
19 35
ant o
ia e
pl omat
reis gau
Ġber uh
fÃ¼hr ende
Ġges perrt
ĠEx ception
ĠFr es
ĠHoch schulen
sst elle
ĠZwei ter
ĠArbeit spl
ĠgrÃ¼n e
ĠAuftrag geber
rist all
ĠHart mann
funktion en
Ġeinzig artigen
jew itsch
ĠUlt ra
ĠErwart ungen
hedr ale
D av
c am
k ombin
on ische
ĠD ifferenz
ĠH Ã¤nd
is ierungs
ĠI sol
Ġk W
ik ten
ing st
ĠEn cyclop
ĠRech ner
ou v
ĠWill kommen
ĠTor onto
ĠJur a
Ġreduz ieren
chten stein
ĠRon ald
ĠBetroffen en
ĠAth leten
ĠBulgar ien
B und
F ort
M Ã¤nner
g st
m auern
à ¸
Ġ Ã¤nderte
ie hlt
ĠG eile
ĠV ision
ĠN Ã¤hr
ĠN erv
ro ad
ĠSt ore
ĠSt Ã¼tz
Ġ18 35
ĠAb bau
Ġ9 7
ĠUnter grund
Ġher an
eck s
ĠHe art
leben s
Ġverk Ã¼n
fert igt
ĠgrÃ¼n deten
Ġinteress ieren
189 5
ĠVort rÃ¤ge
steh er
Ġabgel eitet
Ġanges ichts
fle kt
Ġdurchschnitt liche
ĠMeg a
Ġbefest igt
MÃ¶ gliche
H A
S pr
T P
b em
Ð ¼
ĠS in
Ã¤ ule
ter min
ĠG Ã¤rten
ĠH C
ĠV Ã¶l
us sten
Ġauf wend
ĠZ ucht
lie ss
Ġdurch fÃ¼hren
Ġsp ont
spiel s
Ġbes eit
iss a
ĠHaupt mann
ĠPar ks
beh Ã¶rden
ĠNot fall
196 3
196 5
ĠPass wort
ĠstÃ¤r ken
ĠDokument arfilm
ĠZul assung
ĠNahr ungs
bef ehl
Ġrechte ck
ĠGitarr ist
R echt
a ks
n ische
Ð ¹
Ġw usste
Ġs aÃŁ
Ã¤ ischer
Ã¤ pst
ĠW icht
ĠL ip
ĠL Ã¤ng
ut ung
Ġt rag
Ġwar tet
ic z
bau werk
enz el
fach e
ĠÃľber tragung
dr ama
ober t
hand werk
gra b
ĠBu sch
artet t
Ġverschw unden
ĠAR D
Ġpersonenbezogen en
ĠMeld ung
Ġcir ca
D rei
I r
f assungs
r ingen
u der
w ich
ie in
ĠS we
ĠS onst
Ġb aut
ĠK amin
am ar
ĠH itze
ber gt
Ġden kt
ĠSt ollen
rei en
ell and
Ġun klar
all i
Ġunter nahm
ĠAus bruch
ĠAb sch
ĠVor gaben
ĠPl Ã¤tzen
ĠBl ei
ĠBet ten
lÃ¤ chen
stÃ¤nd iger
beh andlung
ĠHar vard
ĠHei rat
ĠSchÃ¶n e
vel op
Ġbedeuten den
ĠCamp us
mon at
Ġmark iert
ĠVf B
ĠAuseinander setzungen
U l
Z eich
k rie
v ir
ei mer
ĠF ont
ĠL ock
Ġ9 1
Ġle hnte
ĠWei ss
ĠDu o
ius e
sprach igen
Ġlin ke
190 4
196 2
ĠIl linois
ĠlÃ¤nger en
Neu e
ĠBesonder heit
ask etball
mag azin
ĠOrient ierung
ĠTÃ¤n zer
A dr
G et
r ent
ĠH ast
ach ing
ĠL j
ĠC N
ell s
ĠO hren
sp uren
ĠSp l
ĠMit beg
ĠMar athon
ĠIm press
Sch we
Ein ige
ink i
ĠHistor ischen
Ġwahr e
ĠComm ittee
ĠSek und
ĠUnterricht s
ĠEins Ã¤tzen
Ġrum Ã¤n
C omp
S ach
h allen
z ien
an spruch
ĠB auf
ĠSp ons
be cker
Ġ18 37
ĠGr em
ĠZeit ungs
ĠSer b
Ġbesch rÃ¤n
recht lich
fÃ¤l ischen
rieden heit
ĠDo zent
kur se
ĠErw in
Ġwohn en
ĠgÃ¼nst iger
Ġerschienen en
ĠTisch tennis
Ġmensch liche
steuer ung
ĠEuropameister schaft
____ ____
Ġeig nen
Ġeingemein det
Ã¼ bt
ge mÃ¤
ĠW alk
ĠR ande
ĠL aser
Ġk lin
Ġge boten
Ġsch Ã¼tzt
Ġ18 41
iz a
ĠY our
ĠSchul z
Ġbef asst
ĠEint rÃ¤ge
Ġneg ativ
ĠBeob acht
Ins gesamt
Ġnied rigen
walts kanzlei
P ublik
b ol
z z
Ġd achte
in itiative
ar at
ĠB og
ĠF reis
Ã¶ te
ĠT ill
il ia
Ġh or
och t
Ġt her
ĠMa yer
Ġzw anzig
ĠEx press
ĠHaupt ort
ĠVerb rauch
ĠInd iana
ĠCl emens
ĠGra phen
ĠHo spital
ĠLauf zeit
ox id
ĠRen Ã©
umb oldt
ĠMat ch
Ġherunter laden
ĠGirl s
I l
K ilometer
k ore
o or
ĠS ix
Ġs uch
Ġv al
ĠB innen
as ar
Ġm a
ĠH Ã¼l
ĠR ut
Ã¼r me
ĠN Ã¶rd
Ġbe zahlt
ĠVer schw
ist ern
ĠEr forschung
Ġ18 20
19 41
ord neten
ard t
ce ae
Ġgen ehm
ym ph
Ġ0 3
ĠDar in
ĠKap azitÃ¤t
ĠNeben fluss
ĠSicher ung
ĠHin dern
Ġverz ichtet
Ġfunktion ieren
Eis en
ĠAbst immung
ĠGlo cke
ĠClau dia
D ur
L ied
P U
k Ã¼nstler
p he
r d
st amm
el y
Ã¤ sten
ĠH arm
Ġan zus
ah ler
Ġent scheidet
ĠMar shall
atur es
ĠGes p
ank ing
ĠUr ban
Ġwei hn
ĠHo he
ĠfranzÃ¶s isch
Ġkurz em
ĠGraf iken
ĠStart seite
Ġar gentin
ĠrÃ¶m ische
Ġumfassen d
Ġqualif izierten
Ġschwed ische
ĠgefÃ¤hr det
ĠkÃ¼nstler ischen
-------- --------
Europameister schaft
ĠPseud onym
ĠSkulpt uren
ĠKÃ¤rn ten
ĠInterpret ation
Ġunk ompl
ĠAgr ar
B ot
O tt
k art
m asse
z ungs
st etten
Ġs ang
ĠA y
Ġz iel
ĠG erne
ig ste
ĠZ ig
rÃ¤ gern
pr es
An der
ĠfÃ¼hr ende
ĠSÃ¼d amerika
Ġern euert
Ġerhalten en
ĠTechn ology
herr n
elig ion
struktur en
ĠPil oten
verl etzung
ĠAnf Ã¤nger
ĠBuen os
T op
f ace
u y
on de
ĠS af
ĠM omen
ĠP for
ĠR og
ĠL eich
ĠSt einer
Ġbe ur
Ġsch licht
ĠEin nahmen
Ġ18 42
ohn en
qu alif
rat er
ĠGemein schafts
ĠY oga
Ġfr ischen
ĠKultur en
ĠAk k
ĠAuft akt
spro zesse
189 3
ĠAir port
Ġzentr al
stud io
Ġverstorben en
agnost ik
Ġbevorzug t
ĠInte grated
/ *
c ing
e ge
v iert
ar es
it ialisiert
ĠD est
ĠD os
ĠH is
Ġer otische
Ġvor gegeben
ob ahn
ĠMar sch
gesch ritten
Ġpro gramm
ĠFre ie
Ġgemein nÃ¼tz
Ġrech nen
Ġant reten
ĠKol onie
Ġproduz ieren
Pr ivat
Bild ung
ĠSn ow
ĠAusgang spunkt
gÃ¤ng ig
ĠkÃ¤mpf te
A ustr
B eit
P osition
f isch
w elle
Ġw Ã¤r
ĠB Ã¤ren
ĠF ood
gen au
ĠW Ã¤nde
ĠW arm
ĠW ladimir
rei bung
ver hÃ¤ltnisse
enn ungs
ĠAb bildung
ĠCh ines
Ġbes ieg
ĠArt illerie
ĠAd v
Ġgesch Ã¤ft
ĠMitglied schaft
ĠRechts wissenschaften
ĠGast ronomie
Ġstand ard
190 5
195 8
fred akteur
Ġabsolv iert
ĠbestÃ¤t igen
ĠverlÃ¤ sst
ĠKandid at
ĠKrie ger
ĠCaf Ã©
U C
W ein
l Ã¼ck
sch ritte
ĠB rad
ĠP os
ĠW C
ĠW eich
ĠH ack
ĠT ib
ĠL isa
ĠI gn
ĠV ir
Ġge werb
ĠZ one
Ġnach weis
Ġj etz
Ġvor geschlagen
ĠPro ject
Ġent tÃ¤u
19 43
gel egten
ho b
alt itel
St r
Ġteil t
Ġgesch w
ĠEnerg ien
ĠNot wend
sl eiter
ĠWieder aufbau
189 2
ĠBÃ¶ hmen
ĠOpt ik
Ã¤um t
ĠAufent halts
wirt scha
ĠWeimar er
ĠCour t
Ð¸Ñ ĩ
Ġgereg elt
6 00
B I
H el
R S
p zig
on er
el ung
Ġm at
ĠW ick
ĠR ade
is emit
âĢ Ķ
Ġh ielten
ĠZ eche
ĠO skar
Ġt iefen
ger ichte
ungs zeit
ĠEin es
iz it
iz ilien
Ã¤l te
ĠBr ett
ĠPr int
ikan ten
ens us
ander s
ĠStand orte
Ġstehen de
Ġwahr en
leb nisse
vol umen
190 9
So zial
ĠÃĸff nungszeiten
ĠZimmer mann
ĠgewÃ¼n schte
BevÃ¶lker ung
Parameter ID
Ġsort iert
ĠStaatsanwalt schaft
F k
V C
W inter
a ffen
st age
st unde
st ufen
au gen
ĠM ale
ĠR Ã©
ĠV ie
re z
ĠâĢ Ļ
ĠAn ordnung
Ġst irbt
ĠAl an
Ġunter stellt
her z
Ġweiter lesen
Ġ9 3
Ġ7 3
ac ional
stit u
ĠFest ivals
ĠRad rennfahrer
ĠApp s
Ġgl as
Ġwes entliche
Med ien
ĠPaar e
ĠGit arren
ĠHard ware
ĠBeweg ungen
Sa ale
ĠAns ichten
grenz ung
Ġauth ent
rauff Ã¼hrung
R ichtung
k reisen
ĠS end
Ġw olle
Ġs ehe
ĠB Ã¤r
ĠT hailand
ĠR eim
Ġ2 30
Ġzu hause
Ġver wirk
Ġp ur
ri ppen
enn te
ges ucht
ĠBr Ã¼n
ĠKon zepte
Ġgro ssen
ĠEnt spannung
az it
Ã¤nder ungen
unter such
ĠVers icherung
ĠĊĊ ĠĊĠĊ
ĠFin anzen
ĠKat al
Ġbed arf
Ġstar ben
ĠDom ain
ĠMat rix
Man ager
Ġverlie bt
ĠPublik ation
ĠRis iken
Ġsah en
ev in
Ġelektron ische
ĠSem ester
Ġeffekt iv
F ernse
K ol
T rans
c amp
er ung
Ġin iti
ĠP ac
ĠN ase
Ġmit hilfe
ĠSt reich
Ġbe arbeiten
sp olit
Ġp al
ord nungen
Mit glieder
ĠMed aille
gar ter
ĠStud ios
ĠLebens jahr
Ġem otion
ĠDam als
189 4
195 7
Ġgelang t
ĠDÃ¼sseld orfer
ĠLandtag s
ĠDeck e
ĠGet reide
Ġbelieb ten
Ġorig inal
ĠGewerk schaft
g Ã¤ste
ĠD ob
as mus
ĠH Ã¼tte
ĠH amilton
ĠR ent
ĠL eut
Ġer rang
Ġge heim
ehr te
ĠSp eisen
Ġunter richtet
Ġunter brochen
ĠGr Ã¶n
sk ammer
els berg
sb uch
Ġverw altet
Ġkomm e
Ġlang jÃ¤hrige
Pro zess
Ã¤h ern
ĠNe un
Ġmein te
Ġsex y
Ġversch oben
Ġzeich nete
ifik at
ĠWÃ¼n schen
Krit ik
ĠBenz in
beam ter
L iga
h Ã¤ngt
j ord
l at
Ġ ..
Ġw eiten
Ġi P
ĠF eu
ĠG or
ĠR Ã¼st
ĠL ug
is i
Ġo hn
ah a
op odium
zen ierung
ĠAus lands
Ġhab ilit
ĠRe eder
ĠRe flex
Ã¤nd ischen
orn o
ĠBuch ung
ĠUr kunden
ĠUr sprÃ¼nglich
hei zung
ĠDem onstr
ĠHistor ic
nach lÃ¤ss
di mension
oth ar
ĠPan el
ĠKolle ktion
ĠTerr assen
Ġbein ahe
ĠInner halb
Ġfreund lich
Ġschrift lich
ĠKanz lei
Dre h
E FA
L es
S etz
d an
h yd
l ohn
p raxis
ie ben
Ġm ach
ĠK it
ĠV III
ĠC row
Ġver arbeiten
hen de
ĠMa j
ĠNach kriegs
ĠFl y
fl Ã¤ch
Ġgew achsen
ĠWer ft
Ġlang frist
ĠBas e
stag ram
Ġkompl etten
ĠWahr scheinlichkeit
ĠClub s
tor hÃ¼ter
Ġelektron ischen
ĠmÃ¤nn lichen
Ġbefind lichen
ĠValle y
J ean
d alen
k andid
Ã¤ hnen
ĠF ull
ĠL ehn
Ġk rei
ut ions
Ġzu fÃ¤llig
Ġauf zunehmen
Ġaus s
ed o
op ter
Ġent s
arb eiteten
Ġsp iele
ĠBer ger
ap ur
ĠMed aillen
schn ell
app y
ĠDurch bruch
Ġ[ ...]
ĠmÃ¶ch test
ĠVolks schule
ĠPlan ungs
Ġabsol ute
Ġober e
Ġeinzeln er
Ġheim ischen
ĠPor sche
Ġkonzentr ieren
ĠClass ic
Ġschein bar
A uft
S al
g Ã¼ter
ĠS Ã£o
Ã¤ ser
ĠK ass
ĠG ent
ĠP ommern
ĠP ionier
Ġf air
ĠSt rau
ĠZ elt
ĠSp rech
19 16
wer bung
iz abeth
id ad
ĠBr ut
als ieger
ĠGegen teil
Ġdr in
196 7
ĠÃ¼b licherweise
Ġnotwend ige
Ġbelieb te
Ã¼h ler
Ġangrenzen den
iuse ppe
F raktion
F ootball
h end
i ot
z oll
un z
al itÃ¤ten
ĠM ahl
Ġin fo
ĠK reise
ĠN eckar
ro se
rit zen
Ġgew Ã¤hlten
St atus
Ã¶l ler
ĠEl ementen
ĠInd ustr
ĠDan ce
ĠRen ault
ifiz ierte
mel de
ĠRegierung schef
Ġaktiv iert
ĠprÃ¤sent ierte
ĠPubl ishing
ĠWes er
tau send
D V
R ot
c os
k Ã¶r
Ġv e
ĠB attle
ĠF ron
am ann
ĠW ho
ĠSch uppen
ĠVer mittlung
uf Ã¼gen
Ġj ens
rau l
ud a
St ad
Ġerst aun
ĠArt ikeln
Ġob jekt
ĠFrei heits
ĠVerb und
ĠVers ammlung
ĠStand orten
Ġkurz fristig
ĠGu ido
Re prÃ¤sentanten
ĠFort schritt
ĠWissenschaft s
way s
ĠSw iss
Part ner
ĠArg ument
ĠregelmÃ¤ÃŁ igen
plement ierung
EMail Adresse
check EMailAdresse
Ġentdeck te
H or
U hr
g io
m ak
ĠF ick
ĠV as
Ġan halten
Ġan zut
men te
im s
ĠGe p
ĠÃ ©
Ġ4 50
ĠPf und
Ã¼nd igung
Ġsollte st
ĠĠĠĠ Ġ
Ġleben d
ĠTab let
Techn ische
Hein rich
Ġeingest uft
R Ã¼ck
l s
Ä ħ
Ġ che
Ġd ienten
ĠB org
Ġb it
ĠL enk
ig ter
ĠV ektor
ste ten
wer ber
Ġr as
ĠGr unde
ĠFl orenz
Ġwieder her
ĠEnt deckung
gemein schaften
ĠHaus halte
ĠMan che
Ġbesch leun
ĠKommun en
196 4
ĠTo uch
ĠBil anz
gro und
Ġanges iedelt
ĠFert igung
ĠTown ship
Ġster ben
Fk EMail
S D
V ID
m art
ĠS ultan
ĠG az
Ġf lei
ĠH eiden
Ġg riff
ro b
Ġal p
ĠVer einen
Ġst olz
ĠSp reng
ĠSie mens
Ġr ichtete
br em
ĠBr om
for dern
Ã¤lt igen
ĠCo uncil
ĠGen re
Ã¼nd lich
ĠBeg rÃ¼ndung
Ġlang jÃ¤hrigen
Deutsch es
voll es
ĠHin blick
Kl ein
ĠhÃ¤ufig sten
Ġdah inter
Bi ografie
Ġgarant ieren
ĠAcht el
ĠBeschÃ¤ft igung
Î¿ Ï
H erk
M M
k enntnisse
ĠB iel
Ġein her
ĠW at
ro g
eh in
ĠSp alten
ĠEn dr
schen kt
Ġall mÃ¤
ĠFran ch
Ġeigen em
An dre
Er folg
grÃ¼n der
lÃ¤nd isch
ĠFÃ¼hr ungsk
Ġrecht zeitig
gien e
ĠFein d
ĠKÃ¶r pers
ĠAdr ess
Ġkontinuier lich
ĠInspir ation
U P
k ilometer
p aket
v gl
ei det
Ã¤ he
ĠK Ã¤mpfe
ĠW DR
ik alen
ĠSch wie
ĠSch rank
Ġvor ange
schie ben
gl eis
ĠBo y
Sch wer
Ã¤u schen
ĠStud ierenden
ĠHol ocaust
Ġgem eldet
ĠDav on
oo ks
Ġfinanz iert
ĠAuff assung
grÃ¶ÃŁ te
ĠFell ow
ĠBeu ys
! "
. ;
s feld
s ites
z antin
ĉ ĉ
Ġw Ã¤hlte
ĠI rak
ĠSch rauben
ang a
Ġ18 44
Ġlie bt
Ġ7 50
ĠBeg leit
ĠInform atik
Ġkon vention
ĠTem po
ĠSen ior
ĠGraf iker
iqu id
ĠLang haus
Mar ia
195 5
Ġerforder t
Ġbreit es
gol stadt
ĠbegrÃ¼n dete
Ġschlaf zimmer
Ġmoment an
ĠLiss abon
V al
g rau
s eller
ĠB ande
ĠD I
Ġf antast
ĠT il
ĠL P
Ġk ey
ĠN an
Ġge druckt
ĠZ Ã¤hne
ad ing
ĠÃ¼ber d
Ġab gebaut
ĠLand s
Ġre den
ke y
Ã¤nd iger
Ġeinz us
Or ts
ĠFach bereich
dienst es
ĠBu x
ĠDor othe
ĠFak ten
Verkehr s
Ġbeant worten
ĠSlow en
ischÃ¶ fe
Ġentspr ingt
S R
b licher
b usch
sch ne
ĠK emp
ĠF Ã¼ÃŁe
ĠT iefen
ĠR end
ĠR ug
Ġer baute
Ġh Ã¶lz
ir men
re cken
re kord
Ġge hei
ĠSch ieds
ĠO ma
Ġum liegenden
ĠMa st
ast et
ĠZeit alter
per ten
els on
Ġgel assen
ivers itÃ¤t
An d
ilder t
ĠBil den
ĠRis ik
Gemeinde auflÃ¶sung
ĠAnth ony
ĠKreu zer
ĠVinc ent
ĠTrink wasser
ĠHildes heim
E K
S onder
h ans
m i
Ñ Į
Ġv ideos
ĠF o
ĠG anze
Ġbe deut
Ġo s
ĠâĢ ĺ
Ġp Ã¤dagog
Ġ18 39
Ġr unter
Ġr ichten
ĠVor sprung
rag ten
Ġgegen seitig
Ġausge schieden
Ġ10 1
akt ive
ĠAnt hrop
bach s
Ġeinz iges
ĠErn Ã¤hrungs
ĠKaiser in
ĠermÃ¶glich te
Ġirgend wann
ĠHum or
ĠÃ¼ brig
lines hop
mot oren
Medizin er
Ġverabschie det
Listen er
G ER
g old
u de
ge hr
Ġb lock
ĠF our
ĠF onds
Ġ2 20
Ġge fordert
Ġauf bew
ĠSch iller
Ġst eigern
Ġbes p
ha fter
ĠBo ck
ĠStr Ã¶m
Ġgesch Ã¤tzt
Ar ten
Ġper man
ĠCon rad
ash i
ĠGeh Ã¤use
ĠSchloss es
Ġzurueck gegeben
Ġentscheiden d
ĠRitter gut
besch ichtung
ĠGran de
gro ÃŁ
ĠAltern ativ
Stud ien
ĠArchÃ¤ ologie
instr ument
ĠBatter ie
Ġseiten s
quart ier
Ġverlang t
B asketball
s werte
y an
z on
Ã¤ ums
Ġb ulgar
ĠR Ã¼
ĠAn halt
eb r
ĠSie gel
la in
ill ons
br ett
Ġkl are
sk rise
ĠPh asen
yl on
leg ten
ĠKar ne
ĠAngeb oten
ĠRegel ungen
189 1
stat us
195 2
Ġru ft
Eis hockey
ĠRum pf
ĠVerhalten s
ĠJob s
ĠHighl ight
Hein z
ICH T
ĠSympt ome
F H
i Ã¨re
st uf
ĠK Ã¤se
ĠF arm
ol as
ĠW ord
ĠI G
Ġst Ã¶
Ġst immen
Ġ18 34
ĠNach weis
br ingung
vers uch
ha ar
wa ppen
lau tern
ina e
Ġfest stellen
rech ten
bet rag
ĠGeh alt
Ch Ã¢teau
ĠCarl o
Stand ard
ĠRec ord
ĠFerien haus
ĠGerman y
ĠRab att
ĠFranzÃ¶s ischen
fot os
ĠGlei s
ĠVe get
ĠPfe ffer
A ir
G eh
J eder
K unden
N orm
Ġs eid
ĠA gn
ĠE sch
Ġn ackt
ĠT Ã¼mmler
Ġer inner
Ġun mÃ¶glich
Ġt rugen
Ġ18 36
Ġr einen
Ġre zept
Sp iele
ĠDe ath
ĠZahl reiche
ĠKil ogramm
uck y
Ġfl Ã¼ss
ĠBesch werden
ĠMÃ¼l l
Ġirgend wo
ĠTat ort
Ġspann end
ific ation
Setz liste
d pa
ĠS M
ĠA gen
ĠB un
ĠG itter
ĠL is
ĠV es
Ġk andid
ĠN iger
ĠJ ochen
Ġzu lÃ¤ss
Ġzu gewiesen
Ġbe ha
Ġum gehend
iz ation
ĠAb fahrt
Ġbes etzten
Ġbes iedelt
ais e
ĠMe te
ĠOst preuÃŁen
Ġselten er
Ġamer ikanischer
ĠMedizin er
sper re
Ġdre ht
ĠWettbewerb s
ĠÃ¼berra scht
ĠDiskuss ionen
Ġbeher bergt
beteil igung
Herk unft
C arl
F K
W ind
b our
g ow
Â ¶
ĠB ody
ĠD ate
ĠP ier
Ġn et
ol t
Ġf ragt
Ã¶ d
ĠR ick
Ġk at
ro hung
Ġver bleiben
âĢľ :
19 48
ste ckt
ant rag
Sch rift
ĠWei den
ĠJahres zeit
ĠTri o
189 8
ES CO
ĠAbgeord nete
ĠDial ekt
ĠBist ums
auff ol
Ġkonk rete
ĠTaschen buch
ĠDiÃ¶z ese
ĠFrances co
ĠRÃ¤um lichkeiten
S ommer
a ine
Ġ ass
ĠM Ã¼
ĠP oll
ĠP kw
ĠW iel
ro th
Ġver mein
ĠSch ub
eu x
os k
enn ame
ĠAus kunft
bl en
id sch
olit h
Ġange wiesen
ĠSchw ert
Ġ/ /
zahl ungen
ipp o
gleich en
Aus bildung
ĠBi ologie
Ġsol ches
ĠFolgen den
ĠmÃ¶ gen
ivil eg
Ã¼h ungen
durch schnitt
ĠMand at
ĠTar if
ĠMarc us
Ġabgest immt
adr esse
ĠOrchest ra
ĠPek ing
ĠMitbeg rÃ¼nder
? )
Z E
s hausen
z heim
ĠS zen
ĠS ain
Ġv iert
ĠF lieger
ĠE conom
ĠH its
is her
ĠC in
Ġt ra
Ġt iefe
ĠDer zeit
Ġre volution
ĠFl u
ĠKunst denkmÃ¤ler
ign y
ĠTr ik
ĠGra ham
son st
ĠMil ler
ĠWill i
ĠLo h
195 6
Ġreich te
ĠKonzentr ation
ĠIndust ri
okomot iven
ĠGeschw ister
ĠBefrei ung
ĠRÃ¼d iger
. âĢĿ
7 00
M G
j unkt
s ow
ĠE id
ĠL assen
ad ier
Ġt ier
mer kung
schaft lichen
la ster
Ġdurch zufÃ¼hren
ĠAus sch
opp ing
ĠDi agnose
ĠKar os
ategor ien
iat iven
Ġgesp annt
ĠGut s
Man agement
orth odox
schm uck
ĠVerteid iger
Ġreag ieren
ĠSpe ed
ĠBrig ade
Ġgeeig neten
g ot
p an
r ung
Ġ Ã¤ndert
sch rÃ¤n
ĠB L
ĠM eilen
ĠK ette
Ġf arben
et al
ĠV irus
ot ing
Ġsch arf
ert o
oll t
Ġab schlieÃŁen
Ġsp ekt
ĠVor sitz
ĠAuf lagen
ĠBau t
Ġimmer hin
Ver fahren
ĠVert retern
ĠBay reuth
ĠPat rim
ÃŃ k
Ġsub sp
ĠjÃ¼ng ste
Ġreligi Ã¶sen
ĠSlowak ei
M as
b ury
h all
o be
ã Ĥ
Ġ rau
ie tet
an kt
ĠB lech
ĠD au
ĠK offer
Ġf lieÃŁen
ĠH eld
ĠC ord
ĠSt one
ĠU K
ĠEr hÃ¶hung
Ġwer fen
enn amen
Ġunter e
ĠMar ch
Ġdar auffol
ĠGrund stein
ĠDe te
En gl
Ġâ ĪĴ
Ã¨ ne
ĠTab l
189 7
Ġorganis ator
Ġwirtschaft lich
ĠDenkmal pflege
ĠbestÃ¤t igte
ĠÃľberg angs
stÃ¤d te
ĠSym ph
Ġmorgen s
ĠErober ung
B E
F iction
M ess
W ald
c ole
g Ã¤u
j ugend
Ġ eb
st el
ĠS ekt
ĠS AP
ĠD C
ĠF ame
ĠN ein
ĠSch er
eil ungs
Ġj ugend
art iges
Ġ18 32
schl acht
Ġdeutsch es
Ġweiter entwick
Ġgel Ã¶st
Sch au
ite es
ĠCo us
setz ungs
ĠPf le
ĠJan eiro
AN D
ĠTest s
Ġnieder lÃ¤ndische
Ġru fen
Ġtyp e
Ġwunder schÃ¶nen
gerichts hof
Ġleist ungs
E V
a al
f as
s zene
z iele
ã Ģ
ein igt
ur de
ĠP ak
ĠR asen
ĠJ h
aus stellungen
ĠAr range
ĠMa gen
Sch ul
15 0
ĠEx pedition
ĠWei h
ĠVert rau
sicht ig
Ġgemein t
ĠMich igan
âĢĿ .
Ġ180 8
189 9
195 9
ĠPlay er
ĠUrlaub s
Ġdre hen
Ġsamm elte
ĠAre al
1 20
F u
M el
f und
k uchen
l Ã¶sungen
m all
in ts
ar us
ĠK h
ĠE hre
ĠL utz
ĠC hen
ĠSch r
Ġbe z
ĠAn passung
19 49
ĠÃ ĺ
gel eitet
ĠGesch ehen
pro vis
Ġpro v
ĠGrund riss
ĠKunst geschichte
ĠPal Ã¤st
ĠEntscheid ungs
Ġlei stete
hel fer
Max im
Ġverlei hen
a co
a sche
k Ã¤mpfe
n orm
n ummern
und heits
Ġf ried
Ã¶ hr
Ã¶ hne
ĠH i
ĠL ac
ĠL aufen
Ġge gliedert
ers atz
Ġr et
ĠAb b
ĠStadt bezirk
ĠSpiel othek
ĠMon ika
Ġgef Ã¤rbt
Ġlang fristig
Ġerhalten e
ĠBi ber
echt igkeit
Ġqu asi
ĠLuft waffe
Ġstud ieren
ĠGeneral leutnant
Ġdeut liche
190 6
gn Ã¼gen
fekt ion
Ġkennen lernen
Ġverein bart
ĠTher m
ĠjÃ¼nger e
ĠSymb ole
ĠChristop her
A cht
F e
G anz
L P
T F
t hal
u alisierung
Ġ rief
ĠB rian
ĠB Ã¶rsen
Ġge form
ĠAus blick
bo y
ĠFr acht
Ġverl auf
reg eln
ĠDienst leistungs
ĠKons um
ĠMie ter
ĠForder ung
ĠEngine ering
ĠDia kon
X X
k arriere
o i
p Ã¤dagoge
sch eine
Ġw ander
ĠA ra
Ġein ver
Ġein drucks
Ġm ore
ĠG os
ol er
ig l
ĠI ron
and ra
ĠIn zwischen
Ġst reng
Ġab st
Ġlie st
Ġgel ernt
ĠRech nungs
ĠNational versammlung
ĠsÃ¼d afr
Ġhistor ique
dat ei
ĠOpt imierung
Ġschlech te
kom fort
edig lich
ĠKÃ¼hl schrank
Ġgepf legt
ĠDreiÃŁig jÃ¤hrigen
ReprÃ¤sentanten haus
N o
en gt
sch es
es ia
Ġs uchte
Ġm essen
Ġz ivil
ĠW ink
ĠW elten
ĠT enden
ĠL orenz
Ġer zeug
ĠV olleyball
ab ase
ro ht
ik es
Ġ18 31
ĠBe werb
ĠBl um
av y
ĠY am
ĠEl izabeth
inter est
ĠEx pert
spr ingen
ĠWeb prÃ¤senz
ĠFre undes
ĠGl anz
ĠLandes hauptstadt
ĠReich weite
ko hle
ĠFerien wohnung
Kan al
ĠKamp agne
Christ ian
ĠWurz el
ĠKoordin aten
ĠPoliz isten
ĠIndones ien
Ġjens eits
B oden
B utton
g ei
h ielt
s at
Ã ®
Ġd ez
Ġv en
ĠB ac
Ġein fluss
ĠF ire
ĠT auch
ĠR ast
ĠV irt
ir ma
ent ums
ĠIn halten
ĠEr m
Ã¤t ige
be c
Ġ18 38
18 89
Ġre par
heit lich
ahn sinn
ma in
oph on
Ġinter nen
ĠSchiff es
Ġwahr genommen
ĠAc count
ĠLondon er
asch inen
Ġhervor ragende
Ġklass ischer
Mod el
Hand ball
ĠCast le
sequ enzen
Ġtelefon isch
Ġhilf reich
Au ÃŁen
a ver
p hal
s amer
v et
Ġd ei
ĠS ony
ĠA part
ĠD rachen
Ġein t
ĠH ob
Ġk enn
re den
op fer
ĠSp azier
urch t
ster s
ic ations
Ġ18 14
Ġ4 000
fÃ¼hr ungs
ĠRo ut
Ġseiner zeit
Sch warz
Ġbeg eistern
schutz gebiet
schlieÃŁ t
techn ologie
ĠFlug zeuge
bet riebe
ry pt
Ġfinanz iell
Med aille
ĠMerk mal
Ġblau en
ĠIll ust
Ġsport lichen
ĠvielfÃ¤lt igen
Ã¶nt gen
O ff
h ub
ĠS ten
ĠK rau
ĠW affe
ĠL ub
ĠSch ienen
sp ol
Ġun gew
ĠIn stand
Ġsch ien
og o
ĠGe orges
Ġunter liegen
ĠAus fÃ¼hrungen
ĠRe vol
dr Ã¤ngt
ĠWer ten
Ã¤nder ten
ĠJul ian
ĠIntern ets
Ġho hes
ĠAkt uelle
Ãĸ ff
wissenschaft liche
Ġbed ienen
189 6
ĠAuftrag s
tra ck
ĠMass iv
verwalt ungs
Ġherr scht
Ã´ ne
ĠThÃ¼r inger
ĠNag el
ĠKÃ¶n nen
ĠerlÃ¤uter t
A BC
S E
d ay
h Ã¤nger
st ationen
ĠB BC
ĠK au
ĠK iefer
Ġf eiert
ĠW elle
Ġk rie
ĠC ruz
Ġver teilen
Ġst elle
ĠGr en
18 0
Ġbek amen
pro jekte
fel dern
Ġangeb aut
ĠHalb zeit
sie ger
ĠgÃ¼nst ige
ĠNachbar schaft
ĠSchlag zeuger
ĠFund ament
Ã¸ r
Kurz film
genossen schaft
Ġverste ckt
Ġenth ielt
ĠFreiwill igen
H O
g ieb
al ische
Ã¼ ÃŁt
Ġs et
Ġs ach
Ġein stellen
ĠF ische
ĠG B
ĠP otenzial
ĠT opf
âĢ ĭ
ĠAn stieg
ĠEin tracht
be vÃ¶lker
rÃ¤ te
Ġ18 29
Ġ17 0
ĠSe el
Ġange wendet
Ġex ternen
ĠGroÃŁ vater
Ġvers uchten
ĠRÃ¼ck zug
Ġind ischen
Ġfl Ã¼ch
rom an
ĠEben en
Ġverein bar
ĠColle ction
ĠProt okoll
Ġoptim alen
ĠLy on
ĠKomposition en
Bran denburg
ĠHels inki
ĠAbhÃ¤ng igkeit
D et
F oto
G ruppen
T al
e ffiz
ĠG is
ach richt
Ġal b
Ġauf ger
Ġaus gelÃ¶st
ag ramm
ist ol
be zirke
Ġ18 10
19 15
ess ions
ia de
br Ã¼ck
ĠBl itz
ĠSpiel ers
Ġex akt
ĠOb jekten
ou is
ĠSh ang
bes uch
ĠVolks republik
lÃ¤uf erin
ĠÃ¤ gypt
195 3
flug zeug
ĠUntersuch ungs
Ġtyp isch
bil dern
Hol z
ĠPau lo
ĠHon ig
ĠZerst Ã¶rer
ĠOk res
Mill ionen
ĠErf inder
Ġverlei ht
Ġrestaur iert
A tt
f aden
o on
p ez
s or
Ġ eis
ar men
ĠA er
ĠM ama
ĠG ei
de hnung
ĠH Ã¼tten
ĠR asse
Ġk ons
Ġun n
Ġwir ft
Ġsch ar
ĠÃ¼ber lassen
auf sicht
ĠBe vor
ĠEn zykl
rÃ¼ der
ĠVerb Ã¤nde
ĠTr omp
ĠGew inne
schlieÃŁ ung
Ġbef re
ĠFest schrift
Ġfr ische
ĠMarkt platz
ĠWilhelm s
Ġschl ossen
ĠStutt garter
iam i
196 1
195 4
ĠTrans formation
Ġerhe bt
Ġausger Ã¼stet
ĠEmp ire
ĠAdr essen
ĠSha w
Ġaufgel istet
ĠAnreg ungen
schmer zen
ĠBakter ien
H D
b elt
f ell
un ternehmer
Ġein heim
is pr
ab sicht
Ġp unkt
Ã¤r chen
Ġgew ohnt
ce pt
Ġwo hin
ĠDr amat
ĠNational en
Ġ: :
hil fen
fel den
Ġwichtig es
ĠHof mann
ĠUN ESCO
Bad minton
ĠBegeg nungen
Ġliefer te
ĠErmitt lungen
ĠKommand ant
ĠFlieÃŁ gewÃ¤sser
ĠCott bus
C ont
O pt
V arian
V alue
k ranken
s icherung
ĠS E
ĠB eut
ĠB reisgau
ĠP ick
Ã¶ ten
ĠL Ã¤ufer
ĠL KW
ĠN ieren
re b
sen kirchen
ĠDie go
Ã¤n gel
og ne
ĠAr te
ĠPro te
Ġ18 13
19 17
Ġintern e
res erv
Ġwenig stens
Welt cup
Ġentstanden e
Ġhal be
ĠReb ellen
Ġbeh ielt
ĠZy linder
ĠPed ro
ĠFeucht igkeit
Ġol ymp
ĠEinzugs gebiet
ĠEvalu ation
Ġdun klen
T B
i fer
p us
w eb
st immung
ĠS orten
ĠS Ã¤chsischen
und ern
ar ot
hr ingen
ĠK evin
ĠF ield
ĠE if
ĠP itt
ĠH Ã¤ft
ĠL ov
ier i
ĠZ wick
men d
ĠJahr est
ĠUn ternehm
ĠEin zig
geb ra
ĠVor runde
fach en
Ġgesch ehen
ĠCon ference
ĠSen ats
umm el
ĠGesamt wertung
Ġung arischen
ĠSant i
Th omas
ĠAuff Ã¼hrung
ĠFass aden
Meister schaft
Ġtrain iert
Ġgeeig nete
Ġbeit ragen
Ġerleich tern
Ġunglaub lich
ĠNer ven
A qu
B ayern
H op
M oder
l ob
st al
sch ub
ĠS ne
ĠS tett
ĠD il
ĠF Ã¶der
ĠG ift
Ġer teilt
ĠV alen
Ã¼r m
Ġg ast
rei fe
hn ten
ru fe
ĠPro ben
ud dh
sk osten
ĠSpiel automaten
Ver anst
gew orfen
ĠSchul den
ĠDar unter
ĠmÃ¼s sten
Mar ie
ES T
istr ation
ĠKre ativitÃ¤t
low en
asp iele
ĠSchwar zwald
krit ik
ĠMem orial
> .
L C
d lichen
t u
Ï ģ
ar isches
ĠA hr
ĠA hm
ĠB ond
ĠD iff
em i
Ġm ann
Ġm isst
ĠF itz
ĠN y
ĠAn gl
Ġst ieÃŁ
ĠEr ben
lie f
Ġzum al
be er
18 86
dr Ã¼cken
ĠÂ ©
spr ungs
ĠMo os
ĠsÃ¼d liche
ifiz ierten
ĠStell vertreter
ĠjÃ¤hr liche
ĠBud get
ĠBezirks gericht
Ġkrit isch
ĠFe ed
bew usstsein
Ġbem erk
ĠErgÃ¤n zung
Ener gie
Ġbeklei dete
B urg
in stall
sch ers
ĠN ich
rei fer
Ġun regel
ver mittlung
Ã¼ber tragung
Ġum zu
Ġzur zeit
Ġvor ab
ĠGeb Ã¼hren
wick elt
co urt
ĠUhr en
Ġletzten dlich
ĠRu ine
ĠKreis stadt
ĠWar n
get riebe
gem Ã¤lde
ĠGed Ã¤chtnis
Ġwohn t
ĠHan au
ĠHu ber
ĠjÃ¤hr lichen
ĠBenutz ung
ĠEmpf ang
ĠKenn zeichen
ĠEinz eln
ĠPrÃ¼f ungs
ugoslaw ien
ĠThre ad
schrau ber
Absol vent
Ġohn ehin
f aktor
i dent
el ine
Ġs onn
ĠM angel
ĠT ele
ĠSt Ã¶r
ĠZ ier
ĠU rauffÃ¼hrung
Ġun end
ĠÃ ģ
schen de
stein s
ĠÃĦ uÃŁer
ĠKomp onente
ĠHa ken
ĠAuft reten
ĠZentr ale
ĠBro ok
Person en
Â» .
ĠRuss ischen
arn ing
kap it
ĠEmpf Ã¤nger
Ġeingesch rÃ¤nkt
jen ige
ĠregelmÃ¤ÃŁ ige
ÅĦ ski
ĠÃľberw achung
ĠVamp ir
ĠGord on
v ens
ĠF oss
ĠF liesen
ĠP Ã¤dagog
ĠW ed
ĠR ass
ĠI X
ad os
ĠSp eyer
ĠAl arm
ĠAl ois
Ġ18 25
ĠAb raham
omm e
att an
18 88
schl uÃŁ
br achte
kl am
In ner
ĠBau werke
ĠÃľ bungs
si ver
ĠzurÃ¼ck zufÃ¼hren
ĠFilm regisseur
ĠVerein igte
ĠSh akes
Ġstatt findet
kon g
ieg eln
tr Ã©
ĠDi kt
Ġlin ker
ĠEhe paar
Her ausgeber
Ġvergleich sweise
Produ kte
Ġwor aufhin
ĠgefÃ¤hr lich
Ġtoll es
mess ungen
Ġbehaup tet
ĠzuverlÃ¤ss ig
Ġprotest ant
Z immer
c ont
sch in
ĠS R
it ations
em itt
ĠG Ã¤rtner
ĠE cken
de d
ĠR itu
ĠV ic
ĠJ g
Ġg reift
Ġan stelle
ĠSie b
oll o
be zirks
19 47
ct ory
ĠSchl ange
ĠAnt eile
ĠWer den
Ġeinz iger
ĠVerein barung
ĠVol ume
ele ase
ĠTr ends
Ġhei ÃŁe
ĠPal ast
ĠLi u
Ġsonst ige
ĠDist rict
ĠSamm ler
ĠRicht linien
Akt iv
Ġkonk reten
lÃ¶ ser
Ġregul Ã¤ren
ĠTick et
Ġnam entlich
ĠEmpfeh lungen
ĠMoz art
ĠCorpor ation
ĠJahrhunder te
ĠNAT O
bevÃ¶lker ung
N amen
Z ahl
b inden
f ro
â ĨĴ
ĠB aus
ĠK assen
ĠK lage
ĠL ediglich
ĠU EFA
ĠIn st
ul ierte
ĠEr reichen
ĠEr ziehungs
Ġ18 21
Ġent z
ĠAus lÃ¤nder
pf e
ĠMar mor
zeich ner
if ter
ct ure
Ver breitung
ĠOrt steile
Ġwen det
ĠMed ium
ign al
Ein satz
rech ter
Ġern euer
ĠDem o
Ġhistor ischer
mod us
Ġverz wei
ĠAktiv itÃ¤t
ĠCa stell
ĠBÃ¤ umen
Ġkanad ische
ĠElect ric
ĠGÃ¶t ter
Ġdeaktiv iert
gorithm us
1 12
K K
N atÃ¼rlich
r ike
st Ã¶rungen
ĠS F
al and
ĠH ash
ĠL ars
is si
il f
Ġer otik
and ie
sp unkte
Ġwar men
all ye
fl ikt
ov on
Ġle uchten
hÃ¶r er
Im mer
ĠJan e
Ġteil genommen
ĠÃĦ sthet
ymp os
ĠSal on
Ġkosten gÃ¼nst
verband s
ĠErfahr ungs
ĠKurz film
Ġverlie h
museum s
ĠBÃ¶ den
Ġres pekt
ĠAbst amm
ĠGrÃ¤ fin
cu ador
ĠSmartph ones
beit rag
ĠdÃ¼n n
ĠVorarl berg
B all
t age
Å ¼
ie ÃŁt
Ã¤ ften
Ġein ges
ĠK orea
ĠG iuseppe
ĠE L
ĠR eut
ĠN on
ĠN ort
Ġg o
ĠSt Ã¶rungen
ĠZ oo
iel te
Ġum so
hal s
auf e
Ġsp ir
ĠAb bildungen
ĠSo ckel
ĠDe p
ĠEm ot
Ġgem isch
Ġ24 0
ĠAt las
ĠBeh Ã¶rde
Ġbew Ã¤hr
aur us
ĠnÃ¶rd liche
ĠJapan er
ĠAustr alia
ĠBeteil igten
kolle gen
ĠGalax y
ĠEff ekte
ĠRegistr ierung
Ġvorder en
ĠPaz ifik
ĠUd SSR
O B
W eil
d icht
Ã¼ tern
it im
ĠD anzig
ĠM A
ĠW rest
ĠT OP
Ġer lauben
Ġbe weisen
Ã¶r ten
ĠPro st
Ġ18 12
ĠHer stellers
Ġbes icht
ĠSe es
ĠUm kreis
ĠBau meister
Ġgr Ã¶s
hÃ¶r t
ĠSchw aben
ĠNord ost
ograph y
ĠProf is
ĠAuft rÃ¤ge
ĠSystem en
ĠGo vern
ĠKan te
air o
ĠBur k
ĠBor is
ĠverfÃ¼g baren
Ger man
produktion en
Techn ologie
Ġberuf liche
ĠvielfÃ¤lt ige
Ġkonzentr iert
ĠLipp e
G ott
Z entrum
c an
s au
v ari
Ġ enden
Ġs yr
ĠF ashion
ĠL othar
ĠI b
ir o
ĠAn ruf
ĠSp eise
ĠBe y
ĠVor schlÃ¤ge
ĠBl o
ĠBau arbeiten
unde ten
ystem e
sam keit
ĠRad i
Ġrech ter
ĠGeneral stab
ĠPal Ã¤
ĠMehr ere
Ġwest liche
ĠWein bau
ĠMel od
ĠOs lo
ĠErgebnis sen
ĠDreh arbeiten
Ges etz
kap ital
wÃ¼r dig
Ġgesetz liche
ĠBa pt
ĠBiograph isches
Ġversp richt
Ġlieb sten
f acht
t im
st est
ĠS Ã¤u
ĠS izilien
es kop
ar ius
Ġb uch
ĠD ingen
ĠK i
ĠW ern
ĠH umboldt
ĠT Ã¤
ĠL ungen
Ġk enne
ĠN as
Ġg raf
ro v
Ġzu zu
ing ten
Ġp ers
Ġp otent
Ġsch Ã¤d
Ġnach ts
og ie
ĠBe zeichnungen
ass istent
ĠRe ck
ĠRe zepte
Ġdies jÃ¤hrigen
ĠPl ant
ĠQu e
ĠÃľber legungen
ĠPol ar
Ġgesch eiter
ĠSÃ¼d seite
Ġhinter en
ĠZug leich
ux e
ĠParlament swahl
Ġbegr enz
Ġneg ative
ĠGot ha
ĠgÃ¼lt ig
ĠKrist all
Ġhum an
ĠansÃ¤ss ig
Ġtransport iert
ĠlÃ¤nd lichen
Leicht athlet
f uhr
j ana
k ant
s iv
w echseln
Ð ĵ
un ch
on ach
de kor
il dete
ĠI hn
ĠN adel
ab a
ab wehr
ĠC ell
ĠC ru
Ġunter halten
ĠVor gÃ¤nge
ĠÃľ b
ĠÃľber trag
ĠKir cht
ĠGer echtigkeit
ĠBes ser
ĠMÃ¼n z
ĠFr emden
ĠVerb ot
mit gliedern
ĠFin den
ĠFlug platz
ĠBel agerung
ĠGrÃ¼n e
Ġstark er
ĠÅ ½
Ġlau tete
ĠNeum ann
ĠLeh mann
ĠStaatsb Ã¼rger
ĠMagaz ine
ĠHimm els
A ben
G ast
L eider
O der
h s
m achung
v all
y ter
ar ien
ĠB att
ĠK em
ĠF aktor
ĠP M
Ġf eine
Ã¶ hm
ĠH eu
Ġl as
ĠIn stagram
gr unde
ĠKl ing
br ach
Ġle ere
ĠBau en
pr esse
ĠOber geschoss
Ġbeg raben
ĠVerein ten
kon zert
ĠLin ux
ĠNatur park
ĠWar s
Ġerk unden
ĠCount ry
ĠFluss es
ĠStraf e
ĠCat herine
Frank furt
ĠReaktion en
ĠKanz el
ĠAnal yt
Ġchem ische
gewinn ung
varian te
N a
ie ter
sch ke
Ġf usion
ĠN ebel
re volution
ĠSt Ã¼rmer
ell ow
he ad
ĠSp in
Ġ18 28
pf leger
ĠLand schaften
Ġander n
ov Ã¡
Ġher ange
vor gang
arr ier
ade zimmer
ĠHa w
lauf bahn
ĠKar ib
fest e
system en
bed ien
ĠRein igungs
Ġerf uhr
Sport veranstaltung
bÃ¼ chern
Ġgriech ische
ĠLuc as
Ġnachhalt ige
ĠreprÃ¤sent iert
ĠCorn el
Ġgleicher maÃŁen
ĠClin opodium
Ġqualit ativ
ĠSchrÃ¶ der
T ime
c raft
ie sen
ĠS orgen
Ġw eichen
ĠA sh
ĠM ehl
Ġn ebst
se hr
Ġver bracht
ĠO ss
ist isches
ess ur
18 90
eigen schaften
ĠQu een
ange hÃ¶
kon zern
ĠDar aus
ograf ien
ĠMark graf
ĠErn est
rÃ¤n kung
ĠKlein stadt
Reg el
preis es
ĠKreuz es
ĠbenÃ¶t igte
ĠPil ger
Ġpf legen
Ġas iat
Ġerl itt
instr umente
varian ten
ĠLibr ary
ĠFuss ball
Ġbefr eit
M at
a wa
f z
h ib
m ungs
s Ã¤tzen
al ign
Ġw e
ĠD iffer
Ġin mitten
ĠF ile
ĠL az
ig o
ĠC R
ĠZ iffern
Ã¤r zte
ĠAb kommen
ild ing
18 85
if te
Sch ach
Al les
Ġger Ã¤t
ĠFrei stil
Ġspiel er
oc al
ĠMod ellen
Ġvert raut
Bei spiel
ĠKar in
ĠHeil ige
sl alom
Ġ180 4
komm ando
ĠAnder son
Met al
pert oire
dat es
Ġgesetz lich
ĠKrim in
Ġlern t
Ġschrift liche
ĠProp ag
ĠMotiv ation
Bew egung
Ern st
Alex ander
ĠallmÃ¤ hlich
L Ã¤ufer
c ial
l ement
ch rist
in formation
el ing
Ã¤ k
ĠB ridge
ĠM eistertitel
ĠG ib
Ġf Ã¼llen
ĠH essischen
ĠU V
ĠÃ¼ber arbeitete
ĠAr ist
ĠAl m
ap o
iz itÃ¤t
18 87
tem por
sb eh
Sch m
of Ã¼r
Ġkurz zeitig
ĠArbeits gemeinschaft
ĠPreis vergleich
ĠgrÃ¶ÃŁ ter
ĠFolge zeit
Ġtr inken
ĠGatt ungen
opt ik
Sh irt
ĠFla schen
reff end
ĠStiefel etten
Ġschmer z
beweg ungen
ĠToy ota
C omputer
N or
t Ã¼mer
en ster
es is
Ã¤ ppchen
ĠM arb
ĠF rag
ĠP end
ĠH ud
ĠC ontrol
Ġzu grunde
ver w
Ġp la
ĠEr fÃ¼llung
schaft lich
ĠEin willigung
acht al
kl ub
ĠAm ate
ĠGemein det
ĠLe verk
Al ben
ĠPlatz ierung
Ġgeb rauch
ĠAu schwitz
sst raÃŁe
ĠOl iven
Ã¶st licher
ĠOn lineshop
ĠMod us
welt meisterschaften
ĠBÃ¼ ch
Ġschl imm
uk le
yd raul
Ġfal sche
ĠBud dh
Ġevangel ischer
ĠKult urg
Bes onders
Ġmet all
ĠMyth ologie
stron g
ĠBelast ung
ĠPyr am
Koordin ate
ĠMete or
C al
I O
K L
P e
g it
j ap
k urz
l Ã©
z ungen
sch ichten
ĠB eil
Ġein gew
ĠE k
ĠP aten
ĠT C
ĠR ath
ĠL G
ĠL agen
ĠL etter
Ġer arbeitet
re fer
Ġbe heim
ist urnier
ad Ã©
ĠAn ten
Ġt reiben
os kop
Ġnach voll
Ġab le
ob a
In dex
Ġwieder hol
net te
pro be
ron ik
ĠPh antasie
Ġverb reitete
ĠHoch wasser
Ġvers orgen
ĠfÃ¼n fte
ĠHo se
ĠSa ale
med ien
ĠEt was
Ġgegeben e
ĠPass au
ĠFernseh film
ĠJazz musiker
ĠPop ular
Ġbegl eitete
ĠDek o
pon se
ĠSemin are
ĠKult us
ĠzukÃ¼nft ig
ĠjÃ¼ng sten
ĠVerdienst ordens
Ġmobil en
Russ land
velop ment
A bst
K rim
S icher
c ent
f ung
p g
Ġw ovon
or ca
ĠB utt
Ġm ater
ĠG ig
ĠG allery
ĠP ank
Ġn ix
ĠH ipp
ĠR ain
ĠR Ã¶ntgen
ĠL ith
Ġmit unter
Ġge fÃ¼hl
Ġan im
ĠSt irn
Ġauf weist
ĠSch iffen
ĠO fen
Ġvor behalten
ic um
Ġunter einander
zeit ige
ĠÃľber setzungen
ĠWohn sitz
ĠWert ung
sh Ã¶
sh ips
wor te
fre quenz
iat rie
ĠSl ots
Ġvorher igen
ĠTur in
ĠDeb atte
ta sche
Ġkor rig
Ġeinzig artig
Ġnational er
Ġunterschiedlich sten
ĠHub raum
Lie be
ĠMid d
Ġkontroll iert
russ isch
ĠSkulpt ur
ĠHT ML
ĠLenn on
Ġzust ande
ĠvorÃ¼ber gehend
Ġerfolgl os
Qualif ikation
Ġdarauffol genden
K lo
K reuz
S F
f reude
f eind
w unsch
z eiger
Ġ arm
ĠS ad
el in
ge kommen
ĠB ien
Ġf Ã¤l
ĠH undert
Ġer schlossen
ra z
Ġim m
ĠSt ark
ĠSt uck
Ġdem ent
ĠIn vas
Ġsie bten
be ziehungen
ĠGe schenke
Ġab geben
Ġent warf
Ġ- >
wie se
18 84
gesch Ã¤fte
ĠGeb irge
ĠEl ite
ans icht
Ġange griffen
riff s
ĠHÃ¶ hle
bereich s
ĠDi abet
ĠBel eg
Ġempf iehlt
Ġexist ierte
Ġwissenschaft lich
ĠAch ter
Te ams
Ġinspir iert
ĠHandwerk er
Ġbelg ischen
uver Ã¤n
Leist ungs
Ġrenov iert
A ktion
u hren
} .<
ĠS ier
ĠB ann
ĠF reu
de z
den burger
and ro
Ġbe gab
ing ers
Ġsp ec
ĠAb sicht
ov iÄĩ
Ġbet ragen
Ġ10 5
ĠgehÃ¶r enden
so ftware
ĠJe ans
Ber echnet
ĠAngel a
Ġabsolv ieren
ĠJournal istin
ĠUmwelt schutz
ĠMess ung
ĠStamm es
ĠBesonder heiten
ĠDigital isat
ĠLau ter
Ġausgew Ã¤hlte
ĠVolk es
Ġident ifiziert
schi ffen
ĠHow ard
ĠMittler weile
bÃ¼t tel
ĠYor ker
ĠVerpflicht ung
Ġspekt akul
O ffiz
te ams
at om
ĠF liegen
ĠW etz
ĠL et
ir i
ra it
ĠO P
Ã¤n ke
och em
Ġst iegen
Ġ18 33
Ġab ends
ug eln
ĠGr imm
ĠFl Ã¼ge
ĠPl at
pro vinz
ĠMan chmal
âĢ¦ )
omb i
Ġgl att
ichter stattung
US A
ĠFrankreich s
ĠÃ¼b te
fallen en
Ġstammen de
ĠModer ator
ĠkÃ¶nig lichen
ĠRup recht
ĠTheat re
Verwalt ungs
ĠArzneim ittel
ĠKlagen furt
ĠNotwend igkeit
A p
E ss
R est
V G
s is
st rich
ei r
ein g
Ġs Ã¼ÃŁ
Ġm l
Ġm ethod
Ġ1 19
Ġf lo
ĠT itten
us sp
ĠC SU
ĠSt al
ĠIn fl
Ã¼ber sicht
ru h
ran ke
art iger
la sten
Ġab s
ĠMit arbeit
ĠMar ion
Ġges amt
olog isches
ĠJo han
up Ã©
ĠKunst historiker
ĠEd in
ĠFriedrich s
ĠAnd y
ĠKat hedrale
ĠGesellschaft s
ĠApp ar
produ kten
ĠTri cks
sl eitung
ĠTro ck
Ġwohn te
ĠBÃ¶ hm
kraft werk
Ð° Ð½
kont akt
Ġliebe voll
wÃ¤rt ig
spez ial
ĠzukÃ¼nft ige
Ġmont iert
Plan ck
ĠAmb iente
Ġtrop ischen
Orig in
Ġhr sg
Ġauspro bieren
' ,
B ass
S eiten
Z eitung
f indung
g aden
v ogel
Ġd ownload
Ġd icke
ĠS MS
ĠR Ã¤tsel
ig heim
ir s
and emie
Ġver glichen
Ġt rennen
ĠEr laubnis
ĠSp err
ungs weise
iz ismus
ĠSpiel zeug
Ġbet onte
ĠHand lungen
Ġverl aufen
ĠWerk zeuge
Ġvert ritt
ĠJohn ny
ĠPlan et
bie tern
ĠGest alten
ĠServ ic
Ġerfolgreich sten
Ġopt isch
ĠFluss system
ĠMaschinen bau
Ġintens ive
ĠKost Ã¼m
isc ons
sÃ¤nger in
ĠwunderschÃ¶n e
ĠgewÃ¶hn lich
ĠChallen ge
ĠBundesverdienstkreuz es
r ut
v id
z elle
Ħ ¢
al de
Ġs ingen
ĠT ast
ĠL euten
il o
Ġer b
le uten
Ġge ehrt
ent wurf
mer kt
end ar
ĠGe werb
ill s
ian ische
Ġde f
Ġher stellen
ren a
Ã¶t z
ĠSk il
ĠLa ien
bel ast
23 4
ĠÃ¤ sthet
ungsk osten
Produ kt
Ġehr lich
Nieder lage
ĠMau rice
Ġdeutschsprach ige
ĠBrig itte
imen te
Ġgebe ten
Ġfu hren
ĠBedien ung
ĠChallen ger
ĠZwer g
ĠShakes pe
> -
B u
Ġ scha
ein kommen
au rant
ĠA ven
Ġein ander
ĠK atze
ĠG aler
ĠE ffizienz
ber eitet
ĠC ant
ĠO range
ĠVer schlagwortet
Ġj o
anz ahl
kl ah
ĠSo ul
teil ungen
olle g
ĠAnt ar
ond o
ĠCl ara
ĠOn t
Ġfor dern
ĠGu y
ĠTab ak
last ung
ĠAs ia
ĠPhilipp inen
sto ÃŁen
ony me
ĠtÃ¤ gliche
Ġvergleich bar
Ġbein halten
ĠEdition s
ĠMobil itÃ¤t
ĠGolden en
Ġverp asste
mess ung
Ġflex ibel
ĠDekor ation
ĠMedik amente
Ġpopul Ã¤r
Ġexklus iv
ĠJÃ¼n ger
ĠsorgfÃ¤lt ig
+ +
D ist
h ent
s fÃ¼hrer
ĠD einen
ĠP ot
ĠP KW
Ġf Ã¶rder
Ġf ikt
ĠN au
ĠSt apel
ĠZ a
Ġbe eintrÃ¤cht
ĠO kt
os op
ĠSp anisch
ang abe
St ell
Ġgegen einander
imm y
Ġeigen s
ĠEx pression
ĠAd miral
ĠUr sprungs
schein end
ĠLei h
Ġabge halten
minister in
Ġheut zutage
ĠPal ais
ĠElekt rom
ĠBesch werde
ĠPil z
ĠPet ra
Ġrein igen
ĠCre w
ĠunabhÃ¤ng ige
kom Ã¶die
ĠProp he
ĠMis sbrauch
ĠWÃ¶rter buch
ĠGreif swald
ĠAfghan istan
l Ã¶s
m ischen
z eile
Ġ ~
ch ange
Ġd ritter
es ota
Ġw aschen
ĠD Ã¼
ĠP rÃ¼
ĠH ydro
ff e
Ġt reu
ĠEr mittlung
ĠAuf stellung
ian ischer
Ġges ungen
Ġ17 00
bild ner
ĠPart nern
ĠAd d
ĠNord seite
Ġgesch ah
ĠWohn raum
ĠTa sten
ĠGut achten
Ġdi plomat
kur renz
ĠBur schen
ĠBal ken
Ġbas ierend
achst ums
ĠOpt im
ĠBir ken
Ġstra hl
Ġchrist liche
Ġkonk ret
ĠTirol er
ĠBenedikt iner
Stra ÃŁen
Ġbundes weit
ĠPassag iere
ĠLaur ent
D ynastie
K ann
L icht
on anz
ich i
ĠD ag
ĠE u
ĠW eine
ĠW inz
ĠR aff
ĠL Ã©
il es
Ġan statt
ing rad
schaft liche
Ã¶r tlich
auf wand
ĠEn ts
geb unden
ĠAb kÃ¼rzung
Ã¶ff el
gl anz
sb est
ĠNord see
ĠKont rast
ĠKn ight
Ġverm ehrt
ĠAk ku
ĠBis mar
ĠBall ett
ĠPet rus
nehm lich
ĠPop ul
Ġres erv
ĠCa es
ĠQualif ikations
Ġed el
Ġbem Ã¼ht
Ã± a
wechs lung
ĠkÃ¼rz lich
ĠVerpack ung
ĠSkla ven
ĠKolumb ien
ĠKircht urm
. âĢĵ
T ran
U B
b re
m angel
r inge
u it
Ġw ild
ĠG am
ĠH ugh
ĠSt all
Ġver folg
sp anisch
Ġaus gesch
Ġp lay
os hi
ĠEin flÃ¼sse
ĠAb fall
ĠAb stra
18 76
Ġges unde
reu zt
Al ler
oss a
ĠSh ort
ommer ce
ograph ic
ĠSk el
ĠKr Ã¶n
ĠBeh inderung
ĠRud olph
Ġev tl
Le ague
wÃ¼r de
ĠLau ra
ĠInvest itionen
Ġanges prochen
ĠFÃ¼rst entum
Bundes staat
Ġpart ner
wander er
Ġkombin ieren
ĠZweit ligisten
Ġgesellschaft liche
ĠSec ret
ĠClau de
Dar Ã¼ber
Ġchem ischen
fÃ¼ll te
Ġfreiwill ig
ĠAstero id
Ġnationalsozial istischen
G E
K A
K ind
t our
v Ã¶gel
ĠS D
ĠK ansas
ĠF eh
ĠG riech
ĠH unter
ĠR E
ĠL ampe
Ġan passen
Ġbe zog
ing ern
im i
ĠÃ¼ber leben
Ġ18 24
att oo
ĠCh ief
18 80
Ġges endet
ct ive
ĠFre quenz
techn iker
ĠBel iebt
Ġâ ľ
ĠÃĸsterreich ische
ĠTÃ¼r ken
Ġfl achen
Ġerk annte
Ġy our
Ġfert igen
ĠOrd in
ĠGet riebe
ĠBayer ische
Jo achim
ĠKrank heits
ĠAngriff e
Syn drom
ĠZul etzt
Ġaufzu bauen
Ġsowjet ischer
Ġbehaup ten
brÃ¼ che
Ġerleich tert
ĠGroÃŁherzog tum
ĠCha os
ĠSatell iten
ĠWorm s
P la
S Ã¶hne
W C
er be
Ġd ifferenz
ĠS agen
ĠS ession
es k
Ã¤ ge
as ka
ĠK ore
ĠK aufen
ĠH abe
ĠC u
ĠC urt
Ã¼ber greifen
ĠÃ¼ber nahmen
ster ben
Ġab schloss
geb Ã¼hr
Ġuns icher
ĠEl se
of ft
ĠTran spar
ĠBro ck
ĠPal m
ĠMaler in
ĠEnd spiel
ace ae
ĠVerwaltungs sitz
ĠOrd ner
ĠInvest ition
sem ester
ĠwÃ¼n sche
ĠOffen bach
Ġschott ischen
Jose ph
ĠÃľberra schung
ĠRecher che
Denk mal
C omm
G ar
R enn
p ag
Ø §
Ġv ort
ĠD eg
ĠK itz
ĠK uba
ĠG Ã¼nst
ĠH arb
ĠO le
Ġl okal
Ġst eil
Ã¼n kt
ger echte
Ġ18 23
iz ierung
ard in
ĠRe zeption
18 83
ĠPl atin
ĠSpiel zeiten
ĠGes and
ĠWelt rang
ober haupt
bo hr
Ġdort hin
ĠFrei licht
ĠWeb sites
alter s
ĠKn opf
druck en
ĠPhil h
rug uay
ĠMein ungs
Ġsonst igen
ĠZÃ¼r cher
ĠFerien wohnungen
ĠGÃ¼ter s
ĠHard core
Ġspann enden
Theater schauspieler
ĠVit amin
ĠLiebl ing
Ġportugies ischen
ĠWÃ¤l der
fries land
F Ã¼hr
K arten
P ierre
j acke
w ache
Å ĳ
ĠS ag
ĠS orge
el i
Ġw onach
ĠA trÃ©
Ġin f
Ġn ett
Ġ( Â§
ĠR uth
ĠJ i
ĠU eber
ver fahrens
och ten
Ġt hr
ri or
ĠAuf zeichnungen
leich en
zeit lichen
els orge
ew ald
Ġ12 8
Er z
ĠBest Ã¤tigung
ĠVert rÃ¤ge
ĠVert retung
Ġersch ossen
Ġbef asste
bel euchtung
stre ck
ĠProjekt es
ĠSa una
ĠSen ator
ĠAmt es
ĠOrganis ations
ĠComm on
ĠDach au
ene zu
Ġprom inen
ĠMiss ouri
ĠInvest oren
ĠGru yter
Ġtau send
Ġsport liche
All gemein
ĠLipp en
Ġbrasilian ischer
ĠExpl os
ĠAstero iden
ĠSchaff ung
Ġrenomm ierten
H ar
O h
V ors
st he
ĠM Ã¶rder
de utet
ĠP ia
ĠT et
ĠT ru
ĠC ow
ĠSt raft
Ġauf steigen
ĠIn golstadt
Ġst raf
iv ien
ĠGe denkt
Ġ18 27
ĠEn z
ĠÃ ħ
ĠFl ensburg
... )
stand ort
ĠHaupt sitz
ies sen
stÃ¼t zung
Ġentsp annt
Ġentsp rach
ĠMag dalen
ĠDat abase
Ch ina
ĠFil iale
gra de
ĠHei zung
Ġerfolgreich er
195 1
Europ a
aller ie
ĠCO VID
ĠberÃ¼cksicht igen
Ġpubl iziert
ĠWart ung
ĠBeb auung
ĠVerbreitungs gebiet
ĠNachhalt igkeit
Entfern t
Lex ikon
ouv elle
K auf
P op
R eligion
T O
V oll
k alender
o hr
t agen
sch uk
on c
ĠS und
ĠS ack
ĠM ind
ĠH ur
ra ck
Ġge handelt
ĠZ elle
ĠIn vent
Ġt it
Ã¼n e
ĠEin nahme
eln de
pf Ã¤l
Ġre flekt
qu ir
ha elt
ĠUnter brech
Ġger echnet
meister s
Ġgest iegen
ĠPrÃ¤ sid
ĠwÃ¼r d
bet rieben
ĠTre ppe
ĠFil ial
Ġ180 9
ĠKraft stoff
ĠBÃ¼r os
Sport ler
Ġad d
Ġentscheiden de
ĠNik ola
ĠHigh way
Ġerhe bliche
ĠZuf all
Kultur denkmal
krit iker
ĠDÃ¶r fern
ĠSoll ten
ĠSec ond
ĠvielfÃ¤lt ig
ĠgÃ¼lt igen
ĠDisziplin en
Ġbemer kt
ĠKartoff eln
Ġarab ischen
FuÃŁ noten
ĠEdin burgh
klah oma
B ur
G i
c as
e ff
j as
j agd
s ack
ĠP Ã©
ig ers
Ġh ellen
ĠN HL
Ġge holt
Ġaus lÃ¤ndischen
oll y
ĠEn ter
Ġneu em
ĠSe a
pro t
ĠSer ge
ĠLie chtenstein
Ã¼nd ungen
ĠMan usk
Ġeinge gangen
ĠWohn ort
ĠDar auf
ĠGra v
bet reuung
ĠDre ieck
Her z
ĠTages zeitung
Ġdefin itiv
ĠRicht ungen
Ġdre hte
Ġorient iert
Ġlandwirtschaft lichen
Ġgu tem
ĠEth ik
ĠFI FA
ĠSchokol ade
ĠLegisl atur
F ilme
b iert
Ġ Ã¤rzt
er l
ĠD einer
Ġz Ã¤hlten
ĠP ink
Ġn ein
Ġf roh
ĠL ahn
um n
ĠV all
ĠZ ag
Ġum gekehrt
ĠAr mb
ok e
18 81
rat zen
sk Ã½
Ġbeg eister
gew Ã¶lbe
ĠTag s
Ġfest gehalten
oc ol
sh ow
ĠRom a
ĠRu cks
ĠWill y
spro chen
Ġinteress ierte
Ġbestimm ter
ĠSek unde
Ã¶pf ung
ĠHir n
sex amen
Part ei
ĠInterview s
rost is
ĠmÃ¤nn liche
klei det
Ġreligi Ã¶se
Che f
ĠBeaut y
iscons in
M ASS
R ich
b zw
h ythm
p et
v illa
v ideos
w ellen
st u
st itel
sch altung
Ġw asch
ĠP rest
Ġn ehme
ĠT rÃ¤ume
is ser
âĢ ¯
Ġh aut
ĠN AS
sp e
ver stÃ¤r
ing o
ĠAn merkungen
op ro
art a
Ã¼t ung
ĠFr is
enk te
ĠAugust in
Ġgeb rÃ¤uch
ĠHÃ¶ hlen
Or gel
ĠGegen Ã¼ber
Ã¼b ungen
Ġaufge f
Ġfrei gegeben
ĠGu ard
ĠKur fÃ¼rsten
ĠInstitut ion
ĠBÃ¼r gern
ĠHÃ¶r spiel
ĠHy b
Ġgleichnam ige
ĠVerd acht
vorsitzen de
Ehemal iges
Fol gende
ĠRÃ¶m ischen
national mannschaft
Ġbegeg nen
bour ne
C or
d ann
j ak
w urz
z eilen
en ix
ch tet
Ã¼ ft
Ġs ec
ge fahr
ĠB einen
ĠB irg
ĠM iami
ĠK ids
am an
ent urm
ver z
pp i
Ġab gesehen
ia k
ust on
cht es
eister ung
ĠSpiel feld
ĠGesch wind
ĠGesch irr
pr int
Ġverw andt
ĠLie gen
ĠFrei staat
ĠEm s
ĠBar n
itÃ¤r en
ĠCar n
ĠWinter spielen
Ġbede utete
Ch em
Ch arl
ling hausen
Ġinteress anten
Ġkont akte
ĠZuge hÃ¶rigkeit
ĠLad ung
Ġko ordin
polit iker
Fin anz
Ġkomplex en
Ġetabl iert
Ġliter arischen
ĠVerwand ten
ĠHighl ights
ĠTick ets
ĠYe ar
ĠVul kan
ĠTelek om
ĠIllustr ationen
L G
S cript
T ex
Z udem
m ans
ĠB rÃ¤
Ġein genommen
ĠM ort
ĠM eist
ĠK essel
Ġf ran
ĠR ib
ĠL er
ĠL iver
ig r
us p
us el
ĠSch irm
Ġaus sieht
Ġst euern
Ġes s
Ġ18 11
Ġab seits
ĠLe ber
Ġger man
ren ch
Ã¤m men
tember auben
mar ine
ĠFot ografen
Ġkommen de
schw ung
40 6
Ġfr emd
wand el
hil f
Ġsicher zustellen
ĠBro sch
ĠCom edy
ĠVoll zeit
ĠBef Ã¶rderung
Amer ican
programm e
ĠTit els
zep ten
ĠHom osex
Ġkomplex e
Ġbewohn t
ĠLÃ¼n eburg
ĠAchtel finale
ĠAbstamm ung
D oc
F ield
I de
V iew
d al
h inter
Ġder er
Ġs ank
ĠA ri
ĠD amm
Ġm otor
Ġm ieten
Ã¶ ser
ĠH onne
ĠN enn
Ġver halten
Ġbe gehr
ul ette
uf akt
atur a
Ġseit lich
Ġange trieben
Ġ: -)
ĠLuft fahrt
ĠHeil ig
Ġwelt weiten
Ges amt
ĠSchlag zeug
pla in
ĠVal entin
Ġtau cht
Ġwachsen den
splan ung
ĠHex en
G alerie
P il
R obert
i ja
k Ã¼che
m aurer
en ge
au be
al ischen
ĠB alk
ĠG ern
gen z
Ġn ackte
Ġ( +
ĠR TL
ĠL eichen
Ġan sprechen
Ġdem onstr
ind liche
ic le
Ġ18 17
Ġdurch s
amm elten
Ġall tÃ¤
fÃ¼hr enden
if tet
ĠTh ese
ĠPar ag
ograph ien
obil ie
Ġkosten frei
ĠRes pekt
ĠBesitz ungen
ĠEvangel isch
Ġjem anden
ĠGru ben
ĠnÃ¶t igen
ĠEngl ischen
Ġtschech ischer
Ġaustral ischer
ĠBeat les
ĠJubil Ã¤ums
ĠSaar land
Ġgolden en
ĠLieber mann
D om
P reistrÃ¤ger
b Ã¤nder
r yl
te ch
Ġs ervice
it ro
ĠF P
ĠG ug
ĠG ill
ĠP age
ĠR ache
le ans
ĠV iert
ĠN ak
wei ger
ĠSp a
Ġvor geschrieben
ant eile
ĠMar ok
vers uche
Ġet liche
ĠUnter seite
Ġgro b
ĠGes ellschaften
Ġher ab
geben den
ald ir
iss ions
lei den
ĠBest seller
unter schied
schw anz
US S
Reg ierung
ĠVerl uste
ĠGar den
ĠSyn th
AR T
ĠMos k
pert ies
Ġerfahren en
Ġintegr ierte
Ġqualif izieren
Ġprofession ell
Ġchines ischer
ĠKonfl ikte
Ġerl angen
ĠEinsch rÃ¤nkungen
Fran ce
ĠOrgan ist
Ins eln
ĠLieb haber
asso zi
ĠApothe ker
H otel
m aus
Ð ³
st eht
au me
ĠA K
ĠB ruck
ĠB ienen
ĠG PS
ĠP ode
ĠT ut
ĠL Ã¤ngen
Ġk raft
Ġl ack
Ġl ong
ĠVer fahrens
eil t
Ġsch Ã¤tzen
rie le
Ġ18 22
Ġab stra
ĠCh ap
amm te
Ġdies elbe
Ġall i
St aat
alen te
ĠFamil y
stÃ¤nd iges
ister zien
ĠMenschen rechte
ogen e
ĠKomp anie
ĠLa pt
ĠPaul us
komm un
ĠChar lie
ĠOper ationen
Ġbeteil igen
ĠTom aten
ĠKlass ik
Akt uell
ĠGolden e
JÃ¤hr igen
minist rator
ĠdÃ¤n ische
ĠTun esien
Europameister schaften
ature ja
ĠRal ph
ĠEmpfeh lung
versicher ungs
ĠReprÃ¤sentanten hauses
ĠMohamm ed
Ġill ustr
Ġangemel det
Publik ationen
ĠLeverk usen
isterzien ser
B rit
P ack
T ur
W al
v om
ĠB ri
ĠB amb
Ġb ran
ĠM aul
ĠM Ã¼tter
ĠK eil
ĠK rab
ĠF ix
ĠW Ã¼sten
se a
ĠAn lÃ¤
he er
ĠÃ¼ber gab
pf ad
ĠVor kommen
ĠCh ore
qu in
ĠRo st
nah e
ĠEnt lassung
ĠGer Ã¤u
Ġbeg angen
ĠBundes ministerium
ĠHaupt rollen
Ġfr emden
ĠBÃ¼rger krieg
int age
lech te
Ġpol y
ĠbenÃ¶t igten
Ġstamm ten
Ġfal schen
Ġenthalten en
Ġbedeuten der
Ġbekannte ste
ĠMerk el
Ġbegr Ã¼ÃŁen
pul ver
riz ona
minist ers
ĠRet ro
Ġnorweg ischen
Ġinvest ieren
Ġakzept iert
ĠDra ht
Sing les
Ġlan dete
ĠWalt her
Ġverblieben en
ĠGul den
Ġhabilit ierte
R icht
T abelle
V ier
W ol
b Ã¶rse
k Ã¶pf
o use
x i
sch ale
sch Ã¼tze
ĠS atureja
ar me
Ġw ahl
at io
ĠK alten
ĠP aw
ĠP otential
ro it
ĠSt Ã¤mme
og an
Ġsp itz
ĠBer kel
ak on
ĠLand graf
18 70
elle kt
fe der
th iop
of ilme
ĠBes ondere
lei hen
ĠEurop ap
hau be
Ã¡ l
Ġern euten
tag s
Ã¤h le
ĠHe alth
Ġlange m
ĠTour nee
fest ival
ĠSchm el
Ġzeit gleich
fil men
zy klus
ĠPhilipp e
Ġgeschlossen e
ĠMensch heit
Jo urnalist
funktion Ã¤r
aktiv itÃ¤ten
ĠKron en
ĠGran it
Ġwid met
Ġsan iert
Ġkauf mÃ¤nn
plate Element
ĠBeschÃ¤ft igten
ĠPir aten
Ġkre ative
ĠTeu fel
ĠGebirg s
B ank
M y
O W
f Ã¶rder
k ein
p osten
r Ã¼cke
Ġ á
ĠM ant
ĠK alt
ĠK ate
Ġn eutr
Ġer setzte
ĠI M
Ġbe zeichneten
ĠVer h
ĠIn dependen
Ġsch aut
ru her
Ġso fa
Ġunter ird
iz ed
ak ers
18 67
br ik
ĠReg isse
sk raft
rach ter
lo yd
reg on
ĠKomp etenzen
bet on
ĠOrts name
Ġtechn ischer
ĠAir lines
Ġalt es
ĠOrd nungs
Ġerforder lichen
ĠVi olin
ĠunabhÃ¤ng igen
Ġbetroffen e
Ġschwier igen
Ġunbek annten
ĠMittelalter s
Ġgegebenen falls
wÃ¤l der
ĠBrau erei
ĠBem Ã¼hungen
fass ade
FranzÃ¶s isch
ĠVikt or
ĠHanse stadt
ĠMater ie
ĠGesell schafter
F G
p rech
s ache
or is
ĠA fter
Ġb rief
ĠK V
ĠF ax
il fe
Ġer stellte
ungs ort
ĠGro ÃŁer
ĠAut ors
Ġ14 00
ĠKunst halle
Or dens
Ġbef reien
bet reiber
ĠOlymp iasieger
ĠMehr wert
lech ter
Ob jekte
ĠSpezial isten
Ġanzu zeigen
ĠBill y
ĠKop ie
Ġuner war
ĠBekannt heit
ĠtÃ¶ ten
Komm ission
Ġvorber eiten
ĠKÃ¶n ige
Ġries igen
ĠMang a
ĠTot al
ĠErzbist um
Ev angel
# #
F R
G O
L S
N et
R ud
m Ã¼ller
p rÃ¼f
ĠS ylv
Ġb unt
Ġn ette
ĠW ass
ĠH K
ĠT herap
ĠN acional
Ġan nehmen
ĠSt oÃŁ
ĠMa ke
Ġgen ossen
Ã¤ch eln
ĠEnt z
pr inzip
hm oment
Ġe G
fe ct
ott i
ĠHaupt straÃŁe
Ġgeb ucht
ĠDurch gang
ĠKr isen
Ar ray
ĠRad sport
yr er
Ġsol ch
ĠViel en
Ġ180 7
ĠIns zenierung
ĠFel dern
fÃ¤h igen
kor b
ĠCont inental
Ġkinder zimmer
ĠDok umenten
Ġmittelalter liche
pum pe
ĠIntelligen z
ĠKatastrop hen
ĠPhant Ã¡s
ĠHÃ¼r den
D M
L it
j er
â Ħ¢
Ġw h
Ġs ens
ĠD all
ĠD NA
ĠG elt
ĠG eis
am as
ĠR aub
ĠV eter
ĠJ ugoslawien
ĠC el
Ġzu geschrieben
Ġver nachlÃ¤ss
ĠZ ink
Ġo k
ĠAn c
ĠAn fragen
Ġp Node
od ore
Ġall zu
Ã¼nd ig
ĠMet hod
ĠLandes liga
ĠLebens weise
ĠHa ag
link plain
ĠBar s
ĠPlan ungen
ĠTri um
zuf inden
ĠSied ler
Â« ,
ĠWol ff
Ġerhe ben
System atik
ĠProt otyp
ĠSpann ungs
ĠOff ic
bereit schaft
ĠPok alsieger
Ġeingeb unden
ĠAdels geschlecht
ĠPortrÃ¤t s
Ġflie sen
ĠLokomot ive
ĠBremer haven
ĠFrie der
Ġschmal en
ĠParad ies
Ġschme ckt
Ġsw inger
ĠErscheinungs bild
ĠNapole on
ĠvergrÃ¶ÃŁ ert
ĠKno bl
liess lich
W eg
a ÃŁen
h eid
p Ã¤dagog
w anne
z ahn
Ġd et
sch alter
ich ern
ĠM Ã¤d
em on
ĠF ahnen
Ġf assen
ĠT ir
ĠT ote
lich te
ut a
Ġsch lafen
aus gaben
Ġum gest
ĠAl ger
bl Ã¤ttern
18 71
ze w
ian ce
sk omm
Qu alitÃ¤t
Ġbet Ã¤t
ĠPrÃ¤ z
ĠKn ei
ĠSport arten
ĠGel senkirchen
Ġem pir
Ġreich lich
ĠPe ople
fÃ¤h ige
ĠTel eg
ĠFernse her
DE F
ĠVertrieb s
ĠSchreib weise
Ġlatein ischen
ĠÃ¤uÃŁer te
ĠErdbe ben
ĠTai wan
ĠPubliz ist
ĠShang hai
chtes gaden
R en
S achsen
k ost
s achen
Ġ echter
st urz
st one
st abe
Ã¼ ster
ĠP reistrÃ¤ger
ĠSt ru
ĠAn fÃ¼hrer
18 78
qu enzen
av en
ĠBo ur
ĠBild es
Ġgest richen
ĠSchul jahr
ĠGew issen
Ġkon front
jÃ¤hr iges
ĠLu kas
alis ierten
ĠGel enk
gem acht
Her ren
ĠMel odie
ĠTur b
Kir ch
Ġjem als
ĠTurnier s
ĠPoly ester
ĠSec urity
ĠTats Ã¤chlich
ĠNikol ai
ĠGeschlech ter
Ġveran l
ĠHung er
Stat istik
ĠOR F
erkrank ungen
ĠMomen te
Ġbesieg te
9 00
K re
g ess
t isch
Ã ²
sch anze
ĠS ummer
te hu
Ġm inder
ĠK Ã¤lte
ĠF R
ĠG uer
ĠP utz
Ġf einen
ĠW right
ĠR ange
Ġk alten
ut ive
re c
ĠEr holung
ĠAuf hebung
Ġre alisieren
sk irchen
ĠKon sequenzen
ĠTh un
ĠTh em
Ġgr and
ĠEur e
arr er
Ġange fangen
Geb iet
esse e
gar de
ĠMusik ern
red ite
ĠWahl kampf
hÃ¶ fen
wand lung
ĠSohn es
ĠOst ern
ĠTor hÃ¼ter
ps is
ĠErst ligisten
Ġbed roht
ĠAbt eilungen
ĠGlas gow
Ġus er
ĠNorm andie
ĠLim burg
Ġunbek annte
ĠGrÃ¤ ber
Ġinstall ieren
Ġabgeb ildet
ĠDein em
ĠQuart ier
ĠFotograf ien
Dan ach
ĠPeg ida
ĠProfess ur
ĠVorles ungen
ĠSteiger ung
ĠKarib ik
A V
B ay
T M
a ft
in tern
Ġb richt
ĠM ey
am int
ĠT T
ĠT wo
ĠR ott
ĠJ ag
Ġver weist
ĠAr sch
end igung
ĠPro gress
auf gabe
Ġent schlossen
Ġre cher
Ġber g
Ġc lass
ph one
ĠGeb et
ĠPr inzen
ĠPr ince
stand es
fr ischen
mittel te
ĠgrÃ¼n den
Ġzeit lich
ĠChe fredakteur
Ġung arischer
ĠIr r
betrieb s
prÃ¤sent ation
Ġgelten den
ĠEich st
Co unt
Ġpersonenbezogen er
Krit iken
Ġinvest iert
Kat alog
ĠAttrib ut
hÃ¤ fen
Lei pzig
ĠKorre ktur
2 50
A U
P rÃ¼
R ec
a er
a endert
g riech
k Ã¤mpfen
ĠB ehr
Ġb loÃŁ
Ġm b
ĠJ og
kt ive
Ġun weit
ĠAn sÃ¤tze
eil le
ess ing
ĠAus wertung
ud io
ok uss
ĠEl fen
lag ern
ĠGer uch
ĠBest Ã¤nde
ĠChrist ina
schrei bt
Ġbl ut
ĠGerman istik
Ġplatz iert
ĠFranzisk aner
War um
ĠJahrhunder ten
ĠFavor iten
Ġhor izont
Ġbit tet
Ġunn Ã¶t
A Z
A g
A ction
J ac
k ischen
l ime
m orgen
o zi
r atze
t y
er te
Ġs elt
ĠP hr
ĠH ist
ig s
Ġk ulin
ĠN eb
Ġan sch
ĠAn hang
Ġt isch
Ġst ehe
ru hen
eut ral
geb Ã¤udes
ĠAus gra
bl ut
Ġher zustellen
Ġsel ekt
gew ebe
fr ucht
ĠPol yn
mitt ler
ĠPrÃ¤ senz
ĠTor ped
Ġabsol uten
anc y
Ã¤s se
ĠWahr scheinlich
ĠCan ada
Ġ; )
ĠrÃ¼ck te
ĠVersand kosten
berecht igt
ĠAre a
ĠBasketball spieler
ĠKathol ische
Ġtschech ischen
Ġeleg ant
ĠGefangen en
ĠDub lin
ĠTauf e
htt ps
pum pen
Jose f
ĠSozi ologie
Ġgeg ner
Ġdunk le
Sta ats
D B
F arb
H H
P reuÃŁen
T ick
h ot
m Ã¤dchen
Ġw Ã¤hlt
Ġs erb
Ġv s
Ġein gesetzten
ĠP am
ĠT rakt
ir ges
ag nen
ĠVor lÃ¤ufer
kl agt
io se
sk rit
ĠPr ivileg
ĠBo ote
ĠÃľber lieferung
ĠMed ical
weiter ung
Ġgenau en
ĠBru ce
ĠProgramm s
ĠWal ker
Ġeurop a
ĠHall ow
AL OG
ĠJust in
Ġausgel iefert
ĠgemÃ¼t lich
ĠMeld ungen
ĠnÃ¤chst gelegen
ĠGep Ã¤ck
amint ha
B elege
F el
H aben
J Ã¼rgen
M ot
N R
S am
t iere
Ġd icken
an bau
al ity
at alog
ĠB ott
Ġb rau
Ġm Ã¼h
ĠH asen
ĠL amb
ĠJ ahn
Ġge zeichnet
Ġge hoben
ent rÃ¤ger
ĠO S
Ġl ink
all ing
Ġvor liegt
enn ten
rÃ¤ u
ĠPro gn
Ġdurch gehend
wie der
Ġc an
Ġde cken
gesch ehen
zw ecken
Al bert
Ġger ettet
ĠNov a
oc ommunity
utt gart
zieh bar
ĠBÃ¼ gel
Ġne ur
ĠNor men
ĠMos a
Ġverein igt
ĠBot aniker
ĠVi oline
ynam ik
Ġstarte ten
Ġag gress
kr ise
Italien er
ĠCoach ing
Ġrelev anten
ĠSatt el
ĠAustral ian
Einwohner entwicklung
ĠGon z
ĠColor ado
ĠWeih bischof
> </
P et
T ION
u ze
Ġ Ã¤r
Ġ achte
sch Ã¤tzung
em ar
Ġf ing
um i
ĠV Ã¶
Ã¼r ze
om ben
ĠC z
ĠC rist
sp richt
ad ow
ĠSp anier
be wohner
ĠAl th
Ġ18 19
qu et
In formationen
fer d
ĠKon figuration
Ġ17 93
Ã¶ff nungs
aut obahn
pr ise
pro blem
our s
Ġger ichtet
16 0
Ge ographische
ĠWei ÃŁe
ĠBest es
eig ten
ĠEurop Ã¤
Ġgesch icht
ĠKÃ¶nig lichen
ĠSÃ¼d korea
Ġgest attet
ĠLebens lauf
ĠPer c
ĠDi mension
schw ester
Ġfr Ã¶
Ex press
Ġbew ahren
ĠKÃ¼nstler s
ĠGeorg ia
ĠpersÃ¶n licher
ĠTo ul
ĠSchwer punkte
ĠrÃ¶m ischer
Ġmin imal
ĠfrÃ¼h zeitig
ĠwÃ¼n scht
renz ung
ĠberÃ¼hm te
ĠgewÃ¼n scht
ĠVermÃ¶gen s
Ġbelg ischer
Ġglob alen
Ġverteid igen
ĠPassag ier
ĠSchwÃ¤b isch
blei b
. Â»
Z un
c ted
j ung
r Ã©
t Ã¤g
Ġ ungen
ĠS ED
Ġw inter
ĠP oster
Ġh el
Ġg rav
ĠSt oll
Ġver rÃ¼ck
ĠO ct
Ġun beg
ĠIn iti
Ġum ge
ĠAb riss
ĠLand shut
ĠCh ur
assen d
Ġc ommun
ĠSe elen
ĠRo u
vor schriften
ac a
ac y
ĠWer der
klÃ¤r ungen
Ġhei raten
ĠFest land
use el
ieb te
ĠLudwig shafen
auber n
ĠKÃ¶nigreich s
schm idt
ĠBart hol
ĠKos metik
Ġsan ft
polit ischen
ĠRett ung
Ġniedr ig
ĠzukÃ¼nft igen
ĠausfÃ¼hr lich
Ġlandwirtschaft liche
ĠAlli ierten
wahr scheinlich
ĠKaros serie
Leichtathlet ik
B L
M ult
P R
k upp
p okal
er gebnisse
Ġs eg
ĠK Ã¤mpfen
ĠP Ã¤dagogik
Ġn erv
ĠV iv
ĠSt rat
Ġauf bauen
Ġl Ã¶st
sp itzen
Ġun ent
Ġp raxis
Ġum gehen
be wertung
ic on
ĠVor lauf
Ã© es
ĠKon st
ĠGes ichts
Ġpro t
ĠBes iedlung
ĠMon itor
ĠAnt ik
ĠDe velopment
ĠOb serv
ĠSu ff
Ġch ar
ĠZusammen fassung
hÃ¶ hle
Ġempf ing
ĠAss ist
Ġ180 1
Ġ180 2
ĠNor weg
Ġreich halt
Ġverz ichtete
ĠAg rostis
ĠDeck el
Ġbi bl
Bahn hof
Ġ; -)
klass ige
Ġed ition
ĠKa sten
sprÃ¼ chen
Ġheil ige
Nieder lande
Gew Ã¤sser
ĠJon athan
Ġdro ht
ĠPsal m
ĠLyr ik
Ġfamil i
ĠBeobacht ungen
S ec
T hr
f ul
k och
m otiv
p i
p Ã¤dagogik
ie ge
es c
Ġin dex
ten siver
ĠG eister
ĠP ath
ĠP RO
Ġf all
ĠT ed
ach tete
ĠR allye
ĠL od
ĠC e
Ġver passt
ĠZ isterzienser
ĠSch orn
ĠSch ilder
sp erson
eu ter
rie st
ĠEin leitung
Ġ17 90
ĠGeb raucht
ĠÃľber prÃ¼fung
An lage
ock t
Ġarb eiteten
ĠGew ebe
stra tegie
ĠMitt eilungen
ĠUl rike
ĠWander ung
Ġentscheiden den
ĠTradition en
ĠCharakter e
Ġschwier iger
club s
Ġnutz ten
ĠtÃ¼rk ische
verk auft
Ġpubl izierte
ĠJon as
ĠÃ¶k ologischen
ĠMagn us
ĠRezens ion
Ġpfl anz
ĠHÃ¤uf ig
ĠRestaur ierung
ĠGie bel
ArchÃ¤ ologischer
ĠEmot ionen
I ER
f ast
g itter
l ampe
p ur
r inger
z ed
Â ©
ĠS inf
Ġw ofÃ¼r
ĠD ah
ĠM M
Ġ1 11
ĠF Ã¤cher
ĠG ay
Ã¶ sten
ĠW ann
Ġh amburg
us a
ĠC and
ĠC ort
ĠSt yl
ĠSch loÃŁ
Ġp os
ĠGr ass
Ġzwei geschoss
br uchs
Ġges orgt
ĠSchl Ã¶sser
co urs
Ġ10 2
Ġ10 3
isten ten
ĠMÃ¤r t
schutz es
ĠPolit ische
ĠX V
mittel alter
ĠEd mund
ĠErn te
wor tete
med ia
Ġpl ant
Ġsozial er
lÃ¤uf igen
zus agen
Ġerweiter ten
ĠFern ando
Ġangeboten en
ĠGlo ck
ungsst Ã¤tte
ĠBre ak
Ġverkauf ten
Ġfot ocommunity
ĠAtlant ik
Ġmonat lich
ĠHong kong
ĠVeg as
Klo ster
D Ã¤n
H it
H of
L ab
L ondon
R ein
c ation
r ett
s amm
z gl
en ke
on om
al pen
Ã¼ me
ge stÃ¼t
Ã¤ uÃŁer
Ġb at
ĠD G
ĠM antel
ĠE G
Ġf it
ĠH ohl
Ġh essischen
ĠI ce
ĠN Ã¤ch
ĠN ike
Ġg Ã¤n
rei z
ĠZ irk
Ġt Ã¤tigen
Ġst art
ru fs
ĠSp rÃ¼
ran e
ob te
ĠAb bruch
pl Ã¤ne
18 73
ov an
eld ach
imm ungs
Ġe Mail
ĠSchw Ã¤
kehr en
erst raÃŁe
ĠHo sen
ĠCon serv
ĠSchm utz
ĠStaat sexamen
kn Ã¼pf
Ġmel dete
ĠÃ¼bergeben e
ous ine
ĠEngl ish
ĠMÃ¶n ch
ĠBaumw oll
ĠungewÃ¶hn lich
ĠCorpor ate
ĠbÃ¼rger lichen
ĠFlex ibilitÃ¤t
ĠMunicip io
Ġmen schen
ĠherkÃ¶mm lichen
ĠBerkel ey
1 13
R ek
W ettbewerb
j ut
k lingen
k ontrolle
n ien
ĠB ah
ĠB rat
ĠD S
ĠD ak
ĠK iew
ĠL Ã¼b
le ader
ĠN ummern
ra ht
ent es
ĠSt einen
rei k
Ġver raten
ĠZ iegen
Ġbe auftrag
ing te
ad in
op pt
ĠSp ass
Ġvor zeitig
reich ung
pl o
18 79
18 82
ĠKon zeption
ĠÃľ bung
Ġgr enz
An ton
Ġgeb rochen
Ġarb eite
Ar beit
res p
anc ed
abil ity
abhÃ¤ng ig
Ġklein ste
Ġunver Ã¤ndert
ĠVerm ieter
ĠInvest ment
Ñģ ÑĤ
ĠGot th
Johann es
ĠkÃ¶rper liche
Ġtem por
ĠAnwesen heit
ĠKompl ett
ĠTageb uch
ĠðŁĺ ī
ĠTrium ph
? ,
F M
G ed
M ap
R C
b ruck
l ab
m obil
p utz
Ġ assozi
st Ã¤tigkeit
on ner
ĠS ide
it at
Ã¤ uÃŁ
ĠG P
ol et
Ã¶ opath
ĠH l
ĠT omm
ĠT iger
ĠL ech
Ġk os
ro de
Ġge omet
ĠC onn
kt op
Ġl uft
Ġst ecken
be eren
Ġunter hÃ¤lt
ĠIm port
schie bung
ĠBl ood
of ilm
Er mittelt
Ġ13 5
Ge f
Ġverb and
ĠSte ven
Ġand auern
ĠChrist entum
ĠCl ark
ĠBas eball
under te
ĠTor wart
ĠAss istenz
ĠAugen blick
ĠCom ics
ĠFarb t
ĠÃĦr zt
ĠStoff wechsel
ĠEss ay
klass ig
Ġgriech isch
ĠAltern ativen
ĠtÃ¼rk ischer
ĠPor zell
ĠPrinzip ien
ĠJesu iten
Stre am
ĠDepart amento
ĠPsal men
ĠGU I
Bek annte
Ġerlern te
ĠSerb ien
H alle
c or
d orff
k ann
Â ½
st hal
Ġs enk
ĠD iction
ĠM auern
ĠE last
ĠW itz
ĠT reibst
Ġbe an
Ġun angen
ag h
im pf
ru ption
ri ppe
lie ssen
Ġ18 26
gr am
ges ang
amm e
Ġkl im
ĠUnter t
spr inzip
ĠAd liger
Ã¤m ter
Ġex tern
reg ionen
Ġkon f
ĠSal omon
FuÃŁball nationalspieler
yt es
ĠSchweizer ischen
Ġbed roh
Ġober sten
Ġant rat
Ġerziel ten
ĠerhÃ¶ hten
ĠVerband es
Ġkrit ische
Ġumfang reich
BC I
Ġsowjet ische
Daten bank
Ġstation iert
ĠTreff punkt
gott es
ĠwÃ¶ch entlich
ĠKonzentrations lager
ĠEncyclop edia
Ġanzut reffen
M or
M il
N L
S w
ei ste
ĠB olog
ĠB Ã¶rse
ĠD ichte
ĠG amb
ĠH aben
Ġer wies
ĠC rit
ot z
Ġp ath
Ġso urce
ant i
Ġr hein
ĠMa ck
ĠOr leans
Ġkann te
fahr zeugen
Ġgew Ã¤hrt
Ġc omm
Ġbest es
ens ystem
pro ben
unde te
Ġange st
ĠAnt iqu
ĠFr ien
ĠFol k
ĠEm ma
Or te
ĠArch ive
ĠHeim spiel
ĠDat ing
best immung
ĠHel ene
ĠArn dt
Kon zern
Br ig
ĠLehrer in
Ġkrit ischen
ĠProt ein
Sh ow
ĠMerk ur
tau scht
Polit ische
Ġfehlen den
ĠKonfl ikten
Lin ks
Kan ada
Ġliter arische
ĠIndian er
ĠTerritor ium
ĠIntens iv
ĠSchlieÃŁ ung
ĠAtrÃ© ju
1 15
N D
P sych
S itz
a tet
a ill
u age
ĠS hin
ĠS obald
Ġs ympath
it ime
Ġz eu
ĠK ret
ĠF id
ĠG y
ĠH un
ig raph
Ġk ub
ab lauf
ĠZ iffer
ĠAn schlag
eb ack
ĠÃ¼ber wie
Ġvor kommt
ĠNach ruf
ĠFl ash
Ġber echnen
Ġ17 98
hol fen
ĠY u
ĠOber landes
verb und
ĠX II
ĠKr em
ĠSal at
ĠMot ors
Um welt
Ġzentr aler
ĠAf ric
National park
For schung
Ġko oper
ĠJord an
iox id
Ġinterpret iert
C ard
E F
E uro
H N
P andemie
R um
S ign
W egen
f eln
k abel
k redit
ĠS eid
ĠS itzen
Ġb Ã¶hm
ĠD in
ĠF ries
ol ta
Ġf eucht
ĠH unt
ĠT alk
ĠL ing
Ġer eig
ro y
Ġge hÃ¶
Ġge klÃ¤rt
Die ter
geb rauch
Ġsp Ã¼ren
ĠAus gangs
od on
ap olis
Ã¤l ern
ast ik
ĠRe f
ph on
Web site
ĠTh om
aut o
rad a
ĠLie dern
kon gress
ĠLandes amt
mar schall
mittel bar
ĠPhil osop
ĠAlb anien
ĠDienst leister
ĠBeit rÃ¤gen
met all
Ġentfern ten
Ġ180 5
ĠRuss ell
AR D
ĠWh it
ĠÃľberg abe
vorsitzen den
ĠFlÃ¼cht lings
Min ister
Ġverurs achen
heil kunde
Archite kt
Ġlock er
Ġann Ã¤hern
ĠMall orca
Ġzit iert
ĠStem pel
ĠLÃ¶s ungs
ĠSanti ago
issi ppi
ĠÃľbertrag ungs
ĠBeliebt heit
C ontrol
M aterial
l ist
p in
w achs
ten eg
ĠK um
ĠG Ã¤n
ĠP omp
ĠT hai
Ġ2 10
Ġg lieder
ĠSt iel
Ġver Ã¤nderte
Ġl imit
ver m
ul arb
op ing
ĠBe wohnern
att i
pl ung
18 72
ĠIm plementierung
St ate
Ġges unden
ĠKon vent
ĠUnter scheidung
vor steher
rad io
Al tern
ren e
ĠPf eil
ĠBundes kanz
ĠHaus halten
ĠBeg eisterung
ĠInf ekt
leb ten
ĠZeich nung
ĠRa j
ĠMotor sport
ĠEp oche
ĠSl alom
ĠHeraus gegeben
spekt rum
Mod elle
ĠÃ¤lter er
Ġbekomm st
ĠFischer ei
ĠAutom aten
zur Ã¼ck
ba idsch
ĠBox er
ĠKons ul
Ehemal iger
ĠAcht ung
ĠGab riele
ĠTol er
bÃ¶ den
Home page
ĠTax i
ĠzeitgenÃ¶ss ischen
ĠPL Z
ĠzurÃ¼ckkehr en
ĠErsch einen
ĠDess au
ĠImpress um
Ġkandid ierte
1 14
? !
R at
h Ã¼lle
Ġ ),
es ie
ar er
ar ium
it iert
ĠB itter
Ġein sch
ĠM Ã¤
em mer
ĠK Ã¤
ĠK ru
ĠK ob
ĠH appy
et in
ĠR id
ĠI da
ut o
ft iger
ann y
ĠAn alysen
fl ossen
Ġkl aren
ahn ung
ĠRo uten
ĠMus ikt
ĠMon gol
bo oks
ĠAu er
ĠJu dent
Aus stattung
Pro vinz
ĠX en
ĠHa wa
techn ischen
ĠĠĠĠ ĠĠĠ
Ġkommen d
ĠSc ot
Ġverm uten
ĠKar stadt
Ġstud iert
best immungen
Ġad ministrat
Ġmodern es
Best e
orient ierten
Pol en
person al
polit ische
tor wart
ĠWÃ¼r fel
cycl ing
ĠangehÃ¶r te
mÃ¤r kte
ĠFreiwill ige
ĠResult at
Dav id
ĠDorothe a
enezu ela
K ult
R unde
T ri
k ter
m ode
p it
s ub
Ġ licht
ĠS ehen
ĠS ay
ar est
Ġder art
Ġs il
Ġi ran
ĠK ita
ĠG eiger
ĠE manuel
ĠR aketen
il ie
Ġer laub
Ġh as
Ġo bl
ĠEin mal
ĠGe ographie
ĠBe endigung
itt a
ĠBer chtesgaden
ischer weise
iz ip
18 48
ĠSe eb
Ġ13 00
eig h
Ġex terne
Ġgeb ildeten
ĠMitglied s
ĠLu ck
ĠLu ise
ĠBern er
ĠSol che
ĠNot iz
ĠerÃ¶ff nen
Ġorganis ierten
Ġunver gess
ĠKre feld
Ġblau e
ĠjÃ¼nger er
sprÃ¤ sidenten
Ġsyn th
Ġbrasilian ischen
lies send
Will iam
eto oth
Ġeinver standen
Origin altitel
ĠLiver pool
H essen
N acht
n te
n iveau
au ÃŁer
Ġw ien
Ġw ind
ĠI F
ĠN elson
ĠC C
ĠSt orm
Ġauf re
Ġauf gewachsen
Ġver legte
ĠU CI
Ġl at
wei hung
ot op
ild o
ĠVor lagen
ĠKl ett
Ġbes uchten
ĠBl Ã¤ttern
ĠSe ver
els dorf
geben d
ĠLe gend
richt ungs
Ġganz es
Ã¤m tliche
schn eider
ĠGroÃŁ stadt
Ġern eute
los es
sg ruppen
ĠX L
ĠEis ernen
ĠRom ans
ĠWie se
Ġvoll stÃ¤ndigen
ĠFunktion s
ĠIt al
ĠStaat lichen
ieb ten
ĠVerfÃ¼g barkeit
tex te
ĠhÃ¶ch ster
ĠCas par
ĠRecht sprechung
ĠUl l
ikal ischen
ksam keit
Ġkrit isierte
ĠÃ¤uÃŁ ere
For um
ĠPen is
ĠMinder heit
Ġgeg ossen
ĠMd L
ĠBetracht ung
;; ;;
Ġkompon ierte
ĠMov ie
Ander e
ĠEnzykl opÃ¤die
C amp
L B
Z eichen
i u
i pl
o wer
t ner
Ċ ĠĊĠĊ
ch arakter
ĠA V
Ġb oden
Ġein laden
ĠK ochen
ĠW ut
ĠT reib
Ġh arten
Ġan legen
Ġzu geschnitten
ben ennung
ĠO swald
ĠAn ime
Ġst adt
Ġst Ã¼rzte
Ã¼n f
Ġsch ritt
Ġvor nehmen
gr en
iz id
ĠVor namen
ĠAuf steiger
ĠNach druck
ĠKl Ã¶ster
ĠFran co
ip ment
ĠBo sch
yp ern
ĠEx tr
ĠRei z
Ġverb lieb
ys iker
Ã¤uf en
ĠDes wegen
Ġreg ional
ĠDat ein
ĠDo uble
ĠCol lins
ĠKor b
Ġruss isch
ĠGleich gewicht
Pl attform
dien sten
ĠMult ip
Ġintegr ierten
ĠÃī d
ĠIngen ie
ĠBeob achtung
ĠGebiets reform
Men schen
stron om
wirtschafts lehre
Ġunkompl iziert
ĠMÃ¼ he
B ach
K raft
d ampf
j ar
k issen
k amer
l ia
} -
Î º
ĠS QL
ĠB oss
ĠP ert
ĠR inger
ĠL ass
ĠL oren
ĠL etzt
Ġk rieg
ĠZ ar
ĠU ran
Ġl itt
Ġl ib
Ġl uther
Ġaus lÃ¤ndische
ist ers
Ġvor gel
be kleidung
Ġsp Ã¼r
18 77
ĠStadt verwaltung
ĠAm mon
ett y
ett ing
ĠTeil ung
An schluss
ĠSchw ed
fr am
Ġeinz uf
ĠDr y
ĠMo on
Ġbie te
ĠLin de
ator y
ĠLebens dauer
Ġschw immen
ĠBel g
ĠJe den
ĠPort o
ĠLudwig sburg
ĠLÃ¶ sch
Ġgrund legende
wÃ¼r fen
atter ie
bezogen e
bas ierte
ĠWÃ¼r de
Ġinnov ativen
fot ografie
Ġzuge teilt
Ġtrain ieren
verteid igung
ĠSpir itu
mil ch
ĠStaff eln
Ġlegend Ã¤ren
Ott o
Stad ion
ĠRug by
, ...
B ed
D el
K op
P an
f ehl
u alisiert
Î ·
ĠS Ã©
ĠB anner
ĠD OC
ĠM ob
ĠF ind
ĠR inge
Ġk atal
ra ke
ĠJ ap
Ġim plement
Ġauf geben
Ġbe zahl
ĠO pf
Ġt ar
zen te
spiel t
fen bÃ¼ttel
ĠRe den
fl u
Ã¼t zer
fin al
ĠTeil s
ĠZu erst
anis men
Ġbel euch
ĠBerg werk
Ġel ement
Ġinter disziplin
ool ean
ĠBed rohung
Ãĸ l
ĠgrÃ¶ÃŁer er
ĠEt appen
kur r
ĠKraft werk
ĠHerren haus
Gemein sam
ĠCap it
Ġries ige
ĠMix ed
Ġerober t
ĠDynam o
ĠMalt a
Ġdunk ler
Ġrob ust
ĠLay out
Vors itzen
M ir
R ichter
S ex
S ki
W h
g uss
l uther
sch le
it Ã¤re
Ġin tensiver
Ġm ess
ĠG un
ĠR inder
ĠL ekt
Ġk Ã¼che
Ġan gesch
ĠSt Ã¤nde
Ġzu kunft
ĠSch ol
Ġl asse
men sch
ul i
Ġst Ã¤ndigen
ĠEr mord
ĠEr lebnisse
Ã¼n ster
Ã¤l l
ĠCh ip
bar ungen
ast as
kl einer
rag te
ĠBl ind
ĠGeb Ã¼hr
min uten
old aten
ĠMin en
ĠTag ung
orben en
ĠGegen zug
ĠMich ail
Ġverm ark
ĠSozial demokrat
haupt mann
ĠRot ter
ĠChar ter
Her mann
CH T
ĠGeschÃ¤fts fÃ¼hrung
Ġverbunden e
Ġged ei
ĠBek Ã¤mpfung
Ã¼rn berg
ĠJack e
rang ig
ĠRob oter
ĠStad ium
ĠIndividu en
ĠTu S
ĠSchu bert
ĠMetrop olit
ĠPho enix
ĠFlÃ¼ss igkeit
has Access
ĠprÃ¤z ise
ĠReiÃŁ verschluss
D ank
S il
V ari
d ies
f oto
h und
k assen
l ust
m is
s ommer
in chen
el bach
at ro
Ġin neh
ĠV R
us ser
Ġauf recht
ĠU do
ĠO pel
ĠO laf
ĠO klahoma
ver sen
ĠAn lauf
Ġsch Ã¤tz
Ġam b
Ġzur echt
od ont
ant a
ĠOr n
ĠHer der
18 65
fl ag
ht on
ce an
ph ysik
Ġzwischen zeitlich
ĠÃľber einst
ĠChr omos
ott a
feld t
Ġnah egel
Ġben annten
ĠKont ra
ĠKr ypt
ĠMeister in
ĠSil ver
ĠMont real
ĠFeld es
ĠChar me
ĠCal amintha
System e
ĠStellen wert
ĠSuch maschinen
ays ia
ĠðŁ ĻĤ
DI ALOG
ĠPra ger
ĠCy ber
ĠSak rist
ĠGÃ¶ te
ĠRy an
ĠAkte ure
ĠtatsÃ¤ch liche
Ġakadem ischen
Ġafr ikanischen
ĠgÃ¤ng igen
D ER
b og
d liche
h anden
r elev
z es
á »
ĠS ele
ar g
ĠD icht
ĠK ei
ĠK iss
ter en
ĠP all
ĠP Ã¤dagoge
ĠT i
ĠT in
Ġer lassen
Ġan bie
Ġp arlament
os o
ĠAl ess
18 50
18 64
Ġber eiten
Ġzw ang
Ã¼t tert
ph p
ĠStadt werke
war te
war ten
stand ards
for mer
akt iven
ĠÃĸ konomie
ib a
Ġex klusive
str ument
ĠGroÃŁ es
ĠPer iode
ĠFest e
Ġaufge treten
Ġur auf
ĠDem nach
uck s
Ġbew al
res den
uk i
ĠProduktion en
ĠMitarbeiter in
azz o
Ġerk rank
ĠKol onien
ĠUl mer
Ġintegr ieren
Ġauft ritt
ĠInstr umenten
SG VO
ĠMun ition
Rei se
ĠAnf Ã¤ngen
ĠPul ver
ĠKathol iken
ĠExempl aren
Ġaustral ische
ĠFranzisk us
wel che
ĠAccess oires
ĠAgn es
' t
G las
P M
f on
m ahl
p anzer
u cc
Ġd aten
it enk
Ġi OS
ĠK ut
ĠW ith
ĠT ausch
ĠR anger
ĠV ia
re v
Ġge schl
Ġbe absicht
ver folgung
ĠAn lehnung
est ers
end ienst
Ġsp iegel
ĠAus strahlung
ken swert
18 75
zu ge
ĠThe orien
ĠMus lime
ym pt
ĠEl len
ĠKunst verein
ief ern
ĠBeg rÃ¼nder
platz ierten
ĠTem pl
ĠGeneral sekretÃ¤r
ĠFil ialen
beh Ã¶r
Ġbed anken
ĠZeich ner
ĠFuÃŁ gÃ¤nger
rick et
Ġkehr t
ĠRelig ionen
Ġident ifizieren
Intern et
ĠStatt halter
Ġattrakt ive
ĠGefangen schaft
Ġser i
Mag azin
Ġzusammenge schlossen
ĠTool s
Soll te
Spez ial
ĠAnk lage
PrÃ¼ ft
H en
L T
T un
g attung
k ok
s zeit
ĠS inger
Ġw echselt
as ing
ĠK az
ĠF iction
ĠT ragen
ĠT ante
Ġk ind
ĠN id
ĠJ as
Ġver schaffen
Ġver wiesen
icht bar
ah men
ĠVer gessen
ĠUn it
ĠUn glÃ¼ck
âĢľ ;
Ġab steigen
ĠBe urteilung
Ġent nommen
Ġre konstru
schl Ã¼ssen
ek und
fall enden
ĠQu Ã©
Ġ10 6
ĠEl k
ĠFr om
ĠLin ke
vert rÃ¤ge
ĠStaats oberhaupt
ĠLi bert
ĠSing apur
plan er
rib ut
Ġkathol ischer
ĠRh Ã¶n
ĠPla ce
ĠGerman ia
Ġhal bes
ĠSchnitt stelle
freund lich
bÃ¼r os
ĠÃ¼berw inden
ĠQuer schnitt
ÅĻ ÃŃ
Ġattrakt iv
ĠMountain s
ĠElect ron
ĠChurch ill
spol izei
ĠErmord ung
) }
K S
L ouis
g ymnasium
k etten
k ugel
u sten
á º
ch sen
em y
ĠR ig
le v
us er
ir st
Ġk ult
ĠN ationale
Ġzu stÃ¤ndige
ĠO den
Ġa temberauben
kl ima
ĠSchl auch
ock er
ĠMin den
ĠAug uste
Ã¤u ber
Ein er
ĠLin col
zeug nisse
ĠNieder rhein
ĠEd itor
jÃ¤hr lich
ĠKÃ¼ hn
Ã³ r
ĠDorf kirche
ĠStaats sekretÃ¤r
ĠAc adÃ©
ĠLang zeit
Ġrecht liche
Ġober ste
ĠFort bildung
Ġgesp eicher
ĠOrts kern
ĠTra iler
ĠÃ¤hn elt
ĠÃ¤hn liches
ĠEhren bÃ¼rger
ĠEhren mitglied
Ġstammen den
Ġelektr isch
ĠOri ental
Intern ationale
ĠMr d
geschicht lichen
Sing le
ĠKaisers lautern
ĠApothe ke
ĠWitten berg
ĠJew gen
Ġkaiser lichen
Ġerled igt
Ġbewaff neten
ĠRhythm us
Landtag sabgeordneter
ĠÃĦsthet ik
ĠgÃ¤n zlich
D ort
F S
H al
M I
P A
W L
d amer
s ser
s yn
z ischen
st ange
st immen
st Ã¶ck
ein halb
Ġs ommer
Ġb adezimmer
ĠD ahl
Ġein bezogen
ĠL amp
ĠI tem
um men
om bo
Ġg eilen
ĠC ec
ĠSch ar
Ġp otenz
Ġunter such
anz a
Ġ17 5
Ġ17 89
Ġgel istet
ĠBo urg
ĠBo ys
stand ard
ĠZu verlÃ¤ss
ĠAut hent
Ã¤u pt
ĠMo ore
Sie d
Ġnah en
ĠRom antik
ĠPer len
Ġabge f
ĠSommer spielen
Ġhinter lieÃŁ
ĠBis her
ĠBoden see
ĠGut es
Ġklass isch
spekt ive
ĠMy ster
Ġverein zelt
ĠPsych otherapie
ĠjÃ¼d ischer
spann ungs
Ġmel det
jo urnalist
Ġwid men
Ġbeant wortet
ĠDebÃ¼t album
ĠModern isierung
ĠBatter ien
ĠkrÃ¤ ftig
ĠGil bert
Ġprim Ã¤r
ĠPrinc eton
Ġverkn Ã¼pft
ufakt ur
K olle
M athemat
h on
h Ã¼gel
k leben
z bach
ĠS ara
at ra
ĠK app
ĠG liederung
ĠG KD
ĠP osit
ĠH ag
ĠT eller
ĠR elease
Ġg alten
Ġan waltskanzlei
Ġzu gehÃ¶rigen
eh ner
ĠEr fassung
ĠJahr tausend
ĠUn entschieden
gr ill
.. ...
ĠKl einer
ĠFl oh
fl Ã¼ssen
ate mal
ĠKon figur
Ġ17 80
av ig
sb ibliothek
ĠÃľber reste
ĠOber pfalz
Ġeinz ur
ograf ischen
ĠKomp rom
ĠProf it
ven ten
ĠErn euerung
stre am
ĠFrÃ¼ her
legen den
ĠGarten bau
ĠPo sen
ĠdÃ¼r ften
ĠHerzog s
Ġetabl ieren
ĠVern unft
geschicht liche
ĠSynchron sprecher
Ġmer kt
cr eme
Ġjeg liche
ĠSilv ester
Ġgenutz ten
Ġignor iert
Maxim ilian
B it
F ans
M att
P G
S erv
h Ã¤lfte
l ess
n och
n ick
z l
z aun
È Ľ
ĠS CH
ĠD V
Ġm ac
ĠW eid
ĠW isconsin
ĠR C
ĠR im
um an
ĠN ash
ĠJ immy
Ġan alog
ĠC ash
ĠSt rich
ĠO regon
men schen
ĠBer echt
gel enk
ho sen
ĠVor ort
ĠRe pertoire
18 68
fl otte
Ġ6 50
ĠUm stÃ¤nde
ĠTh is
ank ungen
Ver wendung
ĠCo oper
ĠFr Ã¶
opp elte
druck er
ĠFuÃŁball verein
ĠIs a
FuÃŁball torhÃ¼ter
ĠKor respon
ĠOrtsteil en
ĠRÃ¤ der
ĠFund platz
dar stellung
ĠBox en
ĠEhr endoktor
Ġeingel eitet
wÃ¤rt ige
ĠdÃ¤n ischer
beit rÃ¤ge
har z
Ġleist ungsst
Ġgolden e
ĠStan ley
verÃ¶ffentlich ung
ĠNavig ation
ĠBundestags wahl
Ġberecht igt
Ġanzus ehen
ĠGÃ¼ters loh
ĠHallow een
ĠannÃ¤hern d
D ek
K as
K anton
T urn
b auf
i bert
k ranz
k raut
t an
u den
Ġ architekt
in tens
st ill
sch acht
Ġw andern
ĠM aurer
Ġin haft
Ġm ol
ĠK aut
ĠG Ã¼rtel
ĠE pp
Ġn en
Ġf ac
iel s
Ġl ist
ul us
Ġwir ks
Ġwar me
iv ia
etz ungs
ru ine
geb Ã¼hren
ĠLand rats
St Ã¤dte
ack s
Ġhin auf
egen en
co uver
ĠUS D
ĠZu ordnung
10 1
ĠPf Ã¤l
so hle
Ã¼nd liche
ĠMed al
ou x
sicht s
ĠWasser stoff
lauf enden
ĠFlug zeugt
ĠNeben darsteller
ĠCar oline
ĠWinter thur
ĠKirchen schiff
Ã¤tig keits
ĠPal mer
abr iken
Ġgefunden en
Aut o
Sport liche
ĠLou ise
ĠTit eln
Ġtro ck
ĠInteressen ten
Ġkommun alen
berecht igung
spez ifische
ĠKonzer ten
fÃ¼ll ten
ĠansÃ¤ss igen
frÃ¼ her
ĠNicol as
iser ie
ĠQue ens
ĠInvas ion
E ing
H annover
T el
d Ã¶r
h abe
x y
Ñ ı
sch ach
ur kunde
Ġb rÃ¤
ĠK amm
ĠK ies
ĠP ens
ĠW Ã¼ste
ĠL ehm
Ġh inger
Ġge schenkt
ag ung
Ã¶n nen
ĠDer en
ĠMa ier
att ungen
ĠRe alisierung
schl usst
ov olta
Ġgibt s
dr Ã¼cke
ĠCo ast
Ġselbst Ã¤ndig
Ġganz heit
ĠAd rian
Ġgef asst
ĠMo schee
ĠHoch flieger
verb Ã¤nden
Es sen
ĠBeispiel sweise
spro f
Ġspez ifischen
Ġbew Ã¤ltigen
mÃ¶ gliche
ĠAc c
Ġsex uellen
.: .:
por te
ĠAbend essen
tent wicklung
Ġverz iert
!! !!
ĠMad onna
ĠLÃ¤nder spiel
ĠKirch spiel
pfl anze
ĠpreuÃŁ ische
Ġneg ativen
Bel gien
Ġflie hen
ĠEinblick e
ĠCons ult
ĠSpark asse
ĠAlf ons
ĠProtag onisten
ĠPode st
ĠKnobl auch
ĠLincol n
K art
K ons
b lech
f lieÃŁen
w i
Ġ arr
Ġs and
ĠB Ã©
ĠB indung
Ġz eige
ĠK uh
ĠF at
ĠL iquid
Ġh ind
Ġk ochen
Ġk lingen
ĠN BA
ra ct
ĠSt roh
sp Ã¤ter
ĠIn put
Ġso was
Ġvor nehmlich
be zug
bl Ã¼ten
gel der
ĠAb lehnung
ay r
Ã¼t tel
Ġbes aÃŁen
Ġkl asse
Ġbest attet
geben e
ĠGer ald
ide e
Ġ| --
ĠSte wart
ĠMÃ¤r kte
ĠĠĠĠ ĠĠ
ĠEle f
ĠDre hmoment
ĠAng reifer
ĠRed uz
ĠMor ris
Ġaut o
alog ie
raktion en
asp ielen
ĠRem ote
ĠNic ole
Ġinspir ieren
geschn eider
ĠBewer ber
Ġsyn chron
ĠMath ias
ĠKohlen stoff
Don ald
Eben falls
Ġhinz ufÃ¼gen
ĠMinn esota
ĠBeet hoven
ĠDiffer ential
D eb
l yn
n ÃŃ
u pf
ĠS uchen
al ier
Ġs lowen
ĠD Ã¶
ĠD essen
Ġm arkt
ĠF icken
ĠP ent
ĠT ell
ĠL enz
[...]
