{"<s>":0,"<pad>":1,"</s>":2,"<unk>":3,"<mask>":4,"!":5,"\"":6,"#":7,"$":8,"%":9,"&":10,"'":11,"(":12,")":13,"*":14,"+":15,",":16,"-":17,".":18,"/":19,"0":20,"1":21,"2":22,"3":23,"4":24,"5":25,"6":26,"7":27,"8":28,"9":29,":":30,";":31,"<":32,"=":33,">":34,"?":35,"@":36,"A":37,"B":38,"C":39,"D":40,"E":41,"F":42,"G":43,"H":44,"I":45,"J":46,"K":47,"L":48,"M":49,"N":50,"O":51,"P":52,"Q":53,"R":54,"S":55,"T":56,"U":57,"V":58,"W":59,"X":60,"Y":61,"Z":62,"[":63,"\\":64,"]":65,"^":66,"_":67,"`":68,"a":69,"b":70,"c":71,"d":72,"e":73,"f":74,"g":75,"h":76,"i":77,"j":78,"k":79,"l":80,"m":81,"n":82,"o":83,"p":84,"q":85,"r":86,"s":87,"t":88,"u":89,"v":90,"w":91,"x":92,"y":93,"z":94,"{":95,"|":96,"}":97,"~":98,"¡":99,"¢":100,"£":101,"¤":102,"¥":103,"¦":104,"§":105,"¨":106,"©":107,"ª":108,"«":109,"¬":110,"®":111,"¯":112,"°":113,"±":114,"²":115,"³":116,"´":117,"µ":118,"¶":119,"·":120,"¸":121,"¹":122,"º":123,"»":124,"¼":125,"½":126,"¾":127,"¿":128,"À":129,"Á":130,"Â":131,"Ã":132,"Ä":133,"Å":134,"Æ":135,"Ç":136,"È":137,"É":138,"Ê":139,"Ë":140,"Ì":141,"Í":142,"Î":143,"Ï":144,"Ð":145,"Ñ":146,"Ò":147,"Ó":148,"Ô":149,"Õ":150,"Ö":151,"×":152,"Ø":153,"Ù":154,"Ú":155,"Û":156,"Ü":157,"Ý":158,"Þ":159,"ß":160,"à":161,"á":162,"â":163,"ã":164,"ä":165,"å":166,"æ":167,"ç":168,"è":169,"é":170,"ê":171,"ë":172,"ì":173,"í":174,"î":175,"ï":176,"ð":177,"ñ":178,"ò":179,"ó":180,"ô":181,"õ":182,"ö":183,"÷":184,"ø":185,"ù":186,"ú":187,"û":188,"ü":189,"ý":190,"þ":191,"ÿ":192,"Ā":193,"ā":194,"Ă":195,"ă":196,"Ą":197,"ą":198,"Ć":199,"ć":200,"Ĉ":201,"ĉ":202,"Ċ":203,"ċ":204,"Č":205,"č":206,"Ď":207,"ď":208,"Đ":209,"đ":210,"Ē":211,"ē":212,"Ĕ":213,"ĕ":214,"Ė":215,"ė":216,"Ę":217,"ę":218,"Ě":219,"ě":220,"Ĝ":221,"ĝ":222,"Ğ":223,"ğ":224,"Ġ":225,"ġ":226,"Ģ":227,"ģ":228,"Ĥ":229,"ĥ":230,"Ħ":231,"ħ":232,"Ĩ":233,"ĩ":234,"Ī":235,"ī":236,"Ĭ":237,"ĭ":238,"Į":239,"į":240,"İ":241,"ı":242,"Ĳ":243,"ĳ":244,"Ĵ":245,"ĵ":246,"Ķ":247,"ķ":248,"ĸ":249,"Ĺ":250,"ĺ":251,"Ļ":252,"ļ":253,"Ľ":254,"ľ":255,"Ŀ":256,"ŀ":257,"Ł":258,"ł":259,"Ń":260,"er":261,"en":262,"ch":263,"Ġd":264,"in":265,"ie":266,"un":267,"st":268,"ei":269,"an":270,"sch":271,"on":272,"ĠS":273,"ein":274,"es":275,"au":276,"al":277,"und":278,"Ã¼":279,"el":280,"ar":281,"ich":282,"Ġw":283,"Ġder":284,"te":285,"Ġs":286,"ge":287,"or":288,"it":289,"Ã¤":290,"Ġund":291,"ur":292,"ĠA":293,"Ġv":294,"at":295,"ĠB":296,"ung":297,"Ġdie":298,"Ġb":299,"ĠD":300,"Ġein":301,"as":302,"ĠM":303,"em":304,"Ġin":305,"hr":306,"Ġi":307,"Ġm":308,"Ġz":309,"Ġ1":310,"ten":311,"ĠK":312,"Ġau":313,"ter":314,"ĠF":315,"ĠG":316,"ĠE":317,"am":318,"de":319,"gen":320,"ĠP":321,"Ġn":322,"ol":323,"der":324,"Ġf":325,"Ã¶":326,"Ġ(":327,"ĠW":328,"ĠH":329,"den":330,"et":331,"isch":332,"ĠT":333,"ach":334,"ĠR":335,"ber":336,"ĠL":337,"is":338,"âĢ":339,"il":340,"Ġer":341,"ig":342,"le":343,"Ġh":344,"ĠI":345,"um":346,"ier":347,"lich":348,"ĠV":349,"Ġvon":350,"us":351,"ir":352,"Ġk":353,"Ã¼r":354,"and":355,"om":356,"ck":357,"eit":358,"Ġ2":359,"Ġden":360,"ion":361,"ĠN":362,"ut":363,"ra":364,"ĠJ":365,"Ġmit":366,"Ġg":367,"re":368,"Ġ19":369,"ab":370,"ro":371,"Ġge":372,"Ġdas":373,"ent":374,"Ġim":375,"Ġan":376,"ĠC":377,"se":378,"ĠSt":379,"Ġdes":380,"ÃŁ":381,"Ġzu":382,"Ġal":383,"kt":384,"rei":385,"ft":386,"ann":387,"Ġauf":388,"sen":389,"Ġist":390,"Ġver":391,"icht":392,"ben":393,"ik":394,"ell":395,"ĠZ":396,"ĠfÃ¼r":397,"Ġ20":398,"ĠSch":399,"Ġbe":400,"ĠU":401,"ĠO":402,"ahr":403,"iel":404,"eh":405,"Ġo":406,"ĠâĢ":407,"Ġdem":408,"Ġl":409,"sp":410,"ff":411,"ah":412,"Ġaus":413,"ischen":414,"ĠVer":415,"Ġun":416,"Ġwur":417,"wei":418,"ien":419,"Ġsich":420,"ag":421,"ĠIn":422,"Ġeine":423,"ist":424,"men":425,"ĠDie":426,"ver":427,"Ġals":428,"ing":429,"eu":430,"ad":431,"Ã¤n":432,"ot":433,"och":434,"Ġbei":435,"ern":436,"ĠAn":437,"est":438,"ser":439,"Ġt":440,"he":441,"Ġp":442,"ation":443,"eich":444,"eg":445,"os":446,"hn":447,"ul":448,"scha":449,"ungen":450,"Ġst":451,"Ġwurde":452,"im":453,"Ã¼ber":454,"Ġwir":455,"Ġwar":456,"ind":457,"ehr":458,"ĠĊ":459,"uch":460,"ĠEr":461,"eb":462,"eil":463,"Ġauch":464,"Ġsein":465,"Ã¼n":466,"ort":467,"Ġsch":468,"ed":469,"ĠJahr":470,"ert":471,"all":472,"sten":473,"iv":474,"ger":475,"etz":476,"ru":477,"ĠÃ¼ber":478,"ische":479,"nen":480,"rie":481,"op":482,"Ġnicht":483,"ĠSp":484,"ang":485,"eut":486,"lin":487,"00":488,"Ġso":489,"ungs":490,"Ġnach":491,"Ã¤t":492,"ri":493,"mer":494,"uf":495,"ĠSie":496,"urch":497,"Ġ201":498,"ĠUn":499,"schaft":500,"Ġj":501,"ĠEin":502,"og":503,"oll":504,"igen":505,"Ġam":506,"Ġes":507,"ran":508,"Ġwer":509,"aus":510,"ster":511,"art":512,"Ġsie":513,"âĢľ":514,"),":515,"chen":516,"la":517,"Ġbis":518,"Ġum":519,"Ġwerden":520,"Ġwie":521,"ler":522,"lie":523,"Ġzur":524,"Ã¶n":525,"pp":526,"ĠâĢŀ":527,"Ã¶r":528,"Ġzum":529,"Ġvor":530,"Ġoder":531,"be":532,"ĠAr":533,"end":534,"ĠAl":535,"Ġsind":536,"Ġhat":537,"Ġeiner":538,"eutsch":539,"ĠGe":540,"ic":541,"iert":542,"stell":543,"ech":544,"hal":545,"Ġ3":546,"enn":547,"rÃ¤":548,"hl":549,"Ġwird":550,"ĠPro":551,"ige":552,"Die":553,"Ġunter":554,"Ġ18":555,"Ġa":556,"Ġihr":557,"Ġdurch":558,"Ġ200":559,"Ã¤r":560,"âĢĵ":561,"ĠâĢĵ":562,"elt":563,"zen":564,"Ġab":565,"tern":566,"auf":567,"ug":568,"ĠBe":569,"tet":570,"Ã¼ck":571,"rau":572,"Ġent":573,"Ġeinem":574,"itt":575,"Ġeinen":576,"19":577,"ers":578,"ĠEn":579,"geb":580,"ste":581,"gt":582,"wer":583,"lichen":584,"eiter":585,"eben":586,"Âł":587,"ess":588,"pt":589,"eln":590,"arb":591,"Ġsp":592,"ick":593,"ĠBer":594,"uss":595,"Ã¼hr":596,"her":597,"ischer":598,"ĠÃ":599,"ahl":600,"che":601,"ks":602,"gr":603,"ass":604,"orm":605,"bt":606,"ĠAus":607,"od":608,"ap":609,"atz":610,"ant":611,"Ġdass":612,"ĠDer":613,"Ġr":614,"iz":615,"ord":616,"ner":617,"pf":618,"ow":619,"ill":620,"liche":621,"ekt":622,"eiten":623,"bl":624,"land":625,"gel":626,"ne":627,"det":628,"ud":629,"Ġhab":630,"ts":631,"eine":632,"hen":633,"urg":634,"Ġ-":635,"anz":636,"adt":637,"..":638,"ia":639,"ust":640,"ohn":641,"id":642,"spiel":643,"Ġ199":644,"ĠGr":645,"ĠMa":646,"Ã¤l":647,"reich":648,"ho":649,").":650,"ken":651,"ĠOr":652,"itz":653,"ĠMit":654,"ges":655,"ĠDas":656,"alt":657,"ob":658,"ieren":659,"aten":660,"ok":661,"Ġ4":662,"Ã¤hr":663,"wie":664,"ĠAb":665,"ak":666,"ex":667,"omm":668,"Ġnoch":669,"acht":670,"weise":671,"eits":672,"Ġnur":673,"ÃŁen":674,"ard":675,"20":676,"Ġmehr":677,"ĠMar":678,"att":679,"Ġda":680,"ild":681,"ĠVor":682,"ĠAuf":683,"ss":684,"inz":685,"atur":686,"Ġneu":687,"ĠLand":688,"fen":689,"ont":690,"ĠCh":691,"Ġich":692,"Ġzwei":693,"bar":694,"ast":695,"ial":696,"mal":697,"ĠRe":698,"ĠHer":699,"amm":700,"pl":701,"ĠkÃ¶n":702,"utz":703,"18":704,"reis":705,"ĠIm":706,"Ġander":707,"par":708,"leich":709,"fol":710,"Ġre":711,"Ġ5":712,"Ġkann":713,"schl":714,"elle":715,"Ġaber":716,"rÃ¼":717,"oren":718,"ĠNach":719,"ĠKl":720,"dern":721,"burg":722,"etzt":723,"ĠFl":724,"fl":725,"cht":726,"Ġman":727,"keit":728,"ÃŁe":729,"qu":730,"me":731,"br":732,"Ġdies":733,"ierte":734,"ktion":735,"kl":736,"bau":737,"ommen":738,"ehen":739,"ov":740,"Ġvom":741,"ze":742,"ĠZeit":743,"schen":744,"ke":745,"Ġall":746,"ht":747,"Ġ198":748,"nis":749,"itÃ¤t":750,"zeit":751,"ichte":752,"uÃŁ":753,"zu":754,"assen":755,"Ġlie":756,"vers":757,"ay":758,"age":759,"Ġber":760,"per":761,"eld":762,"Ġhaben":763,"Ġzw":764,"fahr":765,"Ġwurden":766,"rit":767,"In":768,"ĠDeutsch":769,"Ġdeutsch":770,"Ã¼t":771,"berg":772,"eim":773,"Ġbes":774,"ek":775,"ha":776,"Ġweiter":777,"glich":778,"ĠReg":779,"ffen":780,"ale":781,"Ġgew":782,"du":783,"Ġc":784,"eigen":785,"Der":786,"Ġet":787,"Ġ197":788,"schie":789,"ce":790,"ph":791,"ĠPl":792,"iger":793,"ĠStadt":794,"rag":795,"Ġsowie":796,"St":797,"eite":798,"ĠAm":799,"unden":800,"Ã©":801,"ine":802,"ĠkÃ¶nnen":803,"ehmen":804,"ften":805,"ett":806,"Ġdar":807,"eist":808,"urn":809,"ĠIhr":810,"ian":811,"bst":812,"zeich":813,"fer":814,"Ġkl":815,"dem":816,"rat":817,"fÃ¼hr":818,"Ġ(*":819,"form":820,"Ġgen":821,"Ġof":822,"Ġsoll":823,"Ġ\"":824,"Ã¤ch":825,"ierung":826,"amen":827,"ate":828,"ammen":829,"Ġwieder":830,"eister":831,"heit":832,"ibt":833,"ahn":834,"mann":835,"ĠSo":836,"rich":837,"Ġ6":838,"Ã¤nd":839,"iele":840,"ĠBr":841,"lung":842,"Ġbest":843,"ellen":844,"wa":845,"io":846,"onn":847,"Ġ9":848,"ĠGem":849,"tem":850,"ilm":851,"sk":852,"ĠBl":853,"ez":854,"Ġ196":855,"Ġges":856,"ĠSpiel":857,"Ġgegen":858,"ĠKon":859,"imm":860,"Ġ17":861,"Ġunser":862,"net":863,"if":864,"ĠSe":865,"ĠUnter":866,"ult":867,"ĠGesch":868,"eter":869,"Web":870,"ĠEs":871,"Ġeines":872,"Ġgro":873,"links":874,"ive":875,"omp":876,"ĠUm":877,"Ġde":878,"ater":879,"Ġje":880,"ĠFran":881,"Ġdieser":882,"ĠRo":883,"Ã¶l":884,"Ã¼d":885,"olog":886,"Ġle":887,"Ã¶ff":888,"Qu":889,"Weblinks":890,"issen":891,"ub":892,"av":893,"Ġ194":894,"ĠGes":895,"ingen":896,"ational":897,"param":898,"usammen":899,"glie":900,"gesch":901,"gl":902,"ĠBau":903,"Ġher":904,"ret":905,"ĠThe":906,"Ġseine":907,"els":908,"ium":909,"rupp":910,"olit":911,"geben":912,"teil":913,"ack":914,"inn":915,"annt":916,"nah":917,"Ġgel":918,"Ġ195":919,"Das":920,"rach":921,"Ġhatte":922,"onder":923,"mein":924,"iker":925,"Ġseiner":926,"ĠÃľ":927,"ct":928,"Ġfin":929,"iter":930,"ĠMus":931,"fall":932,"Ġ15":933,"ĠGeb":934,"olle":935,"inder":936,"ip":937,"vor":938,"ĠTh":939,"wick":940,"arl":941,"erson":942,"Ġdiese":943,"ĠEnt":944,"ieder":945,"ĠGemein":946,"Ġ7":947,"ark":948,"ĠJahre":949,"ivers":950,"Ġsel":951,"halten":952,"ĠJo":953,"ĠPr":954,"war":955,"aut":956,"Einz":957,"ĠBei":958,"fÃ¼":959,"undert":960,"aupt":961,"fin":962,"ĠTeil":963,"SB":964,"sel":965,"erk":966,"ĠWir":967,"Ġzwischen":968,"ais":969,"Ġgr":970,"ym":971,"org":972,"gend":973,"si":974,"Ġhin":975,"Ġviel":976,"ember":977,"ition":978,"ĠĠ":979,"Ġdann":980,"Ġ8":981,"reu":982,"ball":983,"spieler":984,"Ġ16":985,"Ã¤hl":986,"zeu":987,"Ã¶glich":988,"raf":989,"enz":990,"orf":991,"Ġbet":992,"hÃ¶r":993,"iet":994,"ew":995,"Ã¶s":996,"achweise":997,"Ġhier":998,"egen":999,"sb":1000,"Ġwenn":1001,"ĠJahren":1002,"lo":1003,"ĠBo":1004,"Sch":1005,"ĠArb":1006,"Einzeln":1007,"Ġjed":1008,"uft":1009,"gab":1010,"len":1011,"ĠWelt":1012,"Einzelnachweise":1013,"pr":1014,"ikan":1015,"hm":1016,"Ġgibt":1017,"Ġseit":1018,"hundert":1019,"ĠEur":1020,"Ġalle":1021,"ĠSchl":1022,"ame":1023,"Ġ193":1024,"ĠQu":1025,"ma":1026,"Ġwaren":1027,"eck":1028,"ald":1029,"ationen":1030,"SBN":1031,"ohl":1032,"eht":1033,"co":1034,"ĠISBN":1035,"ittel":1036,"haus":1037,"Ġbek":1038,"yst":1039,"amil":1040,"eid":1041,"Ġuns":1042,"hne":1043,"lieÃŁ":1044,"Ġsehr":1045,"einen":1046,"ĠMen":1047,"Ġe":1048,"fach":1049,"off":1050,"Ġbeim":1051,"eute":1052,"ragen":1053,"Ġausge":1054,"Ġeigen":1055,"arten":1056,"...":1057,"17":1058,"ĠÃľber":1059,"Ã¤d":1060,"rieb":1061,"ank":1062,"angen":1063,"igkeit":1064,"hol":1065,"Ġdam":1066,"alen":1067,"Ġfol":1068,"iteratur":1069,"rad":1070,"ĠKir":1071,"ĠSta":1072,"ĠzurÃ¼ck":1073,"undes":1074,"ĠBerlin":1075,"igt":1076,"ĠUS":1077,"amt":1078,"ĠJahrhundert":1079,"ens":1080,"ĠY":1081,"fe":1082,"Ġ10":1083,"Ġdrei":1084,"pro":1085,"tschaft":1086,"ĠEl":1087,"entr":1088,"ost":1089,"ĠLeben":1090,"yp":1091,"unde":1092,"Ġwas":1093,"arr":1094,"nung":1095,"lage":1096,"stellt":1097,"Ġersten":1098,"orden":1099,"ans":1100,"Ġimmer":1101,"ystem":1102,"az":1103,"stand":1104,"ruck":1105,"lag":1106,"Ġange":1107,"Ġihre":1108,"Ġerst":1109,"schaften":1110,"ĠGro":1111,"iss":1112,"lau":1113,"ĠHand":1114,"ĠLe":1115,"ĠZu":1116,"amer":1117,"Ã¤ter":1118,"orn":1119,"osten":1120,"our":1121,"ander":1122,"Ġschon":1123,"mus":1124,"anden":1125,"unst":1126,"An":1127,"abei":1128,"for":1129,"ron":1130,"ĠPh":1131,"ÂŃ":1132,"richt":1133,"asser":1134,"ĠGer":1135,"ÃŁer":1136,"ule":1137,"ende":1138,"entlich":1139,"ierten":1140,"satz":1141,"ĠAut":1142,"ielt":1143,"zw":1144,"Ã¤lt":1145,"unk":1146,"Ã¤hrend":1147,"th":1148,"schieden":1149,"folg":1150,"ĠgehÃ¶r":1151,"of":1152,"Ġpro":1153,"000":1154,"asse":1155,"Ġ0":1156,"ĠUnivers":1157,"ac":1158,"Ġ12":1159,"Al":1160,"ĠNeu":1161,"min":1162,"ock":1163,"ĠBet":1164,"akt":1165,"Ver":1166,"ĠBes":1167,"Im":1168,"Ġ14":1169,"ĠOber":1170,"Ġger":1171,"Ġkonn":1172,"werk":1173,"10":1174,"Ġwel":1175,"Er":1176,"ings":1177,"Un":1178,"wir":1179,"Ã¶ch":1180,"return":1181,"ĠSchw":1182,"rieg":1183,"jekt":1184,"iste":1185,"Ġthe":1186,"oss":1187,"hnen":1188,"ĠFrau":1189,"iff":1190,"ternehmen":1191,"old":1192,"ats":1193,"dr":1194,"raÃŁe":1195,"Ġdiesem":1196,"bild":1197,"ĠÃĸ":1198,"Ġ&":1199,"auer":1200,"licher":1201,"15":1202,"ĠChr":1203,"Ġbeg":1204,"yn":1205,"achen":1206,"Ġjedoch":1207,"ĠMin":1208,"inter":1209,"16":1210,"ite":1211,"ĠfÃ¼hr":1212,"Ġgleich":1213,"agen":1214,"ucht":1215,"weg":1216,"ĠArt":1217,"ober":1218,"halb":1219,"Ġkeine":1220,"esen":1221,"ĠCo":1222,"ĠGen":1223,"ĠMon":1224,"lei":1225,"aden":1226,"als":1227,"lÃ¤":1228,"ĠDeutschland":1229,"Ġ13":1230,"urz":1231,"glied":1232,"ren":1233,"ade":1234,"halt":1235,"igung":1236,"setz":1237,"Ġob":1238,"lt":1239,"ott":1240,"ĠFilm":1241,"stellung":1242,"cher":1243,"ĠGemeinde":1244,"Ge":1245,"ĠPart":1246,"cken":1247,"ĠPf":1248,"ĠBundes":1249,"ĠEx":1250,"Ġerh":1251,"ĠGrund":1252,"zt":1253,"Ġins":1254,"âĢĻ":1255,"ĠFamil":1256,"Ġanderen":1257,"stadt":1258,"ĠRei":1259,"Ġselbst":1260,"ionen":1261,"enden":1262,"12":1263,"icher":1264,"uÃŁball":1265,"sterreich":1266,"ker":1267,"ienst":1268,"rift":1269,"meister":1270,"Ġ/":1271,"urt":1272,"zahl":1273,"ĠFor":1274,"ĠOrt":1275,"Ġzusammen":1276,"tt":1277,"isten":1278,"ĠAnt":1279,"bo":1280,"ried":1281,"amp":1282,"eitung":1283,"uten":1284,"ĠPerson":1285,"ĠJan":1286,"ĠHaupt":1287,"ĠProdu":1288,"ey":1289,"ĠWer":1290,"ide":1291,"ĠRech":1292,"unkt":1293,"ĠAug":1294,"ĠÂ":1295,"gang":1296,"Ã¤nder":1297,"innen":1298,"ĠStr":1299,"Ġakt":1300,"uni":1301,"ĠMÃ¼n":1302,"so":1303,"ĠspÃ¤ter":1304,"Ġganz":1305,"Ġetwa":1306,"Ã¼s":1307,"Ġohne":1308,"ĠWei":1309,"spr":1310,"Ġverw":1311,"Ġbereits":1312,"ĠFr":1313,"ĠBest":1314,"Ã¤u":1315,"ina":1316,"hof":1317,"Geb":1318,"14":1319,"ib":1320,"zer":1321,"ĠAd":1322,"man":1323,"aler":1324,"Ġseinen":1325,"gemein":1326,"ĠSer":1327,"heim":1328,"keiten":1329,"stein":1330,"ail":1331,"ity":1332,"essen":1333,"fte":1334,"ain":1335,"istor":1336,"gew":1337,"ies":1338,"fr":1339,"ĠKinder":1340,"Ġ192":1341,"ultur":1342,"Ġson":1343,"Ġwo":1344,"Literatur":1345,"ĠFÃ¼r":1346,"ĠPar":1347,"ange":1348,"ĠJul":1349,"iere":1350,"Ġliegt":1351,"Ġen":1352,"ĠMann":1353,"bach":1354,"rain":1355,"Ã¤m":1356,"Ġ|":1357,"kehr":1358,"Ġverb":1359,"Ã¼nst":1360,"ĠLie":1361,"stÃ¤nd":1362,"ĠHaus":1363,"Ġneue":1364,"bert":1365,"Ġseinem":1366,"Ġeinz":1367,"Ġwen":1368,"sche":1369,"Ġhabe":1370,"ĠBild":1371,"ĠBand":1372,"Ġgef":1373,"Ġeben":1374,"Mit":1375,"up":1376,"ruppe":1377,"ĠDr":1378,"wohn":1379,"ys":1380,"ĠPlatz":1381,"mÃ¤":1382,"eig":1383,"lagen":1384,"wert":1385,"Ġverschieden":1386,"Ã¤nger":1387,"ĠEnde":1388,"ossen":1389,"ubl":1390,"einer":1391,"ĠKunst":1392,"ĠFahr":1393,"Ã¶nig":1394,"Ġdamit":1395,"prÃ¤":1396,"Ã¤ng":1397,"esse":1398,"Ġeh":1399,"ĠPol":1400,"Ã¤ft":1401,"78":1402,"Ġdu":1403,"Ġletz":1404,"ĠSte":1405,"ister":1406,"ief":1407,"Ġheute":1408,"Ġdort":1409,"Ġeinfach":1410,"Ã¼nd":1411,"ond":1412,"ĠNord":1413,"Ġihrer":1414,"ĠFrei":1415,"Ã¶ffentlich":1416,"Ġex":1417,"ĠMo":1418,"ĠMed":1419,"line":1420,"ollen":1421,"ute":1422,"dent":1423,"Ġdeutscher":1424,"ĠHoch":1425,"ign":1426,"ath":1427,"str":1428,"oten":1429,"13":1430,"ĠNov":1431,"aum":1432,"unktion":1433,"ĠVerein":1434,"walt":1435,"ĠVerb":1436,"zial":1437,"ĠMan":1438,"ĠWest":1439,"ĠMenschen":1440,"rechen":1441,"zie":1442,"uar":1443,"isches":1444,"Sp":1445,"feld":1446,"ogen":1447,"grund":1448,"ĠFrank":1449,"unter":1450,"ĠVert":1451,"anis":1452,"schn":1453,"ue":1454,"ital":1455,"ĠDaten":1456,"Geboren":1457,"ĠEurop":1458,"hand":1459,"Ġand":1460,"ĠMÃ¤r":1461,"itel":1462,"enk":1463,"raph":1464,"Ġfolgen":1465,"ĠUnternehmen":1466,"ĠDe":1467,"Sie":1468,"ĠKomm":1469,"ĠJuni":1470,"Ġerste":1471,"ĠAugust":1472,"ĠIntern":1473,"Nach":1474,"Ġteil":1475,"issenschaft":1476,"gar":1477,"Ġgeb":1478,"zug":1479,"ĠWeb":1480,"200":1481,"kreis":1482,"Ġaller":1483,"Ġbie":1484,"inger":1485,"Ġfinden":1486,"Ġnah":1487,"deut":1488,"ipp":1489,"ons":1490,"lig":1491,"eile":1492,"ĠFre":1493,"rot":1494,"Ġkonnte":1495,"Ġgut":1496,"Ġdir":1497,"ĠOb":1498,"ĠGl":1499,"ĠAu":1500,"ologie":1501,"hin":1502,"ktober":1503,"ĠBuch":1504,"gleich":1505,"immer":1506,"ore":1507,"tember":1508,"Ġbesch":1509,"ritt":1510,"app":1511,"ĠDiese":1512,"Ein":1513,"fang":1514,"ĠVers":1515,"raum":1516,"ĠJu":1517,"Ġeinge":1518,"Ġgesch":1519,"ations":1520,"ou":1521,"ĠMet":1522,"Ġihm":1523,"wend":1524,"olf":1525,"reichen":1526,"ĠMai":1527,"fÃ¼r":1528,"Ġbel":1529,"ĠUr":1530,"achsen":1531,"sicht":1532,"Ġdabei":1533,"Ġvier":1534,"ĠSh":1535,"ĠKÃ¶nig":1536,"ĠWasser":1537,"schutz":1538,".)":1539,"ĠBeg":1540,"ĠSÃ¼d":1541,"ptember":1542,"emen":1543,"Ġneuen":1544,"kommen":1545,"Ġgest":1546,"Ġverl":1547,"ĊĊ":1548,"ment":1549,"ĠJuli":1550,"Ġdieses":1551,"Ã¼rger":1552,"lex":1553,"fahren":1554,"Ġihn":1555,"ĠVol":1556,"Ġkomm":1557,"falls":1558,"ĠTag":1559,"ĠWohn":1560,"wahl":1561,"was":1562,"Mann":1563,"ĠStud":1564,"Ġbefin":1565,"50":1566,"ĠDa":1567,"aar":1568,"Ġben":1569,"ĠOktober":1570,"Ġstatt":1571,"ere":1572,"kon":1573,"sst":1574,"âĢľ,":1575,"ranz":1576,"stellen":1577,"aison":1578,"iven":1579,"ĠgrÃ¶":1580,"Ġkam":1581,"hann":1582,"ele":1583,"11":1584,"ĠTr":1585,"Ġspiel":1586,"ĠFol":1587,"rieben":1588,"cke":1589,"ktur":1590,"ĠJanuar":1591,"ĠEine":1592,"ĠNamen":1593,"ĠTe":1594,"echn":1595,"Ġ2018":1596,"ĠĊĊ":1597,"ĠwÃ¤hrend":1598,"Ġbesonder":1599,"ĠSchul":1600,"ĠInter":1601,"ĠSeptember":1602,"Ġihren":1603,"Ġsteht":1604,"mit":1605,"ĠDar":1606,"Ġ30":1607,"ehn":1608,"ient":1609,"pril":1610,"reg":1611,"alter":1612,"Aus":1613,"riff":1614,"Ġfest":1615,"ellschaft":1616,"ĠDurch":1617,"buch":1618,"ĠDu":1619,"Ġmuss":1620,"Ġviele":1621,"ĠLandes":1622,"Ġ190":1623,"ĠForm":1624,"verb":1625,"Ġwei":1626,"ĠLin":1627,"fern":1628,"Ã¤nde":1629,"grÃ¼n":1630,"neh":1631,"bung":1632,"ax":1633,"ĠMÃ¤rz":1634,"ĠInd":1635,"Ġbeiden":1636,"ĠNovember":1637,"ezember":1638,"ice":1639,"Ã¼l":1640,"ĠMusik":1641,"euer":1642,"gabe":1643,"21":1644,"Ġmir":1645,"schluss":1646,"ĠIhre":1647,"hau":1648,"ingt":1649,"ĠOl":1650,"eum":1651,"ilder":1652,"ommer":1653,"ĠChrist":1654,"ĠAls":1655,"eitet":1656,"Ã¡":1657,"nahme":1658,"ĠPolit":1659,"ograph":1660,"ĠGroÃŁ":1661,"unt":1662,"eiden":1663,"Ġersch":1664,"mar":1665,"Ġerfolg":1666,"orben":1667,"ĠGeschichte":1668,"recht":1669,"ĠVon":1670,"bahn":1671,"rech":1672,"zeug":1673,"alten":1674,"opp":1675,"nisse":1676,"Ġgab":1677,"ĠII":1678,"aufen":1679,"ong":1680,"ĠApril":1681,"Ã¤tz":1682,"Ġmus":1683,"oph":1684,"ĠNew":1685,"ĠCl":1686,"ator":1687,"ichtig":1688,"ix":1689,"erst":1690,"Ġarb":1691,"Ġsondern":1692,"arte":1693,"Am":1694,"ĠWert":1695,"steller":1696,"ĠListe":1697,"elm":1698,"rank":1699,"Ã¶st":1700,"oc":1701,"ĠÃĦ":1702,"Ã¤chst":1703,"stÃ¼t":1704,"ĠUniversitÃ¤t":1705,"Ġbzw":1706,"ĠGew":1707,"wicklung":1708,"egt":1709,"ĠSchwei":1710,"amerikan":1711,"gramm":1712,"anst":1713,"Ġmich":1714,"Ġschn":1715,"mals":1716,"fÃ¼hrt":1717,"Ġern":1718,"ĠDezember":1719,"Ġlang":1720,"ĠZwei":1721,"Deutsch":1722,"zeichnet":1723,"Ġnun":1724,"itzen":1725,"âĢľ.":1726,"ĠKont":1727,"Ã¶t":1728,"Ġsei":1729,"reten":1730,"ĠSu":1731,"mitt":1732,"Ġbr":1733,"Ġallem":1734,"Ġ2016":1735,"Ġandere":1736,"echs":1737,"ĠInform":1738,"one":1739,"ption":1740,"los":1741,"ĠAuch":1742,"eigt":1743,"ika":1744,"Ã¤uf":1745,"ĠArbeit":1746,"ĠNieder":1747,"ĠJohann":1748,"ĠZw":1749,"schule":1750,"ĠDes":1751,"emal":1752,"schlieÃŁ":1753,"tag":1754,"Ġetwas":1755,"Ġ%":1756,"ĠfrÃ¼":1757,"ĠKirche":1758,"vent":1759,"ĠHam":1760,"Ġweitere":1761,"ruppen":1762,"ĠMal":1763,"ĠFried":1764,"ieg":1765,"ismus":1766,"sam":1767,"ĠNational":1768,"sg":1769,"alitÃ¤t":1770,"ĠWien":1771,"Ġ2015":1772,"kte":1773,"ĠPrÃ¤":1774,"ĠBereich":1775,"punkt":1776,"Ġvers":1777,"Ġ2017":1778,"klÃ¤r":1779,"ĠSk":1780,"uchen":1781,"ĠRÃ¼ck":1782,"ffiz":1783,"Ġentsp":1784,"Ġzun":1785,"ranzÃ¶s":1786,"ĠEm":1787,"==":1788,"raft":1789,"zent":1790,"rage":1791,"Pro":1792,"ĠSeite":1793,"ĠReich":1794,"ĠIch":1795,"Ã¤hn":1796,"Ġgeht":1797,"ĠGra":1798,"annte":1799,"ĠmÃ¶glich":1800,"Ġ2010":1801,"red":1802,"Ġmal":1803,"30":1804,"iges":1805,"schied":1806,"ebru":1807,"stit":1808,"ĠFin":1809,"ebruar":1810,"ĠMittel":1811,"ĠX":1812,"ĠHÃ¶":1813,"ĠKr":1814,"Ġch":1815,"ĠBas":1816,"ĠKn":1817,"sh":1818,"erg":1819,"Ar":1820,"Ġ189":1821,"Ġstell":1822,"Ã¤hlt":1823,"Ġ2014":1824,"ĠSaison":1825,"ĠZusammen":1826,"Ġ2011":1827,"ument":1828,"ĠAll":1829,"utt":1830,"hein":1831,"Ġaktu":1832,"inen":1833,"ĠHal":1834,"chn":1835,"Wir":1836,"ochen":1837,"ograf":1838,"Ġho":1839,"gestellt":1840,"weil":1841,"Ġ2013":1842,"ichten":1843,"Ġ25":1844,"Ġlassen":1845,"ĠDies":1846,"ernse":1847,"sol":1848,"ied":1849,"ĠMitglied":1850,"Ġ2012":1851,"uer":1852,"ork":1853,"ĠSport":1854,"ĠEis":1855,"ĠStand":1856,"Ġgemein":1857,"umen":1858,"mÃ¤ÃŁ":1859,"ĠMÃ¼nchen":1860,"Ã¤re":1861,"Or":1862,"Ġu":1863,"schlossen":1864,"ĠTex":1865,"Ã¶rder":1866,"Ġsollte":1867,"Ġrund":1868,"Ã¤h":1869,"ĠFot":1870,"ĠKomp":1871,"ĠNatur":1872,"stoff":1873,"ĠLebens":1874,"Ġdiesen":1875,"ĠHa":1876,"ĠVerlag":1877,"lauf":1878,"ino":1879,"ĠfÃ¼n":1880,"endet":1881,"ĠUhr":1882,"ĠHol":1883,"son":1884,"dorf":1885,"ĠProf":1886,"mittel":1887,"ĠFrauen":1888,"Ã¼ss":1889,"Ġdessen":1890,"Ġper":1891,"wort":1892,"ĠFebruar":1893,"ĠRom":1894,"Ġkon":1895,"ĠĊĠĊ":1896,"druck":1897,"asst":1898,"vert":1899,"seite":1900,"ekte":1901,"ĠOn":1902,"Ġderen":1903,"ĠFuÃŁball":1904,"ymp":1905,"Ġ2008":1906,"tr":1907,"isk":1908,"schrei":1909,"Ġ2009":1910,"hÃ¤lt":1911,"ĠHo":1912,"ĠArch":1913,"gaben":1914,"wohl":1915,"Ġbef":1916,"Ġdeutschen":1917,"techn":1918,"Ġerhalten":1919,"Ġmachen":1920,"Ġ11":1921,"ĠLa":1922,"ĠIhnen":1923,"straÃŁe":1924,"sport":1925,"Ã¤nge":1926,"bel":1927,"Ã¤ude":1928,"ĠMod":1929,"ennt":1930,"ĠBi":1931,"ĠMil":1932,"ĠWil":1933,"ĠHier":1934,"igte":1935,"Ġpr":1936,"Ġdazu":1937,"ette":1938,"ester":1939,"von":1940,"we":1941,"ĠSal":1942,"arm":1943,"je":1944,"ĠPersonen":1945,"ĠMill":1946,"Ġgem":1947,"ile":1948,"Ġdenen":1949,"utter":1950,"Ġdoch":1951,"stag":1952,"âĢ¦":1953,"fÃ¼g":1954,"ĠStra":1955,"Gesch":1956,"ĠLehr":1957,"ement":1958,"ĠPhil":1959,"ĠmÃ¼s":1960,"ampf":1961,"are":1962,"Ġwelche":1963,"anzen":1964,"ome":1965,"ĠEd":1966,"Ġ24":1967,"eren":1968,"ĠUnd":1969,"Ġletzten":1970,"iver":1971,"zir":1972,"ĠĠĠĠ":1973,"Ġ978":1974,"ĠBay":1975,"jahr":1976,"Ġ2006":1977,"yl":1978,"ĠBerg":1979,"Ġkein":1980,"echsel":1981,"Ġerreich":1982,"ĠRegion":1983,"Ġkommt":1984,"jÃ¤hr":1985,"ĠGegen":1986,"199":1987,"dings":1988,"ase":1989,"Ġbekannt":1990,"kir":1991,"ĠWie":1992,"schein":1993,"urs":1994,"ift":1995,"immt":1996,"ĠGener":1997,"ĠSchau":1998,"onnen":1999,"ius":2000,"Ġhei":2001,"tete":2002,"ĠPer":2003,"ĠMe":2004,"gebiet":2005,"arbeit":2006,"Ġkommen":2007,"schul":2008,"Ġvoll":2009,"ĠâĢł":2010,"ĠFest":2011,"ĠDan":2012,"Ġ2007":2013,"stru":2014,"platz":2015,"ĠFlug":2016,"bildung":2017,"Ġmitt":2018,"ĠLei":2019,"arch":2020,"osition":2021,"ennen":2022,"Ã¼b":2023,"bereich":2024,"Ġhoch":2025,"ager":2026,"deck":2027,"Ã¤us":2028,"ublik":2029,"Leben":2030,"Ġentwick":2031,"oder":2032,"Ġeinige":2033,"Ġzahl":2034,"ĠLu":2035,"Ġbefindet":2036,"ĠKap":2037,"ink":2038,"Ġjeweil":2039,"En":2040,"glieder":2041,"forder":2042,"ĠWeiter":2043,"ĠKarl":2044,"ĠMot":2045,"altung":2046,"ufen":2047,"{@":2048,"alis":2049,"ĠFach":2050,"ĠfranzÃ¶s":2051,"Ġ188":2052,"ĠJugend":2053,"uren":2054,"ĠWerk":2055,"gesetzt":2056,"ĠMich":2057,"ĠKrieg":2058,"atÃ¼r":2059,"ĠauÃŁer":2060,"link":2061,"Ġ100":2062,"ĠsÃ¼d":2063,"urm":2064,"Ġvert":2065,"Ġabge":2066,"aul":2067,"ĠFamilie":2068,"blem":2069,"Ġerhielt":2070,"Ġdenn":2071,"etten":2072,"Ġworden":2073,"Ġehemal":2074,".,":2075,"ĠwÃ¼r":2076,"ĠDi":2077,"dete":2078,"Ġ[":2079,"etter":2080,"ative":2081,"schw":2082,"ĠSchn":2083,"ure":2084,"Ġschw":2085,"ĠBar":2086,"ĠHil":2087,"erne":2088,"ions":2089,"heits":2090,"ven":2091,"ĠWahl":2092,"ĠgroÃŁe":2093,"40":2094,"ĠKÃ¼":2095,"Ġallen":2096,"ĠPat":2097,"wohner":2098,"gor":2099,"Ġaufge":2100,"hÃ¶":2101,"ĠRad":2102,"code":2103,"hle":2104,"unft":2105,"annten":2106,"omb":2107,"ĠgroÃŁen":2108,"sent":2109,"urop":2110,"Ġjetzt":2111,"nehmer":2112,"ote":2113,"ĠBahn":2114,"ativ":2115,"Ã¶m":2116,"igten":2117,"ĠSommer":2118,"echt":2119,"ĠAt":2120,"Ġerw":2121,"eller":2122,"Ã¼nstler":2123,"Ġ2005":2124,"Ġel":2125,"Ġfrei":2126,"auft":2127,"Ġalso":2128,"pen":2129,"zentr":2130,"Ġebenfalls":2131,"ĠCon":2132,"einander":2133,"Ġverst":2134,"ire":2135,"Ġentst":2136,"Ġstehen":2137,"ode":2138,"ww":2139,"ichts":2140,"alien":2141,"ĠfÃ¼nf":2142,"ĠRu":2143,"Ġhand":2144,"ĠBel":2145,"Ġis":2146,"uche":2147,"opf":2148,"ĠNe":2149,"ĠDeutschen":2150,"ema":2151,"Bei":2152,"eicht":2153,"Auf":2154,"eitete":2155,"Ġon":2156,"krieg":2157,"Ġunsere":2158,"cker":2159,"Ġfor":2160,"ersÃ¶n":2161,"Ġfr":2162,"ĠGel":2163,"ĠBen":2164,"genommen":2165,"af":2166,"ÃŃ":2167,"Ġkurz":2168,"reiche":2169,"lan":2170,"west":2171,"Ġem":2172,"schrift":2173,"Ġâ":2174,"ĠMag":2175,"ĠKreis":2176,"hard":2177,"bet":2178,"ĠPeter":2179,"ose":2180,"bei":2181,"ĠTer":2182,"anten":2183,"Ġdarauf":2184,"ĠmÃ¶ch":2185,"Ġintern":2186,"reuz":2187,"stitut":2188,"hei":2189,"60":2190,"ĠlÃ¤":2191,"itte":2192,"zogen":2193,"zimmer":2194,"ĠEuro":2195,"oge":2196,"ĠIs":2197,"ĠRah":2198,"Ġ2000":2199,"ĠHe":2200,"ka":2201,"adem":2202,"Ġ,":2203,"Ġinter":2204,"Ġalles":2205,"Ġwill":2206,"schnitt":2207,"ĠzunÃ¤chst":2208,"rakt":2209,"ĠSel":2210,"kauf":2211,"Geschichte":2212,"wand":2213,"apan":2214,"rÃ¤ger":2215,"welt":2216,"Ã¶rper":2217,"orgen":2218,"Ġneben":2219,"Ã¤ten":2220,"ĠArbeits":2221,"achten":2222,"ull":2223,"Gest":2224,"ums":2225,"Ġ22":2226,"ĠAlb":2227,"Ġur":2228,"Ġ21":2229,"ĠTeam":2230,"ĠMeister":2231,"port":2232,"ischof":2233,"ĠFall":2234,"Ġihrem":2235,"nahmen":2236,"ry":2237,"zieh":2238,"ĠKultur":2239,"Es":2240,"ider":2241,"wig":2242,"indung":2243,"Ġdeutsche":2244,"Ġbegann":2245,"ĠWeg":2246,"ĠSc":2247,"Ġverm":2248,"ĠBÃ¼rger":2249,"ĠTechn":2250,"ĠJahres":2251,"ĠSeiten":2252,"leg":2253,"ĠJe":2254,"ĠKo":2255,"Ã¶lker":2256,"Ġ50":2257,"ĠTitel":2258,"furt":2259,"folge":2260,"ĠWar":2261,"ĠAk":2262,"uÃŁer":2263,"uter":2264,"ĠSohn":2265,"alif":2266,"eint":2267,"ĠOst":2268,"les":2269,"Ġinner":2270,"ĠBÃ¼":2271,"70":2272,"fÃ¼hrung":2273,"Ġsehen":2274,"ummer":2275,"ool":2276,"aterial":2277,"hode":2278,"ari":2279,"ĠEinsatz":2280,"ĠFamilien":2281,"Ġca":2282,"ĠHein":2283,"zel":2284,"under":2285,"itter":2286,"yr":2287,"Ġeinmal":2288,"25":2289,"Ġbil":2290,"ĠAuft":2291,"ĠverÃ¶ffentlich":2292,"hren":2293,"Ġ:":2294,"Ġbietet":2295,"ĠGrÃ¼n":2296,"ĠSeit":2297,"ĠFriedrich":2298,"ĠRahmen":2299,"glisch":2300,"obil":2301,"ĠSan":2302,"dienst":2303,"ikel":2304,"ĠgehÃ¶rt":2305,"ĠFir":2306,"gangen":2307,"igkeiten":2308,"ER":2309,"Ġ2004":2310,"wirtschaft":2311,"ĠSprach":2312,"atten":2313,"Ġkosten":2314,"ĠÃ¶":2315,"Ġanderem":2316,"licht":2317,"Ġunserer":2318,"ĠAnd":2319,"schau":2320,"izin":2321,"sprach":2322,"Gestorben":2323,"ĠmÃ¼ssen":2324,"ĠHerz":2325,"Ã³":2326,"flÃ¤":2327,"stens":2328,"helm":2329,"ament":2330,"Ġ2019":2331,"ĠTod":2332,"angel":2333,"Ġweil":2334,"aher":2335,"ĠPort":2336,"ĠFranz":2337,"ĠEigen":2338,"see":2339,"tragen":2340,"ĠÃĸsterreich":2341,"ĠZiel":2342,"othe":2343,"leben":2344,"kunft":2345,"ĠSystem":2346,"ĠKat":2347,"22":2348,"ca":2349,"Ġhatten":2350,"âĢŀ":2351,"ĠName":2352,"inde":2353,"Ã¼cke":2354,"Ġind":2355,"bes":2356,"ichtung":2357,"scher":2358,"tlich":2359,"ĠPreis":2360,"Ã¤tze":2361,"ĠBed":2362,"heiten":2363,"Ab":2364,"denk":2365,"itÃ¤r":2366,"mb":2367,"na":2368,"setzung":2369,"Ġheraus":2370,"ielle":2371,"ĠBern":2372,"ĠkÃ¶nn":2373,"gesamt":2374,"80":2375,"Ġ23":2376,"lungen":2377,"Ġbesteht":2378,"spiele":2379,"ernseh":2380,"45":2381,"ĠTran":2382,"Ġging":2383,"ĠNeben":2384,"Ã¼hl":2385,"Ġrech":2386,"ĠschÃ¶n":2387,"Ġsol":2388,"ĠgrÃ¶ÃŁ":2389,"ĠFer":2390,"schung":2391,"ĠHeim":2392,"ins":2393,"Ġoft":2394,"Ġ.":2395,"geschichte":2396,"Ġnie":2397,"ĠZahl":2398,"hil":2399,"zig":2400,"arbeiter":2401,"ets":2402,"Ġ...":2403,"int":2404,"Ġeigenen":2405,"omit":2406,"ĠBeh":2407,"urger":2408,"hausen":2409,".âĢľ":2410,"ai":2411,"ĠMÃ¶glich":2412,"Ich":2413,"achte":2414,"sw":2415,"Ġmein":2416,"ĠLandkreis":2417,"ache":2418,"--":2419,"elte":2420,"utzt":2421,"Ġ2003":2422,"ec":2423,"Ġqu":2424,"ĠOrg":2425,"km":2426,"ĠgroÃŁ":2427,"ja":2428,"ĠGo":2429,"ĠHerr":2430,"ĠFar":2431,"ael":2432,"ĠBetrieb":2433,"rsg":2434,"ise":2435,"fort":2436,"Be":2437,"Ġjeder":2438,"Ġdirekt":2439,"ĠInformationen":2440,"hÃ¤ng":2441,"ĠWill":2442,"ĠCar":2443,"ĠDienst":2444,"Ġsicher":2445,"gegen":2446,"ash":2447,"ĠgegrÃ¼n":2448,"ĠAlt":2449,"ĠRechts":2450,"die":2451,"ĠMark":2452,"sident":2453,"ica":2454,"Ġverschiedenen":2455,"ĠBeispiel":2456,"sta":2457,"ĠDir":2458,"assung":2459,"ĠVolks":2460,"Ġhinter":2461,"Ġbin":2462,"com":2463,"ych":2464,"Ġbesonders":2465,"Ġ186":2466,"esser":2467,"ĠPolitiker":2468,"Ġschnell":2469,"fÃ¤l":2470,"ĠKar":2471,"Ġ=":2472,"film":2473,"omat":2474,"ĠJohn":2475,"ĠStre":2476,"zept":2477,"ĠWinter":2478,"reise":2479,"site":2480,"nungen":2481,"aÃŁ":2482,"ĠDem":2483,"usÃ¤tz":2484,"ĠSitz":2485,"ĠKunden":2486,"ĠAkt":2487,"ĠnatÃ¼r":2488,"verein":2489,"liches":2490,"Ġ2001":2491,"ĠAnfang":2492,"ĠGeschÃ¤ft":2493,"ĠÂ»":2494,"Ġgewann":2495,"nehmen":2496,"ilt":2497,"ichtet":2498,"ĠLeist":2499,"ĠWirtschaft":2500,"iken":2501,"Ġallerdings":2502,"ĠFolge":2503,"ĠRaum":2504,"ĠWenn":2505,"mÃ¶glich":2506,"ata":2507,"ĠDorf":2508,"ategor":2509,"</":2510,"spro":2511,"ĠAngeb":2512,"Ġmehrere":2513,"Ex":2514,"ĠWor":2515,"Ġ2002":2516,"ienen":2517,"uchs":2518,"ĠErn":2519,"ondere":2520,"ĠMart":2521,"baut":2522,"Ġja":2523,"minister":2524,"Ġfindet":2525,"sweise":2526,"ĠHamburg":2527,"Ġ#":2528,"erv":2529,"ĠLuft":2530,"Ġentsprechen":2531,"nete":2532,"lehr":2533,"Ġ26":2534,"ierungs":2535,"omin":2536,"scht":2537,"Ġlange":2538,"des":2539,"ĠTour":2540,"eider":2541,"ĠFunktion":2542,"geber":2543,"Ġ28":2544,"Ġvielen":2545,"gte":2546,"ĠInternet":2547,"lang":2548,"Ġerz":2549,"ese":2550,"ĠTem":2551,"ĠSicher":2552,"ritten":2553,"ĠHot":2554,"werb":2555,"own":2556,"ĠText":2557,"ĠBurg":2558,"Ġzweiten":2559,"sbes":2560,"23":2561,"FuÃŁball":2562,"ĠTor":2563,"fel":2564,"voll":2565,"arriere":2566,"Ġblei":2567,"fest":2568,"PD":2569,"Ġweit":2570,"Ġumf":2571,"Ber":2572,"vÃ¶lker":2573,"Ġsetz":2574,"ĠSchrift":2575,"ĠKil":2576,"Ġ1990":2577,"da":2578,"geord":2579,"Ġwegen":2580,"rÃ¤ge":2581,"stre":2582,"ĠSil":2583,"Ġverwendet":2584,"Ġnahm":2585,"ĠDabei":2586,"euch":2587,"Ġ187":2588,"ĠdafÃ¼r":2589,"Ġunterschied":2590,"Ġschwer":2591,"ĠProv":2592,"nahm":2593,"gef":2594,"use":2595,"ĠPartei":2596,"ĠZentr":2597,"ors":2598,"Ġpolit":2599,"scheid":2600,"Ġoffen":2601,"zung":2602,"amerikanischer":2603,"ĠSchiff":2604,"ĠEle":2605,"Ġfast":2606,"ĠProjekt":2607,"ĠHans":2608,"oster":2609,"ĠZug":2610,"cl":2611,"ĠSex":2612,"ĠSchm":2613,"ĠIde":2614,"Ġdavon":2615,"Ġreg":2616,"auch":2617,"aff":2618,"Ġkleine":2619,"ĠKirchen":2620,"ĠEntwicklung":2621,"ĠBad":2622,"unkte":2623,"ana":2624,"leist":2625,"test":2626,"ompl":2627,"ĠGu":2628,"ĠFrÃ¼":2629,"ĠGott":2630,"ĠParis":2631,"Ġmei":2632,"ps":2633,"ĠTrain":2634,"weis":2635,"iefert":2636,"upp":2637,"eier":2638,"ance":2639,"agt":2640,"aben":2641,"ĠSa":2642,"isse":2643,"ĠHeil":2644,"abel":2645,"ession":2646,"24":2647,"Ã¤mpf":2648,"ĠHolz":2649,"ĠKur":2650,"riften":2651,"ikation":2652,"Ġbede":2653,"Ġ27":2654,"ko":2655,"ĠKÃ¶l":2656,"ĠAlter":2657,"ĠNutz":2658,"Ġheut":2659,"Als":2660,"ĠMarkt":2661,"Ġwichtig":2662,"Hrsg":2663,"lay":2664,"Ġstud":2665,"Ã¼cken":2666,"laub":2667,"Ġgilt":2668,"ĠGeh":2669,"ĠWochen":2670,"ĠWebsite":2671,"Ġspielte":2672,"ĠKais":2673,"uth":2674,"ĠDre":2675,"weiter":2676,"ĠWald":2677,"allen":2678,"Ġbesten":2679,"ish":2680,"ille":2681,"ĠKommun":2682,"Ġ*":2683,"weit":2684,"ara":2685,"ometer":2686,"Ġ1999":2687,".):":2688,"ĠErgeb":2689,"glichen":2690,"frei":2691,"ĠGruppe":2692,"uck":2693,"Ġverk":2694,"Ġspez":2695,"mbH":2696,"ĠBilder":2697,"rotz":2698,"FÃ¼r":2699,"ĠDort":2700,"ĠLauf":2701,"ĠprÃ¤":2702,"ĠSchauspieler":2703,"stra":2704,"ĠOnline":2705,"Ġbew":2706,"IN":2707,"ight":2708,"ĠBeit":2709,"Ġbezeichnet":2710,"ĠSen":2711,"statt":2712,"Ġmacht":2713,"ĠRhein":2714,"ows":2715,"ĠEuropa":2716,"ĠStein":2717,"ĠStaats":2718,"wor":2719,"schlag":2720,"ĠIt":2721,"lichkeit":2722,"Ġhistor":2723,"ographie":2724,"ĠEv":2725,"agement":2726,"ochter":2727,"sbesondere":2728,"ĠVerwalt":2729,"Ġgenau":2730,"Ã¤tte":2731,"duz":2732,"iew":2733,"198":2734,"ĠKan":2735,"rop":2736,"ĠnÃ¤ch":2737,"reiben":2738,"rauch":2739,"Ġkleinen":2740,"met":2741,"ĠWilhelm":2742,"ĠDat":2743,"Ġweiteren":2744,"ĠunterstÃ¼t":2745,"res":2746,"Siehe":2747,"ĠSam":2748,"ĠPlan":2749,"ĠProblem":2750,"ĠHÃ¶he":2751,"ĠProzent":2752,"Ġzeigt":2753,"ammlung":2754,"ĠVide":2755,"lungs":2756,"get":2757,"ĠGast":2758,"kten":2759,"ĠInf":2760,"wendung":2761,"Ġ40":2762,"fÃ¼l":2763,"ĠStaat":2764,"ĠComp":2765,"ranken":2766,"ĠOlymp":2767,"Ġerstmals":2768,"ĠStaaten":2769,"ografie":2770,"Ã¼ler":2771,"ĠfÃ¼hrt":2772,"Ġschl":2773,"system":2774,"ieb":2775,"zÃ¼":2776,"ĠDen":2777,"ĠSpieler":2778,"itten":2779,"ĠTre":2780,"Ġfand":2781,"ĠEnerg":2782,"ustr":2783,"Ġbrit":2784,"Ġangeb":2785,"ĠGesellschaft":2786,"Ġ29":2787,"ÃŁt":2788,"lieÃŁlich":2789,"Ġabsol":2790,"II":2791,"ĠBru":2792,"organis":2793,"ĠGraf":2794,"ĠBeruf":2795,"mm":2796,"ektor":2797,"ĠGeneral":2798,"ĠÃ¶ff":2799,"onen":2800,"ĠRest":2801,"uk":2802,"ĠBro":2803,"Ãĸ":2804,"eder":2805,"ches":2806,"radition":2807,"itu":2808,"Ġseines":2809,"ĠMannschaft":2810,"sprÃ¼n":2811,"ause":2812,"ĠProgramm":2813,"ware":2814,"liga":2815,"zeitig":2816,"ĠEinwohner":2817,"ĠlÃ¤sst":2818,"ias":2819,"uchte":2820,"warz":2821,"ĠGmbH":2822,"Ġwohl":2823,"zeichnung":2824,"DR":2825,"Ch":2826,"iga":2827,"Ã¤tig":2828,"Ġto":2829,"ĠAmer":2830,"ime":2831,"Re":2832,"ĠSol":2833,"ĠStraÃŁe":2834,"ĠMÃ¤n":2835,"Ġ1998":2836,"ĠPaul":2837,"Ġ2020":2838,"35":2839,"inal":2840,"ski":2841,"Ġstand":2842,"rÃ¤n":2843,"ĠJose":2844,"rÃ¤gt":2845,"athol":2846,"Ġbesser":2847,"atte":2848,"Ġliegen":2849,"fre":2850,"ĠKlein":2851,"48":2852,"utzen":2853,"schlieÃŁend":2854,"immen":2855,"ĠGebÃ¤ude":2856,"ammer":2857,"liegen":2858,"ĠThema":2859,"ĠPal":2860,"ĠUSA":2861,"ĠApp":2862,"ĠMichael":2863,"sych":2864,"raun":2865,"wehr":2866,"ĠYork":2867,"kirche":2868,"ĠMax":2869,"aren":2870,"90":2871,"Ãľ":2872,"ĠRes":2873,"Ġsechs":2874,"iqu":2875,"Ġdan":2876,"arbeiten":2877,"schaffen":2878,"Ġgl":2879,"fert":2880,"ichter":2881,"ve":2882,"ĠMont":2883,"ĠEinzel":2884,"Ġkm":2885,"Ġbieten":2886,"iment":2887,"ĠRegel":2888,"ĠMehr":2889,"Ġgeben":2890,"Ġjeweils":2891,"ĠPap":2892,"ĠHin":2893,"ĠErz":2894,"ĠErst":2895,"teilt":2896,"ĠGeld":2897,"ĠWeltkrieg":2898,"The":2899,"part":2900,"Ġ<":2901,"ĠgrÃ¼n":2902,"ationalen":2903,"ĠHinter":2904,"Ġinnerhalb":2905,"obei":2906,"Ġstark":2907,"28":2908,"Ġnichts":2909,"Ġ185":2910,"ames":2911,"Ġleben":2912,"ĠFeld":2913,"ĠFil":2914,"Ġgar":2915,"Ã¤ndern":2916,"fahrt":2917,"Deutscher":2918,"ĠAben":2919,"bed":2920,"ĠSÃ¼":2921,"ondon":2922,"ĠKind":2923,"rid":2924,"ole":2925,"ward":2926,"US":2927,"ernen":2928,"Ġwenig":2929,"-,":2930,"ject":2931,"abr":2932,"Ġgenannt":2933,"deten":2934,"Ġdeut":2935,"yt":2936,"gest":2937,"Ġ1945":2938,"ĠJahrhunderts":2939,"eth":2940,"ĠEng":2941,"Ã¶ÃŁe":2942,"lieb":2943,"ĠMeter":2944,"Ġverschiedene":2945,"omen":2946,"Ã¶sung":2947,"ĠgehÃ¶rte":2948,"ĠHistor":2949,"gart":2950,"ĠTyp":2951,"ĠLeip":2952,"ĠhÃ¤uf":2953,"Ġempf":2954,"Wer":2955,"zess":2956,"omas":2957,"ĠVerfÃ¼g":2958,"Ġro":2959,"ĠPark":2960,"Ġwahr":2961,"ĠSelbst":2962,"ox":2963,"ume":2964,"gehen":2965,"richtung":2966,"ĠUniversity":2967,"Person":2968,"ĠMillionen":2969,"Ã¤ren":2970,"ĠKÃ¼nstler":2971,"reifen":2972,"ling":2973,"Ã¤hlen":2974,"Ġmusste":2975,"ĠÃ¤l":2976,"ĠVater":2977,"Ġkonnten":2978,"over":2979,"schreibung":2980,"ĠTochter":2981,"istischen":2982,"oppel":2983,"ikt":2984,"ĠHeinrich":2985,"ĠMuseum":2986,"legen":2987,"inner":2988,"Ġgemeinsam":2989,"zirk":2990,"ĠMitt":2991,"Ġgesam":2992,"ante":2993,"iat":2994,"ĠGeorg":2995,"ama":2996,"jekte":2997,"Ġne":2998,"ustrie":2999,"ivid":3000,"Ġ1997":3001,"mÃ¶":3002,"âĢĿ":3003,"oche":3004,"serie":3005,"):":3006,"ĠTa":3007,"ĠTÃ¼r":3008,"ĠDam":3009,"Ã¼rt":3010,"gesetz":3011,"ĠBesuch":3012,"Ġbisher":3013,"Ġget":3014,"ĠAc":3015,"ĠzusÃ¤tz":3016,"ĠSchloss":3017,"ehl":3018,"Ġvorh":3019,"ĠfÃ¼hrte":3020,"Ġmeist":3021,"ĠNr":3022,"publik":3023,"33":3024,"Ã¨":3025,"lech":3026,"wissenschaft":3027,"Ġmeine":3028,"Vor":3029,"ID":3030,"Mitglied":3031,"herap":3032,"neten":3033,"ĠFrankfurt":3034,"anken":3035,"Kl":3036,"fÃ¼hrer":3037,"lege":3038,"tex":3039,"ĠStat":3040,"Ġsogar":3041,"sburg":3042,"ĠDon":3043,"Ġtrat":3044,"Ġwirk":3045,"Ġx":3046,"Ġwollen":3047,"amb":3048,"lieÃŁen":3049,"antwort":3050,"ĠSozial":3051,"49":3052,"emat":3053,"gruppe":3054,"udwig":3055,"ĠAber":3056,"Ġfolgenden":3057,"ith":3058,"ĠLo":3059,"ĠSchweizer":3060,"rigen":3061,"italien":3062,"reibt":3063,"bie":3064,"ĠpersÃ¶n":3065,"ĠStart":3066,"Ġentfern":3067,"ĠgrÃ¶ÃŁer":3068,"umm":3069,"verband":3070,"ae":3071,"itÃ¤ten":3072,"ividu":3073,"EN":3074,"stieg":3075,"blick":3076,"26":3077,"Ġwobei":3078,"ĠStutt":3079,"ĠGold":3080,"denten":3081,"best":3082,"sehen":3083,"ĠLiteratur":3084,"ission":3085,"anc":3086,"ĠgegenÃ¼ber":3087,"med":3088,"Ġlin":3089,"Ġ1994":3090,"wÃ¤r":3091,"ĠGarten":3092,"sitzen":3093,"aktion":3094,"enzen":3095,"ĠDieser":3096,"ars":3097,"Ġ1996":3098,"ĠHof":3099,"Eine":3100,"ivat":3101,"Ġfl":3102,"alls":3103,"ima":3104,"ton":3105,"ĠRolle":3106,"ĠProduktion":3107,"Ġgerade":3108,"ots":3109,"gelegt":3110,"kung":3111,"baren":3112,"wagen":3113,"ĠKant":3114,"ĠerklÃ¤r":3115,"Ġdaher":3116,"ĠStraÃŁen":3117,"rieden":3118,"Ġ1970":3119,"izei":3120,"ĠArtikel":3121,"ĠTab":3122,"Ã¶rd":3123,"Ġgerne":3124,"rug":3125,"Ġkn":3126,"Ġinsgesamt":3127,"ĠLondon":3128,"ĠNÃ¤":3129,"27":3130,"ĠwÃ¼rde":3131,"iam":3132,"ĠGesamt":3133,"ĠDruck":3134,"Ġor":3135,"gegeben":3136,"leb":3137,"herr":3138,"Ġsowohl":3139,"ĠKosten":3140,"beh":3141,"ĠGebiet":3142,"ĠWÃ¤hrend":3143,"ĠWolf":3144,"ĠArchite":3145,"alk":3146,"Ã¼ndung":3147,"urnal":3148,"lÃ¤nd":3149,"ical":3150,"vol":3151,"ĠMutter":3152,"rÃ¼f":3153,"aur":3154,"Ġ1980":3155,"produ":3156,"ĠSchweiz":3157,"ision":3158,"Ġwest":3159,"Ġzwar":3160,"Ġwoll":3161,"ĠFÃ¼hr":3162,"Ġwicht":3163,"ane":3164,"ĠAss":3165,"ĠDo":3166,"ĠEt":3167,"ĠNot":3168,"29":3169,"Reg":3170,"alb":3171,"ĠErfahr":3172,"ĠKaiser":3173,"ĠPo":3174,"ĠAuÃŁer":3175,"ĠViel":3176,"ĠMitarbeiter":3177,"geh":3178,"ĠVeranst":3179,"ĠÃ¶sterreich":3180,"Ġmeisten":3181,"ĠInnen":3182,"ĠDav":3183,"ike":3184,"Ġ1995":3185,"ordnung":3186,"ĠGest":3187,"ande":3188,"ĠTage":3189,"stelle":3190,"osoph":3191,"essor":3192,"iell":3193,"ĠDis":3194,"ĠRat":3195,"iegel":3196,"ction":3197,"ĠKÃ¶ln":3198,"rauen":3199,"ĠAmt":3200,"Gibt":3201,"ĠAlex":3202,"ĠSchutz":3203,"ĠAng":3204,"Ġvorhanden":3205,"Jahr":3206,"Ġmoder":3207,"deutung":3208,"ĠgegrÃ¼ndet":3209,"fluss":3210,"Ġihnen":3211,"ĠLang":3212,"ĠtÃ¤tig":3213,"197":3214,"Ġonline":3215,"ĠDeutsche":3216,"Ġaufgrund":3217,"Ġrecht":3218,"Ob":3219,"Ġsollen":3220,"akter":3221,"Ġzeit":3222,"ĠMitte":3223,"stellungen":3224,"ĠServ":3225,"ĠRen":3226,"190":3227,"ĠBis":3228,"richten":3229,"ĠBoden":3230,"Ġhinaus":3231,"ĠObjekt":3232,"Ġeigene":3233,"bli":3234,"ritte":3235,"Ġgemacht":3236,"steil":3237,"ĠfrÃ¼her":3238,"ĠVerfÃ¼gung":3239,"AN":3240,"ettbe":3241,"ĠFrankreich":3242,"====":3243,"ĠHann":3244,"ĠFC":3245,"entlichen":3246,"ĠKin":3247,"Ġfre":3248,"\",":3249,"gra":3250,"Ġdr":3251,"ĠDesign":3252,"ĠSchule":3253,"ĠAutor":3254,"ĠEisen":3255,"Ġpl":3256,"ĠSchÃ¼ler":3257,"Ġ1993":3258,"Film":3259,"unge":3260,"ĠHar":3261,"rue":3262,"38":3263,"lehrer":3264,"ĠTri":3265,"ĠTheater":3266,"ĠProvinz":3267,"asch":3268,"Ġjeden":3269,"Ġbed":3270,"ĠWind":3271,"37":3272,"itzer":3273,"ĠTest":3274,"Ġnieder":3275,"isiert":3276,"bare":3277,"ĠOrganis":3278,"sl":3279,"elig":3280,"ĠLi":3281,"Ġinsbesondere":3282,"stÃ¼ck":3283,"ĠInstitut":3284,"orge":3285,"Mar":3286,"haupt":3287,"gebung":3288,"ĠSeine":3289,"ĠSein":3290,"ĠschlieÃŁlich":3291,"Ġ180":3292,"scheiden":3293,"Ġgek":3294,"196":3295,"ĠLes":3296,"Ġober":3297,"ĠVerkehr":3298,"icken":3299,"46":3300,"Ġunseren":3301,"Ã¤te":3302,"Ã¶rt":3303,"arf":3304,"ĠRichtung":3305,"ĠKÃ¶rper":3306,"Ġgehen":3307,"burger":3308,"ĠÃ¼b":3309,"ĠHei":3310,"lingen":3311,"ĠBischof":3312,"last":3313,"flÃ¤che":3314,"lÃ¤ss":3315,"ĠhÃ¶ch":3316,"gÃ¤n":3317,"ĠStuttgart":3318,"haft":3319,"nach":3320,"ĠRot":3321,"Ġ1992":3322,"ĠSpr":3323,"ĠReise":3324,"Ġgegeben":3325,"ĠCas":3326,"ologe":3327,"wiesen":3328,"Univers":3329,"ĠFort":3330,"ĠVerl":3331,"ĠEhe":3332,"ĠZum":3333,"such":3334,"Ġhervor":3335,"ĠMaterial":3336,"Ġerfol":3337,"39":3338,"reffen":3339,"abe":3340,"mo":3341,"ationale":3342,"bank":3343,"Ġstudierte":3344,"ĠNetz":3345,"Ġ60":3346,"Ġ31":3347,"name":3348,"tegr":3349,"Ġgesp":3350,"Ġarbeitete":3351,"ombin":3352,"eten":3353,"fter":3354,"dig":3355,"ĠLeipzig":3356,"47":3357,"auen":3358,"igh":3359,"Ġkleiner":3360,"Mail":3361,"Ġalten":3362,"ĠPost":3363,"36":3364,"ĠErfolg":3365,"ĠCarl":3366,"azz":3367,"ader":3368,"ĠProdukt":3369,"ĠursprÃ¼n":3370,"ĠLudwig":3371,"Ã¤chlich":3372,"ĠMartin":3373,"ĠBevÃ¶lker":3374,"setzt":3375,"onist":3376,"ĠNacht":3377,"gem":3378,"ĠOrts":3379,"gemeinde":3380,"ĠGed":3381,"okument":3382,"ĠWein":3383,"ĠnatÃ¼rlich":3384,"Ġzehn":3385,"Ġerfolgte":3386,"ĠBayern":3387,"Ġwechsel":3388,"rax":3389,"ĠZeich":3390,"akte":3391,"Ġ2021":3392,"adurch":3393,"spielsweise":3394,"Ġir":3395,"igur":3396,"ception":3397,"ĠRed":3398,"ĠBeginn":3399,"ĠHeimat":3400,"ifiz":3401,"ĠInsel":3402,"ĠFeuer":3403,"Ġstellt":3404,"Ġhandelt":3405,"Ã¤nden":3406,"ĠVertrag":3407,"Ġsex":3408,"Ġbevor":3409,"yd":3410,"komm":3411,"Ġ1991":3412,"ĠâĢľ":3413,"iellen":3414,"ĠChar":3415,"Ġweniger":3416,"ĠWieder":3417,"verkehr":3418,"Eigen":3419,"ienten":3420,"itzt":3421,"ĠZweiten":3422,"ĠBu":3423,"fft":3424,"mel":3425,"ĠKloster":3426,"ĠZur":3427,"ĠRa":3428,"abil":3429,"ĠStÃ¤d":3430,"altet":3431,"Ġcm":3432,"abhÃ¤ng":3433,"ĠAbt":3434,"Ã¼ter":3435,"berger":3436,"istik":3437,"ĠElekt":3438,"zeuge":3439,"ĠKategor":3440,"Ġerk":3441,"Ġinteress":3442,"kel":3443,"ĠIns":3444,"Ġsozial":3445,"Ġant":3446,"asen":3447,"Liefert":3448,"preis":3449,"ĠGar":3450,"frage":3451,"Ġfort":3452,"Ġleicht":3453,"ĠPfl":3454,"ĠBedeutung":3455,"ution":3456,"ĠPfarr":3457,"ĠIl":3458,"Ġgeboren":3459,"Ġitalien":3460,"ehler":3461,"ĠMinuten":3462,"ood":3463,"189":3464,"anien":3465,"alz":3466,"Ġdeutlich":3467,"seit":3468,"ĠGut":3469,"ĠSing":3470,"Ġzie":3471,"zeichen":3472,"Ĥ¬":3473,"schiff":3474,"ĠAnzahl":3475,"denburg":3476,"ĠMotor":3477,"Ġwirklich":3478,"sf":3479,"alle":3480,"Ġwelt":3481,"Ġ1989":3482,"ĠQualitÃ¤t":3483,"Ġgefunden":3484,"wasser":3485,"ĠKilometer":3486,"ĠNorden":3487,"ĠâĢ¦":3488,"stÃ¤ndig":3489,"ĠThomas":3490,"elef":3491,"Her":3492,"Wenn":3493,"ĠIhren":3494,"ĠMitglieder":3495,"Ã¤user":3496,"ademie":3497,"ĠEnergie":3498,"Ã¼tz":3499,"ĠKauf":3500,"Seit":3501,"onst":3502,"roffen":3503,"ĠAs":3504,"Diese":3505,"pel":3506,"Ġdi":3507,"Bau":3508,".:":3509,"89":3510,"Ġkompl":3511,"ĠMethode":3512,"Ġkur":3513,"ĠKlasse":3514,"weisen":3515,"ĠRegierung":3516,"ĠMaler":3517,"ĠZust":3518,"ĠMÃ¶glichkeit":3519,"Ġsomit":3520,"ĠnÃ¶rd":3521,"Ġ1960":3522,"li":3523,"bek":3524,"ĠAndre":3525,"itze":3526,"IS":3527,"ĠHel":3528,"stat":3529,"pfer":3530,"Ã¼gel":3531,"richtet":3532,"ĠverÃ¶ffentlicht":3533,"ĠTra":3534,"ĠAlle":3535,"trag":3536,"ĠKontakt":3537,"ee":3538,"ĠCol":3539,"istische":3540,"ada":3541,"inzu":3542,"Ġstar":3543,"gebaut":3544,"mÃ¤ÃŁig":3545,"CH":3546,"Ġbestehen":3547,"Ġerfolgreich":3548,"Ġerneut":3549,"igital":3550,"ĠMain":3551,"Ġla":3552,"Ġkomp":3553,"Ġsollten":3554,"Um":3555,"ĠweiÃŁ":3556,"ĠhÃ¶":3557,"imal":3558,"plan":3559,"fallen":3560,"englisch":3561,"ĠMor":3562,"Ġunserem":3563,"ĠCor":3564,"ĠAlbum":3565,"lÃ¤uf":3566,"ĠLicht":3567,"Ġbestimm":3568,"ĠmÃ¶chte":3569,"ĠÃ¤":3570,"ĠFrage":3571,"ĠAuÃŁerdem":3572,"ĠFreund":3573,"ĠTo":3574,"ĠMedien":3575,"rom":3576,"ics":3577,"Ġbeispielsweise":3578,"ĠEltern":3579,"ĠEp":3580,"AS":3581,"ĠDoch":3582,"ĠKurz":3583,"ĠRobert":3584,"ierter":3585,"arbeitung":3586,"gn":3587,"ĠCount":3588,"195":3589,"ĠChristian":3590,"ĠComm":3591,"Ġopt":3592,"usst":3593,"ĠRecht":3594,"serv":3595,"laf":3596,"urnier":3597,"ĠZwischen":3598,"ĠBus":3599,"ĠDenn":3600,"Ġeingesetzt":3601,"ĠHalb":3602,"kur":3603,"lav":3604,"aint":3605,"ĠKor":3606,"by":3607,"schinen":3608,"ehlen":3609,"erner":3610,"endete":3611,"ĠFragen":3612,"ĠhÃ¤ufig":3613,"ontr":3614,"ĠPass":3615,"tens":3616,"mannschaft":3617,"ĠHilfe":3618,"ĠSl":3619,"FuÃŁballspieler":3620,"ĠRoman":3621,"rÃ¼n":3622,"ender":3623,"Ġgute":3624,"leitung":3625,"ĠDach":3626,"ĠEU":3627,"44":3628,"isierung":3629,"ĠÃ¤hn":3630,"Ġwelches":3631,"'s":3632,"gericht":3633,"beg":3634,"olitik":3635,"jet":3636,"Ġar":3637,"ĠSpiele":3638,"ĠEing":3639,"Ã¶hn":3640,"aly":3641,"Ġzweite":3642,"ict":3643,"Ġgelang":3644,"Ġgelegen":3645,"ĠKraft":3646,"ĠIhrer":3647,"ĠGeschÃ¤fts":3648,"ĠKreuz":3649,"ĠgewÃ¤hlt":3650,"Land":3651,"ble":3652,"Ġdanach":3653,"issenschaften":3654,"Ġblieb":3655,"Ġsogen":3656,"Mus":3657,"ekten":3658,"band":3659,"Ġend":3660,"ĠVort":3661,"gent":3662,"//":3663,"Ġru":3664,"ĠErw":3665,"Ġstellen":3666,"ĠFinanz":3667,"Â»":3668,"ĠKol":3669,"othek":3670,"ld":3671,"ĠDenk":3672,"AT":3673,"enze":3674,"ook":3675,"ĠgehÃ¶ren":3676,"ĠUl":3677,"unn":3678,"Ġnot":3679,"keits":3680,"andlung":3681,"Ġkeinen":3682,"oper":3683,"ĠWissenschaft":3684,"inge":3685,"Ġeuch":3686,"schech":3687,"Ġregel":3688,"Ġzahlreiche":3689,"fil":3690,"Ã¤ischen":3691,"arbeitet":3692,"ĠdÃ¼r":3693,"schafts":3694,"Ġtechn":3695,"ĠLage":3696,"eiger":3697,"ĠWe":3698,"ĠString":3699,"ĠOffiz":3700,"ĠNÃ¤he":3701,"ĠRuss":3702,"ĠChe":3703,"Ġwechselte":3704,"ĠkÃ¶nnte":3705,"Von":3706,"ruktur":3707,"okrat":3708,"Ort":3709,"hang":3710,"Ġ1988":3711,"Ġnahe":3712,"kungen":3713,"Ġpol":3714,"ĠPartner":3715,"ĠAp":3716,"ĠHotel":3717,"31":3718,"ini":3719,"Welt":3720,"iums":3721,"ĠGef":3722,"ĠMein":3723,"Ġth":3724,"ines":3725,"34":3726,"ĠJur":3727,"Ã¶stlich":3728,"ĠSÃ¼den":3729,"Ġnord":3730,"ĠPosition":3731,"ĠOtt":3732,"Ġzudem":3733,"Ġaut":3734,"ĠSee":3735,"ary":3736,"Ã¼rz":3737,"ckt":3738,"werke":3739,"Ġklein":3740,"ftware":3741,"ĠEnd":3742,"ĠItalien":3743,"ano":3744,"ĠAuto":3745,"ĠMaria":3746,"por":3747,"ĠBran":3748,"Ġkaufen":3749,"Ġentstanden":3750,"sie":3751,"schlieÃŁlich":3752,"elten":3753,"onne":3754,"raxis":3755,"ĠMer":3756,"ĠNor":3757,"Ġerreichte":3758,"Ġengl":3759,"gefÃ¼hrt":3760,"ĠHerren":3761,"ĠFÃ¶rder":3762,"ĠStu":3763,"Ġ1950":3764,"anlage":3765,"Fl":3766,"://":3767,"Ġdamals":3768,"Ġnehmen":3769,"ĠSachsen":3770,"ĠGre":3771,"Ã¤tzen":3772,"ĠnÃ¤chsten":3773,"zeiten":3774,"teilung":3775,"ĠwÃ¤re":3776,"reite":3777,"ĠMel":3778,"Ġreich":3779,"leicht":3780,"ĠBlick":3781,"ĠFen":3782,"ĠTro":3783,"ĠAngebot":3784,"Ġmax":3785,"ĠGruppen":3786,"ppen":3787,"ĠSchwer":3788,"lass":3789,"ungsk":3790,"Ġklass":3791,"ĠUnterstÃ¼t":3792,"ĠSuper":3793,"Ġentstand":3794,"ĠbenÃ¶t":3795,"osit":3796,"ingungen":3797,"Stand":3798,"ĠTop":3799,"immung":3800,"ĠRein":3801,"ymn":3802,"mod":3803,"ĠStunden":3804,"ĠDres":3805,"ĠVerbindung":3806,"gerufen":3807,"ĠGesund":3808,"utet":3809,"Ġeinigen":3810,"Ġaktiv":3811,"Ġeher":3812,"racht":3813,"ĠÃ¼bernahm":3814,"Ġehemaligen":3815,"Ġacht":3816,"iti":3817,"eilen":3818,"ĊĠ":3819,"eien":3820,"anischen":3821,"ham":3822,"Ġgez":3823,"ĠPolizei":3824,"vest":3825,"ichtete":3826,"ĠMinister":3827,"Ġ()":3828,"ĠSchÃ¶n":3829,"Ġspielen":3830,"Ġelekt":3831,"anne":3832,"Ġzeigen":3833,"ĠAngel":3834,"ĠDrei":3835,"Ġ(âĢ":3836,"ĠWal":3837,"okal":3838,"ĠStelle":3839,"zeichnungen":3840,"ola":3841,"ierungen":3842,"Ġletzte":3843,"Ġung":3844,"ĠSchriftsteller":3845,"ĠErd":3846,"gesehen":3847,"ĠAir":3848,"klus":3849,"wertung":3850,"ĠSyn":3851,"ĠOsten":3852,"ĠOlympischen":3853,"Ġwes":3854,"eignet":3855,"ĠEben":3856,"reisen":3857,"ikanischen":3858,"2018":3859,"ĠAG":3860,"Ġmittler":3861,"peratur":3862,"UniversitÃ¤t":3863,"text":3864,"Ġheutigen":3865,"Ġsieben":3866,"ĠFuÃŁballspieler":3867,"ĠGesetz":3868,"85":3869,"ĠRud":3870,"So":3871,"Ġstamm":3872,"ĠAbend":3873,"eilnehmer":3874,"aw":3875,"86":3876,"Ġpassen":3877,"ĠMu":3878,"ĠSalz":3879,"Ġ}":3880,"ĠAmts":3881,"ace":3882,"ĠAugen":3883,"ettbewerb":3884,"ĠRund":3885,"fekt":3886,"ikal":3887,"struktur":3888,"ĠErk":3889,"Ġentwickelt":3890,"Ã¤s":3891,"Ġverbunden":3892,"Ġindividu":3893,"ĠAusbildung":3894,"wald":3895,"anger":3896,"ĠBank":3897,"Ġ1987":3898,"Åį":3899,"stall":3900,"ĠFel":3901,"ĠWas":3902,"ĠMilitÃ¤r":3903,"ausch":3904,"iden":3905,"inden":3906,"Ġ+":3907,"gebie":3908,"Unter":3909,"75":3910,"ĠAuftrag":3911,"Ġbefinden":3912,"Ġeurop":3913,"DF":3914,"ĠKrit":3915,"ĠChem":3916,"zeugen":3917,"tent":3918,"Ġoffiz":3919,"ĠIII":3920,"32":3921,"Ġpaar":3922,"iten":3923,"bruch":3924,"ĠFernseh":3925,"ley":3926,"Ġversch":3927,"Ġ1984":3928,"ĠDann":3929,"ux":3930,"reter":3931,"ĠThemen":3932,"Ġ1986":3933,"ĠOper":3934,"halte":3935,"eucht":3936,"wesen":3937,"ĠSand":3938,"ĠAnton":3939,"spl":3940,"ĠWesten":3941,"ĠAuÃŁen":3942,"ĠhÃ¶her":3943,"ĠKopf":3944,"ĠTier":3945,"lose":3946,"Ġ(âĢł":3947,"ĠGi":3948,"Ġy":3949,"gesellschaft":3950,"ĠReihe":3951,"Exception":3952,"ular":3953,"Ã¼sse":3954,"markt":3955,"ehm":3956,"ĠMeer":3957,"alog":3958,"Ġ1985":3959,"Ã¼tzen":3960,"fred":3961,"Ġruss":3962,"rist":3963,"iftung":3964,"Ġobject":3965,"Ġbeteil":3966,"ĠTal":3967,"ativen":3968,"42":3969,"hop":3970,"ĠVerwaltungs":3971,"Ã¼sseld":3972,"ĠFrÃ¼h":3973,"ĠWand":3974,"zuf":3975,"ĠDamit":3976,"Ã¤tten":3977,"aun":3978,"Ġentfernt":3979,"ĠBesch":3980,"ES":3981,"ĠOs":3982,"ĠgrÃ¶ÃŁten":3983,"gebÃ¤ude":3984,"ĠHor":3985,"Ġzuvor":3986,"ennung":3987,"hafen":3988,"Ġsonst":3989,"hung":3990,"fÃ¼gt":3991,"ĠenthÃ¤lt":3992,"ĠHeraus":3993,"Ġfolgender":3994,"urf":3995,"arian":3996,"ĠRich":3997,"Ġsofort":3998,"Ġrichtig":3999,"ĠMÃ¤nner":4000,"ĠlieÃŁ":4001,"air":4002,"ĠBur":4003,"Ġerrichtet":4004,"Verein":4005,"ĠModell":4006,"ĠSong":4007,"ory":4008,"ĠVergleich":4009,"Ãľber":4010,"Ġide":4011,"Ġdarunter":4012,"Ã¶tt":4013,"43":4014,"ĠErgebnis":4015,"ĠBÃ¼r":4016,"Ã¼lt":4017,"Ã¶sen":4018,"Ġ80":4019,"Eigenschaft":4020,"Ġabsolv":4021,"ĠGleich":4022,"ĠerÃ¶ff":4023,"ĠAuflage":4024,"rief":4025,"park":4026,"fÃ¼hl":4027,"Ġerreichen":4028,"wegung":4029,"ĠDieses":4030,"ĠJapan":4031,"ĠForsch":4032,"ĠStudien":4033,"ĠVideo":4034,"gliche":4035,"Ã¼hle":4036,"zeugt":4037,"Ã¤dchen":4038,"ĠDet":4039,"uhe":4040,"zehn":4041,"ĠProdukte":4042,"ĠMaÃŁ":4043,"Ġgenutzt":4044,"ĠSoc":4045,"**":4046,"ĠWort":4047,"ĠNicht":4048,"ĠfÃ¼hren":4049,"deckt":4050,"Ġbrach":4051,"iko":4052,"ones":4053,"ĠHerzog":4054,"Ġhinzu":4055,"ĠdarÃ¼ber":4056,"ival":4057,"ĠBegriff":4058,"zi":4059,"alue":4060,"ĠArn":4061,"ĠJournal":4062,"Ġ{@":4063,"ags":4064,"zy":4065,"Ġverz":4066,"Ã¤ngen":4067,"jÃ¤hrigen":4068,"55":4069,"Ġlag":4070,"flug":4071,"ĠRegie":4072,"athemat":4073,"ilien":4074,"Ent":4075,"ĠAuswahl":4076,"Ġ)":4077,"ĠWa":4078,"spielen":4079,"ĠHen":4080,"Ġzog":4081,"ĠerhÃ¤lt":4082,"Ġerschien":4083,"ĠTages":4084,"Ġaktuellen":4085,"Ġhohen":4086,"appen":4087,"hock":4088,"76":4089,"spekt":4090,"Ġgleichen":4091,"herapie":4092,"temberg":4093,"hre":4094,"Ġbeide":4095,"ĠBor":4096,"lieben":4097,"ĠBasis":4098,"Ġtrotz":4099,"angs":4100,"setzen":4101,"99":4102,"ĠDreh":4103,"Ġat":4104,"ĠZÃ¼r":4105,"meisterschaft":4106,"raucht":4107,"eilung":4108,"Ġprof":4109,"Ġbl":4110,"inne":4111,"ueck":4112,"iller":4113,"ĠSprache":4114,"Ġverd":4115,"Ġkostenlos":4116,"ĠPe":4117,"ric":4118,"sere":4119,"innt":4120,"Ġricht":4121,"Ã¤lfte":4122,"Ġleb":4123,"Ã¼rd":4124,"di":4125,"Ġ1982":4126,"Ġebenso":4127,"ĠStÃ¼ck":4128,"Ġteilweise":4129,"\".":4130,"view":4131,"ĠInn":4132,"ĠFlÃ¤":4133,"ĠKriegs":4134,"ĠCom":4135,"Ġangegeben":4136,"88":4137,"ĠKranken":4138,"istr":4139,"ĠRegen":4140,"send":4141,"ĠSpez":4142,"fahrer":4143,"ĠMy":4144,"Ġerf":4145,"schuss":4146,"ĠBerliner":4147,"ĠPolitik":4148,"ĠDom":4149,"Ġ(âĢŀ":4150,"tra":4151,"Typ":4152,"pe":4153,"will":4154,"ĠIr":4155,"!!":4156,"Ġkennen":4157,"Ġsiehe":4158,"oo":4159,"ĠEhren":4160,"Ġtr":4161,"ĠLog":4162,"vel":4163,"emin":4164,"rainer":4165,"Deutschland":4166,"Â²":4167,"Ġstarb":4168,"ĠProfessor":4169,"ĠSim":4170,"wind":4171,"igungs":4172,"udem":4173,"fried":4174,"ĠAward":4175,"Ġ1983":4176,"Ġ1974":4177,"Ġeigentlich":4178,"Ġwohn":4179,"ĠrÃ¶m":4180,"Ġ1978":4181,"gehend":4182,"ieÃŁen":4183,"ĠWoche":4184,"schullehrer":4185,"ymb":4186,"Ġerreicht":4187,"Ġwollte":4188,"wegen":4189,"teg":4190,"ĠBrÃ¼":4191,"sph":4192,"Ġsieht":4193,"ĠSerie":4194,"Å¡":4195,"fÃ¤h":4196,"illa":4197,"garten":4198,"ffer":4199,"ON":4200,"Ġ1979":4201,"agte":4202,"ĠprÃ¤sent":4203,"gress":4204,"ĠÐ":4205,"ona":4206,"ĠGrÃ¶ÃŁe":4207,"Ġ1972":4208,"ake":4209,"asste":4210,"ĠHome":4211,"ĠBaum":4212,"ĠFluss":4213,"ĠPrÃ¤sident":4214,"umb":4215,"ĠStandard":4216,"ierenden":4217,"Ġexist":4218,"ene":4219,"ĠÃĸff":4220,"ĠSteuer":4221,"zentrum":4222,"hockey":4223,"mee":4224,"aille":4225,"ĠauÃŁerdem":4226,"Ġgewesen":4227,"ĠOrtsteil":4228,"uell":4229,"ĠKampf":4230,"ĠVoll":4231,"AR":4232,"West":4233,"Ġdich":4234,"uhr":4235,"ĠBaden":4236,"ĠInternational":4237,"ziehen":4238,"ĠBall":4239,"oth":4240,"Â°":4241,"ymnas":4242,"uh":4243,"Ġev":4244,"Ġged":4245,"ĠBevÃ¶lkerung":4246,"ĠÃ¼bern":4247,"Ġ70":4248,"ĠFolgen":4249,"ĠGlas":4250,"arlament":4251,"ĠFirma":4252,"ĠErnst":4253,"Kon":4254,"Ã¤ndert":4255,"hÃ¤ltnis":4256,"Fernseh":4257,"ring":4258,"Ġeng":4259,"ĠJohannes":4260,"Ġeinzel":4261,"ĠBahnhof":4262,"Gem":4263,"Ġselten":4264,"schriften":4265,"Ġmehreren":4266,"Ġ1981":4267,"reuen":4268,"ĠPrivat":4269,"Ġ35":4270,"ĠCounty":4271,"leiter":4272,"Ġ1968":4273,"Ġfal":4274,"Ġfolgende":4275,"daten":4276,"far":4277,"Ġwissenschaft":4278,"andid":4279,"Ġoben":4280,"ĠMos":4281,"ĠEntscheid":4282,"ĠÂ«":4283,"Ġbringen":4284,"omot":4285,"Hoch":4286,"Ġverein":4287,"Ġnachdem":4288,"Ġ1976":4289,"ĠDDR":4290,"ĠMÃ¼l":4291,"Ġbekommen":4292,"ĠTon":4293,"cm":4294,"auber":4295,"Ġkamen":4296,"âĢľ)":4297,"ĠBruder":4298,"Ã¤dag":4299,"ĠLiebe":4300,"ziehung":4301,"65":4302,"ĠStern":4303,"ĠSpielen":4304,"Ġjedem":4305,"recher":4306,"ĠSaint":4307,"ĠFuÃŁ":4308,"ĠMass":4309,"ikon":4310,"ĠVorsitzen":4311,"oy":4312,"Ġ'":4313,"eis":4314,"ĠGÃ¤":4315,"Ã¤tigkeit":4316,"ena":4317,"ĠSm":4318,"Ġmachte":4319,"irt":4320,"Ġmed":4321,"orte":4322,"79":4323,"Ges":4324,"cy":4325,"Ġ1975":4326,"krÃ¤":4327,"acher":4328,"iente":4329,"ĠSieg":4330,"Ġ1971":4331,"klÃ¤rung":4332,"ĠCD":4333,"41":4334,"fs":4335,"staat":4336,"Ġamer":4337,"denkmal":4338,"out":4339,"ĠMat":4340,"ĠBot":4341,"reuÃŁ":4342,"ĠKarriere":4343,"ĠGemeinden":4344,"alerie":4345,"Ġstellte":4346,"Ġmeiner":4347,"Ġalte":4348,"ĠRang":4349,"ĠWilliam":4350,"wart":4351,"Ġaufgenommen":4352,"emer":4353,"ĠDÃ¼sseld":4354,"ĠHall":4355,"ĠVereinigten":4356,"icherung":4357,"orie":4358,"ĠlÃ¤nger":4359,"ĠNachdem":4360,"fÃ¶r":4361,"Ġerster":4362,"Ġ1973":4363,"orgt":4364,"ois":4365,"Ġzentr":4366,"Ġ1977":4367,"Ġkaum":4368,"arn":4369,"ĠBrand":4370,"ĠLÃ¶":4371,"thr":4372,"Br":4373,"dresse":4374,"ĠStell":4375,"Ġenthalten":4376,"Ġjede":4377,"ĠGeburt":4378,"ĠArten":4379,"ĠBach":4380,"Ġalt":4381,"Ã¼rttemberg":4382,"lecht":4383,"reiten":4384,"Ġproduz":4385,"Ġspielt":4386,"ĠUmgebung":4387,"ĠerwÃ¤hn":4388,"ĠSied":4389,"Ġdarf":4390,"ĠUmwelt":4391,"ĠAg":4392,"agn":4393,"etzung":4394,"ĠHannover":4395,"ĠDresden":4396,"lassen":4397,"ologische":4398,"Ġbleibt":4399,"aub":4400,"ĠDoppel":4401,"Ġnorm":4402,"Ġeinzelnen":4403,"Ġprakt":4404,"Ġneues":4405,"Man":4406,"Ġ90":4407,"klasse":4408,"ĠIndustrie":4409,".-":4410,"Pl":4411,"ikaner":4412,"cc":4413,"ĠBeitrag":4414,"tum":4415,"ĠPunkt":4416,"Aut":4417,"Â«":4418,"ican":4419,"ĠZukunft":4420,"ĠFoto":4421,"ĠPsych":4422,"haber":4423,"Ġ1969":4424,"Spiel":4425,"ĠmÃ¶chten":4426,"iner":4427,"ĠUnterstÃ¼tzung":4428,"sitz":4429,"ĠArbeiten":4430,"bliothek":4431,"Ġhohe":4432,"Ġorganis":4433,"karte":4434,"ĠSuche":4435,"ams":4436,"uel":4437,"ĠSÃ¤nger":4438,"its":4439,"ĠGeist":4440,"iertel":4441,"Gr":4442,"Pr":4443,"Ġverlie":4444,"Sport":4445,"09":4446,");":4447,"Ġverf":4448,"ĠKonz":4449,"Ġihres":4450,"ĠOtto":4451,"ĠFenster":4452,"Ġganze":4453,"ĠfranzÃ¶sischen":4454,"elefon":4455,"Zu":4456,"bÃ¼":4457,"El":4458,"ries":4459,"ĠFarb":4460,"haltung":4461,"Ġunver":4462,"Ġfert":4463,"Ã¼hren":4464,"Ġpriv":4465,"Ġjapan":4466,"do":4467,"ĠbeschÃ¤ft":4468,"ĠAust":4469,"elfen":4470,"Ã¤tter":4471,"ologischen":4472,"Ã¼nft":4473,"Ġwerde":4474,"zip":4475,"aust":4476,"lad":4477,"ces":4478,"ĠDist":4479,"Ġhalten":4480,"ague":4481,"ios":4482,"Ġtun":4483,"folger":4484,"eisen":4485,"ĠDel":4486,"indestens":4487,"ford":4488,"ĠWahr":4489,"ĠWeihn":4490,"ĠSek":4491,"ĠBesitz":4492,"OR":4493,"ĠSonnen":4494,"ĠPan":4495,"ita":4496,"ĠKom":4497,"ĠStil":4498,"06":4499,"Ã¤chs":4500,"ĠheiÃŁt":4501,"Ġte":4502,"ĠHÃ¤lfte":4503,"mund":4504,"Ġzurueck":4505,"lern":4506,"ĠKategorie":4507,"Ġfinanz":4508,"ĠMc":4509,"ĠWh":4510,"Wie":4511,"ameister":4512,"strecke":4513,"ĠSilber":4514,"bi":4515,"entwicklung":4516,"Ã§":4517,"dens":4518,"ĠTeile":4519,"anische":4520,"ĠHessen":4521,"ella":4522,"museum":4523,"05":4524,"Ġinform":4525,"ĠWorld":4526,"ĠBÃ¶":4527,"ĠAnder":4528,"lack":4529,"ĠMedizin":4530,"ĠEssen":4531,"Ġarbeiten":4532,"Ġrei":4533,"Ġmindestens":4534,"Ġkont":4535,"illen":4536,"zte":4537,"zus":4538,"zwischen":4539,"kn":4540,"Ġhtt":4541,"ED":4542,"halts":4543,"ragt":4544,"77":4545,"Ġ(=":4546,"achts":4547,"hoben":4548,"ĠUntersuch":4549,"ĠAuss":4550,"onntag":4551,"ĠHaut":4552,"ĠBund":4553,"Auch":4554,"ĠClub":4555,"Ġbleiben":4556,"Ġtyp":4557,"frika":4558,"Ġerfolgt":4559,"rolle":4560,"Ġmm":4561,"ĠZimmer":4562,"ĠPhilosoph":4563,"Ã¶pf":4564,"Ġwunder":4565,"Ġerwar":4566,"ickt":4567,"SV":4568,"ĠNo":4569,"ĠverfÃ¼g":4570,"Ġerziel":4571,"ffel":4572,"ĠCity":4573,"ĠKre":4574,"ĠPublik":4575,"Ġ1933":4576,"rÃ¼fung":4577,"nungs":4578,"ĠVerf":4579,"Ġ1939":4580,"pol":4581,"ĠWerke":4582,"Ġbestand":4583,"betrieb":4584,"ĠPil":4585,"ĠMad":4586,"Ġrel":4587,"Ġgemeins":4588,"ĠanschlieÃŁend":4589,"Ġdamal":4590,"throws":4591,"han":4592,"ĠIst":4593,"technik":4594,"Ġrechts":4595,"Ġsuchen":4596,"hilfe":4597,"Met":4598,"ĠgÃ¼nst":4599,"ray":4600,"ĠPunkte":4601,"irm":4602,"weig":4603,"unternehmen":4604,"ĠBal":4605,"ĠFotos":4606,"ĠKolle":4607,"ĠPhilipp":4608,"Ġfunktion":4609,"ĠZudem":4610,"Ġhol":4611,"ington":4612,"IT":4613,"Ġgepl":4614,"ĠRichard":4615,"Ġdeshalb":4616,"tement":4617,"las":4618,"__":4619,"sozial":4620,"ĠWeise":4621,"enter":4622,"finale":4623,"spruch":4624,"ĠLehrer":4625,"rick":4626,"ĠBek":4627,"Ġneuer":4628,"ĠZusammenarbeit":4629,"ĠColle":4630,"Ġad":4631,"prÃ¤sent":4632,"richtungen":4633,"Auswahl":4634,"rab":4635,"ĠPet":4636,"ĠBack":4637,"ĠhÃ¤tte":4638,"ĠPrinz":4639,"ĠJazz":4640,"Ġguten":4641,"iens":4642,"ĠSicherheit":4643,"ĠZÃ¼rich":4644,"Da":4645,"legt":4646,"ĠOrig":4647,"ĠCharl":4648,"Ġ1964":4649,"ĠLeiter":4650,"95":4651,"ĠLÃ¤nge":4652,"liste":4653,"ĠHan":4654,"volution":4655,"ĠDavid":4656,"Ġ||":4657,"forderungen":4658,"Ġbedeuten":4659,"ĠVersion":4660,"itsch":4661,"Ã¶nen":4662,"Ġtran":4663,"go":4664,"Mod":4665,"ĠÃ¤lter":4666,"ĠMÃ¶":4667,"Ġpar":4668,"unkten":4669,"ĠJoseph":4670,"Ġknapp":4671,"schei":4672,"Ġvorher":4673,"alte":4674,"iefer":4675,"ener":4676,"bringen":4677,"ĠPflanzen":4678,"way":4679,"sa":4680,"Ġerweiter":4681,"ĠKamer":4682,"ffekt":4683,"ĠOrd":4684,"Ġfalls":4685,"ferenz":4686,"ĠPrem":4687,"ĠAktion":4688,"amin":4689,"zirks":4690,"ĠWider":4691,"Ġsetzte":4692,"Ġkannst":4693,"mehr":4694,"ala":4695,"ĠmÃ¶":4696,"ico":4697,"Ġnutzen":4698,"ĠArm":4699,"ĠerhÃ¶":4700,"Ġweiterhin":4701,"ĠFahrzeug":4702,"ĠStudium":4703,"ĠRec":4704,"ĠRock":4705,"AL":4706,"altungen":4707,"ij":4708,"nam":4709,"Ġbas":4710,"ĠPress":4711,"ĠBÃ¼rgermeister":4712,"sprechen":4713,"gten":4714,"ĠBon":4715,"sto":4716,"ĠÅ":4717,"kap":4718,"ĠMess":4719,"ilian":4720,"ĠStamm":4721,"ĠFern":4722,"ĠermÃ¶glich":4723,"ĠSonder":4724,"Ġfolgte":4725,"dam":4726,"ĠDamen":4727,"ĠLiga":4728,"beck":4729,"Durch":4730,"unsch":4731,"able":4732,"ĠTrans":4733,"ierende":4734,"bracht":4735,"Ġgeworden":4736,"ya":4737,"87":4738,"ĠMatt":4739,"raut":4740,"ĠCamp":4741,"ĠLandtag":4742,"ĠĠĠĠĠĠĠĠ":4743,"Ġschrieb":4744,"schlÃ¤":4745,"heira":4746,"isseur":4747,"ĠDeck":4748,"barkeit":4749,"lÃ¶sung":4750,"Ġwelcher":4751,"ĠLinie":4752,"ĠRÃ¤":4753,"84":4754,"ora":4755,"Ġ1944":4756,"Ġjedes":4757,"ĠAkademie":4758,"gut":4759,"rhein":4760,"olden":4761,"Ġgrund":4762,"rechts":4763,"uhl":4764,"ĠPorn":4765,"row":4766,"eicher":4767,"za":4768,"Ã¼gen":4769,"Ġgleichzeitig":4770,"nehm":4771,"gelÃ¶st":4772,"scheinlich":4773,"Ġ>":4774,"ÅĤ":4775,"ĠBab":4776,"ĠMÃ¤dchen":4777,"Ġ1961":4778,"ĠKindern":4779,"riech":4780,"ĠHerbst":4781,"steh":4782,"ĠWo":4783,"halle":4784,"ĠSw":4785,"ĠTur":4786,"ĠChor":4787,"ĠHermann":4788,"wiegend":4789,"ĠTeilnehmer":4790,"kraft":4791,"ĠRos":4792,"ĠStar":4793,"ĠNur":4794,"ĠBraun":4795,"jÃ¤hrige":4796,"meld":4797,"Ġneun":4798,"ĠHu":4799,"Ġ1920":4800,"ruf":4801,"ĠService":4802,"pert":4803,"ĠâĤ¬":4804,"Ġnotwend":4805,"angeb":4806,"ĠDazu":4807,"ĠStadtteil":4808,"lands":4809,"Ġbesitzt":4810,"Ġdadurch":4811,"anad":4812,"Ġindem":4813,"ants":4814,"Ð¸":4815,"verwalt":4816,"ĠRepublik":4817,"Ã¼rn":4818,"ĠIdeen":4819,"lager":4820,"ĠNachbar":4821,"Ġbeste":4822,"orgung":4823,"ĠSant":4824,"ĠBef":4825,"page":4826,"ĠStrom":4827,"ĠAktiv":4828,"Ġklar":4829,"Le":4830,"linge":4831,"hlet":4832,"mitteln":4833,"Ġsu":4834,"ĠDisk":4835,"ĠGlÃ¼ck":4836,"ĠAlexander":4837,"Ġland":4838,"ĠFarbe":4839,"Ġ1965":4840,"schine":4841,"ĠPop":4842,"ki":4843,"Ġ1938":4844,"Ð¾":4845,"Ġgesamte":4846,"TrÃ¤ger":4847,"Geographie":4848,"stud":4849,"ĠjÃ¼n":4850,"ĠjÃ¤hr":4851,"fÃ¶rm":4852,"www":4853,"Ã¼cht":4854,"Ġ1963":4855,"ĠRunde":4856,"mon":4857,"Ġkehr":4858,"maÃŁ":4859,"Ġ1966":4860,"holz":4861,"dien":4862,"Ġzerst":4863,"bezirk":4864,"ĠSchwarz":4865,"ĠAnschluss":4866,"Ġ1940":4867,"Ã¼ssel":4868,"lichkeiten":4869,"Ġres":4870,"Ġ1956":4871,"ĠgrÃ¶ÃŁte":4872,"ique":4873,"Neu":4874,"Ð°":4875,"ĠStrecke":4876,"Ġsetzt":4877,"âĢĺ":4878,"ĠJack":4879,"ĠForschungs":4880,"ĠZentrum":4881,"anlagen":4882,"ĠDÃ¼sseldorf":4883,"Ġ1962":4884,"Ġeinger":4885,"Ġerforder":4886,"orth":4887,"Ġbereit":4888,"tliche":4889,"ĠBron":4890,"ĠursprÃ¼nglich":4891,"Ã¼ten":4892,"Gemein":4893,"ĠWolfgang":4894,"Ġirgend":4895,"Ġbitte":4896,"ahren":4897,"OS":4898,"ĠTV":4899,"lauben":4900,"prÃ¼":4901,"ĠDeb":4902,"Ġbeein":4903,"ĠBestand":4904,"Med":4905,"kreuz":4906,"Ġdritten":4907,"ĠParlament":4908,"Ġ45":4909,"ksam":4910,"ĠWiener":4911,"ĠGet":4912,"ĠWalter":4913,"ago":4914,"ĠEntwick":4915,"ĠWetter":4916,"ield":4917,"ĠAbschluss":4918,"Ġ1930":4919,"Ġbesuchte":4920,"Ã¤dt":4921,"Ser":4922,"nder":4923,"Ġwissen":4924,"eidung":4925,"westen":4926,"ĠFarben":4927,"ĠWander":4928,"Ġbegl":4929,"rieges":4930,"Ġ1967":4931,"ĠWol":4932,"ĠImm":4933,"Ġbald":4934,"ĠVerkauf":4935,"Ġak":4936,"ĠbetrÃ¤gt":4937,"rant":4938,"ĠAngaben":4939,"Ġbilden":4940,"cri":4941,".<":4942,"ĠZuge":4943,"zahlen":4944,"atung":4945,"ĠIhrem":4946,"Ġbelieb":4947,"frau":4948,"abl":4949,"ĠErsten":4950,"rim":4951,"ehmer":4952,"Ġgeschlossen":4953,"prochen":4954,"08":4955,"ĠBil":4956,"ĠFehler":4957,"Frau":4958,"oot":4959,"ĠSoftware":4960,"ĠForschung":4961,"Ġgestellt":4962,"ĠGebie":4963,"press":4964,"ĠKomponist":4965,"Ġinternationalen":4966,"ĠSold":4967,"Ġumfasst":4968,"gruppen":4969,"letzt":4970,"Ġph":4971,"zeichnis":4972,"wohnern":4973,"Form":4974,"partement":4975,"ĠzusÃ¤tzlich":4976,"04":4977,"ony":4978,"ĠDiv":4979,"oment":4980,"geg":4981,"ĠtÃ¤":4982,"ivil":4983,"ĠMensch":4984,"volle":4985,"eige":4986,"ituation":4987,"59":4988,"ordin":4989,"ĠKanton":4990,"nee":4991,"ĠDanach":4992,"Ġleich":4993,"Ġtradition":4994,"ĠAch":4995,"ĠKu":4996,"stehen":4997,"ildet":4998,"ĠCa":4999,"Ġwirtschaft":5000,"ĠGatt":5001,"ĠPraxis":5002,"ĠFÃ¤l":5003,"ahnen":5004,"Ġpass":5005,"Amer":5006,"ĠBrit":5007,"Ġjeweiligen":5008,"Ġmin":5009,"linie":5010,"emente":5011,"ĠUnternehmens":5012,"Ġaktuelle":5013,"ĠBenutz":5014,"Ġposit":5015,"rib":5016,"ĠZeitpunkt":5017,"ĠfrÃ¼h":5018,"sdorf":5019,"Ġledig":5020,"Ã¤cht":5021,"ĠDek":5022,"Ġgebaut":5023,"66":5024,"hor":5025,"verstÃ¤nd":5026,"hauses":5027,"Ġbedeutet":5028,"bischof":5029,"ĠÃ¶ffentlichen":5030,"Ġus":5031,"ĠTel":5032,"ĠBÃ¼cher":5033,"ĠFerien":5034,"ĠstÃ¤r":5035,"Ġlei":5036,"iziert":5037,"mark":5038,"Ġentscheiden":5039,"anter":5040,"ĠKomment":5041,"ĠChina":5042,"Ġbeginnt":5043,"ĠMonate":5044,"ĠTom":5045,"flÃ¤chen":5046,"low":5047,"ĠTagen":5048,"ĠBesonder":5049,"Ġnimmt":5050,"onie":5051,"ĠVerÃ¶ffentlich":5052,"endes":5053,"ĠTrainer":5054,"runde":5055,"Verlag":5056,"Teilnehmer":5057,"aat":5058,"ĠSicht":5059,"ĠJung":5060,"Ã¼hlen":5061,"ĠunterstÃ¼tzt":5062,"Ġerfahren":5063,"ĠAbs":5064,"ask":5065,"weile":5066,"ĠAufgaben":5067,"alyse":5068,"Ġlediglich":5069,"ĠPatienten":5070,"strahl":5071,"ĠAlbert":5072,"Ġverloren":5073,"ĠVereins":5074,"----":5075,"ĠLÃ¤nder":5076,"ohlen":5077,"ĠNutzung":5078,"ses":5079,"ĠExper":5080,"stattung":5081,"Ġ1958":5082,"gestell":5083,"Ġeinzeln":5084,"AP":5085,"sprache":5086,"ĠWild":5087,"Ã¤sser":5088,"bungen":5089,"ĠLou":5090,"auern":5091,"verfahren":5092,"immel":5093,"falen":5094,"Ġderzeit":5095,"ĠMult":5096,"hoden":5097,"Ġ500":5098,"ĠBd":5099,"ĠPfer":5100,"otor":5101,"ĠBrun":5102,"ĠTurm":5103,"Ġkathol":5104,"Ġlaut":5105,"Ã¤llt":5106,"zog":5107,"sidenten":5108,"ilitÃ¤r":5109,"Ġ1949":5110,"Ġstammt":5111,"01":5112,"bro":5113,"Ã¤ss":5114,"tert":5115,"ĠVog":5116,"ĠBud":5117,"zene":5118,"emann":5119,"ĠKern":5120,"ĠViz":5121,"spart":5122,"riebe":5123,"neter":5124,"wurf":5125,"ĠfranzÃ¶sischer":5126,"ĠDenkmal":5127,"ĠAustr":5128,"Ã¤ufer":5129,"Ġabsolvierte":5130,"wÃ¼r":5131,"ĠBayer":5132,"ĠFirmen":5133,"ĠDigital":5134,"ĠRitter":5135,"Ġeinzige":5136,"dat":5137,"ĠRh":5138,"kathol":5139,"Ġ1959":5140,"Ã¤ngt":5141,"ĠBezeichnung":5142,"Ġ1957":5143,"vis":5144,"ĠSow":5145,"Ġ1946":5146,"rix":5147,"Ġerschienen":5148,"yer":5149,"Ġzuletzt":5150,"irg":5151,"ymbol":5152,"Hier":5153,"ĠNachfolger":5154,"ĠEmpf":5155,"ĠZustand":5156,"07":5157,"Ger":5158,"ĠSchlag":5159,"ĠLager":5160,"ĠLeague":5161,"Jo":5162,"ktor":5163,"Ġbekannte":5164,"zlich":5165,"Ġtrue":5166,"ĠNik":5167,"Ã³n":5168,"ĠLeistung":5169,"ĠPla":5170,"Ġvielleicht":5171,"mittelt":5172,"ĠPolen":5173,"ville":5174,"igit":5175,"Ġallein":5176,"ĠerwÃ¤hnt":5177,"pla":5178,"Ġmag":5179,"Ġhelfen":5180,"GB":5181,"ĠDokument":5182,"inc":5183,"ĠLeitung":5184,"ĠAller":5185,"ĠausschlieÃŁlich":5186,"Ġintegr":5187,"ĠJust":5188,"ischem":5189,"etzen":5190,"EL":5191,"Kir":5192,"Ġsagen":5193,"Ġtats":5194,"riffen":5195,"raktion":5196,"Ġrein":5197,"ĠVerband":5198,"ĠOrganisation":5199,"Ġauft":5200,"ĠVerkehrs":5201,"ĠNorm":5202,"ĠCal":5203,"formen":5204,"Ã¤nn":5205,"ĠReichs":5206,"Ġmittel":5207,"sÃ¤tze":5208,"Chr":5209,"entliche":5210,"Ġ1943":5211,"oden":5212,"folgen":5213,"ĠKirch":5214,"echnet":5215,"amilie":5216,"dass":5217,"Ġumfassen":5218,"rang":5219,"ĠGesprÃ¤":5220,"Ġgelten":5221,"ĠFrieden":5222,"Ġmo":5223,"ĠVi":5224,"Ġ1952":5225,"ĠKarten":5226,"Ġ300":5227,"Ã¤hrt":5228,"ĠZweck":5229,"ĠHause":5230,"Ġstammen":5231,"Ã¤hlte":5232,"ĠSchlacht":5233,"67":5234,"ielten":5235,"ĠTerr":5236,"Ġweltweit":5237,"ips":5238,"frist":5239,"uelle":5240,"Ġehemalige":5241,"ĠRie":5242,"ĠVerwendung":5243,"Ġtragen":5244,"Ã¼ge":5245,"Ġfinde":5246,"redit":5247,"sein":5248,"ĠSach":5249,"rael":5250,"ĠgroÃŁer":5251,"ĠPubl":5252,"ĠSonntag":5253,"ĠProzess":5254,"programm":5255,"ĠVen":5256,"schaff":5257,"Ġhochwert":5258,"ĠLau":5259,"ĠBeim":5260,"ĠSchlaf":5261,"83":5262,"gibt":5263,"ĠKer":5264,"ĠKÃ¶nigreich":5265,"ĠTechnik":5266,"Ġbildet":5267,"Ġangeboten":5268,"egte":5269,"Ã¼ch":5270,"ĠHeid":5271,"ĠRÃ¶":5272,"Ġ1941":5273,"meisterschaften":5274,"verl":5275,"Ġaktuell":5276,"Ġ1955":5277,"iegen":5278,"ĠArmee":5279,"Ġautomat":5280,"rige":5281,"ĠAndreas":5282,"chester":5283,"Ġallgemein":5284,"heiratet":5285,"deutsch":5286,"Ġzahlreichen":5287,"Ġform":5288,"spir":5289,"wen":5290,"anwalt":5291,"ĠKal":5292,"ords":5293,"ited":5294,"ensch":5295,"aser":5296,"ĠAmerican":5297,"losen":5298,"ĠSpezial":5299,"ĠGrÃ¼ndung":5300,"64":5301,"kampf":5302,"forschung":5303,"Ġwww":5304,"ney":5305,"ĠProbleme":5306,"ales":5307,"Ġanzu":5308,"Ġdein":5309,"Ġdaran":5310,"Ġ1954":5311,"ĠjÃ¼d":5312,"Ġ1942":5313,"Ġbekomm":5314,"Ġentwickelte":5315,"Ġ1953":5316,"ĠInteresse":5317,"aj":5318,"ĠHÃ¶r":5319,"pfel":5320,"kennen":5321,"iar":5322,"pack":5323,"Ġjunge":5324,"Ġheira":5325,"ĠDetail":5326,"hu":5327,"sberg":5328,"ĠWeitere":5329,"ĠTradition":5330,"iana":5331,"Pf":5332,"ĠStruktur":5333,"Ġausgew":5334,"ĠVerm":5335,"ĠBezirks":5336,"setzungen":5337,"iffer":5338,"ĠGottes":5339,"Ġsagte":5340,"Ã¼st":5341,"sprung":5342,"ĠWebseite":5343,"ĠLab":5344,"Ġvergangen":5345,"ula":5346,"ĠHalle":5347,"ĠHigh":5348,"grÃ¶":5349,"ynam":5350,"ternehmer":5351,"ĠPflege":5352,"ieÃŁ":5353,"Ġmeinen":5354,"testen":5355,"gemeinschaft":5356,"ĠverÃ¶ffentlichte":5357,"lesen":5358,"ĠtrÃ¤gt":5359,"ĠÃĸl":5360,"Ġwenige":5361,"struktion":5362,"reihe":5363,"ida":5364,"schm":5365,"ĠAbgeord":5366,"Ġpoln":5367,"Ġgesamten":5368,"Setzt":5369,"ĠRegierungs":5370,"ogle":5371,"03":5372,"figur":5373,"ĠMathemat":5374,"Ġerhe":5375,"Ġhaupt":5376,"ĠfrÃ¼hen":5377,"fÃ¤lt":5378,"Äį":5379,"abrik":5380,"bÃ¼rger":5381,"Ġbestimmt":5382,"Ġsetzen":5383,"ĠEisenbahn":5384,"Ã¼tzt":5385,"punkte":5386,"Ġgenommen":5387,"ĠAst":5388,"ĠPlay":5389,"agd":5390,"ĠBremen":5391,"ĠWirtschafts":5392,"ĠTim":5393,"Ġkrit":5394,"ppe":5395,"Eis":5396,"hÃ¤user":5397,"02":5398,"atter":5399,"lieÃŁt":5400,"ĠPaar":5401,"ĠHir":5402,"ĠHart":5403,"ĠAnna":5404,"pos":5405,"laden":5406,"Ad":5407,"UN":5408,"omie":5409,"trem":5410,"ĠID":5411,"ĠdÃ¼rfen":5412,"ieur":5413,"spann":5414,"laubt":5415,"Ġschloss":5416,"rÃ¤t":5417,"ĠAtt":5418,"ĠErgebnisse":5419,"ĠJosef":5420,"CD":5421,"bus":5422,"ĠSÃ¤":5423,"Ġweg":5424,"ĠDÃ©":5425,"ĠAlten":5426,"gewicht":5427,"umente":5428,"ĠEngland":5429,"leit":5430,"Ġvan":5431,"ĠKlass":5432,"Ġ1948":5433,"ĠRis":5434,"Ġseien":5435,"ĠerklÃ¤rt":5436,"kunde":5437,"ĠdurchgefÃ¼hrt":5438,"musik":5439,"ĠFe":5440,"ĠQ":5441,"ĠWissen":5442,"Ġpolitischen":5443,"Ġse":5444,"Ġsagt":5445,"bern":5446,"utlich":5447,"ufe":5448,"ĠMÃ¼nster":5449,"ĠTisch":5450,"ĠKlaus":5451,"opt":5452,"astian":5453,"atik":5454,"ava":5455,"ĠSchauspielerin":5456,"69":5457,"ĠFund":5458,"Ġgeschrieben":5459,"sichtlich":5460,"ĠJean":5461,"ĠEvangel":5462,"wal":5463,"âĢ¦]":5464,"ĠFac":5465,"ĠComputer":5466,"System":5467,"ness":5468,"rand":5469,"ube":5470,"schlieÃŁen":5471,"Ġ1951":5472,"ĠOp":5473,"ĠbestÃ¤t":5474,"gien":5475,"ĠKab":5476,"ĠProt":5477,"71":5478,"ĠVier":5479,"amerikanische":5480,"ĠBonn":5481,"Ġfiel":5482,"osen":5483,"ĠWall":5484,"ĠTemperatur":5485,"stoffe":5486,"ĠHintergrund":5487,"funktion":5488,"namen":5489,"ĠBezirk":5490,"Ġausgezeichnet":5491,"bis":5492,"formation":5493,"ĠVertreter":5494,"Ġlinks":5495,"========":5496,"gehÃ¶":5497,"pfl":5498,"ĠErfahrung":5499,"Ġevangel":5500,"ĠEinfluss":5501,"wÃ¤rts":5502,"wechsel":5503,"cel":5504,"bauten":5505,"ĠStraf":5506,"ĠLiefer":5507,"ĠgrÃ¼ndete":5508,"Weiter":5509,"erei":5510,"blatt":5511,"holt":5512,"ĠStock":5513,"otte":5514,"ĠGerman":5515,"wegs":5516,"Ġwichtige":5517,"Sh":5518,"ĠZeichen":5519,"fan":5520,"Ðµ":5521,"Ġlau":5522,"ĠAusgabe":5523,"Ġselben":5524,"ĠBesucher":5525,"kan":5526,"ĠRel":5527,"ĠHersteller":5528,"SS":5529,"mens":5530,"egel":5531,"ĠStaffel":5532,"bieter":5533,"ĠZeitschrift":5534,"Par":5535,"ĠHaar":5536,"Ġra":5537,"ĠGal":5538,"Ġvergleich":5539,"ymnasium":5540,"Ġganzen":5541,"Ã¤ndig":5542,"drÃ¼ck":5543,"ĠAusstellung":5544,"ayer":5545,"kosten":5546,"Ġunten":5547,"ĠÃĦr":5548,"Fernsehserie":5549,"ĠMacht":5550,"ĠGÃ¶tt":5551,"eitag":5552,"ĠAnlage":5553,"Ġmon":5554,"leger":5555,"irol":5556,"Arch":5557,"eichert":5558,"ĠFischer":5559,"bew":5560,"Ġkomplett":5561,"ĠBlut":5562,"ĠBlog":5563,"atein":5564,"MS":5565,"Ã¼h":5566,"Ġvalue":5567,"ump":5568,"Ġgeeignet":5569,"ĠHandels":5570,"ĠwÃ¼rden":5571,"ga":5572,"achst":5573,"Ã¤ger":5574,"Verk":5575,"rats":5576,"ĠMaschinen":5577,"rÃ¼ndet":5578,"Ġjem":5579,"erin":5580,"ĠJames":5581,"ĠGewinn":5582,"Ã¶rdert":5583,"ĠfranzÃ¶sische":5584,"ownlo":5585,"ĠMerk":5586,"ĠverfÃ¼gt":5587,"68":5588,"ĠKart":5589,"ĠBildung":5590,"aters":5591,"asp":5592,"Ġetc":5593,"Ġwichtigsten":5594,"any":5595,"ĠJer":5596,"ĠDank":5597,"Ġfreuen":5598,"ĠAutom":5599,"nern":5600,"Ġsh":5601,"ĠAv":5602,"ĠGrab":5603,"ĠRudolf":5604,"histor":5605,"kor":5606,"ĠUnion":5607,"Ġgewinnen":5608,"aktiv":5609,"inkel":5610,"komp":5611,"Ġsolche":5612,"ior":5613,"zul":5614,"Ġno":5615,"oto":5616,"ĠWohnung":5617,"ĠLeg":5618,"Ġhil":5619,"ĠVal":5620,"Ġbegr":5621,"assungs":5622,"ĠnÃ¶rdlich":5623,"ĠregelmÃ¤ÃŁig":5624,"ĠSatz":5625,"Vers":5626,"ĠVorstand":5627,"ĠsÃ¼dlich":5628,"ĠNÃ¼rn":5629,"Ġleider":5630,"ĠPhys":5631,"uther":5632,"Ġinternational":5633,"dar":5634,"ĠOpt":5635,"ontroll":5636,"98":5637,"ĠHoff":5638,"igem":5639,"ĠAbst":5640,"fÃ¼llt":5641,"ĠRob":5642,"Ġunmittel":5643,"....":5644,"ĠHochschule":5645,"Ġersetzt":5646,"sex":5647,"anze":5648,"ove":5649,"ĠermÃ¶glicht":5650,"con":5651,"ĠMÃ¶glichkeiten":5652,"verwaltung":5653,"chmal":5654,"Ġdel":5655,"ĠGlo":5656,"Ġlangen":5657,"Th":5658,"Ġmussten":5659,"Ġprom":5660,"Ġerinn":5661,"Ġverantwort":5662,"nummer":5663,"ros":5664,"Ġmeinem":5665,"ĠStÃ¤dte":5666,"ĠCr":5667,"ĠGrenze":5668,"ĠZeitung":5669,"iw":5670,"ĠWunsch":5671,"ĠStoff":5672,"Ã¤ndler":5673,"Ġdarin":5674,"ĠBehandlung":5675,"ĠgeprÃ¤":5676,"besch":5677,"ĠMenge":5678,"ĠVerfahren":5679,"ĠRestau":5680,"werte":5681,"uchten":5682,"tel":5683,"arkt":5684,"Ġfanden":5685,"ĠRand":5686,"ĠMÃ¼ller":5687,"74":5688,"Dat":5689,"ĠDial":5690,"ĠStad":5691,"Ġwider":5692,"ĠMiss":5693,"enzt":5694,"zern":5695,"ommun":5696,"ages":5697,"ĠVolk":5698,"ional":5699,"ĠUrlaub":5700,"rifft":5701,"Ġvorbei":5702,"Ġausgestat":5703,"bil":5704,"Ġernannt":5705,"Ġanders":5706,"ĠQualif":5707,"82":5708,"imeter":5709,"Ġrelativ":5710,"ĠStellen":5711,"hagen":5712,"ando":5713,"ĠKÃ¼che":5714,"leistung":5715,".\"":5716,"Ġgesetzt":5717,"ĠLied":5718,"baum":5719,"ĠDipl":5720,"lam":5721,"Ã¢":5722,"Ġ1936":5723,"ĠCharakter":5724,"Ã¸":5725,"Ġgebracht":5726,"ĠChamp":5727,"Ġ1947":5728,"ĠvÃ¶l":5729,"ĠNS":5730,"ollar":5731,"Ġzunehmen":5732,"Ġbein":5733,"ĠKron":5734,"ĠhÃ¤lt":5735,"ĠGeorge":5736,"ife":5737,"zin":5738,"ĠSV":5739,"gÃ¤nger":5740,"ĠFernse":5741,"WÃ¼rttemberg":5742,"sm":5743,"kirchen":5744,"leistungen":5745,"Ġsodass":5746,"ĠDarstellung":5747,"ĠEich":5748,"swÃ¼rd":5749,"ĠSicherheits":5750,"Ober":5751,"ĠAnn":5752,"decken":5753,"Ġnull":5754,"Ã¶sterreich":5755,"Ġzweit":5756,"Ġselber":5757,"ĠGÃ¤ste":5758,"Ġanderer":5759,"Ġbesondere":5760,"legung":5761,"ĠIdee":5762,"Ã¼ste":5763,"ĠWes":5764,"ĠBezug":5765,"ĠTruppen":5766,"reuÃŁen":5767,"Ã¤dagog":5768,"72":5769,"Ã¼rk":5770,"geschoss":5771,"yle":5772,"ĠMetall":5773,"Se":5774,"Ġ32":5775,"ĠAufgabe":5776,"ĠSchles":5777,"ĠWeiÃŁ":5778,"ĠOffizielle":5779,"iers":5780,"ĠInstr":5781,"ĠUrs":5782,"mack":5783,"messer":5784,"ĠWehr":5785,"Ã¼cksicht":5786,"ĠTurnier":5787,"ĠRelig":5788,"Ġheiratete":5789,"56":5790,"Neben":5791,"ĠWel":5792,"Ġschwarz":5793,"ĠSamstag":5794,"Ġhast":5795,"Ġabgel":5796,"ĠJac":5797,"cks":5798,"durch":5799,"ĠAf":5800,"ĠRem":5801,"ĠCre":5802,"linik":5803,"Ġsah":5804,"egrÃ¼ndet":5805,"ĠStandort":5806,"Gro":5807,"ĠFlor":5808,"ĠBÃ¤":5809,"ĠHy":5810,"Ġbehand":5811,"93":5812,"100":5813,"zÃ¤hl":5814,"Ã¶ren":5815,"Ġfolgt":5816,"ĠÃĦnder":5817,"Ġdefin":5818,"garn":5819,"ĠFlÃ¤che":5820,"ta":5821,"Ġkor":5822,"arts":5823,"Ġgesehen":5824,"Ġsucht":5825,"bezogen":5826,"ĠPersonal":5827,"Ã¼m":5828,"ĠKrÃ¤":5829,"WÃ¤hrend":5830,"ĠMik":5831,"mÃ¶glichkeiten":5832,"Ã¶lf":5833,"Ã¡n":5834,"aute":5835,"orten":5836,"ĠLim":5837,"zustellen":5838,"ĠZusammenhang":5839,"ĠÃ¤uÃŁ":5840,"ĠHeute":5841,"Ġstets":5842,"idt":5843,"dex":5844,"ĠRiver":5845,"spar":5846,"law":5847,"PS":5848,"Ġdah":5849,"Ã¤den":5850,"ĠDro":5851,"ĠBetriebs":5852,"Ġoptim":5853,"ly":5854,"ĠTÃ¤tigkeit":5855,"ungsst":5856,"Ġmel":5857,"ektion":5858,"hoch":5859,"ĠMand":5860,"ĠInner":5861,"ehenswÃ¼rd":5862,"National":5863,"ĠStahl":5864,"stÃ¤nde":5865,"werbe":5866,"ĠBauern":5867,"Hochschullehrer":5868,"ĠSS":5869,"ĠSchwar":5870,"ĠLÃ¼":5871,"ĠDÃ©partement":5872,"uster":5873,"ĠBett":5874,"ĠGit":5875,"Ġhal":5876,"abeth":5877,"2017":5878,"ĠAuff":5879,"ted":5880,"ĠGran":5881,"ĠZuf":5882,"Ġ1937":5883,"Ġbenannt":5884,"ĠErfahrungen":5885,"Ã¼hm":5886,"ĠâĢļ":5887,"din":5888,"Ġdiver":5889,"ĠgefÃ¼hrt":5890,"ĠWerte":5891,"ĠRadio":5892,"ĠLive":5893,"zur":5894,"ĠRenn":5895,"schloss":5896,"ikanische":5897,"ĠGeburtstag":5898,"ameter":5899,"ĠunterstÃ¼tzen":5900,"ĠverlÃ¤":5901,"ĠSuch":5902,"Ġbi":5903,"ĠKombin":5904,"ĠPDF":5905,"ĠunabhÃ¤ng":5906,"ĠMonat":5907,"Ġ[âĢ¦]":5908,"ĠHomepage":5909,"kau":5910,"ĠLok":5911,"Ġherr":5912,"Ġumfang":5913,"Ph":5914,"2016":5915,"ev":5916,"ĠSamm":5917,"ĠLeicht":5918,"iguren":5919,"Ã¶sungen":5920,"Ġeinzig":5921,"Ġkehrte":5922,"sal":5923,"ĠHum":5924,"ĠOrgel":5925,"kund":5926,"ĠHelm":5927,"une":5928,"meldung":5929,"ET":5930,"zut":5931,"ĠBill":5932,"ĠGÃ¼ter":5933,"ĠSchwe":5934,"73":5935,"pa":5936,"ĠKop":5937,"ĠEvent":5938,"Ġbrachte":5939,"gro":5940,"inos":5941,"ĠInvest":5942,"ĠMail":5943,"ĠFlughafen":5944,"ĠÃ¼bernommen":5945,"96":5946,"ĠVerwaltung":5947,"ĠGru":5948,"ĠVis":5949,"sper":5950,"geld":5951,"Hol":5952,"ĠBre":5953,"Ġverheiratet":5954,"ï¿":5955,"Ã¤her":5956,"ĠSpaÃŁ":5957,"Ġpolitische":5958,"ĠFeuerwehr":5959,"ipps":5960,"94":5961,"BC":5962,"bas":5963,"ĠRicht":5964,"Ġbringt":5965,"Ġdre":5966,"Europ":5967,"ĠJes":5968,"ĠMusiker":5969,"Ġeinst":5970,"Ġzeig":5971,"Ġ1934":5972,"Produ":5973,"ĠWerner":5974,"ĠvollstÃ¤ndig":5975,"ï¿½":5976,"insel":5977,"ĠAnwendung":5978,"ĠAllgemein":5979,"ĠTat":5980,"ĠCasino":5981,"ĠOriginal":5982,"macht":5983,"ĠCan":5984,"lÃ¤nder":5985,"usch":5986,"Ġzeich":5987,"ĠFisch":5988,"ĠOut":5989,"Ġjungen":5990,"alisiert":5991,"Ġdeine":5992,"ĠLÃ¤ndern":5993,"werks":5994,"enntnis":5995,"ĠTit":5996,"pflicht":5997,"Ġbeteiligt":5998,"Ġwenigen":5999,"Ã¤ne":6000,"acken":6001,"ĠScien":6002,"Zur":6003,"Ġdamaligen":6004,"81":6005,"reitet":6006,"ĠArzt":6007,"Ġunterschiedlichen":6008,"Ġwert":6009,"Ã¼rgen":6010,"indungen":6011,"ĠKoch":6012,"ĠâĢ¢":6013,"Ġbeschrieben":6014,"sende":6015,"GegrÃ¼ndet":6016,"ani":6017,"sek":6018,"zenz":6019,"ulen":6020,"ĠÂ§":6021,"ĠStreit":6022,"Ġvertreten":6023,"artige":6024,"Ġentlang":6025,"assel":6026,"gewÃ¶hn":6027,"ĠerÃ¶ffnet":6028,"ownload":6029,"Legt":6030,"ĠSinne":6031,"teilen":6032,"sÃ¤chlich":6033,"ĠSter":6034,"ĠRennen":6035,"igkeits":6036,"ĠVarian":6037,"ĠFÃ¼hrung":6038,"Ġint":6039,"ĠHandel":6040,"Ġtro":6041,"ibel":6042,"Ġanges":6043,"ĠTransport":6044,"veranst":6045,"ĠEinwohnern":6046,"Ġbestimmten":6047,"anisch":6048,"ĠRoy":6049,"let":6050,"emm":6051,"Ġ120":6052,"Ġausger":6053,"ĠLandschaft":6054,"ĠLandwirtschaft":6055,"autor":6056,"63":6057,"ĠDor":6058,"Ġlesen":6059,"schafft":6060,"ĠBir":6061,"reiber":6062,"Ġgesetz":6063,"car":6064,"ĠModer":6065,"Ġbreit":6066,"ifik":6067,"ehenswÃ¼rdigkeiten":6068,"pon":6069,"ebook":6070,"Ġverwenden":6071,"Ol":6072,"das":6073,"rÃ¤ume":6074,"gefÃ¤hr":6075,"ĠCap":6076,"Ġstarte":6077,"ĠSpanien":6078,"Ġqualif":6079,"ean":6080,"Ġfertig":6081,"allel":6082,"ĠKlassen":6083,"aliforn":6084,"teste":6085,"ĠSchritt":6086,"ĠLeistungen":6087,"Ġschwar":6088,"zep":6089,"ctor":6090,"ep":6091,"Ġlok":6092,"anzer":6093,"ĠDeutscher":6094,"ĠspÃ¤teren":6095,"dessen":6096,"Ġbetrach":6097,"()":6098,"edia":6099,"weder":6100,"Kultur":6101,"ÃĦ":6102,"ĠNachrichten":6103,"ouver":6104,"funk":6105,"ĠAllt":6106,"PDF":6107,"AC":6108,"51":6109,"Adresse":6110,"ĠSPD":6111,"ĠMorgen":6112,"ii":6113,"sÃ¤tz":6114,"wissenschaften":6115,"ĠFinale":6116,"ĠSammlung":6117,"ĠKrank":6118,"Ġverlassen":6119,"Ãĸsterreich":6120,"eting":6121,"eyer":6122,"Ġsogenannten":6123,"Meter":6124,"ĠEss":6125,"Ġbefand":6126,"reig":6127,"istin":6128,"62":6129,"een":6130,"raten":6131,"ĠKarte":6132,"ĠVorder":6133,"indest":6134,"windigkeit":6135,"dt":6136,"ĠLad":6137,"teile":6138,"athlet":6139,"Ġby":6140,"ĠRum":6141,"ĠJak":6142,"ĠWettbewerb":6143,"ĠSchool":6144,"Bahn":6145,"ĠAud":6146,"ĠAnschlieÃŁend":6147,"Ġlebt":6148,"ĠSmart":6149,"inf":6150,"ates":6151,"Ġ1900":6152,"Ġbritischen":6153,"ĠKenn":6154,"unkel":6155,"artet":6156,"ĠViele":6157,"ĠBlack":6158,"pfen":6159,"Ġprofession":6160,"endorf":6161,"prÃ¤sident":6162,"nitz":6163,"ĠTiere":6164,"Ġ1918":6165,"ĠÃ¶sterreichischer":6166,"ĠIV":6167,"azin":6168,"rennen":6169,"ĠKarls":6170,"ĠNummer":6171,"male":6172,"ĨĴ":6173,"emd":6174,"sible":6175,"Ġausgestattet":6176,"ĠLÃ¶sung":6177,"Ġlos":6178,"Ġhistorischen":6179,"hi":6180,"Ġ;":6181,"Ġtreffen":6182,"ĠDaniel":6183,"Ġdiente":6184,"klass":6185,"ĠBeitrÃ¤ge":6186,"gu":6187,"Ã¤um":6188,"ĠHard":6189,"Ġ1935":6190,"Berlin":6191,"Ġmodernen":6192,"ĠHoll":6193,"Ġ150":6194,"sem":6195,"cis":6196,"fragen":6197,"Ġverpf":6198,"regierung":6199,"Ġentsprechend":6200,"92":6201,"ĠVom":6202,"Ġ400":6203,"ĠWeihnachts":6204,"58":6205,"stechn":6206,"Ġstra":6207,"ĠNamens":6208,"Art":6209,"gebiete":6210,"bs":6211,"|}":6212,"republik":6213,"finden":6214,"stÃ¤ndige":6215,"Ġwahrscheinlich":6216,"ĠSingle":6217,"ĠRosen":6218,"AG":6219,"antas":6220,"alisierung":6221,"ĠErinner":6222,"ices":6223,"bauen":6224,"Zum":6225,"ĠZus":6226,"ura":6227,"ĠPresse":6228,"ziplin":6229,"ba":6230,"elberg":6231,"ĠFÃ¼rst":6232,"Ġliefert":6233,"Ġarbeitet":6234,"Ġentstehen":6235,"bereitung":6236,"Ġweiterer":6237,"ĠPapst":6238,"ugen":6239,"Ġmass":6240,"edes":6241,"Ġgriech":6242,"linien":6243,"ĠGrand":6244,"sachsen":6245,"roh":6246,"Objekt":6247,"ĠVoraus":6248,"reude":6249,"ĠJuden":6250,"ĠGesundheits":6251,"Ġperson":6252,"ĠTermin":6253,"Kreis":6254,"ĠOpen":6255,"Ġmittels":6256,"po":6257,"ĠBa":6258,"Cl":6259,"td":6260,"zun":6261,"chem":6262,"rechte":6263,"Ġversucht":6264,"ris":6265,"ĠGegensatz":6266,"gelassen":6267,"df":6268,"odor":6269,"ĠVerteid":6270,"ĠEntscheidung":6271,"ĠPa":6272,"ĠMac":6273,"vention":6274,"vertrag":6275,"rum":6276,"ĠKlima":6277,"brit":6278,"ĠNaturschutz":6279,"eisch":6280,"ĠInt":6281,"61":6282,"anen":6283,"ĠSituation":6284,"ters":6285,"ĠDarm":6286,"stÃ¤r":6287,"ĠFak":6288,"ĠHerrschaft":6289,"Ġverkauft":6290,"ĠBerufs":6291,"gern":6292,"zeigen":6293,"ĠÃ¼bergeben":6294,"ĠschÃ¶ne":6295,"uc":6296,"ugend":6297,"Ġdient":6298,"53":6299,"ĠEinfÃ¼hrung":6300,"ĠAutoren":6301,"Bl":6302,"Te":6303,"Ġinzwischen":6304,"ĠGrundlage":6305,"ĠSoldaten":6306,"ĠTar":6307,"ĠZahn":6308,"rikt":6309,"ays":6310,"SG":6311,"Ġehr":6312,"reif":6313,"Ġehemaliger":6314,"ĠHeiligen":6315,"Ġvergangenen":6316,"Ġerr":6317,"ĠMusic":6318,"westlich":6319,"TV":6320,"ĠGalerie":6321,"gebnisse":6322,"ĠNeue":6323,"ĠeuropÃ¤ischen":6324,"ĠTenn":6325,"Preis":6326,"ulation":6327,"edt":6328,"ĠÃ¼berhaupt":6329,"ĠSchulen":6330,"ders":6331,"ĠTelefon":6332,"teuer":6333,"ĠMas":6334,"ĠEg":6335,"ĠUnterricht":6336,"ĠDarÃ¼ber":6337,"stock":6338,"ĠZeiten":6339,"Ġscheint":6340,"erseits":6341,"ĠAngebote":6342,"lÃ¤ndischen":6343,"ĠTÃ¼rk":6344,"ĠwÃ¼n":6345,"ĠVerbr":6346,"ĠArchitektur":6347,"itiative":6348,"ram":6349,"weite":6350,"ĠGeheim":6351,"ĠWechsel":6352,"achtet":6353,"ĠEint":6354,"ĠHauptstadt":6355,"Ġed":6356,"ĠAbl":6357,"ĠCharles":6358,"54":6359,"ĠTau":6360,"ĠVerÃ¤nder":6361,"schafter":6362,"ĠLouis":6363,"aller":6364,"Ġobwohl":6365,"echseln":6366,"ĠvÃ¶llig":6367,"wo":6368,"Ġ1919":6369,"essel":6370,"ĠGoogle":6371,"Ġhergestellt":6372,"ssen":6373,"ĠWeil":6374,"ĠUN":6375,"val":6376,"ĠSum":6377,"ĠTher":6378,"ĠAltern":6379,"ĠBewegung":6380,"ĠObjekte":6381,"ĠhauptsÃ¤chlich":6382,"Stadt":6383,"ĠCollege":6384,"Was":6385,"ĠBra":6386,"ĠÃľberg":6387,"Ġentspricht":6388,"felder":6389,"ĠSub":6390,"ĠStudenten":6391,"ĠNet":6392,"rÃ¶":6393,"Ġgehalten":6394,"ental":6395,"ĠGroÃŁen":6396,"ĠKommunikation":6397,"Con":6398,"ĠVerhalten":6399,"versammlung":6400,"handel":6401,"ĠStimmen":6402,"ĠVorsitzender":6403,"ĠCat":6404,"ĠOffen":6405,"Ġschreiben":6406,"Ġgewonnen":6407,"ĠTraining":6408,"Amerikaner":6409,"Ġdagegen":6410,"ĠSchnitt":6411,"Methode":6412,"52":6413,"mat":6414,"Ġgeschaffen":6415,"merksam":6416,"Ġbetroffen":6417,"Ġengag":6418,"Hand":6419,"bad":6420,"dir":6421,"oz":6422,"ĠKlav":6423,"ĠNav":6424,"ĠAufbau":6425,"Bild":6426,"Bundes":6427,"hauer":6428,"union":6429,"igungen":6430,"ĠInhalt":6431,"mÃ¤ler":6432,"itor":6433,"Ġsicht":6434,"ĠMex":6435,"ĠKonzept":6436,"onstants":6437,"Ġkultur":6438,"heater":6439,"Ġchines":6440,"kultur":6441,"Ġschwed":6442,"ĠLaut":6443,"Ġhielt":6444,"ĠVan":6445,"imme":6446,"allow":6447,"Ġreduz":6448,"Ã©s":6449,"ĠRussland":6450,"renz":6451,"ĠRoll":6452,"ĠVerantwort":6453,"Ġerscheint":6454,"Ġmittlerweile":6455,"Ġerzielte":6456,"Ġstaat":6457,"Ġwor":6458,"ĠLos":6459,"ĠReal":6460,"ĠChristoph":6461,"irl":6462,"Ġans":6463,"ĠWirk":6464,"Ġ1928":6465,"Ã¤ische":6466,"ĠWohl":6467,"ĠQuellen":6468,"pft":6469,"ĠRing":6470,"ĠNic":6471,"rest":6472,"ĠSinn":6473,"hafte":6474,"ĠDatenschutz":6475,"AM":6476,"phen":6477,"ues":6478,"Ġvermutlich":6479,"Ġporn":6480,"ĠFriedhof":6481,"Ġbritischer":6482,"ĠAllerdings":6483,"teten":6484,"ĠMainz":6485,"Ġ1925":6486,"For":6487,"ĠDatei":6488,"mÃ¶gen":6489,"krÃ¤fte":6490,"Ã¤hrung":6491,"ĠzÃ¤hlt":6492,"ĠOpfer":6493,"ĠInhalte":6494,"attform":6495,"selben":6496,"ideo":6497,"mÃ¶glichen":6498,"ĠTschech":6499,"Ġgeh":6500,"Ġausgeb":6501,"57":6502,"ĠGÃ¼n":6503,"Ġkeiner":6504,"que":6505,"Ġbetrieben":6506,"plÃ¤tze":6507,"fassung":6508,"anischer":6509,"gangs":6510,"Gruppe":6511,"Jahrhundert":6512,"Ġunmittelbar":6513,"ĠStiftung":6514,"istisch":6515,"ĠBox":6516,"ministerium":6517,"chron":6518,"stuhl":6519,"eistert":6520,"hockeyspieler":6521,"Ruft":6522,"zeichnete":6523,"amerikanischen":6524,"91":6525,"ĠKa":6526,"etball":6527,"ĠgefÃ¤hr":6528,"ĠFreiburg":6529,"Ġstieg":6530,"Alle":6531,"ĠHafen":6532,"ĠauÃŁerhalb":6533,"indet":6534,"orfer":6535,"sert":6536,"ĠBereits":6537,"ĠEintrag":6538,"Ġunters":6539,"ĠMonaten":6540,"ĠBeste":6541,"ĠÃĸffentlich":6542,"Ġmodern":6543,"Ġwith":6544,"wissenschaftler":6545,"ĠZeu":6546,"IC":6547,"Ġbem":6548,"ĠIT":6549,"eichen":6550,"ther":6551,"ĠEngel":6552,"Ġwiederum":6553,"strÃ¤ger":6554,"ĠPreise":6555,"ĠLeit":6556,"ichteten":6557,"kont":6558,"ua":6559,"schte":6560,"verlag":6561,"2015":6562,"ĠInformation":6563,"ĠEpis":6564,"ĠBrandenburg":6565,"fur":6566,"Ġdur":6567,"uz":6568,"ĠGust":6569,"ĠMannschaften":6570,"zÃ¼ge":6571,"tau":6572,"bogen":6573,"ĠArbeiter":6574,"schuhe":6575,"ĠErsatz":6576,"ĠFamilienname":6577,"adrat":6578,"retÃ¤r":6579,"ĠPhilosophie":6580,"ĠFestival":6581,"It":6582,"karten":6583,"arzt":6584,"atoren":6585,"ĠHom":6586,"ĠRichter":6587,"Ġrest":6588,"SÃ¼d":6589,"zust":6590,"ĠSpann":6591,"jekten":6592,"Ġkanad":6593,"gessen":6594,"FA":6595,"reib":6596,"ehrt":6597,"Ġerkennen":6598,"pflege":6599,"ĠzwÃ¶lf":6600,"Ġschwier":6601,"ĠGelÃ¤nde":6602,"netz":6603,"ĠUp":6604,"gesp":6605,"ĠReb":6606,"maschinen":6607,"Ã¤mlich":6608,"ye":6609,"echte":6610,"Ġkurze":6611,"ĠSn":6612,"Ġliebe":6613,"ainer":6614,"Ġdigit":6615,"fÃ¤lle":6616,"ĠState":6617,"Ġbeob":6618,"Ð½":6619,"ĠSat":6620,"ĠGerichts":6621,"Ġverpflich":6622,"ĠGas":6623,"ĠFreunde":6624,"ĠVeranstaltungen":6625,"ĠFreitag":6626,"oret":6627,"ĠBarb":6628,"ĠRechte":6629,"ĠpersÃ¶nlichen":6630,"-)":6631,"ela":6632,"Ġgleichnam":6633,"ĠPoly":6634,"obilien":6635,"Ġhttp":6636,"Komp":6637,"amens":6638,"wan":6639,"ĠÃ¶stlich":6640,"bilder":6641,"hlen":6642,"gebracht":6643,"ĠFritz":6644,"ĠLink":6645,"ĠKonzert":6646,"va":6647,"aket":6648,"ĠKons":6649,"Ġ1932":6650,"klusive":6651,"ðŁ":6652,"ziehungen":6653,"ziehungs":6654,"ĠGrad":6655,"Ġfuer":6656,"Ġgenannten":6657,"EG":6658,"ual":6659,"Ġlernen":6660,"auftrag":6661,"ĠtatsÃ¤chlich":6662,"ĠThr":6663,"ĠOff":6664,"ĠBeschreibung":6665,"archite":6666,"eta":6667,"ĠHÃ¶hen":6668,"ĠAngriff":6669,"Ġbekommt":6670,"Ġunbek":6671,"ĠAnteil":6672,"Ġbekannten":6673,"Nachdem":6674,"falt":6675,"Ġfahren":6676,"isierte":6677,"Ġ36":6678,"dre":6679,"ĠTanz":6680,"management":6681,"Karriere":6682,"Äģ":6683,"ĠCont":6684,"ĠBlÃ¼ten":6685,"grad":6686,"stanz":6687,"ĠCro":6688,"ĠYou":6689,"obile":6690,"blich":6691,"ĠFert":6692,"2013":6693,"Ġgespielt":6694,"eiert":6695,"ĠBade":6696,"ĠHund":6697,"abend":6698,"Ã¶rter":6699,"Den":6700,"ĠNorth":6701,"ecken":6702,"ashington":6703,"ĠKritik":6704,"Ġwand":6705,"ĠMur":6706,"ĠKurs":6707,"produktion":6708,"Ġmehrfach":6709,"ĠGewicht":6710,"ĠDirektor":6711,"Ġdauer":6712,"ĠSpÃ¤ter":6713,"2012":6714,"ecklen":6715,"ĠDatenbank":6716,"ĠLeistungs":6717,"Part":6718,"ĠGrenz":6719,"ĠInterview":6720,"siehe":6721,"Ãĥ":6722,"ĠViertel":6723,"ĠEdition":6724,"schÃ¶n":6725,"ĠMir":6726,"ĠNun":6727,"adel":6728,"otten":6729,"icke":6730,"ĠdaÃŁ":6731,"win":6732,"ĠEreig":6733,"rt":6734,"oma":6735,"ives":6736,"Ã¶rden":6737,"Ġunterschiedliche":6738,"schauer":6739,"onym":6740,"ridge":6741,"sied":6742,"stab":6743,"ĠSign":6744,"ĠEhr":6745,"ĠIS":6746,"Ġschlech":6747,"Dieser":6748,"VerÃ¶ffentlich":6749,"kunst":6750,"Ġdritte":6751,"Ġheim":6752,"ĠIP":6753,"ĠJob":6754,"Techn":6755,"ĠWagen":6756,"Ġentdeckt":6757,"Ġ1929":6758,"ĠStefan":6759,"del":6760,"Ġzugleich":6761,"ĠpreuÃŁ":6762,"cup":6763,"ĠPC":6764,"sprÃ¼":6765,"Ġauszu":6766,"gliedern":6767,"ĠGattung":6768,"fa":6769,"hmen":6770,"ĠEind":6771,"ria":6772,"ĠNationalsozial":6773,"ĠUnited":6774,"ĠKrim":6775,"ĠLux":6776,"ĠBig":6777,"stellte":6778,"ology":6779,"tlichen":6780,"ĠGericht":6781,"gestaltung":6782,"Ġverantwortlich":6783,"ĠMun":6784,"lieder":6785,"Ġentsprechenden":6786,"ĠVerd":6787,"Ġsprach":6788,"Ġsorgen":6789,"Ġmod":6790,"Ġgener":6791,"britann":6792,"dung":6793,"reiter":6794,"Ġerstes":6795,"ĠManagement":6796,"Ġverlor":6797,"aner":6798,"ĠergÃ¤n":6799,"Ġpsych":6800,"iety":6801,"boten":6802,"ĠHohen":6803,"Ġelektr":6804,"hel":6805,"ĠKandid":6806,"Ġ1000":6807,"istenz":6808,"Ã¼mer":6809,"Ġblau":6810,"ĠEst":6811,"Ġheil":6812,"Ã¶rde":6813,"enntnisse":6814,"ous":6815,"Ġeingel":6816,"ĠTrau":6817,"erien":6818,"ĠInteressen":6819,"ĠLinks":6820,"Ġperf":6821,"AD":6822,"ĠnÃ¤mlich":6823,"denken":6824,"Alb":6825,"Ġlebte":6826,"ĠTrotz":6827,"Ġentwickeln":6828,"ĠDrehbuch":6829,"Polit":6830,"irn":6831,"Und":6832,"Best":6833,"ĠBitte":6834,"Ġ1910":6835,"Innen":6836,"Ġwestlich":6837,"97":6838,"Ġentgegen":6839,"ĠWaffen":6840,"Gemeinde":6841,"Bi":6842,"mor":6843,"Ã¶se":6844,"iertes":6845,"arre":6846,"Ġabgeschlossen":6847,"gewiesen":6848,"Ġberuf":6849,"alender":6850,"ĠElektro":6851,"Bis":6852,"ci":6853,"ĠOder":6854,"ĠFormen":6855,"ĠNÃ¼rnberg":6856,"tes":6857,"Ġeingesch":6858,"Ġintens":6859,"ĠUnsere":6860,"werten":6861,"Werke":6862,"orient":6863,"ĠKaff":6864,"ĠFein":6865,"rastruktur":6866,"Ġpart":6867,"Ġspann":6868,"rÃ¼ck":6869,"stil":6870,"ruhe":6871,"mitglied":6872,"ouverne":6873,"ĠAufstieg":6874,"schenk":6875,"De":6876,"Ã¤hlten":6877,"ĠbenÃ¶tigt":6878,"ĠShow":6879,"lÃ¤ufer":6880,"Type":6881,"possible":6882,"Ġident":6883,"ĠWett":6884,"Ã¼hrung":6885,"ĠBras":6886,"ĠSchwester":6887,"elev":6888,"empl":6889,"ĠnÃ¤chste":6890,"Nieder":6891,"jo":6892,"bildungs":6893,"hemal":6894,"ĠFal":6895,"nov":6896,"ĠHit":6897,"ĠMol":6898,"Ġerbaut":6899,"Ġpf":6900,"ards":6901,"ĠRegisseur":6902,"ĠbeschÃ¤ftigt":6903,"ĠKlavier":6904,"kopf":6905,"wander":6906,"ĠBrief":6907,"ĠTurn":6908,"Ġletzt":6909,"gerichts":6910,"ĠMittelalter":6911,"Ġzer":6912,"schauspieler":6913,"wood":6914,"arischen":6915,"ĠÃ¼berwiegend":6916,"riechen":6917,"Ġbelegte":6918,"ĠLaufe":6919,"Ġsogenannte":6920,"ĠGesprÃ¤ch":6921,"ĠGÃ¶ttingen":6922,"ecklenburg":6923,"ĠRau":6924,"2014":6925,"ners":6926,"gÃ¼lt":6927,"schweig":6928,"ĠAusdruck":6929,"ĠElement":6930,"ĠVeranstaltung":6931,"zens":6932,"stÃ¤ndigen":6933,"ĠBereichen":6934,"ĠgemÃ¤ÃŁ":6935,"ĠCast":6936,"ĠCup":6937,"ĠGeg":6938,"achim":6939,"Ġinternationale":6940,"Ġthis":6941,"Ã¼ssen":6942,"Ġmark":6943,"Ġgenug":6944,"ĠDeutschlands":6945,"rauchen":6946,"ĠAufgrund":6947,"waff":6948,"Vereinigte":6949,"ĠMatth":6950,"ĠgeprÃ¤gt":6951,"UR":6952,"ania":6953,"ĠLeute":6954,"ĠDemokrat":6955,"ĠhÃ¶chsten":6956,"ĠfÃ¤llt":6957,"ĠJetzt":6958,"ĠTeilen":6959,"ĠVerlauf":6960,"ĠPersÃ¶n":6961,"Ġ1914":6962,"ĠStrand":6963,"ĠHaft":6964,"schulen":6965,"ĠtÃ¤glich":6966,"Verkehr":6967,"iefe":6968,"Ġdo":6969,"lers":6970,"Ġlegte":6971,"ĠBestell":6972,"ĠWege":6973,"ĠErde":6974,"ĠServer":6975,"stÃ¤tte":6976,"ĠAnforderungen":6977,"Ã¶stlichen":6978,"Ġdank":6979,"Ã¼rf":6980,"ĠSemin":6981,"ĠAnfrage":6982,"fÃ¼hren":6983,"wirkungen":6984,"ĠmÃ¶glichst":6985,"Ã¤usern":6986,"work":6987,"ĠTraum":6988,"Ã¼ren":6989,"Ġmusikal":6990,"ĠErwachsen":6991,"Ã¼mm":6992,"Ġnational":6993,"Ġentweder":6994,"ĠÃ¤hnlich":6995,"Name":6996,"worten":6997,"IL":6998,"ĊĠĊ":6999,"iness":7000,"heimer":7001,"allowed":7002,"kord":7003,"ĠDauer":7004,"amilien":7005,"ĠEuropÃ¤ischen":7006,"elles":7007,"Ġbestimmte":7008,"ÑĢ":7009,"ĠDaher":7010,"Ġfehlen":7011,"egal":7012,"Ġ1927":7013,"ielen":7014,"Ġ33":7015,"Zeit":7016,"ĠWaren":7017,"ĠFÃ¶rderung":7018,"material":7019,"Ġerstellt":7020,"Ġtot":7021,"ĠFahrzeuge":7022,"Westfalen":7023,"Ġbeeinfl":7024,"Ġas":7025,"ĠPunkten":7026,"Ġrichtige":7027,"ĠverfÃ¼gbar":7028,"ĠRevolution":7029,"Ġbeginnen":7030,"krit":7031,"ĠBlatt":7032,"Ġdennoch":7033,"Autor":7034,"ĠBist":7035,"Ġverh":7036,"club":7037,"ĠAbteilung":7038,"Ġitalienischer":7039,"ĠjÃ¤hrlich":7040,"ĠAsp":7041,"Ã¤nen":7042,"ĠMarc":7043,"Ġleer":7044,"vertreten":7045,"hÃ¶he":7046,"IP":7047,"ramm":7048,"sicher":7049,"ĠberÃ¼hm":7050,"ury":7051,"ehe":7052,"freund":7053,"ĠGesundheit":7054,"vollen":7055,"Ġdisk":7056,"ĠSpielzeit":7057,"gau":7058,"Ġsorgt":7059,"ĠzÃ¤hlen":7060,"ugh":7061,"ĠgrÃ¶ÃŁeren":7062,"Ġendlich":7063,"Akt":7064,"ĠSeb":7065,"rig":7066,"ĠJahrzehn":7067,"otto":7068,"ĠZentral":7069,"partner":7070,"gentin":7071,"Ġtau":7072,"industrie":7073,"ĠMarke":7074,"ĠgrÃ¶ÃŁere":7075,"zum":7076,"ĠDÃ¶r":7077,"ota":7078,"endung":7079,"ĠOrte":7080,"Ã¼tte":7081,"isabeth":7082,"irge":7083,"ĠKÃ¶nigs":7084,"ĠverstÃ¤r":7085,"pret":7086,"ĠÎ":7087,"ĠÃ¶ffentlich":7088,"schrank":7089,"eimar":7090,"stellungs":7091,"Des":7092,"Ġmensch":7093,"usion":7094,"ĠMarken":7095,"ĠBundesliga":7096,"mittlung":7097,"III":7098,"jen":7099,"eiÃŁ":7100,"ĠZahlen":7101,"politik":7102,".),":7103,"ĠMau":7104,"ĠCO":7105,"Ġproduziert":7106,"ĠWiderstand":7107,"Ġpromov":7108,"=\"":7109,"ĠSÃ¶":7110,"Ã¼g":7111,"ĠUnfall":7112,"ommern":7113,"ĠTeilnahme":7114,"Ġ1924":7115,"ĠBasel":7116,"Ġmaximal":7117,"eitern":7118,"icro":7119,"ĠWirkung":7120,"Ġfolgten":7121,"VD":7122,"oben":7123,"Ġwid":7124,"ĠAlfred":7125,"Ġausgetragen":7126,"handlungen":7127,"Ġschaffen":7128,"ĠKult":7129,"ĠGedanken":7130,"ston":7131,"omet":7132,"ĠschÃ¶nen":7133,"Ġeingestellt":7134,"ierend":7135,"ĠĊĠĊĠĊ":7136,"ĠWÃ¤r":7137,"Ġgekommen":7138,"2010":7139,"no":7140,"ĠSar":7141,"aker":7142,"ĠÃ¼brigen":7143,"ĠDivision":7144,"Frank":7145,"ĠSonne":7146,"platte":7147,"Ġ1931":7148,"ĠPortug":7149,"Format":7150,"ped":7151,"una":7152,"ĠAusland":7153,"ĠBrow":7154,"ĠWissenschaften":7155,"obby":7156,"ĠShop":7157,"Ġdaraufhin":7158,"ĠMeisterschaft":7159,"ĠFunktionen":7160,"SC":7161,"zeigt":7162,"maschine":7163,"ĠGreen":7164,"iation":7165,"eland":7166,"ĠBart":7167,"ĠHimmel":7168,"Ã¶rung":7169,"arren":7170,"ÌĪ":7171,"ĠMem":7172,"ĠAufnahme":7173,"ĠTeams":7174,"britannien":7175,"gÃ¤nge":7176,"rein":7177,"etts":7178,"Ġplan":7179,"ĠBew":7180,"ĠMount":7181,"Ġkommun":7182,"Auszeichnungen":7183,"Ã¤mpfen":7184,"Äĩ":7185,"ĠmilitÃ¤r":7186,"Ġzuerst":7187,"Ġ1921":7188,"zugs":7189,"zÃ¼glich":7190,"Syn":7191,"nicht":7192,"ĠBlock":7193,"Band":7194,"ado":7195,"deutschen":7196,"Ġag":7197,"oria":7198,"itur":7199,"archiv":7200,"gemeine":7201,"zunehmen":7202,"ĠLex":7203,"blÃ¤tter":7204,"sphÃ¤re":7205,"Ġsuper":7206,"ĠGustav":7207,"steiger":7208,"ĠWashington":7209,"ĠVerhÃ¤ltnis":7210,"Ġcon":7211,"ĠverlÃ¤uft":7212,"Ġstartete":7213,"Du":7214,"rafen":7215,"Ġren":7216,"grenze":7217,"ĠzerstÃ¶rt":7218,"Ġtief":7219,"ĠParty":7220,"Ġbraucht":7221,"Ġwarum":7222,"liefer":7223,"ĠFreizeit":7224,"ĠRÃ¼cken":7225,"ĠArchiv":7226,"ĠKooper":7227,"arische":7228,"ĠKos":7229,"Ġerweitert":7230,"steuer":7231,"sprech":7232,"Ġdargestellt":7233,"ato":7234,"erweise":7235,"Ġforder":7236,"Ġgezeigt":7237,"ĠRoyal":7238,"stern":7239,"ĠSC":7240,"lebnis":7241,"ĠIntegr":7242,"bewegung":7243,"rÃ¤um":7244,"ĠFrancis":7245,"ominiert":7246,"wÃ¤rt":7247,"Ð¾Ð":7248,"Pol":7249,"ĠKammer":7250,"ĠPau":7251,"Ġgetr":7252,"gemeinden":7253,"ĠFÃ¤llen":7254,"ĠnÃ¤her":7255,"Ġkurzen":7256,"Ã¤chsischen":7257,"iebt":7258,"1945":7259,"Ġsprechen":7260,"ĠgewÃ¤hr":7261,"ĠMethoden":7262,"ship":7263,"Ġunterschiedlich":7264,"ĠProjekte":7265,"Ġspricht":7266,"Ġnutz":7267,"ssystem":7268,"zeption":7269,"eiben":7270,"amerika":7271,"put":7272,"Ġperfekt":7273,"ĠkÃ¶nnten":7274,"ĠgroÃŁes":7275,"Ġmedizin":7276,"ĠjÃ¼nger":7277,"aux":7278,"ĠFeder":7279,"ĠhÃ¤tten":7280,"ĠAlpen":7281,"ĠKonfl":7282,"Ġil":7283,"ĠrÃ¼ck":7284,"ĠStatus":7285,"Ġmoderne":7286,"ĠIll":7287,"ĠFrÃ¼hjahr":7288,"Ġsport":7289,"geschrieben":7290,"Ġverliehen":7291,"ĠSchweden":7292,"ji":7293,"Ġko":7294,"ĠÃ¼berra":7295,"Ġ38":7296,"Org":7297,"jor":7298,"ĠDadurch":7299,"Ġgern":7300,"Ġverschw":7301,"Ã©e":7302,"ĠBesatz":7303,"ĠHamburger":7304,"iem":7305,"ĠWappen":7306,"ĠGerÃ¤t":7307,"Ġchrist":7308,"Ġregion":7309,"bedingt":7310,"ML":7311,"horn":7312,"ĠTore":7313,"Ġtoll":7314,"rÃ¤gen":7315,"Ġmanchmal":7316,"ancen":7317,"Ġsorg":7318,"iale":7319,"arry":7320,"cription":7321,"Ġfein":7322,"ĠHon":7323,"achs":7324,"hoff":7325,"ueber":7326,"ĠMilch":7327,"ieger":7328,"eme":7329,"ĠIdent":7330,"ĠMaster":7331,"Ġrot":7332,"ĠDinge":7333,"ĠGau":7334,"ĠermÃ¶glichen":7335,"ĠFront":7336,"sonsten":7337,"ĠLuc":7338,"ĠâĨĴ":7339,"lant":7340,"Ä±":7341,"ĠKurt":7342,"ĠCent":7343,"Ġ1926":7344,"Ġbesonderen":7345,"ĠMeinung":7346,"Em":7347,"PrÃ¤":7348,"greifen":7349,"ĠGeschichten":7350,"ĠBedingungen":7351,"erb":7352,"ĠGrÃ¤":7353,"ĠForum":7354,"ĠEdel":7355,"Ġgarant":7356,"Bauwerk":7357,"ĠHau":7358,"ĠAnspruch":7359,"owski":7360,"wendungen":7361,"Ġusw":7362,"nant":7363,"Ġsinn":7364,"ĠZul":7365,"werken":7366,"2011":7367,"ĠBildungs":7368,"medizin":7369,"Ġziehen":7370,"EC":7371,"oe":7372,"Ã¶ss":7373,"manns":7374,"ĠgehÃ¶rten":7375,"kop":7376,"ĠMarie":7377,"vorsitzen":7378,"organisation":7379,"ĠNahr":7380,"Schwei":7381,"ĠBert":7382,"ĠBundest":7383,"person":7384,"ĠKiel":7385,"ĠEck":7386,"ĠkÃ¼nstler":7387,"Ġdeutschsprach":7388,"ĠBlau":7389,"ĠGrafen":7390,"ĠKombination":7391,"Ġverkauf":7392,"ext":7393,"Ġbelegt":7394,"Ġreicht":7395,"Ã´":7396,"ĠnÃ¶t":7397,"ĠErb":7398,"ĠBenutzer":7399,"ĠStift":7400,"versicherung":7401,"ĠGerhard":7402,"iber":7403,"ĠOri":7404,"Ġjemand":7405,"stant":7406,"ĠSound":7407,"ĠErzbischof":7408,"))":7409,"Ġverbr":7410,"artig":7411,"born":7412,"ĠRab":7413,"ĠLust":7414,"Ġaufzu":7415,"ĠEigent":7416,"Ġamerikanischen":7417,"dienste":7418,"ĠLeiden":7419,"ĠlÃ¶":7420,"ĠSouth":7421,"sÃ¤tzlich":7422,"eng":7423,"ĠÃ¼bertragen":7424,"aufnahme":7425,"ĠGerÃ¤te":7426,"lande":7427,"ĠFacebook":7428,"ĠJakob":7429,"ĠSchon":7430,"Ã¤nner":7431,"Ġzumindest":7432,"Ġ34":7433,"Ġentsteht":7434,"geschÃ¤ft":7435,"Ġgegebenen":7436,"ĠNetzwerk":7437,"passt":7438,"ĠAbschnitt":7439,"aka":7440,"ĠSociety":7441,"Ġeingerichtet":7442,"station":7443,"ĠGrenzen":7444,"ĠZeitraum":7445,"ĠBask":7446,"Ã±":7447,"ĠHerstellung":7448,"ĠPlanung":7449,"Ġfalse":7450,"ĠSiedlung":7451,"Ġgingen":7452,"Ehemal":7453,"zesse":7454,"Ġbekam":7455,"ĠFahrer":7456,"ST":7457,"roat":7458,"Ġschreibt":7459,"Ġentsprechende":7460,"ĠZugang":7461,"ĠGewalt":7462,"ĠGrÃ¼nden":7463,"Ġempfehlen":7464,"ĠFa":7465,"hofen":7466,"ĠIsland":7467,"Rad":7468,"inken":7469,"riester":7470,"izierte":7471,"ĠBernhard":7472,"ĠMaÃŁnahmen":7473,"Bes":7474,"Ġ1912":7475,"mith":7476,"ĠKnoten":7477,"Ġrechten":7478,"Ġgalt":7479,"Ġanerk":7480,"essern":7481,"Ġbritische":7482,"dach":7483,"ikations":7484,"Ġ42":7485,"aktor":7486,"Ġatt":7487,"Ġberichtet":7488,"azon":7489,"ĠAcadem":7490,"fÃ¼llen":7491,"ĠBraunschweig":7492,"Ã¤hler":7493,"Ġlinken":7494,"ĠMÃ¶bel":7495,"Ġnotwendig":7496,"euert":7497,"Ġstanden":7498,"ĠÃī":7499,"Ġbegonnen":7500,"ĠMaxim":7501,"dinand":7502,"dis":7503,"Ġwuchs":7504,"ĠBreite":7505,"Musik":7506,"ĠFigur":7507,"Ġnatur":7508,"ĠLig":7509,"Ġaufgerufen":7510,"ĠtÃ¼rk":7511,"ĠAufent":7512,"ĠTodes":7513,"hte":7514,"kurs":7515,"ĠJÃ¼rgen":7516,"Ġ1911":7517,"werden":7518,"Ã¤st":7519,"ĠHÃ¤user":7520,"Ġabzu":7521,"ĠTexte":7522,"ĠErweiter":7523,"Ã¤lde":7524,"ĠFranzÃ¶s":7525,"ĠPapier":7526,"ĠSchwerpunkt":7527,"modell":7528,"ĠMetern":7529,"ĠerzÃ¤hlt":7530,"ĠhÃ¶chste":7531,"ĠMund":7532,"2000":7533,"gie":7534,"ĠFle":7535,"ĠWM":7536,"anda":7537,"ĠDeshalb":7538,"ĠNutzer":7539,"âĤ¬":7540,"ĠLieder":7541,"ĠAnbieter":7542,"Ġ48":7543,"rÃ¼st":7544,"Ġbenutzt":7545,"lÃ¤sslich":7546,"kom":7547,"Ġsamm":7548,"ĠChemie":7549,"ĠSur":7550,"Ġ75":7551,"ĠBeide":7552,"ĠAutob":7553,"Ġ1922":7554,"handlung":7555,"ĠRheinland":7556,"Ġerforderlich":7557,"sse":7558,"Ġuner":7559,"ĠBeteil":7560,"prÃ¼ft":7561,"wes":7562,"halter":7563,"ĠBeweg":7564,"ĠKapelle":7565,"FC":7566,"arakter":7567,"ĠKing":7568,"Ġerscheinen":7569,"ĠKapit":7570,"bÃ¼r":7571,"elli":7572,"edig":7573,"Ġ1923":7574,"ĠÃ¼":7575,"Ġ65":7576,"Weitere":7577,"On":7578,"Ġwachsen":7579,"ĠPor":7580,"istent":7581,"ĠThÃ¼r":7582,"ĠVersicher":7583,"atin":7584,"rock":7585,"Ġweiteres":7586,"box":7587,"ĠfrÃ¼heren":7588,"ĠprÃ¤sentiert":7589,"ĠVerÃ¶ffentlichung":7590,"Ġwesentlich":7591,"ĠMobil":7592,"bereit":7593,"ĠDien":7594,"Ġerl":7595,"Ġheutige":7596,"ĠCommun":7597,"ĠFÃ¤h":7598,"Ġerlaubt":7599,"Ġhingegen":7600,"ĠNiedersachsen":7601,"ĠSchmidt":7602,"oh":7603,"schirm":7604,"ĠPri":7605,"Ã¤hnung":7606,"ĠTief":7607,"brÃ¼cke":7608,"pul":7609,"auff":7610,"ĠDich":7611,"Ġanal":7612,"Ġverbreitet":7613,"ĠDiskuss":7614,"Rei":7615,"swert":7616,"Ġsan":7617,"ĠEngl":7618,"ĠBeratung":7619,"ateur":7620,"Ġmiteinander":7621,"Ġausreichen":7622,"ds":7623,"wirt":7624,"Ġkleines":7625,"ĠEdu":7626,"ĠOrtschaft":7627,"ĠgewÃ¼n":7628,"reuung":7629,"ĠAntwort":7630,"RO":7631,"uff":7632,"ĠsÃ¼dlichen":7633,"artigen":7634,"folgt":7635,"richter":7636,"ĠElemente":7637,"seitig":7638,"ĠSowjet":7639,"Ġkombin":7640,"ĠAnh":7641,"Quellen":7642,"ifiziert":7643,"ĠBord":7644,"Aug":7645,"Liste":7646,"ĠWÃ¼rz":7647,"ĠJa":7648,"Ġanhand":7649,"ĠâĢĶ":7650,"ĠDiet":7651,"Ġgestalten":7652,"frieden":7653,"ĠBol":7654,"Ġpreis":7655,"fenster":7656,"boden":7657,"Bet":7658,"ound":7659,"otel":7660,"ĠGelegen":7661,"ĠKas":7662,"ĠJagd":7663,"lapp":7664,"Ġvorgesehen":7665,"Ġunterwegs":7666,"fÃ¼gen":7667,"Ur":7668,"ĠSeg":7669,"Ġneg":7670,"ausschuss":7671,"ĠLeon":7672,"Ġverbesser":7673,"dy":7674,"sab":7675,"ĠVerk":7676,"ĠEinheit":7677,"ohnt":7678,"ĠEinige":7679,"werben":7680,"ĠNordrhein":7681,"splatz":7682,"ĠPok":7683,"Ġsow":7684,"onds":7685,"Dem":7686,"ĠVergangen":7687,"euten":7688,"ĠGrÃ¶":7689,"ĠVorgÃ¤nger":7690,"gers":7691,"sbaden":7692,"ĠLeder":7693,"ĠVideos":7694,"liegenden":7695,"Ġorient":7696,"ĠStellung":7697,"ĠHeidelberg":7698,"ĠKÃ¶":7699,"ĠGesicht":7700,"ĠZweit":7701,"to":7702,"sbach":7703,"ĠVersand":7704,"ĠRecords":7705,"mut":7706,"ĠSchlÃ¼ssel":7707,"ĠFahrt":7708,"2008":7709,"utton":7710,"gliedert":7711,"Ġfreund":7712,"zepte":7713,"furter":7714,"oman":7715,"bauer":7716,"2009":7717,"stitute":7718,"Ġzeigte":7719,"ault":7720,"ĠErot":7721,"ĠUnternehmer":7722,"ĠRefer":7723,"2007":7724,"ulgar":7725,"Ġvoraus":7726,"ĠMiner":7727,"atÃ¼rlich":7728,"schlÃ¤ge":7729,"polit":7730,"swahl":7731,"Ġweder":7732,"Ġport":7733,"odes":7734,"Ġletzter":7735,"ĠGroÃŁbritannien":7736,"anstalt":7737,"ĠBÃ¼ro":7738,"Ã£":7739,"ĠMÃ¶n":7740,"ĠHeinz":7741,"phan":7742,"medaille":7743,"Ġrichtigen":7744,"ml":7745,"ĠEuch":7746,"ils":7747,"annter":7748,"ĠUser":7749,"zeichnen":7750,"ĠAustralien":7751,"BA":7752,"ila":7753,"Ġhe":7754,"denkmÃ¤ler":7755,"Ġlebten":7756,"ĠImmobilien":7757,"ky":7758,"Ġbauen":7759,"ĠHell":7760,"igner":7761,"annen":7762,"ĠBedarf":7763,"sprÃ¤":7764,"Ġlern":7765,"haften":7766,"woch":7767,"ĠModelle":7768,"tor":7769,"ĠGolden":7770,"agne":7771,"Ã¼tt":7772,"Ã¶ffnung":7773,"afel":7774,"Ġsowjet":7775,"ĠCenter":7776,"chten":7777,"Ġdienen":7778,"ĠSoll":7779,"Ġbeant":7780,"Ġausgel":7781,"ĠBeziehung":7782,"Ġunseres":7783,"ĠMode":7784,"strom":7785,"ĠlÃ¤uft":7786,"kul":7787,"stedt":7788,"ĠFla":7789,"Ġversehen":7790,"ĠReaktion":7791,"Ġbetrug":7792,"ĠHouse":7793,"Ġgemeinsamen":7794,"ĠMisch":7795,"Ġfile":7796,"mlich":7797,"Ġangen":7798,"ĠIngen":7799,"riz":7800,"ĠSchluss":7801,"ĠElisabeth":7802,"Ġ?":7803,"ratis":7804,"ĠPrim":7805,"Ġverstehen":7806,"Ġweitgehend":7807,"Ġautomatisch":7808,"ĠSab":7809,"ĠStudio":7810,"ĠEhefrau":7811,"pal":7812,"Ġbeweg":7813,"ĠLeop":7814,"ĠHotels":7815,"iction":7816,"Nord":7817,"ĠDichter":7818,"esten":7819,"ĠSieger":7820,"ĠAdolf":7821,"2006":7822,"Wirtschaft":7823,"Ġfrom":7824,"ĠInsgesamt":7825,"ĠendgÃ¼lt":7826,"Ġeinzelne":7827,"ĠDetails":7828,"spiegel":7829,"wuchs":7830,"ĠUnser":7831,"ĠEnglisch":7832,"ĠQuelle":7833,"Ġerstre":7834,"thur":7835,"ĠSei":7836,"ĠAnf":7837,"owa":7838,"Klasse":7839,"ĠÃ¶sterreichischen":7840,"Ġelektron":7841,"DP":7842,"IM":7843,"Ġweist":7844,"Ġbist":7845,"ĠÃĹ":7846,"versorgung":7847,"Ã¶rderung":7848,"bett":7849,"wÃ¤l":7850,"atal":7851,"ĠSchriften":7852,"ĠAngst":7853,"Co":7854,"eins":7855,"ugel":7856,"gy":7857,"seiten":7858,"Ġgeist":7859,"Ġ55":7860,"Ġgesellschaft":7861,"ĠStudie":7862,"ĠWochenende":7863,"ĠAlltag":7864,"ĠAachen":7865,"Ġinnen":7866,"ĠOx":7867,"indert":7868,"cu":7869,"ĠSem":7870,"led":7871,"ĠUmsetzung":7872,"geschlagen":7873,"ĠGlauben":7874,"ĠStÃ¤r":7875,"ĠSpitze":7876,"iano":7877,"ave":7878,"ĠEigenschaften":7879,"Ġoberen":7880,"uellen":7881,"rak":7882,"ĠReisen":7883,"ervice":7884,"****":7885,"viel":7886,"onisten":7887,"arburg":7888,"ocken":7889,"ĠDarmstadt":7890,"ĠÃĸffentlichkeit":7891,"illon":7892,"ĠTÃ¼rkei":7893,"graf":7894,"andt":7895,"ĠÂ·":7896,"usen":7897,"reform":7898,"elligen":7899,"orts":7900,"Unsere":7901,"ĠGestaltung":7902,"ĠPublikum":7903,"nes":7904,"Ã½":7905,"ĠFreude":7906,"Ġbeendete":7907,"ĠSec":7908,"tur":7909,"zwei":7910,"Ġkauf":7911,"ĠÃ¼berw":7912,"Ġruh":7913,"ĠsÃ¤m":7914,"otische":7915,"gerÃ¤te":7916,"onenten":7917,"ootball":7918,"CO":7919,"IV":7920,"JÃ¤hr":7921,"Ġnamens":7922,"achbar":7923,"Tr":7924,"orb":7925,"Ġnachhalt":7926,"Ġ37":7927,"ĠvielfÃ¤lt":7928,"Ġdahin":7929,"Ġtrocken":7930,"Funktion":7931,"mir":7932,"inu":7933,"Ġentschieden":7934,"kshop":7935,"ellschaften":7936,"Ġschrift":7937,"ĠFerdinand":7938,"ĠEngagement":7939,"ĠArchitekten":7940,"ĠStunde":7941,"ĠErzÃ¤hl":7942,"kr":7943,"Ã¥":7944,"erer":7945,"Ġwirkt":7946,"ĠGefÃ¼hl":7947,"ĠFlÃ¼cht":7948,"ska":7949,"ĠGeschmack":7950,"ĠHenry":7951,"Ġtrotzdem":7952,"ific":7953,"Italien":7954,"ĠAT":7955,"Ġlief":7956,"steigen":7957,"ierre":7958,"Ġ1913":7959,"ĠPS":7960,"quenz":7961,"ĠSerien":7962,"ĠerhÃ¤ltlich":7963,"eiern":7964,"emark":7965,"wege":7966,"Ġnahezu":7967,"Ġgeplant":7968,"ĠKamera":7969,"verlÃ¤ss":7970,"ĠProp":7971,"ĠBook":7972,"ĠSchiffe":7973,"paar":7974,"ĠmaÃŁ":7975,"Ġfot":7976,"platten":7977,"ĠVielzahl":7978,"Ġsozialen":7979,"ĠBekannt":7980,"Haupt":7981,"bliche":7982,"Ġtrifft":7983,"grÃ¶ÃŁe":7984,"All":7985,"ĠBaby":7986,"back":7987,"olz":7988,"echten":7989,"Ġ39":7990,"iode":7991,"Ġ1907":7992,"Ġ1908":7993,"ĠLinien":7994,"ĠWindows":7995,"ĠlÃ¤ng":7996,"ĠUngarn":7997,"mie":7998,"oks":7999,"ĠRett":8000,"Ã©r":8001,"ĠGroup":8002,"ampe":8003,"ĠSalzburg":8004,"Inter":8005,"ordens":8006,"minist":8007,"Juni":8008,"atus":8009,"ĠVict":8010,"ĠBericht":8011,"ĠQuer":8012,"Ġkonk":8013,"iefen":8014,"Ġvergeben":8015,"ĠverlieÃŁ":8016,"Ġstellvertreten":8017,"ĠFilme":8018,"ĠSus":8019,"Ġsolchen":8020,"Ãº":8021,"ĠVilla":8022,"gerÃ¤t":8023,"Ġsub":8024,"ĠZent":8025,"ĠSchuhe":8026,"fÃ¼hrten":8027,"zieht":8028,"ĠWiesbaden":8029,"ĠMaterialien":8030,"vo":8031,"Ġbequ":8032,"Ġbislang":8033,"reue":8034,"unterricht":8035,"ĠSchnell":8036,"anke":8037,"ĠwÃ¤hlen":8038,"ĠClau":8039,"ĠSpitzen":8040,"ĠstÃ¤rker":8041,"Ġinstall":8042,"ĠWÃ¼r":8043,"ĠRollen":8044,"ĠParteien":8045,"Olymp":8046,"fle":8047,"ĠSau":8048,"Ġjahr":8049,"grenzen":8050,"formationen":8051,"ĠGebrauch":8052,"uppen":8053,"ĠrÃ¶misch":8054,"Ã¼te":8055,"ĠSchauspiel":8056,"Ġspeziell":8057,"ĠVergangenheit":8058,"New":8059,"cen":8060,"ĠWag":8061,"hebung":8062,"Ġjederzeit":8063,"ĠGanz":8064,"berecht":8065,"ĠLy":8066,"ĠScha":8067,"ĠÃ¼bernehmen":8068,"ĠChance":8069,"Unternehmen":8070,"hindern":8071,"Ġwestlichen":8072,"ĠMecklenburg":8073,"ĠBeziehungen":8074,"iefel":8075,"ĠVersuch":8076,"ĠeingefÃ¼hrt":8077,"ĠArchitekt":8078,"ouverneur":8079,"treten":8080,"ziger":8081,"ĠDÃ¤n":8082,"ĠWÃ¼n":8083,"Ġgesund":8084,"Ġerwarb":8085,"Ġstarken":8086,"Lin":8087,"ĠKredit":8088,"Ġleitete":8089,"Ġpdf":8090,"Ġbesitzen":8091,"ĠEntfern":8092,"umenten":8093,"Beschreibung":8094,"gol":8095,"ĠPu":8096,"ĠNoch":8097,"rochen":8098,"ĠKongress":8099,"ĠDurchmesser":8100,"Ġitalienischen":8101,"spf":8102,"ĠSpiegel":8103,"ĠspÃ¤t":8104,"hai":8105,"ĠBibliothek":8106,"bÃ¼cher":8107,"angebot":8108,"ieller":8109,"endeten":8110,"reng":8111,"ĠPfarrer":8112,"farben":8113,"ĠBio":8114,"ĠTheorie":8115,"ĠMÃ¼nch":8116,"Ġnahmen":8117,"ĠLebensmittel":8118,"ĠGroÃŁe":8119,"ĠZuschauer":8120,"aktoren":8121,"geordnet":8122,"bedingungen":8123,"ĠAutomobil":8124,"Ġwirkte":8125,"ĠÃľbersetzung":8126,"scheidet":8127,"afrika":8128,"play":8129,"Ñģ":8130,"iki":8131,"ĠNachricht":8132,"Code":8133,"Fin":8134,"col":8135,"ĠdÃ¤n":8136,"Stud":8137,"offiz":8138,"Ġenglischen":8139,"ĠQualifikation":8140,"kammer":8141,"ĠKassel":8142,"hnung":8143,"gebnis":8144,"ĠAusnahme":8145,"stral":8146,"bran":8147,"ĠUnabhÃ¤ng":8148,"range":8149,"ĠFranken":8150,"lock":8151,"Ġkonzentr":8152,"ioren":8153,"stÃ¼cke":8154,"verk":8155,"Ġdurchschnitt":8156,"ĠAuflÃ¶sung":8157,"ĠHerkunft":8158,"haben":8159,"Â®":8160,"eiteten":8161,"Erbaut":8162,"ĠpersÃ¶nlich":8163,"publ":8164,"odurch":8165,"Ġklassischen":8166,"ĠEinrichtung":8167,"bahnhof":8168,"DE":8169,"ĠNah":8170,"splan":8171,"Ġunbe":8172,"ĠAnlagen":8173,"StraÃŁe":8174,"Fahr":8175,"Ã¤ÃŁ":8176,"ĠZiele":8177,"ĠZivil":8178,"ĠGefahr":8179,"Beim":8180,"stÃ¤d":8181,"Ġeingeb":8182,"udes":8183,"ĠOrdens":8184,"Ã£o":8185,"Bo":8186,"onien":8187,"ĠMauer":8188,"reff":8189,"ĠInternationalen":8190,"ĠReserv":8191,"Sa":8192,"dauer":8193,"allo":8194,"ritter":8195,"ĠzusÃ¤tzliche":8196,"ĠVogel":8197,"ĠNeuen":8198,"Frei":8199,"Ġfach":8200,"ĠEinrichtungen":8201,"raining":8202,"bindung":8203,"ĠTw":8204,"ĠFÃ¼rsten":8205,"ĠIsrael":8206,"ĠDistrikt":8207,"Organis":8208,"oline":8209,"ĠBrust":8210,"ĠUlrich":8211,"bund":8212,"rollen":8213,"ĠBewohner":8214,"Intern":8215,"ĠPrÃ¤sidenten":8216,"Ġelf":8217,"ĠGrÃ¼nder":8218,"ĠAssoc":8219,"lowak":8220,"ĠDownload":8221,"Ã¶die":8222,"graben":8223,"ĠMoskau":8224,"yth":8225,"irche":8226,"ĠMarine":8227,"Nr":8228,"ĠHill":8229,"Ġrom":8230,"ĠReihen":8231,"ĠScience":8232,"Ġgleichnamigen":8233,"ĠGegner":8234,"vin":8235,"ĠPrag":8236,"Ġverkehr":8237,"lieger":8238,"ĠBesitzer":8239,"Ġversuchen":8240,"ĠEmil":8241,"Ġprivaten":8242,"urts":8243,"Ġmar":8244,"ĠberÃ¼cksicht":8245,"ĠWeltkriegs":8246,"fÃ¤higkeit":8247,"Ġdat":8248,"Ġwodurch":8249,"ĠMoment":8250,"2019":8251,"ĠgenieÃŁen":8252,"ubil":8253,"ĠTats":8254,"zenen":8255,"Ġabgeb":8256,"ĠSÃ¼dwesten":8257,"Ġ1906":8258,"ĠkÃ¶nnt":8259,"KW":8260,"ĠAcht":8261,"senz":8262,"spez":8263,"Ġpasst":8264,"ĠEinsch":8265,"sky":8266,"ĠDortmund":8267,"zufÃ¼hren":8268,"chte":8269,"stellten":8270,"wortet":8271,"Ġstarke":8272,"Ġerwartet":8273,"ĠOrdnung":8274,"fabrik":8275,"lÃ¶":8276,"Ġerhoben":8277,"Ġniedr":8278,"ĠEbene":8279,"hem":8280,"elen":8281,"ilde":8282,"Ġkinder":8283,"ĠArnold":8284,"ĠMicro":8285,"ĠVari":8286,"Ġ250":8287,"Ġtritt":8288,"heorie":8289,"ĠNeubau":8290,"athar":8291,"Ġsech":8292,"ĠbegrÃ¼n":8293,"Ġanderes":8294,"itionen":8295,"hardt":8296,"Ġ44":8297,"ĠForst":8298,"jew":8299,"vi":8300,"uld":8301,"linder":8302,"ĠMargar":8303,"ologisch":8304,"Ġ1905":8305,"Serie":8306,"ĠBayerischen":8307,"mÃ¼hle":8308,"ĠKanz":8309,"usÃ¤tzlich":8310,"ĠÃ¶ffentliche":8311,"plate":8312,"ĠFernsehen":8313,"ĠPre":8314,"weist":8315,"weiÃŁ":8316,"weiht":8317,"ĠProfil":8318,"ĠNikol":8319,"gende":8320,"ĠPen":8321,"ĠRegional":8322,"ĠerklÃ¤rte":8323,"ĠFakult":8324,"ĠMesse":8325,"ĠZoll":8326,"ĠĊĊĠĊ":8327,"ĠKontrolle":8328,"ĠnÃ¶rdlichen":8329,"ĠTÃ¼b":8330,"isa":8331,"Ġfreien":8332,"rÃ¤nkt":8333,"Kan":8334,"ero":8335,"Ġbeh":8336,"ĠRuhe":8337,"ĠSmartph":8338,"Å«":8339,"Ġfeier":8340,"ĠJos":8341,"ĠVerarbeitung":8342,"ĠAlso":8343,"Ġherunter":8344,"ĠMontag":8345,"ichert":8346,"etzten":8347,"Daten":8348,"krieges":8349,"ÑĤ":8350,"ĠAre":8351,"ĠPul":8352,"rost":8353,"seud":8354,"ĠZerst":8355,"ĠGymnasium":8356,"ĠVo":8357,"Ġprivate":8358,"ĠBier":8359,"ĠhÃ¶ren":8360,"Ġangelegt":8361,"ends":8362,"fÃ¼hrte":8363,"hause":8364,"Ġregistr":8365,"ĠDialog":8366,"ĠBasketball":8367,"familie":8368,"sur":8369,"verzeichnis":8370,"Min":8371,"ĠHig":8372,"ĠHub":8373,"irurg":8374,"ĠStation":8375,"maler":8376,"ĠBedÃ¼rf":8377,"Theater":8378,"Ġfunktioniert":8379,"iarden":8380,"Ste":8381,"rik":8382,"ĠFass":8383,"IA":8384,"wechs":8385,"bericht":8386,"ebe":8387,"ĠNordosten":8388,"ĠKathol":8389,"eligi":8390,"zo":8391,"Ġtschech":8392,"zahlung":8393,"ĠFahrrad":8394,"2005":8395,"ĠAktivitÃ¤ten":8396,"ĠLeopold":8397,"zone":8398,"schi":8399,"auert":8400,"ĠBass":8401,"Ġextrem":8402,"ĠErkrank":8403,"OP":8404,"Ġpubl":8405,"Ã©n":8406,"Ġdarum":8407,"Album":8408,"Institut":8409,"Ġeigenes":8410,"Ġhistorische":8411,"ĠSache":8412,"ĠTipps":8413,"ĠMuster":8414,"ĠKrankenhaus":8415,"ĠBesonders":8416,"ÅĻ":8417,"ĠAlp":8418,"echts":8419,"ĠTaschen":8420,"ĠPfarrkirche":8421,"Ġexistiert":8422,"Ġerinnert":8423,"lings":8424,"ĠungefÃ¤hr":8425,"ausstellung":8426,"enne":8427,"wertet":8428,"Ġverbessern":8429,"RE":8430,"witz":8431,"stift":8432,"ĠSym":8433,"ĠFiguren":8434,"herzog":8435,"ĠTheodor":8436,"Unser":8437,"Ġhoher":8438,"ussen":8439,"ehlt":8440,"rans":8441,"holen":8442,"ĠEuropameister":8443,"ĠBÃ¼hne":8444,"roll":8445,"Ġlegen":8446,"ĠAntrag":8447,"ĠVerbesser":8448,"ummern":8449,"ĠDebÃ¼t":8450,"stahl":8451,"ologen":8452,"DN":8453,"achtung":8454,"ĠKonkur":8455,"Ġgefert":8456,"ĠRÃ¼ckkehr":8457,"ging":8458,"ĠPriester":8459,"ĠTheologe":8460,"ĠBundesrepublik":8461,"fels":8462,"Ġueber":8463,"ĠSchaden":8464,"ĠSchnee":8465,"istischer":8466,"egten":8467,"ĠErschein":8468,"Ġeinfache":8469,"rÃ¼cken":8470,"ĠHistoriker":8471,"Ġorig":8472,"ladung":8473,"bul":8474,"ierer":8475,"ĠSchleswig":8476,"Ġzufrieden":8477,"Ġgebildet":8478,"ĠStrecken":8479,"ategorie":8480,"staben":8481,"ĠAfrika":8482,"ĠFÃ¼n":8483,"Ġfallen":8484,"andelt":8485,"ĠGegenwart":8486,"unnel":8487,"ĠRestaurant":8488,"itation":8489,"rÃ¤umen":8490,"Ã¤rten":8491,"ĠGraz":8492,"armon":8493,"ĠUntersuchungen":8494,"ete":8495,"ĠGang":8496,"oli":8497,"eiche":8498,"cia":8499,"date":8500,"lebt":8501,"Ġtrug":8502,"qualitÃ¤t":8503,"OL":8504,"ĠOne":8505,"Ġtolle":8506,"etzte":8507,"ĠOberst":8508,"ĠArchÃ¤":8509,"lÃ¤ndische":8510,"Ġmaxim":8511,"Ġoffiziell":8512,"ĠUntersuchung":8513,"emp":8514,"ĠmÃ¤nn":8515,"ĠKommission":8516,"ĠHeer":8517,"500":8518,"schicht":8519,"gener":8520,"ĠWeimar":8521,"ĠRod":8522,"ads":8523,"otiv":8524,"Ġwirken":8525,"Ġzieht":8526,"Ġgemeinsame":8527,"Gew":8528,"irus":8529,"ĠJoachim":8530,"Ġgestaltet":8531,"ĠHerausgeber":8532,"grÃ¶ÃŁ":8533,"position":8534,"Ġinnov":8535,"abt":8536,"klei":8537,"ĠBrÃ¼cke":8538,"ĠTherapie":8539,"Ã¤tt":8540,"Ġbetrieb":8541,"ĠbestÃ¤tigt":8542,"ĠTennis":8543,"Gener":8544,"zn":8545,"ĠGemeinschaft":8546,"ĠSprachen":8547,"Ġwichtiger":8548,"Zw":8549,"Â´":8550,"omaten":8551,"ĠAndr":8552,"merkungen":8553,"iveau":8554,"ĠCDU":8555,"Kurz":8556,"ĠLipp":8557,"ello":8558,"Ġunteren":8559,"Ġbildete":8560,"Jul":8561,"mand":8562,"umin":8563,"tegie":8564,"ĠHunde":8565,"Ġverurs":8566,"ligisten":8567,"ĠMotiv":8568,"Platz":8569,"TS":8570,"Ã¼se":8571,"ĠVaters":8572,"Ġunge":8573,"Ġreag":8574,"front":8575,"ĠBeschÃ¤ft":8576,"Meister":8577,"act":8578,"heute":8579,"kÃ¼nft":8580,"ĠSon":8581,"ĠAR":8582,"ilber":8583,"aufhin":8584,"ĠRev":8585,"Ġbesuchen":8586,"region":8587,"Ġwichtigen":8588,"ĠðŁ":8589,"Ġgefallen":8590,"ĠBildhauer":8591,"ĠSimon":8592,"abteilung":8593,"Ġunbedingt":8594,"ektar":8595,"ĠMedia":8596,"2004":8597,"kohol":8598,"ĠKanada":8599,"ĠChef":8600,"ĠgÃ¼nstig":8601,"ĠZusatz":8602,"Port":8603,"Ġlaufen":8604,"ĠMarien":8605,"ĠTun":8606,"ĠLein":8607,"ordnet":8608,"ĠHandbuch":8609,"ĠMinute":8610,"otent":8611,"mosphÃ¤re":8612,"zellen":8613,"ieten":8614,"ĠAqu":8615,"ĠMio":8616,"Ġhaus":8617,"Ġangesehen":8618,"ĠtÃ¶":8619,"Ġerhielten":8620,"ĠLaw":8621,"ĠFalls":8622,"Ġkomplex":8623,"ĠEingang":8624,"ĠInstrument":8625,"Dar":8626,"Ġeins":8627,"ĠLÃ¶sungen":8628,"ĠUk":8629,"ĠKategorien":8630,"Ġeinzu":8631,"istan":8632,"ertal":8633,"Ã¤cher":8634,"Ã¼ndungs":8635,"ĠFormel":8636,"etenz":8637,"Ġinformieren":8638,"Ġhilft":8639,"ĠBrasilien":8640,"Ġvierten":8641,"ĠDomin":8642,"Ã©t":8643,"mail":8644,"ĠSebastian":8645,"uste":8646,"sprecher":8647,"ĠFlugzeug":8648,"bieten":8649,"gas":8650,"heil":8651,"ĠDok":8652,"dest":8653,"ĠPir":8654,"Ġkg":8655,"ĠNag":8656,"abelle":8657,"ido":8658,"Ġbeschreibt":8659,"ĠBronze":8660,"altete":8661,"ati":8662,"ĠGriechen":8663,"ĠTrÃ¤ger":8664,"ĠAnz":8665,"HL":8666,"seits":8667,"ysi":8668,"ĠAdels":8669,"gehÃ¶rigen":8670,"ral":8671,"Ġdek":8672,"orweg":8673,"Ġ1917":8674,"ĠTabellen":8675,"Ġziemlich":8676,"Ġgelegenen":8677,"Per":8678,"ĠBoch":8679,"ĠWegen":8680,"ĠNa":8681,"rian":8682,"Schriften":8683,"ĠJournalist":8684,"ario":8685,"orfen":8686,"ĠKle":8687,"ĠAnalyse":8688,"Ġabger":8689,"reicher":8690,"Fr":8691,"kk":8692,"Ġerstellen":8693,"Ã¶rungen":8694,"flÃ¼gel":8695,"ĠSongs":8696,"ĠPrinzip":8697,"ĠjÃ¼dischen":8698,"het":8699,"achung":8700,"ĠEinz":8701,"raucher":8702,"ĠSchwier":8703,"ĠExempl":8704,"appe":8705,"Haus":8706,"Ãł":8707,"steine":8708,"ĠRam":8709,"Ġverur":8710,"verstÃ¤ndlich":8711,"ĠWÃ¼rzburg":8712,"hÃ¤ndler":8713,"ĠBM":8714,"ĠPreuÃŁen":8715,"ĠInstitute":8716,"ĠDirekt":8717,"____":8718,"Dollar":8719,"ĠMeg":8720,"ĠFans":8721,"ĠHock":8722,"ĠVit":8723,"ĠStatt":8724,"Ġzweimal":8725,"ÃŃn":8726,"stehung":8727,"titel":8728,"Ġeiniger":8729,"Ġaustral":8730,"Ġerleben":8731,"heber":8732,"Ġgeringer":8733,"ĠFreiheit":8734,"deutsche":8735,"ĠDonner":8736,"Dieses":8737,"leihung":8738,"ĠStÃ¤dten":8739,"Weltmeisterschaft":8740,"AB":8741,"Ġbar":8742,"ĠmÃ¼n":8743,"Ġnominiert":8744,"Ġwarten":8745,"wirkung":8746,"Ã¤ngnis":8747,"rÃ¼stung":8748,"kern":8749,"ĠLind":8750,"Ġphil":8751,"ĠSpeicher":8752,"ides":8753,"akteur":8754,"Ġzunehmend":8755,"ĠSig":8756,"Ġguter":8757,"ĠSchmer":8758,"aya":8759,"ĠfÃ¼hrten":8760,"ĠpersÃ¶nliche":8761,"Ġecht":8762,"stad":8763,"ĠKÃ¼n":8764,"Ġdescription":8765,"ssel":8766,"ĠFilms":8767,"ĠGeneration":8768,"ĠAcademy":8769,"ĠÃ¤ndern":8770,"ĠSP":8771,"Ġhell":8772,"ĠHerbert":8773,"Ġwelchem":8774,"board":8775,"maÃŁnahmen":8776,"katholischer":8777,"Mon":8778,"ĠLove":8779,"Ġkre":8780,"ĠChic":8781,"ĠAmazon":8782,"ĠChron":8783,"ĠHauses":8784,"ĠVertrieb":8785,"ĠLeser":8786,"kunden":8787,"ĠKey":8788,"kleidung":8789,"beit":8790,"kÃ¼r":8791,"Ġbrauchen":8792,"ĠWell":8793,"ĠTok":8794,"ĠFlÃ¼gel":8795,"Ġdaraus":8796,"ĠÃľbersicht":8797,"ĠExperten":8798,"rin":8799,"ĠDampf":8800,"ĠWit":8801,"ĠBeob":8802,"Ġgesagt":8803,"immungen":8804,"Erst":8805,"ĠInfos":8806,"ĠKommentar":8807,"ĠFit":8808,"ĠEinheiten":8809,"Ã¤rt":8810,"alth":8811,"ĠAugsburg":8812,"fot":8813,"Ġverschiedener":8814,"ĠBusiness":8815,"achstum":8816,"Fran":8817,"ĠAct":8818,"ĠMig":8819,"ĠverÃ¤ndert":8820,"ĠBeck":8821,"ubeh":8822,"riffe":8823,"BevÃ¶lker":8824,"ĠMatthias":8825,"Ġ!":8826,"ĠHerzen":8827,"ĠModern":8828,"geordneter":8829,"ĠPremier":8830,"Wil":8831,"ĠMission":8832,"abet":8833,"Ġ43":8834,"sson":8835,"Ġjapanischen":8836,"ĠKarlsruhe":8837,"hler":8838,"ĠKrieges":8839,"ĠHilfs":8840,"ĠglÃ¼ck":8841,"AF":8842,"Ġinspir":8843,"ĠInitiative":8844,"este":8845,"ausgabe":8846,"Ġumben":8847,"uba":8848,"ĠDafÃ¼r":8849,"Ġ1903":8850,"veranstaltung":8851,"kÃ¼nd":8852,"ody":8853,"ĠRezept":8854,"ĠIhres":8855,"ĠRoh":8856,"Ġ1904":8857,"ĠGeschÃ¤ftsfÃ¼hrer":8858,"ĠGeistlicher":8859,"DI":8860,"Ġvorgestellt":8861,"Ġberufen":8862,"Ġgesucht":8863,"Ġangezeigt":8864,"schreiben":8865,"Ġkommenden":8866,"Ġbasiert":8867,"Komm":8868,"lÃ¤nge":8869,"Schw":8870,"maÃŁen":8871,"ĠObwohl":8872,"ĠInfrastruktur":8873,"ĠFlÃ¤chen":8874,"ĠKamp":8875,"ĠVf":8876,"Ġkennt":8877,"ographische":8878,"ĠNiederl":8879,"ylv":8880,"ĠTÃ¼bingen":8881,"baus":8882,"Ġvern":8883,"Ã¤rz":8884,"ĠMarketing":8885,"-/":8886,"stÃ¤tten":8887,"ĠzukÃ¼nft":8888,"Ġverhindern":8889,"ienz":8890,"ĠOrden":8891,"Ġetabl":8892,"pression":8893,"ikanischer":8894,"Pfalz":8895,"ftet":8896,"lor":8897,"trainer":8898,"Ġendete":8899,"empf":8900,"ops":8901,"ĠSÃ¼dosten":8902,"Ġrussischen":8903,"schwer":8904,"Ġsystem":8905,"ĠSchle":8906,"Ġlangsam":8907,"ĠEUR":8908,"August":8909,"Ġhalb":8910,"rate":8911,"weiler":8912,"Ġjung":8913,"ĠJurist":8914,"gi":8915,"einheit":8916,"ĠZun":8917,"essour":8918,"ĠFleisch":8919,"eckt":8920,"ĠCook":8921,"bereiche":8922,"vereins":8923,"ĠMexiko":8924,"Fre":8925,"Lie":8926,"setzte":8927,"2003":8928,"lehre":8929,"sekretÃ¤r":8930,"ĠSort":8931,"ĠHÃ¶ch":8932,"ĠVerstÃ¤nd":8933,"verhÃ¤ltnis":8934,"sbed":8935,"ifferenz":8936,"Ġgetragen":8937,"ĠBrenn":8938,"Ġhttps":8939,"Falls":8940,"har":8941,"oir":8942,"ĠKunststoff":8943,"Ġ1909":8944,"Ã¡s":8945,"ĠInfanter":8946,"VP":8947,"kin":8948,"ĠauÃŁen":8949,"ĠGot":8950,"isieren":8951,"ĠSekunden":8952,"ĠEber":8953,"Ġfrauen":8954,"Ġtreten":8955,"rite":8956,"farbe":8957,"Lage":8958,"Ã¤ure":8959,"asino":8960,"ĠRuf":8961,"ison":8962,"ĠAusgang":8963,"ĠQuadrat":8964,"ĠAlters":8965,"ĠVize":8966,"Ġbehandelt":8967,"Heute":8968,"Ġkom":8969,"ĠEinkauf":8970,"Ġ1902":8971,"deckung":8972,"ĠHeft":8973,"verbandes":8974,"EP":8975,"Ã¤fer":8976,"Ġlauf":8977,"zeitung":8978,"ĠFerr":8979,"ĠKlinik":8980,"olo":8981,"ĠHyp":8982,"Ġdurchaus":8983,"Ind":8984,"Ġ64":8985,"Erster":8986,"ĠJacob":8987,"ĠLeichtathlet":8988,"apel":8989,"landes":8990,"ialisiert":8991,"ĠSommerspiele":8992,"ĠKeller":8993,"ird":8994,"ĠaufgelÃ¶st":8995,"ĠFrankfurter":8996,"euchtung":8997,"alifornien":8998,"IG":8999,"kg":9000,"Ġbau":9001,"ĠeinschlieÃŁlich":9002,"ĠFlucht":9003,"ĠNordwesten":9004,"service":9005,"ĠKost":9006,"ĠzustÃ¤ndig":9007,"ĠArg":9008,"Ġlieben":9009,"ĠNews":9010,"affel":9011,"Politik":9012,"mas":9013,"ĠSymbol":9014,"ĠWin":9015,"ĠVerz":9016,"Ġunterscheiden":9017,"okus":9018,"ĠAlles":9019,"Ġoffenen":9020,"Ġbetrachtet":9021,"Histor":9022,"schten":9023,"atch":9024,"ĠKard":9025,"olin":9026,"ĠHab":9027,"ĠRet":9028,"Ġbeachten":9029,"Ġstarten":9030,"ennfahrer":9031,"itÃ¤ts":9032,"haup":9033,"ĠKÃ¼chen":9034,"ĠMarkus":9035,"ĠDonau":9036,"App":9037,"EM":9038,"ĠAnal":9039,"ĠSpe":9040,"auso":9041,"ĠMagde":9042,"ĠEntwicklungs":9043,"Ġshort":9044,"dner":9045,"Ã¼gt":9046,"herren":9047,"Fol":9048,"Ġaufgebaut":9049,"ĠkÃ¶nne":9050,"ĠOrtes":9051,"Ġtechnischen":9052,"amat":9053,"ĠDieter":9054,"rÃ¤cht":9055,"icks":9056,"Ġ600":9057,"ĠTÃ¶ch":9058,"ĠLern":9059,"ĠZy":9060,"ĠZit":9061,"beschreibung":9062,"ĠMittwoch":9063,"Ã¨re":9064,"ĠPferde":9065,"bahnen":9066,"ĠGrau":9067,"ĠGolf":9068,"ĠHug":9069,"ĠLen":9070,"leut":9071,"ĠClass":9072,"Mart":9073,"gÃ¤ng":9074,"tal":9075,"ĠGeschenk":9076,"Johann":9077,"ĠKooperation":9078,"pap":9079,"Ġnennen":9080,"rast":9081,"ĠgeschÃ¼tzt":9082,"Ã¼ll":9083,"Ġbeinhal":9084,"aria":9085,"Ġwechseln":9086,"Ã¶ck":9087,"ĠSturm":9088,"Ġschlecht":9089,"ĠAmster":9090,"teils":9091,"prÃ¤sentanten":9092,"Ġdiskut":9093,"ĠKÃ¶r":9094,"ĠOt":9095,"Ġ46":9096,"ritor":9097,"sprogramm":9098,"ĠSzene":9099,"Ġhoff":9100,"Ġverp":9101,"Ġstat":9102,"ĠbenÃ¶tigen":9103,"Seine":9104,"gs":9105,"ĠHorn":9106,"Ġzuge":9107,"icker":9108,"gesprochen":9109,"Su":9110,"cess":9111,"genÃ¶ss":9112,"ĠPast":9113,"isation":9114,"Ġraus":9115,"Ant":9116,"Ġpassiert":9117,"Wert":9118,"ĠMord":9119,"ĠMid":9120,"ĠPanzer":9121,"ftig":9122,"ĠBundesstaat":9123,"Ġverbindet":9124,"ĠmÃ¶glicherweise":9125,"ĠServices":9126,"Ġindividuell":9127,"sprechend":9128,"Christ":9129,"iwod":9130,"ĠLexikon":9131,"ĠPra":9132,"ĠNie":9133,"zenten":9134,"Ġ49":9135,"ĠÃľberblick":9136,"ĠOrgan":9137,"weisung":9138,"ĠElektron":9139,"ĠPrÃ¼fung":9140,"spolitik":9141,"ĠRoten":9142,"Ġevent":9143,"Ġenglisch":9144,"ĠInseln":9145,"Berg":9146,"cer":9147,"ĠPrÃ¼f":9148,"ĠJon":9149,"ebel":9150,"ologischer":9151,"ĠLiebl":9152,"konom":9153,"ĠBestandteil":9154,"ĠVariante":9155,"Kunst":9156,"achter":9157,"isst":9158,"geschn":9159,"ĠBoot":9160,"Ġbenachbar":9161,"kÃ¶rper":9162,"ĠFu":9163,"ĠJud":9164,"euern":9165,"quelle":9166,"ĠRegionen":9167,"Ã¶ll":9168,"ĠMikro":9169,"ausbildung":9170,"ĠPlatten":9171,"ĠBahnstrecke":9172,"ĠBÃ¼hnen":9173,"darsteller":9174,"sertation":9175,".).":9176,"Disk":9177,"ĠTown":9178,"eichern":9179,"ĠHochzeit":9180,"mitglieder":9181,"ĠInformations":9182,"He":9183,"aschen":9184,"Ġblieben":9185,"Ġinklusive":9186,"raine":9187,"etto":9188,"Erfolge":9189,"schauen":9190,"ĠDatum":9191,"stÃ¤nden":9192,"reut":9193,"Ġvorber":9194,"Ġhinein":9195,"ĠBaron":9196,"freie":9197,"Ġverpflichtet":9198,"mag":9199,"ĠMech":9200,"ĠMassen":9201,"Ġles":9202,"hersteller":9203,"ĠKapital":9204,"BÃ¼rger":9205,"ĠEarl":9206,"Ġangel":9207,"ĠVern":9208,"waren":9209,"ĠCompany":9210,"Ġenglischer":9211,"ĠÃ¤lteren":9212,"alia":9213,"Ġerzeugt":9214,"ĠNR":9215,"ĠRede":9216,"Ã¼tter":9217,"Start":9218,"ĠUmgang":9219,"ĠEmp":9220,"Ġerworben":9221,"ĠFakultÃ¤t":9222,"ubehÃ¶r":9223,"Ġter":9224,"Ġgratis":9225,"Ġveranst":9226,"hail":9227,"Ġ800":9228,"Ġpersonen":9229,"Politiker":9230,"Ġfarb":9231,"ischt":9232,"sender":9233,"Ġbec":9234,"Ġsteigen":9235,"Ã¶rdern":9236,"ĠPortrÃ¤t":9237,"ĠBevÃ¶lkerungs":9238,"--------":9239,"ĠJustiz":9240,"ĠVerÃ¤nderungen":9241,"Werk":9242,"inten":9243,"Ã¤b":9244,"Ġtraf":9245,"ĠGeburts":9246,"ĠFree":9247,"ĠMilliarden":9248,"ĠPower":9249,"Version":9250,"ĠSÃ¶hne":9251,"Mark":9252,"gegangen":9253,"ĠWurz":9254,"ĠLast":9255,"Ġabgerufen":9256,"ids":9257,"ĠIndividu":9258,"ĠPerspekt":9259,"ĠLaufbahn":9260,"ĠTreffen":9261,"ĠTabelle":9262,"Mo":9263,"Ġrad":9264,"ores":9265,"utzung":9266,"riss":9267,"ĠÄ":9268,"Ã¤ck":9269,"ĠBan":9270,"aku":9271,"Einzel":9272,"druckt":9273,"isat":9274,"ĠgÃ¼lt":9275,"Ġtrain":9276,"ĠAuseinander":9277,"ĠMitgliedern":9278,"Ġeffekt":9279,"Ġbegleitet":9280,"gestellten":9281,"Team":9282,"kat":9283,"ayern":9284,"ĠAbenteuer":9285,"Ġkleinere":9286,"ĠKollegen":9287,"ĠjÃ¼ng":9288,"Ġkatholischen":9289,"Organisation":9290,"Bel":9291,"Ã«":9292,"ĠSmith":9293,"asilian":9294,"Ġmorgen":9295,"ĠTirol":9296,"ĠEinen":9297,"usstsein":9298,"ĠStimme":9299,"ĠSÃ¤ngerin":9300,"gg":9301,"rac":9302,"ĠDurchschnitt":9303,"ĠSki":9304,"Ġplatz":9305,"ĠVorteil":9306,"ĠMathematik":9307,"ĠSet":9308,"ulpt":9309,"ĠBewertung":9310,"ĠAbitur":9311,"Ġtechnische":9312,"ĠgrundsÃ¤tzlich":9313,"ĠAstron":9314,"La":9315,"ĠFunk":9316,"Ġ(,":9317,"ĠkÃ¶rper":9318,"Ġangenommen":9319,"otter":9320,"ĠErfolge":9321,"izieren":9322,"ĠLandschafts":9323,"licherweise":9324,"fÃ¼rst":9325,"Ġchem":9326,"ĠSlow":9327,"iwodschaft":9328,"Id":9329,"ĠVereine":9330,"inzip":9331,"ĠEntwurf":9332,"album":9333,"ĠHelmut":9334,"Ġattrakt":9335,"Sk":9336,"Ġflie":9337,"arbeitete":9338,"ehnt":9339,"ĠSanta":9340,"jon":9341,"Ã¤rm":9342,"ize":9343,"ĠGramm":9344,"ĠFlag":9345,"ĠSchneider":9346,"Ã¤mpfer":9347,"ĠAngeles":9348,"alit":9349,"ĠBein":9350,"ĠausgefÃ¼hrt":9351,"forderung":9352,"Ġschweren":9353,"Ġbisherigen":9354,"ĠSocial":9355,"Bad":9356,"ĠRÃ¶m":9357,"barer":9358,"meer":9359,"ĠBlumen":9360,"ĠUnterschied":9361,"ĠRuhr":9362,"kas":9363,"becken":9364,"ĠArts":9365,"altungs":9366,"ypen":9367,"ĠMuseums":9368,"ĠInnov":9369,"Ġbecause":9370,"ĠDein":9371,"ethe":9372,"ĠMonument":9373,"ĠWeiteren":9374,"Europameister":9375,"Sen":9376,"mess":9377,"reen":9378,"Ġbeendet":9379,"ĠKonrad":9380,"SehenswÃ¼rdigkeiten":9381,"ĠDol":9382,"uts":9383,"ĠCur":9384,"âĢľ-":9385,"anzig":9386,"Ã¼tze":9387,"Ġeinzigen":9388,"Ehr":9389,"ĠFul":9390,"regel":9391,"ĠReform":9392,"Ġ1898":9393,"uropa":9394,"historiker":9395,"Jan":9396,"Kinder":9397,"neu":9398,"err":9399,"ĠPod":9400,"ĠSchach":9401,"bef":9402,"String":9403,"ĠBrig":9404,"holm":9405,"ĠgemÃ¼t":9406,"Ġvoller":9407,"fordert":9408,"Ġverab":9409,"ĠausfÃ¼hr":9410,"ĠMary":9411,"athon":9412,"Sc":9413,"iÄĩ":9414,"Ġ1916":9415,"ĠCamb":9416,"ĠverfÃ¼gen":9417,"ingu":9418,"ĠschÃ¼tzen":9419,"ardo":9420,"ques":9421,"ova":9422,"ĠPlus":9423,"ĠDaneben":9424,"ĠChicago":9425,"ĠLiter":9426,"Ġzugeordnet":9427,"edikt":9428,"Ġ1890":9429,"ĠKomposition":9430,"ĠTempel":9431,"ĠAbgeordneten":9432,"Ã¶z":9433,"Ġherum":9434,"prof":9435,"orea":9436,"prÃ¼fung":9437,"Ã¼ÃŁ":9438,"Ġaufgestellt":9439,"otion":9440,"ĠErste":9441,"âĢľ).":9442,"Ġteilnehmen":9443,"Ġversuchte":9444,"ĠAktien":9445,"ĠKommunal":9446,"ĠBonus":9447,"ĠÃĦnderungen":9448,"Ã¼ÃŁe":9449,"Ġ1915":9450,"ĠCy":9451,"obel":9452,"ĠTheologie":9453,"ĠGemeinder":9454,"ĠStephan":9455,"ights":9456,"Ġkorre":9457,"ĠAssociation":9458,"mauer":9459,"ĠFell":9460,"ĠstÃ¤ndig":9461,"Ġproblem":9462,"Mich":9463,"uns":9464,"ĠSchne":9465,"ĠKonzer":9466,"ension":9467,"ĠVerantwortung":9468,"pass":9469,"engl":9470,"ĠSauer":9471,"ĠGlei":9472,"Ġha":9473,"osa":9474,"ĠBeam":9475,"onto":9476,"Ġgering":9477,"echselt":9478,"ĠBehÃ¶rden":9479,"kommt":9480,"ĠMeeres":9481,"ĠLokomot":9482,"dlich":9483,"Ġergeben":9484,"ĠAusstattung":9485,"ĠAdel":9486,"oppelt":9487,"ĠKÃ¼hl":9488,"Bereits":9489,"ĠerhÃ¶ht":9490,"OT":9491,"ju":9492,"oire":9493,"ras":9494,"ĠAdresse":9495,"ilen":9496,"ĠAusbau":9497,"projekt":9498,"ĠVerlags":9499,"ĠSchmuck":9500,"ĠunabhÃ¤ngig":9501,"ĠMiet":9502,"Ġermittelt":9503,"Ġanf":9504,"Ġhinten":9505,"2001":9506,"Ġlandwirtschaft":9507,"Ġmet":9508,"Ġvergessen":9509,"sburger":9510,"ĠCode":9511,"2002":9512,"ĠJulius":9513,"ĠIndien":9514,"Ġverkaufen":9515,"oni":9516,"ĠKÃ¶n":9517,"jahres":9518,"ĠOrient":9519,"Ko":9520,"bte":9521,"Ġdenk":9522,"Ġgu":9523,"ppich":9524,"================":9525,"ĠdÃ¼n":9526,"ĠLit":9527,"ĠkÃ¼nft":9528,"Ġpost":9529,"ĠYo":9530,"ĠRathaus":9531,"field":9532,"post":9533,"ĠAff":9534,"ĠMut":9535,"ĠLag":9536,"ĠAngabe":9537,"paratur":9538,"ideos":9539,"Ġextra":9540,"ĠWohnzimmer":9541,"Grund":9542,"stoffen":9543,"spannung":9544,"ziehungsweise":9545,"Ġeindeut":9546,"ĠNomin":9547,"ĠWirken":9548,"minton":9549,"Ġgleiche":9550,"bacher":9551,"ĠSubst":9552,"ĠHerrn":9553,"Ðº":9554,"ĠausdrÃ¼ck":9555,"Ġstabil":9556,"ialen":9557,"fahrzeug":9558,"count":9559,"Ġregul":9560,"Aber":9561,"blichen":9562,"isierten":9563,"ikum":9564,"ĠIndex":9565,"ĠMonte":9566,"ĠTechnologie":9567,"ĠWorkshop":9568,"OC":9569,"ĠBell":9570,"ĠErich":9571,"Ġ41":9572,"nissen":9573,"erkennung":9574,"mittag":9575,"Ġumgeben":9576,"ampen":9577,"ĠBester":9578,"ĠLehre":9579,"ĠTrainings":9580,"ĠBritish":9581,"ban":9582,"motor":9583,"zert":9584,"ÃĹ":9585,"ĠSir":9586,"entwick":9587,"ĠOk":9588,"ĠMak":9589,"wirken":9590,"Ġ1880":9591,"ĠKÃ¼sten":9592,"ĠPorno":9593,"stechnik":9594,"Ġumbenannt":9595,"Mehr":9596,"Ġtem":9597,"team":9598,"ĠLangen":9599,"ĠOhne":9600,"ĠErl":9601,"klar":9602,"ĠFrucht":9603,"ĠKoordin":9604,"ĠSaal":9605,"Vert":9606,"aillen":9607,"ĠSachen":9608,"ĠgeÃ¤ndert":9609,"ĠOster":9610,"Ġuntersch":9611,"ĠGesang":9612,"laube":9613,"ĠZucker":9614,"ĠIslam":9615,"ĠregelmÃ¤ÃŁ":9616,"sinn":9617,"Ġorden":9618,"ĠOpp":9619,"ĠInstall":9620,"ĠHandball":9621,"ĠGrundlagen":9622,"kriegs":9623,"Ġprofit":9624,"ĠGelegenheit":9625,"Ed":9626,"pat":9627,"elf":9628,"Ġbestellen":9629,"Ġschm":9630,"ĠKonstruktion":9631,"ĠMerc":9632,"ĠHorst":9633,"ĠReligion":9634,"Ġdiverse":9635,"âĢ¢":9636,"ĠStab":9637,"geblich":9638,"avor":9639,"schnitten":9640,"ĠmÃ¶glichen":9641,"Holstein":9642,"ĠWart":9643,"Ġbeschlossen":9644,"Ġreligi":9645,"Ġschneller":9646,"Ġangegebenen":9647,"ĠAustausch":9648,"SP":9649,"ĠfÃ¼hl":9650,"berts":9651,"Ġhierbei":9652,"ĠPrakt":9653,"ĠTrag":9654,"astrop":9655,"fristig":9656,"GroÃŁ":9657,"ĠSul":9658,"ĠstÃ¤dt":9659,"Ġ1848":9660,"ĠAdam":9661,"ĠParameter":9662,"Che":9663,"hy":9664,"teau":9665,"Ã¶ffnet":9666,"ĠPhot":9667,"ĠSchlafzimmer":9668,"kle":9669,"zem":9670,"Ġbehaup":9671,"ĠVerdienst":9672,"ugies":9673,"ĠAufnahmen":9674,"Ġkostenlose":9675,"Ġspezielle":9676,"ĠKra":9677,"Ġverlegt":9678,"eiler":9679,"ĠGegend":9680,"ĠMittelpunkt":9681,"ĠWoiwodschaft":9682,"hes":9683,"ĠJungen":9684,"Ġwollten":9685,"Ġsoziale":9686,"BS":9687,"ĠMÃ¼hl":9688,"Ġnennt":9689,"Ġbeziehungsweise":9690,"artikel":9691,"anzeigen":9692,"Ġbestehenden":9693,"griffen":9694,"national":9695,"ĠVerzeichnis":9696,"vergleich":9697,"arbeitern":9698,"aiser":9699,"Ġstattfinden":9700,"ged":9701,"ĠFan":9702,"ĠTu":9703,"essin":9704,"ĠHochschullehrer":9705,"ĠWhite":9706,"ites":9707,"ĠBewer":9708,"Ġ1901":9709,"ĠBereiche":9710,"ĠEindruck":9711,"NA":9712,"UT":9713,"kÃ¼n":9714,"aud":9715,"arben":9716,"uro":9717,"ĠMr":9718,"ĠNeum":9719,"spunkt":9720,"wirk":9721,"Ġeingetragen":9722,"ĠDonnerstag":9723,"inzen":9724,"anie":9725,"Ġinkl":9726,"ĠUfer":9727,"ĠNachwuchs":9728,"client":9729,"Spieler":9730,"UNG":9731,"ĠSowjetunion":9732,"Gen":9733,"schritt":9734,"ĠAnmeldung":9735,"Ġ1870":9736,"ĠHandy":9737,"ĠrÃ¶mischen":9738,"ĠOpern":9739,"bieren":9740,"ny":9741,"elor":9742,"Ã¤g":9743,"akademie":9744,"ĠJeder":9745,"ĠHalbfinale":9746,"Fluss":9747,"ĠBildern":9748,"Et":9749,"vater":9750,"chip":9751,"Ġfung":9752,"isc":9753,"sbruck":9754,"Ġteils":9755,"ĠÃ¤lteste":9756,"Ġsichtbar":9757,"ĠSak":9758,"Ġleist":9759,"ĠOrten":9760,"ĠFreien":9761,"ĠBrÃ¼der":9762,"ĠTÃ¶chter":9763,"Buch":9764,"Ro":9765,"zell":9766,"decke":9767,"umer":9768,"Ġeigener":9769,"ĠModel":9770,"jÃ¤hriger":9771,"ĠRisiko":9772,"rische":9773,"ence":9774,"eise":9775,"ĠAdr":9776,"eton":9777,"ĠanschlieÃŁen":9778,"ĠGemeinsam":9779,"ĠOberflÃ¤che":9780,"Ġ110":9781,"Ġergibt":9782,"ĠSchild":9783,"ĠVerw":9784,"Ġbesetzt":9785,"Ġgelesen":9786,"Ġendet":9787,"1999":9788,"aster":9789,"sey":9790,"Ġzweiter":9791,"ĠreprÃ¤sent":9792,"lÃ¤ndischer":9793,"ĠAmsterdam":9794,"chern":9795,"Ġliter":9796,"Ġschwei":9797,"idae":9798,"Ã¤ndige":9799,"Ġgelungen":9800,"fÃ¤llen":9801,"ĠKaffee":9802,"mes":9803,"ĠMeyer":9804,"Ġberaten":9805,"Ins":9806,"ĠOperation":9807,"Kirchen":9808,"ĠIngenieur":9809,"Digital":9810,"brÃ¼":9811,"Ġeinfachen":9812,"ĠManager":9813,"ĠplÃ¶t":9814,"Ġschaff":9815,"usk":9816,"hÃ¤ltnisse":9817,"mont":9818,"auben":9819,"Ġbayer":9820,"Ġmont":9821,"ĠPian":9822,"aufbau":9823,"iedelt":9824,"verteid":9825,"denkmale":9826,"Ġparallel":9827,"Ġdunkel":9828,"institut":9829,"ĠToten":9830,"ĠAns":9831,"Ġvorne":9832,"izierten":9833,"aiss":9834,"ĠbeschÃ¤d":9835,"ĠLÃ¶wen":9836,"ms":9837,"ļŃ":9838,"entin":9839,"entum":9840,"ĠZut":9841,"ĠAlte":9842,"zahlt":9843,"ĠJunioren":9844,"Ġwissenschaftlichen":9845,"Ġallgemeinen":9846,"Ġgetrennt":9847,"ĠHav":9848,"ĠVar":9849,"ĠCop":9850,"lines":9851,"version":9852,"oppen":9853,"Ġmittelalter":9854,"ĠTonnen":9855,"ehend":9856,"ĠWeltmeisterschaft":9857,"ĠEdward":9858,"ĠJugendliche":9859,"Ġoffiziellen":9860,"Ġkontakt":9861,"ĠKrankheit":9862,"sprÃ¼che":9863,"Vol":9864,"ĠPreuÃŁ":9865,"Ġsoweit":9866,"ĠKonzentr":9867,"ĠNationalmannschaft":9868,"Ġbewusst":9869,"Mill":9870,"bein":9871,"ĠKabel":9872,"ĠWunder":9873,"Ġkontroll":9874,"Ġgarten":9875,"Ġpo":9876,"ĠGewerk":9877,"wohnung":9878,"ĠManfred":9879,"SU":9880,"ĠBiele":9881,"ĠMie":9882,"ĠArmen":9883,"ĠHammer":9884,"direktor":9885,"ĠÃ¶stlichen":9886,"ĠEast":9887,"ami":9888,"ĠSchreib":9889,"Ã¤nk":9890,"itions":9891,"ĠStreet":9892,"Ġfreie":9893,"Ġpositiv":9894,"fir":9895,"Ã¤sche":9896,"emden":9897,"ĠFinn":9898,"ktiv":9899,"ĠSpieltag":9900,"legte":9901,"Ġorganisiert":9902,"ĠÃĦrzte":9903,"PersÃ¶n":9904,"kanz":9905,"instr":9906,"sens":9907,"ĠZusÃ¤tzlich":9908,"rip":9909,"ript":9910,"Ã¤rn":9911,"ĠBibli":9912,"ĠSankt":9913,"ĠAsien":9914,"fÃ¶rmig":9915,"Tour":9916,"degang":9917,"Ġ08":9918,"ĠaufgefÃ¼hrt":9919,"ĠNorwegen":9920,"leutnant":9921,"ĠSomit":9922,"Ġbot":9923,"opul":9924,"RÃ¶m":9925,"fo":9926,"Ġfuhr":9927,"ĠHÃ¼":9928,"ĠRay":9929,"ĠVI":9930,"ĠCorn":9931,"ĠGewerbe":9932,"ĠAusfÃ¼hrung":9933,"Ġgenauso":9934,"Ġ1899":9935,"ĠNetwork":9936,"Ġpersonenbezogen":9937,"ĠKathar":9938,"ĠJena":9939,"Ġgezogen":9940,"ĠCam":9941,"ÃŁig":9942,"verkehrs":9943,"rel":9944,"ĠSens":9945,"Ġweite":9946,"Ġvari":9947,"ĠGÃ¶":9948,"Ġnationalen":9949,"sequ":9950,"ĠBegeg":9951,"ĠGlob":9952,"ĠMÃ¼nchner":9953,"Ã¤fte":9954,"ĠKul":9955,"ĠPed":9956,"Programm":9957,"ĠGrafik":9958,"Ġgetroffen":9959,"ĠLÃ¼beck":9960,"andern":9961,"schel":9962,"ĠFraktion":9963,"ĠLong":9964,"ĠLife":9965,"ĠÃ¼berall":9966,"Ġ/>":9967,"ergie":9968,"Ġurkund":9969,"ĠgegrÃ¼ndeten":9970,"Ġzentrale":9971,"ĠChampion":9972,"ĠKann":9973,"ĠLande":9974,"ĠHandwerk":9975,"ĠGrundstÃ¼ck":9976,"Ġkurzer":9977,"ĠDienstleistungen":9978,"Ġabsolut":9979,"ĠPortugal":9980,"ĠVermÃ¶gen":9981,"Ġseitdem":9982,"ĠProdukten":9983,"ĠMotorrad":9984,"analyse":9985,"ĠKrie":9986,"Ġgeeig":9987,"Ġbisschen":9988,"Ġgelangen":9989,"bildungen":9990,"alisieren":9991,"Ġauftreten":9992,"architektur":9993,"ĠNationalsozialismus":9994,"Ġdokument":9995,"ĠVerwand":9996,"alliga":9997,"etzter":9998,"anteil":9999,"ĠÃ¶k":10000,"ĠAnhÃ¤nger":10001,"Ã¼che":10002,"ĠFantas":10003,"Ã¶der":10004,"ista":10005,"menge":10006,"assau":10007,"Schl":10008,"entral":10009,"ĠIndian":10010,"ythm":10011,"gÃ¤nglich":10012,"yk":10013,"Ġflex":10014,"ilme":10015,"ĠSchatten":10016,"istet":10017,"Ã¼ckt":10018,"retung":10019,"ĠDennoch":10020,"Ġerwarten":10021,"ni":10022,"gezogen":10023,"attet":10024,"ĠFinger":10025,"ĠUmfang":10026,"ĠKapitel":10027,"ĠAltstadt":10028,"Ã¤mpfe":10029,"ĠGipfel":10030,"Dr":10031,"alom":10032,"ĠGames":10033,"genden":10034,"Ġ47":10035,"Staffel":10036,"wertungen":10037,"Ġrechte":10038,"Ġlokalen":10039,"ding":10040,"luft":10041,"uen":10042,"ĠÃ¼berzeugen":10043,"ĠStraÃŁ":10044,"ĠDÃ¤nemark":10045,"Ġbeinhaltet":10046,"russ":10047,"ĠZubehÃ¶r":10048,"otischen":10049,"Ġ52":10050,"ĠbesaÃŁ":10051,"ĠNiederlage":10052,"ĠAllgemeinen":10053,"Ġgefertigt":10054,"Krit":10055,"brechen":10056,"imen":10057,"laufen":10058,"wettbewerb":10059,"aro":10060,"ĠErf":10061,"Ã¼tten":10062,"ĠRegeln":10063,"geschwindigkeit":10064,"ĠNeustadt":10065,"ĠForder":10066,"fÃ¤llig":10067,"Å¾":10068,"inett":10069,"Ã¤udes":10070,"Datei":10071,"ĠWÃ¤rme":10072,"Franz":10073,"Ġachten":10074,"Ġsyn":10075,"Ġgebe":10076,"ĠBeat":10077,"stete":10078,"ĠOrchester":10079,"fahrts":10080,"alerweise":10081,"wendungs":10082,"ĠHinweise":10083,"Nationalmannschaft":10084,"Di":10085,"Wei":10086,"onstr":10087,"geht":10088,"oland":10089,"Ġzufolge":10090,"verhalten":10091,"forscher":10092,"ĠKÃ¶lner":10093,"systeme":10094,"Â§":10095,"ĠLam":10096,"ĠLED":10097,"ĠVÃ¶lker":10098,"meter":10099,"ĠFÃ¼hrer":10100,"ĠAlternative":10101,"ĠBarbara":10102,"Bew":10103,"ĠNation":10104,"roid":10105,"Ġlog":10106,"ĠĊĠ":10107,"Ġscheiter":10108,"ĠSprecher":10109,"gebirge":10110,"ĠPhase":10111,"ĠLieb":10112,"ĠPerform":10113,"Ġindividuelle":10114,"Fried":10115,"Max":10116,"bungs":10117,"mine":10118,"Ġkost":10119,"Ġaufs":10120,"Ġauseinander":10121,"Ã¼nden":10122,"etzungen":10123,"rufen":10124,"Ġunterhalb":10125,"ĠGrÃ¼ndungs":10126,"plement":10127,"Ġwasser":10128,"ĠGroÃŁteil":10129,"ĠFranzisk":10130,"Ġfindest":10131,"ĠHighl":10132,"gier":10133,"Ã¼ÃŁen":10134,"ĠId":10135,"estern":10136,"ĠÃĦg":10137,"ĠMichel":10138,"ĠdÃ¼rfte":10139,"zÃ¤hlung":10140,"ĠHockey":10141,"Ġlatein":10142,"Ġgelegt":10143,"Jahren":10144,"ĠLiber":10145,"ĠursprÃ¼nglichen":10146,"ĠKG":10147,"Ġ1860":10148,"hain":10149,"ĠAmateur":10150,"ĠĠĠ":10151,"ĠAtmosphÃ¤re":10152,"Museum":10153,"Ġpassende":10154,"Ġerstreckt":10155,"Ð»":10156,"ieh":10157,"ĠSav":10158,"ĠMay":10159,"ĠBesetzung":10160,"merksamkeit":10161,"hab":10162,"asi":10163,"isen":10164,"owitsch":10165,"Ġco":10166,"ologien":10167,"Anhalt":10168,"ĠInnsbruck":10169,"beln":10170,"wel":10171,"alem":10172,"ĠhieÃŁ":10173,"teilte":10174,"Ġtrans":10175,"ĠBom":10176,"ĠVe":10177,"ador":10178,"rice":10179,"ĠQuart":10180,"Ġbelg":10181,"atorium":10182,"ĠModerne":10183,"afr":10184,"Ġries":10185,"ilometer":10186,"ĠÃ¼bert":10187,"phase":10188,"ĠMini":10189,"verbindung":10190,"ĠArbeitgeber":10191,"Ġoffizielle":10192,"zustand":10193,"fu":10194,"ĠGame":10195,"amburg":10196,"ĠTick":10197,"Ġop":10198,"Ġjur":10199,"ĠKlub":10200,"braun":10201,"not":10202,"ĠPow":10203,"ĠWasch":10204,"ĠAnth":10205,"ĠVorbereitung":10206,"ĠVersorgung":10207,"wahlen":10208,"ĠErnÃ¤hrung":10209,"ĠMehrheit":10210,"ĠBurgen":10211,"ĠGleichzeitig":10212,"Ġperfekte":10213,"ĠMountain":10214,"ĠRon":10215,"irchen":10216,"spitze":10217,"Ġentschied":10218,"Ġalleine":10219,"Ġangeschlossen":10220,"ĠFriedens":10221,"ĠMah":10222,"ĠWen":10223,"Ġerlang":10224,"ingung":10225,"ĠAufl":10226,"ÃŃa":10227,"ĠPortal":10228,"ĠÃ¤ltesten":10229,"ĠEntfernung":10230,"hÃ¼ter":10231,"weiten":10232,"atze":10233,"esearch":10234,"ĠLizenz":10235,"Gesellschaft":10236,"Ġegal":10237,"ĠKe":10238,"ĠTode":10239,"berater":10240,"ĠPlÃ¤tze":10241,"rath":10242,"soap":10243,"ĠBaumw":10244,"ĠPack":10245,"portal":10246,"Ġgespeichert":10247,"lim":10248,"true":10249,"ÄĽ":10250,"erz":10251,"ĠGab":10252,"ĠLor":10253,"soft":10254,"ĠOrganisationen":10255,"Ġindividuellen":10256,"Ġrussischer":10257,"ĠwÃ¼nschen":10258,"chipkarte":10259,"Ġsen":10260,"ĠMang":10261,"Ġebenda":10262,"Ġ1895":10263,"Ġ1896":10264,"Ġbewegen":10265,"ĠhÃ¶heren":10266,"Ġbequem":10267,"Peter":10268,"ĠBit":10269,"ĠTol":10270,"musiker":10271,"Ã¤nderte":10272,"ĠKrist":10273,"ĠFernsehserie":10274,"Ġpraktisch":10275,"ĠJesu":10276,"elbe":10277,"ĠAgent":10278,"ĠDeine":10279,"fahrten":10280,"ĠGemÃ¼se":10281,"ĠPriv":10282,"ĠÃ¤uÃŁer":10283,"Element":10284,"Ġintensiv":10285,"Hinter":10286,"pern":10287,"ures":10288,"ĠVil":10289,"ĠJubil":10290,"ĠObst":10291,"ĠEins":10292,"ature":10293,"orenz":10294,"ĠVenedig":10295,"kw":10296,"genossen":10297,"ĠHow":10298,"ĠRal":10299,"ĠAnwesen":10300,"ammelt":10301,"ĠkÃ¶nig":10302,"ated":10303,"ĠGemÃ¤lde":10304,"ragende":10305,"ĠOxford":10306,"Rechts":10307,"Ġdenken":10308,"reistrÃ¤ger":10309,"ĠspÃ¤ten":10310,"Ġphys":10311,"ku":10312,"ĠLar":10313,"utsch":10314,"lied":10315,"ĠEuropas":10316,"ĠAtlant":10317,"strecken":10318,"ĠProduktions":10319,"Ġpassenden":10320,"well":10321,"schall":10322,"ĠDVD":10323,"ĠWupp":10324,"ĠHÃ¤nde":10325,"anni":10326,"ĠKÃ¶nigin":10327,"Phil":10328,"ĠKoll":10329,"ĠKalifornien":10330,"Ġgeile":10331,"ĠCour":10332,"staaten":10333,"Eishockeyspieler":10334,"BB":10335,"Res":10336,"kal":10337,"Ġsc":10338,"ĠBenz":10339,"Ġbesucht":10340,"Ġeleg":10341,"Ġwissenschaftliche":10342,"ĠAutobahn":10343,"omer":10344,"ackt":10345,"leistungs":10346,"ĠDissertation":10347,"Ġleichter":10348,"ĠInfanterie":10349,"ĠMix":10350,"Ġlautet":10351,"Ġdeinen":10352,"onial":10353,"ĠBos":10354,"ĠDJ":10355,"ĠMis":10356,"gesellschaften":10357,"Ġlieber":10358,"ĠBauwerk":10359,"ĠAdvent":10360,"sprozess":10361,"ĠTourismus":10362,"ĠGefangen":10363,"ĠMagdeburg":10364,"./":10365,"SPD":10366,"TE":10367,"mond":10368,"pool":10369,"dep":10370,"iler":10371,"rahmen":10372,"ĠAuszeichnung":10373,"brand":10374,"spruchs":10375,"ĠFotograf":10376,"Ġdurfte":10377,"Dan":10378,"esien":10379,"ĠMath":10380,"ĠWik":10381,"ĠSpekt":10382,"Ã³w":10383,"ĠErotik":10384,"ĠzuverlÃ¤ss":10385,"ĠMaschine":10386,"fangs":10387,"design":10388,"Ost":10389,"bor":10390,"spur":10391,"ĠBlÃ¤tter":10392,"Ġbegeistert":10393,"ĠReifen":10394,"Ġerfolgreichen":10395,"><":10396,"ĠMotto":10397,"quest":10398,"Ġspielten":10399,"ĠZugriff":10400,"IE":10401,"ĠLib":10402,"ĠNick":10403,"ĠRohr":10404,"Hein":10405,"kolle":10406,"einheiten":10407,"ĠPas":10408,"merk":10409,"Ã¶rg":10410,"Ġentdecken":10411,"ĠAufsicht":10412,"ĠWeltkrieges":10413,"ĠFormat":10414,"straÃŁen":10415,"Ġvorhandenen":10416,"Jahre":10417,"Familie":10418,"Ġsauber":10419,"ĠGall":10420,"beratung":10421,"Ã¼re":10422,"ĠNatÃ¼rlich":10423,"ĠSpÃ¤t":10424,"ĠUmfeld":10425,"worfen":10426,"Filmografie":10427,"Ġideen":10428,"ĠErweiterung":10429,"ĠGrÃ¶ÃŁen":10430,"At":10431,"Ne":10432,"à¤":10433,"inus":10434,"star":10435,"ĠSaar":10436,"ĠMarburg":10437,"ĠKlar":10438,"ĠBauch":10439,"Ġwelchen":10440,"Ġehe":10441,"ĠInternationale":10442,"ĠDienstag":10443,"ĠRechtsanwalt":10444,"ĠRiesen":10445,"Constants":10446,"MÃ¤rz":10447,"Text":10448,"undet":10449,"tend":10450,"ĠLiv":10451,"lichem":10452,"ĠSchreiben":10453,"Ġvorstellen":10454,"Schn":10455,"ĠSchwanz":10456,"gewinn":10457,"Ġverletzt":10458,"ĠKÃ¼ste":10459,"ĠHinweis":10460,"ĠgetÃ¶":10461,"stoÃŁ":10462,"ĠPhysik":10463,"hamm":10464,"ĠerfÃ¼llt":10465,"ĠerfÃ¼llen":10466,"Ġliefern":10467,"ĠPfad":10468,"ĠIntegration":10469,"Je":10470,"winkel":10471,"Ġstil":10472,"echter":10473,"ĠMari":10474,"ommerz":10475,"methode":10476,"pflanzen":10477,"jenigen":10478,"ĠsÃ¤mtliche":10479,"franzÃ¶s":10480,"ĠPots":10481,"ogn":10482,"rants":10483,"aki":10484,"rond":10485,"folgung":10486,"besitz":10487,"ĠKanal":10488,"ĠFrÃ¼hstÃ¼ck":10489,"cycl":10490,"ĠThÃ¼ringen":10491,"ress":10492,"Ġdomin":10493,"Ġser":10494,"ĠPflicht":10495,"Regiment":10496,"Ġpolnischen":10497,"Ġausreichend":10498,"ĠWagner":10499,"ĠHÃ¶chst":10500,"rischen":10501,"ĠPred":10502,"rav":10503,"ĠUmsatz":10504,"hold":10505,"ĠFreunden":10506,"ĠAuge":10507,"Ġprivat":10508,"Ġbegannen":10509,"Ġehren":10510,"oul":10511,"Ġnied":10512,"ĠschlieÃŁen":10513,"ĠEnsem":10514,"rates":10515,"??":10516,"DAP":10517,"OM":10518,"itis":10519,"ĠMinder":10520,"Ġnorweg":10521,"Ġgrau":10522,"Ġvieler":10523,"ĠJugendlichen":10524,"Ġherausgegeben":10525,"hÃ¤ngig":10526,"Ġ1871":10527,"ĠÃ¶sterreichische":10528,"gehÃ¶rige":10529,"mension":10530,"ĠZer":10531,"spreis":10532,"Ġstation":10533,"rauben":10534,"ĠGeschichts":10535,"Ġlegt":10536,"andeur":10537,"tragung":10538,"Ġverurteilt":10539,"Teil":10540,"hart":10541,"sorge":10542,"ĠBy":10543,"Ġgolden":10544,"ĠAufmerksamkeit":10545,"Stiftung":10546,"Ã¼lle":10547,"ĠheiÃŁen":10548,"ĠSchiffs":10549,"ĠElect":10550,"ĠerklÃ¤ren":10551,"ĠEduard":10552,"ĠGÃ¶t":10553,"anner":10554,"Ġverteilt":10555,"vern":10556,"Ġbestritt":10557,"ĠMond":10558,"Ġgutes":10559,"ĠRuh":10560,"Ġglob":10561,"ĠMalerei":10562,"ĠVerbreitung":10563,"messen":10564,"Ġnam":10565,"ĠAbstand":10566,"Ġlehr":10567,"Ġgestern":10568,"ĠAuftritt":10569,"Ã¶gel":10570,"ĠUlt":10571,"ĠAuswirkungen":10572,"Projekt":10573,"freien":10574,"ĠOffizier":10575,"Ġdeutschsprachigen":10576,"Kategorie":10577,"flex":10578,"gon":10579,"ÅĦ":10580,"leute":10581,"ĠNow":10582,"beam":10583,"ĠMannheim":10584,"ĠFreundin":10585,"ĠhÃ¶here":10586,"ĠÃ¼bernimmt":10587,"ĠVerfassungs":10588,"ĠKommentare":10589,"bal":10590,"jan":10591,"blemen":10592,"ĠBres":10593,"Ġabgest":10594,"fÃ¼ll":10595,"ĠBestellung":10596,"unnen":10597,"asien":10598,"Ġinvest":10599,"Ġfa":10600,"ĠWellen":10601,"ush":10602,"weichen":10603,"oslowak":10604,"bronn":10605,"gendes":10606,"ĠAlli":10607,"ĠOscar":10608,"Ġbedeutend":10609,"bilden":10610,"ĠErinnerung":10611,"ĠBull":10612,"ems":10613,"ĠLas":10614,"ĠanlÃ¤sslich":10615,"Ġlive":10616,"Ġvorwiegend":10617,"ĠHeiz":10618,"gebieten":10619,"ieck":10620,"arrei":10621,"ĠMach":10622,"ahrt":10623,"Ã¤ndigen":10624,"schef":10625,"ĠBiograph":10626,"Ġitalienische":10627,"ĠÃ¶rt":10628,"Ġverste":10629,"stero":10630,"Ġ51":10631,"ĠGeschlech":10632,"Ġaktiven":10633,"Ġ1892":10634,"Ġ1893":10635,"macher":10636,"Ġalter":10637,"ĠBremer":10638,"Ġverstorben":10639,"Ġerfolgen":10640,"rimin":10641,"ĠGlocken":10642,"Martin":10643,"Service":10644,"gung":10645,"oÃŁ":10646,"Ġmobil":10647,"ĠKalk":10648,"Ã¼rzt":10649,"Ġliefer":10650,"ĠKontakte":10651,"Kat":10652,"cast":10653,"ĠGirl":10654,"ĠHagen":10655,"ĠTob":10656,"Ġverboten":10657,"ĠArthur":10658,"ĠUniversitÃ¤ten":10659,"ĠCoach":10660,"setzer":10661,"ĠXX":10662,"zusetzen":10663,"Archite":10664,"nieder":10665,"standen":10666,"ĠSoph":10667,"ĠDub":10668,"ĠLaden":10669,"indungs":10670,"ĠÃ¼bersetzt":10671,"ĠSpec":10672,"pper":10673,"Ġdiesmal":10674,"ĠSeen":10675,"1996":10676,"ĠAthen":10677,"Ġamerikanische":10678,"studium":10679,"Ġgarantiert":10680,"Zwischen":10681,"dh":10682,"ĠTsch":10683,"Ġerober":10684,"ĠÃ¼berzeugt":10685,"ĠEinstellung":10686,"schiede":10687,"Ġbrasilian":10688,"Ġholz":10689,"Kn":10690,"Karl":10691,"RA":10692,"ĠBatter":10693,"ĠDur":10694,"ĠHeck":10695,"irr":10696,"ĠPlattform":10697,"ĠangehÃ¶r":10698,"ĠRegensburg":10699,"ĠAussage":10700,"bÃ¼rgermeister":10701,"Ihr":10702,"kÃ¼ste":10703,"ĠFett":10704,"isburg":10705,"ĠAnlass":10706,"ĠImmer":10707,"zeugung":10708,"vertreter":10709,"rÃ¼nder":10710,"ĠApost":10711,"ĠGetrÃ¤n":10712,"ĠVerstÃ¤ndnis":10713,"aissance":10714,"NS":10715,"kow":10716,"ĠMuss":10717,"ĠEier":10718,"ĠSpitz":10719,"antes":10720,"Ġoffenbar":10721,"zeits":10722,"ĠBÃ¤nde":10723,"ĠMi":10724,"ĠEugen":10725,"ĠPenn":10726,"Ġbezieht":10727,"ĠErÃ¶ffnung":10728,"Ġnachfolgen":10729,"aps":10730,"ĠFremd":10731,"ĠBelgien":10732,"ĠFrÃ¼hl":10733,"Ġbessere":10734,"ĠVerfassung":10735,"ĠTemperaturen":10736,"Ġarch":10737,"Ġaltern":10738,"blenz":10739,"Ã¤lter":10740,"schieht":10741,"ĠAutos":10742,"Nov":10743,"bÃ¶":10744,"aming":10745,"ĠSchÃ¤den":10746,"heben":10747,"ĠSpir":10748,"Insel":10749,"format":10750,"ĠApple":10751,"ĠMittler":10752,"ĠEingabe":10753,"ĠKandidaten":10754,"Sein":10755,"|-":10756,"ĠPay":10757,"ĠRio":10758,"ĠSieben":10759,"otheken":10760,"don":10761,"Ãª":10762,"ĠStich":10763,"rator":10764,"Ã¤use":10765,"Ġgekauft":10766,"sendung":10767,"ĠprÃ¤sentieren":10768,"ĠSha":10769,"ĠEth":10770,"Ġleitet":10771,"ĠErlebnis":10772,"essischen":10773,"ĠEigentum":10774,"ĠnatÃ¼rlichen":10775,"zÃ¼g":10776,"uminium":10777,"ĠAnzeige":10778,"EE":10779,"pers":10780,"ĠSendung":10781,"ito":10782,"ĠKino":10783,"Ã¶scht":10784,"Ġumgesetzt":10785,"Ã¶rse":10786,"Ã¤rzt":10787,"Ġgedacht":10788,"bibliothek":10789,"Ġerinnern":10790,"DS":10791,"lar":10792,"ziel":10793,"ĠMeine":10794,"Ġgleicher":10795,"scheidung":10796,"ĠDisziplin":10797,"ĠVerÃ¶ffentlichungen":10798,"Kirche":10799,"ĠergÃ¤nzt":10800,"EMail":10801,"Is":10802,"Maler":10803,"dorfer":10804,"var":10805,"ĠLabel":10806,"leun":10807,"ĠCav":10808,"ĠUt":10809,"ĠAusbildungs":10810,"ĠUmbau":10811,"ĠWohnungen":10812,"ĠWahlkreis":10813,"ĠSenioren":10814,"Home":10815,"sort":10816,"orp":10817,"ĠMes":10818,"ĠFehl":10819,"ĠWÃ¶rter":10820,"ĠLew":10821,"ĠStiefel":10822,"ĠSchott":10823,"antel":10824,"bleiben":10825,"Ġ85":10826,"Ġzentralen":10827,"ION":10828,"ĠBrot":10829,"ason":10830,"ĠflieÃŁt":10831,"irk":10832,"ĠJones":10833,"antast":10834,"ĠGrill":10835,"ĠOrch":10836,"ĠRekord":10837,"Ġ1897":10838,"gesetzten":10839,"ĠmÃ¶gliche":10840,"cz":10841,"gal":10842,"ror":10843,"set":10844,"stem":10845,"Ġbeit":10846,"Ġbreiten":10847,"ĠLinz":10848,"usste":10849,"eilungen":10850,"ĠÃł":10851,"ĠSysteme":10852,"tritt":10853,"Ġgeblieben":10854,"Ġmeistens":10855,"ĠÃ¤uÃŁerst":10856,"Hallo":10857,"Pal":10858,"ĠGreg":10859,"ĠfÃ¶rdern":10860,"Ġverarbeitet":10861,"ĠIng":10862,"ĠLabor":10863,"ĠKÃ¼r":10864,"Ġverlei":10865,"ĠAnerkennung":10866,"hnte":10867,"ĠSpur":10868,"stellig":10869,"attle":10870,"ĠBruch":10871,"Ã¤mm":10872,"ĠPoliz":10873,"Ġdortigen":10874,"ĠKantons":10875,"DA":10876,"FB":10877,"vas":10878,"Ġreichen":10879,"ĠEw":10880,"Ġbezeichnete":10881,"ĠBenedikt":10882,"ĠâļŃ":10883,"Ġspeziellen":10884,"Ġoptimal":10885,"Ġresult":10886,"Dam":10887,"viertel":10888,"atis":10889,"Ġfehlt":10890,"ĠHas":10891,"imit":10892,"Ġ1888":10893,"Ġvermeiden":10894,"ĠDekor":10895,"hochschule":10896,"ĠBielefeld":10897,"Handlung":10898,"gelt":10899,"ĠStÃ¼cke":10900,"estand":10901,"glas":10902,"Ġerfolgreiche":10903,"ĠEpisoden":10904,"ĠLeinwand":10905,"Ben":10906,"ilit":10907,"ĠAnne":10908,"ivision":10909,"stellers":10910,"zweck":10911,"ĠOldenburg":10912,"Ġ1889":10913,"produkte":10914,"strahlung":10915,"ĠCambridge":10916,"ĠKim":10917,"ĠLine":10918,"here":10919,"Stra":10920,"ĠWerbung":10921,"ĠweiÃŁen":10922,"iques":10923,"ĠBochum":10924,"bn":10925,"ĠBrau":10926,"ĠkrÃ¤":10927,"Ġrum":10928,"geschicht":10929,"Ġ1500":10930,"egenheiten":10931,"Ġ01":10932,"regisseur":10933,"Prof":10934,"angebote":10935,"ĠRettungs":10936,"sÃ¤nger":10937,"ĠkÃ¼nd":10938,"Ġstimm":10939,"haven":10940,"Prozent":10941,"ĠAlexand":10942,"Ġtraditionellen":10943,"spartner":10944,"Ġreduziert":10945,"Bez":10946,"List":10947,"MP":10948,"MÃ¼n":10949,"turm":10950,"ĠBrie":10951,"aszin":10952,"ĠTeu":10953,"geboren":10954,"baute":10955,"zeichneten":10956,"ĠEntstehung":10957,"schnitte":10958,"schuld":10959,"Ġniemand":10960,"iateilnehmer":10961,"Gu":10962,"ĠWeber":10963,"ĠAwards":10964,"ĠHugo":10965,"FF":10966,"Plan":10967,"constants":10968,"ves":10969,"ĠEh":10970,"ĠTelef":10971,"ĠLange":10972,"Ã¤nomen":10973,"ffizienz":10974,"Ġenglische":10975,"Ġmonat":10976,"ĠAufenthalt":10977,"Ġportugies":10978,"ĠKÃ¼nste":10979,"Sow":10980,"passen":10981,"ĠDynam":10982,"ĠHektar":10983,"reck":10984,"ĠzugÃ¤nglich":10985,"imir":10986,"ope":10987,"ĠUni":10988,"ĠReparatur":10989,"ĠRoad":10990,"ĠMonats":10991,"ĠspÃ¤tere":10992,"ementen":10993,"ĠverstÃ¤rkt":10994,"Vom":10995,"Ã¼cher":10996,"ĠAx":10997,"ĠBob":10998,"ĠGriff":10999,"ĠZDF":11000,"ĠErklÃ¤rung":11001,"Ġjen":11002,"ĠWeiterlesen":11003,"swald":11004,"Ġrussische":11005,"kapelle":11006,"ĠGebiete":11007,"ĠBrunnen":11008,"Nicht":11009,"lein":11010,"Ġbreite":11011,"ĠDass":11012,"aga":11013,"adbach":11014,"uliert":11015,"block":11016,"lÃ¤uter":11017,"1998":11018,"ĠGefÃ¤ngnis":11019,"Ã¤dagoge":11020,"Ġakzept":11021,"mÃ¤r":11022,"ĠMeld":11023,"ĠKohlen":11024,"ĠWerken":11025,"ĠBuchstaben":11026,"konstruktion":11027,"Ġangebracht":11028,"Ġroten":11029,"ĠVerbesserung":11030,"ĠSehenswÃ¼rdigkeiten":11031,"ĠPierre":11032,"ettet":11033,"imer":11034,"ĠBeach":11035,"ĠGeschwindigkeit":11036,"Ġweisen":11037,"ĠWerkstatt":11038,"Ġfrisch":11039,"abilitÃ¤t":11040,"VerÃ¶ffentlicht":11041,"ĠberÃ¼cksichtigt":11042,"LAN":11043,"TA":11044,"Â³":11045,"unken":11046,"arett":11047,"ĠKam":11048,"ĠTax":11049,"ĠSpuren":11050,"barung":11051,"omputer":11052,"holung":11053,"Ġweshalb":11054,"Ġhochwertige":11055,"inuier":11056,"ĠTan":11057,"Ġhum":11058,"ĠZe":11059,"verkauf":11060,"Schule":11061,"ĠDrittel":11062,"Ġbeliebt":11063,"planung":11064,"Ġleisten":11065,"ĠRumÃ¤n":11066,"Ġunbekannt":11067,"san":11068,"ĠKreu":11069,"ĠFeucht":11070,"ĠJunge":11071,"echnung":11072,"Ġ1891":11073,"Ġ1894":11074,"ĠAltar":11075,"Ġstartet":11076,"ĠBotschafter":11077,"ĠSmartphone":11078,"Beg":11079,"Ġvia":11080,"ĠBÃ¼nd":11081,"hrop":11082,"olen":11083,"ĠVorstellung":11084,"Ġbefest":11085,"ĠauÃŁergewÃ¶hn":11086,"Ġschwarzen":11087,"sicherheit":11088,"ĠendgÃ¼ltig":11089,"Jugend":11090,"Î±":11091,"orien":11092,"Ġbraun":11093,"olph":11094,"ĠRessour":11095,"ĠgeÃ¶ffnet":11096,"1990":11097,"Ġinformiert":11098,"ĠEigentÃ¼mer":11099,"EU":11100,"ICH":11101,"unc":11102,"schwei":11103,"ĠPlast":11104,"ione":11105,"Ġzugelassen":11106,"Ã¶nt":11107,"wies":11108,"Anmerkungen":11109,"ĠBeton":11110,"ĠAntonio":11111,"Ġideal":11112,"ĠPsychologie":11113,"stehenden":11114,"datum":11115,"MA":11116,"einsatz":11117,"ĠFokus":11118,"ĠZell":11119,"ipend":11120,"Ġ04":11121,"Ã¼lern":11122,"ixel":11123,"ĠbefÃ¶rdert":11124,"Ġintegriert":11125,"ĠAttrib":11126,"ĠFÃ¼nf":11127,"ĠFitness":11128,"Wilhelm":11129,"Fest":11130,"hÃ¤nge":11131,"hÃ¤ngen":11132,"nd":11133,"ĠDra":11134,"ĠPseud":11135,"Ġfu":11136,"Dies":11137,"Ġ56":11138,"Ġ59":11139,"ĠSupp":11140,"Ġbestehende":11141,"ĠVorstands":11142,"irch":11143,"seh":11144,"Ġoper":11145,"acker":11146,"ontrol":11147,"Ġmittleren":11148,"ĠKonflikt":11149,"Bar":11150,"pommern":11151,"Ġentlassen":11152,"Ġspanischen":11153,"schlÃ¼sse":11154,"ĠWerbe":11155,"ĠNiederlande":11156,"ĠBernd":11157,"ĠgegrÃ¼ndete":11158,"ituationen":11159,"ĠVorteile":11160,"ĠDiplom":11161,"Produktion":11162,"bu":11163,"lassung":11164,"saison":11165,"ulin":11166,"issar":11167,"ĠDev":11168,"Ġschnelle":11169,"ĠNeur":11170,"ĠMagn":11171,"ĠAmerika":11172,"ĠÅł":11173,"Ġsepar":11174,"Po":11175,"atische":11176,"ĠHals":11177,"ĠTauf":11178,"beruf":11179,"ĠStau":11180,"Ġoption":11181,"ocke":11182,"ĠVereinigung":11183,"ĠRÃ¤ume":11184,"Frankreich":11185,"ĠFÃ¤higkeiten":11186,"krank":11187,"ĠWachstum":11188,"Ġzug":11189,"Ġaufgel":11190,"ĠAlkohol":11191,"ĠTrier":11192,"Ġweiss":11193,"Ġernst":11194,"ĠMagazin":11195,"ĠGrÃ¼nen":11196,"agnost":11197,"ĠGriechenland":11198,"hÃ¤usern":11199,"sheim":11200,"ĠHD":11201,"reht":11202,"Ġgepf":11203,"ĠErgÃ¤n":11204,"Ġschied":11205,"landschaft":11206,"ĠKlang":11207,"fahrung":11208,"temperatur":11209,"ĠRostock":11210,"ĠIndust":11211,"ĠRundfunk":11212,"Ġverfasste":11213,"Ġuntersucht":11214,"Ġbenachbarten":11215,"bchen":11216,"uver":11217,"inia":11218,"ogramm":11219,"ĠBerat":11220,"spielerin":11221,"igtes":11222,"ĠansÃ¤ss":11223,"ĠDienste":11224,"ĠZentimeter":11225,"tirol":11226,"ucher":11227,"ĠEinblick":11228,"okoll":11229,"Ergebnisse":11230,"ĠAnti":11231,"1997":11232,"Ġ1885":11233,"sfÃ¤h":11234,"ĠGebieten":11235,"ĠStadion":11236,"ĠZufl":11237,"Me":11238,"unsten":11239,"Ġlock":11240,"ypten":11241,"Ġverteid":11242,"Ġschwere":11243,"ĠÃ¶ffnen":11244,"ĠBachelor":11245,"LE":11246,"uv":11247,"ĠPel":11248,"ĠSchlieÃŁlich":11249,"ĠMitarbeitern":11250,"Ġcharakter":11251,"Ġverkaufte":11252,"ĠplÃ¶tzlich":11253,"ĠgetÃ¶tet":11254,"kamp":11255,"ĠMei":11256,"ĠnÃ¤chst":11257,"Ġnationale":11258,"ĠLake":11259,"Ġenth":11260,"Ġ54":11261,"ĠKleine":11262,"acke":11263,"ĠBetroffen":11264,"ĠMedik":11265,"ĠScott":11266,"ĠCarol":11267,"ministeriums":11268,"freiheit":11269,"Mai":11270,"MilitÃ¤r":11271,"bÃ¤":11272,"kar":11273,"einrichtungen":11274,"ĠwÃ¤ren":11275,"ĠBastian":11276,"ablen":11277,"verlauf":11278,"Ġgesprochen":11279,"Ġgrenzt":11280,"rechnung":11281,"ĠfÃ¼nften":11282,"Ġerkenn":11283,"fal":11284,"literatur":11285,"gekehr":11286,"ungsmittel":11287,"ohne":11288,"ĠChancen":11289,"kloster":11290,"konzept":11291,"Ã¼llen":11292,"ĠSkulpt":11293,"jahren":11294,"ĠBernard":11295,"Ġkleineren":11296,"ĠAndere":11297,"ĠAspekte":11298,"EO":11299,"Sing":11300,"frÃ¼":11301,"Ã¤se":11302,"ĠFalle":11303,"ĠResearch":11304,"htt":11305,"wohnungen":11306,"Ġteilen":11307,"1995":11308,"ĠAndroid":11309,"bestand":11310,"ifizierung":11311,"Ġexistieren":11312,"ĠSy":11313,"ĠBR":11314,"ĠDollar":11315,"ĠTrieb":11316,"umpf":11317,"ĠView":11318,"reift":11319,"lies":11320,"Ġ1850":11321,"ragung":11322,"ĠPromot":11323,"Ġangepasst":11324,"ĠKohle":11325,"Ġsolcher":11326,"ĠnatÃ¼rliche":11327,"ĠGrafschaft":11328,"herapeut":11329,"Ġerrichtete":11330,"ĠnÃ¶tig":11331,"beu":11332,"Ġmult":11333,"ĠAnst":11334,"issement":11335,"Sieg":11336,"ĠAlbrecht":11337,"ĠWeihnachten":11338,"ĠMcC":11339,"Ġtransport":11340,"online":11341,"ativer":11342,"Ġid":11343,"rÃ¤der":11344,"ĠTrocken":11345,"ĠEintritt":11346,"ĠBistum":11347,"Ġpromoviert":11348,"mÃ¼n":11349,"ili":11350,"ĠNat":11351,"ĠArray":11352,"antie":11353,"ĠVorbild":11354,"ĠSeele":11355,"ĠBeispiele":11356,"ĠEuropean":11357,"ĠKlosters":11358,"Landkreis":11359,"ĠSchriftstellerin":11360,"!!!":11361,"Ja":11362,"ĠFels":11363,"ĠFootball":11364,"rey":11365,"Ġgeschieht":11366,"Ã¤tigkeiten":11367,"Ã¤uden":11368,"ometern":11369,"ĠVielfalt":11370,"ĠInstituts":11371,"Ã¤testens":11372,"Ġorg":11373,"ince":11374,"ĠSzenen":11375,"ĠSchÃ¼tzen":11376,"ĠNeuer":11377,"ĠKnochen":11378,"ĠWissenschaftler":11379,"ĠVarianten":11380,"ĠDiskussion":11381,"ĠNachfolge":11382,"zwungen":11383,"ĠPfarrei":11384,"Ġjapanische":11385,"celona":11386,"Ġheiligen":11387,"vorsitzender":11388,"pekt":11389,"ti":11390,"ĠNap":11391,"oga":11392,"auss":11393,"Ġmehrerer":11394,"Stre":11395,"ĠhierfÃ¼r":11396,"ĠSchwanger":11397,"ĠÃĸk":11398,"ĠPublic":11399,"bÃ¼t":11400,"onia":11401,"arma":11402,"Ġbundes":11403,"ĠKÃ¼nst":11404,"Ġnannte":11405,"ĠTen":11406,"ĠTank":11407,"ĠNaz":11408,"ĠNote":11409,"aktionen":11410,"ĠEbenso":11411,"ĠGebiets":11412,"ĠMaximilian":11413,"ori":11414,"ĠRy":11415,"ĠCla":11416,"ĠErmitt":11417,"ingend":11418,"ĠLiebes":11419,"schaffung":11420,"walts":11421,"Ġgriechischen":11422,"SA":11423,"wein":11424,"onte":11425,"orff":11426,"ĠLeb":11427,"Ġerleich":11428,"Ã¤tzt":11429,"finition":11430,"ĠAdler":11431,"ĠÃĦnderung":11432,"Ġchinesischen":11433,"ĠCross":11434,"Ġbaute":11435,"ĠTot":11436,"ĠListen":11437,"ĠVirg":11438,"ĠJed":11439,"Ġlanger":11440,"ĠAnsicht":11441,"eburg":11442,"okol":11443,"ippen":11444,"ĠÃĦhn":11445,"ĠAutorin":11446,"Ġklassische":11447,"ĠNicol":11448,"Olympiateilnehmer":11449,"gert":11450,"gru":11451,"nchen":11452,"Ġbemer":11453,"Ġansonsten":11454,"ikeln":11455,"ĠSchu":11456,"ĠMetrop":11457,"ĠSÃ¼dwest":11458,"ĠGroÃŁherzog":11459,"ĠHistory":11460,"ĠVerlust":11461,"ĠÃ¤ltere":11462,"brochen":11463,"ĠFertig":11464,"ĠUkraine":11465,"ĠSun":11466,"Ġsitzen":11467,"ĠLat":11468,"gesprÃ¤":11469,"Ġ57":11470,"ĠBlue":11471,"ĠRoberts":11472,"ĠKatalog":11473,"ĠStates":11474,"deutschland":11475,"ĠDiplomat":11476,"ĠFrancisco":11477,"ĠVersicherungs":11478,"adern":11479,"ough":11480,"auten":11481,"Ġsichern":11482,"endel":11483,"ĠLee":11484,"ĠDokumentation":11485,"Ġverbrachte":11486,"nabr":11487,"ĠEi":11488,"Ġlust":11489,"Ã¶ne":11490,"kea":11491,"Ġcasino":11492,"ĠBetreuung":11493,"ĠKaufmann":11494,"ĠerÃ¶ffnete":11495,"ĠNRW":11496,"ĠTime":11497,"oslaw":11498,"ĠschlieÃŁt":11499,"edy":11500,"Ġrelev":11501,"zeitschrift":11502,"Ġbestimmen":11503,"uble":11504,"ĠWahlen":11505,"Ġfreiwill":11506,"feuer":11507,"ĠKompl":11508,"ĠVel":11509,"Ġentf":11510,"Ã¤hrungs":11511,"ĠFelder":11512,"AuÃŁer":11513,"Ġeignet":11514,"Ã¼sten":11515,"ĠKalender":11516,"ree":11517,"aufnahmen":11518,"ape":11519,"objekt":11520,"ifikation":11521,"ĠWird":11522,"ynast":11523,"Ġkomplette":11524,"Ġeingeladen":11525,"Ġdekor":11526,"wÃ¤hlen":11527,"ĠWinkel":11528,"ĠStaub":11529,"ĠÃľberw":11530,"ĠPfalz":11531,"ĠVerbindungen":11532,"ĠMetal":11533,"Ġkatholische":11534,"ĠKonkurrenz":11535,"Bas":11536,"bart":11537,"log":11538,"listen":11539,"ui":11540,"urer":11541,"ĠBem":11542,"ĠGrupp":11543,"ĠHarry":11544,"usse":11545,"ĠOption":11546,"attung":11547,"ippe":11548,"ĠweiÃŁe":11549,"ĠKomponenten":11550,"ĠPassag":11551,"ĠEpisode":11552,"!âĢľ":11553,"ration":11554,"ĠGil":11555,"ĠGlÃ¤":11556,"ĠPi":11557,"Ġ2022":11558,"liegt":11559,"ĠBerater":11560,"periment":11561,"Ġgenauer":11562,"ronen":11563,"ĠTrend":11564,"lebte":11565,"zten":11566,"Ġdeiner":11567,"esp":11568,"Ġmech":11569,"Ġhart":11570,"Ġhalt":11571,"Ġtut":11572,"Ġstruktur":11573,"ĠfÃ¼hrenden":11574,"ĠFreiwill":11575,"hauptstadt":11576,"Ġinteressiert":11577,"Ġgelegentlich":11578,"Ġtraten":11579,"beut":11580,"oter":11581,"wÃ¤hnung":11582,"straf":11583,"ĠFast":11584,"ikas":11585,"ĠEinkommen":11586,"ĠKindheit":11587,"ĠVortrag":11588,"ĠFelix":11589,"ĠMyth":11590,"ĠBefehl":11591,"ĠSortiment":11592,"ĠausdrÃ¼cklich":11593,"nabrÃ¼ck":11594,"ĠErrichtung":11595,"ĠGedenk":11596,"terne":11597,"ĠYe":11598,"ĠWeiÃŁen":11599,"ĠOblast":11600,"Ehemalige":11601,"ĠWÃ¼nsche":11602,"MB":11603,"Will":11604,"grÃ¤":11605,"litz":11606,"uml":11607,"bezeichnung":11608,"automaten":11609,"ĠSynchron":11610,"ĠBast":11611,"Ġmer":11612,"ĠKein":11613,"ĠLatein":11614,"ĠOze":11615,"ĠprÃ¼":11616,"Ã¤ngerung":11617,"Arb":11618,"1994":11619,"ĠGalax":11620,"familien":11621,"ĠNationen":11622,"ĠJens":11623,"ransport":11624,"Ġherzlich":11625,"ĠKommand":11626,"ĠInnenstadt":11627,"ĠColumb":11628,"ĠAussicht":11629,"Ã¶pfe":11630,"ĠwunderschÃ¶n":11631,"ĠSeminar":11632,"mÃ¤nn":11633,"the":11634,"wissen":11635,"ithm":11636,"Ã¤hne":11637,"ĠKZ":11638,"ĠWitt":11639,"ĠHat":11640,"ĠLeh":11641,"ĠbezÃ¼glich":11642,"esto":11643,"rust":11644,"ĠProm":11645,"Ġzahlen":11646,"Ġinteressante":11647,"ĠStrukturen":11648,"Ġerheblich":11649,"ĠSG":11650,"ĠGouverneur":11651,"ĠHT":11652,"Ã¤nglich":11653,"ĠAnim":11654,"ĠSpenden":11655,"Ġ53":11656,"Ġverwendeten":11657,"ĠDenkmalschutz":11658,"Lauf":11659,"ĠVul":11660,"waffen":11661,"egende":11662,"Ġgebraucht":11663,"Ġdirekten":11664,"ĠverlÃ¤ng":11665,"ĠMinisterprÃ¤sident":11666,"Ġwirtschaftlichen":11667,"Men":11668,"mot":11669,"ĠSyr":11670,"ĠUR":11671,"ĠungewÃ¶hn":11672,"eger":11673,"grenz":11674,"klassen":11675,"ĠVerbraucher":11676,"ĠKindes":11677,"ĠGiov":11678,"Ġleichte":11679,"Ã¤dagogik":11680,"vard":11681,"yc":11682,"schend":11683,"Ġvol":11684,"ĠzÃ¤hlte":11685,"ĠReh":11686,"ĠLoch":11687,"ĠClo":11688,"imierung":11689,"ĠEinfach":11690,"fÃ¼hrungen":11691,"ecker":11692,"ĠBundeswehr":11693,"Ä«":11694,"ĠSqu":11695,"ĠBeu":11696,"emals":11697,"ĠkÃ¼mm":11698,"anton":11699,"ĠRoute":11700,"ments":11701,"ĠFinal":11702,"Ġverstarb":11703,"Ġbevorzug":11704,"Ġbegleiten":11705,"ĠHuman":11706,"Ġmachten":11707,"ĠPool":11708,"ĠStory":11709,"ebt":11710,"ĠBoston":11711,"streit":11712,"Ġversteht":11713,"ĠWarum":11714,"cript":11715,"400":11716,"Motor":11717,"core":11718,"uay":11719,"eif":11720,"ĠFab":11721,"Ġschuf":11722,"edel":11723,"Ġvorgenommen":11724,"ĠAluminium":11725,"oda":11726,"2020":11727,"ammern":11728,"ĠLev":11729,"ĠRegionalliga":11730,"Ġ1881":11731,"cr":11732,"ĠST":11733,"Ġnutzt":11734,"ĠRav":11735,"ierbar":11736,"1992":11737,"Ġkontinuier":11738,"Ġschwierig":11739,"wÃ¼rd":11740,"ĠIC":11741,"reide":11742,"ruz":11743,"hlt":11744,"Ã¤chte":11745,"orgungs":11746,"ĠStaatsb":11747,"herrschaft":11748,"ĠGÃ¼nther":11749,"!)":11750,"bten":11751,"sthet":11752,"Ġsing":11753,"ĠMasse":11754,"emie":11755,"amts":11756,"Ġhundert":11757,"ĠVorm":11758,"riter":11759,"prozess":11760,"ĠInteress":11761,"ĠPrÃ¤sent":11762,"solv":11763,"sprÃ¼nglich":11764,"Shop":11765,"Zwei":11766,"sid":11767,"Ġdata":11768,"ĠFassung":11769,"ĠRoss":11770,"ĠOhr":11771,"ĠInsbesondere":11772,"Ġums":11773,"inderung":11774,"ĠRechnung":11775,"Ġ1867":11776,"OG":11777,"Viele":11778,"Ġwann":11779,"ĠFrie":11780,"ischÃ¶":11781,"Ġanbieten":11782,"ĠSchall":11783,"Ġtop":11784,"Ġunterscheidet":11785,"fahrens":11786,"Ġgenannte":11787,"Ġbefind":11788,"ĠDoug":11789,"ĠBranchen":11790,"DDR":11791,"FrÃ¼":11792,"eber":11793,"Ð²":11794,"ĠEch":11795,"ĠHey":11796,"lichten":11797,"ĠClin":11798,"Ġtelefon":11799,"Ġstill":11800,"ĠAbgeordneter":11801,"ĠRestaurants":11802,"ĠZeug":11803,"Mag":11804,"esi":11805,"urr":11806,"Ġdesign":11807,"Ġost":11808,"ĠErster":11809,"Ġsofern":11810,"ĠAmtszeit":11811,"idenz":11812,"Modell":11813,"Ele":11814,"pum":11815,"emburg":11816,"ĠFabrik":11817,"Ã¶rsen":11818,"ialog":11819,"Ġgeliefert":11820,"rachen":11821,"Alt":11822,"Ġgestartet":11823,"ĠNiederÃ¶sterreich":11824,"ĠSystems":11825,"ĠWorte":11826,"ĠBalkon":11827,"gasse":11828,"leiten":11829,"ĠSud":11830,"ĠRail":11831,"isl":11832,"ĠhÃ¤ngt":11833,"ĠJÃ¤ger":11834,"Ġladen":11835,"ernt":11836,"icip":11837,"ĠProtest":11838,"Ġ99":11839,"Ġtheoret":11840,"Ġbenutz":11841,"Ġvertrat":11842,"ĠBedien":11843,"Ġoffene":11844,"ĠMoritz":11845,"Natur":11846,"hunder":11847,"ple":11848,"stron":11849,"Ġficken":11850,"ĠLoc":11851,"ĠBergen":11852,"ĠgewÃ¶hn":11853,"ĠPlÃ¤ne":11854,"Ġ09":11855,"ĠSteu":11856,"ĠBelast":11857,"beginn":11858,"dom":11859,"era":11860,"Ġdro":11861,"ĠabhÃ¤ngig":11862,"Ġgelingt":11863,"loh":11864,"Ġeffiz":11865,"Ġverwendete":11866,"Ġumfasste":11867,"ĠKaisers":11868,"Ġoberhalb":11869,"ĠTerror":11870,"ĠStreifen":11871,"Ġaufmerksam":11872,"Ġschauen":11873,"endo":11874,"amtes":11875,"ĠGemeindegebiet":11876,"ĠgefÃ¤llt":11877,"verbÃ¤nde":11878,"Ġerreichbar":11879,"ĠNeuse":11880,"Ġfalsch":11881,"fuÃŁ":11882,"alu":11883,"Ġsign":11884,"orial":11885,"Ġvirt":11886,"ĠButter":11887,"ĠEff":11888,"ĠAnwendungen":11889,"Ġschott":11890,"akes":11891,"ĠHandlung":11892,"Ġ05":11893,"prÃ¤senz":11894,"Ã¤tzung":11895,"Wird":11896,"ĠHierbei":11897,"ĠLogistik":11898,"ĠJosÃ©":11899,"ĠKardinal":11900,"ĠBam":11901,"ĠGir":11902,"Ġzusammenge":11903,"ĠBrown":11904,"ĠMineral":11905,"Titel":11906,"ĠKro":11907,"ĠReit":11908,"ĠAnsatz":11909,"Ġtollen":11910,"Ġapp":11911,"brig":11912,"Ġ63":11913,"kirch":11914,"ĠGoethe":11915,"Ġgeborene":11916,"Januar":11917,"Wien":11918,"stufe":11919,"rete":11920,"ĠAusschuss":11921,"altar":11922,"ĠUrteil":11923,"ydro":11924,"Ġschwarze":11925,"Don":11926,"Mein":11927,"ĠEcke":11928,"ĠLenn":11929,"ĠCra":11930,"Ġbegeg":11931,"ĠRegister":11932,"immern":11933,"Ġvieles":11934,"ĠKommando":11935,"ĠWohnungs":11936,"ĠBruno":11937,"Parameter":11938,"ĠGitarr":11939,"ĠVoraussetzungen":11940,"Ġdigitale":11941,"Fach":11942,"ĠHex":11943,"reuth":11944,"ents":11945,"eche":11946,"check":11947,"etti":11948,"azitÃ¤t":11949,"Ende":11950,"info":11951,"rondissement":11952,"Doppel":11953,"hammer":11954,"ofen":11955,"Ġdritt":11956,"Ġsort":11957,"ĠPeg":11958,"Ġfahr":11959,"otyp":11960,"ĠBerge":11961,"aph":11962,"geschichten":11963,"ĠChristen":11964,"ible":11965,"Ġverbinden":11966,"ĠBarcelona":11967,"Ġbegrenzt":11968,"ĠGÃ¼nter":11969,"RÃ¶misch":11970,"PC":11971,"zusammen":11972,"einst":11973,"ĠWÃ¤l":11974,"ĠTiefe":11975,"rages":11976,"rohr":11977,"senden":11978,"ĠSchuh":11979,"iva":11980,"Ġentdeck":11981,"ĠChallen":11982,"Ġversetzt":11983,"ĠEishockeyspieler":11984,"Ġ1884":11985,"Aufgrund":11986,"vereinigung":11987,"ĠRedaktion":11988,"disziplin":11989,"gard":11990,"varian":11991,"ĠTÃ¤ter":11992,"ĠNutzen":11993,"anna":11994,"spor":11995,"ĠAmb":11996,"ĠBundesver":11997,"ĠEmpfeh":11998,"ligen":11999,"yball":12000,"ĠAth":12001,"ĠAction":12002,"ĠBraut":12003,"Ġeinheit":12004,"ĠGn":12005,"ĠHallen":12006,"ĠHaust":12007,"ĠCir":12008,"ehme":12009,"Star":12010,"ĠExistenz":12011,"kasten":12012,"Ġ1874":12013,"ĠMischung":12014,"ĠBedÃ¼rfnisse":12015,"Sel":12016,"Ã¦":12017,"ĠAC":12018,"ĠBla":12019,"ĠGieÃŁen":12020,"agten":12021,"Ġdefiniert":12022,"IR":12023,"],":12024,"schÃ¤d":12025,"ftigen":12026,"ipedia":12027,"hÃ¶rigkeit":12028,"ĠSeries":12029,"ĠEreignisse":12030,"Seite":12031,"feier":12032,"machen":12033,"ĠJava":12034,"ĠInte":12035,"Ġnachgewiesen":12036,"asso":12037,"Ġdarstellt":12038,"ĠRose":12039,"ingenieur":12040,"book":12041,"marken":12042,"Ġ1879":12043,"ĠVertrags":12044,"Ġhinzuge":12045,"erklÃ¤rung":12046,"gefÃ¼hl":12047,"ĠDE":12048,"ĠLord":12049,"ĠZert":12050,"adr":12051,"ebene":12052,"ĠMajor":12053,"ĠChurch":12054,"ĠMoz":12055,"ĠsÃ¼dwestlich":12056,"ĠRuder":12057,"siedlung":12058,"ĠBeteiligung":12059,"ĠZunÃ¤chst":12060,"ĠPerformance":12061,"gast":12062,"pot":12063,"ĠSehr":12064,"Ġmy":12065,"Ġfeiern":12066,"Ġversp":12067,"lafen":12068,"ĠBlues":12069,"stands":12070,"ĠHochzeits":12071,"produzent":12072,"hÃ¼tte":12073,"Ġtext":12074,"Ġvar":12075,"ĠKohl":12076,"ĠEM":12077,"ĠRac":12078,"ĠVinc":12079,"Ġanfangs":12080,"eutr":12081,"gelÃ¤nde":12082,"ĠRepubl":12083,"Ã©l":12084,"ĠWeltmeisterschaften":12085,"ĠGedichte":12086,"ĠCorpor":12087,"Ġgelegene":12088,"ĠBrÃ¼ssel":12089,"gestellte":12090,"ĠKel":12091,"ĠArrondissement":12092,"Ġberu":12093,"ĠBehand":12094,"ĠHeide":12095,"Ã¼stet":12096,"Ġtotal":12097,"Frauen":12098,"ih":12099,"iÃ³n":12100,"wachsen":12101,"Ġart":12102,"urb":12103,"Ġbad":12104,"ĠCall":12105,"Ġpopul":12106,"Ġschmal":12107,"ĠArgentin":12108,"Ġnochmals":12109,"ĠKatzen":12110,"ĠpreuÃŁischen":12111,"dia":12112,"gÃ¼nst":12113,"Î¿":12114,"anal":12115,"ĠBanken":12116,"ĠDown":12117,"ĠHeb":12118,"ĠNar":12119,"osse":12120,"ĠAbsatz":12121,"Ġ95":12122,"Ġgeladen":12123,"Ġexklus":12124,"ĠEuropÃ¤ische":12125,"Ġschlug":12126,"behÃ¶rde":12127,"nehmern":12128,"pflanz":12129,"ĠWehrmacht":12130,"ĠNiederlanden":12131,"ĠBreslau":12132,"punkten":12133,"Ġdauert":12134,"Ġsymbol":12135,"ĠCle":12136,"ikte":12137,"igent":12138,"Ġ07":12139,"wird":12140,"ĠSchwimm":12141,"ĠSumme":12142,"Japan":12143,"Ġsim":12144,"iser":12145,"Ġvermitteln":12146,"Ã¼hrt":12147,"parks":12148,"ĠFranÃ§":12149,"Schon":12150,"ĠLeo":12151,"eigung":12152,"osex":12153,"ĠMontage":12154,"ĠSpring":12155,"ccess":12156,"ĠJesus":12157,"Content":12158,"ĠMicrosoft":12159,"stritten":12160,"urst":12161,"ĠbÃ¼rger":12162,"Ġ115":12163,"ĠRats":12164,"Ġann":12165,"odie":12166,"ĠÃľbernahme":12167,"Ġfestgelegt":12168,"Ġdamalige":12169,"ĠausgewÃ¤hlt":12170,"ĠLady":12171,"Ġsinnvoll":12172,"Schweiz":12173,"Ġanerkannt":12174,"Car":12175,"Com":12176,"Ho":12177,"ĠCons":12178,"ĠInhaber":12179,"rÃ¤glich":12180,"ĠBearbeitung":12181,"agentur":12182,"JÃ¤hrige":12183,"Russ":12184,"Â¼":12185,"assten":12186,"Ġbestellt":12187,"ĠOm":12188,"ĠAuszeichnungen":12189,"Ġoftmals":12190,"Ġpolitisch":12191,"ĠSender":12192,"Werdegang":12193,"ĠzeitgenÃ¶ss":12194,"ĠDÃ¶rfer":12195,"lieferung":12196,"Ġmaximale":12197,"ĠKonzerte":12198,"Jose":12199,"War":12200,"wenden":12201,"Ġbill":12202,"ĠMB":12203,"Ġhom":12204,"Ġhabt":12205,"ĠlieÃŁen":12206,"Ġbestanden":12207,"ĠUrsache":12208,"Ġdiversen":12209,"ĠSatt":12210,"esh":12211,"ĠDay":12212,"ĠWÃ¼rttemberg":12213,"ĠHrsg":12214,"ĠRunden":12215,"lepp":12216,"verordnung":12217,"ĠEinladung":12218,"ĠBlu":12219,"Ġausgeschlossen":12220,"Ġexpl":12221,"ĠConc":12222,"Musiker":12223,"ĠTerrasse":12224,"Ġlernte":12225,"ng":12226,"ĠKund":12227,"ĠPin":12228,"ĠfÃ¼hlen":12229,"ĠLot":12230,"ĠkÃ¼rz":12231,"ĠSiegen":12232,"ogel":12233,"ĠBetreiber":12234,"ĠEthn":12235,"ehmigung":12236,"Ġverhindert":12237,"ĠDietrich":12238,"ĠBMW":12239,"franken":12240,"van":12241,"Ġ00":12242,"Ġ(;":12243,"ĠTunnel":12244,"ĠIN":12245,"ĠkÃ¼nst":12246,"ĠCH":12247,"Ġpat":12248,"ĠProfess":12249,"ĠMÃ¤nnern":12250,"Medizin":12251,"ĠHoffnung":12252,"Ġstellvertretender":12253,"Bitte":12254,"Kap":12255,"nik":12256,"ĠShe":12257,"alismus":12258,"ĠDB":12259,"Ġfinn":12260,"iren":12261,"Geografie":12262,"ĠAntrieb":12263,"ĠLeider":12264,"Ġ1882":12265,"ĠWerkzeug":12266,"ĠMeisterschaften":12267,"Ã¤mpfung":12268,"ĠGastgeber":12269,"Ġliegenden":12270,"door":12271,"ĠMadrid":12272,"Ġwirtschaftliche":12273,"ĠÃľbergang":12274,"sung":12275,"ĠKorn":12276,"Ġnew":12277,"olution":12278,"denberg":12279,"ĠKontext":12280,"ĠVertrauen":12281,"Ġzeitweise":12282,"fangen":12283,"vinz":12284,"ieber":12285,"eifen":12286,"ĠHÃ¼gel":12287,"Ġgegangen":12288,"demokrat":12289,"gebenen":12290,"ĠParad":12291,"ĠJahrzehnten":12292,"fass":12293,"ĠSind":12294,"ĠPho":12295,"ĠSchick":12296,"ĠRegistr":12297,"entrum":12298,"ĠChristus":12299,"losigkeit":12300,"Ġstellten":12301,"Ġerreichten":12302,"Ġ1887":12303,"nehmung":12304,"ĠMulti":12305,"Online":12306,"gypt":12307,"\"-":12308,"FL":12309,"stes":12310,"einrichtung":12311,"order":12312,"Ġbild":12313,"ĠGh":12314,"ĠNeues":12315,"ĠsÃ¼dÃ¶stlich":12316,"bedarf":12317,"spartei":12318,"ĠHirsch":12319,"ĠMercedes":12320,"ildes":12321,"amera":12322,"Halb":12323,"VO":12324,"loch":12325,"Ġzogen":12326,"ĠKugel":12327,"ĠHÃ¶l":12328,"ĠRoland":12329,"ĠOh":12330,"ĠVerhandlungen":12331,"ienne":12332,"strasse":12333,"ĠTerritor":12334,"euchten":12335,"schiffe":12336,"Ġirgendwie":12337,"kÃ¼nfte":12338,"uri":12339,"ĠMans":12340,"Ġname":12341,"ĠVerpack":12342,"Ġaktive":12343,"Ġhandelte":12344,"ĠCreek":12345,"Juli":12346,"ĠPotsdam":12347,"Wasser":12348,"mord":12349,"nur":12350,"tl":12351,"ĠmÃ¤cht":12352,"ĠKy":12353,"ĠKÃ¤rn":12354,"ĠEffekt":12355,"ĠHobby":12356,"ĠLaus":12357,"ĠMaÃŁe":12358,"ifischen":12359,"ĠProduzent":12360,"ĠHochschul":12361,"geschnitten":12362,"ĠFulda":12363,"Nummer":12364,"lÃ¶sen":12365,"onischen":12366,"atsch":12367,"ĠStan":12368,"ahe":12369,"vermÃ¶gen":12370,"Ġjener":12371,"Ġumgebaut":12372,"enner":12373,"Ġ1840":12374,"ĠSozi":12375,"ĠQuell":12376,"ĠMindest":12377,"ĠDaraufhin":12378,"Ġsicherlich":12379,"ĠOsnabrÃ¼ck":12380,"ĠEntscheidungen":12381,"ErsterwÃ¤hnung":12382,"Cup":12383,"Ist":12384,"kette":12385,"chor":12386,"itiv":12387,"ĠKader":12388,"ĠRap":12389,"ĠZwar":12390,"ĠSchatz":12391,"Ã¤tigen":12392,"Ã¤tigung":12393,"grÃ¼ndung":12394,"Ã¤ufe":12395,"gefangen":12396,"ĠGumm":12397,"Ġbeher":12398,"Ġlan":12399,"ĠInspir":12400,"ĠEiner":12401,"Ġvorder":12402,"Ġfree":12403,"\")":12404,"rennfahrer":12405,"Ã¼hen":12406,"ĠAcker":12407,"ĠHang":12408,"osh":12409,"ĠOliver":12410,"ĠTexas":12411,"ĠschÃ¶nsten":12412,"ĠMerkmale":12413,"Ġporno":12414,"ĠTschechien":12415,"ĠUnabhÃ¤ngigkeit":12416,"zemed":12417,"Zug":12418,"ĠGÃ¶r":12419,"ĠLight":12420,"ĠLetzter":12421,"Ġermor":12422,"Ġgearbeitet":12423,"ĠZauber":12424,"ource":12425,"ĠExpl":12426,"ĠgefÃ¶rdert":12427,"Ġwichtigste":12428,"ĠNaturschutzgebiet":12429,"stantin":12430,"ĠStol":12431,"ĠSchÃ¼lern":12432,"Ġ3000":12433,"Ġneuesten":12434,"plant":12435,"Ġcool":12436,"ĠBands":12437,"Ġchron":12438,"Ã¶mm":12439,"Ġverstanden":12440,"ĠSenat":12441,"Ð¸Ñ":12442,"Ġniedriger":12443,"noten":12444,"ali":12445,"umber":12446,"reiches":12447,"ĠOrth":12448,"Ġzweier":12449,"ails":12450,"Ġkonzip":12451,"behalten":12452,"Ġmenschlichen":12453,"SL":12454,"ĠLokal":12455,"ĠColl":12456,"ĠStick":12457,"Ġverbringen":12458,"Ġmehrmals":12459,"Ġbestehend":12460,"ĠSpielern":12461,"ĠBauer":12462,"ĠselbstverstÃ¤ndlich":12463,"Ġ1866":12464,"ĠKomfort":12465,"ĠMathematiker":12466,"ĠErwachsenen":12467,",-":12468,"rise":12469,"Ġdeb":12470,"ĠHaltung":12471,"otherapie":12472,"ersdorf":12473,"Ġ58":12474,"ĠGemark":12475,"leisten":12476,"gebiets":12477,"aug":12478,"arisch":12479,"urlaub":12480,"hlon":12481,"ĠAusgaben":12482,"apest":12483,"ĠAntworten":12484,"ĠInterpret":12485,"ĠEbenfalls":12486,"ĠWahrheit":12487,"wÃ¼rfe":12488,"ĠVerbands":12489,"ĠDrogen":12490,"ĠHolly":12491,"ĠSchwierigkeiten":12492,"Ġurkundlich":12493,"Ġehrenamt":12494,"FranzÃ¶s":12495,"cha":12496,"ĠiPh":12497,"Ġgg":12498,"ĠArzn":12499,"blau":12500,"Ġdarstellen":12501,"alteten":12502,"Ġbeobachten":12503,"ĠLeidenschaft":12504,"ĠNikolaus":12505,"GH":12506,"KE":12507,"KÃ¶nig":12508,"TL":12509,"eo":12510,"anbul":12511,"ĠAstero":12512,"ĠKok":12513,"ĠkÃ¤mpf":12514,"Ġgeil":12515,"ĠZo":12516,"ehle":12517,"otik":12518,"ĠJahrhunder":12519,"ĠArme":12520,"Ġbetreibt":12521,"Ġgeringen":12522,"Ġeinfacher":12523,"Ġgestorben":12524,"ĠFirst":12525,"ĠzusÃ¤tzlichen":12526,"Filmschauspieler":12527,"ĠÃ¼blich":12528,"Ġkompeten":12529,"Ã¤chsische":12530,"Ġfeierte":12531,"anik":12532,"eto":12533,"ĠTieren":12534,"berge":12535,"ierendes":12536,"eitungs":12537,"ĠNiveau":12538,"ĠSchalt":12539,"Ġstet":12540,"Ġessen":12541,"Ġzumeist":12542,"Ġvorkommen":12543,"mete":12544,"amente":12545,"ctic":12546,"loÃŁ":12547,"ĠDuisburg":12548,"ĠRÃ¶mer":12549,"ĠKatharina":12550,"pil":12551,"itas":12552,"Ġdenke":12553,"ragend":12554,"Ġgeg":12555,"Ġgefl":12556,"Ġuntergebracht":12557,"ĠMusical":12558,"ĠKomponisten":12559,"ĠDiÃ¶z":12560,"fÃ¤llt":12561,"ĠDorfes":12562,"ĠÃ¼blichen":12563,"Ġgeplanten":12564,"Ġkanadischer":12565,"sylv":12566,"wÃ¤sche":12567,"ĠMd":12568,"Ġfur":12569,"abor":12570,"opÃ¤d":12571,"ĠAusstellungen":12572,"ĠYor":12573,"ĠTreffer":12574,"ĠKupfer":12575,"ĠErwachsene":12576,"ĠStÃ¤rke":12577,"solvenz":12578,"ĠMetz":12579,"ĠCho":12580,"ivals":12581,"antin":12582,"ĠÃľberra":12583,"ĠMÃ¤rchen":12584,"verbrauch":12585,"1991":12586,"Ġ1886":12587,"ĠGrÃ¼nde":12588,"mutter":12589,"ĠInit":12590,"serien":12591,"ĠMars":12592,"Ġverwand":12593,"Ġinneren":12594,"ĠLibr":12595,"ĠHoffmann":12596,"ĠWelche":12597,"ĠKapitÃ¤n":12598,"ĠmÃ¼ndet":12599,"EB":12600,"gemÃ¤ÃŁ":12601,"ĠSchÃ¤d":12602,"Ġschlaf":12603,"ennzeichnet":12604,"ĠKleid":12605,"ĠWestfalen":12606,"ĠTrink":12607,"ĠZahlungs":12608,"ĠEinwohnerzahl":12609,"ĠSingles":12610,"ĠAktionen":12611,"Ġoptimale":12612,"Ġzeichnet":12613,"ĠPromotion":12614,"wendet":12615,"ering":12616,"Ġseiten":12617,"ĠEcht":12618,"ĠWende":12619,"etisch":12620,"ĠverÃ¤ndern":12621,"Ġverfolgt":12622,"ĠSchicht":12623,"ĠUnder":12624,"ĠAlben":12625,"ĠReferenz":12626,"ĠWeltcup":12627,"handels":12628,"ĠursprÃ¼ngliche":12629,"ĠMailand":12630,"atisch":12631,"ĠRainer":12632,"raben":12633,"Ġbester":12634,"ragenden":12635,"Ġ140":12636,"Ġgeriet":12637,"ibil":12638,"ĠAtom":12639,"ÃŃo":12640,"fÃ¼llung":12641,"ĠFilmen":12642,"BevÃ¶lkerungs":12643,"aniker":12644,"ĠMalt":12645,"ĠFun":12646,"ĠfÃ¤hrt":12647,"ĠLesen":12648,"Ġmitten":12649,"ĠInhalts":12650,"ĠWestern":12651,"elege":12652,"ĠKrone":12653,"Ġstrateg":12654,"ĠBewegungs":12655,"hten":12656,"ĠAkte":12657,"ĠMaus":12658,"ĠKunde":12659,"ftige":12660,"ĠSchaff":12661,"ĠSchreibt":12662,"ĠOf":12663,"Ġschul":12664,"Ã¤ttern":12665,"ĠProzesse":12666,"quart":12667,"ĠHandlungs":12668,"rone":12669,"drom":12670,"Ġverlang":12671,"ĠÃĸsterreichischen":12672,"ĠErkenntnis":12673,"ĠBronzemed":12674,"Gegen":12675,"kB":12676,"wender":12677,"iehen":12678,"ĠFeier":12679,"ĠWood":12680,"Ġbewohn":12681,"add":12682,"Ġreal":12683,"ĠJulia":12684,"Ġmusst":12685,"jahre":12686,"ĠPatrick":12687,"ĠPolitikerin":12688,"ĠLieblings":12689,"Oktober":12690,"San":12691,"ect":12692,"rol":12693,"tums":12694,"ws":12695,"schungs":12696,"ĠMÃ¼hle":12697,"ĠFlex":12698,"ĠPosten":12699,"spital":12700,"bares":12701,"brunnen":12702,"ĠGrundschule":12703,"ĠHaushalt":12704,"mÃ¤cht":12705,"ĠSÃ¼dafrika":12706,"ĠAppl":12707,"ĠStatistik":12708,"bÃ¼ro":12709,"ĠTatsache":12710,"Dis":12711,"kov":12712,"schlagen":12713,"Ġwomit":12714,"igan":12715,"Ġleiden":12716,"siden":12717,"Ġ88":12718,"ĠDurchfÃ¼hrung":12719,"Klass":12720,"Ġdrauf":12721,"Ġerzielen":12722,"ĠPrior":12723,"Baden":12724,"Sonst":12725,"izen":12726,"ĠPant":12727,"ĠHut":12728,"ĠLem":12729,"ĠVent":12730,"ĠChl":12731,"Ġbeziehen":12732,"ĠUSB":12733,"Ġtrop":12734,"liefert":12735,"ĠVorgehen":12736,"ĠChin":12737,"ĠUmzug":12738,"ĠFrance":12739,"ĠMengen":12740,"Ġgefangen":12741,"ĠGewinner":12742,"ĠSpringer":12743,"filme":12744,"ĠKÃ¼nstlern":12745,"yo":12746,"ĠFaktoren":12747,"ĠGa":12748,"ĠPaz":12749,"ĠPaket":12750,"ĠZehn":12751,"ĠZÃ¼ge":12752,"akten":12753,"ĠMillimeter":12754,"Ġwillkommen":12755,"ĠLandkreises":12756,"Ġ1865":12757,"Ġpositive":12758,"Ġorigin":12759,"Eben":12760,"ĠAtem":12761,"ĠKen":12762,"ĠKun":12763,"etische":12764,"Ġsteigt":12765,"1918":12766,"ettel":12767,"ĠParallel":12768,"ĠEishockey":12769,"ĠeuropÃ¤ische":12770,"ĠDrehbuchautor":12771,"Ġbeeinflusst":12772,"To":12773,"},":12774,"Ġschafft":12775,"informationen":12776,"Ġeiniges":12777,"ĠWalt":12778,"istanz":12779,"ĠDiesel":12780,"kens":12781,"ĠAbwehr":12782,"ĠKleidung":12783,"1993":12784,"ĠTechnischen":12785,"1989":12786,"aurer":12787,"ĠATP":12788,"cal":12789,"Ã¼chen":12790,"ĠFlieÃŁ":12791,"ĠHend":12792,"ĠAnbau":12793,"Ġsparen":12794,"ĠOrder":12795,"rÃ¼m":12796,"quer":12797,"phil":12798,"Ġdirekte":12799,"kommission":12800,"Ġerweiterte":12801,"verlust":12802,"Ġbeobachtet":12803,"ĠNahrung":12804,"Ġkombiniert":12805,"As":12806,"TR":12807,"schÃ¼tzen":12808,"Ġinne":12809,"ĠGraph":12810,"ĠPL":12811,"Ġfehl":12812,"indlich":12813,"ĠBarock":12814,"hÃ¶hung":12815,"ĠSprung":12816,"ĠSterne":12817,"Ġveran":12818,"ivitÃ¤t":12819,"etze":12820,"ugoslaw":12821,"izont":12822,"ĠSpiels":12823,"ysik":12824,"Ġstattdessen":12825,"ĠAblauf":12826,"ĠĠĊ":12827,"schild":12828,"Ġ1878":12829,"ordnen":12830,"ĠCha":12831,"Ġ1875":12832,"ĠTreff":12833,"waffe":12834,"pedition":12835,"ĠEdelstahl":12836,"ĠRumÃ¤nien":12837,"ĠwÃ¤chst":12838,"ĠArab":12839,"ĠGert":12840,"ĠEN":12841,"ĠLob":12842,"usalem":12843,"ĠCaf":12844,"ĠInstanz":12845,"ulf":12846,"ally":12847,"rica":12848,"Ġ66":12849,"onna":12850,"Anfang":12851,"ĠProfi":12852,"ĠParkplatz":12853,"ĠTestament":12854,"Ġjapanischer":12855,"300":12856,"Ter":12857,"Up":12858,"ĠButton":12859,"ĠHÃ¤ndler":12860,"Ġglauben":12861,"ĠStill":12862,"ĠUs":12863,"verschluss":12864,"ĠBogen":12865,"ĠFreiherr":12866,"schreiten":12867,"ĠDoktor":12868,"ĠFlorian":12869,"Ġschwedischen":12870,"Ġschaffte":12871,"nacht":12872,"eiro":12873,"ĠBulgar":12874,"ĠTool":12875,"ĠlÃ¶sen":12876,"ĠAli":12877,"ĠNachmittag":12878,"ĠKlim":12879,"Ġmanche":12880,"Ġ72":12881,"ĠCover":12882,"Weltmeisterschaften":12883,"Ġmittlere":12884,"ĠOrigin":12885,"Ġdigitalen":12886,"Ġangenehm":12887,"Ġkomfort":12888,"ĠbeschÃ¤digt":12889,"iod":12890,"auung":12891,"ĠKell":12892,"etischen":12893,"lerin":12894,"Ġspr":12895,"Quelle":12896,"cover":12897,"ĠGross":12898,"ĠDepart":12899,"ĠGottfried":12900,"Druck":12901,"Kar":12902,"oÃŁen":12903,"Ġol":12904,"Ġ</":12905,"eser":12906,"Ġvollen":12907,"Ġbrauch":12908,"ĠHamm":12909,"sekten":12910,"Ġausgebaut":12911,"ĠVerdienste":12912,"Ġjeg":12913,"ĠDeutsches":12914,"Ern":12915,"mÃ¤ss":12916,"Ġ1861":12917,"Ġgenaue":12918,"Ġsk":12919,"Ã¤le":12920,"ĠGute":12921,"igsten":12922,"ĠVikt":12923,"ĠZwer":12924,"ĠAbd":12925,"ĠWebseiten":12926,"Ġbenutzen":12927,"Ġfestgestellt":12928,"ĠReste":12929,"ĠRenaissance":12930,"ĠFÃ¤lle":12931,"ĠKartoff":12932,"ĠRobin":12933,"Nun":12934,"Paul":12935,"fÃ¶rderung":12936,"mass":12937,"emit":12938,"ĠFur":12939,"ĠPsal":12940,"ĠWach":12941,"icus":12942,"iertem":12943,"Ġ68":12944,"ĠChris":12945,"Ġgefragt":12946,"kreises":12947,"euerung":12948,"ĠSky":12949,"ĠFinanzierung":12950,"horst":12951,"Ha":12952,"Hil":12953,"eide":12954,"ĠAS":12955,"amik":12956,"ĠHÃ¤nden":12957,"Ġtiefer":12958,"ĠReport":12959,"Ġ61":12960,"ĠKonf":12961,"Ġgeschlagen":12962,"Ġ1877":12963,"Ġinteressant":12964,"ĠSynag":12965,"ĠHerausforderungen":12966,"ĠHerausforderung":12967,"ĠCookies":12968,"Dienst":12969,"Gl":12970,"wahr":12971,"ĠBin":12972,"breitung":12973,"Ã©d":12974,"ĠBildschirm":12975,"Ġstattf":12976,"ĠKonto":12977,"ĠWeiterhin":12978,"ĠKriegsende":12979,"Ġgedreht":12980,"leitungen":12981,"ĠBesatzung":12982,"Ġbewegt":12983,"leister":12984,"Ġserv":12985,"ĠDick":12986,"Ġmex":12987,"ĠFutter":12988,"ĠGymnas":12989,"Ã¶ger":12990,"ĠWomen":12991,"Ġerfor":12992,"fahrzeuge":12993,"zeuger":12994,"sbet":12995,"loser":12996,"ĠHaushalts":12997,"ĠUrheber":12998,"ĠMagnet":12999,"Ġunglaub":13000,"Ġbeeindruck":13001,"ĠjÃ¼dische":13002,"ĠBadezimmer":13003,"Schweizer":13004,"fries":13005,"how":13006,"krain":13007,"ll":13008,"stunden":13009,"Ġzus":13010,"ĠKast":13011,"isp":13012,"ĠNull":13013,"enthal":13014,"ĠStimmung":13015,"Ġlagen":13016,"ĠErfurt":13017,"ĠJahrgang":13018,"ĠEinstieg":13019,"Ġeinerseits":13020,"hofer":13021,"author":13022,"ĠGerade":13023,"ideen":13024,"ĠTrennung":13025,"ĠDesigner":13026,"Ġisrael":13027,"ĠSitze":13028,"Ġ1872":13029,"ĠerhÃ¶hen":13030,"Ġhochwertigen":13031,"Ġumfangreiche":13032,"Ġabgerissen":13033,"Startseite":13034,"ĠInstallation":13035,"BevÃ¶lkerungsentwicklung":13036,"start":13037,"alm":13038,"ĠHung":13039,"ĠTÃ¤n":13040,"ĠRauch":13041,"ĠJÃ¶rg":13042,"ĠschlÃ¤":13043,"Ġ700":13044,"ĠUrsprung":13045,"klÃ¤rt":13046,"archie":13047,"ĠInternetseite":13048,"Ġentfernen":13049,"Ġfinanziellen":13050,"ĠInneren":13051,"ĠTokio":13052,"ĪĴ":13053,"ĠMap":13054,"tennis":13055,"ĠRup":13056,"ĠLeu":13057,"Ġ1800":13058,"tett":13059,"ĠImpf":13060,"ĠOberliga":13061,"ĠDritt":13062,"Ġgaben":13063,"Ġ1864":13064,"ĠRoth":13065,"Ġarab":13066,"ĠIrland":13067,"Ġprofessionelle":13068,"Ġstaatlichen":13069,"Ġerlangte":13070,"sylvania":13071,"Event":13072,"sucht":13073,"ualitÃ¤t":13074,"itch":13075,"ĠPader":13076,"Ã¼nder":13077,"Ã¶lz":13078,"Ġhinsichtlich":13079,"ĠOberflÃ¤chen":13080,"ĠReife":13081,"ĠLuzern":13082,"ĠEngine":13083,"ĠEvangelischen":13084,"strafe":13085,"Log":13086,"cio":13087,"Ã¼pf":13088,"Ã¤ste":13089,"Ġfrag":13090,"ĠHert":13091,"ĠTay":13092,"ĠLuther":13093,"ĠNam":13094,"ĠJim":13095,"Ġbezogen":13096,"rup":13097,"âĢľ),":13098,"Ġallgemeine":13099,"organ":13100,"Ġzusammengef":13101,"ĠÂ°":13102,"ĠDiam":13103,"ĠKoal":13104,"ariat":13105,"ĠSanierung":13106,"Ġerzielt":13107,"ĠQualitÃ¤ts":13108,"Jahrhunderts":13109,"ĠHitler":13110,"Node":13111,"uan":13112,"Ġ().":13113,"Ġrichtet":13114,"okomot":13115,"flÃ¼sse":13116,"ĠKonserv":13117,"ĠKonferenz":13118,"ĠOrtschaften":13119,"ĠWeibchen":13120,"ĠSchulter":13121,"Ġniemals":13122,"ĠWorten":13123,"liegende":13124,"ĠFilter":13125,"ĠAccess":13126,"Ġnordwestlich":13127,"Ġbetroffenen":13128,"Ġletztlich":13129,"Friedrich":13130,"Ihre":13131,"Kur":13132,"Laut":13133,"Rund":13134,"Rock":13135,"TH":13136,"ĠBag":13137,"ĠGabr":13138,"ĠHarr":13139,"Ġerrichten":13140,"real":13141,"versicher":13142,"Ġcl":13143,"ĠGeschw":13144,"ensburg":13145,"azier":13146,"ĠTextil":13147,"ĠTreppen":13148,"melden":13149,"Ġstammte":13150,"ĠVorsitzende":13151,"ĠPferd":13152,"Komponist":13153,"ĠWuppertal":13154,"steig":13155,"elier":13156,"Ġaust":13157,"ĠTy":13158,"ĠSche":13159,"Ã¶rte":13160,"illing":13161,"ĠMarx":13162,"ĠVorlage":13163,"Ġeigentlichen":13164,"ĠzurÃ¼ckkehr":13165,"Ġerstmal":13166,"ĠKindergarten":13167,"ĠRessourcen":13168,"ynastie":13169,"BM":13170,"Box":13171,"Pat":13172,"Play":13173,"Ġvis":13174,"rugen":13175,"ĠReprÃ¤sentanten":13176,"duktion":13177,"Ġwiederholt":13178,"ĠBrÃ¼cken":13179,"boot":13180,"otenzial":13181,"Filmtitel":13182,"ĠReinhard":13183,"fÃ¶rmigen":13184,"ĠTelek":13185,"Ġhilf":13186,"ĠVordergrund":13187,"Ð¾Ð²":13188,"ĠÃĦgypten":13189,"iffen":13190,"Ġdunk":13191,"Ġinfolge":13192,"Ġkommerz":13193,"Ġkirch":13194,"ckel":13195,"ĠCentral":13196,"ĠFlach":13197,"ackte":13198,"ĠzurÃ¼ckzu":13199,"Ġ1868":13200,"Ġnormalen":13201,"ĠBrowser":13202,"farb":13203,"wenn":13204,"ĠSA":13205,"elemente":13206,"ĠBibel":13207,"ĠMall":13208,"ĠFra":13209,"ĠNight":13210,"Ġbeider":13211,"Ã¤hren":13212,"Ġnochmal":13213,"oberflÃ¤che":13214,"Ġ1863":13215,"Ġ1873":13216,"uppe":13217,"ĠnordÃ¶stlich":13218,"ĠNormal":13219,"Ġdeinem":13220,"ĠKriminal":13221,"xt":13222,"ĠBod":13223,"Ġanger":13224,"odox":13225,"eckar":13226,"Flug":13227,"Ġanalys":13228,"sprÃ¤sident":13229,"Ġerkennbar":13230,"gekehrt":13231,"Lehr":13232,"Tube":13233,"UM":13234,"bist":13235,"rus":13236,"Ġei":13237,"ĠSho":13238,"eman":13239,"olis":13240,"ĠCott":13241,"ĠZeile":13242,"Ġentworfen":13243,"Ġandererseits":13244,"Ġ62":13245,"geordnete":13246,"ĠSilv":13247,"Ã¨s":13248,"ĠGesetzes":13249,"ĠLuxus":13250,"kinder":13251,"ãģ":13252,"orum":13253,"Ġvierte":13254,"1933":13255,"ĠBrem":13256,"ĠZuhause":13257,"Ġgeschickt":13258,"yll":13259,"Ġ1876":13260,"ĠSolo":13261,"ĠVielleicht":13262,"Ġevangelischen":13263,"ĠVerteidigung":13264,"Ġeindeutig":13265,"ĠNeuseeland":13266,"Bran":13267,"rem":13268,"aris":13269,"Ġzit":13270,"ĠPie":13271,"ĠReiter":13272,"ĠRolf":13273,"ĠSchenk":13274,"...]":13275,"profil":13276,"osta":13277,"ĠWiesen":13278,"ĠDeleg":13279,"ĠCamping":13280,"Club":13281,"Ġpromovierte":13282,"Ġsammeln":13283,"ĠlÃ¤ngst":13284,"ĠGemeinderat":13285,"kons":13286,"ĠSper":13287,"ekul":13288,"ĠBetracht":13289,"ĠXML":13290,"ombard":13291,"ĠverÃ¶ffentlichten":13292,"ĠLeipziger":13293,"illerie":13294,"ĠBudapest":13295,"Ġhoffe":13296,"Damit":13297,"bell":13298,"right":13299,"arischer":13300,"abschnitt":13301,"ross":13302,"Ġdeswegen":13303,"ĠOft":13304,"owo":13305,"geschlecht":13306,"Ã¼ller":13307,"iedlung":13308,"Ġindustr":13309,"Ġmelden":13310,"Ġinstalliert":13311,"Ġscheiterte":13312,"VA":13313,"Ġdynam":13314,"ĠAL":13315,"ĠAar":13316,"Ġeingebaut":13317,"Ġinhalt":13318,"ĠmuÃŁ":13319,"ĠKie":13320,"ĠNoten":13321,"Ġav":13322,"ĠKommandeur":13323,"eiermark":13324,"laubnis":13325,"Ġempfangen":13326,"Ġplus":13327,"Ġwohnzimmer":13328,"ĠSciences":13329,"ĠIdentitÃ¤t":13330,"irurgie":13331,"ĠYoung":13332,"/>":13333,"TER":13334,"cle":13335,"ĠSamen":13336,"arz":13337,"Ġ(),":13338,"ira":13339,"ĠAnliegen":13340,"âĢĿ,":13341,"ĠÃ¤hnliche":13342,"Ġausgebildet":13343,"ĠGiovanni":13344,"geln":13345,"Ġup":13346,"Ġsenden":13347,"weilig":13348,"ĠAnat":13349,"ega":13350,"ruder":13351,"ufer":13352,"aufgaben":13353,"ĠFlÃ¼ss":13354,"Ġbesonderer":13355,"Ġernannte":13356,"Ġversorgt":13357,"ĠStaates":13358,"urnalist":13359,"fÃ¤hig":13360,"ladimir":13361,"CDU":13362,"ĠEvents":13363,"etaill":13364,"ĠÄĮ":13365,"Doch":13366,"QL":13367,"nt":13368,"ĠDrag":13369,"Ġfragen":13370,"ĠHenn":13371,"ĠNer":13372,"Ġgeweiht":13373,"ĠOran":13374,"ahne":13375,"ĠBeweis":13376,"ĠUnterschiede":13377,"Ġenorm":13378,"ĠAllein":13379,"Ġbefanden":13380,"ĠBergbau":13381,"Ġquer":13382,"affe":13383,"ĠTageb":13384,"Ġerkennt":13385,"ĠErinnerungen":13386,"Ġverabschie":13387,"Dre":13388,"Hans":13389,"Soll":13390,"kreise":13391,"ente":13392,"Ġsa":13393,"reste":13394,"ĠCann":13395,"ĠZwie":13396,"ĠSchacht":13397,"ĠProjekten":13398,"ĠMarco":13399,"ĠNachfrage":13400,"ĠFrances":13401,"ĠSchwein":13402,"Ġenger":13403,"ĠEva":13404,"ĠGitarre":13405,"ĠmaÃŁgeblich":13406,"ĠJedoch":13407,"reit":13408,"sz":13409,"Ġsilber":13410,"ĠKlin":13411,"ĠKeine":13412,"ĠJÃ¼n":13413,"ĠStimm":13414,"ĠZeilen":13415,"ĠfÃ¼rs":13416,"ĠAnreg":13417,"ĠKleider":13418,"meyer":13419,"Ġ69":13420,"ĠPartie":13421,"ĠContent":13422,"ĠKommunikations":13423,"ĠErwart":13424,"ĠAussagen":13425,"ĠSchwarzen":13426,"ĠSternen":13427,"ĠVerteidigungs":13428,"Digitalisat":13429,"Col":13430,"haut":13431,"inental":13432,"ĠDia":13433,"ĠEC":13434,"ilden":13435,"ĠlÃ¤nd":13436,"verg":13437,"ĠEsc":13438,"ietz":13439,"Ġeigentliche":13440,"ĠangekÃ¼nd":13441,"afeln":13442,"ĠÃĸsterreichs":13443,"ĠMittag":13444,"auna":13445,"ĠLeichtathletik":13446,"November":13447,"MÃ¶":13448,"video":13449,"ĠKuchen":13450,"umme":13451,"hedr":13452,"ĠÃ¼bersch":13453,"ĠVorschlag":13454,"ĠRealitÃ¤t":13455,"fÃ¼hle":13456,"ĠKirchengemeinde":13457,"ĠApothe":13458,"figuration":13459,"September":13460,"kontakte":13461,"Ġchristlichen":13462,"ĠlÃ¶ste":13463,"tÃ¤u":13464,"Ġweich":13465,"ĠTSV":13466,"Ġtour":13467,"egung":13468,"Ġstre":13469,"arth":13470,"Ġspeichern":13471,"kleid":13472,"ĠKompetenz":13473,"ĠIstanbul":13474,"Datum":13475,"Ġrenomm":13476,"ĠBesatzungs":13477,"kÃ¼rzung":13478,"Ġprofitieren":13479,"ef":13480,"lige":13481,"ĠVerst":13482,"ĠAnwalt":13483,"schenke":13484,"ĠRegiment":13485,"ĠForscher":13486,"ĠManuel":13487,"ĠÃĦm":13488,"ĠmÃ¼sse":13489,"Ġ1862":13490,"ĠSamuel":13491,"ASS":13492,"ĠPositionen":13493,"ĠKolleg":13494,"strahlt":13495,"ĠNominierung":13496,"UL":13497,"hlich":13498,"jamin":13499,"orph":13500,"ĠEmail":13501,"ĠOver":13502,"speicher":13503,"ĠInsolvenz":13504,"Ġjene":13505,"ittle":13506,"reicht":13507,"Ġschnellen":13508,"bleme":13509,"ĠJeff":13510,"ontrolle":13511,"ĠKriterien":13512,"Ġfordert":13513,"Ġilleg":13514,"ĠZutaten":13515,"Ġggf":13516,"Dezember":13517,"ĠHay":13518,"ands":13519,"ionier":13520,"gerecht":13521,"Ġumstritten":13522,"ctions":13523,"ĠWeltmeister":13524,"Ġnunmehr":13525,"Ġ1883":13526,"ĠniederlÃ¤ndischen":13527,"zylinder":13528,"fÃ¶rmige":13529,"Ġverbessert":13530,"Ã¤rtner":13531,";;":13532,"Ġsamt":13533,"imo":13534,"rud":13535,"ĠSpark":13536,"rauÃŁen":13537,"ĠBereit":13538,"ianischen":13539,"Ġ96":13540,"Ġausgewiesen":13541,"ampfadern":13542,"arbeitungs":13543,"Ġentwickelten":13544,"ĠgÃ¼nstigen":13545,"ĠRÃ¤um":13546,"ĠTrotzdem":13547,"ĠDemokratie":13548,"spflicht":13549,"same":13550,"ĠMike":13551,"berichte":13552,"abschluss":13553,"ĠSpar":13554,"ĠBefrei":13555,"ĠAbstieg":13556,"ĠZeitschriften":13557,"ĠSpielfilm":13558,"ĠWohnhaus":13559,"ĠFestung":13560,"ĠZustimmung":13561,"ĠBotschaft":13562,"agnose":13563,"ĠZwecke":13564,"Ã¢teau":13565,"ĠKrÃ¤fte":13566,"miral":13567,"John":13568,"Nur":13569,"OK":13570,"Ġmotiv":13571,"Ġvermittelt":13572,"zieher":13573,"ĠGewÃ¤sser":13574,"ĠFranzÃ¶sisch":13575,"muster":13576,"wall":13577,"enken":13578,"eife":13579,"Ġanspruchs":13580,"Ġaufnehmen":13581,"skon":13582,"Ġeure":13583,"ĠStress":13584,"ĠSÃ¼ÃŁ":13585,"ĠKrebs":13586,"ĠStockholm":13587,"ĠSpannung":13588,"Ġregionalen":13589,"ĠMesser":13590,"Ġretten":13591,"Ġeingest":13592,"hÃ¶fe":13593,"atives":13594,"Ġgewannen":13595,"ĠTÃ¼ren":13596,"ĠJournalisten":13597,"Ġumfassende":13598,"ĠSegel":13599,"ĠKenntnis":13600,"ĠFord":13601,"Ġbeherr":13602,"ĠUnterkunft":13603,"ĠLehrstuhl":13604,"ishing":13605,"ĠhÃ¤ufiger":13606,"Ġkaufte":13607,"ĠDokumente":13608,"borg":13609,"mil":13610,"Ġsitzt":13611,"ĠFair":13612,"ĠPause":13613,"ĠThre":13614,"achel":13615,"Ġaufeinander":13616,"ikationen":13617,"verarbeitung":13618,"icast":13619,"Ġberichtete":13620,"Ġ130":13621,"ĠJunior":13622,"Ġbenannte":13623,"Deutsche":13624,"Ġ%.":13625,"ĠMittelmeer":13626,"ĠfrÃ¼here":13627,"Ġdis":13628,"arfilm":13629,"Ġfaszin":13630,"ĠWork":13631,"ĠLÃ¼n":13632,"leten":13633,"ĠStationen":13634,"ĠlÃ¤dt":13635,"ĠVorfeld":13636,"Ġlieb":13637,"ĠGebirg":13638,"Ã¤mpft":13639,"ING":13640,"zÃ¼gen":13641,"ĠGutschein":13642,"Ġfertiggestellt":13643,"ĠGeheimnis":13644,"liederung":13645,"Ġphilosoph":13646,"ĠEnsemble":13647,"Luft":13648,"ĠrÃ¤um":13649,"ĠViet":13650,"Ġzust":13651,"ĠBefest":13652,"1939":13653,"haftet":13654,"Station":13655,"Orig":13656,"ĠSitzung":13657,"Ġspezialisiert":13658,"Ġrob":13659,"ĠAndrea":13660,"ĠErdbe":13661,"Mittel":13662,"kind":13663,"lernen":13664,"run":13665,"unen":13666,"schrau":13667,"ĠKroat":13668,"ĠWitten":13669,"Ġverschl":13670,"Ġtrafen":13671,"ranten":13672,"ĠLevel":13673,"these":13674,"Ã¤mmer":13675,"ĠZweig":13676,"gliederung":13677,"Ġbekanntesten":13678,"gespielt":13679,"ĠMÃ¶nchen":13680,"Ġkostet":13681,"Leist":13682,"ns":13683,"wÃ¼n":13684,"zelt":13685,"ĠSed":13686,"ĠPav":13687,"liesen":13688,"ĠPhÃ¤nomen":13689,"ĠZwangs":13690,"1986":13691,"ĠHÃ¶hepunkt":13692,"ĠWesentlichen":13693,"ĠAudi":13694,"Ġromant":13695,"HÃ¶r":13696,"breite":13697,"enhagen":13698,"ĠFÃ¤r":13699,"Ġfil":13700,"ĠJew":13701,"Ġanzeigen":13702,"ĠErstellung":13703,"1980":13704,"major":13705,"ĠElf":13706,"Ġ02":13707,"gewÃ¤sser":13708,"Ġverlieren":13709,"ĠHilf":13710,"ĠComic":13711,"Ġdiskutiert":13712,"April":13713,"unfall":13714,"ĠBang":13715,"ĠValle":13716,"weich":13717,"echer":13718,"illy":13719,"oka":13720,"periode":13721,"Ġgesichert":13722,"Ġgesammelt":13723,"Ġ160":13724,"Ġseither":13725,"offer":13726,"athan":13727,"ĠClient":13728,"alisierte":13729,"ĠPetersburg":13730,"ĠLieferung":13731,"ĠAndrÃ©":13732,"Main":13733,"kol":13734,"elekt":13735,"Ġmathemat":13736,"2021":13737,"ĠMuseen":13738,"ansas":13739,"ĠReiches":13740,"ĠAllgemeine":13741,"ĠHeilbronn":13742,"ĠAmerica":13743,"Ġholen":13744,"sabgeordneter":13745,"ĠBeratungs":13746,"bald":13747,"liger":13748,"mung":13749,"tlicher":13750,"ĠBald":13751,"ĠDun":13752,"ĠDIN":13753,"schaden":13754,"Ġster":13755,"gewalt":13756,"handelt":13757,"ĠFranzosen":13758,"ĠKurfÃ¼rst":13759,"ISDN":13760,"Ġholte":13761,"Ġkeinerlei":13762,"ĠVictor":13763,"offizier":13764,"ĠBronzemedaille":13765,"Au":13766,"kla":13767,"sver":13768,"wid":13769,"ĠBreiten":13770,"ĠMeier":13771,"Ġwirst":13772,"pfalz":13773,"auftritt":13774,"ĠSaarb":13775,"ĠKostenlos":13776,"1975":13777,"Ġkompon":13778,"ĠAnders":13779,"ĠVoraussetzung":13780,">,":13781,"Go":13782,"typ":13783,"wann":13784,"ĠSech":13785,"ĠHÃ¤usern":13786,"Ġerwerben":13787,"Ġdesselben":13788,"ĠVorarl":13789,"ammlungen":13790,"Stat":13791,"ĠForce":13792,"prÃ¤sidenten":13793,"sgruppe":13794,"ĠKoblenz":13795,"Ġ1869":13796,"Beruf":13797,"ĠSchÃ¼lerinnen":13798,"Ġpraktische":13799,"ĠJerusalem":13800,"Ġengagierte":13801,"ĠstÃ¤dtischen":13802,"WE":13803,"enten":13804,"Ġdicht":13805,"ĠBat":13806,"bergen":13807,"ĠVamp":13808,"Ġangrenzen":13809,"ĠSchal":13810,"ausstattung":13811,"Ġunterlag":13812,"host":13813,"quellen":13814,"skirche":13815,"Ġhierzu":13816,"systems":13817,"sphase":13818,"ĠSympt":13819,"ĠAgentur":13820,"Netz":13821,"Äĥ":13822,"Ġechte":13823,"Ġbilder":13824,"Ġzert":13825,"ĠPokal":13826,"ĠLav":13827,"ckte":13828,"roph":13829,"Ġlohnt":13830,"nennung":13831,"riet":13832,"ĠvorÃ¼ber":13833,"Ġberechnet":13834,"Ġ67":13835,"ĠOberÃ¶sterreich":13836,"Ġgeraten":13837,"lexikon":13838,"ĠStudies":13839,"ĠSchuld":13840,"ĠRÃ¼cktritt":13841,"drucks":13842,"ĠAssistent":13843,"Ġwissenschaftlicher":13844,"ĠHanse":13845,"Ġnotwendigen":13846,"ĠFrÃ¼hling":13847,"ÄŁ":13848,"ÅŁ":13849,"Ġderselben":13850,"Ġmoment":13851,"ĠWesen":13852,"uma":13853,"ĠNu":13854,"ĠNest":13855,"Ġansehen":13856,"imes":13857,"ĠErhebung":13858,"ĠBerichte":13859,"Ġbetreffen":13860,"ĠUniversitÃ¤ts":13861,"ĠOlympia":13862,"ĠberÃ¼hmten":13863,"ĠTwitter":13864,"KirchengebÃ¤ude":13865,"Ak":13866,"HC":13867,"kins":13868,"lÃ¤ndern":13869,"ĠSz":13870,"ĠSid":13871,"Ġkaiser":13872,"ogra":13873,"hoven":13874,"klen":13875,"Schutz":13876,"Ġgerecht":13877,"Ġvollkommen":13878,"ĠPariser":13879,"ĠGestalt":13880,"eistertitel":13881,"Design":13882,"Ġplanen":13883,"ĠIllustr":13884,"Ġeventuell":13885,"PersÃ¶nlichkeiten":13886,"vort":13887,"Ġest":13888,"ĠMent":13889,"ĠGU":13890,"ĠEro":13891,"Ġna":13892,"ĠLow":13893,"ĠOd":13894,"Ġleiten":13895,"ĠAnleitung":13896,"stellern":13897,"plÃ¤tzen":13898,"ĠGebÃ¤udes":13899,"Ġ78":13900,"Ġbetreut":13901,"rechtlichen":13902,"ĠVerlÃ¤ngerung":13903,"ĠWilliams":13904,"allery":13905,"ĠMunicip":13906,"ĠÃ¼brigens":13907,"PrÃ¤sident":13908,"ĠiPhone":13909,"Ma":13910,"Mitt":13911,"has":13912,"nischen":13913,"anel":13914,"ĠMov":13915,"Ġerlebt":13916,"lehnung":13917,"ĠGeschlecht":13918,"mÃ¤ÃŁige":13919,"ĠGehirn":13920,"1988":13921,"ĠResult":13922,"Regie":13923,"ĠlÃ¤ngere":13924,"ĠPremium":13925,"ĠEreignis":13926,"Ġfotograf":13927,"kÃ¶nig":13928,"ĠPyr":13929,"ĠPension":13930,"ĠkÃ¼r":13931,"Ġspanischer":13932,"idakt":13933,"ĠVorstellungen":13934,"ikerin":13935,"ĠAuton":13936,"ĠZeichnungen":13937,"begriff":13938,"ĠSatell":13939,"Ġrenov":13940,"Ġvorbereitet":13941,"ĠHollywood":13942,"Wohn":13943,"Ġechten":13944,"enkt":13945,"element":13946,"ĠDÃ¼n":13947,"achus":13948,"ĠLeucht":13949,"Ġvoneinander":13950,"Ġunk":13951,"Ġ1830":13952,"ĠAusgleich":13953,"ĠRezens":13954,"ĠStadtgebiet":13955,"unker":13956,"Ġexperiment":13957,"sportler":13958,"Ġgelangte":13959,"fektur":13960,"Ġwidmete":13961,"Ġforderte":13962,"Brite":13963,"runden":13964,"wil":13965,"Ġdetaill":13966,"alo":13967,"alin":13968,"ĠDritte":13969,"ĠRÃŃo":13970,"Ġkunst":13971,"ĠJord":13972,"ĠOR":13973,"Ġ76":13974,"ators":13975,"Ġkonstru":13976,"ĠRechtsan":13977,"ĠunterstÃ¼tzte":13978,"ĠErwÃ¤hnung":13979,"ĠAudio":13980,"wechslungs":13981,"ĠverlÃ¤ngert":13982,"Data":13983,"VI":13984,"suche":13985,"Ñĥ":13986,"ĠAgr":13987,"ĠFavor":13988,"ĠGod":13989,"ĠGard":13990,"umfang":13991,"ĠVin":13992,"Ġgefahren":13993,"Ġline":13994,"Ã¶rer":13995,"ĠBerÃ¼cksicht":13996,"ĠgenÃ¼":13997,"ĠzurÃ¼ckgegeben":13998,"Ġ125":13999,"ativitÃ¤t":14000,"ĠglÃ¤n":14001,"ĠKolonial":14002,"ĠHenri":14003,"Ġwunderbar":14004,"ĠtatsÃ¤ch":14005,"Michael":14006,"HS":14007,"chi":14008,"Ġdella":14009,"ĠDire":14010,"ĠFI":14011,"ĠFuchs":14012,"Ġglaube":14013,"Ġumgew":14014,"ĠAusflug":14015,"ĠWester":14016,"ĠKomplex":14017,"ĠKonzern":14018,"udent":14019,"Ġweb":14020,"oro":14021,"ĠBut":14022,"ĠFound":14023,"ĠGT":14024,"ĠLichten":14025,"ĠLaub":14026,"ĠVill":14027,"linois":14028,"rio":14029,"ĠChi":14030,"Ġberlin":14031,"Inf":14032,"Ġbildeten":14033,"Ġbesseren":14034,"partei":14035,"ĠHelden":14036,"ĠPublikationen":14037,"ĠKabinett":14038,"Ġgesetzlichen":14039,"frauen":14040,"kÃ¼hl":14041,"nimmt":14042,"rasse":14043,"Ġmanchen":14044,"ĠTeen":14045,"verbindungen":14046,"ĠModul":14047,"Ġstehenden":14048,"Ġangeblich":14049,"ĠBroad":14050,"ĠWandel":14051,"ĠTimes":14052,"ĠhinzugefÃ¼gt":14053,"Ġwenden":14054,"ĠMP":14055,"ĠFuss":14056,"Ġerled":14057,"igi":14058,"ĠStor":14059,"ĠZin":14060,"ĠBeschluss":14061,"flÃ¼ge":14062,"fleisch":14063,"ĠThor":14064,"hÃ¶ren":14065,"ĠBundesland":14066,"Ġfesten":14067,"Ġkonserv":14068,"Ġvertrieben":14069,"ĠStaatsanwalt":14070,"Ġmoderner":14071,"Ġerkannt":14072,"ĠMargaret":14073,"ĠglÃ¼cklich":14074,"Fot":14075,"Kont":14076,"gott":14077,"iop":14078,"nommen":14079,"emeister":14080,"etscher":14081,"ĠStufe":14082,"iene":14083,"agel":14084,"Ġpfl":14085,"Ġvorzu":14086,"ĠChile":14087,"ĠImage":14088,"ĠHandeln":14089,"deutscher":14090,"grÃ¼nden":14091,"ĠMagaz":14092,"ĠTyps":14093,"ĠFreundschaft":14094,"reinigung":14095,"ĠPremierminister":14096,"Key":14097,"bit":14098,"bundes":14099,"offen":14100,"ĠHÃ¤":14101,"ĠLohn":14102,"lade":14103,"1914":14104,"ĠFlÃ¼sse":14105,"Ġberichten":14106,"ĠNeuzeit":14107,"atorin":14108,"Ġkeinem":14109,"Ġbedient":14110,"ĠStÃ¤dt":14111,"ĠPrinzessin":14112,"ĠEntwicklungen":14113,"ĠVerkaufs":14114,"Ġakadem":14115,"ĠViertelfinale":14116,"Red":14117,"null":14118,"ĠRi":14119,"Ġabges":14120,"auflÃ¶sung":14121,"Ġgewisse":14122,"ĠSoft":14123,"vorstand":14124,"Ġgeringe":14125,"Ġgefeiert":14126,"ĠNordamerika":14127,"schneiden":14128,"ĠFreder":14129,"ĠKreises":14130,"ĠLogo":14131,"ĠWirklichkeit":14132,"ĠPastor":14133,"EX":14134,"HK":14135,"ĠFA":14136,"ĠPont":14137,"ĠLack":14138,"ĠLade":14139,"ience":14140,"ĠAngehÃ¶rigen":14141,"ĠErbe":14142,"1970":14143,"Ġklicken":14144,"ĠTemplate":14145,"ĠFÃ¼hrungs":14146,"ĠWales":14147,"ĠPremiere":14148,"Ġrasch":14149,"ĠKrÃ¤uter":14150,"Ġengagiert":14151,"ĠOrchest":14152,"ĠArgentinien":14153,"Tra":14154,"futter":14155,"steile":14156,"ĠLese":14157,"Ġwarm":14158,"Ġ06":14159,"manuel":14160,"Ã¤mme":14161,"ĠVersionen":14162,"Ġkomment":14163,"ĠSports":14164,"zirke":14165,"Ġhandeln":14166,"ĠWarschau":14167,"ĠTouristen":14168,"freunde":14169,"ĠHalbinsel":14170,"Ġproduzierte":14171,"ĠSiedlungs":14172,"Ġrestaur":14173,"Ġsorgte":14174,"Betrieb":14175,"ĠGabriel":14176,"risch":14177,"ĠHalt":14178,"ĠReformation":14179,"sbild":14180,"ĠKnow":14181,"ĠSolar":14182,"ĠBischofs":14183,"ĠEichen":14184,"ĠVerÃ¤nderung":14185,"Ġdurften":14186,"ĠCarolina":14187,"asten":14188,"yb":14189,"ĠInsekten":14190,"Ġschme":14191,"perrt":14192,"oldt":14193,"ĠExtra":14194,"Ġgeschm":14195,"ĠTeppich":14196,"ĠHerrscher":14197,"geordneten":14198,"prÃ¼fen":14199,"ĠOffice":14200,"Ehrungen":14201,"kleber":14202,"Bek":14203,"shafen":14204,"vier":14205,"ĠBenn":14206,"Ġ117":14207,"Ġfe":14208,"ĠLaur":14209,"leder":14210,"ĠSchult":14211,"ĠOste":14212,"verd":14213,"ingham":14214,"folie":14215,"Ã¤chter":14216,"findet":14217,"Ġprotest":14218,"testet":14219,"Region":14220,"Ã¼tzten":14221,
[...]
