#version: 0.2 - Trained by `huggingface/tokenizers`
Ġ Ġ
ĠĠ ĠĠ
e r
e n
c h
i n
Ġ d
ĠĠĠĠ ĠĠĠĠ
s t
u n
i e
o n
ĠĠ Ġ
a n
e t
e s
i t
a t
a l
Ġ s
Ġ S
o r
l e
a r
i ch
a u
r e
Ċ ĠĠĠĠĠĠĠĠ
e in
Ġ un
a s
ĠĠĠĠ ĠĠĠ
Ġ n
e l
Ġ w
Ã ¼
i s
u r
Ġ m
g e
Ġ i
) ;
Ġ b
i on
t e
Ġ v
Ġ f
Ġun d
Ã ¤
un g
r o
Ġd ie
Ċ ĠĠĠĠĠĠĠ
a m
Ġ A
Ġ ein
Ġ in
Ġ t
Ġ (
d er
Ġ B
Ġ {
en t
Ġ D
i g
d e
Ġ =
Ġd er
in g
i l
Ġ M
Ġ z
Ġ au
ĉ ĉ
Ġ }
u t
Ġ g
e m
a b
Ġ h
i c
o l
h r
t r
Ġ F
t er
Ġ E
e it
ĊĠĠĠĠĠĠĠĠ ĠĠĠ
Ġ P
s ch
Ġ K
Ġ k
t en
s e
Ġ G
u m
e i
( )
d en
Ã ¶
Ġ I
Ġ W
Ġ T
Ġ p
u l
c e
o m
Ġ c
g et
i r
a ch
c k
Ġ r
Ġ H
Ġ L
l ich
t ion
i er
Ã¼ r
Ġ R
u s
Ċ ĠĠĠ
a g
b er
e w
as s
Ġ V
an d
Ġ l
Ġ o
Ġm it
a d
ich t
u e
Ġt h
i st
ĊĠĠĠĠĠĠĠĠ ĠĠĠĠĠĠĠĠ
u b
Ġd en
Ġz u
at e
Ġ an
Ġ e
tr ing
es s
Ċ ĉĉ
Ġ C
o t
Ġ er
at ion
Ġi f
e c
a p
Ġ ge
is ch
â Ģ
Ġv on
Ġ st
Ġ N
ur n
g en
e d
Ġ al
i m
Ġi st
ĊĠĠĠĠĠĠĠĠ ĠĠĠĠĠĠĠ
Ġau f
Ġf Ã¼r
et urn
Ġ 1
f f
Ġ "
v er
l en
Ã Ł
ul l
Ġv er
r a
an n
i d
I n
/ /
Ġi m
Ċ ĉ
p tion
p e
l o
( );
Ġd as
Ġ U
e h
l ic
k t
en d
E x
Ġb e
f t
am e
Ġn ew
in d
s er
Ġ J
r i
ie l
n en
Ġ Z
Ġr eturn
Ġ O
ĠS ch
Ġ 2
b en
Ġs ich
ĠI n
t h
Ġw ir
Ġn ull
Ġ re
ĠS t
m en
ĠĠĠĠ Ġ
a ge
Ġau s
Ġs ch
Ġ //
z e
ce ption
o ch
p er
ĠS ie
ub lic
Ġ +
o d
el l
Ġ j
al l
Ġ -
u ch
a h
Ġein e
Ċ ĠĠĠĠĠ
ĠV er
Ġd es
i k
i v
Ex ception
un d
ar t
( "
. .
Ġ âĢ
s p
i f
Ġd em
or t
S tring
Ġn icht
ĠA n
C on
a hr
y pe
ung en
Ġau ch
Ġs o
S t
er n
s en
l ass
i b
Ġb ei
ab le
e hr
Ã¤ n
u p
Ġ es
e st
i le
Ã¼ ber
ig en
ĊĠĠĠĠĠĠĠĠĠĠĠĠĠĠĠĠ ĠĠĠ
o p
ĠD ie
e x
N ame
ĠS tring
i en
ro w
in al
p ublic
0 0
or m
st en
s et
g er
ec t
p l
Ġ ab
al ue
o s
Ġw er
m er
es ch
u f
o de
c t
e g
Ġo der
Ã¶ n
o g
Ġ Ã¼ber
in e
Ġw ie
Ġ 0
Ġal s
er s
in t
ung s
m ent
Ġs ind
ter n
Ġwer den
Ġth e
a ck
h e
h n
l er
r an
Ċ ĊĠĠĠĠĠĠĠ
E n
Ġ a
Ġ= =
u g
q u
k en
b j
Ã¤ t
T ype
p r
ĠU n
R e
p t
p ut
ĠP ro
o c
ĠE r
e y
Ġh at
Ġg et
Ġ um
ul t
Ġh ab
() )
isch en
o ur
z en
on t
Ġ ich
Ġv or
as e
an g
au s
l t
Ã¼ n
er t
Ġth row
o o
ur ch
Ġ !
Ġn ach
Ġs ein
() .
e u
i ge
- -
q ue
ad d
ĠA r
Ġ ent
P ro
a st
at h
Ġt r
en n
h al
ol l
et z
il d
i z
au f
Ġ &
n er
ĠE in
Ġp ro
0 1
bj ect
e f
ch en
ĠĠĠĠĠĠĠĠ ĠĠĠĠĠĠĠĠ
a k
) )
I d
L ist
Ġs ie
" );
R es
Ġein en
at ch
p on
Ġwir d
b eit
at a
Ġt o
" ,
r it
ier t
ĠS p
ch e
I N
que st
e b
g r
Ā Ā
Ġr es
h t
sch a
i al
Ġf or
Ġe x
Ġin t
Ġz um
o w
u st
Ċĉĉ ĉ
ap p
r au
a y
() );
Ġ am
s h
st an
Ġein er
b e
Ġ! =
h re
Ġein em
c tion
er v
el se
D ie
Ġf inal
Ġth is
Ã¶ r
o id
Ġk Ã¶n
Ġd ass
ch t
Ġw ar
Ġst at
isch e
ag en
ier en
) .
a v
k eit
E R
st e
w e
Ġz ur
ic e
h er
Ġun ser
Ġ else
Ġ :
Ġ 3
a in
i p
Ã¼ ck
Ġun ter
ĠR e
te x
el t
f orm
âĢ ľ
Ġk ann
il l
it ion
Ġm an
or d
Ġv oid
ĠA us
ar am
Ġd urch
Ġ <
Ã¤ r
() ,
ge b
lich en
o b
ĠG r
Ċĉĉ ĉĉ
Ġhab en
e ut
our ce
sch l
ĠâĢ ŀ
om m
tex t
i ze
r ie
ĠA l
V alue
Ġn och
ĠâĢ ĵ
it y
p ro
.. .
u te
de x
scha ft
u re
Ġ le
f Ã¼
ĠM it
at or
ĠE n
Ġ is
h en
Ġ |
g th
O N
A r
er e
t o
s s
ĠkÃ¶n nen
ĊĠĠĠĠĠĠĠĠĠĠĠĠĠĠĠĠ ĠĠĠĠĠĠĠ
e il
il der
ex t
lich e
st ell
iv e
ach t
Ġn ur
im e
ein e
Ġb is
ic k
) );
Ġz w
Ġw ur
C lass
ra y
Ġm ehr
per t
p f
an z
i re
f ig
r es
us s
r u
T o
Ġ Ã
i ent
b ar
ĠJ ahr
ĠA b
ie s
Ġc on
g t
Ġ& &
Ġ )
et h
un t
el len
al t
at en
iel d
Ġ2 01
[ ]
te d
A n
Ġab er
at z
ig n
Ġ *
al s
Ġs p
Ġi hr
Ġstat ic
an t
is e
le an
der n
h l
a f
le ment
pon se
ar beit
m s
B u
ĠD as
h eit
ĠV or
Ġun s
o v
Ġ 4
it h
ro m
or e
f er
a der
a x
ĠA uf
el n
ol le
Ġ '
ĊĠĠĠĠĠĠĠĠĠĠĠĠĠĠĠĠ ĠĠĠĠĠĠĠĠ
Ġdie s
r eturn
oo lean
re am
sch en
w er
ĠB e
n ew
on g
u le
Ġal le
om p
ib t
ah l
g lich
ÃŁ en
) ,
it t
te m
or y
ess age
om men
ĠD er
o st
ess ion
re ich
ar k
erv ice
v ent
ut z
r Ã¤
re i
m e
re ate
f o
eh en
y st
um ent
d u
Q u
u d
un den
et t
o f
eit er
K ey
č ĊĠĠĠĠĠĠĠ
r y
a z
Ċ Ġ
ri v
Ġan der
c ess
C h
eth od
l ie
Ġg en
Ã¤ hr
a il
U n
et er
a ce
Â Ń
Ġn e
yst em
stan ce
Ġ >
a ct
eh men
M ap
ur r
st er
de m
z eit
s ion
Ġthrow s
l l
ar e
al e
ĠL e
Ġ 5
Ġg ro
ar sh
te il
o ut
arsh all
on n
Ġb er
ff en
O bject
Re quest
A t
ff er
in k
r or
a c
len gth
et e
Ġf in
o unt
app end
r ing
E N
Ġwur de
el le
etz t
b st
ass en
un k
l es
w ie
f ahr
ĠI hr
-- --
Ġ ch
el d
ĀĀ ĀĀ
f or
le ich
ÃŁ e
D ata
Ġ /
v al
e p
f inal
ĠB er
Ã¼ t
A T
f l
o hn
re is
g es
č Ċĉ
Ġs ehr
Ġw as
Ġj e
Ġc atch
ar d
ĊĠĠĠĠĠĠĠĠ Ġ
y n
ie le
n is
t s
F ile
ch n
Ġg es
o ub
ĠW ir
th is
Ġh ier
ig er
P aram
O ver
Ġw e
ri de
Ã¶ glich
oub le
S T
an ge
Ġ .
ing s
ach e
f e
e qu
S et
l ient
k l
c ri
ĠZ eit
o ck
it Ã¤t
sch ie
r Ã¼
in der
Ġw enn
P ath
Ġp ublic
Ġwie der
tr y
en er
am m
I D
B y
le g
Ġtr y
ĠH er
h nen
im m
ĠC h
al se
Ġo f
N ode
Ġl ie
R E
Ġ it
I m
pert y
k e
Over ride
g el
c on
ĊĠĠĠĠĠĠĠĠĠĠĠĠĠĠĠĠ ĠĠĠĠĠĠĠĠĠĠĠĠĠĠĠĠ
t il
ĠP l
Ġd ann
urr ent
Ġ on
Ġsch on
Ġc ase
ĠI m
Ġim mer
Ġ1 9
Ġs oll
Ġ et
ach en
f ol
Ġres ult
Ġs et
Ġd ar
ig keit
p en
riv ate
ig t
Ġg ibt
Ġn ot
at t
Ġv alue
Ġv iel
t p
lo s
Ã¤ ch
l au
Ġb oolean
tr ib
Ċ ĊĠĠĠĠĠĠĠĠĠĠĠ
on der
c lass
ĠT e
in ter
Ġdie se
Ġg ut
ĠG esch
St ream
ĠT h
ĠE s
o sten
Ġn eu
eit e
ĠL ist
Ġb es
Ġg r
Ġge w
ĠE x
i a
Ġs el
in n
f ach
ro up
ĠF re
i o
i x
Ġv om
Ġbe st
f en
l ine
D er
Con fig
at er
it e
A R
ĠU m
o ff
U til
et en
s b
Ġ 6
er y
l in
In dex
au t
Ġi hre
+ +
ĠS tr
or k
ad t
Bu ilder
Ã¤n d
ĠN ach
i de
Con text
Ġ ar
an k
ĠM en
o k
i der
ĠO bject
er m
A L
ĠI hre
fÃ¼ hr
Res ponse
ar ten
Ġ or
T ra
M essage
a kt
ich er
ĠO r
Ġf alse
ran s
ĠD eut
ĠG es
Con t
able d
it z
en ce
at ur
ec tion
m al
Ã¤ h
ĠEn t
am men
ig ht
Ġso wie
lo ck
ier ung
č ĊĠĠĠĠĠĠĠĠĠĠĠ
č Ċ
Ġd a
In fo
Ġ Â
Ġh er
p ort
hn e
ĠF l
O R
o int
Ġdie ser
ag er
Ġw eiter
hal ten
gen d
ation en
ĠAr beit
C om
Ċ Ċĉ
equ als
Ċ ĊĠĠĠ
g esch
ie t
uch t
E lement
ol um
au lt
T ime
ĠS o
D as
E r
Ġhab e
is sen
e k
Ġk le
a de
ur g
Ġge m
A d
p rivate
L E
ĠUn ter
Ġm ein
oo k
ĠÃ ľ
el s
che ck
ĊĠĠĠĠĠĠĠĠĠĠĠĠĠĠĠĠĠĠĠĠĠĠĠĠ ĠĠĠ
Ġtr ue
Ġd u
w ick
Ã¶ ch
g ument
il ter
Ġet w
S ervice
p p
au m
ei m
as k
ĠSch w
U R
Ġ en
F ield
Ã¼ hr
s on
re ak
t es
Ġ and
as h
it er
En abled
l ung
d ate
Ġ| |
y te
d r
us ammen
O f
y p
Ar ray
on e
ation s
En try
v alue
en den
ol len
ie len
Ġ x
z u
rit e
St at
o und
D ef
Ġ( !
ĠK on
A l
Ġbe k
lo g
L A
Ġ Qu
Ġh in
pon ent
IN G
re m
M E
S ch
ver s
ĠSp iel
ab ei
M od
Ã¤ l
Ġm ir
Ã¶ ff
n ame
u ÃŁ
c l
al en
Ã¤ lt
olum n
ĠW er
re d
ĠZ u
Ġein es
č Ċĉĉ
Ġein fach
st r
am it
c o
ck en
Ġ ?
eh t
Ġge gen
e le
ĠE ur
ĠH and
Ġ at
Ġfin den
g an
Ġ 8
un de
G roup
t tp
ĠĠĠĠ ĠĠ
ar i
m itt
ent lich
I T
eit en
M an
> >
ĠÃľ ber
Ġg esch
ov e
p ar
b r
Ġb u
Ġre quest
am en
ar get
lo se
ĠT r
O Exception
Ġm ich
ĠLe ben
ĠPro du
n e
Ġ add
w end
ĠL and
tern ehmen
Ġ 7
o hl
o te
ĠR eg
Ġin stance
Ġl og
oc ol
ier te
am es
ĠM ar
d s
Ġg anz
Ġbei m
z t
s ize
t ocol
O r
ĠIn tern
Ġb et
trib ute
m b
Ġk eine
hal t
e v
Ġdies em
eit s
st ra
Ġzw ei
eu te
r agen
ĠI hnen
tr ag
u se
a den
Ġm al
ess en
ur ation
ĠA ut
Ġne ue
Ã¼ s
im mer
in en
as se
icht ig
um ber
ĉĉ ĉĉ
b ack
e kt
Pro perty
pt y
00 0
g ab
n ot
re ad
A N
ut put
n ah
Ġo hne
Ġd eut
c es
rit er
St ate
Ġf re
Ġsel bst
Ġc reate
r ag
D E
Ġk ey
c cess
I ON
sch e
S p
Ġ1 0
S E
Ġc ont
ie w
Ġp ar
or n
u es
in nen
ĠI ch
Ġ( (
W ith
Ġw el
k tion
r en
am p
ers on
l et
ĠK inder
Ġg el
ĠB et
c om
ei st
Ġ X
Ġ _
2 01
ei ÃŁ
l y
schie den
] ;
ol og
au se
ran k
b au
orm at
Res ource
Ġn ame
ru ck
H e
an s
auf en
Ġ @
Ġ ro
Ã¤ d
k ey
S ize
C lient
ch er
em a
Ġg er
act ory
m in
u per
Res ult
lo w
ass er
we ise
ie b
schl and
V al
ĠD aten
ĠF rau
te ger
Ã¶ s
m l
A s
Ġge f
Ġb reak
ĠT eil
c ont
Ġs on
ar y
ah re
to String
ol d
L oc
ist er
ĠJahr en
ĀĀĀĀ ĀĀĀĀ
pr ession
sp r
Ġk ein
z ent
un ter
av a
Ġ 9
Ġw h
uch en
g s
Ġer st
H and
N ot
č ĊĠĠĠ
l and
s atz
Ġt ype
b le
Ġl ist
ah n
l leg
l Ã¤
M ethod
en gth
ĠG eb
stell t
f ten
as ch
arshall er
ĠUn d
1 0
P ar
Ġbe f
Ġp er
n et
ge ben
lic k
c ted
ĠT ag
os ition
Ġsch n
get S
s k
Ġetw as
lleg al
un der
ĠB l
Ġw ill
f all
ĠAr t
ut ion
b ild
st ag
E vent
Ġa kt
re e
Ġunser e
< ?
ig ung
s w
b u
Ġw en
s o
em ber
ĠMen schen
b o
is p
Ġv iele
ar n
isch er
N ull
M arshaller
am il
ze ich
Ġ2 00
E m
Ġan ge
v or
Ġe igen
D es
ate g
Ġd ef
pert ies
e ich
omm t
Ġs h
---- ----
Ġv al
Ar gument
Ġ end
Ġin ter
ab el
Ã¼n d
S S
olle ction
Ġf ile
Ġaus ge
ĠD u
k te
ĠW eb
Ġm achen
tocol Marshaller
Ġsein e
Ġo b
z w
ĠSch l
ĠUn ternehmen
Ġd amit
Ġs eit
L O
ĠA m
C E
1 1
Ġander en
i um
ie ten
ich te
n ection
Ġp aram
ich ten
an der
ĠM in
ĠS ystem
an ce
Ġm uss
ir st
Ġh and
Ġd ouble
or en
Ġbes onder
r on
r ap
Ã¤ ft
ĠU hr
ĠG ew
Ġinstance of
b urg
ro l
en s
Ġhat te
iz ed
Ġf ind
s am
re g
ĠB au
Ġge ht
ĠSt adt
ow n
ĠB es
Ġg leich
ĠI OException
z ial
Er ror
ĠF ahr
M et
ser v
In stance
ĠGr und
az u
Ġver schieden
ĠK l
Ġ qu
u de
ĠDeut schland
if ic
a ar
ĠC on
Ġein z
= =
++ )
Util s
ier ten
p s
F or
ĠIn form
ĠAr ray
C H
Ġd abei
Ġd ire
r icht
O ption
p h
L og
Ġ em
n ull
hal b
Ġ2 0
ĠH aus
ĠW e
val id
al itÃ¤t
Ġm Ã¶ch
W ir
Ġst art
ĠB r
Ġal l
Ġj etzt
ĠG e
er ver
at ive
Ġver b
Ġge h
en z
ĠB est
a ÃŁ
Ġsch w
c reate
ĠD es
at Ã¼r
C ount
j ect
Ġl assen
Ġunser er
ĠJ ahre
Ġin s
ie d
s st
Ġw eit
Ġ te
st Ã¤nd
ĠS h
Ã¼n st
Ã¶glich keit
us er
ro t
cri pt
Ġzw ischen
Ġc om
ĠI llegal
Ġwur den
ĠN e
Ġw ith
Com ponent
ch s
F actory
z ung
unk tion
ĠB ei
us ik
ĠW elt
R O
Ġl ong
Ġber eits
st alt
ge m
( (
ir t
al d
ing en
ber g
ĠG er
Ġbe g
ĠB o
ul d
au pt
ur z
ĠP ol
Ġ1 8
ĠB ild
iv en
Ġer sten
und es
ate d
Ġn un
ĠF Ã¼r
t ype
l age
is s
w w
Ġneu en
T E
get Name
al ten
ern e
ĠÃ ĸ
1 2
Ã¶ l
Ġj ed
ei d
âĢ ¦
Ġi d
ĠW ohn
o ol
ain er
iet et
le it
Ġ up
Man ager
" )
ĠO n
Ġf ol
A ll
S h
Ġz e
V er
o h
Ã¶ t
I tem
es en
Ġal les
ĠW och
Em pty
ĠF ar
is en
ĠIn ter
To ken
ĠM on
c c
ze ug
Ġd och
t ag
st ru
ĠS te
Ġdies es
at s
re f
> ();
ess er
Ġk osten
ÃŁ er
s ub
Ġd ata
at ure
Ġ check
st art
Ġm Ã¼s
sp re
am t
Ġz usammen
Ġ [
Ġf rom
g ang
ĠB ew
C ode
Ġden n
or g
Bu ffer
g leich
z ie
ff set
Ġpro tocolMarshaller
ĠF or
Param eter
in dex
lo ad
Ġh och
ĠF ot
Ġson dern
s icht
ar ch
fahr en
et ers
ann t
Ġm ethod
wer k
ĠF ile
av e
* *
I ch
st Ã¼t
Ġb in
Ġb ew
Ġ1 2
Ġc urrent
a w
ĠP erson
EN T
ol z
st and
T ext
pr int
te cted
g l
ack age
Ġin put
ĠC lass
lich er
sch utz
ĠM an
F rom
Ġal ler
Ġ ...
ra ge
C all
In ter
Ġwar en
Ã¤ m
Ġ1 5
Ġb ietet
ĠM ed
sch ein
de ut
stell ung
ĠS ex
a ff
ere ich
k ommen
Ġl etz
In put
Ġ y
eu er
Ġm ax
a ction
Ġp l
it te
en de
un ction
ĠM ap
Ġin dex
if ier
ĠK om
E in
un st
ĠA u
un kt
ĠK unden
yn c
Ġm Ã¶glich
Ġer w
w ert
n ung
At tribute
ĠP art
Ġer h
le i
Ã¤n der
de b
Ġres ponse
Ġh eute
ist en
Ã¼ h
Ġf ield
ĠEur o
w ort
fol g
D ate
b t
R ec
IN D
S tr
em ent
U p
ĠA d
Ġj a
ar te
Ċĉĉĉĉ ĉ
Ġsch Ã¶n
" ;
t el
n ext
z immer
ĠU r
ien st
o se
z lich
Ġander e
ĠK ont
ĠM od
ain s
Ġk onn
per ation
uch e
get C
Ġp ath
Tra ce
En t
c urrent
i an
Ġc lass
cri ption
C O
l agen
P E
sp iel
on d
ĠG l
fer ence
Ġschn ell
Ġb esch
lo at
od y
ĠW ie
au er
ĠVer b
re cht
ri ff
h aus
u al
T able
Hand ler
Ġm in
ĠK le
Ġ Y
Ġk ommen
ĠR es
s um
c ode
Ã¤ re
Ġsein er
yp es
Ġk om
w rite
atÃ¼r lich
B e
rie b
u er
y s
č ĊĠĠĠĠĠĠĠĠĠĠĠĠĠĠĠ
m ann
ur s
C T
Ġw o
ĠG em
ei den
deb ug
ĠT ra
M it
Ġge b
T rans
o gen
Ġd azu
Ã¤n ger
ut t
ach ten
it s
f ile
Ġwh ile
ĠSt ud
ĠL ie
ct or
ĠP reis
Ġin d
Qu ery
V ers
Ġst eht
Ġ> =
p or
h as
ĠP f
Stat us
le x
ĠAn geb
th er
O n
Ġk ommt
Ġl ang
St art
Ġsoll te
ĠArray List
Ġn ode
Ġs e
ag es
au en
g n
Ġe ben
z ug
F ormat
L ine
in ition
ge w
Ġd o
Ġre g
u ft
for der
Ġh e
stan ts
ĠF amil
Ġb yte
h and
Ġ ur
an gen
ĠÂ »
A ME
Ġf Ã¼hr
F I
gr amm
ar m
Ġihr er
or f
ĠDie se
> (
He ader
Ġ' \
Argument Exception
Ġk l
ĊĠĠĠĠĠĠĠĠĠĠĠĠĠĠĠĠĠĠĠĠĠĠĠĠ ĠĠĠĠĠĠĠ
op y
ĠB ereich
Ġo ut
ur t
p os
g lie
Ġ201 8
ĠT he
2 0
en k
ck er
Ġm od
Ġihr en
ater ial
Con nection
G E
Ċ ĊĠĠĠĠĠĠĠĠĠĠĠĠĠĠĠ
T Y
t c
fÃ¼ g
ĠW asser
s ol
ĠmÃ¼s sen
Ã¤hr end
all y
Ġres ource
oc ument
schl ie
ig es
m arshall
R o
ĠA uch
N umber
u ell
et s
Ġdie sen
ĠPro j
Ġje der
re it
z er
Ġw Ã¼r
Ġl Ã¤
f te
Ġd rei
Ġals o
ĠVer s
In t
z iel
kl Ã¤r
er ror
tern al
isp iel
Ġsich er
ĠS eite
5 0
A ccess
o ten
R eg
is k
ĠH ier
F ilter
m od
ĠkÃ¶n n
O utput
Ġb y
ĠH och
Ġzur Ã¼ck
T ag
U T
m p
ĠE ine
Vers ion
in den
in ation
chn ik
l ist
3 0
r at
schie d
Ġ as
st off
f ang
Ġc l
reich en
U N
P l
v e
B IND
Ġ );
de d
Ch ar
r ic
ĠF ach
U ser
a ir
ĠB undes
BIND ING
Ã¤n g
Ġcon fig
Ġein mal
D ec
Ġr et
ĠE l
L ength
_ _
al er
ĠD e
kt ur
Ġt c
Ġbe sten
ĠD urch
el ete
ut es
ut en
S c
En d
gr und
in put
or gen
sch n
" ))
Cont ent
C omp
nis se
N ext
f re
Ġ1 6
L o
ĠSt and
form at
f ort
th row
ĠInform ationen
Ġf est
ĠG ro
Ġ ,
u gend
ĠF il
ĠS e
re quest
M A
Ġre m
pro tected
Ġ %
1 9
Ġth at
A ut
ob il
Ġb ieten
ĠC ms
ĠH ot
Ġex ten
Ã¤ ÃŁ
rÃ¤ s
E s
v ider
Ġver s
P ackage
st ring
ĠB uch
Ġre ad
Ġsein en
Ġh o
le ist
Ġ â
Ċ ĊĠĠĠĠĠ
m a
N ames
omm and
Ġal len
es se
k ehr
ĠIllegal ArgumentException
T r
ĠS pe
al le
Mod el
Ex pression
Ġr und
Ġ< =
Ġn ie
S ON
at tern
Ġcon text
Ġst ehen
d ition
List ener
re v
ĠSch ul
schl uss
Ġs uper
ĠW enn
k on
Ġl oc
E D
U r
omm un
ĠBer lin
in o
ann el
al len
Ġwel che
Ġk on
P age
Ġd e
g ar
ie f
U L
not ation
a ft
Ġ1 00
u he
ĠOn line
A pp
Ġalle m
in er
our ces
P oint
ile d
Ġb en
ĠFrau en
ĠM Ã¶glichkeit
ust er
ring en
C ms
k auf
rau m
Ġc all
Ã¼ ss
k le
Ġer halten
ĠB ilder
In ner
âĢľ ,
ĠDie s
z ahl
Ġm eine
or den
ĠA t
up pe
ein en
Config uration
An d
af Ã¼r
en der
Ġs pe
Ġg erne
Ġd ir
R I
s g
ĠB Ã¼
ĠO b
ĠM usik
Ġwir k
" .
w ei
Ã¶r per
wick lung
dr ess
ĠS pr
Ġs ub
Ġgem ein
b el
as st
it ial
Con stants
de st
ĠL O
id th
h m
ect or
Ġunser en
a i
ra f
Ex ec
Ġs ehen
scha ften
ĠWeb s
Ġs ol
an zen
T h
ĠO ber
lau b
ĠP r
ier e
un ft
ĠS ervice
ik el
ge stellt
Ġ1 4
l v
ĠĠĠĠ ĉ
nah me
st ellen
is Empty
ĠM ann
sp ort
qu ire
F A
d ata
st att
Ġlie gt
ach sen
ĠF orm
b l
Ġstat t
an stalt
1 8
Ġm acht
Ġgeh Ã¶r
Ġjed och
at es
ĠRe cht
arbeit en
ak e
ĠB eg
a iled
i ver
ĠC o
ch te
ĠU S
ĠC om
ĠM ot
ĠN eu
ub l
In teger
Ġd ort
ad ata
ĠP h
b ew
Ċĉĉĉĉ ĉĉ
et ail
ing er
imm t
Ġ u
icher heit
od es
en nen
C olumn
Ġr ule
S ource
ĠÃ Ħ
Ġdef ault
lich t
il fe
op f
k unft
Ġp os
Ã¤ um
Ġletz ten
Ã¤ uf
he ck
Def inition
d es
S ie
Ġst ate
S ystem
ĠR Ã¼ck
m ar
ber eich
C ON
ent ry
p ath
Ġf r
Ġgr Ã¶
T ask
ev el
Ġ+ =
Ġ3 0
q l
ĠSp ort
et te
it zen
cont ains
lic ation
. ");
et ten
f r
č ĊĠĠĠĠĠ
ck e
S ub
it or
Ġb zw
ire ct
n eh
w ord
Ġn atÃ¼rlich
ĠK Ã¼
A D
y le
Ġ teil
re u
Ġdire kt
M P
ĠSch n
ers Ã¶n
ĊĠĠĠĠĠĠĠĠĠĠĠĠĠĠĠĠĠĠĠĠĠĠĠĠĠĠĠĠĠĠĠĠ ĠĠĠĠĠĠĠĠĠĠĠĠĠĠĠĠ
i ff
Ġst r
is sion
r c
\ "
an ze
L I
t schaft
Im pl
Ġs b
c ing
Ġv ielen
Ġunser em
Ġs ei
lich keit
is h
d k
Ġge st
č Ċĉĉĉ
m et
Ġg ar
le gen
S I
Ġge ben
ĠS et
Ġm o
Ġb eh
f ern
gan gen
m ap
Ġm essage
get Value
o uld
ĠR o
sp l
om e
st adt
Ġw eil
Ġw ollen
in s
hre ad
ag t
ĠA ber
mitt el
ĠPro ble
an ten
ra ft
at iv
ĠLeben s
Ur l
l ang
fall s
Ent ity
<? >
Ġb el
Ġc m
Ġch ar
Pro perties
ge h
ĠIntern et
Ġbesonder s
ĠP ar
gab en
ig it
ar en
Ġt arget
ver b
ĀĀĀĀĀĀĀĀ ĀĀĀĀĀĀĀĀ
k er
ĠmÃ¶ch te
er ial
ĠIhr en
Ġc a
res ult
ch ar
ĠG ef
Ad dress
l ag
im p
ĠLO G
P r
m an
âĢ Ŀ
re if
ĊĠĠĠĠĠĠĠĠ ĠĠĠĠĠ
gab e
Ġi hn
rem ove
c y
ĠZ usammen
ĠTh ema
w eg
um m
Ch ild
Ġgro ÃŁen
c ase
op p
S up
Ċ Ċĉĉ
age ment
ut ure
As ync
pr ess
ut ter
ol or
U E
Ġver w
ei ster
ah men
yn ch
ĠIhr er
Ġre cht
ĠF r
] .
get Message
A ction
ĠEn de
ĠB ed
Ġein ige
Ġs c
ĠD r
ĠK unst
ur en
im it
b ed
M L
unt ime
Ġgen au
L evel
ar z
V iew
los sen
ir k
er b
it ch
Ġm arshall
Ġgro ÃŁe
P art
pl ate
f il
ter ator
r ad
g ie
Ġent ry
w ohl
Ġ* /
im al
Ġo pt
Ġweit ere
: //
j Ã¤hr
C ache
in fo
isch es
p oint
Ġ #
lo c
ut zen
gan is
iv id
us h
w are
if ied
ĠA kt
B lock
N AME
ĠV ide
a is
r et
ĠJ ugend
L e
k ten
ĠW eg
Ã¶ff entlich
Ġe lement
Ġn Ã¤ch
Ġ1 7
Ĥ ¬
Ã¤n de
Ġs ex
ĠGem ein
Ġ are
rie ben
Ġl o
om mer
ĠN atur
An y
ĠTe am
bild ung
Ġc omp
Ġs ervice
' s
ib le
ĠM al
ĠB eh
i ft
er k
ce pt
Ġer ste
Ġt rans
d ings
st at
Ã¶r der
ing le
an den
y m
ynch ron
an te
ĠF all
()) );
Ġn o
Ġo bject
Ġn ext
ĠK osten
ĠN utz
trib utes
se hen
Ġon line
m it
atch er
p unkt
Ã ©
ĠPl atz
Ġw ichtig
' )
ĠGesch Ã¤ft
R ule
ĠS el
re ise
By tes
ann ot
Ġkonn te
ell schaft
ĠA pp
C ase
A b
ec ted
ific ation
re ib
ver t
Ġ2 5
ĠR ei
lo b
ot t
i vers
Ġd afÃ¼r
1 6
ri ft
u h
ĠL ink
ĠWoch en
S ession
O L
ĠW ei
rei ben
l n
o ver
m us
f eld
ck t
d ruck
Ġwirk lich
Ġ ad
Ġe vent
Ġex ec
ion en
Ã¼ l
Ġgro ÃŁ
ĠI de
u elle
ze u
Ġent wick
c omp
ent en
Ġ- >
tr ue
L ong
Q L
ĠS k
ĠEx ception
ĠK n
ref ix
Ġbei den
z ogen
Ġje den
pl atz
ĠEr fahr
Ġ5 0
w eit
c le
n ehmen
is D
olog ie
u ellen
ĠS eiten
ĠM ark
Ġfol gen
Ġg ute
re ffen
A m
an c
Option s
R A
up pen
Ġfind et
a un
H ttp
eb ug
in a
ĠStr a
Ġe uch
p aram
ter s
Ġre c
Ġexten ds
Tra cing
Ċ ĠĠĠĠ
Re ference
Ġl ange
ĠIn d
o x
Ġk urz
w ork
Service Response
ĠDes ign
Ġsein em
Ã¤ ten
Ġver l
ĠL og
O T
Ġ ass
le gt
ĠF ir
ĠK ar
us Ã¤t
schlie ÃŁ
ot al
Ġh as
ol ic
mer ce
ĠB esch
T ypes
ari able
ĠOr t
ĠAus w
ĠIn teger
ĠProdu kt
h in
le f
tr Ã¤
ent r
am er
ĠMit glie
ĠQu alitÃ¤t
ĠL eist
p art
Ġv oll
ĠG eld
ind ow
az z
b ei
Ġ1 3
1 5
ĠM o
Ġbu ffer
st ehen
or s
ĠMit arbeit
Ċ ĠĠ
B ei
pl ace
w alt
ĠM ill
Val id
Ġw ohl
Ġm ap
ay er
Ġw Ã¤hrend
ol it
Ġnicht s
ĠAn t
er r
ic s
L ink
Ġt ime
I f
al is
Ġeigen en
J ob
st Ã¼ck
par se
Ã¤h len
Ġst ell
le icht
el per
ri x
ĠC hr
K E
ein ander
' t
ĠCh ar
ah len
Ġkle ine
Be an
v oll
s y
in es
b et
Ã¤n ge
ĠE m
Ġk aufen
Ġh ttp
om at
ah er
R el
get D
Ġem pf
1 4
ĠProj ekt
ĠZ iel
res ource
Ġunter stÃ¼t
issen schaft
Ġso ur
R ow
F F
und le
Ġup date
()) )
Ġlog ger
Ġden en
By te
ĠEur op
Ġger ade
Ġunter schied
ĠVer ein
ĠW eiter
ĠR ahmen
2 2
Ġp r
Tracing Enabled
ĠH aupt
v is
Ġo ft
Ġinter ess
N ach
f ield
b all
Ġp ersÃ¶n
f ace
ĠM et
h eim
l auf
is Any
get M
le ben
Ġkle inen
Re ader
isAny TracingEnabled
ĠF ol
E L
ot s
on nen
ig inal
ĠlÃ¤ sst
O ffset
Ġer ror
T ree
re c
Ġp ass
ze pt
sch w
A uf
eh n
TY PE
Ġd est
Ġr icht
Ã¤ ter
k a
Loc al
le ge
Ġf ast
ĠVer fÃ¼g
ĠBes uch
an ken
h Ã¤lt
ess ages
Ġ us
Ġwen ig
ĊĠĠĠĠĠĠĠĠ ĠĠĠĠĠĠ
Ã¼ d
Ġp art
Ġo ffen
ĠH ash
app ing
print ln
W enn
sub string
ĠâĢ ľ
ab il
pr Ã¤
W riter
st ein
ra kt
ĠG en
ar s
il t
T H
reich e
rot z
uf en
Ġb esser
ĠE ner
eg ment
st it
Ġ use
-------- --------
ĠPro zent
Ġb rau
Val ues
pl ay
ĠAl s
iz er
ab en
Ġs ize
if y
F Ã¼r
T em
l ast
F e
Ġ Ã¤
sten s
ew eil
l ong
Ġer folg
Ġw rite
am pf
serv ice
Ġf irst
Sp ec
Ġsour ce
x y
ip p
v el
Ġin ner
Ã¤t ze
ant wort
m ut
pl y
Ġgen er
Ġe ig
Pro cess
mb H
I S
Def ault
Ġt ra
zie h
ge f
ĠS icherheit
ult ur
Ġ201 7
ĠM ath
iel t
C ollection
ĠEin satz
m Ã¤ÃŁ
Ġge hen
Ġ} );
Cont ainer
imp le
m Ã¶
Ã¼r ger
und heit
Ġs w
ĠD a
k tr
Ġso gar
c lose
r Ã¤n
ĠF in
ster reich
Im age
Ġind ivid
ĠF ragen
Ġihre m
lass en
stra int
1 3
ĠF est
uÃŁ er
hr en
Pro vider
fl Ã¤
G ener
AT E
Ġex p
st ate
cript or
Ġj ava
de f
Ġau ÃŁer
ĠC ollection
sch eid
s c
Ġj eweil
o og
ĠMar kt
s f
Ġm us
orm al
w elt
Ġverschieden en
Ġin tern
ay out
f ter
l i
ar ator
zent r
Ġo utput
UR L
co pe
Param eters
U S
fÃ¼hr ung
sp ro
T arget
F unction
T A
Ġo ther
Ġv ier
igkeit en
201 8
Ġgem acht
ĠK r
we is
ĠM Ã¼n
ĠAl le
w and
Aut h
h of
at ten
ĠHot el
ser e
T ER
ĠString Builder
G et
b yte
un n
ic al
ĠS ommer
erv let
st all
ĊĠĠĠĠĠĠĠĠĠĠĠĠĠĠĠĠĠĠĠĠĠĠĠĠĠĠĠĠĠĠĠĠ ĠĠĠĠĠĠĠĠ
e ign
Ġqu ery
ĠwÃ¼r de
Ġf rÃ¼
h ol
it el
b uch
m ax
res se
Ġkosten los
al ter
A P
ĠG mbH
ic es
o ber
rÃ¤s ent
spre chen
âĢ ŀ
fÃ¼hr t
get Class
ĠG arten
Ġetw a
Ġk n
6 0
iz ation
3 2
Ã¼ ler
ĠV iel
Ġl ast
C o
Ġ2 4
ĠF rank
ynchron ized
S ele
ĠB eit
it ten
x is
av on
m m
al y
Ġpar se
ĠS al
Trace Component
Ġi hm
at rix
d ouble
Ġ{ }
p i
ĊĠĠĠĠĠĠĠĠ ĠĠĠĠ
ig h
ĠK ir
Ġw eiÃŁ
V AL
h af
stell er
Ġ1 1
ĠArbeit s
bu ild
g lichen
ĠT est
ent er
um en
olic y
UL T
| |
Ġh ave
con fig
ĠF uÃŁ
Re f
Lo ader
W ork
ĠâĢ ¦
ĠN ov
ĠD ar
Ġze igt
ĠIntern al
ik er
Ġr ichtig
b ase
a ffen
ĠAngeb ot
Ġh inter
u x
ge hen
ĠH Ã¶
ĠH olz
S e
ber eit
ĠBe ispiel
Call back
Ġd ich
Ġpar ent
ing t
Ġc olumn
ap e
Ġper fe
u ck
utt on
ot her
ĠK Ã¶rper
ĠE le
ateg or
b y
al end
ind et
Ġne ben
ĠKont akt
Ġ tem
ĠD och
om it
ĠVerfÃ¼g ung
Ġp aar
S ec
em en
ĠMit tel
m o
G r
2 4
ĠS onn
ĠM e
ĠM aterial
ie der
M ode
or der
nah men
her e
Up date
Ã¶ ÃŁe
ĠgrÃ¶ ÃŁ
s el
ĠD i
Ġl ength
as chen
Ġbu ilder
cc ount
ĠS am
Ġle icht
ch ten
ĠWer k
D ir
Ġc an
Ġf l
p ace
lich es
ĠVer anstalt
ation al
St ore
ĠArt ikel
b ook
Ġt able
ĠW inter
y mb
Ġ user
j ahr
er ien
E X
Ċ ĊĠĠĠĠĠĠĠĠĠĠĠĠĠĠĠĠĠĠĠ
Ġg l
Or der
Ġher aus
Input Stream
P er
ol f
or ten
U M
Ġz ie
Ġi r
ĠR aum
Ġb ed
ast er
ĠJ SON
.. ..
M ail
ĠV on
A ss
Ġit em
il es
re en
alend ar
i as
ei z
Ġi de
Ġ app
oog le
P osition
schn itt
ĠM ehr
ĠJ e
te gr
Ġ row
Ġm ei
Ġre l
ĠSel bst
Ã¤h lt
Ġval id
quire d
ĠkÃ¶nn te
rap h
ĠD at
ĠGe gen
n t
ann ten
Ġch ild
ĠD enn
ĠH am
Rec ord
gn ore
Ġsch l
icher ung
is play
Ġcont ent
c lient
ult i
ĠmÃ¶ch ten
Ġdar auf
Ġ19 9
' :
E d
an e
ĠB as
l ing
ĠT ext
B ase
Q ue
ĠG et
rit t
Un it
ind ung
ĠR est
ow er
R em
ĠC l
s With
et ter
e e
te ile
ran ken
An notation
u en
ĠW as
D at
2 5
gem ein
ĠPart ner
P os
T hread
arbeit et
set zung
Ġpro cess
in ue
ĠBer uf
ie ter
ĠN ot
b ach
un i
s ystem
Ġz ahl
ĠI f
ran z
n ode
stan t
Ġto ken
ĠO ption
Ġst ellen
D O
Ġo ption
. "
ĠF rÃ¼
Ġe le
G ER
Ġbek ommen
AT ION
Ġmein er
1 7
H elper
ĠK ap
Ã¤n dern
m t
ĠGro ÃŁ
if iz
Ġhat ten
ett ings
ĠBet rieb
Ġ/ *
Ġpro perty
Ġz usÃ¤t
m ethod
Â »
ĠB lick
ff iz
n um
ĠGesch ichte
O P
le b
ent ity
Ġ text
Ġw under
ĠG ast
ĠN etz
ĠMin uten
C l
ann te
ser t
I L
ĠC as
Ġm et
Client Exception
2 00
ĠWir tschaft
Ġd avon
Ġm atch
s pe
Ġ4 0
ar f
ĠSt art
UR I
v est
Ġn ehmen
ach te
enn t
S erver
s l
ĠN ew
ĠProdu kte
s eite
Ġn um
in ge
eh len
D ep
bar e
Ġst e
ĠF unktion
! !
P RO
In valid
F uture
ĠEin z
heit en
sch ule
al ien
ĠZ ug
C heck
A us
ie g
z ess
Par ent
Par ser
Ġc ount
ĠT age
Ġb r
< >();
] );
Ã¼ b
ĠB u
icht ung
St ack
rap per
Exec ution
H ash
Ġkom pl
at te
ĠFl ug
ĠV ol
ĠSt a
Ġc lient
En um
Ġo ffset
b est
v o
Ġ Ã¶ff
ro ll
re p
Ġw icht
O ut
ĠD abei
ĠAb end
Ġfin ally
ĠH in
Ġd ein
equ ence
Ã¤ te
lie gen
neh mer
un ge
ĠPl an
Ġw Ã¤re
tr a
Ġer n
P ort
Ġver k
Ġar gument
L ock
l ar
ab ase
gr ess
Ġex ist
bar en
ĠR ad
ĠL ehr
ĠJahr es
Ġder en
ell er
ĠIhre m
ĠL Ã¶s
au sch
Ġkann st
Ġd r
gen ommen
it ter
Ġn ah
ĠH e
Ġ201 6
is Entry
Ġf loat
Ġst ark
isEntry Enabled
Ġg ab
ĠH ttp
ĠS dk
ĠF e
++ ;
ĠPerson en
ĠEr geb
Re ad
ger icht
m atch
Param s
o u
( '
ist r
ĠAl l
Ġaller dings
Ġsp ielen
A S
ĠF rage
Ġval ues
Ã¤ hl
I C
ur ity
er en
ĠEnt wicklung
Met adata
âĢľ .
Ġh el
ĠG ener
ht tp
ĠC ont
ahr en
ĠPro f
6 4
Ġbek annt
ĠMitarbeit er
ĠSdk ClientException
ĠWoch e
ent ial
b lick
arbeit ung
V ER
Ġmit t
Ġzw ar
oll te
ĠGr Ã¼n
Ġd Ã¼r
ĠN o
Ġo bj
es onder
Ġk am
ic ken
Ġb l
l ungen
Ġin form
z Ã¼
Ġl ine
wend ung
leit ung
ĠSch Ã¼ler
Ġab ge
c ount
m als
ĠG eh
Ġg ilt
on s
isD ebug
M atch
D F
ik ation
ges etzt
ro p
E ine
l ungs
W arn
Ġso fort
por ted
s m
al b
ĠM Ã¤r
au ber
ĠFamil ien
er nen
ĠAusw ahl
Ġs ynchronized
- ,
Ġh Ã¤t
Ã¼n f
ek te
rit ten
om ain
Ġrem ove
Ġit er
j ava
D ouble
o in
od ing
ĠA ug
ĠB ar
ge ber
ed ia
d o
Ġb itte
ĠM ag
Ġs ollen
ĠFamil ie
ĠD ate
ut il
ak te
iz in
ĠS ib
ĠUn ivers
Ġver wend
I terator
il f
Ġf e
ien en
D B
sy ch
ĠB ad
irect ory
schl ag
ĊĠĠĠĠĠĠĠĠĠĠĠĠĠĠĠĠĠĠĠĠĠĠĠĠĠĠĠĠĠĠĠĠ ĠĠĠ
Ġa ct
N o
ĠChr ist
Ġer klÃ¤r
Ġbest eht
Loc ation
ig te
Ġverschieden e
Ġar ray
ch es
Ġd ec
cl ude
stra ÃŁe
Ġex ception
ĠK ind
ig ten
ĠLand es
ĠS c
Ġf ilter
ĠT ype
âĢ Ļ
ĠEr w
at ung
Ġp assen
get Key
Ġsoll ten
A X
Ã¤ch st
Ġg Ã¼nst
d f
ĠD ann
ĠP orn
ĠG Ã¤
E Class
J son
b in
ft ware
Cont rol
ist ry
h ein
Ġs ession
spre ch
au sen
ten sion
kl us
ol der
Ġst ring
Ġf ormat
O peration
ĠZ w
m ark
ak tion
A ct
unk te
ĠD ienst
ot he
At om
isDebug Enabled
P O
a it
ĠJ ul
P AR
ei le
Ġgro up
Ġan geb
ill is
con text
g Ã¤n
reif en
ĠAut o
Â «
Ġbe deut
A C
Ċĉ ĠĠĠ
S o
ĠFil m
Ġl ink
Ch ange
ist or
v m
ĠP at
ĠEner gie
it Ã¤ten
LO G
Ġs pr
Ġs uchen
Ġge eign
in ner
Ġsp Ã¤ter
Ġur l
E S
č ĊĠĠĠĠĠĠĠĠĠĠĠĠĠĠĠĠĠĠĠ
. âĢľ
serv able
ĠReg ion
ĠSt unden
FA ULT
ĠPro gramm
Ġk ont
I OException
eh m
lie ÃŁ
Ġbel ieb
ĠVer tr
T he
ĠP er
e vent
Ġm ust
get B
value Of
ĠFot o
ich ter
Ġspe ziel
Ġze igen
ĠSib Tr
m eld
ĠW ert
ĠM Ã¤n
re ibt
etail s
N on
ymb ol
k reis
ĠAn d
Ã ľ
f ilter
ĠT o
Ġhoch wert
untime Exception
2 1
\ \
pl an
L abel
d el
Ġ old
ent ifier
v iew
Ġf ound
ĠL ong
A B
or gt
Group Name
Ġver m
Ġâ Ĥ¬
ul ar
Ġpro f
Ġar gs
ww w
ad ition
ĠRe ise
Ġb le
Ġsch wer
s weise
ĠL ei
en sion
Ġein ge
ĠL in
ĠSt Ã¼ck
Ġw orden
Ġal t
f el
8 0
r ichten
Ġ ;
un sch
ro ffen
ap ter
ra xis
Ġje dem
ĠR ef
ĠD en
čĊ čĊĠĠĠĠĠĠĠ
M ax
Ġst ream
Output Stream
b eg
Ġd aher
ĠgehÃ¶r t
it u
ĠWei hn
ĠB en
zeit ig
ĠN amen
est er
we chs
ĠIn nen
les en
lef on
Ġt un
f rom
Ġwen iger
sch eiden
ĠT rans
ungs k
lÃ¤ ss
ust om
ĠS itz
is se
d ienst
ĠB el
f rage
sch er
asch inen
Ġeig entlich
ĠJ an
Ġges am
Ġat tr
Des criptor
mar kt
Ġir gend
st elle
Ġdeut schen
ĠO kt
Ġab sol
erv or
get Type
Ġ6 0
ĠGes undheit
k n
ĠS uche
Ã¶ hn
ĠT em
Ã¼ hl
ĠZ um
ran sport
red ic
L S
at is
ĠS ep
il en
ex ec
ap ie
Ġp rÃ¤sent
Ġeben falls
ra w
Stat ement
er st
F irst
H ost
KE Y
Ġw issen
teil ung
irt schaft
c onn
Ġt ag
Ġk omp
ab les
log ger
le d
tr act
Ġd at
Ġi hnen
ur op
Ġgemein sam
ar b
fÃ¼ l
Ġz un
hal te
Ro ot
re chen
Ġ2 1
ĠSch m
Ġhe ader
sum er
g roup
p ack
Ġloc al
st ream
ĠB and
h Ã¤ng
u id
ĠL auf
Ã¼ck en
c oding
ges amt
rie den
ĠD amen
F ound
d b
Ġl ock
Ġben Ã¶t
ĠVide o
. )
pr Ã¼
N O
row able
spr uch
get P
ĠNe ben
Ġerh Ã¤lt
Ġmei sten
D I
Ġ ap
R L
Ġk ennen
ĠTh emen
) {
Ġb lock
0 2
T I
u sch
ag te
Ġje de
Ġsp ec
Ġkein en
ĠW ein
u ff
ind ing
ĠZ ahl
get Id
A M
ĠP ark
Ġso wohl
ĠReg el
ĠG el
ust rie
iter ator
ĠB Ã¼rger
l d
Ġ q
T op
l s
Ġau t
Ġh eiÃŁ
Ġb ringen
ut or
om et
P ER
Ġin itial
Ġbis her
pos it
Ġt ask
ais on
Ġstell t
ĠD ruck
Ġro ot
b oolean
w ohn
ĠM Ã¶
ĠN ieder
Ġum f
pro du
tem ber
e lement
s es
ĠS m
ĠT op
og raf
qu ery
Ġc ode
Ã¤r en
A g
Ġon e
ĠM ein
ĠW ahl
** **
and id
ĠL icht
w arn
Que ue
V or
ĠN ode
Ġcon nection
At tributes
m essage
pl et
o le
ĠGeschÃ¤ft s
Ġver tr
ap t
T im
ĠF ern
ĠAr ch
ay s
esonder e
m obil
ten s
()) .
9 9
w ith
ĠB us
ĠL es
ĠN Ã¤
ĠT our
ĠN icht
f est
um s
Ġer fol
Con straint
ac ter
ĠZu kunft
it ze
ĠEl tern
ĠK auf
ĠG est
ĠJ uni
Ġcont inue
č Ċĉĉĉĉ
ĠL uft
Trans action
Ġw elt
ar ray
ĠB yte
ĠN ord
= "
in ing
B ound
Ġf unktion
4 0
V ariable
ar r
D ocument
Ġl en
end es
ĠnÃ¤ch sten
geb ung
L ayout
Ġer fahren
Ġmein en
f alse
P attern
Ġsie ht
P ool
ĠM ai
zeich net
Ġsh ould
ĠProble m
Warn ings
Ġble ibt
ĠM ont
se d
Ġlie gen
ĠGeb Ã¤
or re
ĠH aut
Ġn utzen
ĠOkt ober
ich en
on ds
T O
m el
Ġf Ã¼nf
ber t
ĠSchl af
Ġhel fen
C reate
ĠG ed
ĠMill ionen
m Ã¶glich
Ã¶ nen
c m
Ġle ider
ĠH ilfe
ĠAu gen
Ġg anze
ik e
ĠT Ã¼r
Ġ201 5
Ġmo dern
Ġweiter en
Ġle ben
forder ungen
ing ungen
em in
Ġm m
In ternal
res ponse
ial og
ĠFin anz
ĠK opf
at iven
Ġbe ge
ĠÂ «
ĠĠĠĠĉ ĠĠĠ
" ));
ac es
w o
ĠP ost
utz t
W idth
ver sion
B ody
ĠWebs ite
w ehr
sp ann
ock et
own load
or age
lei ben
al k
es h
Ġsw itch
or te
Ġfre uen
pro cess
Met a
M S
t arget
ĠK in
N e
Ġ( "
io us
ĠOb servable
n ov
Ġver st
Ch annel
Ġbef ore
ĠRecht s
rau en
ĠS ol
ĠD on
Sup press
ĊĠĠĠĠĠĠĠĠĠĠĠĠĠĠĠĠ Ġ
r up
ie ÃŁen
sch ung
M on
Ġm sg
it em
posit ory
du z
Ġw ork
is mus
ck et
an el
Ġb uf
ĠNov ember
n ess
Ġ ag
ent lichen
g ine
ĠFar ben
Ġb ase
Al s
Ġdeut lich
ĠSep tember
ĠK ultur
ex it
Ġviel leicht
Ġw ahr
Ġe her
Ã¤d chen
ĠG ut
Ġne ed
en zen
ver ter
Ã¤l lt
ĠMed ien
U m
Ġparam s
fahr t
b eh
au ch
ĠI N
Ġt op
ĠB aum
ĠK ommun
ĠN acht
Tem plate
ri k
Ġs ec
Ġt rotz
up date
f rei
r am
Ġexec ute
d orf
Ġver sion
Ġent sprechen
Ġte chn
ĊĠĠĠĠĠĠĠĠ ĊĠĠĠĠĠĠĠ
ĠK at
a j
b esch
m eister
it le
ĠF euer
ĠAn fang
Ġgut en
Ġc o
Ġh ervor
h aft
VAL UE
read y
ĠB re
R ange
az on
Ġakt uellen
ĠHash Map
s ource
richt ung
Ġ2 2
Ġb leiben
Ġz eit
Ġk m
ĠW ien
ĠHer z
N um
ad urch
Ġver fÃ¼
N ON
Ġb ec
ĠSch utz
Ġhin aus
and lung
ĠBo den
t x
ĠT ab
c opy
Suppress Warnings
W ie
ĠH inter
Ġon ly
V is
Ġ" ,
H ier
S ettings
ĠD em
Ġeigen e
Ġc ache
Pro du
ĠTe chn
bu ffer
ĀĀĀĀĀĀĀĀĀĀĀĀĀĀĀĀ ĀĀĀĀĀĀĀĀĀĀĀĀĀĀĀĀ
Ġg ing
ring t
Ġn umber
ger e
S C
ĠD ef
ei er
Ġber eit
erm ission
flÃ¤ che
r ess
Ġh Ã¤uf
zeit en
M in
il er
tr ans
t w
ar g
ĠD ank
as che
omm on
Ġor der
Ã¶ffentlich t
Ġinner halb
T R
has Next
ĠB oolean
ĠGl Ã¼ck
S ervlet
et work
ĠUr laub
M essages
v ed
Ġs omit
ein t
stell ungen
o bj
Ġj ob
op h
an geb
f ind
ĠUnter stÃ¼t
ms g
Ġs agen
ĠT erm
ĠĠĠĠĠĠ ĉĉĉĉ
och en
ĠZ immer
in c
Ġf rei
Ġ Ã¶
us st
Un able
N ew
Ġp rev
Ġwe gen
Ġopt im
Die se
ĠBeit rag
B l
im ension
pf en
Ġmehr ere
M apping
Ġsch le
ĠGr Ã¶ÃŁe
riv at
Ġver d
Ġent ity
ot h
Field s
b ung
in it
ĠL ieb
Ġan y
Ġbe an
ĠS il
Id s
ert ific
sb esondere
Ġk lass
f urt
v olle
ĠE igen
) ");
Ġw riter
yn am
Ġmein em
ex p
4 5
ĠF erien
St yle
ge gen
ĠÃĸ sterreich
ĠA k
ier ungs
ĠH el
h em
ĠWir k
ER R
Ġp rakt
Ġs rc
ver stÃ¤nd
ge d
Ġwer de
ĠW est
ĠZ ust
Ġdar Ã¼ber
g al
k om
T erm
stan den
ĠEinz el
Ġverwend et
ent ic
ĠH eim
Ġge k
ĠFot os
d ie
au ft
ap h
Ġgef unden
Ġre gel
|| (
L ast
Ġbef indet
ĠD an
Ġparam eters
ĠD ouble
Ã¶r t
. ,
ĠH ause
im men
P h
rÃ¼ f
Ġh ast
ail able
S egment
k ont
Ġver gangen
af e
Ġ201 4
Ġkonn ten
ol s
Ã ĥ
gen er
App lication
is ion
Ġp orn
W eb
ĠLie fer
D S
T e
lob al
Ġbec ause
P re
h aupt
M illis
ĠA s
b ieter
z uf
sp h
B ox
ĠFre und
ĠK ategor
ĠEr n
b ahn
ĠU p
Ġdar f
ubl ik
< >(
I gnore
ie gel
Ġt Ã¤
D el
ĠE vent
ff ekt
ĠGes ellschaft
Ġd igit
ĠVer kehr
ĠT her
Ġbest imm
C ommand
o den
Met ric
Ġs agt
it ies
Ġs erver
ĠHÃ¶ he
imm ung
to ken
W rapper
Ġ2 3
Ġvor h
ak ter
Ġjed es
" ).
t ime
Ã¼nst ler
in z
Ġh Ã¶
ĠJ ob
B oolean
Ġhand elt
ur ger
Des cription
ers ist
ain ing
im ent
set zen
def ault
U P
ĠFar be
u ar
Ã¤n den
Ġs k
el te
Ġm on
ĠHer r
y l
Ġst and
le iter
ĠL age
Ex p
IN E
Ġd el
ĠP ort
ol ler
ĠT ier
Ġ arbeiten
char At
i den
et ch
Ġt otal
Ã¤ch lich
sch t
Ġer z
Inter face
M O
h under
0 9
Ġbu ild
ĠL A
2 3
ĠF Ã¼hr
ĠK ur
Ġpro perties
Ġkl ar
h ab
ĠVer gleich
ĠPol iz
B ack
ĠD amit
ĠMÃ¼n chen
C olor
ĠSp aÃŁ
ĠS inn
ĠP ass
ach ed
Pro ject
ĠAug ust
P olicy
ĠP fl
zie hen
F ailed
bo x
Ġs agte
Ġs ele
Ġm ag
Ġgeeign et
Ġe d
ser ver
ĠfÃ¼hr en
ll ig
LO W
ĠMÃ¤r z
gesch lossen
Ġc lose
A ccount
Ġintern ation
de ck
W ord
get Property
m ed
I G
b reak
n ach
ĠS eit
Ġd ep
ĠD E
ĠD re
ĠTag es
id ent
um mer
Ġd eine
ĠW and
eh ler
P A
f Ã¤lt
au ran
est amp
ĠW ar
gr uppe
get R
ĠA f
Ã¼ss el
Ġbe ispiel
ĠIn f
iv ity
ient en
ign ment
Ġk aum
Ġre f
ĠFir men
Ġw ollte
Ġh alten
Ġc annot
zeu ge
ord nung
val ues
cri be
at ing
Ġson st
ĠfÃ¼hr t
B er
S H
ĠJul i
ĠErfahr ung
s ver
ĠK omp
ĠP ap
stru ctor
Ġauf ge
N E
r acht
Ġd i
ĠH o
Ã¶r en
ĠK reis
Ġparam eter
H T
S te
] ,
g ro
z ub
Ġk ur
and om
ertific ate
Ġres ol
mÃ¤ÃŁ ig
( _
O per
Ġentwick elt
ĠD ach
ass ung
uf e
Ġw ei
Key s
Not Null
ĠA G
ĠR ec
S equence
ĠW el
Ġo ver
ĠM aÃŁ
ĠPol it
cle ar
ul es
A uch
s or
ot o
ĠIde en
G e
m ack
ĠVer sion
D a
ik an
erm an
ĠSt at
os s
u ccess
p c
red it
il den
DE FAULT
ĠStra ÃŁe
Ġau th
te st
up ported
ĠBew eg
ĠSonn tag
S ign
W e
par ent
ĠCas ino
Ġr un
ĠR ein
set z
U ri
ĠEnt scheid
W er
sch ul
op s
b es
ik en
ĠLie be
h Ã¶
fÃ¼hr er
Ġbe vor
Ġd ate
Ġb ack
ig art
Ġp erson
ĠSpiel er
Sch ema
ĠMot or
. :
ĠEr folg
ĠProdu ktion
F r
Ġin fo
Ġal ten
vo ke
c as
ĠA pr
tr itt
ĠAn g
l ot
Ġm Ã¶
ĠT agen
p reis
State Exception
f Ã¤h
gr am
ĠHam burg
Ġerfolg reich
' );
ub e
ĠSch ule
Ġj son
3 3
Ġein f
Ã¼n ft
ĠBer g
. _
se e
z ust
rau ch
S O
k r
mer k
c a
akt iv
ĠGeb urt
ĠVer l
o bject
Ġd elete
V ar
ĠK olle
B U
I s
Ġby tes
Ġp re
ĠAngeb ote
i od
ip ps
re icht
ord in
check ed
Ã¶ st
)) );
ĠSo zial
Ġh Ã¶ch
b ody
ĠM us
Ġso zial
ĠSp iele
ĠK Ã¶l
ĠK Ã¶n
Reg istry
Ġ201 3
w agen
Ġp h
Ġj em
ĠMÃ¶glichkeit en
ĠA p
ert ig
ur l
Ġlo ad
M atrix
um p
Ġo ben
Ġer reichen
Ġp rivate
om ent
ĠStra ÃŁen
er ie
S QL
ĠC omp
ĠM ich
Ġl Ã¤nger
if e
ĠSam stag
Ġm eist
Ġzw eiten
Ġander em
ĠSo ftware
ĠMod ell
un c
ik a
Ad d
ĠG oogle
ĠV oll
uch ten
ĠE lement
ĠPf lege
ĠK raft
ĠS w
um e
U ID
ĠD ort
il le
Ã¶ sen
Ġl aut
asch ine
uÃŁer dem
al c
ĠF Ã¶rder
ĠJ son
art et
7 0
ĠB ran
Ġkle in
opp el
I P
V E
V ector
Ã¶glichkeit en
pro perty
sch au
Ġm ed
AN CE
ĠheiÃŁ t
o der
Ġs ucht
ĠhÃ¤t te
ĠS Ã¼d
Ex tension
ĠIm mobil
schlieÃŁ lich
lo y
it ag
ĠB ack
age d
L en
de cken
Ġwel ches
J vm
t able
Ġ Ã¼
et ing
Ġw ww
ĠTe chnik
o ben
ĠW issen
lo ss
ĠStand ard
ĠWeihn acht
ĠUnterstÃ¼t zung
ĠDeut schen
zeu gen
w ard
ĠK ranken
ĠKÃ¼ che
W as
s n
Ġvorh anden
Ġp oint
g or
Ġm e
eh l
min ister
t ml
per atur
Ġpos it
as en
is iert
ĠI t
Ġeinz el
ĠDie ser
> ()
D is
ol t
we isen
red ential
P air
B utton
Ġset zen
ĠR untimeException
s eit
w irtschaft
rie d
Ġneu es
Ġdo es
b ank
f ar
Ġl esen
Ġbe gr
Ġ" /
P RE
re place
ĠW ald
ĠE U
ĠFahr zeug
ĠGÃ¤ ste
o ption
ken nt
ĠSte uer
Ġun ver
ĠB log
ges etz
ev ice
Ġre quired
Ġat tribute
redic ate
ĠK aff
s cription
ĠD ata
ei ge
ĠEurop a
Ã¼ cht
Ġc opy
Ġbe ste
form ation
Ġ8 0
A pi
al lo
ĠM Ã¤dchen
Ã¤t zen
chn ung
] [
ug in
P I
f in
ĠW ork
ist ance
put er
Ġjeweil s
h ei
Ġver sch
Ġet c
atur es
ĠC ar
e ar
Ġin it
ĠD ir
X ml
Ġgegen Ã¼ber
meld ung
X ML
ist s
Ġdeut sche
sch uhe
start sWith
Ġa v
ĠdÃ¼r fen
P refix
h Ã¤
Ġp osition
ĠDaten schutz
Ġbeispiel sweise
ĠOr ganis
co ver
g ing
Ġw ohn
(" \
amp le
Dec lar
ĠW ett
val u
tr ack
pf licht
asse d
gl isch
ĠÃĸ ff
op en
ment s
Ġent scheiden
Ġsh ort
ĠMÃ¤n ner
Ġb ut
ag n
sp ar
ĠB ef
ĠJahr hunder
Ġho he
ĠFrÃ¼ h
Ġent fern
c er
s ession
Ignore Case
ĠApr il
D irectory
Ġmus ste
ĠVol k
Ġf orm
ĠSch uhe
ab e
) :
ĠL oc
ĠEs sen
pl it
leist ungen
Ì Ī
k osten
ĠS uper
ĠSt re
Ġre in
Ġdes halb
ĠunterstÃ¼t zen
Ġ2 6
Ġcon n
index Of
0 5
Ġg anzen
Ġ< <
an ger
ĠSch Ã¶n
lt ag
pr Ã¤ch
i us
Header s
Ġt mp
reib ung
Ġaut omat
S U
ĠDe z
ĠNÃ¤ he
P T
Ċĉĉĉĉ ĉĉĉĉ
Ã¼h len
lo sen
kle id
ĠBes onder
CT ION
ĠKin dern
ĠGr uppe
rei ber
ĠHer aus
Q U
inn t
be zogen
alt ung
ĠK urz
im um
f low
ĠschÃ¶n e
sch rift
Ġal ready
ĠWe ise
omm it
Ã¼hr en
n s
ĠA ktion
ĠK ey
kt or
ĠHer ren
Ġcon vert
en e
an lage
ĠM il
ell ung
IT Y
D oc
j ob
b ef
Ġbe ein
Ġho hen
č ĊĠĠĠĠĠĠĠĠ
Ġd essen
ĠTeil nehmer
Ġmod el
ĠSm art
Ġass ert
ĠMitglie der
o inter
ĠKle in
Ġvergangen en
gor ith
ĠK re
ĠG ar
ĠUn sere
Ġda ÃŁ
ĠUnivers itÃ¤t
3 5
ĠOption al
Ġw eg
ĠH eil
Ġth en
Ġdes cription
ib il
ĠTh is
weg s
ServiceResponse Async
Ġmitt ler
ĠD ien
M en
mitt eln
klÃ¤r ung
F orm
ĠZ entr
le ase
Res ol
ĠhÃ¤uf ig
ĠA lt
Ġer forder
C alendar
l Ã¶s
it es
ĠM utter
get Instance
off set
Ġd an
ĊĠĠĠĠĠĠĠĠĠĠĠĠĠĠĠĠĠĠĠĠĠĠĠĠĠĠĠĠĠĠĠĠ ĠĠĠĠĠĠĠ
ĠGew inn
{ }
Ċ Ċĉĉĉ
eh Ã¶r
teil en
ble m
ĠIllegal StateException
ig a
ĠJ o
au st
M ark
ri ver
ĠAus bildung
He ight
ĠN ame
Ġhand le
s ent
ge st
end ing
ze igt
Ġin tegr
ĠF ort
v en
al og
se le
v ir
sb urg
N LS
z te
ĠUS A
ĠAl ter
Ġcl azz
Ġerfol gt
w asser
rie s
ĠVer kauf
== ==
trÃ¤ ge
b and
im a
ĠR olle
lic ken
ĠgehÃ¶r en
ĠGl as
Comp arator
Ġkompl ett
ic kt
ĠF ield
C P
Z E
h el
ĠB ab
cont ent
D est
Ġent halten
Time out
ĠNutz ung
Ġqu al
rit te
Ġar g
ĠSchw eiz
x ml
ar ed
ĠDies es
ĠA ust
Ġsel ber
ĠKom ment
h ost
hal ts
Ġw es
ro ot
sh ip
amm lung
Null able
ĠIn s
ungs ver
Ġdar an
Ġp olit
Ġ201 2
O b
D A
n o
Ġs orgt
af en
F l
d i
Ġ2 8
ĠGemein de
Ġein igen
ĠS onnen
Ġb as
ĠP raxis
ĠW unsch
ĠR hein
Ġakt iv
Ġer mÃ¶glich
ĠWohn ung
d elete
ĠUm welt
z i
wei le
in ess
ĠUm gebung
amer a
ranz Ã¶s
F iles
a el
jÃ¤hr ige
< /
M ENT
N odes
Ġ el
Ġb ringt
Ġd is
zeich en
c olumn
ĠO ut
ĠEn d
ĠEnt wick
Th rowable
ĠunterstÃ¼t zt
ĠL iter
ĠS erver
ĠP re
ĠU RL
sp ir
que ue
Ġd re
u hr
ĠSt rom
contains Key
ĠIn put
ĠVer trag
ay ern
d a
Ġh eut
F OL
J SON
h o
Ġd am
ĠB all
Ġins gesamt
Ġrec ord
Ġan ges
ĠZ we
app en
Un d
Ġstat us
sp ace
ĠEx per
c r
ĠW etter
ĠSt ein
ungs m
Ġeben so
w ill
em ory
out put
Ġin sbesondere
ĠL eit
S cope
j ekt
it al
ĠR om
IN T
ĠZ wei
Fe ature
Ã¼t zen
Ġfolgen den
Ġt reffen
Ġp assed
reg ister
D C
ace book
ĠBesuch er
2 8
t im
ĠH om
D e
ĠB ank
7 5
Ġ// $
ĠFir ma
Res ources
z ig
ĠR ichtung
ĠEr st
Ġth read
equals IgnoreCase
M ember
ĠD ek
Ġs ign
ok ument
ĠSpe zial
ĠPoliz ei
Ġl ernen
add All
p ark
ch ter
Ġbedeut et
Constraint s
s uch
Â ®
ion s
ĠFre itag
ĠRest auran
C K
w ner
ĠIn halte
f ert
indow s
Mod ule
Ġder zeit
Ġer schein
Ġver fÃ¼g
ĠZ ur
itz t
Ġw Ã¼n
Pro xy
ĠAl ltag
k el
er in
ĠS QL
urr en
> )
r t
halt ung
Loc ale
ĠBeh andlung
: :
ĠB ahn
ĠF eb
ateg ory
ĠO st
ĠSal z
Ġdire ct
ĠE ing
ier ter
icht et
ĠÃ¤ hn
ĠS aison
Ġerh Ã¶
ĠT isch
ir m
Ġver z
H E
Ġs orgen
ĠP reise
2 6
l am
Not Found
fr ist
u age
te chnik
ĠErgeb nis
Ġe urop
R eturn
qu al
h ilfe
Ġal te
ĠBew ert
Ġreg ister
ab hÃ¤ng
ver ein
Ġbest ehen
ĠB ig
ĠJan uar
at ter
Ġsp ann
With ServiceResponseAsync
stoff e
g reg
Ċ Ċ
Ġn orm
Ġnot wend
ĠL u
Ġeinz igart
ĠAu ÃŁen
ĠProble me
ol y
ĠEm pf
Ġprof ession
ĠermÃ¶glich t
ĠR ed
Ġschw arz
ĠLOG GER
exec ute
m ehr
Ġp ort
In d
Element s
Ġconfig uration
Non Null
un checked
Ġ" '
k arte
Con n
0 6
f loat
ro id
ĠP DF
ĠAuf trag
ĠS an
Ġ} ;
ĠN ur
oc i
Ġgemein s
ĠC heck
O S
ĠT itel
ifier s
ERR OR
ĠA g
ĊĠĠĠĠĠĠĠĠĠĠĠĠĠĠĠĠ ĠĠĠĠ
ĠErfahr ungen
N S
bar keit
vir on
â Ĥ¬
pl ete
P ass
irt ual
Ã¤nder t
ĊĠĠĠĠĠĠĠĠĠĠĠĠĠĠĠĠĠĠĠĠĠĠĠĠĠĠĠĠĠĠĠĠĠĠĠĠĠĠĠĠĠĠĠĠĠĠĠĠ ĠĠĠĠĠĠĠĠĠĠĠĠĠĠĠĠ
Ġt ats
0 4
b Ã¼
ĠV ari
act or
ĠBer atung
Ġperfe kt
u hl
v oc
ar gs
ĠR el
Ġgew orden
ĠM ethod
em e
SE T
g liche
ed ule
uch te
Ġan gen
w Ã¤r
Ġentfern t
Ġs etzt
ĠMen sch
ĠBas is
G B
ĠD isk
get String
Com merce
de stens
Ã¤l ter
ateg y
Ġander s
ĠI I
ĠzusÃ¤t zlich
ĠA uÃŁerdem
sprech end
itu ation
d ig
h ang
') ||(
ĠB al
omet ry
B undle
ur m
Ã¤ ss
Ġlist ener
ĠS en
Ġm er
ĠB ett
ktr on
P ost
l ad
ist ik
d aten
stit ut
ĠE ben
Ġp age
ĠF en
be k
ĠGebÃ¤ ude
l aden
Ġh ost
ĠW ind
ĠSch au
ĠT or
ite ktur
d at
ĠS I
ĠR und
Ġempf ehlen
Ar t
p osition
ch ild
Ġer sch
verb and
ð Ł
il len
Ġverw enden
ĠDez ember
Ġ2 7
ĠTe lefon
ĠF le
ick er
Log ger
b s
Ġm ark
S erial
eit ere
ĠR ot
ĠSt elle
rÃ¤ ge
om aten
up le
ĠL ang
erv ices
rup ted
5 5
Ġzu dem
ra un
ĠMÃ¶ bel
Ġeinzel nen
Ġmo der
Ġge geben
ĠT ime
ĠHer steller
ĠB i
ĠRe gen
Ġ19 8
2 7
G raph
w ir
ĠLe der
s age
p a
ri ften
ook ie
Ġnah e
ann er
Ġb ein
ĠUnternehmen s
sicht lich
f s
ĠInter esse
Ġv is
Ã¶ pf
ĠNew s
Ġn ames
ig ger
ann e
ĠSch wer
Ġgr und
ĠInd ustrie
zieh ung
C lose
O bj
ĠJ etzt
. -
Ġver g
ĠIn vest
ich e
Ġ' "
ĠD azu
Ġ{} ",
g eld
Ġor iginal
tr im
st ieg
ĠW issenschaft
In nen
Ġangeb oten
ĠBÃ¼ ro
A GE
Ġth ere
ri p
S uch
ĠK o
Ã¤n gen
Ġvor her
fol ge
bu ilder
0 8
Ġakt uell
org ung
ĠÃĦ r
Array List
ĠVerb indung
S eit
ro ck
Ġex t
st Ã¤t
ĠV al
bew erb
C urrent
am mer
geb iet
C A
ĠB is
IN ST
ĠAkt iv
viron ment
0 3
ap i
Ġ+ +
ĠMen ge
Ġz ehn
# #
S cript
ĠZusammen arbeit
Ġsp iel
statt ung
it en
d own
ĠO l
EN D
Ġte st
M e
schlieÃŁ end
Ġlie be
Ġbek ommt
Ġtem p
ĠI terator
lau ben
ide o
O F
ĠP rÃ¤
Ġ2 9
Ġverb ess
Ġoption s
FOL LOW
ĠC D
J ava
g arten
Ġun ten
ĠVers and
ĠM ass
ĠStud ien
( @
f ailed
stat us
Un sere
If c
kt ro
ĠS and
Ã¼ gen
Ġre ader
ĠB on
ri or
Ġj unge
ĠP al
Ġauf grund
Ġzun Ã¤chst
ei en
Ġge d
ic ro
neh m
ĠL o
ĠKÃ¶l n
ĠZ eich
rol le
2 9
Ġf and
ĠT V
ĠSch ritt
Ã¼s se
P anel
c all
am in
Ġem pty
. ",
re ff
Ġtr agen
zentr um
ru ar
ĠGes amt
ĠB itte
ĠGr uppen
stat ic
lieÃŁ lich
B A
Ã¤ ischen
res ent
ĠAuf gaben
r uf
On ly
Ġm en
n ungs
ĠD igit
( ...
iz eit
statt et
Ġzahl reiche
entic ation
in ce
am a
ĠH aar
Ġa ction
Ġges ehen
Ġbrau cht
leb nis
B ag
Ad apter
ĠP rÃ¼f
ĠDeut sch
Ġverb unden
gorith m
F O
S V
rau cht
Ġ7 0
d is
j a
get F
ĠHoch zeit
Ġm ay
Ġindivid uell
Ġ201 1
Ġend lich
ĠP rivat
Ã¤l le
End point
Ã¤ cht
h len
ĠÃ¼ber haupt
re in
ĠG leich
ay load
Ġle ft
Ã¼h le
ĠMitglie d
le ucht
is ierung
Ġwer t
ĠDeut sche
k ir
ĠKon z
Ġgar ant
jÃ¤hr igen
Ġricht ige
w h
use um
i que
tr agen
ĠP sych
ĠSt Ã¤d
Ġa c
NotFound Exception
Ã¼ck e
Ġbe qu
Ġor ganis
end s
b lock
ĠM ax
ĠI st
Ġer f
leit et
Id entifier
stru ktur
1 00
C D
l ink
stÃ¤nd ig
iss ing
ĠVeranstalt ung
st ore
Tag s
spl it
6 5
ĠM ain
ĠK an
Ġges p
hÃ¤lt nis
R un
m d
Ġzu f
Ġse chs
ĠImmobil ien
Ġim age
Ã¼nd et
form er
V I
f irst
sch rank
lo ud
Ã¤l len
v ol
ieren de
ĠLÃ¶s ung
6 1
// //
ĠBe deut
Ġ'\ \
s se
Ġn ow
Ġk re
ĠW ort
ze p
reu z
I ter
ĠzusÃ¤t z
ch mal
ur i
Ġ9 0
w Ã¼r
ĠS ub
ri b
row ser
ent liche
itz er
Ġsol che
Ġt olle
Ġp ost
ach er
ĠFeb ruar
P ermission
pe kt
ĠÂ ·
ĠFar b
ĠPh il
Ġwelt weit
en ers
in ken
re a
Ġ( _
ist ory
s ie
Ġn immt
gesch ichte
Al le
Ġr ight
ĠLeist ung
ich ert
ĠF acebook
ST R
k o
m on
s Ã¤t
ĠE rot
ĠSchw arz
Ġmin destens
ge fÃ¼hrt
ig ent
Ġe hem
im ary
ĠAn aly
ieren den
ib r
he ader
Ġer ken
S ER
ĠH unde
Ġen g
Ġakt uelle
reit en
3 4
w ind
st o
ĠH a
ĠSh op
f Ã¼r
l ings
ĠS emin
ĠS icht
am b
ĠI T
Ġsch Ã¶nen
Ġbesonder e
Data Type
abil ity
s ein
el ten
Ġh istor
Ġst ud
Ġbe en
rag ment
an en
Ġl os
walt ung
ach st
)) )
man agement
3 8
7 8
c ry
z us
AT A
ĠStr u
ĠT hread
om in
schl Ã¤
entry Set
(... )");
ĠD o
Ġausge w
t ree
ĠSt ellen
ĠCollection s
at ik
Ġd oc
ĠPro tocolMarshaller
ĠFuÃŁ ball
a e
Ã¼ ÃŁ
Ġgen ieÃŁen
Ã¤um e
ĠR E
Ġcom ponent
Ġw hen
ro cken
Ġd ank
ĠW ander
Ċĉĉ Ċĉ
Ġer fÃ¼l
ie fer
ĠBÃ¼ cher
c re
ier ungen
Ġer reicht
O M
Ġunser es
F OR
p el
ĠSt off
ĠAb s
ĠÂ §
Ġd b
ut er
i or
Ġpro ject
og n
ĠCon fig
es e
Ã¼t zt
Ġgleich zeitig
au th
en te
et a
Ġbesch Ã¤ft
A p
Ġs end
ĠS uch
ĠW o
dition s
S ocket
g art
Ġsel ten
leist ung
ĠPat ienten
Ã ĸ
it i
Ġz ul
we gen
ult ip
ĠMit te
Ġge stellt
Ġgen ug
Un ter
Ġf ort
Ġver Ã¶ffentlicht
Ġfin de
Ġfin anz
ĠBeg inn
ĠZ ahn
ail ure
ĠĠĠĠĠĠĠĠ ĠĠĠ
ĠW Ã¼r
Ġver ein
gew Ã¶hn
ĠT err
ĠSt ream
ack en
rÃ¤ ger
P S
n ete
un ternehmen
s rc
č ĊĠĠĠĠĠĠĠĠĠĠĠĠĠĠĠĠĠĠĠĠĠĠĠ
Ġ arbeit
st re
ĠD ein
Ġc ol
ze igen
Ãľ ber
n ern
z ahlen
or ed
ĠG old
Ġvor bei
P D
Ġd ur
Ġalle in
MA X
ĠS E
ĠM eth
Ġh Ã¤lt
V ari
r ight
Ġs erial
Ġch ange
âĢ¦ ]
Ġn on
sp iele
st ud
tr ace
Ġwar um
Ġkle iner
Se arch
ĠK rie
Ġst Ã¤r
mod el
ĠMe er
ĠZust and
ĠR is
ĠPolit ik
ĠGeburt stag
N onn
er o
ĠD is
ĠAl ler
ĠWie der
Ġm ass
ĠI s
Con verter
Dec imal
ĠIde e
othe k
Ġg ern
Ġsch eint
Process or
Ġge pl
res ources
ohn t
O p
h ausen
Ġ Q
ĠerklÃ¤r t
0 7
Z one
w riter
z irk
Ġ201 0
ĠO der
ĠFol ge
s end
not ations
richt ungen
ĠPerson al
ĠEn g
LA SS
ief el
ĠverfÃ¼ gt
Z u
Ġgew Ã¤hr
ig in
rag t
urs or
C ell
om as
f alt
Ġz entr
Ġn ormal
umm ary
o ot
an de
Ġm ake
Ġt im
Ġh ei
Ġp ut
ige m
Ġtr adition
ĠK il
ug h
AR L
Ċ ĠĠĠĠĠĠ
ie te
k rÃ¤
p ol
w idth
ĠL eute
a at
ĠK lass
ei der
Ġ" );
Class Name
Not ification
ĠI d
ver se
olle ctor
---------------- ----------------
Ġv iew
sh ot
as er
ul ate
id Bag
ĠFor um
de ckt
and elt
g ien
w orten
ĠW Ã¤r
icht s
ob ile
Ġwh ich
Ġricht igen
Stack Trace
Ġf ahren
Ġsp ielt
Ġb ist
wie sen
ĠFre ude
th e
fl uss
ĠP ath
ĠO pen
up port
ĠVers icher
p re
in dest
Ġb ald
ĠIn t
ĠW Ã¼n
S L
m lich
t ask
an lagen
ĠFrank furt
S k
r un
ĠM a
Ġp attern
Ã¼r f
uch s
En gine
vers icherung
¿ ½
Ġin dem
ĠB ern
ĠP eter
Un ser
ĠRes ource
s itzen
if act
At tr
ĠD ich
id s
ang el
br acht
ĠBedeut ung
> ,
s ing
[] )
isch em
ĠâĢ ¢
ĠAut or
Ġgel ten
Ã¤m lich
ĠÃ¼ber n
ĠHer bst
ĠkÃ¶nn t
Le ft
ĠMon at
w ig
ĠK Ã¼nstler
Ġo ber
fl ug
ĠKom b
p lement
el ine
Ġp asst
Ġher r
Ġd ocument
Ġs ystem
ĠK arten
Ġst ets
ĠAn bieter
ĠUn ser
Ġfre und
Ġur i
b ett
h ard
al te
ex ception
Id x
track ing
SI ZE
Ġ3 5
b urger
ĠD inge
ic t
Ã¼t z
ĠF rei
ĠGesch mack
loc al
klus ive
D elete
sch Ã¶n
Ġs ql
ra ct
Ġhand ler
v ollen
ĠEr d
low ed
ĠgrÃ¶ÃŁ ten
Â °
ĠA ss
ĠT urn
Gener ator
bereit ung
INST ANCE
3 1
ĠI D
ĠR em
Ġso gen
Ã¤n gt
fe ature
Ã¤m pf
Ro le
Ag ent
Ġin tens
Ġbei de
Ġjeweil igen
ffiz iel
R ed
ĠW ahr
Ã¶ff net
ï ¿½
ap an
ĠRe quest
ĠpersÃ¶n lichen
k rank
Ġver gleich
Ã¤nd ig
Nonn ull
Ġw Ã¤hlen
Ġneu er
ĠArbeit en
ĠW olf
W h
ĠS ec
ver lÃ¤ss
ĠRe is
ĠVor aus
A v
p ass
dr Ã¼ck
N OT
in ed
ĠSpr ache
le v
ĠTra ining
a sten
on es
ĠS ek
4 9
n ap
ĠwÃ¼r den
Ã¼ lt
ĠWebs eite
mut able
ĠFen ster
Ġp rÃ¤
zw ischen
ur f
Die ser
ĠfrÃ¼ her
h ause
ab end
ĉĉ ĉ
Ġ" .
Ġc ommand
Ġreg ion
ĠÃĦ n
l ern
Ġd unk
ent wicklung
ĠAn forderungen
Ġunter wegs
ick s
Ch ain
ĠFre izeit
ĠInternal S
ĠPfl anzen
idBag Constraints
f ragen
o us
Ġd adurch
pro chen
D R
ĠM er
og raph
ĠAl so
ere cht
Ġdeut sch
B LE
valid ate
Ġse arch
Ġ5 00
3 9
Ġb ild
Ġ( )
Con sumer
ob ei
Ã¼ ll
ĠD oppel
Ġk Ã¼
ett ing
ĠIhr es
sph Ã¤re
M ath
ar kt
ig ungs
ĠMar ken
utt gart
Ġunterschied lichen
Ġehem al
B it
gr uppen
ĠKle id
schlie ÃŁen
ĠHot els
lichkeit en
an y
Sp ace
CH E
ĠBu ffer
Ġwicht ige
R est
ig ner
CO L
GE T
au l
ĠH ann
Ã¤l te
or ben
Ġf ot
ĠB ayern
ĠT ipps
ĠO pt
att form
m aterial
ĠS onder
Ġn atÃ¼r
ĠM art
get T
Ġw eb
ner stag
back tracking
Ġbeg innt
ĠMich ael
set zt
Ġm ore
ĠF ehler
Ġ1 000
ĠU ser
oh len
Ġ3 1
alis ierung
ĠCom puter
Ġaus schlieÃŁlich
b uf
ĠC reate
mÃ¶ glichen
D urch
or ld
ĠP unkte
id get
elt a
Ġperson en
K on
c ache
n ungen
ĠS T
Ġer ot
ik o
Ġcall back
Ã¼ss eld
ĠPorn o
ĠA ud
ĠK urs
ĠBo x
Ġbege ist
ĠKategor ie
s a
s ql
ĠM eter
Ġp refix
ĠN ote
Ġzw eite
c ard
ĠW ill
ĠSt il
anc en
z ul
Ġv Ã¶
utz er
ĠP C
Ġpro p
j son
W rite
geb aut
aff t
comp are
ĠM essage
ir es
il ft
ĠE uch
re l
id x
ĠPro zess
app ed
Ġgew esen
Ġjem and
Ġn Ã¤mlich
f allen
ul ation
Ġsch reiben
ĠVer antwort
Ġ[ âĢ¦]
L ang
O pen
Ġd on
âĢ ĵ
men te
chn et
ĠMon ate
i at
Ġj ust
olog y
ĠgÃ¼nst ig
t op
ĠH y
Ġa k
br igen
Ġ append
te ms
ig hl
AL L
Ã¼nd ung
ĠErgeb nisse
verstÃ¤nd lich
Ġrule Jvm
ift ung
ĠSch ne
I F
Ġan s
oll ten
imm el
Sele ct
al z
ĠM at
Ġh ere
se x
Ġan notation
Ġer leben
ĠMont ag
C opy
w as
Ġa fter
Ġent hÃ¤lt
zeug t
c ast
ĠM ess
Ġresource GroupName
Cl uster
6 6
B E
g ut
tr eten
Ġgest alten
unn ing
h olz
ie gen
ix ed
ĠBeg riff
TI ME
ĠtÃ¤ glich
M sg
j ection
Ġr uh
Ġgro ÃŁer
al ys
ĠAn zahl
Ġpro tected
c ape
ĠVer arbeitung
Ġjeder zeit
ĊĠĠĠĠ ĊĠĠĠ
flÃ¤ chen
cont ainer
n ames
ĠH ei
fre und
Ġgesam ten
" :
Ġe v
ip s
Ġdan ach
et zen
ĠG raf
ĠAn gaben
Ġcont ainer
ĠVide os
C ap
T P
Ġd isk
ĠR icht
os sen
-- ;
ĠGer Ã¤t
ĠRei he
- )
F older
ro h
ĠN un
ĠH Ã¤
Ġletz te
ĠgrÃ¶ ÃŁer
ĠE UR
ĠP fer
se qu
ubl ish
Ġb em
ĠV is
vis ion
ĠVeranstalt ungen
oh ann
Men u
4 4
Ġl and
in stance
eh mer
U UID
ĠAb schluss
X base
sch riften
ĠL i
OR T
AB LE
ĠB ade
Ã¶ ÃŁen
inc ip
ĠS ach
Sec urity
em pty
Ġsch affen
ĠhÃ¶ her
Z um
ei zer
Ġdam als
p rev
Ġw idth
Ġin stall
ĠO bj
ĠBl ut
ĠKir che
s upported
Ġf unction
ct ure
Ġweiter hin
Ġgesam te
Ġn Ã¤
urren cy
ĠB lock
ĠL ust
ĠL ager
Ã¤d ag
ĠMet all
Ċĉĉĉĉĉĉ ĉ
ĠInput Stream
en ces
ch ange
iv es
fÃ¼ hl
ĠX ML
ĠEntscheid ung
9 0
Ġum fang
FI X
ĠCl ub
s ort
on en
riff t
ĠErw achsen
Ġgem Ã¼t
rupted Exception
V O
ĠBereich en
ĠT O
Ġl ook
L ower
ĠW h
eh e
Ġges etz
AR T
D en
Ġst ar
ĠSmart ph
* (
ge stalt
Ġj ungen
Ġbef inden
Reg ion
ĠSe e
bed ingt
ĠNutz er
6 2
ĠBest e
ĠM eister
Ġo ffiziel
ord s
Ġt yp
Ġge stalt
ĠMon aten
ĠHash Set
Ġlink s
Ġf rauen
ĠGes prÃ¤ch
stra ct
as on
sam keit
ĠG u
Ġc as
Ġe cht
ĠQu ery
Ã¤d t
Rel ation
sÃ¤t zlich
B ER
d oc
Ġs inn
ei ert
ub ehÃ¶r
Ġviel fÃ¤lt
Ġtats Ã¤chlich
voc ation
ĠA ir
ĠW indows
ĠT Ã¤t
sh op
Ġgew Ã¼n
ĠLink ed
Ġinform ieren
ĠS erie
ĠT yp
A bst
B as
ch ner
Ġ" +
Hand le
Ġfunktion iert
9 5
Ġ3 2
ĠverfÃ¼g bar
L iter
S ION
W indow
ĠT ex
Ar gs
By Comparator
ot tes
Ġentwick eln
n a
R ad
an a
Ġbet roffen
j ust
ĠP osition
Ġber uf
Ã¶l ker
Dat abase
Ġfe ature
j o
Qu al
P AT
Ġge gr
)) .
Ġch annel
str ument
ĠVer wendung
ĠHinter grund
Ġo per
Part ition
Ġan b
B atch
Ġp op
Ġgesch rieben
Ġkein er
geh end
Ġwichtig sten
h le
ĠS ingle
rÃ¤s ident
ĠfrÃ¼ h
Ġkn app
Ġtrotz dem
Ġf ein
Ġp df
av en
ĠDef ault
ĠE t
ĠZu dem
ĠStru ktur
D u
s ign
ch an
Ġp riv
Ġer k
fol gen
ĠFre unde
ĠOr iginal
ĠÃĸ l
ĠMan agement
ĠauÃŁer dem
Ġo pen
Ġth an
ib el
ĠWochen ende
Ass ign
k raft
Ġin nov
ĠW ider
Ġver antwort
Ġfield s
wechs el
En coding
Ġpersonen bezogen
Ġs ep
au r
ĠP or
ĠAl b
ĠFeuer wehr
Ġt Ã¤t
code d
ic tion
Pro p
ĠRes ult
Ã¼ ge
ĠP ublik
S A
ist ischen
Ġ) ?
Ġbest ellen
LA N
H er
y th
M ulti
ĠAn wendung
AN D
ĠGed anken
ĠKÃ¶n ig
Ġmittler weile
X T
ĠP an
F ol
w s
Ã¤ den
Ġh off
ĠF F
Ġ4 5
I tems
ĠD B
Ġh ilft
iv al
Ġent stehen
spr ache
ĠProj ekte
Fr ame
4 8
Ġwel cher
Ġschw ier
Ġtrans action
N etwork
w irk
()) ,
ĠMark e
Ġgen ommen
Ġuse d
Ġd iver
Ġre port
reu ung
Ġp reis
Group s
schein lich
g ern
d et
Ã¼r t
ĠAn spruch
sw ert
part ner
ĠFol gen
ĠE is
ĠV iele
Ġo ff
ĠN r
(" /
he f
Ġwe chs
Str ategy
c at
c ms
d ir
o tion
ĠNetz werk
at tribute
ĠR at
ang es
Ġbest Ã¤t
Rem ote
ĠInternalS ARL
A G
ĠT on
In itial
Ã¤hr ung
Ġat om
S ymbol
w ar
sch auen
Ġres ources
der s
ĠW Ã¤hrend
ĠAm azon
ĠnÃ¤ch ste
] )
ver kehr
ĠW eiÃŁ
ĠC amp
Die ses
ĠS ong
Ġ" ";
teil t
Ġausge stattet
ĠmÃ¶glich st
Ġfolgen de
M IN
ĠK rank
Ġor g
čĊ čĊĉ
ĠQu al
ĠBr and
aler ie
Ġs ame
Ġp f
Re port
m aschine
Ġein gesetzt
ter t
spr icht
Ġb ody
ro ss
get Parent
rie f
ĠLeist ungs
ommun ity
UL L
ĠG ele
sp rÃ¼
enden cy
sol ute
Ã¤uf er
g o
Ġt oll
ent ur
ook ies
Ġzie mlich
ĠDon nerstag
R et
au b
ĠB eim
ĠD ownload
i i
am ed
ĠP rem
sch uss
sw itch
Inter val
ab els
ĠKommun ikation
ä ¸
ge stell
tr ies
gel aden
Ġbrau chen
ĠIn halt
ĠLink s
3 6
D i
ĠM erk
wer te
Sh ort
Ġdest ination
ĠTem peratur
ĠerhÃ¤lt lich
Ġsein es
we en
Ġ> >
lag s
Ġerw artet
ĠSchn itt
O B
z if
ĠP arte
ĠLÃ¶s ungen
r Ã¼ck
ĠW ild
bar er
ov ed
201 7
ĠSta at
Ġern eut
ĠvÃ¶ llig
ĠE ind
Ġan t
Ġwir tschaft
Ġgen utzt
conn ection
ĠBab y
av ax
by tes
ĠUp date
Result s
Ġn Ã¶t
ĠR ock
iert es
Ġgr atis
Char acter
Ġzuf rieden
qu alitÃ¤t
ĠGes etz
br uch
ĠBest and
Ġbe achten
zeich nung
ĠlÃ¤ uft
Ġbequ em
At t
zust ellen
Ġgener ate
t l
ĠW ohl
ĠBed Ã¼rf
le ar
n etz
urn al
lau bt
Ġint o
ĠAl tern
wend ungen
ĠGef Ã¼hl
ĠEle ktro
Ġbesonder en
Ġzahl reichen
ĠWohn zimmer
' ,
p o
ĠK rÃ¤
olit ik
andid ate
Ġprev ious
ĠH und
ag s
Ġfre e
Ġkom bin
b as
st Ã¤r
Ġw ider
Ġin nen
pro gramm
ac ity
S P
Ġh ash
ol en
om eter
ĠU N
in ternal
ĠM obil
ĠG o
Ġpro du
Ġpro duz
ĠGesch enk
Ã¤nd ler
Control ler
k arten
v iel
Ġnach halt
gr Ã¼n
ĠLeist ungen
v on
Ġm el
ĠM ail
er ies
olle ct
ĠU l
Exec utor
Hash Map
E l
Ġ3 00
Ġihr es
UT F
Ġinternation alen
it ness
Ġz eich
ab s
ĠK redit
ĠGer Ã¤te
ĠCont ent
Abst ract
O K
al es
au ern
Ġv ari
ĠZeit en
! =
ĠB io
Ġst ore
Ġver stehen
bo ard
lie ben
Ġgew innen
ĠBuffer ed
F low
n ers
get Resource
Ġer ster
ak et
ersist ence
ult ure
cept or
ĠIt alien
D ER
ĠD etails
ĠK er
ĀĀĀĀĀĀĀĀĀĀĀĀĀĀĀĀĀĀĀĀĀĀĀĀĀĀĀĀĀĀĀĀ ĀĀĀĀĀĀĀĀĀĀĀĀĀĀĀĀĀĀĀĀĀĀĀĀĀĀĀĀĀĀĀĀ
Ġ ..
ek ten
ĠMann schaft
m aschinen
p ost
ĠStand ort
zep te
( !
D ay
Ġl aufen
Ġsch lieÃŁlich
Ġpro ps
Ġresult s
spiel er
an walt
Ġt erm
ĠT ransport
St and
ĠNach richten
at tr
se h
ĠHer zen
Des c
stit ution
c p
ĠH eute
ĠN ational
if est
Ġerw eit
ick et
Ġhin zu
Ġdenn och
ĠS l
ĠS ort
ĠD ire
ut down
ra h
St orage
ĠMed izin
Ġj Ã¤hr
ru cken
ĠprÃ¤sent iert
b ilder
c ap
W S
ur es
Ġf al
resource GroupName
g on
r ich
Dest ination
7 7
Ġw obei
pl ier
leg ate
ĠÃĦn der
C I
O wner
g te
u k
st eht
ed ul
Ġerst ellen
C ertificate
stan ces
Ġregel mÃ¤ÃŁig
ĠDien stag
ig r
ĠP unkt
ĠT raum
sp art
Ġex tra
Ġ200 9
Ġ ðŁ
am s
ĠR a
ber n
wer ke
fÃ¼hr en
mo sphÃ¤re
Ġdirect ory
ĠW eitere
ĠAuf gabe
Ġexp ected
i ar
Ġf actory
Ġpro blem
ĠList e
Ġerken nen
M AT
ĠS of
ĠT im
Ġer inn
all s
Ġsp rechen
ĠInform ation
ĠKaff ee
st euer
UR CE
S ingle
T RI
ĠK ampf
ĠAn meldung
Ġle gen
ges ellschaft
ĠMark eting
ĠJ ohann
ib li
Class Loader
Ġadd ress
anze igen
Ġvalid ate
ĠK oo
vent ion
ĠMit tw
le ft
Ã¼r en
ĠU ms
och ter
ĠSp an
Ġgleich en
Date Time
ĠSpr ach
Ġ acht
Ġun bedingt
ĠM el
Ġkosten lose
ĠLei p
Ĩ Ĵ
ĠF eld
cl azz
mÃ¶ gen
Ġsp ort
Ġat tributes
vis it
h s
w ahl
Ċ ĊĠĠĠĠĠĠĠĠ
ĠÃ¼ber r
lin ge
ĠString Buffer
Â ´
rau t
ste chnik
Ġmehr eren
Map per
TE D
kn own
4 3
b ieren
l ers
ie ÃŁ
av or
Class es
ĠpersÃ¶n lich
P resent
ĠE del
Ġc tx
ĠBe zug
ĠWeiter lesen
umen te
Ġn eg
ĠV ater
ĠN umber
ĠSch le
Ġfin dest
for men
EL D
redential s
z ehn
ĠUm gang
ĠTr adition
ĠRes ponse
wh ile
Ã¤dag og
P ointer
Ġdurch gefÃ¼hrt
Ġs an
ex ists
Type Reference
ĠStr and
ĠSchw eizer
C ommon
en a
Ġf ertig
den ken
ber ger
ĠC onn
Ġer gÃ¤n
Ġa ccess
Ã¤hr t
Ġtem plate
w ald
ĠSchl ag
Option al
p unkte
ei ern
Ġwen igen
Ġelement s
R ender
Ġs icht
ger Ã¤t
ĠMaterial ien
6 8
ĠKl asse
Ġzie hen
ĠPlan ung
ĠMittw och
? ?
Ã¼ ten
ĠM ode
Ġp sych
Ġre al
Auth or
ĠKir chen
ighl ight
Ġex pression
ĠOr d
ĠLand kreis
ĠSta ats
ĠZw ischen
spr Ã¼n
Resol ver
ĠExper ten
Ġle dig
Ġx ml
riter ia
ĠTerm in
W E
y cle
ar Access
ĠF el
ist ische
Ġre st
Re pository
Ġgr Ã¼n
cl ub
ĠFor schung
Time Millis
ĠBus iness
loy ment
n eten
ch annel
ic a
Ġr en
lie ÃŁen
av ig
Names pace
Co unter
rep are
Ġmodern e
r id
Ġl imit
Ġst op
imple Name
Tim estamp
: "
ĠS on
Ġzu vor
ack e
ĠEr satz
incip al
we der
alle l
D ialog
G es
Ġs ort
ĠM orgen
ĠU RI
Str u
ĠDisk uss
v ide
ĠS achen
ĠA ccess
ĠZ ubehÃ¶r
res ol
at ew
ĠP op
ĠT rau
En tries
ix el
Ġs egment
ĠR uhe
Ġer mÃ¶glichen
ĠCh em
V on
ĠG ott
Pro tocol
alen der
ĠW aren
ĠL ive
Ġmod ule
lÃ¶s ung
An notations
Ġges agt
Ġf ach
ĠSp ann
PRO PER
Ġresol ve
Ġledig lich
I O
T est
c ol
ĠM aschinen
ĠSt unde
Ġeinz eln
Ġbelieb te
i ol
z Ã¤hl
Ġb auen
Ġf ailed
Ġh al
ĠL Ã¶
ĠThe ater
ĠKomb ination
ĠS ohn
kl asse
ĠDes halb
D ist
c s
ĠB ro
ib Package
pl ibPackage
ĠGes icht
com merce
Ġmet adata
ĠS ign
ĠN or
Ġver f
ien te
pf l
Ġgut er
bet rieb
Ġre duz
unk ten
Ġbest immt
Ġbeg ann
ĠTra iner
ĠRÃ¼ck en
ĠS ituation
ĠChar akter
uff ix
Ġf Ã¤llt
ĠSt uttgart
Ġus w
**** ****
ab l
String Utils
fer enz
Ġhttp s
r ist
z in
ĠP oint
Ġwir kt
Ġzum indest
ĠAus land
Column s
Ġ ord
ĠPart y
p ap
p age
ĠE d
ru le
mitt lung
L imit
s d
Ġst ack
tem pt
ĠFunktion en
Bound s
D omain
as ure
ran ch
Ġher unter
mitt elt
ĠWe ge
Point s
Ab solute
or ient
get Attribute
ĠH or
Ġer he
Ġer reich
ĠEin kauf
ĠUnter such
spr ach
Ġunterschied lich
ĠL ED
ĠVer Ã¤nder
ger Ã¤te
ĠTh omas
exp ected
E le
ĠSch rift
ĠVor stand
ĠGew icht
J Ã¤hr
sch ungs
ĠC H
pro ject
ĠFrank reich
i os
Ġmit tel
ĠZ us
ĠSt ad
Ġle vel
ĠTra in
gestalt ung
3 7
s ible
Ġs cope
Ġ Ã¤lter
ĠF unc
Ġl angen
let ter
SS ION
Top ic
ĠS Ã¤
ĠS imple
ĠPol y
s em
ĠB rÃ¼
ĠB enz
get X
Meta Data
Oper ator
haf te
setz ungen
w art
in ary
ĠS tern
le ger
ĠArray s
E M
ĠE N
Ġber aten
Ġschw ar
Ġclass Name
Child ren
Sup port
Ġrecht s
G en
ĠAn schluss
Ġf ull
get Path
us ern
Ar g
Ġf iles
ĠPro perty
Ġkommen den
B O
ĠH ar
ĠIn valid
Con dition
ss ystem
" ),
J e
ĠI r
Ġunterschied liche
Ġkont akt
ĠD orf
ot iv
inz ip
F in
ĠA ben
âĢ ĺ
UN D
b it
res h
new Instance
lie b
ĠSh ow
b us
Ġ Ã¼b
ig ungen
Ġ0 8
zahl ung
ĠHeim at
ĠAl les
Ġbes uchen
cl us
ĠStud ium
Lo ad
angeb ot
w Ã¤
Ġ art
iz iert
Ġverbess ern
U I
Ġb reit
ĠB it
Ġr ange
ĠMed ia
m atcher
end et
mer zen
Pro gress
ĠBe k
ĠGele gen
Ġb it
Ġge ile
Ġ- -
ĠBeruf s
e ded
In formation
ĠGr ad
Ġ200 8
Ġvers uchen
I con
ĠF ilter
Ġerforder lich
ĠM icro
if ik
ĠCh ance
n d
Ġbis schen
ĠSchl Ã¼ssel
ĠInter ess
O UT
Ġs od
Ġf lex
Ġin kl
Ġge kommen
Ġre ference
Ġwar ten
ick e
ĠZug ang
Ġhochwert ige
ĠWirk ung
gro und
Ġs ingle
Ġzu verlÃ¤ss
Ġge bracht
ri ge
Ġpro vider
Ġcon f
Ġro t
Ġid x
Ã¤m t
ĠÃ¶ff entlichen
Ġw issenschaft
ĠU til
pro p
rol ler
Ġsk ip
Ã¼ ÃŁe
ĠM ik
ĠFl Ã¤
ĠkÃ¶nn ten
ĠBed arf
ĠH alb
ĠL a
pro perties
FI LE
param s
ĠSinn e
Ġ queue
ut able
ĠG anz
ob by
Ġteil weise
Ġother lv
F re
Ġgen annt
ĠbenÃ¶t igen
Ġb lau
ĠB ook
anc el
Ste p
J E
f unktion
ĠMein ung
ĠAn frage
ĠAb stract
Ġtime out
Ġm ain
ĠG it
Ġr aus
yn t
ge geben
ot el
âĢ ¢
ĠIn stall
Ġiter ator
z un
Ġ2 000
Ġopt imal
se arch
ĠH ol
ah lt
pf lege
ep age
ges ehen
Ġdar in
Ġkle ines
Ġperfe kte
Ġspeziel l
M I
Ġk ennt
etz te
ĠNach bar
olog ische
H older
ĠV ector
Ġl abel
fer ences
Ġloc ale
hÃ¤ user
C ol
i kt
ĠP age
ag ing
spr ung
ĠRef er
F loat
f le
Ġm ember
ĠK arte
ĠT re
c el
be an
Event s
Ġwen ige
C ategory
ĠI P
ĠVerkehr s
I llegal
ĠA lex
ĠbenÃ¶t igt
v oid
Ã¼ st
ĠM oment
Ar ch
Ġpr int
unn able
Ġverk aufen
Ġd ah
Ġk ost
ĠL ux
hab er
st ahl
Ġun abhÃ¤ng
Ġsch ema
FI ELD
rÃ¤n k
ĠWeihnacht s
Ġ Ã¤ndern
Ġo peration
ĠVer fahren
print StackTrace
ĠAng st
A rea
an st
tr ieb
ĠT eile
ul a
ĠIn sel
Bu ild
ĠVor der
Ġautomat isch
ĠSie g
D etails
ĠP il
ĠJ ung
aus o
Ġsie ben
Ġkey s
ĠBild ung
ĠAd d
M atcher
p asst
re ut
Ġm usik
ĠE v
ler nen
b ound
g ra
l abel
Ã¶ se
Ġent sprechend
Ġbet eil
Ġservice Callback
ĠTo ken
Ġd einen
Ã¶ ÃŁ
mer z
Ġman chmal
Ġander es
ĠMod el
Pass word
Ġmoder nen
Ċ ĊĠĠĠĠĠĠĠĠĠĠĠĠĠĠĠĠĠĠĠĠĠĠĠ
et ed
ĠS im
Ã¼ se
sch m
Ġst ru
ĠIntern ets
Ġâ ĨĴ
Ġgest ern
A ber
ĠD okument
ĠD Ã¼sseld
auf trag
ht ml
an o
an on
ĠS V
le bt
ph a
ĠInf os
a int
m and
z ip
ynam ic
p lic
Ġs org
se g
ĠJ ava
zen e
ust r
form ed
zÃ¼ glich
ĠHann over
H allo
h Ã¶r
ip her
ĠUnter richt
Ġmethod Name
db c
B ar
h aben
pl Ã¤tze
os ite
ak er
alt et
utz ung
Rec ei
Ġpart ition
Q UE
g le
ĠK ant
get E
ir n
Con structor
Ġpassen de
te uer
Ġe ffekt
ap ply
ĠSt ahl
tern ehmer
Ġvers ucht
Ġtr Ã¤
Mod ified
Par se
imit ive
haf en
Ġumf assen
b ringen
it ive
is st
gericht et
s uper
Ġ arbeitet
ĠF ig
pr es
ĠMit t
ĠT w
ĠC O
ack t
ac ement
ĠHand werk
aw t
Ġlo op
Ġun er
Ġan zu
ri ffen
ĠLiter atur
ĠwÃ¼n schen
S ummary
ern t
ige st
Ad resse
ĠVerein s
ĠNo Such
ĠS ter
Ã¤ hn
Al ias
ĠKÃ¼ chen
nap shot
B inding
M edia
st op
Ġt ief
ĠK art
ĠH ard
Ġe gal
Ġver t
Ġlie ben
Ġide al
Ġheut igen
ĠSQL Exception
ĠK or
atew ay
ĠL Ã¤ndern
arm on
ĠĠĠĠĉ ĠĠĠĠĠĠĉĉĉĉ
ĠSonn e
ĠSchlaf zimmer
= '
G er
n itten
ĠW il
ĠH aft
ĠIn tegr
rÃ¤ gt
rÃ¤ ume
other lv
Ed ge
ĠgewÃ¼n sch
it a
Ġe leg
ĠIn dex
glie der
ott om
Ġgl Ã¼ck
5 9
v Ã¶lker
au chen
ĠSp ielen
ill a
ktion en
Ġerw arten
current TimeMillis
Ġgeb oren
Ã Ħ
in itial
Ġt ypes
Ġexten sion
Ã¤um en
ĠAk k
S ql
ver l
Ġres p
key Set
S K
n umber
ĠH Ã¶r
alle d
Ġsei en
ĠViel zahl
C LASS
ĠB ase
ĠF unction
ach ment
Ch unk
Ġbeg in
ilen ame
ĠAller dings
S ol
l as
ĠAus stellung
ĠBe ge
ĠÃ¤ uÃŁer
ĠF C
se c
ĠNe ue
Ġhe ight
ĠRestauran t
ĠIn nov
Z ur
w esen
ce d
ĠN ull
ĠIn stitut
Client Execution
ĠKunst stoff
ibil ity
D ire
eil en
Ġbefore ClientExecution
ĠFF DC
B ig
ã ģ
Ġs m
Ġent standen
ste iger
Ġlie ber
Ġzul etzt
E T
f assung
x x
de p
get ragen
fÃ¼ ll
i able
ĠB lau
ĠT iere
ot or
Ġgesch lossen
ĠProdu kten
ĠService Future
Ġentsprechen den
z ut
Ġs auber
el y
Ġc ur
Ġj Ã¼n
Ġent schieden
Ph one
kleid ung
ĠMart in
ĠN atÃ¼rlich
m Ã¶glichkeiten
Ġk amen
ĠH off
Row s
O ne
d as
d ro
m und
in voke
Ġo p
im age
per son
to Array
Act ivity
z esse
al th
ĠW S
H O
ĠT ree
Ġnach dem
leg ung
ade d
Format ter
ĠLin ie
C ustom
Ġg o
ĠL Ã¤nge
ĠO peration
sp ielen
chs el
TE XT
AC K
C R
D isplay
set s
List eners
gem einen
c ent
f inden
Ġs ah
Ġw ait
Ã¤ u
ĠH ans
ator en
bild ungs
list e
Ġander er
" +
C re
ĠD aher
Con f
leucht ung
Ġsod ass
re ite
Ġe ach
omm e
ĠPl us
Ġher gestellt
bo den
Ġlang sam
4 7
k ur
is ieren
ĠBe zirk
amm t
ĠAf plibPackage
S ep
h lt
p ft
Ġs l
ĠM esse
ĠR uss
Ġ15 0
Ġporn o
Ġbestimm ten
ĠTO DO
z z
» ¿
ï »¿
ers eits
option s
ĠErot ik
U uid
w ach
w issen
ĠK ern
ĠG ra
ber atung
ĠC all
Ġre icht
Ġpar ser
ĠT ochter
om en
ĠSch loss
Ġvor gestellt
and eln
ĠRe ich
ĠRe isen
ĠAuf ent
RE D
201 6
Method s
ĠAnt wort
} );
ie sen
le hr
ĠMod elle
Ġext rem
STR ING
G esch
Ġm orgen
Ġl ag
Ġstat ement
Ġmitt els
ĠÃ¼ brigen
agn ost
isch ung
Ġus ing
ĠnÃ¤ her
ĠH of
Ġsch reibt
ran ge
ac cept
ĠUm setzung
Ġf ehlen
Ġre q
Ġle ist
ĠAt mosphÃ¤re
ĠgroÃŁ es
ĠprÃ¤sent ieren
f a
Ġs plit
Ġ) *
ĠPap ier
B et
or es
ĠD el
Ġth em
Ġab geschlossen
Ġkur ze
Ġerschein t
Lower Case
A ud
Ã¤r t
getS impleName
Ġverl oren
Gener ic
ĠZentr um
U se
Ġb ound
ĠW al
String Builder
ĠAn lage
Ã¶r ter
reg ion
ĠUr s
throw s
Vis ible
ch nen
Ġher zlich
an ke
re as
Ġk Ã¼r
Ġfinanz iel
e ep
er ken
sch ei
00 00
Ġent decken
eten z
Ġloc ation
ĠBeit rÃ¤ge
istr ation
n ow
ich ern
ĠD eine
res den
ĠHand el
LI C
ĠGest altung
M M
l ingen
ĠS ache
ĠF ans
ĠÃ¼ber nehmen
nis sen
Ġindivid uelle
ĠVertr ieb
Ġspec ified
zun ehmen
ĠG as
Ġcl uster
L ayer
S uper
l iga
r s
at om
ĠVer d
SE CON
stru ction
ĠApp le
s an
ĠTher apie
Ġgarant iert
4 2
b ad
ĠVor teile
ĠZeit punkt
ĠGrund lage
hand el
Lang uage
f an
it Ã¤r
Pro file
ograf ie
ĠBon us
C S
r eten
am ent
ĠG ottes
Re quired
Ġvor aus
mitt ag
ĠBeweg ung
D ATA
ĠgrÃ¶ÃŁ te
ĠMaÃŁ nahmen
ĠSt Ã¤r
h ung
il ien
Ġh olz
ĠT ran
of en
d urch
or ted
ĠM iet
ĠE ss
ive au
pf er
gesch Ã¤ft
ĠVal id
K W
Ġv oller
Ġin zwischen
ĠF ranz
ĠP resse
ĠIm age
V oid
ĠM ult
tr an
ĠF Ã¤h
get Time
get Field
ik um
ĠK reuz
igh b
match es
Ġverg essen
B us
Ġst ep
he et
Ġ201 9
Ġabsol ut
B ook
get Node
ĠH igh
ĠVer m
Con stant
ip eline
Ġges etzt
ĠBl umen
parse Int
Act ive
ĠWett bewerb
Ġs amm
ĠT od
im me
ert ifiz
To String
Ġgut es
Ġ200 7
Servlet Request
ĠK och
get Text
iert el
Ġdar um
ĠReg ierung
ĠBerlin er
loc ation
ĠGelegen heit
Ġt ran
ĠE igent
Ã¶rder t
TA G
ĊĠĠĠĠĠĠĠĠĠĠĠĠĠĠĠĠĠĠĠĠĠĠĠĠĠĠĠĠĠĠĠĠĠĠĠĠĠĠĠĠ ĠĠĠ
ĠK al
get Default
ĠÃ¼ber all
Ġent gegen
AR N
ĠVerb esser
or ation
ap eut
age gen
our s
Ġsec ond
S uccess
ĠH D
ĠSch iff
(" ,
k rie
st yle
ĠH ein
ĠLehr er
ĠZwe ck
L EN
s ucht
Ã¼ m
ĠP aram
ĠL ern
ĠGesch ichten
EX T
ĠS y
ĠB aden
Ġsch m
wer den
Ġdar unter
Ġindivid uellen
Sele ctor
p ool
hr esh
ĠT rotz
Ġr ies
ĠHand y
B Y
W ar
st Ã¤nde
Ġh eim
ĠK lin
Ġer g
Ġdurch aus
lie sen
ĠAuf bau
far ben
A kt
L INE
it ieren
Ġh aus
Ġle b
zeich nis
spann ung
Â ²
ĠA pi
ĠL Ã¤nder
omm ission
ĠVor teil
Valid ation
Ġnotwend ig
ĠM ulti
Ġp ool
ĠâĢ Ķ
ĠAn der
add ing
Ġ200 5
Up per
ĠWÃ¼n sche
ĠD adurch
Ġr ad
Ġtra ce
Ã¼nft ig
rior ity
M emory
ĠW asch
ĠSch aden
lin ien
au ert
Ġb ilden
ĠFl Ã¼cht
ĠKon zept
ĠLeip zig
h ash
un try
ĠS ing
ĠL eiter
amil ien
ĊĠĠĠĠĠĠĠĠĠĠĠĠĠĠĠĠĠĠĠĠĠĠĠĠĠĠĠĠĠĠĠĠĠĠĠĠĠĠĠĠĠĠĠĠĠĠĠĠ ĠĠĠĠĠĠĠĠ
ĠZusammen hang
JE CT
D ATE
ar zt
oll ar
forder ung
Pl an
P ane
en se
not Null
Ġide en
8 8
it ro
Ã¤n n
ign et
Ã¼nst ige
ĠOrganis ation
S ite
am ing
ĠI S
Ġmit einander
plet ed
ĠA spe
ĠG roup
Ġl ok
ah nen
H ome
s Ã¤tze
re port
Ã¼ ÃŁen
Ġk rit
ĠInter view
Ed itor
ĠBewert ung
ynt ax
Ġb undle
ĠT anz
ĠO per
ĠIn iti
ĠSt iefel
achst um
ĠR ab
acht ung
lin ie
ĠBed ingungen
SO URCE
4 1
p assen
Ġin clude
ĠV alue
ĠC re
ĠOr ts
Sc reen
ĠZeich en
ĠH ilf
Ġden ken
ĠPl ay
Ã¼h m
ĠChrist ian
Ġpassen den
C ould
C ollector
I VE
g Ã¤nge
z eige
Ġin klusive
ĊĠĠĠĠĠĠĠĠĠĠĠĠĠĠĠĠ ĠĠĠĠĉĠĠĠ
ĠZ Ã¼r
lau se
TER N
Ġapp lication
ĠDienst leistungen
ĠFÃ¼hr ung
Ġmed izin
Â ¼
Ġw achsen
ang le
Ġpro xy
new Line
Ġerst mals
ĠAnd roid
ĠHom epage
F IN
W OR
Ex pr
ĠFil me
ĠpersÃ¶n liche
haf ten
Rem ove
m ain
Ġi gnore
ĠK amera
ĠVer halten
Ġbek annte
ĠLand schaft
Ġc alc
if c
ĠTr end
S l
m aÃŁ
r aten
Ã¼ gel
Ġp ush
ĠSch on
Ġbew e
Ġschle cht
z ern
č ĊĠ
Ġn odes
ĠF isch
ĠK ennt
aw s
ief ert
ĠWÃ¤r me
H tml
sch irm
ĠG erman
param eter
Ġwicht igen
ĠtÃ¤t ig
B ef
c en
Ġun g
Ġm ode
ĠF rie
ok rat
Ġnie dr
Sub scription
I t
ĠIm mutable
Ã¤l fte
Declar ation
6 7
f os
ĠS PD
ĠD ocument
Pro ps
Ġex tract
rau cher
Object s
ĠÃľber blick
ĠTeam s
ĠWirtschaft s
Ne ben
Metric s
S pe
ag d
Ġvor stellen
ire d
ĠBaum w
fÃ¤h igkeit
ulture l
ĠtrÃ¤ gt
T V
e er
ĠRei fen
angeb ote
Ġ \"
ĠE re
Ġver h
ĠSt ar
Ġaus reich
Ã¤n e
ĠSemin ar
ĠSmartph one
G EN
l Ã¤nd
Sp an
- /
con f
ĠAd resse
ĠStud ie
orre ct
ĠS atz
ol den
ĠP aar
Ġver lassen
Ġre place
ib m
Ġdat abase
O pt
g oogle
ĠT aschen
ert igt
rie be
reis en
lau be
F T
s sen
op t
Ã¶r dern
Ġid ent
Byte Array
Ġangen ehm
wind igkeit
Ġgegr Ã¼ndet
Assign able
w est
te id
Ġre ich
LOG GER
ĠJahrhunder t
Fol low
F ull
Ġd ek
Ġv ar
Ġf il
Ġ200 6
Ġdi ffer
ĠFrÃ¼h stÃ¼ck
U RE
p n
at alog
Ġer stellt
ĠBetrieb s
en ke
re ader
acht et
ink el
Ġtra in
sele ct
L ook
k Ã¼nd
ro ugh
um in
ier end
ĠC ode
ran g
ĠMot to
c ore
Ġm achte
ver trag
end sWith
con ditions
Ġte lefon
Ġexist ing
st h
Ġs ince
Ġt ollen
ĠH T
sb ed
ĠHand els
Argument s
ĠKÃ¼ hl
S dk
Ġit s
ĠÃĸff entlich
Ġf icken
Ġin spir
ver tr
++ ]
fre ie
ĠJe der
Produ ct
PROPER TY
č ĊĠĠĠĠĠĠĠĠĠ
in u
ĠW ell
Ã¤t ter
ĠSp itzen
ĠEx pression
Ã¼s sen
spl atz
Ġspr icht
edul er
L and
Ġun mittel
Ġh ilf
ĠL aut
ĠO hne
Ġfol gt
ĠDÃ¼sseld orf
5 00
h Ã¤nger
Ġs ure
Ġf ranzÃ¶s
Ġh Ã¶ren
ĠR os
Ġauf genommen
ĠAn gel
Ġbet rÃ¤gt
ĠByte Array
D etail
p ul
v ar
ge x
ck s
Ġe ignet
ĠEin richtung
ĠCh ina
Ġcom merce
__ __
aktion en
Ġav ailable
ul k
os oph
Ġsp aren
Mon itor
6 9
D b
U B
Ġein gesch
ist e
Ġam er
ant as
amp ag
ĠKoo peration
P UT
T x
d ing
ĠE isen
ĠC or
ĠZ e
ĠGr enzen
[] {
Ġber ichtet
Ġgr idBagConstraints
Ġy ou
kle ider
ĠÃ¼ber zeugt
ĠEx ec
Token s
ĠMot iv
K ind
R ight
w ays
get Request
En vironment
rec ord
c atch
Ġf a
Ġd ist
ĠD I
ĠM uster
art ikel
ĠEr lebnis
ĠAr zt
olog ischen
lÃ¤ uf
ĠÃ¶ff nen
ĠTrain ings
au te
ĠT at
ĠKom fort
Ġumf asst
i ate
Ġi v
Ġf allen
ĠD ro
ĠM useum
eh lt
arbeit er
Stat s
Ġob wohl
ĠPr int
ĠhÃ¤t ten
Ġvertr eten
A c
C annot
c ommand
au ten
ul en
Ġe ure
hal le
to LowerCase
leit en
Ġret val
Sc ale
rÃ¤n ke
Ġwahr scheinlich
Ġbegeist ert
ĠPublik um
Ġent steht
Ġele ktron
y pen
ĠK abel
ĠH ome
Ġgen auso
com ponent
ĠCon stants
ĠLebens mittel
Per iod
ĠBesonder s
ĠA mer
Ġget P
Ġschnell er
ĠzusÃ¤tz liche
H eute
i ation
ul ator
Ġst arten
ond on
Change d
ogn ition
ch em
au g
ach ing
he ber
oc us
zen z
ĠFahr rad
ĠS eine
Ġle cker
Ġgef allen
ĠverfÃ¼ gen
Ġf ur
em pf
Ġh alt
ĠP ersÃ¶n
Ġ" ]
ri ka
Page Link
Ġsol chen
ultip le
Ġmusik al
H istory
Ġm y
ent in
ĠI ter
ĠWe chsel
Ġfr isch
ĠAktiv itÃ¤ten
ĠKonz ert
s ser
im in
Ġ3 6
Ġ3 8
ure d
bo ten
it ed
Ġc re
ver gleich
ĠVer lag
ast e
ĠEn glisch
+ "
s v
ĠG al
ĠPro fil
Ġange geben
ateg ie
PAT H
ar l
ĠK rit
Ġzu k
Ġher um
ĠBew erb
ĠSchul en
ĠDre h
D eut
P redicate
w eite
ĠD isplay
ĠF ein
ot os
form ance
fer red
rÃ¤ ft
Ġrel ativ
VER SION
Ġd own
ar a
ĠT reffen
ri ent
Ã¶r se
ud es
Ġbeg innen
ĠGemein schaft
Ġact ual
kont akte
Ġd ient
ĠS ein
ĠP ers
ĠVor sitzen
ĠBe vÃ¶lker
Ġeinf ache
Liter al
er klÃ¤rung
im pl
Ġsch rift
rÃ¼ st
Ġpass word
Ġap ply
vol ution
m esser
ge legt
St ar
we il
ĠFahr t
Ġanb ieten
ĠV it
ub il
Ġwir ken
res et
Ġt ree
ĠK Ã¤
Ġcomp ute
ĠEigen schaften
ĠTÃ¤t igkeit
5 7
S w
ĠG eist
per s
Ġso weit
T itle
f ass
w issenschaft
ĠS amm
get Data
so le
CON T
ĠTechn ologie
B est
ĠF Ã¤llen
Ġwe der
ĠSo und
ĠFle isch
Ġverantwort lich
ĠR ob
CT OR
ĠKategor ien
Ġ ĊĠĠĠĠĠĠĠĠĠĠĠ
Ġw ord
ĠB ier
ĠD auer
Ġk inder
ak ten
tem p
ĠTh rowable
Ġen coding
Ass ignment
Ġkur zen
am azon
ĠZ uf
Ġsch auen
Ġent weder
Ġrule X
ĠDar Ã¼ber
Ġwunder schÃ¶n
D river
Ġl ive
Ġst Ã¤ndig
ĠO ffen
Sp iel
ĠKl im
ĠD O
Ġbe zeichnet
Pr ice
Ġklass ischen
Ġbestimm te
D evice
de v
AT OR
ces sed
bereit et
Ġeng ag
M o
ĠT ask
Ġr s
Ġbe z
ĠZ ahlen
er be
as List
Ġt x
ist ics
Ġ0 1
sh ow
ĠY og
ĠTab let
k ampf
w eb
ar ben
Ġbe ob
ĠSchl uss
Ġbew eg
Sign ature
Ġamer ikan
a a
in de
Ġv ariable
ap s
Ġviel es
Ġpass iert
Ġgrund sÃ¤tzlich
y er
en g
Ġc ollection
Ã¼ck sicht
Ġgel ungen
ĠInternal Xbase
prÃ¼ f
feature ID
Ġf Ã¼hlen
Ġt ut
ĠM or
ĠH al
ĊĠĠĠĠĠĠĠĠĠĠĠĠĠĠĠĠ ĠĠĠĠĠĠ
ĠVer gangen
Ġsp an
Ro ute
Dec l
b aum
s ure
Ġs um
ĠS ehr
Ġr aw
ĠJ ur
ĠIn ner
ĠVer k
ĠAl ters
Ã¤ng st
Ġmet ric
array copy
W idget
Ġw asser
ĠR unde
ess el
Ġerz Ã¤hlt
E ach
Ġf uture
Ã¤ ck
ad ing
ĠTe lef
so ft
ĠY ork
ĠLes er
Ġb i
ĠD afÃ¼r
Ġz Ã¤hlt
ĠG alerie
den burg
Ġalle ine
Ġgew onnen
ĠBild ungs
por ter
Block ing
Ġinteress ant
Ġpriv aten
st uhl
Ã¤ llig
ĠAn lagen
ien z
Ġch unk
Ġrel ation
ĠWel che
5 4
M ehr
V irtual
Ġin ternal
Ġg rau
Ġge halten
ĠAn trag
Ġgef Ã¤hr
MP TY
Ġwicht iger
b ind
um er
ĠL ook
hal ter
form ationen
ĠTeil nahme
gramm arAccess
beg in
ĠKolle gen
l ager
and s
ĠSt ock
con vert
ĠFor schungs
riff e
ĠSchm uck
lad ung
D et
Ġd agegen
Ġh alb
Im port
Al gorithm
Ġur sprÃ¼n
d ater
Ġd auer
ĠS oc
Ã¼ ter
Ġge zeigt
ĠEr inner
File Name
vers orgung
Ġinteress ante
==== ====
/ {
P C
ge ord
Ġt rocken
Ġc lean
ct x
tag s
ĠFlug hafen
d ates
ĠO ff
Path s
ĠFerien wohn
j oin
ie fe
Ġt ransport
ĠâĢ º
ĠJugend liche
ĠMill iar
getM ax
AX B
I R
m ine
ĠO utput
Ġrem ote
Bl ank
t mp
ĊĠĠĠĠĠĠĠĠ ĠĠĠĠĉĠĠĠ
Ġget ragen
gew icht
u it
Ġd ritten
ĠB ot
ip pen
Ġ4 00
az in
Ġeinz ige
ĠFor men
ĠKosten los
Ġste igen
w urf
Ġw and
Ġge legen
ok er
čĊ čĊĠĠĠĠĠĠĠĠĠĠĠ
valid ator
Ġsele ct
ibli othek
ie fen
Ġw here
im ation
Ġges pe
ĠZu hause
ĠGer icht
ĠAkt ien
Ġattr akt
o sen
z one
Ġs Ã¤mt
ĠP rakt
ĠK ais
Ġl v
ad s
im iter
Ġbew er
Ġzie ht
Ġschl af
ĠRad io
B uf
m ung
ĠD om
ĊĠĠĠĠĠĠĠĠĠĠĠĠĠĠĠĠ ĠĠĠĠĠĠĉĉĉĉ
St ud
ĠPro perties
ĠGr Ã¶ÃŁen
Ġwe iss
Aut o
ĠMo dern
gram me
Ġk Ã¶rper
ĠC olor
ĠN et
ry pt
= \"
ĠG olf
get Status
get Local
ĠZ it
ĠAut h
ium s
CO DE
j en
au schen
ĠÃ¼ber prÃ¼
dr ich
ĠInform ations
ĠbeschÃ¤ft igt
B itte
F E
t i
der t
ĠAr ten
RE AD
CE SS
PO S
ĠAust ausch
ĠKomment are
ĠTerr asse
5 8
C L
S G
in os
et isch
ĠD ep
ĠC lient
ĠUn fall
ang s
R ate
m ess
p refix
Ã¼r n
ST AT
ĠAt om
Ġp ackage
Ġaus drÃ¼ck
up p
pl atte
ĠEin fluss
bed ingungen
Ġitem s
ĠAnaly se
ĠÃĸffentlich keit
> ");
B B
Ġl aden
Ġselbst verstÃ¤ndlich
B ild
at ungs
ĠF itness
Ġc ell
5 2
h a
ĠP ay
ĠH alle
och e
Ġrec ei
Byte Buffer
ĠUms atz
G ateway
ĠA ction
Ġan schlieÃŁend
ĠSch ei
Ġgeb raucht
annot ation
Mon th
hresh old
E LE
F ailure
S D
st eh
ur laub
get Bytes
Ġdes ign
inder t
Ġdec ode
Ġbeein fl
amazon aws
S imple
u den
re cher
Ġhab t
ĠRe zept
ĠTe le
ucht igkeit
čĊĉĉ čĊĉ
Ġkom fort
Ã¼l len
A fter
B its
Ã¤ use
Ġaus fÃ¼hr
ĠEr de
add ress
tem berg
P ack
k oh
ĠS Ã¼
ĠB ach
ĠG eg
Ġaus geb
Ġj ung
ichtig ung
AP I
Ġinform iert
o e
an aly
Ġin sert
Ġer laubt
Ġ- =
pl es
Ġ19 7
ĠFahr zeuge
(( (
apt or
seit ig
F S
ĠA mb
Ġc ause
ĠKl ima
stÃ¼ck e
Ġspeziel le
Te am
ognition Exception
S ervices
c an
Ġf ix
ent s
ĠM ac
ff ect
end ung
Ġen gl
par atur
Ġschn elle
ĠBest ellung
list ener
Pl ugin
k Ã¼
le vel
is Assignable
ĠE cht
Ġre d
ĠGem Ã¼se
ziel t
ym n
schlÃ¤ ge
st ar
ad o
Ġ" \"
Ã¼ck t
ĠÃľber sicht
ĠGut schein
T S
b eln
s Ã¤
ĠS a
Ġ" \
Ġlie fern
!! !
ĠSil ber
cas Type
M B
N UM
c ur
ĠA R
Ġein geb
ard s
ĠFahr er
getC urrent
l a
st ation
ĠR et
set Property
wer b
Ġit alien
PRE FIX
Ġcas ino
M ain
P oly
k k
le cht
Ã¼h lt
Ġdein er
ĠSort iment
ĠVergangen heit
O D
Ġein iges
Ġzu erst
Ġal tern
for schung
akt oren
ĠAut om
ĠT al
ĠT ro
Ġlie ÃŁ
Ġar ch
stru ktion
LI ST
ĠSicherheit s
Gr und
Ġact ive
frist ig
ĠM eine
get Absolute
reg ierung
des ign
Ġmus sten
Ġgemeins amen
Ġd st
ĠB ud
ĠF ast
ten d
ber icht
ĠO ne
ĠBe an
ĠZeit ung
ock en
Ġirgend wie
Ġoptim ale
S el
s Request
Ġv ia
il ler
Ġre ag
Ġlie b
ĠZu cker
sk i
Ã¼l le
ĠerklÃ¤r en
Ġentsprechen de
ĠKrank heit
ch or
Ġs cript
Ġb ad
Ġz Ã¤hlen
ĠW under
Ġ4 8
Ġ' ,
los ure
mod ell
Ġeurop Ã¤ischen
F ont
V D
ĠB rowser
Ġver lei
etz ung
fahr er
Ġbek annten
Ã¶t zlich
G ro
b inding
k lass
ac cess
sum e
P P
c ies
z we
Ġb ill
ĠT ar
ĠN O
ant s
Th is
ĠBran chen
ĠJ ed
pl acement
eil t
ĠNe ub
num mer
Ġkomp lex
Ġmen sch
le der
Ġc ould
gen de
ro chen
ĠRe chte
ĠKap itel
Ġdr auf
schul en
ĠS eg
ĠL ine
Ġho her
W N
o pe
Ġd one
ie ben
ĠS ehen
Ġt rifft
Ġc lear
Ġl ust
sp f
Ġ0 9
fer nen
ĠEng agement
P rev
g as
in sert
Ġ/ **
Ġges ellschaft
ĠÃľ b
spl an
ĠAnt worten
Ġele ktr
Ġap i
ĠEind ruck
Ã¼ nen
ĠF ett
ĠH ighlight
ĠV ier
ĠJ ack
ĠCh ancen
gemein schaft
ĠEre ign
M ar
c tr
k Ã¼n
ĠC ache
ĠEin en
b is
f ull
Ċ Ċĉĉĉĉ
Ġein st
ig its
ĠF ormat
Ġim plement
Ã¶n e
Ġcreate d
ĠViel leicht
Ġchild ren
Ġargument s
A V
J oin
ĠJ apan
itt el
imm ungen
ĠWer bung
Ġabge st
ĠLei der
ĠFÃ¶rder ung
ĠSchwer punkt
or a
ik on
az y
ĠBl ack
ĠPar se
gef Ã¤hr
zÃ¼ ge
ĠArch itektur
Ġf as
om ie
ĠDeutschland s
Ġinteress iert
isAssignable From
t Ã¤
re al
iz ont
Array s
Ver tex
Ġdefault Value
Ġcolumn s
ĠErn Ã¤hrung
f Ã¤lle
Ġp ack
ad a
v ari
Ġs ave
ĠL ondon
Ġo ur
ĠĠĠĠĠĠĠĠĠĠĠĠĠĠĠĠ ĠĠĠĠĠĠĠĠĠĠĠĠĠĠĠĠ
ĠAus gabe
Ver Ã¶ffentlicht
ĠBen utzer
PT ION
ĠMeth oden
k ap
s recht
v h
ĠD resden
ĠM aster
ĠT ri
ach ine
ĠR oll
Ġa ccount
ĠBer icht
T uple
st Ã¤nden
ĠA L
pr esse
Ġres et
ĠFre ib
ĠMin ister
Ã¼l ler
ĠKar l
Sdk Internal
W est
on ym
ĠS at
ĠF ran
sch ema
Ġan sehen
ĠC ity
ĠC alendar
Ġst yle
ser ial
Ġgek auft
ĠerfÃ¼l len
ĠM acht
ĠK ath
ĠZ iele
ĠOber flÃ¤che
ĠLieb lings
M issing
Ġk enn
scha ffen
ĠFre e
halt et
Ġsicher lich
ĠAt tribute
ĠGeschÃ¤fts fÃ¼hrer
4 6
F ragment
G lobal
p ush
Ġ att
ĠB Ã¶
ĠD ass
Ġaus gel
Ġsch Ã¼tzen
ahr ung
ĠAl ten
gesch rieben
Ġkon zentr
Ġstell te
zi pl
o peration
ĠP et
res pon
ĠFre unden
<? >>
Pr int
Ġdisk ut
clus ive
B eim
or th
Ġm uÃŁ
Ġi Phone
ĠM und
ĠR en
Ġgem Ã¤ÃŁ
Ġwill kommen
Ġhochwert igen
F actor
M ein
ĠP rÃ¤sent
ĠK unde
ĠK lassen
ĠL eiden
ĠR Ã¶
un e
ĠD etail
ĠP ool
ĠT able
Ġnie der
Valid ator
SdkInternal List
o ice
or b
Ġz ahlen
ver schluss
Ġver schw
Ġaus zu
ah e
ĠEin fÃ¼hrung
Ġber Ã¼hm
ĠIm mer
ĠCon text
ĠAu ff
ĠSchn ell
kennt nisse
ĠMil ch
B ond
k urs
s itz
ro y
ind ustrie
ST ART
Ġbes itzt
Ġsozial en
Ġposit ive
ĠLoc al
Ã¤t z
ide en
Ġreg istr
Ġmet a
ĠWeihn achten
R W
or ie
ter e
ĠH Ã¼
ĠâĢ ļ
ĠAn w
Ġgel ang
Start seite
5 3
O ff
b ie
f aces
k ul
ĠS achsen
Ġc ustom
ĠEin fach
ke a
Ġor ient
ĠPar is
config uration
ĠJSON Object
Ed it
Ġtoken s
ĠD eb
Ġo cc
ĠÃ¼ber zeugen
ĠEnt ity
ponent en
Ġange zeigt
Ġbew usst
ĠKar r
Auth entication
ĠKomment ar
ĠF rieden
geh Ã¶r
rec ated
VAL ID
PO ST
ĠAnd reas
ĠVerantwort ung
u i
Ġd ienen
ĠB urg
ĠW eil
Ġ0 7
ast ik
Ġcont ains
ka dem
ĠauÃŁer gewÃ¶hn
gener ate
ĠWar um
Ġwes entlich
ĠAben teuer
5 1
Ġd ay
Ġd isplay
Ġb ere
lo ok
Ġle bt
hand le
umin ium
ubil Ã¤um
t ypes
w eiter
ï ¼
Ġs Ã¼d
Ġges ucht
ok us
stÃ¤nd ige
ĠVerb raucher
Ġtechn ischen
s uchen
Ġk ommun
Ġp ol
Ġirgend w
ĠB ra
get Parameter
ĠR oh
Ġden ke
sp ec
eu ern
let on
Ġinternation ale
m ode
Ġs ome
Ġh aupt
ess or
ĠEr krank
Ã¤r ten
RE S
Ã¤hl ten
Ġverst Ã¤r
ĠBre men
ĠZÃ¼r ich
ĠMilliar den
st a
ab or
ĠL eg
lic ke
ex pression
set Value
ĠEr ror
ant ie
isp iele
stru ct
verb ind
far be
spart ner
d ocument
s r
en ze
get In
ĠSp itze
ĠEdel stahl
ĠS ession
Ġm atcher
Ġf etch
ĠM and
ĠH immel
St op
Ġausge zeichnet
Ġinitial ize
ĠBedÃ¼rf nisse
! ");
ĠS u
ĠH Ã¤lfte
iz z
ĠPrÃ¼f ung
st es
at form
ĠP aul
den k
ĠL ok
ber e
ist ent
Ġj oin
sto ffen
re chte
ĠM E
get User
ĠV og
Ġber Ã¼cksicht
nah m
hol en
G em
d auer
re q
ĠB ru
ĠC ookies
Ġre cover
ick ets
i oren
m ember
Ġz er
us sen
ĠJ a
Ġex klus
rie ve
ĠGew alt
Ġtechn ische
N r
P f
w ise
as et
ĠB M
ĠG umm
ĠAn zeige
he ight
aut omaten
ĠNach dem
Man aged
Ġteil en
ĠGeh eim
ĠW ol
ist enz
auf nahme
Ġwar m
Ġgr aph
Ġ12 0
getC olumn
Trans form
ffiz ienz
Vari ables
Ġgestalt et
U sage
Ã¼ re
Ġzu gleich
Ġver Ã¤ndert
ON E
ĠAusw irk
ĠKil ometer
lich em
ĠAr m
Ã¶r ungen
Ġfre ien
ĠHeraus forderungen
rib ution
Av ailable
( -
K EN
Ġs uccess
iz able
čĊ čĊĠĠĠ
LE D
ĠBet eil
arch itektur
leist et
I M
T otal
t otal
Ġin vest
de cke
ann en
Ġim port
ug el
IT E
Sh op
Ã¶t t
ĠGener ation
Ġerhe b
r ufen
ĠP RO
ĠL ad
ate ur
ĠN ummer
ver fahren
ver anstalt
ĠVer stÃ¤nd
Id entity
ĠUS B
Ġnames pace
ĠObj ekt
Bef ore
C lause
} ;
Ġm apping
ĠD ev
ĠT ats
Ġc al
ĠH eiz
ran che
Ġzw eit
ĠQu art
bau en
rol len
ĠBr ust
o od
ĠS em
le id
ĠP ack
Ġgesch Ã¼tzt
Ġmethod s
Ġad ded
ĠSec urity
Ġkost et
ĠS ei
re quire
Ġn atur
Ġf rem
Ġein s
ĠB rief
ĠSch uh
he il
he ad
our cen
ĠRe al
zeich nen
ĠRestauran ts
S chn
q Path
Ġ ^
Ã¤ ll
ĠB ill
ĠR ess
ĠZ ut
ĠÃ¼ber w
Ġch ain
ĠSte fan
Ġgeb aut
ĠInvest ition
Ġgepl ant
ĠTex te
m usik
Ġ ĊĠĠĠĠĠĠĠ
Ġc olor
ation alen
ud wig
class Name
olog ien
Ġdef in
ĠKl aus
Ġspe zial
hin dern
I hr
R ules
g Ã¤nger
ra struktur
Ġle ichter
Ã¤ch er
ĠQu ad
Ġeigen es
Ġteil nehmen
g y
m achen
x FF
ur er
ĠK lo
ĠO t
Ġvor ne
Ġ3 4
rag end
gang s
Ġeinzeln e
A U
I V
S Y
T ab
s ite
Ġan f
lo ser
int Value
Des ign
Ġbeh andelt
zieh ungs
Ġverk auft
Ġhervor ragen
ĠLiefer ung
/ *
R untimeException
m ake
r hein
Â ¤
ĠC am
Ġaus ges
ĠAn f
eb e
son sten
IT H
Ġnahe zu
ĠDiskuss ion
f ul
Ġd evice
Ġsp ace
unk el
Ġ(! (
201 4
ĠÃ¼brigen s
B order
F ormal
u gen
z um
Ġm obil
ab er
Ġj avax
ĠAuf nahme
Ġgen annten
Stat ic
ĠGeb iet
ĠTime Unit
ĠConn ection
Ġausreich end
M ore
or ge
ĠK ult
eh me
fl ush
D istance
k g
k ret
ol er
ĠP rÃ¤sident
Ġl etzt
az ier
ĠJugend lichen
ordin ate
ĠH an
Ġge fÃ¼hrt
ern er
vers ation
sw ing
stÃ¤nd igen
param eters
prÃ¤ sent
Sele ction
Ġent deckt
Ġwel chen
201 5
ĠfÃ¼hr te
ĠWebs eiten
Ġged acht
ĠZus atz
p al
ĠL am
ĠAn notation
Ġent ries
ME SS
Ã¤m pfen
Ġse e
ĠBilder n
hren amt
DA Y
ĠLeit ung
ĠB atter
Ġst il
Ġwir st
ator s
ĠWer be
ĠDE FAULT
Ġgemeins ame
F INE
ĠL Ã¼
Ġe hr
set Name
Ġbis lang
hand ler
ĠDe ck
Ġsc ale
usÃ¤t zlich
names pace
rah men
ĠĠĠĠĠĠĠĠ ĠĠĠĠĠĠĠ
Ã¤ ische
Ġk r
ĠT el
In stances
Ġhin ten
//// ////
o per
en ken
et o
Ġst ra
Ġent spricht
ĠEin sch
sh ops
Ġgel esen
igr ation
I I
Y ear
k omp
Ġw ann
ĠL E
CO MP
ĠRo sen
valu ation
te chn
Ġf arb
Ġer Ã¶ffnet
ĠSp ar
gr Ã¶ÃŁe
Ġ| =
lau ch
US ER
Ag greg
p attern
it ude
Ġh art
ĠE p
ĠK enn
up lic
Ġgef Ã¤llt
Ġbeg leitet
ĠBÃ¼ hne
ĠViel falt
ĠStÃ¤d te
K l
h och
ĠC loud
Ġservice Name
Ġheader s
ĠAlb um
d ien
f rau
Ã ¡
Ġb ilder
Ġk g
Ġal low
Ġver mut
Ġgew Ã¤hlt
Ġpl anen
kir chen
Ġstar ken
9 8
ĠS per
Ġc p
ĠAut oren
mod ule
fil m
Fe atures
Ġintern ational
Se q
Serial izer
Ġehemal igen
R ect
n itz
ĠSchw ar
ĠStat us
Ġs uche
ĠS ow
ĠB or
Ġc or
get Next
ĠVer Ã¶ffentlich
ies sen
ID TH
fol gt
Not Empty
CH AR
FI G
9 6
I p
l imit
er ber
ĠPl attform
Ġakt ual
ĠGrÃ¼n den
BU TE
ist isch
Ġe ffiz
Ġver hindern
ĠJahr zehn
Ġze igte
ĠInter essen
ĠdÃ¼r fte
d d
n itro
ot ential
isch t
Ġab wechs
ĠGef ahr
walt ungs
Ġstark e
Ã¤hl te
Ġregel mÃ¤ÃŁ
Ġs ymbol
ge fÃ¼hl
ĠVor bereitung
P erson
or ganis
Ġv ideo
ĠW achstum
Ġst ill
ell a
wer ten
fahr ung
umm ern
Ġvoll stÃ¤ndig
ĠBal kon
TRI BUTE
getAbsolute Path
M s
b lau
k w
l isten
o ge
an w
ĠW art
Ġl a
ĠJ ose
ĠRe ad
ĠRe chnung
word s
Declar ed
M D
ar ren
ĠD rit
ĠF okus
ra c
ĠSt iftung
Ġen code
ĠSe ele
bl att
Ġcomp are
usst sein
Ge ometry
ĠerfÃ¼l lt
C hr
y r
sch auer
pl atten
we ge
ide os
ĠMin i
Ġexist s
ĠRom an
Ġhoff e
I Z
Ġs er
Ġs equence
Ġf eiern
Ġf ehlt
em o
ĠR Ã¤ume
Ġprakt isch
a dern
s inn
t d
Ġ essen
ĠS ens
ĠSch ok
Ġa cc
ock t
ĠHer stellung
Ġen sure
Sch edule
co der
ĠOn lin
Ġbesten s
PAR AM
ĠPers pekt
B eg
J a
c ollect
w ander
ĠM io
ĠF an
ĠL ein
Ã¼r d
ĠVer waltung
be cken
act ive
ĠUnter kunft
Format Exception
Ġpolit ischen
Ġvergleich en
B r
l ess
get Int
Ġer leich
ĠAn lass
eu ert
ĠBe ziehung
Ġgen Ã¼
ĠNach richt
Ġsc an
Ġtag s
ĠMont age
ĠMik ro
B inary
D uration
r ate
Ġw or
Ġf Ã¶rdern
ĠK ein
ĠSch we
Ġ> >>
aler weise
## ##
Ġm s
ent wick
Re al
ĠMittel punkt
ĠDan ach
Ġgesp ielt
ĠG ir
ĠW es
ĠL abel
los ing
Ġkon kr
fÃ¼l lt
ĠÃ¶ sterreich
merk samkeit
h ing
on y
Ġc ms
ĠH um
Ġst abil
th eit
Ã¼t t
Ġwe ich
>> >
aun ch
ĠGener al
rein igung
QUE ST
B al
s ingle
en code
ĠN utzen
ĠJ AXB
Ġab zu
As String
ĠBeh Ã¶r
Ġmon at
ĠPre conditions
M ed
O FF
Ġm ulti
ĠR h
Ġent spann
riter ien
ĠEurop Ã¤ischen
Ġdein em
ĠTÃ¼r k
v ance
ĠF inal
ra ktion
Ġle isten
ĠMin ute
ĠBesch Ã¤ft
ĠByte Buffer
Ġ $
ie ur
on a
an dern
ĠS omit
Ġl auf
stell ungs
DE X
RA Y
Ġern st
Ġspeziel len
Ġung laub
b indung
l ation
} ,
or fen
Ġr ender
ĠL au
Ġre alis
Ġre lev
ĠEr schein
ĠEin trag
ock er
ĠCh at
Ġerst es
ĠKaff e
wÃ¤r ts
ĠConfig uration
; ;
= (
H ex
N icht
Ġf ragen
ĠP o
ĠR ath
ger ufen
Ã¶ff nung
ĠKont rolle
Ġbesch rieben
ĠFreund in
Ġsogen annten
ĠBevÃ¶lker ung
z y
ĠK lick
ir r
Ġsch me
ak a
app lication
ĠGr ill
ĠVor trag
Ġerweit ert
JÃ¤hr ige
G RO
j e
č Ċĉĉĉĉĉ
Ġun it
Ġf rau
Ġein iger
Ġk licken
ition al
ĠAd vent
D ev
R M
ĠS ym
ir c
ess ere
geb racht
Ġne un
akt or
Ad min
Man agement
Ġfre ie
ĠDat ei
ab et
ĠF ab
ĠK ost
Ġl Ã¤dt
ze ption
ĠAus stattung
Ġlie fert
Ġ7 5
amil y
ĠschÃ¶n sten
Ġtrans form
ĠKat zen
ĠJahrhunder ts
Ġac cept
D o
I ST
a im
ist ic
ĠString Utils
ĠUn ion
spro zess
sprÃ¼ che
wÃ¤ sche
Ġfas zin
ge legen
ro s
ĠEx p
Ġweiter er
Ġneue sten
== '
ĠKle ider
F ER
k unden
ĠB ur
ĠM atrix
Ġh ell
ĠF lex
Ġ2 50
Ġab s
ĠMit tag
to k
do or
ĠMotor rad
st il
Ġb ind
ber ater
ĠLe icht
trans form
ĠBenz in
C ore
p ted
Ġi gn
il ber
ĠV om
ĠUnter schied
ĠMitarbeit ern
anon ical
G TH
s ack
ĠA N
ĠR ub
[] []
Access Exception
ĠBel ast
ĠPrem ium
J B
f it
k unde
w ay
ã Ĥ
Ġs ettings
Ġein geladen
ĠD enk
ĠF ass
ĠK ann
Ġ3 9
wie gend
ĠErwachsen e
ĠT ool
ĠUn ternehmer
ĠArbeit geber
bereich e
ĠDesign s
ĠSchÃ¼ler innen
C RE
V iele
i pe
z ell
Ġs itzen
is m
is her
Ġm aÃŁ
ĠM ut
Ġ} ,
ĠF inger
sch uld
Ġver urs
Ã¶r ung
wert ung
ativ es
ĠRis iko
A UT
E qu
W R
f unk
f alen
Ġ Ã¶ffentlich
ĠD av
ĠEin richtungen
Ġ3 3
leg te
leist ungs
ĠFr ont
Ġqual ifiz
C ommit
S ection
ĊĠĠĠĠĠĠĠĠ ĠĠ
ĠH als
ĠZ ul
ĠIn strument
Ġnoch mal
ĠgrÃ¶ÃŁ ere
itu ationen
ĠGesundheit s
Ġi p
ĠF loat
ver k
>> ()
Sc ore
Ġco unter
ĠDan iel
ELE MENT
Ġk rÃ¤ft
Ex ternal
for Each
Ġdar aus
Ġfind By
cre ment
D och
st immung
Ġs upported
Ġf ail
ro und
ĠH allo
ĠStr ess
Al so
bed arf
Ã¼rn berg
, -
C ost
D P
D isp
er weise
Ã¼ mer
ĠR ing
Ġan spruch
if ikation
Ġfre ue
Ġpl Ã¶tzlich
ĠKont akte
âĢĿ ,
mÃ¶ bel
Ġwunder bar
ĠAll gemein
.: .:
hel m
Ġ', '
B ew
C lick
c d
ie be
sch reiben
Ġzu g
ĠPro cess
Ã¤r zt
ĠAl uminium
ĠSo ft
ĠgÃ¼nst igen
ĠKranken haus
ĠHeraus forderung
ĠBahn hof
ĠM y
ĠH obby
Ġaus pro
ath er
ON G
Ġen orm
par ser
ĠBet reuung
He ad
Ġfile Name
ĠGer ade
g ten
st ack
ĠC P
Ġnew Value
Ġgef ragt
Ġsh ow
Ġstart et
ĠSoc ial
H aus
f sp
l aufen
ĠA qu
Ġth rough
To ol
Ġnie mand
Ġspr ach
Ġorder ByComparator
Ġsep ar
Pointer Exception
rÃ¼st ung
c enter
g able
ĠD arm
ber eiten
Ġ" )
able Future
unter richt
Ġnah m
Ġwechs eln
m ungs
Ġt itle
ig ern
ĠM AX
ĠAn teil
os met
ĠBed ien
ĠVertr auen
d ay
k Ã¶
ĠD ist
ĠSchw anger
man ager
ĠDate Time
5 6
X X
w rap
Ġ rom
ation ale
Ġst orage
produ kte
D isk
f unction
m i
st em
ĠA S
ĠL at
ver waltung
Ġent lang
ĊĠĠĠĠĠĠĠĠĠĠĠĠĠĠĠĠĠĠĠĠĠĠĠĠ ĠĠĠĠ
yn th
vers ammlung
Ġerst mal
ĠArt ik
glie d
Me asure
Cap acity
Ġs ite
Ġb atch
ten ded
ĠR ollen
Ġo k
Ġ3 7
Ġcon structor
Ġwill st
ĠBau ern
Ġfr ame
Ġverm eiden
ĠPark platz
ĠÃ¤hn lich
ĠerhÃ¶ ht
Ġgespe ichert
l uft
ĠP e
ik ations
set Text
cl one
ĠHin weis
Ġprof itieren
hÃ¶ he
ĠGraf ik
ĠIntegr ation
ĠWell ness
A lt
C an
p olitik
w eiÃŁ
Ġ achten
is ierte
Ġb ar
ĠH u
gr ad
Ġverb ringen
Ġs enden
ap pt
art ige
pro jekt
Ġle ichte
rÃ¤ umen
ĠSh ort
Inter ceptor
ĠHoch schule
prÃ¤ s
sf Ã¤h
K inder
l ig
Ġb uchen
ĠV iew
Mod ifier
Ġgef ertigt
gem eine
Trans ition
met ric
Ġdigit alen
p op
Ġin v
ĠW all
Ġer fre
Ġent sp
etz ten
Ġ[ "
Http Request
ĠauÃŁer halb
Ass oci
Sep arator
Ġp air
ĠH eid
Ġan schauen
(" <
Ġent fernen
Ġhin gegen
Ã¶rder ung
ĠEmpf eh
. <
ĠA ct
() ];
ik i
Ġtr eten
IN FO
rau ben
Ar beit
wort et
ĠPf arr
MA GE
ified Name
ktr um
raw able
ĠSen ioren
Ġmer ge
ĠFÃ¤h igkeiten
9 7
er ei
in i
ĠB Ã¤
Ġau ÃŁen
Ġh oh
ĠVer pack
Un known
ivers itÃ¤t
Tem p
Art ifact
ĠFrie drich
D own
J etzt
Ġl ohnt
ack te
ĠEr b
AT TRIBUTE
201 3
ĠGrund stÃ¼ck
ĠInter ruptedException
Ġabsol v
ĠLauf e
Ġhistor ischen
ĠTurn ier
Ġdiver se
K om
ĠD IN
ing u
ul in
Ġst mt
ĠO p
gl as
ĠCms Resource
ĠEm ail
ĠDatenschutz erklÃ¤rung
D imension
F il
W ait
s cri
ut sch
Ġc ar
ĠH afen
ĠN och
ust e
app ings
lÃ¤ ser
Ġend point
ĠHerr n
Close d
ĠParam eter
P H
W IDTH
ĠÃ¼ber tragen
Ġle gt
Ġcon dition
Data Source
ĠStr af
Ġhin ein
gan ization
hol ung
NO DE
We ight
ĠVersicher ungs
B eh
S etting
t ing
Ġd auert
ĠAuf merksamkeit
Ġne eded
imm ern
ĠAut os
Ġem otion
scheid et
wohn er
ĠKre ativ
Ġerschein en
T ax
ĠK uchen
ĠW agen
us ste
ver kauf
ĠIn spir
ĠSt ate
Type Name
geb nisse
Ġ4 2
inder ung
Task s
Ġ"/ "
alys is
Ġd et
ĠP S
ĠH au
Ġge ist
ĠAn wendungen
Ġdurch schnitt
LEN GTH
ĠE he
ĠR enn
In it
ĠPro t
part ition
ampf adern
ĠJo urnal
Ġbein haltet
S plit
g st
is Trace
ĠE gal
ĠJ ohn
Ġsch icken
ehr t
pr et
ĠRe paratur
bar ung
af Ã©
ĠLe vel
ĠEle mente
Ġvis it
Ġintens iv
ĠKrit ik
S napshot
k s
ur o
Ġb essere
il de
ĠAus druck
riv ile
Up load
Ġmus st
ĠMass age
ĠAltern ative
Ġd Ã¼n
ĠP a
get Content
ĠL ast
ĠR ett
ass ert
ĠC hef
id den
In vocation
ĠVer mÃ¶gen
Ġdef inition
ĠBau ch
Ġide ale
ĠHin weise
ĠÃ¼bern ommen
ab t
get Context
ĠR and
Ġl Ã¤ngst
os k
tern e
Ġpro gress
ial e
Ġcon sumer
ID s
ĠFar bt
anc er
ã ĥ
er gie
ĠP ower
ĠL aden
eld et
leg ten
RE SOURCE
Ġgr Ã¼nd
ĠMan ager
ĠAu ge
zieh ungen
ĠStre cke
P ublic
h an
Ġun bek
Ġin voke
ĠE R
get Method
ang o
LE TE
Ġgesch affen
ĠBo ot
Trans former
zÃ¼ g
ĠInstall ation
, "
C ert
D D
V M
V AR
c olor
j ekte
k ung
z ur
Ġn ennen
ĠG ran
ĠL udwig
Ġauf s
est ed
set Attribute
Com plete
enden cies
ĠBet reiber
met adata
Ġerfol gen
ĠId ent
ĠVerÃ¤nder ungen
gra de
koh ol
ĠVerstÃ¤nd nis
B ind
t f
au d
ĠT ank
Ġp rÃ¼
ew ork
geb Ã¤
co unter
ĠGrund lagen
rÃ¤n kt
Ġhei ÃŁen
Ġmel den
ĠRuss land
D aten
s ame
er al
ĠB y
get First
ĠC an
Ġge pf
if en
Ġ: )
Ġber lin
ĠZeit raum
LA Y
sw Ã¼rd
Ġmax im
recht s
process Exception
Ġeinf achen
ĠBran che
ĠTelef onn
h orn
o om
w enden
Ġs upport
ĠS C
Ġg iven
ach ter
ĠR u
Ġan hand
ĠO bst
Type Enum
Ã¤r m
ĠPh ys
ins el
system e
Ġwohn zimmer
ĠbestÃ¤t igt
Ġbeliebte sten
8 5
c ell
ĠB ir
ĠB unde
Ġp rivat
Ġthe y
ac ters
amm elt
key s
bild ungen
IG HT
sor ge
ĠRel ig
stÃ¤t te
G eb
ĠT rÃ¤ger
ĠH on
ist ing
ĠSt immung
ĠKon k
Ġpl us
ish ed
Ġrow s
SECON DS
b a
i ro
Ġin valid
Ġt ab
ĠG erne
ĠH aust
ĠUn supported
gel assen
ĠGes prÃ¤
Table Name
forder t
loc ate
mel den
Ġposit iv
ĠBig Decimal
FOR MAT
Ġerinn ert
M er
Ġw est
Ġm ut
sch le
ĠK G
get L
Ġan zeigen
par ed
LO C
ĠStud enten
Ġoffen en
eta ill
d ire
ĠB anken
Ġg lauben
ĠL ernen
ĠJ ust
zie ht
50 9
Reg ister
kle ber
iver y
ĠErw eiter
ranzÃ¶s isch
ĠBewert ungen
ĠBade zimmer
D igit
N a
Ġw enden
Ã¤ fte
ol a
Ã¼r gen
ĠVer g
Ġpro vide
ĠRei fe
Ġdigit ale
ibil itÃ¤t
Ġproduz iert
ĠAuswirk ungen
P ure
W Ã¤hrend
e NS
m ission
au ff
Ġg laube
Ġc f
Ġc ached
Ġver pflicht
Ġver mitteln
ĉĉĉĉ ĉ
ĠBest ell
ĠVerbesser ung
8 6
N un
Â §
ST ATE
zus etzen
re ch
ĠG ang
ĠW in
Ġ" ).
Ġweiter es
ĠschÃ¶n er
Ġerfolg reiche
Ġkont roll
zuf Ã¼hren
ĠDort mund
ibr ary
l Ã¤nder
m as
ĠS Ã¤nger
ĠS ymbol
ĠA v
ent al
ĠW orld
Ġan erk
ĠWer te
ĠMed ik
lieÃŁ t
conn ect
Ġpoint s
ĠIter able
D Array
Ġd iff
ra el
Ex t
sh ort
ĠRe pository
Ġle iden
ĠReg eln
ĠBet roffen
Nach dem
ĠnÃ¶t ig
K n
w Ã¤hlen
ar io
ĠB ast
ĊĠĠĠĠĠĠĠĠĠĠĠĠĠĠĠĠ ĠĠĠĠĠ
ĠO vh
Ġsich ern
be ut
Index Of
ĠZug riff
B S
c al
k ern
s ib
w en
le isten
ar ing
Ġb lieb
ĠP attern
ir ts
be ck
Ġ6 5
olum en
under t
f ur
r asch
t as
Ã¼ te
Ġf rag
ĠM essages
em it
ĠH alt
Ġge Ã¶ffnet
ĠSp iegel
Ġweiter lesen
BA SE
M AR
Ġd istance
ar re
Ġm otiv
Ġau to
ĠF er
ĠO pfer
Ġsch afft
Ġ200 4
ĠKom pl
CON FIG
Ġkomp et
Ġs ens
ĠS ervlet
ĠS ammlung
Ġw rapper
Ã¼ g
Ġb un
ĠK Ã¼r
ĠT itten
ĠV an
im ate
Ġver lie
Ġdies mal
ĠSpe icher
Dep endency
Stand ard
ĠMicro soft
ĠTw itter
prÃ¼f ung
E C
Ġw ollten
Ġg lob
ĠK ol
Ġp ermission
Ġge legt
ĠZ oll
čĊ ĠĠĠĠ
ĠWer ke
ĠKont o
Ġsinn voll
I AL
k ultur
w ait
ĠM ay
sch iff
ĠL eh
lic it
if er
rit able
ste ck
ĠBer atungs
Ġor igin
spre cher
Ġproblem los
avig ation
ĠausdrÃ¼ck lich
C ur
M ask
p olicy
w aren
ĠD ec
ĠF unk
ĠT ief
ĠN orm
ahr t
hal len
ĠEin ige
of a
Tra ck
Ġstatt finden
fil es
ĠMÃ¼n ster
AP P
ĊĠĠĠĠĠĠĠĠĠĠĠĠ ĊĠĠĠĠĠĠĠĠĠĠĠ
ĠGegen satz
Att achment
6 3
or ian
ann ter
String s
ĠBr un
ites pace
ĠFrei heit
d om
Ġre ife
... ]
ĠTeil en
Ġclass es
ĠY ou
ĠChar acter
ĠPort al
Ġbild et
C ookie
rei he
IT ION
Inter ruptedException
ĠPr inzip
abil itÃ¤t
ĠSam s
ĠFrÃ¼ hl
ĠWien er
ersist ent
ig entlich
lic e
Ġso cket
pf el
ohn er
Ġinter face
ĠBr enn
plet ion
F lag
M aster
S um
ĠH Ã¤nde
Ġe chten
ĠSt ell
Ġbes ucht
ĠAut ob
reit et
Ġpos sible
reibt isch
ĠWolf gang
m essen
Ã ¨
ar is
ĠG riff
Ġge g
ĠAn leitung
ĠEr gÃ¤n
tem plate
ĠNach w
ĠNach mittag
ĠMar ia
Ġerh ielt
other apie
lam ent
ĠDire kt
getE Package
O W
P RI
R andom
c am
Ġd omain
at isch
ĠS ind
ste igen
af ter
ĠZu schauer
ĠBereich e
loc ale
ĠBas ic
Dep recated
ĠEntwick lungs
Ġersch ienen
krÃ¤ fte
resol ve
Ġleist ungs
C or
R untime
en kt
Ġein zu
ig sten
Ċĉĉ ĠĠĠ
lo ader
ser tion
ĠGr atis
met a
Rule Call
vel ope
Tim er
Ġfal sch
u c
ge ht
Ġg arten
ĠW affen
ĠT om
ĠL im
Ġch ines
Ġdec lar
stÃ¤t ten
ĠKrie g
Ã¼lt ig
ĠCamp ing
ĠÃĦnder ungen
or er
Ġr uss
Ġver n
Ġpro b
stan z
fig ur
Ġfre ut
ĠLog istik
aj a
T ile
w ein
Ġs lot
In s
ĠJ ubilÃ¤um
lie gt
ĠStud io
ĠGen au
ĠSchne e
B ro
F C
U LE
ĠB onn
get EClass
Ex port
ĠAus fÃ¼hrung
Ġpl atz
Pr incipal
ĠKosten lose
DO M
Ġklass ische
Word s
Iter able
ĠC r
end orf
Ex ists
av ailable
ĠHaus halt
rup t
Ġsicht bar
Ġsamm eln
ĠsÃ¤mt liche
ist in
ĠJ ungen
eter mine
ĠTe e
sel f
ĠWerk zeug
ĠIns gesamt
ĠjÃ¤hr lich
getEClass ifiers
H el
Ġs uch
Ġm obile
Ġb rit
ĠM aler
ĠT er
ĠL esen
ag entur
In fos
Ġaus einander
ell igen
row s
eg a
Ġro b
Ġbeg onnen
Ġeinzigart ige
ĠVoraus setzungen
ĠSek unden
ĠnatÃ¼r lichen
Ġkontakt ieren
pres ent
ĠÃ¤uÃŁer st
ĠB ord
em atik
Ġer geben
Ġaus sehen
ĠAm ts
element s
Te chn
ĠmÃ¶ glichen
ĠSw inger
ĠVari ante
ĠÃĦr zte
ĠKant on
S port
ĠS um
Ġn etwork
Ġi ds
ĠM ir
oo ter
ĠSp ec
str ap
r v
Ġmit ten
ĠfÃ¼r s
Ġhier bei
amil ie
ĠPr ess
opp ing
Ġexec ution
ĠEvent s
T M
k Ã¶rper
k opf
ĠW ies
get Object
ĠSch reib
(" .
eb el
Em ail
ENT ITY
Ġmod ische
Ġtop ic
time out
ĠnatÃ¼r liche
ĠLeiden schaft
7 1
G rad
W elt
h y
k ord
m eter
s vor
s Ã¤chlich
Ġs im
ĠS er
le in
lich ten
Ġge prÃ¤
if ec
Un ique
ipp ing
ĠRein igung
ĠHa are
ĠstÃ¤r ker
D amit
ĠS erv
le y
Ã¼r k
Ġ" :
als o
bo gen
Ġ200 3
ĠBundes land
Spec ification
weis ung
ĠSta aten
Ġsogen annte
Ġdunk el
ĠKarr iere
A cc
L ex
s cript
ic o
ĠK eine
ĠSt imme
scha ff
ĠAus flug
ant ast
ĊĠĠĠĠĠĠĠĠĠĠĠĠĠĠĠĠĠĠĠĠĠĠĠĠĠĠĠĠĠĠĠĠ ĠĠĠĠĠ
Ġ6 00
ĠGeb rauch
ĠFall s
ĠTerm ine
ĠSong s
Ġabwechs lungs
ĠG ute
ier tem
wer ken
ett bewerb
lie fer
ac y
wend ungs
le ep
Ġw indow
Ġf ilename
ĠH em
Ġ4 4
ĠUm feld
bÃ¼ cher
MESS AGE
W Ã¼rt
Ġ \
en ame
at al
ol lt
get Start
Ġer lÃ¤
ru he
Ġviel er
Ġdeut schland
Ġverb inden
Ġben utzt
ĠBeh and
Ġmei stens
gemein de
ĠArch ite
gestell ten
Upper Case
J S
P ORT
r ig
t itle
u ally
an ter
ĠS au
Ġn s
Ġp ur
Ġge il
ien ce
Bu cket
Ġsel f
Ġall gemein
othe ken
b al
ch ern
Ġein deut
Ġkurz er
Ġhervor ragend
) (
9 4
A CT
E MPTY
H S
L Y
R out
d rucken
z el
ar be
is Log
Ġb raun
Ġein gerichtet
ĠK amer
RE QUEST
ĠUm fang
ĠKl ang
ĠWohn ungen
ĠSte u
Tr igger
Pr imary
Ġverpflicht et
D iff
d am
s To
x ff
or ien
Ġb eit
ro st
ĠB ein
de cl
ĠW LAN
ier er
ĠN E
Ġ" ."
Ġle it
AT ED
Ġpr imary
Ġricht et
wo od
Ġprofession elle
Ã¤ss ig
ĠKais er
Ġd elta
Ġauf merk
Ġ0 5
Ġget roffen
aut omat
Ã¤h ler
Ġschn eiden
Comp osite
Ġchar acter
ĠAkt uell
ĠBÃ¼rger meister
PA CE
kÃ¼n fte
b Ã¼rger
Ġw Ã¤ren
il s
ic on
ĠK op
ĠH istor
Ġge prÃ¼
ĠAn sprech
ant worten
Ã¼t ter
Sc an
Ġspann ende
osoph ie
zipl in
r apped
č ĊĠĠĠĠĠĠĠĠĠĠĠĠĠĠĠĠĠĠĠĠĠĠĠĠĠĠĠ
ĠB in
ĠH Ã¶ch
Ġl Ã¶sen
IN DEX
ĠAus gang
dest ination
ĠVol t
Servlet Response
ĀĀĀĀĀĀĀĀĀĀĀĀĀĀĀĀĀĀĀĀĀĀĀĀĀĀĀĀĀĀĀĀĀĀĀĀĀĀĀĀĀĀĀĀĀĀĀĀĀĀĀĀĀĀĀĀĀĀĀĀĀĀĀĀ ĀĀĀĀĀĀĀĀĀĀĀĀĀĀĀĀĀĀĀĀĀĀĀĀĀĀĀĀĀĀĀĀĀĀĀĀĀĀĀĀĀĀĀĀĀĀĀĀĀĀĀĀĀĀĀĀĀĀĀĀĀĀĀĀ
Ġbewe gen
M AL
V ENT
k i
is Null
ĠG rau
Ġc urr
form ular
pro xy
Ġgleich e
CO UN
ĠFrÃ¼h jahr
Ġpersonenbezogen en
ĠAufent halt
ĠYog a
D irect
d essen
st isch
un lock
ĠS ucht
se con
get Child
Ġl iter
Ġer lebt
(" %
(" [
if iable
ĠAm t
Ġrem oved
deck ung
er ic
Ġh tml
Ã¶ h
Ġer led
ĠN erv
bo ot
ĠDu ft
ĠschÃ¶n es
ĠUr teil
ĠmÃ¶chte st
replace All
H och
ĠS erial
Ġw id
ĠD omain
ĠSt reit
(" -
Ġum gesetzt
stell te
Ġbet rieb
Ġger ing
Ġhe ad
Ġverl ieren
ka sten
ĠHam burger
ĠÃ¼bern immt
âĢ¢ âĢ¢
b ul
ĠE leg
id enten
ĠIn n
ern ame
res erv
ĠBer eits
Sele cted
compare To
anst alter
ĠInternets eite
h Ã¶ren
ĠE ffekt
ĠK eller
Ġst ammt
id d
iel le
ĠGr aph
ĠQu elle
Ġwo hnen
Ġkompl ette
ĠZut aten
D r
N eu
T yp
Z eit
l Ã¤nge
au ben
ĠH art
ĠN ik
enn ung
fahr ten
Al lowed
Ġcont rol
Ġwel chem
Ġerw Ã¤hn
comp iler
Ġpolit ische
Conn ect
ĠBaumw olle
H y
d iv
ra in
ĠJ agd
Ġ0 6
gr aph
Ġcm d
iction ary
Ġzeich net
ifec ycle
g f
Ġf u
Ġh Ã¤ngt
ir urg
ĠH ost
Pro f
AD ER
ĠMeth ode
ĠSpan ien
Ġanspruch s
ĠSchwanger schaft
b ein
re gel
Ġt wo
ĠN RW
Ġver ab
ex tension
ungs mittel
Ġeinfach er
Ġange passt
Reg istration
Pr imitive
ĠFe der
plet ableFuture
pap ier
ĠBM W
} /
an er
at ische
Ġw ant
te am
Ġf Ã¼hlt
ĠB und
ĠC ommand
In sn
lo ÃŁ
Ġent stand
Ġ5 5
Ġwieder um
aff e
ĠVerb and
ĠGÃ¤ sten
ĠGel Ã¤nde
TO KEN
presse d
on ie
Ġf all
ĠM ake
ĠP ul
ĠW orte
ad ow
Ġ" ;
Sh ow
Ġret ry
ĠfrÃ¼ hen
Ġsele cted
med izin
hei mer
Ã¶pf e
ĠglÃ¼ck lich
dater es
ĠGeg ner
F ixed
re chnung
Ġm ont
ĠB Ã¼r
Ġg u
Ġh olen
Ġk eep
Ã¶ m
ĠH ell
bar es
AME TER
Char s
kon zept
Ġben utzen
fern ung
Ġbr achte
ners uche
/ -
L T
Ċ ĊĠĠĠĠĠĠĠĠĠ
an ischen
Ġm ache
ĠB raut
ĠD rei
Ġz erst
ĠG eile
ĠSt ore
Ġdes criptor
Ã¤n ner
stra hl
oten zial
ĠAt tr
Ġpart s
ĠhÃ¶ch ste
Ġph ys
VI CE
ĠLinked List
seg ment
CONT ENT
! âĢľ
D ar
Ġd ro
ĠM ad
ĠVer waltungs
ĠFre md
ĠReg istr
Ġdeut scher
ĠFe uchtigkeit
ĠVertr eter
lÃ¤ss lich
Ġkombin iert
ĠunabhÃ¤ng ig
sbed ingungen
C enter
f ill
or iginal
or izont
ĠE dition
ĠT rage
gr enzen
<? ,
ĠPreis en
ĠKr ampfadern
ĠSchÃ¶n heit
ĠEing ang
ĠNull PointerException
s icherheit
et ze
at ible
al f
Ġv irt
Ã¤ sser
ĠF ranken
ĠH as
ra ction
hn ung
stell ten
ax is
ĠNach halt
use d
Gr id
ĠSc reen
ĠDan ke
ĠBeweg ungs
ĠerhÃ¶ hen
ĠCD U
G N
k eln
re ment
um pe
Ġp ending
hn acht
Key word
ĠSchw anz
ĊĠĠĠĠĠĠĠĠĠĠĠĠĠĠĠĠĠĠĠĠĠĠĠĠĠĠĠĠĠĠĠĠĠĠĠĠĠĠĠĠ ĠĠĠĠĠĠĠ
MO DE
jen igen
ĠSams ung
B esch
in stall
ter m
ĠG lauben
Ġver arbeitet
(" \\
ĠSp enden
sh aus
fÃ¼hr ungen
ĠDes igner
Ġbeg leiten
Term inal
SQL Exception
ampag ne
C odes
it ation
Ġp ayload
AR RAY
Ġmax imal
ĠVers orgung
Ġformat ter
gere cht
Ġbewer ten
M ON
Ġg lobal
get Length
Ġst aat
ĠRe p
An geb
new Builder
By Id
AR D
ĠSchw ier
IT ER
Ġkosten losen
aff el
plan ung
kom pl
ĠKomp etenz
d lich
u el
Ġb itten
am burg
am ples
ĠN iveau
Ġal lowed
Ġver Ã¶ffentlich
In v
Ġbe zahlen
all er
Ġmein es
Ġerror s
Ġruh ig
Arch ive
8 4
F B
R C
R aw
m ail
n acht
u hen
ĠM atch
ĠK ab
ĠSch Ã¤den
ĠAn reg
chn ungs
ĠKon fl
201 2
opp elt
trÃ¤ gen
ĠBu ild
schlag wortet
TR AN
ĠJAXB Element
WÃ¼rt temberg
M ult
T L
g reif
z n
ĠF und
ĠW M
ann els
In tern
String Util
rau ÃŁen
ĊĠĠĠĠĠĠĠĠĠĠĠĠĠĠĠĠĠĠĠĠĠĠĠĠ ĠĠĠĠĠ
for dern
ĠBl Ã¼ten
ĠRes erv
Ġerfolg reichen
Ġprakt ische
Del ay
' re
9 3
N ULL
ĠM use
ĠM ischung
Ġz z
Ġh igh
ĠF I
sch Ã¶nen
ĠO rient
ĊĠĠĠĠĠĠĠĠĠĠĠĠĠĠĠĠĠĠĠĠĠĠĠĠĠĠĠĠĠĠĠĠ ĠĠ
ĊĠĠĠĠĠĠĠĠĠĠĠĠĠĠĠĠĠĠĠĠĠĠĠĠĠĠĠĠĠĠĠĠ ĠĠĠĠĠĠ
ĠSystem e
Ġte sten
Ġmatch es
ĠLoc ale
G S
J ar
U ST
le ister
Ġi kea
ent ion
ĠK ino
Ġgen auer
EN CE
ĠÃľber rasch
stehen den
liegen den
ĠEben e
ĠBestand teil
ĠergÃ¤n zt
S ehr
k ommt
z ert
Ġd ebug
ĠS zene
Ġm g
Ġb ox
ĠB ayer
ĠF utter
Ġr andom
ag el
ĠVer z
Ã¤t igung
ĠNach frage
LO CK
ĠDenn och
Ġdek or
S m
S ync
Ġs erv
Ġr v
Ġst ammen
ĠVer hÃ¤ltnis
reich es
Sch w
ly mp
Ġexec utor
Ġperfe kten
ĠTrans action
Ġbetroffen en
O ther
b ring
d re
tr aining
ip fel
ĠGr ie
[] >
ĠAuf tritt
<?> )
Ġdoes n
C redentials
L ines
k und
w eiten
Ġs eiten
Ġn v
Ġl es
ff ers
schl agen
mann schaft
Ġho ffen
ĠLog o
Work er
ograph ie
" -
D IS
n amen
ĠS aar
Ġc alled
IN IT
Ġges undheit
ĠGro ÃŁe
TA BLE
ĠKind es
Ġed ge
Ġerreich bar
B i
f utter
l Ã¶
m y
å ı
Ġm atrix
Ġein richten
ĠD ollar
ĠR out
Ġ" ");
ver ted
ĠO hr
to Blocking
Expression s
ĠMusik er
aun a
ĠFern seh
ĠBre ite
H as
V ars
j b
k Ã¤
Ġb utton
ir d
sp iegel
Ġcont ain
Ber lin
ordin ates
ĊĠĠĠĠĠĠ ĊĠĠĠĠĠ
ĠKlin ik
P ut
Ġun ge
Ġf alls
ser ie
gr Ã¶ÃŁ
ĠVor jahr
olum e
Ġen v
vers icher
AD D
Â» ,
ĠÃ¶ff entliche
Atom Container
Ġqual it
ĠSalz burg
kir che
prev ious
ĠRath aus
au ge
ĠM usch
Ġauf zu
Ġver Ã¤ndern
ken n
port al
ĠLand wirtschaft
Error s
bew eg
reu en
ĠBru der
C as
d ach
en en
Ġd iv
Ġm oment
ad aptor
Response Body
ipp ed
ĠEle ktron
minister ium
ĠMain z
Ġsorg fÃ¤lt
ymn as
C C
P R
e is
m ass
s uche
ĠB utton
ĠL ack
Ġo s
ot ten
ĠAn liegen
ay ment
âĢľ -
ob el
fe ffer
ĠTe en
ĠBet on
Ġ18 0
ĠClass Loader
Sec onds
ĠWerk statt
Ã¤te stens
ĠGrÃ¼n de
ĠLein wand
9 2
H ol
O cc
T ION
g arn
Ġf anden
Ġf eier
ĠE ier
ĠSt amm
per iment
ert igung
ĠEn try
fe ktion
sk ip
ĠGast geber
IL LI
ĠÃ¶ k
ĠgewÃ¤hr leistet
Ġschwier ig
ĠOrd nung
M eine
S ort
v as
at ype
Ġb undes
ĠN orden
our en
ĠEin ladung
rit z
Ã¶r sen
ĠRo hr
.... ....
Execution Exception
Ġerot ik
H ER
b ro
u alitÃ¤t
Ġk ulturel
we ich
her apie
ĠGr Ã¼nen
fÃ¼hr ten
ĠWeiter bildung
last IndexOf
ĠerklÃ¤r te
BY TE
C riteria
I E
l angen
ch ester
Ã¤ ger
ig i
Ġh Ã¼b
ir men
ĠC al
Ġal ways
Ġj ahre
qu are
ĠAus bildungs
fol gs
ĠKr im
Ġchange d
ĠðŁ ĺ
ĠAnsprech partner
F inal
G u
P op
T ransport
e ben
k unst
r unde
ĠS lot
Ã¼ hen
ĠC ON
Ġal ias
eut r
ĠAb satz
for Name
Ã¤ch s
Component s
ĠDar stellung
ĠDi pl
dev ice
Ġd ring
on str
Ġb au
ĠT asche
ĠH oll
ĠR eiÃŁ
iv il
etz ungen
ep p
ĠCh annel
Ġet abl
ĠDaten bank
ĠBesch reibung
double Value
Vis itor
ĠOpt im
ĠTemperatur en
ĠLux us
Ġrom ant
a ÃŁen
r and
Ġd ownload
st rom
Ġz ero
ĠG ab
ĠR ennen
ĠZ usÃ¤tzlich
uch er
ĠSchm id
ĠOpen Cms
gebÃ¤ ude
c f
s achsen
w t
Ġs ent
ĠM Ã¼ller
se par
ĠN Ã¼rnberg
kt iv
Ex tract
ĠAus sicht
ges p
Ġnot hing
ĠMen Ã¼
Ġbet rieben
trag ung
Ġlist eners
ĠGemein den
valu ate
ĠHÃ¤ user
8 7
J o
f inder
f euer
Ġd ran
el en
ĠB rot
Ġh appen
ra wer
ĠSie ger
all ery
ĠEin tritt
Ġges und
Ġ6 4
format ter
Ġbeh andeln
ĠProf essor
De legate
ĠAlex ander
H int
I st
f Ã¶r
p Ã¤dagog
Ġ ener
ĠJ es
per n
)) ,
Ã¼t te
UR N
Ġbet racht
Ġcom plete
We ek
ĠDigit al
Ġorganis iert
Ġtradition ellen
Ġkeiner lei
S erie
m ag
m edia
Ġs itzt
ĠK anz
âĢ Ķ
ver ordnung
ĠAl pen
ĠBe arbeitung
ĠGesch windigkeit
Util ity
ĠRo bert
Ġverbess ert
ĠAud io
ĠgrÃ¶ÃŁer en
f red
ĠP u
ul iert
ck ets
ĠH Ã¤ndler
Ġer Ã¶ff
im eter
Ġ0 4
Ġex pr
ste il
Ġman ager
Ġgel iefert
Ġbesonder es
ĠInd ivid
ĠDat um
Ġfe atures
ĠParte i
Ġvermut lich
l p
ĠS erien
ar gument
ĠD J
ĠF ischer
ĠF ehl
sch uh
se her
ĠT ipp
get Width
Ġo wner
Ġre chten
Ġ: :
Ġper form
Number Of
Access or
Ġlo ader
TH OD
andid ates
bere cht
G O
T F
ĠS ele
is er
Ġf ert
em pl
Ġe chte
Ġge zogen
ĠPro ject
los igkeit
gesch oss
ĠVers uch
fre ien
Fe at
PAR AMETER
ĠAspe kte
Ġaufmerk sam
W ITH
ĠĠĠĠĠĠĠĠ Ġ
Ġv olle
ĠP ause
Ġc ommit
ĠH essen
Ġge he
Ġbe stellt
Ġj ar
M aterial
S afe
et ische
Ġs up
il anz
ĠP aket
Ġc ap
ĊĠĠĠĠĠĠĠĠĠĠĠĠĠĠĠĠĠĠĠĠĠĠĠĠĠĠĠĠĠĠĠĠ Ġ
ific ations
Le af
ĠStart seite
Ġste ckt
Ġconn ect
Ġak zept
gehÃ¶r igen
B N
P ayload
S pr
Ċ ĠĠĠĠĉ
el che
Ġm edia
Ġb ond
ĠR uf
ĠC enter
ap pe
Ġver stÃ¤nd
ĠZ auber
ĠAn schlieÃŁend
Ġman che
Ġwei b
ĠhÃ¶ch sten
CP Definition
ĠKleid ung
ĠVorder grund
ĠRess ourcen
uplic ate
B ad
n icht
st unden
Ġs etzte
ĠD VD
ĠP unkten
Ġk Ã¼nstler
th read
ĠRe de
Ġbes itzen
ĠSchw imm
Ġoffen bar
mm ern
Ġcalc ulate
R ei
l Ã¶sen
w Ã¼n
y c
z ure
au cher
Ġre ichen
og ram
Ġvor bereitet
iz ieren
Ġcon straint
urr enz
Ġgesch afft
richt et
sub scription
ĠApp s
Ġad min
ĠWork shops
ĠErwachsen en
Ġerinn ern
Formal Parameter
isLog gable
G ew
c ommit
i h
et Address
Ġs y
Ġm ove
Ġbu cket
ĠKl ar
Ġall gemeinen
deut schland
ĠPf licht
ĠCom ponent
Ġhaupt sÃ¤chlich
9 1
C ols
D igits
V ideo
k aufen
p reise
y les
z ten
Ġv ollen
ad el
add Child
Ġres erv
ĠGr amm
Ġdef ined
ĠMin dest
ĠWelt krie
lei ÃŁ
ĠFr is
ĠPorn os
ĠOut door
ĠStÃ¤d ten
Permission s
ĠHoff nung
B und
C ause
K reis
b ald
s ynchronized
ĠS ervices
re iter
Ġk orre
() [
ĠJ unge
ell schaften
Ã¤t t
Ġwar n
teil ungen
othe ke
ĠRhein land
Ġtim estamp
ĠPersÃ¶n lichkeit
8 3
K ont
re ck
ĠK up
get End
Ġver sehen
Ġver mittelt
pl ates
ĊĠĠĠĠĠĠĠĠĠĠĠĠĠĠĠĠĠĠĠĠĠĠĠĠ ĠĠ
Ġsex y
kom fort
ĠDek or
call back
nungs zeiten
Author ization
ĠOutput Stream
& &
F ahr
w n
Ġm ult
ĠA cht
ĠA PI
Ġt ile
Ġh y
Ġc alendar
Ġhier fÃ¼r
br id
licher weise
gew inn
ĠRo ute
ĊĠĠĠĠĠĠĠĠĠĠĠĠĠĠĠĠĠĠĠĠĠĠĠĠĠĠĠĠĠĠĠĠĠĠĠĠĠĠĠĠ Ġ
ĠInf rastruktur
ĠDigit alisierung
7 4
C UR
D em
z ellen
Ġd ynam
Ġauf w
Ġber ichten
gesch nitten
Ġadd itional
ĠLin ien
Ġsozial e
Ġbeein druck
D ownload
G L
I hre
m at
s q
un s
ĠF ertig
ce des
get File
ier s
Ġan schlieÃŁen
ĠIn fo
up s
ĠTab ellen
Parse Exception
ĠBunde stag
D ann
d omain
h aut
Ġ ).
ĠE Object
ĠH at
Ġinstance Value
Ġtrans l
ĠFig ur
ç ļ
is ierten
ĠA ccount
ĠM ieter
ik al
rau chs
ĠVor stellung
ST RA
fol ger
ĠIntern ational
AN GE
Ġschn ellen
Ġverb indet
Ġy our
Ġerh oben
Ġus ername
ĠKolle ktion
QU AL
ĠIniti ative
ĠVerÃ¶ffentlich ung
çļ Ħ
7 2
E DEFAULT
N C
g a
k an
k ind
s cope
st ab
an bieter
Ġb ro
Ġc ool
ĠN ah
ĠJ ungs
ri en
Ġtr itt
Ġch em
ĠAut omat
Ã¶l f
Sh ape
Sub ject
besch ichtung
ĠAktion en
pass word
ĠQuad rat
b i
ĠS upport
Ġun verbind
Ġm essages
Ġ= >
Ġg erecht
ĠF al
ĠE i
ĠK aufen
Ġk auf
Ġl Ã¶
Ġst ren
ĠN euer
Ġ" _
Ġj apan
pro ps
cl uster
Ġbeh alten
Block s
C ard
F ac
y y
st ock
Ġre quire
Ġber icht
con dition
Ġ200 2
gere chnet
ĠmÃ¶ gliche
ĠFlÃ¤ chen
ĠRab att
ĠBehÃ¶r den
scri ber
K it
N A
V iel
X A
er ms
ĠB le
ĠM ak
Ġbe ziehen
ĠRe port
ax y
fo und
Ġne ver
Ġbet ween
Ġverschieden er
ĠBei de
ĠSehen swÃ¼rd
w es
å Ī
au to
ĠW ord
ĠN ie
ĠAn n
af el
ett y
zeich nete
ĠKap ital
Relation ship
ĠFlÃ¤ che
E p
a ÃŁe
st or
le ction
ĠI tem
Ġal ter
stell bar
ĠKon zer
ĠHaus es
Ġletz ter
ĠVeranstalt ungs
No Such
ĠErn st
ĠWork shop
Ġdah in
ĠSchok ol
ĠTelefonn ummer
u z
Ġ Ð
Ġ 00
Ġs eid
ĠS ollte
Ġn utz
Ã¼ cher
ĠF alle
ĠE ck
ĠW urz
ĠR andom
Ġe hrenamt
ed back
ver zeichnis
Ġget r
schl Ã¼ssel
Ġcon s
ĠGew erbe
Ġverschieden sten
Ġeig nen
Process ing
Ġste igt
I ts
at io
Ġb inding
ĠF irst
ĠT ur
ĠIn gen
her r
Ġgro sse
ĠPl Ã¤tze
Ġpl ugin
ĠUr heber
por al
ĠDurch fÃ¼hrung
ĠNeu es
Ġevent s
ĠHaupt stadt
ĠGeh alt
ĠzusÃ¤tz lichen
Ġgesetz lichen
7 6
G H
O ps
P ad
U SE
s ab
ĠM is
Ġh ol
us en
lo wer
iel len
sp an
ste ckt
ĠAb lauf
ign ed
schie de
gesch lagen
Ġat tempt
mb h
Ġ200 1
Ġfield Name
ĠGet rÃ¤nke
sto ÃŁ
ĠAccess o
b Ã¶rse
h ow
an os
ĠK andid
Ġe ver
Con st
Ġwe ight
ĠDu sche
Ġsollte st
Ġmap per
ĠHÃ¶ hen
sie ht
E qual
O RE
f ix
l uss
u ber
un ct
ĠO ld
ey er
sh eim
rÃ¤ fte
Ġsicher en
ĠOber flÃ¤chen
Ġag ain
Ġneg ative
Look up
R ing
s in
s cribe
Ã¶ hnen
ĠC ap
ĠSch atten
ex tract
Ġ0 2
ĠAl te
fol io
Ġreduz iert
M ir
as i
ĠA ff
ĠM ix
ut ze
ach s
Ġl ayer
eh o
ĠSt au
ĠAuf lÃ¶sung
wer ben
Group Id
Ġreg istry
Ġverl etzt
ĠOption en
Ġbelieb t
Ġabsol ute
ĠArch iv
S u
Ġein schlieÃŁlich
Ġ( @
ĠD ialog
ĠP feffer
ul ieren
get Annotation
ĠO lymp
Ġpro tocol
ust ers
kl in
Ġdar gestellt
bau er
Ġobject s
ĠKn ow
ĠCas inos
Ġinform ation
ĠLieb es
Ġsign ature
child ren
ĠSing les
Ġtelefon isch
h ose
z iger
Ġs onn
el er
Ġm ar
ĠF inden
ĠK riterien
ĠEr klÃ¤rung
Ġtr igger
ĠHer stell
ĠTh Ã¼r
SE SSION
ĠMo der
unn el
ĠDien ste
inu ier
8 1
E Enum
F lags
W A
y e
Ġd imension
at tributes
au cht
ĠW ellen
Ġl at
iel ten
ug ins
ĠEr folgs
ĠEin kommen
to UpperCase
Com ment
Ġinter val
verb rauch
Back ground
Ġav oid
Stru cture
N amed
W ARN
c ort
Ġr Ã¼ck
ĊĠĠĠĠĠĠĠĠĠĠĠĠĠĠĠĠ ĠĠĠĠĉ
Ġget S
Die s
ĠAuf grund
ĠEnt spannung
Ġte uer
Sup plier
Ġempf ohlen
Da o
{} ]
ĠerhÃ¶ h
GEN ER
r d
r achten
Ġd achte
Ġm v
ge wiesen
Ġh eil
get Root
ver age
Ġver ify
Ã¤t zung
aus end
Ġtr aum
ĠkÃ¶n ne
ĠCon st
Ġid entifier
ĠWohn ungs
ĠAd min
ĠMark us
getM in
ĠErw art
Ġgroup Id
7 3
au men
ĠL ade
ĠSch reiben
CH T
Lo op
ausen de
ĠOpt ik
ĠgewÃ¼nsch ten
h Ã¤ngen
~ ~
ch ain
st ern
ur al
ge fÃ¼
Ġb ett
ĠG re
get Or
ĠR um
ĠN ow
Ġsch lieÃŁen
Ġget All
av ed
tem peratur
ok umente
Tra cker
ĠZu ge
Ġfol low
ĠAnt i
Ġumf ass
ĠFFDC Filter
ĠByteArray OutputStream
Ġzuk Ã¼nft
B ra
L L
N eg
el berg
ĠB raun
ĠM P
ĠF u
ĠF uss
ĠR eturn
Ġge gangen
Ġst anden
gen den
ĠSch ema
ĠSt ellung
Re q
scha fter
Ġ4 1
Or Update
Ġeigen er
ĠStadt teil
ĠBes itz
ehm end
Ġgarant ieren
Ġehemal ige
ĠPfer de
ĠUntersuch ung
B C
b or
Ħ ¢
Ġun kompl
Ġw Ã¤chst
Ġb its
ĠF eier
ĠG ame
ĠO ster
Ġdes wegen
qu ote
Ġchar set
ĠDat eien
Ġerz ielen
Ġherunter laden
ĠFreib urg
) ",
B au
m Ã¤r
n g
Ġ able
Ġi oe
hr t
ĠW are
get Host
Ġl ayout
Ġge Ã¤ndert
Ġ" -
Ġver lang
Ġj eg
ik ationen
res p
ĠX ml
Error Code
ĠGen uss
Ġoption al
vo ice
ĠPer formance
Ġprakt ischen
ĠNote book
ĠCH F
Ġerg ibt
GRO UP
k ette
m acht
Ġd ritte
Ġs ervlet
de code
ĠE Package
ĠK amin
ĠK alender
ĠR unnable
ÃŁ t
ĠZ Ã¤
Ġsch lagen
Ġ0 3
ĠPro zesse
ĠBe ispiele
of il
Ġbek am
Ġbew ert
Stru ct
rivile ged
. /
C ursor
n ormal
un it
Ġst olz
ib ling
Ġstat s
current Thread
Ġpass end
Ġoffen e
Ġact ivity
produ ktion
Ġerz Ã¤hlen
ĠGar antie
Ġlook up
ĠSÃ¼ den
Ġnv ae
d isplay
ĠD imension
ĠR ie
ĠR ang
ĠR eb
Ġl i
Ġer r
Ġent f
ĠAb stand
ant el
ĠAuf wand
Ġbest immen
ateg ien
ĠPart ie
ĠgroÃŁ zÃ¼g
Sec ret
init iv
Ġinstall iert
B undes
S eite
x id
st ufe
ĠA dr
ĠB E
ĠB ere
ĠP air
Ġc ommon
ĠIn halts
ĠSt reifen
Ġnach folgen
ĠBe leuchtung
Un supported
Ġgro ss
zent en
Ġhand eln
ĠEner g
Act iv
Ġbisher igen
ĠKommun ikations
ABLE D
Ġleb end
Ġschlaf zimmer
Sel bst
8 9
b atch
Ġt ot
Ġk ind
get Element
Ġso fern
eth oden
ĠOr gan
land schaft
leit ungen
Ġzusammen gestellt
Buffer ed
ĠKle ine
UM N
Ġwunder schÃ¶nen
esh op
Ġverst eht
ĠStat ement
M ag
st age
Ġf ire
ĠD unkel
ĠI SO
ber ichte
ist et
Ġan alys
ĠSch merzen
ĠSch merz
ĠEr ste
ĠTe ig
Ġgel angen
Des cribe
ph p
Log ging
ĠRei hen
sc ale
Ġkn ow
Ġanges ehen
ĠjÃ¼n g
Ġbeeinfl ussen
G HT
S end
en zt
Ġun zÃ¤hl
Ġf Ã¤hrt
ĠA kadem
Ġauf gebaut
he bung
Ġex port
Ġ8 00
Ġange kÃ¼nd
Ġwith out
ĠfÃ¼hr enden
Ġverd ient
ĠtÃ¤ glichen
ĠEntwick lungen
wir ken
ĠMa ÃŁe
ĠDav id
fur ter
N ote
V R
b rit
ĠS AX
ar ische
Ġb us
Ġt oo
Ġp at
En cry
ak es
her steller
ip per
ĠWir d
Config ur
ok al
Ġ9 9
ĠWebs ites
Ġentwick elte
ĠZahl ungs
Ġclose d
pfl anzen
analy se
! "
S yntax
b an
c i
r amm
u uid
el or
ĠF as
ĠN OT
ĠEn gel
str umente
Ġsub ject
Sec ond
BU G
CA CHE
OB JECT
Dire ction
L abels
M AN
R oll
Ġw ay
ur a
ĠG reen
Ġr unter
Ġr unning
ĠL ied
ĠC ommunity
Ġmehr fach
Ad dr
Ġen coded
Sch on
ĠPreis vergleich
Sc roll
Ġparse d
Ġstand ard
ĠNews letter
ĠMat th
ĠAmb iente
beut el
separ ator
D T
or ing
Ġm ieten
ĠR ich
ĠC ent
Ġver geben
zen sion
ĠOr te
ĠBl u
fr ont
rÃ¤n ken
ĠWo hnen
ĠkÃ¼ mmern
Ġerweit ern
Ġdiffer ent
B o
L eist
P ublish
Â ¶
Ġd rauÃŁen
st ige
ĠF ick
eit her
Ġk alt
art s
ĠEin b
omm st
Ġper iod
Ġdest o
Exp ected
N etz
m ach
n es
w ischen
Ġd etaill
ĠA ch
Ġz ertifiz
Ġk Ã¼nftig
Ġc ert
ĠN etwork
art ig
est ern
ĠÃ¼ber sch
ĠEr stellung
aus bildung
rei ft
Ġgew Ã¶hn
pp chen
ĠApp lication
Link s
ĠTÃ¼r en
ĠEntscheid ungen
Ġzentr ale
Ġdiver sen
Ġbeteil igt
dro ols
ĠgenÃ¼ gend
* /
> <
D ebug
g g
Ġd id
Ġn ord
Ġn ackt
Ġv ideos
Ġg ingen
em b
ic ense
Ġge be
Re p
Re cht
IN VALID
ĠAb teilung
ĠVers icherung
aun en
gÃ¤n glich
trans action
Ġmon th
wÃ¤r t
ĠJohann es
' ;
C andidate
I FI
i am
j s
j avax
o ÃŁ
w a
ĠS n
ĠS ource
Ġb ig
Ã¶ ger
ver halten
th en
ĠVer eine
fl at
ĠArbeit nehmer
cl udes
bau ten
Ġchar s
Ġkont inuier
ĠRec ognitionException
Ġregister ed
ĠPsych ologie
ĠgewÃ¤hr leisten
Bas ic
et ischen
ĠS up
ĠS SL
Ġh armon
ĠE Class
ĠEin blick
av ier
ob ald
Ġy ear
Ġbesch lossen
Ġkl ingt
Configuration Exception
Le ben
ĠInnen stadt
pack t
ĠRec ord
Ġconvert To
ĠMer cedes
Ġverh indert
ĠNachhalt igkeit
r ung
en v
le ute
Ġv ector
ĠH ab
ĠN ic
ug ier
Ġvor gesehen
gr id
ĠAl kohol
Ġar r
gem Ã¤ÃŁ
ĠmÃ¶glich erweise
UN G
CON NE
MP S
http s
ĠFern sehen
ĠEntwick ler
ĠVari anten
ĠbeschÃ¤ft igen
Ġmass iv
Qual ifiedName
ĠSehenswÃ¼rd igkeiten
f rauen
f amilien
ol es
ĠP en
ĠK Ã¼nd
id es
Ġa f
Ġget an
aus schuss
ĠAus s
ĠVor stellungen
ĊĠĠĠĠĠĠĠĠĠĠĠĠĠĠĠĠĠĠĠĠĠĠĠĠĠĠĠĠĠĠĠĠ ĠĠĠĠ
201 9
ĠFot ograf
ĠAngeb oten
Ġupdate d
Operation Exception
Ġverd ienen
nehm ern
Ġinnov ative
ĠBuffered Reader
******** ********
ĠPrÃ¤sent ation
Gem ein
ĠerlÃ¤ ut
W eitere
Ã ³
â Ħ¢
st eine
it as
ĠS zen
Ġf liegen
ĠB utter
ĠM asse
ei f
get J
get Declared
ĠSch ritte
Res erv
ges prÃ¤ch
kl ar
ĠGe org
fil me
Ġtable Name
ungsm Ã¶glichkeiten
ĠSchwe den
ĠprÃ¼ fen
E E
S ens
S CH
] ));
d ist
n on
Ã¼ che
ĠM om
Ġr as
Ġl ike
Ġer setzt
ĠVer hand
ĠAn hÃ¤nger
ĠAr me
reich er
Ġ5 2
ĠKinder garten
com e
ĠEurop as
field s
Return Type
ĠTÃ¼rk ei
N ur
P reis
b art
ol ine
um fang
Ġp olicy
get eilt
ag ten
ad ies
Ġge start
Ġaus wÃ¤hlen
Ġsch lÃ¤
ĠGr Ã¼ndung
An aly
Ġ' %
ĠCh or
Stat es
ĠSe arch
fel der
require NonNull
g ung
m mer
Ġb reite
Ġver teilt
eh end
he ben
schl Ã¼sse
Ġch rist
Ġnot ify
sb et
Ġ? >
ren nen
ĠSk i
stit ute
Ġag greg
token s
Ġverz ichten
Ġprofession ellen
Ġdur fte
Ġbegeist ern
ĠUtil s
Ġirgendw ann
N ormal
b ay
p x
Ġm issing
ig end
ĠW a
Ġc enter
In stant
up dateres
ĠPro v
eu gen
ĠEin bau
Ġ4 3
ĠTr ink
ĠBest en
Ġcl s
Ã¼l ern
sie he
TERN AL
I ss
s amen
ie den
Ġun til
Ġk ap
Ġp e
Ġc orrect
get G
Ġl ower
ĠJ Ã¼rgen
ran t
Ġget est
Ġget Value
ast rop
Ġpro m
not ated
With Annotations
Ġro ten
Ġro ll
Sh irt
getC ause
Ġfr ischen
Bit map
et ik
Ġs ehe
ĠS auer
Ġw ild
Ġp repare
ĠH tml
Ġ' /
Set s
Ġange f
ĠVerb ind
urt stag
ĠAt t
Ġass oci
Ġgl Ã¤n
Ġzun ehmend
gram ms
Render er
P rivate
at iver
Ġs uffix
Ġf lags
ĠA tem
ĠE hr
ĠP ast
ĠI ll
ĠT enn
get Entity
Ġauf re
Ġbe antworten
Ġsich ere
ĠSt yle
ĠEr mitt
we ight
ĠÂ °
zeich nungen
oh le
Ġy et
Ġwo uld
bew ert
ĠMitglie dern
Ġkennen lernen
Ġwei ÃŁen
Ġeinzigart igen
Run ner
ĠInnov ation
N ative
f actory
Ġein setzen
ĠM as
Ġau st
tr ast
sch merzen
Ġp fl
get Component
Ã¼n den
Ġis s
ĠHand t
From String
next PageLink
ĠService Callback
Ġinteress ieren
Back up
Ġerot ische
Ġprodu ct
Ġ ess
Ġm ask
Ġf ahr
Ġz og
get Y
ĠN AME
ra ht
ĠJ azz
Ġsch rieb
ien s
br and
ĠKom ponenten
ĠFr ucht
Ġoft mals
hÃ¤lt nisse
Ġproperty Name
Ġdr in
agn ose
Ġnorm alen
ĠWill kommen
ĠAnreg ungen
S ur
W eiter
on us
am ik
ĠB eine
ĠB ody
ĠP od
ul Ã¤r
ir l
Ġzu hause
Ġge str
Ġver kauf
Ġsch au
Ġum welt
âĢľ )
ĊĠĠĠĠĠĠĠĠĠĠĠĠĠĠĠĠĠĠĠĠĠĠĠĠ ĠĠĠĠĠĠ
Al tern
olog isch
ther apie
On line
ĠProj ekten
Ġspe ichern
alis mus
ĠKir ch
Ġ199 8
ĠAlt stadt
Ġintegr iert
ĠWissenschaft ler
prÃ¤s ident
Ġbetracht et
F unktion
Ġ 000
er ben
in clude
it is
at ischen
ĠS cript
ur st
Ġg rÃ¼
se ction
ĠC afÃ©
Ġer werben
Ġst Ã¤nd
ĠZ wie
Ġso bald
IN TER
geb nis
Un iversitÃ¤t
Ġsh ape
Ġpl ace
ĠDurch schnitt
Ġrem aining
jÃ¤hr iger
urop a
process or
Del eted
Ġdur ing
ĠWÃ¼n schen
Ġschwar zen
F R
S lot
g ess
w al
re lease
Ġun ique
Ġf it
ĠB rau
Ġge arbeitet
Ġst euer
sp unkt
Ġab geb
Ġsie he
av ing
Stat istics
Ġro le
ĠSchul ter
des cription
ĠSitz ung
warn ing
Oper and
Ġlaut et
ï¼ Į
B oot
T URN
V om
ro hr
Ġz ip
ĠF A
ĠT rep
Ġif c
Ġauf treten
Ġsch ul
ik ip
Ġex clude
Ġgew alt
ank ing
ph ase
rot t
Token izer
mp ath
Ġsc ore
ĠFest ival
Ġfrei will
ĠKur se
Ġgesp annt
Ġord entlich
C LO
h i
s zeit
Ġd uration
an ded
al ing
Ġf air
ĠM eld
ĠL assen
ĠN ase
ĠO R
ĠSch reibtisch
sen der
File Path
By Name
ĠStr ategie
getS ub
Ġde aktiv
Ġad apter
Valid ID
ĠPan or
ĠergÃ¤n zen
8 2
g lobal
p ackage
Ġs ection
Ġf ill
ĠIn g
Ġj ahr
est ination
Ġum s
sche ch
Rec over
ĠBundes regierung
ĠOb wohl
trÃ¤ glich
Red u
ĠÃ¼berprÃ¼ fen
! )
B M
O k
P al
S ip
d l
k re
re st
ĠE th
get Height
ĠV iertel
ĠC olumn
Ġre i
ĠAn satz
ler t
pro file
ru id
Ġ4 9
ĠGesch lecht
gend es
cont inue
ĠFile InputStream
Sup ported
Ġbesser en
čĊĠĠĠĠĠĠĠĠ čĊĠĠĠĠĠĠĠ
ĠKonz ern
Ġfot ograf
Ġfeature ID
ĠKart off
COUN T
f ont
k m
ĠS ab
ar ischen
Ġm achten
Ġf lag
Ã¤ len
Ġ( âĢŀ
ĠK ohlen
Ġk omme
ĠG anze
ĠI hn
ĠI MAGE
get Last
ĠV W
In clude
ĠVer lauf
sp aren
Ġget Ifc
Ġ4 7
inter est
mb ed
Ġcheck NotNull
Input s
ĠAkk u
re es
ĠM atcher
ĠE tw
ĠG E
get Index
Ġden k
pl orer
ĠRe alitÃ¤t
Ġ4 6
ĠAuf lage
Ã¤hr ungs
ĠTr ends
Ġfol der
org ungs
Ġschwer en
Create d
ĠZwe cke
ĠWider ruf
ĠStÃ¤r ke
Ġpush Follow
ĠursprÃ¼n glich
P L
f ire
h Ã¤nge
m utter
al a
Ġf rac
ĠH Ã¤nden
Ã¼r tel
Ġ(( (
stag ram
irt y
ĠMon ats
Ġjeden falls
hÃ¤ng ig
fÃ¼ll ung
ĠÃľb ungen
ikip edia
E v
j casType
ie gs
or fer
ge zogen
il fen
ĠG ames
ĠT un
Ġe h
Ġsch Ã¼tzt
pl us
Ġunter scheiden
Ġunter sucht
AR G
MA P
Ã¤um t
fr ame
LI M
rec ision
ĠAp pl
kennt nis
ĠKlass iker
Ġpersonenbezogen er
ĠFerienwohn ung
fÃ¶r m
C OR
R unning
t on
ie ber
Ġc ursor
ĠV ir
iv itÃ¤t
ort s
ĠEin heit
ste ad
Ġcon verter
ĠSte ck
Ġpl an
Ġind ent
gef allen
Ġinitial Value
ĠVog el
L Ã¶s
N atÃ¼rlich
U TE
p repare
st Ã¤d
Ġm ann
ĠB och
ĠT ypes
get All
ec ess
ĠN a
ed t
ft ig
Ġfor ce
av ior
ark e
ĠKon s
ĠKon struktion
Ġgesch m
Ġger inger
haus es
por ary
ĠKar ls
ĠDat ing
ĠAll gemeinen
cover y
ĠDek o
ĠWahr heit
NUM BER
AUT H
L at
T hreshold
b orn
ĠS icher
ĠA achen
Ġt Ã¼rk
il ch
ĠK ass
Ġp p
ist ogram
Ġst et
id as
ĠO sten
Ġes cape
op tim
ĠAus sch
onn e
fl Ã¼ge
ĠEnt fernung
ĠArbeit splatz
Sch l
Ġsh utdown
ĠPol en
Ġbin ary
ĠSpe isen
ĠgÃ¼nst ige
Ġeffekt iv
wach ung
ĠTrotz dem
C W
j ar
le hen
am l
Ġk rie
Ã¶ ss
Ġc andidate
us ion
Ġan melden
im port
Ġ- --------------------------------
sp rÃ¼f
hn t
aus stattung
fer ien
ĠSchw ester
SS L
CO MM
Pl ace
RA CE
Ġbrau ch
Ġrel ative
Rem aining
ĠKap it
ĠCont ainer
ĠNieder sachsen
Ġfunktion ieren
Dis count
ĠII I
Ġren omm
tÃ¤ usch
D ass
H A
R ot
S PE
b undle
f Ã¤llen
r is
s i
v oller
w inkel
Ġf uer
Ġc ore
ĠL ock
tion en
Ġgro ssen
con straint
eten zen
ĠSpiel othek
Ġmax imum
Content Type
ĠCom merce
PAR ATOR
Ġbestehen den
ĠAg entur
Optional Parameter
Ġbez ahlt
Ġamerikan ischen
ĠInternalXbase WithAnnotations
ĠParse Exception
V C
k ost
} ");
en able
il a
Ġh ex
ĠF ried
ĠK ul
ot a
Ġge zielt
Ġst imm
Ã¼n der
čĊ čĊĠĠĠĠĠ
Ġen glisch
Ġhin sichtlich
ĠReg ionen
hol der
Wh itespace
Ġstru ktur
ĠHilf s
ĠTar if
b em
st ro
Ġn utzt
Ġein gestellt
ĠF ind
ĠF uture
ĠE hren
ĠN Ã¤ch
Ġ" "
qu ires
Ġch ron
fol ie
ĠEx tr
ash ion
reib e
Match es
ĠPfer d
ĠSpann ung
ĠAutom obil
C urrency
L d
c ustom
z ule
Å ¿
ĠĠĠĠĠĠĠĠ ĠĠĠĠ
ĠF antas
Ġl ines
ĠAr g
Pro jekt
Ġnoch mals
ud a
ĠFl Ã¼ss
201 1
getS ource
ĠWe gen
ĠStud ierenden
Dep loyment
Ġbas iert
Ġfreund lich
ĠRem ote
ĠSym pt
Disp atcher
osmet ik
M al
W ill
i ag
Ġ ew
ĠW ichtig
ĠO ma
Ġsp iele
ĠHer kunft
DE LETE
Ġgel ingt
Ġdire kten
ĠBew ohner
comp ute
Ġbeob achten
B IT
B ereich
S im
s ave
Ġ Que
Ġm at
Ġund er
Ġbe zÃ¼glich
Ġre pository
Ġaus ser
Ġsp Ã¤t
RO M
âĢĿ .
Ġevent uell
Ġpass ieren
ĠgewÃ¼nsch te
STAT US
ĠSchei ben
ĠverstÃ¤r kt
H in
M usik
b ranche
k ter
r as
Ġd isp
an ische
ĠB em
ing Box
ĠL aser
art igen
op ath
ĠUnter haltung
ĠQu ellen
so hle
Th row
ĠBeg leiter
aun e
Ġbege g
tim er
stÃ¤r ke
Ġbeweg t
d ar
g Ã¤
at ers
Ġun gefÃ¤hr
Ġg ra
Ġg gf
Ġk or
get Num
ĠC y
Ġauf nehmen
ĠEin stieg
ĠBer eit
Ġges unde
ĠOr der
ĠFl uss
Ã¼hr ung
Ġread ing
ubl isher
Definition s
ĠLog ger
from Response
TR UE
HT TP
ĠÃĦnder ung
Ġunmittel bar
orizont al
T C
k ammer
l ay
o ÃŁen
o ffen
o ugh
Ċ ĊĠĠĠĠĠĠĠĠĠĠĠĠĠĠĠĠĠĠĠĠĠĠĠĠĠĠĠ
get Connection
ĠH ose
ĠR O
men s
ĠEr z
add Body
az it
Ġher z
iet ung
AN T
ĠBes itzer
Ġerw orben
Date Format
Cms Resource
ĠGast ron
ĠDB Constants
ĠTats ache
I A
W o
Y PE
c urr
g eln
Ġs ing
Ġf iel
ĠI O
Ġan passen
ff ekte
ĠO ft
As set
sst and
Ã¼nst ig
ĠMod ul
ĠCom pletableFuture
Part s
ĠGemein sam
Ġover ride
Ġspann end
WOR K
ĠBewerb ung
ĠgeprÃ¤ gt
C loud
m ale
r w
w atch
Ġun gewÃ¶hn
Ġm ight
ĠK iel
ĠT an
ĠL apt
we ig
les wig
Ġlie fer
Ġen gine
Al ignment
ĠAm ateur
Log in
Ġ199 0
Ġprocess ing
Ġzun ehmen
Ġbein g
Ret ry
ĠzuverlÃ¤ss ig
==' \
S ent
e igen
f ree
v als
in formationen
Ġn amen
Ġg ot
ĠP ir
Ġe qu
Ġver br
Ã¤t zt
Ġup per
ĠmÃ¼s ste
ĠLie der
ĠRechts anwalt
ĠGlÃ¼ck s
Ġoptim alen
Ġprofession ell
amb da
Ġart ifact
Ġauspro bieren
A F
S PACE
w Ã¶rter
ĠM c
ĠR eh
ĠC he
sen s
Ġle ichten
Ġzw Ã¶lf
Com pleted
lÃ¤ ufe
ĠBl att
ĠGew Ã¤hr
ĠGew inner
ĠBo ots
Pr ess
Dep th
arg in
ĠHel fer
Segment s
fÃ¤h ig
ĠFort sch
ĠUntersuch ungen
ĠHaft ung
ĠNeub au
Ġprovide d
F aces
m Ã¤nn
r Ã¶
w unsch
Ġ []
Ġn ett
ĠE X
get Atom
Ġr aum
ad cast
00 1
Un its
Ġerst klass
ĠGro ÃŁen
getM ember
UM ENT
Ġwes halb
Ġnotwend igen
ĠEben so
ĠEng land
ĠruleJvm FormalParameter
G IN
M T
Z ero
c ert
ar ge
ĠM esser
um b
ĠH abe
ĠL och
ĠR ap
ĠR ud
ĠV ielen
and el
ĠIn stitution
ĠAn trieb
sen z
Ċĉĉĉ Ċĉĉ
geb iete
omm a
Ġ' .
Ġne ighb
for um
ĠÂ ©
Ġspe zif
ĠTo uch
ĠVerl ust
ĠSl ots
Ġschwar ze
ĠAdr essen
V ert
ch unk
ie ht
Ġun ternehmen
Ġb o
ic le
ĠE L
Ġr um
ĠH E
Ġan genommen
gen au
sen den
ĠSp uren
ĠFre ien
ĠSpiel automaten
ble me
\" ");
ĠIN DArray
Ġresol ved
Ġdring end
Ġf ern
Ġh Ã¶rt
Ã¶ sterreich
ĠT ickets
ĠJ er
ler weile
ĠEin stellungen
kl ang
str asse
getS h
Ġ[ ...]
gl anz
UN K
ommun ikation
Valid ate
ategor ies
ĠJahres zeit
beg inn
ĠDem okrat
ĠAng riff
ĠMus kel
Ġdam al
sec urity
h Ã¤ndler
m acher
Ġ Ã¤lte
Ġd auern
an teil
Ġin halt
ĠM obile
ĠF aktoren
ĠR am
Ġab out
ĠAr sch
Pro gramm
ĠAus bau
eter min
ĠIm pul
Ġange kommen
ĠDurch messer
Ġdep endency
Ber eits
Ġhistor ische
Ġfot oc
ĠKreativ itÃ¤t
ĠGesprÃ¤ che
ĠHÃ¶ch st
å Ĳ
Ġd etermine
st reifen
et ung
ĠS ymb
ein satz
Ġre chnen
ĠAn gabe
ĠUm zug
Mod ifiers
bo se
Ã¤m pft
ĠBundes liga
fil ename
ĠGrÃ¼n der
Ġunver gess
ĠÃĸff nungszeiten
ĠprÃ¤ z
COL UMN
ĠErkrank ungen
Ġspezial isiert
ockt ail
ĠKonk urrenz
> \
F ix
j i
l iter
r ug
ĠS Ã¼ÃŁ
ĠA C
ĠF reis
ĠW arn
ĠT uple
Ġauf gel
mer ge
pro t
ĠBe ziehungen
ĠGer Ã¤ten
Ġ[ {}]
ĠText il
ĠÃ¶ff net
ĠMÃ¤n nern
ĠðŁ Ļ
ĠWil helm
CTOR Y
Ġfotoc ommunity
7 9
h au
Ġm l
Ġf actor
ĠB a
ĠP rivate
sch icht
ĠSch alt
Ġre isen
St amp
ĠSp recher
ill s
RE SS
Ġbet rifft
201 0
has More
ĠJe de
ĠTechn ologien
IG N
ĠJson Object
open cms
Ġflex ibel
ĠKÃ¼hl schrank
kÃ¶ mm
B ahn
G l
m useum
w ies
Ġd river
as y
Ġm emory
Ã¤ b
Ġein getragen
ĠR Ã¤um
ĠSt ift
int age
ime Type
Ġgr Ã¶s
Ġ8 5
Ġpar allel
Ġ14 0
ĠPh ase
mit glieder
cm d
ĠVoll zeit
api Version
ĠHard ware
Ġident ifiz
ĠErinner ung
ĠJose f
B and
B ACK
u a
re cken
Ġm Ã¤nn
Ġk Ã¼nd
um pen
Ã¼r zt
ĠSch al
ĠSch uld
per ten
iz es
ĠSp azier
ial en
ĠGr ab
amen te
SE PARATOR
Tr ue
inc rement
ĠAust r
ĠStruktur en
= ");
G UI
Ġd ruid
ĠT rocken
Ġal gorithm
per rt
az itÃ¤t
rem ote
arch y
Str aÃŁe
Action s
service Name
ĠFinanz ierung
ĠVerÃ¤nder ung
ĠwunderschÃ¶n e
ĠGrie chen
F ach
Z immer
h or
ĠS AP
el be
ĠD am
Ġh Ã¤ngen
ĠT it
ger Ã¤ten
Re vision
ip pe
Tra ining
ĠAu ft
Ġbesch reibt
Access ible
ĠRegion al
Ġattr s
ĠTour ismus
ĠNord rhein
SC RI
Ġspiel te
ĠParte ien
ĠJed es
C he
m x
Ġn ennt
Ġf Ã¼
Ġl inken
ĠO P
ĠSp ir
ĠGr enze
anz eige
new Value
ĠBer ater
DE BUG
ĠGew erb
Ġsec urity
Ġorganis ieren
ĠTerr assen
ĠKÃ¤ se
Ġausgeb ild
ĠGir ls
ĠRep ublik
Ġdruid G
= >
Ġ ~
Ġb reiten
ĠM ount
ack er
ip se
ĊĠĠĠĠĠĠĠĠĠĠĠĠĠĠĠĠĠĠĠĠĠĠĠĠ Ġ
Ġhier zu
He alth
sk on
Sh ared
Ġkl are
Ġkon zip
Ġkurz em
produ ct
ĠSol ar
Ġausgew Ã¤hlt
ĠNachw uchs
Ġgestart et
ecess ary
H R
w here
Ġw artet
Ġf s
Ġz auber
ĠF ur
ĠK Ã¶
ĠW eich
iv ate
ĠAn zeigen
Ġvor an
Ġset up
lin es
Def ined
Ġfest e
ĠSpr achen
ĠPar lament
spro gramm
Ġbed arf
Thread s
NON E
ĠhÃ¶ here
ĠvielfÃ¤lt igen
ĠGal axy
ĠgeprÃ¼ ft
U sed
Y E
h otel
Ġd ev
Ġs ig
ĠM aschine
Ġst immt
ĠAn walt
ĠEn um
ĠBe ob
co in
Ġgesch nitten
ĠBr as
amer ikan
method Builder
Vis ibility
ĠStre cken
Ġeleg ant
Ġeffiz ient
M appings
M ILLI
N N
s z
Ġ ]
Ġs ilber
ĠS eb
Ġk w
Ġk unst
ĠR ichter
ĠC opy
ĠC LASS
Ġj ene
aus wahl
sh of
Ġdies jÃ¤hrigen
aut y
lÃ¤ sst
Option Value
Ġgeh abt
ĠPh ot
trÃ¤ cht
ĠAnt on
Ġauth or
ĠMus ic
brit ann
. ).
F oto
P M
a os
n eu
t ab
it ur
Ġf Ã¶rdert
tr aum
ĠT OP
ĠC E
ĠN ein
ĠU V
od urch
Ġvor genommen
Ġ: -)
ob b
Ġle ast
ĠCh amp
Ġgew ann
ĠKon zentr
stÃ¤nd igkeit
ĠBild schirm
Ã¤uf e
des cribe
ĠBesch werden
ĠGener ic
ĠWest en
L iebe
c or
e DataType
j acke
Ġ( );
de k
ĠT epp
ier bar
Ġver anstalt
ĠSt abilitÃ¤t
ĠAn sprÃ¼che
Ġfor dert
pro vider
rÃ¤ der
lie der
Un ternehmen
ĠLe ucht
Ġlie f
Ġgr amm
com plete
Ġwh at
mod elle
Ġstr ateg
Ġsw inger
ifiz ierung
OP TION
getB undle
Ġkombin ieren
O ber
m ont
r ong
Ġw ords
ĠD ritte
ĠF ull
den s
get A
ir ation
ĠL ange
ĠL iga
Ġl on
Ġ" <
Con version
ĠFor der
ĠCl uster
ĠChrist oph
d t
f w
m ulti
o be
on ed
Ġt s
ĠT Ã¤ter
ul ated
and ra
ĊĠĠĠĠĠĠĠĠĠĠĠĠĠĠĠĠ ĠĠĠĠĉĠĠĠĠĠĠĉĉĉĉ
ĠSch Ã¼lern
ĠAn s
ME THOD
Result Set
For um
ĠCo ach
isD irectory
ĠstÃ¤r ken
Ġunglaub lich
B is
R S
W here
d isp
g elt
r Ã¤t
Ġw oh
ĠD elete
Ġp oly
get Target
ĠH yp
isch end
im ator
lo ch
ĠZ in
qu enz
schaft s
eth ode
Request s
con s
Ġgef Ã¶rdert
ĠMod ule
ĠDies el
part s
ĠNot ification
Ġklein ere
property Name
Ġberuf lichen
ĠEigent Ã¼mer
ĠerwÃ¤hn t
P icker
k ar
k asse
ĠS D
ut ing
ol ogen
ĠF ire
get Long
Ġr untime
ĠR eit
end point
sh utdown
ett et
ĠPf le
Extension s
Big Decimal
J s
p rakt
in f
Ġd omin
Ġb oth
Ã¤ st
ĠM S
ĠM ent
Ġp redicate
get Task
ĠH ir
read Line
ĠFor scher
Ġnode List
schn eiden
result s
Ġirgend wo
ĠRechts anw
ĠMil itÃ¤r
ĠDein er
Ġlieb sten
West falen
Ġocc ur
ĠErweiter ung
ĠLeh re
F amily
d c
Ġd okument
ĠS ur
ar able
as ed
is a
is Present
ĠM ig
ĠF Ã¤lle
ĠH itze
Ġal pha
Ġauf einander
ra k
lic kt
An gle
Ġsp Ã¤testens
ren der
Ġdef initiv
Ġend g
ĠFile OutputStream
Ġgeb lieben
fre ude
Ġfl ush
ĠRis iken
ĠLi zenz
sign ed
ĠAnf Ã¤nger
. ),
. âĢĿ
g it
ĠS endung
re ference
ic ode
ĠP rÃ¤s
um pf
Ġp resent
Ġan al
Ġsch edule
ert ifik
auf gaben
ohn e
Ġges ammelt
Ġmein t
Ġeinz igen
ĠGe o
Parameter ized
Ġlang uage
Filter s
ĠDe cken
ĠIde al
ĠMet ern
Ġ; )
fÃ¼l len
ĠSchau spiel
Ġumfang reiche
ĠEv angel
Collector s
ĠKennt nisse
i ance
n am
r ats
Ċ ĊĠĠĠĠĠĠĠĠĠĠĠĠĠĠ
Ġf eiert
Ġg re
Ġg reifen
ĠE cke
ĠK ommission
ĠR ost
ag ue
Ġge boten
Ġre prÃ¤sent
ĠRe aktion
Sch eme
bereich en
gef unden
ĠBas el
Ġkont akte
aj or
Conn ector
wirk ung
Ġtoll es
ĠStern e
ĠberÃ¼cksicht igt
D enn
G A
M gr
S uffix
W ohn
Z ip
b und
d icht
g in
j p
m esse
p olit
es cape
iel l
ĠO f
set t
pl ant
Ġab ges
vent ory
At tempt
ĠTr ump
ĠTr icks
SE LE
SI GN
voll es
200 9
Hash Set
hÃ¤ usern
ĠVersand kosten
ĠPhil osophie
Je der
tran sport
G ray
k abel
p us
ein richtung
Ġm ach
ĠD or
ĠT H
ot ter
ĠN ahrung
ĠVer sch
St age
ĠHand eln
sw irtschaft
Ġ16 0
mo tion
ĠProf ession
Ġbelieb ten
ĠZahl ung
kont akt
lÃ¶s ungen
Ġmoder ner
SER VER
hÃ¶r er
ĠFig uren
ĠValid ate
ĠAnder e
ĠFlex ibilitÃ¤t
ĠAutob ahn
T eil
U BLE
e get
n ur
Ġn am
Ġw Ã¤r
ut h
ĠK orre
ĠR uck
ff ic
ĠSt ich
men ge
ĠPro m
ĠEin wohner
Ġex tr
ĠEn gl
Ġcont roller
Ġschw ere
Ġfest gestellt
Ġsol cher
Ġsc reen
PRO P
Ġgroup s
ĠUrs ache
Ġhilf reich
eto oth
D ynamic
R pc
c ollection
d n
o ter
z up
Ã¼ pf
is burg
ge gangen
ab teilung
Ġr ichten
ĠAn fragen
Ġthe or
rit ing
ĠGr enz
AL E
gesch ichten
ĠMar c
ĠThe orie
reit ung
Ġcl one
Ġfr ische
ĠChr on
Match ing
Ġoffiziel l
Ġunterschiedlich sten
ĠOnlin eshop
A SS
B ranch
S ave
s afe
y a
at in
Ġt ake
ĠM aus
Ġk ochen
get State
ĠC ast
ĠÃ¼ber wiegend
()) {
Ġges prochen
con cat
Ġgel ernt
ph an
Ġvalid ation
ĠImmobil ie
Star ted
isTrace On
pared Statement
B es
D elta
S rc
g Ã¤ng
s dorf
t t
Ġs amt
Ġf arben
ĠT reff
get Version
ĠV illa
Ġan other
ĠIn halten
Ġwer e
be at
Ã¼ck s
ac ing
Ġange messen
Port let
Ġnorm ale
ĠKlo ster
ĠReiÃŁ verschluss
B en
D abei
F alls
H L
M em
k inder
Ġw odurch
ĠK Ã¼nst
Ġl ow
ĠN oten
ĠSt immen
ĠAn al
pr ise
ĠSp ark
ĠAus sage
fÃ¼hr te
ĠMin eral
ĠUhr en
Connection s
ĠAug sburg
ĠDen ken
Produ cer
yl inder
sequ ent
in kt
le un
Ã¤ us
ĠB oo
ĠB ay
ĠM ust
sch te
ĠK E
Ġk o
ĠH altung
ag on
ver mittlung
os h
-- )
Ġpro file
Ġ3 60
Ġman aged
ĠPl astik
ĠObject s
getS ec
Ġend et
ĠStÃ¼ck e
Ġrein igen
Ġgepl anten
ĠRem ove
Ġinnen architektur
Ġnachhalt ig
ĠÃ¤lter e
zut age
F ocus
M G
b aden
c losing
s ofa
w anne
} ",
Ġd s
Ġs ync
as cht
Ġf roh
Ġf Ã¼llen
ĠF icken
get Application
ĠL ight
ĠR ect
ĠR auch
Ġzu gÃ¤nglich
ĠC lau
Re plic
ĠSp ur
ĠOr ten
ĉĉĉĉ ĉĉĉĉ
Ġbesonder er
All es
CO M
antwort et
Ġhinter lassen
HT ML
ĠKrie gs
Illegal ArgumentException
N och
r sg
r ichter
ĠS P
Ġb ade
ĠB ag
Ġau d
ab y
ĠP ull
Ġk rank
Ġge werb
ĠIn stagram
Ġvor n
ast ian
fahr zeug
for ce
Ġen vironment
zeug ung
ĠRef orm
Ġlocal Var
besch reibung
sph ase
Ġober en
Ġdeutsch sprach
Ġabgest immt
Ġcar ry
C ast
F LA
T ran
f ried
is Valid
Ġm ultiple
ĠA D
Ġin stant
ĠD DR
ĠE ure
ĠW Ã¶rter
ĠT hr
urn ier
ed s
ĠZ ip
Ġre den
sp reis
inal ity
-- -
ĠBe am
ĠIm m
ĠHand lungs
Or Empty
getS ession
Ġu uid
Ġvoll kommen
Ġpart ner
Â« ,
rel ation
ĠDO C
ĠRett ungs
B L
D om
F ast
č ĊĠĠĠĠĠĠĠĠĠĠĠĠĠĠ
Ġv irtual
Ġf low
il ian
ĠF Ã¼ll
ra x
Re ply
Re ason
me er
File System
Er st
check NotNull
kehr t
Ġgener ated
Ġvorhanden en
wÃ¼r d
ĠFlÃ¼cht linge
fass ungs
Na N
idd le
1 000
b reite
Ġh ref
sch wer
Ã¶ ten
Ġl anger
ĠVer anstalter
ĠEr Ã¶ffnung
)) {
Ġunter sch
to ByteArray
ss l
ĠVor gehen
ong o
ail ability
inder ten
Ġgr ad
Ġhin weg
For ward
kon ferenz
britann ien
A CTION
F ail
l on
Ġv ol
ĠA pfel
ĠB ibliothek
ĠM igration
ĠG ep
ĠV el
ĠC ustom
ĠC ommon
kt ak
Ġj s
sp olitik
ĠAn bau
put All
beit rag
Ġle gend
ĠForm ular
Ġ199 9
So ftware
zuf Ã¼gen
ĠhÃ¶ch st
ĠOl iven
ĠWider stand
ĠKennt nis
ĠAnw ender
Equ als
ĠangekÃ¼nd igt
A K
C ached
l at
w orte
Ġin stead
ĠT odes
ir cle
Ġr ules
ap sed
In stall
Ġle er
ĠAuf nahmen
Ġbew Ã¤hr
Ġfest en
Tr ust
ĠGef Ã¼hle
ĠTour isten
ĠGest alt
copy Of
ĠÃ¼b lichen
LIC ATION
L eider
T rotz
al ition
Ġn et
Ġf antast
Ġr c
Ġe qual
ot es
Ġer fahr
ĠN Ã¤hr
ri a
Ġab sch
ĠUn i
fahr ens
MA SK
Ġâ ľ
ĠBeg leitung
Out Of
Mark er
Ġoffiziel len
Ġumfassen de
Ġbound s
ĠJahrzehn ten
F ree
ein er
Ġw eist
Ġf eine
sch edule
ĠW Ã¤hlen
Ġan aly
ap ache
ĠZ ent
be auftrag
pro m
ĠPl atten
Ġher kÃ¶mm
cl s
Ġinput Stream
Http ServletRequest
field Name
beh Ã¶r
ĠZust immung
Ġtats Ã¤ch
ĠgemÃ¼t lichen
Dist ribution
ĠEcht geld
s werte
ch at
ĠD ay
Ġz iel
Ġr a
ĠL os
ad apter
ĠC omm
Ġre lease
Ġdes c
En coder
Ġgew innt
fen ster
ING LE
RO OT
aff ung
Char set
Ġben ach
ĊĠĠĠĠĠĠĠĠĠĠĠĠĠĠĠĠĠĠĠĠĠĠĠĠĠĠĠĠĠĠĠĠĠĠĠĠĠĠĠĠĠĠĠĠĠĠĠĠ ĠĠĠ
beh alten
Ġlok alen
ĠDrit tel
ĠFrÃ¼hl ing
ĠðŁĻ Ĥ
E VENT
P ol
P ersistence
Ġd ick
on line
Ġs sl
le m
Ġw usste
ĠA sy
ĠB ug
ĠK ro
om a
)) ))
Ġdurch fÃ¼hren
ĠGesch Ã¤fte
Cont ain
lock en
Sch eduler
Ġger aten
Ġnext PageLink
ĠErfahr ungs
Work space
ĠProf i
Conn ected
Ġreduz ieren
ĠErwart ungen
S ample
T ier
ĠĠĠĠĠĠĠĠ ĠĠ
un Ã¤chst
Ġs om
as ste
ĠD einen
ĠK ugel
Ġp erm
ĠV ar
ed ge
id a
ah ne
check Argument
wend et
ĠBet ten
Ġkein es
Ġakt iven
ĠGl anz
Ġmatch ing
Ġlock er
Ġposit iven
SU B
ĠKrÃ¤ uter
Aud it
ĠfranzÃ¶s ischen
ĠBud get
organis ation
Ġign ored
secon d
Ġgetest et
J ed
ĠR iesen
ĠV ariable
est en
we iler
ĠAus nahme
out ube
AR Y
ĠArbeit sk
AN N
Ġro und
Ġqu asi
sol v
Ġret rieve
sl am
HE ADER
bÃ¼ ro
Ġsep arator
wissen schaften
erken nung
ĠHein rich
ĠGerman y
Ġverlei hen
ĠFinal e
Ġlauf enden
Ġverurs acht
n i
ein richtungen
Ġb erecht
ĠP ut
ĠW eine
Ġp ublish
Ġc b
ĠR un
and a
Ġan geschlossen
ĠSt affel
sp ect
up pert
ĠEin will
Ġex c
ov ing
riter ion
Ġ9 5
Ent ities
Number FormatException
ane ben
ĠTour en
Ġwei ÃŁe
hÃ¶ hung
ĠmÃ¶ gen
ĠGleich zeitig
usern ame
ced ure
ĠImmutable List
ĠArchite kten
Ġqualit ativ
M C
u der
an leitung
am ework
ĠA T
Ġh ielt
ĠL iv
Ġe st
Ġge ometry
ĠAus einander
ON T
An imation
Ġ* =
Ġ5 6
chn ungen
atur en
ĠQu er
ĠPr in
olic ies
ĠQualitÃ¤t s
Ġerfahren en
Ġ", "
dat abase
Ġwert volle
ĠIs rael
ĠFrei will
ĠVoraus setzung
any Id
wirk ungen
ĠUrs achen
ĠApi Exception
ĠBehand lungs
C LI
g u
ĠD OM
ĠG lobal
ĠW en
ĠW eit
ĠL ohn
ĠV ision
and t
Ġl ux
Ġer b
ath ol
ĠRe zepte
ĠVor feld
ST EM
ĠEx t
Ġbet reut
As sert
Ġgef eiert
Ġem bed
ject or
next Token
getC anonical
reib ungen
spe zif
item s
JSON Object
ĠruleJvm TypeReference
lÃ¤nd ischen
ĠOff ice
ziehungs weise
ĠTenn is
3 00
F est
K unden
d pa
f c
u ver
Ġd im
Ġf ont
ĠD ampf
ĠM ission
Ġden kt
Ġe p
ĠIn tens
ĠAn sicht
ack s
Ġwar men
pro zess
fe kt
ĠCh rom
br ig
Ġrequest ed
zent ren
ĠFot ografie
gl Ã¼ck
ĠEuro pe
Ġconfig ure
stat ement
ĠFrank furter
rieden heit
SH A
zub auen
Ġbegr Ã¼ÃŁen
Ġausgew Ã¤hlten
stre cke
ĠSof a
ĠEreign isse
ĠBatter ie
Ġhoh em
subscription Id
R T
h agen
Ġd ialog
Ġn erv
Ġm aster
Ġm Ã¤cht
ĠA rom
ic ip
ĠF ax
ĠT error
om er
ag ent
ĠV ent
Ġth er
Ġge fahren
av i
ste chn
ill ing
Ġsel ben
Ġem ail
Ġde legate
ĠNamen s
ĠNieder l
ĠOrganis ationen
Ġzentr alen
ĠhÃ¶her en
Ġumfang reichen
ĠLinked HashMap
ĠMobil itÃ¤t
El se
spf licht
Ġehr lich
ĠSteu ern
f uÃŁ
k issen
Ġ Ã¶rt
ĠS orgen
Ġh amburg
ĠE OF
Ġc oll
ĠSch leswig
ĠIn sbesondere
Ġaus geschlossen
ĠAn na
ste ig
Ġsp ont
fol gend
Ġgew ohnt
ĠDeut scher
SE D
Ġerst aun
User Segment
Column Name
trÃ¤ ger
fin ally
ĠAud i
Ġverlei ht
irurg ie
P ixel
] ))
g i
z end
Ċ ĊĊĠĠĠĠĠĠĠ
Ġd ot
on te
il i
ĠI V
ĠW att
ot ent
In sert
ĠSt ation
ĠSt op
Ġsch einen
ler in
ĠRe cher
ĠGr and
Im mer
OR DER
ĠBl Ã¤tter
Code c
ĠChar Sequence
usch el
ĠKÃ¶n nen
ĠÃ¼berr aschen
Ac cept
Ġhervorragen de
D ays
a ign
c urrency
g riffen
Ġm ost
Ġf Ã¼n
Ġdie jenigen
il ing
ĠM Ã¼ll
Ġg olden
ab len
ir ma
ĠV orm
Ġan get
ot te
Ġge z
Ġbe endet
per iod
ĠAn leger
ĠArbeit spl
Ġen abled
ĠBew eis
Char Sequence
Ġvers orgt
Address es
Collection s
ĠBel ieb
Ġme an
ĠZentr al
aust ausch
Ġnorm alerweise
ĠgemÃ¼t lich
lehr er
schei ben
ĠVit amin
ĠruleX Expression
ĠAtom ic
Ġrecei ved
look up
Cur ve
eho use
P ending
d y
m ove
m uster
Ġ ei
un a
Ġs etting
ĠS ender
ein heit
Ã¤ be
Ã¤ ure
Ġt ier
ĠM assen
Ġg ere
ĠF eiert
ĠF liesen
ĠK f
Ġc os
ft ige
Ġsch mal
ĠMen gen
Ġconfig ured
mit glied
URL Connection
Ġschle chte
Menu Item
WOR D
, ...
F arb
l an
st ats
Ġs ur
ĠS ituationen
Ġb ook
ĠM auer
Ġz we
ab schluss
Ġh ow
ĠK am
ĠG Ã¼n
ĠW Ã¤
ir che
Ġl ern
Ġge fÃ¼
Ġge ilen
ver arbeitung
Ġsch lieÃŁt
St ation
qu en
Ġget Class
add r
Ġent w
Cont act
Ġro ute
Ġakt ive
ĠBau en
ziel te
ric tion
Ġempf angen
FF ER
ĠMÃ¼n chner
ĠJe ans
ĠGeh Ã¤use
meld ungen
ĠFÃ¼hr ungsk
ĠProduktion s
hei de
ĠErot ische
ĠObj ekte
Ġmoment an
B reak
E P
g ibt
ie hlt
Ġf und
il ar
Ġh ome
ter nen
sch lossen
ĠT ax
ĠT omaten
ver d
ver hÃ¤ltnis
Ġaus ger
ex pr
Ġunter en
pro tocol
ID E
con sume
ĠGes am
čĊ čĊĉĉ
Ã¼hr t
Event Listener
ĠGe gend
ĠMan aged
ĠSex y
Ġwichtig ste
sc reen
Read y
group Id
SER VICE
ĠÃ¼berr asch
ĠInspir ation
present ation
P adding
T ube
d istance
in valid
or ter
is In
ĠV Ã¶
ĠSch lieÃŁlich
pl ied
Ġab hÃ¤ngig
ĠAuf sicht
Ã¼t ze
Des erial
aÃŁ nahmen
urs ive
file Name
Ġrecht zeitig
leb nisse
Ġste igern
apt ure
fle isch
Ġdauer haft
ĠBach elor
Ġbeit ragen
ĠSchmid t
: ");
E inen
e arch
k al
k olle
w enn
Ġn m
Ġw rap
Ã¼ ft
Ġb ast
se y
Ã¶ d
Ġc ertificate
get H
get Header
ĠSch Ã¼tzen
Ġab ends
qu elle
wer de
att formen
ĠKle ink
bet reuung
ĠMag azin
ĠLes e
Ġporn os
Ġbestehen de
ĠFerienwohn ungen
Ġerleich tern
MON TH
WARN ING
C losure
G ef
M achine
b utton
y al
æ ľ
ut ures
Ġg Ã¤ng
ĠT icket
ĠH ub
Ã¼r zen
ĠSt att
ĠSt orage
Ġj o
Pro to
ĠEin stellung
IN TERNAL
sh ake
Ġman chen
uss ion
ant ik
Ġdar stellen
Ġgew isse
sb ach
Ã¶ch er
Error Exception
ĠSte p
ĠgroÃŁ em
Http Client
ĠGener ationen
wohn ung
frei heit
Ġserial ize
ffect ive
full y
D igest
p at
ĠS ollten
Ġn ied
ur able
ĠK etten
ĠW erner
ĠU se
ĠZ weit
ĠVer f
to List
Ġganz heit
ĠKom pon
scheid ung
ux e
best and
ĠHe ad
ĠEigent um
Ġschme ckt
ĠArtik eln
C ENT
G anz
b ig
m essages
p air
r andom
s eiten
re ien
Ġf ailure
ĠD omin
ĠM IN
ĠF avor
sch eine
ĠK Ã¤ufer
ei r
get Table
ĠN ULL
Ġauf geh
ĠZ oo
sp rit
auf bau
gesch n
Ġen able
ĠTr ag
not ify
ĠGeb Ã¼hren
ron en
ĠTra ck
ĠHier bei
Ġkon stru
ĠMet ric
ĠZw ar
ĠPat ient
Ġsec onds
ĠDek oration
dien ste
G ran
c ached
et ern
is Blank
Ġf liesen
ĠK omm
Ġk Ã¤mpfen
Ġk ulin
se ud
ad bach
Ġzu folge
ĠC ocktail
ver antwort
ĠU UID
Ġbe ziehungsweise
Ġso was
du ce
Ġgew issen
Ġ7 00
Ġmod ified
mod ifiers
bet rag
ĠWeiter entwicklung
ĠDat abase
25 6
Ġneed s
Ġme ans
Ġbegr Ã¼ÃŁ
ĠSmartph ones
Ġzeich nen
ĠTre ffer
ĠExec ution
Ġkenn e
er red
Ġs u
Ġn Ã¶r
ĠM Ã¶n
em on
ĠR ow
kt ive
ĠJ u
Ġre placement
sp ring
ehr en
Ġimmer hin
ĠAut omaten
ĠSex kontakte
klÃ¤r t
ĠMehr heit
esonder s
Ġbl ack
ĠMag net
gere chte
ĠSteuer ung
Ġnachhalt ige
ĠZe ug
K unst
S ex
W ei
X text
v ariable
Ġ either
in dern
ĠS ne
Ġun n
ĠD Ã¶r
ĠP redicate
ĠG Ã¶tt
Ġr unden
ĠC oll
ra fen
lo or
Ġso fa
ĠRe kord
ĠAus gleich
gesch ritten
ĠAut of
Count s
Ġlang jÃ¤hrige
Ġlang fristig
ziel le
rat zen
Rel ative
ĠBetrieb ssystem
Ġtechn isch
ĠJob s
Ġbas ed
Gesch Ã¤ft
ĠIS BN
veranstalt ungen
ĠEinwill igung
D iv
F ilename
N one
d imension
g b
g Ã¤rten
h am
y ch
ĠS us
ĠM os
ĠG Ã¼nstige
Ċĉ ĠĠĠĠĠĠĠ
ĠVer st
op es
aus s
Ġtr inken
ak ete
rÃ¼ hren
RE AM
ĠEnt steh
ĠFl aschen
ds m
Ġup load
Version s
Pl atz
Ġverwend eten
Ġq Path
Ġwork space
Ġsele ctor
ĠRein igungs
Ġel ast
Ġinstall ieren
Recei ved
Poly gon
Ġstra hlen
ĠDarm stadt
Ċ ĊĊĠĠĠĠĠĠĠĠĠĠĠ
Ġs ym
is NotEmpty
Ġb ottom
ĠF a
Ġp s
ĠR uhr
Ġauf wend
Ġver standen
eh le
Ġbe arbeitet
ri end
ĠPro vider
ick el
Ġ) {
Ġ) =>
ahn sinn
ĠMon itor
tag es
ma ÃŁen
Ġtrans former
comp ile
ĠCont rol
Ġeinzigart ig
Ġserial izer
ĠPa are
; }
b Ã¶
m k
Ã¼ ht
Ġm c
Ġh elper
ĠT opf
Ġver folgt
ĠAn wendungs
St mt
ĠAr zn
wer fen
fahr zeuge
lÃ¤ uft
ĠProble men
ĠAkt uelle
ĠTher m
ĠSchau spieler
ĠÃ¼berr ascht
ĠkÃ¼r zlich
Ġfetch By
ĠSchokol ade
ĠAccesso ires
Z wei
b etten
d ung
n orm
y ll
er ing
as ource
ĠD ess
ĠM ie
ĠW orten
ĠT iefe
ĠH ut
Ġzu stÃ¤ndig
Ex it
ĠAus gaben
lie ger
RE TURN
ĠKon ferenz
ĠSystem s
ĠClass NotFoundException
Ġclass Loader
Ġse ch
leist e
Ġchar acters
ĠKn opf
sf est
ĠgÃ¼nst iger
arr ier
ĠLoc ation
Ġoffiziel le
Ġmetric s
Pf alz
P K
S M
y ear
ĠM ach
Ġer kennt
Ġ1 10
AL SE
Ġ7 2
ĠTra ce
Ġind ic
mod ifiable
Ġdb c
Ġpf legen
ĠPoly ester
ĠÃ¶sterreich ischen
Z ER
g au
s ig
t ile
t yp
st edt
Ġn ix
Ġg rie
ĠF ertigung
ĠR au
ĠR enten
ien e
Ġex periment
ĠVor gaben
ac c
ĠEx pert
Util ities
Ġzwei mal
Hand lers
Ġbesch reiben
Ġkom ment
Ġgeb rau
gn Ã¼gen
sy mb
Ġgener ic
ĠAlle in
ĠÃ¶ fter
alc ulate
Ġinvest ieren
Ġms gs
Ġeindeut ig
sq rt
ĠAuft akt
C ar
J ahr
W ater
p ow
le kt
ĠD ynam
ĠD okumente
Ġr ufen
ĠL eut
Ġl ater
ĠN u
Ġreturn ed
ĠO ste
Ġam ount
ĠRe chner
ĠVor lage
ĠUnter schiede
Ġgesch ieht
ĠNe ur
Ġsub scription
Ġteil s
Ġinteress anten
EX CE
Ġschl imm
beh andlung
ĠPolit iker
ĠBran denburg
ĠSemin are
aug ht
ĠOt to
ĠKompl ett
Extract or
A ST
J ugend
L ight
en coding
st aben
Ġs Ã¼ÃŁ
or men
Ġun w
ĠK und
ĠK ok
ĠG ipfel
ĠW C
Ġc ookie
ĠH en
Ġl ack
Ġsch Ã¤tzen
Ġab gesch
()) ));
Ã¼n kt
Class Info
Ġwas chen
ĠSpiel zeug
Or iginal
Ġkosten frei
Ġnie mals
druck s
ĠMet al
Order ByComparator
ieg elt
ĠlÃ¤nger e
link s
auth or
Ġwirtschaft lichen
Ġumfassen den
Ġ\" "
ĠRelig ion
' ||(
C lean
a ik
s ichtig
Ã¼ ste
Ġb oot
ĠB R
ĠD ing
ĠF onds
ĠK letter
get Client
get Logger
Ġer zeugt
isch of
ĠZ ivil
ste p
geb ieten
arn ing
geh Ã¶
Ġgenau e
ĠGegen teil
emin ar
Term in
ĠBef est
Ġdan ke
ĠSuch maschinen
Ġfert igen
flat Map
ĠschlÃ¤ gt
ĠGriechen land
? "
A I
A MP
p rechen
Ġ ce
et her
ĠA x
Ġk Ã¼nst
ĠV en
ub en
ĠVer pflicht
set String
ĊĠĠĠĠĠĠĠĠĠĠĠĠĠĠĠĠĠĠĠĠĠĠĠĠ ĠĠĠĠĠĠĉĉĉĉ
ĠZeit schrift
Es cape
Ġstatt f
Ġfr ucht
Co untry
ĠEle ktr
ausch t
ĠKÃ¶l ner
Ã¤mpf er
ĠSter nen
Ġerheb lich
ĠEmpfeh lungen
C oll
C hef
S ig
V P
m es
r Ã¼cken
s u
v ideo
w all
Ã¤ nen
ro le
get Config
ber ge
ĠEr halt
IN K
scha den
ER S
Ġunter b
ĠGr unde
ore ign
rÃ¤ gen
Ġlie bt
ĠUm kreis
ĠFl ucht
serv let
RI GHT
Ġrule ValidID
rec ei
ingt on
Ġdel eted
ĠHo hen
Ġspann enden
It alien
G R
b iert
b eb
d ia
k Ã¶n
Ġs imple
ĠS pon
le ct
re me
Ġb ot
Ġg mbh
Ġh om
ĠK issen
Ġp c
get Children
ĠL as
âĢ ī
ĠJ og
Ã¼ber greif
add Content
ĠAus sehen
geb lich
eth ing
getS ele
Ġsh ift
ĠSh ops
ĠBo gen
Ġlang frist
hol t
Per cent
ĠFlug zeug
(' .
ĠTab elle
Ġme chan
Encoding Exception
ĠbestÃ¤t igen
ĠTran spar
Ġentspann en
ĠUnsupported OperationException
STRA INT
ĠMatth ias
E K
V B
k och
ĠA kte
ĠF ashion
ĠL ind
ed ition
Ex tended
(" ",
Ġwer fen
Ã¼n chen
Ġent deck
iz ing
Id ent
geb Ã¼hr
pro be
ink ten
AT URE
ĠSchw ein
under a
ĠBest immungen
ĠFor st
Pl us
Pl ayer
Ġsol ange
stehen de
Dep endencies
Ġerforder t
ĠÃ¤hn liche
Ġproduz ieren
Price List
Pure Xbase
ĠBetroffen en
F ind
N OR
b raun
f ord
s eller
al ias
ĠB undle
sch Ã¤d
ĠL eb
ĠIn itial
ĠSt ory
Ġsch ein
ang aben
Ġch anges
Im mutable
zeich neten
Ġsh op
ph one
ĠGer ichte
schn itte
') ||
Ġempf iehlt
Ġgener ell
Record s
ehm igung
Ġattr aktiv
Ġauth entication
cas Feat
seit ige
Ġ"' ");
ĠAutor in
Ġvari ables
G oogle
T ick
is Event
Ġi i
Ġt at
ĠB Ã¼nd
ĠH it
ĠL G
ĠN on
Ġver tex
ĠÃ¼ber legen
ont o
ant ic
arbeit eten
teil s
akt ive
ĠFl ach
Ġbek omme
CO D
Ġgeb unden
ĠSpe ktrum
CON TEXT
ĠNutz ungs
Ġtra ck
gÃ¤n gen
Ġq m
ĠFerien haus
Ġdel ay
ĠPort ug
ĠDach beschichtung
Ġbevor zug
ĠZwei fel
ĠBig Integer
ĠRel ation
FO UND
ĠPhil ipp
Ġattrakt ive
ĠRepository Exception
decl ared
G ut
M ac
n eg
in ten
st mt
at o
Ġb unt
ĠP O
um an
Ġc ancel
ĠL ab
ĠN ahr
ver sed
Ġver eint
pe at
Ġsch ar
Ġj casType
ĠBe auty
Ġwe isen
Ã¶ff entlichen
Ġbef est
ĠDes cribe
ĠWohn raum
Ġschle chter
Ġmon itor
ĠKo ffer
Ã¤mpf ung
ĠKrank heiten
Deut schland
B ottom
L i
L ab
M arkt
P UB
b anken
u ht
Ġ å
Ġf ragment
ĠB ron
ĠT ore
Ġth ese
Ġan sprechen
ĠC ell
Ġauf f
Ġver folgen
art beat
En coded
ĠĠĠĠĠĠĠĠĠĠĠĠĠĠĠĠ ĠĠĠ
Ġres pon
ĠNach folger
ĠSpiel tag
ĠBet racht
Par allel
werk s
eign et
zust and
ĠKre bs
Ġreag ieren
ĠberÃ¼hm ten
veranstalt ung
ĠLapt op
K le
c ursor
g riff
s ide
it iert
Ġf ehler
ĠP ots
ĠW esen
Ġan sonsten
St adt
aus gabe
Ġfor dern
ĠRe zension
ĠKl avier
Ġdire kte
Trans l
")) );
ĠMann schaften
ĠPartner schaft
rep ublik
liegen de
Ġjem anden
ĠInvest oren
Ġtradition elle
ĠRat geber
Ġfinanziel le
Ġimplement ation
H ook
H igh
c ancel
v es
al m
le c
Ġv ierten
ĠA part
ĠD Ã¤m
ul Ã¤ren
Ġc ategory
ĠH aben
Ġl abels
Ġ! (
Ar n
Data Set
ĠBer ge
ard inen
Ġgesch Ã¤ft
rank furt
ĠSk y
ĠEm otion
ategor ien
ĠFe ature
ĠDef inition
Ġbas ic
Ġinnov ativen
ĠDokument ation
Ġdiskut iert
Ġaktual isiert
Ġkonkr ete
ĠAkadem ie
ĠKarls ruhe
S ince
f ast
k Ã¼r
w etter
un dern
it sch
al low
Ġun be
ĠD ame
ĠM ord
ĠF akten
um ps
ĠO k
Ġsch aut
od el
up per
Type Parameter
ĠPro gramme
Ġex ternal
Ã¶ff el
Ġgel Ã¶
Ġro l
ister ung
Ġcom ment
gem Ã¤
zieh bar
ĠTechnik en
verband es
Ġwissenschaft lichen
agnost ic
Ġtran spar
ĠVorsitzen der
ĠPerspekt ive
E st
O ld
P G
V iable
ein igt
Ġb ranch
ĠF ont
ĠP ubl
Ġc ast
end ent
ĠIn stance
Ġtr end
Ġ' :
EN ABLED
ĠBer ichte
čĊ čĊĠĠĠĠĠĠĠĠĠĠĠĠĠĠĠ
ĠHaus halts
ĠPar ser
opp ed
ĠBesuch ern
other apeut
Ġkompl etten
Ġeinge fÃ¼hrt
ĠTrans fer
Socket Address
initial ize
person en
ĠberÃ¼hm te
ĠSchwier igkeiten
EXCE PTION
Viable Alt
C redential
T ables
W ild
d ialog
f eier
g reifen
p red
z essen
Ġi OS
Ġt iefer
ĠB an
ĠD A
get Service
ĠR ange
Ġ1 30
ĠSch icks
Ġaus sieht
Ġsch licht
ĠFre m
rem aining
ĠBet rag
deut schen
Ġmin im
ĠCom put
Ġabge geben
isse ur
cry pt
top ic
ĠSeb astian
F inder
H z
c ause
Ġd avor
ĠS end
ĠS uchen
ge ist
ĠD iv
ĠM all
ĠM uss
Ġh ieÃŁ
ĠP y
sch on
Ġc r
ĠR uh
ĠV f
Ġan zub
Ġre ct
ĠAn bie
lass ung
Ġex ample
Ã¤r chen
ĠAb schnitt
gel Ã¤nde
Ġpl ay
Ġad just
getD ocument
Ġchild Node
======== ========
ĠBot schaft
ĠModern e
ĠSeg el
Ġmobil en
Bal ancer
OFF SET
ĠBy tes
ĠElektron ik
sett ings
ViableAlt Exception
V A
Ã¼ ro
is Not
am pe
ĠM ast
ĠM agen
ut schen
ĠK assen
ĠH all
ist ischer
Ġan ger
En ergie
ow ner
be kleidung
schl uÃŁ
pf e
ĠJahr gang
arbeit ungs
Ġger ufen
Ġange meld
gem acht
eid ung
euer ung
mar ken
ĠDi ffer
ĠHttp ServletRequest
Oper ations
ward s
ĠHT ML
gefÃ¼ gt
Ġverlang t
ofil me
Ġgrie ch
P LA
b rÃ¼
f rÃ¼
s ocket
Ġ ĊĠĠĠĠĠĠĠĠĠĠĠĠĠĠĠ
an schluss
ĠA th
ĠF Ã¼ÃŁe
Ġk omm
ĠG lob
ĠH alte
ad min
Ġst ation
Ġst Ã¤dt
gen Ã¶ss
Ġj ugend
und et
(" ");
Ġent scheidet
ĊĠĠĠĠĠĠĠĠĠĠĠĠĠĠĠĠĠĠĠĠĠĠĠĠ ĠĠĠĠĉĠĠĠ
Ġch at
Ã¼t ten
ĠGesch enke
ĠFl or
Ã¼nd ete
Ġall zu
TE MP
ĠPr im
Ġbel ast
gehen de
200 8
ungsver fahren
War um
Hol stein
. Â«
D ollar
H K
K urz
P rÃ¤sident
b aus
f on
Ċ ĊĠ
Ġs em
Ġs orted
Ġn en
Ġn ahmen
Ã¼ pfen
Ġp o
Ġp erman
ĊĠĠĠĠĠĠĠĠĠĠĠĠĠĠĠĠ ĠĠ
ĠC ore
Ġver teilen
In stitut
ĠO fen
ĠO ther
pl Ã¤tzen
Ġab gel
ers atz
Ġex it
ĠRe volution
LE FT
Ġro te
has en
dition al
ĠMann heim
ĠChar me
Ġtra fen
ĊĠĠĠĠĠĠĠĠĠĠĠĠĠĠĠĠĠĠĠĠĠĠĠĠĠĠĠĠĠĠĠĠĠĠĠĠĠĠĠĠ ĠĠĠĠĠ
ĠTrans former
init i
ĠWand el
Common Tree
umer ation
Ġgetr ennt
ĠgrÃ¼ nen
? )
? âĢľ
E G
H ub
g nung
i ben
w irt
ein s
ĠM ama
Ġver boten
In struction
oo per
ip ment
ĠAl p
Value Pair
class es
inter val
ĠKon sequ
ĠTeil nehmern
ĠPart nern
Int ent
ziel l
Comp are
ĠKn ochen
vis or
Ġinner e
item ap
Matrix RM
ĠvielfÃ¤lt ige
ĠHT TP
ĠErschein ungs
ĠHallo ween
ĠVerpack ung
MatrixRM aj
T icket
k ra
k op
Â ©
Ð ĵ
ein heiten
Ġi con
Ġb ra
Ġein laden
ĠF ac
ĠI l
ck len
ĠR Ã¤
ess aging
kt op
os m
Ġvor ab
Ġle uchten
ant ics
ĠVor schriften
of ern
riv e
Ġkein em
ĠWe is
ĠLie ben
Ġse q
ĠBÃ¼ hnen
Ġgl as
ĠGroÃŁ britannien
Ġspec ial
Ġkre ative
Ġdur ften
Ġregion alen
ĠPosition en
Ele m
solv enz
T ri
b its
d raw
k uchen
Ã¼ ch
Ġein heit
ĠB rit
ĠD et
ĠP os
ĠH ex
Ã¶r g
zeit ung
schie ben
Index es
ĠSpiel s
Ġlog in
SE VER
ĠBew usstsein
ĠInternal Xtext
Ġschl afen
Ġcontent s
Ġvertr au
bahn hof
Ġauth ent
ĠAlltag s
ĠAuftrag geber
ĠKo alition
Ġliebe voll
ĠGottes dienst
ĠErgÃ¤n zung
ĠRegistr ierung
l ayout
p aar
st iegs
ĠS yn
le uchten
Ã¼ de
Ġein sch
ĠM ahl
hr ase
ĠT ob
ach im
ĠL abor
ĠR eiter
Ġbe zogen
ĠSch rank
ĠVer teid
Exception s
qu id
auf e
ĠEin er
Ar r
ĠTh em
Ġange legt
Page Async
18 0
Gr uppe
ĠMÃ¤r chen
ĠUrlaub s
Ġwirtschaft liche
Single PageAsync
ĠChem ie
____ ____
Pack et
Ġitalien ischen
ĠGastron omie
Ã¼cks ichtigung
OutOf Bounds
B EL
M F
t n
} ?
Ġs afe
Ġm illis
Ġb ereich
am pen
lo gen
Ġbe arbeiten
Ġbe zieht
Ġdes cribe
Ġman ifest
ob lauch
[] ,
ĠBe zeichnung
ail le
ges ellschaften
att el
Ġat ember
ĠDu isburg
ĠCon sumer
Ġfest stellen
ĠMo jo
produ kt
Ġvertr auen
valu ator
ĠRegen sburg
Ġoper ations
Ġsan ft
Ġdeaktiv iert
4 00
L in
M ill
W atch
f aser
es p
it r
ĠS O
Ġt rock
Ġh undert
ol fen
Ġc ollect
ĠN ation
ĠN ormal
Ġver spricht
En velope
Ã¤t sel
ht able
ain ment
ĠHer mann
sb eg
ĠKon text
Man ifest
Ġresource Name
CON STRAINT
Ġopt isch
ĠTem plate
ĠLieb ling
sequ ence
Ġerk annt
Recei ver
B uch
V EL
W erk
g ast
m ein
ĠS eil
Ã¼ he
ro ute
ĠK lient
se kten
um ulator
us sten
Ġzu gelassen
Ġge fÃ¼llt
ĠZ y
ĠSt urm
ste cken
Ġle gte
ĠAb wehr
ant es
Un expected
ĠGes ang
Ġkosten g
ommun ic
And Get
ĠForm ul
cept ors
abil ities
ĠHam mer
ĠProf is
ungsk osten
iden ce
Api Exception
Ind ices
ĠfrÃ¼her en
ĠÃ¤lter en
Ġstru cture
Ġfinanziel len
Ġdefin iert
Chr ist
Ġser i
ĠBÃ¤ cker
SPE CI
ĠDemokrat ie
F L
P ipeline
f ache
k art
r ier
r ick
Ġ ĊĠĠĠĠĠ
ĠS ext
ĠS egment
ĠB A
ĠG B
ĠT R
ĠH orn
ist an
Ġre ine
Re place
Re ferences
Pro blem
Ġpro cessed
An alysis
arm a
Ġcall er
ĠGef ahren
spro zesse
Target Exception
Work place
ĠWerk zeuge
Ġheraus ragen
Ġverk n
ĠFe edback
ĠKat ze
ĠKomp etenzen
Ġdre ht
Ġhei ÃŁe
Ġtyp ischen
ĠvielfÃ¤lt ig
gestell te
ĠSign al
Ġelektron ischen
ĠberÃ¼cksicht igen
ĠðŁĺ ī
sprÃ¼f ung
D ank
w achsen
Ã Ń
et r
ĠS ant
ĠS CH
Ġn ehme
Ġb aut
ut her
get Tag
ot ype
ĠN Ã¤h
ĠSch ein
ĠSt ick
ĠSt uhl
ĠVer t
oo se
gr au
ĠBe ach
ari um
Ġstart ete
Ġgeb ucht
Ġsol ution
Ġ199 7
ĠKind heit
QU O
Ġeurop Ã¤ische
Art ikel
ĠGraf iken
ĠQuart al
Beg in
ĠMusch i
D rawable
I LED
M Bean
P ush
d irectory
n ote
ĠS ar
ur se
ro ke
Ġg Ã¼lt
ĠF ra
ĠP otenzial
ĠK ammer
ĠT ieren
get Un
get Item
get Format
ber uf
ĠV oid
ĠV irtual
Ġer zielt
Ġst immen
ed ig
ft igen
ĠSch all
gr Ã¶ÃŁen
Ch anges
ĠPl ugin
ĠEx empl
OR Y
ĠGew erk
zie her
Ġerw eiter
Rec ognitionException
Ġass ignment
Ġexp and
ĠFern seher
ĠEmpf ang
Ġmensch lichen
izz a
X Y
t isch
Ġs ip
Ġn ackte
Ġin st
ĠD ol
sch ild
ĠI C
ĠT ry
Ġc riteria
get As
ĠC lose
ot els
ĠJ ens
sp itze
Ġget Property
ĠReg ister
Method Exception
ĠmÃ¼s se
ĠKle inen
schlie ss
Pl ay
And Set
ĠKn ie
Tree Node
ĠSal at
jahr es
Ġspec ific
Ġgrund legen
Ġstar ted
Ġrad ius
ĠPerspekt iven
gehÃ¶ rige
M ann
f els
w oche
Ġd etail
Ġf einen
ĠP riv
ĠP ension
ĠK alk
() -
Ã¶ bern
ĠW ass
âĢ ĭ
Ġver schl
ĠSch ild
pl er
her z
Ġ5 3
Ġ5 4
AT TR
ĠPl ak
sb l
erm aÃŁen
Time Zone
>> ();
ĠGeb raucht
ĠNeu igkeiten
haf ter
Atom s
Ġdat ing
Ġvertr aut
Ne ue
Ġsele ction
ĠBef rag
ĠVertrag s
ĠMerk el
Bund ler
ĠZÃ¤ hne
f arb
h off
s leep
Ġf Ã¼hl
sch rau
ag o
eg t
Re lease
ĠEr folge
Ġthrow able
Ġpro c
sh ould
af ka
Ġen um
sc an
ĠNov oline
Gr idBagConstraints
ĠMehr wert
ĠGeh irn
zub ilden
dat um
dis ziplin
ĠMerk ur
kÃ¼ che
Composite Node
Recover y
Ġstet ig
> =
E W
F G
F rÃ¼
a id
f i
č Ċĉĉĉĉĉĉ
Ġer mittelt
ĠJ ac
ĠZ er
Ġab b
we ilen
wer fer
Ġber uh
ock ey
ĠUm stÃ¤nden
Ġgesch ickt
sam t
Ã¤nger ung
pos al
ĠHoch schul
ĠLog ging
ĠMet rop
ĊĠĠĠĠĠĠĠĠĠĠĠĠĠĠĠĠĠĠĠĠĠĠĠĠĠĠĠĠĠĠĠĠĠĠĠĠĠĠĠĠ ĠĠ
Ed ges
ĠFÃ¼hr er
Ġentscheiden d
bef inden
ĠBek annt
Ġmedizin ische
ĠJur y
ĠBelast ung
Ġentsp annt
ĠsorgfÃ¤lt ig
Ġunkompl iziert
? !
S ame
S CHE
e isen
m ask
n di
al ar
Ġb uch
Ġz us
ĠT auch
get Row
get Attributes
ĠH allen
Ġl ib
ate x
Ġan notations
ĠC ol
ĠJ s
th op
ĠAn erkennung
Con sum
we ichen
inn e
Ġgel aden
Resource Exception
Event Type
ĠGrund schule
Ġverb esser
Ġerw achsen
Ġkl asse
erial ize
ĠFr isch
Ġwunder bare
vest er
stud io
ĠKrÃ¤ fte
Ġheim ischen
Ġkomfort abel
Ġbericht ete
ĠAustr alien
; ");
L aut
S ibling
V ol
f amilie
k rit
w d
st aat
Ġn ette
Ġf uhr
ĠD os
get InputStream
ĠL enk
ĠR ol
ĠC ross
Ã¤n omen
Ġab ove
ĠAr gument
pro gress
bar ten
Ġ5 8
ĠUnter lagen
Loc ator
Ġbew ir
ose d
ĠÃ¤ uÃŁ
Ġjeweil ige
Work flow
ĠInternal PureXbase
method Name
NE W
column s
Ġersch ien
ĠHei zung
FER ENCE
ĠlÃ¶ schen
Ġbewert et
OutOfBounds Exception
a al
f indung
i j
Ġi Pad
Ġb al
ab rik
ĠL y
Ġl et
if orn
Id Or
ĠReg ierungs
DE D
Ġgel ieb
bu cket
ĠKom bin
write Int
ret val
Fl ush
ĠRed aktion
Ġerken n
IF C
cap ed
ĠTrau er
ĠVorsitzen de
ĠHeid elberg
ĠJes us
ĠKup fer
wies o
geschn eider
isEvent Enabled
L ow
N ow
P at
S ing
d ot
m aster
w el
st ufen
Ã¼ pft
Ġm ail
Ġt our
ĠF Ã¼nf
Ġp ointer
ĠR ent
ĠV o
Ġe chter
Ġj ur
ug gest
ĠAuf stieg
Ġfin ish
ĠBer Ã¼cksichtigung
pen den
ĠÃľ bung
net work
kon om
druck t
hei zung
ĠOut fit
ĠInternets eiten
ĠJava Script
SECON D
Register ed
ĠSymb ole
A ware
D eg
G eh
T OP
p m
r ufe
s ult
ĠS old
ge kommen
Ġf ac
Ġin teger
ent ries
ĠD oc
ĠM ang
ĠM Ã¤d
ĠF low
ĠE JB
Ġk ar
Ġk op
Ġk athol
ĠW arte
Ġc ipher
get Response
Ġo hn
kt rom
Ġbe ster
Ġbe legt
ĠJ ak
ĠIn solvenz
men gen
men ted
ahr er
En v
ĠPro te
iz ei
Ġfor ward
Ġsp Ã¼ren
par te
lÃ¤ ger
Trans fer
ĠSport ler
ĠBeh inderung
Ġunterschied licher
Ġkn own
Ġresol ver
ĠVerkauf s
ĠÃĦr mel
ĠTÃ¤t igkeiten
Di ffer
Sol ution
ifer ay
CONNE CTION
B ilder
S ide
p il
p oll
w in
Ġ ul
Ġd t
st Ã¶rungen
ĠP L
ĠP eters
ĠW riter
ck ar
im ap
pr imary
Ġon ce
ĠEx press
Ġ6 3
ide e
Ġor ig
Ġbet reiben
mb and
Method Name
ĠOn ly
lei h
Ġpath s
Ġbesch Ã¤d
User s
fre unde
ĠService Response
ĠCo uch
Ġoffen sichtlich
Ġerfolg te
ĠDi agnose
ĠGegen wart
Act ual
exec utor
ĠAf rika
fin anz
ĠwÃ¼n sche
mon itor
Red irect
freund lich
ĠStad tr
Ġdah inter
schei be
Ġschrift lich
ĠÃ¼berprÃ¼ ft
ĠKonfl ikt
Ġfollow ing
P eer
c ut
Ġd icke
ĠS un
ĠS auna
Ġein ver
ĠW illen
Ġe ven
ĠC ertificate
ĠN ike
ĠU I
ĠVer mittlung
ĠEr zÃ¤hl
Ġtr at
ac count
ĠGesch irr
erm ann
Ġmein te
Mod ell
land s
ĠBr Ã¼cke
Ġall gemeine
Dec oder
ĠBuch ung
bl Ã¤tter
ĠSchn Ã¼r
OL D
spro jekt
ĠhÃ¤uf iger
ĠhÃ¤ufig sten
leucht et
Ġmorgen s
ĠVerk Ã¤ufer
Associ ation
Ġleit et
ĠAsy l
) -
D ienst
M ass
b c
c orrect
n achtung
v s
z elt
Ã¤ ppchen
ĠB om
ĠB Ã¤ume
ĠD ER
In jection
pe ek
Ġre ason
ĠVer schlagwortet
ak ult
ĠSp ass
Ã¤r zte
ĠEn ts
Field Name
âĢ¦ .
Ġkl appt
Exec ute
ĠCo ver
Ġfr Ã¶h
ĊĠĠĠĠĠĠĠĠĠĠĠĠĠĠĠĠĠĠĠĠĠĠĠĠĠĠĠĠĠĠĠĠĠĠĠĠĠĠĠĠĠĠĠĠĠĠĠĠ ĠĠĠĠĠĠĠ
getClass Loader
filter ed
NO WN
Ġwork er
ĠGewinn e
sa al
Rad ius
ĠQual ifikation
ĠNachbar n
Ã¼st et
Editor Kit
Ġmedizin ischen
ĠFarbt on
ĠHon ig
Che cker
B rowser
E valuation
M ich
S icherheit
p anel
p assung
z Ã¼nd
ĠS ich
ein igung
is es
Ã¤ usch
ĠE ffizienz
ĠV in
Ġst elle
ĠVer wand
En glisch
ug eln
enn er
ak u
los es
Ġ6 2
Ġbek ommst
Ġverb reitet
ĠClass ic
ĠHier zu
press um
Ġgute m
UP DATE
ĠCar l
Bas ed
Ġwissenschaft liche
Ġattrakt iven
Ġkonzentr ieren
ĠRub rik
Mer ge
c os
d iff
p ause
p umpe
ro g
Ġt isch
ĠB ull
ĠD ub
de burg
Ġg old
Ġg laub
tr igger
ĠF ell
ĠT I
ir ge
ĠJ acke
ĠSt imm
ĠSt ufe
ĠDie sen
Ġget Resource
aus stellung
Ġtr ag
ĠAl arm
br ett
sw ahl
Ġweit gehend
ĠNeu en
Ġverl Ã¤nger
ĠEner gien
ĠKr ist
Ġbed anken
Dat ei
ĠIf c
Ġblock s
Bet rieb
Bus iness
ĠTrage komfort
ĠSympt ome
YE AR
H D
M X
R unnable
k at
n b
n utzung
ĠB ass
ĠW Ã¤l
ĠW alter
ĠR as
ĠC up
(); )
ĠJ S
oo led
Ġto String
ust ik
ĠVor gÃ¤nger
ĠAuf kleber
teil te
Ġgr id
sb urger
Ġ6 8
Sch Ã¶n
ref s
Ġlang weil
Pre ference
ĠWett kampf
verein s
Ġstud ierte
drÃ¼ck t
COL OR
Ġev tl
ĠChem nitz
ĠSim on
ĠCor por
ĠHighlight s
RES ULT
ĠIdent itÃ¤t
Ġmaxim ale
ĠSpec ial
isNull OrEmpty
ĠerlÃ¤ut ert
ĠTrep pen
e per
f as
p unkten
y wood
Ġd oppelt
un chen
re ckt
is ser
Ġt raf
ĠM ex
em ark
ĠE ich
Ġk unden
get Configuration
ier st
Ġer richtet
end el
.. ...
Ġtr ust
Ġpro gramm
ER Y
ĠAl li
Ġle id
Ġgen annte
out h
gesch windigkeit
Ġen ger
Ġwith in
ĠDe cke
Ġsol ch
Am ount
akter ien
ĠPrÃ¤ z
Ġkre ativen
ĠDein em
ĠRicht linien
ĠBege isterung
SY STEM
f etch
k Ã¼hl
st immen
Ġw Ã¶ch
ĠE C
ĠP KW
ĠG T
ĠG PS
Ġp oten
Ġp raxis
get Error
ĠL ippen
ĠR untime
In voke
end lich
Ġab ger
Ġex ternen
omm ern
final e
ĠUm frage
str ich
Inter faces
Ġas ync
Pl atform
ĠFach bereich
ĠBeg r
point s
Ġother wise
Ġbed ruck
Ġste cken
Ġgeeign eten
getR aw
table Name
tim estamp
Ġgegeben en
Ġmen u
Ġbem er
plic it
Ġausges prochen
ĠBedien ung
Const s
C tx
P riority
T un
c ar
e ck
f ot
m apping
w indow
re uer
el ung
Ġw ollt
Ġb ayer
ĠB atch
ĠM eist
ĠK licken
ĠR Ã¤umen
Ġe uer
Ġer lauben
ĠSch aum
ĠSt aub
Ġum zusetzen
be arbeitung
ĠEn tert
Qu alitÃ¤t
Ġ5 1
ĠPl Ã¤ne
sb ild
>> (
getS c
Ġdire ction
ĠMan chmal
Ġ199 5
Warn ing
DB C
meister schaft
verstÃ¤nd nis
gesetz es
ĠBal ance
nehm ung
Ġbreit es
ĠBeteil igung
Ġbun ten
beweg ung
ĠThÃ¼r ingen
T ele
s ive
ch ef
au gen
Ġn amed
ĠM B
Ġk ir
ĠW icht
ĠW rite
ĠT YPE
get Record
get Its
Ġr asch
Ġan n
ap ier
Ġauf t
Ġso wieso
pl iance
Ġent tÃ¤usch
be eren
fl Ã¼ss
Ġwe ichen
Ġ6 6
str en
Ġgegen seitig
ĠÃľber setzung
Ġbet ont
With out
lÃ¤ ub
Ġseit dem
ĠFot og
ose x
ĠRes pekt
ĠKn oblauch
ĠKar ne
getB oolean
Bound ary
ĠSpezial isten
rÃ¤nk ungen
ĠBege gnung
Big Integer
ĠVerm ieter
Opt im
ĠSa al
//////// ////////
Ġumfass end
iag ra
% .
8 00
H aben
M icro
N et
t al
ä »
et he
ĠB ars
il ation
ĠP oker
ĠL ow
ĠO hren
Ġre chnung
row n
lt Ã¤
ĠRe ader
Ġman y
ĠEn gine
ĠLe on
ĠEx port
ĠEx istenz
ĠFre ist
ble iben
ĠSchn eider
<?> []
Ġbrau che
ĠLiefer anten
ĠHo sen
ĠVerl etzungen
ĠStandard s
Ġkleiner en
ĠkÃ¼ mmer
ĠInputStream Reader
ĠWohl befinden
Ġsorg te
ĠCre me
ĠErinner ungen
Ġreag iert
ĠRÃ¤um lichkeiten
P rivileged
S eries
U sing
m ay
s icher
z a
in st
Ġn ested
Ġw ahre
Ġ( {
Ġc redentials
get Properties
ĠSt ack
Ġj Ã¼d
ĠVer zeichnis
Ã¤t tern
ĠEr kenntnisse
zen te
iz ierte
anz t
Ġbet rachten
Ġgeh eim
ĠÃĸ k
Ġclass path
recht lichen
ĠGro ss
ĠFil es
ĠCo aching
ĠRÃ¼ck seite
ĠInd ien
Ġexp ect
ĠAs sert
FOR M
empty List
Ġerk unden
iol ation
Ġexklus iven
irc uit
ĠÃľberrasch ung
A uÃŁerdem
B I
W ritable
a o
b b
b ahnen
d h
l ab
Ġd icht
Ġt reiben
ĠM achen
Ġh Ã¶r
um or
ĠL aufen
Ġe uren
ot to
Ġge kenn
ri pt
all tag
sh ilfe
ĠRe chnungs
Ġ) ,
me chan
fl ags
ĠEx tension
Ġ6 1
Ġger ingen
Ã¼h ler
ual isierung
Ġsc anner
ĠHttp ServletResponse
MS G
HE IGHT
ĠOl iver
ĠMeer es
sing leton
Ġletzt es
.:.: .:.:
ĠArzn eim
( {
S ources
c ookie
k as
l iferay
v iertel
ie hen
Ġs ide
re men
Ġw ien
Ã¼ ben
Ġin cl
Ġ{ @
ĠT urm
ĠC ann
Ġver Ã¶ffentlichen
id entifier
ĠO S
Ġaus gesch
sp ark
ĠUn garn
Ġum gehend
app y
Ġdurch ge
ĠGr uÃŁ
fÃ¼ hlen
Config s
back en
Not ify
Ġerw art
Model Element
Ġtrans ition
mit ten
Link ed
ĠWeiter en
PO INT
Pre ferences
Ġbegr enzt
Ġregion ale
CHE CK
ĠMotiv ation
#### ####
Techn ologie
ĠDipl om
Configur ations
ĠInstitution en
ĠGep Ã¤ck
F ranzÃ¶sisch
G it
d im
d uration
o zi
p ten
en ario
st iefel
Ġs ach
Ġw on
Ã¤ le
Ġt uple
ĠM tas
Ã¶ ck
ĠT i
Ġc ard
ad resse
ed it
ĠVer stÃ¤r
set Max
her it
ĠAus rÃ¼stung
igkeit s
Ã¤ch eln
Field Seq
ĠIntern ationalen
cont roller
type Parameters
ian a
Ġbeh err
ĠMath ematik
Per formed
Cl azz
Check sum
Ġtradition ell
Aud io
. Â»
k reuz
s per
s aison
z onen
å Ń
er a
un ken
Ã¼ me
Ġm is
Ġh a
tr ainer
ĠP in
get Size
ĠV i
ĠO ver
ĠSch rauben
Ġum so
iele feld
amm ern
ĠEnt wurf
ĠWie sen
bl ut
Ġwichtig es
amer ika
spro du
ĠTest s
ee per
Ġinitial ized
iden z
Ġdep th
Ġdre h
Ġstud ium
stud ium
Rad io
ĠErsatz teile
lÃ¤uf ig
liefer ung
L eg
T our
b log
un ion
au x
ig ar
em ail
ĠE igentlich
ĠI slam
ul ette
ĠL ayout
ĠV R
Ġ" :"
lo hn
ĠZ one
ĠIn stant
Ġum gehen
... }?
ac ted
Ġlie st
AL O
Or ganization
Ġind ustr
des c
ĠGeschÃ¤ft sbedingungen
sc ore
IL D
kont o
haupt stadt
ĠPass form
ĠHeil igen
Ã¤cht nis
Ġarbeit ete
ĠKlass ik
pre ch
ĠInt elligen
Ġev t
Ġecht es
ĠDefault EditorKit
Ġren ov
HO UR
Prev ious
tok oll
ĠYou Tube
Ġrob ust
Typ ed
Ġnamen s
ĠgelÃ¶ scht
F uÃŁ
R oles
p ayload
s hal
t ics
Ġ `
st ad
an ode
Ġs ynchron
ĠS S
ar ien
Ġn a
Ġb ug
ĠB O
ĠD Ã¤n
ĠM iss
ĠP atch
Ġk Ã¼nft
Ġzu kunft
ed y
Ġauf gestellt
Ġver ring
ĠJ ames
Ġwar me
itt ag
Ġwas ch
Ġger inge
Ġ20 20
cript ors
ĠIllegal AccessException
arch iv
Ġgest iegen
Ġkurz fristig
ĠChar set
close d
ĠDi am
Cl ub
sm Ã¶glichkeiten
Json Object
ĠFreund schaft
ĠStre et
Ġdre hen
ĠBern d
ĠGesetz es
kur se
Ã¤rt ner
ĠEisen bahn
ĠDeck el
Encry ption
ĠBlu etooth
ĠTepp ich
/ "
n Ã¼tz
ã Ģ
un modifiable
ĠS TR
Ġein drucks
om an
Ġver arbeiten
Ex tra
ĠAn gehÃ¶rigen
tern ehm
Ġex act
Ch art
act ivity
Ad ded
KE T
Ġgener ator
Ġbed ienen
ĠDienst leister
Ph ase
Ġserver Name
Ġflex ib
number Of
ĠBaumw oll
schaff ung
Ġkonzip iert
> ());
B eta
d st
t ain
it o
Ġs ample
Ġm otor
Ġb oden
Ġein stellen
ĠF ix
ĠF ranzÃ¶sisch
ĠP utz
ĠK as
Ġp otent
ver lauf
end or
Ġre gex
ĠSt ars
qu art
Ġex akt
... ");
EN UM
ucht isch
>> ,
Ġsh ared
ized Message
richt ungs
ĠGe ometry
ĠMan fred
ctor ies
Ġret ten
Ġfest ge
Ã¼l lt
Job s
ĠVerfÃ¼g barkeit
Ġgl att
Ġele m
ĠTo il
led ge
Ġspiel er
ĠPal ette
ĠStoff e
ĠKlass ische
grÃ¼n de
ĠWasch maschine
oler ance
CRE ATE
aris on
ĠWeltkrie g
Ġangef angen
cklen burg
B in
I B
Q NAME
Z iel
c lean
le uchte
Ġf ixed
ĠB ilanz
ĠM utable
lo aded
auf nahmen
ĠAb stimmung
rem ium
Ġwh ether
zw ungen
Ġcom pleted
ĠCms Exception
Ġteil te
char s
weis ungen
system s
Ġstring s
ĠPfl anze
Ge gen
Ġangeboten en
ĠPrÃ¼f ungs
ĠkÃ¼ che
ĠResult Set
ĠUl rich
Akt uell
ĠWol ken
ĠBras ilien
ĠRect angle
C ycle
D ictionary
F ALSE
N anos
S pl
b ond
e ffizienz
f ine
k assen
k ulturel
n odes
t a
t z
v a
ie h
Ã¤ ule
ĠF inn
ĠE ch
ĠW Ã¤nde
ĠL etz
ĠL angen
ass oci
Ġl ess
Ġe DataType
Ġver teid
ĠAn ruf
Ġget Log
ett el
ĠOr gel
ĠX X
unter such
getS ystem
Ġfol gte
zug s
Ġverl iert
bet reiber
FF FF
mÃ¤ÃŁ ige
sel ben
bin ed
ĠLauf zeit
ĠHel mut
ĠWirk lichkeit
Ġed it
Ġpre vent
sn ab
Ġherr scht
Ġtrain ieren
Ġmusikal ische
ĊĠĠĠĠĠĠĠĠĠĠĠĠĠĠĠĠĠĠĠĠĠĠ ĉĉ
Ġbere chnet
Hex String
L C
N ee
S F
S id
l ayer
v c
Ġ Ã¤r
st unde
ĠS eh
Ġm ac
Ġf ragt
ĠG i
Ġim pl
eh in
iv ot
(" </
Ġum geben
iz itÃ¤t
ord nen
Ġgesch ichten
ĠFahr zeugen
mod ified
FA IL
Ġass ign
Ġdr Ã¼cken
Ġnumber Of
ĠEt ik
Ġterm in
Ġhal be
agnost ik
ĠStiefel etten
ctr on
ĠMom ente
( ()
2 000
D an
K an
M ultiple
m ord
ir a
Ġer setzen
ĠZ ertifik
ex isting
Ġget String
ĠGr Ã¼ÃŁe
ĠIm port
Ġviel mehr
sb est
ek tion
ĠSh irt
rat et
ĠEl ast
ĠSpr ing
ĠForm el
Provider s
ĠFrÃ¼ chte
Produ kt
ĠPass wort
Ġdep loyment
hel fen
ĊĠĠĠĠĠĠĠĠĠĠĠĠĠĠĠĠĠĠĠĠĠĠĠĠĠĠĠĠĠĠĠĠĠĠĠĠĠĠĠĠĠĠĠĠĠĠĠĠĠĠĠĠĠĠĠĠĠĠĠĠĠĠĠĠ ĠĠĠĠĠĠĠĠĠĠĠĠĠĠĠĠ
Ġries ige
Span isch
ĠgetP ersistence
Price Entry
Grad ient
ĠMount ain
) ?
B el
d river
l Ã¤ndern
n ischen
Ġn ecessary
Ġf n
Ġt w
il y
ĠP otential
Ġk lin
ĠG ymnas
() ]);
ĠT rÃ¤
Ġp unkt
ĠH eb
Ġer zeugen
Ġsch arf
ran ten
ĠRe v
Ġber eiten
Ġbest ehend
Ġneue ste
Ġqu er
ĠDes wegen
ĠPf anne
ĠÃĦ hn
Ġwenig stens
Get ter
Ġ199 6
arb on
med iate
ĠSan ierung
Ġmen schen
header s
Ġtim er
hard t
PAT TERN
Ger ade
kret Ã¤r
ĠFab rik
Ġerled igen
Ġnachfolgen den
ĠlocalVar ReturnType
ĠÃ¼berrasch end
ĠEntsteh ung
A xis
B esonders
E ben
P aint
V olume
b ine
g asse
h ier
l ib
z eile
Ġd ue
au ung
is ation
ur teilung
Ġ} )
ĠF ritz
ter min
ĠK Ã¤lte
ĠG olden
Ġr m
Ġl uft
ĠC ookie
Ġst ehe
Ġ" )");
men u
ern el
Ã¤n glich
Pro gram
Ġunter liegen
Ġunter scheidet
Ġind ire
sf eier
Ã¼b ung
ĠLei b
ĠSw iss
gesetz ten
Ġheut ige
Ġerf asst
yth mus
Ġrelation ship
ĊĠĠĠĠĠĠĠĠĠĠĠĠĠĠĠĠĠĠĠĠĠĠĉĉĉĉ ĉĉ
Ġverab schied
ĠTranspar enz
A f
E U
K r
Z entr
e ver
m orgen
p le
r Ã¼cke
æ ķ
or Else
re at
Ġun ivers
Ġn ationalen
Ġm Ã¼h
am i
Ġ( -
ĠM eg
ĠM ilf
ĠE F
ĠP RE
ĠG R
Ġp anel
Ġc n
ĠH P
ĠH Ã¶l
ind lich
set Type
Ã¶n t
ĠÃ¼ber sichtlich
Re gex
Ġget Instance
Ġgew achsen
ph abet
ĠBest seller
Ġbew Ã¤lt
Mit arbeiter
laub nis
ĠNatur schutz
ĠKontakt formular
ĠFe atures
Ġtask s
ĠVolk s
Ob server
Ġel f
Member s
ĠMedik amente
MAR K
argument s
zule gen
D N
D anke
Ġ ĊĠĠĠ
Ġn Ã¼tz
Ġb order
ĠA c
Ġt ail
em ann
ĠK osmetik
se ek
ĠG Ã¼ter
ĠSch atz
Ġsch ien
eg el
Ġres pekt
Ġex klusive
Ġsp Ã¼r
Ġ' {}
Com pletion
ĠSe en
Ġinner en
boolean Value
ĠSchÃ¶n e
ĠPsych otherapie
Ġgesetz liche
Ġhal ben
ĠErkrank ung
ĠSum me
strahl ung
Rep lication
I MP
N ER
j ugend
r essen
z liche
ĠS U
le hre
re quired
Ġm ix
ĠM ari
Ġz one
ab eth
Ġh alte
ĠT eller
Ġp ipeline
Ġzu geschnitten
Ġan re
lo p
Ex ample
ĠZ ertifiz
ĠO N
Res pon
gr ammen
ord net
ĠVor haben
Stream s
Ġinter pret
++) {
Ġmin imal
ĠCms Xml
ĠJe den
ĠKat alog
ĠFÃ¼hr ungs
Ġback en
Resol ution
cry pted
ĠWÃ¼r z
orient ierte
ĠDro gen
respon ses
vance d
Ġunverbind lich
ĠIngen ieur
. [
E mbed
j ected
ĠS af
Ġm il
Ġb loÃŁ
ro se
ĠG Ã¼rtel
ĠT rip
ĠR unden
Ġmit hilfe
âĢ İ
ĠSch ie
Ġre p
Ġre chte
Ġaus gesetzt
ĠVer w
Ã¼n de
ĠAus kunft
ĠAus zeichnung
pro fil
pro jekte
Ġges perrt
LE AN
ĠVerein barung
Spec ific
Gener ated
Ġrel igi
OP EN
ĠEinz igart
ĠSchm utz
ĠDon au
leiter in
ĠMitt eln
Ġries igen
lÃ¤nd ische
Ġdiskut ieren
Ġkompet ent
ĠKandid aten
SEVER E
G erne
O l
O rient
S orted
h ome
er ung
in stitut
ĠĠĠĠĠĠĠĠ ĠĠĠĠĠĠ
Ġein setz
ĠP K
ĠG ibt
ĠI sol
ĠV olumen
Ġauf weisen
ĠO m
ĠSch ubl
Ġsch ick
Ġget C
Ġnach voll
ath on
ĠAus fÃ¼hrungen
ST ORE
con sumer
Ġdar stellt
Ad ditional
Ġbet reffen
Ġausge fÃ¼hrt
ĠBr uch
ĠPol ster
Sc anner
Ġvers and
ĠZiel gruppe
ux io
util s
ĠNicht s
ĠtÃ¤ gliche
getR eturn
ĠÃ¼ brig
Xml Element
wÃ¼r fe
Ġcomponent s
Ġarbeit e
ĠSach verstÃ¤nd
ĠAltern ativen
Ġniedr ig
ĠAmer ikan
Ġletzt lich
Sm art
Leaf Node
ĠAuseinander setzung
isNot Blank
6 00
M ut
M argin
R G
W T
i ot
l ust
p orn
t or
st ig
an ces
ĠS orge
Ġm ath
ĠM essen
ol oge
ate st
Ġan im
Ġ" (
ĠEr holung
geb Ã¼hren
tem pel
Ġne ugier
olog ischer
spr achen
lÃ¤ chen
Ġausge statt
Ġ12 8
ĠVerb rauch
ĠHoch schulen
Ã¤ng nis
Auf grund
Ġcolumn Name
fest e
ĠBre mer
Ġnotwend ige
JÃ¤hr igen
ĠregelmÃ¤ÃŁ ige
Ġkonkr eten
ĠEtw as
' ll
D to
L aunch
P ark
P ayment
R und
b ungen
g yp
s uccess
Ġs pl
Ġh ause
ĠE qu
ĠK ids
ul ich
Ġl au
ot ing
Ġst ored
ĠN az
ff et
Ġver ur
ĠIn vocation
ik at
Ġ19 70
ĠÃľber nahme
Ġ9 78
sw elt
ĠStand orten
ĠEurop Ã¤ische
Ġ; -)
Ġleben s
ĠHÃ¶he punkt
ĠBack ofen
ĠBlog s
QU ERY
ĠWh ite
ĠEinkauf s
ĠAmer ika
ĠZuf all
ado op
ĠLam pen
ĠDrit ter
Ġerleich tert
ĠkrÃ¤ft ig
ĠWies baden
Ep och
ĠFuss ball
ĠKÃ¼nd igung
updateres ource
mk dir
Ã¼nkt lich
+ ",
M ix
N ein
S yn
[ (
r ische
z iele
ĠĠĠĠĠĠĠĠ ĠĠĠĠĠ
Ġm or
ĠB esser
Ġk alten
Ġre ply
urch ase
ign ore
ĠBe cken
ĠLe ague
Request ed
iger ung
ĠStr ick
ĠUnter kÃ¼nfte
UR ATION
reg orian
ps ych
Ġkl Ã¤ren
bach er
auber n
New s
Te chnik
Ġref resh
Ġsonst ige
ieÃŁ t
Ġerreich te
sem ble
War ehouse
ĠjÃ¼ng sten
> </
F i
I de
K ar
W ert
c amp
n ey
u cken
Ġ licht
Ġd oppel
an kt
ein gang
Ġm ang
ĠD ingen
ul pt
get Port
ĠH armon
ĠV eg
ĠC ard
Ġge bild
ĠZ ell
Ġre par
ĠVer trÃ¤ge
Con versation
og ramm
ĠEr fÃ¼llung
Ġtr aur
auf wand
ov y
act ual
Ġ5 7
imm ed
ĠList s
čĊ ĠĠ
ĠKon dition
Ġgel b
ĠBl ue
Ġstart Time
FA ILED
Part ner
ĠSk ip
getD ouble
Gener al
zentr ale
TA S
DI R
Ġverein bart
Rest riction
ĠGeheim nis
ĠAN D
ĠDenk mal
Ġdeclar ed
ĠNerv en
mass age
ĠKonzer te
ĠWurz eln
ĠCy ber
CLI ENT
Ġbast eln
K omp
L D
Ġk raft
ĠW or
ĠT oten
ĠT ube
get Job
ĠIn sekten
Ġsch merz
ĠAn sonsten
set Status
ĠEin fl
Ġex terne
Ã¼t ung
Ġges orgt
Set ter
amm a
RE G
Ġnot ification
Ġ6 9
ĠKon trast
Ġlist By
Ã¶t et
stand s
ĠPart nersuche
ĠAd apter
uell er
Ġverw Ã¶hnen
parse Long
Ġcontent Type
ĠDruck er
ĠVersion en
BU FFER
Ċĉĉĉĉĉĉĉĉ ĉ
bef ore
Ġangen ehmen
ĠFolgen den
hash Code
Ġinspir ieren
getRequest Context
Ġbeeinfl usst
Ġkonzentr iert
Ġbere chnen
ĠInvestition en
Ġwor auf
HER E
ĠverstÃ¤nd lich
quen cy
QUO TE
' ",
M itt
f ehler
f otos
Ġ Queue
al at
ĠS obald
Ġw s
ung er
Ġin crement
ĠM w
gen ossen
Ġauf get
ver e
In f
ĠO K
ik es
ĠAn gelegen
Ġab schlieÃŁen
ĠAus blick
Ġges unden
Ġviel seitig
Ã¤h le
ME M
ĠZu verlÃ¤ss
IT LE
ĠÃľber gang
sst elle
ĠBew erber
werk statt
ĠAd dress
Ġfest gelegt
ĠMill ion
ĠDar auf
ĠHin sicht
(' /
ĠPost er
ĠAf D
ĠGar age
Ġzentr al
ĠnÃ¶t ige
ĠjÃ¼n ger
maÃŁ nahmen
Ġgesellschaft lichen
ĠJust iz
Ġchines ischen
ĠNik ol
Ã¤chs ischen
Ġbrauch st
jp g
M ove
P ull
T ail
j ekten
k y
k am
s im
æ ĸ
ge halt
Ġg laubt
ĠF it
ĠP AR
Ã¶ pfen
ĠT onnen
Ġp riority
ĠL aune
Ġo wn
Ġst ieg
ĠN I
Ġal ltÃ¤
ĠSie d
ĠDie ter
Ġget Or
ĠAb sol
ac er
Ġges ichert
Ġlie ÃŁen
Ġgibt s
Ã¤nd ige
ĠFl ag
unde d
Ġgef ickt
asch utz
Ġpr im
ĠKontakt daten
ĠNot fall
Ġmatch ed
ĠMag deburg
ĠUnivers al
ĠJul ia
.) :
ĠNieder lage
ĠBab ys
Ġanges prochen
gien e
ĠgemÃ¼t liche
ĠInteress enten
ĠMitt lerweile
ĠBege gn
ĠKal orien
vertr eter
ĠLad y
ĀĀĀĀĀĀĀĀĀĀĀĀĀĀĀĀĀĀĀĀĀĀĀĀĀĀĀĀĀĀĀĀĀĀĀĀĀĀĀĀĀĀĀĀĀĀĀĀĀĀĀĀĀĀĀĀĀĀĀĀĀĀĀĀĀĀĀĀĀĀĀĀĀĀĀĀĀĀĀĀĀĀĀĀĀĀĀĀĀĀĀĀĀĀĀĀĀĀĀĀĀĀĀĀĀĀĀĀĀĀĀĀĀĀĀĀĀĀĀĀĀĀĀĀĀĀĀĀ ĀĀĀĀĀĀĀĀĀĀĀĀĀĀĀĀĀĀĀĀĀĀĀĀĀĀĀĀĀĀĀĀĀĀĀĀĀĀĀĀĀĀĀĀĀĀĀĀĀĀĀĀĀĀĀĀĀĀĀĀĀĀĀĀĀĀĀĀĀĀĀĀĀĀĀĀĀĀĀĀĀĀĀĀĀĀĀĀĀĀĀĀĀĀĀĀĀĀĀĀĀĀĀĀĀĀĀĀĀĀĀĀĀĀĀĀĀĀĀĀĀĀĀĀĀĀĀĀ
Besch reibung
ĠRich ard
ĠBoch um
Ġohn ehin
D K
M ER
m or
p ot
s berg
Ġ Ã¤ndert
ĠS now
re w
Ã¤ ften
Ġg erman
ĠF air
ĠP ok
ĠP ixel
sch Ã¤den
ĠK ampagne
Ġp eer
Ġa xis
ip ient
Ġunter halts
... )
bar a
af rika
ite kt
ĠSpiel ern
str ategie
recht lich
ĠMot ive
Auth entic
Change Listener
ĠIns eln
ĠMax im
ĠPrem iere
ĠBedÃ¼rf nissen
Ġreich lich
sta aten
mungs aktiv
Ġgepf legt
ĠPrÃ¤s identen
Ġschein bar
Ġangemeld et
M EN
Ġd igest
Ġm essen
ĠA st
ĠB d
ĠE M
ĠK ochen
ĠG Ã¤rten
ĠT akt
ĠH ow
Ġer inner
ĠN ight
Ġbe antwortet
if unktion
ger s
add Parameter
Pro b
itt ing
gel enk
Ġbes eit
ĠKon gress
ĠReg isseur
LO AD
ĠInform atik
RO W
ĠStud ierende
ĠDe pression
Content s
mÃ¶ gliche
Ġintern et
DO UBLE
akte ur
Ġschwer er
ĠTechn ische
ĠFerien hÃ¤user
PRE SSION
Ġthread s
Ġmer ged
ĠEben en
ĠSuch er
ĠnÃ¶t igen
Cre ator
Mo use
Algorithm Exception
Ġlust ig
ĠauÃŁergewÃ¶hn liche
ĠBeteil igten
Ġrealis iert
Ġpermission s
APP LICATION
bring ung
COD ING
Ġ({ ...}?
G erman
d isk
i ans
Ġ á
ĠS MS
ar isch
ro b
Ġein wand
ĠB ask
Ġp Ã¤dagog
ul Ã¤re
ĠN avigation
pe icher
ser fahrung
ĠSch uppen
orm on
ĠÃ¼ber geben
Class path
lie be
ĠCh ange
ĠUm bau
ĠKon zepte
Ġhin zufÃ¼gen
cl ing
ĠKinder zimmer
Ġgel assen
gef asst
spro chen
ĠAbend essen
Lock ed
ĠBel gien
Ġerfahren e
Ġdigit al
Ã¤mpf e
ĠHy per
TIME OUT
ĠKer amik
ĠSon y
Ġanzub ieten
snab rÃ¼ck
S AX
T EN
W L
d in
ĠS orten
ge ometry
Ġv an
Ġin stances
ing Class
ĠP R
ĠP rior
sch loss
ĠT rom
ĠT schech
get Description
ĠR end
us ser
Ġan stren
Ġver rÃ¼ck
ĠSch Ã¤
stan de
Ġ3 000
Ġunter halten
ov ie
Ã¤nd igkeit
ĠEnt spann
ĠFl asche
Sch ule
ĠLand tag
Or Enum
ĠGew Ã¼r
Ġze igten
verb indung
Ġcomp arator
Ġsw ap
200 7
Parser OrEnum
ĠHin blick
ĠUnivers ity
yl on
ĠBack up
Ġintegr ierten
ĠEmpf Ã¤nger
ĠMass iv
ict or
ĠSchrift steller
Ġangegeben en
ĠEreign is
ahe ad
ĠSow ohl
Ġseiten s
ĠIll ustr
SELE CT
Nee ded
ParserOrEnum RuleCall
P od
b ten
r m
s re
Ġm d
Ġm arkt
Ġm eldet
Ġf amil
ĠB ul
ĠB art
ĠD Ã¼
de penden
ĠF actory
ĠF raktion
ĠP ier
sch ef
ĠL KW
ag a
ag ers
Ġvor zu
Ġvor behalten
Class NotFoundException
ĠGes ell
Ã¼nd ig
Attribute Value
hand els
FI L
geh olt
Spec ial
Ġ199 2
Ġaktiv iert
lam pe
ĠgrÃ¼n e
=' \
ĠFÃ¤h igkeit
ĠBill ig
Ġanf angen
Intern et
BYTE S
Ġgramm arAccess
Ġeinver standen
R atio
S am
Ġn ein
Ġein gehen
ĠT SV
Ġc s
ĠV AL
id ge
Ġbe auftrag
iv ed
(" $
Ã¤t igkeit
ĠEin s
gr enze
ĠRe chen
ĠAl bert
uss y
att ung
Of Month
Sch ul
getS uper
lei den
ĠwÃ¼r d
ĠSeiten sprung
bet eil
ĠMe chan
Update d
ĠHe ck
Ġhochwert iger
Ne ighb
ĠKat astrop
zub ehÃ¶r
Ġbeein drucken
ĠReis eb
Ġdunk len
MAT CH
ĠÃ¼b lich
ĠRos a
Ġzuk Ã¼nftig
ĠRet ro
" >
E QUAL
S er
b end
c n
h istor
w orld
å ħ
Ġd ynamic
Ġs in
Ġb b
Ġt iefen
ĠB einen
ĠM i
ĠM em
ĠE h
get Parameters
Ġth eir
Ġis n
rei de
fahr ts
RE MO
Ġgem eldet
zu cker
Al ler
getS ite
Ġausge fallen
Sh ard
kehr en
bed ien
ĠInd ust
ĠGroÃŁ teil
Ġabge legt
DI RE
Del ivery
Ġdel imiter
Ġdis abled
Ġheut zutage
ĠstÃ¤r k
sprÃ¼ chen
ĠBuffered Image
Ġsport lichen
ĠOrd ner
resol ved
Fin ish
Ġwait ing
ingu cker
âĢ¢âĢ¢ âĢ¢âĢ¢
ĠPrÃ¤z ision
G o
H o
N orm
k etten
r untime
è ¯
Ġ che
ĠS org
or ca
ab ile
sch Ã¼ler
ei de
ĠT ap
ce eded
get Result
ĠH i
Ex change
ik eln
ĠAn kunft
ĠPro be
av as
ss el
ĠAb sch
Ġgesch ehen
Ġgesch mack
br aten
Ġ9 00
ĠGeb ur
sub mit
schein lichkeit
ziel len
")) )
bew usstsein
leben s
PA GE
auran t
NE T
ĠBeweg ungen
Ġintegr ieren
Ind ent
Serial izable
ĠInvest ment
pol ster
Ġbetroffen e
funktion en
ĠfranzÃ¶s ische
Ġexklus iv
ĠServ ic
Ġbundes weit
' .
. *
D ot
b Ã¼r
b els
j ahre
en ster
Ġun mÃ¶glich
Ġf ehl
Ġein erseits
ĠD R
ĠM ehl
ĠM Ã¼he
ab lauf
ĠP E
ĠG arn
ĠG Ã¶t
ĠG lÃ¤ser
ĠT iefen
Ġc c
In to
ĠVer netz
Ġget Name
be leuchtung
Un der
Ġ19 80
ĠGesch w
Or igin
ĠIntern ationale
As Stream
sk osten
ĠWe ber
user Agent
wert ige
Ġkl aren
UN IT
kle in
Ġspe ktak
ĠMet adata
Ġexp licit
ĠSelbst verstÃ¤ndlich
alb um
ĠspÃ¤ter en
ĠAs ien
Ġwes entlichen
ĠHalb zeit
ĠByteArray InputStream
getLocal izedMessage
ĠBra unsch
ĠregelmÃ¤ÃŁ igen
Bro ker
ĠSwinger club
F ire
L ONG
S B
Ð ¾
Ġd om
ic ally
ĠF DP
ĠW ag
ĠW arm
us p
Ġl ernt
Ġer fr
ec onds
Ġbe ur
Ġre ib
Ġsch reibe
Con vert
Con ditions
ĠUn abhÃ¤ng
Ġum setzen
add Statement
List Item
Ġunter halb
ĠAus sen
ĠAus stellungen
schl af
pen der
inter face
Mod ules
Ġausge legt
LO AT
next Int
Th an
ĊĠĠĠĠĠĠĠĠĠĠĠĠĠĠĠĠĠĠĠĠĠĠĠĠĠĠĠĠĠĠĠĠĠĠĠĠĠĠĠĠ ĠĠĠĠĠĠ
ĠGet rÃ¤nk
ĠHe ader
ĠLin ux
Produ kte
Ġed itor
schlÃ¤ gen
Vari ant
ĠNational park
ĠHein z
geord neten
rypt o
ĠKlima anlage
Bind ings
GENER IC
A RE
C TED
E gal
K K
K lass
P ers
W indows
è ¿
ch mark
Ġd icken
ĠS ets
Ġw ell
is ode
ĠA hnung
ĠB Ã¶rse
Ġg reift
Ġh aut
Ġer mitteln
ĠZ elt
od a
Re porter
Ġget Default
Ġunter st
Ġis ol
itt le
Request Id
ĠBer gen
sb ruck
ĠNe um
gew alt
ĠBundes republik
ĠJSON Array
Dat atype
Â» .
Ġiter able
Ġangeb racht
hab e
ĠJo achim
zep ten
Av ailability
ĠTex ten
Ġniedr iger
Ġengl ischen
Ġinvest iert
ĠHum or
XmlElement Decl
A lert
D ruck
T ON
s quare
v r
un fall
ur y
Ã¤ hre
Ġh our
Ġp unct
Ġc am
Ġan leitung
ĠC ount
id o
ĠAn im
op ed
ild o
ĠSp rech
Ġ5 9
ink l
ĠIm pressum
com ing
Ġgleich ermaÃŁen
ĠMon d
sub ject
Ġkom mer
aun cher
part y
ĠKÃ¶rper s
ĠDi abet
Ġ199 4
Parser RuleCall
ĠHin zu
ĠMitarbeiter innen
ĠZw eiten
Ġangeb lich
ĠRegel ungen
Ġschle chten
ĠverfÃ¼g baren
Ġstud ieren
Ġmass age
Sk ip
Ġflex ible
ĠInner en
ĠJed och
Ġglob alen
hallen ge
Lex er
Bra cket
ĠLeut en
H our
I o
P LAY
W O
W elche
_ .
p u
r iss
w ettbewerb
Ġs ervices
ar ter
re den
Ġm a
Ġt ri
sch ale
Ġc andidates
get Output
Ġzu stÃ¤ndigen
ĠN ut
Ġbe legen
Ġre store
ĠVor schlag
Ġbest and
sb esch
ĠStr ategien
Ver kauf
fang s
ĠNot wend
ĠSil vester
seit igen
reff end
ibr ation
person al
ĠKath ol
operation Type
ĠMittag essen
Ġruss ischen
Ġdamal igen
ĠMojo ExecutionException
F all
F arbe
f Ã¶rderung
g ieb
h istory
r um
t v
Ġd etails
Ġw ahren
ĠA uÃŁer
Ġh ard
ĠF ound
ĠK it
ir ls
ad es
Ex clude
ik te
ĠEin haltung
Ġ3 50
pro blem
ĠBe at
Ġor gan
ĠWer den
ĠBest Ã¤tigung
Be ans
UT ION
rat ze
ĠRo ad
Ġbel ow
Ab sent
ĠArbeits markt
Dat um
Hier archy
bes uch
ĠlÃ¤nger en
ho use
ĠStaats anwalt
opt ik
Ġbeob achtet
Ġabgest imm
Ġrealis ieren
ĠAuss agen
FLA G
Ġsom ething
uppert al
ĠPubl ikation
ĠOther wise
D RL
K ultur
O C
Ġ ï
it at
al locate
ĠS G
ar es
Ġv s
der e
Ġg eld
ĠF akult
ri an
up load
igen en
set Default
ix els
Ġbu ff
ĠX L
ĠBl ues
ĠWe iss
Ġid yll
deut sche
Ġse en
Ġhe isst
Ġsicher zustellen
Char Array
MA IN
ĠFol ie
ĠDar lehen
Ġbedeut en
getId entifier
Ġsec ret
Add Param
Initial ized
ĠKer zen
Ġsport liche
Media Type
ĠBezirk s
ĠVerd acht
antas ie
zwe ck
Ġkontroll iert
ĠSAX Exception
ĠMeld ung
Ġembed ded
F ans
F rauen
N ord
h es
å ¤
st ers
et on
Ġun angen
Ġw ind
ĠA K
ĠB ibel
ĠD evice
ĠM ore
ĠE ll
ĠP H
ĠT Ã¤
Ġp t
ĠH ingucker
ĠJ uden
ĠZ ellen
ĠSie b
ran ke
Ġvor sichtig
be zug
ob uf
Ġle ck
ator y
fig uration
eten te
Ã¤nd igen
Ġger eg
unter lagen
sk y
ens or
ens ure
ĠBo hr
ĠLie gen
Ġmod ify
Ġcl ub
gericht s
Ġdat asource
produ kten
ĠBre ms
ĠErn Ã¤hrungs
sele cted
Ġans wer
Ġjung er
ĠEinb licke
CW SI
ĠNÃ¤ch te
ĠClau dia
B R
G Ã¼nstige
T mp
h st
s up
w Ã¤nde
z Ã¼ndung
Ġd ays
an ien
et SocketAddress
Ġs eg
Ġs elt
ĠS K
ĊĠĠĠĠĠĠĠĠ ĉ
Ġw inter
Ġb log
de c
ĠP VC
ĠG elt
ĠT here
Ġp adding
ĠH Ã¤n
ĠL CD
ĠR Ã¼
ĠR ender
ag ram
ĠV ER
ĠC ur
ap el
ĠJ Ã¤ger
ĠIn strumente
Ġaus gerichtet
ien ste
pl ugin
aus es
Ġnach zu
ial ect
An imator
Ġ' )
Ã¼t tel
Ġbest icht
Ã¤l de
br Ã¼cken
CH ANGE
Wir tschaft
Aut or
Action Listener
ĠnÃ¤ch stes
Ġfl Ã¼ss
(' \
ĠDienst leistung
ĠLiefer umfang
stud ien
Ġbeteil igen
Ġniedr igen
ĠPrint Writer
aka dem
ĠverÃ¶ffentlich te
A A
B D
B enz
L ehr
M y
M eter
P atch
_ (
g igen
k lassen
r und
w itz
z ungen
Ġd rucken
un sten
ĠS ock
Ġn eutr
ĠB inary
Ġh arten
ĠP ick
Ġk Ã¶st
ach es
ĠH enn
and in
Ġan gesch
ĠC ost
Ġver an
In Millis
iv als
ĠPro xy
ĠPro motion
Ġget Type
oo le
eb t
ĠRe lease
ord ination
anz ig
ĠEs cort
LE VEL
Ġas iat
Ġentwick elten
Gener ation
Rem oved
match ed
Ġmodern es
Pre ferred
ĠKomp lex
ĠKlein anzeigen
sele ction
ĠLu zern
Ind ic
Ġangen ehme
Ġberuf liche
ĠHor st
ĠAufent halts
ĠDev Failed
ĠWart ung
Kn own
Hel p
pÃ¤dagog ik
ĠunzÃ¤hl ige
Ġveranstalt et
ĠArom a
ĠKf z
Ġunn Ã¶t
Italien isch
B AD
b ination
v in
el a
il ity
Ġg raf
Ġh istory
se hr
ĠG utes
ĠW ehr
Ġr Ã¶m
ĠR itter
ĠV intage
ĠN ad
ĠN UM
id entity
ĠSt ill
ah me
qu is
ĠEr ziehung
Ch em
kl ima
RE E
Ġgr at
Ġgr and
br Ã¼cke
ĠTag s
serv ices
ĠSh opping
ĠDe al
Ġsex kontakte
ĠKap u
Ġanges ichts
ĠDiskuss ionen
vide os
ĠzuverlÃ¤ss ige
ĠGit arren
ĠModel Node
ĠMaler ei
Primary Key
Ġbade zimmer
ĠImm un
F rau
H i
b order
c ommon
d rau
l im
q n
Ð °
er er
le chter
Ġm erk
ĠK Ã¶r
ĠK ette
ĠW E
get W
ir ten
Ġan halten
ĠC OL
ĠSch uss
ĠSt Ã¶rungen
Ġum ge
ĠEin mal
ĠAus stellungs
new CompositeNode
Ġander erseits
ST ER
Mod els
Ġdef ine
Ver b
ĠKont roll
Comp iler
Ġde cken
Cms Object
ĠSpr ung
erb ung
Ġcomp iler
Sec ure
aktiv itÃ¤ten
Ġgepl ante
ĠVersicher ungen
Ġschwier igen
ĠLaut sprecher
Ġaccount Name
ischend urch
ĠPots dam
kra ine
< =
C CESS
C riterion
L ifecycle
] ).
i ber
m g
s ich
en abled
in tern
or de
Ġt ick
ĠE D
ĠK u
Ã¶ he
ĠW oll
ĠL it
ĠO ran
och t
Ã¤t te
be ge
ition en
arbeit ete
ĠVor trÃ¤ge
ĠBe vor
new LeafNode
itz ung
ĠUnter halt
Ġcreate Ifc
land es
ĠBr ut
Sh utdown
FI C
bl umen
Ġrule Op
Ġstr ategy
Ġbeh aupt
ĠAkt ie
alis iert
getD at
ĠGel b
gere icht
Min utes
ĠSil ikon
Ġmay be
Ġtim es
ĠRicht ige
Ġumfang reiches
ĠgewÃ¼n scht
Ġoper ator
ifest yle
Ġmusikal ischen
FE ATURE
STAT IC
ĠEmpfeh lung
after ParserOrEnumRuleCall
klin ik
Ġ--------------------------------- --------------------------------
Ġdeutschsprach igen
A u
V ec
a ken
s ync
u hren
st orage
ĠS ir
Ġf leiÃŁ
Ġt v
Ġt oller
ĠB rie
ĠE mp
Ã¶ cke
get Log
get NumberOf
Ġr hs
ĠC ru
ec l
ĠN ich
ĠIn haber
(" :
qu ellen
ĠEr fahren
Ġam bul
ST REAM
leg ungen
ĠStr ahl
ĠArbeit er
Ġen ge
ĠHand arbeit
Sp iele
Ġpar sing
ĠGeb Ã¼hr
so ftware
Sc ene
umm y
tegr ation
ĠHe ft
Ġgeeign ete
ĠTrans formation
default Value
ĠÃ¼ ben
ĠBesonder heiten
rib ute
ĠWander ung
ĠRis ik
Ġpackage Name
splan ung
Fil m
Ġbrit ischen
Dar Ã¼ber
P in
S eiten
f onds
f ertig
o ted
Ġ Ã¤rzt
et ball
re cover
Ġn ote
ĠA ro
ĠM eilen
Ġg alt
Ġh elle
ic y
ĠP ublic
ĠK ita
ĠT arget
get Base
ĠR asen
ĠC ash
Ġer arbeitet
Ġst erben
Ġver Ã¤nder
Ġver raten
th ing
Ġaus b
ehr te
Ġget ter
Un signed
itz el
read Int
Sh are
aw r
gl adbach
Ġpl ant
next Element
error s
Ġstehen den
App end
ĊĠĠĠĠĠĠĠĠĠĠĠĠĠĠĠĠĠĠĠĠĠĠĠĠĠĠĠĠĠĠĠĠĠĠĠĠĠĠĠĠĠĠĠĠĠĠĠĠ Ġ
lang uage
Co ordinate
ĠFunktion alitÃ¤t
Ġhochwert ig
Host s
Tim es
ĠEigen schaft
med ien
Ġph il
Ġtyp ische
Ġhal f
ĠIr gend
Illegal AccessException
Ġlecker en
Ġengag iert
ĠSem ester
Sur face
Hin weis
ĠRechtsanw Ã¤lte
ĠRuck sack
Ġberecht igt
ĠRecher che
Ġreib ungs
D on
M at
b te
w ochen
Ġ ĊĠĠĠĠĠĠĠĠĠ
st he
ĠS ekt
ein g
Ġb md
Ġv orm
Ġf amilien
ĠM rd
ĠG host
Ġp Entity
om s
get Resources
ĠH ang
Ġzu recht
ĠN ud
id r
eh er
ĠJ Ã¶rg
Ġre zept
ah m
ah ler
Ġpro bieren
ss icherheit
fo x
Response Inner
ĠX A
Ġfol gten
ĠSte phan
gleich en
Ġkon kret
ĠBÃ¼ chern
IS O
ĊĠĠĠĠĠĠĠĠĠĠĠĠĠĠĠĠĠĠĠĠĠĠĠĠĠĠĠĠĠĠĠĠĠĠĠĠĠĠĠĠ ĠĠĠĠ
EX PRESSION
Mail s
ĠHttp Response
ĠMein ungen
ĠWissen s
ĠEben falls
Ġorganis ator
Ġkre ativ
ĠBit coin
ĠRefer ence
ĠBeschÃ¤ft igung
Ġhoh es
ĠServlet Exception
ĠOptim ierung
icip ant
D rawer
K arte
T erms
m Ã¶glichkeit
r ischen
Ġ čĊĠĠĠĠĠĠĠ
Ġ ....
en glisch
es zeit
al pha
ĠS pl
ĠS ip
ĠS ocket
Ġun gew
Ġf ried
Ġein ander
ĠB Ã¶rsen
ĠD Ã¼n
Ġz ut
ĠP kw
ĠK ing
ĠK ob
ĠW ikipedia
Ġp i
ĠH O
Ġan onym
Ġge kl
Ġauf ger
Ġver passen
In voice
lo h
ĠZ unÃ¤chst
aus schnitt
Pro zess
iz ers
ĠEn umeration
Ġcon sole
ĠAuf bew
ĠÃľber nachtung
Ġbet reibt
Ġgel Ã¶st
Ġmin imum
Ġlang leb
ĠAt l
ĊĠĠĠĠĠĠĠĠĠĠĠĠĠĠĠĠĠĠĠĠĠĠĠĠĠĠĠĠĠĠĠĠĠĠĠĠĠĠĠĠĠĠĠĠĠĠĠĠ ĠĠĠĠĠĠ
ĠBesch werde
ĠFin anzen
Dep loy
Ġdr am
Ġexception s
ĠByte Code
ultip art
Ġverein baren
Ġserial ized
ĠDel uxe
geord nete
ĠausfÃ¼hr lich
serial ize
;; ;;
WR ITE
Ġzerst Ã¶rt
hasMore Elements
ĠJak ob
1 01
O s
W eiÃŁ
w olle
at ial
as es
el tern
ĠB ist
ĠB akterien
ing Mode
ĠM ei
ĠM AP
tr itte
ĠP for
ĠT ast
ĠH alter
Ġge leg
ĠJ on
ĠJ ud
Ġj ener
ĠAn ders
Ġthrow n
chen gladbach
new ArrayList
act ivate
Ġges onder
Ġhier mit
IT IVE
cont rol
Ġfile Path
lei hen
IND ER
Number s
ĊĠĠĠĠĠĠĠĠĠĠĠĠĠĠĠĠĠĠĠĠĠĠĠĠĠĠĠĠĠĠĠĠĠĠĠĠĠĠĠĠĠĠĠĠĠĠĠĠ ĠĠĠĠĠĠĠĠĠĠĠ
ĠFr ise
Part ial
ĠRahmen bedingungen
Ġpr incipal
ĠKr ise
hof en
ĠBen utzung
ĠwÃ¼n scht
ĠKan ada
bas ierte
ĠSof ort
ĠTree Map
CL U
ĠGumm i
Ġbun te
hy dr
ĠOrient ierung
ĠKrim inal
Viel leicht
Ġever y
ĠVerbind ungen
ĠSne aker
C md
D L
H abe
L ive
P olicies
m atrix
æ ĺ
Ġ ut
Ġ ĊĠĠĠĠĠĠĠĠĠĠĠĠĠĠĠĠĠĠĠ
st ark
Ġs yn
Ġf rage
ĠD own
ĠD ritt
ĠP au
um a
ĠW andern
Ġp ixel
ag greg
Ġl Ã¤nd
ĠC SS
Ġsch enken
per te
ĠAn schrift
set Time
ak ing
IN VO
Ġunter s
ink s
equ al
Ġweiter entwick
Al ready
stra hlen
AN NOT
Ġange ht
Text ure
ĠUr lau
hand werk
ĠVers orgungs
ĠSpe ise
ĠÃĦ gyp
Ġchar akter
If Absent
ĠGen ehmigung
Ġbed ient
Dat aset
mark e
mon th
verl ust
ĠPrakt ikum
Ġbegeg nen
ĠFreis p
ĠZuverlÃ¤ss igkeit
> "
G ap
H err
H AND
K ann
T ITLE
h op
l or
n immt
on ly
al ent
ĊĠĠĠĠĠĠĠĠ ĠĠĠĠĉ
Ġb iete
Ġein gebaut
ic an
ĠF o
ĠE ber
ĠG Ã¶
Ġp ay
ir y
ach ments
Ġr ing
ĠR oth
Ġst rap
len d
Ex isting
St iftung
pl ayer
Key Store
Map s
append Child
ĠGes etze
Ad just
Sch lag
Ġbet onte
Des cr
Ġid entity
ĠMap s
Ġbesch rÃ¤nkt
Ġse ed
zahl ungen
FA CTORY
ĠRÃ¼ck kehr
ĠnÃ¤ch st
Ġverl angen
getM ain
Target s
ĠAbend s
ular ity
kont rolle
Ġausgew ogen
Render ing
Ġ"] ");
ĠTal ent
Ġrecover y
Ġhervorragen den
wander ung
Ġrelev anten
ĠerÃ¶ff nen
opath ie
ĠCorpor ate
drau l
F etch
K olle
k ab
p aces
r in
s un
s ym
u schen
Ġs ommer
ĠD uration
ĠF oren
sch alter
ĠG ray
get Namespace
Ġst yl
ĠN ationen
Ġ" [
ĠU fer
ind liche
Ġsch Ã¤d
Ġdem nach
able Type
Ġdurch zufÃ¼hren
ĠGr Ã¼nd
fÃ¼ gen
ster min
Com puter
ED IT
Ġass ume
stÃ¼ck en
Read Only
ĠGest alten
Pattern s
Ġag ent
oto pe
ĠComp arator
Ã¤ss igen
ĠBis her
ĠMitglied schaft
Ġruh iger
bas is
Ġeleg ante
iation Exception
Ġengl ische
Ġarch ive
S CO
W ritten
h ex
l ange
on om
Ġs onder
ĠS kl
re pository
ĠD SG
ĠE ffekte
sch wei
sch Ã¶pf
ĠK Ã¼n
ĠI Atom
ĠW atch
ĠT E
Ġc urrency
get Locale
Ġr at
ĠH eiÃŁ
ĠR ies
ĠR ose
Ġst euern
ĠN avig
In st
ĠSt ationen
ĠâĢ ĺ
eg r
ĠEr werb
Ġent nehmen
Ġent schlossen
auf tritt
sh afen
Ġle g
ĠAb fall
ĠFl Ã¼ge
ĉĉĉĉ ĉĉ
Ã¶t chen
unkt ur
Ġgeb urtstag
UN I
Ġwirk sam
ĠCom ic
ĠFr ische
ĠMet a
Offset s
long Value
Function s
Ġexist ieren
Ġact ually
PA SS
Ġerforder lichen
ĠOst ern
ĠMensch heit
lad ungsk
cre me
Gro ÃŁ
ĠSat ell
Ã¤tz chen
ĠmaÃŁ geschneider
Reserv ed
ĠprÃ¤z ise
ĠSold aten
! ",
' ))
K V
L ibrary
M otor
m eist
is men
ĠM eyer
ter prise
ĠK e
Ġr ate
Ġr Ã¤um
ĠH ip
Ġer leb
urn en
Ġauf geb
ĠZ eilen
Ġre quires
ex port
set Id
set Accessible
Pro t
IN FIN
wie se
ĠNach weis
Ġher stellen
ĠFl orian
ound s
log p
Ġfre ige
ĠBl itz
sw esen
vor sitzen
âĢ¦ )
utt gar
input Stream
Lo aded
Ġvers orgen
kon struktion
Part y
Ġlo aded
Ġ199 3
Ġwunder baren
IC AL
Ġhel p
ĠTem po
ĠGebÃ¤ uden
zub ringen
bes itzer
ĠKan al
grÃ¼n den
schm uck
Ġamerikan ische
Ġbrit ische
bÃ¼rger meister
Ġkontinuier lich
LÃ¶s ungen
ĠExt rem
NOR MAL
C ipher
C ategories
G el
H otel
O VER
P ersistent
S ollten
d etails
o ad
u v
Ã Ĺ
Ġs ingen
ar er
ar ina
Ã¤ ht
ĠA U
ĠB Y
ent hal
ab schnitt
ĠP ink
ce ed
ĠL ou
Ġan lÃ¤sslich
ĠC A
Ġauf gew
Ġauf gerufen
ĠO pel
(" {
(" \"
ĠAn lÃ¤
ain der
ill on
ĠVor bereit
Ġbes etzt
Ġ6 7
yp h
Ġ12 5
klÃ¤r ungen
Ġgemein nÃ¼tz
ĠSchn Ã¤ppchen
Ġrecht lichen
ĠBen utz
Ġoptim ieren
Failed Exception
Ber uf
ĠAp otheke
ĠVoll stÃ¤ndigkeit
Ġpolit isch
Ob wohl
ĠSI MP
freund liche
ĠWh isk
ĠKoo per
Ġunmittel barer
ĠAngel a
Ġred irect
ĠDeb Ã¼t
ĠTool s
Syntax Exception
ĠSpazier gang
Ġentw orfen
symb ol
ĠSchicks al
J O
J ms
N av
P t
R ob
S an
s fÃ¼hrer
in strument
ĠS ER
ar ia
ĠB ell
ĠM isch
ĠM Ã¼tter
Ġk an
get Project
ĠH Ã¤uf
Ġe del
Ġge folgt
In iti
In ventory
Ġre verse
Ġso g
ost er
Qu elle
ĠLe cker
Ġwe iche
ĠEx tra
inn ing
Ġen gen
ĠCon vert
Ġschw eiz
Sh irts
ĠmÃ¼s st
getC l
zer o
des criptor
ĠZusammen fassung
ĠBesch luss
Ġstell ten
Ġpart ial
Fe ed
ober flÃ¤che
ĠAll gemeine
wechs lung
mel de
ĠÃ¶ st
ĠWar enk
pc odes
fert igung
Ġev angel
Recei ve
ĠKart on
ĠKlim aschutz
ĠPay pal
Ġaltern ative
getParameter Types
ĠLok al
Ġkorre kt
Roll back
Boot strap
ĠKonzentr ation
Ġoccur red
Ġendg Ã¼ltig
E igentlich
L ER
S a
S ind
W eil
h ers
i ffer
l itz
m ult
n Ã¤
p ending
s ip
s icherung
å ®
č ĊĠĠĠĠĠĠĠĠĠĠĠĠĠĠĠĠĠĠĠĠĠĠĠĠĠĠĠĠĠĠĠ
ĠS we
re ht
Ġm id
ĠD M
ing ern
ĠE MPTY
ĠK im
ĠW ach
ĠW ash
ul s
Ġer arbeiten
Ġst abile
ver ity
ĠU TF
ĠIn c
Ġaus get
ĠAn passung
ĠEr lebnisse
sh irt
sh ape
pf legung
sb ank
Ã¶s ser
Ġeigen em
ized Type
Ġlang jÃ¤hrigen
Ġgemein t
schlieÃŁ t
err asse
Check Box
ĠGÃ¤ st
Ġverst orben
zuf inden
rip pe
Ġpf lege
Ġmittel stÃ¤nd
Ġblau en
ĠRefer enz
ĠStÃ¤r ken
Sw itch
Ġfrem den
Ġener gie
Ġatember auben
G U
H inter
L ambda
M TAS
P eter
W asser
f ein
i hen
n y
Ċ ĊĊĠĠĠĠĠĠĠĠĠĠĠĠĠĠĠĠĠĠĠ
Ġd igits
et ime
es er
ĠS H
or ger
Ã¤ che
Ġein gel
ĠB ienen
ĠF OR
ĠH ack
ĠH af
Ġan meldung
ĠC ab
Ġer kl
Ġst age
Ġal arm
Ġver schaffen
lo op
ĠSch af
ĠIn fl
ĠString Writer
ungs vor
ĠPro p
Ġvor kommen
iz ierten
sh ift
Im plement
Ã¤ch ern
ĠFl u
ĠFl yer
pp ed
ĠSchw eiÃŁ
str ong
stra ining
Loc ations
Ġhand werk
ĠCon stant
ĠAd idas
Ġkommen de
ĠDe leg
ĠSchul ung
ĠChr isten
ĠNo ViableAltException
plan er
ĠMus keln
ĠExper iment
ĠKo ordin
ĠWolf sburg
ĠMeister schaft
pers ist
Det ector
Grund verordnung
Ġabsolv iert
getFirst Child
Mir ror
Sens itive
gÃ¤ ste
ĠMÃ¤d els
ĠVernetz ung
F ram
F raction
H eil
d acht
r inge
y an
Ġd raw
an hÃ¤nger
et ion
al on
Ġs n
Ġein gericht
ĠN at
ĠN agel
Ġver trag
Ex act
ĠSch icht
Ġsch aff
pro gramme
teil er
ĠEnt decken
Ġausge hen
Manager Factory
Ã¤nder ungen
ĠTra iler
Ġkl im
met all
ĠLebens qualitÃ¤t
ĠProjekt es
ĠMarkt platz
ĠGegen stÃ¤nde
ĠAnd rea
Ġinit i
Ġempfehlen swert
ĠIs land
wach s
ĠgefÃ¤hr lich
ĠKanz lei
Ġabgeb ild
ĠErscheinungs bild
IdOr Path
ĠMw St
B lob
C atalog
J sp
L F
M is
e valuate
j j
Ġun known
em burg
ĠW inkel
ĠT en
ir it
Ġr uft
ĠH ass
ĠH ekt
ber gen
Ġst re
Ġal tes
Ġver schen
In line
ĠIn zwischen
ĠSt y
Ġaus gebaut
pr eter
Ġex ot
ON LY
To ols
ĠVor les
Ġ' -
att oo
Ġbef Ã¼r
Ġinter nen
ĠBau er
ĠmÃ¼s sten
Ġkon sequent
ĠPr inz
ĠKÃ¼ sten
bereit schaft
uni que
ĠKap azitÃ¤t
num Cols
!! !!
bin ary
wechs elt
Bl ack
ĠKomp osition
ĠMich el
minister in
ĠAss oci
ĠSof ern
ĠFel der
ĠFlÃ¼cht lings
Ġelektron ische
ĊĠĠĠĠĠĠĠĠĠĠĠĠĠĠĠĠĠĠĠĠĠĠĉĉĉĉ ĉ
Ġpack et
Ġdurchschnitt lich
ĠPress emit
ĠMuse en
Hint s
ĠKorre ktur
Ġerkenn bar
Ġgekenn zeichnet
C ancel
K osten
N G
P ub
R UN
S W
T ING
T wo
a er
c b
h h
i zen
m is
Ġm T
ĠM O
ĠM yth
ĠK reu
ten nis
ĠW ann
Ġp id
ĠL ob
us el
Ġan gle
ĠZ erst
Bu ffers
ĠLe ber
Tra iner
OR TED
Def s
br un
sw agen
Ġstart ing
ĠY o
User name
ĠMot oren
Byte String
zess in
DB ID
ĠKin os
Num eric
ĠHel den
ĠPort folio
Ġback up
Graph ics
Ġhinzu gefÃ¼gt
ĠLÃ¶ wen
EXT EN
Beh avior
ĠPir aten
æķ °
K eine
L ev
L icense
_ ;
f abrik
t age
an i
Ġs ummary
as ing
te ch
Ġf Ã¤ngt
Ġf lieÃŁen
Ġt iefe
ĠB ond
ĠD orn
get Modifiers
Ġer ober
In Bytes
(" _
igen schaften
pl ain
pl Ã¤ne
ĠEr sten
Res et
ĠSp a
Ġex tern
her ited
Ġsp ar
Ġtry ing
Ġneu sten
ĠEnt decke
Ã¶ch ten
br ille
ĠMar io
ĠGeb rauchs
Sh ipping
ĠlÃ¤ ÃŁt
Ġsol ches
AD I
View s
Ġfilter s
Ġabsol uter
ĠAs ync
ĠSchwer punkte
ĠWÃ¼r de
material ien
Ġwider rufen
ĠDire ktor
Ġschreibt isch
Ġinspir iert
ĠDI E
Deut sch
ĠSamm el
ĠPay Pal
Ġmonat lich
Rout er
ĠEleg ant
Angeb ot
Ġspont an
Deserial izer
ĠenttÃ¤usch t
B ug
H rsg
N ieder
d elta
f Ã¤l
f aden
f aktor
g is
n Ã¤chst
p redicate
s wer
t m
ç Ķ
Ġd aten
ĠS oll
ĠS amen
ĠS tempel
Ġw ahl
ĠM PS
Ġg ast
Ġg ames
Ġh ql
ĠF ood
ĠP i
ĠP res
ĠK ub
ĠK oll
ĠG ig
ce stor
get Query
ĠR ES
ĠC a
Ġst reichen
len den
Ġver hei
ĠAn kÃ¼nd
ĠEin nahmen
Ġmehr mals
ĠLe uchten
ĠList en
Ġher an
ĠBet riebe
schein end
enk ins
Comp at
FA CE
ĠgehÃ¶r te
parse d
ĠpersÃ¶n liches
Dir s
ĠBar bara
ĠDienst leistungs
angeb oten
ĠAs sertion
Ġed ges
ho fer
ĠAg greg
Serial ization
Ġverbunden en
Ġnormal ize
Ġherr lich
Ġbem erken
Ġhoff entlich
rid es
Ġsegment s
Ġmensch liche
ĠverÃ¶ffentlich ten
ĠzukÃ¼nft ige
ĠProv inz
Ġkor rig
None Match
ĠDÃ¤n emark
F le
W orld
] *
f ail
p ublish
ĠS A
Ġw eh
ĠB rem
ĠM iete
ĠH agen
ĠR ainer
Ġo ffer
ĊĠĠĠĠĠĠĠĠĠĠĠĠĠĠĠĠ ĊĠĠĠĠĠĠĠĠĠĠĠĠĠĠĠ
Ġvon einander
Ġre plic
Ġre ifen
set Constraint
ĠAr men
ĠSp ende
Ġcon stant
An t
Un til
Ġber uht
con verter
ĠKon sum
Man y
Ġ7 4
sk ont
ĠMod ellen
Ġind ices
Ġout er
Cms StringUtil
ĠÃĦ sth
ĠProjekt s
Ġhochwert igem
Ġeinge gangen
ĠSol id
ĠZeich nungen
Ges undheit
ĠBro sch
Ġsl ots
Ġclean up
Ġerfre ut
Ġanspruchs volle
Ġvirt uellen
ĠKons ument
ĠbegrÃ¼ÃŁ t
M utable
P o
P erm
S equ
el ing
ĠB urn
ĠK ennen
Ġk al
se ct
Ġr ie
ĠR ente
Ġe bay
Ġver sp
ann ing
per mission
ungs an
hn er
lt et
Pro fil
we ckt
Qu iet
ĠTr ier
Ġ9 2
Ġbeg leit
Ġ[ %
mann s
bl ing
Ġverw irk
ĠBand s
TI ES
ĠLes ben
Del imiter
Ġvorhanden e
ĠSuper markt
ĠGewinn spiel
ĠFort bildung
Ġport let
Ġdunk le
Ġwirtschaft lich
Ġfal sche
steuer ung
Kl asse
ĠErmitt lungen
Contain ers
ĠPortug al
ĠEntert ainment
J VM
P redic
S INGLE
c ia
m ahn
¸ ı
Ġd rop
Ġs napshot
ĠS W
ar if
Ġun beg
Ġw art
Ã¼ bt
Ġm unchen
Ġin mitten
ĠB reit
tr Ã¤t
ĠT uch
ir gend
Ġst unden
id ay
ĠSch Ã¼ssel
ĠSt ufen
oc o
ĠAus richtung
Ġ4 50
Qu ote
---- --
ges undheit
issen schaften
Service Exception
Ġ7 7
ren z
reg eln
Ġcurrent ly
Ġstr ess
ĠKn ei
Ġverl or
alis ieren
ĠMe cklenburg
DO WN
Port al
AS H
ĠWert pap
Ġversion Id
ĠHo he
ĠComp arable
Ġdis able
Ġbein ahe
Qual ifier
sign ature
viel falt
ĠVorstand s
ĠBrÃ¼ der
ĠApi Response
Ġkomplex en
ĠInn sbruck
ĠOld timer
UNK NOWN
ĠLogging Util
' '
B ev
K Ã¶n
W C
Z ahl
Z usammen
t reffen
v olumen
Ġ ie
re ement
Ġb ran
Ġein ger
Ġt au
ĠD SL
ĠG aming
ĠI R
Ġc op
ĠL ex
ĠL ife
Ġl Ã¶st
Ġe valuate
Ġauf gefallen
kt iven
Ex clusive
ĠVer h
ĠAn lauf
Ã¤n ze
Ã¤n zer
uf el
ĠEr kenntnis
Ġvor bereiten
aus weis
ĠEin steiger
Ã¶r n
ĠÃ ĺ
ĠAb itur
ĠBe zahlung
new s
fahr ungen
kl am
ĠCh art
Node Type
log in
ele m
Ġcreate ModelElement
Ġger Ã¤um
Ġtype Name
sk arten
zw ei
ĠGer uch
Buffer Size
ĠMan che
ian o
ĠlÃ¤ ss
Ġsub mit
Ġletzten dlich
ĠVerein igten
ifiz iert
Ġexist iert
ĠSÃ¼d ti
Ġwohn ung
ĠEing angs
ĠOl denburg
ĠruleJvm TypeParameter
ĠGit arre
Ġreich halt
ĠBayer ischen
Ġkulturel len
Jo urnal
ĠPen is
bewert ungen
Ġrenomm ierten
ecl ipse
ĠDSG VO
F ill
G VO
I AtomContainer
K arten
b ur
d ner
i ologie
} )
al ed
le hnt
Ġein gef
ĠD est
il ie
ĠF assung
ĠT Ã¼b
Ġc le
ĠH ef
ĠV ill
ot oren
Ġge fordert
Ġauf zunehmen
Ex ist
Ġbe leuchtet
sp uren
Ġdem onstr
ĠString Tokenizer
ken nung
add resources
ast ream
Ġcon ditions
Ġcon versation
Ġgen auen
Un set
EN CODING
sb ew
LA BEL
Ġgesch w
ĠReg al
back up
Ġ9 4
Ġ9 6
ĠWeb cam
Ġnun mehr
Ġcheck sum
Ġinput s
Ã¤ng ern
ĠEl f
Ġsol ide
ĠBeg leit
Tem plates
ĠSol ution
Back end
cr imin
Attr s
Ġintens ive
ĠGo ethe
Ġerhe ben
accept Language
empf eh
ĠkÃ¶rper liche
Ġaktual isieren
Ġrelev ant
ĠArtik els
ĠJournal isten
Ġerled igt
Ġsy mpath
ĠQuadrat meter
Will kommen
ĠÃ¤lte sten
ĠSorg falt
C M
C over
c loud
f g
g old
k anz
el and
Ġf emin
Ã¤ hnen
get Package
us se
Ġzu stande
Ġan statt
Ġauf bauen
Ġ" ",
ĠO B
op le
ex clude
En able
Ġnach ts
ĠAus schnitt
ĠEn th
Ġis Valid
af eln
lie d
ĠLe er
Ã¼t zlich
Ġ19 45
gesch enk
ĠÃľber wachung
amp aign
ĠBet a
ly ing
Ġausge prÃ¤
Call able
Up dates
ĠUr l
recht liche
ĠCo unter
ĠRo yal
schw ing
ĠMittel alter
Ġuser Id
ieg eln
ĠCont roller
ĠChrist us
ĠPer len
Ġold Value
ĠmÃ¶ bel
fÃ¤h igen
ĠAg ent
Ġ198 9
ĠHa ken
ĠXML Stream
Ġnachhalt igen
ĠSon st
Ġbeteil igten
ĠBewerb ungs
Ġbewer ben
listen ers
ĠBle ch
Ġdimension s
ĠPanor ama
ĠGÃ¶tt ingen
Ġlangweil ig
Ġgebild et
Ġfamil i
ĠFakult Ã¤t
) /
C ross
G leich
b rem
d ating
d igest
e ch
k u
k ann
m ost
n n
p ommern
Â ĵ
Ġs il
Ġv eg
ĠA lo
Ġin f
ei fen
ce pted
get Line
Ġst adt
ĠN ackt
Ġreturn s
ĠVer schluss
Ġbei ge
To Remove
ted Message
An halt
rÃ¤ um
fl ut
ĠFre il
lin ken
ĠÂ Ħ
Ã¼hr er
Of Week
ĠKon zeption
ĠBr Ã¼cken
ĠBo ard
unst ig
ĠSpe ed
ĠAt las
ĠKÃ¼ ste
Ġteil t
Ġass et
last ung
Ref resh
ĠDi Ã¤t
ĠGegen stand
Check ed
ausch al
ĠLin z
Ph ys
Ġover flow
Ġerf Ã¤hrt
Ġausgew Ã¤hlte
ĠBegriff e
Security Exception
MIN UTE
(", ");
ĠAspe kt
ĠausfÃ¼hr liche
Ġkomplex e
ĠSchwar ze
Ġemotion al
ĠFarbt Ã¶ne
mag azin
Ġassoci ated
Ġ[{}] ",
Jed es
PLA CE
F FIX
L auf
P resse
Q Name
S heet
d rom
d ichte
l m
l ier
Ġ ÂŃ
al tern
Ġw rong
is on
Ġi llegal
ab ler
ĠK urt
ĠV iol
and o
Ġl asse
Ġo st
ff el
Ġbe zeichnen
ĠSch ool
th ur
(" "))
ger t
pl ung
ĠEr hÃ¶hung
ĠEin trÃ¤ge
ĠEin klang
Ġpro per
List s
Ġam t
anz er
ĠVor schlÃ¤ge
ID ENT
RE FERENCE
ĠStr aÃŁ
Er r
Ġ7 9
ĠMar co
Ġ9 8
12 5
Ġcheck Argument
ĠBuch es
Ġâ Ļ
LI SH
remove All
rad io
RA PH
iker in
best immungen
tra it
Ġact iv
Ġverm eint
Ġsonst igen
ĠKolle g
Ġwes entliche
cr ete
ĠLo unge
Ġgelten den
ĠWeihnachts markt
steiger ung
ĠVertrieb s
Ġbewe isen
Ġeingesch altet
ĠVit am
ĠÃľb ungs
Ġabs eits
CUR R
Ġiss ue
initi ative
uttgar ter
A ff
C alc
D Y
F it
K o
L G
S ym
S Ã¼d
d ap
l r
v id
Ã Ĥ
Ð µ
Ġm iss
ĠB EL
ĠB ielefeld
ĠD S
Ġc redential
get Date
get Page
ir ca
ĠH il
ist rÃ¤ger
ĠO Auth
ĠSch ult
ell t
Ġj etz
sp olit
ĠAn reise
Ġab geben
Type Info
be er
ip end
uss ia
ĠAb schied
Ġ' >
ĠPl ayer
AR CH
ok http
ĠFl ur
Ġbek annter
ĠHand ler
Ġbet a
Ġbet reuen
spr ess
Ġbef asst
Des criptors
iver se
ĠSport s
umm el
ret ry
ĠGemein der
Ġ25 5
Ġuser Name
Ġprocess or
ĠBu ilder
mobil ien
Account Name
fert igt
Ġfal schen
sem antics
ĠkÃ¼r ze
Ġanerk annt
ĠMuse ums
Rei he
ĠUrheber recht
ĠglÃ¤n zen
Ġgre ater
Ġgegebenen falls
Orient ation
B log
E OF
L a
P df
R B
S parse
Z wischen
m asse
ich sen
Ġm ischen
ĠB ind
ĠB Ã¤r
Ġg aben
Ġh older
ten ds
get Group
ĠH op
ber ry
Ġmit nehmen
Ġe Get
ĠN d
Ġ" %
Ġver bracht
St roke
set Content
Ġa ff
ĠEr stellen
Ġget Current
iz ations
Ġfor der
ĠGr Ã¤
ĠVor sorge
ĠDer zeit
dr Ã¼cken
ĠZu bereitung
ĠÃľber nacht
ĠLand haus
Ġganz es
com ment
sw eg
Ġob tain
ĠSystem en
Instance Id
For ce
Ġgeh olfen
ĠBest ehen
Ġschw ed
aff in
dest roy
ĠCo ordinate
Ġbeh au
map per
char set
ĠpersÃ¶n licher
Ġus age
ĠGen ieÃŁen
Ġhinter her
ĠKontakt anzeigen
ĠCl ip
AC CESS
ĠÃĸsterreich s
Ġattribute Name
ĠSen ior
ĠWÃ¤r m
ĠMel od
Ġsport lich
?? ?
ĠNor men
ĠEN D
Ġmember s
ĠInnov ations
ĠGra z
Ġbekannte sten
ĠAuth entication
ĠRen ov
Schedule d
LOC AL
ĠBrun nen
normal ize
ĠMall orca
ĠAlli anz
ĠFotog rafen
Ġleck ere
' ve
H C
P tr
S ink
S ommer
U tf
j dbc
l eten
m Ã¤
p oly
ĠS ql
is abeth
ĠA gr
ĠF un
sch Ã¤tzung
Ġr an
Ġan geben
Ġre iz
ib e
Ġab end
Ġtr im
ĠRe aktionen
Ġzw eiter
ĠIm pf
ĠIm plement
ĠNach teile
ĠKon f
Al ive
ĠÃľber tragung
Ġrequest s
Ġbesch leun
ĠRes ol
ĠBundes wehr
Pos sible
DO C
ĠPlan ungs
zÃ¼ gen
view s
ĠKommun en
ĠUp dates
uar ante
ĠSw ing
ĠBesonder e
Ġmer kt
Ġindividuell es
Wh ite
ĠRicht igkeit
Ġcas es
Ġmittel alter
OUT PUT
ĠInstitut s
ĠCall back
Spe zial
ĠKult uren
Ġcap acity
ĠMent alitÃ¤t
ĠBeam ten
uver Ã¤n
ĠFavor iten
Ġstattf indet
ĠbewÃ¤lt igen
avas cript
ĠAro men
C ss
J OB
S ender
T B
W M
W el
i ode
r unden
y ball
Ġd ump
an sion
Ã¼ sten
ĠB logger
ĠM ieten
ĠM Ã¼hl
ĠM osk
ĠK ard
ĠT otal
ĠT ypen
Ġp or
ĠH ess
ass andra
ĠO snabrÃ¼ck
ĠVer ordnung
Ã¤n ke
be zirk
geb oren
ĠVor bild
ov olt
Ġgen utz
elle d
RE F
fÃ¼hr ende
ĠÃľber prÃ¼fung
ĠMar ien
ister te
ĠKl ing
ĠGer hard
isten cy
Ġgeb eten
UN CTION
Ġread y
Cms Exception
Ġsc roll
TA SK
minister iums
Ġmittler en
Ġzuf Ã¤llig
zus agen
ĠValid ation
Ġcre ating
Ġâľ ĵ
INFIN ITY
C N
D ump
F Z
R ein
R ULE
e ars
p aket
r er
č ĊĠĠĠĠĠĠĠĠĠĠĠĠ
st rÃ¤
on de
at ibel
ĠS low
au ce
Ġv m
Ġin struction
Ġt z
ĠB ibli
ĠK eil
ĠI ran
ĠL ag
ag raph
and al
Ġl it
Ġl ar
ver treten
Ġim g
Ġre cy
Ġsch ade
Ġsch eme
Ġvor Ã¼ber
add Listener
ĠEin zug
Ġex change
ator in
Ġsp Ã¤ten
Qu eries
ystem e
Info Enabled
Ġ8 1
Ġ8 8
DE SCRI
Ġ10 24
Ġcont act
oren z
ĠCon sult
\" :
ĠFr ist
Ġtrans fer
last ic
Base Url
Ġbr and
Ġbl ut
ĠGebÃ¤ udes
ĠDem onstr
Min imum
Ġoptim iert
Ġdep endencies
ungsver hÃ¤ltnis
ĠÃ¤hn lichen
Ap pender
Ġruh igen
Ġbem Ã¼ht
ĠNachbar schaft
Det ection
Ġitalien ische
ĠJose ph
MAR Y
Ġfeier te
Ġstren g
bor se
square up
ladungsk arten
A cht
B ran
C r
d m
f eln
k licken
m ir
Â ³
ĠS afe
re verse
re gex
ĠA cry
Ġt rop
em ale
ĠK ick
Ġp oll
get Code
get Left
ĠH its
ĠL inden
ĠN ackte
ĠJ Ã¼n
Ġsch Ã¤len
ĠVer br
iv a
if te
Ġtr ennen
to CharArray
dern e
Ch oice
AT CH
fl Ã¤ch
ges prÃ¤
son st
Ġ8 6
Ġgeh olt
Sh adow
ĠSte igerung
Ġmin i
Pl attform
ĠStand orte
Ġvers uchte
ĠBuch staben
mo oth
ĠJSON Exception
ĠPlan eten
Ġzeit genÃ¶ss
ĠComp ute
Ġbeein trÃ¤cht
ĠPrÃ¤ m
getT otal
ĠInterview s
Ġtrain iert
ĠSamm lungen
Ġgelang t
Chr on
Ġenorm e
ĠScreen Constants
ĠVerhand lungen
optim ierung
ĠÃ¶rt lichen
ĠTob ias
) =='\
D one
F act
K eep
N ational
V erm
a unt
f ers
g han
l asse
m otor
ä º
ï ¸ı
Ġ ĊĊĠĠĠĠĠĠĠĠĠĠĠĠĠĠĠ
ar ies
as sten
is InfoEnabled
Ġm att
Ġb and
Ġf assen
Ġf Ãĥ
am enten
ent roid
ĠM angel
em as
ĠF ord
ĠP rÃ¼
ĠP rax
ĠG n
get Point
ĠH Ã¤nd
ĠL ifestyle
Ġnew Instance
ĠZ ehn
Ġ2 20
ĠSt reich
if orm
Ġso viel
ak s
sh ots
her ren
ĠAus wertung
An notated
ĠBe ein
du ktion
Ġbes uchte
ĠFl at
gend a
Ġgem essen
Al pha
str and
schieden e
Ġte am
ĠInter pret
ĠKunden service
ĠVerb reitung
met ter
ĠGef l
ĠDr achen
ĠRei z
Ġvoll stÃ¤ndige
Store Exception
ĠJe an
Thread Pool
system en
200 6
Ġkomp etente
ĠPass ag
Ġmark er
ĠWahr nehmung
ĠClub s
Ġneg ativ
ĠFel ix
Fin ished
ĠMik row
ĠTree Set
ĠZuf riedenheit
oper ator
ĠSens or
ĠHell igkeit
ĠRud olf
ĠherkÃ¶mm lichen
ĠFÃ¼hrungsk rÃ¤fte
Wild card
bedien ung
) "
I ER
j ung
s upport
v ing
z icht
st rÃ¤ger
et ic
at zen
el f
Ġf arbe
am ount
ing end
ĠE hem
ĠP df
Ġk a
ĠT asse
ĠR ai
ad vance
Ġe G
In crement
ĠJ ar
ĠO range
ĠO mas
Ġre cher
Ġdem okrat
Ġvor geschrieben
gr enz
Ġzum al
ru it
An bieter
ore a
ĠZeit schriften
Ġ6 55
aut or
++ ,
ĠFl ash
ĠFl Ã¼gel
LE T
ĠTr agen
ĠTr ennung
ans icht
Ġgleich nam
Ġdata Source
Ġerh ielten
ĠMod ifier
ĠSchul jahr
kon zern
rad ius
Ġpart nersuche
Ġbedeut end
nach mittag
Is Set
ĠPrÃ¤ vention
brigen s
ĠLi quid
Ġgesetz lich
Ġpop ulate
ä¸ į
gon om
ĠTim er
fle chte
cel ona
ĠInnov ationen
Ġlok ale
komp etenz
Su ite
mÃ¤r kte
ĠPod cast
Ġcore Type
ĠZin sen
ĠEmotion en
ĠkÃ¼mmer t
ĠWarenk orb
H at
H aupt
h ilfen
k ommunikation
Ã §
Ċ Ċĉĉĉĉĉ
Ġd az
Ġd anken
st one
Ġs ender
is Array
de ko
ĠE iche
sch ritt
Ã¶ re
ĠW alk
ĠT afel
Ġp m
ĠH under
ĠR ande
ĠN eg
ĠU kraine
ind lichen
ri o
ĠSch rau
Ġsch lie
sp arte
ĠÃ¼ber setzt
ĠÃ¼ber nahm
he ft
ast ore
Ch annels
Ġbes icht
OR IZ
Ġen ough
ĠQu ick
Ġgesch lagen
Ġbet ter
Ã¤d ie
getS tr
sk arte
Ġange wiesen
ĠGe ben
ĠDes ktop
Ġindex es
FI ED
Dec or
ĠLebens jahr
ĠLebens dauer
Http Response
ĠÃ¤ sth
EX P
num Rows
ĠUnivers itÃ¤ten
ĠSc ience
Ãľ V
ĠRegel ung
TR Y
MO D
gro sse
fin ish
Ġaktiv ieren
Member ship
ĠSpezial itÃ¤ten
lam pen
ĠMerk male
ĠInteress ierte
rÃ¤nk ung
ĠVerbesser ungen
Ġspan ischen
ĠursprÃ¼n glichen
Ġregistr ieren
sfÃ¤h igkeit
LOC ATION
wÃ¼n sche
IFI ER
Ġroll back
Ġaufgel istet
ĠfÃ¼n ften
Ġaufgeh oben
getReturn Type
ĠgetOr Create
ĠBraunsch weig
G P
H idden
I gn
K re
O der
S ollte
] ",
m ix
n ische
r imin
s arbeit
v ia
en coded
Ġw itz
Ġm yst
ĠB att
ĠB ischof
ĠM alt
ĠF ische
ĠK Ã¤r
get Location
Ġe he
Ġre ally
ell es
ex c
ĠPro gn
Ġent schied
ĠAb st
eln de
ĠCh ines
Ġ19 60
inter rupt
sb ehÃ¶r
ok u
Ġ7 1
ble ms
ĠMon te
ĠfÃ¼hr ten
Ġrund um
mar shal
Http Info
getD estination
Co ords
OP ER
ĠMÃ¤n gel
ĠGed uld
ĠSol o
ĠWel pen
fÃ¤h ige
ĠSw itch
job s
Ġtyp isch
Ġatom s
Ġsort iert
ĠSimple DateFormat
ĠMult im
geord net
mess ungen
ĠTele kom
ĠEcht zeit
aud it
svor sitzen
dre hen
ĠGebur ts
E DataType
F s
K ommission
S em
h ub
r r
v ector
Ã ¢
ĠS M
Ġun besch
Ġw em
Ġm b
Ġb aum
ĠB H
ĠD icht
ol o
ĠP ersistence
ĠG le
ei mer
Ġif NoneMatch
ĠN ieren
Ġ1 01
ver mÃ¶gen
len z
Ġver halten
Ġver grÃ¶ÃŁ
Ex tr
ĠZ ier
ĠZ ucht
ĠSch ad
Ġsch lich
ĠAn ten
ern d
ĠÃ¼ber aus
eu en
add Property
ĠRe ut
Ġle x
imm obil
Ġar ound
ĠBau jahr
Ver lag
getC omp
Comp ute
ĠMitglie ds
Ġdarauf hin
gener ation
ĠZur Ã¼ck
ĠSE O
ĠPublik ationen
ĠCamp us
Executor Service
Cre ation
ĠRob oter
Ġzweit es
ĠPfarr er
Ins gesamt
Ġdro ht
versicher ungen
MPS Constants
ĠZwie bel
ĠKÃ¼nst lern
ĠKE Y
behÃ¶r de
Ġerstaun lich
ĠgÃ¤ng igen
CENT ER
mkdir s
ĠKondition en
FIL TER
Quiet ly
! .
% ,
. ;
D ro
F RA
L ATE
N atur
P ower
S uche
V ielen
h u
j vm
t temberg
al gorithm
ĠS ynth
au ger
re ue
Ġm apped
Ġin ser
Ġin jection
ĠB j
ĠP ie
ĠP izza
ĠT rÃ¤ume
Ġp ers
Ġp redic
Ġge leitet
ĠN ebel
im ag
Ġ" \\
ann over
ĠSch u
ben e
Ġsch we
Ġj en
ĠAn ne
oc ab
add Element
Pro m
enn e
auf lage
ĠSp Ã¼l
av y
ĠAus flÃ¼ge
Ġle d
ĠMit teilung
AT ER
ĠCh ic
ĠEx cel
Ġar ab
Mod us
str Ã¶
ĠHand lung
ĠAm ate
ĠBr ett
Connection Factory
ĠFil men
Exec utable
Ġstatt dessen
ĠPar allel
ĠWeiter hin
Ġpr imitive
Ġiter ation
So ft
Ġdat aset
ĠbenÃ¶t igten
omet ern
ĠGut achten
Ġwei hnacht
Ġverz ichtet
Ġdank bar
auth entication
ĠST ATE
Initial izer
ĠEind rÃ¼cke
ĠUl tr
ĠJahrzehn te
ĠgrÃ¼nd lich
Ġetabl iert
~~ ~~
Ġaf rik
A ir
D U
D EN
D rop
h aar
i ffen
l ight
z ucht
st est
Ġun tern
ur ing
Ġi o
Ġf le
Ġein geben
ĠM Ã¶glich
ĠK y
ĠK ell
ĠT S
ĠT rock
ir gt
Ġan wes
Ġst Ã¼r
Ġaus sage
Ġbei der
add resource
ak on
Ġgen ial
urr ence
onn tag
ST IN
icher ten
ĠFl air
iter able
Ġfre ier
Ġro sa
ĠFahr ten
ĠMed ium
spiel t
Ġsicher er
kon zert
ĠPh Ã¤nomen
getD ep
mÃ¤ÃŁ igen
getClass Name
Enum er
Ġstark er
PAR EN
ĠRef lection
Ġblock Size
ĠErgebnis sen
ĠAuÃŁen bereich
ĠHochzeit s
("/ "))
Ġrest lichen
ĠReich weite
ampag nen
ctr l
Ġleiden schaft
Ġkulturel le
ĠzukÃ¼nft igen
Ġanalys iert
Ġzertifiz iert
Iss ue
Ġaust auschen
ĠOliven Ã¶l
ĠSchuppen flechte
C KET
H istor
R ich
f ro
j et
m ern
v an
st ritten
al ische
Ġf ickt
am odel
Ġein ges
ĠD avon
ĠK ohle
Ġp ubl
Ġc urren
ĠL ove
ĠR ass
Ġver sprechen
(" #
ĠAn stieg
ĠAn wesen
Con cept
og a
ĠUn ternehm
Ġvor liegenden
stan gen
cht et
ĠAl len
Ġcon struct
Ġ' <
ĠPl atte
ank er
ĠGes p
Com bo
ari at
Ġbet ragen
Des halb
RO L
Ġbew ahren
print f
ĠFach anwalt
Ġsub stitution
reif e
loc ated
ĠWei le
Ġdest roy
---------------- --------
ungsk raft
Ġag gress
Ob servable
ĠSpezial ist
stre cken
Ġintens iver
getT itle
ĠAud it
ĠBade wanne
verkehr s
ĠNor wegen
ĠAkk us
Ġsm all
Akt iv
ĠSchei be
Ġelektr ische
Ġauspro biert
prot obuf
Ġ': '
ĠKonsequ enzen
ĠNich tr
C ut
G ood
I K
I Atom
W ish
f achen
f ragment
s yn
at sch
al em
re iz
re store
Ġm aterial
Ġb arrier
ĠB ut
ĠM A
ĠM ega
Ġg riff
ĠF aust
get TableName
ier endes
ist a
ĠC OM
ĠO pp
Ġre str
ĠSt eine
(" &
(" (
set up
set Header
mer kt
Ġvor erst
add Post
ĠSp Ã¤t
ow ski
ĠRe zeption
ĠAus ge
ĠBe ck
ett i
ĠBet reu
Ġeinz us
write Object
Start Index
Ġvers uche
bel ast
jÃ¤hr ig
TA IN
ĠFuÃŁ gÃ¤nger
ĠMittel meer
ĠNetz werke
ĠSc an
Ãľ R
kn Ã¼pf
ĠTem pel
ĠBand breite
Ġref lekt
ĠHo use
bes itz
Ġrecord s
ĠAktiv itÃ¤t
ĠFris uren
akadem ie
C Y
I CH
I ES
W ichtig
Z ug
l inger
Ġ ue
Ġs i
Ġw olle
Ġf ick
Ġg arn
tr ain
sch alten
sch reiber
Ġk er
get ID
ĠN ames
pe zif
og ar
ĠPro gress
ĠEr furt
Ġent ities
IN ode
To uch
ĠAb fahrt
Request Context
Ġch arm
ohn ung
Ġadd ing
bo y
Ġausge glichen
ĠCon structor
Ġfol gendes
Sh ell
write Lock
ĠGef Ã¤hr
ĠMo zu
Ġeig entlichen
def inition
def ined
ichter stattung
Tim ex
ĠHerz og
Ġentscheiden de
Ġbit map
ï»¿ ï»¿
Ġvoraus sichtlich
ĠSy rien
lÃ¤uf er
ĠBatter ien
CLO SE
ĠImpul se
andin av
) *
= %
F ern
O LEAN
S PI
V oll
k redit
s ache
t et
v i
Â ·
ch ancen
st iftung
Ġs per
Ġf f
Ã¤ user
ĠA z
ĠM u
ol i
ol in
ĠK Ã¶st
ĠT U
Ġp ower
Ġr aten
ĠL Ã¤rm
ĠL Ã¶cher
ĠV ulk
ad oc
ue st
Ġer re
ap er
ĠSch Ã¶pf
Ġbei des
Ġvor ge
Ġint ell
Ġam b
Ã¤r te
ĠAb wechslung
Ġ' {
Ġgen ossen
for ward
ST OP
ĠCh in
Ġeinfach es
Ġ7 6
ĠReg ie
Ġgel istet
ble men
ĠPol icy
tag on
bew usst
Ġbeh Ã¤lt
ĠFr ame
Rel ated
Ġfl ach
KEY S
ĠFern er
Bound ingBox
MS Exception
Ġaufge fÃ¼hrt
bezogen e
column Name
ĠÃ¤hn liches
ĠPrÃ¤ senz
STR U
ĠSec ret
Liter als
ival ent
ĠImmer hin
Ġwest lichen
ĠFrÃ¼hl ings
Ġmont iert
yles heet
ĠArme e
ĠHtml Tree
ĠDam als
Ġlon ger
Water mark
ĠSTR ING
Bev or
A ch
C lear
E valuator
T en
W s
f n
p ad
} ";
ar est
ĊĠĠĠĠĠĠĠĠ ĠĠĠĠĉĠĠĠĠĠĠĉĉĉĉ
el z
Ġm Ã¤dchen
Ġb ud
ĠB ock
ĠD b
Ġh em
ĠF alten
ĠF Ã¼lle
ĠP rag
se q
Ã¶ ll
Ġer l
Ġer for
Ġre gener
ĠVer fassungs
ik ro
St ock
set Enabled
uf akt
he b
Re quire
Ġget Next
ak i
stan zen
ĠMit einander
ĠStr assen
Ġdeut liche
ĠX Path
ĠBr ille
12 0
getC o
geh Ã¤use
ĠApp arte
Ġus ers
itel ist
ization Exception
Ã¶hn t
pack ung
Ġlocal Name
ĠArch ive
find By
gener ator
getR ight
Fr ont
Ċĉĉĉĉĉĉĉĉ ĉĉ
Ġintegr ierte
ĠBett wÃ¤sche
Ġbein halten
ĠGleich gewicht
ĠStellen wert
Ġnormal ized
swert es
ĠValid ator
verk auft
ĠCamping platz
ĠKamer as
Mal formed
MILLI SECONDS
Ġlegend Ã¤ren
ĠZent imeter
ĠKlient en
getFormat tedMessage
ĠBegegn ungen
getSuper class
æĺ ¯
addPost Param
= {
C lock
I r
J ul
f aktoren
g p
n eter
r pc
Ã ¸
is ierungs
Ġm i
Ġin vocation
Ġt hreshold
ĠM ember
Ġz ahlt
ab ly
Ġh otel
ĠG ay
() {
Ã¶ gern
ĠT ok
ĠH amm
ĠL ichter
ver ters
Ġre gen
stan ge
ĠAb wicklung
fl asche
Ġcreate OrUpdate
Ġger icht
Ġem p
>( _
ĠAkt ualitÃ¤t
Ġad aptor
Ġoutput Stream
ĠEle ktrom
Annotation Present
ĠLÃ¶s ungs
ĠType Token
ĠDre ier
ĠhÃ¶ch ster
ĠFle cken
VI EW
ĠfrÃ¼h zeitig
ĠSV G
ĠSchwar zw
ĠDist anz
Ġsuch st
Ġliter al
Pop up
Neg ative
ĠBere chnung
ĠGlÃ¼cks spiel
getCanonical Name
Indic ator
Ġrecher ch
' ).
- >
B aum
V G
c ategory
e val
f uture
m arshaller
z usammen
er os
al ters
Ġw eiten
Ġf ar
Ġt erms
ĠB uchen
ĠF etisch
ĠE hre
ĠE spress
ĠP Ã¤dagog
ĠP interest
ĠK rÃ¼
Ġk alte
Ġc d
get Owner
ĠH unden
ĠL einen
lo pe
ĠU we
ĠZ eugen
ĠSch Ã¤d
ĠSch riften
Ġwir ft
ĠÃ¼ber tr
En code
hal s
ĠEin heiten
ĠEin zahlung
sh ared
Ġle gal
ÂŃ ÂŃ
ĠCh ip
ĠTe ich
akt iven
ĠOr chester
ele mente
ĠHand ball
ĠÃľber ein
Ġ7 3
ev t
getS erver
ĠGew ebe
ĠBes uchen
ĠÃĸ le
Ġzusammen gefasst
Text Field
ĠLie ge
Char acters
Sc aling
ĠPh o
ĠZusammen spiel
ĠgroÃŁ artige
comp atible
FF DC
ĠAG B
Dis abled
ĠWett bew
SU CH
sele ctor
lad ungen
PROPER TIES
ĠHandwerk er
san ierung
ĠSper ma
ĠProt ein
Ġverlie hen
Ġsent ence
gesp ielt
Ġwarn ing
ĠReihen folge
ZER O
PUB LIC
ĠAnbie tern
ĠArzneim ittel
ĠMozu Url
C F
C al
F an
L icht
R ound
S UP
b ag
h Ã¼lle
h Ã¼tte
in chen
ie ge
Ġs etzten
ĠS ig
ĠS ven
el m
Ġw andern
Ġf ocus
ĠB ucht
ĠE cken
ĠK lÃ¤ger
ĠT alk
Ġp w
get Address
ir bt
Ġe Book
Ġer lernen
ff eisen
lic ations
ind el
ĠJ sp
ĠIn st
sp unkte
op ro
pl ies
og el
ĠPro file
be am
geb ungen
ĠAb sprache
An chor
ac o
EN G
ST ANCE
ĠHer d
Ġneu em
AR GET
ĠWer ken
ĠMar ie
Resource Bundle
Em pf
Ein ige
lei hung
Ġfield Type
gew ebe
ĠSchul den
ikel y
ĠMann es
ĠNeu stadt
Ġteil zunehmen
jÃ¤hr iges
ĠNutz ern
ĠSel ber
16 0
ĠKr isen
Ġ{} ,
Ġcan on
200 4
roll back
event s
Ġwork ing
Te ch
Ġinternation aler
Ġeinzel ner
Ġconn ected
ĠHeil ung
ho sen
amb us
achst ums
zul ernen
ĠLeistungs fÃ¤higkeit
go ing
ĠHor izont
ĠStad ion
Ġleist et
ĠFranz isk
Ġdist anz
Ġregistr iert
Ġkontroll ieren
ĠVan ille
ĠHoll ywood
ĠerhÃ¶h te
Netz werk
kre bs
Ld Consts
Sent ence
ĠBask etball
G ar
M ULT
R Ã¼ck
V iolation
h Ã¶rt
j sp
t ier
z immern
er d
Ġd ruck
ar at
am tes
ĠM au
ĠP erm
ĠW ende
get Remote
ĠC SU
Ġver steckt
ĠSch auen
ĠVer gnÃ¼gen
og gle
ĠUn it
urch t
ĠAr n
ĠSp itz
Ċĉĉĉĉ ĠĠ
Ġ' [
bst ahl
Im ages
ĠGes ichter
Ġeinfach ste
Ġ8 2
ĠLand rat
Ġange wendet
ĠCon dition
aÃŁ t
Ġins ide
stÃ¼t zung
ĠUr sprung
FI R
Ġare a
Ġsour ces
Ġexp anded
Ġ199 1
200 5
group s
ĠBÃ¼rger innen
ĠGed ichte
Ġdi agnost
kennt nissen
Ġenthalten en
ĠRund funk
Ġfreund liche
Cre ating
Sl ash
Sl ots
vertr etung
ĠMand anten
ĠLam pe
ĠAusgang spunkt
ĠEleg anz
LIM IT
ĠIO Utils
Ġdokument iert
Parameterized TypeReference
Ġkir ch
ĠStaatsanwalt schaft
Ġbehau pten
E lastic
W AS
c odes
c andidate
i FieldSeq
k ochen
l ach
m ethoden
r unning
s ample
z lichen
Ġ Ċĉĉ
ĠS attel
ar itÃ¤t
Ġw ritten
ge fahr
Ġt ausend
ĠB auf
de legate
ĠP as
ĠW olle
ĠT RACE
Ġzu zu
Ġver schlagwortet
per form
()) ))
enn y
Id le
ord nungen
ĠAus zubilden
Ġsp art
Ġuns icher
Ġ' ;
Ġgro b
AT IVE
fe at
Ġgegen wÃ¤rt
stra ÃŁen
DE FIN
ĠKinder tages
ĠWelt meister
Trans lation
ĠCo vers
verb ot
Work ing
ĠDar um
sl ot
Ġdein es
Ġbl asen
Ġfilter ed
Ġkennen zulernen
ĠZahl reiche
SU CCESS
Ġdirect ly
ĠTisch tennis
ĠBÃ¼ro s
ĠCD K
ĠgÃ¼nstig sten
Ġpersonenbezogen e
Ġpreis wert
ĠUN D
ĠBÃ¶ den
ĠTrink wasser
Redu ce
Ġverabschied et
Ġmil itÃ¤r
ĠSchie ds
ĠÃĦgyp ten
grosse heide
B ot
F P
F ax
L on
L assen
L ife
W al
b Ã¤nder
h aven
j ax
k orb
er z
in formation
ĠS ize
ĠS ynchron
re lev
Ġn ich
Ġb s
Ġf act
ĠA ward
ig ter
ĠF aces
ĠP ackage
sch reibung
se en
ĠW uppertal
ĠT reiber
Ġp en
Ġp rior
Ġge stattet
Ġver setzt
ann a
per to
iv alen
iv ely
ĠAn nahme
set Request
Ġab gesehen
Ġvor nehmen
beit rÃ¤ge
fig uren
ov a
Ã¤hr ungen
ener gie
Field Type
ĠÃľber leben
Ġgef angen
ble ch
Ã¼nd eten
Ġschw anger
Ġbin den
ĠPart ition
Dec ode
Ġgest orben
ĠRo ulette
ĠSel f
ĠGegen Ã¼ber
ĠRef lex
beg riff
ĠWel ten
Pair s
QU I
ĠLang zeit
ĠAnaly tics
Ġgestalt eten
ĠPor tion
Her steller
ano Time
ĠStÃ¤r kung
getStatus Code
ha ken
member s
ĠBor ussia
ĠFass aden
Ġruss ische
Hy per
Ġzz gl
ĠHerstell ern
ĠFlÃ¼ss igkeit
getSh ort
bÃ¶ den
ĠDiabet es
ĠAcry l
= {}
D azu
I SS
W ieder
b esondere
d p
d ose
i end
m ischen
ch tem
et es
el der
Ġw etter
Ã¤ ge
ro sp
ĠA B
ĠB ang
ĠM inder
Ġh arte
ĠK ragen
ĠK asse
Ã¶ ÃŁer
ĠT G
ul ierung
Ġc ollector
ĠL an
ĠR Ã¤tsel
ĠV ize
Ġl agen
ub s
Ġst ric
ver hÃ¤ltnisse
Ġver schieben
ind ent
Ġ2 30
ĠSt or
ĠSt ark
Ġaus bildung
set Data
esch Ã¶n
ĠÃ¼ber lassen
Ġint ent
Ġle hr
fer enzen
inder te
off e
Ġar omat
Al low
ĠZu schau
stra hlt
Ġgel aufen
sw issenschaft
ĠKl age
ĠAngeb ots
hand lung
fre ies
Ġverw andelt
loc ator
Ġinteress ierte
Ġspr ich
ĠArch Ã¤
ĠFinanz ierungs
Ġwahr genommen
ĠGut scheine
Ġbean trag
Ġjem als
SU FFIX
Ã¤ss ige
Ġmer ken
ĠPrÃ¼f ungen
run ken
ĠWahr scheinlichkeit
ĠPil ot
ĠAuth or
techn ologie
ĠBestell ungen
Gemein sam
Ġgere chnet
ĠVÃ¶ gel
Ġbemer kt
Ġeinsetz bar
Lev els
C ookies
] ");
b rechen
d lichen
d ring
Ġun Ã¼ber
te e
ro om
Ġt ap
Ġ( +
ĠB uck
ĠD raht
ĠE g
ĠP ausen
sch alen
sch reit
Ġc ost
get Input
Ġr utsch
ĠL ib
ĠL imit
ĠR ast
Ġl anden
ĠN ext
Ċĉ ĠĠĠĠ
Ex press
ĠVer mut
ĠAn y
Ġvor wiegend
Pro te
auf ent
ĠEin bruch
be ziehung
Ġcon verted
Ġber Ã¤t
ac l
Ġ/ =
pen sion
check State
Ġx xx
Ġmal er
Resource Group
Not ation
Par sed
ĠStud ent
ĠBeg rÃ¼
MP P
ĊĠĠĠĠĠĠĠĠĠĠĠĠĠĠĠĠĠĠĠĠĠĠĠĠĠĠĠĠĠĠĠĠĠĠĠĠĠĠĠĠĠĠĠĠĠĠĠĠ ĠĠ
ipp o
Hash Code
Ġern euer
ĠBar celona
ĠprÃ¤sent ierte
ĠGed Ã¤chtnis
Ġbegr enz
krank ungen
ĠExec utor
Ġerfre uen
ĠdÃ¼n n
Daten schutz
Ġanalys ieren
Ġidentifiz ieren
hor st
ĠPhot ovolt
ĠBelieb theit
ĠverlÃ¤nger t
ĠTi rol
Ġgeleg entlich
. ";
C ALL
T RA
V pn
W inter
Y ou
b oo
c oll
m ac
r ise
w ahr
w asch
Ã ¥
Å ¸
in tens
Ġd ach
st ationen
an ch
ĠS ite
re form
Ġi lleg
Ġb dsm
am me
ĠB U
ĠD ial
ig et
ĠE ver
sch rauben
ĠG L
() +
Ġc irca
ach el
ĠH irn
ĠL Ã¤cheln
ass ungs
Ġl as
ĠC AS
ap ler
ver tex
Ċĉ Ġ
ĠSch ritten
ĠSch irm
ĠIn jection
(" @
Ġdem ent
Ġtr ug
ĠEin es
geb irge
Ċĉĉĉĉ Ċĉĉĉ
To Add
Ġuns icht
Ġdies jÃ¤hrige
Ġwe ek
ĠGesch ehen
Ġ7 8
asch a
Ġend Index
Ġausge zeichnete
For Parent
12 8
Ġhoch glanz
getC ache
Mit glieder
ĠFol ien
ĠGarten mÃ¶bel
Cl one
Ġbr ut
PAR ENT
Ġco ordinates
Ġany thing
Ge o
Ġback ground
Mark eting
ĠSan itÃ¤r
send ung
Ã¼tz ten
ĠWh ats
Ġanb ietet
ĠEv a
ĠVerhalten s
Ġign or
Ġverurs achen
ĠPhys i
Ġfall back
ĠSzen en
Ġfreiwill ig
Ġdisp atch
ĠArbeitspl Ã¤tze
inten do
ĠApart ment
Est imate
ĠstÃ¤dt ischen
H istogram
S R
W rap
d ass
f isch
h ook
Ġs age
ĠS plit
ĠS ocken
Ġb reiter
am ts
Ġ( *
ĠB am
ĠB lo
ĠD rag
de cker
ĠK anten
Ġk Ã¼hl
ĠT unnel
ĠL aw
Ġl azy
ub y
Ġan gel
ĠU K
Con sume
est and
set zer
Re placement
Re presentation
ert ung
av adoc
Ġunter gebracht
stell ern
wie der
fe atures
ĠOr thop
Result Inner
ĠMin er
ĠGew Ã¤sser
ĠCon current
Ġindex Of
Up grade
ĠKont in
ĠOber material
bl Ã¼ten
Ġlange m
Ġverl inkten
parse Double
Ġeig entliche
Helper s
PRO JECT
roll ing
Â« .
Ġeinge st
Ġabsol uten
Pool Size
TO DO
Ġjob Id
Ġauth entic
ĠExper te
CA SE
ĠgewÃ¤hr t
Ġherr lichen
ĠKleid ungs
ĠMobil funk
ĠDokument en
Ġsah en
durch schnitt
Ġschrift liche
ĠKaffe em
ĠmaÃŁ geblich
Ġwid met
ITER AL
feuer wehr
Ġakzept iert
Ġ'. '
lec ule
ĠIntelligen z
ĠVAL UE
ANNOT ATION
ĠRai ffeisen
K A
R ew
R ock
S il
S ound
V pc
d one
Ċ ĊĠĠĠĠĠĠĠĠĠĠĠĠĠĠĠĠĠĠĠĠĠĠĠĠĠĠĠĠĠĠĠ
es heim
at ic
Ġm achst
ĠA tel
Ġein tragen
Ġein kaufen
ĠB reak
ent rÃ¤ger
ĠD icke
ĠM ade
ĠM emory
ĠF aden
ĠG aumen
ass ignment
Ġzu geben
ĠSch lÃ¤
od o
St a
ĠEr wer
oo ser
Pro jection
ak ler
ĠRe alisierung
geb unden
to HexString
Ġzw ingend
ru h
Ġ4 000
Qu ant
Ġet liche
sb op
Mod ify
Ġadd To
ĠMar cel
Ã¶s se
Ġinter ceptor
ĠBau stelle
Ġqu ant
TE GER
mod ul
rat es
ĠFach krÃ¤fte
Ġcomp ile
Ġad apt
spe ktrum
ĠMag ie
ĠPat rick
ĠâĤ¬ .
Ġbisher ige
=" +
ĠHo sp
ĠÃĦr zt
ĠKredit karten
ĠCharakter e
ĠEd ge
anst alten
ĠCall able
Bet ween
pul ver
ymn astik
Ġeingeb unden
push Follow
ĠPet ra
mach ung
ĠPull over
ĠIntens iv
Ġperman ent
ĠBegr Ã¼ndung
ĠWash ington
ĠNichtr aucher
1 10
B OT
D AT
E ffekt
S on
S ow
W H
b rot
t agen
Ã ´
en um
on i
ĠS her
ĠS ehn
ĠS ahne
Ġn etten
ur b
Ġf ett
ĠA cc
Ġt hr
Ġt anzen
Ġz eige
ĠP ion
se hn
ĠI G
Ġp in
Ġp ark
Ġc ols
ir chen
Ġmit bringen
Ġan grenzen
ess eln
ot ive
ĠN ass
Ġauf bew
Ġver kehr
ĠJ A
ĠSch lauch
Con s
St il
sen sor
auf kleber
av es
pro f
Ġle iten
ĠEn semble
ru ption
kl ingen
AL LOW
Al b
Or m
read Object
With Headers
ĠTag ung
vor sorge
Ġstart Index
ied lung
Sh ift
ĠInter val
glie dern
Next SinglePageAsync
fre ier
verb Ã¤nde
ĠLog in
Ġobj ekt
ĠPorn ofilme
ĠJul ian
orre lation
trans l
ĠPoliz isten
ĠDre hm
ĠStat istik
ĠÃĸff nen
Ġeurop Ã¤
ĊĠĠĠĠĠĠĠĠĠĠĠĠĠĠĠĠĠĠĠĠĠĠĠĠĠĠĠĠĠĠĠĠĠĠĠĠĠĠĠĠĠĠĠĠĠĠĠĠĠĠĠĠĠĠĠĠĠĠĠĠĠĠĠĠ ĠĠĠĠĠĠĠĠĠĠĠĠĠĠĠĠĠĠĠĠĠĠĠĠĠĠĠĠĠĠĠĠ
ĠDo ktor
Ġfreund lichen
ĠSek ret
ĠGu ide
Partition s
ĠPor sche
ĠConn ect
ĠSign ature
Ġ-- >
Ġeleg anten
oler anz
Aggreg ate
Ġcor respon
ĠgrÃ¼nd ete
Ġcf g
Ġwid men
ĠInhalts stoffe
Ġdetaill ierte
amerikan ischen
ĠRol and
Ġgeheim nis
Ġá Ĳ
Aller dings
Fram ework
F ar
L iefer
L azy
V ED
b ottom
c is
d irect
f u
k omm
m eier
r al
t itel
å Ĭ
Ġ æ
Ġ ult
Ġs ink
ĠS oph
Ġf un
ĠA dress
Ġt reibt
ĠM Bean
ut ors
ĠE G
sch atz
ĠK alt
get Label
ck te
ĠR A
ĠR ote
ber ichten
ass ign
Ġe jb
Ġst arb
Ġbe deckt
ĠSt all
ĠSt uttgarter
ĠVer einen
Ġ! !!
ay ers
cht isch
Ġunter einander
ĠAus b
pro cessed
Ġle ise
ĠPl attformen
Sch utz
ĠTeil zeit
Ġinter disziplin
ĠBr illen
Ġgeh ei
Ver anstalt
Ġmin ute
ĠRes earch
Ġkon front
Default s
[...]
