#version: 0.2 - Trained by `huggingface/tokenizers`
e r
e n
Ġ Ġ
i n
c h
Ġ d
Ġ a
e s
o n
u n
i s
ĠĠ ĠĠ
Ġ t
i t
a n
i e
Ġ s
o r
a t
Ġ w
a r
r e
a l
t e
Ġ S
h e
Ġ b
u r
l e
g e
a s
Ġ f
i ch
Ġ in
Ġ e
un d
Ġ m
u s
Ã ¼
Ġ A
Ġd er
Ġ v
in g
Ġ B
e l
Ġa n
Ġ o
i l
Ġ und
Ã ¤
s t
r o
i on
Ġt he
Ġ n
\ \
Ġ M
Ġ D
d e
Ġ p
t er
Ġ 1
Ġ c
un g
i g
Ġ h
Ġ (
en t
a m
o l
u t
Ġe in
Ġ P
Ġ T
i m
Ġ F
Ġd ie
o m
Ġ G
â Ģ
ĠĠĠĠ ĠĠĠĠ
Ġ E
i c
Ġ K
Ġ I
Ġ z
e t
r a
e d
s ch
Ġ W
Ġ H
e m
Ġan d
h r
t en
ĠĠ Ġ
Ġ R
Ġ L
Ġ g
Ġt o
u m
Ġo f
d er
Ġb e
u f
Ġ C
is ch
is t
i r
b er
Ġ l
Ã ¶
an d
e it
a ch
Ġ 2
u l
\\ \\
d en
Ġt h
Ġ N
Ġ er
Ġ V
c k
i er
Ġ k
e in
Ġ J
Ġa l
Ġv on
Ġ1 9
l ich
o t
i v
a b
at ion
Ġ re
i f
c t
Ġd en
er s
Ã¼ r
Ġ ge
g en
ĠS t
es t
Ġ im
a d
Ġd es
o w
c e
o s
u ch
Ċ ĠĠĠĠĠĠĠĠ
Ġ O
Ġm it
i k
es s
Ġ2 0
Ġ y
ĠĠĠĠ ĠĠĠ
an n
Ġd as
l a
Ġs t
i d
Ġ U
i es
Ã Ł
) ;
al l
Ġf or
Ġ âĢ
t s
v er
k t
Ġ is
Ġa uf
o u
Ġz u
ie l
Ġ Z
Ġv er
ĠS ch
p p
ĠI n
b en
e i
t h
a f
Ġ ist
a h
\\\\ \\\\
Ġ on
i en
Ġf Ã¼r
ich t
a y
e w
as s
Ġ r
l l
Ġd em
o ur
o p
Ġ un
it h
Ġal s
a g
Ġw ur
isch en
Ċ ĠĠĠĠĠĠĠ
n e
at e
a u
Ġ =
Ġ {
a hr
er e
in d
o g
Ġa us
s te
o d
m en
or t
il l
s e
p t
Ġd e
ĠA n
t r
a v
u b
Ġein e
er t
q u
z e
Ġs ich
Ġw ith
ĉ ĉ
Ġp ro
s p
e b
a k
Ġ j
Ã¤ n
en d
0 0
Ġ i
el l
Ġ Ċ
a us
l y
Ġ }
Ġw h
ĠV er
ĠR e
u g
i b
Ġwur de
ar t
er n
) ,
o ch
Ġw ar
w e
p e
Ġy ou
Ġth at
f f
Ġ20 1
sch af
es ch
Ġ it
r an
l in
ĠE r
a p
ung en
ĠD ie
h t
Ġs ein
g er
r u
Ġs e
ĊĠĠĠĠĠĠĠĠ ĠĠĠ
Ã¼ ber
h n
Ġa b
ig en
Ġs ch
ge t
a ge
Ġ he
m er
o k
Ġ le
Ã¼ n
am e
âĢ Ļ
u p
m ent
an g
Ġbe i
Ġn e
Ġw ir
Ġa m
ĠT he
Ġa uch
f or
Ġc on
isch e
Ġa s
ĠU n
ur n
u d
Ġa re
om p
Ġe x
an t
Ġ or
s en
u e
Ġ 3
ro m
ur ch
Ġ Ã¼ber
i al
us t
. .
ung s
ar d
iv e
o st
it y
i z
ĠS p
Ġn ach
o v
in e
\\\\\\\\ \\\\\\\\
Ġw e
ol l
( )
ut sch
g r
h en
Ġs o
âĢ ľ
r ie
a in
Ġ ch
ĠA r
ĠB e
Ġm e
Ġa t
Ġd ies
I n
ĠJ ahr
Ã¤ t
k s
n en
Ġ "
as t
i p
h l
l ie
i a
Ġ20 0
Ġb is
Ġn icht
Ġs ie
or d
ĠP ro
is e
Ġ1 8
ĠD e
Ġs p
Ġw er
Ġz ur
Ġth is
h er
ic k
Ġ if
schaf t
âĢ ĵ
ĠâĢ ĵ
u re
Ã¶ r
ĠâĢ ŀ
1 9
te d
Ġ es
Ġw as
l o
r it
t urn
f er
Ċ ĠĠĠ
Â ł
Ġal l
Ġz um
Ġ um
ch en
et z
av e
om e
o c
Ġ -
Ġy our
ul t
ĠS ie
ĠE in
ĠE n
Ġwer den
b e
Ġein er
Ġ ent
ĠL e
i de
h o
ter n
or e
i le
ab le
Ġn ew
Ġh at
pt ion
Ġw ie
ĠA l
p r
j e
m e
Ġv or
Ġb y
i ge
) .
ar k
h al
en n
Ġo der
a ck
l ass
ul l
il d
ier t
Ġwir d
d u
Ġs ind
Ġz w
Ġf rom
Ċ ĉĉ
Ã¤ r
Ġun ter
Ã¶ n
om m
o b
Ġd urch
er v
ĊĠĠĠĠĠĠĠĠ ĠĠĠĠĠĠĠĠ
ic e
ct ion
i re
it e
Ã¼ ck
f t
r ing
on t
ub l
isch er
n er
te l
Ġ us
ĠT e
Ġh ave
o ut
l and
Ġm an
ĠT h
el t
Ġ en
Ġein em
us s
D ie
ch e
z en
it ion
i an
ge l
te ll
ge b
b eit
g t
Ġein en
p er
ĠC h
ĠA us
i o
Ġw ill
lich en
Ġc an
a uf
er k
Ġ 4
ĠS e
st en
re ich
S t
g es
m al
l at
a c
for m
Ġ Ã
ĠM it
s s
Ġ /
Ġw or
Ġr es
Ã¼ hr
ig n
ig ht
as e
Ġ19 9
ĊĠĠĠĠĠĠĠĠ ĠĠĠĠĠĠĠ
Ġn ot
ah l
p h
e y
at ur
ĠD er
ro w
l er
o un
r y
is ter
on g
en s
ĠO r
ur g
u te
x t
a il
f e
ch t
ĠA b
p ar
im e
at h
e ar
Ġ 5
E x
Ċ ĉ
u ÃŁ
ĠG r
o ok
in al
Ġt e
Ġp r
2 0
ĠB er
ar e
Ġdas s
lich e
l os
Ġa d
de t
m p
ad t
o hn
ich te
ĠA uf
all y
( );
Ġs h
ĠG e
Ġc omp
de m
f en
k eit
o de
Ġ Y
Ġge t
Ġa r
at er
' s
el n
Ġb es
ation al
c c
ubl ic
Ġh as
Ġre turn
l an
ul d
\\\\\\\\\\\\\\\\ \\\\\\\\\\\\\\\\
t z
ĠW e
ce ption
we ise
1 8
re i
ĠP r
t o
s h
R e
t w
te il
an ce
al t
Ġn ull
in z
ĠH e
ĠV or
is s
on e
je ct
Ġ19 8
st er
T he
h re
ĠM ar
ĠL and
Ġh ab
Ġi hr
ĠD as
th er
Ã¤ hr
am m
em ber
ĠN ach
in t
Ġ up
he it
a ut
Ġ 0
Ġ &
i ent
ak e
a z
at en
ing s
am p
Ġo ut
re is
Ġd o
s er
Ġn ur
ĠĠĠĠ Ġ
y pe
Ġh er
iv ers
ol og
ĠN e
at ed
ĠUn ter
Ġw o
on d
ation s
S tr
b urg
Ġ +
k e
Ġ( *
ier en
Ġ 6
or en
.. .
it z
ĠM e
Ġo ur
Ġg en
Ġg o
Ex ception
Ġ19 7
ro ÃŁ
Ġw eit
Ġn och
Ġ/ /
l es
ĠI m
te t
kt ion
f ol
Ġme hr
m s
ers on
a pp
an z
al s
ier te
der n
Ġde utsch
Ġs ow
Ġ qu
ch n
ow n
ut z
Ġ 9
it er
c l
re e
ĠZ eit
om men
ol le
Ġ ro
d r
ĠH er
ar y
t ra
ĠB r
Ã¤ l
Ġv om
ber g
ĠF or
in k
os e
p ro
ein e
Ġb ut
ol d
on s
Ã ©
Ġwur den
Ċ ĠĠĠĠĠ
an s
er en
ne h
or s
ig h
ĠF l
al e
r i
a ct
iel er
Ġ19 6
z eit
f l
Str ing
ĠSch w
ig er
or y
Ġm y
Ġt ra
( "
Ġp er
Ġa ber
r en
ĠSt ring
Q u
ste ll
ib t
at t
it t
y ste
us e
Ġon e
Ġm ore
g an
r Ã¤
il m
ĠA m
ĠDe utsch
b ar
al ue
o ck
at ch
ent s
ik e
Ġb et
Ġge w
Ġl ie
u en
Ġthe ir
a de
k en
le ich
am il
Ġ1 7
v e
Ġs te
is h
v el
D er
Ġal le
Ġ 7
b le
Ġk ann
Ġf in
t t
N ame
W eb
te m
Ġk Ã¶n
Ġc o
ic al
ion s
b r
Ġa pp
Ġf r
ĠF ran
E n
ĠSt adt
Ġ 8
f in
el d
at a
ie d
ze ich
l d
f Ã¼hr
a x
Ġals o
A n
Ġ19 4
is ten
re turn
in n
Ġb est
es e
p ublic
lin ks
y s
i um
Ġsow ie
oun t
ĊĠĠĠĠĠĠĠĠĠĠĠĠĠĠĠĠ ĠĠĠ
ĠRe g
m ann
ah n
par am
f ahr
on n
Ġe v
ol it
or n
Ġb er
en g
st and
re at
g lich
n is
r at
Web links
Ġ1 5
et h
s el
h Ã¶r
Ġd ar
Ġ ich
etz t
Ġab out
it Ã¤t
la g
Ã¤ ch
r if
u le
ĠG em
Ġf e
o f
ik er
D e
Ġ19 5
Ġthe y
an ge
i ze
an k
ie t
der s
Ġin s
Ġwh ich
Ġ1 0
ig t
ter s
am men
og ra
ier ung
n et
u pp
Ġg es
ĠI t
Ġ1 6
Ã¤n d
im m
ig keit
âĢ Ŀ
et t
ĠP ar
Ġcon t
P ro
Ġp re
Ġj ed
ĠU S
m it
ĠG esch
Ã¼ d
o le
Ġhab en
Ġwie der
m an
Ġs pe
Ġof f
Ġs oll
und en
Ġo b
ah re
C on
is sen
s k
m in
Ġein es
Ġh is
Ġbe en
el le
a w
c es
Ġy ear
ar beit
l ung
g lie
a i
Ġge gen
g esch
ay s
Ġt ime
Ġk n
s et
ĠI S
at z
ĠS o
b all
Ġg r
y p
ie le
u er
ann t
h und
y n
Ġp la
Ġwor k
E inz
el s
Ġsein er
lin e
Ġdies er
p ort
ĠG es
a ce
re d
Ã¶ ff
ĠD ies
ein de
ĠS te
ie w
r es
at or
Ġsein e
i x
w o
lat z
ĠF ra
Ġzw ei
00 0
Ġ19 3
lie ÃŁ
eit e
b st
ach weise
Ġan y
ĠUn ivers
ge ben
T ype
I N
eln achweise
Ġ= =
Einz elnachweise
erv ice
o h
in ter
ĠE s
Ġhat te
ov e
ÃŁ e
us ammen
Ġin ter
o ol
ĠkÃ¶n nen
o ber
Ġi hre
B N
ĠE x
or k
ach t
Ġre c
h aus
ir st
yste m
am en
ur op
Ġ Qu
u de
ĠJ ahre
Ġs el
ĠG eb
ess ion
ĠK on
ĠP h
ĠK ar
ik an
p ut
n ah
Ġd is
ĠIS BN
1 0
at s
w er
D as
U n
o ff
ĠF re
Ġs c
ru pp
d ition
ent lich
Ġp art
Ġc om
Ġs ome
Ġwh o
el y
S ch
id ent
ĠâĢ ľ
f all
at ing
Ã¤ hl
am er
ĠJahr hund
T h
p l
\\\\\\\\\\\\\\\\\\\\\\\\\\\\\\\\ \\\\\\\\\\\\\\\\\\\\\\\\\\\\\\\\
a is
Ġe l
ar n
u al
ĠÃ ľ
Ġin t
A r
ĠM us
Ġ1 2
ir t
1 7
E R
Ġo ver
form ation
Ġzw ischen
Ċ ĊĠĠĠĠĠĠĠ
al d
ĠTe il
ĠU m
ge m
t on
Ġe tw
Ġb o
ĠK ir
h m
le d
" ,
or f
k te
le ment
c om
ent r
L e
en de
1 5
Ã¶ l
if f
t es
Ġbe g
E r
ĠO b
Ġs eit
Ġo ther
iel d
ĠC hr
Ġn o
ĠJahr en
hal ten
ing en
ĠA d
le g
Ġl ike
Ġth row
iter atur
p ert
Ġf ol
gen d
ic t
at es
Ġ !
Ã¶ s
ĠW elt
1 6
Ġwar en
ĠG ra
Ġdies e
Ġg roÃŁ
1 2
Ġa cc
r on
en den
ie der
our ce
ĠB l
Ġun s
m a
Ġc l
- -
Ġv ers
in der
ĠB es
ĠS h
o und
in a
Ã¤ s
en z
Ġwh en
Ġ1 4
b au
Ġd am
ge w
a ir
Ġp e
os s
ou g
a um
eit en
Ġpro du
eit s
neh men
qu est
ĠBer lin
a gen
Ġ |
as h
Ġst ud
Ġpro v
ver y
c ial
sch en
ĠT ra
ĠB o
Ġhe l
ĠTh is
g ab
R es
omm un
aus e
) )
Ġbe k
o us
Ġin d
ĠAr beit
Ġ <
() .
Ġp h
ell en
ot h
g s
e k
Ġj ust
Ġzur Ã¼ck
Ġp ar
u es
f r
la ge
ĠSp iel
in s
h and
o id
f Ã¼
Ġd ann
ĠN ew
le t
en e
um ent
Ġ *
au pt
w erk
I d
ug h
Ġ :
ĠM an
Ã¤ d
is te
le in
uch t
c o
ic es
de d
Ġth ere
A l
I m
ĠÃľ ber
Ġne ed
Ġre g
Ċĉĉ ĉ
p iel
f ter
v ent
Ã¤ ter
und es
Ġ1 3
ÃŁ en
ĠA ut
Ġa g
Ġw enn
en er
l Ã¤
on der
ĠT r
Ã¶ glich
c re
he im
ĠG er
b o
i der
st ra
schaf ten
ic s
Ġb u
Ġ .
Ġthe m
tr y
V er
Ġbe im
Ġf inal
y m
ĠM en
Ġh ier
sch ie
Ġl ook
or g
if e
ur r
ĠA ll
p f
h ne
" );
Ġh ow
m us
Ġer sten
c ess
ran s
Ġit s
Ġge hÃ¶r
Ġst at
ru ck
Ġt r
c ted
Ġg ibt
g l
O N
ĠJ an
if ic
e p
Ġh and
c ed
Ġwh at
k l
Ġ ra
Ġw el
de x
tern ational
Ġin cl
il der
ot t
Ġer st
() )
ĠH and
ĠĠĠĠĠĠĠĠ ĠĠĠĠĠĠĠĠ
tell t
Ġf irst
re am
op le
io us
ĠJ un
Ġg esch
v ers
Ġin to
ro up
ut ion
/ /
d ay
Ġbe c
ĠSt a
Ġge m
ĠLe ben
Ġm ost
ra y
Ġth an
sp ieler
al en
ĠA ug
Ġw ere
' t
i pp
ra ch
ier ten
am t
ĠP f
Ġm ake
Ġv iel
Ã¤hr end
p en
ĠN ov
ĠJ ul
fol g
ar b
Ġ! =
ĠB au
Ġm us
und e
ĠZ w
ĠSt ra
ib le
ĠZ u
glie d
ra g
Ġd a
Ġd r
Ġh ad
C h
ĠGem einde
Ġd rei
ro und
a der
le x
Ġg er
Ġwo uld
Ġh o
z w
un st
ĠÃ ĸ
iv er
Ġge b
o y
Ġin st
Ġse hr
ag es
ĠF r
r ich
p on
ĠM in
1 3
ĠM on
eb s
ĠO ber
en k
z er
() );
am es
ĠE l
an der
ĠJahrhund ert
Ġel se
Ġm on
ĠN or
Ġk onn
ar ten
Ġ201 8
m at
Ġjed och
ĠAr t
Ġhel p
rie b
al k
v or
b ild
ĠSt ud
Ġweit er
in ess
ist or
Ġth ro
Ġs ho
c on
uÃŁ ball
7 8
ogra ph
ster reich
ĠM ed
ar m
Ã¼ t
Ġus e
Ġ19 2
ch er
ow er
ab ei
1 4
L ist
Ġb el
Ġl oc
sch e
ad d
os ition
me ister
Ġf ind
w ard
c y
f ig
Ã¤l t
O b
ass en
it ies
z ial
f ach
en ce
ĠH o
Ġdeutsch er
f ul
Ġf Ã¼hr
ul ar
G eb
sp r
ĠC ar
Ġpe ople
e c
it s
Ġi hn
Ġz e
je kt
Ġkn ow
Ġver b
ich er
ĠIn d
ur t
at ive
urr ent
ĠE urop
L iteratur
Ġon ly
ĠF amil
au er
Ã¶n ig
iel t
ĠF ilm
Ġb ack
hal b
s o
ĠB et
ck en
ĠC on
Ġer h
s on
5 0
Ġd ire
O r
p la
re m
ig ung
ĠDeutsch land
ass er
a kt
ĠP erson
ch ts
Ġw ell
Ġa ct
it al
Ċĉĉ ĉĉ
Ġsp Ã¤ter
u ar
Ġm ay
e il
Ġe very
Ġs he
Ġb re
ein s
Ġim mer
schie den
eng th
Ġs et
2 00
âĢ ¦
te xt
ĠM al
Ġan ge
n ung
ĠP ol
us iness
ĠB undes
ate g
ĠChr ist
Ċ Ċ
Ġg leich
gr Ã¼n
P ar
er g
w n
ĠP e
Ġsch on
ĠAug ust
( ),
Ġh in
tem ber
ir k
hal t
iv en
lich er
an y
ĠGr und
eit er
un ter
ien ce
Ġver y
ĠK l
uÃŁ er
Ġv oid
u z
Ġst r
ol f
ĠAn d
Ġun ser
re g
Ġdes ign
Ġver w
i qu
ĠF e
k er
Ġ3 0
Ġs upp
a id
Ġcon s
ĠM ann
em ent
F or
Ġdies em
b ach
f o
ien st
lo ad
am s
schaf ts
eth od
Ġetw a
Ġas s
ar r
ĠM Ã¼n
Ġ Â
Ġsein en
ie f
Ġm in
Ġk eine
Ġz usammen
Ġd own
V alue
Ġe igen
ro l
ĠNov ember
Ã¤r z
ur z
ĠY ou
Ġand eren
Ġp l
Ġm ach
p s
ut h
ĠPro du
Ġs ol
Geb oren
A T
ĠVer b
ĠSe p
ĠB ei
ĠV ers
ier e
I D
Ġc re
ĠB and
ra d
Ġein z
sch l
ost en
ich ts
Ġ '
o te
g ang
ess en
b l
Ġlie gt
is en
uf t
um ber
B e
if fer
Ġ X
ĠFran k
Ã¤n der
b es
1 1
g est
Ġsein em
Ċ Ġ
et s
M it
ar ch
Ġ [
ĠH aupt
Ġs on
a den
r icht
m ar
il ity
Ġt wo
ff e
Ġs ub
ĠO n
Ġyear s
ct or
un k
ĠG roÃŁ
Ġb esch
u ck
Ġt ry
ĠF rie
it ed
Ġber eits
ho f
ĠK Ã¶nig
ĊĠĠĠĠĠĠĠĠĠĠĠĠĠĠĠĠ ĠĠĠĠĠĠĠ
ĠN ord
s atz
Ġf l
es ten
as ed
ze ug
lo ck
Ã¼ tz
v en
Ġle tz
o od
ĠSep tember
Ġs m
un kt
i or
ĠH aus
ke hr
ĠP latz
ĠH och
if t
Ġ )
c ri
ing er
op h
a ur
Ġh igh
ar s
pon se
es en
Ġsel bst
ag er
Ġman y
ĠEn de
st it
ĠR es
Ġp ublic
st adt
ste in
Ġsch w
ult ur
Ġb l
E N
for e
Ġex per
Ã¤n g
Ã¶ ÃŁ
pr il
ment s
a j
as ch
Ġth ese
ĠV ol
Ġthro ugh
Ġin v
ist r
Ġe ben
Ġihr er
Ġs uch
Ġbes te
z ahl
Ġs erv
Ġa kt
oug h
he l
. )
w ick
Ġer w
ĠN ational
u k
p or
Ġre m
ur s
as k
vel op
Ġer ste
al le
la gen
Ã¶ ch
Ġre ad
issen schaft
C lass
Ġ201 7
Ã¶ff entlich
Ġd ort
Ġ end
it el
ĠI s
ation en
rupp e
Ġh ome
Ġst and
Ġa fter
us tr
ĠB ild
ĠD es
sh ip
in nen
N ach
Ġg u
M ann
ow s
ĠK unst
ĠG ew
o int
ĠW h
Ġp erson
e ich
Ġhe ute
re ad
ess age
Ġn ow
ĠC l
e g
Ġund er
ct s
a ul
re cht
la uf
er b
Ġgo od
ĠF Ã¼r
ĠIn ter
ĠI hr
Ġs om
kt ober
ĠS c
Ã¼n st
Ġres ult
k reis
ru e
isch es
f te
r or
e x
in er
Ġpro f
Ġch e
s w
Ġm ark
= =
ĠI I
2 1
un ktion
Ġse e
ĠA pril
ĠP olit
[ ]
3 0
Ġf re
Ã¤n ger
ein en
es ter
st r
Ġfol gen
ĠM et
ak ing
s g
an ts
Ġ ,
c a
Ġpla y
S T
Â Ń
ĠJul i
f ang
ic a
Ġne ue
mit tel
Ã¼ s
b uch
ut en
Ġm ed
ar i
iv ate
) );
Ġw en
ran z
re t
oh ann
ĠJun i
c ode
ess e
gr und
ot her
Ġo hne
ĠM ai
Ġb r
ebs ite
t il
Ġver schieden
al ien
Ã¼r ger
Ġf ree
Ġv alue
d s
f inal
is ion
W e
Ġ201 6
Ġkonn te
Ġi hm
ĠB ar
l ang
olog ie
at ure
Ġg reat
f eld
Ã ¡
v iew
Ġbec ause
Ġdam it
Ġ1 1
stell ung
Ġ2 5
b ahn
S ie
Ġl ong
le ct
Ġte il
o ten
st ru
Ġw ay
ĠM Ã¤rz
R E
Ġ19 0
amer ikan
Ġc ol
ur ing
ck e
Ġv ier
ĠO ktober
Ġ201 5
ĠF ahr
b t
Ġstat ic
ĠK inder
ĠJan uar
ĠD r
o gen
Ġb usiness
al th
gan is
Ġte chn
Ġ201 4
ĠOr t
ĠS Ã¼d
af f
iv es
ĠM ark
ĠU r
l i
z ug
Ġon line
ĠĊ Ċ
ĠA mer
Ġwh ere
Ġw rit
Ã¼n d
iz ed
ain t
Ġge f
Ġa v
al if
ais on
Ġall er
ust om
alt ung
eb ru
Ġd ay
re it
fall s
Ġar t
sch lieÃŁ
Ġde c
tr ib
Ġ %
ĠJ u
Ġk lein
Ġth en
Ġ201 0
p art
al ity
ĠS pe
il it
Ġ201 1
ĠC o
pert y
ĠDies e
Ġb en
Ġbe fin
Ã¼ h
\\\\\\\\\\\\\\\\\\\\\\\\\\\\\\\\\\\\\\\\\\\\\\\\\\\\\\\\\\\\\\\\ \\\\\\\\\\\\\\\\\\\\\\\\\\\\\\\\\\\\\\\\\\\\\\\\\\\\\\\\\\\\\\\\
z ie
ĠW erk
Ġaus ge
Ġ2 4
un n
K ey
u ge
omp on
ĠMus ik
Ġc ase
he mal
ion en
A us
k a
er y
le it
ĠI f
Ġ& &
Ġst att
G e
z ember
ĠMen schen
De utsch
up er
zeich net
l ic
o in
im p
ĠF ol
Ġk e
Ġs k
kt ur
l ing
Ġhab e
Ġwh ile
Ġp ass
ction s
Ġ1 00
T o
or ben
ĠA s
ĠLand es
Ġco uld
Ġe m
Ġd iffer
Ġl ang
w end
Ġk am
ole an
in o
he d
Ġ201 2
Ġev en
ĠS er
Ġh ere
ĠUnter nehmen
w ohn
ĠA t
ut t
in es
n ew
Ġd u
Ġo wn
ĠJ ohann
le ase
t ag
Ġch ar
Ġer folg
Ġm o
ater ial
w ay
Ġ201 3
ra ft
ĠC omp
tra g
Ġw Ã¤hrend
ĠF ebru
rie g
l en
w w
ĠG ener
v al
A R
om en
um s
Ġwor ld
ro ss
Ġd el
ed er
Ġse c
de te
A t
č ĊĠĠĠĠĠĠĠ
Ġ ur
h ol
Ġg ra
st Ã¤nd
ĠVer ein
Ġa c
f ra
Ġsp iel
ĊĠĠĠĠĠĠĠĠĠĠĠĠĠĠĠĠ ĠĠĠĠĠĠĠĠ
Ġw ant
al se
Ob ject
Ġand er
is mus
ell schaft
ĠE ine
ĠKir che
ĠW est
s etz
rif t
ĠM o
ĠS k
z ent
A m
Ġj e
od y
sch n
ĠAr ch
il t
Ġsho uld
ĠAl s
ĠB uch
ĠC he
in ce
ĠDe zember
cc ess
Ã¶ st
ĠGesch ichte
Ġer sch
ĠPro f
ie b
Ġin formation
iss ion
g leich
ĠP art
z u
Th is
Ġ200 9
Ġus ed
Ġ200 8
Ġgr Ã¶ÃŁ
Ġincl ud
ot s
âĢľ ,
Ġt rue
ou ble
ĠH ol
Ġ18 9
is k
Ġne uen
ch s
h in
t re
ur es
is piel
ĠD aten
Ġc ar
ver b
Ġi de
ĠCh ar
ig te
âĢľ .
ĠV on
sh all
Ġs aid
ĠO ff
Ġc lass
Ġd abei
b ew
ranz Ã¶s
Ġbei den
Ġm ade
Ġde velop
sp iel
Ġdies es
m Ã¤
Ġ >
. ,
Ġv is
ĠPh il
ber t
mal s
nah me
Ġg ab
f a
Ġste ht
qu ire
Ġf amil
ĠL iste
y r
al ter
ĠW ir
ro p
ach sen
i us
ĠĊ ĠĊ
w are
19 9
Ġf est
Ġd on
b y
Ġihr en
O R
Ġl ast
A N
ĠD urch
Ġs ur
ic an
ig es
Ã¤t z
Ġt ake
Ġst art
w ahl
ĠW il
fÃ¼hr t
Ã¤n de
Ã¤ch st
u ter
ach e
od el
ĠB ew
ern se
Ġbe fore
Ġp ol
los s
Ġ2 2
gab e
neh mer
l ig
Ġs ervice
Ġe ing
at her
S e
ĠEn tw
Ġs ei
Ġ200 7
o ver
; ;
le gen
ĠM ich
f ass
Ġpro gr
k auf
a ar
Ġar beit
az u
ĠW ert
ichte t
ĠK r
H e
o hl
p ieler
Ġn ame
N e
Ġm uch
A L
Ġs er
ĠUnivers itÃ¤t
Ġ #
ing le
sch utz
Ġst ar
ĠUnivers ity
Ġ x
ĠÃ Ħ
olog y
Ġs u
Ġt rans
ĠI hre
ĠD o
ĠR om
Ġprov ide
le gt
Ã¤ hn
Ġb ook
m ed
le te
sch ule
Ġb zw
Ġfin den
Ġ ...
Ġz un
ĠMit tel
Ġein fach
Ġ9 78
f ern
Ġe t
ĠH am
le kt
age ment
ĠRe ich
all s
Ġc atch
2 5
M ar
ĠS al
ide o
ĠMit glied
ĠD ar
Ã¼n f
as on
p os
la ck
fahr en
Ġl ife
Ġch ild
E in
Ġd ata
in ing
Ġr ight
Ġ u
an st
f ort
Ġp lan
ĠB est
iv ing
Ġg ut
s ol
ĠSchw ei
ĠW or
Ġc omm
y l
lin k
uf en
l ength
ĠJ ohn
Ġb ie
ĠW ien
im es
ik a
omm t
8 0
om mer
Re quest
Ġe mp
um e
ĠB ere
Ġbe ing
ak es
ĠP l
Ġe as
Ġk ey
ĠFor m
los sen
ogra f
Ġto p
M ap
ĠEn t
ail able
Ġf ile
Ġb ed
Ġm uss
ĠK n
it Ã¤
as ter
Ġ200 6
Ġf ound
k ommen
ĠFebru ar
t he
ges tellt
ĠL ei
p unkt
ĠL in
sp ort
n ame
an e
ĠSt re
Ġthrow s
ĠVer lag
Ã¼ ss
it zen
ĠW ohn
ĠSt and
ĠB re
Ġgen er
ĠW asser
ĠM ill
ran k
oll ow
ist s
Ġc urrent
Ġre al
6 0
tell en
hn en
ĠS aison
um mer
4 0
Ġweit ere
Ġg est
ĠH Ã¶
Ġpro cess
il le
u gen
č Ċĉ
Ġdes sen
sp e
T ra
Ġ5 0
an gen
Ġen g
al er
Ġp ost
G esch
Ġson dern
T e
al b
Ġ $
and s
hr en
e h
oll en
ĠR Ã¼ck
sp re
Ġbek annt
in en
Ġc olle
ĠG l
ĠA uch
de ut
stra ÃŁe
B y
Ã¤hl t
Ġof fer
ten s
ĠW er
Ġder en
u ally
ĠM ag
D ata
es ent
Ġg anz
Ã Ń
rie ben
out h
ĠMÃ¼n chen
ĠS an
ĠF uÃŁball
ĠV ert
rie d
ĠP er
ĠE d
Ã¤ ude
dr ich
O ver
ĠIn tern
v an
ĠSch ul
Ġc ustom
Ġdo es
Ġn un
Ġs ite
and en
Ġand ere
Ġsh ow
Ġdeutsch en
Ġbe f
Ġe ach
id es
a e
le i
Ġag ain
ĠN amen
ĠâĢ ł
Ġv iele
uf fer
E D
Ġn umber
Ġc oun
Ġp ra
ĠF est
tell er
Ġ( âĢ
ĠN atur
Ġs l
Ġe hemal
Ã¶ m
Ġein ge
Ġin ternational
ĠB Ã¼
Ġk ein
ch te
iqu e
ch sel
C l
ĠW ill
ĠB ay
Ġc le
k ir
Ġalle m
A d
im mer
Ġb ring
ich ten
ĠP at
cri ption
los e
z iel
a ÃŁ
Ġs Ã¼d
en der
ge d
Ġcre ate
-- --
Ġf ranzÃ¶s
re ib
Ġs ign
Ġ â
ra gen
ĠL ie
th is
Ġj ew
Ġl og
2 2
Ġr est
S S
Ġa round
k on
Ġ200 5
ĠW ei
rupp en
hr er
all en
Ġ20 00
iv id
p re
Ġad d
ĠY ork
ĠB as
gr amm
ĠReg ion
Ã¤ uf
ĠKar l
Ġw icht
S et
en ter
ĠA ss
schl uss
Le ben
reich en
ess er
ord s
re uz
ar z
ĠZ usammen
ear ch
kt or
P ath
sch ied
ĠC ol
ĠT od
Ġdiffer ent
Ġ2 1
w ays
Ġd id
ĠFra uen
Ġm ir
ĠS eite
ĠR ad
ĠSch l
ap an
Ġn ah
uf f
er m
u x
ab el
c ing
ĠM ot
Ġc ommun
et ail
aus pieler
im al
Ġl ist
ly mp
ubl ik
y le
Ġerh ielt
I T
* *
g ra
irt schaft
app end
A s
ĠPerson en
ann te
h ard
Ġwe ek
F ile
Ġm ar
nis se
c i
ig ten
Ã¤ us
ĠD u
lass en
geb iet
am ent
he in
A b
ĠT o
ĠR o
us h
7 0
Ġn or
ĠOr ts
ĠLeben s
Ġf un
ain s
Ġl ove
d ings
h af
ĠTe chn
ĠE m
ĠF il
Ġp os
Ġl ar
Ġc a
Ġche ck
ĠG u
r ide
Ġth ose
ap er
it ter
ĠB ra
itt le
r ic
Ġden en
al y
we en
ĠBer g
Ġf Ã¼nf
m et
Ġpla ce
a un
ĠBere ich
ut ter
Ġm Ã¶glich
lass e
Ġ200 4
as st
et ing
Ġp olit
de ck
isch of
w ert
Ã¼ hl
ĠK ont
ro ll
Ġa ut
Ġf alse
Ã¤n ge
n ess
Ġus ing
ie g
Ġwor den
Ġ2 3
4 5
h Ã¤lt
op e
D F
C ont
Ã¶r der
ct ive
ĠGe gen
our n
Ġbefin det
al ten
Ġc are
it te
Ġs ystem
Ġth ink
sch w
Ġp at
Ġm al
Ġ201 9
bild ung
is hed
Ġr und
lich keit
Ġre ally
ĠFrie drich
Ġsch n
ĠEntw ick
Ġpro ject
Gesch ichte
ĠIn ternational
Ġk on
Ġav ailable
I t
o ge
N ode
Ġc al
Ġh im
Ġdies en
B u
st off
Ġc our
y ch
sch ul
k ten
b ack
ĠM at
e ver
p latz
ĠT ag
a el
Ġbu ild
A C
d ate
ent en
la ub
in ation
ĠD an
om b
ĠPolit iker
ut es
Over ride
f Ã¤
j Ã¤hr
enn t
7 5
ff en
gab en
w ig
Ġan n
re en
an ad
ĠN ieder
ĠDeutsch en
Ġb as
ra um
ĠA pp
Ġz ahl
Ġetw as
In dex
ath ol
ĠSt r
Ġfor m
en det
gem ein
Ã¤ re
ĠW ar
ard s
Ġb oth
M E
i den
G est
ĠMe ister
Ġcomp any
Ġsoll te
ĠG o
ĠB el
U S
Ġf ast
igh ts
ĠEin wohn
om at
Ã¶l ker
Ġfr ien
Ġf ollow
U R
Ġer halten
rit t
Ġob ject
ĠAl b
Ġv ar
Ġeben falls
er st
Ġst ill
glie der
ch es
it es
2 3
fig ur
at us
Ġv al
Ã¤ m
use um
ĠFamil ie
dr ess
Ġph ot
ĠEn g
Ġbet ween
ig inal
il es
able d
lo b
Ġper fe
s icht
Ġt ype
St ream
ur y
ĠH ier
ĠP ort
ir l
d orf
Ġm ov
ĊĠĠĠĠĠĠĠĠ Ġ
Ġdis c
ĠK ap
I f
Ã ³
c lass
um en
fÃ¼hr ung
or ts
ĠM od
ĠJu gend
ĠIn formation
ck er
f ts
Gest orben
ĠRe chts
ĠB ut
ĠB en
st ag
ĠH ein
Ġjew eil
it or
ĠO st
ond on
Ġletz ten
onder e
r sg
et te
am a
ĠF ot
en nen
Ġ2 6
ĠC olle
Ġwel che
ur m
Ġl o
ĠB Ã¼rger
ĠS ohn
kl Ã¤r
ro om
Ġf ew
M an
om in
Ġent wick
Ã¼ l
n a
j ahr
Ġent stand
i at
Ġm ich
ann ten
ass e
ĠF ach
ĠW ahl
Ġzun Ã¤chst
a uch
is se
ĠVer w
Ġo pen
Ġg roup
ĠSp ort
i as
č Ċ
och en
ĠD on
Ġsm all
we g
Ġdar auf
ĠF in
ei den
ĠT itel
ĠP aul
Ġinclud ing
Ġne xt
Ġne u
Ġserv ices
Ġg ar
Ġ18 8
ernse h
us ch
ĠP re
ĠC ont
b ed
ess or
Ġsch ool
ĠN ame
M e
Ã¤ che
ĠS ystem
Ġre quire
A uf
ol ution
Ġse x
ĠK reis
i am
Ġb il
Ã¼ b
Ġbo olean
um m
ir d
Ġdeutsch e
A ll
Ġexper ience
Ġfamil y
amp f
ber eich
ĠIn stit
le y
hel m
imm t
d o
ĠPro v
Ġ2 8
Ġc or
Ġmon th
h ung
ĠM y
Ġge ht
Ġbeg ann
ĠB ahn
Ġv iew
Ġs ame
Ġein ige
sel f
ĠN ot
Ġm ax
grÃ¼n det
o ot
ame ter
Ġev ent
c le
Ġd och
for der
un t
Ġ4 0
ĠP ark
ĠS eit
Ã¼nst ler
Ġw ei
Ġa uÃŁer
al es
L E
Ġ200 2
ĠKir chen
+ +
Ġakt u
sch rift
Ã¶ sterreich
ĠFran z
te te
Ã¼ck e
Ġgem eins
lo y
Ġc all
ĠL ist
iv al
ne y
Ġ200 3
ĠI ch
Ġd azu
ĠB ern
Ġl assen
av ing
< /
ell er
g te
Ã¤s ident
Ġf act
Ġst ark
ĠL a
Ġm ember
Ġim port
ĠH el
oc i
f urt
Ġk ommt
Ġbre ak
on nen
Ġp op
ĠFra u
uÃŁ en
Ã¶glich keit
d ruck
v es
er ts
ei le
Ã¼s sen
den s
Ġv oll
ĠD re
ho de
ĠS il
Ġprof ession
on ders
č ĊĠĠĠĠĠĠĠĠĠĠĠ
Ġ200 1
ĠP la
Ġo per
F ield
Ġre quest
Ġm ein
T ime
it u
Ġat t
Ġge l
v ed
IN G
ĠL ondon
2 4
ĊĠĠĠĠĠĠĠĠĠĠĠĠĠĠĠĠ ĠĠĠĠĠĠĠĠĠĠĠĠĠĠĠĠ
or ge
Ġhe alth
D R
ver t
ĠD em
ĠD av
Ġincl ude
gen ommen
M essage
f re
Ġd uring
an a
ĠS he
amerikan ischer
ĠgroÃŁ e
l ess
ur o
Ġf ull
w ork
Ġm ethod
ourn al
im at
ik t
ĠÃĸ sterreich
ĠPe ter
Res ponse
Ġsupp ort
E lement
ir on
Ġsh ort
Ġro om
Ġle arn
ĠM art
Ġh istor
Ġh app
Ġver Ã¶ffentlich
Ġin ner
ĠHer z
av a
ies en
ĠH ans
se e
Ġ2 7
oc ol
Ġch o
ĠWelt k
h a
Ã¶ t
Ġte am
ĠgroÃŁ en
ĠT er
ip s
Ġ199 0
af fen
ĠB esch
Ġne ben
ĠOb ject
b et
Ġlook ing
z el
reich e
ĠM or
Ġor der
Ġind ivid
ĠT or
O n
Ġall en
Ġk ommen
Ġcont in
Ġloc al
il ter
um p
min ister
la u
ĠK ultur
nah men
Ġander em
tt p
ount y
ĠD a
ĠB i
Ġspe cial
ĠgehÃ¶r t
z entr
ĠThe y
Ġper form
heit en
z t
Ġb ra
st Ã¼tz
um an
Ġl ittle
Ġ18 6
rie gs
Ġ| |
Ġihre m
b ook
ĠSch n
Ġw Ã¼r
op f
Ġal ways
Ġm ust
ĠLand kreis
z ig
th ing
te gr
Ċ ĊĠĠĠĠĠĠĠĠĠĠĠ
oss ible
Ġt yp
g n
ĠS el
Ġgo ing
I C
Ġim p
ĠH ar
fer ence
Ġ199 9
Ġapp ro
f ilm
Ã¤ ft
ur ger
ĠJ e
ĠPar is
H and
F uÃŁball
Ġd i
Ġre ce
: //
3 5
D ies
o x
gesch ichte
iet y
ĠH il
ĠSch rif
id s
Bu ilder
um n
e qu
Ġke ep
19 8
k m
du c
Ġspe c
W ith
ĠHer r
s ych
Ġb ro
Ġd ating
ic ally
2 6
Ġare a
ĠC or
z ogen
ar get
ĠG en
Ġmach en
ĠB ed
M et
S p
Ġm en
Ġgew ann
ĠP lan
iz iel
ur en
Ġst ate
Ġth ree
I ON
ĠVol ks
Ġeing es
! !
P r
Ġm et
Ġver l
ind ung
Ġo ption
ble m
. "
ĠR ich
ĠN o
ĠJahr es
ah men
d ienst
Ġo ld
Ġex p
om as
ar te
Ġb ig
Ġfr Ã¼
Ġe ar
ĠTe xt
rit er
Ġ2 9
on es
A S
ĠU hr
em p
ĠT our
ĠO lymp
Ġhat ten
ft ware
igkeit en
gan gen
ĠEin satz
ĠD is
Ġauf ge
S ervice
O f
Ã¼ ll
ient s
Ġpro m
ĠB ro
2 8
Ġh och
Ġer r
ent ial
ĠR u
In fo
Ġj ob
m ut
Ġs ince
ges amt
an c
Ġe ffe
fÃ¼ g
uch en
v Ã¶lker
m m
Ġg ot
Ġre t
st re
Ġto o
ot he
Ġex c
d ing
ĠM ain
Con text
Ġs imp
ĠK at
ĠSch auspieler
Ġab sol
Ã¶r per
fa ult
ĠH ow
Ġst or
Ġfe el
ĠSta ats
ĠGem ein
Ġden n
Ġf ield
ce pt
pr ivate
Ġc ome
E s
Ġle vel
or ie
ĠM ont
mÃ¤ ÃŁ
Ġwith out
Ġg ing
9 9
at ter
ĠD orf
iz ation
ers Ã¶n
is m
ach en
e te
Ġn ie
ch ten
U til
ge ord
Ġqu ality
Ġher aus
Ġw ater
4 8
Ċ Ċĉ
ĠBe g
c r
le tz
il ome
ra cht
m ark
Ġbe h
Ġs ure
ĠFamil ien
sch ein
ĠFor sch
ĠUS A
Ġs w
atur es
I S
a it
ĠS ol
Ġbe zeichnet
ne te
ĠB urg
tr Ã¤
b el
Ġ ?
Ġis s
teil ung
ĠIn s
in ner
Ġf lo
Ġpart ic
Ġk omp
uch s
Ġl ot
k ey
Ġnah m
Ġ est
Ġste hen
ĠB ad
tel le
f ert
Ġs ize
our s
ier s
Re g
h Ã¤ng
ĠD ire
rÃ¤ ger
ier ungs
Ġt re
Ġab ge
ul ts
Ġbeste ht
icht ung
Ã¤t ze
H rsg
ab r
. âĢĿ
D es
Ġg ame
ĠP al
9 0
ĠR ahmen
En abled
Ġm od
7 6
our ces
ub e
ĠBet rieb
rit ten
Ġspiel te
le ine
Ġt ro
Ġb rit
g ument
ĠAl t
is iert
de utsch
ĠGr Ã¼n
ĠTh ere
I I
Ġto day
Ġre lat
ĠS eiten
um er
Ġw ebsite
ĠS m
pr ess
w or
w elt
Ġc ost
j oy
un ft
d ie
it ive
3 3
ĊĠĠĠĠĠĠĠĠĠĠĠĠĠĠĠĠĠĠĠĠĠĠĠĠ ĠĠĠ
Ġch ange
Ġth ings
Ġ20 20
Ġwe gen
el te
ĠUn d
fol ge
ĠI hnen
ĠMich ael
ro s
ĠT re
.) :
ar a
ig ital
Ċ ĊĠĠĠ
Ġin c
Ã¤ mp
eth ing
au g
Ġor gan
equ als
Ġg row
. âĢľ
Ġm ind
lat t
ĠAmer ican
ĠTe am
ent ly
if ied
w issenschaft
Ġsch lieÃŁ
an ten
ĠP reis
ra che
ilit Ã¤r
p lan
ĠJ ose
g ar
ĠR aum
Ġmehr ere
trib ute
ĠAn t
ĠC ity
ĠF unktion
pert ies
Ġsec ond
Ġs ay
ĠK o
B ei
ĠW ebsite
utz t
ĠWil helm
ĠAn fang
m b
gem einde
w ort
uch e
P erson
č Ċĉĉ
Sie he
ĠF ar
ir m
ĠSta aten
e le
ik en
ĠZ ahl
Ġle t
ograph ie
ĠGener al
Ġd ah
Ġh ard
R O
h am
Ġw all
lich es
ut ure
ĠGra f
Ġ @
um b
et en
Ġe qu
Ġk urz
Ġt er
at Ã¼r
in c
Ġwith in
os en
e hen
Ġcon ne
Ġzw eiten
Ġaller dings
Ġg ive
tre ten
ĠIntern et
il y
ĠAus tr
Ġ199 8
t ocol
ĠHo tel
l og
m l
Ġp ay
s weise
O Exception
Ġbe aut
th row
ĠNe ben
ĠA ir
Ġex ist
Ġqu est
w ar
Ġf ac
Ġ Q
ĠZ entr
le ben
ĠFol ge
ĠZ iel
rit e
Ġwe il
Ġersch ien
Ġh inter
ĠC ounty
ĠM Ã¤n
o ung
y d
2 7
on y
ĠL auf
ll en
ĠR ed
ost er
Ġd av
Ġn ational
ĠI de
ĠHam burg
ĠW ind
ĠG ed
os oph
ik el
En try
em s
af Ã¼r
ĠM ay
ĠC omm
A P
we is
Ã ¨
ĠNe u
den k
D E
Ġsein es
Ġab le
ĠEn erg
Ġp ut
Ã¤s ent
\\\\\\\\\\\\\\\\\\\\\\\\\\\\\\\\\\\\\\\\\\\\\\\\\\\\\\\\\\\\\\\\\\\\\\\\\\\\\\\\\\\\\\\\\\\\\\\\\\\\\\\\\\\\\\\\\\\\\\\\\\\\\\\\ \\\\\\\\\\\\\\\\\\\\\\\\\\\\\\\\\\\\\\\\\\\\\\\\\\\\\\\\\\\\\\\\\\\\\\\\\\\\\\\\\\\\\\\\\\\\\\\\\\\\\\\\\\\\\\\\\\\\\\\\\\\\\\\\
Ġbet ter
ist ory
c ont
ĠG old
Ġer ne
v is
Ġp ower
ĠR ei
Ġverw endet
ĠSch m
ĠBe ispiel
eng l
Ġverschieden en
Ġh ol
2 9
Ġ194 5
uch te
ĠâĢ ¦
az z
Ġm ain
Ġerst mals
ĠD at
Ġinter est
Ã¤s st
Ġein mal
ĠLei p
gr iff
Ġd ays
schn itt
Ġ198 0
lich t
Ġ197 0
ĠPar te
ĠL u
f el
Ġd ouble
Ġent spre
d es
en a
ent al
C O
Ġp age
g o
Ġb in
Ġof t
ĠSp ieler
ĠFl ug
ĠMe ter
ograf ie
ĠA kt
ĠR uss
Ġeigen en
ĠF all
rei ben
ĠWe g
Ġc r
ein ander
> >
Ġapp lic
ĠA lex
Ġr un
Ġo pp
ĠEinwohn er
ĠEr n
Ġacc ess
Ġc ert
ĠGe org
Ġprodu cts
ile d
Ġw est
ĠWor ld
ĠD ienst
Ġhe ut
S h
heit s
ĠĠĠĠ ĠĠ
iv ed
3 6
g art
Ġj etzt
pr ession
w est
Ġsom ething
irt schafts
7 9
Ar ray
Ġd an
Ġt est
em pl
Ġhe ad
nah m
Ġan other
l ation
ĠK ais
Ġimport ant
Ġl a
Ġin cre
ĠI l
Ġ( !
Ã¤ fts
Ġl ine
Ġwork ing
ĠR el
ĠSch ool
l ungen
v iron
ĠE uro
ĠOn line
Deutsch er
Ġre f
Ġle ad
Ġstud ents
ĠTh omas
ĠD ort
Ġse hen
Ġad dition
Ġde fin
oug ht
Ġdire kt
Ġ3 1
ĠK Ã¼
Ġan t
ab ility
ĠEntwick lung
ik ation
bes ondere
G roup
ĠR ober
Ġk m
v alue
Ġa uth
Ġho use
n ungen
ĠW inter
ĠRe gel
er in
Ġinv est
Ġm Ã¼ssen
Ġpro te
Ġl ight
ob il
ĠHe il
Ġ199 6
amm lung
" .
it ch
ĠgehÃ¶r te
Ġuns ere
Ġall es
f s
n ot
ic le
4 4
ĠW olf
Ġo pt
an te
ĠSt utt
ĠEr st
Al s
spr Ã¼n
Ġbe w
E T
5 5
Ġg l
alt ungs
op s
W h
us Ã¤tz
ĠS en
for d
{ @
ĠDes ign
ĠZ ug
ra w
Ġeas y
b urger
ill s
Ġlar ge
ĠG ruppe
ĠJahrhund erts
l ungs
yste ms
Ġm ult
Ġer reich
l le
ack age
Ġf and
un kte
Ġ199 7
ĠS ervice
Ġg ilt
il la
< ?
Ġ6 0
ge ber
Ġen gl
ĠNor th
z irk
Ġp ort
Ġbie tet
ĠW ith
N ot
ilome ter
pt y
a at
ĠD en
St ate
Ã ĸ
19 6
Ġinst ance
ĠChrist ian
lie b
Ġl ink
pla y
3 2
op er
s ize
Ġs uper
Ġw omen
Ġe ff
b aut
Ġse arch
L O
st ant
if en
Ġfin det
o pp
ĠD abei
ĠLe ist
ĠfÃ¼hr t
Y ou
Ġs ingle
ĠT yp
ĠW ald
Ġpra ct
Ġbes onders
ĠArch ite
Ġs tell
Ġl ange
kir che
ag n
L oc
Ġt Ã¤t
stell en
ĠG el
b ei
te ger
ĠS ommer
if ul
haus en
C ol
ĠS outh
b re
as es
4 9
3 8
i ol
ĠGeb Ã¤ude
S er
ĠF er
ganis ation
es h
ĠEr z
la v
p ublik
ĠS itz
ĠC lass
Ġt urn
Ġs etz
3 9
Ġdown load
it ten
Ġmark et
Ġco ver
reib ung
Ġvis it
Ġ ident
och ter
Mit glied
ĠH ome
Ġen joy
d a
ĠG ar
Ġchild ren
ĠEin zel
ĠO l
amp le
ĠInformation en
fe hl
iz in
zeich nung
te chn
ut s
Ġact iv
ĠSchwei zer
and id
Ġ(âĢ ł
7 7
p end
ĠS am
Ã¼ck en
== ==
A G
if y
Ġcomp lete
Ġneed s
b and
ur f
ge ther
schlieÃŁ end
Ġne ver
ĠB ank
ĠZ e
etail s
C omp
19 0
z y
ic y
ĠL ud
il er
Ġp ict
Ġ199 4
Ġ199 5
Ġviel en
E S
ig a
Ã¶r d
g lichen
ĠD i
) :
ĠBer uf
ĠArbeit s
ĠA g
Ġl at
ct ure
ion al
Ġweit eren
ĠHÃ¶ he
Ġt rat
Ġv ideo
Ġin it
Ġperfe ct
le ist
mer ikan
Ġdav on
ĠfÃ¼hr te
am mer
Ġm ight
ĠR est
ĠS Ã¼
ĠF ir
ver n
Ġs af
ur ity
te ile
Ġse chs
Ġgen annt
n ov
Ġ Ã¶sterreich
ob ei
Ġtra dition
ĠM ax
Ã¤t te
ĠMit te
ĠP ra
sche id
ist ischen
ĠJ o
ig ent
ĠC om
ts teller
her r
aj or
ĠHein rich
Ġres earch
Ġunser er
ĠF eld
ab en
wend ung
l ow
Ã¤ ss
ul ation
og le
Ġperson al
Ġbu y
W ir
ĠK omp
ĠB ischof
h end
leg al
ain er
ĠO p
Ġsu ccess
ĠH istor
teil t
ĠkÃ¶n n
Ġc ap
ab e
oc us
ĠEr geb
ĠâĢ ĺ
Ġunter schied
viron ment
Ġ199 2
ĠEurop a
Ġmus ic
b ol
ab or
figur ation
ut ions
Ġim age
ĠMit arbeit
ze pt
is ierung
Ã¼ gel
Ġh al
ĠU l
au p
Ġinner halb
E C
E m
Ġof fen
Ġjed er
st ance
t ing
att ung
ific ation
Ġl ess
zeit ig
ĠÂ »
g al
ĠW eb
ĠFrank furt
ĠO ur
In ter
a pe
ĠB eit
ĠM Ã¶glichkeit
ĠK ommun
ar ed
Res ource
in ks
Ġe d
au en
4 6
w h
v ille
le hrer
d f
Ġw eb
Ġl aw
ĠT ro
ĠK om
P h
Ġm aking
ran ken
Ġschn ell
v oll
und er
Ġ196 0
' m
pe ct
v ice
Ġjeweil s
ĠP ap
G ibt
ĠEr w
pr Ã¤
Cl ient
ĠN r
ĠV ater
w ei
ĠLeip zig
Ġ Ã¤l
pro du
mb H
ĠStutt gart
ĠC as
f est
Ġa ir
] ;
sk i
T r
Ġpro perty
ĠUn ited
ĠK Ã¶l
;; ;;
omm and
w ie
de ten
ĠMar kt
ĠW ie
U N
Ġm Ã¶ch
geb aut
j a
l Ã¤nd
al itÃ¤t
Ã¼ ler
ĠP ost
ĠStra ÃŁe
Ġl and
B er
Ġ ir
ĠThe ater
Ġb ased
Ġto t
Ġprodu ct
Ġse ver
ĠMart in
5 9
w and
v ious
la us
th ers
Ġg irl
Ġre du
ĠSe e
ter t
ĠM c
ĠGes ellschaft
ĠP ass
ĠOb jekt
S o
Ġme isten
st ants
ire d
Ġprogr am
' re
ok en
V al
Ġm ill
Ġal ong
Ġk leine
read y
u el
ĠN utz
Ġ _
ĠW enn
Ġ199 3
ett bew
l am
Ġas k
we hr
it chen
Ã¤n dern
ĠH igh
ĠE is
i ate
ĠR hein
gr ess
part ment
ar ing
ie gel
Ġk l
ĠK lein
Ġ199 1
Ġd afÃ¼r
Ġc reat
Ġim pro
ĠRe c
Ġp ath
ver ein
Un ter
Ġcons ider
et work
ĠB y
ĠT age
ĠFrank reich
Ġr icht
Ġf ood
V ers
Ġwor ks
k n
Ġw obei
F Ã¼r
a he
ag s
Ã¼t zen
F ilm
Ġ198 9
Ġk ind
ĠPr Ã¤sident
ich ter
ief ert
ick en
Ã¤r en
Ġte xt
ra u
ing ton
Ġze igt
ĠS oc
ward s
ĠT ochter
Un ivers
Ġsich er
im ent
Pro perty
č ĊĠĠĠ
Ġmus ste
Ġle ft
ran sport
- ,
Ġn on
ĠH of
ort un
ĠSo zial
ĠE p
Ġl Ã¤sst
ord ing
ĠEn gl
I ch
Ġres p
Ġl ive
lie gen
red it
7 4
S c
Ġre view
oc ument
Ġarbeit ete
Ġr ange
Ġres ponse
Ġto gether
ĠHol z
Ġcon c
Ġ Ã¶ff
ĠtÃ¤t ig
ĠD am
ag ue
ib li
Ġne ar
Ġpr es
ĠK le
ĠSe x
h men
ĠE he
Ġfolgen den
shall er
il en
Ġgr Ã¼n
ĠSte in
Ġbel ow
ab ly
ĠF C
ĠO per
Ġins gesamt
le ge
Ġn Ã¤ch
w irtschaft
ĠW al
g ing
ĠG mbH
tell ung
ĠS icher
ĠGesch Ã¤fts
f asst
Ġ18 0
An d
os p
ut or
ser ie
ĠGeb iet
ein t
richt ung
Ã¼r z
Ġle ben
ĠPro jekt
Ġlie gen
i od
Ġm atch
id ge
Ġb ody
Ġklein en
Ġ( (
Ġj a
m itt
7 1
P re
sch er
Ġs og
geben en
C H
Ġf our
und s
ro du
lob al
ĠPro gramm
Ġcommun ity
ĠJ ust
rÃ¤ gt
u h
Ġn atÃ¼r
act ory
3 4
Ġex tra
F rom
Ġer m
Ġdire ct
i os
ĠS w
dem ie
us try
ac ter
3 1
b ank
eit ung
ĠPro zent
m on
to String
af en
Ġwe chsel
ll t
ult ure
EN T
ern er
ok ument
L og
al og
z ess
ĠMann schaft
Ġz we
ab l
f ield
ĠStra ÃŁen
ĠProv inz
Ã ľ
Ã¼ f
am b
id ing
im men
ob ile
Ġges am
etz ung
ĠCh ina
ou p
ĠRom an
ĠK unden
Mar shaller
Ġin tern
Ġent fern
' ve
ĠK ompon
ĠL iteratur
A pp
ĠB is
ĠL uft
ĠAut or
ĠAnd re
ian s
ĠR olle
FuÃŁball spieler
ĠLud wig
od es
ĠTe x
ĠK ind
itÃ¤ ts
ĠMill ionen
z Ã¼
M ethod
Ġunder stand
ch an
le v
ĠRober t
ĠE isen
ĠT urn
ag t
U T
ĠJ apan
Ġcont ent
ĠS ein
Ġ20 21
ĠâĢ Ķ
Ã¶s ung
engl isch
ktion en
ĠW Ã¤hrend
ĠH ann
ĠBe vÃ¶lker
ĠD own
ÃŁ t
ĠM utter
Ġall ow
a ction
is ing
Ġ198 8
ge gen
L iefert
ĠB ru
an de
Ġn Ã¶rd
Ġa way
ĠT rans
Ġer n
Ġh Ã¤uf
ĠDav id
Ġt reat
Ġp ubl
ĠL og
itÃ¤ ten
ĠS eine
Ġcour se
Ġn atur
ĠK e
Ġstud ierte
ĠMe hr
S pe
id ay
r Ã¤n
Ġwo hl
Ġbeg inn
ĠI OException
ĠSchrif tsteller
Ġm ag
Ġde ut
Ġme ist
tocol Marshaller
Ġeinz el
ĠDeutsch e
w Ã¤r
Ġo cc
ten d
7 2
o o
Ġan geb
ber ger
it en
ĠK reuz
S ize
P D
Ġ( )
ĠK rieg
8 8
Ġge grÃ¼ndet
Ġk osten
Ġt able
ĠO s
Ġcont rol
n ull
om an
ĠW ochen
ĠM ap
ra b
Ġauf grund
Ġbeaut iful
ent ion
Ġen c
Ġbel ie
put Stream
b est
Ġbis her
, âĢĿ
et ter
ol oge
Ġit alien
Ġd ist
ĠM a
5 6
ĠH inter
ord in
Ġun til
N A
ĠF rei
Ġwh y
Ġl im
7 3
ĠV ier
Ġins besondere
or gen
Ġverschieden e
Ġm acht
Ġte ach
Ġkonn ten
O T
ĠB rit
Ġgegen Ã¼ber
E ine
ĠAn geb
Ġcon f
fahr t
Ġ ess
Ġm aterial
Ġin dex
Ġp oint
as ing
ho ck
Ġwicht ig
Ġal ready
lÃ¤ uf
ĠSel bst
ĠL ang
Ġcon dition
ĠM useum
ĠK in
ĠschlieÃŁ lich
ĠMar ia
Ã¼r t
Ġwen ig
L A
as tr
Ġc ity
ĠMal er
Ġcle an
Ġk ur
h Ã¶
on a
Ġmon ey
Ġmo dern
ĠJ ournal
V or
ĠZw eiten
C ode
Ġre pr
con om
iv ely
deut ung
Ġagain st
Ġt imes
ak ter
Ġl ov
Ġf av
ĠHe imat
ĠMin ister
Ġp ast
Ġhe i
iv at
c er
Ġet c
5 8
Ġb ar
s etzt
ĠA uÃŁer
je kte
ĠNor den
unn ing
c ent
Ġs im
ĠM il
Ã¶r t
Ġe duc
i ber
w agen
Ġg an
ĠK Ã¼nstler
G r
en zen
Ġme et
ĠH in
ĠH all
ure d
w eit
Ġn ight
fl uss
ĠK ur
if fe
Ġe lement
ĠT est
erk e
Ġfe atures
cri pt
land s
A D
is on
Ġfor t
es ted
ent wick
ĠK auf
Ġin tegr
igen schaft
Ġp ossible
ib r
ĠLe hr
Ġgemeins am
Ġw ind
pp er
ene f
ĠB ur
Ġf ar
Man ager
Te xt
M od
ĠSch loss
Ġoff ers
B r
le b
ar ian
ĠBeg inn
h an
pr int
a pt
og n
Ġbes ten
Ġerfolg te
ĠSch utz
Ġn ichts
" )
5 4
ĠK ilometer
ang es
Ġp ot
ak en
ck s
ĠB ilder
Ġh aving
in i
Ġur sprÃ¼n
k o
Ġb it
Ġan s
ĠDies er
ĠInd ustr
lig a
ĠC al
ĠG eld
Ġer klÃ¤r
Ġver m
Res ult
he ther
ĠT op
Ġsow ohl
ĠT V
Ġ Ã¤
Ġihn en
is ed
Ġz eit
ern en
j et
Ġof ten
Ġso cial
Ġs ide
ĠZ we
ĠN Ã¤
ip l
Ġle d
r ist
ĠA ben
ĠO ne
ĠFuÃŁball spieler
Ġgen au
Ġfollow ing
im a
ĠK ant
Ġp osition
Ġvor hand
ĠVer kehr
ĠPf arr
ĠA fr
ĠSt art
qu e
Ġindivid u
y er
Ġhin aus
ĠB aum
och e
ĠG et
ic o
ant wort
Ġen s
Ġac ross
ar en
.. ..
Ġc m
an ien
ĠW hen
ĠWeltk rieg
ĠAr ray
ĠEn d
fl Ã¤che
Ġ8 0
Ġz usÃ¤tz
ab les
yn ch
Ġdevelop ment
Ġo ber
Ġd re
arbeit en
Ġn ieder
form at
ĠH en
ĠSt ate
Ġwechsel te
op y
al ys
ĠM er
ĠM el
ĠGer man
ompon ent
Ġm ot
Ġp lease
ab hÃ¤ng
Ġe ver
ĠE v
it ze
Ġre p
Ġ198 6
in dex
Ġy oung
E vent
E L
ĠC D
ch ter
or m
Ġ195 0
Ġbl og
8 9
s ide
Ġ id
Ġf ocus
Ġo p
ord nung
hock ey
ĠMet hode
ĠE mp
F A
ĠM aterial
ĠF Ã¼hr
bar en
M S
ĠB lack
Ġsever al
ĠProdu ktion
sch lag
ĠBes itz
ĠPr ess
ub s
ic ks
ĠKais er
b u
Ġcont act
ĠEurop e
ĠW irtschafts
Ġge lang
ĠTh ese
Ġmo der
3 7
sp ir
ĠSchwei z
Ġe lect
ze uge
fÃ¼hr er
S eit
ĠT Ã¼r
Ã¶ ÃŁe
ĠRe cht
ĠP DF
For mat
s erv
Ġ198 7
ĠMÃ¤n ner
ich en
stell ungen
pp el
O ut
s uch
ĠD ruck
Ġh erv
asch inen
ĠW issen
ag o
ĠW ieder
ver kehr
ide os
Ġind ustry
Ġzw ar
ar l
ĠSta at
isten er
_ _
Ġinst all
ĠSt Ã¤d
Ġ198 4
ĠBes uch
ĠM ore
ĠZ eich
be k
ĠR ichtung
Ġver st
ĠProf essor
ĠP an
Con fig
verb and
sp ro
Ġze hn
Ġg re
ym bol
rich ten
il s
em a
ac y
Ġpr esent
cr ib
ĠBo den
Ġerne ut
z immer
Ġm om
Ġn am
ir at
ĠThe ma
f ace
ĠÃ¼ber nahm
ĠH alb
Ġsoll en
I tem
Ġd one
uf act
ĠS uper
n am
ĠW eit
ann el
Ġ198 5
---- ----
8 6
Ġn ord
a ders
Ġmit tel
Ġcol or
Ġdel iver
St and
ĠF ile
k unft
T yp
ĠO t
Ġgeb oren
O S
Ġn ahe
N ull
Ġqu ick
es te
an ks
Ĥ ¬
b s
Ġal ten
ĠReg ierung
ĠZ ur
ict ion
ĠS im
ĠSch iff
Ã¤n den
Ġc los
Ġpr ice
co ver
M P
Ġge ben
Ġbe vor
Ġv ol
ĠW eiter
rif ten
ĠVer fÃ¼g
ĠAm t
Ġdah er
b Ã¼
ispiel sweise
Ġsog ar
ut zen
ĠH ers
Ġar ch
Ġbec ome
row n
W elt
Ġ198 2
ĠKÃ¶l n
sch eiden
ste lle
Ġgew Ã¤hlt
ĠMot or
h or
En t
Ã¶st lich
Ġh om
g ruppe
ĠD enk
get ragen
Ġget ting
fol gt
Ġcal led
ab in
Ġeigen e
ge f
ĠZ um
Ġb lieb
ĠL ou
Ġent ry
in ed
Ġver kauf
ĠVer anst
ok e
leit ung
ĠA p
auf en
Ġpr ivate
' ll
Ġcom es
ĠSt at
st Ã¼ck
Ġsp ace
Ġres ource
Ġstud y
Ġemp loy
Ġbeste hen
Ġapp ear
ĠwÃ¼r de
iz iert
sp rach
or den
ĠP osition
z us
Or t
ĠOlymp ischen
ĠL es
p iele
| |
Ġre lation
Ġ197 2
ul a
ĠAlb um
Ġs ource
em in
ach ten
l as
Ġb lack
ĠIn nen
Ar gument
ĠK Ã¶rper
ist ische
Ġex ec
Ġsh are
Ġ198 3
Ġcoun try
un sch
Ġw oll
tr itt
p reis
Ġw ahr
ist ik
mÃ¤ÃŁ ig
Ġopp ortun
g Ã¤n
L and
ĠBe deutung
Ġme ans
alif orn
f an
ĠR ock
Ġerfolg reich
ww w
ĠSch Ã¼ler
Ġus er
zie h
Ġcomp an
ĠH or
Ġzw eite
tem berg
& #
4 2
Con ne
B au
Ġh Ã¶ch
ra uch
V on
re ibt
Ġm ajor
pla ce
Ġprofession al
Ġfrien d
Ġfrien ds
ck t
ĠFl or
Ġ7 0
Ġth ough
Ġre port
em per
ap s
ring en
ĠVor s
geb ung
l ast
ĠK ol
Ã¤ch lich
urop Ã¤
ur ance
ĠAl ter
Ġbie ten
ĠColle ge
Ġl ow
hl en
ute t
eh men
ic ation
ay er
fÃ¤ h
ium s
al z
stell t
Ġd est
Ġ9 0
Ġr Ã¶m
ĠA ber
en ze
Ġhand elt
z ir
ell ing
entr al
g ent
ĠAn ton
Ġph ys
Ġeinges etzt
f red
Ġad dress
wo od
b are
pe cted
ĠS ong
ĠR ot
ĠI r
Ã¤ chen
z z
ĠS and
Ġre gel
Ġwrit e
ann ot
Ã¤hl en
++ )
ĠSch ule
la den
Ġgo vern
Ġm odel
id d
Ġoff ic
ĠK lasse
esten s
Ġser ies
U r
Ġh inz
te mp
Ġm akes
ĠD DR
ca dem
Ġstar ted
ĠK urz
ĠAn zahl
av en
ĠS ant
ĠM os
Ġth ing
18 9
4 3
Å ¡
ĠBay ern
is c
Ġdes cription
Ġc la
Ġso zial
Ġcom b
Ġwel ches
zeich nungen
ungs k
ĠIl legal
Ġm ass
age d
wo hl
Ġerreich te
Ã¤us er
ĠSÃ¼ den
h aupt
ĠA k
ger ufen
4 1
ĠZw ischen
Ġbest imm
Ġkn own
ann e
ges etz
Ġor iginal
ĠG arten
ĠK riegs
ĠFre und
ge geben
Ch ar
Ġb enef
Ġr en
ĠII I
Ġzahl reiche
F actory
O ption
Ġm essage
I G
ĠH a
de b
Ġp ie
ĠV iel
Ġst ory
gesch lossen
x is
an ken
id el
ichte te
ĠTh at
. :
m o
an ces
Ġres ults
Ġnor mal
4 7
ĠC enter
Ġst yle
Ġse le
Ġentspre chen
n ach
Ġto ol
iv ision
Ġmember s
Ġp urch
# #
ibli othe
a iled
re icht
Ġger ade
Ġw atch
Ġs tellt
ĠF ernseh
ĠfrÃ¼ her
ĠStud ien
os sen
Ġp o
Par ameter
zeich en
Ġerr ichtet
ĠD istr
ok rat
ĠMit glieder
Ġp ersÃ¶n
ĠG ast
Ġbe ispielsweise
ĠSp iele
ad urch
In stance
Ġspec ific
5 2
Ġa cht
he mat
e ign
Ġd ate
Ġzu dem
Ġsie he
c ol
Ġso gen
5 1
IN D
Ġwen iger
ĠAuÃŁer dem
M L
ĠB u
hl er
ĠE lekt
iz ei
val id
5 3
ĠK or
te id
Ġ197 5
Ġgem acht
I P
E igenschaft
f ried
al tet
Ġpro tocolMarshaller
m od
ĠDe c
J ahr
ar f
ges ellschaft
s burg
yn am
ĠS erv
ĠHo use
g in
k r
ettbew erb
e ter
il ities
Ġh Ã¶
ill er
ĠS et
C ount
ĠMed ien
I L
olit ik
c urrent
Ġcomp uter
ab y
ro t
Univers itÃ¤t
yn c
om et
b ie
st ieg
ĠI mp
ĠW esten
op t
Ġehemal igen
ĠhÃ¤uf ig
Ġdeut lich
h as
Ġw elt
ĠB or
ĠIt alien
ak te
mann schaft
Ġcl ick
Ġeng ine
ĠF el
ĠIn sel
ĠHerz og
Ġinstance of
m el
w ald
ĠReg ie
Ġdan ach
( (
ĠO sten
ĠS ub
ch ar
ĠN etz
ail le
w ind
Ġs en
Ġmit t
rach te
b esch
Ġh uman
ĠR ein
Ġ{ @
ĠArt ikel
F e
p aper
t ype
d i
ĉĉ ĉĉ
I mp
app en
O L
ĠZ ust
Ġacc ount
p age
ge hen
ĠG ott
âĢ Ķ
Ġse ason
Ġ197 9
Ġge hen
F l
ĠO ut
Ġ197 6
ĠFe uer
empl ate
anad a
Ġre cht
Ġsom it
ĠWh at
ĠC oun
in ge
le f
ĠL age
Ġver fÃ¼
Ġle icht
lan zen
Ġvers ion
schul lehrer
Ġc ent
ĠW el
v est
ĠC an
Er ror
Å į
ĠGr Ã¼nd
Ġheut igen
ĠE ing
c omp
h ang
Ġun ique
ĠS aint
Ġwir k
haf t
Ġf ilm
ĠD el
um ents
Ġvorhand en
ĠVerfÃ¼g ung
Ġ197 4
ĠAl le
Ġdam als
Ġt alk
ĠT al
B C
Ġc amp
ĠJ ames
r ess
ĠR em
ge fÃ¼hrt
ĠA G
rie f
ish ing
itu ation
Ã¶ hn
ĠP et
ĠSt ar
Ġstr ateg
Ġh ttp
Ġ196 8
Util s
Dies e
c is
g re
m ost
Ġ196 9
Ġgef unden
Ã §
Ġ197 8
Ġ(âĢ ŀ
ĠF inal
Ġs n
b or
ĠZ Ã¼r
Ġprov ides
ĠverÃ¶ffentlich t
T eil
e ded
Ġide as
we gen
ĠgehÃ¶r en
Ġd ien
Ġj oin
L o
ĠS telle
; &#
werk e
H er
y e
ol den
iziel le
T rans
Ġo thers
Ġh ours
ue ck
Ġ198 1
ym n
ĠGo ogle
s eite
ynch ron
F ernseh
Ġ Ã¤hn
es tern
c el
Ġ ung
ĠW ein
C E
itz t
sche ch
ĠRich ard
iv il
geb Ã¤ude
Ċĉĉĉĉ ĉ
ben e
ast ic
Ġen vironment
rol le
Ġpro blem
ell s
ĠCar l
throw s
la w
Ġst ra
ĠChe m
ĠDre h
Ver ein
ĠParte i
ĠEr fahr
led ge
Ġfolgen der
Ġcle ar
ĠR und
ain ing
cre ate
an o
ĠK re
setz ung
Ġs ug
ient en
leg te
Ġme an
St atus
id th
w rite
le men
im s
Ġst amm
Ã¼rt temberg
ĠB ot
Ġ197 3
5 7
ag ing
M ed
Ġs ett
Ġf uture
Ġver sch
ĠT ab
Ġdar unter
Ġem ail
ĠMitarbeit er
Ġw ollen
an cial
Ġwh ite
ĠAuf lage
Deutsch land
ĠVerw altungs
ĠEnerg ie
g a
ĠM ass
Ġer k
Ġsimp le
Ġr uss
Ġdisc uss
U p
on ne
Ġen erg
Ġor ganis
ak er
ĠHil fe
ĠG est
ic ro
Ġbuild ing
ĠEng land
or ed
ĠF ort
Ġk lass
Ġtechn ology
at ers
al ia
ĠRe v
ci ally
ĠÃ¶ff ent
ĠJ azz
ok al
Ġsoll ten
ĠJohann es
ĠK ateg
Ã¼r d
as er
ĠKar r
ges etzt
Ġjed en
fra ge
ĠM iss
Ġp ur
Con stants
Ġinv ol
im ate
Ġc lose
ĠR os
Ġwei ÃŁ
t ime
Ġsie ben
hand lung
ĠG ruppen
Ġf ur
t c
Ġh istory
ĠC r
Ġlie ÃŁ
ĠÃĸ ff
ĠA ka
ĠP sych
M us
c ome
ik on
ĠOrts teil
k or
air s
B o
Ġer Ã¶ff
eg ung
Ġcustom ers
ĠP rem
Ġw alk
un e
ran ge
Ġ197 1
ĠGes amt
ad s
ĠfranzÃ¶s ischen
n ers
Ġbe de
O ff
ial og
ri x
ĠFin anz
ĠS u
fin ition
f rei
ĠA v
ĠJ ur
ra chen
ĠV al
ier ter
ĠMin uten
he b
z a
S ystem
Ġd ir
ĠSt ad
M A
Ġl ik
0 1
get Name
ide d
m as
ang s
Ã¤t zen
U L
Ġm em
ul es
id a
ĠAm ts
Ġcomm on
Ġt arget
Ġm at
Ġen ough
aff el
i j
ĠJ ack
Ġoption s
ĠB ook
ĠB aden
ik al
ra el
Ġcompan ies
ĠAus bildung
Ġrequire d
Ġear ly
Ġd at
ist ry
or es
ĠLe ague
par te
Ġle b
ĠW irk
0 6
Ġ196 4
** **
Ġc ode
schlieÃŁ lich
s ub
ib ility
lÃ¤ ss
C he
c ase
Ġw on
Ã¤d ag
hr te
an lage
amer a
or ies
ver w
as chen
Ã¤ h
ĠD om
ol a
oin ts
Ġl iving
C omponent
Ġsch wer
mal e
h il
i ar
as il
im um
Ġon ce
0 8
Ġk itchen
Ã¤t ten
Tra ce
Ġabsol v
] .
w asser
ĠM ilitÃ¤r
20 18
arbeit et
Em pty
ĠV o
ame ters
ĠCl ub
ste hen
er ing
Ġc ard
Ġman agement
Ġloc ated
Ġdesign ed
Ġpop ular
ip le
O G
ger icht
H och
et ten
Ġm iss
Vers ion
U m
pp ing
P ackage
n o
Ã¼ ter
it a
Ġg ute
âĢľ )
ĠPhil osoph
w ill
ĠP lat
č ĊĠĠĠĠĠĠĠĠĠĠĠĠĠĠĠ
ĠG Ã¶
deck t
Th ere
ĠF le
Ġ197 7
bl ick
us ion
ĠU p
Ġne ues
ĠG od
meister schaft
Ġmonth s
Ġs end
ĠB ach
Ġ196 7
Ġb le
ĠSal z
Ġwall paper
ĠAn gel
Ġad min
Ġpre par
D at
ur ren
Ġk einen
Ã¼s se
A ccess
Ġth ought
Ġg ames
Ġauth or
S te
Ġb lock
bed ing
geb ie
Ġact ually
8 5
Ġde al
> ();
f il
k i
ĠD och
Ġtra ining
Ġentfern t
Ġpro b
s b
Ġletz te
Ġm eine
br uch
a ktion
w ord
Ġn ode
ĠErn st
le iter
ĠC ommun
Ġst arb
ĠSer ie
0 5
Ġl ag
ne xt
ges ehen
ĠBr and
Ġfe ature
B uffer
le icht
Ġzu vor
ĠG i
ĠDown load
Ġc oup
Ġfr ont
ier ungen
S E
Ġw onder
ĠT her
Ġex pl
N ew
ĠL Ã¶
Ġvar ious
un ge
ĠEl tern
Ġman ufact
Ã¼ss el
Ġbefin den
Ġs ing
ig ungs
ĠEr folg
Ġle ast
Ġa ff
ĠNÃ¤ he
6 6
ens ion
ĠBevÃ¶lker ung
ĠK osten
Ġcert ain
un ction
on en
arbeit ung
Ġmed ia
ĠS l
ĠB Ã¶
ift ung
s eit
Ġde fault
Ġ196 6
Ġevery thing
k an
0 4
Ġin put
Ġgen utzt
ĠWill iam
Ġrelation ship
it ing
Ġin form
ĠM ein
St art
Ã¤l fte
Ġger ne
Ġverb unden
ch end
ĠI D
Ġbe teil
Ġf il
Ġf rei
Ġh ost
ĠM ad
Ġein igen
am in
ith er
u age
ĠE hren
W est
ĠG ot
ĠL o
tern al
ĠG leich
Ġz ie
D ate
Ġa ud
Ġv an
ĠB ack
enn ung
Ġ193 9
G em
ĠM ac
ĠK an
ach er
ĠAss oci
ran t
Â ²
ĠS achsen
sch iff
Ġst ru
Ġaut omat
0 9
b ro
ĠVerein igten
Ġst ay
for sch
Ġdoes n
Ĩ Ĵ
get S
fol gen
Ġqu alif
ĠSt ates
Ġsch Ã¶n
ĠKarr iere
Ã¤t igkeit
ĠK raft
l ad
as en
res ult
letz t
Ġentstand en
ien s
Ġho he
ir es
ĠD enn
ĠBerlin er
Ġmin utes
us st
Ġ5 00
arr iere
k el
ace book
ze ugen
ĠSp rache
g g
ĠRe ise
ĠVerb indung
Ã¼h le
Ãľ ber
ĠE igen
Ġl ock
ĠAr m
Ġe lekt
Ġer reicht
Ġsp an
hal te
ĠRei he
ĠC amp
Ġre d
Ġcolle ction
jÃ¤hr igen
it ure
En d
Ġag o
Ã¼l t
Ġp ack
P S
ain ed
Ġinter ess
6 4
Aus wahl
entwick lung
ĠR ud
isse ur
p ol
Ġerw Ã¤hn
Ġre por
Ġz og
ĠKl oster
Ġtot al
f ix
ĠW as
ze hn
ĠGes und
it le
fass ung
ĠSil ber
la ger
Ġgleich en
Ġperform ance
Ġl inks
Ġf alls
st ud
K on
ĠR iver
Ġ3 5
ĠMus ic
Ġherv or
T oken
Ġc ame
Ġbei de
t est
In t
Qu ery
icher ung
ĠJose ph
r am
Ã¶ ll
C all
i ra
d in
f Ã¼r
Ġd Ã¼r
ĠG re
che ck
fl ug
in ne
ĠB und
ĠEr d
Ġp df
0 2
ĠF en
Ġexper ien
Ġread ing
Ġf it
ĠE lement
Ġ196 5
Ġakt iv
f ile
ĠM ult
R A
Ġpartic ular
ĠO ct
O per
P er
W enn
ï ¿
sp iele
me e
zeit en
Ġdo ing
ĠFr Ã¼h
c m
ĠW issenschaft
or ted
ĠW all
ĠBr on
Ġtra vel
t d
Ġf ra
ĠV ideo
W hen
Ġw Ã¤re
at iv
Ġto ok
ct ors
, "
Ġy et
ĠK ons
ĠUnter stÃ¼tz
l ant
ĠProdu kt
ou d
ĠAn n
Ġper iod
ful ly
Ġ196 1
ĠD ay
Ġh ig
ĠB al
ĠN ow
ik o
ĠRe ad
leit et
Ġs ays
ĠSt Ã¼ck
Hand ler
le tt
il ar
oll ar
ĠnÃ¤ch sten
w esen
ĠD eb
e e
Â »
ĠGe f
At tribute
I V
r uf
af t
Ġzur ueck
ĠVert rag
Ġcon stru
ieren den
ĠG roup
Ġ194 0
ian a
ĠPhil ipp
8 4
h ing
Ġ193 3
Ġentwick elt
g ere
ĠUnter such
Ġteil weise
Ã¼ll er
G ener
u c
ĠK ranken
Ġst ore
ĠY our
ĠB ud
ĠSie d
Ġcre ated
" ;
at ors
ĠI ll
Ġad v
M odel
Ġauf genommen
ï¿ ½
tr ieb
ho ut
neh m
Ġinclud es
ĠS at
ĊĠĠĠĠĠĠĠĠ ĠĠĠĠ
P ol
g round
an w
ĠO pen
ĠPr es
Ġh old
it ts
Ġnew s
z iert
Ġnach dem
Ġgew esen
Ġoff ice
Ġt w
ĠP o
Ġpr im
Ġ196 2
bo ard
v o
us ive
ĠHer aus
ĠPart ner
Ġfav or
v in
Ã¼ss eld
ĠK ampf
Ġspe ziel
ĠReich s
h ab
ĠHer ren
fall en
T H
âĢ¦ ]
Ġdid n
u hr
ĠT ur
Ġunter stÃ¼tz
Ġaus gew
Ġaus gest
net en
ĠgrÃ¶ÃŁ ten
v ing
ach ed
tr ue
Ã¤n gen
ĠVors itzen
Ġd istr
ĠGe orge
d ien
Ġd iff
ĠW and
ir c
Ġlat est
hal ts
Ġmill ion
T able
ĠEurop Ã¤
Ġcontin ue
ar tet
ĠRe gen
vent ion
M ail
Ġup date
ĠT on
rÃ¤ ge
ig entlich
ist ic
ĠDam it
deb ug
F F
H ol
ch ester
Ġk amen
we isen
ĠGemein den
. <
1 00
gr am
ĠPro ble
Ġann oun
Ġresp ons
ibliothe k
Ġe conom
Ġre ason
Ġiss ues
u ed
he t
Ġex t
Ġr ate
Ġreg ion
Ġunser en
Ġvoll stÃ¤nd
Ġby te
Ġpr ess
f ten
p ass
Ġm ap
ĠM aÃŁ
ĠN ie
Ġse en
ĠUn ion
ĠI d
Â °
ĠK omm
Ġrec ommen
ĠZÃ¼r ich
urn iture
Ġstell te
g liche
ĠH al
Ġ Ð
Ġf ert
as te
Ġam ong
imm ung
Ġg iven
Ġso ftware
Ġv ia
Ġ( =
ĠF ig
ĠDies es
mar shall
ĠA ward
Ġd ivers
Ġd etails
Ġfr Ã¼h
Ġw issenschaft
Ġent hÃ¤lt
ĠGe ist
ĠBru der
C hr
O ur
ir che
Ġho hen
Ã¤ ÃŁ
ame ister
Cont ent
6 5
Ġ Å
ĠP il
Ġ193 8
0 3
Ġ );
ĠR ob
ges tell
Ġ196 3
ĠKont akt
Ġe uropÃ¤
ĠSt unden
Ġcon text
Ġa ction
it i
Ġs tellen
lie ben
ĠA fter
P E
ĠM r
rit te
Ġquest ions
an gel
te cted
ĠFol gen
B IND
C D
Argument Exception
Ġdar Ã¼ber
ĠOt to
ĠkÃ¶nn te
or te
ĠF Ã¶rder
ot a
Ä į
as ure
Ġsome one
y a
ou ver
ĠBe k
ĠNach dem
ĠFra ge
s c
Ġb ad
ĠAut o
Ã¼ st
ĠD res
ymn as
ĠSp ring
ĠJun e
ĠBas is
Ġf ive
us ter
ĠG al
zentr um
z ip
f ar
ĠPr Ã¤
ĠPol izei
iz er
ĠHer mann
Ġmehr eren
Ġfolgen de
Ġapplic ation
ip ment
BIND ING
em ents
ug hout
Ã¤d chen
fahr er
ĠSte uer
P art
ĠF und
ĠL Ã¼
T Y
w es
c ement
ig ner
cre t
ĠWolf gang
Ġmach te
ich ert
Ġd ue
Ġass ist
P age
ur al
aus ch
Ġvers te
ĠPolit ik
Ġspiel en
Ġwirk lich
bo x
ĠK opf
Ġf und
Ġal t
Ġhapp en
b ark
ade d
ĠFra gen
s m
Ġde p
Ġam az
ĠNach t
Pro du
Ġa ge
ann er
Ġfin ally
Ġ193 0
Ġev ents
Ġt aking
ĠR ang
itz er
ĠFl uss
ig lich
Ä ģ
ĠH Ã¤lfte
U ser
ĠM ess
ĠL icht
ĠIn n
Ġ194 4
Ġ3 2
k ret
u a
ic ate
Ġw ait
tr ie
Ġin nov
Ġh ope
Ġbo x
com ing
zeug t
l im
k und
Ġge legen
Ġare as
Ġpre vious
w art
ĠW ebs
Ġer ster
au ber
ĠGeb urt
an ger
ĠB ill
ĠR oy
Ġfol gte
aup ts
Ġnatur al
Ġcl ient
ĠFrie d
ĠBahn hof
Ġw ww
ĠP op
ĠR at
ĠCh or
ĠGr and
tt y
Ġbest and
âĢ ĺ
Ġfun ction
Ġenerg y
Ġs ale
Ġen ter
Ġc ook
ĠCh amp
ren g
Ge ographie
Ġtro tz
ĠÃ¼ber n
istr ation
Ã¼ ste
Ġne hmen
ĠPh ys
Ġgovern ment
b an
le cht
st all
ĠEr sten
Ġcomp et
ĠF uÃŁ
final e
or ing
Ġ19 20
ell ow
ĠArray List
ĠA uÃŁen
Ġre le
z we
ĠS n
in den
Ġs il
Ġw ent
ed ule
ĠPr ivat
s ie
Ġunser em
ĠAlex ander
ut il
ĠL at
ĠN am
ĠAr ten
ĠfÃ¼hr en
ĠThe men
mar kt
Ġat tra
ich e
ĠB on
ĠAn ge
el ten
ĠGes etz
ĠHow ever
m und
Ġa merikan
ĠD ach
ĠC ons
av y
Ġh air
Ġ195 9
Ġcom fort
Ã³ n
techn ik
Ġb i
ĠSie g
E X
ĠW o
ann ing
ĠIhr en
Ġp aper
ĠK al
ran g
p ark
ĠV oll
Ġâ ĨĴ
ĠL ong
Ġze igen
Ġson st
Ġread y
Ġs at
ĠS a
Ġl ength
Ġeben so
if fen
rit z
Ġwrit ing
ele br
ch ie
ĠB ig
Ġstr ong
Ġab ove
Ġbr and
In ner
ail y
c il
end s
ĠA uss
Ġp lat
\\\\\\\\\\\\\\\\\\\\\\\\\\\\\\\\\\\\\\\\\\\\\\\\\\\\\\\\\\\\\\\\\\\\\\\\\\\\\\\\\\\\\\\\\\\\\\\\\\\\\\\\\\\\\\\\\\\\\\\\\\\\\\\\\\\\\\\\\\\\\\\\\\\\\\\\\\\\\\\\\\\\\\\\\\\\\\\\\\\\\\\\\\\\\\\\\\\\\\\\\\\\\\\\\\\\\\\\\\\\\\\\\\\\\\\\\\\\\\\\\\\\\\\\\\\\\\\\ \\\\\\\\\\\\\\\\\\\\\\\\\\\\\\\\\\\\\\\\\\\\\\\\\\\\\\\\\\\\\\\\\\\\\\\\\\\\\\\\\\\\\\\\\\\\\\\\\\\\\\\\\\\\\\\\\\\\\\\\\\\\\\\\\\\\\\\\\\\\\\\\\\\\\\\\\\\\\\\\\\\\\\\\\\\\\\\\\\\\\\\\\\\\\\\\\\\\\\\\\\\\\\\\\\\\\\\\\\\\\\\\\\\\\\\\\\\\\\\\\\\\\\\\\\\\\\\\
alys is
Ġe her
ĠSe c
Ã¤ te
Ġsch rieb
Ġ195 6
unter nehmen
F I
Å Ĥ
ĠW ider
lie d
ĠAmer ica
G es
Ġst aff
Ġpro ble
ĠJ es
Ġph one
is ted
ĠW ash
Ã¶ ne
ograph y
ĠSpiel en
ad a
Ġar r
ĠS Ã¤nger
sch t
d t
ge hend
Ġp ick
Ġer reichen
ĠnatÃ¼r lich
Q L
os ph
Ġpr iv
N o
Ġsp ielt
Ġ ill
ak a
b ra
Ã¤ u
ĠVers ion
et y
Ġne g
ĠmÃ¶ch te
Ġb esser
st ate
Ã¤nder t
9 5
w issen
at ic
ĠD ann
rie ges
ition s
An y
. -
he ad
aler ie
ĠLe hrer
ĠErgeb nis
I M
ĠL aw
ĠMe er
ĠStand ard
ĠT w
ze igt
Ġex ten
Ġ4 5
Ġaktu ellen
R el
k reuz
Ġn etwork
ĠEx per
or ten
Ġp an
ĠT om
au ern
Ġse par
fol ger
Ġ194 6
ĠauÃŁer dem
Ġs ystems
Ã¤nd ig
ĠA ugen
iz ing
ĠNew s
Ġver ein
Ne xt
is es
Ġ[ âĢ¦]
c al
Ġben Ã¶t
g y
ĠA th
Ġver lie
ĠM ond
Ġc ount
gen cy
ĠRe publik
Ġad ded
A M
ĠArbeit en
L ine
ĠAka demie
an ted
Ġex ample
ĠEnt scheid
Ġcho ose
end es
Ġwh ole
Ġdam al
zie hung
0 7
m Ã¶
d am
o der
Ġsel f
Ġappro ach
ed en
olog ische
x y
âĢ ŀ
ĠBl ick
Ġh ot
me hr
Ġk ont
iden ce
Ġwoll te
Ġto ur
Ġz erst
T rÃ¤ger
Ġde ter
lichkeit en
> (
ĠIhr er
b um
Ġerh Ã¤lt
ĠL im
Ġ195 8
van gel
ĠB us
ĠA st
w esten
ad o
ĠAus wahl
Ġloc ation
l ern
Ġf ace
S C
h ere
Ġb ath
ter e
Ġens ure
Ġgeb aut
Ġc as
g or
n es
ĠR a
ab ase
ĠVer gleich
Ex ec
A B
I s
ĠW ort
aus t
Ġ195 5
k re
Ġt ax
em b
Ġhal f
Ġl ater
ĊĠĠĠĠĠĠĠĠĠĠĠĠĠĠĠĠĠĠĠĠĠĠĠĠ ĠĠĠĠĠĠĠ
ĠA cc
Ġfor mat
Ġsie ht
st ring
Ġc ra
Ġh on
ĠF ern
ĠRe al
Ġne eded
ac es
ĠR en
end ar
Ġhe art
ĠWerk e
Ġv eh
A ss
ĠL eiter
Ġer z
Ġihr es
ĠE t
ĠK ing
ĠStud ium
ĠC la
Ġup d
ĠDo ppel
o on
z uf
ĠE U
ĠRest aur
ĠFir ma
Ġan schlieÃŁend
bet rieb
Ġsetz te
B ut
ĠAuf trag
ĠZentr um
fer enz
gel Ã¶st
Ġchar acter
Ġc annot
ĠU s
pp en
oot ball
ĠF ree
ĠC up
ab eth
Ġso fort
Ġpos ted
8 7
ap ter
Ġle g
kir chen
Ġe ither
ĠZu dem
G B
Ġ194 8
Ġ194 9
ra in
ell ent
Ġpr int
zir ks
Ġ195 2
Ġsel ten
or der
Ġe p
st art
ho ben
p lat
en ces
ĠG as
ĠV is
Ġt un
iz es
ĠMod ell
v on
in fo
tr ies
Ġ195 7
N umber
h ib
Ġs ong
ĠT ier
ĠStre cke
9 3
z i
ĠC ent
or a
Ġp ain
Ġp aint
ĠW alter
ĠGl as
e ks
k athol
ĠS yn
halt ung
do or
ot te
Ġass oci
it ar
ĠSt ru
8 3
9 6
ĠP ublik
pe cially
ent ry
Teil nehmer
at ten
ro ffen
sch riften
ir th
Ġrec ord
ĠUm welt
Ġrest aur
S P
Ġs ens
Ġv ari
ĠW ol
F ilter
w irk
ĠHann over
end ing
Ar ch
Ġide a
ĠIllegal ArgumentException
k arte
Ġb ase
ĠF rom
ĠI st
W er
Ġal te
Ġbes uchte
Ġge d
ĠSt il
ĠGra b
Ġp orn
Ġho tel
ĠStre et
as ten
S ON
b Ã¼rger
ĠL os
Ġd ig
ĠSchw er
get C
O P
etz en
Ġ195 3
Ã¤ um
ĠD Ã¼sseld
ĠC our
ĠU K
af fe
Ġun ver
hÃ¤lt nis
Ġopt im
Ġer ziel
Ġit em
olog ischen
Ġcl ients
ĠÂ «
Ġeinzel nen
S port
ĠF acebook
ot o
Ġsimp ly
Ġ row
ĠS ing
Ġf ul
Ġre chts
ĠEn ts
Ġpart y
Ġw hether
Ġent halten
ĠPla y
ĠBÃ¼rger meister
Ã¶r m
Ġthro ughout
Ġbesch Ã¤ft
Ġprovide d
Ġst re
Ġhei ÃŁt
ap ie
k ap
ĠT eile
ne ter
ĠA re
Ġpartic ip
l iste
y ear
er o
Ġver he
Ġup load
ĠW ahr
hl t
Ġ- -
Ġk ennen
ĠZu ge
c ul
se hen
Ġ194 1
ĠGeb ie
i i
ĠB usiness
rÃ¤ fte
Ã¼r n
ie ÃŁ
ĠV e
Ġk aum
ĠSt amm
O C
Ġj apan
ĠBe griff
ĠA ct
ash ion
ĠJe an
Ġble ibt
Ġal most
M in
i est
il det
ieren de
Ġm Ã¶
ran sp
p ack
lan gen
P os
Ġmitt ler
F rau
be zirk
Ġweiter hin
ĠKÃ¶nig reich
Ġm m
all ow
Ġt aken
Ġm er
ĠI T
Ġqu ite
Ġfin ancial
i w
ie ur
ĠA ud
Ġt c
Ġum fasst
Ã¤l le
ĠComp any
Ġb ill
ĠL Ã¤nder
ĠL Ã¤nge
Ġbe deut
Ġknow ledge
Ġim ages
Ġfin anz
ut her
Ġw ide
ĠW ild
č Ċĉĉĉ
Ġge k
Ġsub ject
Ġstand ard
ĠKompon ist
er ror
ĠN ik
ver age
ĠSch Ã¶n
ĠOr iginal
Ġins urance
N ames
on ie
Ġde b
ĠEx ception
ĠSchauspieler in
Ġd ritten
ĠI N
ĠH ere
sch ei
Ġres ources
ĠForsch ungs
rit ik
ĠD okument
ĠP lease
ĠBre men
ĠLou is
h y
l ist
ĠG reen
Ġge geben
gel n
ĠH D
Ġbring en
ĠL ink
Ġsec urity
irat et
ĠG Ã¤
anden burg
Ġpra kt
ĠLie be
olog ical
Ġ195 4
Conne ction
Ġins ide
M ax
Re c
Ġev angel
S V
g arten
Ġp sych
Ġfur ther
r hein
Ġus ers
Ġcom mer
ĠMan agement
ĠUnterstÃ¼tz ung
Ċ ĊĠĠĠĠĠĠĠĠĠĠĠĠĠĠĠ
gen er
ĠLin ie
Ġit ems
Ġra d
ie ÃŁen
ct ing
ĠWash ington
u hl
ĠE ast
Ġ194 2
Ġ194 3
Ġhe ld
U M
Ġne un
teil en
Ġevery one
Ġcurrent ly
Ġvar iety
so zial
ĠIs land
Ġkosten los
C olle
th ough
aun ch
Ġer folgt
ite te
M y
Ġv o
Ã¼f ung
ĠR and
Ġent ire
l it
un ch
Ġp le
ĠSp r
gr enz
Ġabsolv ierte
l Ã¶sung
Ġch allen
ĠSc ience
pro tected
Ġreg ister
ĠAben d
ĠB all
ĠN icht
ĠPf lanzen
stre cke
Ġmind estens
ĠB il
sch uss
ĠL ar
orn ing
Ġany thing
Ã¤ch s
alt ungen
ĠInstit ut
G ra
re quest
b ischof
Ġd igital
Ġd og
Ġne cess
ĠPr inz
ict or
Ġwel cher
h ers
Ġ Ã¼
ist ent
Ġl iter
Ã¶ sen
Ġes pecially
ĠUm gebung
Ġrece ive
Ġw es
mer k
idd le
T ag
i pe
al a
ĠH u
ĠKon z
Ġsh ows
cl ient
Ġinternational en
Z u
meister schaften
Ġtyp es
wie gend
r im
ĠF irst
Ġst op
Ġje dem
L istener
te ten
ĠZw ei
ond s
Ġco ol
piel t
F C
Ċ ĊĠĠĠĠĠ
af r
ĠverÃ¶ffentlich te
9 8
Ã¼ ge
ĠM ath
Ġne uer
d ata
ĠEr k
c ar
ĠT im
ĠT emp
Ġex ception
ĠS ow
ĠT ages
ĠK er
rie ch
Ġb lo
ĠM ount
lin ie
Ġ3 00
Ġtra ck
N O
S D
S ource
Ġd et
ig r
Ġs ites
In teger
Ġpre tty
Ġint rodu
Ġro le
Ġbelie ve
M on
a ill
ĠMe x
Ċ Ċĉĉ
ĠJ ak
ic les
amerikan ische
ĠS old
ĠK ey
ed s
Ġart icle
Ġeduc ation
Ġal tern
ĠZ immer
se qu
Ġ3 6
st a
ĠL iga
ĠJ er
imm el
pro chen
Ġquest ion
Ġproble ms
u ell
Ġbu ilt
Ġ Ã¼b
ĠL oc
ir ate
ad y
les en
ĠDenk mal
Con figuration
ĠFest ival
Ġbook s
Ġw ays
richt ungen
abr ik
Ġcon tra
k unde
ĠC ap
Ġpar ts
Ġde v
Ġz uf
ĠRel ig
ĠSo ftware
Ġb em
ĠF ass
ĠAr n
Ġe le
Ġ194 7
Ġoff iziel
Ġtreat ment
ĠIn teger
S etzt
Ġs ession
ĠKateg orie
st att
iv ity
ask et
S upp
Ġp oss
ĠSch la
Ġbes onder
Ġgew orden
G et
it sch
ĠS ign
ĠC am
ĠU R
ĠBr un
Ġkn app
==== ====
Ġa chie
Ġo ben
Ġehemal ige
Ġphot os
r unde
ĠSt ock
ĠAut om
Ġval id
Ġt akes
Ġw ohn
Ġf ire
ĠK ern
Ġcustom er
Me ter
Ġindivid ual
b us
Ġmark eting
ĠDan ach
O D
Ã¼hr en
unk ten
Ġs le
Ġst ream
Ġconc ern
H el
Ġ ;
yste me
Ġrec ently
Ġerh Ã¶
ĠW ell
gen de
ĠReg ierungs
osp ital
u it
ic kt
Ġz ust
Ġbe ge
ĠSp rach
Ġproject s
\ "
Ġde f
p ath
u he
Ġan z
ĠV ir
Ġj Ã¤hr
ĠAngeb ot
ĠU ms
D is
Ġlearn ing
ĠursprÃ¼n glich
8 2
d ung
i ally
Ġbil den
be ck
Ġsk in
Ġje de
ĠR unde
ĠBe zeichnung
ĠMar ch
Ver lag
Ġk athol
d at
v ey
Ġs etzt
Ġm obile
Ġstamm t
Ġl on
au b
ho use
Ġcom ment
rem ove
Ch ild
Col umn
Fernseh serie
ian o
lei ben
Ġpict ure
t schaft
ĠAkt iv
8 1
ĠS omm
ĠD azu
Ã¤hl te
ĠgrÃ¼n dete
g ten
n d
ĠD Ã©
ĠJ ac
Ġpict ures
Ġc enter
U E
ic ult
Ġdes halb
Ġs we
ĠH y
Ġpr Ã¤sent
Ġper cent
Ġw anted
ĠA f
Ġp ark
Le vel
Ġhapp y
ĠEngl ish
ĠI V
ĠVert re
ĠGrÃ¼nd ung
Ġm ove
ĠP C
ĠW erner
Ġto wn
Ġc elebr
ĠerwÃ¤hn t
J ob
st ar
ĠP unkte
ĠZusammen arbeit
Ġbil det
" ))
h i
Ġam ount
L ength
V iew
z og
ĠAb geord
app ing
c ast
Ð °
Ġc ur
ch ange
if iz
setz en
Ġinit ial
ĠD ipl
ĠAn na
Ã¤t ter
ĠPro blem
Ġtry ing
ĠD isk
Ġver k
Ġj Ã¼n
Ġplan s
Ġt ell
ste ad
Ġpract ice
ĠAssoci ation
ĠOr gan
ĠBrit ish
ĠH is
iqu es
is Empty
Ġb ott
Ġch anges
Ġbes itzt
ĠSchw arz
tag s
ers eits
pr Ã¤sident
ot ion
Ġso on
ĠGr Ã¶ÃŁe
ix ed
Ġsc reen
f alen
Ġp aar
ire ct
Ġdar f
Ġausge zeichnet
p ted
ial e
Ċĉĉĉĉ ĉĉ
T R
ĠS onder
Ġer ror
ĠMed izin
zie hen
Ġs ales
ĠB d
ĠIn vest
Ġse em
ĠH om
est s
spr uch
wissenschaft ler
Ġlead ing
Ġb ud
ro id
ed ia
Ġzu ge
A uch
on ym
Ġe uch
ĠK olle
ĠJ ob
ĠO ption
ht t
Ġgleich zeitig
Ġbeginn t
ĠL OG
ĠWe ise
ĠP unkt
ir it
ĠVer Ã¶ffentlich
zen e
Ġrec ent
Ġsel ben
re chen
ĠT own
ĠH essen
end ung
zw ischen
trib utes
Ġmom ent
Ġun ivers
Ġdiff icult
Ġn immt
ĠM Ã¤dchen
Ġum fass
t itel
Ã¤ cht
tr at
Ġ1 000
f amil
or ien
Ġin dem
Ã¤ ten
ĠZeit schrift
Ad dress
Ġ rom
Ġr unning
St at
ĠZeit punkt
ĠWh ite
astr u
ĠA cadem
ad ata
ei en
spiel en
Ġd ur
aut or
ĠPart y
f unktion
ĠK lass
ĠSicher heit
C o
Ġs ent
erv e
ĠO f
id ung
ĠAn schluss
pro f
E d
Ġsol utions
Ġpol n
Ġâ Ĥ¬
b aum
j ust
ĠL ive
Ġ193 4
ĠWind ows
Ġg lobal
Ġrelat ed
d k
ĠInd ian
ĠProdu kte
ĠnÃ¶rd lich
Ġe igentlich
kt iv
Ġricht ig
ĠSoc iety
T ask
ĠU N
fr astru
ĠChar les
bark eit
Ġn ice
ang ing
Ġcoup le
Â ®
ĠH an
ĠsÃ¼d lich
č ĊĠĠĠĠĠ
ig in
sch lÃ¤
ĠStadt teil
Ġprov iding
uf e
Ã¼n ft
ho od
Ġest abl
ibr ary
l n
or gt
at iven
Ġb leiben
Ã¶ p
ĠNach bar
ĠUnternehmen s
P ort
ĠJ ung
chn et
Pro v
Ġcom ing
Ġgener al
ĊĠĠĠĠĠĠĠĠĠĠĠĠĠĠĠĠĠĠĠĠĠĠĠĠĠĠĠĠĠĠĠĠ ĠĠĠĠĠĠĠĠĠĠĠĠĠĠĠĠ
L ink
le ted
ic ago
ĠL eitung
Ġk ids
Ġs ix
Ġso und
w en
on om
at tet
Ġh Ã¤tte
ĠOr d
ĠAb s
Ġbet rÃ¤gt
Ġgesch lossen
C ase
Ġw ord
Ġeinz ige
ĠfranzÃ¶s ische
Ġrece ived
ĠBe zirk
ĠKant on
L ong
Ġus ually
Ġled iglich
9 4
Ã¶ ss
Ġst ock
ĠVerkehr s
Ġp ers
sch au
ĠC re
ĠVer eins
aliforn ia
Ġbe ein
ist an
Ġr ule
ĠAn g
ĠNach folger
ĠHoch schule
Ġcor re
ĠVer l
rei ber
ĠFran cis
ĠAl bert
Ġpat tern
Ġactiv ities
D urch
Ġste p
mut lich
aug h
F r
ĠT ime
dr esse
Ġbek ommen
P f
ĠG ut
ĠAr mee
Ġ- >
uch ten
Ġreg ul
ĠPerson al
Ġgan ze
Ġh alten
ĠMen sch
C ache
Ð ¾
ĠS onnen
Ġdis play
mus ik
d om
Ġt old
ĠC ms
Ġwe eks
az on
ĠHe alth
ĠIm m
Ġval ues
= "
alle l
Ġiss ue
ĠF arb
ĠEs sen
Ġstud ent
Ġsk ills
fra u
ĠWien er
ĠS ingle
Pro perties
Ġamaz ing
Ġd om
Ġf all
ĠVer wendung
Ġf urniture
Ġsch loss
trÃ¤ ge
P osition
Ġs od
ag te
Ġrem ove
ĠFot os
isch em
Ġopportun ity
ĠForsch ung
S ub
Ġd ro
Ġex pect
ĠgrÃ¶ÃŁ te
i ro
ĠK laus
pp ed
ĠRad io
Ġerm Ã¶glich
g ibt
Ġb us
ist in
ah nen
ĠAb schluss
Ġapp ly
Ġsign ific
ĠHe im
lic ation
Ġeffe ct
u elle
Ġver z
ĠDres den
ĠfranzÃ¶s ischer
st aat
ĠW oche
chn ung
De finition
gew icht
Ġprodu ction
Ġhow ever
u ary
Ġin spir
ca pe
ĠMat hemat
Ġans wer
ĠIndustr ie
ĠE vangel
Ġj ava
ĠAuf gaben
ĠCar ol
ĠServ ices
ĠV en
Ġpar ent
ĠFen ster
9 2
Ã ¢
Ã¼ cht
ist ics
ĠO k
l ers
te in
Ã¼ ten
and a
n der
D a
;;;; ;;;;
H E
b ase
l ong
ĠM Ã¶
Ã¼r k
ĠSt rom
Ġacc ording
Ġext rem
l ament
r um
Ġd ich
ĠN ur
Ġfor ward
zeich nis
ĠT at
ĠN Ã¼rn
Ġre in
Ġre lig
Ġout side
ĠNe ub
Ġ+ =
Ġmed ical
ĠJose f
Ġt erm
at ung
6 8
d aten
ĠPol en
ĠVol k
st attung
Ġh or
Ġber eit
Ġsim ilar
ĠEx p
Ġv e
Ent ity
H T
W ie
jÃ¤hr ige
ink el
forder ungen
N ational
ĠH ard
ĠH aut
q l
Ġs ave
ĠS upp
ur a
Ġzu letzt
Ġj Ã¼d
ick et
Ġ4 00
fl Ã¤chen
ĠBo x
Ġreg ular
Ġbede utet
ir chen
ĠTeil nehmer
T V
ĠEisen bahn
Ġprob ably
ĠS Ã¤
ĠE ss
Ġw ords
schein lich
ĠDÃ¼sseld orf
z Ã¤hl
Ã ¸
Ġwar m
Ġern annt
b i
ĠK ra
Ġch em
Ã¤r k
vers ion
NA ME
Ġyour self
ĠhÃ¶ her
m ission
ateg ory
ĠS und
ĠS ome
Ġf anden
aly se
Ġd adurch
ĠA ust
Ġflo or
m ap
ĠD ir
Ġ195 1
Ġgesam te
ĠDan iel
6 3
ĠS ter
Ġvor her
asch ine
Ġent scheiden
Ġgra ph
Ġw id
ĠP ers
we chsel
ĠOff izielle
b ased
Ġc ut
ath let
As ync
Ċ ĠĠ
ĠW ander
Ġbet re
Ġges tellt
Ġmar shall
o den
Ã¼ gen
ĠD or
ĠH Ã¶r
Ġaddition al
<? >
p ret
is ierte
if ier
ĠTra iner
p oint
re chts
hr t
ĠVer kauf
Ġstor age
Ġl os
Ġl aut
id t
ĠTra dition
Ġdec or
ĠfrÃ¼ hen
ĠS ar
ĠQu alif
ĠIs rael
Ġs b
ĠR itter
ĠAl so
An not
Ġrem ov
P oint
f Ã¶rm
ud es
Ġnot wend
Ġemp f
Ġaktu elle
Ġd ra
ungs ver
Ġt ransport
Ã¡ n
cont ains
er r
Ġwo od
hockey spieler
l ingen
ĠT ype
get Message
ĠÃĸff entlich
Ġf ig
ĠH alle
em e
Ġequ ipment
Ġo il
S I
k unden
Ã¤n n
Ġentwick elte
p ers
Ġc aus
ĠT urm
ĠC O
Ġst ammen
get Value
Ġwer de
ĠHer bst
M ark
ach ts
hen s
ĠgroÃŁ er
Ã¤d t
unt ime
h auer
Ġd ein
ĠM Ã¼ller
Ġre v
Ġgirl s
Hoch schullehrer
h inder
w ner
ĠSchl acht
ĠGot tes
v a
ĠS onn
Ġm el
Ġincre ase
5 00
an lagen
Ġp oints
ill ing
Ã¤n gt
ĠEurope an
C ms
O ber
ĠS uche
ĠKir ch
P DF
Ġth ird
A merikan
Ġd raw
Ġb ald
ĠT enn
ber eit
Ġro ad
ĠZu kunft
g ment
A cc
Ġzahl reichen
Ġf unktion
ĠGr enze
ĠKar te
ĠÃ¶ffent lichen
irate te
9 1
g ien
l ier
ð Ł
Ġp ool
Ġange geben
Ġcho ice
. ");
d is
ot or
Ġph il
ĠFr iday
AT ION
Ã¼ ft
im er
um in
Imp l
Ġun mittel
Ġin fl
Ġpro perties
Ġbeh ind
Ġf iel
ad es
Ġme eting
Ġ193 6
ĠInstit ute
wissen schaften
T ER
ĠâĢ ¢
Ġlook s
ĠRec ords
ĊĠĠĠĠĠĠĠĠ ĠĠĠĠĠ
Ġind ustr
ĠChe ck
ĠWeit ere
ĠOct ober
k y
au te
Ġsp ort
denk mal
W Ã¼rttemberg
b rit
Ġaus schlieÃŁlich
ĠAn s
ĠCh urch
Ġs ummer
Ġex tens
Ġide al
at ory
Ġbo ard
Typ es
u ert
ay out
ĠOr ganisation
pf licht
Ur l
G er
ic ated
Ġgen ommen
Ġgu ide
ĠD igital
Ġz entr
Ġrepr esent
9 7
c up
ab il
if ts
Ġcon fig
Ġexc ellent
ĠM em
Ġout put
Ġcomm it
E O
Ġbed room
M ill
w ith
ie gen
ĠunterstÃ¼tz t
h istor
at ely
Ġtra in
ĠBeit rag
T ION
K E
ĠL ied
ell o
lau ben
r ug
ĠM aster
Ġc oll
ĠT it
ov ers
rÃ¤ s
6 7
d y
s a
ĠC alifornia
ĠIn c
Ġcomp on
Ġ15 0
Ġbel ieb
ĠInd ia
ĠWei hn
ĠH ei
ĠFar be
w eile
Ġer forder
Ġhand le
Ġsch l
Ġsei en
Ġh und
ĠSch les
ei ge
ĠAus gabe
al ian
Ġf ilter
ĠZeit ung
ĠÃ¤l tes
forsch ung
ĠB onn
ĠD ivision
ĠZ usch
Ġjed es
ĠBest and
ren ch
Ġdis cover
O ne
ĠP orn
ic ip
ind est
St ra
Ġpolit ischen
Ser ver
ed ding
Ġall ows
Ġwelt weit
ĠGÃ¶ tt
ĠD ate
ĠH uman
Ã¤dag og
Ġeff ic
te x
ĠE th
ĠKÃ¶nig s
Ġfavor ite
Ġto uch
ind ing
Ġwir tschaft
lie fert
mal er
ĠFre ib
wÃ¤r ts
or et
ĠF ield
ug ht
ĠBes te
re u
hen sw
ĠBe im
In d
Ġfr esh
Ġrec ogn
ĠFot o
ĠAndre as
hil fe
r c
ĠFl Ã¤che
ĠÃ¶sterreich ischer
g u
Ġd oc
ĊĠĠĠĠĠĠĠĠ ĠĠĠĠĠĠ
d own
Ġg lass
laub t
h le
Ġex pert
Ġpr ior
Ġser ver
ĠS ach
Ġjeweil igen
s am
st anz
Ġde ep
k raft
y es
Ġd ocument
Ġdes crib
anw alt
Ġis n
ze igen
ĠCh icago
ipp ing
we chs
Ġalle in
mittel t
ĠzusÃ¤tz lich
w a
Ġs ort
Ġre fer
Ġsl ow
ab et
Ġ193 5
Ġarbeit en
Ġc y
Ġnot hing
E is
Ġ193 7
Ã¤uf er
Ġverl oren
Ġphot o
ĠC le
Ġimp act
oper ation
V D
w ir
as y
ĠM aschinen
ĠBay er
itt ing
ĠFinal e
f unk
Ġdr ive
ĠOr gel
in sel
ĠMon ate
Ġfl ow
T E
d ar
ĠTechn ik
Service Response
s ere
la y
all ery
Ġeas ily
Ġverhe iratet
W riter
ks am
Ã¤hr t
ĠFl ugh
ma ÃŁ
ĠStru ktur
ĠM ail
ens ive
Ġro und
Ġoffic ial
S ession
ĠS icht
Ã¤ ume
ĠK as
for men
gemein schaft
bu ild
S U
ĠK u
vers e
Ġbrit ischen
Ġregel mÃ¤ÃŁig
ĠH off
Le gt
Ġw oman
ĠH on
ad el
Ġex act
w an
ar es
ĠS on
ph one
20 17
ĠW ass
Ġl ate
Ġreg ard
Ġ> =
Ġin de
ĠH art
ĠL ife
ne e
] ,
k le
ĠE dition
ĠWe hr
Ġke hrte
Ġgesam ten
Ġb al
sp rache
Ar t
Ġinclude d
ĠRoy al
Ġin tens
ĠG ro
Ġle ave
ho den
inc ip
Ġconne ction
p unkte
ĠF eder
Ġb ere
om s
ĠAn lage
c ies
ab s
umen te
ĠV ictor
Ġ19 00
Ġro t
rei he
Ċ ĠĠĠĠ
ĠF ischer
Ġer setzt
ĠKin dern
asket ball
m ax
ĠA tt
ei der
ĠSomm ers
Ġe mer
ot ing
org ung
ĠHand els
Ġm atter
Ġre ach
hal le
By te
ĠS ho
Ġge grÃ¼n
ĠDe partment
6 9
ĠI P
Ġgesch rieben
ĠHerr schaft
parte ment
Â «
ĠM use
Ġ1 20
Ġre qu
ĠMus iker
Ġdr ess
D r
Ġl aunch
le is
Ġre lease
Ġle ader
ĠEp is
Ġmaterial s
p hen
Ġt rÃ¤gt
ĠJul y
Ġcondition s
ĠSt affel
Ġr isk
Ġwe ight
ĠQu alitÃ¤t
| }
Ġd iv
ist rat
ĠAn gaben
Im age
Ġdien te
lemen te
H ow
k ampf
an zen
ut ive
Ġbe ach
end orf
Ġgrow th
p ose
Ġs un
ien d
ĠAn tw
oun ts
A uth
m y
Ġex pected
str ument
ĠEinwohn ern
ĠLe g
Ġbef and
ĠRud olf
Ġl Ã¤nger
Ġ19 18
ĠSt off
Ġst ring
tt ps
ĠBÃ¼ cher
wind igkeit
Ġsignific ant
or th
Ġk rit
ahr en
P at
r is
ĠAll er
Ġhinz u
ĠPres ident
ĠW agen
Ġse lect
Ġsaf e
ĠStÃ¤d te
6 2
Ġg round
6 1
un ion
ĠT agen
ĠJ ud
Ġf ail
Ã¶l f
Ġpl ant
ĠComp uter
Ġintern et
lef on
Ġa ffe
Ġn utzen
ĠP fer
ĠMar c
Ġwen ige
Ãĸ sterreich
m ont
pos it
ĠErgeb nisse
Ġangeb oten
Ġstat us
ĠL ove
Ġter ms
Tra cing
om a
Ġbrit ischer
Ġerschien en
k au
Ġl ower
Ġer baut
k omp
Ġw r
st Ã¤nde
Re ader
Ġplay ing
T ree
ie ger
Ġde vice
re publik
Ġj unge
ĠEin fluss
ĠRo ad
iz ier
ĠBild ung
utt ing
ter ator
av es
ĠSh ow
Ġca pt
b our
ĠE st
Ġhigh ly
ff ic
lin ge
ĠBeruf s
c as
Ġw in
ĠT ruppen
ĠL ake
Ġd ed
ĠE ben
Ġst ation
Ġ192 8
Ġpubl ished
Ġm aint
Ġb rachte
ĠL ager
ĠHome page
ĠH ash
eld ung
f le
fÃ¼ hl
pend ent
Ġt Ã¤
Ġs ah
ĠS uch
ĠW ood
en te
Ġd aily
an cy
ig ungen
ent y
Ġpr ices
ĠKar ten
leg ung
Ġpol icy
hensw Ã¼rd
B A
Ġse ems
() ))
Ã¼ che
ĠHe idel
Re ad
an i
Ġm orning
ĠW irtschaft
ultur al
print ln
ĠProble me
r al
zahl en
Ge grÃ¼ndet
ĠChar akter
v olle
Ġc at
ĠZ uf
Ġsol ution
Ġrem ember
g arn
tra gen
Ġpl us
Ġlo ad
ĠNutz ung
Ġpie ce
Ġplat form
b ody
ĠS ib
Ġc ause
ĠG ran
20 15
ĠMar y
ĠCh in
p i
Ġs al
ĠM as
Ġc rit
ĠW ork
Ġth er
ĠAl ten
it able
Ġe inger
ot es
Ġun abhÃ¤ng
p osition
Ġc redit
ĠK omb
ĠO x
Ġcol umn
Ġpos itive
Ġt ag
ig ation
atur day
Ġsug gest
Ġver treten
west lich
ĠLeist ung
Ġpurch ase
eign et
ĠVertre ter
ĠG reat
ĠC at
Ġch rist
Ġwrit ten
hol z
ĠvollstÃ¤nd ig
i h
ĠInter esse
ĠS om
Ġh uge
Ġdurch gefÃ¼hrt
Ġbeg in
Ġben annt
unn el
ĠCol or
ĠA c
ĠN ic
pp e
stand s
in ts
ĠS S
Ġder zeit
om ot
att le
heim er
Ġschw ed
Ġsuch en
mittel n
ĠDire ktor
Ġlik ely
ĠS ur
ĠF ound
Ġunter st
R em
b as
st Ã¤tte
ĠW ies
Ġup on
ĠS tern
Ġkann st
Ġklein er
Ġprogr ams
Ġpot ential
um Ã¤n
Ġimp lement
ĠverfÃ¼ gt
Ġver d
ĠBl og
verw altung
s ystem
we ig
Ġzun ehmen
al ing
ĠN et
a ign
ĠAn schlieÃŁend
ĠStra f
ĠMÃ¼n ster
ĠerÃ¶ff net
k ont
Ġs qu
ru it
spr ung
ĠF ernse
Ġany one
gew iesen
ĠT Ã¤tigkeit
ĠR ou
ĠRes earch
Ġex am
Ġ* /
Ġin fo
Ġbeteil igt
D S
ĠR enn
Ġl ives
Ġk aufen
g ers
Ġn ames
mit glied
Ġg reen
op en
ĠAus stellung
b orn
ur er
age gen
Ġhe iratete
und le
st ream
Ġh ttps
ĠR ennen
He ader
Ġle bt
ha ber
A fter
o e
er be
an geb
ĠT emper
ĠL ux
ĠL Ã¤ndern
ĠPro zess
ĠBen utz
od ing
ĠSp an
ĠFahr zeug
Ġsw itch
Wh at
s ur
Ġs yn
Ã¤ llt
Ġer inn
xt ra
ĠSer ver
Spe c
Amerikan er
ch em
Ġt ask
Ġun it
Ġent w
ĠR Ã¶
Ġg ives
Ġpre m
Ġ192 9
em ble
ren nen
Ġrecommen d
Ġexten ds
il i
ĠJ os
lÃ¤ uft
ymnas ium
Tracing Enabled
D eb
ĠM acht
im ar
ĠW in
ĠH ause
Ġzw eit
UR L
Ġmein er
p a
z if
ĠmÃ¶ch ten
h Ã¤user
Ġb and
Ã¶ nen
ĠGer ichts
ĠFÃ¼r st
k lasse
Ġb ank
Ġin j
il led
leist ungen
T hre
Ġge prÃ¤
ĠGeburt stag
ĠAr ts
ian ce
ĠGl Ã¼ck
Ġw ider
ĠM icro
ĠD amen
Ġ3 8
C ON
is Any
Ġv ideos
Ġsol che
ĠDar stellung
ĠZusammen hang
leist ung
Ġdec ided
ĠQ ue
ĠTex as
A A
F irst
Ġb uffer
ĠM un
ĠM erk
ĠP ublic
Ġr ather
ĠWebs eite
it ation
ĠS atz
ĠLe on
Ġges etzt
AT E
g ner
Ġ3 3
Ġlon ger
E l
Ð µ
ar ter
Ġhe ar
lav ier
ĠDreh buch
isAny TracingEnabled
Ġc opy
Ġfor get
ĠLe icht
res ource
Ġmach ine
Ġlang uage
Ġs an
ĠL aur
ĠSch le
Ġwork ed
gent in
ĠK enn
ten ded
ĠV iew
Ġj ungen
Ġsh op
Ã¼hl en
Ġf irm
F re
ie fer
ĠD rei
pe kt
Ġdar an
Ġpat ients
Ġcommer cial
ĠJak ob
henswÃ¼rd igkeiten
ĠM and
amp les
Ġgo al
Ġbest Ã¤t
Be an
Ġtool s
H ier
M atch
Ġsaf ety
ĠPra xis
M at
Ä ĩ
ĠSt reit
ĠWer te
Ġw issen
ĠR et
Ġer f
if est
Ġpolit ische
B lock
ak ers
Ġme chan
ĠSpe zial
Ã¶rder t
Ġmov ie
b is
ĠM ur
Ġdo or
ĠÃĸ l
ĠFir men
ĠÃ¤l ter
ĠQu ellen
m atch
le hn
ĠP ubl
Ġst reng
ind ungen
ug s
rif f
ĠFe hler
Ġask ed
S erv
ge legt
Ġf a
Ġg Ã¼nst
ĠBe zirks
ĠPh ot
b ul
al u
ĠS um
ĠM ik
ul y
if er
W ork
ar io
Ġl angen
Ġver antwort
20 16
dr Ã¼ck
R uft
ĠG ood
Ġg riech
imp le
w in
at o
alle y
ĠIde en
gor ith
Ġ ign
Ġf lex
Ġle gal
over n
ĠD ata
ĠL et
ĠT able
Ġbe legte
ag d
Ġarch ite
Off set
D A
F amil
Ob jekt
Ġdamal igen
im inal
Ġeffe ctive
Ġc irc
Ġh Ã¤lt
ul en
ĠSchw ar
By tes
Ġwor th
Ex pression
haus es
Ġmus sten
by te
Ġcare er
ĠS C
ĠSp anien
fr ont
Ġbu ilder
is ation
Ġw ish
re ten
Ġf ant
ĠD ah
ĠT ransport
ĠG attung
Ġgra du
Ġb row
ĠH ill
Ġehemal iger
ĠZust and
h ip
ĠVor g
B ahn
Ġt ats
Ġh it
ĠP ower
Ġl oss
ock et
b ung
in os
ĠS amm
Ġent lang
ipp ed
Ġander er
Ġkl ar
Ġsod ass
d as
Ġk or
Ġfor mer
pr ise
Ġful ly
ed y
ikan ischen
w ell
is er
k ra
Ġh um
ib el
In s
Ġquick ly
Ġne igh
ac ity
Ġres olution
Ġinter ested
Ġ19 19
Ġsch edule
ĠE re
ĠL eit
Ġg uten
ĠOr ganis
ĠVert ra
Ġimpro ve
V AL
n ungs
Ġan alysis
Ġver t
Ġqu ery
Ġpass ed
er al
Ġatt ack
l v
n itz
ĠR oll
ĠSt atus
Ġaktu ell
Ġd ream
ĠM ach
lauf en
ĠAngel es
S A
T I
f ur
Ã¼ hm
ĠW ettbewerb
Ġ192 5
ĠÃ¼bern ommen
el ine
roll er
ĠFar ben
on str
Ġt hr
ĠS aturday
ĠP rom
()) );
ĠHeil igen
Ġgan zen
Ġs agen
ĠB ob
ĠG Ã¼n
ver anst
ige m
Ġdar in
ĠPhilosoph ie
aupts Ã¤chlich
Ġ19 14
Ġ3 4
mÃ¤ ler
ĠDec ember
re ise
Ġerw eit
ĠGÃ¤ ste
h op
ime ter
ĠEng ine
ĠGesund heit
ĠÃ¼ br
Ġre pla
ĠY ear
zeich nete
Ġwrit er
ch ner
Ġbesch rieben
u ted
ess ages
Ġgeb racht
amerikan ischen
Ġabsol ute
ic on
Ġver mutlich
au x
Ġpart ners
Ġmult iple
Ġc ross
iel ten
ĠSch lag
ib ly
Ġch ines
St ore
ĠUr s
ane ben
ĠGegen satz
Ġgel ten
U s
u id
Ġt itle
Ġ7 5
Ġfol gt
Ġf air
Ġe arn
Ġg old
pro gramm
fra gen
Ġcoun tries
Ġge fÃ¼hrt
Ġhig her
ĠL i
Ġro ll
inn ing
B ar
T P
ĠHinter grund
ĠVier tel
ĠA R
Ġverb reit
lo c
Ne ben
ĠPat ienten
allow ed
W Ã¤hrend
g rad
ist isch
Ġge ts
In put
Ġs aw
Ġs agte
Ġo l
ĠBe ach
gangen en
Ġapplic ations
ĠSant a
ĠVorsitzen der
D I
ot ten
ĠFried hof
Ġwonder ful
Ġnecess ary
W erke
er weise
ĠH ir
ĠâĢ ļ
Ġon es
lin ik
ĠPro ject
Ġtra gen
ĠChrist mas
Ġentspre chend
R ad
p erson
ĠF ritz
ess el
ken nen
pl ant
k ord
r t
Ġt im
ĠC ast
wer ks
o oth
ĠerklÃ¤r t
Ġsogen annten
u gend
m useum
p m
ĠS ammlung
20 10
ĠSm art
m ie
Ġim med
Met hode
Trace Component
O M
P olit
an ders
ĠB ul
Ã¼r gen
se x
Ġar g
ĠPf lege
Ġ Ã¶stlich
Ġb irth
Ġv irt
Ġse ction
ĠspÃ¤ter en
Ġrele ased
i ders
is abeth
Ġan im
ĠP ier
Ġ193 2
so ft
ĠÃĦ nder
' d
Ġa verage
ass el
ze p
Ġarbeit et
ĠVer fahren
tert ain
Ġ{ }
spr icht
H ttp
b it
Ġa k
Ġc abin
Ġser ious
cle ar
E M
Ġe th
ĠT ri
ĠSt ahl
ad rat
van ced
n amen
lie der
lan z
Ġfin ish
sel ben
Ġpre uÃŁ
Ġvers ucht
fr ist
Ġplay ers
Ġdevelop ed
Ġtradition al
Val ues
Ġdirect ly
B ase
a ber
Ġg ere
ĠdÃ¼r fen
Z ur
ut n
ĠK ammer
Ġver fÃ¼g
Ġpro p
E urop
Ġlevel s
j o
ĠS ym
Ã¼ m
Ġtr ip
Ġviel leicht
ĠBau ern
gang s
Loc al
Ġcomp lex
Ġwieder um
aug ht
Ġt en
ĠK rank
af e
ese hen
ĠReg isseur
ĠNatur schutz
Ġfert ig
ĠNam ens
ĠTra ining
V ari
ran ch
fin den
Ġhistor ischen
Gem einde
t a
ĠS Ã¶
ĠA ch
Verein igte
A ction
ĠFr ont
esen ted
f Ã¤lt
n ummer
ĠD ro
ond ition
Ġ6 5
ĠJan uary
Ġweek end
ĠVerw altung
ĠAustr alia
ĠErz Ã¤hl
ĠSund ay
ĠHe ute
Ġgroup s
K arriere
S ec
h och
as ons
ĠW etter
ĠPro gram
Ġum fang
St ud
ĠAb st
ron ic
Ġgleich nam
unk el
fass ungs
Jahr hund
n ode
Ġse ek
akt iv
ĠMet all
st at
ĠV arian
ier n
Ġver lassen
ien en
Ġun ten
Ġpro per
Ġex pla
Ġfe ed
D ir
le ger
ul pt
ĠO ver
ert ung
20 11
ĠDeutsch er
ĠHand el
Des cription
ĠRuss land
S k
is ieren
Ġv ac
ĠN ummer
Ġver pf
Ġlog ger
V ER
ĠAcadem y
Ġunmittel bar
A ut
l ies
g ie
Ġpro pos
az ine
ĠKom ment
ĠH orn
ock ey
aw a
ĠArchite ktur
o is
Ġer fÃ¼
Ġst aat
qu ence
Ġste ts
oh ol
ĠM att
ĠBe zug
ick er
ĠAl fred
Pro cess
reg ierung
ĠArch iv
Ġitalien ischer
Ã Ħ
Ġver gleich
ien ces
Ġch ance
geb racht
ĠChrist oph
ĠFamilien name
v i
Ġb itte
Ġh ous
Ġverkauf t
Ġsele ction
G ER
h te
Ġf iles
Ġschw ar
brit ann
g ut
l or
Ġ192 6
stru ktur
itte e
Ġconstru ction
ĠR og
we gs
Ġar ray
Ġhand s
ĠZeich en
p ossible
Ġ19 10
ik i
Ġaus getragen
D P
K ultur
d ire
ĠB rown
Ġact ive
ĠVerb and
te uer
ĠS inne
ĠNe ue
Ġpart ner
Ġhel fen
ĠeuropÃ¤ ischen
ĠNÃ¼rn berg
Ġh auptsÃ¤chlich
Ġein st
Ġk anad
Ġzw Ã¶lf
Ġ Ã¶
ĠG olden
ber e
ichte ten
Ġ193 1
ĠPort ug
ĠwÃ¼r den
ĠCoun cil
L S
ar kt
Ġan ges
kret Ã¤r
rÃ¤s ident
Ġs ynchron
Ġm ount
ĠC anada
la x
Ġ4 8
ĠHaupt stadt
Ġwest lich
Ġbenef its
Ġsing les
s l
ĠJu den
ĠP a
Ã© r
Ġcons ult
re al
Ġc andid
iz en
Ġpre d
m ine
ĠB ol
ĠR is
ok er
ĠRegion al
ouver ne
ĠDÃ© partement
P reis
Ġd etail
am ing
od or
Ġno te
ĠColle ction
R et
S piel
Ġm id
ĠE ar
ĠIn tegr
Ġ} );
schaf ter
ĠGes pr
Ġweiter er
Ber lin
Ä ±
ĠP or
ĠH und
Ġbe hand
ĠEin fÃ¼hrung
ĠAuf gabe
aut en
stru ktion
n ern
ĠK och
ik ations
ak s
Ã¼ck sicht
los en
ĠWe chsel
ĠIhre m
w al
ĠS y
ow a
ĠNach richten
Ġrequire ments
ĠBesuch er
l Ã¤nder
Ġl isten
pr Ã¤sent
cl ude
ĠBesch reibung
Ġinterest ing
Val id
Ġveh icle
s es
ĠV an
vers ammlung
ĠUR L
Ġe dition
Ġst ieg
ĠZ us
Ġprom ov
ĠT ar
ĠE duc
ĠC ode
Or der
Oper ation
m ore
y ing
Ġd omin
ĠVer teid
Ġpl anning
Ġstart ing
Ġgar den
P A
d urch
g ern
m esser
il ien
ĠL ab
Ġim m
Re ference
por ate
Ġv iol
im me
sch auspieler
ick ets
ĠLe x
ĠStud io
E hemal
Ð ¸
ĠW ach
ĠBe handlung
Ġinvol ved
M ode
in y
ĠT anz
lan k
ĠSte fan
p at
Ġd ient
Ġc ell
ĠE lect
sh aus
Ġwicht ige
Ġcreat ing
## ##
ĠS tellen
ĠT isch
ann en
iel le
ĠBild ungs
Ġsuccess ful
ach im
Ġgew innen
g le
Ġob t
ĠSc ott
Ġnieder lÃ¤nd
B l
b latt
h old
ĠB ist
el a
ig an
ĠR ing
Ġl au
20 12
az in
ĠFran ce
Ġatt ention
wh ere
ĠPro p
iss ions
ĠBr andenburg
ĠSm ith
ĠPap st
s ervice
Ġk om
Ġro ck
Ġbet rieben
gemein den
ĠCont in
low ak
ĠTemper atur
w ide
Ġin zwischen
ĠAn teil
par se
ound s
Ġmethod s
Ċ ĠĊ
ĠS un
ĠG ust
ry pt
w s
ĠStand ort
Ġannoun ced
ĠermÃ¶glich t
L ast
el and
ĠK lavier
ĠGe heim
Te chn
ĠRev olution
R ule
ĠC all
and t
os ed
lin es
Ġab ility
Ġor d
Ġsp Ã¤t
gem einen
ĠMo der
Ġbet rach
Sch w
Ġerziel te
m Ã¶glichkeit
it ial
ĠS em
ĠJ SON
Ġit self
ĠAr zt
Ġspe ed
ĠWh ile
hol t
Ġf ashion
ic ed
20 14
ennt nis
Ġbath room
ĠM ost
ĠG olf
ĠL ine
Ġor ient
20 13
ĠBeit rÃ¤ge
ĠK os
Ġde ath
ff er
Par am
Ġorgan ization
A utor
g ree
it ness
Ġm ix
Ġh ielt
ĠC y
Ġst uff
lie fer
Ġpar ents
ĠAt lant
Ġeing esch
Ġenc our
Ġexperien ced
k om
Ã ½
ĠS V
erke hr
Ġv Ã¶ll
ĠB a
ĠO pt
ph an
St adt
Ġ192 4
Ġbl ue
ĠÃĦ r
ĠFÃ¼hr ung
il a
Ġn ov
ĠE hr
ĠR am
Ġgesch affen
Ġbusiness es
Ġoffer ing
Ã¤ss er
zip lin
V erkehr
i xt
Ġ( "
ĠVer halten
Ġschw arz
zieh ungen
htt p
ĠAller dings
schul en
D o
Z eit
f ast
ĠL ind
ies ter
ĠAn wendung
ohn er
ĠB ir
ĠBetrieb s
ĠIde e
temp or
G ruppe
on ial
ĠDe velop
ĠSo und
P I
ĠEin s
ĠMed ia
Ġac cept
Ġindividu als
ĠHeidel berg
T arget
ĠBer eits
Un it
UL T
F rank
r d
ĠS up
ĠL ig
Ã¼tz t
ilit ary
m ond
Ġd ise
Ġn umer
Ġwe g
ĠGe h
Ġgr and
Ġd agegen
Ġg iving
ĠSp Ã¤ter
Ã¶r en
ific ate
ĠHo hen
ĠF ert
res p
Ġdefin it
iti ative
m osph
at te
ers ey
ĠÃ¤ uÃŁer
-------- --------
Ġs ymbol
ĠE very
Ġl Ã¤
Ġl ic
Ġl ost
Ġj em
g au
Ġand ers
ei ÃŁ
Ġent deckt
oun ter
Ã¼t te
ĠWill i
N ord
Å «
un i
ion ship
Ġver lÃ¤uft
ate ur
ĠGr enz
ĠGrund lage
y les
ing u
ĠB la
ol z
Ã© s
wer te
Ġbas ic
ĠRich ter
in put
ĠW unsch
gel d
ree k
ĠBo ard
Ġ192 2
200 8
Ġwahr scheinlich
P l
S G
ĠR icht
Ġinst ru
ĠWohn ung
f ilter
Ġb all
Ġn et
Ġbe gan
be zogen
F ol
O K
g ruppen
ĠB ett
ĠPe ters
Ġwichtig sten
lÃ¤uf er
Ġf ine
Ġp f
Ġl ok
ĠBe ge
Ġdesign s
Ġsom et
Aus zeichnungen
Ġexist ing
r est
Å Ļ
an ischen
ĠD E
ĠV om
lo at
St ack
Ġpos it
Cont ainer
Ġrelat iv
ĠPar lament
uar ante
mÃ¶ gen
ĠFreib urg
2 000
Ġin kl
ĠT schech
ver stÃ¤nd
geb nisse
Ġlie fert
Ġsm art
ĠId ent
C re
ĠS aar
ĠK ult
ck len
Ġsch le
Ġpre fer
ĠBl ut
arm on
B undes
Ġp en
H L
s itz
Ġs icht
Ġun bek
ger ichts
Ġ192 7
Ġverl or
D en
r Ã¤t
ot al
ustr ie
C om
Ġl ux
omm ern
Ġ4 2
ey er
Ġverw enden
Ġeng ag
ĠEntscheid ung
ĠFlugh afen
Ġunterst Ã¼tzen
C al
Ġd ry
ver fahren
Ġent stehen
Ġcolle ge
ĠF ak
Ġge halten
ĠSt iftung
rif ft
Ġ192 3
ĠMÃ¶glichkeit en
K reis
S Ã¼d
b a
ar ge
ĠD ank
ĠG irl
id ents
ĠSch rift
Ġde pend
Ġbes ondere
Ġbest immt
rat s
ĠMat th
Ġreview s
ĠH istory
Ġkomp lett
Ġbestimm ten
ĠVo gel
trie ben
p olitik
ĠS us
Ġh our
ĠH afen
Ġth ous
M en
b ilder
ĠB lock
ĠF al
ĠAn der
gr iffen
ĠBr Ã¼
Ġprogr ess
Ġher r
ĠPol y
deutsch en
r ight
ĠS eb
ĠD ol
im ension
Ġg ro
ors itzen
ĠSold aten
č Ċĉĉĉĉ
ĠB rief
ĠL aut
se c
IN E
ĠAd olf
ĠGroÃŁ en
P RO
Ã ´
Ġh il
Ġcon du
Ġ3 7
Ġcomplete ly
f rom
ĠG alerie
ĠSoc ial
l s
am ous
ĠW omen
ĠL ok
ĠAl tern
ĠAut ob
aly t
Ġd ark
ra p
ĠU ser
Ġso uth
Ġges etz
ĠOff ice
Ġcost s
Ġdistr ib
Ġs agt
In putStream
Sch wei
ĠHers teller
ĠPrem ier
as che
Ġm einen
ĠE ll
Ġg esehen
ĠN av
br Ã¼cke
ĠauÃŁer halb
zÃ¼ ge
Bau werk
n ational
Ġs us
ĠA C
ĠF ind
ul s
bild ungs
stoff e
Ġf uer
el la
ĠAuf bau
Ġze ich
uck y
Ġbring t
ĠhÃ¶ch sten
Lo ader
g as
m acht
p ace
ar ies
ze ption
rie den
ick e
ĠAm azon
200 9
ĠNational sozial
Ġwen igen
ĠMark eting
ĠTod es
ĠOp fer
f alse
ĠE igent
Ġhelp s
D B
ĠSt immen
ste chn
med aille
kon om
Ġsetz en
ĠFlor ida
Ġzerst Ã¶rt
ĠGÃ¶tt ingen
- )
T op
c lose
d essen
h agen
ĠA M
w ander
re chte
as c
ĠV ar
Ġver lieÃŁ
ĠLand schafts
Ġgo es
ms el
Ġoff set
Ã¶s ungen
Ġag re
reit ung
britann ien
Ġs up
or ial
Ġin stead
Ġp ages
be g
ĠĊĠĊ ĠĊ
ĠTurn ier
Ġverpf lich
at al
ach ing
Ġsupp ly
Ġnie dr
O p
ĠF Ã¤
ĠR ay
TY PE
W eit
s or
ĠSt ation
ĠBild hauer
Ġinternational e
Ġ ult
us ed
Ġz Ã¤hlt
v ier
Ġaus tr
Ġmy self
stell er
Ã¤nd ler
Ġlar gest
Z um
m ethod
Ġcons um
l uss
p ost
Ġm ilitÃ¤r
ĠE vent
ĠW affen
Ġro ot
ĠLie fer
Ġstru cture
Ġs old
Ġf oot
ĠT ok
Ġrep air
Che ck
sie he
ĠP fe
sub string
d ouble
un te
ĠM om
zieh ungs
r ick
tra iner
Ġcont ains
Loc ation
ĠFer ien
utn ant
t i
ĠL Ã¶sung
ĠOb serv
ĠBÃ¼ ro
ĠS PD
ĠRe chte
get Class
ĠInter view
Ġlim it
ĠSim on
B es
T A
r as
ĠV ize
ĠBed ing
ar ischen
ĠAd min
Ġverw ende
ommer ce
Ġunterschied lichen
B esch
ĠD ub
ĠV ort
ĠO h
ĠDar Ã¼ber
Ġactiv ity
ie fe
Ġver g
sp er
ĠKarl s
cklen burg
m ack
Ã¤ b
Ġl Ã¤ng
urs day
ĠBew egung
ĠZentr al
ĠGel Ã¤nde
Ġleb te
ĠMond ay
ĠSow jet
v as
Ġc ases
Ġhe ll
Ġar gument
Ġ< =
ĠMen ge
ĠStr ateg
Ġb ul
Ġan erk
ĠL au
isten z
ĠHen ry
Ġcorre ct
E G
ĠP ay
ĠJ on
Ġaus z
ĠOr te
ĠString Builder
âĢĿ .
gebie te
ĠA ktion
bo gen
ĠStud enten
Option s
r and
ĠR od
ĠIn nov
Ġelement s
ĠÃĸffentlich keit
t liche
Ġunter s
zen s
Ġfol gten
II I
ĠrÃ¶m isch
ĠEre ign
p al
Ġb aby
Ġl ines
ĠBr Ã¼cke
Ġges pielt
n y
w itz
Ġw edding
Ġm other
ĠD iss
gew Ã¶hn
Ġersch eint
AG E
Deb ug
Ġo wner
ch mal
Ġh ast
ĠLe op
ĠBl ue
cript or
G roÃŁ
m aterial
ĠG overn
ĠR y
Ġ19 12
th ur
ĠTe ams
ĠEl isabeth
Up date
ĠBron ze
in ary
ĠM odel
ĠW ed
ĠC entral
ĠAuf nahme
Ġcl oth
Ġdec ision
Ġtrans fer
Colle ction
B and
Ġd eine
Ġs ell
ĠF ire
ra k
ĠH it
icht lich
lin ien
Ġinter view
tertain ment
m and
ĠD et
ĠK ohl
Ġent h
ĠBar bar
Ġw ild
Ġst age
ver lag
ĠZ ahn
ĠAb teilung
ĠKon fl
hand lungen
Ġle gte
Ġsc ience
Ġinst it
ven ue
ĠWirk ung
Ã ¥
Ã ±
Ġt al
Ġm aster
com es
Ġbre it
200 7
Ġown ers
Ġann ual
Ã £
Ġb orn
ĠG ene
ĠVor der
Ġheut ige
o ÃŁ
er er
Ã¤ her
ĠD arm
ĠL ast
ĠEr satz
ĠZeit en
rÃ¤ ume
Ġwind ow
Ġest ate
Ġor igin
gr Ã¶ÃŁ
Ġfre uen
Ġroom s
A ug
r ies
im in
et ts
Ġhe il
rie be
ĠSchw ester
fÃ¤h igkeit
w eite
Ġh ar
ĠF un
ess ions
let ter
Ã¶st lichen
Ġmittler weile
k osten
v ement
er es
us te
ro ck
ore a
ĠTe le
Ġpr Ã¤
Ã¤hr ung
Ġdarauf hin
ĠEuropÃ¤ ischen
F unction
ĠF isch
ĠEn gel
West falen
msel ves
B ox
l ike
Ġt emper
Ġge gebenen
ĠÃ ī
Ġerst es
stit ut
ĠSchul en
ĠErfahr ung
D ouble
il lage
ĠG ame
Ġhoch wert
Ġhom es
k arten
Ġmittel s
Ġg ift
if ik
ĠLand tag
ĠFor um
gem eine
bo ten
C P
Ġ q
Ġthe mselves
ĠCh ild
ĠGew inn
Ġplay er
Ġf ab
Ġsub s
h ow
ĠC ross
ist ance
Ġer fahren
ĠEr de
ĠAus druck
Ġgen annten
Ġstor ies
ĠNie ders
ĠS inn
Ġge eignet
ĠVer lauf
ĠOr dens
Ġev alu
Ġback ground
ĠApp le
Ġstreng th
Nach dem
LO G
Â ½
eb e
br idge
ĠgehÃ¶r ten
Ġfamil ies
ĠWei ÃŁ
ĠGr Ã¤
Ġjob s
Ġt emp
ĠR h
Ġsur round
minister ium
Ġgrow ing
gef Ã¤hr
f ung
un ehmen
ĠB an
de cken
Ġent spricht
Ġout door
200 6
ĠVers icher
ĠLeist ungen
. ),
it ur
ĠAn th
ĠMor gen
ĠMain z
ĠJes us
B is
L iste
ĠD ouble
Ġaus geb
ak ed
Ġab geschlossen
Ġch urch
oren z
Qu ellen
L ock
ĠT hen
all er
ĠIn gen
ob by
hÃ¶r den
ĠAut oren
Ġd ynam
on st
ĠL ord
ue ber
umm ary
Ġlet ter
C ons
ĠF rench
Ġl ots
ĠSch aus
Ġpla ces
ĠBern hard
Client Exception
Ġir gend
m t
re c
ĠK ommand
ĠSt an
ĠVer d
ard inal
ĠEin trag
ss on
ĠMar ine
Ã© e
ĠOrt schaft
klÃ¤r ung
? ?
I A
P an
en se
De fault
ĠKn oten
ĠErfahr ungen
ĠCommun ity
Ġdivers e
ĠCour t
Ġbek annten
imat ely
Ã¤mp fen
Ã¤n en
Ġmehr fach
ĠÃľ berg
ĠElekt ro
Mus ik
Ġs ucht
ont o
ĠBl Ã¼ten
e es
at ives
Ġm il
Ġn omin
Ġzu gleich
glie dern
ĠSh op
200 5
Ġfre qu
Ġmot or
ĠTÃ¼r k
ĠS ituation
ĠR osen
ir us
Ġauf gerufen
tel s
ĠKon zept
â Ĥ¬
Ġer kennen
ĠIn f
Ġgew onnen
Ġdar gestellt
ĠMan ager
ĠSpe cial
Ġcar ry
( '
is a
ĠUnter nehmer
ĠWissen schaften
D on
Ġn ature
ste ht
ran ce
act ive
Ġentsprechen den
frastru ktur
ĠFrancis co
augh ter
A X
un s
Ġer gÃ¤n
ĠCon ne
g roup
ĠB ass
Ġent sp
ĠvÃ¶ll ig
Ġw under
ak et
art ige
ĠgrÃ¶ÃŁ ere
M B
im it
ĠL iter
au d
19 45
stit ution
Ã¤hn ung
I F
p olit
ur i
Ġher gestellt
Ġflo at
Ġbrit ische
se ud
ĠUr laub
glieder t
D isk
re f
Ġbe legt
ĠC ook
ac ters
n s
Ġs av
Ġh a
ĠP aar
ĠSp ann
Ġbeen dete
ĠDem okrat
ĠSchrif ten
Ġcamp aign
Ġl es
Ġ2 50
ver ter
ĠCas ino
Ġess ay
zus tellen
el er
ĠH ub
Ver b
Ġav oid
Ġkein er
ĠLauf e
Ġsat is
ĠS ig
ĠD Ã¶r
ic ations
mit ted
ĠChr on
ĠMann schaften
iat ely
ĠKommun ikation
Ġdig it
Ġ il
es is
Ã¼ ne
ĠT ore
ĠK ritik
ĠBes atz
Ġ192 1
it ude
Ġ19 11
Ġpro ced
ĠEr inner
Ġ3 9
ĠÃ¼ber wiegend
F in
e lement
i ation
Ġw ert
ĠIn halt
form ations
Ġres ol
kn own
Ġ Ä
ĠW estern
our ney
Ġ5 5
For m
b il
o use
w ach
Ġh Ã¤tten
Ġwe ather
ĠGer hard
Ch ange
ĠHÃ¶ hen
ĠErz bischof
Ġsen se
Ġcomfort able
c ap
r ik
ĠP ack
ĠSch ritt
app e
Ġbec ame
Ġlim ited
Ġpur pose
Ġsomet imes
Ġs and
ĠP en
ĠH aft
Ġr ights
ĠDeutschland s
ĠSchm idt
Ġleb ten
Ġwr ong
Ġverantwort lich
f ind
r id
or al
ver treten
Ġschool s
Ġsogen annte
Call back
N on
ĠL y
ir ch
ĠJ ava
Ġob wohl
beding ungen
X X
Ġd Ã¤n
ĠH aw
Ġto wards
iel len
yd ro
y ond
ĠW alk
erk l
ĠNe uen
ĠÂ £
ĠFranz Ã¶s
Ġmen sch
Ġblo od
b n
f Ã¶rder
ĠS dk
ĠMar ie
or ient
el f
ĠD ialog
ĠE ck
tr ans
qu is
zug s
ĠR ab
erk unft
arch iv
F uture
is ions
ur b
st ation
Ġus es
ĠTh anks
j i
m d
Ġf em
ber s
ĠJ ew
wert ung
Ġtre ffen
Ġd auer
Ġc ulture
im ed
ĠK ong
Ã¶r ung
ĠTh ursday
ĠVor aus
ix el
Ã¤hl ten
ĠVer Ã¤nder
ĠÃ¼ber haupt
ail s
ĠGra fen
ĠSer ies
ĠM und
Ġ19 13
Ġsp ot
io de
tem pt
Ã¼r en
ĠW ohl
Ġle ider
Ġad vert
olog ies
ĠAd d
ĠAustr alien
F ra
P C
P ass
R ow
g ot
r Ã¼ck
Ġm ention
ber eitung
ap ers
iz enz
pf lege
ĠWider stand
B ack
c ia
ĠT hr
St ar
Ġstat ement
Ġhealth y
ĠW appen
Ġar gs
ĠOb jekte
Ġmus ikal
bie ter
et ch
Ġg as
auf trag
app er
ied lung
Par ser
aj a
ĠIs lam
Ġnor th
Ġausgest attet
ĠT iere
ĠC ho
Ġver schw
Ġaus ger
Ġso ft
Ġsel ber
Ġstr ess
UR I
Ġmax imal
denk mÃ¤ler
ĠTro tz
Ph one
Ġassoci ated
tempor ary
Ġ Ã¶ffentlich
ro at
Ġh y
ĠP S
ĠW es
tell igen
ĠÂ §
ĠKap it
wÃ¤r t
Ġsle ep
ĠC ra
ĠIn ner
ident ial
Ġprodu ziert
Ġplay ed
reit en
ĠsÃ¼d lichen
ĠBra unsch
ĠHein z
ĠGroÃŁ britannien
Ġsett ing
k g
Ġt ree
Ġm is
Ġex press
Ġsp orts
B et
Ġ ðŁ
Ġe ye
ĠIn dex
ĠAn y
ĠMe tern
ĠFahr zeuge
Ġprim ary
ĠSdk ClientException
S eg
Ġk Ã¼nstler
elt a
ĠFebru ary
ĠgrÃ¶ÃŁ eren
bÃ¼ cher
g Ã¼lt
m ir
is Entry
ĠV ideos
iz ations
ĠAl pen
Ġhin gegen
isEntry Enabled
er te
Ġge zeigt
up s
ast ian
Ġass ess
ĠSonn tag
Ġcoll abor
ĠWeihn achts
Ġs em
st uhl
ro chen
ĠW ater
ver trag
Ġso c
Ġsp end
ĠSpiel zeit
ĠFlug zeug
Annot ation
Ġw ife
Ġf ix
ĠV alley
din and
mer ksam
Ġgef Ã¤hr
ĠBas el
B ild
D em
h aps
an er
ĠSchw eden
bl ing
Ġstar tete
Ġchange d
Ġopportun ities
ĠjÃ¤hr lich
ĠgeprÃ¤ gt
P ER
g on
k ow
ĠH immel
ĠJahr zehn
âĢĿ ,
Ġconsider ed
Ġphys ical
m ess
ĠBr asil
cre en
ĠCol umb
ĠArchite kt
**** ****
I B
k lass
it ag
ĠG ames
ĠZ ivil
ĠÃ¶sterreich ischen
Bo olean
Ġamerikan ischen
Ġexact ly
Weit ere
ĠB it
Ġre ve
mann s
Thre ad
Ġf arm
ag ne
Ġbet rug
leg ten
h ost
Ġf lieÃŁ
Ã¼ mer
ign ed
Ġpre c
Ġerweit ert
v ol
ĠK urt
ĠV iele
ri pt
ĠGes am
ĠTr ump
baut en
ĠCent re
at i
ur l
ath on
Ġgem Ã¤ÃŁ
ĠFamil y
unn y
ĠLeist ungs
ĠTex te
Ã¶ se
ay a
Ġdeutsch sprach
arz t
P AR
ĠO ld
gr enze
In valid
Ã¤r ke
amer ika
Al le
i ant
k ts
ar ische
us er
ĠH oll
ĊĠĠĠĠĠĠĠĠĠĠĠĠĠĠĠĠ Ġ
fr iend
ĠSchla f
ĠL ED
Ã¶ der
Ġsp rach
Ġhigh est
ĠKap elle
Ġbud get
z one
Ġp ackage
af ft
ĠVer antwort
Ġle itete
Ġpar se
ĠChar l
Ġwei b
Exec ution
ĠR E
ir ge
Ġl ack
W arn
w riter
ĠS T
Ġco ffe
Ġda ÃŁ
Prov ider
N ieder
al ed
ĠAn dr
ĠMon aten
eiter te
Ġbeh av
ĠFrÃ¼h jahr
Ġverlie hen
N S
en kt
ber n
ĠV illa
ly ing
Ġste el
stand en
Ġelekt r
ĠDah er
Ġst ates
Ġzu erst
Ġex hib
ĠPr im
Ġtra de
pl Ã¤tze
Id ent
ĠDire ctor
Ġf lat
ĠP od
ĠT Ã¼b
Ã¶ pf
ĠUn der
ĠChe f
ĠhÃ¶ch ste
ĠBund est
ĠEduc ation
F L
Z E
st he
Ġde ad
ĠUnivers itÃ¤ts
Ġweiter es
Par ameters
Ġoffer ed
S he
] );
Ġt ief
re in
ĠP unkten
Ġg alt
Ġre lax
ĠSch e
Ġeinz ig
Ġerw arb
Ġmein em
kathol ischer
, ,
ĠD omin
ĠK ath
ĠIn t
Ġber uf
Ġbek am
Ġwes entlich
A dresse
ĠG Ã¼ter
em por
Ġex er
Ã¤r t
stra hl
ĠMo dern
ĠMeister schaft
ĠKÃ¼ che
ĠHistor iker
Ġunderstand ing
Ġbeginn ing
ĠÃ¤hn lich
ĠA ff
ol es
Ġun be
ĠArch Ã¤
n ing
ĠS tell
Ġcon trib
ĠSp re
ĠSp rachen
ĠAuf grund
ĠLin ien
Ġthink ing
fel der
Ġcreat ive
Ġbott om
al em
ck ing
ert ation
Ġprodu z
Ġche ap
ĠUl rich
Ġbestimm te
ĊĠĠĠĠĠĠĠĠĠĠĠĠ ĉ
Ã¼st ung
ĠVir gin
ĠOx ford
ĠC ustom
ap el
ĠThe ologe
Ġsp ring
sw ahl
ĠDaten bank
Ġess ential
ĠK ron
Ġsch eint
uss ion
Re f
Ġbut ton
d el
Ä «
al te
ho fen
ĠQu al
latt form
Ġmoder nen
> ,
le bt
ĠB ell
ĠL as
Ġex cl
D ur
c ount
o z
ĠS ab
ĠP enn
im ens
Ġg uarante
ĠIn halte
Ġsp irit
form ance
Ġsc ient
arb on
akt or
ĠDat ei
V P
v ollen
or fer
re ci
ol ar
sch loss
ĠL ook
ĠL ieder
Ġre l
Ġauf z
ĠSch Ã¤
Ġsp ent
lo cken
ĠChr is
Ġview s
ĠVeranst altung
C A
n etz
ĠP ot
ĠL ib
Ġent gegen
oh le
Ġstud ies
haf te
ĠFunktion en
b lock
st ern
ed ition
Ġbe an
Ã¶ ÃŁen
Ġur l
ĠSib Tr
D oc
e ch
k rÃ¤fte
u ern
ĠH ab
Ġge tr
ĠSch iffe
Ġber Ã¼hm
ĠTra in
ĠVers uch
c s
ĠRe p
Ġlov ed
ĠAn ders
ub il
Ġch at
je kten
ĠKon k
ĠAd am
Ġbro ught
ĠRhein land
il ian
Ġl isted
Ġre ich
Ġr Ã¼ck
Ġwe ar
Ġme as
Ġres pect
ign ment
vers icherung
Ġentw eder
c an
ur ts
ĠRe is
ĠZw eit
ĠMon at
Par ams
F unktion
K l
Ġa f
Ġlink en
afr ika
or ganisation
Ġal bum
og a
Ġvor gesehen
ĠAus land
Ã¤m lich
Ġmean ing
B i
ĠEr b
ĠHam burger
Ġnam ed
gy pt
F ound
ie den
st on
ĠTeil en
ĠFahr er
Ġpie ces
W idth
č ĊĠĠĠĠĠĠĠĠĠĠĠĠĠĠĠĠĠĠĠ
Ġ4 4
fass te
Ġoper ation
Ġdeliver y
\\\\\\\\\\\\\\\\\\\\\\\\\\\\\\\\\\\\\\\\\\\\\\\\\\\\\\\\\\\\\\\\\\\\\\\\\\\\\\\\\\\\\\\\\\\\\\\\\\\\\\\\\\\\\\\\\\\\\\\\\\\\\\\\\\\\\\\\\\\\\\\\\\\\\\\\\\\\\\\\\\\\\\\\\\\\\\\\\\\\\\\\\\\\\\\\\\\\\\\\\\\\\\\\\\\\\\\\\\\\\\\\\\\\\\\\\\\\\\\\\\\\\\\\\\\\\\\\\\\\\\\\\\\\\\\\\\\\\\\\\\\\\\\\\\\\\\\\\\\\\\\\\\\\\\\\\\\\\\\\\\\\\\\\\\\\\\\\\\\\\\\\\\\\\\\\\\\\\\\\\\\\\\\\\\\\\\\\\\\\\\\\\\\\\\\\\\\\\\\\\\\\\\\\\\\\\\\\\\\\\\\\\\\\\\\\\\\\\\\\\\\\\\\\\\\\\\\\\\\\\\\\\\\\\\\\\\\\\\\\\\\\\\\\\\\\\\\\\\\\\\\\\\\\\\\\ \\\\\\\\\\\\\\\\\\\\\\\\\\\\\\\\\\\\\\\\\\\\\\\\\\\\\\\\\\\\\\\\\\\\\\\\\\\\\\\\\\\\\\\\\\\\\\\\\\\\\\\\\\\\\\\\\\\\\\\\\\\\\\\\\\\\\\\\\\\\\\\\\\\\\\\\\\\\\\\\\\\\\\\\\\\\\\\\\\\\\\\\\\\\\\\\\\\\\\\\\\\\\\\\\\\\\\\\\\\\\\\\\\\\\\\\\\\\\\\\\\\\\\\\\\\\\\\\\\\\\\\\\\\\\\\\\\\\\\\\\\\\\\\\\\\\\\\\\\\\\\\\\\\\\\\\\\\\\\\\\\\\\\\\\\\\\\\\\\\\\\\\\\\\\\\\\\\\\\\\\\\\\\\\\\\\\\\\\\\\\\\\\\\\\\\\\\\\\\\\\\\\\\\\\\\\\\\\\\\\\\\\\\\\\\\\\\\\\\\\\\\\\\\\\\\\\\\\\\\\\\\\\\\\\\\\\\\\\\\\\\\\\\\\\\\\\\\\\\\\\\\\\\\\\\\\
Ã£ o
h orn
Ñ Ģ
Ġh op
Ġz Ã¤hlen
ann a
ĠNord rhein
Ġpass ion
on ien
ĠS emin
Ġf al
Ġl esen
Ġwir kte
ĠAnd roid
Ġmov ing
ĠSied lung
W as
Ġf uck
Ġ( ,
Ġad vice
con ne
< >();
R ed
m ail
Ġd ritte
ei ht
Ã¶r ter
c or
w Ã¼r
is at
ĠC a
ip fel
Met adata
Ġincre asing
ĠbeschÃ¤ft igt
j ava
m Ã¼hle
Ġge kommen
Ġ190 7
ĠBre ite
Ġadv ant
L a
t op
ĠK andid
ĠH T
ĠBe ck
ĠLand wirtschaft
ĠFl Ã¼gel
ues day
anst alt
gra f
Ġengl ischen
ĠFound ation
ĠD VD
ĠP oint
Ġg ingen
Ġhe at
Ver Ã¶ffentlich
Ġverb ess
part ner
Ġredu ce
Ġa spe
Ġt Ã¼rk
Ġn ation
ĠL ight
ĠC A
ul f
Ġth read
ab elle
Ġfor der
Ġhe ard
Ġch air
sk y
Ġtr uly
Ġ190 8
Ġrepor ts
Ġc lin
ell schaften
enn fahrer
st Ã¤tten
Ġro b
De p
Ġpre vent
ĠF alls
ĠH as
ce ed
ill y
ĠEin heit
tel n
Ġ/ *
Ġsow jet
ĠFor men
gesch rieben
Ġ190 5
ĠSam stag
ĠVeranst altungen
e hm
at ik
ĠG lobal
ĠH ig
ĠNik ol
Ġcoffe e
ew ork
Ġsp richt
ĠEn s
En um
Ġart ist
Ġtats Ã¤chlich
I R
ĠS of
rie chen
ĠAb schnitt
arbeit er
Ġelect ric
ĠM ie
ĠD rit
ag ra
ĠEin ige
fÃ¼hr en
Ġaff ord
d b
Ġe yes
Ġk ommun
Ã¶ff nung
ĠTechn ology
w arn
Ġcon ven
iert es
Ġ8 00
stand ing
ĊĠĠĠĠĠĠĠĠĠĠĠĠĠĠĠĠĠĠĠĠĠĠĠĠĠĠĠĠĠĠĠĠ ĠĠĠĠĠĠĠĠ
n g
ĠF lag
Ġg ave
Ġbe ob
ipp s
Ġeinges tellt
Ġinc red
z in
z ell
is ierten
ĠP ersÃ¶n
Ġcl ub
ĠJournal ist
e vent
an en
ist a
ĠÃ¼ber geben
Ġfe et
ĠFer dinand
Ġsele cted
Ġrepor ted
ĠSchles wig
Ġf Ã¤llt
ĠP as
Ġer heb
ind ustrie
Ġfin ished
Ġbo y
ĠfrÃ¼her en
U P
t y
Ġin sp
ĠN S
Ġacc omp
heb ung
ĠKonz ert
Ġded icated
Ġp et
bl Ã¤tter
ĠOper ation
Ġkur ze
D ocument
H ash
h u
r ig
ĠG reg
Ġer laubt
ĠSp aÃŁ
Hel per
P ool
f Ã¤lle
Ð ½
Ġst Ã¤r
Ġ4 3
Er baut
Ġact ual
Ġprof it
B S
F ahr
z te
ch ild
Ġm iddle
ten ance
and om
Ġr ates
ĠSie ger
ouverne ur
n ow
re form
Ġk auf
ĠÃ Ĺ
ĠMon te
ĠDistr ict
p ool
Ġ6 00
ĠFran ken
Un d
ER R
is Debug
gel t
Ġob j
ĠPf ar
ĠBereich en
Ġinvest ment
Ġunterschied liche
Ġextrem ely
Ġdefinit ely
Z w
ĠR ath
la h
ap y
Ġlie f
ĠGrÃ¼n den
ĠnÃ¶rd lichen
Ġt ried
ie fen
Ġw inter
le hr
Ã¼ mm
ĠB ran
Ġit er
iz ierte
Ġeigen stÃ¤nd
Ġpol ice
Ġpolit ical
Ġhol iday
ĠJo achim
ĠKomm ission
D irect
O lymp
w ise
at re
ĠH Ã¤user
ĠY oung
ous ly
Ġpar ameters
Ġwest lichen
Ġill ustr
st Ã¼cke
ĠH ot
Ġim ag
Ġgew Ã¤hr
Ġserv e
Ġmod els
ĠPap ier
Ġnam ens
Ġinfl uen
Ġregard ing
) {
D C
M ich
ĠM ission
ĠK amer
Ġwe ist
Ġob serv
Ġc ash
ic ing
ĠN ode
ĠV ari
iz eit
ĠTeil nahme
ĠRÃ¼ck en
ĠNetz werk
famil ie
C omm
I OException
m aschinen
Ġf ight
ĠD etails
Ġl ands
Ġer stellt
Ġvor bei
son sten
wend ungen
Ġocc as
f abrik
Ã º
ung sp
Ġr ich
ĠSÃ¼d westen
Ġgra de
ĠSicher heits
b aus
k opf
ĠA qu
ĠK op
Ġk ulture
if el
id o
Ġcomp leted
Ġmay be
ĠĊĊ ĠĊ
ĠFil ms
ennt nisse
ĠMaÃŁ nahmen
wes ome
Ġdeter min
Ċ ĊĠĠĠĠĠĠĠĠĠĠĠĠĠĠĠĠĠĠĠ
ĠB aus
get Key
Ġle er
ĊĠĠĠĠĠĠĠĠĠĠĠĠĠĠĠĠ ĠĠĠĠ
ĠBer icht
Ġerst re
Ġcontin u
fan ter
Chr ist
k unst
ĠB ibliothek
Ã¤ ll
ell i
hÃ¶r de
ĠTr ib
Ġgeb ildet
Ġbas is
Ġpower ful
dien ste
ion e
ĠW Ã¤r
id den
ĠSch lieÃŁ
Ġger ing
200 4
ĠEntwick lungs
Ġn Ã¤mlich
ĠE bene
ĠC orn
Ġcol ors
ĠArchite kten
Ġgleichnam igen
Ġs ym
Ġw ants
ĠVer hÃ¤ltnis
Ã¼n sch
urn ier
Ã¤us ern
geord net
Ġclick ing
c are
at om
ĠF ord
ĠE ind
Ġg ren
++ ;
ĠDistr ikt
b aden
ro y
ent ur
ol o
ĠK art
ra ct
Rec ord
untime Exception
ĠSommers piele
Ġc ru
Ġc ast
ĠT imes
ra ys
ĠH ttp
ĠPr esse
Ã© n
Ã¤nd igen
Par ent
Ġmax im
Ġemploy ees
Ġstra ight
V ar
h ar
Ġh us
ĠT el
ly wood
rÃ¤ ft
En g
Ġclass es
Ġconne ct
Ġeff ort
lev ant
ĠN ote
Ġ6 4
unter richt
ĠBei de
ĠMicro soft
C ar
l ings
an ia
Ġe igent
ĠW Ã¼rz
Ġcon vert
ĠFre unde
gew and
Ġnumber s
ĠGerman y
ĠJac ob
G en
R oot
ĠE lemente
ug in
ost on
ĠHe ft
ĠLin ks
omb in
Ġdah in
ĠFÃ¶rder ung
mÃ¶glichkeit en
t or
Ġs ituation
al led
ĠD Ã¤n
sch m
ĠN ahr
Ġre ference
os a
Ġcon cept
ust ain
ĠEx empl
isDebug Enabled
P lan
n icht
Ġw uchs
Ġf elt
ĠA N
Ġv ict
Ġver gangenen
ĠWe ge
por ation
Ġdiffer ence
Ġprote cted
Ġdist ance
ĠFeuer wehr
ĠA wards
ĠM ethod
ol i
ĠL am
Ġ4 9
lan de
Ġmed izin
ĠFil me
čĊ čĊĠĠĠĠĠĠĠ
Ġfeel ing
war en
ĠB aby
ĠL it
ot yp
Ġde gree
ap h
get Type
ĠNe ust
ĠFig ur
O W
V is
Ġt ips
or age
or dens
ĠD adurch
ein anders
ack en
Ġsh ape
wer ten
Ġgu ys
ĠIntern al
Ġeinge fÃ¼hrt
K lasse
ut ing
ĠG ru
af el
auf hin
Ġclass ic
Ġgemeins amen
Ġcap ital
ĠAutom obil
posit ory
ĠÃ¼br igen
D ollar
Ġ uk
Ġw he
ĠS in
os ite
Ġstrateg y
ĠTw itter
b uffer
Ġp al
ĠW ag
Ġr ules
qu es
ĠAfr ica
Ġupd ated
ĠSchaus piel
" :
J son
f ree
re l
ĠP age
Ã¤r ung
ĠOr ient
Ġbeg onnen
erb ung
val u
Ġprogr amm
ĠBy te
U I
Ġapp reci
let te
bahn hof
ĠSchl uss
ĠmÃ¶glich st
ĠUntersuch ung
ĠAst ron
J e
v ar
Ã ł
ĠM ake
Ġl en
ann ter
ĠUn garn
ĠReg ister
Th ese
Ġra ce
nes day
Ġsynchron ized
ab geord
iz ien
ĠSp iegel
ĠOber st
Ġsho pping
Ġsol id
Ġ190 9
Ġocc ur
merk ungen
ĠImm obil
u um
ĠD ichter
ĠL ew
20 19
fl Ã¼gel
fang s
Ġtrans form
It alien
ĠnÃ¤ch ste
crib e
ĠGust av
re y
Ã¤ umen
ĠD auer
ĠE ven
Ġl ernen
ste iger
Ġweit gehend
Ġexec ute
Hol stein
Ġdev ices
ĠVerÃ¶ffentlich ung
ĠBraunsch weig
ĠE ach
ĠN ar
Ġre li
Ġsch affen
ĠHoch zeit
Ġ189 0
Ġturn ed
rÃ¤n k
V e
c ert
ad ies
ĠSch on
ĠAus nahme
ktion s
Ġinnov ative
J an
c en
p ot
ĠJ Ã¼rgen
ĠDe v
ĠKl ost
Ġprof ile
roll en
Ġentwick eln
ĠHotel s
FA ULT
Ġcent ury
ĠBarbar a
U ID
Ġs amm
el or
ĠV iol
ĠIn strument
Ġj ud
ĠStra ÃŁ
Ġstell vertreten
Ġpress ure
ar ily
Ġf ill
ĠM aur
Ġsch reiben
zen en
Ġdire ctor
Ġben ach
fÃ¤ ll
Ġeinger ichtet
ĠDevelop ment
Ġa cadem
Ġc amera
ĠEx ec
fÃ¼ ll
ĠCarol ina
Ġphil osoph
Ġhund red
F inal
G ew
ĠB lo
ĠT ax
ĠK urs
sch uhe
ach te
ĠN un
Ġre ader
ser ver
cre te
Ġtr ust
Ch annel
ĠPfarr kirche
ĠGest altung
f alt
Ġm ission
Ã¤n ner
Ġben utzt
ĠGed anken
Ġkur zen
wirk ungen
V ol
omm ission
Ġen dete
liegen den
Ġitalien ischen
le m
as ks
st Ã¤d
Ġun ge
ĠRe view
ĠBe ziehungen
ĠPr iester
pro cess
upp en
ĠProdu zent
ĠGew icht
ex ec
ĠStr and
Ġdenn och
Ġcas ino
ch ern
Ġw and
Ġf amous
Ġth ank
ĠN a
ug ies
Ġdis k
setz ungen
Ġfield s
Ġerm Ã¶
schei det
ĠWilli ams
i ot
at oren
Ġm iles
E Class
z ern
re hens
Ġb la
Ġl ern
ĠN ight
Ġge ist
ĠMet hoden
Ã¤mp fer
H aupt
j en
k u
is piele
it is
ĠS qu
el ess
ĠR oh
ĠAn frage
lÃ¤ss lich
L C
ter m
Ġbe in
ru pted
Ġcon stant
ĠLe vel
Er st
ĠChin ese
un a
te i
ĠP ac
Be vÃ¶lker
quire d
ĠPl us
ĠZug ang
B ody
ĠA u
ent in
ĠP rag
Ġre chten
lat ed
Ġfe hl
leg ant
!! !
Ġverst Ã¤r
ĠChamp ionship
k w
z ust
ĠW ett
lo ok
ite ktur
Ġschw ier
Ġestabl ished
ĠTenn is
b ungen
z esse
Ġme asure
Ġsur face
Group Name
ĠFak ult
an ische
Ġw al
Ġb ess
ĠTra um
Ġthan ks
Ġmon itor
akte ur
ĠDeb Ã¼t
ĠSchwer punkt
E W
ĠM ov
am ed
ĠK anz
ĠR eb
Ġge plan
ĠO ther
ĠTh Ã¼r
ĠFe hl
Ġbil dete
Ġpop ul
mitt lung
Ġfriend ly
k ul
in det
Ġt emplate
or row
ach tet
Ġr ent
lin der
ĠLe ute
int on
Ġchar ge
ĠWor ks
Ġappro x
Ġdi agn
k ammer
o ul
ar ray
he m
he ute
ĠA rab
Ġp ush
ĠH ockey
Ġ19 17
Ġge z
sp ace
ru he
Ġ4 1
Ġsh ared
Ġphot ograph
ĠZahl en
Ġaustr al
T S
ĠSp itze
ĠSte phan
Ġbro ad
Ġbeaut y
Ġmem ory
Ġswe et
ol is
ĠL abor
ĠZ ent
Ġdem and
ĠHe ad
Ġbek ommt
Ã¤chs ischen
j ob
ĠF ood
Ġges pe
ĠPar ameter
Ġange legt
Ġstand en
ĊĠĠĠĠĠĠĠĠĠĠĠĠĠĠĠĠĠĠĠĠĠĠĠĠĠĠĠĠĠĠĠĠ ĠĠĠ
ĠSalz burg
ĠRestaur ant
D u
b ad
Ġt ritt
ĠT uesday
Ġwas n
ĠgroÃŁ es
ĠMan y
ĠGew alt
Ã¤ ger
Ġc ategory
ĠU se
ov en
atur ing
Ġpr esented
De f
fre und
Ġprote ction
fur ter
Ġthous ands
Aug ust
ĠermÃ¶ glichen
p ite
Ġm Ã¤nn
ĠD ur
ĠH ell
Ã¶ die
ĠLe e
Ċĉ ĠĠĠ
Ġover all
Al bum
Ġopen ing
Ġdien en
Ġdat abase
urren cy
igr ation
Ġverbreit et
T emplate
Ġt ransp
Ġf allen
ĠA ction
ĠVer gangen
Ġhe im
pr Ã¼ft
ĠPr iv
Ġbek annte
Ġze igte
eins am
Ġ util
ĠD iffer
Ġh ers
Ġ19 15
Ġfor ce
ĠSh ar
Ġwel come
Ã¨ re
Ġsch Ã¶ne
Ġber ichtet
rat es
Ġserv ed
L in
Ġj ourney
kl us
Ġuse ful
Ġfind ing
ĠOp ern
ĠErw eiter
Ġc op
Ã¼n det
ĠÃ¼ber tragen
ov a
Ġ4 6
ĠFor st
Ġchar acters
ĠSchn ell
Ġeconom ic
ĠTÃ¼b ingen
k rieg
Ġs org
ĠM ak
ĠV aters
ĠAn griff
ĠAn spruch
ĠRe port
we il
Ġman ager
ĠAuf stieg
fl ow
Ġnah men
Ġprofession als
ĠEnts te
Ġin f
ĠE ich
ĠC ru
est ra
Ġse ch
Ġacc ur
con fig
Ġend gÃ¼lt
Ġnear ly
> <
M ore
j ew
Ġf rag
ĠE ber
kt ar
Ġhelp ing
ĠPe ople
Ġexist iert
value Of
Ġbeein fl
Ġd ank
ar in
ĠB ab
ro ugh
ic ine
ĠBew ohner
ĠFÃ¤ llen
H ost
w el
Ġvers ehen
rich ter
Ġimmed iately
Besch reibung
ĠS av
ic ul
ip es
Ġum ben
Ġsc ale
unds Ã¤tz
ĠbenÃ¶t igt
ĠtÃ¤ glich
C ommand
I terator
Ġb atter
ĠE ffe
em ark
ad or
ĠPro jekte
ĠDe ck
ĠGr amm
ĠGra d
por ts
Ġeffe cts
ĠPublik um
Ġ ueber
Ġw ebs
Ġf ahren
ra pper
ĠBer atung
Ġallow ed
ĠGeist licher
8 00
m es
Ġs ample
ĠM ah
ent um
sen z
tra gs
Pro ject
Ġ190 6
Ġsex y
ĠAngeb ote
Ġentsprechen de
P R
P la
ĠD ien
ic ial
ill en
Ġle it
iz z
Ġte ams
ĠLand schaft
iqu id
Ġmet al
ĠErw achsen
ĠPrÃ¤sident en
ĠMos kau
Polit iker
ĠB ord
ĠF inn
ĠK Ã¼nst
ĠR uf
ĠR ost
Ġtop ic
Ġbenef it
' ,
ĠS ul
Ġc ards
ĠK up
ĠK athol
Ġmit einander
ĠSp orts
ett ings
ĠKon gress
co very
ĠEurop ameister
Ġsec ure
beding t
Ġeffic ient
Ġg rat
Ġal ter
Ġde lete
ĠAn forderungen
ĠUn abhÃ¤ng
Ġcomm and
ĠWeltk riegs
Ġunterschied lich
aliforn ien
ĠLeop old
z iger
et ze
ĠR ett
Ġre icht
Ġch annel
Ġsp rechen
Ġgo als
ĠArbeit er
Ġ190 2
ĠZwe ck
ĠJur ist
Q ue
an ded
ĠR on
ĠKon rad
Out putStream
b ibliothek
l ife
m eldung
he il
Ġf ung
Ġf ather
ĠR ose
ĠL ock
ĠGener ation
N r
m ag
p o
is her
ĠA L
ĠP M
ĠF air
iv als
Ġhe avy
ĠAl ters
ĠIm age
Ġbesonder en
ĠLeicht athlet
ĠVorg Ã¤nger
ro te
Ġbis lang
ĠTe lefon
Sch ema
B ad
C C
Ñ ģ
Ġb ot
âĢľ ).
ĠJuli us
ĠGrÃ¼n der
W el
Ġan hand
ro h
Ġab gerufen
iz ont
ink en
hand el
ĠBundes republik
ĠRÃ¼ck kehr
__ __
L age
Ġs itu
ann ed
ĠVer letz
pe ctive
gr enzen
ĠOr der
ĠAuf ent
set s
ĠStre cken
J ul
Ã¶ tz
ĠN ick
ĠMag de
Ġs inn
Ġw eder
Ġl Ã¶
ers te
ak i
ĠRe f
Ġwe chs
ĠBe teil
Ġset s
ĠIns gesamt
ĠpersÃ¶n lichen
Ġchallen ge
F O
Ġs um
ĠK anada
Ġun er
In nen
Ġad vanced
ĠAd els
gra de
Unter nehmen
Ġaltern ative
ĠZusch auer
H aus
n ischen
Ã¼ chte
ist ischer
ho ff
Ġprodu ce
W ind
t ok
ab end
ĠIn stall
ste dt
qu ery
ett ing
ĠzurÃ¼ck ge
ĠRu hr
H ome
c ard
w all
Ġp aid
ĠC ard
ĠDie ter
Ġ5 2
hÃ¶r igen
Ġel f
200 3
ĠNord osten
Ġ190 4
yl van
Ġeas ier
ĠRei hen
P res
s ichts
v ents
Ġ ut
ĠM ir
Ġh off
ĠR ena
ein d
Ġpar allel
zie ht
" ).
t um
Ġm aÃŁ
ĠN etwork
art igen
ĠThe odor
The ater
... )
ĠNord westen
Field s
Pat tern
er a
ĠOr tes
hard t
wor ks
ĠQualif ikation
ĠLex ikon
er em
Ġn utz
Ġsch reibt
Ġall gemein
ĠFor ce
Ġsay ing
Ser ie
Welt meisterschaft
ĠAktiv itÃ¤ten
ĠFernse hen
B el
L abel
du ard
Ã¤nd ige
Er folge
reg ister
D own
Ñ Ĥ
Ġs uffer
ĠP ul
ĠK en
ĠK im
ĠR aj
bau er
Ġdam age
Ġprodu ced
t yp
ĠB ow
Ġn Ã¶t
Ġhe ight
Ġcour t
Ġcertain ly
Ġrelationship s
Ġzunehmen d
ĠlÃ¤ uft
D ar
W erk
Ġd rop
it ors
ĠK rieges
Ġent ity
Ġad vent
Th at
gest altung
ĠMark en
ÃŃ a
AC K
Ġdise ase
r ate
Ġd aughter
ĠB ang
ĠT a
ĠIn itiative
burg h
Ġqu al
c raft
tr an
stell ungs
Ġent steht
ĠSong s
ĠBu ild
ĠMein ung
Ġhig hl
le hre
ĠM id
Ġbe yond
Ġver ur
omm od
Ġol der
H istor
b al
Ã¤ st
Ġc ars
Ã¼r f
ug os
Ġcomp ar
teil s
Ġqu e
Ġber ufen
ĠKirchen gemeinde
ĠTer min
Dies er
Ġauth ent
ĠWed nesday
H o
k ins
r iss
ĠK iel
Ġge plant
Ġdem onstr
Ġvor aus
upp er
ĠBÃ¼ hnen
Ġpop ulation
ĠGesund heits
Eis hockeyspieler
P latz
c ore
k at
st rom
Ġc old
ĠG ang
ĠRe public
sh ire
ĠGer icht
ĠÃ¶ffent liche
ĠKomb ination
kra ine
M ult
it at
as ts
âĢ ¢
ĠW ay
Ġexper ts
legen heit
lam ents
ĠObserv able
ĠVergangen heit
Ġm sg
ĠN och
Ġus w
ĠFre izeit
Ġteach ing
ĠKranken haus
K irchen
W il
am at
Ġman age
wh ile
w as
Ġs orgen
ĠB asketball
ĠM ol
Ġp air
ĠC ert
Ġab z
ĠMe cklenburg
Ġlov ely
P O
S H
ĠK amp
Ġpr incip
Ġprov ider
ĠSchl Ã¼ssel
deutsch e
Ġerz Ã¤hlt
Ð¾ Ð
bere cht
M ember
W E
Ġa head
Ã¼ gt
ĠR oss
ug u
Ġres erv
ĠHer bert
fÃ¼hr ten
reg ion
ĠMann schafts
ĠSeb astian
Ġw ine
st ift
ĠF ant
ĠF lo
ĠL td
ĠO pp
ĠAn w
Ġman chmal
anz ig
ĠÃľber setzung
Ġant i
Ġober en
Ġwait ing
B erg
ĠF ootball
ĠJ im
ug o
ĠEin richtung
pr iate
ĠFre itag
ĠBo ot
ĠHoch schullehrer
Ġstark en
Ġret ail
Ġcover ed
k ern
r un
ĠP red
ĠH ay
ĠC are
Ġl it
Ġdurch schnitt
ĠInternational en
ĠComm ittee
Ġhus band
k ur
Ġa ward
or ph
Ġ1 10
ir n
Ġer b
ĠO der
ste uer
ĠAn ne
Ġse ven
ĠLe arn
ĠHand buch
ĠDes halb
Ġ190 3
bew egung
Ad d
ĠCont ent
ĠerklÃ¤r te
veranst altung
A v
ĠS ince
ĠW M
Ġzum indest
gesch lagen
Ġruss ischen
Ġnumer ous
ĠM auer
Ġc entral
ir ing
Ġstr ug
Ġnahe zu
x x
ĠL en
ĠGe gner
man agement
wer den
con text
jahr es
Ġmoder ne
ĠEigen schaften
ĠNeub au
Ġs Ã¤m
ĠS ystems
tr ast
ĠBe ziehung
row able
iter ator
ĠQu er
Ġcom ments
Ġho her
Ġtechn iques
Ġeinzel ne
ĠCD U
Ġoffiziel l
ĠverfÃ¼g bar
N ow
ĠD ich
ĠH ong
Ġwh ose
up date
Ġpe ace
KE Y
al i
ĠS oph
Ġshe l
Ġzwe imal
B Ã¼rger
g yp
t able
ã ģ
or i
or fen
el se
Ġc ache
ĠR ub
Ġl i
her zog
Ġsc en
200 2
ĠLauf bahn
<? <?
Ã¤ ure
ĠT rÃ¤ger
ĠK ab
ru pt
alen der
ĠHar ry
ĠPfarr er
Stra ÃŁe
ĠNieders achsen
gen Ã¶ss
ĠGr enzen
ĠZeit raum
ĠWar en
Ġmov ed
Ġmot iv
ĠIll ustr
ĠSec urity
Pf alz
l Ã¤nge
ĠM ut
ig ger
Ġj ournal
rom e
je ction
Ġear lier
ordin ate
gestell ten
G u
on ia
is tet
Ġn Ã¤her
ĠK a
Ġfor ms
gr iffe
Ġ189 8
hin dern
Ġpol y
Ġstark e
Ġneigh bor
G o
r aten
Å ¾
ĠB row
ĠP ast
ĠF ull
est ination
ĠUn fall
Ġpat ient
log ger
ĠComm ission
ĠMax im
Ġw idth
Ġg ather
aus stellung
ĠRe fer
res h
Sch riften
200 1
Ġgu y
ĠProduktion s
Ġb ag
ĠD B
ĠG lauben
ĠSch ach
her ren
Me ister
Des criptor
v orsitzen
it o
ur st
et he
ĠH aar
Ġg olden
ĠJ ersey
Ġj ung
Ġbes itzen
ograph ische
ĠMark e
gra ben
Ġstre et
iw od
zep te
B ook
c ons
ĠS ens
Ã¼ p
ĠA ccess
ĠP ed
ic ious
schaf fen
ĠSer ien
wahl en
ĠEnt fern
Ġaut o
ĠEhe frau
ĠHers tellung
hy th
b ut
p et
ĠB M
ĠD ra
ĠK redit
ab teilung
ce an
ĠZ erst
ĠBe ob
Er ster
ĠIngen ieur
i Äĩ
w ettbewerb
ch or
Ġe at
Ġm ilitary
ĠL abel
ĠJ ones
Ġst opp
gesch oss
ĠSte ve
Ġend lich
Ġem pty
ĠInstit ution
ĠPlan ung
as ien
ĠM isch
Ġim press
ste igen
ĠVer st
fÃ¼hr ungen
Se henswÃ¼rdigkeiten
I gn
M M
N or
P al
al tete
Ġn ut
ĠK Ã¼n
ĠJ agd
ct ic
Ġauf gelÃ¶st
Ġcon vers
ĠKon zer
piel en
Ġmult i
zÃ¼ glich
plat te
t x
ĠA gr
ell y
enn er
Ġte le
iss ance
Ġste ps
Ġexc iting
Gra ph
' )
ĠM P
ĠT wo
ĠC anad
Ġk g
Ġinter ior
icher heit
Ġeven ing
ĠMittel alter
bre ak
Ġdest ination
ĠUntersuch ungen
ĠDarm stadt
ylvan ia
4 00
c ause
ĠS onne
ĠM Ã¶n
Ã¤ng nis
Ġstand ards
Ġnor weg
. /
A F
he ben
Ġin n
ĠL ibrary
Ġsh own
Ġbeg innen
spre cher
ĠMod elle
Ġintern al
ĠBek annt
P olitik
S a
l Ã¶
Ġt Ã¶
an th
Ġer hoben
Ġcon ference
ph y
Ġro of
Ġtr ug
kauf t
Ġclos ed
Ġachie ve
ch ung
Ġf an
ĠF ab
Ġauf gebaut
Ġpro ud
Ġi Phone
ĠWe il
Un able
Ġbesch reibt
ĠHaus es
Ġfac ilities
ĠBayer ischen
l ight
ĠD iv
ĠT erm
ĠE qu
ĠR ollen
Ġver kehr
Ġj ur
Ġsp read
ĠAl k
Ġsh aring
Ġqu ant
Ġfr ame
Ġ189 9
Ġnotwend ig
A re
n t
s ing
Ġb ist
Ġf at
ĠB os
em it
em ed
ver eins
Ġver f
Ġon to
we ist
Ġ4 7
fe ct
Ġper man
res ponse
ĠBundes liga
haf ten
Ġincre ased
ĠFrei heit
cel ona
schlÃ¤ ge
histor iker
Serv let
in u
re tt
ĠC H
ce p
Ġab geb
ĠThe orie
Ã¤r ten
Ġtra ffic
Ġreg istr
Ġcoun ter
Ġhistor ische
ĠS au
Ġv ierten
ĠM inder
ĠF arm
ow ski
acht ung
ĠGeb urts
ĠMich el
Ġklass ischen
ĠSowjet union
T ube
Ã ĥ
ar ia
ĠS tellung
ĠB alk
ol en
im ents
ĠV I
Ġ19 16
ate ver
ĠVirgin ia
ĠB oston
im en
ĠV el
Ġnach halt
Ġad vis
Ġgen ug
Ġdr ink
ex it
aill en
Stat ement
Warn ings
Ġwebs ites
F il
J uni
ĠS QL
ĠT aschen
De cl
bo olean
Ġsm ooth
Ġtechn ical
Ġsen ior
S earch
Ġt schech
Ġf ans
Ġbe ant
if iziert
Ġr ank
aus gabe
rit iker
ian ischen
ĠAb itur
so ap
ĠHel mut
N ov
t ten
an ze
Ġzu k
Ġverschieden er
Ġrespons ible
Ġsepar ate
k ultur
t arget
ĠM eyer
ĠV eg
Ġaus reich
fÃ¼hr te
Ã¼t ze
schn itts
Ġcour ses
ĠKauf mann
Ġzie hen
ĠOrd nung
K urz
p asst
Å Ħ
Ġt oll
ĠF Ã¤h
ĠR Ã¶m
ĠL ipp
ot ional
ĠAn lagen
anz er
Ã¤l de
ĠBÃ¼ hne
Col or
======== ========
k Ã¼nd
Ġt rifft
Ġw achsen
ĠS ir
ĠW ho
ahr t
Ġman ual
fÃ¼ gt
ĠBar on
ĠDaten schutz
Ġsl ight
lowak ei
Ġd ining
ĠS oll
Ġh ook
ĠE ur
ĠCh allen
Ġte en
ĠNach richt
Be im
Supp ress
ĠMatth ias
w uchs
Ġg allery
ĠC ost
ĠO tt
iz ieren
ob ject
Ġad just
ĠVor stand
ĠBevÃ¶lker ungs
plat ten
ĠBeding ungen
c opy
ch ip
sch uld
Ġg ran
Ġr ing
Ġ5 1
ĠQu elle
Ġkomp lex
Ġep is
R ange
a ctions
ĠT ief
ĠW a
ĠL ern
Ġat tempt
auf nahme
Ġsc r
Trans action
L ook
p atch
il nehmer
ĠM ike
den burg
Ġcal cul
LO W
B est
Ġt it
ĠR ail
ĠAl ph
Ġsur v
Ġprote ct
Ġclean ing
ĠFig uren
ĠMuse ums
in zen
ĠS ymbol
Ġm ut
aus schuss
ĠTh read
ĠQu adrat
Ġpar ams
ĠInd ivid
199 8
spe kt
fehl en
Ġinstall ation
Ġgre ater
Ġpo or
Ġautomat isch
Ġrestaur ant
s ylvania
Ġt ruck
ĠA dr
Ġh alb
ol s
em ann
os ing
ĠIn frastruktur
ĠBr ig
ĠRo om
f it
Ã¼ se
Ġl ab
od urch
ack er
AT A
produ ktion
Ġerinn ert
ĠWÃ¼rz burg
u ellen
ĠP ok
um pf
tr ich
ĠÃ¼ber w
Ã¤t t
ĠPro te
teil ungen
ĠCon ference
Ġeigen es
ĠFrie den
ĠWo iwod
ĠWies baden
S ign
s ite
Ġs orgt
Ġc it
ĠT sch
ed om
Ġsh all
Ġpl enty
ĠEm il
ĠPre ise
Ġcor ner
Ġfact ory
b ahnen
m ot
r asch
st ab
olog ischer
Ġhelp ed
Ġrem ote
Ġlar ger
Ġkon zentr
Ġspeziel l
ĠSÃ¶ hne
b ell
k in
st ad
ĠH ospital
ĠR umÃ¤n
ĠC lin
cl ub
Ġbet rieb
isten ce
Ġkn ew
Ġdr iver
ĠDurch messer
rÃ¤n kt
Ġsozial en
Ġdeter mine
reu ung
. ).
S L
g reg
n iss
Ġf lag
ein heit
ĠJ ed
199 6
Ġbig gest
ĠBro ok
Ġumben annt
M o
S aint
f ir
Ġ Î
ĠK assel
ĠL ieb
Ġl abel
Ġre asons
ĠWe imar
onn a
ĠVerb esser
ĠX ML
Ġart ists
199 9
Ġoper ating
usÃ¤tz lich
sb ruck
Ġelekt ron
Ġerforder lich
rehens ive
: .
n or
Ġin nen
ĠM io
Ġh ospital
ĠG riechen
id ae
Ġcon figuration
ĠAr thur
Ġunter sch
Ġsc ene
ĠEng agement
Ġparticular ly
ĠjÃ¼d ischen
ĠgegrÃ¼n deten
M apping
d ach
ist ant
mer ican
ĠEin richtungen
ĠAd el
ĠMark et
ĠPre uÃŁen
lÃ¤nd ischen
ĠAfr ican
a ult
Ã ª
Ã¶ z
Ġal one
Ġzu geordnet
ath an
Cont rol
ĠNutz er
ĠStÃ¤d ten
Ġtalk ing
ĠHeraus geber
ĠRath aus
y t
ur ers
ĠEr schein
Ġ18 60
reich er
bo den
Ġdevelop ing
Ġaut om
ĠÃ¤ltes te
ĠBenutz er
: :
D igital
c ise
ĠS P
am i
Ġk o
ession al
ĠGer Ã¤te
ĠSÃ¼d osten
ĠKr ist
Ġwicht igen
ĠAntw ort
fÃ¶rder ung
b ing
Ġw odurch
Ġb urn
Ġre ag
Ġent schieden
ms g
ĠGesch ichten
ĠLei den
Ġcolle ct
ĠGespr Ã¤ch
J ohann
m essage
ĠK affe
je kts
Ġges ellschaft
ĠfÃ¼hr ten
ĠBew eg
Ġcommun ication
ĠSchn eider
Ġorgan izations
ĠSÃ¤nger in
Ġpriv aten
ĠHash Map
G E
d d
Ä Ľ
ent lichen
ol and
ĠL ot
ĠIn formations
ag a
we ge
ĠEr ich
Ã© t
bach er
alb um
Ġbuy ing
ĠÃ¤ uÃŁ
ĠDipl om
Ġcompon ent
ĠP ath
ĠT Ã¶ch
ĠAn h
ĠRe de
ring t
ĠSe kunden
ĠFor mat
zeit ung
Ġcol our
ĠProf il
ĠDort mund
Ġbetrach tet
Ġf eder
ĠB art
ĠE duard
os is
ĠEin sch
land es
ais er
cy cl
Or ganisation
ĠKont rolle
ĠHil fs
Ġexp and
Ġverste hen
o ben
or gan
ĠA D
ĠB itte
Ġto ken
Ġver geben
ĠOb wohl
denk male
ĠUms etzung
Vari able
k riegs
as p
we iler
Ã¼n sche
mus iker
AR T
Ġrequ ires
ĠFakult Ã¤t
l ar
Ġan schlieÃŁ
Ġr u
ĠAn alyse
sp ann
aus end
Ġunter halb
zeich nen
Ġgr undsÃ¤tz
Ġdr iving
ĠÂ ·
Te am
ĠJe ff
P ost
Ġa wesome
Ġt on
ĠK y
ad ing
ĠBe am
ĠOr chester
Ġlie be
Ġvers uchte
Ġerh ielten
Ġvis itor
ĠJohn son
O B
S eine
d on
Ġan gesehen
ol er
fen se
Ġtechn ischen
ino is
ĠBre mer
Ġexc ited
leb nis
E hr
Ġv oc
ĠB ade
st ances
Ġh aven
ĠW ord
ĠL ittle
ĠEr folge
Ġhe ader
ang o
ĠFl Ã¤chen
ĠGroÃŁ e
esent lichen
ÃŃ n
Ġident ify
ĠkÃ¶nn ten
i y
t ml
u an
ĠD aneben
ber icht
Ġr at
art ig
Ġle gend
ĠBe at
Ġum geben
mar sch
ĠInter essen
Ġcould n
ĠEngl isch
Out put
ĠArn old
C T
H ere
P e
S QL
e f
Ġviel fÃ¤lt
Ġeinz igen
umm ern
ĠTer r
ĠAutob ahn
Ġd ish
ĠD J
for mer
Ġby tes
formation en
Ġpar ameter
ĠKl im
ĠIns eln
Ph il
Ġcompet ition
! )
ĠS yd
Ġb ow
ĠB em
ĠK amera
ĠN omin
ĠIn fanter
Ġex ter
br Ã¼cken
irt y
ĠGra ph
IT Y
ĠLebens mittel
App lication
hÃ¶ he
ĠViel zahl
Ġtrotz dem
T ags
Ġs ources
ĠE arl
ĠN ap
ĠJ a
ĠFÃ¼r sten
Seg ment
I ST
m auer
Ġg lob
Ġse cret
aut hor
ester day
Fe ature
S pieler
s ource
Ġm ode
ck et
mer z
ĠBes onders
Ġschw eren
Ġengl ischer
zÃ¤hl ung
B as
Â ´
Ġs rc
he dr
us alem
ĠSch ne
Ġaus ges
ger Ã¤t
ĠSp itzen
Ġad ult
ĠKl ima
Ġcons umer
ĠHoch schul
Se le
Ġgemeins ame
Wh ile
c z
f els
it em
Ġs ister
Ġw ire
ĠO R
Ã¶r ungen
Ġ5 3
Ġbo und
verband es
ĠAnton io
Ġcla im
ĠEpis ode
L en
Ġs ter
Ġb rach
Ã¼ fen
ot ic
sp art
ĠEd el
ĠTod ay
ĠFil mp
Ġtest ing
ĠJo e
But ton
ĠTÃ¼rk ei
S ingle
ĠS ak
st atus
At tributes
ĠGegen wart
ĠWeit eren
Ġexperien ces
ĠPrinz ip
ĠImmobil ien
Ġc ore
Ġc alls
ĠC ur
ier end
ĠThe ologie
pr Ã¼fung
ĠAuf lÃ¶sung
Ġdo ors
grÃ¼n der
ĠEd ward
loy ment
Ġinc or
ĠJust iz
prÃ¤sent anten
Ġrec ords
ĠOff en
Ġfact ors
Ġbra ucht
Ġcap acity
ĠrÃ¶m ischen
ĠAng st
Ġm ail
Ġn ar
Ġein s
ĠU kraine
ill on
ĠEr ste
ĠNe um
Ġsol chen
ĠSan kt
Ġhim self
ĠPre uÃŁ
- /
r in
Ġs y
ich ern
ĠB ase
ĠW Ã¼rttemberg
ĠL ag
ĠL iber
ĠJ etzt
Ġ18 48
ĠMed ical
Ġmax imum
forder ung
ĠPlat ten
ĠVictor ia
ĠÃ¤lter en
s upp
Ġf ot
Ġe he
Ġn um
Ġer zeugt
Ġal though
ĠAus einanders
ĠFl ucht
Ġinter pret
ĠMin i
reg isseur
ĠWir ken
Ġsoc iety
S cript
W irtschaft
ro ad
ĠP os
ĠG lock
ĠK ost
ĠL uf
ĠN ah
ver tre
get Id
Ġvor ge
ĠFl Ã¼cht
ĠGra z
ĠAll es
lig isten
Ġfollow ed
Ġview ed
Ġoper ations
ĠMÃ¶ bel
k urs
ĠC apt
Ġl auf
ht ml
Ġex change
Ġch ain
Ġber Ã¼cksicht
ĠBo olean
Ġdire ction
ĠWh y
Ã¼nd ung
Ġbas iert
gre if
Ġrelig i
ar g
Ġf ailed
st il
iv a
au ert
ĠUn sere
Ġunter en
ob el
ĠSe arch
ĠPier re
Direct ory
m aschine
n itten
v y
x ml
ĠB io
ĠD inge
ger Ã¤te
gel s
Ġtra ding
ĠBar celona
Ġgelegen en
Ġchallen ges
Ġve get
ĠI ts
ĠU t
In ternal
ĠBes onder
Ġfre ie
ĠAs ien
Ġwind ows
J ust
ĠA S
Ġc ities
ĠN at
ib e
ĠTh ank
fen ster
Ġco ach
De c
Ġacc ommod
oin ted
Ġprocess ing
ĠDat um
Ġop in
Ġcrit ical
m or
o ter
ĠA le
sch irm
Ġbe grenz
ad ow
Ġ5 6
ĠWe gen
Ġperfe kt
Ġsong s
ĠCam bridge
resp ond
] [
m inton
ol ogen
ĠK eller
Ġver legt
ĠMar ien
ĠPar laments
urop a
Met a
ĠArm y
O st
ĠS yr
st one
ĠR oten
men d
Ġ18 50
Ġgu ests
deck ung
Ġinit i
ver lÃ¤ss
iz iner
etz ten
ĠNe use
ĠWahl kreis
Ġengl isch
Ġsicht bar
T C
ĠF ac
ist anz
gen ossen
ĠU fer
Ġun its
Ġat tribute
Ġget ragen
Ġbest ritt
ĠUm gang
Ġwel chem
ĠStud ie
ĠMann heim
fort un
Ġfant astic
B B
al o
Ġo k
ster dam
Ġbet roffen
gesch windigkeit
grÃ¼n dung
ĠMet rop
tens ion
ĠDon au
B re
P lease
c u
ĠL ow
ĠN R
kt op
Ġ18 70
ĠAlex and
Ġa partment
Ġv en
ĠW atch
ĠV Ã¶lker
est ic
Ġver hindern
Ġcont ain
Ġinst r
Ġgef ert
Ġklein es
Ġet abl
Ġcommun ities
ĠCont rol
ĠKomp osition
Ġprepar e
A V
en ken
ĠS her
Ġm icro
st al
sch icht
av or
Ġsh ip
Ġmain tenance
ĠÃ¶sterreich ische
A ct
D el
E P
Ġg ern
ĊĠĠĠĠĠĠĠĠ ĊĠĠĠĠĠĠĠ
Ġwir ken
Ġat tend
Ġsp ann
Ġman aged
ĠGe fahr
Ġtra f
Ġgener ally
Ġmov ies
Ġpres ident
Pre fix
Ġren ov
has Next
Mat rix
ĠNationalsozial ismus
ĠWoiwod schaft
ĠM atch
ĠK ardinal
Ġbe coming
Ġsch rift
Ġsur pr
Ġgest altet
hÃ¤lt nisse
ĠDav is
ape ut
ĠRelig ion
ĠPortug al
Suppress Warnings
R Ã¶m
b ay
j an
Ġt aste
Ġp ull
ĠSt ory
lo aded
Ġmed ium
ĠJuni oren
Inter face
Ã¤dag oge
" ));
C R
z ul
} ,
Ġb lieben
Ġam t
St yle
Ġres idents
Ġ9 9
ans as
ĠGesch mack
uz z
Ġshow ing
Ġport ugies
Ġfem ale
c at
k es
r ical
le vel
us ted
Ġle aders
ĠBes ter
Ġlook ed
ĠAug sburg
Ġnational en
Ġland wirtschaft
Ġmittel alter
ĠChem ie
Ġexpl ore
Ġnov el
e v
Ġan c
ator ium
urren z
Ġzust Ã¤ndig
F alls
s berg
z lich
ĠD ark
ien cy
Ġsch Ã¶nen
Ġra p
ĠBau werk
Ġrem ain
lei hung
ĠTer rit
ĠRu h
lev ision
Ġzie ht
S l
b und
or ia
ĠA sh
st ock
Ġthe me
ĠT unnel
ĠG it
ies e
Ġle aving
part ments
Se quence
Ġplan ts
Ġteach er
Ġrad io
ĠprÃ¤sent iert
Ġdom ain
gorith m
Jahrhund ert
Ġbehand elt
ing t
Ġc red
em burg
Ã¶ gel
Ġre levant
ver l
ĠLe hre
Ġcomp ared
ĠHalb finale
aka demie
ĠÃĦnder ungen
or ation
re place
Ġb ought
ĠD oug
Ġein iger
ĠT ats
ĠH erkunft
ab ilities
ĠSt imme
est amp
ess ed
igkeit s
Ġgest alten
ĠWeltk rieges
Ġengine ering
Europ ameister
J Ã¤hr
N OT
ĠM ode
om er
ĠH eb
Ġg one
ĠSt unde
Ã¼n fte
Ġnot ice
... ]
ĠRes ult
Ġausge fÃ¼hrt
ĠBew e
fre ie
Ġvo ice
o es
ĠK lassen
ĠK alifornien
ĠSt ore
Ġver tra
() ).
Ġsh ower
imm ing
Ġunser es
ĠEing ang
ĠTab elle
VAL UE
ĠMom ent
P ersÃ¶n
r amm
ĠF ast
be am
Ġunter wegs
arbeit ete
ĠAll tag
ĠOn ce
Ġadd ing
ĠInn sbruck
T L
is burg
ĠRe aktion
Ġange gebenen
Jahr en
chip karte
C ommerce
u ters
ent hal
Ġde partment
t l
Ġf la
ĠD ein
ik es
ĠZ ul
ĠRe quest
geb nis
Ġcan cer
ĠWe ek
ĠWelt meisterschaft
Ġricht igen
ĠerhÃ¤lt lich
d h
g un
m ach
ĠP ots
sen s
ĠÃ¼ber nehmen
uss y
ĠPh ase
Id s
B ew
n i
an isch
ĠB at
Ã¤ ts
ĠP ow
qu enz
ly n
ĠVer dienst
ĠVer mÃ¶gen
Ġges und
Ġbel g
Ġsee ing
Ġ190 1
Ġur kund
ĠForm el
ĠBern ard
Ġaufge fÃ¼hrt
ĠMil ch
mod ell
Ġadvant age
ugos law
ĠS af
ĠP u
ĠT ay
ĠSt ift
we ight
Ġse a
Ġsh ot
inn es
ĠGrund stÃ¼ck
ĠGew erk
Ġbr ight
199 5
ĠMich igan
ĠAlt stadt
Ġprepar ed
Ġmaint ain
Cre ate
d auer
Ġs ustain
ĠW it
Ã¼r zt
Ġver urs
ph ase
Ġinst ant
Ġeben da
Ġfre und
ĠEntw urf
Ġfab ric
K n
S yn
il de
Ã¤ ck
st aben
Ġc overs
ĠT i
ĠG anz
ic ies
ĠL ust
ver zeichnis
ĠMan fred
Ġvis ual
Ġser ial
Ber eits
Ġverpflich tet
ĠMagde burg
v m
un Ã¤chst
te am
Ġb auen
st Ã¤nden
Ġsch lecht
ov ed
geb lich
yste men
Ġpay ment
ĠBur gen
far ben
Ges ellschaft
Ġcompon ents
ĠbestÃ¤t igt
b on
Ġw om
Ġe ight
Ġc ock
Ġwar um
Ġ5 4
ool s
Ġra in
ĠCl ick
ĠParte ien
ĠzusÃ¤tz liche
ĠBestand teil
ĠunabhÃ¤ng ig
B ere
T er
U B
z ur
ĠK Ã¤
Ġg Ã¼lt
ĠRe form
ĠEin heiten
ĠMar i
mit glieder
hol m
ĠAustr alian
ĠOs car
Ġkathol ischen
A pi
T O
ĠB latt
Ġh Ã¶ren
ap os
Ġmin ute
Ġear th
ĠKo operation
3 00
D ay
M em
g Ã¤nge
j u
p an
ĠS zene
ĠB och
Ġn ennt
ĠC ole
Ġver n
iet nam
ĠGesch ichts
Ġersch einen
Ġgar ant
ĠSchn itt
Ġbenach bar
A kt
Ġb uf
ĠSch aden
ĠAuf nahmen
Ġ8 5
Ġpl astic
Ġfre ien
Ġ189 6
ĠKommun al
F ailed
L iter
Ã Ĺ
Ġbe zeichnete
Ġre ality
ann i
ell es
ĠInd ien
ĠRes erv
ling t
199 0
ĠBra un
ĠjÃ¼n ger
Ġ 00
ing ham
il ing
ĠG ymnasium
ĠL or
ik ing
ĠZ iele
Ġver anst
Ġver Ã¤ndert
In ternational
Ġsh ap
inz ip
ĠMar gar
ĠMe chan
ĠHol lywood
Ġbring s
ĠKÃ¼ sten
ĠSchriftsteller in
ĠBook s
ĠGef angen
z ert
â Ħ
ĠH arr
ub a
Ġex pos
Ġvor gestellt
ac ing
En gl
sk a
ikan ische
Ġstor es
EX T
C ert
n um
o ire
in us
Ġd ou
Ã¶r dern
ĠWe ber
The y
ĠBr ust
ĠReg ionen
bes itz
Ġletz ter
Ġpost s
Ġinc ome
ĠBesitz er
far be
Mill is
Ã «
Ġa uÃŁen
ig s
sch rank
Ġab ger
gr Ã¶ÃŁe
olog isch
yn ast
Ġklein ere
ĠPer formance
Ġann ot
ĠMont ag
Ġregister ed
ĠMount ain
ĠBrÃ¼ der
w ater
Ġin g
ĠD og
etz te
ĠBen ed
Ġinvest ig
ĠpersÃ¶n lich
we ich
ĠSe cret
Ġpr in
Ġconne cted
ĠRou te
ERR OR
S ep
Ã¼ te
Ġan gem
Ġp ow
la pp
Ġart icles
;;;;;;;; ;;;;;;;;
Ġafford able
s ein
ck ar
ĠAm b
Ġbra in
Reg istry
Ġeff orts
C or
D ialog
H S
p ra
is tern
ĠA ar
ĠT en
ĠK Ã¶n
ĠH yp
atur en
utz ung
ĠkÃ¶n ne
ĠUnivers itÃ¤ten
Ġass ert
Ġstar ts
Ab sol
ĠRund funk
Ġfig ure
D om
M ain
Ġn ennen
Ġc ivil
ĠW urz
ĠL A
Ġappro priate
Hand lung
Ġsn ow
SD AP
omot ive
ĠH ugo
Ġper haps
Ġspe ct
Ġander es
Ġbeh aup
Ġvol unte
Ġbestehen den
Ġpaint ing
h aben
l ik
m otor
ar ina
Ġan genommen
ĠF ur
ĠK ent
ĠW en
Ġpro test
ĠMit gliedern
He ight
CO L
Ġricht ige
ĠMik ro
ĠDiss ertation
J ohn
S uch
Å Ł
re h
de p
ĠL eb
ĠJ enn
ĠGes ang
Al t
ateg ories
Ġlaw s
Ġbill ion
ĠEar th
Ġjem and
K o
m lich
an ie
Ġf le
us en
us sen
Ã¤ udes
ĠK ob
Ġl ose
os h
ĠZ o
esch oss
Ġbeg leitet
ĠFrie dens
ĠmÃ¶glich erweise
verkehr s
Ġcomb ination
Ġspan ischen
Ġdet ailed
dire ktor
ĠNeust adt
P o
b ein
d oc
al and
Ġv s
sp rÃ¤sident
ord net
Ġsp lit
ob j
ri age
Ġdar aus
stra ct
sw ers
ĠMaterial ien
Ġeconom y
Ġabsolute ly
l u
ĠB am
ic ians
Ġl ay
ĠJ ena
Ġre place
ĠBe hÃ¶rden
me ter
Ġ/ >
Ġcomp are
Ġag ree
Ġdr ug
ĠBundes ver
ĠBahn strecke
Ġtre ten
ĠElekt ron
ĠJack son
Ġprevious ly
ĠTown ship
L ayout
ĠN Y
ĠVer n
Ġse at
Ġsupp orted
ĠSc iences
Ġmark ets
urf Ã¼r
k Ã¶rper
r uss
Ġs elling
or ff
el en
ĠW ales
ul in
Ġ189 5
ĠFil ter
ĠBern d
ĠFle isch
Ġremov ed
Ġnomin iert
Ġb on
ĠD ollar
ĠF ore
ad i
ĠSch reib
ĠAr r
Ġwissenschaft lichen
ĠDÃ¤n emark
re ht
ĠM obil
ĠE UR
ĠK alk
sch le
iel l
qu em
hÃ¶r ige
ief el
Ġsu it
Ġgener ate
ĠHel m
Ġsatis f
X ml
k Ã¼rz
p ie
w urf
â Ļ
ä ¸
Ġf ach
st ers
ĠD rag
ĠE N
ĠW Ã¼r
ak istan
aus bildung
Ã¼n den
Ġen det
sh ot
Ġpar am
ific ations
Ġstatt finden
Ġoffiziel len
ĠEngine ering
Ġinsp ired
I E
ĠB ou
ĠB uff
Ġc ream
ĠF Ã¼nf
ĠR io
ir urg
ĠAus bau
ret ung
ieb el
ĠInstit uts
Ġcover age
lad ung
Ġbedeut end
Ġrom ant
Ġcommit ted
ĠTÃ¶ch ter
on i
ĠStud ies
stre cken
ĠUp date
wirk ung
W ill
b ury
Ġa im
ĠB lan
ol t
ĠL Ã¶sungen
Ã¶ ck
Ġst ick
Ġsh ipping
Ġ7 2
Ġapp lied
Ġspe zial
ĠFrank furter
Ġletz t
Ġteil s
ĠBach elor
Ġbus y
Ġinde pendent
ĠQual itÃ¤ts
ĠCanad ian
D aten
R o
f ranzÃ¶s
p her
ĠT emplate
ĠI ran
et enz
ĠV it
iar den
Ġpark ing
b ett
t te
t own
Ġan gen
Ġg ay
Ġk ombin
Ġunter r
Ġseit dem
// //
Ġerw artet
E Object
N um
Ġt empor
Ġein getragen
ĠH ung
ĠN eb
Ġr andom
Ġen h
ĠOr ch
ĠNational mannschaft
ĠMot iv
ĠRelig ions
ĠKarls ruhe
ĠColumb ia
c os
ch o
ie ten
ĠT u
sch wer
int age
app y
ĠGesch le
ĠFre ude
ĠInter ess
ĠjÃ¼n g
a ktionen
Ġk os
Ġk id
ial s
Ġch anging
ast rop
Ġum ge
ĠSchw ier
ock en
leg entlich
Film ografie
Ġfav our
r us
as tern
Ġf ish
Ġthe oret
ĠD ok
Ġein schlieÃŁlich
ĠT yr
ĠE ugen
ĠH als
Ġer gibt
ier er
ĠUn ser
fahr zeug
tes ten
Ġverb indet
ask a
ĠJapan ese
ĠSec ond
ĠJos Ã©
ĠZus atz
r s
or ney
ar o
le ide
ĠB ier
de cke
ĠH um
Ġr uh
Ġ18 71
ĠAl te
ied elt
ĠGeb rauch
bau en
Ġopen ed
ĠTor onto
Pol icy
H ein
Ġw rote
re gel
Ġwir kt
ĠAus gang
Ġbes etzt
val ues
He ute
Ġprocess es
Ġvisit ors
Ġneg ative
zuf Ã¼hren
ĠMex iko
ĠContin ue
Ġacadem ic
B I
g han
re ck
ĠO S
la f
Ġauf gestellt
ĠAn f
Ġse ctor
Re chts
alt y
Ã¤ch er
pf ul
LA SS
check ed
ziehungs weise
al ition
ĠB om
Ġdes k
Ġunter scheiden
erk ennung
ĠFre ien
Ar beit
ompon ist
ĠBed Ã¼rf
wor th
Ġengl ische
Ġdist in
ĠAfr ika
ĠJer usalem
Ġdoc uments
M ag
Ġc ultural
ol ge
ĠK am
ĠN umber
Ġr ide
Ġsch ott
be an
Ġ5 8
Ġ15 00
Ġke pt
jÃ¤hr iger
ĠursprÃ¼n glichen
D an
U ri
e ing
f Ã¤l
ch nen
ĠK Ã¼hl
ĠH ess
ĠR al
ĠZ y
ĠSch uld
th aus
eb all
Ġcon temporary
Ex p
Ġcomp rehensive
co in
ĠYou Tube
Ġlo an
Ġsex ual
ĠBesch Ã¤ft
Ġcontin ues
Ġcontra ct
K at
T our
ĠT ob
ĠR ess
ĠC reek
ĠCh am
fin der
Ġwork ers
akt oren
ĠErk rank
ĠMathemat ik
ĠVarian te
K W
p ommern
Ġ Ã¶stlichen
Ġb ayer
le ucht
Ġf rem
ĠB rad
ĠD ynam
ĠG all
ĠSt urm
Ġ5 7
Ġoff izielle
ĠMus ter
Ã¤nder te
ret ch
ĠMark us
ĠAlt ar
Ġrun s
Ġbisher igen
Ġvol ume
Dat ei
Ġpan el
hers teller
Ġexpert ise
Ġ Ã¶rt
Ã¼ ÃŁ
ĠP ian
ĠH ey
if act
ĠSt ream
Ġi P
get reten
me er
Ġar en
ĠPr ivate
riter ien
riter ia
Ġed ge
ĠTher apie
ĠDipl omat
M O
W ert
c les
r ics
r Ã¼stung
ĠB ath
Ġp m
Ġ20 22
Ġun gefÃ¤hr
Ġde cl
we et
rit ing
Ġges ucht
ĠEurop as
ĠKÃ¼ ste
Ġmat hemat
ĠExper ten
ĠLoc al
ĠerhÃ¶ ht
H i
Ġe legant
Ġre form
ĠAn gabe
ĠVer arbeitung
ĠPr Ã¼f
ons erv
athol ic
ĠMehr heit
ĠB Ã¼r
Ġn av
ĠM Ã¤r
ĠF unk
ĠK il
ĠL eder
ĠEr ic
ĠAr gentin
bar er
tem per
stra ÃŁen
ĠOber flÃ¤che
ĠLu c
ifest yle
( _
R est
s ession
z um
Ġv ision
ĠB in
Ġc up
Ġein geb
ĠR auch
iz ens
fe uer
Ġqu arter
Ġev idence
Ġdis app
Ġmov ement
ĠGebie ts
sta aten
ĠGovern ment
C an
L AN
re ifen
ĠA achen
Ġp assen
ĠT ransp
ĠF ro
Ġfor eign
ĠSch ei
Ġspe ak
Ġhier bei
Ġmin imum
ST AN
forder t
< >(
S PD
ie ht
ĠR ow
ern ame
gr Ã¤
Ġad apt
ĠAm sterdam
folg ung
bereich e
F est
ĠB Ã¤nde
ĠM ajor
Ġein deut
ĠH Ã¶ch
hen den
ĠUm fang
Ġ189 7
ĠÃĦ gyp
ĠRegen sburg
Ign ore
âĦ ¢
Ġg laub
kt ive
ip end
ĠPro perty
Ġfe aturing
Un sere
ĠHand ball
Ġange zeigt
Ġlang sam
Ġsur vey
ĠGu ide
stant in
Ser ial
Ġaud ience
i oren
ĠS ort
ĠF red
ĠH alt
ĠIn g
th a
ner stag
ĠCo ver
Ġsur ger
med izin
Ehemal ige
ĠS auer
ive au
Ġinst alled
uck s
ĠDon ald
ĠGemein der
Ġpract ices
dat um
Ġpoln ischen
F ranz
K irche
Ġt ickets
at is
ĠB R
Ġan aly
de gang
ĠUnter richt
ĠAm ateur
con stants
ĠGemein schaft
ĠComm on
J apan
k Ã¼ste
re me
st um
ĠE uch
ĠH em
est and
our cen
ail and
setz te
Ġkeep ing
Ġwatch ing
Ġaud io
ĠPenn sylvania
S m
un fts
Ġf uhr
ĠF ans
ĠK itchen
ĠK linik
ĠV og
ĠJ ungen
ĠSt ich
Ã¼n schen
ĠBe aut
ĠBr es
gesch Ã¤ft
stru ction
Ġ189 3
Ġerr ichtete
ĠGal ax
P eter
y ball
ĠB alt
ĠD OC
ig ar
Ġden k
ĠAn z
Ġcomp r
Einz el
Ġra ised
Ġsom ew
ĠPat rick
Ġwicht iger
ĠGar den
Ġwissenschaft liche
ĠMex ico
Ġobt ain
Ġbein hal
p aar
ï ¼
Ġw a
ĠB ull
ĠM oh
de fault
ĠK Ã¶
ir ts
ĠAn wesen
ph il
Ġ9 5
Ġteach ers
ĠSyd ney
c ious
h Ã¤ndler
ĠK rÃ¤
ĠW hether
ik as
Ġy outh
ĠSch ott
teil te
ĠGer Ã¤t
ĠVers and
ĠKÃ¶nig in
Ġeinfach e
cont ent
Sc ope
Ġadmin istrat
Ġindustr ial
Ġd unkel
ar ator
ct ures
Ġst Ã¤dt
âĢľ -
ĠAus stattung
Ġad ults
ĠGrund lagen
ĠSil ver
Ġfil led
Ġsqu are
Y our
ie ck
ĠA T
de hn
ig it
ĠL izenz
Ġbe ziehungsweise
Ġl ayer
Ġ" /
Ġzw eiter
ens es
ĠOr den
ohn t
ĠFran Ã§
reat ive
IN T
Ġzusammen ge
spe kte
ĠBron z
Ġchines ischen
Ġerstre ckt
M art
P M
Ġ ..
it ro
Ġw Ã¤hlen
ĠF F
ok us
ack s
ĠPr Ã¼fung
stell te
rÃ¤ umen
An merkungen
Ġges agt
Ġacc essor
ĠMin ute
ĠCor poration
trÃ¤ ger
atÃ¼r lich
besch reibung
Ġwalk ing
ĠPhys ik
umin ium
Ġapprox imately
K an
b indung
c omm
Ġl abor
ach us
ĠN az
Ġer lang
Ġge Ã¤ndert
ew ay
ag ers
ĠAn im
Ġsp Ã¤ten
ĠPr int
Ġstud io
Ġgem ein
EN D
ĠEis hockeyspieler
iate ilnehmer
Ġenvironment al
ĠLÃ¶ wen
B undle
D DR
e per
Ġd ance
am o
Ġr ub
igt es
Ġsu itable
ĠGott fried
ĠBrasil ien
S u
k ar
ĠS ud
as i
ĠT an
ĠG un
ĠW art
ÃŁ ig
ĠBe f
Ġ18 80
Ġent schied
pro jekt
Ġsc ore
Ġflow ers
Ġdeutschsprach igen
l iteratur
ĠK Ã¶r
ĠR un
Ġl ights
ct ural
ĠO m
Pro f
ĠSpiel tag
Ã¼t ten
Ġange hÃ¶r
the EObject
Ġfac ility
des ign
ĠCoun try
Ġanim als
Ġseek ing
Ret urn
ĠBist um
C urrent
V ert
h s
al m
Ġge h
od ox
Ġsch ied
ĠUnter schied
ĠHand werk
Ġtechn ische
ĠgrÃ¶ÃŁ er
ĠOff izier
ĠRo hr
Ġlight ing
Ġcomb ined
Ġbirth day
Ġhil ft
Ġ iron
ĠB our
Ġp latz
ĠG ab
ĠC op
ĠN on
Ġwas te
ĠKunst stoff
ĠIntern ets
Ã¤mp fe
leb te
Ġheil igen
ĠHig hl
k op
Ġb rief
Ġf ootball
ĠB urn
ol ph
Qu alif
ĠGes ell
irt ual
ĠSc ot
ĠWerk en
ĠAkt ien
stud ium
lehn t
R S
ĠM u
ĠW ik
Ġl aufen
ĠCh ance
ĠAb t
ĠVor bild
Ġges te
ikan er
strahl ung
h art
o or
Ġt ail
ĠS ache
ĠT oten
ĠF A
ĠE xtra
um ul
Ġdes igner
Ġst one
all o
Ġde als
fe ktur
Ġhel pful
ĠMet al
wohn er
At om
199 4
On ly
emb ly
Frank reich
ĠBundest ag
. _
B E
f aces
w ich
Ġf Ã¼hl
ĠM ord
ĠD un
Ġer mittelt
ess in
Ġr an
sp ar
for scher
ĠAb out
Ġfin de
RE E
ĠLes er
stechn ik
U C
Ġp ray
ol as
ĠF as
ĠG ipfel
Ġver ab
Ġde te
qu er
Ġab gesch
ĠGe fÃ¼hl
ma ÃŁen
ograph ic
199 7
ĠTour ismus
ĠOh io
x id
re w
ĠL uz
ĠSt ill
tw och
pro perty
Ġveh icles
Acc ount
ĠKrank heit
> ()
O F
S uper
Ġa gency
Ġf ear
ĠO ster
Ġver fasste
ĠSch ild
go ing
Ġfocus ed
Ġsozial e
folgen den
Que ue
ĠKÃ¼n ste
p le
Ð º
ĠS ummer
Ġe hren
ĠB le
if orm
Ġge fallen
Ġauf treten
pt on
ĠVer zeichnis
ian ischer
ĠOr ten
amp s
Ġapp e
Ġapp s
ĠCl ient
ST R
setz er
ĠTechn ologie
ĠAnt i
ĠEnerg y
ĠRegel n
ĠDrehbuch autor
ĠSpre cher
B it
J ahre
w Ã¼rd
Ġw inning
Ġc ells
ig sten
ĠT H
ĠE conom
ĠAn trag
ib Package
ap est
ĠEin kauf
Ã¶ff net
pl ibPackage
orge ous
Ġitalien ische
ĠAbgeord neten
Ġextens ive
ĠPac ific
O UR
Ġd okument
ig ers
ĠN ation
ang le
ĠAus bildungs
Ch ain
Ġeigen er
Ġmar ried
ĠDire kt
State Exception
Ġpract ical
ĠHor st
Ġmiss ing
Ġfunktion iert
B en
ĠS E
Ġz er
ĠR oth
ĠL inz
ĠL ike
ĠL orenz
ub le
be hÃ¶rde
out s
Ġbes aÃŁ
pro p
igh ted
bild ungen
leit en
ĠVerlag s
weis ung
Ġoffen en
bour ne
ĠUnabhÃ¤ng igkeit
innes ota
H inter
v ater
ĠA z
ĠM esse
ĠM obile
ĠL ady
Ġge e
ass ung
Ã¤n k
20 20
Ġ6 2
br and
Ġloc ations
Ġverw and
AL L
Ġfun ctions
Ġval u
ĠAir port
ĠFÃ¼hr er
Ġjoin ed
Ġdiscuss ion
ĠAre a
g ow
m ung
te ms
ĠT onnen
ĠR untimeException
pro zess
Ġenjoy ed
char At
ĠverfÃ¼ gen
Ġwechs eln
M Ã¤rz
ĠK rie
ed ig
Ġer l
ĠĊ Ġ
lie gt
ĠMit t
br Ã¼ck
Un ser
mÃ¤ÃŁ ige
EC T
Ġtot ally
ĠIll inois
Ġcabin et
Ġreli able
L auf
h at
Ġ upper
he ber
Ġan zu
Ġn u
isch t
Ġex pression
werk en
Ġ: )
Ġgelegen e
Ġkor re
B ay
le ute
ĠM ember
ra uf
ĠL angen
get Property
St affel
Ġgleich e
OR T
omet ry
ĠGrÃ¼nd ungs
ĠTab ellen
ĠGleich zeitig
bÃ¼rger meister
Ġbal ance
Ġh arm
ĠT un
ĠE M
Ġge he
qu alitÃ¤t
ip eline
ĠArbeit sp
Key s
Ġhinz uge
ĠLOG GER
Ã¤ ne
ĠM assen
ĠG il
la ut
Ġ} ;
lie f
Ġgr und
Ġbesch Ã¤d
RE S
Ġspiel ten
ĠRu he
Loc ale
seit ig
ĠÅ ł
gestell te
Ġfeder al
Ġing red
K arl
] )
c la
Ġm ist
ĠD ream
Ġre pe
Ġis land
ges ellschaften
Ġher um
stra int
verb indung
With ServiceResponse
Ġjeder zeit
ĠpersÃ¶n liche
Ġexer cise
vertre ter
WithServiceResponse Async
j or
Ġd inner
ĠA x
st amm
ĠE sp
Ġsch uf
ĠCh ief
lan ge
An halt
Ġpart ies
Se e
ĠKn ow
Ġverst arb
ĠFel ix
ĠmÃ¶ glichen
National mannschaft
Ġleader ship
ĠVertra gs
beg inn
Ġdisk ut
ã ĥ
is p
re iter
ĠJ am
Ġver hinder
ĠAn st
ĠVer trieb
ĠVer fassungs
ĠEr Ã¶ffnung
ĠHe ktar
ĠVor teil
lÃ¤ ne
Ġra w
ĠPolitiker in
ĠMc C
Ġcent re
ĠPers pekt
ĠChild ren
ir aten
lich em
get Instance
sen de
ĠEin en
fol io
ĠFor der
Ġpla ced
spieler in
Ġoption al
gÃ¤n glich
fÃ¤h ig
Ġmanufact uring
Ġverur teilt
b te
m acher
or ry
ĠM A
ĠD C
ĠĠĠĠĠĠĠĠ ĠĠĠ
ĠW end
ir r
Ġde fe
qu elle
ĠEr m
ĠÃ¼ber sch
stell ig
Ġvers uchen
Ġthere fore
Ġerw orben
Ġest im
Ġlat ein
gebie ten
Ġassist ance
ĠgrundsÃ¤tz lich
fortun ately
N atur
Ġf ein
Ġo st
ĠM i
ĠT y
Ġbe wer
Ġbe comes
ĠN ull
ver teid
Ġne ck
St iftung
Ġget Ã¶
Ġind ic
Ġknow s
ĠSpring er
ĠRost ock
M ilitÃ¤r
Ġm ort
ion ier
ĠL yr
ĠC ro
ber uf
Ġk inder
ind ungs
pt op
Ġam b
reis en
Ġapp oint
Ar g
ĠBes etzung
legen heiten
Ġkey s
Ġcor porate
ĠPla ce
Dies es
Ġopt imal
Ġunivers ity
maÃŁ nahmen
ĠIntegr ation
mosph Ã¤re
ĠWag ner
b Ã¶
ĠK ul
th en
oun ted
act or
ĠRes ource
Ġ189 4
pre chen
ĠHerr n
ĠCom ic
Ġverst orben
ĠOption al
v iel
in it
Ġd Ã¼n
Ġa p
re uth
ĠB ein
ĠP y
ĠG itar
ĠG ouverneur
ĠR he
ĠSp ace
Ġcont ainer
com mer
kl ar
Ġworld wide
ĠMittel punkt
aun a
Ġperform ed
Ġsett ings
Ġorganis iert
ĠKolle gen
adel ph
ĠflieÃŁ t
ĠVerantwort ung
J ose
T od
k amp
w irtschafts
us es
Ã¤ fte
Ġl iber
ĠZ oll
od a
ĠVer fassung
Ġcon crete
Ġnot es
br onn
ĠBo y
Ġreg ional
Ġbr asil
Ġdec ide
fÃ¤ llen
Ġeduc ational
ĠhÃ¶her en
Zw ischen
achus etts
r ische
is lat
ĠM ade
ic er
ĠL uk
los ed
Ġqu iet
ĠBundes staat
str umente
ĠFahr t
mitt ag
ĠGef Ã¤ngnis
D ire
K ap
c oding
u i
er ei
ĠS endung
ĠP Ã¤dagog
ĠT ree
ic it
ir s
ĠRe isen
In sel
Ġdurch aus
lat es
bau te
ĠEl iz
ex p
Ġemp fehlen
Ġgener ation
Ã¨ s
Ġupd ates
ĠVerÃ¤nder ungen
Ġp ul
ĠT ake
men te
Ġ5 9
ĠFre ist
ĠVerb reitung
ĠVerein igung
Ġ189 2
Land kreis
ĠerÃ¶ff nete
ĠgegrÃ¼n dete
ĠPfar rei
v ard
ur ies
Ġc utting
ĠK abin
ĠAn bieter
Ġex amples
oc ation
ĠNor wegen
Ġappear s
ĠFernseh serie
Ġhappen ed
> )
A bst
C la
S ein
l iance
ĠW ellen
ĠDes cription
ĠhÃ¶ here
ĠSupp ort
Ġgetr ennt
f loat
ĠP s
ĠF our
ĠF abrik
ĠJ ord
od ies
ĠVer stÃ¤nd
Ġbesch lossen
zahl ung
ĠCla ud
W S
z ung
Ġf unds
Ġm essages
us se
ĠH ave
isch Ã¶
ĠN ationen
ĠVer eine
ĠBl u
Ġtr end
ĠPf ad
cy cle
Ġdort igen
Ġtrans action
ĠInternational e
Ġelect ronic
Ġgriech ischen
Ġrepla cement
Schwei z
ĠInf os
ch i
Ġj u
Ġdo ctor
Ġob vious
ĠHam mer
ĠTre ffen
UN D
ĠVerÃ¶ffentlich ungen
n ische
ĠS ender
Ġf arb
Ġund erg
Ġl in
Ġer leben
ik um
Ġaus fÃ¼hr
ip edia
fahr ts
ĠNor mal
Ġperson en
ĠKap ital
ĠFot ograf
iction ary
M ont
O pen
Ì Ī
Ġ Ã¤ndern
ĠS end
ĠA ster
ĠP A
ic ian
ĠH rsg
ad r
Ġun bedingt
ang a
olog ien
ĠOn ly
Ġsecond s
Ġvisit ing
Ġintrodu ced
Olymp iateilnehmer
Ġsurger y
e ist
Ġp asst
uf er
Ġver trat
ĠSe en
ĠGesch windigkeit
Ġbeen det
let ion
Ġhin ten
199 2
iam i
ĠGraf ik
ĠAbgeord neter
Ġzuk Ã¼nft
W rapper
Ġt at
as ant
ist rÃ¤ger
ag on
ast ik
ĠEn ter
ins on
sw ald
trag ung
ĠWei ÃŁen
Ġschn eller
Ġlearn ed
ube hÃ¶r
Ġdan ger
ĠPra kt
ĠBil dern
Ġcaus ed
ĠKlost ers
F iles
ĠK G
ĠN avy
ib l
ĠÃ¼ber setzt
An t
Con verter
ĠMag n
If c
Ġkommen den
Ġcla zz
ĠEpis oden
S ome
h ops
ĠE rot
ul er
ĠZ Ã¼ge
age l
Ġbes uchen
ober t
ĠTra g
ĠFahr rad
ĠBed arf
Reg ion
ĠRena issance
adelph ia
ã Ĥ
ĠB enn
ĠB Ã¼nd
ĠT rieb
Ġdie d
op her
Ġun tern
ĠWelt meisterschaften
Ġ< <
Ġown ed
ĠWei b
Ġform ul
Ġkur zer
Ġdistr ict
Ġjapan ischen
E st
H z
T erm
es a
re v
ĠP in
Ġer stellen
ĠMar burg
Ġ9 6
ĠBo gen
Ġsign ed
ĠpreuÃŁ ischen
Ġconven ient
V I
Ċ Ċĉĉĉ
Ġb rown
Ġm ac
Ġp our
Ġc arr
ic ans
ĠC P
ach s
Ġaus drÃ¼ck
Ġle gen
Ġle ather
Ġso unds
lass ung
En tw
vers orgung
ĠPl Ã¤tze
Ġinj ury
Ġinkl usive
ĠÄ Į
ĠTrain ings
F lag
b in
ch a
Ġa ware
ĠC EO
ĠJ son
Ġge zogen
ĠSch u
iz ierten
Ġcomp la
Ġar m
pro v
ĠBl ues
Ad apter
ĠJugend liche
ĠGraf schaft
herr schaft
ĠGeschÃ¤fts fÃ¼hrer
Ġvorhanden en
ĠAf plibPackage
Ġlaunch ed
ĠstÃ¤r ker
Ġgren zt
r Ã¶
st ore
ĠD ick
um es
ĠO ze
lin s
ĠAr z
anc er
Ġexist ieren
Ġgl Ã¼ck
best and
ĠWÃ¤r me
ĠVeg as
F S
ĠL em
par ent
Ġeinfach en
Ġtemper ature
M T
ĠD ating
ĠD iam
ĠH amm
Ġl ibrary
ĠV ietnam
Ġk ennt
Ġge legt
19 80
ult y
Ġserv ing
Ġakt ual
ĠAt om
199 1
ĠMill iarden
Element s
Ġheraus gegeben
Ġfa ith
Ġlux ury
Ġbehav ior
b ound
f angen
i ben
ie h
st ufe
Ġg ain
Ġre chte
ĠPro test
Ġum gebaut
ans ion
imm ungen
ual itÃ¤t
ĠCo ast
Ġsmall er
anc en
B ra
B ound
E very
K inder
Z one
Ġa st
ĠS ed
Ġb ur
Ġb aute
ĠB rie
ĠT R
ĠN u
Ġab s
Ġab gest
ĠThe atre
ant on
ungs s
Ġ" ,
auf bau
Ġ6 6
aw n
ĠUm bau
ĠMinister prÃ¤sident
ĠSing ap
Ġcandid ates
ut ch
ĠR ainer
Ġk Ã¼nft
ĠQu art
ĠZu cker
Me hr
Ġhapp ens
Ġtre es
wor fen
IG HT
ĠBot schafter
Auth or
Cal endar
i able
ĠS zenen
Ġv illage
ĠP ie
um a
Ġk Ã¶rper
for ce
iz ona
tet t
ĠBr uch
Ġother wise
Ġteil nehmen
ĠLin den
On line
ĠAutor in
Ġpromov iert
o ÃŁen
Ġm Ã¼s
ĠE xt
Ġst ars
Ġj ump
ark e
Ġen able
Ġmin or
ocol ate
ĠKan al
star ts
ĠGÃ¼n ther
S ince
V A
l uft
n ight
ĠĠ Ċ
ĠM ig
id i
Ġfor mal
ĠBe cause
Ġzum eist
fahr ten
Pro xy
ĠKon struktion
Ġtr uth
Ġmost ly
Ġgeb ra
ĠMÃ¼n chner
Ġmin im
Ġwei ÃŁen
opp el
Ġbestehen de
Ġpo et
ĠKateg orien
IV E
ĠLat ein
Ġbege ister
prof essor
Famil ie
ĠErweiter ung
Ġslight ly
/ *
K omp
P ers
W ar
Ġf uel
end o
ĠVer k
Ġapp ar
haus e
fre ien
Ġocc up
Ġrecommen ded
W or
h es
m i
w Ã¤hnung
Ġ icon
Ã¼ re
Ġl an
ĠN OT
ob jekt
Ġar ts
Ġher unter
ĠAll gemeinen
licher weise
Ġgu ess
Ġlog o
ĠAndre w
rauch er
ĠDenn och
Ġunbek annt
Ġaspe cts
B O
K unst
p ap
t al
on line
ar isch
ĠH Ã¼gel
Ġis ol
ĠZ usÃ¤tzlich
ei he
sp arte
ia c
Ġar range
Ġfe e
Ġchar akter
Ġbef Ã¶rdert
Ġsl ot
Ġprom ote
scheid ung
frei heit
MA X
onom ie
ĠKomment ar
ĠEns emble
k ind
Ġ ).
re land
Ġm ess
ĠM iddle
ĠD afÃ¼r
uch er
ĠThe ir
ĠAl p
omm iss
ĠCh air
ĠNach wuchs
ĠWelt cup
ĠspÃ¤ter e
Ã¤nger ung
sprÃ¼n glich
ĠEis hockey
Ġzie mlich
ĠÃ¤ltes ten
ĠEntste hung
le ts
ĠB ert
ĠM essage
Ġc ry
ĠG locken
Ġwh atever
lie hen
Ġsp ons
tern oon
ĠHe art
Ġco ast
ĠAut hor
ship s
ĠNieder lage
Ã³ w
Ġposit iv
G RO
al om
ĠS achen
Ġm ale
ro g
ĠF an
âĢ ĭ
ra ben
ĠR oland
ber atung
ĠN iger
ĠV ide
ĠAn k
Ġne ut
ĠSp irit
oc rat
tell ers
Ġgen ieÃŁen
ingen ieur
ĠMin eral
Ġsho es
Ġverb rachte
ĠJu an
Ġpass iert
Ġexp ensive
ĠGrÃ¼n en
Ġnational e
ĠRuss ian
ĠGebie te
Ġverbess ern
abgeord neter
L ang
i Ã³n
an ischer
Ġs ink
or b
Ġm ont
ra f
Ġaus gesch
aus o
amp en
ĠGem einsam
Ġany where
Ġfl ight
Ġbr ands
ĠMag azine
Ġmen u
ĠNorth ern
Ve ctor
l ere
und et
el det
ĠL iving
Ã¶ scht
ran che
Ġ6 3
Ġerfolg reichen
Ġnor m
Ġ188 5
Ġimport ance
ĠBro ad
Ġbew usst
ĠMaler ei
opt ion
ĠWissenschaft ler
Ġrestaur ants
ĠCre ate
erkl Ã¤rung
D i
F B
R uss
c our
ent ially
ĠT rom
ĠE tw
Ġsch Ã¼tzen
ĠGe legenheit
ĠWelt meister
Ã¡ s
Ġpass word
ĠAs ia
uff ix
ĠAlb recht
Ġoccas ion
Ġgespe ichert
Ġgefert igt
h ou
u ben
v ens
ĠA P
ĠA dresse
ĠB Ã¶r
ĠI M
ĠZ auber
Ġr ental
ile y
old ing
enden cy
Ġgu est
ĠGed ichte
Not Null
Null able
Ġestabl ish
Ġagre ement
M essages
Q U
w ait
Ġan lÃ¤sslich
ĠM all
ĠT ode
ĠK orea
ĠR ap
Ġwar ten
Ġch ron
Ġme ant
Ġvor wiegend
put ation
15 75
Ġag ent
Ġ188 8
ĠWochen ende
Ã¤u den
Ġbrow ser
ĠOrganis ationen
Ġpromov ierte
zust and
P aul
h ome
ĠT ipps
Ġst yles
ĠEr mitt
Ġle aves
In v
Ġent f
app ed
fahr ens
Ġschw ere
ĠSn ow
ĠColor ado
telligen ce
Eng ine
ĠTay lor
Ġ ice
or ganis
Ã¼ ch
Ġz Ã¤hlte
if iers
os ted
od ge
ĠEr wer
Ġex tre
eld ungen
Ġdar um
ĠGesch Ã¤ft
iele feld
schn itte
ĠBel gien
ĠPort rÃ¤t
Ġverkauf te
Ġwes halb
ĠInfanter ie
F rie
k B
ge h
Ġan gew
ĠM Ã¼ll
ĠP seud
ĠL ein
Ġy esterday
ĠAl though
sh ow
Ġ+ +
Ġsow eit
ĠBr enn
Ġtechn ologies
ĠLie bes
UL L
Ġinspir ation
ĠPfer de
angeb ot
merksam keit
B M
k k
Ġt olle
Ġs au
ĠT ai
ĠH av
Ġst arten
Ã¼n en
ĠAr men
ĠPr ior
fÃ¼ llt
ĠGroÃŁ teil
Ġdiscover ed
N odes
S ow
S ettings
a ver
g i
Â ³
re ffen
Ġan swers
Ġein gew
ĠF aust
ĠW y
Ġk ick
Ġk irch
art ikel
ĠPr ix
ĠBr idge
ĠBl umen
ĠIhr es
Time out
Ġbro ther
Ġruss ische
Mus iker
Ġfra uen
ĠRett ungs
w ords
Ġm outh
ĠB ent
Ġp urs
ĠF itness
ail ability
ĠGe gend
ĠIt alian
Ġrec o
ĠHaus halts
ĠGew erbe
wend ungs
Ġref le
Ġresp ond
or ter
ĠS ynchron
Ġdie t
ĠI ron
ĠH Ã¤
Ġver letzt
ĠRe kord
ust on
19 75
Ġall gemeinen
Ġste igen
Ġhin ein
Ġlo op
ĠDis ney
Not Found
ĠEuropÃ¤ ische
Ġhon est
ĠAud io
K NO
N ON
Ġa ctions
ĠE le
ĠK urfÃ¼r
sch ritt
ĠC ann
ov o
ĠBe ispiele
ĠAb stand
kehr t
zahl t
ĠPort al
Pr im
ande ur
Ġspeziel le
ĠExec utive
A pril
h av
w inkel
en ters
Ġa th
Ġc os
ĠG Ã¼
Ġst Ã¤ndig
Ġver boten
ĠSp ark
ip her
ĠUS B
ikan ischer
ĠÃľber nahme
Or ts
ĠPol ize
Ġpol icies
ĠTer ror
ĠEing abe
Ġfil ms
Ġzentr ale
Ġaccessor ies
F i
g age
o ted
z ed
Ġh ieÃŁ
Ġ( ;
ĠE mer
Ġer geben
Ġer folgen
ĠO d
ĠIn spir
ak on
ĠDie trich
Ġ3 60
Ġ18 75
ĠEin er
ĠÃľber sicht
Ã¼l le
Ġspecific ally
ĠTemp el
bereit et
ĠergÃ¤n zt
Ġneighbor hood
or ough
ĠS K
el be
st yle
Ġ( ).
ow e
Ġst unning
los ure
igh ter
ĠAll en
ĠDar aufhin
Data Type
ragen de
ĠRechts anwalt
ĠAstron om
Ġpersonen bezogen
H A
T itel
ĠM Ã¼hl
sp iegel
ĠEr klÃ¤rung
Ġab ges
ĠLe asing
Ġwor ry
Ġsc ript
Ġ< /
Ġdr ivers
Ġ189 1
OR D
Ġobject s
ĠHin weis
Ġinform ieren
Ġdur fte
' );
u v
ĠK Z
ĠL ed
Ġbe zieht
Ġth us
Ġj son
ĠPro cess
Ġ6 1
Ġpre gn
eil en
Ġsub mit
index Of
Ġnord Ã¶stlich
Ġzuf olge
ĠBrun nen
Ġlau tet
ĠPremier minister
Sep tember
( ...)
g Ã¤ng
an teil
Ġp ink
ĠH aupts
ĠC os
ah a
Ġpr ivat
Ġ6 8
ĠStud ent
ĠBew ertung
ĠNieder Ã¶sterreich
T ro
c ur
u ers
or p
Ġc ir
ist ing
ĠSt ab
Ġst yl
ĠSch atten
ĠEr richtung
Ġse gment
ĠAus fÃ¼hrung
auf nahmen
ĠBr ut
ĠDes igner
ĠSk y
Ġkon kre
Ġadv ance
Ġleit et
c am
i op
m odel
es heim
Ġm Ã¼ndet
Ġp reis
ĠG rupp
ber ry
ik te
ĠSch all
ass au
tr itte
ĠNe ur
Ġphot ography
Ġ188 9
Ġbreak fast
book s
Ġober halb
ĠKup fer
p c
{ }
Ġd oll
ar ischer
Ġm orgen
st atic
ĠM B
ĠT ank
Ġg rad
ĠV f
ĠSch aff
ud ing
geb irge
ĠAus zeichnung
ĠSe a
Th rowable
Ġgar age
Ġ188 7
ĠschlieÃŁ t
ĠKÃ¼ chen
ĠKÃ¶l ner
ĠStraÃŁen bahn
Ġrepr Ã¤sent
ĠMail and
Ġsurround ing
RÃ¶m isch
Ġbeinhal tet
M aler
l isten
t im
Ġan geschlossen
ĠF ed
ein heiten
Ġj ack
Ġme x
Ã¼ck t
Ġra us
ĠJun ior
Ġgeb lieben
Ġsol cher
por ter
ĠDire ct
lÃ¤nd ische
Ġkind s
Ġprem ium
Ġlok alen
Digital isat
ĠNeuse eland
leucht ung
P air
n oten
r Ã¼
Ġm anner
ĠG abr
Ġim pl
Ġaus gebaut
sel ves
off set
Ġgu ter
ĠKr one
Ġcall ing
ĠDi Ã¶z
Ġmass ive
ĠMult i
Ġpriv acy
ĠQue en
b ringen
g Ã¤
in yl
Ġa ka
Ġt mp
or ded
Ġan imal
am ework
ĠW inkel
Ġl ayout
ĠAn lass
sen der
Ġch amp
Str u
Ġgesch Ã¼tzt
ĠMon ats
Ã¼t ter
Ġrem ains
Ġklein eren
ĠGi ov
#### ####
BevÃ¶lker ungs
E E
S an
b art
j amin
r ennfahrer
ĠD ave
ĠW arn
ul der
ĠSch icks
Ã¼n de
be cken
ph ones
ond iss
Ġ6 9
ose x
Er gebnisse
Or iginal
Ġtop ics
Ġcontin ued
ĠAben teuer
Ġzentr alen
ĠThÃ¼r ingen
C L
č ĊĠĠĠĠĠĠĠĠ
Ġs it
Ġs izes
Ġm ental
ĠVer g
Ġwe isen
Ġro ute
Ġcl imate
zeug ung
Ġdefin ed
CD U
ĠLÃ¼ beck
ĠS A
Ã¼ ÃŁen
Ġan fangs
Ġc row
ĠT HE
im ul
Ġst ack
men ge
mer zen
Ġ14 0
mus ter
Be fore
ex pected
ĠFrei herr
ĠMad rid
Ġdescrib ed
leis tet
ĠBronz emed
K Ã¶nig
g roÃŁ
ĠM aus
ĠD ampf
ĠSp itz
ĠSie ben
cht es
ĠGu ard
Ġbegann en
ĠSouth ern
Ġdirect ory
Log ger
Ġstrateg ies
Ġspan ischer
Ġkont roll
E qu
X ML
d ies
f irst
on te
Ġv ent
Ġh yp
ĠH ind
ĠR av
ist ungs
Ġl unch
Ġ18 00
ĠÃ ł
Ġreturn ed
br id
Ġacc ident
ĠCar r
Ġgleich er
Ġbef ind
Ġ186 7
ĠDis ziplin
ĠGed enk
ĠKais ers
ĠHin weise
Ġautomat ically
ĠdÃ¼r fte
Ġrev olution
re chnung
ing ly
ĠB auch
ĠSch reiben
ert al
ran e
ĠEr ster
Ġcon fl
ĠTh ailand
ĠFran ces
ĠMat rix
mÃ¤ÃŁ igen
ĠSen ior
ĠZe hn
prÃ¤ senz
Ġans Ã¤ss
ĠEv ents
Ġarchite cture
ĠEntfern ung
u is
Ġd iss
te en
ĠD etail
ut ors
Ġk Ã¼rz
sp ur
hl on
Ġres idential
Ġlie ben
Pro gramm
Ã¤tz ung
Ġsearch ing
Ġallow ing
Ġmanufact urers
nehm ung
Ġumfass te
ĊĠĠĠĠĠĠĠĠĠĠĠĠĉ ĠĠĠ
Ġincred ible
ĠEind ruck
Nov ember
M Ã¼n
e ff
g ung
i ess
Ġf ixed
ĠM Ã¼hle
ĠG ross
ĠV ent
ĠSe ele
sw ert
199 3
Ġzwe ier
ĠerklÃ¤r en
Ġzuf rieden
Ġreco very
w eb
ĠB atter
st op
Ġp oll
Ġc ute
ĠL uther
Ġl istener
se a
ak u
ok ol
Ġch airs
Ġvor ne
ss ystem
lan ze
Ġgew Ã¼nsch
ĠMan chester
ĠCon gress
AN D
ĠPass ag
Med ia
Ġposs ibly
ĠKonfl ikt
rupted Exception
ĠAnh Ã¤nger
w eiten
y o
st reit
ĠF I
ĠW under
ĠV inc
ĠAuf tritt
ĠAut os
ilit ation
hol en
ĠDon nerstag
ĠkÃ¶nn t
sm ith
Ġcompet itive
Ġmittler en
ĠBul gar
l ate
an bul
Ġein heit
ĠK oll
ĠW itt
ĠJ ens
Ġzu gÃ¤nglich
ĠÃ¼ber all
ph ys
Ġbre iten
Ġcre ation
Ġ188 1
Ġfact or
ĠOl iver
Ġarr ived
ĠerfÃ¼ llt
ĠBened ikt
er ial
Ġd ates
on de
Ġt ab
Ġn ative
ra gt
Ġg orgeous
Ġsp aces
Ã¶n t
Ġbes ucht
ĠMar s
ĠSchw imm
man ager
ĠOb last
ma jor
arb y
ĠZw angs
Ġgreat est
ĠKr iminal
Ġ188 4
ĠEben so
Ignore Case
ĠgetÃ¶ tet
P L
a al
c olle
k Ã¶nig
or able
ĠE g
ĠL etz
Ġre ached
ĠSch Ã¼l
ĠDe finition
hal ter
use ums
Ġ16 0
ĠFre unden
Ġmin i
ĠWer be
Ġgel ungen
Ġtradition ellen
ĠAcc ount
Ġconcern s
ĠGriechen land
ĠPots dam
ĠArr ondiss
ste ig
tr im
ĠBe fehl
me chan
Ġfe hlt
ĠGesch w
man uel
ĠJul ia
ĠMo z
yr ight
ilome tern
ĠEinwohner zahl
Ġprakt isch
Ġwunder sch
/ >
M otor
u j
w idth
ĠS ite
ĠM aschine
Ġc urr
ĠR ent
ĠR ome
ap i
etz ungen
ĠAus zeichnungen
ĠVor stands
Ã¤l ter
Ġrec over
ĠArbeit geber
Al so
spro zess
Ġthough ts
ĠCharl otte
ĠsÃ¤m tliche
P red
a a
w eiter
it ate
it age
us che
Ġv ieler
Ġbe achten
Ġst ir
Ġver teilt
Ġver teid
af Ã©
Ġch osen
Ã¤t igkeiten
Ġreg istration
ĠHand lung
ĠBundes wehr
ĠErn Ã¤hrung
ĠAp othe
Ġcla ims
col umn
ĠSar ah
ĠEth n
ĠGÃ¼n ter
Ġaf ternoon
ĠSchlieÃŁ lich
K ar
us hed
am ik
ts eite
ah m
Ġde ck
ĠSp Ã¤t
Ġget roffen
Ġ0 9
Ġber u
Ġsc ope
Ġbre ite
ĠVerb ands
ĠGroÃŁ herzog
ilen ame
Ġmatch es
ĠFrei will
ĠGebie ten
ĠUms atz
Ġwirtschaft lichen
Ġmention ed
cep ts
A tt
H alb
ĠS W
he w
us k
et ime
and o
ĠSt ol
ĠSch we
ard o
iz za
Ġunter scheidet
ĠAuf merksamkeit
Ġwel chen
Ġpolit isch
jahr en
ĠKompon isten
ĠMathemat iker
Ġschwar zen
Ġhundred s
f ot
Ä ĥ
Ġf ruit
Ġin fe
Ġm ent
ph as
Ã¤l der
Ã© d
ende d
urs or
Ne u
Ġ188 6
Ġzeit genÃ¶ss
ĠPrÃ¤ fektur
ĠBon us
Ġamerikan ische
Ġcandid ate
Ġanerk annt
ĠInnov ation
' .
M iss
U se
de lete
ĠK ino
ĠL ad
ĠV ill
Ġre ichen
Ġdies mal
Ã¶r g
erv ation
ian e
Ġ0 1
ĠNe ues
Ġges p
ĠSh ort
ĠPol ice
ĠPhil adelphia
Ġverl Ã¤ng
ĠDorf es
ĠKant ons
Ġwoll ten
lieder ung
ĠVerbesser ung
B uch
H am
V E
an alyse
Ġin spe
ĠM innesota
ĠD ance
ĠP ut
ĠC oll
Ġk Ã¼nd
ĠAr k
Ġ18 78
ĠMar g
ĠHer zen
Ġmy ster
port al
ĠAmer ika
Ġbef re
ĠKap itel
Ġ186 6
Sp ace
ĠDi agn
Ġfeature d
ĠKapit Ã¤n
P ack
k olle
Ġd ipl
Ġw alls
he ater
Ġm ine
st ahl
Ġn annte
Ġ3 000
Ġum s
ĠAl f
pr ene
Ġvor be
ens us
ĠEx press
bo ot
ĠsÃ¼d westlich
war ded
Ġref lect
ĠÃ¼bern immt
ĠDenkmal schutz
ĠFass ung
ĠAltern ative
Erster wÃ¤hnung
F OR
ĠM etz
ĠP el
ĠG ieÃŁen
Ġbe quem
ĠV alue
ien ne
Ġpro min
ĠEn vironment
be zeichnung
ĠLe o
Ġen tertainment
ĠHe x
Ġlie ber
oh ne
Sch ule
ĠÃľber blick
ournal ist
ĠGeorg ia
Film titel
ĠIllegal StateException
ĠBud apest
ĠSom it
hoch schule
ĠTok io
P ay
R un
S ol
Ġe ating
ĠH at
Ġge legentlich
par ator
amm ern
Ġ0 8
Ġ7 00
inter est
Ob j
Ġur ban
ĠWil son
Ġbra uchen
Ġerreich ten
Ġed itor
ĠBot schaft
bro chen
contains Key
Ġschl ug
Ġflex ible
ĠGirl s
E p
f ers
l itz
m iss
ĠS low
ĠB oth
ĠM eine
ĠL och
Ġbe it
ot ions
gen cies
lin ed
ĠSp ur
19 18
ĠEn tertainment
mp el
Ġber aten
ĠKon f
ipp en
ĠCl oud
Ġdefin iert
ĠOl denburg
Ġoffen bar
Ġnord westlich
ĠAust ausch
ĠRog er
clude d
Ġexcl usive
Ġbatter y
ĠAlk ohol
ĠEliz abeth
h Ã¼tte
Ġa chten
Ġv olle
Ġp utting
ĠE P
Ġto ward
ĠC her
ap shot
âĢľ ),
Ġen ded
St ation
ĠUm feld
oth ing
ĠRes te
Ġcho ices
ĠSen ioren
ĠClass ic
ĠSam uel
Mod ule
M any
S chn
b ten
r ischen
w ird
ĠS z
st ritten
Ġn ack
ĠM ans
ĠM iami
im ir
Ġz ul
Ġge langen
ĠAn erkennung
Ġ18 79
ĠBer at
ĠBer gen
Str ateg
Ġ6 7
Ġgen annte
Ġpre fix
ĠTr ust
spr uchs
Ġpl Ã¶tz
uck er
ĠBuch staben
ĠBereich e
ĠBel g
unt ing
Ġ186 8
Gr und
Ġpurch ased
Ġadmin istration
Ġausgew Ã¤hlt
ĠDokument ation
Ġproper ly
Ġadvert ising
M al
N C
r ufen
v arian
ĠP ur
ĠP ict
ste ine
Ġent lassen
spr Ã¼che
ĠPol icy
ex ception
ĠSk ulpt
ĠColle ctions
frist ig
a o
h Ã¼ter
is st
le ft
Ã¼ he
Ġan bie
sp h
sp ring
ĠEr gÃ¤n
Ġ0 4
ĠVerb indungen
akes pe
Ġpattern s
commer ce
n ames
Ã ¦
en cy
ĠF els
ĠK un
ĠR ats
ein st
Ġge lesen
ĠSt Ã¼cke
ain less
Ġat ten
In itial
alt ar
Ġmehr erer
ĠSchw anz
Ġ7 6
aw ay
ĠEx istenz
ĠKon zentr
Ge ografie
AC E
yd ra
Ġmag azine
ĠbenÃ¶t igen
ĠLim ited
ĠmÃ¶ gliche
Ġemer gency
ĠMun icip
Ġproced ure
ĠNikol aus
ĠArgentin ien
A ME
J ava
M ai
il fe
ĠP ool
ĠN ad
qu alif
ĠMit twoch
Ġlie fern
ĠKat alog
Ġlead s
Ġintegr iert
ĠAuss age
Cons umer
ĠSemin ar
Ġf aster
ĠM S
ĠD id
ĠR Ã¤ume
Ġst il
ver letz
Ġauf s
lo cal
ĠVor bereitung
ĠGem Ã¤lde
Ġakt iven
ĠProf ess
Ġbring ing
iden z
deutsch land
wor tet
ĠVal id
Ġunters ucht
B U
y ll
y ard
ar p
Ġin vent
ĠA uge
Ġp ed
sch iffe
ĠR ie
Pro zent
ĠIS O
off s
ict ions
ĠSk i
ĠKat zen
ĠKo ordin
Gener al
ĠVerl ust
Ġconsum ers
Ġmeas ures
C ap
V O
ĠM au
ĠG az
ĠHe er
ĠFre m
let ten
ĠBau er
Ġvoll er
198 9
Ġask ing
lÃ¤uf e
nehm ern
Ġdog s
ĠEvangel ischen
Ġaccomp l
ĠHÃ¶ch st
T est
h ent
v ideo
Ã¼ ÃŁe
Ã¤ use
ĠM uss
Ġ1 15
ĠR ain
ĠJ eder
Ġle isten
19 33
fin ed
ĠAd ler
ĠBar ock
He aders
Ġgel b
ĠMass achusetts
Ġintens iv
ĠSchlag zeug
mir al
BevÃ¶lkerungs entwicklung
F ind
P RE
Z eich
i ors
Ġa u
Ġt om
Ġt ables
ro it
Ġp il
ul ations
ot ton
geb oren
Ġ188 3
Ġtro cken
ĠschlieÃŁ en
wei ÃŁ
Ġspeziel len
ĠWahr heit
Ġfertig gestellt
ĠÃĦgyp ten
? )
A gent
H P
I ter
V om
d ig
h ire
k ov
m ade
v ia
Ġt end
ĠS ysteme
ĠB lau
ro ot
ĠE C
Ġbe we
ĠSch au
Ġ18 76
Ġro ten
En de
lieÃŁ en
met hode
ential s
Ġmajor ity
isc ons
Ġhost ing
Ġdistrib ution
Ġepis ode
F R
I O
P op
k as
y c
Ġt asks
ie ber
ĠB uck
ier bar
Ġor th
In stitut
Ã¤r m
ahl en
Ġalle ine
ĠGes icht
Ġinter face
)) );
Ġange passt
ĠWerk statt
Ġdel icious
ĠÃĦ hn
Ġbuild ings
Ġspec ies
ĠRu der
wh ich
gebie ts
Ġvirt ual
Ġfeed back
ĠModer ne
Ġopin ion
NotFound Exception
C up
T emp
h Ã¤ngen
Ġd ick
Ġd az
Ġt arge
sch ung
Ġge pf
ver lauf
Ġver arbeitet
Ġhe ft
Ġsp ending
land en
Ġges prochen
ÃŃ o
Ġshow ed
ĠEm ail
Ġgeboren e
Ġverkauf en
Ġappear ance
Ġfrei will
ĠLink ed
wechs elt
shaus en
ĠHit ler
ĠDrit tel
Ġan alys
ĠD uring
Ġp apers
Ġc art
Ġ( _
ĠI terator
ĠH ed
ĠJ ar
ĠSch atz
Ã¼n der
ĠAr izona
rit ter
Ã© l
ĠFre der
Ġbo at
gew inn
ĠInd ones
ĠAs ian
ĠMill er
ĠBut ton
bre chen
Ġruss ischer
Ġhund ert
Ġhous es
Ġverg essen
ĠVersicher ungs
A c
A uÃŁer
Ġt rop
ĠA spekte
ĠM d
ĠK h
um ps
Ġl anger
ce pted
la de
ip er
Ġ18 74
Ġ18 72
ĠfÃ¼hr enden
ĠUr teil
Ã¤tz t
Ġsign s
ĠDu isburg
leist ungs
Ġpres ence
gef angen
Ġrespons ibility
Ġbem erk
ĠRumÃ¤n ien
at ible
ĠB ielefeld
ĠT ry
ĠG T
ĠG n
ĠH Ã¤nd
Ġl if
ĠV i
Ġk Ã¤mp
ĠO bst
our i
Ġsch m
Ġor g
ĠPro t
Ġbo ys
Ġacc ounts
Ġvers etzt
add All
Ġfl u
Ġgu itar
code d
ĠAt trib
Ġfamil iar
ĠWahl en
Non Null
n chen
Ġm ur
Ġan sonsten
ĠP av
et a
Ġbe er
ĠN in
ĠV ikt
gen den
Ġr ise
ant in
hen de
Ġum f
Ġte levision
Ġup coming
oph on
ommer ziel
ĠVerw and
ĠMor itz
UN G
Ġbevor zug
ĠAnz eige
K lass
n ieder
Ġb atch
Ġf ly
Ġin tr
ĠI gn
ĠR olf
Ġbe wegen
Ġzu verlÃ¤ss
19 30
19 70
lo be
Ġad s
ĠBr ian
amil ton
Ġ8 8
Ġins ert
entr um
ced es
ĠRes erve
Ġ186 2
Ġtyp ically
Ġspec ified
Pr ess
ĠZe aland
Ġredu z
Ġsil ver
ĠVen edig
liefer ung
Ġinstit ution
jen igen
ynast ie
A ber
n ik
Ä Ł
Ġin tended
ĠH unde
Ġr ies
ial en
ĠLe h
ĠVor stellung
Ġro ut
stra fe
Sie g
deck te
ĠGed icht
Ġpubl ish
Ġ{} ",
ĠÃ¤uÃŁer st
Jan uar
ĠendgÃ¼lt ig
Jul i
s end
un checked
Ġv ul
Ġc raft
ĠO hne
la p
Ġex ternal
Ġat tributes
Ġ" );
ĠSte phen
Ġrec ipe
ĠAd vent
gl as
lex ikon
Ġsupp lies
ĠMo on
stag ram
ĠComm and
ĠAth let
Ġextens ion
Ġvac ation
ĠLew is
J SON
W ird
j ahre
ĠS D
ĠD orn
ĠI reland
ĠW ars
ĠW Ã¶rter
Ġunter gebracht
Ã¼hr t
ĠGr Ã¶ÃŁen
igh ten
Ġdar stellt
Pro jekt
schl Ã¼ssel
ĠAt mosphÃ¤re
ĠDo ktor
ĠHigh way
ĠSat ell
TI ME
vier tel
exec ute
fir ma
J o
sch ild
ĠL aden
ab len
Ġst Ã¤rk
ĠRe zept
Ġle ichter
lie ger
Ġ18 73
ĠSe henswÃ¼rdigkeiten
ĠBr Ã¼cken
ĠDr ama
ĠsÃ¼d Ã¶stlich
ĠfÃ¼nf ten
ĠNieder lande
Ġzeit weise
zir ke
kap elle
ĠGabr iel
R ock
es ents
al ters
Ġthe ory
ĠK it
Ġlie ÃŁen
Ġtr ial
vers icher
ffe kt
tag on
auch en
ĠFreund in
ifiz ierung
Ġlic ense
Final e
Ġfavour ite
A ustr
B oot
P erm
Ġf u
den ken
ĠNe uer
Ġpla ys
Ġprov iders
Ġhand elte
zw ungen
Ġfre ige
Ġsign ature
198 6
ĠSm all
Sh ow
Ġperfect ly
Ġdeliver ed
zus etzen
Ġkathol ische
ĠCast le
ĠNaturschutz gebiet
ĠEreign isse
ĠErinner ung
Ġausreich end
Ġwom it
I l
ĠG att
ĠC ob
ĠN C
ver gleich
men s
aus chen
Ġle hn
ĠPro perties
ens burg
Ġfe hlen
Ġhistor ical
Ġpur pos
Acc ording
Ġak zept
Pan el
Fra uen
D etails
Z e
c all
f ue
l enz
z ing
is is
ĠB anken
ĠH ild
Ġbe grÃ¼n
ĠC irc
pp ich
land schaft
ĠTh or
Ġcl im
Ġmach ines
ĠTechn ischen
ĠMÃ¤n nern
ĠÃ¤l tere
ĠAth en
Ġged reht
Ġimplement ation
ĠTi rol
d ro
i pt
t ax
Ġt utor
ĠW are
ĠH inz
ĠJ ubil
kt oren
ĠZ ut
au ben
ĠVer z
Ġwill ing
ac o
ph a
ĠUS D
ipp e
ĠÃĸ k
reg on
ĠInter pret
Ġerfolg reiche
dienst kreuz
Ġverwende te
ĠKaffe e
Ġenh ance
B ig
R oman
f ill
s inn
Ġd ut
us ste
Ġan g
ent liche
ĠP lÃ¤ne
ĠG allery
get String
Ġ18 40
hÃ¶r igkeit
rich ts
Ġerw arten
Ġbeein druck
b ow
ĠH op
ĠC ass
id ad
Ġj en
Ġor ders
Ġour selves
ĠIt aly
Res ol
ĠSpe icher
ĠBi ograph
Ġident ity
Ġindividu ell
ĠAmts zeit
ĠAnders on
H R
e ister
s dorf
Ġc aught
ra hmen
Ġer richten
Ġ18 77
19 39
me te
Ġhier fÃ¼r
ipp er
Ġbra un
ĠDis c
ĠFert ig
Ġgrat is
ĠDoug las
N icht
P rÃ¤sident
p unkten
Ð »
Ġd b
Ġn ine
ĠP ic
ĠIn tel
ĠÃ¼ber zeugen
ho en
ĠSe le
ĠFor ts
leg ate
Ġbeste hend
hol der
Ġtrans ition
Inter ior
Ġfail ure
Ġscient ific
Ġingred ients
k Ã¤
s he
an ing
ĠP R
ĠL av
Ġre aders
ĠU d
Ġver an
ĠAn trieb
ĠAus sch
(" \
Ġbest anden
ĠKon text
Le ft
ĠMin er
Cont roller
ĠFranz osen
198 5
Comp arator
Film schauspieler
ĠKe vin
Ġsug ar
Ġschwed ischen
iscons in
D av
k la
Ġf Ã¶rdern
ĠC ott
ĠJ r
ĠSch uhe
Ġj ener
Ġum gesetzt
mal en
fe ier
Res ults
stra ints
ĠKl ar
ĠFest ung
Ġeinge laden
minister iums
ĠDienst leistungen
Ġcaus es
ĠOpt im
Ġlern te
Ġrap id
K omponist
S im
ĠB ry
ĠL okal
Ġg ros
ĠJ Ã¼d
Ġr id
Ġsie gte
tra ck
Ġbel ief
ĠBet reuung
arch ie
Class Name
Ġstatt dessen
the ater
ĠWohn zimmer
Ġkon stru
ĠFin ancial
ĠSchm uck
esh old
ĠursprÃ¼n gliche
Ġged acht
ĠVarian ten
Ġverwende ten
Ġstellvertreten der
F ar
N E
T im
Ġd unk
Ġb an
us her
ĠB ag
ĠF ox
ic ts
ĠL ange
if ikation
ĠZ unÃ¤chst
op Ã¤d
ib ilities
Ġgen auso
Ġgew Ã¶hn
Ġlie fer
reat iv
Ġ13 0
ĠFr ucht
Ġben ch
ĠHier bei
ĠIde as
Ġtest s
Ġmitt lere
ĠSa al
ĠProgram me
ĠEigent Ã¼mer
imens ions
ã Ģ
Ġb ike
ĠB ody
Ġp ump
ter min
ĠT ony
ĠE k
ach ter
ill o
se kretÃ¤r
ok es
ĠPro tocolMarshaller
ob i
Ġbes tellen
Ġtr aten
Ġmar riage
ĠSchiff s
ĠOut door
ĠBrun o
ĠverstÃ¤r kt
Ġurkund lich
starts With
(...) ");
D am
k ommand
Ġt ags
ĠS I
ĠS amen
Ġb undes
ĠA sp
st rÃ¤ger
ĠF ont
ĠE ver
ĠEr furt
ĠChr isten
Ġbef anden
ĠGo ethe
ĠSol o
Dat um
bra un
Ġhous ing
Ġdepend ing
ĠHaw ai
Ġsym pt
Ġperman ent
M ath
s d
v et
Ġun gewÃ¶hn
Ġch arm
ĠDe ad
ĠEin stellung
ĠCh annel
Ġcl oud
ĠTr in
ĠJun ge
Ġgood s
Ġem otional
ĠNatur al
trÃ¤ gen
ĠIns besondere
ĠGraf iker
ĠĠĠĠĠĠ ĉĉĉĉ
Ġappear ed
Ġclear ly
ĠDisk ussion
Ġwirtschaft liche
ĠHoff mann
Ġconvers ation
M useum
Ġa ges
Ġa fr
or er
at ische
ĠK ann
Ġwe aring
ign et
ĠVor teile
ĠSchw Ã¤b
hand lungs
ĠMan uel
schie de
Ġur i
the t
ĠÃĸsterreich ischen
ĠTre ffer
Ġfund ing
Jahrhund erts
VerÃ¶ffentlich ungen
Abst ract
! "
m Ã¶glich
Ġt icket
al teten
Ã¼ chen
ĠB arn
ĠK abel
ĠW ester
ĠR ies
Ġth ick
ĠDe f
als o
Ġspe zif
ĠGemeinde gebiet
ĠerfÃ¼ llen
Ġkanad ischer
ĠÃĦr zte
national spieler
Ġinfluen ce
ĠFÃ¤h igkeiten
Ġbenachbar ten
ĠGiov anni
ĠArrondiss ement
H D
W ell
Ġs in
ĠR an
ĠC R
ier mark
ond itions
Ġtra ined
ĠKl ang
ĠVers orgung
Ġrem aining
198 2
hÃ¤ng ig
ĠnatÃ¼r liche
Ġconf idence
ĠKol onial
Ġdamal ige
AB LE
dar steller
ĠBesatz ungs
ĠNahr ungs
Frie drich
M ENT
S n
c us
n el
p il
Ġw asser
ĠD M
Ġp un
im age
ĠF la
ĠK ein
ĠK ai
ĠH ost
ĠSt one
Ġle gt
Ġex cept
ho fer
bar ung
Ã¤ch te
Ġfe ierte
ole c
Ã¤hl er
Ver w
Ġmach ten
Ġbr ill
Ġcal endar
ĠMeister schaften
Ġdisc ount
Ġsuccess fully
Ġrepr esents
ĠSing les
Ġenth us
Ġehren amt
Entw ick
M er
z unehmen
Ã ī
ing ers
ĠB uffer
ĠP ad
em an
Ġg olf
Ġk rÃ¤ft
ne uer
ĠSp enden
Ġ12 5
ĠBl Ã¤tter
Ġra ise
ĠHand y
Ġzahl en
ĠMitarbeit ern
ĠKons erv
open hagen
ĠSchÃ¤ den
P G
en ne
al in
le un
as sten
Ġf oll
ĠM ind
ra gs
ĠH ang
ĠNach folge
ĠArbeit sk
gl ing
Ġ' "
ĠRes ponse
ĠBen jamin
equals IgnoreCase
Ġimpro vement
bu ilder
Ġmass age
Ġerk enn
ĠJes u
rim in
ĠWehr macht
Ġbess ere
P ubl
U l
h ana
Ġf ir
Ġp in
ĠF REE
ra hlt
Ġbe ziehen
Ã¶ ger
Ġth reat
Ġdes ire
ru p
Ġte eth
ĠAuf ruf
ĠPr ice
Ġout standing
Ġqu er
ri um
Ġhand ler
ĠStud ios
Ġmin imal
Ġgut es
haf tet
Ġ188 2
ĠAndre a
Ġgelang te
Ġmanufact urer
ĠTschech ien
verstÃ¤nd lich
Ġclin ical
Ġcit izens
S ocket
n ur
Ī Ĵ
Ġa id
st het
ĠN erv
ĠJ ag
all iga
Ġde cre
In formation
out ube
ĠAuf l
Ġ8 7
ĠMill ion
ĠJugend lichen
ĠMy th
itu ationen
verein igung
ĠnatÃ¼r lichen
Ġverm eiden
ĠMult ic
Ã¼ste t
ĠLux emburg
ĠPeters burg
I st
È Ļ
Ã¤ hne
ĠP ick
ĠF a
Ġg g
Ġver lang
Ġes c
Ġ& #
gend es
Ġger inger
Ġevery day
ĠReich stag
Ġcert ified
ĠFer r
spro gramm
Wer degang
frastru cture
B ER
G ET
p op
or r
ig i
Ġl ifestyle
Ġy ellow
icht ig
sp unkt
sp lit
Ġso fern
Ġres ume
ens wert
ĠBr Ã¼ssel
ende te
ĠTra vel
Ġstand s
ari at
ĠProf essional
Ġkosten lose
Ġklass ische
ĠSied lungs
Schwei zer
6 00
k anz
l ach
ĠK ok
ĠSch nee
og ie
ĠFre md
amer as
stit u
ĠSpe kt
AC T
198 7
Ġangeb racht
ĠMotor rad
ĠRestaur ants
Ġvari able
omot iven
Ġdynam ic
Ġresol ve
A ud
S w
Ġs itting
Ã¼ her
Ġh Ã¤ngt
ĠG uts
ĠK el
Ġ" '
per iode
ĠCh ile
ĠAus wirkungen
zeit schrift
pre c
Ġwei ÃŁe
ubs cription
ĠPosition en
Ġhold s
Ġcommit ment
ĠStruktur en
Mich ael
L et
O h
R ight
S ET
p red
un ks
Ġt ight
ic us
ĠK und
Ġg ross
Ġl ived
ach es
ĠV iz
ĠMar x
ank a
Ġbeg ins
Ġ[ ...]
ĠSÃ¼d west
Ġpass ende
Ġ186 3
ixt ure
Stack Trace
ĠBres lau
A merican
G C
ĠF alle
ĠI C
ĠW itten
ĠSt att
ann els
all as
sp ec
we ar
ant a
Ġ7 7
Ġwould n
ĠBet on
arch itektur
Ġakt ive
ĠSol ar
Ġple ased
ĠSpan ish
Ġencour age
valu ation
ĠEber hard
E ach
O ktober
g nung
it als
le ep
us ing
ĠSt aff
ant es
ĠAl i
ĠFor est
rÃ¤ gen
ĠSo ft
Ġel imin
ĠFe ier
Ã¡ r
trÃ¤ glich
Ġdefin ition
ĠSen at
ĊĠĠĠĠĠĠĠĠĠĠĠĠĠĠĠĠĠĠĠĠĠĠĠĠĠĠĠĠĠĠĠĠĠĠĠĠĠĠĠĠĠĠĠĠĠĠĠĠ ĠĠĠĠĠĠĠĠĠĠĠĠĠĠĠĠ
Ġeffic iency
ĠJahrzehn ten
Ġgeplan ten
ĠKÃ¼nst lern
Ġvalu able
Ġpurpos es
J ugend
h ai
m issions
ĠS EO
ĠM ort
Ġ( ),
Ġst retch
ĠAn meldung
ĉĉ ĉ
ĠHe ck
ĠSh akespe
Ġperfe kte
ĠCont act
ĠHow ard
omet imes
Ġmount ain
Ġbegrenz t
Tod ay
ĠBronzemed aille
) -
L isten
W ei
d ner
Ä Ļ
or um
Ġm obil
st unden
ĠD ass
ĠP lattform
im o
Ġauf w
Ġent decken
los igkeit
ĠPr ime
Ġ9 00
Ġfe els
)) )
ins ichtlich
Ġ186 1
Ġ186 9
Welt meisterschaften
Ġqualif ied
Ġregular ly
Ġdescrib e
Ġerinn ern
ĠRy an
Ġcloth es
ĠÃľberg ang
ĠGesam tw
ĠMitt ler
( @
c ache
ļ Ń
in ations
he iz
Ġf ellow
ĠT auf
ic z
Ġz ero
Ġl ift
Ã¶ tt
Ġver grÃ¶ÃŁ
Ġj oint
gesch lecht
lÃ¤ uter
Ġdire kten
AT O
ĠUr ban
Ġstar tet
pre uÃŁen
plan ung
Ġredu ziert
haupt stadt
gre es
ĠStad ion
ĠEt appe
Ġevangel ischen
B Ã¼
Ġw Ã¤ren
Ġf f
Ġm agn
Ġo d
il ation
ĠAn sicht
ĠSp ar
Ġ18 49
ack e
geb ra
ĠIm mer
Ã¤l te
ĠkÃ¶n ig
Ġtr ends
mat ik
Array List
Ġimpro ved
ĠBot an
Ġevangel ische
Ġcelebr ate
\\\\\\\\\\\\\\\\\\\\\\\\\\\\\\\\\\\\\\\\\\\\\\\\\\\\\\\\\\\\\\\\\\\\\\\\\\\\\\\\\\\\\\\\\\\\\\\\\\\\\\\\\\\\\\\\\\\\\\\\\\\\\\\\\\\\\\\\\\\\\\\\\\\\\\\\\\\\\\\\\\\\\\\\\\\\\\\\\\\\\\\\\\\\\\\\\\\\\\\\\\\\\\\\\\\\\\\\\\\\\\\\\\\\\\\\\\\\\\\\\\\\\\\\\\\\\\\\\\\\\\\\\\\\\\\\\\\\\\\\\\\\\\\\\\\\\\\\\\\\\\\\\\\\\\\\\\\\\\\\\\\\\\\\\\\\\\\\\\\\\\\\\\\\\\\\\\\\\\\\\\\\\\\\\\\\\\\\\\\\\\\\\\\\\\\\\\\\\\\\\\\\\\\\\\\\\\\\\\\\\\\\\\\\\\\\\\\\\\\\\\\\\\\\\\\\\\\\\\\\\\\\\\\\\\\\\\\\\\\\\\\\\\\\\\\\\\\\\\\\\\\\\\\\\\\\\\\\\\\\\\\\\\\\\\\\\\\\\\\\\\\\\\\\\\\\\\\\\\\\\\\\\\\\\\\\\\\\\\\\\\\\\\\\\\\\\\\\\\\\\\\\\\\\\\\\\\\\\\\\\\\\\\\\\\\\\\\\\\\\\\\\\\\\\\\\\\\\\\\\\\\\\\\\\\\\\\\\\\\\\\\\\\\\\\\\\\\\\\\\\\\\\\\\\\\\\\\\\\\\\\\\\\\\\\\\\\\\\\\\\\\\\\\\\\\\\\\\\\\\\\\\\\\\\\\\\\\\\\\\\\\\\\\\\\\\\\\\\\\\\\\\\\\\\\\\\\\\\\\\\\\\\\\\\\\\\\\\\\\\\\\\\\\\\\\\\\\\\\\\\\\\\\\\\\\\\\\\\\\\\\\\\\\\\\\\\\\\\\\\\\\\\\\\\\\\\\\\\\\\\\\\\\\\\\\\\\\\\\\\\\\\\\\\\\\\\\\\\\\\\\\\\\\\\\\\\\\\\\\\\\\\\\\\\\\\\\\\\\\\\\\\\\\\\\\\\\\\\\\\\\\\ \\\\\\\\\\\\\\\\\\\\\\\\\\\\\\\\\\\\\\\\\\\\\\\\\\\\\\\\\\\\\\\\\\\\\\\\\\\\\\\\\\\\\\\\\\\\\\\\\\\\\\\\\\\\\\\\\\\\\\\\\\\\\\\\\\\\\\\\\\\\\\\\\\\\\\\\\\\\\\\\\\\\\\\\\\\\\\\\\\\\\\\\\\\\\\\\\\\\\\\\\\\\\\\\\\\\\\\\\\\\\\\\\\\\\\\\\\\\\\\\\\\\\\\\\\\\\\\\\\\\\\\\\\\\\\\\\\\\\\\\\\\\\\\\\\\\\\\\\\\\\\\\\\\\\\\\\\\\\\\\\\\\\\\\\\\\\\\\\\\\\\\\\\\\\\\\\\\\\\\\\\\\\\\\\\\\\\\\\\\\\\\\\\\\\\\\\\\\\\\\\\\\\\\\\\\\\\\\\\\\\\\\\\\\\\\\\\\\\\\\\\\\\\\\\\\\\\\\\\\\\\\\\\\\\\\\\\\\\\\\\\\\\\\\\\\\\\\\\\\\\\\\\\\\\\\\\\\\\\\\\\\\\\\\\\\\\\\\\\\\\\\\\\\\\\\\\\\\\\\\\\\\\\\\\\\\\\\\\\\\\\\\\\\\\\\\\\\\\\\\\\\\\\\\\\\\\\\\\\\\\\\\\\\\\\\\\\\\\\\\\\\\\\\\\\\\\\\\\\\\\\\\\\\\\\\\\\\\\\\\\\\\\\\\\\\\\\\\\\\\\\\\\\\\\\\\\\\\\\\\\\\\\\\\\\\\\\\\\\\\\\\\\\\\\\\\\\\\\\\\\\\\\\\\\\\\\\\\\\\\\\\\\\\\\\\\\\\\\\\\\\\\\\\\\\\\\\\\\\\\\\\\\\\\\\\\\\\\\\\\\\\\\\\\\\\\\\\\\\\\\\\\\\\\\\\\\\\\\\\\\\\\\\\\\\\\\\\\\\\\\\\\\\\\\\\\\\\\\\\\\\\\\\\\\\\\\\\\\\\\\\\\\\\\\\\\\\\\\\\\\\\\\\\\\\\\\\\\\\\\\\\\\\\\\\\\\\\\\\\\\\\\\\\\\\\\\\\\\\\\\\\\
B aden
Ġv ary
la ce
Ġr iver
hal f
Ġsh ift
ĠAll gemein
Ġschw ei
Ġmonth ly
198 4
Ġhei ÃŁen
Ste p
Ġhold ing
ĠAcc ording
ĠRis iko
ĠGreg or
H O
un ters
ĠB Ã¤
el ry
ĠD ocument
ĠP ont
ĠP RO
ĠK leine
Ġfor um
af fte
Ġor ange
ĠÃ¼ber zeugt
ĠAll gemeine
Ġgesch ieht
Ġshe et
Ã¤nger in
lei hen
Ġlo ans
ival ent
ĠKompon enten
ĠProm otion
Ġappreci ate
W ien
z it
Â ·
Ġt ast
ĠS ei
de pendent
ed ing
ĠR ug
ers dorf
Ġge Ã¶ffnet
ag entur
se y
Ġne arby
ĠDe leg
ho e
ĠHe eres
Ġ0 5
ĠNe xt
rÃ¤ um
Ġsupport ing
ĠverÃ¶ffentlich ten
Sh ort
Ġmeisten s
Ġinform iert
ĠÃ¶ k
ĠHoll and
ĠNR W
g ard
t Ã¤
ĠS ony
Ã¤ sche
ĠG ymnas
ĠL isten
Ġl ust
Ġun w
ere cht
Ġaus geschlossen
Ġvor genommen
ĠSe g
amm elt
ĠCar los
ĠBet reiber
Ġsupp orts
Ġerw eiterte
Ġdec isions
ĠAss istent
ĠParis er
anc ouver
ĠEmp fehl
ĠFeder al
ĠKohl en
Ġmensch lichen
H Ã¶r
R ou
V C
z o
Ġs essions
ĠS R
ro vers
ĠM ahl
ĠD ak
Ġh alt
ĠV ene
ĠIn format
Ġpro spe
ĠRe par
ĠAl uminium
Ġ0 7
ĠFl u
Ġapp end
inn ers
ĠPar allel
buch autor
Ġchar ges
ĠHalb insel
Ġexec utive
OD O
Ġschedule d
niss es
ĠberÃ¼cksicht igt
S en
S eite
m ain
ie gs
Ġv ital
ĠM ale
ĠD al
ĠP anzer
ĠH ass
Ġg am
Ġr are
Ġsp l
Ġum stritten
ian z
Ġ7 4
ĠHo uston
Ġcare fully
198 1
Ġcook ing
Pos ted
Ġrecogn ized
ĠBM W
b uf
c ohol
l och
er ie
Ġm g
ĠB ibel
ĠM D
ĠT ask
ĠF L
Ġz ip
ier endes
ĠEr lebnis
Ġat mosph
ĠPar ks
ĠGesch enk
gesch Ã¼tz
ĠEx pl
ĠKon stantin
off izier
Sch on
Ġsol ar
ĠWir d
stoff en
Ġkeep s
vis it
ĠKind heit
ĠIndustr ial
ĠBaum w
ĠWeiter hin
fil me
Ġjapan ischer
Ġgraph ics
Ġkauf te
c p
k ommt
Ġs itzen
le utnant
ĠB BC
ĠM is
ĠE X
and y
ach el
Ġge liefert
Ġdes selben
iel en
pp elt
ĠIn schrift
Ġhe aring
ĠAl ben
pr esent
ond a
lag ert
ĠBas il
ĠIns urance
produ kte
Ġworks he
Ġleben s
ĠBoch um
kÃ¼rz ung
B rite
B ounds
st Ã¤rke
ĠF okus
ĠW asch
Ġre q
ik ro
gr at
Ġad j
ĠProdu kten
Ġ186 4
Ġkomp lette
Ġhard ware
Ġhouse hold
Ġern st
Ġindividu elle
fried hof
fÃ¶rm ig
Ġther apy
ĠKonk urrenz
Ġd icht
un nen
Ġb ay
ge legen
ĠM alt
Ġp ure
ĠL an
Ġg ifts
ann y
ĠSch los
ei ro
ĠVer sch
Ġat tr
ĠDe kor
19 28
19 38
ĠBer ater
Id x
stit ute
Ġdec ades
Ġgest artet
ĠZug riff
ĠAnth ony
ĠZent imeter
M ost
Ġe gal
ro hr
ĠF ellow
sch te
and in
ĠSt ars
ow itz
ĠU til
af eln
od ie
ru ption
Ġex ists
Ġen han
Ġnoch mals
Ġ9 8
Er n
ĠOb ama
Ġseit her
ital ien
[] )
Ġbef est
Ġschn elle
ĠIde al
Ġconc entr
abet es
Ġguarante e
inu ier
D D
te ine
ĠS imple
le id
ĠG ord
ic ted
ĠK ay
ĠK ids
sch reiben
ĠR up
Ġer ot
Ġk illed
au be
Ġex port
ens is
Ġgew eiht
ĠWerk zeug
ĊĠĠĠĠĠĠĠĠĠĠĠĠĠĠĠĠĠĠĠĠĠĠĠĠĠĠĠĠĠĠĠĠ ĠĠĠĠĠĠĠ
ĠCons ult
ĠIst anbul
Ġintrodu ction
Ġdom estic
Ġofficial s
Ġconstant ly
ĠBeteil igung
B R
F OL
ĠS ource
Ġm Ã¤cht
Ġc p
Ġl iquid
Ġst imm
ran Ã§
Ġ3 50
ĠSp uren
ĠAus schuss
par ks
ĠKommun ikations
Ġextra ct
ĠEv a
Ġdep th
grenz ung
Ġaffe ct
Process or
c ers
f and
p es
s ign
á ¸
Ġs ud
Ã¤ den
ĠK ore
ĠL iv
Ġbe her
Ġdes pite
ĠMar co
Ġgen et
rÃ¤ der
Ġbet reibt
Ġ7 8
Ġbel ong
ams ung
Ġfl ash
Ġcolle cted
Ġerm or
Ġlov es
Ġsim pl
ĠeuropÃ¤ ische
ĠHir sch
Ġschwar ze
ĠDien ste
D ATA
er ten
Ġh art
ĠT iefe
ic i
ĠH ob
ĠR as
ĠN SDAP
Ġre ar
Ġr ender
ĠTe uf
Ġte a
Ġcomp lic
ĠY es
Ġwieder holt
ĠEx pression
ĠTr ier
Ġra di
rag ment
str asse
ĠMag azin
198 8
Ġbro ken
Ġmom ents
ĠViel falt
ĠVerl Ã¤ngerung
Sec urity
ĠFilmp rodu
s Ã¤tze
Ġs auber
Ġb order
Ġv ote
im i
ab schluss
ĠVer dienste
ĠDie go
Ġ18 30
Ġ9 7
Ġ7 1
Le x
16 04
co der
Ġpl ate
Ġgra b
ĠPl ant
ĠFil men
deutsch er
Ġmag net
ĠAud i
SI ZE
ĠGit arr
Ġabger issen
ĠFranÃ§ ois
. ",
b ist
v org
Ã¼ sten
Ġn Ã¤chst
ĠD eine
am as
ĠP akistan
ĠH enn
Ã¶ he
ĠN ag
sp itze
ib et
Ġcon v
ĠNe ckar
pro b
Ġber ichtete
Ġrec orded
ĠPh arm
Res ources
Ġger iet
kr ise
ĠSign al
abil itÃ¤t
ĠSum me
ĠÃĦnder ung
PersÃ¶n lichkeiten
Ġverhinder t
A lex
S il
n isch
t oken
on ischen
ie u
ĠW at
Ġbe auf
if ff
ĠU C
ĠZ one
ĠRe formation
Ġsch ema
ast ung
be c
Ġent re
ian er
ĠOr th
ĠWe is
ĠChrist opher
bes itzer
Ġend s
ĠBar th
AR D
Ġposition s
Ġinnov ation
ĠStock holm
Ġpers pective
ĠDÃ¶r fer
Ġproced ures
ĠVerstÃ¤nd nis
il st
ĠF uture
ĠV ision
Ġre venue
ok ing
iz ist
ian ische
row s
ĠPr in
ied s
elle d
ĠSÃ¼d ost
ĠSer ge
ĠWest falen
ĠStre ifen
Ġtyp ical
ĠZahl ungs
idel ines
.: .:
Ġparticip ants
ĠSchwar zw
Ġcollabor ation
Ġlands cape
Ã¤ll ig
ĠInstall ation
T M
ĠA gn
Ġv ib
Ġo s
am tes
ĠP az
ĠW erbung
ĠH arb
ĠL is
Ġk ommerziel
19 29
Ġall gemeine
je cted
fe ature
Ġspe ech
gem Ã¤ÃŁ
bo y
pf lanzen
Ġra il
Ġverb esser
ĠInnen stadt
ĠprÃ¤sent ieren
Ġcabin ets
spart ner
Ġerlang te
I hr
d est
z usammen
ĠS ession
ir ds
Ġver haftet
Ġnach gewiesen
19 25
Ġfe es
ĠGeb Ã¤udes
ĠMus ical
ĠSÃ¼d afrika
ather ine
spre chen
ĠKomp lex
Ġpres ents
Ġindividu ellen
ĠMem orial
wir ken
ĠAnder e
o a
er ber
ar gs
Ġf unny
ĠD NA
hr ung
ĠSt ifts
Ġis rael
Ã¤n glich
ĠEr stellung
ĠTh ree
20 21
ĠWe ing
Ġ0 6
own ed
cl ing
ogra pher
ĠzurÃ¼ck gegeben
ĠFr Ã¼hl
iven ess
other apie
Ġcr iminal
Ġturn s
ĠSpr ung
Child ren
ĠnÃ¶t ig
Kirchen gebÃ¤ude
Ġdou bt
ĠKabin ett
l iers
o ir
en ke
Ġh ire
ent h
ol id
ĠF at
ĠK orn
Ġto ugh
ĠC ivil
Ġun less
ak ten
Ġat om
Ġsh ut
ĠGe or
ĠLand tags
Ã¤hr ungs
upp e
Ġoff ens
amen te
Ġselbst stÃ¤nd
yr am
ĠReich es
ĠMot to
Ġter ror
Ġconsider ing
Ġfit ness
Ġfund ament
Ġzuge lassen
Ġgraph ic
Ġinstr ument
F ollow
f indung
ĠD IN
ĠF ly
ĠK av
ĠR enten
ach ment
ĠZ ell
ĠCh a
els on
ĠTr end
hel ms
ĠĊĠĊ ĠĊĠĊ
Ġiss ued
Ġequ ipped
ĠPra ct
Ġless ons
Ġliegen den
valid ate
comp are
gram me
ĠHu bert
sequ ent
ĠEben falls
Ġtal ent
ĠDok umente
L ower
p Ã¤dagog
ĠA y
ĠB Ã¤ume
st es
id x
sp rachen
Ġbis schen
du ate
ĠGr iff
Ġsh ares
let scher
ĠÂ °
ĠHaupt bahnhof
Auf grund
ĠBed ien
ĠErw Ã¤hnung
Ġern annte
ĠBu y
Ċĉĉĉĉĉĉ ĉ
Ġadvent ure
STAN CE
D estination
J vm
K S
L ie
W rite
n abr
Ġt ube
ĠD I
ĠR ÃŃo
ĠL ov
Ġk ompon
ĠO regon
ĠRe prÃ¤sentanten
19 78
Ġent worfen
ĠHaupt rolle
ĠOn t
hol ung
ĠPart ners
Ġfest gelegt
ĠÃĦ m
ĠDo zent
ĠTyp s
entry Set
ĠjÃ¼d ische
ĠPorn o
Ġassess ment
ĠAndr Ã©
izien z
F ach
J a
N etwork
al is
he ader
Ġb ond
ĠA venue
Ġp ussy
Ġc erem
ĠG ift
ĠV il
all eng
enn zeichnet
Ġbo ost
15 0
Ġmus ical
ĠAmer icans
ĠBro t
ĠÃ¤hn liche
ĠSilber medaille
Ġattra ctive
Ġeffect ively
ĠAust in
Ġpropos ed
nabr Ã¼ck
N ote
re lated
Ġo h
Ġp oker
ĠF ein
ĠW esen
Ġl aden
iv ia
ag ram
Ġso fa
19 20
ĠTe en
ĠMar io
Ġdire kte
Ġstand ing
Ġhol te
ĠRec ord
Ġfour th
ĠMel bourne
ĠIr land
ĠMeer es
Ã¶p fe
Ident ifier
ĠLeichtathlet ik
ugu ay
Ġanc ient
Ġappoint ment
C ustom
H ar
W eiter
d ale
f ound
h Ã¤usern
in ent
is or
ĠG on
ĠE cke
ra ut
and al
ĠZ eile
tr es
ĠEin kommen
ler in
Ġreturn s
ĠKon stru
ĠKon ferenz
Deutsch e
Ġsk ip
Ġreal ize
Ġsign al
ĠFranz isk
Ġstell ten
bÃ¼ ro
ĠPrem iere
ĠVorsitzen de
Ġhotel s
ĠKu gel
Ġcirc um
Men u
ĠJew ish
ĠRess ourcen
G A
Ġd ialog
Ġw ies
Ġc eil
ĠG a
ĠH us
ĠC it
Ġl agen
ĠJ ury
ien ds
Ã¤n zer
me ier
chn ungs
pro perties
ator in
ĠQu ell
lÃ¤ ub
esse e
Ġben annte
ĠBra z
ĠCor ps
Ġsw imming
Ġfac ing
How ever
ĠMerk male
Ġcondu cted
ĠThr on
Lin ie
ĠBundesver dienstkreuz
! âĢľ
C ounter
M IN
l abel
t ask
er ung
Ġb Ã¼rger
Ġf o
and el
pp ers
Ġne ur
ĠDe ep
Ġnot iced
ĠSte el
fa iled
ĠReich en
loy d
ĠText il
Ġident ified
Ġredu ced
Ġwichtig ste
Ġseem ed
bour g
ĠCapt ain
) ).
J oin
S ymbol
p df
y ou
Ġw et
Ġc ounty
Ġh all
ĠW iesen
ĠR eit
Ġbe gr
ĠJ ess
Ġge lingt
ĠSt ationen
id ays
Ġver folgt
out put
ute te
Ġ0 3
Ġbest immen
ĠAut omat
sg ruppe
Ġ> >
kon zept
ĠHar vard
Des ign
Ġrelat ive
Ġequ al
Ġinteress iert
ĠFrÃ¼h stÃ¼ck
Ġverste ht
% .
L ab
M ass
P lay
j ar
Ġa ben
ĠS ac
Ġf lav
ĠB ald
Ġp atch
ĠG or
Ġk ing
Ġge laden
ĠIn stagram
ne ys
Ġ" .
ĠDe kan
lo gen
ĠAb stract
Ġar gentin
ĠLand s
az itÃ¤t
ĠGem ark
Ġgest orben
Ġorgan ic
Ġintegr ated
Ġpresent ation
ĠfrÃ¼h ere
ĠKath arina
Ġforder te
Wil helm
hoen ix
M ay
p iegel
Ġa gr
Ġf Ã¤hrt
ĠB usch
Ġn utzt
Ġh osted
ĠP iet
ĠT oy
Ġj un
Ġj oy
ĠAl ice
fahr zeuge
ĠBet racht
ĠSpe ed
ĠLeip ziger
ĠgÃ¼nst ig
Ġexpla in
B atch
M Ã¶
i ÃŁ
Ä ħ
Ġs ac
ĠS ind
Ġf asc
Ġin folge
ĠL ess
Ġk it
Ġge g
tr itts
ib il
ho b
ĠBer ge
ĠVor stellungen
ble iben
Ġ8 1
Ġ8 3
Ġfe iern
Ġgem Ã¼t
Ġdr amat
ĠGast geber
ĠPrem ium
ĠChamp ions
Eis hockey
ĠWass ers
Disk ografie
Comm on
ĠExempl are
ĠOpp osition
vorsitzen der
supp orted
Ġaka dem
T hr
l Ã¤ndern
m utter
Ġa rab
Ġe ast
ĠB ucht
ĠP ader
im ental
ĠF ame
ab schnitt
Ġge ile
ien te
op ran
ĠVer handlungen
ĠRe ferenz
igen schaften
ĠAb lauf
ĠIm per
cl uding
Ġ8 4
ĠPf alz
âĢ¦ .
ĠOrt schaften
Ġatt ached
Ġappro ved
ĠKrieg sende
ĠFel der
Verein igtes
ĠKre bs
zi ologie
Ġparticip ate
fÃ¶rm igen
bn iz
ĠausdrÃ¼ck lich
k ette
Ġd ent
an on
Ġf ro
ĠA cht
ĠD y
Ġh ung
ĠF reis
ĠK Ã¼r
sch lossen
ĠL iver
Ġl ib
id get
Ġver standen
Ġwh om
Ġsch affte
ungs gebiet
lo h
rit iken
ĠAus stellungen
ĠSe hr
dem okrat
sh ut
Ġmehr mals
olle yball
De zember
ĠStra hl
stru ctor
Ġcho osing
ĠVolks zÃ¤hlung
wor ld
Ġoffen e
ĠHerzog tum
Ġbeeinfl usst
ĠErwachsen en
in v
Ã¼ ben
st age
ĠW ettbew
ist o
ĠJ ay
os c
00 00
ĠEin fach
Ġgen e
ateg orie
Ġpost ing
ĠExp edition
dis ziplin
ĠAufent halt
hedr ale
ĠBam berg
temper atur
c atch
z ellen
Ġ å
le ten
ĠB od
Ã¤ le
ĠE ier
ĠK la
ĠK ader
ĠW ende
ĠH ope
ĠR eiter
ĠL aser
Ġsich ern
Ġle iden
form ed
tra ce
ins eln
Ġgesch lagen
Ġcomm ission
Ġfound ation
stre ifen
Ġoft mals
ify ing
ĠKe ep
Ġexten ded
Ã¢ te
Ġhor se
lehn ung
1 20
R und
ar ett
em y
Ġer leich
Ã¼r tel
Ġver p
ĠSch Ã¼tzen
qu ir
sp f
19 79
ĠAus gaben
ĠAb d
ĠGem Ã¼se
Ġverb inden
Ġset up
ĠKont akte
ĠNieder landen
Ġdisc ip
bed arf
ĠKreis es
ĠTest ament
gre ifen
ĠVerkauf s
Ġpartners hip
ĠChallen ge
ĠNomin ierung
Ġeindeut ig
k ter
er am
Ġb ab
ĠG ent
Ġz ogen
ĠH P
ĠR it
ĠN E
ĠAn satz
ĠPr Ã¤sent
fol gs
Ġtra il
ĠUS S
ĠGesch lecht
schlieÃŁ en
Ġdel ay
Ein wohner
Ã¶m m
kon stru
US A
Ġmod ule
Ġbede uten
Ġmat ters
gere chnet
ĠHon or
ĠKommand o
Ġsowjet ischen
ĠlÃ¶ ste
tok oll
B ek
I tems
r ors
ĠB ah
ĠB uk
ĠF lex
ĠK Ã¤r
ĠL aus
ĠL az
der e
Ġk aiser
ĠZ it
ste tten
ĠAn reg
19 71
ĠAl an
Ġ7 3
ĠEx c
ĠPe er
sicht lich
ĠauÃŁer gewÃ¶hn
Ġ186 5
Ġabsol ut
ĠZe ug
Ġenc ounter
Ġdeb Ã¼t
ĠÃ¼b lich
Ġproduz ierte
Ġprin ted
ĠiP ad
K e
S onst
s ort
ĠA ge
ĠM ust
ĠM ob
ĠH ills
ĠC hen
ab ol
Ġst abil
Ġfor ec
och em
Ġas sets
Ġch ief
Ġum gewand
St a
tz t
Ġ8 2
De lete
ĠHand lungs
pla ys
Ġ% .
Ġbil deten
ĠHÃ¶he punkt
Ġausgew iesen
angeb ote
Ġorigin ally
ĠFranzÃ¶s isch
G H
K om
M I
b ring
m isch
t age
Ê ¿
un ken
at tribute
ar ium
Ġf ishing
Ġn a
ig ern
Ġge arbeitet
Ġfor ces
ĠZ ubehÃ¶r
ĠIn fo
ĠDe ath
fer ences
ĠAb sol
ivers ary
ĠFl Ã¼ss
ett i
ĠSte p
ĠGeb ir
ĠHoch stift
ĠKinder garten
wohn ung
ĠJohann a
Se lect
ĠLin ux
ĠDu ke
ĠDat abase
Ġerreich bar
Ġsil ber
FI EL
ĠViertel finale
ĊĠĠĠĠĠĠĠĠĠĠĠĠĠĠĠĠĠĠĠĠ ĉ
ĠverlÃ¤ng ert
F ebru
k ong
o fen
le isten
Ġm a
ĠB E
ĠD aily
Ġein gebaut
ĠT Ã¤ter
sch Ã¼tzen
ĠW isconsin
ĠR out
ber ge
Ġden ken
ĠAn wendungen
qu art
ĠRe ifen
Ġsch eiterte
ĠVor lage
ĠEl s
Ġcar ried
ush ing
LO C
ĠAp ost
Ġstamm te
Ġumfang reiche
Ġstaat lichen
Wel come
Ġletzt lich
I hre
M C
W asser
s ql
| -
Ġa gencies
ar film
Ġb at
ĠB arb
ic ient
ĠL ob
Ġg un
ck te
ĠJ Ã¤ger
Ġsp ir
19 26
Ċĉĉ Ċĉ
ĠTe lef
ĠCh i
ĠGe fÃ¼
Ar gs
ĠBes tellung
Ġexper iment
Ġsur prise
iges etzt
kon struktion
ĠHerr scher
Ġtre ated
ĠTre ff
Ġmill ions
hor st
Ġhon or
ĠAf ghan
Ġhor izont
Ġinstru ctions
ĠKandid aten
Cert ificate
N et
N ummer
W A
k al
Ġd ental
Ġa w
Ġs ides
Ġb attle
ge ist
Ġin ne
ĠF ashion
ed u
ĠL ac
ĠSt if
ges ted
Re v
Ġ8 6
fahr ung
Ġstat istics
Ġfind est
ĠPart ien
Ġbekannt esten
ĠGl ad
ĠBi ografie
ĠSol id
Not ification
ĠCamp us
Ġcook ies
prof it
ĠDet roit
******** ********
Ġwhe el
ĠMaxim ilian
ĠRuh estand
Hinter grund
Ġgg f
P AT
m Ã¼n
p ann
or ders
at in
ĠG au
ĠW he
ĠH altung
ĠH amilton
ĠN O
ĠN utzen
Ġk ost
ĠIn halts
Ġwe alth
ĠBe fore
ĠJahr gang
ĠPro zesse
19 72
ook ie
Ġste uer
min der
Ġgr id
Ġmon at
ĠWh it
Ġvis ited
Ġfest ge
Ġhealth care
rÃ¤n ke
iale kt
Ġbetre ff
Ġempf angen
---------------- ----------------
Ġlic ens
G L
t akt
Ġd einen
an es
ĠS imp
Ġv end
Ġein erseits
ĠF ett
ĠF usion
ĠK ate
ĠH Ã¶l
ĠH agen
ĠAn aly
Ġ5 000
Ġ9 2
ĠEs c
Ġbo ot
Ġph arm
ĠSpiel film
Ġinterest s
htt ps
ĠElect ric
" -
F ranzÃ¶s
J azz
M ein
g ert
s u
Â §
ge wer
Ã¼ pf
ĠA cker
Ġan grenzen
Ã¤ p
ro d
Ġc able
ĠR au
ĠV ancouver
ein richtungen
ĠZ DF
ĠIn putStream
up le
Ã¤t igung
gesch ichten
ĠX X
Ġgef angen
Ġfound ed
bed ded
Ġfact s
Ġbig ger
ĠStÃ¤d t
Ass ign
Ġbedeut ende
Dis play
cycl op
L aut
d ir
er ben
Ġin ches
ĠM ix
Ġp hr
ĠG le
sch el
ĠC ount
ĠO berg
Ġso ul
19 44
Ġgen utz
ĠUnivers al
ĠPh ant
iste te
ĠInd iana
ĠChrist us
ĠWh ere
Ġem phas
ohl en
Cl ick
ĠPat ent
room s
čĊ čĊĉ
film ung
ĠTre ppen
Ġaccess ible
ĠFreund schaft
ĠRein hard
ĠGest alt
Ġlik es
stehen den
ĠKonz ern
uert o
Ġmil k
ĠSchÃ¼l ern
9 00
V ideo
s um
Ġs ad
ĠA TP
ĠK ick
ĠL isa
ĠV illage
Re port
ĠVor feld
Ġqu otes
ri or
ike a
Ġspe aking
Ġvers ions
ĠNeu zeit
Ġfort an
Ġausgest rahlt
Ġpick ed
ĠSchwar zen
Ġbrow se
ĠHT ML
Ġbeob achtet
ĠPersÃ¶n lichkeiten
R ender
S ite
n Ã¼tz
in de
Ġ1 18
Ġh idden
ĠH Ã¤nde
ĠC ore
end el
Ġsch olar
ĠBe an
19 60
19 23
Ġus ual
berg s
oh an
Th anks
ek ing
Ã¼t tel
grÃ¼n den
ĠVers ionen
Ġevent ually
ĠDis play
ham mer
Ġconf irm
Ġresource GroupName
ĠPublik ationen
Ġgradu ate
Ġengag ierte
w irt
is ierungs
an ke
Ġs alt
ĠG allen
ĠK ub
ĠK alender
ra c
ra it
ĠR ic
ĠL ande
ĠC el
Ġk onserv
Ġmit ten
Ġwar rant
19 73
ĠBer ichte
ĠTr ink
ĠTr ennung
Ge gen
fa ction
Ġlist ing
Ġinner en
ĠSant i
ĠRem ote
lemen ted
Ġple asure
fÃ¶rm ige
Ġschwed ischer
Ġausgeb ildet
ĠWalk er
Ġeigent liche
Ġaccur ate
Pred icate
ĠplÃ¶tz lich
andin av
k ol
or ium
ĠA gency
Ġp ic
ĠW esentlichen
ĠL ip
ĠC ell
ĠC laus
ĠN atÃ¼rlich
ĠJ oin
Ġge kauft
ĠO il
iel ler
Ġr um
Ã¼n scht
Ġbei der
Ġqu ote
Ġges tern
Ġhand eln
leit ungen
Ge org
ĠSk la
Ġgab en
ĠKn ochen
fÃ¤ llt
Ġcall back
ĠMa ÃŁe
Ġcamp us
hab t
ĠAdmin istration
ĠBesatz ung
Dec imal
Mart in
L P
V iele
f i
k ommun
Ġw inner
al p
Ġf ell
ĠA kten
Ġ1 12
ĠK ro
ĠR och
Ġre pl
ĠSt Ã¤rke
ou is
Ġat temp
ges pr
Ġro ugh
pro ject
imm y
ĠMon ument
ograf ische
Ġrest r
ament o
klÃ¤r t
Ġentwick elten
ĠPlan et
Ġlink ed
ĠMisch ung
d raw
w ing
Ċ ĠĠĠĠĠĠ
Ġt ells
ie ge
or o
Ġan f
ĠG lass
ĠE ro
ĠC art
ĠSt yle
ow itsch
ver hÃ¤ltnis
19 19
ult an
St orage
Ġ8 9
Ġ12 00
ĠSh aw
ĠSpiel ern
ĠPart ie
ĠAnt ike
ENT ER
ĠEmp ire
incip al
Ġcloth ing
ĠInner en
Ġerheb lich
ĠeigenstÃ¤nd ige
F ull
Ã¼ hen
ĠB rem
ĠD Ã¤m
Ġ1 17
Ġc arbon
ĠF ollow
em pty
Ġl yr
Ġk Ã¼nst
ĠO z
Ġde bt
Ġab hÃ¤ngig
Ġch icken
ĠBe fest
be griff
ĠCh at
ĠCh ap
par ameter
sk irche
gesch icht
Ġsk ill
ĠWohn ungen
spre chend
ĠMag net
IC E
ĠHil f
ĠRuss ia
ĠRober ts
ĠDesign s
zÃ¼ gen
Ġren ew
ĠPsych ologie
Ġdivers en
ĠbeschÃ¤ft igte
Ġbege g
Ġaktuell es
ĠVoraus setzungen
Ġverab schie
G S
M D
U RE
e ber
h ten
k lassen
v enz
in stitut
Ġn erv
am ts
ra ph
Ġbe at
Ġnew sp
ail ure
ĠWe iler
Ġtra cks
Ġag gress
mar ks
Sie ger
fra uen
esent liche
Ġeinge gliedert
Ġpay ing
ĠEntscheid ungen
ĠDir igent
Ġtransport ation
Ġaffe cted
Ġign ore
ĠWach stum
Ġspirit ual
waren ess
ĠmaÃŁ geblich
ĠWeib chen
Ġbewe gt
m os
ar ation
Ġm oral
ic als
Ġbe wohn
Ġge druck
ĠSt imm
Ġy es
ĠJahr buch
19 76
ite kt
ĠAb satz
ĠAb wehr
ER S
ĠZw ar
str Ã¶m
verb Ã¤nde
wissenschaft lichen
DE FAULT
196 9
ĠMer cedes
Ġgre w
Ġkont inuier
ĠniederlÃ¤nd ischer
ĠTemperatur en
ĠGene hm
Ġsav ed
ĠSchlaf zimmer
Ġsamm eln
BÃ¼rger meister
ĠbeschÃ¤d igt
B us
a ine
m achen
on ic
Ġt aught
Ġv ollen
ĠB lat
ĠP unk
ĠW Ã¼nsche
em pf
Ġbe zÃ¼glich
ĠC in
ĠU V
ver g
qu ellen
ĠEr hebung
ĠBe hinder
per rt
ac ious
Ġ9 1
imm ern
ĠQu ality
Ġph ase
fr ies
198 3
Ġant iken
Ġfood s
emin ar
current Time
ĠJac ques
Ġumfass ende
ĠMarc us
ĠAtlant a
Ġengag iert
Pass word
Down load
ĠNap ole
alleng ing
D okument
L ear
Ġb lau
Ġc ategories
lich ten
ĠEr be
ĠUn it
Ġwo oden
fin det
sk op
Ġgl ad
ĠHen ri
Rel ation
Ġzerst Ã¶r
ĠKing dom
Ġerziel en
Ġwid mete
ĠVerteid igung
Ġeigent lichen
fÃ¤ll ig
ĠOrch estra
1 10
? "
S el
k rit
Ġd iam
an cing
Ġw ra
Ġw ann
Ġb ags
Ġf as
ĠB og
Ġan alyt
Ġp od
ent ums
ĠP ixel
ĠI ss
ĠH Ã¼r
ĠC ase
ul ing
ĠSt aub
ver k
Ġauf merksam
ub auen
ert ungen
ard in
ac ted
ĠPh Ã¤n
Ġpl anned
Ġsol o
ĠNord amerika
Ġander erseits
mÃ¤ cht
spre ch
Ġmeet ings
ĠFlor ian
usst sein
Gener ator
ĠVerteid igungs
Mem ory
Ġnorm ally
g asse
} .
Ġan al
ĠP ent
ĠT akt
ier re
ĠJ Ã¶rg
ap olis
Ġch art
19 74
gel Ã¤nde
Ġ0 2
ĠFre il
Ġthem at
org ungs
ĠCl ar
ĠUr sprung
Ġfest ival
figur ations
On ce
Ġerr ors
ĠErk enntnis
Ġviol ence
Ġil legal
Ġsitu ations
+ -
S ing
j son
k rank
an zeigen
ĠS yl
ĠA lo
ĠA uÃŁ
ĠG ol
ĠG Ã¶r
ĠE astern
Ġbe zogen
ber ater
ĠSt ro
ĠSch ult
Ġr is
ĠAn ten
sp olitik
Ġwe ap
enn is
ace ae
IN STANCE
ĠPh oto
ĠTr ip
Ġfre edom
ĠÃĸsterreich s
Ġprogram me
kn Ã¼p
ĠWissen schafts
Ġcy cle
wÃ¤rt igen
Ġimpress ive
Ehr ungen
ĠSchwier igkeiten
Ġdenk mal
ydra ul
" ),
T itle
c enter
u der
č ĊĠĠĠĠĠĠĠĠĠ
ĠM ul
ĠH allen
ĠL aub
Ġth orough
Ġk Ã¼mm
Ġge leitet
Ã¤t tern
Ġdar stellen
Ġgesch ickt
ĠCon rad
ĠVerb indungs
Ġtechn ique
Ġkon zip
Ġoper ate
Ġgrow n
ĠKo alition
liegen de
IL L
ĠRÃ¶ mer
Aut o
ĠKomment are
H ello
T it
j av
u ing
v ements
Ġs ang
al ts
Ġb ild
ĠF ell
et on
Ġauf einander
ran ten
ust ic
iz able
Ġunter lag
ĠQu ery
dition al
lement s
Ġsub mitted
ĠIs lands
ĠDurch fÃ¼hrung
Reg ie
iol oge
Ġjapan ische
ĠHei z
ĠmilitÃ¤r ischen
Ġfal sch
O pt
T urn
n ic
o be
v it
Ġ ^
ĠF erner
ĠG ute
Ġbe ar
ĠV II
ĠJ Ã¼n
ĠâĢ Ļ
ĠAr ena
ĠPro gr
ĠMar sch
eng ers
rif tsteller
Ġoff ices
ĠSpiel klasse
Ġgef Ã¤r
bre ite
Ġvalid ate
ĠBege gnung
Ã¤rt ner
Pres ent
ĠKob lenz
Ġumgewand elt
D ruck
H C
I K
a ire
m Ã¤nn
Ġw Ã¤chst
ĠS ich
Ġf er
Ġin frastructure
ĠB ug
ĠM az
ĠF inger
ĠV ul
ĠZ ert
qu ert
Ġ18 15
amm lungen
ĠNe uk
An fang
yp en
ĠOber Ã¶sterreich
hel ess
uk a
Ġche ese
Ġmed icine
Ġac cepted
chten stein
famil ien
ĠPubl ishing
Ġign or
gun sten
Ġgarant iert
Ġfoll ows
B und
S ER
T F
e xt
k Ã¼nstler
Ġf icken
Ġin tel
ĠB orn
ĠD istanz
ĠW i
ĠN oten
Ġauf zu
ĠIn stanz
op ath
qu ality
ĠBe arbeitung
ĠGr ill
Ġ9 4
ĠFl otte
Ġgew inn
fin anz
hand elt
ĠJan e
bl ings
ĠEd in
ĠBad minton
Sh op
Ġworks hop
Welt meister
ĠStat istik
Column s
ĠHei de
Ġfung ierte
Ġextre me
ĠdebÃ¼t ierte
F low
u den
w atch
Ġt ut
le e
Ġan sch
ĠM aj
ĠC ON
Ġr umÃ¤n
Ġch ocolate
19 11
Ġsh ops
aw s
tes te
ST AT
figur en
ĠGrÃ¼n de
Ġlet ters
Ġemploy ee
Ġspan ische
Supp ort
ĠHoff nung
V ier
b ur
Ã ¯
in th
ĠS i
Ġth erm
ĠSch lÃ¤
Ġde grees
Ġat tended
oc on
ĠEn kel
tra cking
wer ben
Ã¶l be
ĠGra ben
ĠPf licht
Ġger ingen
Ġeing est
ĠStand ards
ĠAka dem
ĠÃ¼b lichen
ĠVize prÃ¤sident
ĠGlauben s
ĠInstitution en
ĠÃ¶rt lichen
endo ktor
M sg
U t
n acht
p fe
č ĊĠĠĠĠĠĠĠĠĠĠĠĠĠĠĠĠĠĠĠĠĠĠĠ
on ed
Ġe cht
ĠP le
ĠP ear
os es
ĠO K
Ġis lam
af ter
qu ote
sp lan
ĠVer f
Ġ" +
auf lÃ¶sung
ph abet
oun ge
ĠAuf sichts
ett a
ays ia
ĠTra de
ĠKl ub
Ġsupp osed
bes te
ĠSal es
mut able
Ġorgan ized
Ġter min
ĠAustr ia
196 7
Ġtw ice
ĠAdmin istrat
Ġdetermin ed
ĠFant asy
Ġuntersch rieb
? âĢĿ
B ern
B lack
Ġa men
re ll
ĠS ide
Ġc ro
ĠP ionier
ra iner
ĠH obby
ĠN assau
Ġge fe
ĠSch enk
âĢĻ ,
Ġch allenging
In halt
19 35
19 32
Ġvor kommen
ĠSe kretÃ¤r
Ex tension
oth y
Ġloc ale
Ġsub stant
Ġgra u
Ġresearch ers
ĠSyn ag
ĠVe ctor
Ġdream s
ĠJord an
FOL LOW
h aven
u tel
w enn
Ġ ~
Ġs amt
Ġw und
Ġh ang
ĠH ahn
ĠH aup
ĠZ en
ĠRe ktor
ĠRe chnung
Ġsch lÃ¤
Ġle hrte
Ġ18 58
ĠSie gen
ĠSe ktion
mp ath
Er zeugt
Ġtr ib
ĠChrist i
schl Ã¼sse
Ġpolit ischer
ĠKle idung
ĠOs nabrÃ¼ck
Ġelect rical
ĠPhys iker
FI X
ĠLaur a
Ġdigit alen
ĠReihen folge
Ġhinzuge fÃ¼gt
ĠLiver pool
C ategory
N onn
f uÃŁ
f are
m Ã¤r
s ed
Ã °
Ġs ql
ge ts
el ing
ĠT alk
ĠK riterien
ed el
ĠN y
Ġge heim
se arch
Ġex cess
Ġme at
Ġ18 56
ĠPr ince
Ġob lig
Ġhand ling
Mit te
Mit tel
ari us
ĠCo ach
Tra iner
Ã¼ll en
ĠHistor ic
Mod ell
ĠZwe cke
ĠzusÃ¤tz lichen
ĠSmart phone
Ġstopp ed
Ġsympt oms
A g
W R
es er
Ġf emin
Ġin ten
ĠA hm
Ġan x
ro se
Ġh insichtlich
ĠL ith
Ġg ent
Ġge ar
ĠO range
ĠIn se
Ġr ichtet
Ġab wechs
19 24
Re zeption
ieren der
Ġbut ter
old t
rÃ¤ ften
ĠDeutsch es
ĠGra y
pf el
Ġinv ited
Bu ild
ĠGen f
Ġmatch ing
Vor pommern
ĠLat in
Ġmaxim ale
ĠCost a
Ġbegeister t
2 50
G R
P ark
b undes
d ichte
d ated
z uge
il deten
ut a
ĠP ink
ĠF lan
ĠC atholic
ĠN ature
Ġsch eme
Ġle istungs
old s
pl Ã¤tzen
enden ce
ins atz
Ġsk y
Ġhistor ic
Ġperform ing
fehl er
ĠUl m
ĠKind es
ĠKin os
Ġhei ÃŁ
Per iod
Ġult imate
Wind ow
ĠLuf tw
ĠLuz ern
W o
m outh
at eway
ĠS ale
Ġe ignet
Ã¼ g
Ġv eter
il iate
Ġp or
ĠP osten
ĠG uer
ĠR af
ul ous
ĠN ATO
Ġfor ced
ĠVer pack
Ġwar n
ru der
Ġ18 59
Ġman che
Ex press
cc a
teil ten
ole k
Ġel ig
Ġgener ated
Ġreal isiert
ĠProv inzen
Ġgewann en
ĠWeiter lesen
kan al
Produ ktion
Ġkont akt
Exec utor
Ġexhib ition
Ġeingew eiht
ĠPader born
H allo
K or
O k
S K
h Ã¤lter
k Ã¼hl
Ġs ew
Ġs oph
Ġe hr
Ġh ole
ĠT s
ĠK roat
ĠI tem
et tet
ĠL ichten
Ġbe herr
Ġer fasst
Ġy ard
Ġfor med
get Field
ĠAr rays
ure au
ĠEin blick
rei hen
ĠUnter kunft
Ġ7 9
sk ar
Ġsc an
ĠSpiel s
str ateg
Ġplan et
ĠPl Ã¤nen
ĠBÃ¼rger liches
Ġmain ly
ĠHall owe
Ġqualif iziert
Hol der
Ġchrist lichen
ĠSoph ie
<?<? <?<?
L ife
L ayer
x i
Ġa part
ge fÃ¼hl
ro ff
Ġh armon
ĠH els
Ġg aming
ul ated
den de
Ġk ill
ou red
Ġzu gunsten
Ġon going
aus stattung
ru gen
Ġse quence
ick y
19 36
oc aust
ĠBer Ã¼cksicht
stell erin
off er
ĠMan ufact
ĠCar ter
Ġfile d
Ġmember ship
ĠKomp etenz
produ zent
ĠIr ish
Fl ug
ĠAuss agen
Ġpoln ischer
Ġexpect ations
Ġrequ ested
Ġprogramm ing
H igh
I X
S aison
W ID
g Ã¤nger
on omen
Ġt ap
Ġs hr
Ġder selben
Ġc ake
ĠF avor
ĠC urrent
Ġauf gel
Ġle ichte
ĠÃ¼ber gebenen
19 34
me yer
ock el
Ġfr ustr
man ischen
ĠGes ichts
ĠDies el
ĠÃĸ konom
Ġfl ower
Ġnun mehr
ĠCont ainer
ĠDienst ag
Ġprote in
Ġinstit utions
E Mail
U UID
r ia
ĠT am
ĠT ool
ĠW upp
Ã¶ te
Ġer zeugen
ĠU rauf
ver halten
Ġr Ã¤um
sp reis
age ments
ser ien
Ġmark ed
Ġerfolg ten
ĠTo uch
Reg iment
ĠÃ¶ff nen
ĠLeg islat
ĠErzÃ¤hl ung
ĠniederlÃ¤nd ischen
PRO PER
ĠRaj on
KNO B
Ġtom orrow
T otal
p us
ĠA PI
ĠM asse
ĠM indest
Ġh l
ĠP om
ĠE y
Ġl as
Ġver trieben
for dern
ĠDe te
19 14
19 77
Ġent ries
Ġunter teilt
reich es
uk i
Ġpass enden
ĠMo or
verb indungen
yl on
SS R
Ġsuper ior
Ġconf ir
Ġindustr ies
Ġbere chnet
Ġkrit isiert
ĠpreuÃŁ ischer
Verkehr s
ĠBuild ing
ĠBrow ser
ĠPast or
ĠBeweg ungs
ĠPreuÃŁ ischen
Ġsustain able
Ġannot ation
Ġentre prene
ĠEdin burgh
Nonn ull
B ank
L ED
S F
k ers
p g
Ġm ath
ĠA er
Ġv ierte
Ġz one
ul ate
ĠO F
ind s
Ġ18 54
19 22
iger ung
En coding
Ġcl uster
ellen ce
ĠBundes land
Ġcons ists
Ġbesch loss
reib ungen
vert retung
ĠBesch luss
Ġfac ilit
ĠVeranst altungs
Ġcra zy
Ãĸsterreich er
Ġsus p
wander ung
ĠSqu are
Ġconfl ict
C LASS
W ord
f ire
Ġt iny
ĠS ke
ĠS erb
ĠS amsung
Ġan gest
ĠC ab
Ġl ucky
ers teller
Ġauf nehmen
aus geber
Ġwe iss
fer red
Ġvor Ã¼ber
Re ich
iss a
Ġro te
De vice
Ġknow ing
Ġange kÃ¼nd
Ġ% )
Ġweek ly
ĠForsch ungen
Ġtro uble
ĠunterstÃ¼tz te
ĠPil ot
Fr ame
Ġcapt ure
ĠdÃ¤n ischen
fÃ¼ll ung
L uft
d lich
n ischer
p ay
w ein
ch el
Ġd auert
ĠS O
ol ine
ĠR ange
iv an
Ġme al
Ġ18 46
Ġman chen
auf gaben
ens ation
Ġste igt
Ġsm ile
lekt ron
ĠApp lication
Ã¤m me
ĠStaats anwalt
Ã¤mp fung
war f
ĠWinter spiele
ĠAg ent
Ġcap able
Ph ys
Stand ard
Ġoffic er
Ġnormal en
eme ister
TER N
ĠPfer d
ĠSym ph
Fol der
Ġgesetz lichen
Ġfrequ ently
Ġreve aled
lah oma
ĠZerst Ã¶rung
ĠGesell schafts
F ot
S al
S zene
in stance
in formationen
re ff
Ġm ature
us a
ĠB reit
Ġh am
ĠG ur
ĠE R
ĠK enntnis
sch i
Ġg od
est het
Ġdes ktop
ce ived
pe te
ok u
St re
ĠLand gemeinde
Ġtra fen
uer ei
Ã¤s se
ĠzurÃ¼ck kehr
ott a
ĠSta ates
ĠBundes regierung
ĠChrist ine
Ġben utz
ĠMo ore
spe zif
ÃŃ k
ĠPat ri
196 8
Ġair port
hÃ¶ hung
Ġmot ion
ĠMiss ouri
End point
ĠKer amik
Ġbesonder er
ĠWettbewerb s
ĠUrs ache
ĠTschech os
Ġkeiner lei
ĠBerat ungs
c ell
l inger
u y
le idung
Ġm uÃŁ
Ġv it
Ġv illa
ĠB eth
Ġn odes
ig nete
ĠT Ã¤tigkeiten
ĠG umm
ĠK ot
ĠK openhagen
Ġr ig
Ġj ahr
ĠRe ife
Ġab sor
get R
19 21
ĠTh rough
Ġte x
los er
Ġher zlich
mann schaften
Pro p
Th ank
Ġviel es
ĠMed icine
rue ft
Ġprof iles
Ġgef Ã¶rdert
Ġem otion
ĠEd itor
Hand le
Ġaufge hoben
trÃ¤ cht
fest ival
ĠJob s
Ġerf Ã¤hrt
Ġmonitor ing
Ġabgeb rochen
ĠAuseinanders etzung
l t
v ari
in ternal
ur teilung
ĠA ktionen
ĠD ame
Ġc lock
ĠF unction
ĠO ak
id ance
Ġle tt
ĠSie ge
ĠNach halt
Ġfr isch
kl en
Par se
Ġfest gestellt
ĠWand el
ĠSaar brÃ¼cken
ĠSaf ety
opÃ¤d ie
ĠHallowe en
R aum
f unction
Ġ iv
an as
Ġs itzt
or ks
le tes
Ġm ixed
ĠB auten
sch rau
ĠW is
ber gen
Ġver Ã¤ndern
tr as
ĠVer schw
ĠRe zens
ĠAr me
be auftrag
Ġunter schieden
ĠCh rom
gew Ã¤ch
Ġtr igger
ĠMon uments
ĠCl ark
ĠWor ten
ĠGu y
Ġerr ichteten
ĠGold medaille
ĠHeil bronn
Lo ad
ĠKomm andeur
Ġele ction
ĠInvest ment
ĊĠĠĠĠ ĊĠĠĠ
Famil ien
Ġzeich net
ĠDemokrat ischen
Ġdigit ale
Ġgez Ã¤hlt
S imple
es ource
ĠT ran
ra gend
ten nis
ĠC ous
id met
Ġzu ges
get Resource
ĠBe cker
19 31
ĠAl lein
ĠVor gang
ĠFl ash
sw itch
sport ler
Cl ub
Ġaufge teilt
ĠRed aktion
ĠJournal isten
Ġyoung er
Ġstaat liche
Ġhers elf
Ġgrund legen
ĠErot ik
ĠTai wan
D enk
E hren
g ate
Ã¼ tt
Ġv i
ĠF uss
ĠI ce
ĠN HL
Ġk ar
Ġk Ã¤mpfen
ein richtung
ĠJ en
Ġre putation
ou x
Ġdem okrat
ĠVer y
ern t
ĠCh ange
Ġpre v
ĠFra ktion
Ġhier zu
Cl uster
wor ten
196 2
Ġoptim ale
ĠSter ne
ĠSter nen
ĠDro gen
ĠmilitÃ¤r ische
ĠKurfÃ¼r st
Ġsud den
B al
U V
d og
k rat
Ġt ub
st Ã¼cken
de f
Ġl ady
ĠU A
ĠIn haber
ĠDe fault
ick te
19 37
Ġes cape
ĠEin zugs
ĠEn joy
zen z
ĠAll ianz
Ġbre ath
by tes
ĠDurch schnitts
ĠLei bniz
umm y
ĠRel ief
Ġmag ic
ĠGesetz es
Arch itektur
ĠFass ade
Ġprefer red
ĠVorder grund
ĠPersÃ¶n lichkeit
Ġsorg te
Dom ain
ĠSchicks al
Ġatmosph ere
D istr
Ġ ul
Ġt ran
Ġt elling
ĠA ur
ĠB ibliothe
ĠP est
ĠC hl
Ġer lebte
Ġge gangen
ĠSch um
Ġpro of
19 41
ĠTh ai
ĠNach lass
Ġ9 3
Ġro se
ock e
nis sen
ĠMen gen
ĠMittel meer
Ġnie mand
Ã¨ res
ĠEv ans
Char acter
kor de
ĠAv ailable
ĠVis it
Ġbetre ut
ti rol
Ġcompar ison
Ġanbie ten
Dav id
ĠGord on
7 00
M s
N LS
W atch
Ġt ur
Ġw ander
Ġw Ã¼nschen
ĠS ax
ĠB B
Ġh aus
ent z
et ition
hr ingen
ĠR hyth
ĠJ ugoslaw
ĠU E
ĠSch Ã¤d
ĠIn sol
Ġcon ver
omm y
Ġ4 50
Ġbes tellt
ĠFl ach
Ġgew issen
Ġfin ance
Ġgr ass
Ġrec ording
", "
Er stellt
Ġsho oting
ĠMed ik
alle utnant
ĠRad i
!! !!
ĠAnfang s
ĠGeneral major
ĠSÃ¼ ÃŁ
Ġexec ution
ĠZust immung
Her r
Dat abase
Ġsignificant ly
ĠCru z
h armon
in stall
Ġa warded
le itete
Ġv intage
ĠB utter
Ġc orn
ĠK unde
ĠR ight
ĠR unden
ĠC ome
ver kauf
kt iven
ĠAn pass
erv ers
tel finale
Ġte lefon
ĠSte iermark
bl og
ĠGew inner
Ġrest lichen
ias ieger
Ġabge lehnt
196 3
Ġless on
ĠTex ten
ĠLog o
Ġinstall iert
Ġemploy ment
Ġleg it
verl ust
currentTime Millis
R eihe
d re
e u
t ree
u eller
Ġt a
Ġs tet
Ġm ic
Ġn one
ĠG oth
sch ema
Ġto urn
Ġl Ã¤nd
Ġl uck
ach se
ĠZ wer
Ġver zeichnet
Ġcon tribute
Ġcon sequ
19 50
tell ten
ĠMar athon
ĠNe ug
rÃ¤ g
iker in
ĠKon stanz
pf alz
ĠKle ink
ĠZeich nungen
Ġmem ories
ĠerhÃ¶ hen
Ġserious ly
ĠBege gn
Ġnut rit
Strateg y
. [
S ummary
l on
Ġd ot
Ġt ank
Ġm and
em en
ĠC onn
Ġl ake
ĠN i
ĠSt Ã¼r
ien e
ĠVer pflicht
Ġnew ly
ake te
pro ble
ĠQu est
Ġprodu cing
ĠCar lo
ĠSel f
ĠPan el
Ġclos er
ĠImp ro
Date Time
Ġenter prise
ĠWeihn achten
ĠFinn land
Ġque ue
ĠGemeinder at
Sow jet
F ree
I Z
P T
Ġd rag
ĠS ara
Ġf urn
ĠA tel
Ġ1 16
ĠF Ã¤lle
ĠE sch
sch les
ĠR Ã¤
ĠSt ick
Ġst ainless
Ġver ring
og ramm
qu et
Ġso le
erk rank
Exception Constants
ĠSchw estern
Ġev ol
ograph ischen
Ġsol ve
ĠBand s
back tracking
Ġzwe if
UT F
gesetz es
Ġbedroom s
ĠDub lin
ĠBran chen
Ġwire less
Ġdanger ous
F ont
p Ã¤dagoge
u ine
it ative
an ter
Ġm Ã¼sse
ĠB uen
il o
ĠM es
Ġ1 13
Ġc tx
ĠP i
em ester
ĠR acing
ĠN ut
Ġer e
Ġge p
ĠSt ipend
Ġr asch
Ġpro xy
Ġj ene
ĠEin z
fe kt
Ġbes ter
res te
Ġinter active
Ġjust ice
hand els
ĠDr ive
ĠSal v
ĠWor te
Ġinternational er
Met ric
Sp an
Option al
Ġwissenschaft licher
Rel ig
ĠCap ital
Co uld
Ġwid ely
ĠMach ine
ĠIdent itÃ¤t
ĠlÃ¤ng st
ĠCorn el
Ġsinn voll
ĠKonzer te
Ġbedeutend sten
ĠBerÃ¼cksicht igung
J J
f Ã¤nger
n umber
s ingle
Ñ ĥ
Ġ ikea
es tet
it as
Ġb uff
Ġin ch
ĠW lad
ĠH appy
ĠC ape
Ġth re
ĠN AS
est one
la uch
Ġaus zu
amp a
ren ce
Sch utz
leg ungen
Ġvers orgt
ĠOber bÃ¼rgermeister
Ċĉĉĉĉ ĉĉĉĉ
eiter ten
Ġmin ing
Ġtechn isch
ĠPhil ip
Ġbed ient
Ġrece iving
ĠMont real
ĠBru ce
ĠFÃ¼hr ungs
Ġconcern ed
Ġdur able
ĠJos h
ĠGeschle chts
ĠInternets eite
ĠBuffer ed
Ġerkenn bar
Z usammen
c in
l Ã¶s
he ll
ĠA sk
ĠB ast
ĠK ansas
ĠH af
Ġl Ã¶sen
aus ende
ip ts
Ġ18 55
sh afen
ash i
RE D
ĠHol y
ĠOff icer
ĠPat ient
ĠSeit dem
Ġturn ing
Ġarch Ã¤
Ġfinanz ielle
Ġgek ennzeichnet
bas is
ĠFun c
Ġimag ine
ĠTerr asse
Ġincor por
sparte i
ocrat ic
F ootball
G O
K ilometer
p ur
ch annel
Ġt s
Ġs erb
ĠS ag
ĠS ri
ĠB j
Ġp ill
ĠW ink
ĠC C
ĠC ow
ber eiten
ĠJ i
la yer
ver arbeitung
ĠEr haltung
get Path
Ġen v
Ġpr icing
sh op
iss ue
sk on
min a
Ġrec ipes
pl us
ĠCon f
ps ych
Ġpublic ation
fra gt
gra ph
Ġangeb lich
ĠChem nitz
ĠErd be
ĠDres dner
ĠVe get
Ġdeb ut
Ġrelig ious
Ġfig ures
fle isch
VAL ID
Top ic
Ġnutz te
Absol ute
Ġbon us
ĠBedÃ¼rf nisse
Ġdoll ars
D b
D uring
R om
d n
g ast
v ik
Ð ²
it iert
te or
Ġe ure
Ġm aps
ro b
ĠP ension
Ġbe igesetzt
ĠC ir
Ġmit ge
Ġpro ps
19 27
Ã¤r er
Ġgew isse
ett es
ĠBel ager
ĠauÃŁer ord
ĠLandkreis es
gef unden
ĠAk k
ĠHeraus forderungen
Ġobt ained
Ġlok ale
sthe orie
Ġkulture llen
franzÃ¶s isch
ĠScot land
G ed
H in
K reuz
l ernen
p ubl
Ġd t
Ġd ivision
ĠM O
Ġc odes
ĠT ap
ĠT hal
ĠG ary
ĠK ings
ĠC ock
Ġk ap
Ġge prÃ¼ft
Ġst ated
ei ra
Ġi OS
aus cht
tell te
An gabe
ĠMus lim
Ġâ ļŃ
Ġcr isis
190 5
ĠFlor a
ĠWirk lichkeit
Ġinteress ant
Ġrob ust
ĠLeiden schaft
ĠSak r
Ġbayer ischen
k orea
z antin
er gebnisse
Ġa rom
Ġt ested
ĠS ob
ĠA kte
ĠM Ã©
ĠP aket
Ġbe arbeitet
est adt
ess a
omp son
Ġus age
ink i
Ġ10 1
ĠSo ul
Ġeinz eln
Ġserv es
By Comparator
kir ch
ĠWar um
ĠBel ie
osoph ie
ĠSchm id
196 5
Ġdre imal
ĠProble men
sc ale
ĠSÃ¤ ulen
ĠMuse en
ĠAntw orten
. '
F T
M apper
U uid
f aktor
as et
ent ity
ĠF aktoren
Ġer ober
ein kommen
ow o
Ġst ab
ĠZ eilen
ĠSch icht
th on
th al
ib us
Ġse qu
igen en
Ġ18 57
to o
ĠNach kommen
Ġup grade
olit an
ĠAd vis
ĠSh ang
urrent en
ĠMann es
ĠVerb raucher
Ġcol ours
Ġdel la
Ġac id
Ġx ml
Ġehemal s
Ġpat io
ĠPla yer
hÃ¶ fe
ĠRos a
stud ien
Ġremov al
ĠlÃ¤ng ere
ĠProt otyp
ĠEro ber
! =
B ot
M ac
T ab
d ays
r ise
z ucht
Ġw itness
ĠS itze
ĠB apt
st oÃŁ
ĠD R
ĠD anzig
am an
ic ultural
Ġbe weg
ĠC reative
Ġl ists
Ġge habt
ĠAn liegen
Ġle gs
ile t
Ġen abled
olog ist
Ġtra ce
ĠGeb Ã¤uden
Ġdr ugs
ateg or
ĠHaus halte
ĠCo oper
hol ders
ĠWohn haus
ĠRed akteur
190 4
ĠJust ice
Ġid x
ĠSchÃ¼ler innen
ĠFel sen
Ġneg ot
ĠRen ov
Arch Ã¤
Annot ations
Ġnet works
ĠBalk on
Ġzusammenge fasst
/ -
K Ã¼nstler
P N
R ennen
l Ã¶sen
re kord
Ġp Content
ol y
ber ichte
Ġal cohol
ab ama
ik eln
ĠZ er
rom an
ia com
Ġ18 35
Ex per
ĠMe et
dr ama
tra gt
Ġtime out
ĠEx port
Sch l
ĠÃľber leben
lÃ¤ chen
Ġbed ro
ĠSaison ende
ĠBi ographie
Ġstehen den
Ġbew ir
190 3
ES CO
ĠstÃ¤dt ischen
Ġkorre kt
ĠGemark ung
Z wei
b Ã¶r
k asten
at ile
re q
Ġf Ã¼hlen
ĠA B
Ġv ast
el in
ro x
ĠP ir
om on
ĠH i
ĠC av
ud a
Ġvor stellen
iss er
mit te
ĠBl Ã¼te
bau werk
Ġbl ow
Ġausge prÃ¤
Ad min
Ġspecial ist
ĠGemein schafts
Oper ator
ĠMr s
ĠAuss icht
komp lex
Ġimmed iate
ĠKult urg
Ġhochwert ige
quis ition
Ġincred ibly
Ġveranst altet
ĠEtw a
Ġbeauf tragt
F INE
W ohn
l Ã¼ck
Ġ essen
ĠS ug
ĠP okal
ĠG ay
ĠR ights
Ġfor est
âĢĻ .
ĠDe cken
Re al
ĠSchw erin
En ts
rich en
Ġsho ot
ĠFe ucht
Ġwrit ers
Ġjew elry
Ġtyp ischen
Ġcreat es
ĠTrans fer
Ġgenau e
Ġherv orge
Ġstrateg ic
ĠÃĸffentlich es
ĠRet urn
ĠðŁ ĺ
ĠWett kampf
ĠSecret ary
Ġspezial isiert
Ġgebra ucht
A U
H K
Y es
Å Ľ
Ġs ummary
ĠM ine
Ġc am
Ġc ommen
ĠK lin
ĠK han
ĠI ra
ĠH im
ĠH Ã¤nden
em er
ĠC urt
den den
ĠN iveau
if th
ĠU we
ĠSch ieds
eb au
ĠLe ader
ĠUnter richts
att an
Le icht
Ġger inge
Ġbre ast
druck s
schein lichkeit
Ġter rit
kre ise
Ġrow s
Ġpoln ische
ĠHash Set
ĠEins Ã¤tzen
wach ung
Ġausger ichtet
Ġdiagn ost
ĠBrie fe
ĠMultic ast
H y
T wo
c amp
p ed
Ġ 000
un es
st lichen
ĠP hoenix
ĠF unde
ĠG uten
Ġge be
Ġ" ";
Ġ18 45
ĠAus gra
sten s
ĠSte ink
ĠBl um
Ġdire cted
ĠDo es
Ġcolle ctions
ĠWei h
Ġauth ors
190 2
gehen de
Ġdeal ing
Ã¤rk ung
Ġtal ks
Ġauthent ic
( !
A ir
C at
F uÃŁ
h aut
} );
ie hen
ar is
Ġin halt
ĠB ock
sch Ã¤d
ĠC ry
Ġk ol
art a
hn s
Ġor din
19 40
ĠSe ver
stand es
add ing
ĠCon c
Ġass um
ĠVol ume
ĠBre ak
Ġmult ip
ĠEhe mann
ĠLang uage
Ġerk ennt
ĠBÃ¶ h
ĠSieg fried
Ġpain ted
ĠSpr int
Ġdraw ing
Ġcat alog
resource GroupName
Franz ose
ĠOnt ario
H ans
T or
V ID
ĠS G
ĠK iss
ĠH Ã¤ndler
ĠL etter
Ġdes ired
la in
ov ice
ac ional
olog in
Ġtra g
ett y
ron ics
pre chung
ĠRegion alliga
Ġgel Ã¶scht
Pr iv
Wh y
Ġverm utet
ĠKriegs gefangen
Ġren omm
iller ie
Ġhappen ing
Ġprakt ische
Ġentire ly
Ġbott le
Ġdur ation
Ġhil f
Ġmusikal ische
conne ction
Ġverbess ert
Ġhighl ight
Sa ale
ĠjÃ¼nger en
ĠGalax y
b ian
k ons
r ath
s burger
u ages
Â ¼
Ġa ck
ar us
as a
Ġm erk
Ġv ir
Ġ1 14
ĠG utsch
ĠG Ã¤rten
et tel
Ġvon einander
id as
Ġj ahre
ĠDie t
iz a
ĠAus gleich
ĠAus flug
ĠNe ed
ĠUnter schiede
ĠMe g
ĠSchw ein
ĠPh ill
Ġdis p
ĠAd v
ipp i
ĠOber liga
ĠStud ents
Ġgu idance
Ġteil en
Ġsu c
gra fen
ĠEntwick lungen
Ġrequire ment
Pr int
Ġret ire
Ġter r
ĠTro cken
Ġ180 6
ĠSw iss
zÃ¼ g
Mod us
ĠschÃ¶n sten
ĠHeraus forderung
Ġregion alen
Produ ct
Ġexception al
ĠVertra uen
loc ation
Ġweib lichen
Ġuk rain
Ġprincip les
kriegs zeit
ĠSchott land
Ġdiskut iert
1 000
S pr
Y ear
k ore
r und
s i
u ous
ĠD ritte
Ġh ydro
ol in
ĠH Ã¤usern
Ġse ats
() ),
Ġen ables
auf tritt
Ġad van
Re pository
Ġhab t
Ã¤l dern
(" /
ober flÃ¤che
enz el
ĠTra il
Ġgeb unden
ĠOber flÃ¤chen
stein en
ĠLehr stuhl
print StackTrace
ĠKor re
Ġmiss ed
sta ates
ĠDemokrat ie
ĠAnw alt
Ġappe al
ĠSingap ore
Ġfir ms
f ranken
k Ã¼nfte
u in
te ch
ĠF eb
om ing
ĠN ations
est r
Ġun able
Ġaus gestellt
ĠAn bau
Ġman aging
ign y
Ġpr ison
En tries
ĠStadt gebiet
ON G
ĠHand eln
Ġpl ug
ĠHoch schulen
Ġben utzen
ĠChar lie
ĠLie blings
ĠKont o
ĠHar ald
ĠIns zen
Ġfinanz iellen
Ġcommer ce
ĠPrinz essin
Ġmittelalter lichen
ĠTats ache
JÃ¤hr ige
Ġdistin ct
ĠFrances co
ĠShakespe are
WID TH
, -
N ur
T ok
b les
m il
ar ent
re b
ge gangen
ĠB enz
ĠB ible
ĠL iss
ist ol
ĠSt reich
Ġdes wegen
Ġ18 52
19 42
ite e
Ġte ch
fl Ã¼sse
Ã¤nd igkeit
ĠZw eite
ĠHaus halt
Nach bar
Ġmo ist
bert y
Ġmir ror
ĠOrts teile
gar ter
Ġnational sozial
ĠMay be
Ġenjoy ing
ĠTÃ¼r en
Ġautomat ic
Ġenter ed
Ġchem ical
Ġdein er
Ġintens ive
ĠZuf luss
Ġdipl omat
Dam it
+- +-
L imit
N N
g iving
h ungs
at iver
ĠS ain
ĠD ial
ig eschoss
ĠE asy
ĠK ritiker
ĠL ese
Ġge omet
Ġde fense
her it
19 13
ob ahn
ĠAus stellungs
ac cess
ĠMit ch
ĠAuf fassung
ĠMar cel
Ġverb ringen
ĠOn kel
ĠAt tra
ĠSchul ter
Ġkein em
ĠBerg bau
ĠSport ler
Ġatt orney
ĠRuss ell
Ġcr ime
Ġident isch
ĠImp lement
Ġadv oc
Ġnotwend igen
Ġearn ed
Ġexpla ined
ĠGeheim nis
Ġord entlich
Ġgesellschaft lichen
ĠWik ipedia
K ritik
N un
P ap
e ffe
č Ċĉĉĉĉĉ
ch sen
Ġb ars
Ġb omb
ter y
ĠF lat
Ġl ies
Ġst imul
id al
Ġauf weisen
Ġver mitteln
op es
ord nen
Ġ18 47
ĠLand gericht
Ġmy th
Ġbet reiben
iff s
Ġno ted
Ġprov en
Ġreg ions
ĠEl f
Ġsub t
Ġinv al
Ġhol en
189 6
ĠBÃ¶ hmen
Ġerz ielt
ĠEins Ã¤tze
ĠVort rag
Ġsem i
Ġguarante ed
ĠtÃ¼rk ischen
ĠFlag ge
Ġstyl ish
ĠApost ol
S M
S ION
b ald
m ill
Ġa ims
Ġo lymp
st ufen
ĠM E
ĠE ff
ĠE state
Ã¶ h
Ġse g
19 00
19 10
fe ktion
Ã¤hr en
Th omas
Ġfol der
ĠBo ots
Ġgesch Ã¼tz
Ġbesch rÃ¤nkt
ĠUr heber
ĠRad rennfahrer
roll ing
zentr ums
Des c
ĠErw art
lÃ¤nd ischer
ĠMinister ium
Ġsug gested
Ġprim arily
Ġdet aill
sta ats
Ġrepla ced
ĠGrÃ¤ fin
rec ord
Ġweib liche
Ġbess eren
ĠJed och
E B
L ud
e id
m aster
r isch
Ġt iefer
Ġs amples
Ġm apping
ĠB auf
Ġo cean
Ġc riteria
ĠH ack
ĠH imm
ĠL yn
ĠC ommerce
ad dr
ĠO hr
ĠSch uss
Ġaus einander
Ġne ug
for um
Ġcon trast
ant ie
ĠSp alte
ov Ã¡
Ġ18 20
Ġ18 51
ĠBer eit
ĠAuf klÃ¤rung
Ġqu adrat
Ġprodu cer
Ġfre ier
ĠPark platz
ĠTour isten
Ġstor ed
Ġdav or
Ġant icip
ĠTyp en
ĠCal endar
Ġdiscuss ed
artet t
ÅĤ aw
Ġil leg
ĠVerÃ¤nder ung
Ġoccur red
Ġschwier ig
Ġbow l
D oppel
G old
N av
d an
re if
Ġb ug
Ġb ranch
ing o
ĠD ob
Ã¼r zen
ik ers
Ġsch ein
Ġsch afft
iz isten
ov es
be teil
ĠVor schlag
Ã¤l z
br unnen
ĠPar ad
ĠMon ey
recht lichen
ĠAt tribute
At tr
Ġgest altete
ĠLu is
Unter nehmer
ĠKle ider
ĠrÃ¶m ische
ĠErd geschoss
Ġprint ing
ĠInvest ition
ungsver fahren
ruit ment
ĠJon athan
ĠStan ley
Ġelektr ische
ĠRep ubl
Ġjud ge
Ġcerem ony
Febru ar
B ACK
L uther
O U
R ole
g it
i ak
w id
Ġ Ã¶st
er ed
Ġd ring
is emit
Ġan spruchs
ĠT otal
ĠG leis
ĠI owa
ĠR ote
ber to
Ġcon cepts
ov iÄĩ
ĠEn zy
geb ot
az ier
Ġgen Ã¼
Ġfol ks
ĠArbeit nehmer
rach ten
Ġrem ark
laub nis
Ġorder ed
Ġinvest ors
190 1
Ã¤ss ern
ĠPo et
Ġarr ive
Names pace
ĠTrotz dem
AuÃŁer dem
R hein
m g
Î ±
Ġ ),
Ġ Ã¤nderte
Ġa wards
Ġa wareness
Ġt all
ĠA V
ĠB Ã¤r
Ġo vers
ĠP ommern
ĠR iesen
ĠN est
Ġfor ever
ĠĊ ĊĠ
ĠSp ain
19 47
be fehl
ob s
Ġen ger
Ġ// $
ĠÃľber setzer
cre ment
Ġstr ict
Ġperson ally
iner y
ĠJohn ny
ragen den
Ġverl ieren
ĠMÃ¤n nchen
Ġcert ificate
Ġcover ing
ĠOs lo
Ġdest roy
col or
Ġmer ch
ĠOk res
Ġzweit es
Ġirgend wie
Ġscr atch
Ġermor det
C onn
C ondition
G ar
i Ã¨re
k linik
w ass
Ġ Âł
an ced
Ġf esten
Ġe urop
ĠM Ã¼hlen
Ġh ind
ĠH eld
Ġer a
ĠJ ason
Ġge zwungen
ĠSt ufe
oc a
ĠY oga
amm ung
Ġbeen den
ĠÃľber rasch
Ġmus lim
ĠRÃ¼ck tritt
glieder ung
ĠKat astrop
ĠSol utions
Ġrelat ively
ĠAnt arkt
Ġlaw yer
ĠChem iker
Ġpack ages
ĠBud get
hers tellung
ĠHy per
ĠDisk uss
Rem ote
ĠQue ens
ĠLy on
Bi ografie
Ġgeplan te
ĠSQL Exception
Ġumf assen
FIEL D
Ġfas zin
D O
E xtra
O l
a er
t ages
in strument
ĠB C
st iegs
ĠM ET
ĠD unkel
ĠK ohle
um ble
ĠN ich
os er
Ġver dien
Ġun known
Ġle ts
ian i
Qu elle
ĠQu ick
Un garn
Ġsc re
ĠUm zug
rag ung
Ġger ufen
Ġfind s
ĠMÃ¼n zen
ĠMet ro
ST ART
Ġrest ore
ĠMor gan
Ġfac es
CO MP
ĠAg ain
Ġsend ing
Ġauthor ity
ĠEigent um
friend ly
ĠAN D
uum l
Ġgesund heit
ĠAfghan istan
P ane
o ft
t ail
t mp
Ġf inger
ĠF Ã¤r
ĠG ibt
ĠK w
ra h
ĠR uth
ĠN elson
if ies
ĠPro be
Ġsp ont
ĠY outh
Ġgew idmet
ĠGer ade
Ã¤rz t
Ġav ailability
ĠStr ess
gemein det
mark e
Ġconne ctions
go ogle
Ġunterschied licher
ĠBrit ain
ĠHeimat stadt
Gem ein
hab ilitation
ĠSchÃ¶n heit
ĠUN ESCO
Ġinj uries
Ġumfang reichen
Ġbeob achten
ĠPian ist
ĠAx el
C lose
G lobal
L ive
c ut
m aking
z iele
or chester
ĠS ier
Ġin du
ĠH end
ĠH arz
ĠV eter
ĠJ oy
av ed
ok o
ok ia
Ġ18 41
St op
Ġgen auer
Ġgen ehm
eth yl
Ġges ichert
Ġ16 00
sk o
ĠEx change
Ġbek leide
bach s
Ġeinz us
AR L
Ġ> >>
med ia
ĠAss istant
Ġevent uell
Ã¶t ter
zentr ale
Ġmet a
AS E
Ġsetz ten
Ġimpro ving
Ġconc ert
Ġbelie bt
Fernseh film
ĠFinanz ierung
Page Link
ĠBil anz
Ġprior ity
Ġcolumn s
ĠSamm el
Ġsubs cription
Ġaspe ct
ĠRon ald
Ġromant ic
C le
W olf
m ay
n ten
Ċ ĊĠĠĠĠĠĠĠĠ
Ġs uff
Ġm un
ĠA mp
ĠM ong
ĠT auch
ĠF res
ĠF DP
ĠE gypt
ĠK rÃ¤fte
ĠI rak
ĠH ud
ĠC ommer
ĠV iv
ĠJ as
ĠO N
ann over
Ġver mittelt
ĠSch olz
ĠIn tens
end ant
param s
gl Ã¼ck
Ġviel fach
ĠMed ium
ĠGrund schule
Ġteil te
Ġchar ged
Ġaufge geben
irm ingham
umb oldt
west lichen
ĠSen ator
wh ite
ĠJur a
ĠNic ol
ĠLaur ent
wÃ¼r fe
Ġphotograph s
Ġnar row
ĠMÃ¤r chen
ĠFertig stellung
ĠInsol venz
F iction
V B
n ord
es k
im ore
ĠE id
ĠC omb
ber gt
ĠSch uh
Ġr iding
Ġab zu
ĠAr g
Ġwor st
Ġpr ide
gew alt
ON E
ĠFilm regisseur
Ġ25 5
zent ren
dienst es
zy linder
Ġentfern en
ĠGre if
ĠAnn ual
ĠFund ament
zwe if
Ã¤chs ische
Ġsatis faction
ĠChron ik
ĠBit coin
verteid iger
prec ated
G ymnasium
N etz
S R
S pl
k ens
Ä Ĺ
at ively
Ġb lank
ĠD oc
Ġp a
ut age
ra kt
Ġg al
ĠC hal
Ġk reis
se ction
Ġch apter
Ã¶r er
ĠZeit schriften
rif fe
res ources
ĠNor bert
ĠStud y
eins atz
ĠUr kunde
Aus gabe
schutz gebiet
ĠMittel feld
Ġeinfach er
Ġhistor isch
ĠOlymp ia
Ġla ptop
Group s
Ġtradition elle
Ġland es
UT E
lÃ¤uf ig
Ġclos ely
sprach ige
Ġaddress es
valid ator
ĠPlat te
Ġprepar ation
Ġannoun ce
Ġapproach es
kathol ischen
kathol ische
ĠTenn essee
ĠKÃ¶nigs berg
Ġrefer red
ĠCook ies
ĠVoraus setzung
ĠLearn ing
ctic ut
ĠMinder heiten
Ġster ben
Ġfla vor
Ġshap ed
? !
F eld
S oll
Z iel
g aden
r Ã¼cken
Ċ ĊĠĠĠĠĠĠĠĠĠĠĠĠĠĠĠĠĠĠĠĠĠĠĠ
Ġt ollen
Ġb io
Ġe ase
Ġp ics
sch lagen
ĠH ut
eit her
Ġr ating
Ġwir st
ue z
ĠSp er
ĠEin tritt
Ġpr Ã¼fen
ĠLand rat
-- ;
Ġph ones
Ch ina
Ġsupp liers
Ġcons ist
ĠRes idenz
ĠDo ctor
ĠMag d
ĠSan ierung
ĠPer fect
Ġbef Ã¼r
ĠBas ic
Ġmet all
Ġinvest igation
196 4
Ġconf ident
Welt cup
ĠverfÃ¼ gte
ĠPop ular
kirchen gemeinde
Ġkom fort
Techn ische
Ġniedr ig
ĠLandtag swahl
child ren
Ġregistr iert
ĠBewe is
. ;
F IN
H or
K ur
M erk
R ows
c ms
Ġan onym
ĠF R
ĠG ul
âĢ ³
ra ham
ĠH C
ĠH ugh
ĠC afÃ©
Ġer fre
Ġk unst
Ġre produ
Ġden ke
ĠO ste
ver teilung
ver leihung
ĠTh ompson
ĠVor les
ule tzt
Con f
ĠTra ck
bo ards
ĠMed aille
Ġbesch reiben
ĠPl ate
Ġeinge zogen
Ġcheck ed
schw ei
ĠFot ografie
Ġnie mals
Ġport ion
190 6
190 7
Ġsicher lich
Ġinteress ante
Ġcas ual
iro ler
ĠErinner ungen
Ġmur der
Ġbrill iant
Ġfasc in
Ġconfir med
L ei
R ot
m esse
u ber
er d
Ġt or
Ġb ran
Ġm ask
ĠA tem
ĠB att
ĠD amp
ĠT U
ĠT ed
ĠT oren
im ation
et wa
ĠC ash
ĠZ irk
ste p
ĠAn other
art z
nen nung
Ġsp ray
19 55
19 59
Ġen orm
ĠSe attle
ĠNe v
Ġper mission
En vironment
Ġag ents
Ġerst mal
ĠMed aillen
ĠVerb reit
AR N
ĠHol ocaust
ĠEnt ity
ĠLin col
ĠKom Ã¶die
Ġgelang t
ĠWeiter entwicklung
Ġinvol ves
ĠSl ot
Pol y
ĠBill y
ĠUs ing
ĠRegierungs bezirk
Ġlos ing
veranst altungen
Ġgere cht
ĠKent ucky
ĠGenehm igung
Ġinval id
F Ã¼gt
H tml
s uper
Ġt ear
Ġe lev
us ten
ĠF uchs
la c
ver ordnung
ĠEr sch
ĠEr halt
ok a
Ġ18 37
Ġunter stellt
ĠAuf trags
cl udes
Ġgew orfen
Pro file
ĠSte wart
Ġbre ad
Ġass ign
Class es
Ġvis ible
ĠPer u
SS ION
AS K
Ġprom pt
ĠSitz ung
ĠMitte le
Method s
Ġmoder ner
opt ions
Ġfra c
Ġrecogn ition
================ ================
ĠSanti ago
C oun
E ner
F ragment
W M
b ig
h ain
un ivers
Ġt ri
Ġf ried
ĠB un
Ġan sehen
Ġn om
am ann
ĠG R
ĠE llen
ĠL Ã©
Ġge folgt
ik ts
ĠSch merz
ĠIn spe
Ġde kor
Ġpro tocol
ĠRe alitÃ¤t
Ġsch auen
get Attribute
ho le
18 0
Ġev olution
ron en
Ġmus cle
ĠStud iums
fo hlen
AT OR
[] {
Ġdiffer ences
ĠHel den
fre unde
ĠErw in
Ġreport ing
ĠFle cken
ĠRob in
Ġpan els
ĠPhot os
Ġfair ly
ĠberÃ¼hm ten
Vol ks
ĠPerspekt ive
ĠGitar re
ĠLincol n
' :
H eil
K V
O ther
O UT
h om
h ier
i ya
z es
Ã¼ chten
Ġc um
ig o
ĠP aint
ĠT ower
ĠK upp
ĠH ad
ab a
Ġre iste
Ġfor th
ĠSch re
ag u
19 48
ĠEin ladung
ĠSe ch
ĠY am
als ieger
pro of
Ġtra v
Ġno ise
ĠAd ams
Ob wohl
ĠProdu ct
Ġbesch rieb
new Instance
Mar ia
ĠTag s
Ġhistor iques
ĠKat hedrale
ĠAir es
ĠAir lines
ĠHistor ischen
So ftware
Ã¼rz te
Ġtreat ments
ĠEv olution
bÃ¼ chern
Ġill ness
drÃ¼ck t
ĠgewÃ¤hr leistet
Po inter
ĠViz emeister
B ud
M AT
P OS
f lag
g alerie
k opp
z ure
he bt
le ton
Ġan alog
Ġc enters
ĠT afel
ĠG reek
sch uh
est on
ĠO ran
ĠSch r
ĠÃ¼ber rasch
ial is
ĠBe frei
oc al
ĠVor name
cl usion
cl usive
Ġro les
Ġbut t
Ġgr amm
ound ing
ĠAg entur
ĠStad ium
Ġevangel isch
Ġregul ations
ĠKrank heiten
ĠÃ¤uÃŁ eren
ĠHawai i
D ivision
M as
P ierre
V arian
s Ã¼d
er z
in ch
ĠS id
ĠS einen
ro ke
ĠD ritten
om aten
ĠG P
et o
ĠR ib
ĠC ord
Ġer gab
ik ern
ĠIn it
ib m
up lic
ĠBe cken
ĠBe griffe
19 58
be y
ĊĠĠĠĠĠĠĠĠĠĠĠĠĠĠĠĠ ĠĠĠĠĠ
ĠTe e
ĠAb b
ĠGr as
ĠFl ow
Ġgew alt
ule gen
Pro gress
ĠAd l
fo ot
Ġ[ ]
ĠGew Ã¤sser
ĠChar ts
Ġclass room
Ġbook ing
ĠGegen stand
ĠFach bereich
ĠSyn th
Ġstre ets
ĠGÃ¤ sten
ĠspÃ¤t estens
ĠDub ai
Ġdauer haft
Ġkulture lle
____ ____
ĠFreist il
C ell
Q UE
S ong
b urn
r iz
Ġd auern
Ġp hen
ĠF urniture
ĠR ied
ĠO ft
Ġor al
ĠLe gend
ĠAus richtung
ĠÃ ©
sh aber
ĠMar in
ommun ity
Ġstatt fand
Ġcomm ittee
Ġeng age
ĠFach werk
ĠFin ance
fert igt
196 6
ogn ition
ĠWel che
Ġblock s
Ġbeteil igte
ĠSat tel
Ġassoci ation
Gra f
Ger man
Ġrecogn ize
kle idung
ĠAtlant ic
ĠJahrzehn te
ĠArchÃ¤ ologie
Ġhop ing
Ġdenkmal geschÃ¼tz
gewÃ¤ch se
: "
Z ug
u cc
in f
ĠS H
ĠS L
Ġe g
ro tt
ĠT I
ĠT um
Ġz z
ĠH Ã¤uf
ĠR in
Ġbe grÃ¼ndet
Ġl adies
Ġer setzen
ab ad
os te
ĠO cean
ĠEr ziehung
Ġch annels
Ã¶r n
Ġnew est
St ad
ĠSchw ed
Ġfr amework
ĠBo ys
schie ÃŁen
Ġverb lieben
ĠCon fig
Ġdec ade
fert igung
Ġfac ulty
voll stÃ¤nd
ĠMa ine
Ġjoin ing
ĠStad trat
Ġrespons es
Ġbedeut enden
schlÃ¤ gen
ĠNachbar gemeinden
Ġkom ment
ĠStrateg ie
Ġmusikal ischen
ĠkÃ¼nstler ische
Ġforder t
ĠBrook lyn
bay ern
ĠWurz eln
ĠOze an
Ġberu ht
A gg
b els
c io
g om
Ġt v
at ischen
ar ters
ĠS ay
ĠB ush
ĠP L
ic ia
ĠK elly
Ġbe legen
ĠN ash
Ġer lern
ab on
Ġver stÃ¤nd
ĠIn valid
ĠIn strumente
ag ues
aus s
Ġse ed
be hÃ¶rden
Ġvor n
Ġen tert
ĠSe pt
ĠAuf fÃ¼hrung
enden cies
ĠBet riebe
Ġbl end
alle tt
li ament
ĠÃĦ l
ĠZwe ig
zwe ck
LOG GER
ĠSpann ung
ĠKart off
nor mal
C ho
d orfer
k andid
s rc
t as
Ġs la
re ide
Ġin tell
Ã¼ bt
ĠB ret
ĠT ak
ĠK anad
ver Ã¶ffentlich
Ġver ify
iz on
ĠAr mut
ip se
19 12
be zirke
Ġvor bereitet
hÃ¶r en
ĠGra ham
Al though
asch a
Ġgu ard
ĠSal on
ĠDar stellungen
ĠEnt deckung
Ġmar ks
ĠHel p
ĠGen ossen
Ġalong side
Spe ichert
ĠViel leicht
Ġneues ten
Ġcelebr ation
Ġcondu ct
ĠRay mond
ĠConne ction
Ġpassion ate
Ġdurchschnitt liche
ĠDrag on
ĠErkrank ungen
Ġuntern ahm
K ind
a ÃŁen
k ritiker
l ab
m ans
r one
ĠS M
ol ia
ĠP ause
ĠI an
ĠW oll
ĠR SS
and ro
ĠZ ellen
ah me
ĠVer leger
Ġhe ating
.. ...
Ġ18 53
Ġsp ark
ĠEn cyclop
ĠTh ose
Ġad op
Ver band
alen ted
Ġshe ll
Ġhin weg
ĠMÃ¼n dung
Ġgu idelines
ĠWohn ungs
ĠWer ft
ĠTo ul
190 8
Ber uf
Ġleben den
ĠTurn iers
ĠhÃ¤uf iger
Ġcommon ly
Ġinform ed
ĠWebs eiten
maler ei
Ġhum or
ĠSym pt
ĠErzÃ¤hl ungen
Ġmedizin ischen
Ġsitu ated
Ġscen es
ĠAuseinanders etzungen
ĠVermÃ¶gen s
ĠSlow en
) (
A ch
H as
H il
K lein
L at
T urnier
W hether
b inder
g les
m ass
p in
Î ¿
it led
Ġw Ã¤hlte
ĠS ix
ĠM esser
ĠT ieren
ĠL ic
ĠC ool
ĠC lemen
ĠN BA
ĠSt ark
sp latz
ĠEin zug
ĠSe kund
ĠAb hÃ¤ng
Ġad ds
amm ad
ĠSte ine
Ġger aten
ĠFe atures
ĠVers ammlung
Ġpass ing
Ġlist ings
Ġtyp ische
cont ainer
ĠKle id
Ġess ays
Bau denkmal
Ġoffic ers
ĠAnge hÃ¶rigen
Ġsubject s
Ġincreasing ly
Je an
Ġaccommod ation
Ġverurs acht
irurg ie
Ġsomew here
R ich
S ach
d ates
Ġt ile
Ġs aÃŁ
ĠS MS
ĠS tett
Ã¼ ht
ĠD Ã¼r
ĠR Ã©
ĠL P
ĠL ack
ĠV ieh
ĠJ immy
ĠSt uhl
op ing
ĠVer ordnung
Ġent deckte
Ġdurch ge
ĠTh om
ian ces
ĠCh ancen
Ã¼hr ung
ĠVor arl
ĠMed iziner
Class Loader
ĠInter ruptedException
ĠDr am
ĠTurn er
rÃ¤n ken
Ġens uring
Ġregion ale
Ġfiel en
ĠTit an
Ġpropos al
Ġkanad ischen
Ġagre ed
ĠTaschen buch
ĠGlock e
ĠWit we
Ġpow der
Ġkombin iert
Wor ld
S Ã¤nger
W eiÃŁ
d ater
k ommission
Ġd aneben
Ġw ave
ĠD est
ĠP aper
ĠE ichen
ĠK au
ĠV as
Ġal arm
Ġst ren
ru le
Ġhe av
Ġ18 43
erk raft
iss ippi
Ġdo ppel
ĠString Buffer
Ġcont est
ĠMal erin
oten zial
Ġgef ragt
ĠChar acter
ĠLei b
AC H
ĠMont age
fel de
Ġbew aff
196 1
ĠJust in
Med ien
Ġerk annt
Ġfunction al
Ġcharacter istics
ĠNÃ¼rn berger
ĠDrit ter
Hash Map
icul um
Ġnav ig
ĠDiÃ¶z ese
ĠkÃ¼nd igte
Ġgefe iert
B ro
D ienst
L Y
o iden
z essen
in haber
Ġm ood
ut ung
ĠG ard
ĠK f
ant ik
Ġme ets
19 46
19 51
Ġent rance
ĠVor gehen
ĠSte ven
vent ional
Ġkein es
Ġabge geben
Ġed it
ĠOper a
Ġfocus es
match es
ĠSem ester
ĠSus anne
Ġrel ations
Servlet Request
Ġausges prochen
Ġbrach ten
Ġworkshe ets
I r
O wner
re ct
ĠS v
ĠD ess
Ġc urrency
ĠL E
ĠL esen
th at
sp l
ĠÃ¼ber pr
iz ers
19 56
ĠTe ch
ĠVor jahr
String Utils
verb rauch
ĠfranzÃ¶s isch
ĠMod ul
Ġrequest s
Ġsicher te
Ġpurch asing
ĠgrÃ¶ÃŁten teils
Ġreason able
Ass oci
Ġachie ved
ĠVerhalten s
Ġevalu ate
AX B
ĠErschein ung
ĠTob ias
ĠLein wand
ĠRug by
ĠDak ota
k W
ĠS lowakei
ĠS ultan
st urm
ĠM ei
Ġein iges
ĠE ag
ĠK rat
ed a
ĠR ak
Ġbe zahlen
Ġer lebt
ub ringen
ĠEr ik
ĠEr neuer
hn er
Ġsch lagen
ĠSp ons
Ġsp aren
Ġwas h
hal tes
Ġres ort
Ġgo ogle
rÃ¤ uch
Ġperson ality
Ġgef Ã¤llt
Ã¤uf e
Ġport folio
ĠLog istik
ĠvollstÃ¤nd ige
pass te
ĠGran de
ĠSort iment
Resol ver
Ġack now
A UT
e ah
f ly
z usch
Ġs orry
re a
re de
ĠB eine
ĠD allas
Ġc otton
ĠF ortun
ĠK ilometern
ill es
ant i
Ġme als
Ġent stamm
Ġdurch setzen
tw ork
ĠNe ut
zeit lich
Ġtra um
Ġco ordin
res ol
Ġag greg
Ver tex
Ġdevelop er
ĠEm ma
ĠNo Such
Ġflo ors
Ġabge leitet
Ġredu ction
isc ount
Ġmass iv
ĠGlas gow
Ġmel den
Ġtag ged
ĠkÃ¼nstler ischen
Ġvict ory
Ġinn ere
ÅĦ ski
Ġbetroffen en
chtes gaden
L INE
T B
Ġb odies
ĠB aut
ĠD ritt
ĠT em
ĠF itz
ĠR ank
Ġer werben
if c
Ã¼r ft
ĠIn itial
ĠVer hÃ¤ltnisse
get E
19 53
Ġvor an
ĠTe ich
Ġwill kommen
ĠSe ason
lat te
schl iess
Ġletz tes
ĠDr ess
ĠVolks republik
ĠPal m
EC ON
Ġenc oding
ĠJazz musiker
parte i
Ġliter ature
Ed ge
ĠMary land
ĠLux us
Ġsech sten
Ġjung er
Ġsurpr ised
Su ccess
D och
H ave
c ole
q h
r unden
y ers
á ¹
Ġw rap
ar ma
Ġb anks
Ġf erner
ĠE D
ĠL anc
ver hÃ¤ltnisse
Ġaus gesetzt
ĠAn alysis
Ġhe aling
ĠÃ¼ber liefert
ĠPro jekten
ĠDe an
19 43
auf lage
ĠSe il
ĠGe fe
Ġgen der
Ġbet Ã¤t
Ġ7 50
ĠEx il
12 3
ĠVerb rechen
ĠHaupt ort
ĠRes ol
ex ists
ĠGener alleutnant
ĠLei der
Ġeng agement
laub e
Ġhol z
ĠStutt garter
ĠErz bist
ĠrÃ¶m ischer
Ġcomb ine
Ġverbunden en
Ã¶p fer
ĠAR D
Ġlisten ing
Ġscient ists
Ġcru cial
Ġstrug gle
ĠHarr is
Il legal
, ...
B rit
C opy
F ast
P ublic
c ue
h ub
Ġt ack
at sch
Ġf usion
ĠB ott
Ġc ul
ent schieden
am ents
ĠF o
eit h
ĠV irtual
ĠJ ohan
ĠO P
ĠUn i
Ġ18 16
ĠEn try
ĠSe gel
urg ical
ĠMar ion
Ġfin est
ĠReg istr
Ġwhen ever
pla in
Ġact or
ift y
ĠRes ort
ĠBischof s
ĠDel hi
ĠTal ent
flug zeug
ĠGef Ã¤hr
ĠMount ains
ĠMatt hew
Don ald
Ġsav ings
db c
ĠBlo od
Ġaustral ischen
ĠArz ne
Ham burg
ibil itÃ¤t
ĠInse kten
D ig
k ok
m ode
Ã ®
Ġt we
at ro
ĠA chter
ĠB ond
ĠM other
Ġein gemeindet
ra ums
ĠL ater
Ġbe deckt
Ġl aser
ĠN ike
ow ed
ĠO skar
ĠIn v
ei de
get Parent
ĠPro tagon
19 57
Ġres et
vel and
rat ive
Ġ10 5
lieÃŁ t
ific ial
Ġdr iven
Ġmin ister
ĠHol iday
ĠBest immung
pre ise
aun e
Auf gelÃ¶st
ĠZahl ung
ĠZe ugen
190 9
ĠKÃ¼nstler in
ĠSied lungen
Ġbox es
Ġrepresent ative
Ġschwed ische
Gemeinde auflÃ¶sung
ĠWes er
Ġmedizin ische
Ġnu clear
ĠVinc ent
Ġjun ior
= \"
> </
B enz
T EXT
U hr
m auern
v oid
ĠS uz
as ie
el Ã¤nd
Ġn aked
ĠD j
ĠW S
ĠH ins
ul iert
ĠSt u
ĠSch Ã¶ne
op ter
ĠAn nahme
Ġwe ich
Ġ18 18
19 54
St unden
ĠAb stieg
ĠPr ize
ĠZu vor
ĠMin istry
Ġze igten
Ġange ordnet
grÃ¼n de
Ġdesign ers
ĠUr sprÃ¼nglich
ĠAt las
Ġdevelop ers
ĠFest ivals
ĠMot oren
ĠWar schau
Ã¤m m
less ly
leben s
Ġcr ash
ĠErn est
ĠHistor ische
ĠLou ise
ĠTat ort
Ġsouth ern
Christ ian
ĠanschlieÃŁ enden
ĠEdel stahl
Ġexpos ure
Lang uage
ĠZut aten
ĠUrauf fÃ¼hrung
A K
B Y
C enter
S am
b org
h all
h our
y on
in um
in tend
an dern
al on
ĠS ven
Ġb ass
Ġb ird
ur ist
Ġz entral
id ges
ĠVer folgung
ĠPro gress
Ġ18 44
19 49
ĠAus bruch
io xid
ac cept
ĠGe lehr
min ute
ĠGer ichte
alen a
ĠVers te
Ġend ing
Ġgener ic
ĠBra ut
Ġbas ically
Ġimp ossible
ĠForsch er
Ġpay ments
Inter val
Ġ180 3
ĠUntersuch ungs
ĠLoc ation
Ġverz ichten
ĠStraf recht
Ġsup erv
Ġevalu ation
Are a
ĠRail way
âĻ Ĥ
ĠfÃ¼hl t
Ġverstorben en
( -
M aterial
W appen
l enk
n ote
Ġd ual
ar ts
Ġf ern
Ġin telligence
us ions
ĠD rachen
Ġh anging
ĠG am
ĠE valuation
ĠH amp
ĠH air
ĠH Ã¼tte
ĠR Ã¤um
Ġth in
ik ten
la fen
ine a
19 17
Ġyour s
Ġ4 000
Ġcomp act
ĠGer d
ĠMal aysia
ĠCl ubs
stÃ¤nd igkeit
verb ot
Met al
othe k
ĠComm ons
AP I
Ġclos ing
ĠRead ing
ĠUR I
Ġconcern ing
ĠEss ay
Ġdra uf
ĠDigital isat
ĠEar ly
ifik at
ĠBlo om
stÃ¤d ter
ĠVerletz ungen
Ġlauf enden
ĠMargar et
Engl isch
Ġgewinn t
E U
I con
M r
S ort
T ex
k unfts
m Ã¼ller
s aison
he orie
Ġe chte
Ġm ile
ĠM ic
ĠD in
ĠD ialekt
ig ter
ĠT et
ĠT ell
ĠH Ã¼
ul ator
ot ype
ÃŁ er
Ġun e
ĠAb schied
arbeit ungs
ĠMus kel
ĠSh are
ĠJan eiro
con f
ĠFe ed
ĠCl ara
ĠSc ient
Ġbr idge
Ġstor m
Ġqualif izierte
ĠLÃ¼ ne
Mon itor
sa al
Ġsuggest ions
Ġattack s
BevÃ¶lker ung
Ġvolunte ers
ĠVog t
ischÃ¶ fe
ĠDiam ond
ĠNiger ia
ĠHels inki
E isen
r ent
w enden
Ð ´
Ġs enden
im iter
ĠF ul
ĠK letter
Ġto oth
and ra
ts piel
ĠZ oo
ok raten
gr id
Ġch ose
oc o
ob a
erv ed
St ats
ac ular
Ġins ight
ĠPh one
ĠFre ie
Ġbek annter
Ġass ume
Ġide en
ĠMill imeter
ĠWill en
Ġmov es
ĠFot ogra
ĠDem onstr
Ġmod ified
eten zen
Ã¨ ne
ĠCom edy
ĠWieder aufbau
Bo den
ĠCamp ing
Ġtravel ing
ĠVe ktor
ĠFranzÃ¶s ischen
Ġhy per
mag azin
ĠSoll te
iacom o
! âĢĿ
3 50
> .
G ood
W inter
p ower
ĠS hel
ge ht
Ġp iano
ĠP eking
ĠH ur
em eter
ĠR ating
der en
ĠC amer
ĠN FL
ĠV ik
aus wahl
Ġwh ilst
ru d
Ġab gebaut
Ġsch ul
Ġle af
Ġle ichten
ĠAr te
of ern
Con stant
gew orfen
hand le
ĠCon text
ĠFe ature
arr ier
Ġcre w
ĠRes ources
Ġsur f
Ġbed s
Ġ180 8
fred akteur
ĠTab ak
Ġhohe m
ĠAnge legenheiten
Ã¸ r
Change d
": "
Ġton ight
fÃ¤l ischen
ĠFF DC
Ġestim ated
ĠÃĦm ter
MÃ¶ gliche
F K
M ot
M aster
h on
h ot
i ierten
Ġt ill
Ġs ick
ĠD O
ĠT ickets
ĠK enntnisse
ĠH ous
uf Ã¼gen
Ġk at
Ġim per
Ġdem ent
our en
Ġun ion
og ne
Ġcon n
Ġnach weis
pr es
enn ame
ite es
ĠSe ction
Ġres istance
Ġhas h
ĠNach frage
bar es
Ġins zen
ork ommen
wer fen
ĠBes ten
Ġbre iter
ĠVers uche
ĠDurch schnitt
ĠPat tern
IT E
Ġobject ive
ĠOst preuÃŁen
viron ments
Ġorganis ierte
ĠSold at
ĠSamm lungen
Ġut ility
Ġgemein nÃ¼tz
ĠgewÃ¼nsch ten
N ein
Ġd imensions
Ġs ke
Ġf liegen
ĠB L
Ġan tw
ĠM ack
Ġh ack
ol stadt
ĠF alk
ĠG B
ĠE i
Ġz o
ĠW id
Ġst amp
Ġfor g
Ġdem nach
ag anda
Ã¤n gs
we ilen
Ġso il
ia e
ord nungen
Ġ18 36
fer enzen
enn amen
enn zeichen
Ġwor se
Ġber ichten
Ġfe hler
iet ies
Type Reference
sche f
ĠBundes straÃŁe
ĠProdu cts
ĠFrank lin
por ted
zie her
unn able
unn els
ĠSer ial
pos al
bet riebe
Ġerne uert
ĠGel b
Ġsever e
sprach igen
Ġinde ed
ĠStoff e
Sec ond
ĠNationalsozial isten
tor hÃ¼ter
Ġverbesser te
E ven
K ont
M R
b anken
Ġd st
ar mee
ĠS or
ĠS iz
ĠS urf
Ġb id
Ġf ragen
st an
ĠP oker
ĠK amm
sch reibung
Ġto ys
Ġk r
ver d
ou pon
Ġun us
ag an
ĠEr ror
ĠEr langen
Ġsch ed
for cement
ĠAr c
geb ir
ĠAus rÃ¼stung
ail ing
teil ungs
ĠFl orenz
iger te
Ġco aching
br unn
zeich ner
gend a
let ing
Al ias
ĠAnd y
Mann schaft
Ġperson s
ĠProf i
ĠMot ors
Ġform ula
ĠAlb ums
Ġmein t
Ġflo oring
ĠRel ation
Ãĸ ff
ĠSchloss es
Ġgre y
ĠAp i
IG N
ĠEvangel ische
Ġdein em
Ġhum ans
parse Int
Ġinstru ction
ĠJava Script
klass igen
ĠBÃ¼nd nis
sph ase
B itte
R itter
R ichtung
X base
h igh
is men
ĠS Ã£o
Ġf ahr
Ġm as
ĠB ibli
st ark
ro th
Ġp itch
ig nen
Ġh ip
ĠT os
ĠF em
ĠG ib
ĠH E
ĠL LC
Ġbe ur
ĠV Ã¶gel
iv ier
op fer
ĠAn teile
sp an
mp os
Re quired
String Builder
Ġ17 0
Ġcont aining
ĠGesch Ã¤fte
ĠgroÃŁ em
ins ert
Ġmus st
ĠSpe c
schn itten
Ġplan en
Ġeng aged
ĠfrÃ¼ he
ĠPal ast
ordin ary
gehen den
Ġschwer er
ĠBud dh
FI LE
Ġpercent age
ĠEreign is
Ġprofit ieren
Ġven ue
Tro tz
Ġlif etime
A ctive
E t
G rad
K ol
W ahl
b ungs
n on
w Ã¤nde
» ¿
ch ain
ie ch
Ġs ight
ĠS ad
ĠS creen
Ġan gle
ĠT SV
ĠF ine
ĠF iction
ra ce
ĠH ip
ĠSch iffen
ĠEr folgs
ĠSp a
Ġch er
be zirks
ĠAus sehen
ĠSe lect
fol k
ĠEx pert
ĠBes tell
ĠZw eiter
Ġprom ise
wissenschaft liche
Ġhol idays
Ġwest liche
Ġdat iert
Ġdefault Case
ĠExper ience
ĠWell ness
ĠAbgeord nete
ĠSchles ien
ĠDiffer enz
ĠCham ber
Ġschwei zer
Ġoffens ichtlich
ĠBuen os
C red
C ENTER
P okal
ing ang
ĠM ang
Ġh erk
im b
sch Ã¼ler
ĠH ydro
ĠN ob
ess ischen
Ġst range
Ġr ug
ĠAn kunft
Ġex klus
etz liste
ĠLe gende
dem ar
ierte m
Ġper mit
use ppe
ĠTeil nehmern
lÃ¤ ser
ĠTr io
Ġdr ama
Ġresult ing
Ġbr ut
ĠWer ks
ĠRechts wissenschaften
ĠLondon er
Ġmet adata
vÃ¶lker ung
produ kt
ĠhÃ¶ch st
ĠHa are
Imp ort
Ġentstanden en
Ġposs ibility
Ã¶p fen
Ġdro pped
umin um
ĠSup reme
ĠNahr ung
ĠEuropameister schaft
ĠErschein ungs
ĠBeam ten
Hein rich
ĠHild esheim
A p
U K
W issenschaft
c ommand
Ġt ip
at on
ĠS uf
Ġp ap
Ġh orn
ĠT reib
im edia
ĠL amb
Ġl Ã¤dt
ĠSt ories
ĠSt iefel
kt ors
ĠSch ema
ĠSch okol
ah ne
ĠAn leitung
ell ers
Ġnach folgenden
19 15
ĠAuf wand
Ġar ms
Ġrec re
Ġdown town
Ã¤nder ung
Ġteil t
Ġausge dehn
ĠBere chnung
Ġpolit ics
deck ten
ĠPreis en
ĠZeich ner
Ġversch oben
Ġstru ctures
ĠDenn is
ĠKolle g
ĠKlass iker
Ġapply ing
Ġcaus ing
Byte Array
imple Name
ĠAbst ammung
ĠLiefer ung
ĠVerletz ung
ĠBeob acht
Ġreligi Ã¶sen
Ã¤nk ischen
Sonst iges
ĠschlÃ¤ gt
C as
J ECT
s endung
ï »¿
Ġw esentlichen
ĠS ave
ĠS weet
Ġb undle
Ġe c
ĠB reis
Ġc ush
Ġh Ã¶l
ol ith
ĠP ole
ĠG y
ĠE cht
Ġg lauben
ĠC hel
Ġl ob
ĠN an
kt on
Ġse ctions
Ġ18 39
Ġunter brochen
tell ern
ac a
aw are
Ġind oor
uck et
ĠComp lete
Ġclass Name
Ġbefore Client
Ġcommun ications
Ġcheck ing
ĠCor porate
Ġexp lo
Ġret ten
Ġbin ary
Ġbuy ers
Sc ore
ĠZur Ã¼ck
Ġstudy ing
189 7
Ġstru ktur
Äį ak
Ġcra fts
ĠSho uld
Ġplatform s
Ġkanad ische
Ġzeich nete
ĠStraÃŁ burg
Ġsuffer ing
ĠClin ton
beam ter
Ġtempor ary
ĠEnter prise
ĠHÃ¤nd el
ĠHins icht
ĠbeforeClient Execution
Ġt alented
Ġb old
le ister
ge halt
ro ph
ĠD irk
Ġp uzz
ĠI ter
ĠH Ã¼tten
ĠC atherine
Ġ2 20
ĠO v
Ġj av
schaf fung
get Time
Ã¼n dete
Ġwe ak
ĠDe pression
enn te
ĠNach weis
ĠSchw ert
Ġbet ont
ĠReg iment
ĠGes etze
ĠSpiel ers
Ġevery where
Ġbr ush
ĠComp an
ĠSchul z
Man agement
urf ten
Ġvorhand ene
Ġamerikan ischer
Ed itor
Ġprem ier
ĠUrs ula
person en
ĠTok yo
Ġnorweg ischen
genossen schaft
ĠRal f
ĠkÃ¼nft ig
PROPER TY
G leich
j s
v Ã¶gel
z elt
Ġs inger
ĠB irmingham
Ġg ig
ĠAn not
ap elle
Ġab gelÃ¶st
ang aben
Ġsh arp
Ġcomp uters
sh ore
ĠUnter lagen
ĠAd vanced
Ġviel mehr
erg ie
ĠLie ben
ĠMot ive
key Set
ĠDat eien
Ġintegr ation
ĠAp oll
Parameter ID
Ste in
Ġporn o
ĠerhÃ¶ hte
Ġslow ly
Art ikel
Ġrecommend ations
ĠDrei ÃŁig
Bundes liga
ĠRef lex
Ho tel
Ġfot ograf
ĠRal ph
Ġcir ca
ĠVikt or
Listen ers
ĠInformat ik
. ]
E mp
M el
m ers
Å ¼
Ġf its
ĠP uerto
ĠF utter
and es
ĠV ic
os se
ĠZ Ã¤hne
ĠAn sprech
Ġwh oles
ĠRe chen
rie gen
Ġ" \"
ast ing
Ġ18 42
ome ter
ĠTh ings
ĠÃ ģ
ph p
Ã¤l en
Ġapp l
ĠMed al
ĠMed ic
ĠGrund riss
ĠHaupt mann
Ġselbst verstÃ¤ndlich
EN G
Ġsk i
ĠRegel ung
So zial
ĠFrankreich s
Ġbisher ige
rist all
omet rie
ĠPsych iat
ikal ische
ĠVis ual
Ġprakt ischen
Ġangegeben e
Auth ent
Ġchines ische
ĠBist ums
Ġdauer te
Ġfight ing
Ġwand te
ĠErwachsen e
Ġausgesch ieden
ĠCott bus
ĠSpekt rum
B ur
i our
i ja
n est
p ons
u ce
ĠB A
ĠF ish
ĠF OR
ĠR ick
ĠSch af
ĠIn put
ĠAn alyt
tr ang
Ġent s
Ġent scheidet
St il
Ġwor auf
chn ungen
ock er
Ġpla in
Ġint ent
Ġacc eler
ym ph
Ġsu ite
Ġreal ized
lei h
Ġschn ellen
Ġprofession elle
Ġmethod Name
Ġimp lemented
ĠSchrif ts
ĠGen re
ĠGen au
ĠMay er
Ġhol der
fÃ¤h ige
mel den
ĠFluss es
Ġverlie f
Ġcra ck
Ġsens itive
ĠOk lahoma
Match er
Ġtats Ã¤ch
Ġarg uments
Bet rieb
ĠSin f
Ġprincip al
ĠHong kong
ĠAgr ar
âĻ Ģ
Ġelig ible
ĠangekÃ¼nd igt
ĠBegegn ungen
G reat
U ST
b ole
k ing
n immt
le uch
Ġm s
ĠD A
Ġc ater
Ġh es
ĠK lagen
ĠC er
Ġer led
Ġer rang
ĠJ av
Ġre ichte
ĠSt immung
ĠO g
Ġver fasst
ien na
ind lich
se lect
Ġsch me
rie t
Ġsie d
ĠAb bildung
ock s
Ġsc ores
Ġmake up
add y
Ġact ing
Ġcons istent
ĠKunst geschichte
Ġsk illed
ĠArch ive
mÃ¤ h
jÃ¤hr ig
ĠOst see
Ġverl Ã¤sst
Ġhal ben
ĠKom fort
Mod ified
Ġpot ent
gÃ¤n gen
Ġlik ed
ĠDokument arfilm
ĠIndian er
Ã¶ss er
ĠÃ¶ konom
Vis ible
ĠBom ben
ĠClaud ia
Ġrechte ck
Ġatten ding
ĠStatt dessen
ĠRepar atur
[...]
