#version: 0.2 - Trained by `huggingface/tokenizers`
e r
e n
i n
c h
Ġ d
Ġ a
e s
n d
i s
o n
i e
i t
Ġ t
Ġ s
o r
Ġ w
a n
t e
a r
Ġ S
a l
h e
a t
r e
Ġ b
u r
u n
Ġ in
u nd
i ch
a s
e in
Ġ f
e l
u s
Ġ m
Ġd er
Ġ A
Ã ¼
l e
g e
Ġ B
Ġ v
Ġ 1
Ġ M
Ã ¤
Ġ und
Ġ o
i l
Ġt he
Ġ D
s t
in g
r o
t er
un g
Ġ p
i g
i on
d e
Ġ h
Ġ P
Ġ n
o l
Ġ c
Ġ ein
Ġ T
â Ģ
Ġ (
a m
Ġ F
Ġ G
Ġd ie
i m
Ġ K
Ġ E
en t
u t
o m
r a
Ġ z
Ġ I
s ch
e m
Ġ H
Ġ W
e t
Ġa nd
Ġ R
h r
Ġ L
i c
is ch
t en
Ġo f
Ġ g
e d
Ġt o
Ġ C
u m
b er
Ġ 2
a nd
u f
Ġb e
Ã ¶
i r
is t
e it
a ch
Ġ er
Ġ l
Ġ1 9
Ġ N
Ġ J
Ġ V
d en
Ġv on
i er
Ġa l
Ġt h
d er
c k
Ġ k
u l
Ġd es
Ġa n
l ich
Ġd en
er s
i v
Ġ im
o t
Ġ2 0
g en
Ã¼ r
at ion
Ġ e
i k
ĠS t
o w
Ġ O
a b
es t
o s
Ġm it
a d
u ch
Ġ y
Ġ ge
an n
Ã Ł
l a
Ġ re
Ġ âĢ
Ġd as
Ġ U
t s
i es
i f
e b
al l
Ġs t
Ġy o
Ġa uf
es s
c t
Ġf or
e i
k t
Ġ Z
Ġ is
a f
a h
ĠS ch
Ġz u
v er
Ġv er
i en
ie l
Ġw ur
isch en
o p
i d
Ġd em
Ġ on
a y
Ġ ist
Ġal s
u p
c e
Ġf Ã¼r
te l
ĠI n
t h
a hr
ich t
u g
it h
Ġ Ċ
er e
a g
Ġa us
Ġwur de
il l
n e
o g
Ġd e
as s
Ġ un
b en
m en
w e
Ġ r
or t
ĠV er
Ġein e
a v
in d
Ġw ith
Ġw ar
er n
a k
0 0
Ġs ich
a te
a p
s p
Ġ20 1
ĠR e
o d
a us
a u
z e
el l
ĠA n
Ġw h
Ġp ro
sch af
l y
er t
Ġyo u
l in
an g
ĠE r
Ġ j
Ġn e
es ch
ĠD ie
o ch
Ġth at
Ġs ein
us t
Ġ i
) ,
ar t
i b
r an
f f
en d
Ġ it
Ġa b
h n
s te
Ġa m
isch e
q u
ung en
Ã¼ ber
i p
âĢ Ļ
r ie
ig en
s e
ĠT he
u d
Ġs p
g er
Ġbe i
Ġ he
h t
ĠS p
Ġ le
u b
k s
ut sch
Ġ 3
Ġ1 8
an t
Ġa s
ar d
Ġa re
Ġ20 0
s en
ĠB e
g r
ur ch
Ġs ch
Ġs e
Ġs o
ĠJ ahr
Ġa uch
Ġn ach
m er
ĠA l
tel l
âĢ ľ
ĠU n
i a
Ġ Ã¼ber
Ġ or
âĢ ĵ
o k
ro m
o v
1 9
Ġc om
o st
l ie
ĠA r
i z
ĠâĢ ĵ
Ġw ir
iv e
ung s
i al
Ġb is
f or
it y
h en
Ġw e
Â ł
Ã¤ t
schaf t
Ġm e
m ent
Ġe x
is e
ĠE in
ol l
Ġs ie
Ġa t
as t
h er
Ã¶ r
Ġz ur
ĠâĢ ŀ
ĠD e
a in
h l
Ġd ies
Ġc on
or d
Ġ ch
r u
a ge
b e
n en
Ġz um
h o
r Ã¤
r it
ĠP ro
Ġw as
Ġein er
Ġal l
av e
Ġyo ur
Ġw er
ic k
et z
isch er
Ġ um
ch en
r Ã¼
Ġz w
o ur
te d
. .
m e
Ġn icht
en s
om e
Ġ ent
u re
l and
Ã¤ r
Ġwer den
o nd
Ġun ter
ar k
Ġd urch
us s
Ġv or
o b
Ġh at
i ge
Ġb y
Ġ19 9
Ġ es
n er
h al
in e
f er
Ġf rom
ier t
or e
g es
el t
Ġwir d
Ġth is
it e
Ã¤ n
ter n
Ġw ie
i de
u e
) .
g el
en n
i an
D ie
Ġh ave
ĠC h
re ich
er k
i o
ĠG e
ĠT h
ur g
Ã¼ n
Ġein em
Ġs ind
p e
Ã¶ n
am e
l er
Ġo der
i re
f t
Ã¤ nd
il d
Ġ us
is ter
ĠS ie
m al
p l
d u
ĠL e
ĠT e
ge b
g t
p er
Ġ 4
st en
ion s
a c
ĠO r
ch e
Ġ Ã
ĠS e
ĠM it
Ġc an
p ar
at ur
Ġw or
lich en
o c
ĠD er
ah l
Ġw ill
Ġm an
Ã¼ hr
z en
a uf
p h
Ġ en
Ġein en
o ut
ĠN e
b eit
ic e
u ÃŁ
ĠA b
ul t
ad t
2 0
s s
Ġ 5
ich te
ĠB er
a ck
er v
on t
o hn
ig ht
Ã¼ ck
p t
Ġ19 8
at z
j e
we ise
Ġc o
in z
r y
ation al
Ġ Y
el e
el n
ĠE n
Ġn ot
l o
ĠA uf
1 8
for m
f e
Ġ -
t ra
st er
a il
ig n
ĠL and
ĠM ar
ĠA us
l l
Ġt e
de m
ur n
at er
ch t
Ġs h
lich e
ĠG r
all y
' s
on e
on g
i le
om m
p r
ar e
ĠH e
t z
te il
Ġdas s
p en
e ar
Ġ19 7
f en
Ġh as
ĠI m
re i
Ġ( *
b urg
ĠN ach
ĠW e
Ġb es
al t
re is
k eit
Ġp r
ab le
T he
it ion
iv ers
l os
is s
re t
u te
Ġa d
Ã ©
ul d
em ber
I n
Ġde utsch
or en
ĠM e
Ġa r
at t
ol og
c o
Ã¤ hr
ĠV or
l ass
ĠD as
ier te
il m
am m
ber g
im e
ation s
r at
Ġi hr
a ut
Ġ1 7
ak e
Ġd o
de t
an s
a z
it z
k e
th er
ing s
Ġ19 6
f ol
Ġ 6
Ġ 9
Ġ up
ers on
f l
Ġo ur
Ġw o
iel er
al e
at h
Ġcom p
ĠA m
ent s
p p
ro ÃŁ
Ġwur den
o u
er en
he it
te t
at en
Ġg o
eb en
Ġs ow
Ġ Ġ
ct ion
ein e
Ġ "
ĠUn ter
Ġh er
Ġi h
ĠZ eit
Ġr es
ol d
Ġw eit
it er
o ok
as e
W eb
us e
am p
ug h
ĠF l
Ġv om
Ġo ut
lin ks
ĠH er
un t
os e
ĠF or
t o
Ã¤ l
c c
Web links
an z
on s
Ġg en
Ġn ur
ĠP l
Ġf e
Ġ qu
ĠF ran
ch n
Ġb ut
Ġ19 4
Ġm y
Ġme hr
ĠSt adt
w er
Ġ et
par am
ze ich
ĠDe utsch
Ġ ro
ig h
v e
om p
or s
m it
i um
ig er
ab en
ut z
s el
ĠM a
ĠRe g
am il
al s
ow n
z eit
Ġ19 5
Ġt ra
l es
om men
Ġn och
ol it
r en
ar y
k en
Ġl ie
ĠP r
Ġge w
m ann
ier en
Ġm ore
Ġ1 5
re e
Ġthe ir
Ġ 7
is h
g an
Ġb et
y s
p ort
ik e
Ġon e
ĠG em
ah n
an ce
r if
ie d
ie t
ate d
f in
te m
ne h
og ra
ic al
D er
el d
ĠSch w
ik er
h Ã¶r
in n
Ġ1 6
ĠI S
kt ion
c l
ib t
S t
st and
el s
Ġb est
E inz
Ġ 8
r ich
ol le
Ġp er
f Ã¼hr
Ã¼ d
Ġsow ie
u en
Ġ Q
n is
le ich
g lie
Ġa ber
b ar
es e
h und
ach weise
l d
ah re
Ġals o
it Ã¤t
eln achweise
a de
e c
ĠP ar
Ġab out
b all
Einz elnachweise
ĠR o
Ġ19 3
la g
on n
Ġs te
w a
esch ichte
ĠU S
B N
or n
a up
ĠI t
r ing
Ġd ar
ier ung
nd e
h aus
Ġge t
am men
n et
re at
ann t
ĠIS BN
.. .
in k
ein de
Ġ1 0
Ġne w
Ġsein er
p ro
Ġge gen
u al
Ġthe y
Ã¤ ch
Ġe v
y ste
s tell
m in
ie der
ĠUn ivers
ig t
an k
ĠC o
Ġb er
ub l
a is
Ġin s
Ġwh ich
etz t
Ġf in
s k
Ġbe en
f ahr
ĠS o
Ġh is
Ġp l
Ġein es
v el
Ġsein e
Ġy ear
ĠG ra
u er
Ġzw ei
is sen
Ã¶ ff
ĠH o
Ġhat te
Ġcon t
ay s
ĠJ ahre
ik an
m an
lie ÃŁ
ig keit
ĠJahr hund
is ten
âĢ Ŀ
g l
Ġp la
am en
1 7
ĠS te
ur op
Ġal le
a ct
Ġof f
l ung
Ġwh o
w o
el le
ck e
Ġj ed
ge ben
ĠA d
Ġ &
ÃŁ e
ĠP h
i ent
ro w
Ġwor k
im m
x t
Ġg es
g lich
Ã¼ nd
r on
or y
ĠK ir
Ġwie der
iter atur
m p
ĠK ar
Ã¶ l
or f
it t
id ent
Ġt ime
00 0
Ġdies er
ĠG es
o h
Ġk ann
Ġs oll
us ammen
et t
am er
ĠD ies
ar beit
at s
Ġk n
ĠG eb
yste m
ter s
Ġk Ã¶n
t on
al d
und en
Ġzw ischen
an ge
Ġs ome
el b
eit e
n ah
ie le
re d
a w
re m
ĠE s
ĠM us
ĠC hr
ĠF ra
o y
Ġ1 2
1 0
Ġan y
c es
ĠB l
Ġwar en
e k
Ġf ol
ing en
Ġo b
t t
ĠTe il
D as
Ġs eit
rie d
ie w
Ã¤ hl
u de
u le
is te
ent lich
ab e
ĠU m
ĠK on
or k
in ter
in der
ĠJahr en
ret urn
ge m
Ġin ter
ĠW elt
ach t
Ġ1 4
Ġo ver
ĠBer lin
s er
in a
i x
und es
o ber
w erk
ĠK l
f all
if f
Ġp art
b r
Ġd is
at ing
w ick
ĠB o
ent r
ĠâĢ ľ
ĠÃ ľ
ĠT r
Ġbe g
ot t
lin e
ir t
Ġ1 3
iel t
ar n
Ġzur Ã¼ck
S ch
Ã¤ ter
Ã¶ s
en k
Ġ em
Ġst ud
ĠSt a
g esch
s h
ĠE x
T h
le d
os s
ĠNe w
aup t
eit en
Ġre c
Ġl ike
o ol
ĠJ an
ic t
ĠA nd
Ġs erv
ir st
at es
1 6
ĠF re
p f
eit s
Ġo ther
ĠA ug
Ġwh en
ck en
ĠB r
Ġpro v
is m
ot h
ĠJ un
Ġs c
st ra
Ġ ra
Ġp e
schaf ten
rie g
Ġd am
b au
ver y
y p
la ge
1 5
Ġh aben
Ġpro du
Ġh o
gen d
Ġdeutsch er
ĠSp iel
et h
y n
m a
Ġge hÃ¶r
or g
in t
hal ten
ge w
rie b
c om
ĠG en
Ġbe k
ar b
en z
Ġg roÃŁ
form ation
ĠS h
ĠF ilm
o f
Ġn o
ĠB es
ĠT ra
1 2
f r
Ġthe m
ĠJ ul
am t
Ġp h
glie d
sp ieler
ĠTh is
ov e
ĠGem einde
in s
ĠM an
Ġf r
E r
u ar
ĠSt ra
ell en
Ġer sten
e p
Ġj ust
he im
ster reich
Ġhe l
ĠJahrhund ert
g te
en de
a um
ĠG er
a ir
Ã¤ d
Ġs up
Ġin d
un k
Ġ19 2
G eb
Ġdies e
Ã¤hr end
ist or
A n
y m
ĠEn t
Ġp re
Ġh ow
L iteratur
Ġer st
Ġk l
Ġ if
Ġv ers
ogra ph
al en
l Ã¤
Ġth ere
V er
h and
I m
ul l
o ck
ar r
ĠÃľ ber
b le
Ġbe im
ĠE l
ĠN ov
sch en
tern ational
ĠO ber
uÃŁ ball
neh men
Ġne ed
Ġre g
tell t
7 8
Ġd rei
Ġj e
Ġa g
Ġwh at
ĠA ut
ÃŁ en
o ff
ĠAug ust
me ister
op le
aus e
ĠkÃ¶n nen
Ġjed och
a x
ĠZ w
Ġit s
Ġ 0
Ã¶n ig
ra ch
uch t
ĠAr beit
Ġm us
ic es
Ġt r
ĠB undes
Ġin cl
en e
au er
ic s
b o
Ġg r
f ter
if e
Ġk onn
i der
d ay
Ġin to
2 00
A l
a ce
ĠM in
sch ie
Ġf o
Ġw ere
un st
ĠI nd
1 4
Ġh ad
und e
io us
Ã¤l t
as h
k l
ĠE urop
ier ten
Ġc l
el y
rÃ¤ s
Ġw el
p iel
ĠB and
e ich
1 3
ĠM en
Ġth an
ĠN or
es ten
Ġm ost
Geb oren
elb st
f ess
Ġg esch
Ġ201 8
ĠÃ ĸ
Ġsp Ã¤ter
ĠF amil
Ġg el
D e
ass en
Ġf Ã¼hr
w ard
ĠAr t
Ġih re
Ġa cc
ro und
Ġm ake
Ġge b
ĠB au
ĠZ u
Ġbe c
Ġf irst
ĠSt ud
ber t
eb s
o us
ĠC ar
er al
Ġer h
Ġa pp
Ġwo uld
ĠH and
Ġd ann
ĠM o
c ed
il it
h ne
un ter
ra nd
tem ber
Ġb u
z er
Ġb o
f Ã¼
ĠChr ist
n ung
Ġet wa
ĠP e
le x
ie f
ol f
U n
b l
Ġd r
iv er
je ct
Ġh and
Ġa c
and er
Ġd a
st it
z ial
Ġth ro
ĠM ed
r es
z w
ĠFran k
p or
Ġk e
Ã¤r z
ar m
Ġpe ople
p s
Ġi hn
ur t
' t
ĠM on
Ġb el
pr il
he l
k er
Ġg ibt
ĠSe p
s o
tra g
Ġa p
R e
de d
ib le
in ess
ĠP erson
ier e
Ġge m
Ġl ook
Ġkn ow
b ach
ĠN ord
5 0
Ċ Ċ
Ġw enn
ch er
f ul
k a
ĠK Ã¶nig
Ġus e
Ã¼ t
Ġe very
en den
r icht
Ġw ell
ho f
ĠDeutsch land
ĠG roÃŁ
ion al
ĠM Ã¼n
ul ar
ĠN ational
je kt
ĠP ol
ĠAl l
M ann
Ġ ich
ĠG esch
d ition
Ã¶ glich
ĠM al
u z
ĠSep tember
v or
in er
up pe
ow er
ĠNov ember
et s
Ġver b
ĠJun i
ein s
le t
at ive
ĠP f
w ohn
it al
ir k
Ġm o
we g
uf t
2 1
Ġon ly
kt ober
b ild
lich er
ru ck
ĠQ u
Ġsein em
ag es
w n
Ġlie gt
Ġweit er
ein en
i qu
ien ce
ult ur
st adt
ĠH aupt
ab ei
. )
Ġsein en
Ġer fol
k reis
Ġf l
ig ung
u es
ĠPl atz
ĠA pril
schaf ts
der n
at a
ĠĊ Ċ
hal b
re it
uÃŁ er
ut ion
op h
Ġh ier
ĠM ann
t re
g ang
Ġver y
at or
p la
Ġm ay
Ġz usammen
oh ann
ch ts
Ġ3 0
un kt
v ers
it el
us iness
ĠE nde
a den
on st
i ze
Ġa ct
v en
Ġdes ign
al k
if ic
ar s
a id
es en
ĠY ou
ĠO b
schie den
ro l
Ġb ack
ais on
eit er
ass er
v ent
a kt
Ġg leich
a gen
g est
ur z
ĠJul i
ĠP olit
ĠS c
M it
ĠMa i
ke hr
ess en
Ġhel p
issen schaft
at ch
ran s
Ġer ste
Ã¶ff entlich
Ã ¡
Ġ /
ĠVer b
Ġver w
a i
ĠJan uar
ran z
ĠB ei
ĠV ol
ĠO ktober
ĠI I
ic a
c y
Ġman y
gr Ã¼nd
hal t
iv en
G e
ste in
is en
Ġyear s
Ġg er
Ġcom m
ĠF e
am s
ĠB et
ap p
Ġ201 7
a ul
sch l
Ġd own
Ġ19 0
Ã¶ ÃŁ
an y
ĠI s
ien st
re g
Ġs ho
ra d
es ter
eb ru
Ġex per
ĠM Ã¤rz
ich ts
Ġh in
ĠĠ ĠĠ
ĠOr t
Ġle tz
af f
m s
Ġs he
ĠGr und
Ġand eren
Ġf ind
ment s
âĢ ¦
st Ã¤nd
Ġer w
Ġd ire
ĠâĢ ł
N ach
ĠH och
Ġber eits
w alt
Ġs ol
Ġe ben
it ed
ĠK unst
isch es
ar ten
ein g
if fer
Ġe igen
Ġd ort
Ġb esch
u c
Ġ201 6
Ġfol gen
Ġt wo
Ġund er
Ġh igh
as ed
um ent
Ġl oc
ĠS Ã¼d
Ġcon s
Ġein z
r ess
Ġb l
Ġz e
Ġas s
Ġ201 4
amer ikan
b es
z ember
Ġ201 5
ze ug
ĠJ ohann
k te
Ġan ge
Ġihr er
Ġdies em
it s
Ġth ese
Ġthro ugh
Ġh ome
Ġse hr
Ġkonn te
i or
c ts
Ġih m
vel op
Ġs m
ust r
olog ie
Ġst and
u k
Ã¤n g
Ã¼ tz
Ġun s
ĠK inder
Ġ =
ĠH aus
z ahl
Ġ201 0
Ġ201 3
Ġsp ec
Ġbes te
al ien
or ben
De utsch
Ġ201 1
c ess
Ġ X
1 1
gr und
am es
ĠF ebru
em ent
b ahn
ce pt
Ġv ier
if t
u ck
b uch
Ġ18 9
s atz
ĠW h
a ur
ĠF Ã¼r
Ġk am
Ġv iel
ation en
in al
ĠF ried
Ġg u
ak ing
Ã¤n ger
ut h
ost en
Ġk eine
use um
he mal
Ġ201 2
Ġbe fin
Ġin v
ĠO n
Ġre l
w ahl
Ġgo od
Ġte il
ĠW erk
ĠM et
il ity
ar ch
f eld
ĠPro du
la gen
ĠDe zember
3 0
ei d
ĠB ar
op p
Ã¼n st
ĠL iste
ĠV ers
Ã¼r ger
Ġ2 5
ĠA mer
ĠF ol
ebs ite
Ġ200 8
r s
ge t
ion en
ist r
S ie
zeich net
Ġs uch
ra g
Ġa kt
Ġp erson
ĠC l
ĠĊ ĠĊ
ĠKir che
ĠW il
ic an
f ach
Ġsch w
W e
O r
Ġer sch
ĠR es
ĠS k
ow s
Ġs elbst
Ġhe ute
Ġ1 1
y l
ĠVer ein
Ġ .
Ġp ar
f ang
ĠLand es
Ġm on
o ugh
ro p
ur s
ĠMus ik
mit tel
ĠAr ch
ip p
m at
Ġg reat
a j
Ġw ay
ĠB ild
Ġm ark
ĠS aison
la uf
f te
Ġm in
Ġm ach
fall s
omm un
Ã¶ st
Ġa fter
ism us
rif t
ranz Ã¶s
sch e
ĠC on
Ġ200 7
Ġn ow
ig a
Ġde c
Ġ200 9
os ition
Ġw Ã¤hrend
w ay
Ġb en
ing er
Ġpla y
Ġaus ge
as ch
Ġ [
Ġm ed
ĠRe ich
in nen
ur ing
Ġl ang
Ġar t
o gen
= =
v iew
ĠIn ter
rit t
e h
Ġ9 78
is ion
c ial
an gen
ra ft
s etz
ern se
al th
Ġf ree
A us
ĠF r
ĠG l
it ies
in es
sch n
gan is
Ġp o
Ġd ay
Ġ2 4
Ġall er
p ieler
ut en
ĠO ff
ĠUnivers itÃ¤t
Ġte chn
ges tellt
up pen
s on
Ã¶ ch
Ġ %
ĠJ u
Ġe ff
for e
Ġver schieden
Ġwh ere
Ġb usiness
Ġs om
Ġin c
Ġand er
we il
ĠW est
mal s
ich er
Ġs ub
iv es
A r
he d
Ġ Â
19 9
ĠFebru ar
Ġd el
ĠG o
sch lieÃŁ
ĠPh il
ig te
hr en
Ġqu al
ĠG eschichte
ĠA s
z ug
Ġa v
los s
te te
ach sen
B e
ĠUnivers ity
ĠH am
Ġsp iel
Ġbei den
Ġse e
ĠW ert
g ra
Ġsp e
i us
Ġst att
Ġse c
Ã¤ch st
om en
A m
h ol
ut t
a der
z ie
ĠV on
Ġw en
z ent
ĠR om
ĠAl s
rie ben
Ġim mer
Ġgr Ã¶ÃŁ
Ġbec ause
Ġ200 6
r ip
sp iel
. ,
ĠM ark
ĠE le
y r
ien d
ĠS er
Ġge f
an ts
Ġne ue
Ġon line
ĠMit glied
Ġev en
Ġdam it
Ã¼ l
rÃ¤s ident
âĢľ .
Ġre m
Ġwor ld
b um
ain t
Ġ ele
ĠT o
ĠB uch
ogra f
ell schaft
hr er
ĠDies e
al ter
Ġ( âĢ
Ġz un
ĠCh ar
ĠB as
ĠD r
fÃ¼hr t
iss ion
u ge
ĠN ieder
Ġs ystem
Ġo hne
il le
Ġw ant
Ġ18 8
stra ÃŁe
Ġ ,
Ġsch on
Ġd iffer
Ã¼n f
Ġdes sen
m Ã¤
ĠD ar
ĠVer lag
P ro
o hl
Ġo wn
{ @
Ġincl ud
ĠD es
ĠH ol
Ã¤ hn
ĠJ ohn
Ġh ere
ĠC he
ĠW ien
ot her
Ġc ar
Ġ1 00
il t
ĠG rÃ¼
Ġde velop
ro ss
Ġ200 5
Ġth en
ĠF ahr
Th is
Ã¼ s
h in
Ġre ad
Ġc re
lo ad
n o
ĠM ich
Ġv is
Ġs im
ĠN amen
Ġp ol
ĠS al
tel le
Ġco uld
ch s
Ġ end
f ra
ust om
lin k
c ted
ĠSt re
Ġ |
T e
ĠE d
kt ur
Ġg ra
Ġg ab
p ert
Ġf est
Ã Ń
ie g
âĢľ ,
Ġar beit
Ġ ed
h re
Ġs ur
Ġf re
Ġpro gr
en ce
in o
Ġin st
ik a
Ġin formation
ro up
ĠI f
Ġf rÃ¼
un ktion
co de
Ġs aid
Ġihr en
ur es
Ġus ed
Ã¤nd er
b and
Ġbe f
Ġf ranzÃ¶s
ĠEin e
l i
ĠD urch
ĠH Ã¶
iv ing
Ġm ade
a e
grÃ¼nd et
i ra
ĠK r
pr ess
le ase
in ing
Ġf amil
Ġs k
isch of
ĠMÃ¼n chen
in ce
ĠY ork
Ġerh ielt
ĠF uÃŁball
Ġe hemal
b t
Ġs ei
ĠL eb
L e
at her
o te
ichte t
ĠW or
is piel
ur r
g abe
ch sel
Ġ20 00
ĠU r
Ġ el
Ġm uch
ig es
ar i
Ġt ake
neh mer
ĠL in
o ge
Ġv al
Ġre al
ĠMit tel
los sen
Ġre qu
ĠKar l
4 0
ĠMen schen
G eschichte
h ard
w end
ag er
ater ial
ĠD an
ĠUnter nehmen
Ġbek annt
ĠAn t
Ġprov ide
um ber
sch ule
ĠP art
aus pieler
Ġder en
est orben
ĠH al
Ġst ar
ot s
z u
ĠSch l
olog y
Ġ2 2
ĠÃ Ħ
nah me
Ġs el
Ġs Ã¼d
un n
ĠK omp
Ã¤ ude
Ġste ht
is k
Ġd on
m ed
ĠP er
w ert
Ġl ife
all s
f ass
ĠB est
ly mp
wohn er
uf en
ĠM ill
le y
re cht
Ġe as
Ġo pt
ĠF in
ĠA t
Ġne uen
iel d
m ar
Ġ200 4
w are
Ã¤hl t
stell ung
Ġ u
ĠSchw ei
Ġ18 7
geb iet
all en
p le
ĠT od
kt or
Ġsho uld
Ġi de
ak es
ĠK rieg
ĠPolit iker
as on
ubl ik
Ġch e
ar ge
e ct
Ġdies es
u ter
g leich
u x
Ġn ah
it zen
ĠW ill
2 5
Ġ2 1
ent ly
ernse h
f ern
ĠB ay
iqu e
Ġb zw
6 0
ĠOr ts
p unkt
Ġ ur
Ġp ubl
ap an
Ġb eing
Ġd abei
ĠPerson en
ĠS an
ug ht
at ure
g y
ĠG u
de ut
L eben
k rieg
Ã¤t z
um mer
Ġof fer
Ġf Ã¼nf
ĠD o
Ġto p
ĠFried rich
k auf
ig ten
ĠB ahn
age ment
ĠFor m
Ġr ight
l ing
Ġb ed
Ġp ra
ĠSch ul
Ġc ol
Ġ201 9
Ġweit ere
Ġ2 3
ĠA ss
Ġent sp
tel y
ond er
ĠL ei
wick lung
tell er
ĠMe ister
ĠM ag
ip s
Ġl a
ath ol
fahr en
t ag
ann te
Ġs u
2 2
ĠH ein
ĠK reis
Ġbefin det
ide o
ir d
ir che
Ġg l
im es
Ġdeutsch en
Ġad d
ĠW ahl
Ġ $
G estorben
in en
al er
sch utz
s ol
u gen
ĠBer g
ĠP aul
ĠC omp
ĠW er
u ally
oll ow
la ck
sp ort
Ġp olit
ĠR Ã¼ck
Ġa round
ĠE m
Ġbe fore
Ġen g
l en
A b
gel e
out h
ĠB ere
ĠW ei
Ã ³
ĠB ra
ed er
ĠR ad
as ter
id es
Ã¶ m
i den
Ġ5 0
re ib
Ġer reich
Ġalle m
Â Ń
ran k
Ġl ast
irt schaft
Ã¶ sterreich
w w
re uz
Ġl o
c a
Ġein ge
ĠFra uen
8 0
ĠB en
ĠLeb ens
ĠP at
s w
st off
Ġc ustom
Ġw rit
ut ter
az u
Ġs ite
ur o
Ġin ternational
Ã¤ us
ĠN atur
schl uss
ĠJ e
r ib
ĠA uch
it Ã¤
ĠS ohn
an e
4 5
ĠF est
glie der
Ġe ach
f ilm
ct or
um e
am ent
Ġ200 1
Ġag ain
Ġd id
Ġc olle
re en
Ġ â
es ent
Ġb r
Ġcomm un
Ġre t
E in
o ks
Ġav ail
ĠB el
Ġ200 2
k ommen
ĠD aten
lass e
Ġs l
Ġzun Ã¤chst
a ar
ĠZ usammen
ĠIn ternational
ĠFamil ie
ĠPro v
iz ed
ck t
Ġs er
Ġserv ice
Ġth ink
Ġwor den
om in
rs g
ĠW asser
an st
Ã¶l ker
Ġ200 3
sch w
sch rift
he in
Ġch ild
re ad
w ig
ĠGen eral
Ġbeg ann
ich ten
gl isch
Ġc le
Ġp ost
ond on
ch te
ĠM ot
Ġ ...
Ġ2 6
Ġsh ow
k m
Ġt rans
ĠIn stit
Ġwe ek
Ġth ose
f ort
hel m
b ur
ru e
ĠCo unt
ĠDeutsch en
en det
gem ein
sch ul
p art
Ã¶r der
st re
Ġ199 0
F or
il der
Ġden en
n a
ĠSta ats
ĠLand kreis
ĠL a
um s
ĠSt and
ig ur
er ts
our n
z t
b in
Ġdiffer ent
w ays
ing le
Ġwh ile
ĠL ie
Ġm od
h Ã¤lt
om mer
c on
k ten
ĠO st
en der
ĠT itel
Ġ2 8
Ġent stand
ĠH ar
Ġdeutsch e
i am
Ġl ong
ĠW ohn
< /
Ġfo und
re chen
2 3
Ġc are
od y
Ġl ove
Ġb as
Ġf and
ĠK ap
ho de
Ġ18 6
ur m
Ġre ally
it ter
Ġ #
r i
lo ck
itt le
nd ern
le it
an a
M e
sch ied
d ings
nis se
Ã¤ uf
Ġgew ann
ĠM y
Ġeben falls
Ġco unt
omm t
E x
a el
Ġs ign
ist s
min ister
ĠH ans
N e
ĠGe gen
C h
ĠGe w
ear ch
Ġr est
ĠS eit
ess e
ĠT er
Ġdo es
Ġpla ce
Ġg est
ĠN ame
Ġs tell
ĠP la
pl ic
ĠB re
ĠL eben
Ġh abe
g ie
ĠFran z
Ġer r
r ic
Ġver Ã¶ffentlich
7 0
ard s
an ad
ĠK ont
Ġand ere
I t
Ġ *
Ġn umber
Ġd u
y ch
ĠP ort
rip t
Ġp ass
ent en
ĠÃĸ sterreich
ĠM od
ĠD em
Ġf un
ro om
en ter
ĠD re
ĠTe chn
ĠB i
Ġso ndern
g or
ĠM or
Ġp os
Ġavail able
ĠKir chen
ĠM at
ik t
ĠRe p
amerikan ischer
h af
ĠH el
Ã¤nd e
ĠW ar
Ġh istor
er st
Ã¼nst ler
z iel
d orf
E R
Ġ199 9
Ġm ov
ĠPar is
am a
Ġc our
ĠEn g
ĠS eite
Ġh im
Ġph ot
ĠC ol
we en
j Ã¤hr
Ġv ar
Ġfr iend
o de
ĠP re
ĠD orf
F uÃŁball
Ġs et
ĠB Ã¼
Ġje weil
rÃ¤ ger
as st
Ġz ahl
ĠL ondon
e te
ĠPe ter
ire d
19 8
Ġh al
h ung
fÃ¼hr ung
ann ten
Ġne u
Ġb oth
n ess
ck er
Ġ2 7
Ġmark et
p os
Ġexper ience
ĠBere ich
st r
Ġander em
Ġb il
Ġpro fess
c i
Ġver l
igh ts
Ã¤n ge
Ġf ollow
Ġst art
gen ommen
Ġpro cess
t he
ĠSch rif
ap er
Ġ20 20
ĠHe im
Ġdar auf
ord s
sp rÃ¼
Ġl and
y d
e ver
Ġn or
le i
uÃŁ en
2 4
ch es
is se
amp f
Ġt er
ĠM ain
ra um
ĠK n
Ġst ill
it ions
lich keit
Ġn un
Ġr und
y pe
Ġus ing
Ġk ein
im al
iv id
D R
m us
Ġp at
al y
Ġmon th
ĠO lymp
ang el
is hed
Ã¼ ss
Ġch ar
I I
Ġo pen
z og
w ork
i as
j ahr
Ġv iele
Ġb re
ĠD on
Ġm uss
ĠK ultur
haus en
ĠJu gend
Ġcomp any
Ġinclud ing
ne y
den s
or ge
ĠB ut
ap pen
b y
ĠD av
Ġat t
Ġsoll te
il ome
Ġst r
ff en
Ġa ut
Ġa uÃŁer
e hen
ess er
ĠP al
h a
Ġw icht
E n
iet y
g ung
Ġc lass
Ġsch ool
ĠM art
um en
ten d
ges etzt
Ġad v
Ã¼ b
Ġbet ween
a uch
ol ution
Ġfe w
ass e
oll en
se e
Ġb ook
pl atz
Ġnah m
s c
Ġ2 9
Ġ '
et en
av ing
iz iel
sel f
ten s
ge d
Ġst ra
bild ung
Ġersch ien
ĠS up
ge ord
v Ã¶lker
on nen
tell ung
v es
ilit Ã¤r
Ġspiel te
t r
ir l
ĠJ ose
ĠP ark
Ġle arn
te i
Ġfin den
Ġsm all
af fen
ap t
A uf
iv al
g aben
Ġdies en
Sie he
tern et
Ġbe zeichnet
Ġbu ild
et te
Ġf ast
ond ere
Ġent wick
I N
w ei
Ġfamil y
en nen
ĠGem ein
ourn al
f urt
ĠVol ks
ĠSch auspieler
om at
ograph ie
Ġte am
al es
us h
ĠE v
Ġein ige
enn t
ver n
Ġro om
an c
ĠK om
an zen
it es
H rsg
ĠM useum
kl Ã¤r
ĠB Ã¼rger
ll en
tra gen
Ġer halten
Ġ :
Ġ199 8
ĠReg ion
Ġb rit
ĠN o
ell er
ĠR ich
ct ions
z ig
Ġim port
ĠSta aten
g ar
Ġserv ices
ĠgehÃ¶r t
ief ert
ĠSp ort
Ġc al
p rÃ¤
Ġt rat
cc ess
Ġv iew
y er
Ġn eben
y le
Ġd i
ĠC om
rÃ¤ n
ĠB rÃ¼
Ġwel che
Ġf ull
9 0
cept ion
ĠC or
w as
us ch
Ġletz ten
s icht
ĠD u
ies en
Ġfor m
ĠT our
Ġd uring
ĠS il
ur y
el te
fol ge
U S
3 3
Ġhe alth
ĠFol ge
Ġcomp le
an ten
.) :
Ġ <
Ġ4 0
ĠWil helm
oc i
ot he
f Ã¤
Ġih rem
I D
ĠEin wohner
oss ible
ĠFamil ien
Ġp op
or ts
th ing
z entr
ost er
ĠC ont
b et
Ġm Ã¶glich
Ġapp ro
Ġg ut
Ġs ame
gr amm
o le
ĠBe g
k on
Ġst ark
ĠB urg
Ã ¨
ĠGe org
Ġgo ing
Ã¤ re
A T
tre ten
Ġd ating
Ġerst mals
Ġpro m
Ġqual ity
ĠS erv
2 6
teil ung
Ġgem eins
Ġsup port
o ver
Ġerfol g
lass en
m et
ĠJahr es
ĠGrÃ¼ nd
ĠC ity
ĠC al
ar ly
Ġspec ial
ĠAmer ican
ĠHam burg
2 8
ĠF o
om as
Ġv oll
Ġ18 5
ĠT or
w ar
op e
ne te
Ġsch lieÃŁ
Ġ198 0
ĠT ag
Ã¶ t
Ġare a
ĠFra u
ĠgroÃŁ e
Ġm ember
de utsch
ĠThe y
uch s
on es
Ġzw eiten
D F
ind ung
Ġor der
w or
Ġ199 6
ĠFor sch
nah men
h am
Ġper fe
v ed
ĠK ais
ĠH ier
4 8
ĠW ir
ĠPro fess
ĠSch n
n ungen
f ts
st ru
Ġc ond
Ġzahl reich
g eschichte
Ġc or
och en
ĠRe chts
Ġ194 5
Ġdis c
ber eich
Ġm en
um p
ei den
z el
ĠB ro
ĠHer r
Ġincl ude
op f
ĠUS A
l ess
Ġl ittle
ĠCount y
Ġpr iv
den k
ut s
Ġg ing
ic ally
m m
s ych
ĠB esch
d ie
ges amt
Ġauf ge
Ġlook ing
an te
nah m
la ub
at ter
ab el
Ġ199 7
rit ten
et ail
Deutsch er
Ġb ring
Ġvis it
ar a
Ġ197 0
ograf ie
3 5
ĠO l
igkeit en
w issenschaft
Ġhat ten
Ġbeste ht
imm t
la u
ĠJ o
ĠK e
Ġakt u
ĠA uss
ĠAl t
ĠN ot
2 9
ĠgroÃŁ en
- -
Ġch o
Ġth ree
Ġse x
ĠgehÃ¶r te
il y
w est
Ġfe el
re ch
sp r
Ġal ways
ĠS he
de te
Ġmehr ere
Ġ(âĢ ł
w ort
Ġer ne
Ã¤ che
ĠT em
Ġc urr
ĠF ach
Ġpro ble
st Ã¼tz
Ġor gan
d ienst
w and
g o
Ġein fach
Ġge grÃ¼ndet
Ġw ater
ĠH il
Ġin ner
Ġke ep
Ġab sol
ĠJahrhund erts
it u
in ner
uf f
be z
ĠA ir
Ã¼ h
Ã¤ ft
im mer
ĠD a
Ġto day
az z
alt ung
Ġw est
ap e
Ġg ar
Ġme et
ĠR uss
id s
Ã¼ hl
ĠB ern
Ġ199 4
ĠC olle
Ġper form
H e
Ġf ac
Ġg row
Ġex c
ĠH ow
Ġan t
Ġb ro
7 5
l ang
ĠR u
im ent
P erson
Ġsein es
zeich nung
Ġver m
Ġ199 5
d o
ĠTh ere
at iv
ĠS ol
il es
Ġab le
s st
Ġm ind
ut lich
Ġkl ein
l Ã¤nd
wer b
och ter
Ġ Ã¶sterreich
Ġc los
if iz
4 9
um b
ĠHein rich
Mit glied
j oy
Ġto o
hn en
ĠWelt krieg
ver t
ĠAn fang
ol oge
ĠK at
ĠA lex
Ġg anz
ilome ter
on y
Ġcom e
ĠMich ael
ond ers
Ġ est
Ġw ebsite
Ġb ig
Ġl ot
h Ã¤ng
Ġpart ic
Ġg ot
Ġg roup
ĠS ystem
Ġst ate
ĠSp e
ĠG old
ĠB ischof
Ã¤ mp
b aut
Ġh ard
ĠIn s
le tz
Ġk ommt
Ġo per
cke y
ĠWor ld
Ġb ie
ĠGr uppe
) :
B er
Ġn ational
sch ein
ĠW ebsite
ĠR ed
Ġd ata
Ġacc ess
schn itt
Ġst or
Ġth ings
h ip
Ġk on
uch te
i ents
Ġin t
Ġc r
heit en
Ġres p
entr al
eth ing
19 6
2 7
Ġun ser
ra cht
Ġd azu
ĠF ot
for d
Ġbel ie
re as
ĠE he
ier ungs
Ġbe h
Ġ20 21
b ed
ĠR aum
Ġs ince
ĠD ire
Ġ199 2
ĠLei p
ar l
ft ware
Ġd re
Ġwith out
Ġw ei
Ġwe gen
Ġhe ut
icht ung
. âĢľ
gem einde
ĠZ e
Ġis s
Ġ199 3
ra che
Ġc ost
ĠR ei
Ġob ject
ĠfÃ¼hr te
ĠM ay
Ġ18 0
w elt
Ġher aus
Ġsch n
sprÃ¼ n
our s
en a
ĠEr z
Ġbe aut
for der
ĠProv inz
ĠQ ual
le hrer
Ã¶r d
ĠB ed
Ġp ower
ĠN eben
ĠB ad
ĠVer walt
ĠGra f
ig ital
utz t
ĠH istor
ik en
amm lung
es te
ir on
Ġverw endet
ĠW ind
is iert
Ġre ce
mÃ¤ ÃŁ
bur ger
we is
il la
one y
ĠHe il
Ġcont in
in c
os en
ĠFl ug
i at
st ag
Ġre p
Ġs ay
ĠA p
ĠTe am
Ġt yp
pe ct
a at
ĠK Ã¶l
lie b
ĠIn formation
G ibt
ĠK o
ĠS en
im a
ĠChrist ian
F ilm
gr iff
gan gen
S p
b el
ĠW olf
3 6
4 4
ĠSch ool
ĠBet rieb
Ġs ure
ĠR ah
ĠS outh
sk i
f el
ĠS m
e e
Ġg ame
Ġl in
pl oy
Ġm et
os oph
! !
Ġ3 1
ĠL ud
Ġaller dings
Ġsh ort
Ġwith in
ĠG ott
ĠArch ite
. âĢĿ
A d
ĠZ ug
ĠL auf
Ġl ist
ĠD is
ĠF er
ier s
Ġge ht
er in
Ġo pp
g al
ĠA ustr
Ġ199 1
atur es
19 0
Ġd ah
ach en
3 8
um an
if ik
Ġgen annt
Ã¤ m
3 9
19 5
ar z
ate gor
Ġwe chsel
ĠU l
Ġall en
Ġstud ents
ts teller
Ġh inter
Ġind ivid
en glisch
ĠSp ieler
Ã¤t ze
ĠMe ter
Un ivers
j a
Ġl ight
== ==
Ġgen er
ĠV ater
Ġev ent
Ġd ays
Ġe qu
ĠEin satz
Ġk urz
ĠEr n
ĠS Ã¼
ĠP rÃ¤sident
Ġg ive
Ġt ro
ĠG ed
ĠAl bum
Ġne xt
Ġt ry
ĠF eld
Ġho use
k irche
Ġg rÃ¼
um m
ĠT ochter
omm and
ze pt
ĠK ur
Ġhe ad
ĠHo f
Ġg ele
ĠO p
ub e
Ġp ay
ganis ation
Ġval ue
Ġ x
gr uppe
co unt
B ei
l iga
I f
Ġsom ething
ĠEr st
h ere
ist ory
Ġle ad
ĠTh omas
der s
Ġt Ã¤t
ĠMit te
ar te
Ġ198 9
ĠEurop a
Ġse chs
ĠE nd
l ungen
Ġqu est
ĠM ont
if ul
Ã¶r per
ĠTe xt
ab r
ĠS a
Ġwork ing
ĠS eiten
Ġinv est
ig inal
ein t
ro s
ers Ã¶n
Ã¼s sen
Ġbet ter
Ġimport ant
d ing
ent ial
ĠMa x
ĠA g
ĠW al
ĠV al
3 7
am b
Ġet was
ĠMin ister
Ġarbeit ete
Ġprodu cts
fol g
und s
ain s
Ã ĸ
c ript
Ġh ol
reib ung
Ġd av
Ġs etz
and s
ĠW inter
Ġw Ã¼r
f re
pro du
st Ã¤t
Ġc a
ĠS oc
ch ten
un ft
Ġf act
ĠM c
ĠL uft
ĠNe u
d ruck
4 6
Ġweit eren
ĠN r
ĠSt at
ill s
ĠW ith
n ame
Ġk m
at ten
Ġb ra
z y
ĠZ ahl
m ark
Ġl assen
ĠGeb iet
sh ip
ein ander
Ġm ust
D ies
Ġa ir
ĠP o
ĠH a
Ġch ange
ĠNor th
g art
Ġste hen
Ġmus ic
Ġw omen
ĠGeb Ã¤ude
on ist
ĠRah men
Ġk omp
ĠfÃ¼hr t
Ġloc al
ĠD ort
Ġinter est
rÃ¤s ent
heit s
ĠAm t
A N
iz in
ik el
it te
ist ischen
tell en
bes ondere
Ġsec ond
4 7
Ġn ame
Ġverschieden en
L iefert
op s
Ġstud ierte
ĠT ro
Ġs ele
8 9
19 7
l am
Ġperson al
Ġd och
ĠBe z
ut es
ĠâĢ ¦
Ġerfolg reich
ge ber
Ġeas y
Ġa ff
ĠPl an
ent al
her r
ĠReg ierung
le ben
Ġbe w
Ġk ommen
Al s
j et
o x
Ġ Ð
Ġp ict
ig ent
Ġn ieder
gen de
E S
ĠW ald
ĠP reis
am mer
la v
Ġle t
ĠZ iel
Ġ196 0
Ġm ain
ĠBe ispiel
O b
ĠW o
ser ie
ĠFrank reich
Ġpra ct
schlieÃŁ end
t ing
ob ei
ĠSt utt
f il
ic le
ir m
Ġen joy
ĠS im
Ã¤ ss
p ly
ĠSte in
ĠB rit
irt schafts
A S
ĠMart in
Ġo ld
en g
Ġc ert
th ers
s weise
ĠT re
ĠWe g
Ġb ele
Ġres earch
Ġcon c
ĠF il
ka dem
ĠD i
iz ation
O N
w irtschaft
Ġof t
Ġ6 0
im men
unk te
iv ed
Ġj ob
ĠA ward
ĠK ant
ĠRom an
Ġh och
ĠF all
ur en
ĠG ar
ib li
Ġ198 8
ag ue
ort un
ĠRo bert
ver b
ĠSe e
ĠOb jekt
/ /
ge geben
ĠF C
gen den
Ġpl an
ĠHÃ¶ he
m b
Ġl arge
ĠEnt wicklung
ĠB rand
st Ã¼ck
ĠD abei
teil t
ĠLeip zig
ĠD ienst
ĠThe ater
ĠE isen
Ġt re
ĠS ommer
Ġn Ã¶rd
ob il
h end
st ieg
Ġact iv
ĠA kt
Ġjeweil s
Ã¶glich keit
Ġperfe ct
z ogen
v ille
Ġt rue
ĠH ann
ĠS eine
ĠSchwei zer
E s
Ġex ist
la us
rÃ¤ ge
ĠS ein
Ġeigen en
Ġfo od
ĠK ommun
ra y
ĠS itz
em s
ĠtÃ¤t ig
sch eid
Ġw obei
ĠE p
ach e
ĠMar ia
Ġt urn
Ġl Ã¤
ver ein
if ied
ĠZw eiten
Ġap plic
Ġan other
C H
ĠSchrif tsteller
ĠI hre
Ġco ver
Ġprogr am
Ã¼ gel
ĠR el
ĠGes ellschaft
Ġwor ks
ĠLud wig
ing ton
Ġad dition
d a
es h
for sch
p end
ĠâĢ ĺ
ĠD en
ĠFrank furt
Ġne ver
richt ung
Ġfolgen den
ĠSt ring
ĠE is
ĠUn ited
ĠSch m
ĠU nd
ĠB ru
al ten
ĠStra ÃŁe
as k
Ċ Ġ
it i
ge ther
os p
' m
: //
nde te
ĠP ap
9 9
ure d
Ġpubl ic
ĠLe ist
ĠL ang
A R
gr ess
it ive
Ġer n
ab l
Ġchild ren
Ġm aking
ĠRe c
g ten
ĠKais er
it or
Ġp ort
att ung
Ġn a
ĠL iteratur
ĠM er
3 2
u el
ĠC omm
3 4
uch e
Ġauf grund
ĠR olle
Ã¤r en
Ġerfol gte
ĠB ur
Ġim pro
Y ou
Ġche ck
. "
ĠF ar
ĠDav id
igen schaft
ĠBe vÃ¶lker
ĠM utter
W h
l ow
we hr
Ġneed s
Ġmus ste
Ġ195 0
h Ã¶
ĠM Ã¤n
ĠO ur
ĠEin zel
ĠIn ternet
t y
Ġdav on
ĠJ apan
all er
Ġ198 7
Ġg ilt
Ġit alien
Ġm al
Ġpro te
b ei
geb aut
ag n
y ing
Un ter
ĠStutt gart
ĠRe gel
Ġd an
ĠK ol
i os
ĠW Ã¤hrend
Ġm ult
tel s
ok ument
ĠMann schaft
ĠTe x
Ġf lo
ĠF rÃ¼
rÃ¤ gt
w Ã¤r
A s
and id
ĠU hr
ĠP ost
lich t
ĠschlieÃŁ lich
ĠCh ina
ĠH ome
Ġdown load
f it
us Ã¤tz
ĠF unktion
Ġm ight
ul ts
o in
ĠNor den
ult ure
Ġc reat
Ġpro ject
Ġwe il
Ġ198 4
ĠG el
Ã¤ fts
ĠE ner
w ie
op er
ĠP ra
ĠSo zial
G r
ĠO per
a ÃŁ
lich es
is on
Ġm ax
Ġl aw
Ġsu ccess
ge f
Ġex p
eit ung
Ġwechsel te
8 6
ber ger
b te
Ġ ident
ĠH en
Ġv ideo
ĠH igh
Ġre view
ĠK ilometer
FuÃŁball spieler
O R
Ġt est
ĠHeim at
Ġ198 5
un ch
Ġf ile
an ien
ei le
Ġal ong
ĠMet hode
ĠâĢ Ķ
Ġde fin
id ge
ach er
Ġm ar
ĠSch loss
ĠFuÃŁball spieler
ĠEr geb
ab ility
M ar
ĠI hr
ab or
Ġse ver
ett be
3 1
Ġl ange
ran ken
Ġb ased
i ber
Ġver fÃ¼
ĠO t
Ġprodu ct
Ġw all
ir chen
S o
Ġl ive
Ġins gesamt
Ġs w
we ig
Ġ198 6
uch en
ord ing
f le
Å ¡
Ġcons ider
ĠReg ie
af Ã¼r
ip l
z ess
ĠA fr
Ã¶st lich
ĠOlymp ischen
in i
ĠP ass
ĠB ank
ĠJ ust
Ġse hen
Ġc ap
ĠBes itz
ĠBeg inn
rif ten
' ve
Ġm ir
Ġs af
Ġfin det
row s
Ġme ist
Ġinner halb
I S
Ġcon f
ĠEurop e
t il
ĠD enk
ĠI de
Ã¼r z
ran sport
ra u
ĠKÃ¶l n
ĠR hein
Ġerreich te
ar ing
ut ions
Ġse arch
oc us
Ġ198 3
wend ung
ĠD am
Ġs ingle
id ing
Ġc all
Ġgegen Ã¼ber
Ġur sprÃ¼n
Ġp age
ch an
fl uss
eth od
i ol
ĠF ernseh
ul ation
f o
Ġden n
ĠProfess or
ĠK Ã¼
Ġbeaut iful
f est
ges etz
Ġtra dition
h an
am ens
ck s
ĠStra ÃŁen
Ġcommun ity
ĠEr w
i ate
Ġas k
Ġap pe
Ġin sp
ĠF ir
ĠK Ã¼nstler
Ġunder stand
ie gel
g ing
l ungs
Ġgel ang
schul lehrer
ĠDeutsch e
ust ry
ĠT al
ĠPf arr
ĠK reuz
ĠMill ionen
ĠT yp
9 5
is ierung
Ġ Ã¶ff
Ġp ast
ĠĠĠĠ ĠĠĠĠ
ĠE uro
Ġf our
f ert
v iron
ĠMal er
Ġn ord
w ald
' re
Ġb lieb
Ġcour se
ĠSta at
g lichen
om an
Ġgeb oren
Ġmach en
f an
ĠA pp
Ġde v
F ernseh
ĠS w
ĠPro zent
zeit ig
Ġcon ne
Ġl ess
Ġa uth
ill ion
ĠMar kt
rei ben
Ġerne ut
te chn
ĠM os
Ġ198 2
Ġto gether
ĠAl ter
te gr
und er
Ġd ra
ĠH or
ok al
c ing
lÃ¤ uf
e x
o ten
on a
Ġ197 2
ĠSch iff
is ed
arbeit er
ic o
Ġoff ers
Ġ }
f Ã¼r
ĠM il
ĠC as
ĠSt ate
ĠKl ein
il nehmer
ĠPr iv
Ġh Ã¤uf
ĠJ ournal
Or t
Ġme isten
zeich nungen
E D
Ġl ine
ium s
Ġre du
is ing
deut ung
Ġk ind
Ġt em
Ġre le
Ġunter schied
Ġbel ow
c er
Ġn et
Ġbest and
Ġh aving
E N
ĠS am
Ġo ber
ĠAut or
Ġcont rol
ĠIn sel
setz ung
- ,
J ahr
ĠHol z
Ex ception
Ġkonn ten
Univers itÃ¤t
Ġmo der
Ġbes onders
ill er
it ing
ĠW ieder
re if
ian s
ĠDes ign
ĠL o
ver kehr
wa gen
Ġges am
h il
ĠW esten
Ġof fen
ĠZ eich
opp el
Ġeff ect
Ġc ity
Ġr un
mann schaft
Ġgew Ã¤hlt
s etzt
Ġein mal
A L
Ġdire kt
Ġ ir
en zen
Ġr uss
mb H
8 5
c le
Ġf ilm
Ġm aterial
ĠRe v
land s
ĠL ou
Ġn atur
4 3
f red
v oll
issen schaften
B au
amp le
geben en
Ġle d
Ġcre ate
b ank
ĠÃ¼ber nahm
Å į
fe hl
E igenschaft
it ten
Ġen ter
ge gen
Ġm oney
Ġm aj
ern er
Ġze igt
ĠM ad
ĠAn gel
h m
ru ktur
Ã¼r t
iv ision
ĠK al
t es
Ġ198 1
Ġc as
ru ct
con om
fer ence
be k
ĠS elbst
gele gt
Ġex pl
Ġer m
Ġent fern
erk e
ob ile
fahr t
Ġins besondere
Ġ197 9
ĠJohann es
Ġpro pert
ĠO sten
ktion en
ich ter
, âĢĿ
7 6
en ze
am in
ĠSÃ¼ den
al og
ĠHer zog
Ġele ct
Ġ {@
Ġ( )
ĠAn ton
Ġa way
ĠSt r
Ġ197 5
Ġwh y
Ġle ben
St and
Ġn ight
Ġre la
4 2
Ġfor t
ĠV ier
ĠGer man
" ,
Ġw eb
af en
itÃ¤ ts
Ġbis her
ll t
Ġp ot
he mat
row n
f s
ver band
en burg
ent ion
Ġze hn
if orn
ĠGes amt
Ã¼ ler
ĠOn line
Ġpr es
Ġeinz el
ĠC r
O n
ĠBer uf
Ġ197 4
ĠPr ess
wo od
Ġp ut
Ã¶r t
L and
Ġf av
Ġan s
Ġen gl
Ġg irl
Ġzw eite
Ġagain st
Ġcle an
ym n
ĠColle ge
t ain
ho ckey
n ov
ĠH all
ĠR est
Ã¼t zen
Ġ196 8
red it
Re g
Ġso cial
ĠDies er
Ġdevelop ment
ail le
ok rat
ĠW eit
ord nung
Ġ Ã¤
ĠG Ã¶
Ġt reat
ĠK ind
ra b
Ġver st
Ã ľ
ĠZ ur
Ġsie he
Ġd etail
Ġof ten
8 8
te ile
id ay
ĠArbeit s
ĠPro ble
h or
ĠR ichtung
ĠS and
ĠT op
ĠH inter
ĠI ch
ĠC D
g a
il s
Ġed uc
ann e
ue ck
Ġopp ortun
Ġkl eine
A A
ag o
je kte
Ġfe atures
Ġk ur
Ġsow ohl
h aupt
Ġz eit
ĠHo use
Ġv ol
Ġl ov
b ol
ĠA uÃŁer
ag s
ak ter
b an
ĠD om
ab ly
it chen
ab hÃ¤ng
ĠOrts teil
Ġr ange
Ġke y
m on
Ġb rand
ĠB eit
ĠW eb
ĠKrieg s
ĠO ne
ob al
Ġ197 8
Ġ(âĢ ŀ
k o
ĠD DR
un sch
ĠS ong
Ġem ploy
Ã¤us er
ĠAn zahl
Ġall ow
Ġb ody
Ġm Ã¼ssen
Ġhin aus
Ã¼ ter
ĠF rei
ĠG mbH
ĠN utz
Ġdel iver
z a
Ġvor hand
Ġ197 1
ĠII I
S eit
ord in
Ġfolgen der
ĠP ubl
Ġe ver
ĠB is
d es
Ġs ide
ĠIt alien
ĠZw ischen
F Ã¼r
Ġp ossible
Ġbeg inn
ĠSchwei z
ĠI r
Ġst amm
ĠVer trag
Ġpr ice
viron ment
p iele
ĠW hen
W elt
ĠM ilitÃ¤r
ĠLe hr
Ġerr ichtet
Ġb ar
ĠL es
ib r
Ġs ize
5 5
c el
an o
ĠS icher
Ġto t
Ġp lease
Ġz we
Ġan geb
ger ufen
ĠJose ph
es tern
ĠSch utz
ĠTh ese
ĠGesch Ã¤fts
Ġcom es
ĠVor s
P l
Ġn on
Ġim p
Ġn Ã¤ch
aff el
V on
s ide
Ġ )
Ġverschieden e
Ġmaj or
P D
Ġb ene
ĠT age
Ġehemal igen
ar ian
ĠCl ub
at Ã¼r
Ġh tt
ĠAm ts
ibli othe
ĠT V
p re
Ġlie ÃŁ
ĠPar tei
f asst
al le
Ġ196 9
zeich en
Ġo cc
Ġviel en
Ġd ist
Ġprofess ional
ĠT urn
ĠBe deutung
Ġp ack
ĠS ub
ĠCar l
Ġfollow ing
Ġna he
ĠT ur
Q u
de ck
ir g
un e
me e
stell en
ĠM iss
sche ch
Ġind ustry
te id
ot or
Ġ +
u h
ĠRo ck
Deutsch land
Ġm akes
Ġle ft
Ġ197 3
ikan ischen
Ġpr esent
ĠPro jekt
r or
at te
ĠSt Ã¤d
sp e
ĠverÃ¶ffentlich t
ĠM ore
olit ik
ĠF Ã¼hr
Ġgemeins am
Ġein gesetzt
ĠR ein
z Ã¼
Ġt imes
ak en
ĠKl oster
Ġ197 6
f ried
anst alt
b rÃ¼
an ze
Ġac ross
4 1
Ġim age
ĠW ie
iziel le
ĠA kadem
l ig
p reis
ĠK or
Ġcount ry
f ten
i j
ab in
ĠS aint
Ġar ch
ĠSch ule
ĠAuf lage
Ġdire ct
Ġf ocus
ĠK lasse
ĠJ ames
ich en
ĠBo den
Ġhand elt
Ġs og
an ks
mal e
Ġ8 0
b Ã¼
Ã¼r k
ust rie
ak er
geb Ã¤ude
cript ion
ĠfrÃ¼ her
ĠG od
ut ure
Ġto ol
ichte te
Ä į
Ġc ase
Ġinst all
ĠN Ã¤
ĠVerein igten
ĠSt Ã¼ck
w eit
Ġbec ome
Ġm ich
it ze
ĠBay ern
ch ter
b est
ĠP et
em in
âĢľ )
Ġsever al
fÃ¼hr er
Ġkl einen
Ġihn en
Ġle vel
Ver ein
m o
zie h
Ġh Ã¶ch
M us
ĠS ant
re w
ic ks
vern ment
c is
Ġzu dem
ĠSe c
Ġ197 7
Ġqu ick
co ver
ĠFl or
Ġbl og
6 5
Ġb it
Ġsh are
ĠS u
Ġh app
Ġsie ben
gesch lossen
rit te
c ent
ol a
Ġal ten
Ġst ory
y e
un c
uf act
s uch
Ġun til
Ã¶s ung
o o
ĠB or
Ġd afÃ¼r
ur ity
b ack
ĠJ ur
e ter
al z
Ġver kauf
B C
Ġver t
id a
E ine
s burg
ĠL u
he ther
Ġpo int
Ġheut igen
le ist
ist ische
Ġh erv
ĠKar r
ĠE hren
Ġth ing
ien s
je cts
ĠR os
ĠMot or
' ll
d in
Ġm ein
ro ll
au en
Ġv an
ĠVerwalt ungs
n am
Ġl ag
7 7
ĠG i
A P
ze uge
g n
Ġth ough
id d
ĠD el
H och
est s
ĠAr m
werk e
Ã¤ ischen
ĠT rans
ĠR ot
il en
ĠZ entr
re icht
ĠR ud
hr te
Ġget ting
f a
ĠLe ague
o is
ispiel sweise
wo hl
Ġa cht
weg ung
ĠB lack
ĠR ang
hl er
Ġ ung
or m
rach te
unn ing
A mer
Ġyo ung
ĠMit glieder
ĠE mp
Ġcont act
itÃ¤ ten
ĠB aum
9 8
Ġl ow
up p
ĠH in
Ġst arb
la w
ĠVer kehr
v ious
ĠD own
Ġ3 5
Ġ196 6
en er
Ġdah er
ĠP fl
ĠSt art
Ġwo hl
Ġl im
Ġbeste hen
V or
ĠS achsen
et ter
ĠG ast
Ã¤ch lich
f ung
r as
Ġm ag
ĠI l
Ġet c
g Ã¤n
v al
ĠP osition
ĠReich s
ict ion
b s
ist ik
Ġdar unter
Ġdan ach
ĠTh at
ĠlÃ¤ sst
ro du
Ġl at
ĠP an
Ġn ie
it en
on en
Ġ196 7
ĠRich ard
Ġ ens
h ang
Ġw atch
ul a
tem berg
Ġdam als
Aus wahl
ĠB u
read y
Ġse ason
Ð °
Ġer klÃ¤r
Ġmo dern
h men
k i
Ġf ar
ĠGr uppen
Ġr Ã¶m
stell t
Ġ ess
Ġst re
ĠSie d
Ð ¾
Ġsp ace
z i
Ġfriend s
ĠkÃ¶n n
ĠD istr
ol den
Ĩ Ĵ
Ġb lack
ĠEn gl
Ġoff ic
lÃ¤ ss
k an
br uch
Ġcal led
Ġam er
Ġzahlreich e
ymn as
esten s
Ġm om
ĠW ochen
ĠC enter
Ġsup er
b ung
ĠE ing
fl Ã¤che
Ġeigen e
Ġspec ific
ĠMe hr
ast ic
Ġh inz
ĠJ azz
G em
Ġme ans
Ġup d
Ġst yle
or den
ĠT ab
if fe
ge fÃ¼hrt
Ġso gen
ĠD res
eh men
ĠK urz
ĠEr d
ĠH ers
Ġh om
ĠEr folg
Ġbu y
Ġz usÃ¤tz
ac y
ĠgehÃ¶r en
Ġp ie
Ġbe de
arr iere
Ġres ult
ĠPh ys
v an
ĠKarr iere
Ġprov ides
Ġ7 0
Ġjed er
sch lag
Ġzur ueck
Ġchar ac
ad urch
Ġco up
ĠChe m
ĠS yn
ĠW irtschafts
Ġde utlich
Ġcol or
e y
Ġc amp
ap s
Ġerw Ã¤hn
r ist
ic ro
ish ing
ĠEng land
Ġw ind
Ġdesign ed
b ten
es ted
og n
sp rach
ettbe werb
ĠhÃ¤uf ig
Ã §
Ġcomp an
Ġstar ted
Ã¶ ÃŁe
Ġbe vor
Ġ9 0
O S
Ġd one
Ġm ethod
Ġz og
Ġer Ã¶ff
ĠIn nen
ame ister
ĠOt to
al ys
rich ten
i od
ĠPro gramm
ĠInformation en
m el
ĠSt ar
Ġ193 9
ĠfranzÃ¶s ischen
ĠAuÃŁer dem
ĠF el
Ġso zial
9 6
l as
ĠAss oci
ar en
Ġph ys
ut or
ĠGen er
ĠB ot
I T
th rows
Ġ196 4
arbeit en
meister schaft
sch er
iz ei
Ġex tra
i ÃŁ
Ð ¸
ĠE ben
ĠW ein
s eit
ute t
Ġabsol v
ant wort
Ġd eb
bar en
n ach
en en
Ġbest imm
um er
av en
ian a
ĠK re
Ġne ar
pl an
itz t
at ers
Ġzw ar
Ġser ies
I C
al tet
Ġ Å
ĠM ass
ĠC an
ĠErn st
ĠBevÃ¶lker ung
ent in
ges ellschaft
ub le
Ġgef unden
Ġ193 3
ĠWh at
ĠÃ¶ff ent
ĠDe c
Ġbe ispielsweise
og le
ĠGe orge
Ġmember s
ilit ies
Ġh Ã¶
ell ing
anad a
Ġkn own
Ġd ien
ĠFl uss
Ġschn ell
ĠSup er
Ġw ahr
ĠT ele
ang er
Ġs ug
Ġl og
Ġwel ches
ier ungen
ik on
Ġ196 5
ĠProdu kt
" .
Ġen er
ĠWill iam
on ne
Ġf ield
ĠB ach
ĠG eld
Ġ196 3
ĠAn n
pla y
ĠBahn hof
ĠCh amp
Ġal ready
Ġt alk
Ġbie tet
ĠRei he
H er
t ler
Ġh istory
Ġan n
A C
m ost
it a
un ge
ĠF ort
r am
Ġst at
Ġw oll
Ġide as
geord net
ur ance
Ġsoll en
Ġzu vor
ĠSie g
Ġ Ã¤hn
Ġo thers
ĠR iver
ĠHo tel
ĠFre und
o int
Å Ĥ
Ġwen ig
a un
Ġentsp rechen
Ġh ours
Ġst ay
Ġletz te
Ġw a
ĠD ruck
ĠL age
ĠSt ates
ger icht
geb ung
mÃ¤ÃŁ ig
9 3
in ts
Ġbuild ing
v est
te g
ar ed
ĠM el
A nd
w in
ĠCh or
Ġtechn ology
ĠZ Ã¼r
Ġte xt
r ies
Ġall es
etz ung
ĠB ilder
b st
e g
ĠZ ust
Ġsim ple
ĠEle kt
ĠP rem
Ġoff ice
Ġt ype
ĠE t
Ġstud y
Ġproble m
b ro
Ġ19 20
haf t
rie f
Ġfol gte
k n
ĠB al
Ġver lie
Ã¤d ag
leit ung
sch eiden
ic y
Ġwicht ig
ĠA G
Ġ193 8
Ã¼r d
Ġe urop
re ibt
Ġbe teil
he ira
ik al
led ge
ĠR und
geb ie
Ġdisc uss
ĠO s
o unt
ĠM Ã¶glichkeit
Ġcomp uter
Ġl ink
Ġbefin den
Ġinv ol
ĠM ac
ik o
ĠG et
ze hn
Ge ographie
Ġrel ations
Ġrequ ire
ch ester
stre cke
qu e
7 9
Ġso ur
Ġl iving
Ġ196 1
it ch
ĠG al
Ġun ique
ĠDre h
Ġc ard
Ġlie gen
Ġbes ten
el eb
y a
ĠB y
ĠK auf
Ġme an
Ġ195 2
p rÃ¤sident
Ġs tellt
er ing
ra el
par te
part ment
ĠSch Ã¼ler
Ġret urn
M et
z us
ra chen
ĠA st
Ġp urch
ab y
ĠE du
ĠServ ice
Ġauf genommen
Ġt able
Ġen ough
Â ²
Ġ196 2
ungs k
Ġ194 0
s eite
l ern
im s
6 6
Ġstell te
isse ur
S V
r ation
Ġs en
ĠStud ien
Ġmonth s
ier ter
w esen
ĠP rÃ¤
Ġein igen
ĠK ategor
Ġk amen
o ught
Ġh uman
Ã¤l fte
Ġb in
W est
ĠGe f
Ã¤ chen
ĠW issenschaft
Ġsich er
ĠGe ist
onst ru
rol le
ĠAustr al
re p
el ten
ĠK rit
ĠJ es
0 5
n ers
ikan er
ĠT est
ward s
Ġinc re
ing t
Ġf alls
ĠS telle
Ġpriv ate
ĠB ron
ĠPhil osoph
. :
d i
et ten
Ġj etzt
Ġeng ine
Ã¼rt temberg
c ome
ĠK raft
rie ch
is c
ur f
Ã¼s se
ĠP sych
we gen
Ġtra vel
Ġf al
ge hen
Ġ( =
Ġgen utzt
ĠZ um
enn ung
yn am
r im
ĠB aden
bez irk
ĠW enn
ak te
ĠNÃ¤ he
Ġadd ress
ĠC amp
ir ks
ĠJ ack
em ents
ĠC ommun
hl en
Ġcustom ers
b or
ges ehen
ide os
Ã¤l ter
ĠSp iele
ĠSe x
Ã¼l t
ĠI D
ĠArt ikel
ĠM aterial
Ġe arly
Ġch allen
asch inen
Ġ4 5
ĠA tt
Ġsog ar
Ġo p
ĠGra nd
ift ung
Ġn ichts
ĠH essen
ĠA c
Ġcomple te
fass ung
âĢ Ķ
ag ing
.. ..
Ġp ur
Ġsom it
) ;
p ut
Ġw elt
ĠK le
ĠBru der
S h
ĠAkadem ie
A ll
ĠW ash
Ġer reicht
Ġem ail
iv il
ĠNach dem
b are
schlieÃŁ lich
ĠgrÃ¶ÃŁ ten
Ġ193 0
nd er
Ġc ent
r ug
r unde
Ġer k
Ġw alk
ĠRe al
Ġteil weise
Ġen vironment
Ġte ach
Ġdam al
Ã¤nd ern
Ġâ ĨĴ
Ġgen au
ibliothe k
u hr
ick en
ĠBerlin er
ĠEl tern
Ġevery thing
ĠRep ublik
Ġwh ite
ĠSal z
Ġloc ated
Ġh Ã¤t
ang s
Ġpop ular
Ġverb unden
ĠGra b
as en
ĠA ct
ig in
ĠHer mann
Ġl ate
Ġth ought
Ġ5 00
Ġre port
ĠD ate
Ġer ster
Ġent hÃ¤lt
ĠT her
o den
ĠKÃ¶nig reich
ĠGemein den
k ret
ang es
Ġgleich en
ĠG roup
Ġwen iger
Ġw onder
lie ben
ide d
ĠJun e
ig lich
i w
Ġmed ia
ĠKomp onist
ĠVors itzen
9 4
w ind
ran ge
Ġcert ain
Ġw issenschaft
Ġre pr
ient en
la ger
Ġcurr ent
k el
Ġs n
Ġver sch
it sch
as er
ell s
Ġman agement
p rÃ¼
os sen
age d
Ġcl ick
Ġvar ious
u a
ĠPr es
ĠRo y
Ġbef and
ĠA ben
Ġ195 6
ĠAlex ander
ĠMus ic
Ġnach dem
an ischen
Ġ194 4
fra ge
d am
te xt
ĠK ampf
b esch
. <
n es
ĠB Ã¶
ĠF ac
ĠStre cke
i ar
ay er
Ġdo ing
ran t
g ere
Ġre gel
itz er
jÃ¤hr igen
Dies e
ĠUn ion
Ġsetz te
te in
ĠY our
fol ger
ĠHal b
b ischof
Ãľ ber
us st
Ġk lass
ĠSp rache
p ark
om b
Ġtra ining
Ġinclud es
ĠWolf gang
il er
ĠK an
Ġres ults
Ġag o
Ã¼h le
ym bol
ĠVerb indung
Ġbei de
8 4
ĠVer fÃ¼
at um
ĠI hnen
Ġ194 6
Ġact ually
Ð µ
Ġso ftware
ĠHann over
Ġm ess
Ġf uture
ur ther
ĠB und
ĠD eb
ĠC ent
ĠM em
ach ten
Ġfolgen de
1 00
auf en
Ġ195 8
Ġm iss
Ġh ig
Ġor ganis
air s
Te ilnehmer
ĠK ons
d f
h i
Ġcomp et
ĠFin anz
Ġcompan ies
ag t
rie ges
Ġn atÃ¼r
* *
an cial
Ġl ik
ien ces
ĠLou is
8 7
ĠB d
Ġc ame
Ġlin ks
r al
it ure
im ate
k athol
Ġm ass
Ġpropert y
f igur
if y
ak a
F l
z iert
ĠWerk e
och e
fin ale
an lage
ĠM ond
ung sp
letz t
Ġindivid u
an ken
an ces
ĠS l
Th ere
Ġk itchen
Ġ195 9
ĠÂ »
ad a
iv ely
ĠSer ie
T rÃ¤ger
ĠR em
ĠBes uch
v is
Ġfr ont
vent ion
ĠE U
Ġle g
Ġman ufact
ĠMe er
b Ã¼rger
Ã ¢
ĠZ we
w asser
ĠW eiter
ĠR en
ĠEr sten
m as
ec ts
R E
ile d
ĠS Ã¤nger
sch iff
Ġac count
ĠW irk
P ar
f rei
ĠN ow
Ġw on
ĠC le
Ġentfern t
G ed
aup ts
ĠBr un
U m
l iste
olog ische
amer a
Ġb ath
ĠK Ã¶rper
Ġsch rieb
ĠSpiel en
por ts
f ield
Ġmehr eren
g ien
Ġam ong
Ġgele gen
ĠF rie
us ion
le ge
Ġon ce
av a
ge hend
ĠSt amm
Ġm atch
ho ut
ww w
Ġf urn
Ġam az
l ant
v ing
ĠO ct
Ġmach te
ens ion
ĠJe an
so zial
P S
r uf
Ġfav or
ĠK ing
Ġmod el
g liche
Ġw id
ĠG est
Ġpol n
9 7
C hr
ĠS old
Ã¤t zen
Ġgew esen
Ġvoll stÃ¤nd
P h
Ġde al
Ġle ader
itu ation
Ġpartic ular
Ġm em
ent wicklung
ĠC am
gr Ã¼
ab eth
ges tell
ring en
b ra
il ien
ĠP op
ĠH Ã¤lfte
Ġf it
ĠMÃ¤n ner
k unft
ĠI d
Ġe conom
ch ie
ĠBe zeichnung
Ġsch wer
w es
ĠB ud
k ap
ĠE igen
ĠR ob
ze ugen
g g
ad s
ĠSch wer
Ġbes uchte
Ã¤hl en
lie d
fl ug
ĠW and
Ġs ays
at ors
gel Ã¶st
Ġ194 9
Ġy et
9 2
ĠL aw
ĠMed ien
Ġ195 5
H and
ĠHil fe
ĠN et
ĠInstit ut
âĢ¦ ]
le cht
Ã¶ hn
ĠTr uppen
ĠL iga
ĠU p
ĠRe gen
ress e
Ġg ames
Ġan no
ĠAus bildung
Ġd ate
ĠverÃ¶ffentlich te
Ġk athol
ĠFe uer
Ã³ n
ĠSil ber
ĠG leich
sch riften
tre ter
arbeit et
ĠF en
ĠF ree
Ġperform ance
Ġh ope
Ġle ast
Ġ194 8
w esten
Fernseh serie
ĠDres den
Ġto ok
Ġ195 3
Ġrest aur
, "
0 6
or a
Ġnew s
C D
o id
ir c
sp iele
Ġ195 7
8 2
w art
ĠA k
r ig
Ġpos ted
Ġbre ak
Ġd ivers
i i
ĠB ack
st ant
ĠL og
Ġar r
ĠPolit ik
Ġdid n
in ge
or gen
ĠD ay
rÃ¼ ck
mal er
ing les
ot te
ĠUnter such
7 2
h inder
ot ball
Ġresp ons
p age
Ġin de
Ġcont ent
Ġrec ommen
st ud
Ġd oc
l ad
ĠW ol
ĠauÃŁer dem
k und
M an
or ies
Ġl ar
ĠO pen
ĠIs land
ĠfranzÃ¶s ischer
ĠwÃ¼r de
rit z
s ie
or te
ĠW alter
av y
ĠAl le
or ie
E M
Ġk osten
F rau
S e
ĠT ier
Ġare as
ci ally
Ġaus gest
ĠM ess
wohn ern
M ed
heira tet
zentr um
g round
m od
Ġp aper
ig ungs
oll ar
ĠBÃ¼rger meister
er ie
ell ow
Ġ194 2
ow jet
Ġsoll ten
ĠAn geb
Ġunter stÃ¼tz
olog ischen
zeug t
O ur
Ġa ud
Ġ195 4
Ġele kt
fÃ¤ h
ĠZÃ¼r ich
S etzt
Ġs il
ĠG arten
Ã¼ ste
Ġc ra
ĠV iel
Ġre cht
Ġauth or
ut her
Ġab ge
Ġcomm on
Ã¤t igkeit
ĠHer aus
ĠMit arbeiter
iden ce
ĠWash ington
Ġad min
Ġ194 7
P r
ar th
Ã¤ ÃŁ
Ġor iginal
ĠAr mee
S port
ĠAuf trag
tag s
8 3
Ġm acht
ĠC la
Ġmin utes
ct ive
Ġev ents
Ġakt iv
A t
E T
ĠK unden
de ckt
ot a
Ġiss ues
Ã¼n ze
fahr er
ĠDenk mal
Â °
Ġm illion
Ġentstand en
A M
k or
ĠT it
ĠF und
ug hout
w ill
Ġs ong
ut zen
ĠThe ma
no ten
ĠO ut
ne ter
m useum
le iter
ĠT eile
ĠAr ten
Ġpre par
Ġs ett
gen cy
ip ment
ĠChar les
ĠVer m
Ġsome one
5 6
ail y
ĠR and
ĠL icht
ic ation
Ã¶r m
ĠAl b
Ar ch
Ġnatur al
o on
ib ility
Ġcolle ction
ĠK ranken
eit her
v in
ĠR a
ful ly
Ġlat est
ĠF Ã¶rder
Ġsystem s
Ġdoes n
bet rieb
ĠursprÃ¼n glich
Ġb i
Ġst aff
Ġass ist
ĠBas is
ĠV og
Ġj apan
ĠKÃ¶nig s
omm ission
olog ical
ca dem
it ar
Ġf rei
ĠN ik
K on
ro t
ĠP DF
Ġ194 1
ĠT om
Ã¤ch s
Ġquest ions
or ed
ĠSoc iety
ĠB ill
Ġk einen
Ġcom par
Ġf ive
gew iesen
Ġc m
ĠL os
Ġappro ach
W hen
he t
ĠF igur
Ġj oin
ot o
ĠStud ium
ple ment
ĠerwÃ¤hn t
Ġv eh
Ġre ach
Ġihr es
hand lung
aler ie
Ġprofess ion
ĠSchauspieler in
ir th
ĠDan ach
ĠC ons
ieren den
il ian
ste hen
ĠZu ge
Ġdetail s
meister schaften
b us
c ol
e ded
p el
Ġsp ielt
ĠR unde
ĠZeit schrift
Ġab ove
e ign
Ġf il
ich e
il det
Ġ194 3
ifik ation
ĠN etz
ĠA fter
Ġh appen
Ġp ick
ot ion
Ġr icht
ĠPro f
Ġse en
Ġreg ion
Ġuns ere
te ten
Ġentwick elt
ĠFrÃ¼ h
Ġs ale
ĠGeb ie
ĠU s
ĠGes etz
Ġho hen
ĠPhil ipp
S tra
Ġb ad
ann ing
eit et
ĠJ er
Ġf ert
ĠP il
ame ter
Ġ195 1
ĠDam it
Ver lag
ist an
ĠU K
ĠnÃ¶rd lich
T o
ĠM ein
v on
erv e
ĠMÃ¼n ster
ĠSchl acht
hr t
ad o
Ġge d
we isen
Ġsch loss
Ġabsolv ierte
Ġt aking
or es
ĠForsch ungs
9 1
Ġw ent
ĠJ ac
Ġver d
Ġne g
is es
Ġc la
ĠBe griff
h ib
ĠS in
ial og
7 1
st a
ĠZu dem
ur a
Ġpr ess
ĠAssoci ation
ĠVerfÃ¼ gung
ĠL eiter
Ġho he
b ie
Ġcom fort
ĠUnter stÃ¼tz
w irk
Ä ģ
âĢ ĺ
ist ic
0 1
ĠBrit ish
ze igt
Ġherv or
ir es
ĠgrÃ¼ ndete
t d
ĠDies es
k et
ĠD okument
Ġh old
ho ben
wert ung
rech end
ĠE st
imm ung
7 4
Ġhe ira
Ġres our
Ġin form
ĠM as
Ġb le
Ġh ost
ĠL Ã¼
ren g
S S
ĠÃ¼ber n
bo ard
Ġstamm t
sch uss
Ġ[ âĢ¦]
ĠR Ã¤
Ġer ziel
ĠRe ise
Ġhe art
Ġener gy
w al
an ted
Ġth er
Ġne un
com ing
ĠFol gen
Ġd iff
ĠA re
om et
ab les
ĠB on
ĠF le
ĠSt ad
Ġflo or
sch au
os ph
ĠNach t
Ġre d
ver walt
Ġaut omat
Ġto ur
ĠHer ren
ĠA cadem
amil ie
Ġin tegr
ĠHer z
Ġgeb aut
Ġstr ong
Ġw ide
Ġum fasst
Ġgem acht
mus ik
Ġp osition
ĠK ommand
am ed
ĠH is
Ġem pf
ĠT on
Ġle icht
n s
ĠF rom
ĠW ider
ĠR at
zeit en
Ġd ue
ĠI V
Ġh ot
Ġg iven
re cher
Ġread ing
ĠPla y
==== ====
Hoch schullehrer
Ġph one
Ġge k
ĠVer l
ĠPol izei
ĠL im
ern en
Ġcre ated
h istor
ed en
ip le
b i
ĠA th
Ġc eleb
stell ungen
E uro
ite te
ĠÃ¶sterreich ischer
t ritt
ĠD ach
Ġopt ions
Ġwei ÃŁ
wie gend
if fen
Ġz erst
all ow
E L
ĠLe hrer
ĠNach folger
Ġger ade
Ġwrit ing
b ark
Ġ Ã¼b
Ġge ben
Ġvers ion
6 4
Ġsel ben
Ġa ge
ĠAl bert
G es
Ġgo vernment
Ġper iod
ur al
ĠD oppel
de ten
Ġen c
ĠCar ol
ĠsÃ¼d lich
z ip
0 8
Ġh air
Ġs ens
at o
Ġan schlieÃŁend
ograph y
forsch ung
Ġm Ã¶ch
ĠEner gie
w h
ĠReg ierungs
Ã¼l ler
Ġehemal ige
ĠKant on
ĠD Ã©
zie hung
Ġp ain
af r
Ã¼ss eld
ĠD ipl
ra in
Ġbo oks
p ol
Ġ ill
ĠF Ã¤
7 3
Ġr en
ĠfranzÃ¶s ische
0 2
ĠA v
ĠBe k
ific ation
Ġvorhand en
W ir
ĠS ur
ĠProdu ktion
ĠAmer ica
press ion
. -
m und
Ġcom mit
Ġern annt
u ed
ĠNach bar
Ġ193 6
Ġeben so
f alen
ĠSt affel
ĠMat hemat
Ġhal f
wissenschaft ler
r hein
ĠGÃ¶ tt
Ġv ia
M od
Ġd ritten
Ġre ason
ĠP lease
Ġhe ld
ĠSc ience
hÃ¤lt nis
im ar
Ġread y
ĠS Ã¤
Ġbe deut
20 18
Ġev angel
ĠPfl anzen
Ġ Ã¤lter
Ġt it
ĠPr inz
ĠK osten
Ġl ater
M S
I ch
Ġf ul
ĠH ere
ĠMin uten
ĠMo unt
ĠC our
ĠF uÃŁ
iz es
f Ã¤l
ĠA uÃŁen
Ġ3 2
ret ty
r is
Ġunser er
Ġs end
Ã¤nd ert
ĠArbeit en
ĠErgeb nis
lichkeit en
ĠRe cht
Ġwho le
Ġpartic ip
ĠnÃ¤ch sten
a ktion
Ġ193 4
u age
ĠWien er
Ġsel ten
Ġnet work
Ġf und
ĠV ideo
Ġz ie
ĠV is
ĠMa ÃŁ
Ġp ersÃ¶n
ell ent
Ã¤nd ig
Ġg re
af t
ĠStre et
Ġapplic ation
ĠI st
ĠC up
N ational
i est
t schaft
ï ¿
ĠG re
ĠN S
g ers
Ġex ample
Ġent ire
ĠMe x
Ã¤hl te
ï¿ ½
Ġal most
amerikan ische
Ġn ull
ĠL ied
Ġclos e
im um
ĠK opf
ĠL Ã¶
ĠRe ad
ĠLin ie
af fe
Ġhe iÃŁ
unk ten
Ġrequ ired
ra uch
lin ie
Ġfe ature
Ġd istr
Ġj a
iz ier
Ġm at
ĠM ult
ĠK ern
ĠL oc
ĠSt il
Ġthro ughout
( )
ĠA ud
ĠF ern
ĠL eitung
Ġex t
ĠOff izielle
ie ur
Ġge pl
Ã¤d chen
l im
Ġs ites
ĠGrÃ¼nd ung
d t
fer enz
Ġqu ite
fra u
u hl
f ar
Ġcl ients
Ġa chie
ĠW all
Ġdar Ã¼ber
6 8
Ġsim ply
ĠPol en
ymnas ium
um ents
rÃ¤ fte
ĠPro t
los e
ĠÃĸ ff
bl ick
ĠEisen bahn
ĠH eid
ĠL Ã¤nge
Ġre chts
Ġbu ilt
Ġtra in
Ġ193 7
istr ation
Ġevery one
Ġcho ose
ĠFran cis
ĠA ber
ĠComp any
Ġweiter hin
Ġide a
ĠZentr um
Ġk ids
Ã¼r n
c m
ĠSt ock
Ġge hen
ĠSp r
ĠNew s
ĠfÃ¼hr en
Ġcurr ently
k reuz
ĠB ig
Ġpro b
Ġmind estens
ĠD or
Ġc rit
ic les
ĠIn c
Ġme as
spiel en
ĠRud olf
E le
Ġw ays
osp ital
Ġw es
ĠG as
Ġsh ows
ĠKir ch
ie ÃŁ
Ġpre uÃŁ
ĠSte uer
k unde
ĠW ort
ĠC ap
Ġst ammen
hal ts
Ġbes itzt
p aper
ra te
mer k
ict or
ĠKategor ie
r up
Ġv o
Ġer z
ĠPart ner
y th
z immer
et y
Ġoff iziel
Ġrec ent
G B
Ġk om
Ġsel f
ou ver
Ġpict ure
Ġt w
ĠE th
Ġvar iety
ĠHow ever
do or
ĠAn na
bin ation
idd le
0 3
ĠM ur
ver age
ĠChamp ions
Ġt ax
ul es
il ar
end es
Ġc op
v a
if en
ct ing
ĠTra iner
hockey spieler
Ð ½
ĠSch Ã¶n
Ġe her
ĠStadt teil
i ro
ĠR itter
ĠGeb urt
Ġbo x
un a
arbeit ung
ĠAut om
ĠB usiness
ĠL ive
Ged enk
ĠV oll
Ġj Ã¼n
Ġent halten
ich ert
Ġcon stru
pe cially
5 3
Ĥ ¬
Ġwoll te
Ġim ages
eb ook
ĠVer d
ĠMar ch
Ġra te
En t
Ġe p
Ġse par
st aat
Ġknow ledge
0 7
k arte
ĠVer eins
ran sp
ĠMan agement
unter nehmen
ĠInstit ute
Ã¤r k
ĠVers ion
ĠEngl ish
Ġs onst
Ġp le
mÃ¤ ler
l Ã¶sung
et a
B o
Ġver heiratet
iqu es
6 7
e ks
Ġd Ã¼r
Me ter
f on
l ingen
at form
be ck
Ġra d
Ġproble ms
Ġgesch lossen
ĠDown load
x is
em b
ĠVer t
as es
gr am
h le
ĠB a
ien ste
gr enz
0 9
S C
k y
o der
| }
on ym
at is
Ġge geben
iforn ia
Ġan alys
Ġco ok
aus ch
Ġlead ing
us ive
ĠO pt
ĠEr fahr
Ġj Ã¤hr
ĠJ ak
parte ment
p ielt
ĠFest ival
ĠGes und
ĠAnd reas
k ur
w here
Ġh on
sch t
mit t
Ġopportun ity
f its
f ace
Le gt
le tt
ĠP ublik
ath let
ĠJose f
Ã¶ ll
Ġat tra
ĠFir ma
Ġtot al
ĠK ra
Ġ19 19
enn is
ĠGo ogle
ĠS omm
Ġdes cription
Ġinternational en
Ne w
abr ik
an i
he ad
Ġb lock
Ġf ace
Ã¶ sen
iz ing
Ġeinzel nen
Ġheira tete
8 1
Ã¶ ss
Ġst ore
e kt
m ut
Ġf urther
Ġso on
Ġbil den
Ġhtt p
Ġl iter
Ġsch l
ar f
un ts
Ġz ust
ers eits
Ġtra ck
ĠW ild
Ġpict ures
Ġb reit
ĠEnt scheid
ĠAut o
ĠgrÃ¶ÃŁ te
Ge grÃ¼ndet
qu al
sel ves
Ġerreich en
Ġm obile
haus es
Ġpolit ischen
t ime
ĠW in
ĠO f
Ä ĩ
as te
Ġp sych
zen e
Ġd og
ĠB us
Ġto wn
Ġeinz ige
ĠEx per
ĠEurope an
ĠPriv at
ĠT urm
Ġal te
ĠHoch schule
Ġrel ig
Ġpart y
Ġlearn ing
Ġentwick elte
Ġanno un
Ġs ales
el berg
ic ago
Ġrela ted
un s
Ġp an
Ġg riech
In ter
ĠD ivision
ĠG reen
ĠBl Ã¼
Ġeduc ation
ĠH om
th ough
b aum
z uf
is ted
ĠE ast
Ġad ded
5 4
c rib
ĠVer Ã¶ffentlich
Ġled iglich
Ġens ure
g arten
hal te
orn ing
Ġamaz ing
ĠH u
Ġ193 5
Ġbelie ve
Ġtro tz
Ġne eded
ĠD Ã¼sseld
Ġfin anz
ĠH an
ĠF irst
ĠVer gleich
Ġke hrte
richt ungen
Ã¤t ter
Ġpr int
por ted
Ġstand ard
Ġf ire
Ġk ont
ĠOr gel
ĠGr enze
Ġar g
Ġphot os
Ġcharac ter
ĠThe men
Ġany thing
Ġloc ation
I P
Z u
p ass
Ġne ues
6 3
Ġde ter
Ġbesch Ã¤ft
Ġmarket ing
chn et
ieren de
ĠfrÃ¼ hen
geord neter
Â »
Ġp aint
ĠLe g
ĠH art
W er
et ing
Ġw anted
ĠA ugen
ĠK as
rat s
Ġwel cher
5 2
h ing
p hen
per atur
Ġbrit ischen
T V
Ġ Ã¤lt
Ġin nov
ĠEn ts
ĠFre ib
T ra
ĠP unkt
neh m
at iven
ĠKon z
Ġfun ction
all el
ve y
Ġc ur
Ġsl ow
u it
ĠW ebs
ĠOr gan
Ġint rodu
Ġins ide
d s
Ġcustom er
sch ei
ĠH ei
Ġrec ently
opp ing
Ġw hether
Ġj Ã¼d
ĠZw ei
k om
Ãĸ sterreich
rep ublik
i ally
Ã ¸
ĠO k
Ġ3 00
Ġes pecially
Ġprovide d
stÃ¤t te
E C
Ġf ig
Ġbil det
Ġhapp y
h ab
od es
pro chen
ĠMed izin
ĠStand ard
0 4
is ierte
Ġass oci
Ġrel ativ
ĠRoy al
k raft
ĠS und
ĠG ut
ĠMar y
Ġverl oren
E is
Ġt akes
Ġt aken
re ise
ian o
Ġcle ar
6 2
re chts
ĠB onn
W ith
ĠIm m
ĠV an
Ġst ruct
ĠAn schluss
ang ing
ĠBez irk
ĠS ar
Ġfin ancial
ĠS ingle
at in
Ġconc ern
Ġest abl
techn ik
ĠEv angel
ĠerÃ¶ff net
Ġb em
Ġal t
Ġver ein
pla ce
ro ffen
ig ner
ess ion
ĠAl ten
Ġus ers
Ġben Ã¶t
Ġ either
it ts
ĠK laus
ĠS tern
Ġins urance
Ġso und
ele g
ad es
ok e
aut or
ĠHand els
aus t
Ã© e
O M
Ġs le
Ġart icle
Ġrece ive
Ġactiv ities
Ġd ur
ie ger
ĠAn g
ĠS ter
5 1
5 7
z we
ĠW ahr
pe cted
ĠRec ords
Ġben annt
Ġaktu ellen
Ã¶ p
ĠSp ring
Ġbet rÃ¤gt
ade d
f Ã¶rm
ass el
Ġne uer
b rit
ĠSt unden
ĠH ill
A D
ĠS ign
h ers
s erv
Ġf a
al u
ell o
O T
Ġb lo
ain ed
Ġh ab
ic ult
hl t
ĠDan iel
mar kt
Ġbed room
Ã¤ ten
Ġ19 18
ĠAr n
ĠInd ian
Ġausge zeichnet
Ġsk ills
ĠKont akt
Ġwall paper
fr ast
Ġb us
Ġp retty
op t
Ġp oss
ah nen
wÃ¤r ts
ĠH y
ĠZeit punkt
ĠVol k
ĠFra ge
Ġd igital
ĠA ust
uf e
Jahr hund
ĠÃ¶ffent lichen
ĠSt immen
ĠEr k
E urop
Ġper cent
Ġprov iding
le gt
ibr ary
ĠL ove
etz en
Ġ192 8
c up
m Ã¼nze
Ġf ra
Ġ Ã¼
ir ch
G er
denk mal
ĠD och
end orf
Ġco ol
F A
ik ation
ĠEin wohnern
ĠAb schluss
Ġfurn iture
ing ungen
Ġro le
str ument
Ġdamal igen
P DF
ho use
ĠL au
Ġquest ion
ĠT own
Ġspe ziel
ĠEp is
Ġs ix
Ġp df
ain ing
stand s
ĠP unkte
Ġpro jects
ĠhÃ¶ her
C ont
Ġse em
Ġcom ing
Ġstud ent
ĠWind ows
Ġacc ording
ĠCal ifornia
Ġin fl
Ġch em
att le
ĠFÃ¼r st
Ġn ice
w en
Ġun ivers
stit ut
Ġdiff icult
ad y
Ġange geben
Amer ikaner
ĠW ass
ĠJ ung
ĠNe ub
ĠBay er
ell es
ĠGer ichts
halt ung
west lich
6 9
S pe
Ġne cess
Ġus ually
ub s
ĠZusammen arbeit
on se
Ġpre vious
C l
M y
ar ts
ĠS n
Ġcon tra
F C
ĠU N
onst ants
irg in
ĠT ages
Ġ19 00
ĠV en
Ġt ell
b ook
l ament
Ġc enter
re l
Ġwo od
Ġinter ess
ĠWh ite
ĠOr d
ĠUm gebung
Ġprodu ction
Ġze igen
unsch weig
Ġa ction
un ion
Ġp ark
Ã¤n gen
Ġsign ific
ĠHeil igen
Ġmit tel
ĠMod ell
unc il
Ġf iel
6 1
y ear
Ġun ver
Ġreg ul
Ġdec or
5 9
Ã¤ cht
ĠTex as
Ġo ben
ĠL ake
ĠRest aur
hen s
Ġzahlreich en
w an
nd en
Ġt old
ĠH D
ash ion
Ġerh Ã¶
5 8
O ber
v els
Ġs we
Ġw ollen
ĠM r
ist ent
rei he
ĠLie be
Ġpract ice
ouver ne
ĠS ome
ĠT im
w issenschaften
ĠSp rach
zw ischen
Ġw ww
ĠF ischer
ren ch
ĠInd ustrie
Ġdr ive
ĠB il
ist in
Ã¤d t
or th
Ġl on
Ġc ann
ĠOr ganisation
Ġz uf
Ob jekt
am ing
om a
Ġ19 14
ĠUm welt
Ġver lÃ¤
Ġcom ment
Ġyour self
ĠI T
ne w
Ġ rom
Ġer he
ĠN ic
schein lich
ĠOct ober
Ġc ut
Ġbrit ischer
as c
ĠH Ã¶r
Ġam ount
ĠSp anien
H ol
Ġs ummer
st att
Ã¤n n
Ġem er
ĠRad io
Ġequ ipment
I nd
ĠR h
Ġit ems
ip e
Ġgl obal
Ġrece ived
Ġindivid ual
ĠkÃ¶nn te
Ġsp end
ĠDar stellung
Ġbie ten
ten ded
men te
Ġges tellt
ĠfrÃ¼ h
Ġm ix
ĠFamilien name
ff ic
teil en
ĠRel ig
Ġgesam te
al a
Ġvers te
g le
Ġerfol gt
j i
ĠF ass
um in
ens ive
f unk
om s
ĠAl ler
ĠCh icago
r id
en ces
Ġb ald
ĠK er
ĠInd ia
Ġspiel en
ed ding
ĠA ch
ĠSch les
Ġco de
Ġpl ans
spr uch
Ġex pect
Ġus er
tra iner
Ã¡ n
Ġsec urity
g arn
ĠAr ts
ĠHe alth
anst altung
ime ter
Ġ192 9
v o
Ġs od
ĠW as
ĠZeit ung
ĠheiÃŁ t
R uft
Ġd ro
ĠVerkehr s
ĠUnterstÃ¼tz ung
k r
ĠAn s
setz en
n amen
Ġk aum
ĠAus wahl
reich en
ĠSchw arz
pla te
ĠGl as
ud es
ĠFl ugh
Ġ193 2
ĠHal le
Ġde g
ĠFen ster
5 00
D urch
I V
or ing
ĠT w
ir it
Ġer baut
Ġdra w
ĠPres ident
Ġ ut
sch auspieler
ed ia
Pro du
y es
ĠB all
Ġg ute
ed s
hal le
W enn
d y
k ra
st anz
ĠSp ec
Ġwe eks
ĠKr im
Ġeas ily
K ultur
u ary
ar tet
at tet
Ġer setzt
Ġkn app
h auer
Ġto uch
Ġjed en
Ġdien te
Ġk rit
Ġout side
Ġsc reen
Ġm ove
ĠB ul
Ġwir k
ĠAus gabe
Ġerh Ã¤lt
-- --
ĠKol on
Ġ Ã¶stlich
ĠR ennen
ĠN amens
ĠAr g
Ġwen ige
l ers
ĠSh ow
lÃ¤ss lich
h ips
s m
Ã¼ ge
um Ã¤n
ĠspÃ¤ter en
aller y
au ber
ho od
sp l
Ġex am
ĠGr Ã¶ÃŁe
verwalt ung
om ot
ĠC ast
ot es
ad el
sw Ã¼rd
ĠW erner
Ġfand en
Ġstra teg
k au
ĠM aster
me hr
Ġinsp ir
in os
Ġl ives
Ġmit tler
Ġst op
zeich nis
an lagen
B ut
Ġh or
ic ip
Ġnieder lÃ¤nd
Gedenk mÃ¼nze
ĠS atur
ikan ische
ĠSomm ers
er o
ĠN Ã¼rn
ĠAd olf
Ñ Ģ
ĠIn vest
gr uppen
ĠL uc
ct ors
Ġind ustr
U N
z Ã¤hl
ch ron
ig entlich
Ġan z
ie fer
ĠW el
Ġd at
ĠS C
Ġzu letzt
Ġtry ing
bark eit
E O
V ers
ĠM Ã¤dchen
iel ten
ne e
ĠPar te
B l
b is
Ġa sp
ĠA f
ĠW ies
pl es
ĠJ os
ren nen
ĠS S
Ġf all
k omp
Ġsie ht
rei ber
Ġgen eral
Ġhow ever
isch em
ĠSt rom
ĠMus iker
ĠServ ices
Ġsk in
ĠAkt iv
D E
b orn
Ñ ģ
ĠFl Ã¤che
Ġbet re
ĠIs rael
Ġlo oks
Ġtreat ment
t itel
Ġd adurch
Ġ1 20
S te
Ġb ud
Ġstell en
ĠPr ies
ĠT at
Ġdes t
Ġro ad
amerikan ischen
ĠC lass
ĠB ook
ier re
we chsel
ultur al
Ġmom ent
Gem einde
B ahn
Ã £
ĠD isk
Ġo il
ĠKarl s
ĠD azu
A G
ur er
Ġin dem
ĠF arb
ĠW issen
end ung
at ory
ĠK lass
Ã© s
K arriere
M L
f unktion
k le
Ġ3 6
Ġpr ices
Ġcoup le
ge hÃ¶r
Ġ4 00
Ġpr esen
Ġreg ular
Ġbo ard
Ġap art
rÃ¤n k
Ã¶ der
ĠJ ud
ĠPart y
ĠHerr schaft
Ġiss ue
T ype
ste ad
fall en
ĠJul y
Ġehemal iger
ant as
em e
ĠBes te
Ġb ott
ĠF ak
ĠG ran
Ġschw ed
ĠP C
Ġc aus
ĠHaupt stadt
ĠRes earch
Ġsei en
Ġl aut
ov ers
ron om
Ġfavor ite
Ġs etzt
ĠW ell
Ġst ock
Ġpar ts
Ġbeginn t
ut n
ĠMo der
g ibt
it ial
Ã¶ gen
Ġpolit ische
ĠI ll
fass te
Ġsour ce
ĠI nde
Ġ19 10
ĠO x
Ġch ines
W Ã¼rttemberg
k lasse
D es
h Ã¤user
ĠV ictor
Ġexc ellent
Ġt ele
ĠP rÃ¼
Ġre f
Ġre v
bo x
Ġincre ase
ĠN ur
iti ative
ĠDÃ¼sseld orf
p ers
at al
ĠP fer
Ġne hmen
Ġgew orden
id t
heim er
Ġreg ard
Ġinclude d
Ġmeet ing
Ġ15 0
t a
ver lag
Ġsol utions
ĠFried hof
ĠAngel es
Ġfal se
j or
Ġm m
le g
Ġc redit
Ġ192 4
ĠVorsitzen der
ĠHer bst
ĠAcadem y
Ġk ennen
au te
end s
Met hode
b ased
Ġz entr
Ġvor her
Ġpra kt
Ġgrow th
Ġin j
Ġf ix
lie gen
Ġmed ical
ĠUnternehmen s
p ose
ĠEin fluss
Ã¤nd en
low ak
brit ann
W erke
he m
Ġqual ifiz
ĠFin ale
Ġbeteil igt
Ġc y
ĠH ir
ann er
Ġr unning
gemein schaft
Ġnor mal
Ġble ibt
Ġw ords
Ġ1 000
ed y
and a
ir us
ĠBez irks
Ġs yn
Ġw ord
Ġso fort
u ert
Ġw Ã¤re
ĠG ust
Ġd ed
Ġth ird
ipp ing
Ġs ave
Ġgen ommen
ĠT Ã¼r
ill en
ĠPort ug
el a
Ġfor ward
ĠVer treter
mit glied
ohl en
Ġphot o
swÃ¼rd igkeiten
U R
ĠM ach
ĠAn schlieÃŁend
ĠDe partment
Ġ192 7
umen te
ĠS ammlung
at us
Ġal tern
ĠSch le
lau ben
Ġtool s
mittel t
Ġcho ice
P f
Ġm er
ver fahren
allow ed
Ġbeh ind
Ġb esser
if ts
Ġun mittel
Ġmaterial s
Ã¤dag og
kret Ã¤r
k irchen
p ossible
ĠG reat
ĠVer wendung
Ġex act
k unden
v i
ĠD rei
Ġaus schlieÃŁlich
ĠBest and
ket ball
Ġ3 3
Ġpr im
ren z
yste me
ĠEx p
Ċ ĠĊ
er er
as chen
ĠH ard
ot ing
Ġzw eit
Ġdo or
Ġph il
Ã¶ ne
ĠQ ue
Ġsp an
zeich nete
Ġfin al
ĠÂ «
ĠG attung
ĠWe hr
Ġgleich zeitig
p ret
ĠL ife
Ã¼r gen
Ġex pert
Ġste p
zie hen
ĠM ail
Ġwar m
ĠAl fred
for men
ĠY ear
itt ing
Ġsim ilar
ie gen
ĠD at
ĠK op
ill ing
ĠCh in
ec ut
ĠFra gen
ĠStÃ¤d te
s a
b ul
ĠG ro
ĠCh urch
P olit
ĠT Ã¤tigkeit
se qu
Ġ193 1
lÃ¤uf er
K l
at ik
ĠRev olution
ĠV e
s ystem
Ġs qu
ĠMon ate
Ġbele gte
Ġgesam ten
Ġw ohn
uch ten
Ġge fÃ¼hrt
Ġsp ort
Ġrec ord
ĠEle ment
Ġw oman
Ġdes halb
Ġm el
ĠD igital
Ġh ielt
ĠL ab
Ġde ep
Ġ- -
Ġsh op
ĠM Ã¼ller
ul pt
Ġwir tschaft
ĠSchw ar
gew icht
utt ing
Ġm aint
ĠL aur
ed ule
Ġl ock
o od
Ġd aily
ĠD ann
Ġsignific ant
an walt
ĠBre men
jÃ¤hr ige
Ġaddition al
b a
Ġs ent
ĠF ritz
Ġpl atform
bl att
Ġcont rib
c ast
at ic
st all
Ġp ers
od or
Ġ192 5
Ġm orning
ĠE ss
Ġl ux
Ġch anges
Ġall ein
asch ine
Ġrele ased
Ġhinz u
ĠFreib urg
iv ity
Ġis n
Ġbet rug
Ġ >
ĠG Ã¼n
ĠU rs
d ar
Ġdis cover
Ġeff ic
Ġaktu elle
ag d
ain er
Ã¼ss el
il i
I M
d aten
le gen
Ġh und
ĠL ux
ĠBe im
ĠNational sozial
Ġjeweil igen
Verein igte
ĠE ich
Ġtyp es
Ġbath room
Ã¤ te
Ġn immt
ind ungen
ĠÃ¼bern ommen
r ang
ĠAn th
spr ung
wind igkeit
B A
ap ie
Ġgesch affen
g rad
ĠT ar
Ġent w
Ġoffic ial
ĠB ol
ĠN icht
Ġcom mer
F in
Ñ Ĥ
ĠS y
Ġme chan
Ġwest lich
et ts
Ġg round
Ġr isk
au x
ĠLe on
arm on
ĠWeit ere
u elle
Ġw in
ĠM erk
ĠP ers
ger ichtet
p pen
Ã¶rder t
Ġb rachte
ist rat
Ġpl ant
ĠRuss land
ak ers
ĠDire ktor
Ġerm Ã¶glich
Ġans wer
Ġst ation
Ġwrit ten
ĠSold aten
ĠAb s
ĠGott es
Ġpie ce
Ġge prÃ¤
ĠZ usch
ĠZ entral
se hen
Ġup on
Aus zeichnungen
Ġrec ogn
stÃ¤nd e
Ġhigh ly
Ġb irth
Ġverl or
Ġrecommen d
is abeth
hol z
ĠvollstÃ¤nd ig
H ow
Ġb and
ĠM un
ĠW agen
Ġle bte
Ġexper ien
Ã¶l f
ĠQu ellen
Ġla unch
gemein den
ĠSm ith
g Ã¤nger
i h
Ã¤ um
ĠBo x
fan ter
Ġc apt
Ġde f
pf lich
Ġfr esh
Ġprom ov
aupts Ã¤chlich
I L
Ġstor age
ĠAuf stieg
A uch
I s
r ick
ge g
st attung
Ã¶ glichen
ĠSp Ã¤ter
Ġcond ition
E l
Ġm atter
pend ent
Ġs al
ĠP rom
ĠR oll
ĠAn lage
W Ã¤hrend
org ung
ĠAuss tellung
Ġprob ably
v ier
Ġinter ested
Ġho tel
ĠÃĸ l
Ġt un
Ġt rÃ¤gt
den burg
g ab
h agen
ĠW appen
Ġsug gest
w urf
en te
Ġpot ential
Ġt ransport
Ġre lease
ien en
ĠzusÃ¤tz lich
V D
m ond
ĠL ib
Ġcare er
ĠForsch ung
ĠFac ebook
ent y
av es
ĠDem okrat
Ġwelt weit
Ġp orn
Ġgu ide
Ġcontin ue
Ġrepr esent
ic ated
ĠV ar
Ġver lieÃŁ
S Ã¼d
Ġb ank
ĠSt reit
rÃ¼ cken
pf licht
ĠBrand enburg
ĠPap st
ie ÃŁen
Ġall ows
ĠLe icht
ĠAuf gaben
Ġges etzt
r um
ĠK enn
ĠH on
ĠDeutsch er
ĠĊĠĊ ĠĊ
Ġb al
Ġext rem
Ġp rem
Ġpr ior
Ġgra du
n itz
th ur
Ġnot wend
Ġapp ly
Ġlang uage
k ampf
ĠS owjet
britann ien
Ġbe ein
kt ions
Ã¤hr t
Ġopt im
Ġerschien en
ĠZeich en
P reis
S G
g as
ĠL ong
Ġimpro ve
Ġhig her
ĠDÃ© partement
rie be
ĠEs sen
Ġ Î
le ger
Ġ192 6
ĠWer te
an cy
un i
Ġst ieg
Ġany one
ĠGo od
Ġel se
Ġverm utlich
ist ry
Ġdurch gefÃ¼hrt
Ġwork ed
ĠgroÃŁ er
Ġprogr ams
Ġwrit e
laub t
ĠS em
ĠM and
uf fer
Ġl os
ĠSt ation
Ġzun ehmen
Wh at
Ġaus gew
Ġfl ow
ĠBen utz
ĠSicher heit
S piel
le gung
ĠT ime
sp rache
ĠChar akter
K omp
ĠB ob
ĠM ik
ĠM aschinen
20 15
ĠWe ise
B and
N ieder
ĠV ize
ĠFe hler
N ame
m acht
ch em
or ial
ĠEnt wick
p unkte
ĠS onder
ĠL ast
au ern
schaf ter
20 12
fl Ã¤chen
wer ks
ĠPerson al
B undes
Ġdes crib
Ġdarauf hin
ĠGÃ¶tt ingen
b as
II I
ĠAn gaben
se x
ĠPe ters
Ġerziel te
N eben
s telle
Ġc oll
sch lÃ¤
Ġ6 5
Ġdar gestellt
ar es
ĠVer kauf
Ġle bt
20 16
ug s
ĠEng ine
pos ed
ess el
ĠBau ern
Ġgleich nam
ĠHome page
m esser
Ġs an
ic kt
Ġch rist
ĠGroÃŁ en
aly se
p erson
Ġ3 4
ĠReg isseur
ĠBl ick
denk mÃ¤ler
ĠS ing
Ġb ere
ipp ed
Ã£ o
ĠFr iday
ĠDreh buch
ĠL ieder
Ġwieder um
w el
ĠS at
ĠM acht
O L
ĠG lo
Ġem p
Ġdec ided
ĠWill i
Ġappe ar
m ission
ĠVerwalt ung
ĠR aj
Ġander er
il led
ĠR am
ĠAben d
Ġc irc
ĠHen ry
w Ã¼r
Ġre fer
ĠS onnen
Ġp rÃ¤sent
ĠT schech
ĠW ork
Ġver z
Ġpubl ished
Ä ±
us es
ĠD enn
ĠK ammer
Ġle ave
rif f
Ġmov ie
reich e
ĠG olden
Ġpo ints
ĠFahr zeug
ĠZusammen hang
ĠS amm
Ġex pla
20 14
Ġ192 3
minister ium
ĠBesch reibung
Ġsow jet
ĠHo ff
por ary
erke hr
ĠSch la
sel ben
Ġhistor ischen
ĠK olle
Ã¼n ft
ĠBra unschweig
Ġhal ten
Â ®
Ġst aat
ĠChrist oph
reit ung
Ð¾ Ð
h op
Ġfor mer
ĠRep ubl
hil fe
Ġquick ly
Ġg lass
Ġde ath
ue ber
20 17
Ġnot hing
Ġgo al
ĠSchw ester
Ġmus sten
el la
Ġc ross
ĠSo ftware
V erkehr
er es
ei der
ĠÃ ī
Ġdar f
Ġsol ution
Ġausge tragen
Ġide al
m ir
w ell
Ġd Ã¤n
Ã¼ cht
Ġv ari
ĠL ager
Ġer forder
ĠT ransport
ĠP ok
ĠMar c
age gen
los en
c ement
Ã ½
ĠS V
Ġf uer
Ġh auptsÃ¤chlich
ĠR enn
ĠAt lant
lei ben
Mus ik
ul y
G en
ĠKinder n
Ġpro f
ĠMar ie
gang s
Ġpurch ase
Ã¶ hne
Ġ3 8
ĠP a
Ġk anad
ow a
l or
ĠM ission
ĠR Ã¶
Ġbe ach
Ġdr ess
Ar t
ĠWei ÃŁ
ĠGegen satz
Gr uppe
ĠEdu c
O C
Ġun abhÃ¤ng
sp ro
lin ge
Ġbesch rieben
Ġrem ember
b re
g u
n ummer
ĠC ra
vers ammlung
Ġsaf e
Ġtradition al
ĠunterstÃ¼tz t
C on
d ire
ĠS um
ĠA T
ik i
Ġab ility
Ġle bten
Bau werk
Ġa verage
Ġin ternet
ĠH ab
ĠVer teid
ĠRo ad
ĠB rown
Ġimp act
Å Ļ
or et
Ġent deckt
ĠLe x
az in
Ġeffect ive
din and
Ġs ah
ĠVer fahren
ĠPro zess
fass ungs
ĠOp fer
ĠJak ob
Ġn omin
ĠZ uf
ĠOr iginal
20 10
inn ing
ĠErz bischof
ĠhÃ¤t te
utn ant
ĠS om
ĠPro p
Ġorgan ization
Ġm ilitÃ¤r
ĠP ower
ĠNatur schutz
Ġregel mÃ¤ÃŁig
ĠAl so
ho den
ied lung
ĠTra dition
reg ierung
ĠErgeb nisse
Ġbede utet
N A
ĠM icro
ĠD ub
Ġh um
Ġh uge
Ġpar ents
hard t
Ġsod ass
ink el
Ġgesch rieben
ĠOr dens
Ġpl us
Ġcond itions
ĠR og
ick et
Ġpos itive
is ation
or ten
ĠK am
tern al
ma ÃŁ
Ã¤ss er
Ġv ac
âĢ ŀ
ĠG rÃ¤
ate ur
ĠLand schafts
ĠPubl ic
Ġs ort
ĠI P
Ġl if
Ġ192 1
200 7
Ġlik ely
ĠMar ine
ĠTeil nehmer
Ġcount ries
re u
Ã¼ gen
Ã¶st lichen
Ġ ult
el f
Ã¤ ger
ab il
Ġup load
Ġbest Ã¤t
Ġje de
tr al
ĠStat us
Å «
Ġse ems
ian ce
ĠY o
A utor
ĠA cc
Ġst reng
ĠSpiel zeit
stoff e
a ign
ĠD ir
ĠNieder s
ĠJes us
ĠL et
um n
ĠV irgin
f ur
ĠS uche
ĠL ind
ind est
Ġhand s
Z ur
us ing
Ġp ool
ig ungen
ul en
ĠMen sch
Ġverb reit
Ġentsp rechend
ĠComp uter
ĠLeist ung
Ġsogen annten
d om
w ide
ĠG Ã¼ter
Ġver hinder
Ġro und
Ġ192 2
zieh ungen
z o
B S
ĠH aut
ĠV iew
Ġr ather
Ã© r
ĠPh ot
d as
Ġw ider
ar io
ĠW irtschaft
ĠSt ruktur
ce p
br idge
ĠStud io
Ġpat ients
s am
as ten
ag te
St adt
ĠCo uncil
200 9
ĠBild ung
ĠSant a
L iste
ĠF al
Ġwe ight
omm iss
Ġgel ten
zahl en
Ġplay ing
Ġask ed
re ign
sp er
chn ung
por ate
Ġinterest ing
Ġwonder ful
Ġful ly
ĠM ost
ad rat
pr ise
ĠReg ional
ĠMeister schaft
ĠFo und
em pl
ĠR ing
ĠL ig
Ġter ms
Ġgirl s
u ell
Ã ±
Ġw r
Ġw ish
Ġe arn
ks am
ĠAb teilung
ĠTechn ik
Ġarch ite
Ġcann ot
ro id
Ġex tens
eh m
ar ter
ĠW ettbewerb
Ġg reen
Ġ19 12
200 8
Ġdevelop ed
Ġbring en
Ġf irm
Ġwer de
ĠBer eits
fr ont
ĠChrist mas
Ġd omin
Ġtr ip
Ġopt ion
and ers
ĠBÃ¼ cher
n ern
ĠS ym
Ġfol gten
ĠSatur day
ond s
ĠArch iv
lav ier
ĠBeit rag
Ġb leiben
ĠO h
n y
ĠC y
our ce
Ġser ious
ĠNutz ung
Ġcommer cial
p fl
Ġd ise
is a
it ation
ĠC entral
ph one
Ġfe ed
Ġje dem
Ġcor re
in y
ron ic
Ġsu it
Ġlon ger
ĠverlÃ¤ uft
Ġs aw
Ġ3 7
ĠGe heim
Ġdis play
Ġresour ces
ei ge
Ġch arge
Ġeurop Ã¤ischen
Ġanalys is
r d
ĠS on
re chte
ĠF isch
ĠE dition
ĠHinter grund
E hemal
ĠO ver
Ġapplic ations
ĠK ult
erk unft
Ġfol gt
Ġreview s
ĠFlor ida
h old
t i
Ġl Ã¤nger
ff er
F e
P ol
ist isch
Sch wei
ĠZust and
h och
em ble
Ġbeen dete
Ġreg ister
deutsch en
d ate
eit ert
ĠGroÃŁ britannien
F re
u ted
in ation
ĠGr enz
ĠGra fen
Ġbene fits
Ġb ul
ĠM att
Ġmehr fach
Ġpl anning
ĠBas el
ĠS icht
ĠP od
ĠE ff
Ġent lang
anstalt ungen
Ġveh icle
ouverne ur
t um
Ġh it
ĠL i
Ġver treten
we chs
ĠEn ter
F rank
ĠSch lag
gy pt
ĠverfÃ¼ gt
ĠP ot
ach im
ab et
ĠBe ach
geordnet en
k rit
ĠArchite ktur
l Ã¤nder
Ã¼hr en
hol t
d essen
h te
ĠF ind
ĠC anada
ĠEle ct
ĠPhilosoph ie
O ne
Ġent scheiden
w itz
as ons
Ġbet rieben
ĠWh ile
For mat
Ġl angen
20 11
Ġplay ers
Ġarbeit en
ĠPrem ier
I A
T r
s itz
w ander
ĠJ on
Ġver pflich
Ġch ance
Ġ7 5
Z eit
Ġd iv
ĠV illa
Ġgrow ing
d r
i ant
Ġp en
am ous
la h
pe kt
Ġwor th
Ġinvol ved
ĠM ah
ĠP enn
m ore
v ant
Ġd om
ĠZ immer
Ġrep air
P re
ĠFer dinand
Ġf air
us te
ĠW issenschaften
ĠSt an
geb nisse
ĠPar lament
gew and
Ġgeb racht
ĠChar l
Ġheut ige
ar kt
Ġn ov
ĠVer lauf
ĠHam burger
Ġd unk
Ġun bek
Ġ4 8
Ġvers ucht
ch ange
Ġp rÃ¤
ĠAr zt
ors itzen
Ġger ne
r Ã¤t
ĠD ro
Ġver antwort
Ġbrit ische
Ġle gal
p a
Ã¤ her
Ġo l
ber e
200 6
Ġgra ph
glieder t
Ġverlie hen
zip lin
ĠS us
stell er
ĠBeruf s
t or
Ġg ives
Ġer f
ĠMann schaften
ĠErz Ã¤hl
il a
Ġre fle
Ġj ungen
Qu ellen
Ġon es
geb racht
aut en
ĠJan uary
ĠInd ustr
Ġt en
Ġm ot
Ġv ideos
ist a
ow ski
ĠIn form
rat es
ĠgehÃ¶r ten
Al bum
ĠSc ott
Ġpol icy
ĠAustral ia
ĠB ist
ĠH istory
ĠSp an
Ġle gte
Ġgew innen
ĠEl isabeth
K reis
u den
it ur
ĠVier tel
ĠSund ay
D o
ĠA C
Ġan lÃ¤sslich
ĠJu den
ĠHeid elberg
at i
Ġin tens
ĠB la
Ġc ause
Ġk or
Ġweiter er
gebie te
is l
Ġt ar
ĠS un
ĠG Ã¤
ĠC O
ĠN ummer
Ġaus tral
lie der
rich ter
S c
Ġd ig
ĠE very
iel le
Ġatt ack
D a
Ã¼ m
ĠÃ Ĺ
Ġgar den
ĠBern hard
Ġitalien ischer
Ġverkauf t
) )
on om
Ġein st
ĠK os
Ġj unge
ĠEin fÃ¼hrung
ĠFran ce
ĠMat th
Ġenc our
Ġm id
ĠR ay
Ġan im
19 45
imm el
R es
ĠT Ã¼b
ail s
Ġarbeit et
Ġinvest ig
m ont
ĠFak ult
ĠL Ã¤ndern
Ġe igentlich
Ġsch Ã¶n
ĠOrt schaft
e es
ĠJ ob
Ġor igin
ĠAm az
Ġmach ine
med aille
Ġsuccess ful
G ra
ĠD ra
ĠW ach
Ġg iving
S T
Ġs old
ĠS ach
le b
Ġc abin
ĠWe chsel
Ġcomp lex
Ġmo unt
B esch
Ġinter view
sie he
Ã ´
ĠR osen
ĠL y
Ġsaf ety
ĠOff ice
ĠBr as
ed eral
Ġl isten
hand lungen
ĠFr ont
ĠArchite kt
Ġb ase
ĠK andid
Ġal bum
Ġmy self
Ber lin
Ġrelations hip
w ir
ot ten
eb e
Ġsp Ã¤t
A ug
R ad
Ġp ath
Ġg old
Ġ3 9
Ġse ek
ĠDar Ã¼ber
wei le
ĠSoc ial
ĠC ho
Ġpart ners
hand elt
ĠK urt
ber s
Ġver lassen
Ġbest immt
arch iv
ĠArch Ã¤
Ã¤uf er
un te
Ġl oss
Ġzw Ã¶lf
20 13
Ġgo es
gele gen
ĠNÃ¼rn berg
Ġunmittel bar
in den
id ents
200 5
ĠG irl
ĠW omen
ĠAn teil
Ġerw arb
ĠHein z
Ġweek end
Ġm eine
ul s
iss ert
ĠDec ember
ĠCent re
ĠT ok
ĠAb schnitt
ĠHo hen
Ġsol che
ĠS atz
ak ed
her zog
ichte ten
Ġsub ject
ĠHÃ¶ hen
Ġfert ig
ĠV om
stit ution
Ġcons ult
zug s
ĠsÃ¼d lichen
ran ce
ff ee
Ġse ction
ĠEn gel
Ġoffer ing
Ã¼h m
Ġa k
ein er
ĠL ok
je w
ĠAut oren
b it
is er
Ġn ied
ĠK rank
Ġim m
ĠSch rift
ĠFar be
Ġd ient
ĠF rench
kon om
tain ment
Ġwahr scheinlich
ĠWebs eite
ĠS uch
Ġgew onnen
bo gen
Ġinc reas
ĠPat ienten
Ġannoun ced
2 000
l uss
m ine
Ġf ab
ĠOr te
omm ern
ĠBl ut
eng th
ĠGel Ã¤nde
X X
ig an
ĠL am
ill on
Ġle vels
be wegung
Ġlie fert
Ġatt ention
Ġbestimm ten
Ġconstru ction
ecut ive
ĠW oche
Ġad j
ĠauÃŁer halb
Ã º
Ġg anze
iz iert
be w
' d
ei en
ĠBl ue
Ġw edding
Ġim med
Ġle itete
ĠSte fan
icher ung
ĠÃ¶sterreich ischen
ĠProble m
ĠmÃ¶ch te
L a
Ġver k
se ud
ĠHe ute
ĠrÃ¶m isch
el and
ĠR od
ĠFÃ¼hr ung
ĠÃ¼ br
Ġg ift
ger ichts
lo ud
or gt
ĠV o
Ġmult iple
ĠDe velop
ĠFlugh afen
T yp
em a
Ġne igh
Ġout door
ĠSpec ial
ĠGust av
g ut
ĠNe ue
Ġdar in
Ġstart ing
ĠSchrif ten
Ġwicht ige
ima tely
p olitik
Ã¤n gt
Ġdo uble
anz er
ĠSied lung
g reif
s et
c ul
p ack
Ġn ature
t est
Ã¤ ische
Ġc ulture
ĠSt ahl
Ġauf gerufen
urn ier
Ġro t
akt iv
D ate
or i
amer ika
Ġsup pl
ĠStud enten
Ġstar tete
Ġentsp richt
baut en
Ġdirect ly
ĠnatÃ¼r lich
ĠT Ã¼rk
Ġg alt
ĠAut ob
ĠRich ter
Ġsele ction
Ġwirk lich
r enn
ct ure
ahr en
Ġat tend
ĠÃ¤ uÃŁer
ĠD etail
ĠÃ¼ber wiegend
ĠEin s
Ġerst es
res p
Ġcreat ing
is tet
ĠC at
Ġ19 13
Ġge gebenen
Ã¤hn ung
m and
er a
Ġt ats
ber n
Ġver gleich
Ġ5 5
mann s
ĠWo od
kathol ischer
I d
Ġpro per
Ġfo ot
S ystem
Ġf lex
ĠSt iftung
ĠOb jekte
Ġdev ice
Ġre in
ver trag
Ġpla ces
Ġnecess ary
Ġw uchs
Ġder zeit
Ġer inn
gem einen
Ġc at
ĠI C
op old
Ġfin ish
ende te
Ġspe ed
n ational
Ġv e
lieÃŁ t
ĠVerb and
Ġd ir
Ġpat tern
R A
or al
Ġin zwischen
ist ics
ĠV arian
ĠSpe zial
Ġdistr ib
D P
ĠL Ã¤nder
ic ed
St ud
ĠZu kunft
H L
Ġb orn
Ġein gestellt
Ġl ok
brÃ¼ cke
Ġt hr
Ġs un
ĠS eb
men s
aus piel
ĠBe wegung
Ġsch edule
ĠAuf t
ĠBundes liga
ĠLauf e
az ine
m l
ĠEin trag
Ġrem ov
ĠKap elle
Ġrequire ments
I ON
Ġcas es
zieh ungs
B is
i y
Ġl au
Ġres pect
ĠBo ard
Ġthem selves
eiter te
Ġs ingles
Ġo w
ĠD arm
ĠÃĦ nder
f amilie
an ced
Ġ19 11
Ġor ient
uck y
Ġamer ikanischen
ĠW ander
Ġl ower
oper ation
lin es
hn t
Ġso uth
Ġsup ply
Ġangeb oten
West falen
ĠAller dings
kt iv
Ġbec ame
ĠInter esse
Ġeng ag
ĠCont in
Ġd ark
tell igen
rit e
Ġstor ies
Ġd auer
ĠK assel
Ġsm art
Ġhom es
Ġmess age
p at
200 4
ĠBlÃ¼ ten
W eit
p olit
as ing
ĠA ff
Ã¼ st
ĠK a
Ġbe gan
Ġent h
ret t
ĠGer hard
wahl en
ĠKomp on
ĠTurn ier
E P
l an
Ã ¥
ap el
ĠD ah
Ġ( ,
os a
ru it
ĠMe tern
Ġprov ider
il lage
Ġwir kte
ĠBeit rÃ¤ge
ĠR y
ei ÃŁ
Ġent ry
Ġcolle ge
ĠAngeb ot
e ff
ĠP or
ĠT y
ach ts
ĠâĢ ļ
ĠHoch schullehrer
ĠInter view
ĠB ass
ĠG alerie
ap ter
Ġsom et
Ġzerst Ã¶rt
g ol
r est
ur ts
Ã¤ llt
ĠL ar
Ġl ay
ĠAd am
mittel n
Ġexperien ced
ar ischen
ilit ary
ernse hen
g ner
g han
m osph
Ġd agegen
ck len
Ġre pla
ost on
Ġdesign s
ĠProdu kte
g au
ĠV iol
ken nen
O lymp
W ie
is ions
gra f
ĠSer ies
ĠHistor iker
ĠW affen
Ġth ous
Ġ4 2
Ã¤l de
Ġbek ommen
so ft
Ġklein er
ĠKrit ik
ĠR is
Ġan erk
sk y
Ġbek annten
ĠMan ager
ĠGl Ã¼ck
ĠFot o
ĠUl rich
ĠB rief
ĠW Ã¼rz
Ġge halten
ei ht
ib ly
Ġbele gt
u gend
ĠT iere
ĠK lavier
ing u
os ted
ĠStand ort
gr enze
Ġcomple tely
ĠSim on
R O
or der
Ġb all
ĠH it
ĠR et
Ġl ic
b aden
Ġt al
Ġit self
ĠPr im
glie dern
ĠNieder land
M in
ĠN eb
rie chen
ĠSchul en
ĠProble me
v ement
Ġs on
ĠÃľ berg
Er baut
M ark
ĠT hen
Te chn
ĠJ ord
gr iffen
C om
s ur
st uhl
ĠR ost
fin den
Ġsen se
ar o
ige m
. ),
N o
Ġs ell
Ġb aby
ĠW ed
tell ungen
ac es
ĠNe uen
ĠSo und
ĠId ent
c ies
k ammer
Ġf ine
Ġan aly
Ġ190 5
ĠPries ter
b ungen
u an
ĠK ard
wer te
Ġinternational e
ĠCol umb
ĠPre uÃŁen
Ġindividu als
h ow
ident ial
ĠGrund lage
ĠBron ze
v olle
ĠOr ganis
oh le
ĠBar bar
ĠTod es
ĠTÃ¼b ingen
y ond
and en
Ġl ost
Ġhe il
ru he
Ġber eit
ĠMed ia
grÃ¼ ndete
n ungs
Ġge ts
Ġsp orts
Ã¤ ne
ĠT el
ĠC ross
ĠDie t
Ġno te
ĠwÃ¼r den
Ġ Ä
is at
or dens
ven ue
Ġthink ing
ĠFir men
Ġd ritte
al ing
ĠRe chte
ĠKar ten
Ġact ive
ĠhÃ¶ch sten
N S
al m
Ġh ar
ĠBrÃ¼ cke
gef Ã¤hr
Ġp ages
gr Ã¶ÃŁ
ĠAl pen
Ġtra gen
ĠTr ump
IN G
stÃ¤t ten
ĠH Ã¤user
Ġl Ã¤ng
hÃ¶r den
Ġbl ue
Ġlim ited
A fter
c ia
Ġf arm
Ġm ention
qu is
Ġro ck
ĠUnivers itÃ¤ts
ĠPf ar
Ã¤chs ischen
Ã Ħ
Ġh a
ĠEin heit
ĠBild hauer
Ġrequ est
Ġgroup s
Ġdoc ument
Ġde pend
olog ies
stru ktur
ĠJur ist
h orn
ĠP unkten
ĠE igent
ĠE reign
Ġle er
Ġex cl
ĠAb d
d or
ĠK och
ĠNach richten
Ġorgan iz
ĠBund est
al te
Ġf ashion
st ation
st ern
ĠT H
Ġre ve
Ġbek am
ĠFot os
m ie
at ives
as ion
Ġan ges
Ġhe ar
ĠNord osten
ĠgrÃ¶ÃŁ ere
Ġown ers
Å ¾
Ġs and
ĠL ink
Ġ2 50
ĠPro gram
Ġpart ner
fel der
ĠFar ben
us ter
Ġg ere
ct ic
Ġmus ikal
war en
ĠÃĸff entlich
m Ã¼hle
ĠW ater
au b
Ġcl oth
Z w
le icht
ĠK ath
ĠGes prÃ¤
ad or
ĠCh ild
ĠAuf grund
ugh ter
âĢĿ .
Ġag re
Ġ190 8
ĠgrÃ¶ÃŁ eren
Ã¼hl en
K urz
ĠC a
ĠC re
ay a
lin ien
Ġ4 4
Ġroom s
p pe
ĠT a
Ġg ro
io de
Nach dem
Ġschw ar
Ġwichtig sten
g Ã¼lt
ĠD et
Ġp aar
ĠAn wendung
Ġab geschlossen
ip pe
Ġor d
Ġsur round
ĠW estern
Ġcl ub
Ġpos it
ĠjÃ¤hr lich
k re
st amm
im me
Ġim plement
Ġdeliver y
Ġs us
ol o
ĠF lo
ĠC orn
Ġaus geb
ĠMinister prÃ¤sident
M ail
Ð º
ag ne
end ar
Ġfamil ies
V P
st ab
Ġ190 4
u ber
ion e
ĠLand wirtschaft
Ã© n
ĠFl Ã¼gel
ree k
Ġjed es
Ġob tain
ĠEurop ameister
re y
Ġwe ather
gem eine
ĠTem peratur
Ġlar gest
cklen burg
ĠA R
Ġer fÃ¼
ĠJahr zehn
le m
ĠG ame
Ġmit tels
Ġfr ame
Ġ189 0
Ġbet rach
k lass
in ed
ĠThe ologe
ĠPra xis
Ġdefin it
Ġopportun ities
Ġdivers e
ĠEduc ation
in ks
ĠB Ã¤
ak s
ap pe
Ġprogr ess
D em
d own
o oth
y t
Ġw ife
ein d
ĠM ol
Ġge zeigt
Ġunter s
Ġres olution
rif ft
ĠKar te
Ġest ate
Ġresp onse
Ġcreat ive
g ern
ĠH ub
ĠW ag
ĠEurop Ã¤ischen
Ġh our
ĠT agen
gel assen
ĠTh Ã¼r
ĠKon zept
Ġter m
ĠArchite kten
i able
re al
Ġk Ã¼nstler
ov a
ĠNik ol
s es
ĠD omin
ĠH uman
auf hin
The ater
ek te
issert ation
G roÃŁ
ĠL eit
ĠSt off
ĠIn strument
ĠSie ger
ph an
Ġdec ision
Ġcost s
f ast
t l
Ġ uk
ĠD ol
Ġg uten
ib el
ĠGrÃ¼ n
leist ung
ĠS ab
ter e
ĠIn tern
Ġbusiness es
Ġwen igen
ĠChe ck
Ġitalien ischen
Ġtem per
D on
k rieges
im ed
Ġgen annten
Sch w
Ġ190 6
ĠAustr alien
ĠerklÃ¤r t
P er
b ibliothek
re form
ĠH und
Ġsogen annte
merk ungen
b ilder
Ġd ry
Ġm other
Ġr Ã¼ck
Ġat tem
ader s
Ġwest lichen
c ont
ĠS onn
Ġv irt
ĠT hr
ĠStra ÃŁ
Ad resse
C o
n ot
st he
ĠP aar
ĠIn gen
ord net
Ġcar ry
Ġmax imal
Ġann ual
Stra ÃŁe
l ike
us ed
ĠP ak
ĠZ us
Ġun it
ĠEr inner
ĠBe ck
Ã¼ck sicht
pp ed
ĠCo de
Ġcl ient
ĠĊĊ ĠĊ
Ġuns eren
yl van
Ã¤us ern
ĠEhe frau
N ord
ĠM Ã¶
Ġzu gleich
ĠAl tern
wer be
eld ung
Ġste ts
ĠBl og
ĠZw eit
Ã ł
ĠF eder
au d
Ġsp ot
ĠAuf gabe
ĠBes atz
Ġgeb ildet
Ġgef Ã¤hr
ĠRhein land
ĠfrÃ¼her en
p m
ĠS qu
st on
ĠN av
Ġ190 7
wor ks
Ġtit le
ĠGeburt stag
ĠG ele
fr iend
vers e
ĠMet all
ĠnÃ¶rd lichen
a dem
i xt
ver treten
Ġsp ent
Ġcons um
ĠCon c
ĠVer halten
ĠBe w
ick ets
tem porary
200 1
Ġâ Ĥ¬
fanter ie
E G
n icht
ð Ł
te uer
ĠA sp
ĠH afen
Ġst uff
Ġum fang
weil er
Ġnor th
bÃ¼ cher
k ord
te gy
Ġ19 17
iel len
Ġges pielt
Ġprodu ziert
ch ner
sch loss
ĠR ap
ĠLe opold
ĠAd min
Ġhel ps
ĠDaten bank
j o
r ik
al em
Ġweit gehend
Ġpre fer
Ġfre qu
Ġactiv ity
Ġcomfort able
H o
Ġgem Ã¤ÃŁ
ĠWeltkrieg s
Ġaff ord
ĠSchm idt
Ġein gesch
Ġg rand
Sch riften
ĠQual ifikation
ĠFakult Ã¤t
b u
ar ische
ĠP rag
Ġg ese
Ġst ress
ĠMain z
klÃ¤r ung
iw od
rup t
ĠH orn
ĠMor gen
Ġ ;
ur b
Ġfor get
qu es
ĠUn abhÃ¤ng
ĠBas ketball
Ã¨ re
forder ungen
B ild
o z
ĠK anz
Ġl es
ĠEr b
Ġch urch
com es
ĠFilm s
ĠPol y
ĠSommers piele
ĠP S
ĠZ ent
lin ik
ĠBahn strecke
p al
Ġs atis
ar ies
ĠBe zug
Ġersch eint
fra gen
ĠVal ley
v ision
ĠM Ã¤r
Ġerst re
ĠFebru ary
Ġplay er
Ġruss ischen
Ġhtt ps
ĠS ak
ĠD Ã¶r
Ġde p
ĠIs lam
Ġeben da
Ġhol iday
ĠOx ford
Ġg ingen
ab ase
200 3
Me ister
Ġdar an
ĠCarol ina
frast ruktur
C O
il ing
ol ge
our ney
stra hl
ĠInternational en
Ġa f
Ġb ein
ov en
Ã¼t te
Ġview s
ĠS T
ĠR oth
Ã¶r en
bahn hof
ĠFrancis co
Ġh Ã¤lt
Ġto wards
Ġsch le
Ġcom b
ont o
Ġfin ally
ograph ische
Ġtrans fer
A F
Ġs ymbol
el er
ann el
Ġex pected
ĠLe e
Ġche ap
Ġview ed
ĠKe y
ra ted
Ġl ots
ĠSch auspiel
ug ies
onn a
ĠÂ £
ĠT ore
ĠF ire
Ġso ft
bo ten
Ġeigen stÃ¤nd
ĠJournal ist
Ġz eich
ir ge
Ġe ye
id ae
icht lich
Ġus es
ĠKon fl
ĠN a
Ġun be
Ġhin gegen
Ġunterschied lichen
Ġstreng th
Ġt Ã¤
ĠL ord
ĠJac ob
ĠSin ne
ĠReg ister
ĠCommun ity
M useum
S er
Ġm otor
Ġun ten
Ã¤hl ten
r ix
ĠS av
ĠD ichter
ĠTe ams
pt ion
ĠGew inn
ĠGeist licher
Ġverantwort lich
ĠP en
ĠBei de
Ġoffer ed
inc ip
Ġcamp aign
k opf
al bum
ĠM ov
ĠK ong
ĠI hren
20 19
Ġher gestellt
ĠQ uer
ĠAd els
Ġlin ken
c are
ĠG reg
pf lege
ha ber
ĠDeb Ã¼t
C ode
ĠS ho
ĠÃĸffentlich keit
K irchen
ĠL aut
ly wood
ain e
ĠAuf nahme
isten z
ĠPf lege
ĠFound ation
f abrik
Ġn amens
ersÃ¶n lichkeiten
Å Ħ
ĠC all
rit ter
Ġcomp on
Ġinfl uen
d urch
an en
ĠT sch
Ġprodu z
ĠYo ung
l ast
ĠVor der
Be vÃ¶lker
yd ro
ĠAward s
ĠWider stand
z ub
ĠL ight
Ġver schw
ĠgeprÃ¤ gt
un ehmen
ĠH ess
Ġkl ar
bl Ã¤tter
ĠLeist ungen
Ġsomet imes
ĠArbeit er
Ġhealth y
ĠWilli ams
Ã¶ die
ĠN ick
ĠDeutschland s
Ġphys ical
ĠFrÃ¼h jahr
C S
r Ã©
ĠB ran
ic on
ĠTeil en
Ġinst ru
unn y
Ġlet ter
ĠV el
ell i
Ġex hib
Ġob wohl
Z um
ĠB lock
ĠK in
ĠK ron
ĠW a
Ġunter st
je kten
pro gramm
ĠChe f
ÃŃ n
arl ier
Ġsle ep
ab elle
est ra
Ġst age
ug u
Ġcon vers
m y
u um
or ganisation
Ġp assen
em ark
la den
ĠÃ¼ber geben
Ã¶r ung
ĠSchw eden
Ġmet al
Ġdah in
Ġkomp lett
Ġ ueber
ro at
ic ing
ĠIn ner
ap y
Ġber ufen
Ġerw eitert
Ġplay ed
Ġunderstand ing
Chr ist
Ġwr ong
a ction
Ġz Ã¤hlt
Ġbe ob
co very
Ġro ll
ĠFahr zeuge
unn el
Ġpur pose
f els
Ġer gÃ¤n
Ġdeutsch sprach
uar ante
ĠNord westen
wÃ¤r t
Ġelekt r
b il
Ġf iles
ĠD Ã¤n
Ã¶ gliche
if er
ost ers
gel n
ues day
ĠWei hn
S ehen
ĠS inn
Ġc ards
ĠF ert
gra ben
zÃ¼ ge
k ts
Ã¼ ll
ĠH ell
ic ate
ĠMen ge
ĠGesund heit
Ġso c
Ġwe ar
ĠGe h
Ġ4 9
ĠChr on
ĠTra ining
Ġback ground
Ġben ach
ĠFranz Ã¶s
ĠPfarr kirche
Ġmoder nen
ĠWirk ung
Ġexact ly
Weit ere
ylvan ia
ĠS et
Ġv iol
Ġg anzen
ĠN ap
ĠAuf bau
D A
Ġt ips
re ci
Ġin stead
Ġf unktion
Ġm aster
ĠB oston
ann a
ĠAus druck
Ã¼tz t
ĠPre uÃŁ
ĠLeist ungs
Ġengl ischen
i Äĩ
Ġp et
ra gen
gel d
Ã¤nd ler
hÃ¶r de
Ġart ist
ĠDate i
ĠEntscheid ung
B r
Ġ Ã¶
en kt
ĠK en
ic ations
weg s
Ġwei b
ĠAmaz on
ĠS tellen
ĠR ail
ap ers
ĠEr de
Ġcon ven
Ġbestimm te
Ġerhe b
Ġgese hen
w ach
it o
Ġf ant
ĠP ed
ĠAn griff
ĠBe f
ĠUn garn
= "
n etz
as ts
Ġ6 4
ĠFor st
Ã¼nd ung
ĠRÃ¼ck kehr
Ã¤mp fen
k rÃ¤fte
ĠS ig
Ġf em
Ġn umer
Ġwe g
ob by
ĠMos kau
J an
g ment
Ġn utzen
Ġse ch
ĠNord rhein
wes ome
ĠL it
ĠIn n
rÃ¤ ume
ĠS PD
Ġco ach
Ġtra de
ĠRo ten
ĠSÃ¼d osten
Ġsub mit
ĠQual itÃ¤t
ĠWo iwod
ĠPfarr er
ĠVirgin ia
ĠP ack
ĠF inn
ĠThe odor
ĠHand el
Ġfriend ly
ĠAfr ica
is ieren
Ġm il
Ġhe at
oren z
fr ist
Eis hockeyspieler
Ġgleichnam igen
ĠK athol
ĠL en
Ġg as
ore a
ĠBrÃ¼ der
ĠTro tz
Ġt im
ĠT Ã¶ch
ow l
Ã¼nd et
ĠGl obal
Ġschool s
ĠSowjet union
Ġow ner
ier n
Ġhe ard
ĠCour t
w eite
Ġs av
ar in
Ã¼ mer
ĠG ang
ĠK Ã¼nst
Ġch at
ho ff
Ġ4 1
ĠÃĦ r
Ġmov ing
Ġexp and
histor iker
Ġd eta
st o
ĠÂ §
Ġconsider ed
P la
P olitik
ĠE hr
th a
ĠVer hÃ¤ltnis
ĠBe ziehungen
Ġent stehen
Er ster
ĠBundes republik
Besch reibung
B i
re a
ĠH arr
ifiz iert
Ġkur ze
afr ika
U T
ch mal
em burg
Ġlov ed
Ġmean ing
Ġblo od
Ä «
Ġw ild
ĠR ath
Ġad vert
ĠBild ungs
he bung
ent um
ĠIn halt
Ġ18 48
Ġelect ric
ĠMond ay
ĠArn old
D r
e ur
Ġl ength
ĠEin ige
Ġco ffee
ĠStra f
ĠSÃ¼d westen
Ġess ential
ĠAutom obil
Ġded icated
ĠLeicht athlet
ĠE ll
ĠH ause
ĠL ine
lie fer
Ġsh opping
al led
ro te
ĠE ber
ra k
