#version: 0.2 - Trained by `huggingface/tokenizers`
e r
e n
i n
c h
Ġ d
Ġ a
e s
n d
i s
o n
i t
i e
Ġ t
Ġ s
o r
Ġ w
a n
t e
a r
Ġ S
a l
h e
a t
r e
Ġ b
u r
u n
Ġ in
i ch
u nd
a s
e in
Ġ f
e l
u s
Ġ m
Ġd er
Ġ A
Ã ¼
l e
g e
Ġ B
Ġ v
Ġ 1
\ \
i l
Ġ o
Ã ¤
Ġ M
Ġ und
Ġt he
Ġ D
s t
in g
r o
t er
un g
Ġ p
i g
i on
d e
Ġ h
Ġ P
Ġ n
Ġ c
o l
Ġ T
Ġ (
Ġ ein
a m
Ġ F
â Ģ
Ġ G
i m
Ġd ie
Ġ K
en t
Ġ E
u t
o m
r a
Ġ z
Ġ I
s ch
e m
Ġ H
Ġ W
e t
Ġa nd
Ġ R
h r
i c
Ġ L
t en
is ch
Ġ g
Ġo f
e d
Ġt o
u m
Ġ C
b er
Ġ 2
u f
a nd
Ġb e
Ã ¶
is t
i r
e it
Ġ1 9
\\ \\
a ch
Ġ l
Ġ er
Ġ N
Ġ J
Ġ V
d en
Ġv on
i er
Ġa l
Ġt h
d er
c k
u l
Ġ k
Ġa n
Ġd es
l ich
er s
i v
Ġd en
o t
Ġ im
g en
Ġ2 0
at ion
Ã¼ r
Ġ O
Ġ e
o w
i k
ĠS t
a b
es t
o s
a d
Ġm it
Ġ y
u ch
Ġ ge
an n
l a
Ġ re
Ã Ł
c t
Ġ âĢ
Ġ U
Ġd as
i es
i f
e b
Ġy o
al l
Ġs t
es s
k t
Ġf or
Ġa uf
t s
e i
Ġ Z
Ġ is
ĠS ch
v er
a f
Ġz u
i en
Ġv er
a h
\\\\ \\\\
ie l
Ġw ur
Ġ on
i d
o p
isch en
Ġ ist
Ġd em
Ġal s
u p
a y
c e
Ġf Ã¼r
te l
ĠI n
Ġ Ċ
t h
it h
a hr
ich t
er e
u g
il l
Ġa us
a g
as s
Ġwur de
Ġ un
Ġd e
o g
n e
Ġ r
b en
or t
m en
w e
in d
Ġein e
Ġw ith
a v
er n
er t
Ġw ar
a te
s p
a u
Ġs ich
0 0
Ġ20 1
a k
ĠR e
o d
a p
el l
l y
Ġw h
Ġp ro
a us
z e
ĠV er
l in
Ġyo u
ĠA n
sch af
an g
) ,
ĠD ie
Ġ j
us t
ar t
o ch
ĠE r
Ġth at
Ġn e
Ġs ein
es ch
i b
en d
Ġ i
s te
r an
f f
Ġ it
Ġa b
q u
h n
Ġa m
ung en
isch e
Ã¼ ber
âĢ Ļ
i p
r ie
s e
ĠT he
ig en
u d
Ġs p
Ġ he
h t
Ġbe i
u b
ĠS p
g er
Ġ le
o k
Ġ 3
Ġa s
an t
ut sch
Ġa re
s en
ar d
ur ch
Ġs ch
g r
Ġs e
Ġ20 0
Ġa uch
Ġ1 8
ĠB e
Ġs o
m er
ĠJ ahr
ĠA l
1 9
Ġ or
Ġn ach
\\\\\\\\ \\\\\\\\
ĠU n
Ġ Ã¼ber
k s
l er
âĢ ľ
i a
âĢ ĵ
Ġc om
ro m
Â ł
o v
l ie
Ġb is
ĠA r
Ġw ir
m ent
iv e
ung s
o st
f or
h en
i al
i z
Ã¤ t
it y
ĠâĢ ĵ
Ġe x
is e
Ġm e
Ġw e
ĠE in
a in
Ġs ie
schaf t
Ġc on
Ġz ur
Ġa t
as t
Ã¶ r
ol l
r u
Ġd ies
ĠD e
h er
Ġ ch
tel l
ĠâĢ ŀ
or d
a ge
b e
n en
Ġz um
ĠP ro
h o
r Ã¤
r it
Ġyo ur
h l
Ġw er
Ġein er
Ġw as
o ur
en s
av e
. .
ic k
isch er
et z
Ġz w
m e
Ġ um
te d
r Ã¼
ch en
om e
Ġn icht
Ġ ent
Ġwer den
u re
o nd
l and
Ġun ter
in e
Ġv or
ar k
Ã¤ r
o b
Ġ19 9
Ġd urch
i ge
or e
us s
Ġb y
n er
Ġ es
h al
g el
Ġh at
Ġf rom
u e
ier t
f er
Ġwir d
Ġw ie
it e
Ã¤ n
i de
ter n
g es
) .
Ġal l
el t
en n
ĠT h
Ġth is
ĠC h
i an
D ie
e ct
Ġs ind
re ich
il d
Ġh ave
p p
i re
e w
er k
i o
Ġo der
Ġein em
am e
ĠS ie
d u
Ġ us
Ġ 4
ĠM it
ur g
is ter
m al
Ã¶ n
Ã¤ nd
ĠT e
g t
Ã¼ n
ge b
ĠO r
l o
st en
ĠL e
f t
Ġc an
a c
ion s
Ġ Ã
lich en
at ur
Ġw ill
ĠD er
o ut
p er
Ġw or
ĠS e
Ġm an
ch e
p ar
z en
o c
Ã¼ hr
Ġein en
p h
Ġ en
b eit
ĠA b
a uf
u ÃŁ
ad t
ic e
ul t
ah l
2 0
Ġ 5
s s
a ck
l at
ich te
ĠB er
Ã¼ ck
ig ht
e ar
on t
Ġc o
p t
Ġ -
Ġ19 8
r y
in z
1 8
er v
o hn
ig n
we ise
ation al
Ġ Y
ĠA us
a il
el n
for m
ĠE n
ĠA uf
up p
Ġn ot
ĠG e
ur n
lich e
de m
l l
st er
Ġt e
\\\\\\\\\\\\\\\\ \\\\\\\\\\\\\\\\
Ġs h
ch t
at er
' s
all y
on e
ĠM ar
i le
on g
ĠG r
t z
p r
Ġ19 7
ĠL and
om m
l os
o ok
re i
Ġ( *
Ġh as
ĠI m
it ion
ar e
f en
al t
k eit
te il
ĠN ach
Ġb es
ĠW e
ab le
Ġa d
ĠH e
iv ers
T he
or en
Ġp r
Ġdas s
l ass
u te
t ra
ĠM e
re t
Ã ©
Ġa r
Ġde utsch
re is
ul d
em ber
am m
is s
ation s
ol og
c o
I n
im e
b urg
ĠD as
r at
ier te
il m
ĠV or
l an
f e
Ã¤ hr
a ut
Ġ19 6
ing s
am p
Ġcom p
ak e
it z
de t
a z
ber g
Ġd o
Ġi hr
th er
f ol
al e
Ġw o
ent s
o u
Ġ up
Ġ 9
k e
Ġ 6
el e
ers on
Ġwur den
Ġh er
eb en
Ġo ur
ĠA m
it er
ro ÃŁ
er en
Ġr es
ĠZ eit
he it
te t
Ġs ow
Ġg o
Ġ "
ein e
at en
iel er
Ġ1 7
om p
un t
at h
as e
an s
W eb
Ġw eit
ĠUn ter
Ã¤ l
ol d
Ġo ut
ĠH er
l es
lin ks
t o
h re
i um
os e
Ġv om
ch n
us e
ug h
Ġn ur
Web links
Ġg en
ĠF or
Ġ19 4
on s
Ġ qu
ĠSt adt
Ġ19 5
ĠF l
c c
par am
ĠSch w
ĠF ran
am il
or s
ze ich
r en
Ġb ut
Ġme hr
ig h
ow n
ĠRe g
Ġ ro
Ġge w
ĠDe utsch
s el
Ġn och
Ġ et
ab en
v e
Ġthe ir
Ġm y
ĠP r
z eit
ut z
e c
an ce
m it
al s
ĠM a
ig er
at t
re e
Ġm ore
an z
ĠN e
ol it
ar y
is h
in k
te m
ik e
f l
ier en
Ġt ra
g an
m ann
Ġl ie
om men
ate d
Ġ1 5
Ġon e
ie d
Ġb et
ct ion
Ġ 7
r if
ic al
y s
ĠG em
Ġ Ġ
D er
ib t
f in
kt ion
og ra
ie t
E inz
S t
Ã¼ d
Ġp er
el s
Ġb est
ik er
ne h
st and
Ġ 8
y p
ĠI S
Ġ19 3
el d
Ġ1 6
le ich
h und
h Ã¶r
in n
c l
r ich
u en
l d
Ġsow ie
Ġa ber
ach weise
f Ã¼hr
a de
it Ã¤t
ah n
ol le
ĠP ar
on n
Ġab out
b ar
es e
eln achweise
la g
n is
Ġals o
Einz elnachweise
w er
g lie
Ġ Q
Ġa pp
ĠR o
r ing
k en
esch ichte
re at
e k
B N
or n
ĠU S
ann t
.. .
Ġs te
ĠIS BN
w a
b all
Ġge t
n et
Ġh is
Ġne w
ĠI t
ah re
am men
ĠC o
y ste
u al
nd e
Ġthe y
Ġd ar
ier ung
a ct
ub l
Ġb er
Ġ1 0
Ġsein er
Ġe v
ĠUn ivers
p ro
Ã¤ ch
a up
Ġge gen
Ġin s
Ġwh ich
Ġf e
f ahr
ĠS o
s k
ein de
ig t
Ġcon t
Ġf in
m in
Ġsein e
Ġein es
etz t
m p
Ġzw ei
ie der
v el
ĠJahr hund
p en
h aus
ig keit
Ġ &
l ung
lie ÃŁ
Ġp la
m an
Ġbe en
Ġy ear
Ġal le
is sen
âĢ Ŀ
u er
Ġhat te
x t
w o
ay s
ĠH o
Ġwh o
el le
ur op
a is
lat z
ik an
i ent
Ã¶ ff
g l
an k
am en
Ġwor k
im m
is ten
ro w
Ġs el
ĠG ra
Ġg es
ĠJ ahre
g lich
et t
Ġwie der
ge ben
Ġof f
ĠG es
ĠS te
p ort
ĠP h
it t
ck e
e kt
or y
iter atur
al d
ĠB r
ĠA d
ÃŁ e
Ã¼ nd
s tell
Ġj ed
1 7
Ġk n
ĠK ar
00 0
ĠD ies
Ġdies er
at z
t on
us ammen
Ġk ann
yste m
Ġt ime
Ã¶ l
ĠG eb
id ent
ĠK ir
ar beit
or f
ĠC hr
am er
at s
Ġs ome
ter s
re d
ie le
ĠE s
n ah
Ġk Ã¶n
eit e
ĠM us
u le
Ġs oll
Ġ1 2
Ġf ol
Ġzw ischen
und en
a w
i x
t t
h m
ĠBer lin
Ã¶ s
\\\\\\\\\\\\\\\\\\\\\\\\\\\\\\\\ \\\\\\\\\\\\\\\\\\\\\\\\\\\\\\\\
Ġan y
Ġs eit
ĠK on
ĠB o
c es
Ġi hre
1 0
Ġo b
in a
rie d
b r
an ge
ĠU m
Ġwar en
Ġ .
u de
or k
ĠF ra
in ter
Ġ1 4
ab e
ĠJahr en
Ġo ver
ret urn
ie w
ing en
f all
D as
ach t
ĠTe il
ent lich
Ġp art
ĠW elt
o h
if f
s er
ĠT r
ir t
in der
Ġd is
is te
ge m
Ġbe g
ent r
lin e
ot t
w ick
at ing
iel t
S ch
Ã¤ hl
Ġzur Ã¼ck
os s
ĠF re
ĠâĢ ľ
ĠN ew
Ġin ter
ľ ber
o ol
le d
o ber
Ġ em
b st
eit en
Ġ1 3
Ġl ike
ic t
Ġre c
j ect
Ã¤ ter
eit s
ĠK l
b au
ck en
Ġst ud
Ġp re
T h
w erk
g esch
1 5
Ġ ra
Ġs erv
ĠB l
ĠE x
ĠSt a
ir st
r on
ĠA nd
hal ten
ver y
y n
und es
p f
ar n
Ġpro du
Ġd am
Ġo ther
m a
c om
ge w
Ġp e
Ġs c
Ġh o
ĠJ un
Ġpro v
Ġh aben
en z
rie b
rie g
ĠJ an
aup t
ot h
Ġthe m
at es
Ġwh en
s h
ĠA ug
in t
schaf ten
g te
Ġp h
l Ã¤
form ation
Ġdeutsch er
gen d
is m
ĠB es
Ġge hÃ¶r
ov e
Ġg roÃŁ
am t
E r
la ge
Ġhe l
glie d
st ra
e ich
a um
Ġbe k
Ġ 0
un k
en de
Ġer sten
e p
r es
Ġ19 2
ĠS h
ĠG en
in s
ĠF ilm
ĠJahrhund ert
V er
ar b
Ġj ust
1 6
ĠT ra
ĠTh is
y m
or g
sp ieler
o f
et h
1 2
ĠGem einde
he im
Ġin d
G eb
A n
ell en
ĠM an
ĠSt ra
Ã¤ d
a ir
ĠSp iel
Ġdies e
Ġit s
L iteratur
b o
ĠJ ul
ist or
Ġn o
Ġk l
en k
ĠG er
Ġ if
Ġex p
ĠEn t
ster reich
Ġne ed
Ġh ow
f r
Ġth ere
I m
Ġre g
ĠN ov
tern ational
Ġwh at
ĠO ber
Ġa g
Ġer st
ĠÃ ľber
Ġd rei
ar r
Ã¤hr end
7 8
a x
ul l
u ar
f ter
me ister
Ġbe im
uÃŁ ball
o ck
ÃŁ en
h and
Ġl ook
ĠkÃ¶n nen
ĠZ w
ic es
Ġv ers
if e
ĠAr beit
Ġm us
A l
ĠP f
ogra ph
sch en
b le
tell t
ĠN or
sch ie
Ġg r
Ġin cl
Ġg el
ĠE l
Ġk onn
ĠA ut
1 4
op le
i der
Ġf o
al en
ra ch
au er
Ġin to
ĠM in
Ġge b
uch t
neh men
io us
ĠAug ust
und e
el y
o ff
un st
d ay
Ã¤l t
as h
a ce
ĠB and
ĠE urop
ic s
ber t
Geb oren
ier ten
ass en
Ġw ere
Ġm ost
2 00
rÃ¤ s
Ġt r
Ġh ad
Ġj e
Ġjed och
f ess
r ess
o us
ĠF amil
p iel
en e
Ġg esch
D e
ro und
ĠC ar
Ġth an
Ġsp Ã¤ter
Ġw el
Ġer h
Ġm ake
le x
Ġ201 8
Ġd ann
z er
ĠAr t
Ġf r
c ed
es ten
f Ã¼
l i
er al
aus e
ĠM en
Ġb u
ĠP e
k l
j ekt
ste in
ĠChr ist
b ach
ĠB au
ĠI nd
ĠÃ ĸ
ĠM o
z w
w ard
Ã¶n ig
ra g
Ġwo uld
Ġf irst
ie f
un ter
Ġa cc
Ġhel p
ĠSt ud
ra nd
ul ar
ĠH and
ĠB undes
ru ck
Ġk e
Ġa c
ur t
Ġf Ã¼hr
ĠM ed
1 3
il it
Ġth ro
in ess
h ne
eb s
al k
ĠZ u
and er
f ul
U n
Ġh and
Ġb el
tem ber
Ġet wa
ib le
Ġ el
Ġg ibt
Ġpe ople
ĠM on
ar m
z ial
Ġus e
ĠFran k
Ġkn ow
en den
ch er
ĠN ord
Ġd a
n ung
s o
b ild
Ġw ell
ol f
iv er
Ġb o
pr il
Ġge m
Ġw enn
Ġbe c
ĠP ol
Ġe very
de d
d ition
r icht
' t
Ã¶ glich
Ġi hn
Ġver b
le t
ĠN ational
5 0
M ann
R e
ar s
ein en
ion al
it al
ĠĊ Ċ
ĠNov ember
Ã¤r z
ow er
Ġon ly
st it
if ic
u z
re it
ĠDeutsch land
u es
Ã¼ t
et s
Ġh ier
he l
Ġ ich
Ġsein em
ien ce
ĠM al
ĠP erson
ir k
ap p
Ġdes ign
Ġsein en
ĠSe p
at or
Ġa ct
un kt
upp e
Ċ Ċ
Ġb ack
ĠG esch
lich er
ier e
us iness
ass er
eit er
ĠM Ã¼n
v or
hal b
ĠJun i
Ġm o
ĠG roÃŁ
ro l
Ġer fol
a den
v ers
ein s
i ze
w n
a gen
ag es
i qu
ab ei
Ġweit er
schaf ts
uÃŁ er
a id
w ohn
g est
Ġ3 0
v en
ĠM ann
st adt
schie den
ran z
der n
Ġver y
k er
ĠY ou
Ġlie gt
ĠP latz
ur z
. )
ut ion
ĠA pril
ĠSep tember
ip p
2 1
is en
g ang
kt ober
ch ts
ĠO b
ĠK Ã¶nig
es en
v ent
ĠQ u
at a
ran s
ĠB ei
ĠS c
on st
ment s
ar ten
Ġg leich
it el
Ġg er
an y
Ġm ay
ĠI s
Ġz usammen
ge t
uf t
op h
p or
M it
c y
Ġcom m
ĠE nde
ho f
am s
ĠGr und
Ġs upp
Ġ /
a i
ĠH aupt
iv en
ult ur
ĠB et
a kt
Ġd ire
ĠVer b
ig ung
o y
ĠAl l
Ġer ste
Ġc l
ien st
we g
ĠP olit
Ġas s
Ã¶ff entlich
g ra
Ġ19 0
it s
ĠI I
Ġver w
at ch
Ã¶ ÃŁ
a ul
es ter
it ed
hal t
Ġ201 7
Ġd r
Ġt wo
Ġund er
Ġber eits
k reis
ĠV ol
Ġcon s
Ã ¡
Ġman y
Ġs he
k a
Ġle tz
Ġl oc
Ġer w
Ġh ome
if fer
Ġ201 6
Ġyear s
ĠMa i
at ive
ĠJul i
Ġf ind
um ent
Ġfol gen
m s
Ġs ho
Ġand eren
ĠS Ã¼d
= =
ĠO ktober
em ent
1 1
ĠOr t
as ed
Ġth ese
isch es
ais on
gr Ã¼nd
ein g
Ġh igh
N ach
issen schaft
Ġh in
Ġex per
u ck
Ġb esch
ĠB ar
ic a
ust r
u c
Ġs m
Ġz e
ut h
Ġun s
vel op
Ã¼ tz
Ġdies em
Ġs ol
eb ru
Ġd own
ĠH och
p s
Ġp l
Ġe igen
Ġd ort
sch l
Ġe ben
Ġkonn te
ke hr
Ġ201 0
i or
Ġ201 1
in er
ich ts
c ess
op p
oh ann
Ġsp ec
or ben
ĠK unst
ĠJan uar
Ġ X
Ġthro ugh
Ġse hr
st Ã¤nd
Ġg u
s atz
ĠM Ã¤rz
af f
ess en
ĠF e
Ġihr er
b es
Ġein z
Ġ201 2
Ġ201 5
De utsch
Ã¤n g
Ġst and
olog ie
ar ch
ĠM et
ĠO n
ak ing
ist r
re g
am es
a ur
amer ikan
ern se
Ġi hm
ĠĊ ĠĊ
Ã¼n st
ze ug
ĠPro du
Ġf l
Ġ201 4
b uch
al ien
as ch
ce pt
Ġv iel
âĢ ¦
gr und
p la
3 0
b l
Ġv ier
ĠH aus
m at
ĠF ried
z ember
Ġin v
a j
la gen
r s
il ity
ĠW h
19 9
Ġk am
use um
Ġbes te
ĠF Ã¼r
ĠF ebru
Ġ201 3
is ion
Ġa kt
Ġsch w
Ġgo od
Ġan ge
os ition
G e
z ahl
ranz Ã¶s
u k
Ġhe ute
Ġa fter
ĠR es
f ach
ost en
zeich net
f ang
Ġte il
t re
Ġ1 1
if t
Ġbe fin
Ã¼r ger
Ġm in
p l
ation en
Ġ18 9
ĠF ol
he mal
in al
ei d
Ġk eine
los s
ĠW erk
ĠK inder
O r
b ahn
Ġ200 8
Ġ2 5
ur s
W e
Ġs uch
Ġb l
S ie
Ġg reat
ĠL iste
rif t
ĠS k
Ġp erson
ebs ite
y l
w alt
ĠB ild
Ã¤n ger
Ġp ar
ow s
Ġde c
f eld
o ugh
ing er
ĠA mer
fall s
tra g
Ġm on
it ies
ĠMus ik
Ġte chn
Ġ |
f te
ĠF r
Ġaus ge
ĠG o
gan is
ĠV ers
sch e
Ġs ub
Ġm ark
Ġpla y
Ġm ach
ic an
Ġn ow
Ã¶ st
Ġer sch
Ġf ree
A us
la uf
Ġsel bst
iv es
s on
ĠDe zember
il le
ĠJ ohann
Ġ200 9
ĠG ew
Ġal ler
Ġm ed
ĠKir che
ur ing
Ġl ang
ĠC on
he d
for e
ain t
w ahl
ĠC l
ĠIn ter
Ġb usiness
Ġar t
Ġver schieden
Ġw ay
ion en
rit t
w ay
ĠAr ch
sch lieÃŁ
Ġ Â
l ig
al th
v iew
Ġ [
ĠW est
\\\\\\\\\\\\\\\\\\\\\\\\\\\\\\\\\\\\\\\\\\\\\\\\\\\\\\\\\\\\\\\\ \\\\\\\\\\\\\\\\\\\\\\\\\\\\\\\\\\\\\\\\\\\\\\\\\\\\\\\\\\\\\\\\
i us
ĠRe ich
Ġg ra
Ġe ff
Ġ200 7
mit tel
. ,
ĠVer ein
ĠUnivers ity
ĠâĢ ł
ĠD es
Ġw en
in es
o gen
Ġin c
ĠS aison
ĠUnivers itÃ¤t
ĠLand es
P ro
Ġand er
Ġse c
ĠG l
Ġw Ã¤hrend
ĠW ert
tel ler
ges tellt
Ġ2 4
rie ben
Ġim mer
Ġb en
Ġf re
omm un
Ġd ay
Ġwh ere
ust om
Ġon line
ĠJ u
ut t
ĠG eschichte
B e
ism us
ĠAl s
al ter
Ġ9 78
ĠO ff
hr en
ĠV on
A r
Ġp o
p art
we il
Ġd el
c ial
ĠS er
Ġa v
ĠF ahr
ogra f
Ã¶ ch
Ġs om
Ġdam it
ĠW il
s etz
kt ur
Ġgr Ã¶ÃŁ
ig te
ĠMit glied
ĠDies e
Ġqu al
Ġsp iel
ĠR om
Ġ ,
om en
ien d
in nen
Ġwor ld
Ġev en
sp iel
Ã¤ch st
ĠVer lag
z ug
Ġbei den
z u
mal s
Ġse e
h ol
ĠPh il
hr er
ĠH ol
Ġne ue
ut en
ĠA s
sch n
ĠMit tel
ĠE le
ĠM ich
ĠT o
ĠP re
ĠĠ ĠĠ
te te
ell schaft
ĠS al
rÃ¤s ident
ĠD an
Ġprodu ct
z ie
ĠFebru ar
Ġf amil
Ġo wn
Ġincl ud
Ġge f
Ġsch on
ĠD r
ach sen
ik a
A m
ĠW ien
Ġs ystem
{ @
lo ad
p ieler
ro up
upp en
z ent
âĢľ .
Ã¤ hn
Ġz un
Ġre m
Ġ18 8
Ġst att
r ip
Ġw ant
n o
a e
Ġd iffer
ich er
fÃ¼hr t
ĠM ark
ĠCh ar
Ġ end
Ġth en
Ġ200 6
ĠN ieder
Ġc ar
ra d
Ġf ranzÃ¶s
Ã¼ s
un ktion
Ġ ed
ur es
Ġde velop
ra ft
b um
Th is
ĠJ ohn
ĠW or
il t
g abe
Ġco uld
T e
a der
Ġc re
Ġv is
Ġo hne
ot her
lin k
ĠB uch
ĠG rÃ¼
Ġs aid
o hl
ro p
ly mp
Ġs im
Ã¼n f
ĠC he
b and
tel le
ĠEin e
Ġh ere
y r
Ġin st
sch ule
ĠN amen
ĠE d
Ġre ad
Ġdes sen
m Ã¤
ĠD urch
ur r
Ġar beit
ĠB as
Ġs ur
Ġerh ielt
ĠP er
Ġ1 00
un n
Ġs k
ĠV ert
co de
ĠI f
ĠH am
Ã¤nd er
f ra
Ġre qu
iv ing
ch sel
Ã Ń
ĠÃ Ħ
Ġ( âĢ
re cht
Ġm ade
Ġin formation
ro ss
Ġg ab
Ġv al
olog y
ĠW ill
Ġ20 00
Ġo pt
Ġ200 5
4 0
i ra
le ase
at her
in o
ĠK r
Ã¼ l
Ġbek annt
ĠF uÃŁball
ĠL eb
Ġi de
ot s
ernse h
ichte t
iss ion
ĠMÃ¼n chen
L e
Ġt ake
Ġsp e
Ġbec ause
b t
ĠH al
âĢľ ,
Ġf est
w ert
Ġs Ã¼d
u ge
Ġf rÃ¼
neh mer
Ġpro gr
ĠG u
is piel
stra ÃŁe
ĠY ork
est orben
ater ial
Ġp ubl
Ġe hemal
2 5
Ġp ol
ĠSt re
Ġus ed
Ġne uen
Ġm uch
in ce
Ġre al
ĠKar l
de ut
grÃ¼nd et
Ġbe f
in ing
uf en
ag er
en ce
ch s
Ġst ar
Ġ %
g leich
ĠA t
an gen
is k
Ġihr en
up er
Ã¤ ude
ĠW er
all s
o te
w end
ĠMen schen
ĠC omp
ar i
Ġl ife
ig es
ĠSchw ei
G eschichte
m ed
Ġ ur
Ġn um
ar ge
ĠP art
nah me
ĠH Ã¶
as on
Ġste ht
6 0
ĠFor m
Ġ200 4
it zen
Ġprov ide
l en
Ġt yp
le y
an ts
ĠD ar
Ġd on
Ġn ah
L eben
ĠK omp
Ġsho uld
Ġb ook
w w
ak es
z t
Ã¶ m
ie g
f ern
l ing
ĠK rieg
4 5
m ar
in en
ĠL ei
Ġdies es
Ġb zw
Ġp lan
ide o
ĠB est
ent ly
los sen
ĠUnter nehmen
wick lung
p unkt
iel d
stell ung
ir d
Ġe as
pr ess
h in
ĠAn t
Ġc ol
Ġder en
e h
ĠD o
ĠF in
Ġ2 2
um mer
Ã¤hl t
wohn er
ubl ik
ĠU r
Ġent sp
lass e
Ġ u
Ġch e
ĠM ill
k auf
Ġweit ere
ĠA ss
ĠL in
ĠOr ts
7 0
ĠMe ister
all en
Ġs ei
Ġ201 9
Ġb eing
ĠFried rich
im es
ug ht
Ġd abei
G estorben
ip s
ĠT od
k rieg
ĠPolit iker
oll ow
isch of
Ġr ight
w are
f ass
ĠW asser
ĠR ad
2 2
ĠB ere
ĠP at
ĠR Ã¼ck
la ck
Ġs u
ond er
Ġf Ã¼nf
u ter
19 8
ap an
age ment
tel y
Ã ³
re ib
Ġs ite
re uz
a ar
Ġb ed
geb iet
out h
aus pieler
as ter
ann te
t ag
at ure
it Ã¤
Ġp ra
Ġdeutsch en
k te
Ġto p
ĠB ay
o ge
Ġp olit
um e
i den
Ġbe fore
ĠPerson en
ĠB re
iqu e
Ġs er
ĠM ag
Ġ $
Ġof fer
Ġc ustom
Ġbeg ann
g y
om in
Ġad d
ed er
ĠZ usammen
ĠSch ul
Ġalle m
sch utz
id es
fahr en
Ġ2 3
ĠH ein
an st
Ġ5 0
Ġb r
sp ort
ĠP aul
l ic
Ġ200 3
u x
ĠFamil ie
ĠM ot
gel e
al er
Ġer reich
Ġa round
ard s
ail able
es ent
Ġ2 1
e te
ol v
ĠCo unt
Ġbefin det
Ġw rit
ig ten
ĠSch l
Ġre t
ĠN atur
ĠP ort
Ġwh ile
Ġsh ow
Ġcomm un
ĠIn ternational
p le
ich ten
irt schaft
sch rift
rs g
ĠA uch
ĠLeb ens
ĠL a
u gen
omm t
he in
ĠF est
Ġl a
ĠBer g
Ġp ost
ĠD aten
am ent
od y
our n
w ig
C h
re en
r ib
Ã¤ uf
ĠS ohn
ĠP l
Ġein ge
iz ed
Ġe ach
h ard
Ġ =
Ġl ong
E in
Ġen g
ro om
ĠFran z
itt le
Ġdeutsch e
ĠS an
ra um
Ġag ain
Ã¤t z
< /
ĠSt and
f ilm
ru e
b in
ath ol
Ġl ast
g or
ĠB el
ear ch
E R
az u
ĠPro v
Ġres p
sch ul
er ts
Ġl ove
s w
A b
Ġd id
kt or
ĠB ra
Ġb re
Ġin ternational
d ings
ĠK reis
c a
ĠW ei
a el
u ally
nd ern
Ġzun Ã¤chst
Ġs ign
ĠFra uen
Ġth ink
Ġm od
ran k
an ad
ing le
ur m
Ã¶ sterreich
i am
k ir
Ġth ose
Ã¶l ker
E x
ut ter
il der
ĠN ame
ĠJ e
k ommen
ch te
Ġr est
Ġ200 2
ĠW ohn
Ġ2 8
ist s
Ġfo und
om mer
ond on
Ġ200 1
ĠT itel
ĠH ans
h Ã¤lt
Ġf and
lo ck
Ã¤ us
Ġ199 0
en der
sch ied
z iel
Ġc olle
ho de
c on
en det
Ġp ass
Ġwe ek
Ġent stand
Ġt rans
schl uss
t he
ĠRe p
ck t
Ġeben falls
Ġso ndern
Ġ2 6
Ġgew ann
S p
Ġc le
Ġserv ice
Ġ #
Ġch ild
ĠE m
Ġs tell
ĠH ar
ĠM at
ĠO lymp
gem ein
w ays
ct or
F or
Ġco unt
Ġb as
ĠD re
ĠL ie
gl isch
glie der
Ġwor den
r i
Ġc are
ĠTe chn
Ġdiffer ent
f ort
hel m
k m
Ġ :
Ġc our
le it
ĠB i
Ġs l
ĠK ap
Ġh istor
Ġpla ce
Ġg est
Ġg l
h af
an a
2 3
it ter
rÃ¼ n
ĠGen eral
Ġb il
ĠW ahl
Ġh im
ĠM y
ĠGe gen
ĠC ol
Ã¶r der
nis se
Â Ń
ur y
ĠO st
ĠB ahn
Ġden en
Ã¼nst ler
Ã¤n ge
Ġf un
ĠB Ã¼
Ġdo es
Ġ18 6
ĠP la
n a
Ġs et
I t
e ver
ĠB en
am a
Ġ18 7
ĠS il
Ġp os
ĠPe ter
M e
Ã¼ b
Ġf ollow
ĠM od
Ġre ally
Ġpro ject
ĠDeutsch en
Ġand ere
um s
ĠK n
ĠSta ats
ĠEn g
p ert
Ġander em
we en
Ġph ot
Ġm ov
Ġsch ool
Ġ2 7
ĠBere ich
as st
ess e
ch es
Ġer r
st re
Ġje weil
ĠS eite
Ġ ...
te i
ĠM or
ĠP ark
Ã¤nd e
Ġk ein
Ġav ailable
ĠL ondon
im al
Ã¼ ss
re ad
ver n
Ġpro cess
ap er
stit ut
Ġfr iend
r ic
ĠE v
ord s
rip t
uÃŁ en
Ġv ar
amerikan ischer
d orf
Ġb oth
y ch
Ġver Ã¶ffentlich
min ister
Ġad v
ĠL eben
f ect
Ġn un
ess er
st r
o de
ire d
ĠÃĸ sterreich
le i
or ts
y d
Ġd u
iv id
Ġ199 9
Ġinclud ing
f urt
al y
Ġab s
Ġnum ber
ann ten
Ġcomp any
ot he
Ġz ahl
Ġst r
lich keit
ck er
Ġf ast
h ung
ĠB ut
Ġbu ild
en nen
al es
j Ã¤hr
Ġmark et
Ġexper ience
bild ung
n ess
Ġst ill
ĠD em
sch w
is hed
Ġh al
Ġver l
ĠPar is
st off
Ġne u
ĠS eit
m us
e hen
igh ts
ten s
ne y
h a
re chen
is se
ir l
Ġpro fess
Ġt er
Ġw icht
ent en
F uÃŁball
iv al
gen ommen
ĠKir chen
Ġn or
ĠK ont
Ġch ar
ĠLand kreis
Ġc lass
ĠT er
g ung
E n
ĠM ain
ge d
rÃ¤ ger
fÃ¼hr ung
et te
Ġr und
Ġst art
or ge
Ġa ut
it ions
Ġf ew
c ted
en ter
ourn al
b y
Ġp at
Ġh abe
8 0
ĠR ich
Ġserv ices
amp f
iet y
Ġfamil y
Ġus ing
an e
Ġdar auf
ĠM art
Ġ2 9
y er
Ġa uÃŁer
Ġer halten
ĠD av
Ġbe zeichnet
ik t
U S
ap t
Ġsm all
Ġm uss
Ġbet ween
p latz
g ie
Ġnah m
er st
z ig
ond ere
Ġ '
2 4
Ġfor m
Ġat t
Ġspiel te
Ġmon th
ff en
ĠSch rif
ĠM useum
Ġletz ten
j ahr
ĠW ar
ass e
ĠC al
ig ur
Ġdies en
ol ution
ges etzt
ĠSp ort
ĠVol ks
Sie he
Ġv iele
Ġro om
Ġ199 8
uf f
Ġim port
g ar
ge ord
il ome
ang el
Ġst ra
sel f
ĠA pp
s c
v Ã¶lker
w as
Ġo pen
ĠH el
ĠJ ose
Ġst ark
ĠK om
ĠK ultur
enn t
ief ert
- -
Ġt rat
Ġ4 0
alt ung
ĠgehÃ¶r t
ĠJu gend
ĠF ach
Ġ20 20
tern et
st ru
i as
om at
rÃ¤ gt
cc ess
z entr
ĠReg ion
Ġv iew
ĠHe im
ĠD orf
et ail
tell ung
g aben
y le
Ġl o
D R
t r
Ġd ating
gr amm
Ġc al
oll en
ĠD on
I N
Ġ <
ĠT or
Ġcomp le
Ġfin den
iz iel
m et
ograph ie
ĠB ern
I D
oc i
Ġent wick
ĠS he
Ġapp ro
Ġn eben
ur ger
ĠN o
H rsg
19 3
ĠS el
Ġpr iv
ĠHer z
Ġl and
den s
ies en
ilit Ã¤r
on nen
Ġl ittle
w ei
Ġp op
Ġhe alth
Ã¤ re
Ġg ut
se e
9 0
Ġle arn
ĠP al
av ing
ĠF o
h am
haus en
Ġein ige
a uch
ĠCount y
ĠRe chts
an c
ĠB Ã¼rger
ĠN ot
ĠB ro
um p
nah men
Ġersch ien
ell er
l ess
ĠSta aten
om as
den k
A uf
it es
Ã¤ h
.) :
ĠH ier
Ġsupp ort
ĠHer r
af fen
Ã¤ ll
tra gen
ĠT em
ĠT our
Ġd uring
um en
fol ge
ĠSch n
Ġspec ial
Ġerfol g
ĠC ont
ĠUS A
oss ible
Ġm en
Ġk ommt
I I
lass en
Ġm Ã¶glich
k on
Ġre p
Ġ â
2 8
Ġs ame
Ġwel che
ic ally
la u
ĠPro fess
Ġth ree
g eschichte
Ġor der
ĠGem ein
4 8
ĠT ag
z el
ĠW ir
P D
och en
ĠFol ge
Ã ¨
Ġc or
d ienst
Ġpro m
b et
ĠS erv
reich e
ĠThe y
Ġin ner
) :
w est
ĠgroÃŁ e
rit ten
Ġb ring
Ġakt u
ograf ie
cept ion
ĠH il
imm t
Ġsoll te
ber eich
Ġare a
Ġch o
Ġob ject
Ġlook ing
on es
ĠEin wohner
n ungen
Ġf ull
ĠFra u
ab el
ar ly
2 6
Ġse x
o le
ĠAmer ican
d ing
ĠB urg
ĠIn s
ĠC or
Ġm ember
ei den
Ġte am
Ġein fach
Ġ199 6
Ġpart ic
us ch
Ġke ep
o ver
nah m
Ġg ing
rÃ¤ n
Ġihre m
uch s
s icht
ĠGrÃ¼ nd
ĠGe org
ĠJahr es
Ġzw eiten
ĠBe g
Ġvis it
Ġper form
im mer
ĠI hre
Ġgo ing
Ġg roup
Deutsch er
ĠWil helm
ap e
th ing
ind ung
Ġincl ude
ĠH ow
Ã¤ che
ges amt
teil ung
ĠD a
re ch
Ġsch lieÃŁ
kl Ã¤r
Ġ198 0
us h
ĠJ o
op e
w ork
w or
ap pen
Ġ199 7
ĠFamil ien
Ġgem eins
19 7
l ang
la ub
g o
y e
ĠWor ld
m m
Ã¤ mp
ĠK e
op f
Ġdis c
ne te
Ġd i
ĠC ity
it u
de te
ĠS ol
sch ein
et en
ĠMich ael
il es
Ġme et
Ġerst mals
b el
ĠAl t
sp r
ver t
ĠgroÃŁ en
Ġ197 0
Ġc ond
Ġ199 4
ar a
Ġ194 5
2 7
ĠB esch
ĠSch auspieler
ĠA uss
Ġkl ein
st Ã¼tz
f ts
Ġw ei
Ã¤ ft
Ġ est
Ġo per
Ġ18 5
ĠG ott
Ġqual ity
el te
igkeit en
es te
in ner
Ġc urr
ond ers
ĠFor sch
ĠgehÃ¶r te
ĠJahrhund erts
ĠG old
Ġor gan
2 9
Ġver m
ig a
Ġex c
w elt
Ġg anz
Ġb ro
Ġb ig
Ġan t
at ter
Ġc los
ĠR u
an ten
on y
ĠEr z
az z
ar te
Ġ199 2
Ġge grÃ¼ndet
4 3
/ /
j oy
Ã¶ t
s ych
ĠT yp
v es
w ort
Ġpro ble
Ġbel ie
Ġfe el
ĠWelt krieg
Ġd ata
Ġw est
ĠK ais
ĠQ ual
ier ungs
Ġ199 3
d o
ut lich
19 6
ĠK at
sp rÃ¼n
ĠD u
Ġto o
h ip
Ġb rit
ĠAn fang
Ġg ame
Ġem p
Ġg ot
ĠR uss
ĠC om
== ==
l Ã¤nd
ĠC olle
Ġf act
z ogen
ĠF ot
k ten
i at
ĠD is
um b
Ġ199 5
s st
de utsch
ĠK la
ĠIn formation
P erson
ilome ter
Ġmehr ere
ĠB rÃ¼
Ġw ater
Ġcom e
ĠLei p
b aut
H e
ĠM ay
icht ung
Ġin t
Ġwith out
Ġhat ten
lat t
B er
en a
Ġal ways
Ġb ie
Ġk on
h Ã¤ng
19 0
Ġg ar
uch te
if iz
Ġbeste ht
ĠN eben
d ie
ra cht
ct ions
ĠS ystem
ĠSch ool
ĠR ah
Mit glied
ĠS m
ĠA ir
Ġv oll
le tz
zeich nung
lie b
9 9
in c
ir on
ze pt
. âĢľ
am b
ĠW ebsite
Ġher aus
ĠTh ere
utz t
um an
b ed
ser ie
ĠP lan
Ġ(âĢ ł
Ġc r
ĠB ed
ĠD ire
Ġaller dings
ĠTe xt
mÃ¤ ÃŁ
ig ital
Ġto day
Ġ Ã¶sterreich
Ġth ings
ĠA ustr
Ġg row
id s
ost er
Ġf ac
ĠR ei
entr al
f re
w issenschaft
3 5
for d
gr iff
ĠA lex
ib li
A d
ik en
Ġh ard
Ġd re
il y
Ġn ational
ĠG ed
d ruck
im ent
Ġind ivid
Ġauf ge
Ġp ower
Ġd azu
ĠArch ite
i ol
ĠS eiten
Ġl ot
Ġw ebsite
Ġun ser
Ġab le
ĠGr uppe
heit en
D ies
Ġo pp
Ġc ost
le hrer
um m
Ġbe h
ĠProv inz
Ġst ate
Ġt Ã¤t
Ġsein es
ek te
ĠEr n
ĠHein rich
G ibt
one y
F ilm
Ġ199 1
sk i
ĠS outh
our s
Ġis s
tre ten
ĠBet rieb
Ġe qu
is iert
ra che
ĠZ e
ganis ation
Ġp ay
os en
an te
amm lung
Ġm ind
: //
ĠfÃ¼hr te
Ã¼ hl
Ġst or
ĠP rÃ¤sident
ĠMe ter
ĠL ud
Ġhe ut
eth ing
ĠHam burg
g art
Ġwe chsel
och ter
ĠR ed
i ally
Ġgen er
z irk
Ġ ele
Ġ3 1
Ġer ne
Ġwe gen
Ã¤t ze
w ar
re as
Ġcont in
ur o
st ag
Ġeff ect
4 4
A N
Ġall en
g al
\\\\\\\\\\\\\\\\\\\\\\\\\\\\\\\\\\\\\\\\\\\\\\\\\\\\\\\\\\\\\\\\\\\\\\\\\\\\\\\\\\\\\\\\\\\\\\\\\\\\\\\\\\\\\\\\\\\\\\\\\\\\\\\\ \\\\\\\\\\\\\\\\\\\\\\\\\\\\\\\\\\\\\\\\\\\\\\\\\\\\\\\\\\\\\\\\\\\\\\\\\\\\\\\\\\\\\\\\\\\\\\\\\\\\\\\\\\\\\\\\\\\\\\\\\\\\\\\\
Ã¶r d
Ġgen annt
co unt
B ei
ro s
ain s
Un ivers
Ġval ue
atur es
ĠH istor
ate gor
Ġm et
hn en
we is
ĠW ald
ĠW olf
Ġl ist
Ġc a
ĠChrist ian
19 5
ier s
ĠTh omas
ft ware
Ġs ay
Ġacc ess
Ġqu est
I f
z y
ĠE he
Ġev ent
Ġre ce
a at
Ġbe aut
Ġk omp
Ã ĸ
l ungen
ĠR aum
ĠVer walt
Ġ20 21
cke y
for der
ĠL auf
Ġ196 0
. âĢĿ
schn itt
Ġproduct s
w and
ĠN r
Ġk urz
Ġinv est
ent ial
Ġverw endet
Ġs ince
ĠA g
Ã¶r per
Ġimport ant
ĠB ad
ab r
Ġs ure
ĠEin satz
ĠS en
Ġge ht
ĠRah men
Ġt ry
ĠSp e
ĠHo f
ub e
ĠB ischof
ĠD ort
ĠSt utt
ts teller
ĠMit te
Ġb ra
Ġho use
Ġarbeit ete
n ame
ĠO l
ein t
ir m
Ġg ive
ĠE p
ers p
ĠSch loss
ill s
ĠMa x
ĠS Ã¼
ers Ã¶n
ĠFl ug
Ġwith in
Ġsch n
Ġh inter
ar l
wer b
ĠD en
Ġet was
f el
Ġ x
ch ten
Ġg ele
schlieÃŁ end
3 3
ĠK ur
ĠRe gel
unk te
Ġ198 9
im a
pro du
Ã¼s sen
Ġl ight
gan gen
Ã¤ m
Ġ *
Ġbet ter
gen den
Ġne xt
ĠEurop a
Ġk m
ĠT ro
Ġd ah
Ġhe ad
fol g
Ġverschieden en
Ġle ad
il la
ĠHe il
ĠE nd
Ġt ro
if ul
gem einde
ĠNor th
ĠW ith
and s
ĠTe am
ĠV al
if ik
i ate
ĠGra f
i j
ein ander
Ġm ust
ĠV ater
ach en
Ġapp lic
Ġm ain
sh ip
Ġperson al
os oph
ist ischen
ĠGeb Ã¤ude
! !
Ġstud ierte
reib ung
reich en
p os
est s
Ġres earch
m ark
ĠEr st
ic le
ĠRo bert
Ġste hen
Ġn ame
Ġd ays
ĠFrank reich
ĠSp ieler
ĠAl bum
A S
Ġw omen
ĠF er
h ere
rÃ¤s ent
Ġloc al
ĠS itz
und s
ĠK o
ist ory
ĠSt at
Ġd av
Ġa ff
ĠW ind
ĠW inter
bes ondere
ĠF eld
Ġstud ents
Ġo ld
Ġweit eren
ĠA kt
4 9
A T
gr uppe
ĠZ iel
ĠK Ã¶l
ob ei
ĠRom an
L iefert
ĠOb jekt
ĠG el
ut es
4 6
en glisch
b urger
Ġp ict
Ġeas y
Ġsom ething
Ġle t
Ġco ver
Ġch ange
4 7
ĠH ann
ge f
Ġpubl ic
un ft
Ġl ink
irt schafts
l am
Ġk ommen
Ġcon c
ĠNe u
h le
ĠZ ahl
Ġel ect
Ġen joy
Ġsec ond
ĠF all
Ġ18 0
att ung
ĠM ont
Ġof t
Ġper fect
ĠBe ispiel
ĠtÃ¤t ig
Ġl assen
ĠM Ã¤n
ĠT ochter
ĠH a
Ġw Ã¼r
if ied
gr ess
Ġmus ic
v ille
ig inal
Ã¶glich keit
iz ation
Al s
Ġd och
ĠAm t
O b
Ġj ob
Ġ198 8
ĠFrank furt
ĠT re
ik el
it te
O N
y ing
Ġwork ing
ĠGeb iet
ver b
Ġf lo
ĠS eine
tell en
Ġa ir
ĠD ienst
omm and
Ġh ol
Ġse chs
" ,
heit s
ĠMart in
ĠLeip zig
ĠEnt wicklung
Ġn ieder
o x
ing ton
ar z
le ben
t ing
Ġc ert
d a
Ġl arge
ort un
s weise
Ã¤ ss
ĠRe c
ie gel
ent al
ĠW o
op s
ĠP o
ge ber
e x
Ġex ist
gen de
Ġh och
ĠLud wig
ĠD abei
7 5
tel s
Ġs etz
ĠStutt gart
p lan
ra y
3 6
Ġbe w
der s
ĠfÃ¼hr t
Ġt rue
em s
ĠS oc
ĠS ommer
Ġact iv
j et
Ġw obei
ĠU nd
ĠWe g
Ġjeweil s
E S
ĠUn ited
ag ue
Ġeigen en
ĠSt ring
ĠThe ater
c ript
ĠR el
Ġad dition
teil t
ĠH en
uch en
ĠMin ister
F ernseh
ĠP reis
u el
ro ll
h end
ĠS a
N e
w irtschaft
a he
E s
ĠP ap
Ġv ideo
Ġ195 0
ĠZ ug
ĠSte in
Ġg ilt
ach e
p rÃ¤
Ġt re
ĠSch m
ĠStra ÃŁe
ge geben
Ġmus ste
ward s
ĠS ein
Ġfolgen den
ĠF unktion
ĠE isen
er in
Ġde fin
g ten
A R
Ġpra ct
ill ion
geb aut
Ġan other
ĠM c
3 8
Ġ198 4
ĠâĢ ¦
her r
ĠSe e
b ei
ĠSchwei zer
il en
kir che
Ġpro te
Ġ6 0
ĠB rand
ĠG ar
ĠZw eiten
ĠB rit
Ġcons ider
st Ã¼ck
Ġt urn
Ġche ck
ĠR olle
ĠK Ã¼
ge ther
Y ou
ure d
it ive
iv ed
ĠU l
9 5
Ġm aking
Ġim pro
Ġ198 7
on ist
ol oge
al ten
Ġg rÃ¼
Ġfo od
Ġur sprÃ¼n
am mer
ra u
Ġm ult
Ã¼ gel
Ġn Ã¶rd
ĠF C
Ġb ele
us Ã¤tz
Ġl Ã¤
Ġm ight
i os
un ch
ig ent
E igen
Ġm ir
Ġm al
Ã¤t te
Ġp ut
ĠHÃ¶ he
G r
Ġp age
ĠâĢ ĺ
ĠF ar
rÃ¤ ge
ĠReg ie
ĠNor den
ĠGes ellschaft
ĠI hr
ĠR hein
Ġm ax
id ge
ĠBe vÃ¶lker
ei le
ĠReg ierung
lig a
Ġerfol gte
ĠO ur
Ġsu ccess
lich es
Ġs w
Ġer n
ĠKl ein
ĠEin zel
Ġchild ren
im men
ra b
ĠSchrif tsteller
f il
ab ility
ok ument
. "
part ment
ab l
Ġinner halb
I S
ĠW Ã¤hrend
ĠFuÃŁball spieler
Ġm ar
all er
Ġs af
ĠDav id
ab or
Ġd an
ur en
w ie
Ġ ident
e e
iz in
FuÃŁball spieler
a ÃŁ
' m
b te
as k
ĠEr w
Ġ198 6
ett be
richt ung
Ġl aw
Ġsh ort
ibli othe
Ġver fÃ¼
c ing
ka dem
ĠL iteratur
t il
Ġre view
nde te
ĠK ilometer
Ġse ver
ĠschlieÃŁ lich
fl uss
i ber
Ġdav on
Ġr un
uch e
ver ein
it or
ĠMar kt
o in
re if
ĠF il
ĠF rÃ¼
ĠL ang
Ġneed s
ĠLe ist
ul ation
Ġc reat
Ġwechsel te
Ġb lieb
Ġprogr am
8 8
Ġc ap
Ġp ort
ĠTe x
op er
Ġwor ks
Ġgeb oren
ĠK lasse
ten d
Ġal ong
M ar
is ing
A s
sch er
ĠH igh
ĠL uft
ĠA fr
ĠH ome
ĠU hr
l ungs
Ġw all
ĠP ra
oc us
row s
Ġerreich te
ĠJ ust
Ġc all
ern er
we hr
ĠHeim at
it ing
ag n
ĠMet hode
ĠOlymp ischen
z ess
ĠS im
ĠL ou
Ġauf grund
Ġh Ã¤uf
opp el
ĠK Ã¼nstler
ĠB ru
g lichen
ĠBes itz
ĠF ernseh
E N
o ten
ĠM ad
Ġl ine
Ġfin det
te gr
h Ã¶
ĠDeutsch e
d es
Ġb ased
ĠAut or
f o
Ġne ver
ĠPr iv
Ġins gesamt
ĠB ank
ĠD i
ĠProfess or
v iron
O R
Ġs ingle
ĠM er
th ers
in ks
ĠJ ournal
ĠSt ate
ust ry
v ier
ail le
Ġpro pert
ĠS l
ĠP ost
il nehmer
Ġ198 5
schul lehrer
t y
ĠK ommun
ĠD am
ult ure
Ġcont rol
p end
Ġunder stand
ĠK ant
ĠSo zial
Ġwe il
Ġde v
W h
ul ts
ĠHol z
ĠKais er
t es
Ġas k
Un ter
ĠC omm
ĠIn ternet
Ġof fen
Ġcommun ity
Ġme ist
Ġn ord
ĠCar l
sch eid
f it
ĠD enk
6 5
Ã¶st lich
wend ung
Ġse arch
iv ision
f ert
ĠR est
Ġcon ne
ĠAl ter
Ġl ess
Ġit alien
Ã¤ fts
ch an
Ġin sp
und er
Ġcon f
Ġunter schied
3 7
and id
p e
ok rat
Ġden n
ĠI de
Ġo ber
ĠK ol
3 9
Ġt reat
v al
zeit ig
ĠM os
Ġg irl
Ġk it
en g
Ġinter est
Ġl ange
rei ben
is on
ĠSch iff
Ġ197 2
rif ten
ĠDes ign
Ġd etail
af Ã¼r
f an
Ġse hen
ord ing
st ieg
ĠCh ina
' re
ym n
ran ken
ium s
Ã¤r en
J ahr
ĠS uper
ĠPf arr
ĠO per
Ġ198 2
zeich nungen
Ġgel ang
ĠB ur
os p
Univers itÃ¤t
ber ger
Ġre l
Ġr uss
ob ile
Ã¼r z
Ġoff ers
ĠK ind
ĠE is
Ġl ive
lich t
Ġges am
ĠGes amt
Ġ }
Ġa uth
au en
ĠSta at
ĠEurop e
is ed
S o
ic o
b ank
c le
W elt
ĠPar tei
ĠEr geb
f le
Ġkonn ten
deut ung
8 5
Ġ197 4
Ġbes onders
ut s
Ġto gether
ian s
on a
ĠM utter
ĠJ apan
Ġbeaut iful
w Ã¤r
Ġ198 3
Ġb ody
Ġtra dition
Ġc ity
g a
Ġw eb
Ġcour se
ck s
Ġh tt
ur f
w ald
ran sport
om an
ĠO t
ru ktur
id ing
ĠÃ¼ber nahm
ktion en
Ġein mal
ach er
Ġdire kt
Ġmach en
Ã¼r t
Ġf our
Ġgew Ã¤hlt
St and
ĠOn line
ĠAn gel
itÃ¤ ts
Ġ +
ĠGer man
Ex ception
u h
ab ly
Ġp ast
ĠS am
ĠB or
Ġre la
ĠO p
ĠBer uf
m b
Ġ Ã¶ff
ĠK reuz
ĠMann schaft
Ġz we
fahr t
ĠL o
Ġdown load
eit ung
ĠLe hr
Ġgegen Ã¼ber
Ġt em
Ġ197 5
, âĢĿ
Ġn et
Or t
ĠPro jekt
Ġm aterial
Ġ Ð
am ens
c er
' ve
as es
ĠK al
ĠArbeit s
Eigen schaft
ĠâĢ Ķ
te chn
is ierung
Ã §
geben en
ĠSÃ¼ den
Ġle d
Ġbis her
eth od
4 2
ĠMar ia
ĠIn sel
Ġre le
Ġfe atures
f est
ĠS and
ĠP ass
ĠPr ess
8 9
Ġbel ow
con om
lÃ¤ uf
an ien
Ġf ilm
ĠZ eich
en zen
Ġze igt
g ing
Ġemp lo
Ġen ter
Ġcre ate
P h
s etzt
E D
r ist
Ġdevelop ment
Ġ {@
ĠF ir
l as
ge gen
ĠF Ã¼hr
mal e
Ġins besondere
Ġed uc
Ġb ar
ĠH inter
j a
ĠA uÃŁer
Ġer m
ĠSt r
Ġre du
issen schaften
Ġv ol
Ġ196 8
Ġ( )
amp le
ĠSchwei z
Ġwh y
gele gt
ĠV ier
Ġ197 9
ent ion
erk e
ĠW esten
Ġa way
land s
arbeit er
ĠE ner
ĠW ieder
Ġen gl
v ed
ĠRe v
wa gen
ord in
ĠKÃ¶l n
8 6
ip l
te ile
ru ct
l or
it ten
Ġ198 1
Ġm oney
A C
O n
ich ter
ak ter
un c
ĠBeg inn
h ler
al z
ĠMill ionen
Ġr ange
ĠDies er
Ġf av
ĠM il
Ã¼r k
Ġn atur
uf act
Ġk ind
Ġent fern
Ġz eit
red it
ar ing
al le
al og
p re
ĠMal er
Ã¶r t
Re g
ver band
z Ã¼
ĠS w
setz ung
Ġfollow ing
Ġl ov
Ġr Ã¶m
Ġkl einen
or m
vern ment
Ġm Ã¼ssen
Ġn ight
ĠE mp
ĠI ch
ĠW eb
Ġof ten
Ġd ist
ĠK re
me e
row n
ĠD om
ĠO sten
id ay
ĠII I
D F
Ġverschieden e
A L
Ġzw eite
Ġar ch
ib r
Ġf ile
in i
wo od
he mat
un e
ĠP ubl
Ġfor t
ĠT rans
af en
Ġme isten
e ter
ĠZ ur
Ġmo der
ue ck
ĠF rei
Ġfolgen der
Ġ197 8
Ġver kauf
Ġ )
Ġ Ã¤
Ġall ow
viron ment
ĠE uro
A P
Ġd ra
ĠS ong
Ġvor hand
Ġbest and
Ġan s
o is
Ġopp ortun
Ġo cc
Ġsie he
ĠPro zent
ĠKrieg s
ĠB lack
Q u
ĠS aint
ĠD own
4 1
f red
am in
ill er
Ġviel en
ĠL es
h aupt
B au
ĠM ore
Ġagain st
Ġp ot
ĠStra ÃŁen
ĠT op
be k
Ġle ben
Ġkl eine
Ġ3 5
Ã¶s ung
ĠT urn
ĠR ichtung
ger ufen
ĠColle ge
Ġsow ohl
Ġdire ct
Ġ ir
Ġcle an
Ġs ize
ob il
ĠB aum
j ekte
ot or
7 6
L and
Ġ196 9
te id
Ġcount ry
ĠD el
Ġerne ut
Ġpr ice
- ,
ĠB eit
ĠSt art
3 2
ĠFl or
Ġerr ichtet
t ain
ĠVor s
Ġeinz el
ob al
Ġp lease
Ġind ustry
it i
itÃ¤ ten
Å ¡
V on
Ġn ahe
zeich en
* *
S eit
ĠO ne
ok al
ĠG al
Ġ197 3
Ġn Ã¤ch
ist ische
. :
stell en
Ġh aving
Ġbeg inn
Ġun til
fer ence
Ġc ase
Ċ Ġ
Ġb rand
mann schaft
f s
f Ã¼r
an o
Ġ197 6
ĠHo use
an ks
ĠW hen
ust rie
Ġm aj
if orn
le ist
Ġ197 7
ĠIt alien
rit te
ĠPro ble
ĠM el
tem berg
Ġ197 1
Ver ein
Ġs ide
Ġehemal igen
Ġsever al
T yp
ĠZw ischen
iv ely
Ġp ossible
Ġk ur
Ġcont act
ĠBe deutung
ĠI r
Ġke y
Å į
g n
Ġan geb
F Ã¼r
f asst
ab hÃ¤ng
Ã¤ ischen
ĠR ang
Ġn on
Ġver st
ur ity
ĠT V
ĠB is
ĠTh ese
ĠVert rag
n am
Ġb ene
h an
Ġe ver
Ġpr es
k o
it ze
3 1
ab in
Ġdel iver
at Ã¼r
ak en
on en
Ġp ack
Ġein gesetzt
Ġh erv
b Ã¼
ĠSt Ã¤d
Ġex tra
Ġze hn
18 9
Ġpr esent
e y
s ide
Ġim age
Ã¼t zen
anad a
Ġw ind
ĠP osition
ĠAr m
ĠT age
ĠW eit
ĠMot or
co ver
Ġst arb
ver kehr
b est
he ther
Ġf ocus
Ġyo ung
ichte te
anst alt
ac y
z a
ĠW ie
ges etz
sche ch
ĠT al
ĠSch ule
ĠAn ton
Ġt imes
ĠC as
ĠN utz
Ġst amm
Ġso cial
ar en
Ã¶ ÃŁe
id d
ho ckey
H och
ĠH all
h ang
Ġser ies
5 5
ĠG ast
ĠAuf lage
Ġm ich
I C
ĠAn zahl
ĠW al
ĠP an
ĠBo den
Ġsie ben
en ze
ĠT ur
Ġle vel
Ġv an
Ġqu ick
asch inen
ĠJ ur
g g
ĠIn n
Ġm ag
Ġal ten
Ġac ross
w eit
Ġm ein
ol a
r im
Ġm akes
ĠCl ub
Ã¤us er
E ine
geb Ã¤ude
aff el
Ġ ens
et ter
ĠIn stitut
ĠfranzÃ¶s ischen
unn ing
Ġh app
Ġto t
ell ing
og le
ĠSe c
ĠS icher
ĠH or
ĠZ we
Ġbec ome
ĠD ruck
ĠTh at
Ġre lat
ĠMe hr
ĠRich ard
Ġa cht
rach te
Ġinst all
Ġs uper
ĠhÃ¤uf ig
Ġ(âĢ ŀ
Ġgemeins am
Ġz og
b rÃ¼
ĠZ entr
Ġlie ÃŁ
iziel le
ĠErn st
ag o
fl Ã¤che
M us
m el
Ġcom es
Ġ8 0
ĠKar r
if fe
ĠGesch Ã¤fts
ĠverÃ¶ffentlich t
Ġhin aus
ĠOrts teil
c el
Ġ ess
f ried
Ġth ough
hr te
ĠEn gl
wo hl
h or
ar ian
ĠM ilitÃ¤r
Ġt est
Ġdar unter
ol den
Ã¼ ter
Ġbe de
B C
Ġh Ã¶ch
ĠPro gramm
Ġprofess ional
ymn as
ĠWill iam
ut ions
Ġet c
ĠInformation en
ĠSch utz
olit ik
il s
ir g
ĠB ach
Aus wahl
Ġd afÃ¼r
Ã¼ ler
ĠVerwalt ungs
Ġb it
Ġspec ific
7 7
ĠK urz
ĠJose ph
Ġst re
p reis
ĠD DR
itz t
Ġmo dern
ĠAm ts
Ġerfolg reich
ik on
ann e
ĠK or
Ġcomp an
V or
ĠLe ague
te g
ur ance
Ġz usÃ¤tz
Ġ196 7
Ġwo hl
Ġph ys
ic ks
v ious
ĠSel bst
k n
.. ..
ispiel sweise
I T
Ġh inz
zie h
Ġl ow
ibliothe k
ich en
ĠB Ã¶
Ġsh are
Ġget ting
Ġ196 6
Deutsch land
re icht
stell t
meister schaft
Ġle ft
ian a
ap s
ikan ischen
Ġheut igen
ĠG Ã¶
ak er
ĠRo ck
or den
ĠE hren
sch lag
Ġst yle
Ġmaj or
Ġ193 3
ĠG od
d in
Ġim p
Ġcal led
t ler
ro du
ĠA kadem
ĠSt Ã¼ck
hl en
ĠW ochen
Ġoff ic
al tet
ist ik
Ġs og
ĠBay ern
ĠW irtschafts
fÃ¼hr er
ĠAuÃŁer dem
b an
read y
Ġfriend s
f ung
Ġse ason
Ġhand elt
ĠC la
Ġh om
ĠD istr
ch ter
Ġkn own
i i
arbeit en
Ġprov ides
ord nung
ĠSil ber
A mer
Ä ģ
Ġdan ach
s burg
Ġf ar
Ġl im
Ã¤ch lich
s eit
ĠProdu kt
ĠVerein igten
rich ten
Ġl at
ĠHerz og
ut ure
Ġver t
âĢľ )
ĠlÃ¤ sst
Ġwen ig
f a
ĠR und
Ġth ing
ien s
Ġsel ect
h men
Ġl og
Ġdam als
ilit ies
id a
ĠIn nen
Ġto ol
Ġme ans
ute t
Ġrequ ire
Ġihn en
ĠEng land
Ġbe vor
ĠAss oci
g Ã¤n
un sch
ĠDe c
ĠB u
Ġso gen
Ġ196 5
Ġbeste hen
ĠE t
ic y
Ġtechn ology
Ġpo int
Ġentsp rechen
ettbe werb
ĠN Ã¤
v oll
Ã¼r d
Ġzur ueck
Ġt alk
Ġc amp
Ġzahl reiche
z ir
Ġvorhand en
' ll
Ġ196 4
Ġres ult
ĠR ud
ĠCh or
Ġ193 9
H er
ĠM Ã¶glichkeit
em in
ze uge
ict ion
n ach
Ġdah er
m o
em ents
ul a
og n
ĠO s
weg ung
ĠReich s
werk e
ĠJohann es
Ġin n
lan zen
O S
Ġ196 2
r or
Ġw atch
ĠM ac
i od
ĠBr on
ch ester
ĠDre h
ĠR ob
gesch lossen
pla y
ĠJ azz
ĠfrÃ¼ her
m ost
Ġco up
ĠkÃ¶n n
Ġapp ear
ĠIn stit
Ġeigen e
ĠS ant
ĠGe orge
led ge
ĠS achsen
de ck
Ġide as
ĠB ot
is c
Ġl iving
Ġf al
Ġstar ted
ĠS ub
Ġte xt
ĠA v
ges ellschaft
Ġn ie
ĠJ ames
Ġd one
Ġst ory
Ġd ien
ĠP et
" .
b ack
j e
s eite
0 5
Ġzu dem
th rows
Ġbl og
ĠP rÃ¤
ĠKarr iere
ung sp
Ġan n
ĠVer kehr
Ġzw ar
ĠGe f
b s
ĠL u
Ġ194 0
sp rach
re ibt
Ġl ag
Ġ193 8
ide os
Ġjed er
3 4
ĠH in
bar en
b or
ent in
Ġr en
Ġen er
u hr
im s
Ġentstand en
Ġ ung
ge hen
ĠE ing
ab y
an ischen
Ã¼rt temberg
G em
ĠB y
Ġpriv ate
ÃŁ t
ast ic
ĠH ers
Ġst at
Ġletz te
Å Ĥ
ic ro
Ġbest imm
al ys
ĠI l
ĠFl uss
Ġd eb
un ge
ish ing
Ġbie tet
b ra
re w
Ġm ass
Ġ( =
m on
es ted
ĠCh amp
ĠRo y
b ung
ĠJ ack
ĠRei he
es tern
Ġm om
ge fÃ¼hrt
Ġbuild ing
Ġmember s
Ġde utlich
ĠM iss
ĠF el
Ġerw Ã¤hn
ut or
ĠPre m
s uch
ec ted
ad urch
it en
ier ungen
ĠChe m
M et
ĠC enter
Ġam er
ĠEr folg
Ġw oll
arr iere
ĠSal z
Ġchar ac
ĠS yn
ĠR ot
Ġ7 0
eh men
ag s
ĠMus ic
ĠJe an
mb H
Â ²
M ed
ĠA p
Ġer klÃ¤r
ĠBevÃ¶lker ung
b ol
Ã¤ chen
Ġ Ã¤hn
ĠE igen
Ġbu y
ĠRe al
ĠStud ien
ĠR os
ĠC D
Ġal ready
ĠSie d
Ġ194 4
ĠgehÃ¶r en
âĢ Ķ
Ã¤d ag
m as
ĠSe x
v est
ĠB ilder
Ġbe ispielsweise
ĠG i
Ġabs olv
7 9
ame ister
geord net
ĠSt ar
Ġbefin den
Ġwicht ig
fÃ¼ ll
il er
Ġup d
ĠC amp
c is
ĠB aden
ĠA ward
Ġe urop
Ġ196 1
Ġrel ations
Ġb ath
ĠSt ates
Fernseh serie
Ġ19 20
c ome
ĠT ab
o int
Ġwel ches
mÃ¤ÃŁ ig
st ant
Ġdesign ed
Ġb lack
Ġp urch
Ġ195 8
ant wort
Ġso zial
Ġall es
Ã¤l fte
el eb
Ġun ique
Ġpropert y
ĠR ein
z us
Ġsoll en
ĠWh at
Ġpop ular
ĠA k
Ġsp ace
in ts
ra el
c ent
Ġc ent
ern en
ĠAn n
Ã¤l ter
ĠGen er
Ġs en
haf t
la w
ĠE ben
en burg
Ġ195 6
Ġcol or
r ies
at um
Dies e
Ġkit chen
ikan er
Ġf ield
rie f
a un
Ġ195 2
it ch
sch eiden
Ġre port
Ġp ie
ĠK ons
cript ion
Ġman ufact
os sen
Ġzu vor
ĠK rit
Ġfol gte
Ġw a
ĠMit glieder
ient en
Ġw ahr
Ġh ours
Ġ195 9
rol le
Ġloc ated
v an
Ġ196 3
ĠGr uppen
Ge ographie
Ġschn ell
Ġsich er
ĠA ben
ĠG eld
ĠAustr al
ing t
Ġe arly
Ġre gel
Ġgef unden
em b
Ġh Ã¶
Ġret urn
ĠServ ice
b are
on ne
it a
ĠZ um
Ġne ar
âĢ ĺ
o unt
r am
ĠSie g
Ġsim ple
isse ur
v is
W est
l ant
ĠB al
ub le
Ġcustom ers
Ġcompan ies
ĠW enn
qu e
etz ung
r as
r unde
av a
ĠÃ¶ff ent
Ġl ik
Ġhe i
Ã¤nd ern
ĠGe ist
d i
Ã ¢
ĠK ategor
Ġcomple te
Ġs ug
Ġ9 0
ĠJun e
ĠHann over
Ġf alls
Ġm ethod
P ar
ungs k
Ġh uman
Ġem ail
ĠRep ublik
Ġpartic ular
ĠS telle
Ġc ard
ĠBerlin er
b ten
A ll
y a
ĠD ate
ĠSp iele
schlieÃŁ lich
Ġj etzt
ĠA ct
Ġauf genommen
ĠHer mann
Ã¼s se
ĠVors itzen
Ġso ur
Ġ193 0
ens ion
Ġgen utzt
Ġges p
br uch
nd er
ĠM aterial
Ġw issenschaft
) ;
Ġman agement
Ġer k
Ġsch rieb
ĠHal b
ell s
ring en
ĠLou is
ges ehen
. <
onst ru
Ġadd ress
6 6
ang es
Ġwen iger
Ġtyp e
Ġproble m
ĠgrÃ¶ÃŁ ten
ĠGemein den
o ught
Ġg ames
par te
Ġdisc uss
ĠA tt
for sch
te xt
ide d
E M
ĠW ash
Ġer Ã¶ff
o o
av en
Ġver sch
air s
auf en
esten s
ĠE du
Ã¶r m
ĠK an
p ut
ĠBru der
ĠG mbH
ĠPr es
ĠC an
Ġre por
Ã¤t igkeit
at ers
ze hn
ak te
Ġb in
ĠK ing
Ġsom it
Ġd oc
geb ie
tra ct
l ad
Ġst ay
sch iff
ĠK Ã¶rper
Ġac count
Ġcl ick
an lage
w ind
ent wicklung
Ġle g
Ġ4 5
Ġvar ious
Ġw alk
ĠAl le
ĠT her
ik al
Ã ľber
om b
Ġbes ten
Ġte ach
Ġer reicht
leit ung
8 4
Ġm illion
geb ung
o den
Ġh istory
Ġein igen
res h
8 7
Ġg an
Ġcont ent
Ġent hÃ¤lt
Ġinc re
Ð °
ĠBes uch
Ã¤ ÃŁ
ĠW eiter
w asser
k i
is p
ir che
r ig
Te ilnehmer
ĠÂ »
Ġs n
an cial
Ġk lass
ĠPhil osoph
ĠG est
Ġch allen
ĠPh ys
Ġn ichts
ĠF ort
ĠO pen
we gen
Ġen ough
w esen
Ġlie gen
ach ten
ww w
Ġstell te
stre cke
Ġmonth s
itu ation
g round
Ã¤t zen
Ġ Å
ĠO ct
ran ge
Ġs tellt
Ġen vironment
ĠĠĠĠ ĠĠĠĠ
Ð ¾
ĠMed ien
Ġcert ain
ift ung
ĠOt to
ĠC ommun
Ġor ganis
Ġfr ont
Ã³ n
Ġp ur
Ġgen au
v in
ĠD eb
ĠG roup
ang s
ĠC r
Ġbe teil
ier ter
ĠP lat
Ġre pr
Ġver lie
ĠN ow
Ġteil weise
e g
ĠAr mee
ĠHo tel
p rÃ¼
as er
Ġo p
Ġo thers
ĠSer ie
Ġcurr ent
er ing
it sch
enn ung
i ar
ĠF ac
in ge
n ers
w esten
he ira
et ten
itz er
m od
5 9
ĠT est
ĠEr sten
aup ts
Th ere
ĠWerk e
A nd
d am
ang er
Ġeng ine
ĠMÃ¤n ner
b ro
fin ale
Ġstud y
Ġcomp et
Ver lag
ĠW issenschaft
Ä į
S h
k an
ĠW ein
k el
ĠL Ã¶
Ġth ought
ĠEr d
Ġ5 00
Ã¼l t
ĠI D
so zial
b ook
ĠB ook
ag ing
p el
le iter
och e
i ents
Ġwh ite
ick en
ĠHer ren
g ere
re m
ĠT ele
ĠÃ ľ
Ġ194 6
Ġnach dem
ile d
b esch
b Ã¼rger
Ġw on
Ġm iss
ĠF und
ĠL iga
fol ger
p ark
ĠY our
ĠAuf trag
Ġdam al
ĠL age
ĠUn ion
Ġ194 8
Ġl ate
Ġl ar
ĠZ Ã¼r
Ġ195 7
amer a
ress e
Ġflo or
ĠB ack
ĠR iver
ĠAkadem ie
Ġm ess
Ġindivid u
ir c
Ġw elt
le ment
la ger
ger icht
Ġinclud es
ĠNÃ¤ he
m useum
ĠA c
Ġk amen
ĠNach dem
ĠSp rache
Ġbef and
ĠJ ac
Ġ ill
ĠKl oster
Ġh ig
Ġn atÃ¼r
Ġon ce
ĠG arten
lie ben
Ġevery thing
an ces
ot a
Ġme an
ĠFre und
g liche
Ġc ame
ĠK raft
ĠHil fe
i w
Ġt able
ho ut
Ġf it
Ġfolgen de
Ġc ra
Ġres ults
f igur
or ies
ĠPhil ipp
ĠN S
ag t
ip ment
Ġbei de
Ġw onder
Ġtra vel
ĠEle kt
ĠK auf
ĠArt ikel
Ġsog ar
be zirk
fra ge
oll ar
Ġperform ance
f ten
ĠW alter
Ġcomp uter
Ã¶ hn
ĠAr ten
Ġele kt
Ġmehr eren
Ġtra ining
ĠW irk
Ġmach te
z iert
ig lich
el ten
Ġverb unden
if y
ĠWolf gang
ĠD res
ĠG et
te in
ĠK le
ĠN etz
ĠfranzÃ¶s ischer
ĠI d
k or
Ġs ays
Ã¤t ten
ĠP sych
Ġresp ons
ell ow
Ġ195 5
jÃ¤hr igen
Ġf ur
ĠAl bert
fe hl
zeug t
ĠVerb indung
k athol
en er
sp iele
ĠZ ust
ĠVer fÃ¼
Ġag o
ig in
ĠS u
Ġer ster
ĠBr un
T rÃ¤ger
ra in
Ġact ually
ĠG leich
ĠMe er
ĠM ass
k ret
iv il
Ġmin utes
h il
p ly
or gen
age d
F rau
p rÃ¤sident
ut zen
Ġdo ing
Ġentfern t
ĠH Ã¤lfte
Ġgleich en
Ġmed ia
it ar
ĠPro f
ir es
ĠAus bildung
Ġsome one
om et
lie d
af r
Ġbes uchte
A M
Ġ195 3
t d
Ġf uture
n es
ĠThe ma
letz t
P S
ĠA th
fass ung
e ign
U m
w es
ĠP il
Ġe conom
Ġoff ice
h inder
Ġm atch
im ar
Ġde al
t ritt
ĠB ud
rit z
Ġ195 4
ĠS in
arbeit et
ĠPolit ik
r al
yn am
d t
u a
sp ect
Ġgew esen
l im
or ie
ĠR and
Ġpre par
Ġfav or
r ation
ĠB ill
rÃ¼ ck
ĠGra nd
Ġexper ien
ĠR em
ay er
Ġj apan
k ap
Ġinv olv
av y
Ġcom par
at iv
iz ei
S port
Ġy et
Ġl inks
ĠSch Ã¼ler
gel Ã¶st
Ġauth or
ĠA st
ĠE U
la v
Ġto ok
T o
ĠF en
Ġ194 3
Ġt w
fahr er
wohn ern
k reuz
C hr
ch ie
ĠC ent
k unft
re p
Ġm acht
ĠV iel
, "
ĠStre cke
it ure
Ġan no
ĠVer m
ca dem
Ġam ong
ieren den
ĠL im
E T
a dem
as en
ot ball
Ã¼ss eld
f ield
ĠM ess
ĠF ern
ĠF le
um ents
Ġcomm on
ĠWash ington
no ten
k und
ĠD ay
Ġs ett
Ġc op
ĠL og
Ġso ftware
0 6
ĠS omm
ĠN et
Ġin de
Ġs il
ĠP op
S etzt
Ġvoll stÃ¤nd
im ate
W hen
Ã¤hl en
ĠEl tern
ĠI hnen
ful ly
ĠW and
o id
Ġquest ions
rie ch
l ow
ĠHer aus
Ġrest aur
ge hend
Ġex tre
Ġbre ak
ĠAlex ander
ĠJ es
Ġan schlieÃŁend
Ġherv or
Ġa ud
ĠS ym
rie ges
gr Ã¼
Ġakt iv
ut her
ĠNach t
lÃ¤ ss
Ġle icht
Ġdid n
Ġgele gen
ĠIs land
sch riften
w art
ĠR en
O ur
us st
p age
Ã¼ hle
Ġmod el
Ġf urn
Â °
ug hout
ĠDown load
p lat
ing les
==== ====
ĠFin anz
Ġpos ted
ĠK ampf
ot te
ik o
ĠMa ÃŁ
tag s
ĠE st
A t
Ġ194 9
ze ugen
ifik ation
5 6
Ĥ ¬
ĠauÃŁer dem
Ġd ate
ĠF rie
Ġsetz te
H and
er ie
Ġs ale
Ġer ziel
ran t
ĠChar les
ĠMo unt
Ġbe deut
Ġ194 1
ĠursprÃ¼n glich
7 2
ĠD oppel
Ġcom fort
ail y
vent ion
ĠDan iel
Ġaus gest
ĠA uÃŁen
ĠW ol
ges tell
wert ung
s ie
ĠL Ã¼
we isen
C D
ĠL aw
8 3
il ian
z i
ĠA G
Ġunter stÃ¼tz
ren g
meister schaften
Ġd ivers
ĠC up
Ã¤t ter
Ġ194 7
l iste
Ġf il
ĠBe zeichnung
olog ischen
Ã¼ ste
Ġh old
ĠL icht
ĠDenk mal
ĠD or
ra chen
Ã¤ch s
ĠS old
Ġare as
m und
Ġth er
ĠRe gen
Ġa ge
ĠS Ã¤nger
mal er
ĠOr gel
fl ug
Ġrec ommen
M an
Ġev ents
Ġin form
ĠA re
ĠA cadem
ad s
ĠKÃ¶nig reich
ĠBahn hof
at ten
ip le
bo ard
ĠComp any
hr t
ir th
ĠStud ium
Ġre cht
st a
ĠR unde
Ġw ent
Ġsystem s
ĠA fter
il ien
P r
b ie
Ã ¸
eb ook
ĠUnter stÃ¼tz
ĠverÃ¶ffentlich te
ĠZeit schrift
Ġf und
ot ion
ne ter
ĠMit arbeiter
Ġho he
r uf
ib ility
li ents
Ġt aking
ow jet
Ġle ader
ĠSt amm
olog ische
wie gend
ame ter
Ġam az
ĠSpiel en
ĠW ort
f ar
if en
ste hen
Ġs ong
iden ce
Ġprofess ion
\\\\\\\\\\\\\\\\\\\\\\\\\\\\\\\\\\\\\\\\\\\\\\\\\\\\\\\\\\\\\\\\\\\\\\\\\\\\\\\\\\\\\\\\\\\\\\\\\\\\\\\\\\\\\\\\\\\\\\\\\\\\\\\\\\\\\\\\\\\\\\\\\\\\\\\\\\\\\\\\\\\\\\\\\\\\\\\\\\\\\\\\\\\\\\\\\\\\\\\\\\\\\\\\\\\\\\\\\\\\\\\\\\\\\\\\\\\\\\\\\\\\\\\\\\\\\\\\ \\\\\\\\\\\\\\\\\\\\\\\\\\\\\\\\\\\\\\\\\\\\\\\\\\\\\\\\\\\\\\\\\\\\\\\\\\\\\\\\\\\\\\\\\\\\\\\\\\\\\\\\\\\\\\\\\\\\\\\\\\\\\\\\\\\\\\\\\\\\\\\\\\\\\\\\\\\\\\\\\\\\\\\\\\\\\\\\\\\\\\\\\\\\\\\\\\\\\\\\\\\\\\\\\\\\\\\\\\\\\\\\\\\\\\\\\\\\\\\\\\\\\\\\\\\\\\\\
ĠF ree
ĠSp r
Ġf ert
Ġdoes n
b ischof
u ed
Ġgeb aut
ĠAssoci ation
f Ã¤h
Ġle ast
Ġgo vernment
ĠDies es
zentr um
7 1
te ten
Ġnew s
ĠDam it
eit et
ĠT eile
Ġwrit ing
ĠFe uer
Ġstr ong
Ġiss ues
0 8
b aum
c up
ĠwÃ¼r de
f rei
Ġb ad
Ġsch wer
aler ie
Ġhal f
Ġener gy
ĠH essen
ro t
ĠW all
eit her
Ġ195 1
Ġass ist
ĠN ik
Ġ17 9
Ġd ue
k et
Ġh ope
ĠGra b
ific ation
Ġr icht
Ġf ive
ĠF Ã¶rder
Ġlat est
be ck
S S
c m
Ġre ason
Ġw id
he t
le ge
ĠV og
0 9
ĠU s
heira tet
ĠH Ã¶r
Ð µ
gen cy
ĠKomp onist
o der
Ġ3 6
w irk
Ġ193 6
Ġar r
Ġapplic ation
G es
z we
ĠBas is
Ġpartic ip
olog ical
press ion
ĠC le
Ġab ge
Ġaut omat
at ors
end es
Ã¼l ler
Hoch schullehrer
mer k
Ġres our
ĠD ach
Ġgem acht
r ug
ĠT ier
geb ot
Ġad min
Ġwho le
ed en
ĠPr inz
Ġ193 4
ĠArbeit en
us ion
Ġse en
iz es
gew iesen
all ow
ad a
Ġcolle ction
e ded
ï ¿
Ġv ia
os ph
ist ic
Ġ3 2
h istor
Ġd ritten
Ġnatur al
Ġf rei
Ġuns ere
âĢ¦ ]
Ġdetail s
il det
ĠM ein
Ġver d
ĠMar ch
ĠC our
ho ben
Ġ194 2
c i
w h
ĠB d
ĠM ond
ĠBe griff
ig ungs
Ã¶ ll
ĠBe k
18 6
ann ing
ĠFrÃ¼ h
ĠT om
Ġ193 7
ĠgrÃ¼ ndete
et y
Ġre d
Ġger ade
Ġabsolv ierte
st ud
ĠP lease
Ġfe ature
ï¿ ½
ĠD okument
ĠF uÃŁ
Ġhe art
Ġbes itzt
ĠL os
Ġpr ess
0 1
ur al
Ġp ersÃ¶n
Ġcho ose
ĠGeb ie
Ġho hen
ĠerwÃ¤hn t
Ġg iven
ĠC am
ct s
W ir
ĠSoc iety
ĠReg ierungs
ĠSc ience
z immer
ĠProdu ktion
ĠVerfÃ¼ gung
p aper
ĠS Ã¤
ĠFest ival
Ġge d
Ġwei ÃŁ
Ġal most
ymnas ium
is es
Ġto ur
20 18
Ġp aper
ĠK osten
Ġsel ten
ĠBÃ¼rger meister
w ill
ich e
erv e
ĠJ er
ĠPla y
ĠL eiter
ĠV ideo
ĠAl b
1 00
ĠZÃ¼r ich
a ill
ĠU p
ec ially
re cher
ĠfranzÃ¶s ische
ĠJose f
Ġge k
ĠLe hrer
ĠUnter such
ĠZu ge
ĠDan ach
ĠS S
ĠW as
ĠU K
ĠNach folger
Ġper iod
com ing
Ġhtt p
ur a
ver walt
ĠBl Ã¼
Ġj oin
ĠFol gen
ĠT on
h ib
Ġin tegr
om ot
ĠO f
ad o
Ġentwick elt
Ġclos e
ĠH eid
ĠD Ã©
Ġk osten
N ew
z og
Ġne g
Ġex ample
imm ung
f Ã¶rm
de ckt
Ġc eleb
bl ick
Ġide a
ĠsÃ¼d lich
g ien
Ġd istr
Ġb i
Ġp osition
Ġne un
ite te
Ġsel ben
Ġs ym
Ġc la
re y
ĠP DF
ĠSt ock
Ġsp ielt
Ġihr es
Ġk einen
ĠGo ogle
ab eth
Ġreg ion
Ġ Ã¤lter
ĠK unden
Ã¤nd ert
Ġsoll ten
Ġpol n
ie ur
ĠRe ad
k unde
Ġ Ã¼b
Ġor iginal
amil ie
ĠKÃ¶nig s
Ġf ul
ĠP unkt
ĠSt il
8 2
Ġt it
p ol
on ie
re ten
Ġp ick
unk ten
Ġst aff
ĠForsch ungs
or ed
ĠT it
per atur
ĠnÃ¤ch sten
Ġhe ira
Ġsel f
hand lung
c ol
Ġd iff
Ġt ax
Ġp lat
Ġsch loss
bin ation
ĠK as
Ġen c
Ġopt ions
Ġs ites
ĠHow ever
ar th
ĠD Ã¼sseld
ict or
i ro
Ġre ach
or es
or te
ĠVer d
Ġj Ã¼d
ĠRoy al
Ġj a
l ern
Ġh ot
7 4
f unk
r hein
if fen
Ġthro ughout
ĠF igur
Ġl ater
Ġb reit
Ġz erst
ĠSch Ã¶n
Ġm Ã¶ch
ĠK opf
ell ent
ĠH ere
Ġknow ledge
Ġevery one
7 3
K on
sch au
zie hung
Ġehemal ige
an ted
Ġge ben
Ġw ww
Ġm at
ĠB usiness
Ġfun ction
Ġc rit
Ġab ove
ĠWien er
Ġh appen
Ġn ull
Ġcom mit
denk mal
f its
ran sp
ĠSchw er
f Ã¤l
l Ã¶sung
Ġpro b
ĠMat hemat
ĠM as
ĠFre ib
ĠM ult
ĠTr uppen
ĠGl as
Ġc m
ĠO ut
b ark
ĠW ass
ĠW ider
Ġme as
ĠBrit ish
Ġern annt
ĠC ap
ze igt
Ġes p
Ġ193 5
ĠZentr um
Ġv o
Ġcre ated
Ġre f
ic ation
Ġco ok
Ġb le
ĠRe ise
Ġbo x
Ġstamm t
. -
I ch
bet rieb
o on
omm ission
ĠAb s
zeit en
0 3
los e
ĠStadt teil
ĠOff izielle
ĠT w
Ġc as
Ġappro ach
0 2
Ġst ore
Ġread ing
he ad
ĠSt ad
Ġeben so
Ġbil den
ĠÃ¶sterreich ischer
wissenschaft ler
ĠEisen bahn
ĠPf lanzen
Ġnet work
ab les
i est
am ed
ĠW ild
hÃ¤lt nis
ĠH u
Ġunser er
Â »
lin ie
stell ungen
u hl
Ġw ide
ĠR ennen
ĠC ons
lichkeit en
ĠEngl ish
ĠEx p
g ers
R E
Ġcon stru
En t
ĠR at
ĠS ter
sch t
ĠL Ã¤nge
ĠHoch schule
N ational
Ġf ire
af fe
ĠÃ¼ber n
ĠSchl acht
zir ks
M od
ei der
Ġent halten
Ġqu ite
M S
p hen
Ġc lients
( )
is ted
th ough
ĠK ranken
ver age
Ġvers ion
S e
Ġs ens
Ġe p
Ġj Ã¼n
Ġum fasst
Ð ¸
Ġp le
ĠKant on
m ut
Ġv eh
sch uss
ĠEner gie
ĠB ig
Ġk athol
Ġra d
F l
iqu es
Ġphot os
rech end
ĠZw ei
Ġs ales
ĠT urm
ĠZu dem
ĠT im
ret ty
ve y
ar ed
et ing
ĠR Ã¤
ĠVer Ã¶ffentlich
ĠAmer ica
Ġvar iety
idd le
ok e
ĠMe x
fra u
abr ik
h i
z ip
ar f
ĠG reen
ren nen
Ġbu ilt
Ġwoll te
gr am
ĠKla us
ĠB on
or a
enn is
ĠnÃ¶rd lich
C H
ĠGes etz
ul es
ĠIn c
Ġfin anz
ĠPol en
Ġe her
Ġtra ck
Ġins urance
Ġto wn
re ise
ĠD ivision
ĠG as
ĠPh ot
Ġcurr ently
Ġpict ures
ĠKategor ie
u age
de ten
z Ã¤hl
ĠL ied
Ġmit tel
arbeit ung
Ġal te
Ġim ages
gr enz
Ġent ire
t schaft
ra uch
Ġl iter
ĠRe cht
hal ts
ĠNach bar
fall en
ĠStand ard
aus t
Ġproject s
ĠVert re
8 1
ĠK ra
ĠW erner
ĠV is
end s
ĠGes und
Ġd Ã¼r
ra te
ĠW ahr
ĠThe men
ial og
ĠEr fahr
5 3
ĠA ber
ĠL ive
Ġeinzel nen
0 7
r up
uf e
end ing
ĠÃĸ ff
ieren de
Ġweiter hin
us ive
ĠF rom
ie ger
ĠH an
ĠR a
ain ed
Ġcustom er
ĠDres den
Ġh ost
ĠO pt
ĠAus gabe
E L
ĠP unkte
ĠI T
ĠErgeb nis
G B
k au
Ġens ure
ĠE ast
do or
e ks
ĠS ar
Ġpict ure
v a
Ġar g
O T
Le gt
Ġm obile
Ġst ammen
iz ing
Ġreg ul
Ġrequ ired
Ġra te
Ġeduc ation
le cht
ĠM em
Ġins ide
ir it
Ġph one
A D
Ġt akes
ĠW el
qu al
ograph y
ĠRest aur
Ġa chie
Ġtra in
ĠEp is
ĠK ommand
Ġstand ard
Ġz ie
Ġread y
ĠLin ie
mus ik
Ã¤nd ig
ĠSte uer
Ġev angel
ers eits
ersp iele
x is
Ġs onst
ho use
il ar
Ġgen eral
ĠVers ion
ĠV oll
Ġpolit ischen
y th
ĠD ipl
Ġde ter
w al
Ġsim ply
ath let
Ġeinz ige
aus ch
Ġs we
ĠW in
Ġspe ziel
alys is
Ġwel cher
Jahr hund
u ary
end ung
Ġze igen
st aat
anst altung
au b
ĠVer gleich
Ġhe ld
Ġbil det
Ġequ ipment
rei he
Ġloc ation
spiel en
Ġf ace
rÃ¤ fte
ĠLe g
Ġerreich en
Ġsign ific
ad es
af t
Ġprovide d
W er
f Ã¤ll
t ime
ĠS ingle
ed ia
Ġ Ã¼
ig ner
ĠI st
Ġso on
ĠSchauspieler in
istr ation
ĠFir ma
w here
Ġre chts
Ġbelie ve
Ġindivid ual
Ġem pf
Ġver ein
ĠEin wohnern
rei ber
Ġproble ms
Ġtreat ment
Ġdar Ã¼ber
Ġ ut
ĠS tern
Ar ch
Z u
s ystem
Ġ19 19
Ġ19 14
Ġke hrte
Ġaktu ellen
Ġopportun ity
Ġpr int
Ġm em
ĠC lass
Ġne ues
Ġwall paper
I V
p ass
Ġlead ing
ĠMin uten
ĠPriv at
ĠT own
Ġge hen
ah nen
Ġbesch Ã¤ft
ĠfrÃ¼ hen
on ym
ĠVer eins
Ġest abl
Ġd og
ro ffen
Ġart icle
ie ÃŁ
ĠZusammen arbeit
f unktion
end orf
k ra
Ġ[ âĢ¦]
ĠInstit ute
z uf
as te
ĠPro t
Ġrec ently
ĠStre et
Ġplan s
Ġheira tete
ĠB a
ell o
Ġinternational en
ĠS ur
Ġp an
Ġbet rÃ¤gt
f alen
ĠGeb urt
ĠMan agement
Ġpar ts
an ken
Ġp ain
W ith
ĠA ugen
Ġal t
Ġre lig
ime ter
ĠKir ch
parte ment
Ġfin ancial
Ġpart y
ien ste
k arte
in os
Ġw hether
ĠSp ec
ĠB und
Ġp ark
all el
ĠCar ol
b i
mit t
ĠRud olf
orn ing
h ab
ĠEn ts
att le
Ã¤d chen
ic les
geord neter
iforn ia
Ġm ove
ĠVer l
Me ter
f ace
le tt
um er
ang ing
Ġverl oren
S tra
Ġd at
iz ier
ĠgrÃ¶ÃŁ te
Ġint rodu
g arten
b orn
Ġver heiratet
-- --
ĠL eitung
ip e
Ġsh ows
Ġcharac ter
C O
Ġ19 18
Ġge geben
ĠP ublik
Ġ3 00
Ge grÃ¼ndet
P f
Ġ Ã¤lt
Ġinn ov
v on
ĠM r
rep ublik
Ob jekt
Ġactiv ities
osp ital
as chen
Ġp sych
ĠH y
me hr
ĠSh ow
Ãĸ sterreich
Ġbath room
us es
Ġp aint
Ã¶ ss
Ġne eded
Ġrec ent
Ġled iglich
hockey spieler
Ġf iel
Ã¤ ten
Ġp oss
ade d
Ġbed room
it ts
ĠA ust
ĠPart ner
ĠEurope an
Ġf ra
im um
Ġse par
Ġesp ecially
a ktion
0 4
ĠSt unden
Ġgesch lossen
r um
ĠU N
ĠOr d
ĠHe alth
Ġoff iziel
Ġsec urity
Ġanno un
Ġstell en
un ts
ĠEx per
at ik
chn et
Ġass oci
ĠGrÃ¼nd ung
r id
Ġk ont
ess ion
ĠOr gan
Ġd igital
ĠK er
Ġmit tler
richt ungen
g ibt
ĠFran cis
ĠL ove
Ġun ivers
etz en
Ġabs ol
O ber
ĠPar te
âĢ ¢
ĠAut o
ĠRec ords
Ġfur ther
Ġ19 00
Ġquest ion
ĠAn g
mar kt
ĠChamp ions
ĠI nde
z ert
Ġf a
amerikan ische
c rib
Ġ either
Ã¤ cht
Ã¤r k
ĠI V
Ġus ers
neh m
ĠGÃ¶ tt
k y
ĠS ign
ĠV en
w urf
Ġge p
Ġco ol
Ġamaz ing
Ġb em
un a
om a
Ġso und
ĠHal le
ĠEv angel
ĠOct ober
Ġany thing
Ġh on
ĠRad io
aller y
b us
y es
ing ungen
Ġwo od
Ġt aken
at is
ĠUm welt
Ġp orn
ĠG attung
hen s
Ġw anted
zeich nis
Ġconc ern
Ġs ix
un s
Ã¤n gen
Ġus er
ĠOr ganisation
Ġad ded
ĠZeit punkt
Ġ192 9
Ġprodu ction
opp ing
Ġmind estens
Ġtot al
ĠUnterstÃ¼tz ung
sch ei
Ġj Ã¤hr
sel ves
h ers
Ġc ur
od es
pro chen
S V
al u
ĠJ ak
men te
Ġb lock
ĠF irst
ĠR itter
ist an
Pro du
h ing
ĠAn s
D es
Ġw ays
ĠW issen
ĠSp ring
C ont
on se
ic ult
ĠAnd reas
Ġerschien en
b is
d f
ĠD och
ain ing
ĠGr Ã¶ÃŁe
gew icht
Ġsk ills
ot es
Ġerfol gt
ĠV an
ĠEnt wick
Ġgesam te
ed ding
ĠNew s
ĠMod ell
Ġcoup le
Ġse em
In ter
Ġb ald
Ġpre vious
Ġben annt
Ġw es
ĠS und
at ory
Ġstra teg
haus es
west lich
Ġw Ã¤re
Ġk ids
Ġpre uÃŁ
Ġne uer
I P
Ã¼ ll
ĠIn vest
ĠRes earch
5 2
d s
le gt
ĠB il
Ġer he
ĠSt affel
ĠGott es
T V
w in
ann er
ĠB all
hal te
ĠNe ub
ĠJul y
ĠFin ale
Ġmarket ing
9 3
Ġm er
ĠL uc
ed s
ĠCh urch
k ur
s b
Ġhapp y
5 8
l ast
Ġr unning
we chsel
Ġro le
Ġlearn ing
u ert
mÃ¤ ler
ĠK op
ĠK ern
Ġben Ã¶t
E urop
Ġre pla
ele g
ĠWh ite
unc il
Ġo ben
ĠJ ung
ibr ary
u it
Ġm ix
ĠBe zirk
Ġrela ted
Ġvers te
ash ion
ĠfrÃ¼ h
Ġrece ive
E is
l ament
st Ã¤tte
Ġh air
6 2
ĠC ast
ĠEin fluss
Ġerh Ã¤lt
Ġfurn iture
5 7
Amer ikaner
Ġp retty
Ġco de
Ġausge zeichnet
PD F
techn ik
ĠH is
ĠL ake
Ġun ver
yste me
Ġ192 8
as c
Ġentwick elte
k omp
ĠH om
Ġch em
halt ung
C l
k le
Ġtro tz
Ġyour self
Ġprov iding
ĠfÃ¼hr en
ple ment
ĠF ass
Ġz ust
Ġre v
ass el
forsch ung
Ã¶ sen
Ġzahl reichen
Ġw ollen
re chts
Ġl on
ne w
gr uppen
zw ischen
5 4
y ear
nd en
Ġst ruct
Ġgew orden
ĠH art
ĠFra ge
ĠPol izei
Ġdiff icult
l ers
Ġ192 5
isch em
Ġ- -
ĠHand els
Ġa ction
ĠEr k
Ġne cess
Ġfand en
ĠDÃ¼sseld orf
B o
ell es
Ġd ro
ĠB onn
ĠLie be
r is
el berg
ad y
ĠKla vier
Ġb ud
un ion
fer enz
| }
ĠF ischer
ov ers
ĠFen ster
um Ã¤n
Ġcom ing
Ã¤hl te
Ġdien te
ĠAkt iv
ĠAn schluss
ĠBay er
ĠWind ows
g arn
Ġn ice
ĠZeit ung
Ġjed en
Ġd et
ĠMar y
unter nehmen
Ġgl obal
U N
ic ago
d y
Ġ rom
ĠFamilien name
h ips
w en
Ġh ab
ĠW ebs
we ig
fass te
F A
ĠG ut
ĠO x
Ġam ount
aut or
S te
el a
st anz
ian o
sw Ã¼rd
Ã¶ gen
Ġinsp ir
h auer
Ġer setzt
6 4
ig entlich
h agen
en ces
ĠKont akt
Ġbrit ischen
Ġhei ÃŁt
H ol
Ġt ell
Ġ193 1
Ġkn app
Ġm aint
ĠT ages
ĠAut om
ho od
Ġ193 2
Ġexp ect
onst ants
Ġdamal igen
Ġsignific ant
ĠA ch
pla te
Ġsub ject
kir chen
ĠBo x
w issenschaften
ĠAn na
Ã¤d t
Ġange geben
Ġcle ar
ist in
ĠAr ts
Ġnieder lÃ¤nd
al a
ĠZ uf
rat s
Ġin dem
ĠGr enze
it ial
ĠJ ud
Ġreg ular
ĠAcadem y
A G
ĠE th
Ġstud ent
5 1
ĠkÃ¶nn te
F C
ut n
ir chen
Ã¼r n
au te
ĠInd ustrie
E C
R uft
Ġst ock
ĠTra iner
at iven
ge hÃ¶r
w an
ĠP C
ĠR Ã¶
ĠAus wahl
b ased
Ġst op
zen e
Ġerh Ã¶
Ġs od
ĠL ife
op t
Ġaus schlieÃŁlich
I s
k r
Ġ4 00
ĠInd ian
ĠS ome
ĠI ll
Ġqual ifiz
Ġbie ten
ill ing
ĠUm gebung
Ġ192 7
Ġschw ed
ĠEle ment
Ġrece ived
ĠS ammlung
Ġth ird
Ġ3 3
6 3
Ġm m
Ġz uf
ĠV ictor
k lasse
Ġind ustr
W Ã¼rttemberg
Ġdr ive
ĠTex as
I L
v els
ul en
ĠEnt scheid
ĠVol k
ĠWer te
M L
Ġk rit
ĠSch les
id t
n amen
at tet
ĠB us
ĠIs rael
ĠN ic
Ġhow ever
ĠInd ia
K ultur
ĠSchw arz
ipp ing
6 9
Ċ ĠĊ
ar ts
ĠSch le
Ġsk in
Ġ Î
Ġzu letzt
fr ast
Ã¤ te
G er
ĠDe partment
ou ver
am ing
ad el
B A
M y
at o
Ġwe eks
Ã¤dag og
V D
sch auspieler
Ġacc ording
T ra
g le
ĠS C
Ġb al
ĠM aschinen
ĠE ss
ren ch
Ġmed ical
ĠCal ifornia
ĠT Ã¼r
ĠAl ler
Ġreg ard
Ġtry ing
an lagen
lie gen
Ġpract ice
Ġfal se
Ġs or
ĠM and
au x
Ã¤nd en
ĠVorsitzen der
ĠR h
ĠhÃ¶ her
verwalt ung
ĠAl ten
Ġdec or
Ġcho ice
Ġs yn
Ġs ummer
Ġde p
ĠSp rach
mittel t
D urch
an walt
Ġfin al
n ow
p ret
Ġ1 20
iel ten
ĠB ul
ĠG reat
Ġk aum
ĠAb schluss
c ast
Ġd adurch
ten ded
um n
Ġdes t
ub s
ĠFl Ã¤che
ar tet
ĠM ur
ĠM aster
Ġpr im
is ierte
ĠS onder
Ġo il
e ff
j or
r est
Ġwir k
for men
st att
asch ine
Ġbeh ind
v ing
ĠG ro
ier re
Ġch rist
Ġall ows
ĠT at
Ġph il
Ä «
Ġg re
Ġst ation
W erke
ste ad
ud es
ĠRel ig
ĠPres ident
Ġb lo
and a
Ġk om
ĠâĢ ļ
Ġbook s
Ġto uch
Ġwen ige
Ġverl or
lau ben
irg in
Ġs qu
ĠAr g
Ã© e
gemein schaft
Ġt old
ic ip
stand s
ĠÂ «
bark eit
Ġan z
ĠÃ¶ffent lichen
Ġg ute
se qu
hl t
i h
ĠSt ruktur
ĠCh in
ĠMed izin
ĠW agen
od or
se hen
ĠerÃ¶ff net
5 00
ist ent
Ġde g
ĠC at
Ġal tern
Ġver lÃ¤
Ġspiel en
K arriere
Ġc apt
Ġ3 9
mit glied
Ġem er
I nd
W enn
Ġk ennen
Ġinter ess
Ġgleich zeitig
ie fer
ĠN amens
Ġus ually
Ġexp ert
Ġc ut
bo x
Ġt rÃ¤gt
ens ive
Ġs le
ĠSchw ar
Ġper cent
swÃ¼rd igkeiten
ĠAr n
ĠLe icht
Ġsc reen
ĠKr im
ch ron
an ische
ĠS atur
ĠH ard
Ġrec ogn
f ur
v o
ĠA ud
Ġwir tschaft
Ġges tellt
t itel
ĠR ing
Ġzw eit
Ġoffic ial
Ġmom ent
u he
Ġc ann
Ġvor her
ĠMus iker
Ġlook s
Ġaktu elle
Ġbeginn t
ĠO k
uch ten
pp en
ĠM Ã¼ller
ĠD ann
ĠGer ichts
Ġf all
Ġout side
ĠBe im
ĠPort ug
ĠL at
str ument
he m
st all
Ġpr esen
ĠMo der
Ġpolit ische
Ġextre m
ĠVertre ter
Ġs ent
Ġ1 000
ĠAn schlieÃŁend
S T
g ab
p ossible
Ġdar f
Ġhinz u
Ġs etzt
ain er
Ġpra kt
Ġexc ellent
Ã £
19 45
Typ e
el la
Ġro ad
Ġex act
ink el
ĠspÃ¤ter en
Ġpl ant
an i
ĠG ust
Ġcont rib
schein lich
Ġbele gte
Met hode
Ġh or
Ġsch l
amerikan ischen
Ġphot o
Ġnor mal
ĠServ ices
ĠM erk
ĠK lass
ag d
Ġiss ue
allow ed
Ġf resh
Ġgu ide
Ã¼ss el
6 8
Ġt ele
Ġb ott
ger ichtet
med aille
ĠDire ktor
Verein igte
B ut
ĠD azu
Ġeas ily
wÃ¤r ts
Ã© s
Ġpot ential
ow a
Ġste p
ĠHerr schaft
fan ter
Ġ192 4
ĠMÃ¼n ster
20 17
ĠHeil igen
Ġmaterial s
ur er
Ġb esser
Ġz entr
um in
Ġer baut
ĠN ur
ond s
ĠFreib urg
Ġl ives
ber n
ul s
ĠWill i
H ow
p unkte
le g
sch lÃ¤
Ġprob ably
b as
ĠH D
ab il
teil en
rÃ¤n k
Ġgesam ten
b rit
Ġd ur
Ã¶ glichen
Ġehemal iger
_ _
Ġtyp es
ĠSm ith
Ġcontin ue
Ġm el
ĠW ies
Ġ3 4
V ers
ĠS amm
Ġb rachte
Ġit ems
spr ung
ĠAngel es
ĠT Ã¤tigkeit
Ġbe ach
rie be
Ġho tel
Ġ192 6
Ġfavor ite
Ã¶ ne
Ġch anges
ĠBre men
ĠDem okrat
b re
bo gen
P olit
Ġs ave
Ã¶l f
Ġhigh ly
Ġeff ic
ĠD rei
Ġcom mer
Ġcom ment
Ġpre m
Ġwest lich
Ġapplic ations
ist ry
Ġprogr ams
Ġjeweil igen
ĠWe ise
Ġmeet ing
ĠH ill
Ġdis cover
Ã¡ n
g u
ber s
ĠHo ff
6 1
st attung
Ġn immt
Ġemplo ye
ĠAben d
Ä ĩ
Ġer z
ĠAl fred
wind igkeit
ĠG re
heim er
Ġbeteil igt
s am
ĠL ager
Aus zeichnungen
setz en
ĠSt reit
Ġsour ce
ĠFac ebook
Ġd ed
fl Ã¤chen
ne e
ĠDreh buch
K omp
m esser
ĠE dition
ct ive
ĠMar c
jÃ¤hr ige
d aten
Ġm orning
om s
ĠN icht
ĠQ ue
Ġgleich nam
Ġble ibt
Ã¤n n
Ġrele ased
b a
k unden
Ġ Ã¶stlich
Ġin fl
Ġg lass
Ġbe ein
Ġsim ilar
h te
Ġm atter
Ġc enter
âĢ ŀ
Ġun mittel
ant as
Ġsol utions
Ġide al
Ġrepr esent
Ã¼ cht
ĠGegen satz
ic ated
ĠSch lag
Ġ| |
k om
Ġd ress
tern al
Ġopt im
Ġt ransport
Ġl ock
ĠVerkehr s
Ġg round
Ġle bte
en te
ĠM Ã¤dchen
ĠVer wendung
ĠIm m
ĠNational sozial
ĠFried hof
Ġdra w
b latt
ie ÃŁen
Ġne hmen
Ġsl ow
ĠRo ad
ĠFr iday
ĠS atz
Ġc aus
ĠG lo
Ġme chan
ĠHer bst
Ġsp ort
Ġgen ommen
umen te
Ġaddition al
6 7
I M
g Ã¤nger
Ã¶ p
ly ing
ĠPerson al
ĠGo od
Ġerziel te
ĠSold aten
E O
Ġdes halb
ĠOr iginal
ĠRuss land
r ick
ĠS ing
ĠL i
ren z
Ġany one
ĠGroÃŁ en
Gem einde
Ġbo ard
ĠG olden
Ġst reng
ĠStÃ¤d te
m ission
il i
ĠZusammen hang
uf fer
ĠFra gen
ĠDar stellung
f on
am at
av es
Ġincre ase
t a
or th
20 15
s erv
ĠLe on
ĠZeich en
er o
Ġh und
ĠDe velop
ĠBl ick
ĠPart y
ĠDÃ© partement
Ð ½
ĠI P
ec ut
ĠEs sen
ĠK enn
ĠCh icago
Ġ >
Ġw ords
ĠV o
ne ur
Ġd aily
Ġw oman
Ġver lieÃŁ
ĠBest and
Ġinclude d
Ġerm Ã¶glich
u elle
ĠD igital
Ġ19 10
lo ud
ĠLe x
U R
es h
ars teller
ĠBÃ¼ cher
Ã ±
ĠB ol
ĠL ok
Ġsh op
Ġcare er
ĠHen ry
ĠReg isseur
Ġin ternet
Ġp rÃ¤sent
ic ations
iv ity
Ġsie ht
Ġla unch
ĠG Ã¼n
Ġg riech
Ġans wer
om ie
Ġdo or
ĠM acht
Ġge fÃ¼hrt
Ġb ank
ĠAn lage
Ã¼hr en
Ġpr ices
Ġfol gt
ĠEng ine
aupts Ã¤chlich
h Ã¤user
ĠE ff
ĠH ei
Ġ19 12
ks am
9 2
ĠT ime
em e
ĠW ell
ĠL ab
Ġl aut
ail and
ma ÃŁ
au d
gra ben
Ġbede utet
c ation
Ġquick ly
at us
br idge
ĠBen utz
Gr uppe
l ingen
ĠT Ã¼b
ĠFe hler
ĠWeit ere
le gen
ĠD at
Ġwork ed
Ġverb reit
A uch
ho den
Ñ Ģ
ĠM un
Ġis n
ĠSp Ã¤ter
A ug
w ell
Ġr isk
ĠWe hr
ien en
Ġrec ord
Ġ192 3
Ġgra du
Ġtool s
Ġb irth
spr uch
ĠErz Ã¤hl
N ame
Ġw in
Ã¼ ge
la in
fr ont
lÃ¤uf er
Ġsol ution
hol z
ĠRep ubl
Ġw ord
ĠD enn
ist rat
Ġle ave
s ur
Ġb us
pr ise
zeich nete
Ġzun ehmen
Ġpubl ished
N eben
n itz
Ġde ep
ian ce
ĠRev olution
ĠzusÃ¤tz lich
kret Ã¤r
pend ent
ĠF ernse
ĠF ritz
ic kt
ĠFÃ¼r st
Ġwrit ten
r ang
ĠD isk
os h
ĠPro zess
ĠBes te
ĠUnternehmen s
ĠvollstÃ¤nd ig
ĠH ir
ach im
ĠgroÃŁ er
Ġausge tragen
B and
as ten
le gung
Ġh ielt
ĠP rom
sp e
ĠSchw ester
ĠAd olf
or et
ĠS us
ikan ische
ĠFr ont
Ġges etzt
le b
ver lag
Ġex tens
s a
Ġre lease
ĠMen sch
Ġgrow th
Ġb and
ig ungen
itt ing
Ġgesch rieben
ĠC anada
Ġle bt
ĠChrist mas
ĠArchite ktur
Ġgirl s
v i
on ial
ar io
Ġv ideos
ĠHo hen
Ġmus sten
reit ung
ĠForsch ung
Ġinter ested
ĠJan uary
Ġitalien ischer
Z ur
ĠE very
ĠV ize
hal le
ĠFl ugh
Ġel se
ĠMon ate
Ġsaf e
O C
Ġf ix
ĠH aut
Ġfor ward
org ung
stÃ¤nd e
= "
Ġf irm
Ġaus gew
Ġse ems
inn ing
Ġplat form
ie gen
Ġwar m
Ġent w
ul pt
ĠChar akter
ĠN ummer
au ern
Ġpro f
ĠSp anien
Ġ3 8
ĠZ entral
urn ier
ĠHaupt stadt
ĠS Ã¶
ĠL ong
ĠY ear
ĠAt lant
ĠS at
ĠA sp
lin ge
schaf ter
Ġsu it
por ary
ĠAuss tellung
ĠDeutsch er
Ġprom ov
laub t
ĠBild ung
B undes
Ġs al
ĠL Ã¤ndern
Ġimp act
K l
S P
k ampf
O M
S C
Å «
ist isch
az in
Ġplay ing
Ġverm utlich
N ieder
ik ation
ver fahren
Ġpie ce
9 8
O L
ĠW ork
ĠChrist oph
ĠQu ellen
res p
ĠunterstÃ¼tz t
Ġpurch ase
hil fe
ĠB rown
ĠR enn
Ġst ieg
zie hen
gemein den
Ġhistor ischen
Ġstor age
F rank
an cy
Ġin j
Ġl oss
ak ers
ĠPrem ier
v ant
em ble
ct ors
utn ant
G en
Ġd om
an ischer
Ã¤ um
ĠH on
m l
Ġd omin
Ġbe ge
ĠJu den
Ġwelt weit
B ahn
il a
ob by
ĠĊĠĊ ĠĊ
aly se
Ġarch ite
Ġch ines
ĠK ult
Ġg old
Ġg reen
W Ã¤hrend
g ner
p ose
ĠE ll
sp rache
Ġsch ed
ĠBer eits
Ġcond ition
Bau werk
Ġlik ely
G o
imm el
d om
in ation
Ġt un
ĠP fer
la f
er er
Ġb ere
Ġch arge
Ġfol gten
Ġcor re
Ġc redit
Ġg ives
Ġde f
d ire
s telle
Ġn omin
ĠPro p
Ã ´
ĠCo uncil
Ġ4 8
rif f
s m
Ġpr ior
Ġ15 0
Â ®
Ġdis play
w ir
y c
os ed
Ġnot wend
Ġup on
Ġeffect ive
em pl
ien ces
Ġs ah
ĠB ist
il led
ent y
ot o
Ġmov ie
un i
Ġf uer
ĠK olle
Ã¼r gen
Ã¤ss er
Ġresour ces
ĠS om
ĠBl ue
Ġsug gest
D P
j i
ĠAn th
ultur al
Ġf ig
Ġr ather
Ġbrit ischer
Ber lin
o z
Ġc irc
ĠR aj
Ġimpro ve
Ġc oll
Ġl os
ĠSt immen
Ġverkauf t
9 4
Ġlang uage
Wh at
P reis
ĠH istory
Ġre fer
tra iner
Ġdurch gefÃ¼hrt
ĠAb teilung
Ġbet rieben
wer ks
Ġpol icy
r Ã¤t
Ġd ig
Ġl ic
t i
w Ã¼r
Ġp rÃ¤
20 11
ĠBeruf s
ĠÃ¼bern ommen
Ġpl us
Ġdec ided
ot ing
ate ur
rÃ¼ cken
ĠÃ ī
ail s
ĠHe er
a ign
c ement
ĠS y
ĠT schech
Ġbesch rieben
ĠTechn ik
Ġcond itions
T r
ch ange
ĠL et
ek ten
ĠSo ftware
ĠPap st
Ġwrit e
ĠM icro
Ġc at
Ġl angen
Ġwe ight
ch em
ĠE re
Ġver hinder
Ġso fort
Ġent lang
Ã¼n ft
Ġje de
Ġgesch affen
Ġarbeit en
Qu ellen
ĠP ower
Ġ19 13
eich er
200 8
Ġhand s
Ġgra ph
Ġsogen annten
ak s
Ġmach ine
utt ing
k rit
Ġh auptsÃ¤chlich
F in
S Ã¼d
k raft
Ġh uge
Ġdes crib
Ġro und
Ġhig her
N A
m ore
re u
Ġp ool
ĠO ver
Ġver z
ĠIn form
au ber
ĠSomm erspiele
2 000
ow ski
lie der
Ġser ious
Ġbring en
Ġw ohn
Ã¶st lichen
Ġander er
ĠBlÃ¼ ten
C on
Ã¼ gen
ĠM att
Ġall ein
Ġv ac
Ġm ot
Ġv ari
Ġst aat
Ġse ek
ĠKinder n
Ġrem ember
Ġopt ion
ĠComp uter
Ġsaf ety
is ation
ron ic
Ġpo ints
ĠHein z
ĠWo od
ket ball
t or
ĠS owjet
sp ro
ĠVer halten
Ġsch Ã¶n
gra d
Ġreview s
Ġask ed
Ġrelat iv
ĠL ind
Ġup load
Ġpar ents
ĠFo und
b ul
Ä ±
Ġl if
ĠBesch reibung
Ġlon ger
Z eit
ĠVer teid
Ġpart ners
ĠPhilosoph ie
Ġrecommen d
ĠP rÃ¼
ĠK urt
ĠL ieder
iss ert
ĠAustral ia
h och
Ġcommer cial
s itz
ĠS icht
ĠM ach
ain e
Ġtr ip
ĠL aur
ies ter
los en
Ġsow jet
ĠTra dition
Ġregel mÃ¤ÃŁig
ĠS upp
el er
ist ol
ĠVer fahren
20 10
ĠNatur schutz
Ġful ly
em a
et ts
ĠR am
Ġab ility
ĠÃĸ l
Ã£ o
Ġm eine
kt ions
ĠS um
ĠL ink
ann a
Sch wei
ad rat
Ġdevelop ed
ĠW irtschaft
20 16
ĠAuf stieg
ĠM ik
ĠAl so
Ġter ms
ĠJak ob
Ã Ħ
ig ation
ĠZ usch
ĠAm az
Ġatt ention
Ġbene fits
ar es
denk mÃ¤ler
ĠMÃ¤n n
ĠHome page
Ġrelations hip
B l
R A
ĠVer kauf
Ġ192 1
eit ert
Ġim m
Ġle gal
Ġ192 2
For mat
Ġ ult
Ġpat ients
erke hr
ĠSicher heit
ĠSatur day
brit ann
ĠF arb
sel ben
ĠÃ¼ br
S c
l uss
Ġm ilitÃ¤r
Ġun abhÃ¤ng
Ġwir kte
20 12
ĠFran ce
j j
u ted
Ĩ Ĵ
ind ungen
ĠMar ine
Ġbest immt
ohl en
ct ing
Ġinc reas
b ibliothek
r enn
ĠL oc
ĠV irgin
our ce
Ġwieder um
lei ben
Ġorgan ization
y an
ĠHÃ¶ hen
ĠK ammer
ĠH it
Ġan im
ue ber
ĠBo ard
K reis
V erkehr
Ġd iv
Ã¼ hm
Ġk anad
Ġgan ze
ĠHeid elberg
Ġd ient
ĠH uman
Ã¤hr t
ree k
b our
ĠL ig
age gen
ph one
Ġwonder ful
c ul
Ġs end
Ġan alysis
Ġ6 5
vers e
h old
ĠW ettbewerb
ĠC ra
and en
Ġresp ect
ĠKap elle
y t
Ġf air
ro id
ĠV iew
Ġwer de
geb nisse
ĠErgeb nisse
sie he
le icht
ach s
Ġbeen dete
Ġplay ers
gy pt
Ġrequire ments
O ne
R es
Ġd unk
eich ert
Ġeurop Ã¤ischen
A utor
L iste
Å Ļ
Ġa verage
ĠS uche
Ã¤ ische
ĠEl is
pl ant
w ide
ĠAn gaben
Ġsp Ã¤t
ied lung
baut en
Ġtradition al
ĠVier tel
ĠSund ay
u ell
ĠC ho
ĠU rs
Ġfor mer
ĠSch aus
Ġgo al
ĠTeil nehmer
brÃ¼ cke
ĠD arm
ĠR osen
ag te
ĠPe ters
ĠBau ern
ĠS onn
ĠD et
ĠW ander
ĠN Ã¼rn
Ġth ous
ĠOr dens
chn ung
ĠSpec ial
r Ã¶
ĠL ux
Ġe igentlich
ĠAuf t
or der
iti ative
Ġw ish
le ger
ow ers
ĠGÃ¶tt ingen
Ġh um
ei ge
Ġpos itive
E l
P re
m ine
Ġver k
unsch weig
ess el
ĠZ immer
lan gen
ĠSc ott
ĠStat us
geordnet en
9 7
at al
re te
th ur
aut en
ĠHistor iker
Ġsuccess ful
Ġdoc ument
Ġh Ã¤tte
Ġc ross
ĠBe zirks
Ġs ort
Ġzw Ã¶lf
Ġje dem
ĠKarl s
anstalt ungen
n ummer
ĠP or
Ġer forder
ĠÃ¼ber wiegend
Ġsei en
ĠJac ob
E P
l Ã¤nder
Ġw ider
ĠS V
ĠBr as
ĠIs lam
ot ten
erk unft
gew and
ĠPat ienten
Ã¶rder t
ed y
ul y
ff ee
Ġent ry
d ate
ĠSch rift
ap ie
St adt
ĠW issenschaften
Ġgew innen
ĠBas el
ĠHinter grund
k opf
p ers
Ġd Ã¤n
ĠY o
Ġin tens
ĠM ost
ind est
Ġ4 2
por ate
Ġpat tern
9 1
d r
ar ter
Ġle gte
Ġweiter er
ĠNieder land
Ġwicht ige
B esch
Ñ Ĥ
ĠA cc
ĠB la
ĠD etail
ce p
ĠPr im
Ġreg ister
minister ium
S piel
Ġv iol
ĠG irl
ĠR og
Ġor igin
20 14
ĠStud io
ĠDec ember
ĠTÃ¼b ingen
is er
Ġder zeit
ĠE hr
ĠNe ue
Mus ik
Ġsod ass
it ation
Ġor ient
ĠInd ustr
ĠNieder s
geb racht
Ġnot hing
Ġmehr fach
Ġlie fert
d as
Ġd ise
st o
Ġre fle
Ġwor th
akt iv
Ġc abin
Ġpro per
. ),
Ġgew onnen
Ġbest Ã¤t
ĠSpiel zeit
glieder t
9 6
F re
d own
Ã ½
ar get
Ġch ance
ar o
Ġne igh
Ġ3 7
ĠPro gram
ĠEurop Ã¤ischen
Ġhelp s
zahl en
Ġhal ten
D o
E hemal
or al
200 6
Ġcomple tely
din and
Ġb leiben
Ġp ath
ĠO h
ĠSt rom
ak a
stru ktur
p erson
Ġver treten
ĠKar ten
ipp ed
ĠNutz ung
Ġbestimm ten
ĠThe ologe
ĠPar lament
Ġverlie hen
m ond
Ġe arn
P er
t um
Ġb ul
Ġver pf
Ġde ath
ĠAuf gaben
ĠBl ut
Ġun bek
ĠBe ach
Ġcon tract
Ġerst es
Ġpl anning
ĠGust av
r ik
ĠF ak
ĠSt off
ige m
ĠArch iv
ĠSant a
ĠL en
Ġcomp lex
ĠverlÃ¤ uft
v ors
ĠA T
ter e
ĠR od
Ġger ne
reif en
or ing
Ġm id
ck len
Ġent scheiden
Ġsupp l
Ġl Ã¤nger
ĠMar ie
onn a
gang s
ĠGl Ã¼ck
Ġre in
Ġ5 5
ĠGrÃ¼ n
Ġle bten
amer ika
Ġag re
Ġcons ult
wei le
Ġa k
ĠEle ct
Ġconstru ction
B r
or ten
Ð¾ Ð
ĠEn ter
ĠLand schafts
or fer
ĠF al
and ers
ib el
rat es
200 9
ĠsÃ¼d lichen
Ġmult iple
ĠP ed
Ġon es
Ġad j
ĠReg ional
Ã¤hn ung
ĠLeist ung
Ġdistr ib
in den
lin es
Ġgeb racht
uck y
Ġsol che
Ġp en
Ġg ift
Ġj unge
omm ern
tr al
ĠVerwalt ung
ĠA C
Ġrem ov
ĠErz bischof
I d
Ġh a
ĠL ib
20 13
gem einen
ĠAller dings
y ond
el and
ĠC entral
Ġ19 11
pp er
Ġpla ces
ĠFlor ida
ĠP rag
ĠVor der
az ine
Ġfo ot
ĠÃĦ r
ĠMeister schaft
ĠBeit rag
R ad
ĠP a
Ġl ower
Ġweek end
Ġveh icle
Ġb ase
ĠV om
ĠHe ute
ĠProdu kte
ĠJe ff
ru it
ĠMe tern
ĠGer hard
Ġerw arb
Ġdec ision
ĠS on
ĠS em
Ġauf gerufen
Ġle itete
Ġdar in
Ġfin ish
vers ammlung
Ã¤uf er
is ions
ĠL Ã¤nder
ĠEin fÃ¼hrung
ĠRich ter
ist a
Ġer f
ĠAr zt
ĠTurn ier
u gend
ĠH ab
ĠW ed
ach ts
Ġum fang
ĠverfÃ¼ gt
Ġcann ot
britann ien
Ã¤ ste
ĠEn gel
Ã© r
ĠFahr zeug
g au
ar kt
ver treten
ĠVer lauf
ĠgehÃ¶r ten
zieh ungen
D a
m acht
or ial
ist ics
icher ung
ĠQual itÃ¤t
la us
Ġpro t
Ġle er
Ġn ov
ed eral
Ġf lex
ĠG Ã¼ter
ĠR et
ik i
Ġdev ice
f amilie
an ced
sch loss
ĠJ ob
ack s
Ġangeb oten
ĠBron ze
P ol
as ons
ĠD ir
200 7
Ġgrow ing
gebie te
G ra
Ġo l
Ġn ied
ĠGra fen
Te chn
II I
Ġklein er
ĠBrand enburg
p olitik
Ġw uchs
ĠBe zug
200 5
ĠCent re
N ord
Ġal bum
Ġ190 8
Ñ ģ
is at
Ġge ts
Ġj ungen
Ġinvolv ed
n y
Ġv e
ĠD ra
ig an
im me
Ġ19 17
ug s
be wegung
Ġent deckt
ĠOff ice
Ġlar gest
ch ner
ĠF ab
eiter te
Ar t
ĠBeit rÃ¤ge
g as
re chte
Ġl isten
ok er
rit e
lieÃŁ t
Ġinterest ing
W eit
se x
ĠAuf gabe
in y
Ġt im
Ġk or
ĠIn fanter
ap el
ĠmÃ¶ch te
Ġver gleich
ĠEin trag
Ġbet re
Er baut
Ġcreat ing
cklen burg
Ġt en
ar ischen
ĠT ok
Ġim med
id ents
Ġle vels
Ġout door
ĠUnivers itÃ¤ts
ĠV iol
ill y
us te
ĠW omen
ĠL ar
Ġver antwort
ran ce
gel assen
St ud
Al bum
ĠWei ÃŁ
Ġgroup s
Ġunmittel bar
os a
we chs
ken nen
ende te
Ġrequ est
ĠFar be
D ate
Ġs old
Ġl ux
ĠNik ol
ĠT ransport
Ã¤l de
Ġro t
Ġcolle ge
est ra
Ġfe ed
Ġcount ries
Ã¤ll t
ĠJes us
ĠCour t
Ġannoun ced
S ystem
ĠA ff
20 19
Ġexp l
Ġ190 5
Ġhtt ps
Ġfinanz iel
B is
Ġb all
Ġin zwischen
ĠD ah
Ġun be
ĠWe chsel
ĠWh ile
gele gen
ĠR eb
Ġl ok
h ow
Ġt al
ĠP od
mann s
ĠD amen
kt iv
ĠGr enz
Ġpart ner
Ġentsp richt
ĠMat th
I ON
b u
Ġd ritte
at i
Ġf ab
ĠC all
Ġge gebenen
ĠSer ies
Ġs an
ĠD ro
ĠSte fan
Ġmo unt
zieh ungs
v ol
am ous
bl Ã¤tter
' d
if ts
ĠNach richten
ĠMann schaften
Ġ Ä
ar ies
re l
Ã¤ ger
Ġein st
Ġer inn
ĠSt an
Ġso uth
Ġad vert
Ġbet rug
Nach dem
L a
Ġd ir
ĠSt iftung
Ġdirect ly
Ġzerst Ã¶rt
Ġg as
ret t
Ġ7 5
West falen
I A
Ġh it
hol t
o oth
Ġjed es
ĠEre ign
B S
ĠTem peratur
Ã¼hl en
j ew
ĠL iter
Ġs aw
Ġw edding
ĠK ron
Ġstar tete
issert ation
Ã¤ her
Ġgar den
eng th
Ġenc our
i xt
Ġs ele
ĠSo und
ĠKomp on
Ġc ause
ĠT H
ĠW oche
ĠFebru ary
Ġoffer ing
ĠSied lung
Ġfert ig
n ot
Ġc ases
Ġver lassen
Ġcom b
Ġentsp rechend
Ġheut ige
ĠPubl ic
Ġt hr
em p
ĠCh ild
arm on
Ġroom s
Ġgesp ielt
ĠId ent
Â «
Ġd ark
Ġd ry
al ing
Ġs ingles
ĠB ass
Ġl ay
ick er
Ã¤n gt
Ġbusiness es
zip lin
sk y
Ã¨ re
ĠSin ne
c ies
m y
as ing
ĠP enn
ĠP unkten
ct ure
ĠAn gebot
ĠLe e
ĠOrt schaft
Ġdarauf hin
O lymp
k ord
at oren
ĠW ater
omm iss
ĠFot os
Ġt Ã¼rk
Ġs on
ĠD omin
Ġbet rach
ĠFÃ¼hr ung
ecut ive
te uer
ĠA f
ĠG ele
ĠR oll
Ġre ve
ahr en
ĠB rief
ĠR ap
ĠZu kunft
Ġselect ion
ĠÃľ berg
it ur
Ġs un
ab et
ĠLe op
kathol ischer
Ġnecess ary
Z w
ĠOr ganis
Ġgel ten
Ġspe ed
ĠSpe zial
ĠJur ist
ĠS onnen
ra ted
ff er
ĠWebs eite
Ġwirk lich
Ġstreng th
ie den
ĠS uch
ĠL eit
Ġdesign s
Ġb orn
fr iend
Ġdefin it
ĠS eb
ĠIn gen
Ã¼ck sicht
Ġob tain
stit ution
Ġersch eint
Ġorgan iz
Ad resse
ĠUl rich
ĠF lo
ver trag
Ġse ction
tell ungen
glie dern
ven ue
Ġsom et
Ġnum er
us ter
Ġp ages
ĠI hren
ĠOb jekte
ĠMet all
ĠFer dinand
r ix
Ġb aby
Ġein gestellt
ir ge
lin ik
ĠBe wegung
Ġemplo y
Ġtit le
el f
ĠF eder
amp les
reg ierung
deutsch en
afr ika
A fter
is tet
an zen
st amm
ei en
se ud
ĠSp an
ĠEhe frau
er c
un te
ĠW affen
ĠC re
ĠZ ent
ĠÃ¤ uÃŁer
fur ter
ĠS ir
ac es
ima tely
Ġmax imal
lin der
ĠAut oren
Ġac qu
n ational
ĠÃ Ĺ
Ġtra gen
200 4
Ã¤chs ischen
ĠSt ahl
ont o
Ġdo uble
ĠFranz Ã¶s
ĠMos kau
ĠEdu cation
d essen
id ae
ges p
ĠGe h
so ft
ĠPol y
ĠChar l
ĠrÃ¶m isch
Ġindividu als
Ġexperien ced
Ġf ashion
Ã¤ u
ĠF ind
Ġl au
ill on
ĠHoch schullehrer
mittel n
Ġthink ing
ĠauÃŁer halb
Ġcost s
M in
ĠT ore
Ġg iving
Ġch urch
ĠCont in
ĠElis abeth
i ant
ĠBes atz
ĠÃĦ nder
Ġmess age
ĠnatÃ¼r lich
D A
ĠS un
ĠM ah
Ġz eich
ir al
ĠGe heim
ĠWilli ams
Ġro ck
ĠKon zept
ĠLauf e
m and
ĠG ran
ĠSchw eden
Ġpos it
ĠSchn eider
g ut
Ã¼ m
Ġn ature
ĠgrÃ¶ÃŁ ere
ĠAustr alien
ĠProble m
ĠOx ford
p m
Ġt ats
ĠH ub
ĠInter esse
Ġstart ing
pp e
arch iv
H o
p ack
us ing
ĠJ on
ichte ten
ider s
reit en
ĠInter view
ĠÃ¶sterreich ischen
m ont
he ute
ĠG alerie
Ġg alt
Ġ4 4
ĠBild hauer
Ġeng ag
Ã ¥
la h
ei ht
ĠMed ia
ĠĊĊ ĠĊ
Ġarbeit et
is a
ĠS ach
ĠT anz
wer te
Ġsub mit
ĠÂ £
C om
sch m
ze igen
ĠBe ck
ĠFor men
200 3
Ġbec ame
Ġschw ar
ĠBra unschweig
e hm
st he
Ġc ards
Ġ19 15
ick et
Ġwen igen
oper ation
p olit
Ġf ine
ĠD ichter
ĠL ast
ĠBar bar
ouver neur
r ong
at ic
Ġf iles
ir ch
ann el
lan z
ĠArchite kt
fel der
Ġan aly
ĠO ld
ib ly
Ġex cl
rÃ¤ ume
ĠAuf bau
ĠStand ort
Ġter m
ĠZust and
Ġgep rÃ¤gt
D on
a ction
Ġw and
ĠD Ã¶r
ĠK ath
ĠH orn
ĠDar Ã¼ber
b it
c ont
ĠD iv
ĠW estern
Ġsp orts
gr Ã¶ÃŁ
Ġthem selves
ĠS ab
ct ic
Ġor d
pla ce
ĠDevelop ment
s et
Ġg ese
ĠEin s
ĠSchm idt
ĠJournal ist
ar p
ĠT Ã¼rk
ĠW appen
ĠW Ã¼rz
Ġim plement
Ġmit tels
Ġfor get
ĠAn teil
ĠOr te
Ġmy self
Ġ190 6
Ġfamil ies
Ġhom es
Aug ust
ord net
ĠKon stru
Ġ190 7
Ġopportun ities
Ġs us
as ion
ot yp
icht lich
Ġaus tral
Ġde pend
Ġapp ly
Ġno te
ĠWei hn
ĠPra xis
ĠProble me
ĠB M
Ġgo es
Ġpre fer
tain ment
k lass
al m
st on
ĠF rench
Ġl ost
ĠS et
ur b
ĠP aar
Ġr Ã¼ck
Ġwichtig sten
a ug
u an
w ander
â Ĥ¬
Ġl ots
hn t
ger ichts
Ġsc ience
uar ante
Ġsm art
ĠFahr er
Ġsur round
ha ber
IN G
Ġbe gan
qu es
ugh ter
tem porary
hand lungen
Ġinvest ment
ĠSchaus piel
D E
ĠV illa
Ġhe ar
Ġso c
Ġinternational e
b ilder
Ġf arm
ĠK in
ĠAuf nahme
Ġbrit ische
ĠBrÃ¼ cke
Ġd auer
ĠC op
ag ne
rich ter
ĠZw eit
ĠBetrieb s
v ision
Ġb ein
ĠV arian
ĠAuf grund
ĠBundes liga
ĠGroÃŁ britannien
Ġlim ited
ĠB Ã¤
Ã© n
Ġvers ucht
ĠFot o
ĠM ol
ĠR ail
co very
ĠChr on
yd ro
ĠS av
as p
Ġm other
ĠArbeit er
M ark
g Ã¼lt
ĠT agen
Ġto wards
ĠIn ner
ht t
ĠApp le
M ail
st uhl
ic ed
Ġst uff
ĠEr inner
iz iert
Ġres olution
anz er
pf licht
Ġengl ischen
Ġphys ical
U T
Ġv irt
il lage
Ġbek annten
Ġ189 0
ĠCol umb
Ġâ ĨĴ
C C
b aden
Ġn ation
la den
ho fen
Ġback ground
ĠGrund lage
gef Ã¤hr
ĠKrit ik
Ġwahr scheinlich
Ã¶ gel
ĠSt ation
ĠLand wirtschaft
ĠGel Ã¤nde
ĠerklÃ¤r t
Ġsched ule
a ber
ent um
Ġe ye
ĠIn tern
ĠTh Ã¼r
Sch w
200 2
Ġverpf lich
A A
ĠK it
Ġber eit
ĠgrÃ¶ÃŁ eren
Ġc ulture
ĠK andid
ir n
Ġl Ã¤ng
Ġat tem
ho ff
Ġinter view
ĠEurop ameister
wÃ¤r t
ar ische
ar ina
ĠB ibliothek
ers ey
ennt nis
merk ungen
E G
r d
ein er
ect ion
ĠMan ager
z ern
Ġs ell
ĠP orn
Ġ( ,
Ġg ere
ĠC ard
Ġcl oth
Ġcons um
ĠSÃ¼d westen
ĠMond ay
R O
ĠE igent
Ġher gestellt
ĠFl Ã¼gel
ĠCo de
forder ungen
ĠSim on
ĠD ub
Ġc y
ĠAn wendung
olog ies
stra hl
ĠnÃ¶rd lichen
st ab
ĠH afen
art ige
gr iffen
Ġcamp aign
Ġcomfort able
em ed
ĠJ ew
ĠAd min
Ġschool s
Ġrep air
ĠH ell
gr enze
rif ft
Ġact ive
Ġd agegen
Ġp et
ph an
Ġweit gehend
ĠĠ Ġ
hand elt
Ġge halten
lin ien
The ater
Ġdeutsch sprach
Ġ190 4
b il
d urch
g ern
z z
re form
ran ch
Ġit self
io de
ĠSie ger
hÃ¶r den
Ġdar gestellt
ĠKar te
ĠStud enten
ĠVerb and
f abrik
Ã¼ st
ĠStra ÃŁ
Ġsogen annte
Ġamer ikanischen
v olle
Ġa spect
Ġm aster
ĠIn tegr
sp er
Ġunter st
ore a
pro gramm
Ġbl ue
Ġnor th
ĠVal ley
ĠDeb Ã¼t
ĠV e
Ġent h
Ã¤nd ler
ĠReg ister
âĢĿ .
ĠSchrif ten
Ġrepor ted
K urz
m osph
n ungs
ĠS aar
im ed
ĠK ard
ach st
Ġst ress
ĠQ uer
gesch rieben
Ã¼tz t
ĠSoc ial
S ehen
ĠG rÃ¤
Ã¤r t
ident ial
gra f
W ie
Ġm otor
Ġk Ã¼nstler
Ġunterschied lichen
ĠOp fer
j o
ic ing
ĠAn ne
Ġgen annten
ĠWelt k
ĠMain z
Ġest ate
H L
f ast
Ġp assen
Ġg uten
grÃ¼ ndete
histor iker
or dens
ĠA wards
Ġh our
ĠL it
Ġsp ot
Ġbeg in
Ġac cept
ĠNord osten
Ġexact ly
en se
Ġh Ã¤lt
ĠF ert
ĠK rank
ber e
up s
Ġcomp on
ĠCon c
unn y
Ġresp onse
Z um
oh le
com es
g ory
Ġo w
ĠK a
Ġhe ll
Ġus es
Ġwest lichen
Ġw ife
Ġch at
Ã¤n ner
ĠWeltkrieg s
Ġsen se
F F
k g
ĠS PD
Ġmus ikal
Ġt Ã¤
ĠWe imar
Sch riften
200 1
bild ungs
Ġbele gt
Weit ere
Ġ Ã¶
in zen
ĠS ho
ĠD ol
ĠT iere
em ark
ĠVer hÃ¤ltnis
Ġown ers
Ġconsider ed
ĠÃĸff entlich
ĠFlugh afen
ĠG ang
ĠN av
ĠIt al
Ġbek am
ĠHand el
âĢ¢ âĢ¢
g on
h u
s es
ad d
ĠFilm s
Ġadv ant
Ġmet al
k ins
Ġm ention
ov a
Ġerst re
ilit ary
ĠNord westen
Ġerw eitert
schul en
Me ister
M on
Ã º
ĠT hr
ĠK os
ĠC ross
Ġan erk
ĠEn s
wahl en
Ġverbreit et
ĠK en
Ġg ingen
ĠThe odor
ĠAd am
Ġsupp ly
ĠArch Ã¤
ĠjÃ¤hr lich
D em
Ġgleichnam igen
S A
m eld
ar in
ĠB ob
ĠT ax
ĠL ight
Ġann ual
p a
ĠC orn
Ġbe ob
ad or
ug el
ĠDeutschland s
lig isten
ĠWirk ung
ĠFrÃ¼h jahr
C ode
ur ts
Ġdem and
Ġaus geb
ĠRe chte
ff ic
oren z
Ġdar an
ĠRhein land
ĠAmaz on
l ike
le utnant
ĠD Ã¤n
ĠP fe
ĠUn garn
Ġ4 7
ĠTeil en
Be vÃ¶lker
ĠDaten bank
inc ip
leist ung
ĠGesund heit
as ts
Ġn utzen
ĠAd els
ĠJo achim
Ġh y
ĠHe ft
rup t
ĠIn f
Ġum ben
ous ly
ator ium
Ġbil dete
ĠT imes
Ġer fÃ¼ll
ĠGes prÃ¤
ĠSÃ¼d osten
ĠForm el
Ġgese hen
ĠL ord
ĠDie t
Ġerhe b
ĠC ru
Ġge eign
ost on
Ġuns eren
ĠDistr ict
ĠGeist licher
D AP
ĠS af
ĠP ast
ĠNord rhein
r Ã©
Ġ uk
us ed
ing u
ĠG ame
ĠV ar
os ted
ĠEr de
lie fer
Ġmov ing
Ġsomet imes
Ġs and
Ġv Ã¶ll
Ġhe il
Ġfe et
Ġentsprechen den
C omp
ĠA P
ĠChe ck
Ġche ap
ĠhÃ¶ch sten
w itz
at ives
ol ge
ĠK noten
um ber
Ġun ten
iz en
Ġwe ather
ick e
ĠAb schnitt
ĠPre uÃŁen
G roÃŁ
w rit
ra gen
ĠH Ã¤user
199 9
urs day
fra gen
Ġmod els
ĠLeist ungs
Ġrepor ts
f els
Ġw ild
al led
ĠB an
ĠAus druck
gew Ã¶hn
fr ist
ĠMuseum s
Ġrela x
B est
f Ã¶rder
ĠS ig
ĠW ag
Ã¶ gliche
ate gory
Er ster
Ġhigh est
Ġactiv ity
b ungen
o e
Ġh ar
Ġst age
Ġwei b
ĠQual ifikation
ĠArchite kten
Ġstor ies
Ġlink en
iw od
B i
B ild
h op
k unst
Ġpro pos
ĠwÃ¼r den
ĠT hen
ĠZeit en
ĠBern hard
g ment
ĠM ov
ĠK lassen
Ġex hib
pp ed
Ġoffer ed
Ġess ential
Jahrhund ert
Besch reibung
a iled
y les
ier n
ĠUnter nehmer
Ġfre qu
Ġtrans fer
bÃ¼ cher
ĠGeburt stag
ĠN omin
Ġhe im
ĠPr iester
ĠTra ining
Ġprogr ess
al te
ĠK ro
ĠVerlag s
ĠVirgin ia
m Ã¼hle
zug s
Ġlov ed
Ġcl ient
ĠEle mente
ĠKap it
ĠCol or
** **
Ġp aar
Ġwe ar
vers ion
ĠGew inn
Ġcar ry
Ġunderstand ing
ĠS ituation
re a
ĠR icht
ĠR ath
Ã¶r en
Ġent stehen
ĠChe f
M A
el or
ĠP en
ĠP ak
Ġg rand
if er
ĠJahr zehn
omm od
ĠT ennis
ĠNe uen
ĠMittel alter
Ã¤ fer
ĠW alk
Ġprodu ziert
Ġlet ter
ĠYo ung
? ?
ĠB lock
ĠC O
Ġunter s
yl van
fass ungs
ĠDate i
or ganisation
ro te
ĠP lÃ¤
ell y
ersÃ¶n lichkeiten
il ing
ĠF isch
ĠK och
Ġzu erst
ĠOber st
Ġass ess
Ġhin gegen
ĠUnd er
ĠLeop old
i ot
ĠB ab
ĠEr b
ein d
ĠA R
Ġc amera
ĠBe w
Ġstell vertreten
ĠFound ation
) )
D r
J an
v ement
Ġd ynam
ing ly
ĠW a
Ġe yes
Ġzu gleich
St ring
Ġm ission
Ġl es
ay a
ĠBahn strecke
Ġober en
ĠfrÃ¼her en
kra ine
Ġbeein fl
ĠL au
ĠUn abhÃ¤ng
Ġapp re
Ġbek ommen
bo ten
unn el
ĠHam burger
Ġadv ice
Ä Ľ
Ġ ;
Ã¤ b
ĠÃ¼ber geben
Ġpolit ical
ĠFir men
ĠHers teller
Polit iker
ro ck
Ġcon cept
Ġste el
Ġview ed
Ġruss ischen
Ġkur ze
Ġdivers e
Ã Ĺ
ĠM ission
ĠI N
Ã¶ nen
her zog
ĠKon gress
ĠTod es
Ġbas ic
ĠFar ben
Chr ist
Ġdeg ree
E E
Ġm il
Ġc ru
ĠG ames
Ġan ges
Ġ4 3
ĠFor st
Ã¼nd ung
ĠMen ge
Ġ190 9
Ġplay er
ĠPfarr er
ĠR ost
Ġ4 1
Ã¼nd et
son sten
sc ar
ĠInde x
k ammer
ar ia
al om
al bum
Ġb atter
Ġp red
ĠT el
tell igen
ĠTh anks
ĠFak ult
er b
Ġin stead
Ġgeb ildet
ĠVerÃ¶ffentlich ung
Ġ ueber
ion e
Ġc lin
ic ine
Ã¶ se
Ġab geschlossen
ĠOr chester
wes ome
A pp
B el
h aps
ste ht
sen s
ĠAl tern
Ġro ll
Ã¤mp fen
b aus
ie fe
ĠK Ã¼n
auf hin
ÃŃ n
wor ks
zÃ¼ ge
ĠHeraus geber
S eine
ĠG ymnasium
ic on
ĠVer Ã¤nder
gem eine
Ã¤ den
Ġein gesch
ĠE ck
Ġgu ys
Ġsym bol
Ġb ill
Ġf em
Ġf uck
st ation
ĠE ich
ĠR uf
ĠV ort
Ġob wohl
ĠMag de
Ġview s
\\\\\\\\\\\\\\\\\\\\\\\\\\\\\\\\\\\\\\\\\\\\\\\\\\\\\\\\\\\\\\\\\\\\\\\\\\\\\\\\\\\\\\\\\\\\\\\\\\\\\\\\\\\\\\\\\\\\\\\\\\\\\\\\\\\\\\\\\\\\\\\\\\\\\\\\\\\\\\\\\\\\\\\\\\\\\\\\\\\\\\\\\\\\\\\\\\\\\\\\\\\\\\\\\\\\\\\\\\\\\\\\\\\\\\\\\\\\\\\\\\\\\\\\\\\\\\\\\\\\\\\\\\\\\\\\\\\\\\\\\\\\\\\\\\\\\\\\\\\\\\\\\\\\\\\\\\\\\\\\\\\\\\\\\\\\\\\\\\\\\\\\\\\\\\\\\\\\\\\\\\\\\\\\\\\\\\\\\\\\\\\\\\\\\\\\\\\\\\\\\\\\\\\\\\\\\\\\\\\\\\\\\\\\\\\\\\\\\\\\\\\\\\\\\\\\\\\\\\\\\\\\\\\\\\\\\\\\\\\\\\\\\\\\\\\\\\\\\\\\\\\\\\\\\\\\ \\\\\\\\\\\\\\\\\\\\\\\\\\\\\\\\\\\\\\\\\\\\\\\\\\\\\\\\\\\\\\\\\\\\\\\\\\\\\\\\\\\\\\\\\\\\\\\\\\\\\\\\\\\\\\\\\\\\\\\\\\\\\\\\\\\\\\\\\\\\\\\\\\\\\\\\\\\\\\\\\\\\\\\\\\\\\\\\\\\\\\\\\\\\\\\\\\\\\\\\\\\\\\\\\\\\\\\\\\\\\\\\\\\\\\\\\\\\\\\\\\\\\\\\\\\\\\\\\\\\\\\\\\\\\\\\\\\\\\\\\\\\\\\\\\\\\\\\\\\\\\\\\\\\\\\\\\\\\\\\\\\\\\\\\\\\\\\\\\\\\\\\\\\\\\\\\\\\\\\\\\\\\\\\\\\\\\\\\\\\\\\\\\\\\\\\\\\\\\\\\\\\\\\\\\\\\\\\\\\\\\\\\\\\\\\\\\\\\\\\\\\\\\\\\\\\\\\\\\\\\\\\\\\\\\\\\\\\\\\\\\\\\\\\\\\\\\\\\\\\\\\\\\\\\\\\
ab ase
Ġhe at
ia tely
Ã¶r ung
Ġ4 9
ĠTex te
ĠSalz burg
ĠVog el
t l
ĠW etter
ste chn
ĠGrÃ¼nd en
Ġpur pose
R L
p at
z if
it is
ĠZ us
ĠIn strument
ind ustrie
Ġplay ed
el ine
Ã¶ pf
Ġ6 4
Ġpre c
Ġel f
ĠBei de
Ġdire ctor
Ġgef Ã¤hr
ĠLex ikon
Sehen swÃ¼rdigkeiten
N o
re gel
st ern
iz enz
Ã¤hl ten
te au
Ġb row
im p
ap ter
ĠAn griff
fin den
Ġsc ient
ĠKe y
Ġjob s
Ġtem per
ĠhÃ¶ch ste
ĠDarm stadt
Ġdefinit ely
is ieren
ĠF ire
Ġste ts
Ġeff ort
an er
ĠD VD
ĠK u
ĠK ong
ĠK anada
Ġz Ã¤hlt
ell i
Ġexp and
Ã¼t te
ader s
Ġdes cription
ĠRe view
be w
ĠT a
ĠN ight
ĠSch ach
Ġ4 6
ifiz iert
Ġgan zen
ĠdÃ¼r fen
C o
F e
k osten
ly wood
ke y
ĠZeit raum
Ġeigen stÃ¤nd
k in
k rÃ¤fte
Ġprodu z
Ġacc omp
Ġeinge fÃ¼hrt
Ġded icated
g yp
re al
Ġer kennen
fe kt
isten z
lei hung
ĠAfr ica
Ġmoder nen
Ġelekt r
ĠLeicht athlet
Ġverantwort lich
Ġh op
Ġsp end
Ġco ffee
pl Ã¤tze
ĠBild ungs
Ġben ach
ĠMod el
m d
Ġ Ã¶ffentlich
er weise
ĠS tell
ĠR ena
ul f
Ġre chten
Ġstud ies
Or ganisation
Ġend gÃ¼lt
Ġaff ord
resp ond
I G
P la
z one
te hung
Ġv ict
Ġ19 16
Ġr ights
ĠEin ige
stand ing
ĠFÃ¼r sten
stoff e
b ad
m es
ro chen
ĠR oss
ĠEin heit
ick ets
ĠNach w
ĠProdu zent
gangen en
======== ========
ylvan ia
A ut
D en
j ekten
u um
Ġs icht
ar zt
ĠB ett
ei ÃŁ
ĠAd d
ĠAut ob
ĠDurch messer
ĠFrancis co
; ;
ĠR ay
Ã¶r ter
Ġfin ally
ĠKon zert
ograph ische
ĠÂ §
Ġsp irit
Ġber Ã¼hm
ĠKon fl
S a
Ã¼ mer
Ġc ash
im b
Er folge
ĠWider stand
J uni
S G
m ail
Ġ id
or b
at te
Ġf ight
ol o
ĠT isch
Ġge zeigt
ap y
Ġat tra
ĠVor gÃ¤nger
Ġ1 10
ĠI hrer
ak ed
Ġse ch
ĠAus land
Ġeffect s
Ġdeliver y
Ġbestimm te
Ġthous ands
H ier
z ub
en kt
our ney
ĠTr ump
Ġexist iert
Welt meisterschaft
Ġn amens
ĠT ar
Ġbes ondere
Ġhealth y
ol es
ĠC ost
ĠÃĸffentlich keit
te gy
un ehmen
ĠB ow
Ġwe ist
ĠPro ject
ĠfÃ¼hr ten
Ġcreat ive
ĠÃ¤hn lich
D ollar
z ur
ĠM ike
st Ã¤tten
ĠW ohl
den burg
os is
ru he
ikan ischer
Ġart ist
Ġinst ru
Ġphot ograph
ĠCommun ity
ĠL iber
Ġer gÃ¤n
Ġr ich
ĠTro tz
Ġdev ices
Ġs agte
ĠN a
Ġs em
ĠS inn
ĠL y
Ġed ition
Ã¤us ern
ĠTechn ology
ĠTem pel
Ġut il
B es
z te
ĠA qu
Ġg ave
Ġsh opping
Ġelect ric
Ġhol iday
p al
Ġl ines
Ġver schw
ĠBundes republik
ĠKom ment
ĠCam bridge
Ġcoll abor
ie b
re hens
ic ate
ĠL ate
Ġfor mat
Ġnah men
ĠSl ow
T A
m ag
r in
us band
ĠA u
eb e
Ġco ach
ĠSchul en
ĠHar ry
ĠCarol ina
Ġemploye es
Ã «
ĠK ab
ed ition
Ã¶ die
ĠSch re
ĠChr is
itte e
ĠRund funk
ĠS up
Ġein gerichtet
Ġde ad
Ġtra de
Ġkl ar
Ġf unktion
ĠA rab
ĠB lo
Ġand ers
um pf
ĠEr ich
Ġab gerufen
pf lege
Ġexp ected
Ġentw eder
sp rÃ¼
Ġev alu
ĠBas ketball
Ġprote ction
frast ruktur
ĠNÃ¼rn berg
ĠC are
ĠTh ursday
Ġ5 2
ĠFernse hen
ach tet
ĠJ ones
aus gabe
burg h
Ġkomp lett
ĠWo iwod
Ġwa it
ĠW it
ug ies
Ġpro p
Ġher r
ĠGl obal
Ġunser em
Ġswe et
Ġ @
Ġm is
ic ious
ĠL abor
ce ed
ap h
ĠKon zer
Ġthan ks
Ġgem Ã¤ÃŁ
weg s
Ġwind ow
T S
Ġs atis
al em
Ġf ail
ra k
ĠVer dienst
Ġra ce
i ation
Ġschw arz
war en
ĠLeist ungen
n etz
ein anders
ĠD iam
Ġc ry
Ġg uarante
ul i
Ġso ft
ĠFernseh serie
g Ã¤nge
ch mal
ĠHer bert
Ġtr ug
G u
Ġt ips
ĠL ine
ĠN eb
Ġsch le
Ġmen sch
Ġestabl ished
L age
Ġm iddle
ĠK athol
Ġber ufen
ĠPrÃ¤sident en
Ġcent ury
Ġausgest attet
Ġregard ing
ĠS qu
Ġm ap
ĠD rit
ĠBre ite
denk male
m iss
Ġc ell
ĠE ach
ĠH ig
ir ing
Ġl Ã¶
ab elle
ĠEx empl
ĠBar on
, -
Ġw ine
ĠP ac
Ġan gelegt
se c
be g
ĠStra f
Ġfriend ly
Ġpower ful
B ar
c raft
o ire
ĠT Ã¶ch
Ġun it
Ġes c
ĠAb out
Ġbo y
Ġpass ion
ĠErw eiter
ĠDistr ikt
Ġricht ig
N r
ĠD iffer
ĠJ os
mer ksam
Ġcon ven
kl us
ĠRÃ¼ck kehr
Ġclass ic
zen en
Ġac adem
Ġze igte
Ġbeh av
emin ar
D igital
ĠH arr
Ġg ro
ĠJ Ã¼rgen
ĠIn halt
ste dt
Ġpar allel
ĠermÃ¶glich t
E hr
V P
z ul
Ê ¿
Ġf ung
ĠR ol
Ġ188 0
Ġcour t
ĠDire ctor
Ġmax im
leist ungen
M ich
Ġt arget
ĠMinister prÃ¤sident
Ġitalien ischen
j en
Ġin itial
ĠA N
ĠK rieges
ĠU fer
ant astic
Ġinc red
ĠStre cken
ĠSeb ast
ĠWÃ¼rz burg
F ra
w eite
es is
Ġin fo
Ġl isted
Ġre li
Ġvor gesehen
ĠFor um
Ġges etz
Ġâ Ĥ¬
klÃ¤r ung
ĠBesuch er
H istor
Å ¾
an th
ĠG reg
ĠK ommission
ĠK assel
ĠH ause
et ze
ĠZ ahn
zept ion
on ia
ĠO pp
Ġ18 70
Ġret ail
ĠBrÃ¼ der
ĠH aft
ĠBr ig
Ġhelp ing
Ã¶m isch
ĠInternational en
Ġeconom ic
ĠG ru
Ġl it
ĠRe port
ap ers
ĠPf lege
akt or
ĠDan eben
l ings
te x
ĠF alls
ĠK iel
Ġauf gelÃ¶st
ag a
ath an
Ġcl ub
ĠRÃ¼ck en
on ien
Ġc andid
ol as
ĠC ustom
Ġsp ent
ĠBe ziehungen
lie genden
Ġpre vent
fÃ¼ hl
ĠJuli us
It alien
ĠInfanter ie
ĠH ay
rie chen
Ġch air
Ġte ams
bau er
ĠMet al
anc ing
Ġbeginn ing
ĠK amer
af el
ĠTe ams
Ġbeg leit
ĠFahr zeuge
Ġappro x
fÃ¤l le
Ġple as
Pf alz
S erie
Ġf amous
Ġ2 50
Ġk ulture
Ġr ates
ite ktur
Ġbek annte
fang s
ĠProdukt ions
ĠvÃ¶ll ig
n icht
ĠE vent
ug u
ĠMich el
e ur
Ã ł
st ad
ĠThe ologie
ron om
Ġerh ielten
ĠPl us
Ġbro ught
Ġumben annt
h orn
er be
ĠF inal
ĠN ahr
men s
Ġle it
ard o
ĠDe v
form ance
ĠRo ten
ues day
ĠMor gen
zus tellen
ĠEpis ode
b ahnen
Ġt ried
Ġt ritt
ĠT wo
ĠLauf bahn
Ġess ay
f Ã¤lt
Ġw rong
Ġl ength
Ġdr ink
Ġstand ards
Ã¤mp fer
lam ents
lÃ¤ss lich
Ġfor der
ĠAl pen
ĠFrank furter
Ġweiter es
Ġger ing
ĠTer min
ĠFunktion en
im in
ĠR is
Ġhe ard
erk l
Ġen dete
ĠIns gesamt
ĠSong s
Ġinfl uen
> <
G ew
s ylvania
er ien
Ġp aid
ĠP ierre
ub a
Ġex am
ĠOr ient
pt ion
Ġ190 2
Ġ189 8
stÃ¼ck e
P latz
on i
ĠV aters
ild ing
Ġwel come
ĠIde en
Ġocc ur
Eis hockeyspieler
ol z
ĠC a
Ġim ag
Ġpro fit
Ġexp lor
Ã¤h ler
Ġf ather
Ġe uch
sp ekt
in de
Ġs av
Ġm iles
ĠM auer
aus stellung
Ġwe g
Ġlie f
ĠGesch ichten
Ġcol ors
ĠBevÃ¶lker ungs
ĠbeschÃ¤ft igt
ĠEntscheid ung
ĠSchles wig
im ents
ĠL aut
ĠC y
ĠV el
ĠHand buch
arl ier
hÃ¶ he
ĠK up
ĠW ay
Ã¶ d
Ġbeg onnen
por ation
ĠJohn son
ĠNieders achsen
it ude
im it
ĠEr satz
Ġex cept
Ġ190 3
Ġupd ate
b al
ĠS n
ĠverfÃ¼ g
nes day
Ġhund red
N ot
b ell
r t
z ell
al ed
ĠB ang
ĠL ittle
iz iner
ĠOr ch
Ġtr uly
ĠBek annt
r iss
or ph
atur ing
E le
b und
y o
Î ¿
ĠS tellung
ĠN ie
ĠJ agd
ĠW unsch
ir us
Ġre ich
ĠRe form
ĠSp rachen
Ġent gegen
ĠLand tags
E d
P A
ĠS ak
ĠB oston
ĠW es
ĠIn t
ĠÃ¼ber tragen
Ġmean ing
Ġbud get
ĠÃ¼br igen
Ġd ich
te gra
Ġb ot
ak ei
igkeit s
Ġdah in
ĠMc C
K lasse
en gl
al tete
ten ance
ĠPre uÃŁ
p ite
Ġd ining
Ġm ill
ol i
Ġg Ã¼nst
In s
cl ient
Ã¶ff nung
ĠMed ical
Ġprogr amm
S k
m Ã¶glichkeit
Ġb rach
od urch
Ġsuch en
ch ip
an en
ĠR ies
ahr t
Ġben utzt
ĠIde e
ĠjÃ¼d ischen
ĠFakult Ã¤t
P olitik
S aint
w ettbewerb
Ġin f
ĠD ialog
Ġan hand
Ġe igent
Ġserv e
hand el
Ġstand en
ĠIns eln
Ġfeel ing
ĠBron z
k ont
k onstru
w el
Ġv ierten
ĠH und
Th ese
ĠBl og
Ġopen ing
Ġappro pr
ĠGerman y
u v
z iger
Ġbas is
ĠRei hen
Ġunterschied liche
Ġcorre ct
l ar
ro ad
Ġz Ã¤hlen
ĠW ett
ĠV iele
fol gt
ĠBau werk
Ġverw and
e an
er te
Ġf elt
Ġf ans
Ġc ast
ĠG h
gen er
ĠPf ar
ĠFigur en
Ġwes entlich
Ġextrem ely
B Ã¼rger
P ort
Ð º
ĠS T
ĠK Ã¶
sp ar
ĠFamil y
Ġverst Ã¤r
Ġmeas ure
Ġf lat
ĠD adurch
ĠG lauben
im ension
ist ischer
Ġj ud
Ġsp rach
oc ol
Ġmed izin
iforn ien
akte ur
4 00
8 00
r ennt
Ġd ish
Ġw ants
ĠB aby
ĠM ap
ĠF red
ia ge
ov en
Ġ5 1
", "
ĠComm ittee
ĠWies baden
p o
ic ul
ĠL ist
Ġver g
ĠBe ge
teil s
hÃ¶r de
Ġuse ful
Ġcap ital
Ġprofession als
Ġblo od
Ġsle ep
ĠNationalsozial ismus
K irchen
Ġse ven
fl Ã¼gel
199 0
ĠSchwer punkt
m ot
r ast
it o
Ġs ituation
Ġw odurch
ĠT ay
ab teilung
Ġne arly
ĠLe arn
ĠWelt cup
ĠPfarr kirche
Ġmittel alter
W il
Ġp df
ĠW ho
ĠL ew
ĠL ook
ad ies
ell schaften
ĠMe cklenburg
Ġdis k
bl ing
Ġsec ure
ĠEben e
L E
m aterial
| |
er a
Ġn utz
ĠC ur
ĠO tt
Ġit em
ĠMit arbeit
Ġcont ains
D an
H aupt
ĠAnd roid
ĠMan y
Ã¤ll en
ĠCont rol
A F
D isk
W ert
al o
ĠP ack
ĠJ ava
ĠEr folge
Er st
Ġcomple ted
deutsch e
Ġrelig i
R ep
ĠAn y
Ġad vent
ĠPr esse
fÃ¼ gt
Ġmittler weile
ĠBarbar a
g ent
an ch
ĠM om
ĠK anz
ĠMe yer
min ton
Ġgra de
Ġatt ack
roll en
ĠS tellen
ĠD ur
Ġim press
ĠGr amm
co unts
fin ition
199 8
N ov
V al
he bung
ĠV ill
rÃ¤ gen
Ġvers ehen
Ġ189 9
Ġchallen ge
gestell ten
z ust
ol is
ĠV iet
Ġk ommun
se kretÃ¤r
Ġ8 00
Ġ190 1
krieg s
ĠBayer ischen
uss ion
Ġall gemein
Ġover all
ĠM id
ĠK art
est yle
Ġge ist
ann ter
ĠDie ter
ĠCh allen
ĠBl ues
ĠSer ver
Ġhistor ische
ĠAfr ican
f ree
Ġp al
ĠF lag
Ġl ern
we ge
sen z
âĢľ ).
Ã© t
Ġgo als
piel en
ĠEd ward
ĠgegrÃ¼ndet en
Ġw he
st al
sch te
ĠR ab
ĠR ose
Ġer stellt
ck el
ĠSch iffe
Ġ5 3
ĠGe gner
ĠPar laments
Ver Ã¶ffentlich
Ġtechn ical
Ġsetz en
ĠComm ission
isp iele
ĠSÃ¶ hne
l og
ur ers
Ġn amed
ĠT sch
Ġl ack
ver anstaltung
Ġab geb
Ġam t
ph y
ĠAus nahme
Film ografie
Ġhig hl
ĠOrd nung
Ġow ner
ĠU ser
Ġen h
ĠNe ust
ĠMin eral
aill en
Ã¶ ÃŁen
ir urg
gen Ã¶ss
ĠSch on
ste iger
ĠSp iegel
gel d
Ġste ps
Ġacc ommod
Ġsett ing
ĠChin ese
- )
m auer
ĠB latt
ol ar
Ġfin ished
ĠGes ang
Ġvers uchte
ĠEntwick lungs
ĠT ief
ĠL as
Ġge z
Ġzu geordnet
Ġwas n
ĠCon ne
Ber g
ĠGed ichte
Ġdeter min
ĠSowjet union
Ġunterst Ã¼tzen
H aus
c ia
ĠP S
fÃ¼hr te
ĠQ uar
Ġ189 7
part ner
ĠÃ¶sterreich ische
ĠMax im
produ ktion
Ġdise ase
F o
ch or
ung er
ag ra
hn ung
Ġ5 6
ĠLin ien
l it
Ġa p
Ġt ransp
ĠK urs
ĠH ug
ĠW M
Ġbe yond
let ter
Ġeas ier
ĠSystem s
Ġassoci ated
P art
Ġt schech
Ġf Ã¤llt
app e
ĠLin ks
Europ ameister
ĠWoiwod schaft
M ax
u ct
Ġa f
it ness
ĠZ erst
ver stÃ¤nd
ĠOr der
Ġb ur
ĠD ata
gr enzen
ho u
reg ion
Ġmot iv
t rue
ĠB lan
ĠJ ersey
stand en
ace ae
Ġacc ur
gest altung
ĠEm il
Ġcontin u
Ġmethod s
L C
or ted
Ġex press
ĠAb itur
âĢĿ ,
Ġphil osoph
ĠM assen
Ġat tract
Ġco unter
ĠFran ken
Ġverw enden
199 6
haf te
u is
w Ã¤l
Ġs up
ĠEr schein
ĠSp orts
ĠPro te
Ġdurch schnitt
ĠHe ad
Ġprodu ced
Ġel ement
Ġvisit or
Ġbene fit
ð Ł
Ġs uffer
ĠA ster
ĠT uesday
Ġk aufen
aus schuss
ĠTra in
ĠBuch st
Jahr en
Å Ħ
Ġs itu
ĠS au
ĠM i
Ġg olden
Ġ6 00
ring t
ĠWed nesday
F unktion
W erk
f assen
Ġ ign
Ġw inter
ĠK Ã¼nst
ĠR oth
ĠN Y
ĠU kraine
Ġst Ã¤r
ant in
ob el
ĠMon at
ĠJo e
lÃ¤nd ischen
Ġpress ure
Ġpresen ted
Ġt a
et he
Ġst ates
Ġwh ose
Ġbes itzen
ĠVor aus
Ġstruct ure
ĠPortug al
ĠE as
ĠâĢ ¢
Ã¤m t
Ġsele cted
, ,
e ch
m aschinen
v ard
or gan
Ġh usband
ĠL ibrary
Ġr ent
ĠAuf lÃ¶sung
ĠMon aten
ĠZahl en
ĠWeit eren
S pieler
er d
in det
ĠN ap
ster dam
act ive
Ġturn ed
Ġkosten los
or ia
Ġw ert
ĠA ktion
Ġc old
ĠL etz
ĠRe fer
hn te
ĠPe ople
ĠOff izier
Ġinst r
Ġsur v
Ġfac ilities
ĠIngen ieur
y ers
ĠL Ã¶sung
Ġsp richt
ĠHo ckey
ĠTr ier
ĠMet hoden
ĠWohn ung
c are
k urs
ĠP ow
ĠH erkunft
ĠBe teil
ac ity
Ġfe hl
Ġbro ad
Ã¤ st
ĠP ot
Ġg ren
ann ed
tel n
Ġsp read
ĠSp itze
land es
wer den
Ġber uf
ĠMo dern
Ġeffic ient
Ġn ar
ĠF air
ĠR ub
rom e
ĠGeb urts
arbeit ete
Ġpe ace
Ġreg istr
Ġkein er
ĠFlug zeug
ĠBesitz er
ĠTÃ¶ch ter
D I
o ter
s ere
is ierten
ĠA M
ĠT able
Ġein gel
ent hal
ĠE ur
ĠO d
ĠSch lieÃŁ
id o
Ġprodu ce
ĠVers uch
Ġ187 1
Ġzwe imal
L ist
N S
P eter
or i
ĠF arm
Ġver ur
ĠGra z
Ġcrit ical
zÃ¤hl ung
C he
in ted
ĠP ay
Ġth ank
iv als
Ġbut ton
Ġbet rieb
Ver b
wirk ungen
Ġt ief
al ity
ĠW Ã¤r
Ġer laubt
Ġauf gestellt
amil ien
Ġtra f
ĠWir ken
ĠMad rid
ĠErfahr ungen
J ohann
r uss
Ġm icro
Ã¶ z
Ġver kehr
Ġcon stant
iert es
ĠSan kt
ĠSicher heits
ĠÃ¶ffent liche
Ġcas ino
M o
ĠD auer
de cken
ĠSp ann
ĠBer at
mar sch
Ġstra ight
ĠKom bination
Unter nehmen
Stra ÃŁe
ĠBenutz er
< ?
S yn
ĠL ot
ial s
Ġinter ior
gesch oss
Ġnumber s
Ġstre et
ĠMicro soft
p et
at re
ro ugh
Ġpro ced
ipp e
Ġeben da
ĠZug ang
Ġruss ischer
Ġgelegen en
ĠLok omot
ĠDah er
ĠP in
ĠN ick
ĠKon rad
C S
W irtschaft
ĠK rie
hard t
ĠSm art
er em
ip fel
iz z
Al le
part ments
ĠHel mut
F L
d auer
Ġ Ã¶stlichen
ĠB ord
Ġh ers
ĠH ot
ĠL abel
ed om
ĠAr thur
Ġum geben
uer ung
ĠTeil nahme
ĠWelt meisterschaft
ĠgroÃŁ es
stÃ¤nd en
199 7
ĠAlex and
rÃ¤sent anten
Ġparticular ly
<? <?
B ad
ļ Ń
Ġhand le
Ġbel g
ĠBar cel
Ġtechn iques
ĠKomp osition
iate ilnehmer
Ġnahe zu
Ġrespons ible
Ġsong s
Ä ĥ
ĠC ook
sp ann
ak adem
ĠJuni oren
ĠMark eting
ĠBÃ¼ ro
ĠAfr ika
Ġcertain ly
or fen
geb ote
anz ig
ix el
ĠQu elle
Ġsol id
weil er
B y
K rit
ĠAd el
or ff
ĠF inn
ĠL am
Ġg ran
Ġpro ud
ĠGem Ã¤lde
Ġw ebs
ĠP ots
ĠRe is
ect ive
iss ance
so ap
Ġmay be
Ġfind ing
grÃ¼nd er
Ġexper ts
ÃŃ a
ĠFÃ¶rder ung
ĠMagde burg
M ill
h ar
en ken
ĠS oph
ĠM ig
ĠG Ã¤ste
ĠAn frage
Ġsh own
schn itts
Ġser ver
ĠrÃ¶m ischen
ĠÃ¤lt este
F ranz
w ord
ĠE ber
ach te
Ġge kommen
ess ions
Ġaus gel
erv ice
Ġres erv
Ġentsprechen de
Ġimmed iately
Ġa partment
ĠS ud
ĠC anad
ĠO scar
olog ischer
Ġsur face
ĠJack son
Ġrestaur ant
ĠUntersuch ungen
schei det
C ar
i Äĩ
ĠH immel
ĠV ern
arb on
Ġdi agn
Ġcover ed
z um
us k
ĠI ran
Ġe at
ost ers
ans as
Ġpol ice
Ġpie ces
chip karte
it ors
ĠE ven
ĠR ollen
ĠL inz
Ġal ter
ĠWe il
Ġgo vern
zeit ung
Ġgeeign et
E lement
h ire
l ation
ĠK ent
we ich
ĠBe wohner
Ġur kund
ĠSchl uss
mus iker
Ġchange d
ĠnÃ¤ch ste
Ġm Ã¤nn
Ġe he
lin ois
Ġsh all
stra ÃŁen
Ġreg ional
Ġadv anced
ĠFo otball
Ġkon zentr
p osition
ĠD issertation
Ġc ars
ol en
ĠT ot
ĠO ther
Ġcomp rehens
ĠOrt es
Ġprote ct
ĠChem ie
Ġrelations hips
ĠHalb finale
Ġb lieben
ĠF ro
ĠW Ã¼rttemberg
ir at
Ġer hoben
pt on
gesch lagen
u ber
ĠD J
im ens
ĠL td
ĠPro fil
ĠLand tag
ĠMa jor
199 4
Ġt ruck
ĠB ell
ol ogen
ĠG olf
Ġer le
ĠN och
ust ain
Ã¼t ze
Ġart ists
Ġsay ing
produ zent
Ġconne ction
Ġkur zen
Ġinstall ation
ĠChampions hip
ĠNeub au
Ġprim ary
Ġzunehmen d
le hre
ĠĊ Ġ
ĠFl ucht
fÃ¼hr ten
Ġdr iver
Ã¤mp fe
Ġconne ct
ĠT y
ach us
Ġj ew
rie den
Ġsh ape
fen ster
ĠSte phan
Ġdam age
ĠDis ney
Ġorganiz ations
Ġnumer ous
Ġh ospital
Ġver legt
ĠCh am
Ġausge fÃ¼hrt
ĠÃĦ gyp
!! !
ĠFil me
prÃ¼ ft
Ġ5 8
ĠGroÃŁ e
Ġ/ >
Ã§ ois
Ġteach ing
ĠSÃ¤nger in
K o
O P
O ff
ĠB it
ĠK amp
ot ional
ĠHe kt
sh ire
ĠGew icht
Ġdiffer ence
Ġgemeins amen
vors itzen
S ep
ĠA achen
Ã¤ ure
Ġsch eint
rÃ¤ ft
Ġman age
Ġbest ritt
ais er
ĠStud ies
ĠWor ks
Te xt
Ġclass es
ĠBro ok
kon om
Ġpay ment
ĠPap ier
Hol stein
w all
us alem
ĠM Ã¶
Ġc entral
Ġre chte
Ġauf gebaut
ĠSch reib
ĠAn h
ĠEin richtung
lo y
ĠInd ien
bes itz
umm ern
fa ult
Ġnomin iert
m ie
ĠBe ziehung
teil ungen
ĠTab elle
ĠA gr
Ġj ur
ĠÃ¤ uÃŁ
ĠAtt rib
Ġb ag
ĠL ow
ĠStra nd
Ġdr iving
Ġschw ier
Ã¤dag oge
Ġchines ischen
F ahr
H ein
ĠM isch
ĠI C
ĠH eb
Ã¤ng nis
Ġ ?
Ġa head
ĠM und
ip es
lauf en
latt form
R o
l ight
ĠD ank
ĠH aup
Ġan gesehen
ak i
ĠAb d
Ġ5 7
setz ungen
Ã³ w
C onstants
ĠM u
em ann
ĠMot iv
Ġredu ce
ĠMaÃŁ nahmen
Ġinnov ative
A B
ĠS P
ĠB art
ĠÃ¼ber haupt
Ġad ult
ĠAnd rew
Ġpop ul
ĠHers tellung
Ġcompet ition
Ġbott om
g ant
ĠS her
ĠS ens
end o
iz er
Ã¤nd igen
Ġ189 5
wend ungen
ĠWei b
Ġlo an
Ġdien en
Ġren ov
ĠGest altung
sta aten
. ).
Ġb ow
ĠA S
ĠM ath
Ġn ames
Ġk auf
ons erv
Ġmov ies
Ġâ Ī
ĠJust iz
un es
ĠP ok
Ġab ger
Ġhe avy
ac ing
zie ht
Ġbring t
ĠRu h
Ġexist ing
f ranzÃ¶s
| -
Ã¼ gt
Ġn ut
ĠH as
ĠJ a
end el
ĠAb geordneten
yn ast
ĠOb wohl
199 3
Ġpropert ies
Ġtalk ing
ĠMÃ¶glichkeit en
ĠMount ain
h aben
Ġh Ã¤tten
ĠH oll
Ġj ourney
iz eit
ball spieler
ĠMon te
ĠSc iences
Ġgu y
Ġ189 6
bed ingungen
zÃ¼ glich
ĠFrei heit
ĠStÃ¤d ten
Ġrad io
ĠRath aus
s berg
Ġs ets
Ġf an
ĠC ob
ĠSch ritt
ĠBe ob
Ġunter en
Ġserv ed
Ġel ements
ĠFo od
far ben
Ġoffiziel l
Ġbenach bar
D S
Ġs ession
or ien
ĠB Ã¤nde
ĠH rsg
ĠJ ena
pro fess
Ġrele vant
r amm
Ġa ward
ĠH aw
ze p
ĠGegen wart
ĠWieder auf
ĠerklÃ¤r te
D ar
a tely
k Ã¼ste
ĠZ oll
ĠVer anstaltungen
Einz el
ĠPar ameter
ĠTr ib
Ġbesch reibt
ĠHil fs
Ġep is
ĠbenÃ¶t igt
ĠWeltk rieges
k ern
Ġw rote
em it
ann i
art igen
be zogen
Ġ5 4
ĠÃľber setzung
199 5
ĠGew alt
ĠOp ern
ĠBook s
ĠNetz werk
dire ktor
e v
in ed
he il
Ġc overs
os low
sen de
Ġ18 50
ond eren
Ġra p
Ġaff ect
ĠBronz emed
H ere
ĠM ake
Ġc ategory
ist ant
Ġge plan
qu est
Ġzw eiter
ĠAm sterdam
Ġange gebenen
ĠBereich en
Ġatt ach
Ġincre ased
J ust
u tely
le m
de gang
ĠK im
ab s
qu is
ĠAr ro
ĠKr ist
Ġstate ment
ĠAustral ian
ĠjÃ¼n ger
c en
ĠB em
ĠM Ã¤r
st one
Ġer fahren
Ġmit einander
Ġunter halb
reg isseur
ĠHaus es
Ġland wirtschaft
Ġexpl ore
i ang
k ow
k arten
ĠS onne
ĠR on
Ġver geben
Ġj ournal
gra de
ĠKo ordin
Ġlov ely
Ġstat us
ĠFrie den
ĠParte ien
ĠB ert
ĠM ang
ath on
Ġapp l
cy cl
ĠSchn ell
ĠMatth ias
T our
d is
Ã¶ der
Ġre asons
ĠTra um
Ġtr ust
Ġstra tegy
Ġexc ited
ĠGener ation
Ġchallen ges
O W
al b
al i
al is
us se
ĠN ah
ĠAuf nahmen
Olymp iateilnehmer
im en
Ġbis lang
lo ok
ĠCount ry
Ġbig gest
Frank reich
ĠDetail s
ĠJ ed
ce an
Ġhelp ed
Ġhim self
Ġin tern
ĠE conom
ĠZ y
Ġr ank
Ġcon ference
rat en
ĠEnt wurf
eins am
Ġlate in
ĠTÃ¼rk ei
w ise
ass au
Ġ18 48
Ġcom ments
ĠBr es
Ġcommun ication
gor ith
sw ald
Ġnor weg
Ã¼ p
ĠD rag
id ung
ĠSp ielt
ied elt
Ġinvest ig
Ġachie ve
f alt
ĠB at
Ġr ules
me er
Ġent steht
Ġunter sch
Ġmult i
ĠElekt ro
ĠPublik um
Ġdig it
G esch
p ool
Ħ ¢
ch ern
Ġw issen
Ġm aÃŁ
ĠE ind
ĠV ari
os ing
Ġge plant
och ia
ĠAr z
Ġfre ien
Ġstor es
ĠEigen schaften
Ġpoln ischen
V ol
k Ã¶rper
Ġa wesome
ĠA L
il de
ĠE ugen
Ġer zeugt
id el
ate ver
Ã¤nd ige
ĠOr den
dem okrat
eben e
Ġverb ess
ĠKÃ¶nig in
Ġass ign
antas y
Ġtats Ã¤chlich
achus etts
r ical
w ich
Ġs ing
Ġw achsen
ĠS yr
ber eitung
ĠV ideos
Ġan schlieÃŁ
ĠLe o
Ġgest altet
Ġkathol ischen
Ġaltern ative
Ġwebs ites
l ife
Ġb la
ĠT aschen
ĠG allery
um ann
ach ung
ies s
Ġexp lain
Re chts
setz te
Ġeven ing
kur renz
Ġfab ric
C ol
M B
k Ã¼nd
m ess
t own
it ag
ich ert
eb urg
Ġ5 9
let te
ĠGesch ichts
Ġ189 2
Ġ !
Ġw ire
re in
ein heit
el ess
ĠD ist
ĠG le
Ã¼r zt
if ying
Ġunter r
Ġbes aÃŁ
Ġ188 5
Ġstr ug
Ġir gend
Ġwissenschaft lichen
ĠDipl omat
Ġsoc iety
Ġadvant age
K irche
T H
ĠE sp
th a
men d
ste igen
ĠAr ray
ĠFre unde
Ġgu ests
Ġexc iting
Ġcop y
ĠAutom obil
Ġneigh bor
B et
Î ±
Ð »
Ġin g
st ock
ĠK Ã¶r
Ã¤r ke
ĠEn glisch
gangen heit
ettbe wer
c u
Ġk new
ĠSt urm
Ġre icht
Ġis land
we ist
ĠGr enzen
Ġ15 00
unter richt
ĠTo ten
ĠEdu ard
it arr
ĠM Ã¶n
ĠC lin
Ġj em
Ġex ter
Ġex erc
Ġcan cer
ĠAm ateur
ins on
Ġviel leicht
ĠArm y
ĠColumb ia
akadem ie
n ing
Ġs agt
Ġz er
schaf fen
ĠEnt fern
Ġsm ooth
ĠGraf schaft
g ot
ĠVer antwort
Ġsch ied
Ã¤hr ung
ĠCon ference
Ġaufge fÃ¼hrt
Ġruss ische
Ġwissenschaft liche
ĠBarcel ona
U r
c ient
Ġf ill
ĠB alt
Ġv en
fÃ¼hr en
199 1
ĠÂ ·
Ġav oid
ĠGrÃ¼nd ungs
Ġclean ing
Ġf allen
ut ch
ĠW atch
ĠL ov
Ġde partment
ild es
ĠGer icht
uz z
Ġverschieden er
ĠgrÃ¶ÃŁ er
Ġdre am
Hand lung
ĠOh io
ĠKÃ¼n ste
P C
f ue
k Ã¼rz
w ater
an ie
ĠM ak
ut ing
ĠW urz
ĠN ag
ĠAb t
An t
esent lichen
ĠEpis oden
M art
W el
k at
m otor
ĠD og
Ġp air
am i
im er
Ġg ather
In stitut
zeit schrift
St re
Ġteil s
ĠAlt ar
ĠTw itter
Ġerinn ert
M useum
j an
Ġl ights
Ġsp Ã¤ten
In ternational
ĠBÃ¼ hnen
Ġsen ior
ĠAktiv itÃ¤ten
F ried
ĠP ir
Ġc it
ĠF un
Ġal though
qu enz
her ren
Ġsc ene
Ġfo otball
sche f
ĠursprÃ¼n glichen
Ġvo ice
ĠK y
isch Ã¶
ĠSt ory
ĠEr ste
ĠBe am
wer ten
Ġhel fen
aj a
rÃ¤n kt
Ġmaint ain
F rom
F alls
P aul
ĠH ospital
and e
Ġbe zeichnete
ĠV ie
ĠAus einanders
ĠIm p
Ġ189 4
Ġklein ere
Ġwa iting
k la
ie fen
ĠB os
Ġab gel
ĠBe handlung
ĠSte ve
ĠOff ic
ĠMark e
ĠCas ino
Ġclick ing
c an
un ted
Ġf ish
ĠT enn
ĠLe hre
fÃ¤h igkeit
J ahre
or ient
Ġf lieÃŁt
ĠP M
ĠT rieb
ĠC ond
ann en
ll en
Ġte acher
An merkungen
ĠQu adrat
Ġstark e
ĠAnton io
Ġcharac ters
ĠÃ¤lter en
M ilitÃ¤r
l Ã¤nge
ĠS ince
ĠJ ord
reich er
olog isch
geord nete
ĠGef angen
k ultur
us sen
ack er
ĠLand schaft
Ã¤m lich
ĠKranken haus
st Ã¤d
ĠF ore
ber eit
Ġe arlier
ad ing
ver zeichnis
out s
ĠInternational e
Ġstark en
ĠSec urity
ĠMathemat ik
Ġol der
ĠPenn sylvania
Ġappropr iate
R el
d h
h ai
u ern
â Ħ¢
ed ikt
Ġro of
ĠKl im
ĠTod ay
Ġexperien ces
L in
b n
is her
ĠF Ã¤llen
ĠH um
af ft
Ġent schied
Ġber ichtet
Ph il
Ġmein er
Ġlim it
ĠInstit ution
---- ----
ver eins
iel le
ĠBer icht
ĠMann schafts
Ġbetrach tet
B ere
T ube
l le
Ã¶ tet
ĠSt ift
Ġst Ã¤dt
ac ter
Ġen able
stell ig
ĠKommun al
Ġupd ated
ĠPlat ten
ĠBist um
S PD
ĠVer letz
ĠAn lagen
Ġ18 60
tet t
zeich nen
get reten
ĠSer ien
Ġvisit ors
Ġengl ischer
ĠJer usalem
Ġerstre ckt
P l
c onstants
r ight
w ing
Ġc atch
ĠR io
Ġer lang
la ted
ver teid
aus end
Ġcom bin
Ġvor bei
Ġsh ip
Ġ188 9
Ġ187 5
Ġaktu ell
ĠSchriftsteller in
ĠSebast ian
R Ã¶misch
f al
u ellen
Ġn Ã¶t
ĠK alk
ent ur
ĠL Ã¶s
sp ir
od a
Ġman ager
ĠMar ien
Ġho her
ĠTer rit
Wh ile
Ġdist ance
Ġsepar ate
ĠB Ã¼r
ĠT ats
ĠR Ã¶m
Ġun its
ip end
Ã¤r ung
Ġen glisch
ĠFl Ã¼cht
Ġsur pr
Ġtrans form
ennt nisse
ĠNet work
ĠSonn tag
Digital isat
D DR
m aschine
Ġt ag
ĠL uther
id den
oc al
inn es
Ġbeg innen
Ġsc en
Ġelekt ron
ĠDipl om
H Ã¶r
g ow
us en
rÃ¼ cke
Ġsh ipping
mit glieder
Ġf uhr
ĠB our
ĠM ut
ĠM ix
Ġc art
ĠF ull
ĠH Ã¼
ĠH aar
eb all
Ġde ck
lieÃŁ en
ĠKn ow
ĠBund est
bere cht
t al
Ġb illion
im ir
be am
ĠGo vernment
Ġinc ome
ĠKal ifornien
ĠEing ang
Ġs hel
Ġthe me
ĠG all
Ġg allery
ĠSt ill
ĠEr m
Ġet abl
Th at
Ġ189 3
Ġbeaut y
Ġeinzel ne
Zw ischen
3 00
Ġs ter
ing ham
ra p
ik as
ĠBe aut
ĠAl p
ĠTh ank
ĠWe ge
ĠSh op
Ġpl astic
ĠKont rolle
Ġunterschied lich
Ġpack age
p ot
y mp
Ġa uÃŁen
Ġp ush
ĠP red
Ġinter pret
Ġrec ords
Ġda ughter
199 2
ĠHol lywood
Ġfact ors
ersp ekt
Sep tember
ch o
Ġs elling
or row
sp recher
ĠMar gar
ĠSte phen
ĠMan fred
ĠVerb reitung
hol m
icher ungs
haf ten
ĠBach elor
Ġcompar ed
Ġs amm
un Ã¤chst
ĠNach richt
icher heit
Ġpat ient
Ġant i
c omp
k amp
ĠW en
Ġon to
Ġun er
Ġsh aring
aw n
Ġmon itor
Ġmov ed
Ġallow ed
mitt lung
c z
z esse
ĠP ers
ĠJ enn
Ġk g
Ġsch uf
ĠEin richtungen
inz ip
Ã¤l le
ĠRo ber
EM ail
Ġbedeut end
ĠD atum
ro y
ĠG itar
ĠH av
ĠL ag
gr Ã¶ÃŁe
fol gung
les en
Ġland sc
Ġbirth day
s ichts
Â ¬
Ġin kl
ĠK ul
ĠH ong
ĠL ED
ed ig
ĠMit gliedern
Ġbeen det
ĠMin i
Ġaut om
Ġverkauf te
ĠÅ ł
Ġprepar ed
Ġjapan ischen
ĠFrie dens
! )
ĠU se
if el
geb nis
sk a
bin sel
Ġâ ļŃ
Ġlight ing
Ġtre ffen
ĠFÃ¼hr er
ĠMex iko
I R
u i
ĠK eller
ĠSch laf
gr iffe
ĠEin heiten
geb lich
ĠAuf ent
ĠWe gen
ĠPh ase
ĠGew erk
Ġcour ses
Ġnational en
Ġzust Ã¤ndig
b ury
Ġd rop
le te
ĠB aus
ĠM ans
ĠP os
ĠP ian
ĠZ ul
Ġsp ect
ĠPro pert
Ġange hÃ¶r
Ġdevelop ing
ĠGemein der
ĠEngine ering
Ã¼ h
Ġo st
ind ungs
ĠVer gangenheit
ub il
ester day
Ġdr ug
ĠTo de
stre cken
ĠWar en
ĠTay lor
J apan
in sel
ĠA le
ĠF ord
om er
ĠR umÃ¤n
ĠZ ivil
grÃ¼nd ung
ĠSchn itt
ĠArn old
M P
r asch
u y
an isch
ĠK ob
ĠV inc
Ġal one
ĠSch uhe
Ġzu g
ect or
Ġseit dem
Ġfollow ed
Ġgener ally
J ohn
] ,
g roÃŁ
r ale
w ith
at ische
Ġb ayer
Ġf antastic
ol er
ĠL isten
ĠU t
ĠAl ph
Ġcom bination
app y
ĠDort mund
Ġdist in
ĠLÃ¼ beck
Ges ellschaft
ziehungs weise
N or
b ay
Ã ·
gesch windigkeit
Ġeigen es
ĠMark et
Ġcol our
Ġmov ement
Ġcor ner
Ġteach ers
kap elle
plat ten
htt p
ĠS yd
as ilian
ĠB le
st ar
Ġn Ã¤mlich
ĠC ert
ĠJ im
ert al
Ġat tend
Ġbes onder
ĠAug sburg
ĠĊĠĊ ĠĊĠĊ
Ġerm Ã¶glichen
Ġseek ing
ĠDÃ¤n emark
ĠHekt ar
S er
b rand
h Ã¼ter
y nd
ter m
ĠT ob
ĠRe de
esch oss
ĠThe orie
Ġum fasste
Ġman chmal
ĠLie fer
fÃ¼r st
Ġnotwend ig
u ver
Å Ł
Ġs agen
ĠM P
ĠP as
ĠT i
Ġbe grenz
lie f
ens es
rat ing
ĠBo ot
ĠBes etzung
ĠBundes staat
Ġpass ed
Ġsex ual
mod ell
S he
Ġm ilitary
Ġcon vers
Ġmain tenance
ĠKommun ikation
Ġwind ows
Ġdoc uments
" :
D aten
Ġv ision
ĠK Z
ĠN ar
ass ung
ĠMe chan
iss es
ĠBras ilien
b ody
ĠB io
af e
Ġsch reibt
akt oren
Ġsec ret
ĠLei den
renn fahrer
mÃ¶glichkeit en
Ġcomprehens ive
Ġf le
ic ans
Ġ20 22
Ġsh ot
ĠWe ber
Ġdo ors
Ġ8 5
ĠRo ute
ograph ic
ĠWil son
ĠMich igan
ĠEd el
Ġtop ic
Ġsex y
Ber eits
Date i
ar ma
ĠC ro
teil te
Ġpr incip
ĠzurÃ¼ck ge
por ts
Ġspe ak
Ġresp ond
ĠBed ingungen
ĠpreuÃŁ ischen
H ome
ĠC ann
Ġver fasste
Ġqu ant
ĠMa ur
Ġfl ow
Ġ188 6
ĠKarls ruhe
meld ung
E W
M at
re me
Ã¤ udes
ĠN iger
ĠVer fassung
Ġbes etzt
ĠGra d
ĠDo ug
ĠWahl kreis
Ġpop ulation
Ġport ugies
Ġpromov iert
p aar
Ġd ance
st il
Ġp ers
ĠF els
ien cy
Ġde als
Ġj o
ack en
Ġbegann en
Ġopen ed
verband es
Ġ ille
ĠBe weg
20 20
ĠMar i
Ġtra ffic
Ġerw orben
ĠCl ick
ĠPolitiker in
ĠGrÃ¼nd er
ĠDenkmal schutz
ĠErfahr ung
Ġgre ater
l Ã¶s
und le
ĠG riechen
ĠV I
Ġlook ed
ĠDem oc
Ġfem ale
g asse
u ters
ra uf
ers te
Ġun ge
ĠVer anstaltung
Ġsp anischen
auf tra
ss on
ĠFl Ã¤chen
ĠZusch auer
or p
Ġw eder
Ġh il
Ġ( ;
Ġpla ced
irt y
ĠMann heim
ĠSk y
Ġoper ation
usÃ¤tz lich
ĠSec ond
ch a
ĠM d
Ġh aven
Ġein s
ĠK el
ĠW ales
Ġer mittelt
Ġdes igner
Ġver urs
for scher
ĠPro jekte
bach er
Ġdire ction
ĠWerk en
ĠFot ograf
Ġklass ischen
Ġmat hemat
Ġadj ust
g reif
k ommand
s ol
ĠK un
Ã¼r en
os law
ĠOn ce
Ġ188 8
Ġcommun ities
Ġsl ight
ĠRost ock
G et
O st
n i
È Ļ
Ġn Ã¤her
we ar
Ġunter scheiden
urop a
ende ten
ĠGar den
Ġsn ow
e ister
ã ĥ
Ġf at
ĠM ord
ĠK ai
ĠE qu
ĠH T
Ġbe ziehungsweise
ĠAn gehÃ¶r
ran che
Ġsp ring
Ġbes onderen
amp s
Ġro b
ĠCo ver
ĠUnivers itÃ¤ten
Ġspiel ten
Te am
ĠViel zahl
ĠGebie ts
Vers ion
Ehemal ige
ĠBronzemed aille
n ab
ĠS ender
Ġbe coming
Ġe ight
iel len
ĠAn trag
Ġsch reiben
Ġen det
lan k
ĠFor ce
ĠPat rick
ĠmÃ¶glich st
Ġdenn och
ĠUntersuch ung
sb ruck
ĠRelig ion
Schwei z
B en
H T
S ein
Ġf ear
ĠM oh
ĠF Ã¤h
ĠI ts
ĠC reek
ĠV Ã¶lker
ĠU RL
ĠSch ott
aut hor
ĠMet rop
ĠHor st
v ater
ĠD C
ĠK amera
Ġdes k
Ġver teid
ĠRo om
ĠInd ivid
ĠHoch zeit
Ġeinz ig
Ġinc or
Ã¤nder te
ĠsÃ¼d Ã¶stlich
ĠIl linois
besch reibung
h art
ĠT rÃ¤ger
ĠG il
est ic
Ġfor ce
Ġse eing
ĠReg ionen
Ġgu est
Ġeinz igen
ĠJu an
198 9
Ġerr ichtete
Ġcover age
ĠÄ Į
ĠBM W
J ose
is tern
it at
Ġt ree
ĠK am
ĠBe at
ĠAl k
Ġget rennt
Er gebnisse
alen der
ĠZwe ck
Ġinde pendent
zuf Ã¼hren
e f
ĠP ur
ĠL ein
ĠN az
Ġe arth
ÃŁ er
ei he
ĠUn fall
Ġres idents
ungsp ro
Ġextens ive
Ġgren zt
i Ã³n
s ite
he w
ĠP ie
ĠP ul
Ã¶ tz
we ight
Ġsch ott
Ġsh ared
Ġdr amat
Ġmed ium
ĠAs ien
schlÃ¤ ge
istol ochia
Ġing red
P at
ĠÃ ł
ĠKon stant
Ġletz ter
Ġschw eren
bahn hof
Ġrem ain
ĠTor onto
ĠSec ret
Ġtest ing
Ġcent re
ĠVerÃ¶ffentlich ungen
Jahrhund erts
B ook
w Ã¤hnung
y ll
nd iss
Ġc ities
Ġle gend
ĠMar burg
fÃ¼hr ungen
jahr es
Ġmoder ne
Ġlar ger
ĠRegen sburg
strahl ung
Ġdeutschsprach igen
ĠHug o
N ow
ĠA ar
ĠM use
Ġer gibt
ver l
Ġte en
fol genden
Ġbr ings
Ġbas iert
ĠEis hockeyspieler
ĠSam uel
Ġfav our
ĠLate in
B I
M en
Ä Ł
ier end
Ġan genommen
Ġver Ã¤ndert
op her
Ġse ctor
Ġvor aus
ĠSie ben
fol gen
Ġpo or
ĠAir port
Ġvert rat
ĠGi ov
ĠFeuer wehr
ĠPrinz ip
Ġattem pt
R C
Z e
a al
o ul
Ġl ab
end ar
Ġzum indest
Ġ7 2
Ġbu ying
ĠGesch le
ĠInter essen
Ġop in
National mannschaft
A pril
M Ã¤rz
U p
o ir
in ary
Ġm Ã¼ndet
Ġun gefÃ¤hr
Ġde te
ĠVer zeichnis
alt y
In sel
K arl
Q L
l ist
Ġin nen
Ġthe oret
Ġein iger
ste ine
ĠSp itz
ia c
ĠEin sch
imm ing
hÃ¤lt nisse
wor th
ĠKÃ¼ sten
ĠBur gen
ĠGÃ¼n ter
h es
al and
ĠM ir
ent lichen
ĠE P
Ġg one
Ġst one
ial e
Ġnot ice
St affel
ingen ieur
Be im
Ġcor porate
ĠErw achsen
ĠInstitut s
adel ph
ĠMik ro
ĠWeihn achts
Ġacadem ic
Ġb on
ĠP seud
ĠH Ã¤
ĠH aupts
ĠW ik
art ig
Ġus w
rat h
Ġber Ã¼cksicht
igt es
ĠGlo cken
c ause
Ġre form
Ġle ather
Ġwicht igen
Ġentwick eln
bie ter
ĠPremier minister
Ġsus p
U L
d ies
Ġa rab
ĠS ul
ĠB om
ĠB ir
em burg
sp ur
ĠCon gress
Ġpriv aten
ape ut
ĠGal ium
ĠMehr heit
Mus iker
Ġnied r
T itel
l Ã¶
as che
Ġc loud
ic ians
ĠC apt
ĠSt ol
ver tre
ĠIn frastruktur
ĠSchw ier
act ions
ĠWelt meisterschaften
Ġrequ ires
ĠBot schafter
ĠbestÃ¤t igt
i ors
w irtschafts
if orm
ĠSch ild
Ġsch affen
yste men
An halt
Ġwel chem
Ġheraus gegeben
Ġdeter mine
ĠVictor ia
bour ne
ã ģ
ĠM ember
ĠG ab
ĠH ess
ober t
Ġ188 7
Ġstar ts
ĠLÃ¶ wen
plat te
Ã ī
ĠA ction
ĠT en
ab ilities
Ã¼n fte
ĠOr ten
The y
Ġ188 4
Ġlaw s
kn own
Ġsozial en
K om
i op
á ¸
Ġf ahren
ĠZ o
Ġdort igen
Ġersch einen
Ġest im
Ġsuit able
Ġreli able
M aler
e en
k ul
n ight
t yp
in u
un ters
Ġm ail
ĠB rad
Ġein deut
ist rÃ¤ger
ĠN ote
ess in
ĠVer eine
ss el
Ġdo ub
Ġtechn ischen
ĠMag n
Ġshow ing
ĠBel gien
ĠFer ien
Ġbal ance
ĠWag ner
ĠCanad ian
h Ã¤ndler
m or
or gt
ĠG reif
Ġfor ms
Ġr ub
Ġum fass
arr iage
ĠNor wegen
ĠFahr t
ĠSchl Ã¼ssel
ĠSouth ern
ĠInform ations
Ġve get
R uss
g han
v ens
Ġt rifft
Ġs ample
Ġb ess
ĠF ur
ist ance
ver dienst
Ġvor gestellt
Ã¤r ten
ĠFre ist
Ġpl enty
ĠzusÃ¤tz liche
Cont ent
Inter ior
r un
Ġb ird
und et
ĠW ord
ĠN avy
Ġsch aff
rÃ¼ st
ĠSe kunden
ĠSc ot
ĠAs ia
Ġbr ight
Ġoper ations
ĠRestaur ant
Ġin stitut
ĠB ier
ĠD ance
ĠG ot
ĠG ouverneur
sch wer
ill en
ĠSp itzen
fahr zeug
Ġval id
ĠMaler ei
Ġcla im
Ġpark ing
Ġerz Ã¤hlt
Ġverpflich tet
ĠtÃ¤ glich
Ġafford able
j u
m ans
Ġm ental
ĠP anzer
sch irm
ĠC S
Ġst yl
iz ona
Ã© l
Ġpost s
Ġinsp ired
Ġverst arb
Ġrestaur ants
Ġaud io
a ver
g entlich
p ommern
in us
ĠT rom
ĠW Ã¼r
Ġart icles
ĠWei ÃŁen
ĠMy th
ĠViet nam
E A
a wa
ie ht
Ġg Ã¼lt
ab geordneter
kt op
Ġr at
Ġr umÃ¤n
ap os
ĠAn wesen
ĠAus zeichnung
Ã¼t ten
Sp e
Ġcap acity
deck ung
Ġverhinder n
Ġnov el
H inter
Ġt on
ĠS ed
ĠT ake
Ġfor eign
Ġaus reich
ĠAn gabe
ip pen
Ġra in
ĠDon au
ĠGed enk
ĠGed anken
Ġtre ten
verkehr s
E B
Ġt aste
Ġcon temporary
Pro zent
Ġeinge tragen
ĠEng agement
ĠBern stein
unds Ã¤tz
Ġhoch wert
ĠAre a
ĠGesund heits
BevÃ¶lker ungs
ĠJos Ã©
ĠKup fer
ĠH Ã¼gel
stell te
Ġeff orts
ĠGu ide
Ġbr asilian
Ġgemeins ame
abin ett
ĠInn sbruck
ĠÃ¤lt esten
F amilie
h as
Ġs ister
Ġge grÃ¼ndete
Ġse a
gel t
Ġsh ap
Ġdar aus
Ġges ellschaft
ĠBo y
setz er
ĠPort al
Ġeconom y
ĠMex ico
ĠArro ndiss
g s
Ã ¦
Ġf la
ĠB alk
Ġc ore
ber icht
Ã¶ ten
Ã¤r m
ĠHo tels
ex p
Ġitalien ische
Ġvol unte
Ġprof ile
Ġcompon ents
T er
c ore
o es
Ġw inning
Ġein geb
ĠIn itiative
sp rÃ¤sident
od ox
hl on
ĠKÃ¼ che
ĠBrun o
ĠÃĦgyp ten
Ġexerc ise
P e
d rÃ¼ck
Ġw under
Ġl iber
Ġk o
ant on
lo aded
Ġknow s
Ġbo ught
ĠWh y
Ġreal ity
ĠmÃ¶glich erweise
Ġautomat isch
ĠSchlag zeug
ĠItal ian
Ġv s
Ġp ull
Ġn am
am o
ĠK ost
Ġden k
ot ic
ĠAm b
Ġres ume
Ġper haps
ĠGrund lagen
Ġrem ove
Film schauspieler
Ġverst orben
Ġoffiziel len
Ġdet ailed
Ġexpert ise
L A
P al
k op
o ben
v y
z ens
Ġb urn
ĠG att
ĠK ohl
Ġl i
Ġwir kt
ĠLe ute
ĠBer nd
Ġ6 6
acht ung
bo den
Ġverb indet
ĠBestand teil
Ġbus y
ĠEns emble
M ai
Ġs Ã¤mt
ĠL yr
ĠN ation
Ġzu k
ĠAn aly
ĠAb geordneter
ĠPf ad
Ġverb rachte
ĠRes erv
Te il
Ġgele gentlich
ĠInn ov
Ġfa ith
Gen eral
ĠunabhÃ¤ng ig
m ack
re h
Ġn ennen
ĠR av
Ġre ference
hen den
pen den
ĠKais ers
ĠmÃ¶ch ten
ĠjÃ¼n g
Ġindustr ial
} ,
Ġa gency
Ġin tegra
et on
Ġg ain
ĠAus stattung
ĠMar s
Ġ9 5
ĠKl ima
Ġag ree
ĠX X
ĠPer formance
Dies er
wirk ung
fÃ¶rder ung
M ag
v ia
te am
ĠE M
Ġl ose
est and
Ġtra ding
Ġbet roffen
bau te
Ġact ual
Ġbesch Ã¤d
ĠRes erve
ĠOff en
ĠWahl en
Ph one
Ġsour ces
ĠerÃ¶ff nete
ig s
Ġein schlieÃŁlich
Ġqu otes
unkt ions
rol og
ĠYou Tube
trag ung
ĠPort rÃ¤t
Ġpres ident
ĠPhys ik
ĠBul gar
Ġsqu are
Ġm ut
ĠM iddle
ĠL or
ĠCh ief
ĠWelt meister
werk en
Ġletz t
ĠMark en
Ã¨ s
Ġjapan ischer
ĠBuchst aben
T od
b on
i y
Ġn ennt
Ġst ick
sp iegel
ak u
iz ien
Ġpart ies
ĠFre izeit
ĠBra un
ĠBro ad
ĠKÃ¼ ste
Ġadmin istrat
ĠThÃ¼r ingen
BevÃ¶lkerungs entwicklung
N atur
S ee
Â ´
ur ies
ĠB rie
ÃŁ ig
ly n
ĠAn im
Ġ188 2
ĠIhre m
Ġmanufact uring
Ġver n
ib l
ĠFre ien
Ġinst ant
Ġkeep ing
Ġdefin iert
ĠAlb recht
ĠQue en
Ġapprox imately
adelph ia
Ġd okument
Ġs inn
ro ph
Ġer l
ĠGe fahr
pr int
Ġper man
ĠOb last
Ġopt ional
Ġadd ing
Ġbelie bt
Ġbra in
Ġgeboren e
ĠverfÃ¼g bar
A ss
p ost
ar ks
at ischen
ĠF our
uf er
ak on
ĠRe f
ret ch
Ġev idence
ĠNS DAP
ĠKrim inal
c ar
z in
el be
ĠM ail
os ite
Ġr u
ĠAn spruch
ĠAr men
Ġfe aturing
Ġworld wide
Ġvis ual
Ġ186 6
Ġoper ating
Ġnational e
ĠSchiff s
F ol
f un
Â ³
ĠAl ters
ma ÃŁen
ĠspÃ¤ter e
med izin
wor fen
ĠKÃ¶l ner
ĠOper ation
Ġneg ative
Ġhappen ed
ĠEnts tehung
Nov ember
H S
Ġb itte
ĠR he
Ġl auf
ot ograf
Ġver anst
av or
ip edia
Ġgel b
Ġprocess ing
ĠCor poration
Ġbisher igen
ĠNachw uchs
P lease
u j
re ht
Ã¤ s
ol ph
ĠE arth
Ġl esen
ĠIn halte
erk ennung
ret ung
Ġgew Ã¤hr
ĠNational mannschaft
ĠJuni or
Ġenjoy ed
ĠAmts zeit
ĠSing ap
ĠPac ific
Ġc ir
Ġr ide
ĠBe hÃ¶rden
Ġqu arter
Ġprocess es
ĠKirchen gemeinde
Ġfac ility
Ġcommit ted
B as
O K
p asst
Î ¹
Ġb aute
ĠD ok
Ġz Ã¤hlte
ĠR ett
ĠN un
fahr ts
ĠPriv ate
ĠkÃ¶nn ten
ĠFel ix
Ġunbek annt
ĠNomin ierung
d ach
k urr
n g
v ar
st rom
ĠSp irit
... ]
Ġpract ices
Land kreis
Ġrom ant
" )
re es
as ien
ĠL ady
Ġvor wiegend
Ġapp s
Ġtr uth
uck s
Ġ189 1
Ġpol y
Ġexist ieren
Ġhinz uge
ĠGebie te
Ġunivers ity
Erster wÃ¤hnung
r ia
v ollen
Ġ Ã¶rt
ĠL ike
ĠC oll
19 18
fol io
Ġloc ations
ĠNieder lage
go ing
prÃ¤ senz
ĠGal ax
rim in
ĠVen edig
Ġaspect s
ĠG anz
ĠH agen
ĠR al
Ġbe we
ow itsch
th aus
ĠMit ch
alt ar
ĠWe ek
ink en
ĠRo h
Ġgef ert
kauf t
ĠEv a
minister iums
ĠBesch Ã¤ft
bed ingt
ĠPlan ung
Ġmar ried
Ġwalk ing
ĠMein ung
d ar
ĠS W
ĠS oll
ĠS endung
Ġl ibrary
ff e
Ġch anging
ens is
ĠNe ur
Ã¼nd en
ĠGroÃŁ herzog
Ġtechn ologies
ĠJapan ese
Reg iment
ĠSpring er
Ġzuf olge
d itions
Ġf inn
ag on
ĠTh ailand
Ġthere fore
iden z
Ġaut o
n or
as i
ĠE mer
om it
sch ild
ĠJ ungen
ĠSt ore
ĠSt imme
ind ing
rÃ¤ cht
Ġar en
ĠNiederland e
ĠKard inal
ĠUnabhÃ¤ng igkeit
U I
Ġd oll
Ġc e
ĠO R
ow ohl
Ã¤t t
pp ing
auf t
ĠBÃ¼ hne
Ġ187 4
ĠEing abe
Par ameter
ĠpersÃ¶n lichen
Ġzie ht
Ġa im
ig ers
ĠF a
ib e
ĠVor stand
ournal ist
Ġvisit ing
ĠMass achusetts
ĠerhÃ¶ ht
A cc
g reg
o od
ĠD ark
Ġ9 9
St iftung
man agement
Ġgu ess
Ġange zeigt
Ge ografie
ĠBern ard
Ġoffen en
Ġvol ume
ĠSyn chron
innes ota
p ra
er z
Ġt rop
ĠP el
Ġein gew
ĠK redit
um a
Ġan lÃ¤sslich
ĠAus gang
Ġar range
ĠMus ter
ĠVerein igung
Ġcre am
ĠgrÃ¼ nd
Ã ľ
us her
ĠT ho
Ġbe handelt
ot ton
qu er
ip per
ĠEin t
ĠCo ast
Ġfl ight
ĠFr ucht
Ġlo ans
Ġkomp lex
Ġtro cken
ĠVerm Ã¶gen
Ġerforder lich
Ġlux ury
B B
I F
b ein
x x
Ã ª
Ġ </
Ġp urs
Ġn av
hr ten
Ã¶ ck
gen ossen
ob i
Ġstud io
Ġval ues
ij a
Welt meisterschaften
ĠZuf luss
Ġcabin et
R ock
S m
b lock
or ganis
Ġh ook
Ġyo uth
Ġapp e
sw ers
ĠAth let
ĠImm obil
L auf
d atum
Ġs it
iz ens
Ġsh ower
Ġapp lied
Ġoff izielle
ĠBl Ã¤tter
Ġfre ie
ĠEinwohner zahl
Ġelect ronic
Ġnord Ã¶stlich
W ill
Y our
Ġo d
ent wick
ĠE arl
ĠAn alyse
Ġj u
ĠEr ster
ĠÃ¼ber w
ĠLe vel
ĠGesch windigkeit
Ġrep rÃ¤sent
seit ig
Ġabsol utely
E nd
o or
y ne
ĠB R
sch icht
ĠN at
ĠÃ¼ber setzt
cl ub
pf ul
ĠAut hor
ĠGroÃŁ teil
Sie g
Ġspe zial
Ġ186 7
Ġ187 3
Ġmittler en
ĠS zene
ĠK il
ĠW hether
Ġk id
ger Ã¤t
Ġum fassen
ĠAd ler
bra un
fÃ¶rm ig
Komp onist
ĠDiet rich
k es
r ian
in stitut
an ze
ĠD ick
ĠAl ben
ĠEl iz
Ġval u
ĠsÃ¼d westlich
ĠPl Ã¤tze
ĠRegion all
ĠAutor in
z unehmen
ĠS zenen
ĠR un
ĠO ster
Ġsp rechen
ĠÃ¼ber nehmen
lie ger
ĠBr ust
ĠBes ter
ĠPol ice
Ġhier bei
opp elt
ĠX ML
Ġclos ed
ĠDis ziplin
Ġgener ation
ĠAkt ien
ĠErk rank
Ġanim als
f ir
k B
l ik
v et
or ps
le ute
Ġc row
ĠT ony
ĠIn v
qu elle
Ġ18 00
ĠUS S
ĠBes onders
Ġplan ts
ĠfÃ¼nf ten
jÃ¤hr iger
gestell te
Ġzie hen
/ >
F r
P lan
Q ual
v inz
Ġ iron
st ift
og a
ĠÃ¼ber sch
be zeichnung
Ġown ed
ĠAnt wort
ĠSil ver
Ġsw itch
ĠOs nab
Ġengine ering
Ġleader s
A kt
K inder
Z eich
b Ã¼t
n itten
Ï Ħ
ie hen
ĠD al
ĠH Ã¶ch
ĠL iving
ĠAn f
fre und
Ġbein hal
Ġsatis f
O G
g age
k olle
Ġc alls
ĠR auch
Ġre ag
au ert
ĠMin ute
Ġgleich e
For m
ĠHel m
193 8
Ġmass ive
Ġsicht bar
M ont
o ted
Ġm einen
ĠP ic
ĠG a
ĠG uts
ĠSch e
ĠSp recher
ĠBe f
int age
ĠPol icy
ĠDon ald
Ġcontin ues
prÃ¼ fung
ĠTele fon
Ġspeziel l
t te
Ġa ware
an ia
Ġb rief
ĠM aus
ĠM inder
eb ens
ĠIn g
Ġwir ken
iz ierte
gesch Ã¤ft
ĠGemein schaft
ĠGest alt
leb nis
O D
l iteratur
ĠM Ã¼hl
ĠE g
ĠC irc
ĠSch ei
ill o
Ġwor ry
ĠAus zeichnungen
Ġapp ar
Ġ188 3
Ġlearn ed
Ġbestehen den
ĠTab ellen
Ġenvironment al
Ġgelegen e
ĠhÃ¶her en
ĠWeib chen
Ġf arb
Ã¤ fte
Ġh arm
ĠH em
ien ne
Ġr ule
ast rop
Ġum gebaut
ĠAus bau
arb y
ĠGer Ã¤te
sprÃ¼n glich
ĠGleich zeitig
ĠSym bol
re land
Ġge tragen
Ġse at
geb irge
ile y
ĠHe art
lex ikon
Ġcould n
ategor ies
Ġill ustr
ĠendgÃ¼lt ig
H i
m acher
Ġt ask
ĠS yl
Ġc up
ĠG un
ĠW y
ul ations
ĠVer wand
ĠFor mat
ĠPr ix
Ġcont ain
ĠSk ulpt
ĠGott fried
ĠColle ction
ĠPo int
Ġd inner
st ers
ĠC ommer
Ġr ing
ĠVer w
ĠNe use
Ġany where
ĠDav is
jahr en
Ġnord westlich
ĠA z
ĠL av
ĠC os
ap est
Ġbo und
Ġmin ute
ĠOl denburg
ĠDi Ã¶z
hoch schule
Ġbatter y
ĠArrondiss ement
T L
Ġs ucht
ĠH op
Ġbe comes
ul ate
Ġge Ã¤ndert
Ġ18 15
geb ra
ult y
Ġges te
Ġke pt
Ge org
Ġ188 1
Ġ187 6
Ġbuild ings
Ġrun s
n ieder
en hagen
Ġr ental
rat or
ĠBr uch
198 0
Ġfun ctions
ĠRechts anwalt
weis ung
Ġprot est
ĠRena issance
Ġverur teilt
k ov
un nen
ĠL em
ers dorf
Ġex change
ĠDe ck
ĠGra ph
Ġob serv
arch ie
198 7
Ġ187 9
Ġperform ed
ĠRuss ian
ĠCD U
Ġcompet itive
ĠLim ited
ĠCharl otte
. /
R S
d on
Ġc ivil
iv a
lie gt
ĠSe hen
Ġmark ets
ĠMill er
ĠlÃ¤ uft
ĠGef Ã¤ngnis
ĠVarian te
Ġcombin ed
ĠS we
le ar
ĠD ial
sch le
ĠC hen
ĠV it
ĠSch we
ver halten
Ġver boten
ag ers
ges prochen
ph il
ĠIm per
Ġcomp l
amil ton
Ġ8 8
ĠTem plate
ĠursprÃ¼n gliche
Ġzeit genÃ¶ss
Ġwatch ing
ĠOrch estra
C A
W as
in ne
Ġst ir
Ġle aves
auf trag
lass ung
ren ce
ĠUr laub
ĠFo x
Ġoffen bar
Ġeduc ational
Ġmem ory
ommiss ar
ĠKonstant in
K at
W ird
an bul
re pr
st ritten
ic ian
ĠL yn
Ã¶ te
Ġan zu
Ġan imal
Ġauf treten
lin s
Ġex amples
co hol
fin der
Ã¤ch er
ĠEurop as
Ch ar
Ġ186 2
W ien
Ġs at
ĠM Ã©
Ġp m
ach ter
lich em
Ġis lam
ĠAr istolochia
ĠGen e
ĠChrist us
Ġwrit er
ĠAlt stadt
Ġocc asion
best and
ĠCast le
ĠPots dam
c ious
t w
ĠD ig
ro d
ĠP ict
ĠK h
ĠN on
ĠThe ir
uss y
Ġsur vey
Ġlaunch ed
ĠHeer es
Ġregister ed
ĠNeust adt
ĠSyd ney
C up
p her
Ġm Ã¶glichen
sch ung
Ã¼ck en
Ġserv ing
ron en
ĠTra g
ĠNor mal
Ġfr ame
ĠMark us
198 5
Ġpolit isch
Ġchar akter
Ġmanufact urers
Ã¢ teau
bÃ¼rger meister
D ata
r ische
er r
Ġm ale
ent ially
art ier
ĠSp ace
lie fert
ĠkÃ¶n ne
ĠStud ie
ĠFe hl
ĠKr one
Ġengl ische
ĠSilber medaille
Ġfil led
ĠRaj on
Ġf ederal
ĠW arn
ad ow
iz ont
Ġ6 3
ĠUnter richt
Ġgen ug
Ġdel icious
198 8
ĠLebens mittel
Ġtrat en
Ġeinfach en
vier tel
Ġauth ent
Ġfil ter
Ġer b
Ġe gg
Ġaus ger
Ġab gesch
Ġsch rift
gr Ã¤
ond e
ĠSie gen
geb oren
igh ted
olle y
Ġinst alled
US A
ĠCor ps
mÃ¤ÃŁ igen
Ġpract ical
bro chen
ĠprÃ¤sent iert
ĠKit chen
ĠS auer
ĠM obile
aus bildung
ĠFre der
Ġsol chen
Ar beit
ĠDar aufhin
ruct ure
ĠKons erv
emb ly
lad ung
Ġleit et
l ein
n ik
v ideo
el en
us ted
Ġst Ã¤rk
ĠAl though
our i
fen se
Ġgr undsÃ¤tz
Ġbef ind
Ġhal b
ĠSm all
Ġconne cted
Ġinde x
Ġheil igen
Ġf uel
ĠK Ã¶n
ĠSt one
la ce
sen der
Ġco ast
Ġsel ber
ĠRes p
Ġpol ic
Ġ186 8
rech ung
Ġresour ce
Ġjoin ed
Ġestabl ish
ĠÃĦr zte
ĠNikol aus
k Ã¶nig
Ġs ustain
ar ett
ach ing
ĠO ze
ac o
ĠAb stand
ĠIm age
Ġdis app
Ġorganis iert
jj jj
l s
Ġa th
or um
ĠF unk
ĠF Ã¼nf
ier er
ĠAn forderungen
Ġ18 78
ĠAl te
ĠMar g
Ġet hn
ĠDorf es
ĠBrÃ¼ cken
pre uÃŁen
ĠOrganis ationen
C I
M Ã¼n
k w
it age
te en
ĠD ollar
ĠG ord
ber uf
me ter
ĠGe gend
Ã¶ff net
yl on
the ater
ĠMod elle
Ġober halb
ĠMÃ¤nn chen
on om
Ġm ort
ĠB Ã¶r
ĠB enn
ĠD ating
ĠL angen
ĠEr ic
Ã¶r ungen
ho fer
ĠBes onder
Ġhel pful
ĠBar th
ĠPre ise
ĠCont ent
Fernseh film
ĠPass ag
Ġassist ance
m i
ĠB auer
Ġv ote
ĠP R
Ġver gangenen
Ġaus gesch
od ies
15 0
ĠTechn ischen
Ġprom ote
ĠFle isch
Wer degang
Ġstrateg ies
Ġgriech ischen
Jan uar
B ay
g i
Ġa st
ĠB ou
Ġh ieÃŁ
ĠP ad
Ġl in
Ġsp anischer
Ġme ant
ĠDe ad
me te
Ġent lassen
Ġman aged
Ġbo ys
ĠDes halb
ĠPhil adelphia
ĠMittel punkt
athol ic
ĠA sh
ro h
Ġp ersp
ĠT ransp
om on
Ġi Phone
ĠBe fehl
Ġch amp
oh ol
ĠBen edikt
Ġpan el
Ġzentr alen
D ivision
E m
c al
c our
c ase
ĠK ub
ĠC H
Ġl abor
utz ung
Ġakt iven
Ġ187 2
Ġallow ing
omot ive
Ã¤dagog ik
Ġfig ure
Ġlern te
S ome
b ut
ĠA ccess
Ġzu ge
men ge
ĠMÃ¼n chner
ĠAll gemeinen
Ġbesch lossen
ĠSam stag
ĠColor ado
L ink
w ird
am ts
elt a
ĠAnd ers
Ġ0 4
ĠSÃ¼d west
Ġed ge
ĠBi ograph
str umente
197 6
ĠRu hr
ĠMaterial ien
ĠDrehbuch autor
vertre ter
N ode
n s
Ñ ĥ
st at
ĠH yp
ĠH ildes
Ġam b
ĠSp Ã¤t
Ġ6 1
ĠVerb esser
ĠAnt i
198 6
Film titel
Ġconc rete
Ġbrand s
ĠProt est
Ġadvert ising
ĠZent imeter
or ation
re ffen
Ġp ul
em an
um es
ĠC er
and y
Ġan gem
ik ing
men ted
ob jekt
ĠSk i
ĠDes cription
ĠDaten schutz
ifik ations
CD U
ĠChild ren
Ġstellvertreten der
ĠArz ne
d arsteller
Ġ ðŁ
is burg
ie ck
ĠC reat
Ã¶r g
ĠDire kt
ĠMil ch
ĠEth n
Ġincreas ing
b ase
t ario
Ġf unds
Ġc ultural
ĠL okal
ĠSt ab
uch er
ĠSch mer
ĠVor bild
Ġdo ctor
bau en
ĠAs ian
Ġadv ance
ĠTer ror
K Ã¶nig
Ø §
Ġm ist
âĢ ĭ
ĠN R
ĠO S
rÃ¼ ckt
schn itte
ĠKrieg sende
ĠBre mer
ĠHen ri
ĠVerd ienste
Ġpromov ierte
ĠGesprÃ¤ ch
ĠM aschine
st reit
Ġ( ).
ĠF ield
ĠH amm
Ġl abel
ĠV f
ĠV i
Ġge zogen
Ġfor mal
ĠEr Ã¶ffnung
ĠMan chester
Ġspec ies
Ġmin or
193 3
ĠSchwar zen
Ġprem ium
Ġexcl usive
F il
K ap
b org
b indung
f ix
v og
Ġs izes
ĠB ele
ĠW art
ĠL ern
ir ts
ik um
Ġso unds
ph ase
imm ungen
ĠPla ce
met hode
eg as
ĠKauf mann
ĠDokument ar
ĠstÃ¤r ker
c os
i ben
u ben
ĠB ade
ĠM uss
ĠL Ã¤nd
Ġis ol
ĠSch la
ĠSch ne
od ie
iz ist
che ck
Ġqu iet
ĠPr ince
br onn
Ġbek ommt
ĠSk la
ĠGeorg ia
ĠKat alog
Ġcontin ued
Ġrecommen ded
Ġpaint ing
- /
f iel
el em
Ġn a
ĠT onnen
ĠSt unde
ast ik
Ġqu er
ĠGemeinde gebiet
Ġcolle ct
Ġtem plate
ĠStad ion
lieder ung
ĠA x
ĠP ho
Ġg rat
Ġaus fÃ¼hr
ĠVer st
âĢľ -
ans ion
Ġpl ug
Ġbef Ã¶rdert
Ġmen u
ĠSol o
Ġklein eren
ĠCla ud
gÃ¤n glich
hers teller
Ġcaus ed
Ġdunk el
ĠÃĦnder ungen
ĠVerÃ¤nder ungen
ĠBege g
w affe
ĠB ald
ĠM ailand
Ġn annte
ĠR olf
ĠSt aff
ug oslaw
Ġ18 40
ive au
lan ge
Ġwork ers
ĠUm bau
Al t
ĠHand lung
ĠschlieÃŁ t
Ġfocus ed
Ġaud ience
K an
g ert
n ull
Â ½
ĠF ellow
ĠE xt
ĠR ats
Ġj un
Ġcon tra
wer tet
Ġfl u
Ġpo et
Ġerreich ten
ĠKo operation
Ġsil ver
stud ium
ĠMathemat iker
Ġkathol ische
Ġdur fte
Ġlok alen
Ġconven ient
B ox
E very
S il
m iral
an teil
ĠF Ã¼
ic us
ĠC A
ĠSch aden
Ġdem on
Ġj ava
ekt or
Ġsc ale
Ġgeb lieben
Ġtr end
ĠNatur al
Ġele gant
ĠOl iver
verb indung
Ġhon est
Ġprevious ly
F B
ie ten
ĠC ott
Ġk Ã¤mp
ĠMon ument
iqu id
ĠAll en
Ġ186 9
ĠFil men
ĠKompon isten
g Ã¤ng
x id
Ġt ail
ĠI ron
Ġge e
Ġwas te
Ġ6 8
ism ar
ĠLie b
mÃ¤ÃŁ ige
Ġzeit weise
Ġagre ement
Ġmention ed
E nde
Ġd ank
ie u
ĠS K
Ġst rip
ĠZ Ã¼ge
ĠAr k
rit ts
Ġup coming
Ġob vious
Ġexp ensive
arr ier
Ġverw endete
Ã¡ r
ĠSal v
Ġern annte
Ġsug ar
Ġproper ly
> ,
k ind
ch i
Ġd ipl
ĠP s
ĠJ am
ĠSt ich
Ġy esterday
Ġsp ons
ens us
Ġunter gebracht
Ġnot es
ĠFran Ã§ois
ĠkÃ¶n ig
Ġprov ider
formation en
ĠInd iana
licher weise
Mit tel
Ġteil nehmen
ikt or
J o
k al
in yl
Ġf rag
ut y
be hÃ¶rde
Ġunter lag
Ġho tels
stra te
Ġmost ly
ĠVerb indungen
bereich e
Ġwei ÃŁen
Ġdiscuss ion
ĠKath arina
L o
w Ã¼rd
ĠM es
ĠD ich
ĠE ver
ĠC EO
ĠN erv
Ġver haf
ĠIn stall
ges ellschaften
ĠTh or
Ġad ults
ĠAd resse
off s
ĠMag azine
wor ten
ĠNutz er
Ġwes halb
writ er
Ġneighbor hood
t op
an es
re uth
Ġin ternal
ĠM io
ĠH ang
ĠDe finition
Ġum ge
Ġall gemeinen
Ġapp oint
ital ien
Ġmo de
Ġsur f
Ġpriv acy
ĠSen ior
Ġmax imum
Ġhapp ens
fÃ¤ll en
ĠRol and
cycl op
T E
is or
or o
ĠD ynam
st ufe
ol ve
am ew
ĠW ars
um ps
ĠN ationen
ĠJ ens
Ġan fangs
Ã¼r f
ak et
Ġle aving
Ġ9 6
Ġ6 2
Ġra nd
Ġsho es
Ġtechn ische
ÃŃ o
Ġcount y
ĠHit ler
F est
Ġ ice
Ġp latz
Ġh Ã¶ren
Ġdie d
Ġdie t
ĠL izenz
ĠV ul
ik es
ĠSch acht
Ġdem onst
Ġwh atever
rit ter
Ġgu itar
ĠTer r
197 5
ĠhÃ¶ here
Ġleader ship
far be
Ġveh icles
Ġbegleit et
Ġhundred s
verdienst kreuz
O ktober
e ist
e per
k ar
Ä ħ
ic ient
Ã¶ scht
Ġst ain
Ġver tra
auf nahmen
ĠBr ian
ĠUm setzung
gÃ¤n z
ĠTown ship
uert o
ĠErzÃ¤hl ungen
ĠErweiter ung
D atum
R oman
V I
k as
Ġt ickets
or ney
ĠM etz
ĠI wan
ĠZ usÃ¤tzlich
ĠEr richtung
ht ml
ĠKl osters
Ġsc ore
ific ations
opp ed
Ġsub sc
Ġshow ed
ĠKant ons
Ġcla ims
Ġincred ible
endo ktor
ĠSpielt ag
ĠGiov anni
l ach
Ġd anger
ĠS ummer
ĠK av
Ġget Ã¶tet
ĠBr ut
Ġacc ident
Ġexper iment
Ġbestand en
ĠSym ph
: .
o use
p ie
el ing
ĠT u
ĠF ast
ĠH als
isch t
all as
ĠSp eicher
Ġent schieden
20 21
tem peratur
Ġho uses
Ġfamil iar
ĠÃĦ hn
Ġbeh aup
gef angen
ĠAth en
Ġdog s
Ġschl ug
ĠSupp ort
Ġposit iv
ĠPfar rei
j ahre
ĠD un
Ġde ut
Ġra ised
ma jor
Ã¼t ter
Ġhistor ical
haupt stadt
una tely
Disk ografie
Ġd ein
Ġa u
ĠR ied
ĠC ry
ei ro
Ġj ump
ĠJahr gang
ĠDe ath
ĠSe arch
Ġgem ein
ĠOn ly
Ġans Ã¤ss
gesetz ten
__ __
M ain
Ġs orgen
ĠM obil
ol t
ĠE ro
ĠZ iele
ĠBo gen
Ġvers etzt
Or ts
ĠVert ra
ĠIr land
Ġurkund lich
s dorf
ĠS ams
ĠB ah
ĠM atch
ĠD eleg
Ġc utting
ĠF abrik
Ġg rÃ¼n
ab len
Ġst unning
Ġne ck
Ġcon cl
ĠAb st
ĠReich stag
ĠTour ismus
lÃ¤nd ische
ĠBrun nen
ĠSomm ers
B aden
v as
er ei
he ater
ach el
Ġaus gebaut
ĠBe cause
ĠBundes wehr
Ġdec ide
ĠFr iend
Ġtop ics
Ġsign ed
ĠGeschÃ¤fts fÃ¼hrer
Ġleg is
Ġbreit en
Ġinspir ation
D u
M otor
S owjet
z il
Ð ²
ĠI reland
ĠBe h
ungs gebiet
ĠSie ge
ign y
ĠFre itag
ĠAnd rea
ĠReich es
Ġsearch ing
ĠAv ailable
Ġprepar e
ĠNiederland en
ĠIndustr ial
sto ÃŁ
Ġbehav ior
Ġingred ients
B rite
v iel
ĠS A
ĠP ersÃ¶n
ĠG Ã¼
Ġbe ant
ok us
Ġzum eist
lan ze
Ġgen annte
Ġmehr erer
ĠNe ck
pro jekt
Ġkann st
ĠGew erbe
ĠDo ktor
193 9
Ġklein es
ĠEner gy
Ġtot ally
ĠGÃ¼n ther
tl ere
le ide
Ġar m
St ar
ĠChr isten
Ġhin ein
ĠDis c
Ġdat abase
ĠMerk male
Ġabger issen
Ġbenachbar ten
L ou
O l
h ops
s Ã¤tze
Ġ 00
ĠB oth
ĠB ird
ĠM B
sch uld
ĠW itten
Ġan geschlossen
Ġan sonsten
kl ar
bach s
198 3
ĠHerr n
Ġthough ts
Ġvorhanden en
Ġzentr ale
K unst
m os
s ein
Ġm arriage
ĠP erspekt
ĠK linik
ĠL ock
ĠL eder
ĠAn lass
ĠAr izona
ĠVor stands
ĠPar ks
ĠBr idge
gew inn
Ein wohner
Ġ186 5
Ġimport ance
Ġamer ikanische
Ġrespons ibility
Ġd ates
el det
sch ten
sch uhe
Ġbe auftra
Ġsp ending
iz za
Ġunter scheidet
ĠHe x
igh ter
ĠHoch schul
Ġlang sam
Ġ186 4
ĠÃĸsterreich ischen
Ġsmall er
ilome tern
ĠWissenschaft ler
Ġrepla cement
stechn ik
S onst
ĠB am
ĠB ibliothe
ĠR ainer
ĠV ene
Ġj ack
ĠFran ces
Ġgew Ã¼n
ĠOber flÃ¤che
Ġarch Ã¤
ĠpreuÃŁ ischer
ynast ie
D C
T P
n ern
ĠB och
Ġo k
ĠD ampf
Ġbe zieht
Ġe ating
ud ing
ek ing
aw ay
Ġra il
Ġda ÃŁ
ĠVerb ands
orge ous
ham mer
Ġappear ance
Ġdescrib ed
rÃ¼st ung
A uss
w irt
ĠK affe
ĠH ave
et a
ĠR och
and al
ĠSp uren
Ġch ron
gel n
ĠAuf ruf
ĠKl ub
zeug ung
198 4
Ġfilm s
Ġbreak fast
w eiter
ĠT ool
and t
sp art
19 78
Ġnach gewiesen
ĠAus bildungs
Ġges ucht
ĠCl ark
Ġcre ation
Ġverl Ã¤ng
Amer ican
ĠHir sch
Ġlau tet
Ġtemper ature
ĠAutob ahn
Ġzuk Ã¼nft
B M
J uli
P ersÃ¶nlichkeiten
g ard
l alom
t ten
w eiten
re ck
ĠA er
st ate
Ġver ab
ger Ã¤te
rÃ¤ umen
ĠPr ior
Ġgleich er
Ġeigen er
ĠHam mer
Ã¨ res
ĠKol onial
Ġerm or
Ġdeb Ã¼t
ĠArg entin
ĠHoff mann
ĠCru z
Ġuk rain
K lass
r us
Ġp apers
ĠH ad
ĠN am
Ġab hÃ¤ng
Ġwe aring
ual itÃ¤t
ipp s
ĠAmer ika
Ġend lich
yr ight
Ġgl ob
ias ieger
ĠMeer es
Pr iv
ĠZus atz
Ġaccur ate
R ed
c ard
z usch
en ters
ein heiten
ĠP age
ĠP ader
Ġein heit
em y
ĠZ ell
Ġ7 00
ett ing
Sch ule
uck er
Ġpar ent
ĠLeip ziger
ĠBot an
ĠAng st
ĠHig hl
ĠEntfern ung
Fried rich
Ġschaff te
H P
k re
s ing
Ġ ĠĊ
Ġs au
Ġin ne
Ġ( ),
ul ated
Ġle ider
âĢľ ),
ĠLe h
Ġen ded
port al
ĠGrund stÃ¼ck
bes itzer
ĠFranz isk
Ġident ify
Ġgelang te
Ġbestehen de
ĠGebie ten
Ġintrodu ced
Ġkom bin
ĠD E
ĠP av
ust on
Ġman ual
man ischen
ĠBar ock
Ġgood s
ari at
Ġaccess ories
Ġposs ibly
Ġdom ain
Schwei zer
Kurz film
ĠAnh Ã¤nger
j amin
n ischen
Ġd Ã¼n
on line
Ġs umm
ĠD inge
ĠK amm
ik ations
af Ã©
19 14
Ġum s
Ġad apt
Ġac cep
Ġstatt finden
On line
ĠModer ne
umin ium
ĠDÃ¶r fer
ĠErinner ung
ĠLeichtathlet ik
ĠBres lau
M ay
T ro
Ġs um
re iter
ĠG n
ĠC onst
ok es
19 20
Ġdurch aus
unt ing
ock et
Ã¡ s
Ġben annte
198 1
Ġgele gt
Ne u
Ġmajor ity
Ġupd ates
ĠErzÃ¤hl ung
Ġaccomp l
zust and
VerÃ¶ffentlich ungen
Ġepis ode
F irst
p oint
ĠB ein
il ot
Ġk os
ĠAn at
Ġch ain
ĠCh ance
Ġfe e
ĠGes ell
ĠKon zentr
amt es
vers orgung
Ġrem ains
Ġsurround ing
Ġanerk annt
ĠOsnab rÃ¼ck
B ra
Ġm ine
Ġthe ory
ĠF act
ĠH amilton
ic ial
ĠV ent
ot ions
ver lauf
Ġde pos
Ġ3 50
ĠEin en
tern oon
Ġfe es
ĠBl umen
ĠStud ent
fort unately
ĠQual itÃ¤ts
fre ien
herr schaft
ĠGele gen
repr ene
G ymnasium
H C
] .
w inkel
ch ens
an on
he ber
Ġin it
ĠG itarr
ier mark
ste ig
fe uer
ata illon
Ġdec ades
iges etzt
198 2
esse e
gebie ten
gebie ts
figur ation
Ã¤u den
achst um
Ġverhaf tet
D ire
b ur
te ine
ĠD id
ĠD uring
st rÃ¤ger
ver m
ĠSp ekt
19 70
ss ystem
Ġviel fÃ¤lt
Ġerr or
Ġappro ved
Ġgesp eichert
ĠEliz abeth
H ans
I mp
a o
c lass
Î ½
Ġf ly
ĠB ag
ĠG abr
Ġg ay
Ġdes ire
Ġsch eiterte
Ġar ts
ĠMus ical
Ġfre uen
iam i
ommer ziel
Ġnor m
Ġrep e
ifiz ierung
ĠSpr int
ĠDokument ation
Ġpattern s
M ore
ĠP u
ĠH ind
ĠL ith
Ġth row
Ġk irch
Ġst ars
ĠSe en
form at
reis en
Ġpla ys
ĠAnd rÃ©
Re zeption
197 9
Ġtre es
Ġstamm te
iar den
wh at
ĠIst anbul
ĠniederlÃ¤nd ischer
ĠDenn och
B uch
H el
p ap
in ent
ĠG au
ic i
ĠL aus
Ġto ward
ĠV iz
ĠV ide
ĠGr upp
hed rale
Ġter min
fre ie
ĠNorth ern
des ign
Ġzwe ier
Ġbefand en
ĠKommand o
Ġwirtschaft lichen
Ġlic ense
Ehr ungen
k anz
ĠS now
Ġh ast
ĠH at
Ġne ut
auf nahme
ĠzurÃ¼ck gegeben
ĠPf alz
ĠChar ts
fÃ¼ll t
Ġrev olution
v arian
z ing
ĠS ort
Ġc os
Ġc red
ĠK ino
sch iffe
ĠR ou
ĠL orenz
Ġl ernen
ĠN ad
Ġst yles
ĠSch atten
Ġne arby
ru gen
ute te
Ġfe ierte
ĠĊĊ Ġ
Ã¤nger ung
ĠGold medaille
ĠStÃ¼ck e
Ġdamal ige
ĠniederlÃ¤nd ischen
ĠRog er
ĠEreign isse
ĠIntegr ation
Ġerlang te
O V
or ough
Ġw Ã¼n
ĠB ry
Ġc ute
ol ith
ĠW rit
ĠRe isen
etz ungen
ĠUnter schied
Ġ0 1
Ġcho ices
ĠComm on
iller ie
Ġkur zer
Ġsym pt
ĠjÃ¼d ische
ĠMult ic
ĠSom it
F ran
Ġz ul
ĠThe atre
hal f
fe ktur
Ġges prochen
Ġind ic
Ġbo at
ĠInter pret
Ġappear s
ĠEben falls
ĠSar ah
Ġinj ury
ĠEro ber
L ebens
R eich
R ennen
l itz
or ter
ĠD orn
ĠG ymnas
ĠW itt
ĠJ Ã¤ger
ĠV Ã¶gel
Ġzu gelassen
Ġsch lecht
els on
Ġerw eiterte
ĠOff iz
197 3
ĠHistor ic
ĠWinter spiele
ĠBu ilding
Ġsor gt
ĠPfer de
E X
E t
u ine
z ed
Ã ¯
Ġm anner
Ġv illage
ĠM ul
ĠP iet
ĠW end
ĠW ester
and o
Ã¶n t
min a
En g
ĠBil dern
ĠerhÃ¤lt lich
Ġpresen ce
maÃŁ nahmen
ĠMun icip
Ä Ļ
al ters
Ġin tended
ĠN in
Ġk ick
ĠSe a
erv ation
fahr ten
imm y
ĠEurop Ã¤ische
Ġhin ten
Ġsol cher
Ġed itor
ĠHal binsel
Ġhol te
ĠClass ic
ĠB urn
ĠP ont
am ar
Ġver teilt
ĠRe kord
gesch lecht
ĠEx ecutive
bild ungen
ĠFranz osen
Ġimpro vement
verein igung
ĠSied lungs
Ġsozial e
Ġther apy
Ġwid mete
Ġschwed ischen
ĠJew ish
Ġrap id
B re
R I
c or
is is
Ġs ink
Ġs itting
re ens
ĠT auf
ĠH alt
ĠW rest
tra ck
ĠRes te
Ġgreat est
ĠRegierung schef
Welt meister
ordin ate
isc ons
ĠAben teuer
ĠWissen schafts
p unkten
ĠF ed
ber ry
Ã¶ tt
ach se
Ġl unch
Ġfor um
ĠSch all
Ġj ener
Ġse qu
ĠOber Ã¶sterreich
Re ad
ĠPat ri
ĠProfess ional
Ġeinfach e
ĠrÃ¶m ischer
Ġocc up
ĠMem orial
Ãĸsterreich er
ĠWehr macht
ĠKonfl ikt
ĠDrit tel
Ġt ight
ĠB Ã¼nd
ĠD OC
19 30
Ġnach halt
ĠEin stellung
mit ted
Ġlie genden
fahr ens
ĠMeister schaften
ĠHier bei
ĠFer r
ĠGirl s
l isten
r unden
ĠS z
ĠJ r
ĠJ Ã¼d
ĠV egas
gen cies
ab end
ĠU rauf
tell ungs
ĠEn vironment
Ġlie ÃŁen
ĠNieder Ã¶sterreich
Ġcommit ment
Ġdiscover ed
ĠKolle gen
ĠPeters burg
ĠÃľberg ang
T ER
g in
ĠA D
ĠA hm
ĠK rÃ¤
Ġth us
ĠBe ispiele
Ġdies mal
Ġother wise
ĠÃľber w
Re gie
Ġger iet
glieder ung
ĠMor itz
197 4
ĠAuss age
Ġlead s
Ġenter tainment
ĠKrank heit
ĠRumÃ¤n ien
l enz
on te
el ement
Ġp ure
ĠK em
art ikel
ens ed
ĠAuf tritt
ĠNach folge
ĠWe is
ys ik
St at
Ġbel ief
Ġbef re
ĠMill ion
Ġbro ther
Ġkanad ischer
ĠCost a
Ġenh ance
S ervice
W or
a ktionen
Ġd az
ĠB row
st art
ĠP A
Ġc raft
Ġan swers
ab schnitt
ĠMit tler
Ġen co
ĠGem einsam
Ġdar stellt
ĠAd v
amer as
ĠFest ung
Ġbring ing
ĠJac ques
ĠJes u
Ġkont roll
telligen ce
merksam keit
Ġpolic ies
ĠdebÃ¼t ierte
Ġin iti
ĠB BC
Ġc ells
ĠF an
ĠG ent
ic als
ĠL och
Ġzu gehÃ¶r
ĠSp aÃŁ
Ġte a
ĠBr enn
Ġgel angen
Ġerfolg reichen
ĠTyp s
ĠÃ¼b lich
Ġdisk ut
ĠMaxim ilian
E v
y ard
ã Ĥ
ĠS ac
ĠM A
ent liche
ĠR ess
ies e
ĠZ unÃ¤chst
Ġzu gÃ¤nglich
tell ers
ĠCh air
Ġbes ie
Ġcomp let
old ing
ĠKl eine
ĠAll tag
ĠOrt schaften
scheid ung
Ġmanufact urer
ĠFass ung
ĠRÃ¶ mer
ĠProm otion
ĠKandid aten
ĠPlÃ¤ ne
c s
ar ily
as sten
Ġ1 14
ĠM S
ĠM innesota
ĠD ave
ĠH C
Ġan gele
ĠSch icks
se y
ĠOr igin
ĠReg iment
Ġro ut
ĠTr ust
Ġ0 9
ĠCar los
ĠNord amerika
ific ate
ĠSÃ¼d afrika
Ġange ordnet
ament o
Ġgewann en
anc er
Ġbelie b
ĠRegel n
S im
h y
s burger
ro vers
ĠK orea
ĠW Ã¶rter
Ġk inder
Ġex ecutive
ho e
Ġent deck
Ġ6 7
ĠSh ort
Ġag ent
Ġfl owers
ĠMag azin
Ġ187 7
ĠBereich e
197 1
Ġnational sozial
ĠEt appe
J Ã¤hr
O Exception
us hed
ĠR ie
Ġer richten
ĠJ ar
ab ama
Ġst retch
Ġhe ating
Ġwe isen
ĠSe g
igh ten
Ġgew eiht
Ġmy ster
ĠUm feld
Ġprov iders
ĠSpiel film
Ġwould n
ĠBundes verdienstkreuz
Ġmin im
Ġlang er
Ġkomp on
Ġbevor zug
Ġfeature d
ĠSign al
Ġausgew Ã¤hlt
B ek
l och
Ġan g
ik te
Ġauf w
Ġi P
ĠAus fÃ¼hrung
ĠAuf l
ĠAnd ere
ĠTechn ologie
ĠschlieÃŁ en
ĠSieg fried
ĠBud apest
Ġfund ing
Ġautomat ically
Ġemer gency
Fin ale
Ġvac ation
ĠMitch ell
r ischen
ĠS ite
ĠS itze
ĠB uk
ĠM Ã¼hle
ĠT ai
ĠF aust
ĠF ederal
ĠC it
ĠSt ars
est on
ts p
Ġch annel
ian e
ĠKap itel
Ġperfect ly
book s
Ġmeas ures
Ġbem erk
Ġsowjet ischen
ĠEnter tainment
ĠverstÃ¤r kt
ĠLew is
Acc ording
e z
Ġm outh
ĠD S
Ġver letzt
ĠVer g
iz a
Ã¤t zt
me ier
ĠOr th
Ġ5 000
olog ien
ĠSchw anz
ĠPr ice
unk er
De zember
ĠTem p
ĠEmp ire
Ġdeliver ed
Ġspecific ally
ĠRegierungs bezirk
Ġverste hen
Ġrecogn ized
ĠTschech ien
Ġflex ible
ĠKapit Ã¤n
P M
Ġt end
as ks
Ġp ump
Ġh yd
ĠF alle
ĠG ipfel
ĠR ain
ĠâĢ Ļ
Ġj oint
ph ones
amm lungen
Ġgesch ieht
ĠZu cker
Ġevery day
Ġlog o
qual ity
Ġschwed ischer
ĠPrÃ¼ fung
Ġdistrib ution
Ġfertig gestellt
ĠergÃ¤n zt
en ix
Ġh yp
Ġn ine
Ġein gest
ĠI gn
ĠH ope
ĠR ome
ĠL ed
ad i
aus geber
Ġab stra
Ġum stritten
Ã© d
Ġro ten
ĠRo hr
Ġgr undle
ĠSer ge
Ġtyp ically
Ġ186 3
ĠKe vin
Ġmiss ing
wÃ¼r fe
Ġkor re
wechs elt
ĠKonstru ktion
6 00
D is
O per
T C
Ġs a
te le
Ġv ital
ro b
ĠK oll
ĠK ader
ĠH enn
ĠC her
ok o
Ġ6 9
Ġste igen
ĠGes icht
ĠUm fang
Ġdr ivers
Ġcons ist
ĠSal es
ĠGu ard
ĠBel g
Ġwicht iger
forder t
pos es
ĠverfÃ¼ gen
fÃ¶rm igen
ĠTH E
mosph Ã¤re
ĠEber hard
profess or
A ccess
G C
P rÃ¤sident
Ġf ruit
le gte
ĠP az
ver lÃ¤ss
id ays
Ġpro min
ine a
ĠTh ree
ph as
Ġges und
Ġ: )
Ġ185 6
ĠRu der
ĠAnth ony
âĢ¢âĢ¢ âĢ¢âĢ¢
ĠDoug las
G rÃ¼
x y
Ġ icon
Ġb attle
Ġf aster
il den
ĠR E
Ġbe wohn
ĠN est
os c
ĠAn z
ok a
Ġsch Ã¶ne
Ġrec ipe
ĠBl u
Ġmus lim
Ġakt ual
Pro jekt
Ġsur ger
ĠKind heit
ĠFel sen
ĠEben so
Ġtele vision
Ġinstr ument
ĠJord an
iscons in
l t
Ġt at
ein st
ĠB iele
ic z
and em
Ġcon text
rÃ¤ um
our cen
bar er
Ġexp la
let scher
kehr t
reg on
Ġmin imum
Ġ186 1
Ġstre am
Ġhost ing
qual itÃ¤t
ĠAT P
Ġw al
ĠB od
ĠK ugel
ĠV ision
ĠSch aff
ĠAn erkennung
ĠDie go
hn er
Ã¤r n
Ġ0 5
Ġ0 7
Ġdec isions
Ġsign s
197 2
Ġbedeut ende
Ġparticip ate
ĠViertel finale
ĠSpan ish
Ġb at
ĠF ame
ra f
hr ung
ĠL ange
ĠAb stieg
Ã¶l be
Ġgesch Ã¼tzt
ĠHaupt rolle
ager ung
193 4
ĠHa wa
Ġangeb racht
ĠRÃ¤ ume
reu ung
ĠRuh estand
ĠD aily
ĠF ul
Ã¶ ger
19 28
Ġ8 7
ĠSh ang
vers icherung
Ġbr ill
Ġcal cul
Ġkind s
ĠFass ade
B O
B Ã¼
H ar
f rÃ¼
l u
Ġb rown
Ġin vent
ĠR up
ĠC ivil
Ġe hren
hen de
Ġco ck
ĠGem ark
Ġpre gn
Ġmus ical
ĠFahr rad
Ġcar ried
ĠRu he
forder ung
Ġmass age
ĠKategor ien
fÃ¶rm ige
ĠVize prÃ¤sident
kÃ¼rz ung
Tod ay
Ġv ent
Ġv ieler
ol s
our ces
ĠCh rom
ĠAuf merksamkeit
ĠMar co
Ġbes etz
ĠCo oper
inter est
ax oph
Ġgesch lagen
Ġander es
film ung
ĠEis hockey
lad imir
ĠAud io
ĠAltern ative
A lex
G H
K ey
m Ã¼n
Ġm ur
Ġv eter
ĠP ut
ĠT oy
ĠK ohlen
eb au
kt on
ĠAl i
me chan
per iode
ĠFor ts
ĠAd vent
Ġdis p
Ġverw endeten
Deutsch e
ĠGo ethe
ĠDre am
Ġ185 9
ĠNaturschutz gebiet
L isten
p ur
Ġt utor
or able
ĠA venue
ĠG ieÃŁen
ĠL uz
la y
ĠAn gebote
Ġ3 000
Ġsch m
Ġor th
ĠAr me
ĠEin er
be c
Ġres idential
ĠUm gang
spieler in
ucht ung
ĠBet racht
ĠProv inzen
ĠRep rÃ¤sentanten
ĠKap ital
ĠParis er
Ġsupport ing
Ġhard ware
ĠZe aland
Ġsecond s
Ġsuppl ies
beg inn
ĠNahr ungs
ĠGriechen land
Ġslight ly
Hinter grund
ĠImmobil ien
c les
d ung
ie bel
or ges
Ã¼ re
ĠB ene
ĠM alt
ĠD unk
et ime
ĠR acing
ĠR ÃŃo
ver letz
ah a
Ġun gewÃ¶hn
art a
19 40
ĠAus schuss
gesch icht
ĠRes ult
Ġur ban
ĠBen jamin
schein lichkeit
Ġtal ent
H am
J azz
e ber
ĠB auch
Ġv ul
ĠM ind
ĠT unnel
ĠL enn
Ġre aders
ĠZ er
Ã¤t igkeiten
Ġme x
Ġher um
Ġ7 4
off izier
ress en
Ġcl imate
Ġsol ar
Ġcol umn
ĠBi ografie
ĠFel der
Ġarr ived
ĠMom ent
L ook
O p
S uper
z usammen
in th
Ġin folge
ĠR eit
ul iert
Ġdes pite
Ġis rael
ĠVer fassungs
19 42
Ġch airs
ĠZeit schriften
ett i
ĠEx press
Er zeugt
zw ungen
ĠOn tario
apt op
ĠVolks zÃ¤hlung
Ġelect ion
Ġcall ing
ĠIde as
rim inal
Ġadmin istration
Ġdistr ict
Ġbeob achtet
Ġbeeinfl usst
Ġclin ical
R om
S an
S el
in fo
Ġf ellow
ĠB auten
ĠG oth
ĠW under
ĠC ass
iv ia
id met
ĠSp ur
Ġor ange
Pro gramm
Ġtradition ellen
Ġmag azine
ĠHin weise
ĠKop enhagen
ĠKompon enten
ĠlÃ¶ ste
Ġpleas ure
Ġaf ternoon
Mart in
D ur
F ebru
K W
h Ã¤usern
o und
Ġd ick
ĠW inkel
ĠR ele
Ġl ived
ste uer
Ġ18 30
ond a
ĠCh ile
In nen
Ġper fe
ĠEs c
Ġreg istration
ĠEl s
stit ute
ole on
ush ing
He ute
oin ted
Ġworks he
wh ile
ĠExempl are
Kirchen gebÃ¤ude
Ġvalu able
d orfer
f i
ĠS ysteme
al ia
ent ums
ĠL ad
ab a
Ġmit tlere
ĠSch uld
Ġpro spect
old s
old t
Ġ8 4
Ġget roffen
ĠIt aly
ĠÃĦ m
Ġsl ot
ĠLehr stuhl
ĠIll ustr
ĠHei de
D okument
Ġf oll
Ġf lav
Ġm ont
ĠA uÃŁ
ĠB ase
st ances
Ġp utting
ag ram
ang a
Ġad s
ank a
ict ions
ĠKl ang
ĠSpiel klasse
ĠMon uments
Ġsupp orted
ĠWerk statt
Ġstatt f
sport ler
Ob ject
Ġspeziel le
ĠLeg is
J ugend
k ing
m outh
Ġw alls
Ġp or
sp l
19 44
ĠSe ktion
ivers ary
Ġout standing
Ġ7 6
Ã¤ch te
ĠFre md
schie de
Ġhand elte
uk i
mus ter
ĠBed arf
war ded
Ġtrotz dem
ĠMÃ¤nn ern
Ġfung ierte
Ġeingew eiht
S chn
s ub
z es
Ġa id
Ġb auen
Ġg olf
Ġg estorben
ĠC hal
ĠJ oh
Ġk ing
ab ol
Ġsch Ã¼tzen
Ġch arm
ĠAus gaben
rat ic
Ġour selves
ĠTr in
ĠÃľber sicht
ĠLie bes
laub e
stag ram
Ġmein em
ĠSpr ung
ĠPast or
Ġm ent
le c
ĠB uck
ing ers
ĠN C
Ġle hrte
ens burg
ose x
Ġdis count
ĠStra teg
ĠDo zent
Ġmonth ly
Ġgar age
ĠBad minton
ĠPsych ologie
ĠÃ¤lter e
Ġwirtschaft liche
k ol
Ġb Ã¼rger
ĠA cht
ĠB apt
il st
ĠT ol
Ġst abil
ĠVer z
ĠÃ¼ber gebenen
ĠEin kauf
rif tsteller
bo y
ĠfÃ¼hr enden
Ġerw artet
ĠEv ents
ĠFÃ¼hr ungs
ĠFrei herr
Fra uen
i Ã¨re
k ette
Ġ1 15
ĠG ur
im o
ra ham
ĠW Ã¤l
ĠL ob
ĠC ant
ul in
Ġan cient
ĠO berg
Ġge fallen
19 29
ĠMit be
ĠTe uf
Ġwieder holt
Ġra ise
lÃ¤ uter
ĠChrist i
ĠMon ats
Ġeinge gliedert
ĠverÃ¶ffentlich ten
ĠHerr scher
ĠTre ffen
Ġwoll ten
ĠpersÃ¶n lich
ĠEnts p
frast ructure
Ġencour age
Ġp oker
ĠK ore
ut ation
ra gende
Ġk aiser
ĠSch Ã¼l
Ġj oy
ib ilities
ok u
for ce
Ġat ten
ru cken
mal en
ĠMar io
ĠPl ant
ĠIns besondere
Ġbew usst
ĠPosition en
ĠSyn ag
ĠRein hard
Ġfrei will
ĠContin ue
Ġrand om
R ec
n isses
s Ã¤nger
Å Ľ
Ġt arge
ĠS end
Ġf ach
ĠB erk
Ġch ocol
hal ter
ĠMa de
entr um
ron ik
stra fe
ĠHand werk
uc ted
ĠAnt rieb
ament al
stoff en
Ġident ified
ĠErw Ã¤hnung
Ġconf idence
Ġredu ziert
ĠTher apie
Ġinfluen ce
Ġconstant ly
Ġbeinhal tet
U C
V ert
Ġ1 18
ig ration
ĠR ic
ĠC urr
ow itz
Ġr are
sp h
qu ert
Ġsp aces
Ġent worfen
ĠPh arm
ser ien
Ġinter ests
sh ips
app ing
ĠLin den
ĠKn ochen
ĠHow ard
ĠSpe ed
ĠSum me
ĠHÃ¶ch st
G ener
O f
f ers
Ġs ac
or ded
ion ier
ĠR yan
ĠL amp
ier endes
Ġk Ã¼nd
ĠSt aub
ess ed
ver hÃ¤ltnis
ĠVer stÃ¤nd
Ġhe ight
gr Ã¼n
ahl en
Ġ9 00
ĠSo f
pf lanzen
ĠÃľber nahme
ĠÃĸsterreich s
197 7
ES CO
Ġlandsc ape
ĠgrundsÃ¤tz lich
S E
Ã °
ch ar
Ġs la
an gebot
he ben
ĠB ath
Ġp our
Ġto ugh
ver k
ill es
sp latz
ĠAn k
ĠMar x
Ġ9 8
ĠSta ates
Ġho using
Ġakt ive
Ġmach ines
Ġfound ation
ĠAuss tellungen
196 8
deutsch er
ĠHu bert
\\\\\\\\\\\\\\\\\\\\\\\\\\\\\\\\\\\\\\\\\\\\\\\\\\\\\\\\\\\\\\\\\\\\\\\\\\\\\\\\\\\\\\\\\\\\\\\\\\\\\\\\\\\\\\\\\\\\\\\\\\\\\\\\\\\\\\\\\\\\\\\\\\\\\\\\\\\\\\\\\\\\\\\\\\\\\\\\\\\\\\\\\\\\\\\\\\\\\\\\\\\\\\\\\\\\\\\\\\\\\\\\\\\\\\\\\\\\\\\\\\\\\\\\\\\\\\\\\\\\\\\\\\\\\\\\\\\\\\\\\\\\\\\\\\\\\\\\\\\\\\\\\\\\\\\\\\\\\\\\\\\\\\\\\\\\\\\\\\\\\\\\\\\\\\\\\\\\\\\\\\\\\\\\\\\\\\\\\\\\\\\\\\\\\\\\\\\\\\\\\\\\\\\\\\\\\\\\\\\\\\\\\\\\\\\\\\\\\\\\\\\\\\\\\\\\\\\\\\\\\\\\\\\\\\\\\\\\\\\\\\\\\\\\\\\\\\\\\\\\\\\\\\\\\\\\\\\\\\\\\\\\\\\\\\\\\\\\\\\\\\\\\\\\\\\\\\\\\\\\\\\\\\\\\\\\\\\\\\\\\\\\\\\\\\\\\\\\\\\\\\\\\\\\\\\\\\\\\\\\\\\\\\\\\\\\\\\\\\\\\\\\\\\\\\\\\\\\\\\\\\\\\\\\\\\\\\\\\\\\\\\\\\\\\\\\\\\\\\\\\\\\\\\\\\\\\\\\\\\\\\\\\\\\\\\\\\\\\\\\\\\\\\\\\\\\\\\\\\\\\\\\\\\\\\\\\\\\\\\\\\\\\\\\\\\\\\\\\\\\\\\\\\\\\\\\\\\\\\\\\\\\\\\\\\\\\\\\\\\\\\\\\\\\\\\\\\\\\\\\\\\\\\\\\\\\\\\\\\\\\\\\\\\\\\\\\\\\\\\\\\\\\\\\\\\\\\\\\\\\\\\\\\\\\\\\\\\\\\\\\\\\\\\\\\\\\\\\\\\\\\\\\\\\\\\\\\\\\\\\\\\\\\\\\\\\\\\\\\\\\\\\\\\\\\\\\\\\\\\\\\\\ \\\\\\\\\\\\\\\\\\\\\\\\\\\\\\\\\\\\\\\\\\\\\\\\\\\\\\\\\\\\\\\\\\\\\\\\\\\\\\\\\\\\\\\\\\\\\\\\\\\\\\\\\\\\\\\\\\\\\\\\\\\\\\\\\\\\\\\\\\\\\\\\\\\\\\\\\\\\\\\\\\\\\\\\\\\\\\\\\\\\\\\\\\\\\\\\\\\\\\\\\\\\\\\\\\\\\\\\\\\\\\\\\\\\\\\\\\\\\\\\\\\\\\\\\\\\\\\\\\\\\\\\\\\\\\\\\\\\\\\\\\\\\\\\\\\\\\\\\\\\\\\\\\\\\\\\\\\\\\\\\\\\\\\\\\\\\\\\\\\\\\\\\\\\\\\\\\\\\\\\\\\\\\\\\\\\\\\\\\\\\\\\\\\\\\\\\\\\\\\\\\\\\\\\\\\\\\\\\\\\\\\\\\\\\\\\\\\\\\\\\\\\\\\\\\\\\\\\\\\\\\\\\\\\\\\\\\\\\\\\\\\\\\\\\\\\\\\\\\\\\\\\\\\\\\\\\\\\\\\\\\\\\\\\\\\\\\\\\\\\\\\\\\\\\\\\\\\\\\\\\\\\\\\\\\\\\\\\\\\\\\\\\\\\\\\\\\\\\\\\\\\\\\\\\\\\\\\\\\\\\\\\\\\\\\\\\\\\\\\\\\\\\\\\\\\\\\\\\\\\\\\\\\\\\\\\\\\\\\\\\\\\\\\\\\\\\\\\\\\\\\\\\\\\\\\\\\\\\\\\\\\\\\\\\\\\\\\\\\\\\\\\\\\\\\\\\\\\\\\\\\\\\\\\\\\\\\\\\\\\\\\\\\\\\\\\\\\\\\\\\\\\\\\\\\\\\\\\\\\\\\\\\\\\\\\\\\\\\\\\\\\\\\\\\\\\\\\\\\\\\\\\\\\\\\\\\\\\\\\\\\\\\\\\\\\\\\\\\\\\\\\\\\\\\\\\\\\\\\\\\\\\\\\\\\\\\\\\\\\\\\\\\\\\\\\\\\\\\\\\\\\\\\\\\\\\\\\\\\\\\\\\\\\\\\\\\\\\\\\\\\\\\\\\\\\\\\\\\\\\\\\\
Ġforder te
ĠSchlieÃŁ lich
Ġintegra ted
f ranken
h ome
p es
z it
un fts
ĠG az
ĠJ eder
Ġst imm
op Ã¤d
19 60
Ġwe chs
be cken
ition en
Ġwo oden
Ġschw ere
Ġreturn ed
Ġple ased
yth m
Ġstaat lichen
vorsitzen der
b ett
ar isch
Ã¤ sten
ĠE C
Ġk Ã¼
Ġan gel
Ġge druck
tel finale
ial en
ĠVor stellung
ren cy
Ġbet reibt
St a
oh ne
ilit ation
Ġgef Ã¤r
ĠUr ban
Ġhouse hold
ĠStat istik
ĠCla us
Ġill ust
ĠSÃ¤ ulen
Ġconsum ers
) -
K ilometer
a ult
n isch
n ord
w s
z ellen
ol id
am ik
ĠF ile
ĠK elly
ĠE b
ĠSch Ã¤d
ĠAl an
ac c
rich ts
sk ar
Ġpres ents
Ġschwar zen
A uÃŁer
H A
Ġt ests
at isch
Ġv ary
ĠP ixel
ĠF A
Ġth read
Ġdes selben
Ġst il
ĠSch nee
19 26
ĠSo ul
oth ing
ĠTra vel
ĠChrist opher
Ġtechn ique
Ġaktu elles
ĠBrÃ¼ ssel
Ġequ ipped
Ġren ew
ĠberÃ¼cksicht igt
ĠRegionall iga
T it
m ade
ch nen
ĠA cker
ĠB uen
ĠB atter
Ġv ierte
ĠF ans
ĠG uer
ut ung
ra ucht
Ġst arten
Ġauf gel
ele y
pro zess
Ġem otional
res te
ĠBand s
Ġact ions
ĠGo vern
Ġrem ote
ĠUr sprung
anc en
EN T
Ġbege ister
Ġunters ucht
ĠSehen swÃ¼rdigkeiten
A ustr
Ġt om
Ġs in
us ste
sch ritt
ĠW esentlichen
Ġbe ar
ĠJ ag
Ġth ick
Ġver an
iel l
ĠEr furt
gr at
Ã¤n zer
ian ischen
atur en
Ġfest gelegt
ĠGeneral major
war f
ĠLes er
ĠhÃ¶ch st
onstru ction
Ġhold ing
Ġproduz ierte
Ġ1 13
ĠH ass
ĠH Ã¶l
Ġth reat
Ġe ast
ĠZ iegel
Ġr uh
ĠRe zept
lin ed
par ks
los igkeit
Ġbut ter
br id
ĠMo de
ĠVers orgung
Auf grund
Ġ185 7
Ġerk enn
Ġausgest ra
ĠKomment ar
Ġadvent ure
amew ork
ĠPader born
T ime
ar ischer
et enz
ĠL ip
Ġbe at
ei zer
Ġwh om
Ġbei der
Ġvor kommen
ĠLand gemeinde
Ġ7 3
An gabe
ĠMo z
Ġbekannt esten
ĠCom ic
ĠMel bourne
Ġconcern s
ĠmilitÃ¤r ische
Ġremov ed
Ġbrow ser
Ġscient ific
ĠBeteil igung
c ons
Ġ ).
Ġd eine
it as
un sel
Ġf lag
ter t
ĠP le
Ġbe igesetzt
Ġl agen
Ġver arbeitet
ĠIn stanz
Ġr h
Ġ18 49
19 50
19 24
Ġcon v
Ġet h
Ġlie fern
sche e
Ġask ing
Ġfield s
Ġpur poses
Ġak zept
Ġgefert igt
D i
k ons
Ġ( "
Ġk onstru
ĠSt att
ver g
Ġr an
sp reis
ĠVer leihung
och em
land schaft
Ġvor genommen
Ġ8 1
buch autor
ĠBi ographie
ĠGraf ik
RE E
ĠPrÃ¼ f
ĠBesatz ungs
ĠGabr iel
U M
a ire
w ein
Ġf er
Ġp ow
ĠG ert
ĠG ross
ic ts
Ġg orgeous
Ġbe her
19 12
Ġex ec
Ã¶r te
ĠY es
Ġbes uchen
ĠSchw imm
Ġdire kten
Ġ185 4
ĠStraÃŁen bahn
ĠIr ish
Ġguarante e
S al
b undes
u ers
an alyse
ar is
ĠR unden
ĠN ull
Ġ18 45
Ġch ief
ens wert
co in
ĠCo up
Ġ13 0
ced es
ĠMo on
Ġel imin
Ġdire kte
gra fen
Ġcons umer
Ġbre ite
Ġerfolg reiche
deutsch land
ĠKre bs
ĠAc count
ĠEvangel ischen
jen igen
k rank
Ġt ur
Ġw omit
Ġm ac
ĠB eth
ĠK abinett
ra it
ĠH P
ir ms
tel ier
ĠAl f
Ġ16 0
ĠKon kurrenz
Ġger inger
lic ation
Ġgest alten
Me hr
Ġphot ography
ĠTre ffer
Ġleben s
frei heit
ĠKommand eur
ĠHon or
Ġappre ci
ĠPropert y
Ġbegrenz t
C al
l Ã¼ck
le vel
Ġc ake
ĠW ach
ber ge
Ġer geben
Ġal cohol
ĠIn schrift
ag u
ost ol
ult an
Ġgew Ã¶hn
Ġ7 8
ĠPar allel
ĠAd dition
gesch ichten
ĠSpiel s
ĠQu ell
ather ine
Ġca ught
Ġbra ucht
Ġfour th
grenz ung
ĠTrain ings
ĠverlÃ¤ng ert
g ott
Ġ ..
nd orf
Ġf ein
ig ar
ĠP ool
Ġz ogen
ĠW i
ĠW ird
ist ungs
ĠZ eile
Ġdar stellen
ĠGer d
Ġehemal s
Ã¤tz ung
amin ation
ĠunterstÃ¼tz te
wh ich
ĠMarc us
Ġhund ert
Ġfavour ite
M C
W E
Ġd ritt
ĠB arb
ĠD ienste
ĠT s
ut ors
ĠH ed
ĠL ett
Ġbe it
ĠN assau
ĠV as
Ġk rÃ¤ft
Ġre ichen
19 19
Ġat mosph
ure au
gel Ã¤nde
enn zeichnet
du ate
iker in
amen te
ĠUm satz
ble iben
ĠEd in
Ġfest ival
ĠKreis es
the t
Ġgl Ã¼ck
196 5
ĠDire ct
ĠZwe ig
ĠStock holm
ĠAust ausch
Ġeffic iency
Ġemploye e
ĠAtlant a
ĠLux emburg
Ġausgeb ildet
ĠerfÃ¼ll t
Ġinstru ctions
Î¿ Ï
ĠTi rol
? )
D av
K e
R enn
S ince
ĠT ran
ĠBe fore
ĠÃ¼ber zeugen
Ġcon fl
rei hen
Ġpr inted
berg s
Ġ7 1
Ã¤rz t
ĠVerb reit
Ġspe aking
ĠFin ancial
ĠHar vard
ĠErz b
ĠDu ke
Ġimpro ved
aun a
ĠKÃ¼nst lern
V A
Ġa fr
Ġm Ã¤cht
ĠA y
Ã¤ ts
ĠM iami
ig i
ĠF unde
ĠR as
ĠC in
ĠVer handlungen
Ġj en
ong s
Ġher unter
Ġ7 9
ĠGeb Ã¤udes
Ġ12 5
gesch Ã¼tz
stein en
Ġopt imal
Ġ% .
Ġstell ten
Ġged reht
ĠExp edition
ĠabhÃ¤ng ig
Ġsurger y
V om
d ra
o a
t im
ĠB og
ent h
ck te
ĠO m
Ġre covery
ia e
Ã¤t tern
fl Ã¼sse
pf alz
ĠHand ball
Ġbeste hend
Ġmed icine
Ġqual ified
ĠBut ton
Ġiss ued
rÃ¤sent ation
Ġconf irm
ĠInnen stadt
waren ess
ĠBerat ung
ĠTot al
ĠVerantwort ung
' .
E hren
T rans
c iate
Ġd iss
re f
Ġb ike
ĠA ge
le un
Ġle gen
ĠFor est
ĠGer Ã¤t
ĠGrÃ¼ nen
ĠfrÃ¼ here
Ġclass room
Ġmeet ings
Ġeurop Ã¤ische
Ġmess ages
ĠFert ig
frist ig
Ġassess ment
Mich ael
franzÃ¶s isch
Ġuntersch rieb
Ġdenk mal
ĠHildes heim
B rand
P R
j ust
m den
ĠB arn
Ã¤ hne
st yp
Ġein gebaut
Ġk ommerziel
la ut
Ġaus gewiesen
gend es
ĠQu est
ĠMiss ouri
ĠCap ital
Ġcook ing
ĠEigent Ã¼mer
ĠKonzer te
b ing
Ġw et
ĠP ick
ĠO der
Ã¶r dern
ĠDe kan
Ġsc ript
ĠMill iarden
ĠMat rix
Ġhistor iques
iol oge
ĠKur fÃ¼rst
Ġceleb rate
ĠPak istan
ĠChallen ge
M erk
Ġ ==
ĠS ale
Ġg aben
ĠV illage
Ġan gew
ĠZ DF
Ġber u
Ġgel ungen
Ġverb esser
ĠGesch Ã¤ft
ĠBet on
Ġkeep s
ĠBu y
zir ke
ĠKan al
ĠÃĦnder ung
ĠLokomot iven
ĠNeuse eland
V iew
g alerie
m utter
y en
Ġf f
ĠF ont
ĠH inz
ĠL aub
ĠN ich
ĠV irt
ĠSch atz
op en
ang o
ĠUn sere
ru der
me yer
Ġbes ucht
Ġgen e
An fang
zy linder
ĠBrit ain
ĠMad onna
Ġpurch ased
ĠDemokrat ie
ĠeigenstÃ¤nd ige
G A
L ud
y ou
z antin
Ġa ges
Ġt ables
ĠS eminar
Ġin fect
ĠH imm
ĠR ug
ĠJ ubil
ass te
Ġch osen
auf lÃ¶sung
az ar
cc a
ĠMan uel
ĠPol ize
ĠAt om
Ġbil deten
ival ent
Ġerfolg ten
fÃ¤h ig
ĠpersÃ¶n liche
Ġemploy ment
ĠAdmin istration
BÃ¼rger meister
! âĢľ
d ner
v olution
or ium
Ġf unny
ĠB uff
ro it
Ġp oll
ĠR y
Ġr ise
19 22
Ġmehr mals
ĠDeutsch es
ĠUS D
Ġerfol gen
arch itektur
Ġmin i
rue ft
kir ch
Ġcle arly
ĠEv alu
196 9
Ġseem ed
ĠTok io
Ġkauf te
' ,
r ations
u hren
ĠS ei
Ġp fle
ĠF antasy
ĠE N
ĠW ende
Ġk onserv
ak ten
19 46
ĠÃ¼ber liefert
Ġsie gte
amm ad
Ġseit her
Ġpl anned
ĠAnt ike
ĠMill imeter
ĠAss istent
west lichen
ĠTyp e
196 6
190 5
ask et
ĠHigh way
ĠAp othe
Ġhold s
ĠStruktur en
Ġimpress ive
ĠMÃ¤r chen
O s
b art
Ġt ast
ĠS or
ol ine
Ġein erseits
ut a
ĠSt or
ĠSch rÃ¶
ĠAn gelegen
Ġhe aring
Ġ7 7
hel ms
ĠFe ucht
ĠWh ere
ĠWest falen
Ġbro ken
ĠBot schaft
Ġcaus es
tor hÃ¼ter
Ġlif estyle
Ġumfang reiche
Ġmount ain
Ġattach ed
Ġverbess ern
L og
N ummer
k W
in ch
ĠM ethod
Ġp od
ĠP ier
ĠP osten
am an
ĠK inos
and in
Ġl aufen
qu ir
Ġ3 60
ĠDe f
Ġsh ares
Ġ14 0
ĠTr ink
ĠEx c
grÃ¼nd en
Ġorgan ic
196 7
ĠSa al
ĠdÃ¤n ischen
liefer ung
sprÃ¼ che
ĠGord on
P an
U nd
f ig
s Ã¼d
Ġs ang
al ition
ĠR uth
ed ing
ĠEr klÃ¤rung
19 10
19 23
Ã¤n glich
ĠAb b
co uver
ring er
ĠGu y
Ġbef est
stre am
hÃ¶ fe
ĠEmp f
Verein igtes
Gem ein
Ġdest ination
Ġcit izens
Ġdoll ars
T em
Ġs ides
ĠM au
ĠG P
ĠR it
Ġg am
Ġbe er
Ġy ellow
ĠVer y
qu et
19 25
Ġme al
ĠÃ ģ
amm elt
ĠNe ues
Ġ8 6
Ġchar ges
ole an
fried hof
Ġappear ed
ĠdÃ¼r fte
ĠInner en
c ers
p fe
Ġb order
Ġg ern
Ġre ar
Ġst Ã¤ndig
ĠEr gÃ¤nz
ĠBe frei
ac ious
ĠJun ge
Ver walt
rÃ¤s id
Ġger ingen
ĠVerb rauch
Ġ[ ...]
Ġwei ÃŁe
ĠTyp en
Ġmag net
Ġsett ings
ugu ay
ĠWÃ¤r me
ĠUrauf fÃ¼hrung
} .
Ġw inner
Ġw Ã¤hlen
Ġ1 12
sch Ã¼tzen
ĠZ one
ver Ã¶ffentlich
Ġver grÃ¶ÃŁ
op ran
ungs s
Ġgef angen
Ġsur prise
Ġcare fully
193 5
193 6
ĠKe ep
Ġverkauf en
Ġparticip ants
Ġabsol ute
Ġchrist lichen
gesp ielt
ĠBesatz ung
Ġbrow se
Franz ose
ĠTenn essee
D ialog
I E
c us
p an
Ġf ro
ĠM Ã¼ndung
ĠD arsteller
ĠG on
ĠL is
ĠJ ay
Ġsp anische
Ã¼hr t
sk irche
ĠTr ennung
Er n
Ġgel esen
ĠDes igner
Ġpass iert
ĠJugend liche
ĠHerzog tum
ĠNachbar gemeinden
ĠDemokrat ischen
ĠHei z
K ar
k u
w ahr
z lich
Ġt ells
us ten
Ã¼ se
ĠM all
ĠC loud
ĠN an
Ġge Ã¶ffnet
id ad
Ġab gest
Ġ18 18
oc aust
Ġup per
Ġgew idmet
Ġ8 3
man uel
ĠSte ink
bo ot
Ġgel eitet
ĠPe er
ĠInd ones
ĠVol ume
ĠWer be
Ġorder s
ĠAnfang s
zÃ¼ gen
ĠFlor a
Ġpresent ation
ĠBÃ¶ hmen
ĠHin weis
Ġricht ige
ĠbeschÃ¤ft igte
ĠVerteid igungs
Ġfrequ ently
Ġaccep ted
z ut
es ents
ein richtungen
Ġm agn
Ã¤ use
ĠM eld
ĠD afÃ¼r
ĠL uk
ĠZ wer
op ol
ust ic
19 43
ĠWe iler
ĠFor der
hÃ¶r igkeit
Ġserv es
Ġass ets
Ġmach ten
Ġfre edom
193 7
Ġgar ant
ĠPra kt
Ġlik es
ĠAst ronom
Ġpoln ischer
abet es
D oc
P ress
it ate
ĠB itte
ĠF as
ĠH ills
ĠW iesen
ĠTe en
als o
Ġlie be
Ġ8 2
aw are
ĠFre il
Ġra di
Ġtr ends
uc lear
Ġdel la
ĠHar ald
ĠRuss ia
ĠRel ief
Ġfort an
ĠChem iker
Ġcirc um
ĠBiele feld
L P
z ucht
ĠM D
ĠG lass
Ġde cl
od ge
Ġmin imal
Sie ger
Ab sol
193 2
ategor ie
Ġair port
plan ung
Ġturn s
Ġsuccess fully
UN G
Ġregular ly
ĠRail way
Ã¤rt ner
Ġath let
F i
k os
v ements
w id
Ġs ud
Ġs essions
Ġb an
ĠB orn
ĠB ott
ĠR af
ĠC urt
Ġk Ã¼nst
if est
if ff
ei ra
Ġle tt
Ġex t
ĠSe kretÃ¤r
ĠVor name
Ã¤hr en
wer ben
hand els
Ġcomm and
Ġander erseits
ĠverfÃ¼ gte
Ġsuper ior
aun us
Ã¤chs ische
ĠMult i
Ġarg entin
Ġinnov ation
ĠLat in
ĠAsp ekte
ĠPfer d
Ġappre ciate
Ġmittelalter lichen
Ġchocol ate
or chester
re ll
ur l
Ġf Ã¼hl
ĠA uge
Ġp f
ĠK Ã¼hl
Ġan alys
Ġan grenzen
ĠO regon
ow o
Ġwar um
ĠAn sicht
19 00
ĠEn cyclop
ĠHe ck
ime tern
Ġvers uchen
Ġange passt
Ġfre und
Ġpost ing
ĠWar schau
190 7
Ġfac ing
ĠSen at
Ġprote cted
ĠDi agn
ĠCamp us
ĠKing dom
ĠPhys iker
Ġfit ness
ĠmilitÃ¤r ischen
n ur
or ne
ĠS ache
ra ut
ĠW at
Ġj ung
Ġvor ne
ĠMar sch
ĠGr en
Ġpr icing
Ġro ute
ĠKon text
ĠEx istenz
ĠBas il
Ġlo ad
196 3
lÃ¤nd ern
Ġeffect ively
leist ungs
Ġvert rieben
ĠMas ters
Ġdepend ing
zep te
oslow akei
F uÃŁ
F ranzÃ¶s
k lassen
ĠM ale
ĠD oc
ĠG lÃ¤
ĠH ugh
ĠR ent
ul der
Ġunter schieden
ĠNe apel
stand es
ĠWh it
Ar g
ĠBerg bau
hor st
Ġleg s
ĠVerteid igung
gewand elt
ixt ure
Ġreve aled
Ġsubmit ted
Ä Ĺ
Ġw Ã¤chst
te ger
Ġm ature
Ġh all
ĠT iefe
ĠH amp
ĠO ak
Ġaus zu
ĠJahr buch
ite kt
ĠBer ater
ĠGr iff
Ġ9 1
Ġdar um
Ġev olution
Ġfe els
Ġ0 8
ins ichtlich
Ġverb lieben
ĠBet reiber
Ġnun mehr
ĠVolks republik
zy kl
fil me
Ã¼ste t
Ġprakt isch
ĠKult urg
Ġstaat liche
ĠLoc al
Ġcollabor ation
Ġnutz te
A re
F rÃ¼
L ast
P rÃ¼
r ent
ie m
Ġp Content
ĠT an
ĠF ell
ĠN i
ĠO N
Ġre iste
Ġver zeichnet
sp unkt
ok ing
19 41
ĠGeb rauch
Ġac counts
ĠGesch mack
Ġsupp orts
ĠAll gemeine
Ġhistor ic
Ġgest artet
Ġcond ucted
190 1
Ġcert ified
val ue
Ġevangel ische
ĠVerl Ã¤ngerung
Ġattract ive
ĠKent ucky
ĠbeschÃ¤d igt
ĠEdin burgh
I nde
b ian
g io
w ass
ĠS Ã£o
un sten
ĠF usion
ĠG Ã¶t
ĠV il
ul ous
Ġan f
id i
th al
ip er
ant es
Ġus ual
Ġ9 2
Ġper fekt
Ġ10 1
ĠKon stanz
ĠMed icine
ĠHaus halts
mÃ¤ cht
laub nis
Ġ185 8
ĠDu isburg
ĠPlan et
Gr und
;; ;;
ĠDok umente
O h
b Ã¶
k ommun
k ommt
Ġb ist
Ã¤ mm
ĠD sch
ra gt
ĠI OException
ĠR Ã©
Ġauf t
ien te
ĠRe aktion
Ġso fern
Ġsh ops
ĠNe xt
ĠUS B
gl ing
Er stellt
Ġav ail
Ġfound ed
190 4
195 9
Ġaccess ible
gef asst
Ġkommen den
Des ign
Ġofficial s
ĠHoff nung
lah oma
ĠEind ruck
Ġinkl usive
J J
k Ã¼
Ġs ad
al teten
Ġv i
ĠF reis
om ing
ĠR au
ĠJ Ã¼n
ĠIn stagram
Ġvor der
ĠIm pro
own ed
ĠGen f
ĠVert rieb
Ġhistor ique
zentr ums
Ġmain ly
ĠNeu zeit
Ġless ons
lÃ¤uf e
kn Ã¼p
ĠÃ¤hn liche
Ġwichtig ste
omet rie
Ġjapan ische
ĠPop ular
Ġreach ed
eme ister
wir ken
ĠAcc ording
Ġorigin ally
ĠJeff erson
Ġnied rig
ĠAf ghan
ĠPreuÃŁ ischen
Wel come
ĠGitar re
ĠgewÃ¤hr le
P op
T R
Ġt ub
ĠB reis
Ġ1 16
ĠF inger
ĠK orn
ĠW ettbewer
ĠL aden
Ġk onst
Ġhe ft
Ġ18 46
ĠAl ice
ohn t
Ġcomp la
Sch war
ĠOb ama
ĠSc ient
Ġcomm ission
ĠInter ess
ĠDr amat
Ġpos itions
Ã¤mp fung
verb Ã¤nde
ĠVertrag s
Ġcamp us
Ġklass ische
Ġrepr esents
ĠnatÃ¼r lichen
ĠFreund in
Ġmix ed
ĠDir igent
Ġcloth ing
B u
n el
v Ã¶gel
le ten
ĠB B
ĠB enz
ĠM esse
ĠD est
am as
ĠW upp
Ã¶ ner
ach es
Ġfor med
Ġr id
19 13
ĠSe attle
Ã¼ck t
Ġfe hlt
Ġem phas
Ġmin ing
ĠOlymp ische
ĠGeneral leutnant
196 4
Ġkon k
Ġident ity
Ġlov es
Ġwissenschaft licher
ĠAst ron
ĠJahrzehn ten
inu ier
Ġeindeut ig
ĠFreist il
M ost
l ov
le ts
ĠD Ã¼r
ĠD ak
Ġh l
ĠP i
ol in
ĠG or
ĠR eiter
Ġg ifts
Ġbe zÃ¼glich
ĠSt o
Ġge h
Ġver p
og ramm
ĠSp ark
par tei
ium ph
Ġbest immen
Ġdis pla
ĠGesch w
ĠIs lands
Ġeff ekt
How ever
Ġengag ierte
ĠPlÃ¤ nen
ĠSchott land
P ass
W A
W ell
c ustom
u ing
ĠD M
ĠD allas
ĠP okal
ra c
ĠC ome
Ġbe zogen
Ġim pl
Ġun less
ĠVer sch
19 27
Ġex ternal
iste te
Ġbeg ins
ĠEx il
ĠEx tra
Al so
Ġinv ited
ĠPhil ip
ĠLandkreis es
ĠIns urance
gere chnet
figur en
Ġsil ber
ĠRelig ions
ĠRepubl ic
wÃ¤rt igen
ĠWit we
Ġcandid ates
Ġwhe el
Ġopin ion
ĠSchwier igkeiten
E st
R eihe
W ei
i oren
p ear
Ġn ative
ĠE gypt
ĠL ess
ĠIn fe
ap olis
az itÃ¤t
Ġ9 7
Ġ12 00
ĠTra ck
ĠDr ama
leben s
Vor pommern
Ġdivers en
Ġstrateg ic
ĠQue ens
Ġcharge d
Ġerheb lich
================ ================
ĠstÃ¤dt ischen
ĠPersÃ¶n lichkeit
ĠArgentin ien
ĠS M
Ġf asc
ĠB usch
Ã¤ ne
ĠF at
em en
Ġl ayer
Ġvon einander
ier bar
Ġab gele
qu ar
Ã¶r er
ian z
Ġar ray
Ġtra cks
Ġlie fer
Ġgel iefert
Ġstatt dessen
Ġ185 2
ĠAustr ia
ĠSchm uck
ĠZeich nungen
ĠGreif swald
F S
K Ã¼nstler
k Ã¼nstler
t est
Ġs uff
Ġm oral
ĠB lau
ĠB ibel
ĠD B
Ġc um
ĠG allen
ĠSch reiben
Ġwar n
ĠY outh
att an
arb rÃ¼cken
Ġexp os
ĠStud ios
ĠSaison ende
Ġentwick elten
Ġ185 5
Ġcr ime
Ġevent ually
ĠPhot o
Arch itektur
Ġhon or
Ġfix ed
Ġenth us
Ġexhib ition
Ġspirit ual
ĠGlauben s
ĠPow iat
elem ente
ĠPho enix
W ind
Ġ ib
in tend
it als
al in
al itÃ¤t
ĠM ie
ĠP eking
ĠK ansas
ĠN AS
ĠJ Ã¶rg
Ġk Ã¼rz
af eln
ag ert
Ġunter wegs
ĠCh a
ĠSe ele
ĠPr ize
Ġrec ipes
ĠNord west
ipp i
wend ungs
ĠBra uer
Ġherv orge
Ġdeg rees
ĠSaf ety
d ale
m aking
ie ber
el ry
ig or
ĠT hal
am ents
ĠF Ã¤r
ĠL P
ĠL ichten
Ġk illed
au ben
Ġ18 20
ĠBe cker
ĠEin zugs
ens lalom
Ġunter teilt
ite e
ĠEn kel
ĠMar cel
ĠStadt gebiet
net en
eiter ten
ĠLou ise
Ġmom ents
Ġpoln ische
wal de
**** ****
Ġeigent liche
idel ines
Ġletzt lich
O ver
g ast
Ġa chten
Ġt ap
Ġb undes
ur i
as a
ĠB ran
Ġo h
Ġp ink
Ġge he
Ġre venue
ĠRe ferenz
ĠAn bieter
ĠAl les
Ġnot iced
bar ung
Ġtyp ical
ĠUr teil
Ġbra un
Ġelect rical
Ġtre ated
Ġconsider ing
ĠFreund schaft
verteid iger
ĠLÃ¶s ungen
Ġbon us
fir ma
G old
P ark
d ichte
g ro
á ¹
ĠS ingles
ĠM asse
Ġh ire
ĠRe formation
Ġent stamm
ob s
ĠPr int
ĠNe ug
Ġshe et
Nach bar
Ġreal ize
ĠZe hn
ĠKind es
Ġchallen ging
Ġevangel ischen
Ġrepla ce
ĠMatt hew
ĠThr on
Bi ografie
P ost
W M
W eiter
Ġ Ê¿
ur st
ĠJ immy
gen s
Ġle gt
ĠAus wirkungen
olog in
Ġout put
ĠIS O
gress ive
ĠRev ol
omet imes
ĠAust in
ĠProgram me
Ġvirt ual
Wil helm
ĠArzne imit
D am
Ð ´
Ġg g
ann y
kt oren
enn zeichen
ack e
ĠGe fÃ¼hl
ĠArbeit sk
zahl t
Le icht
ĠPart ien
ĠZug riff
Ã§ a
ĠPubl ishing
Ġtrain ed
ĠVerl ust
ĠUN ESCO
Ġsympt oms
j ar
m ir
Ġs alt
at sch
Ġin put
ĠB ret
ĠK Ã¤
ĠI tem
ĠR Ã¼
Ã¶ he
Ġl yr
Ġth orough
ow ing
ĠUn ser
Ġum gesetzt
ĠVor teil
ĠSte el
ĠLin ux
Ġ185 3
Ġbig ger
190 9
Ġlink er
Ġsw imming
ĠPra ct
Met al
Ġcra zy
ĠMount ains
Fl ug
H ello
L iter
U P
U l
f amilien
ĠB ull
Ġo s
ĠM rs
Ġp ed
ĠF ive
ĠW alt
ĠL ust
if th
Ġaus geschlossen
Ġr iver
ran e
Ġwill ing
Ġ8 9
Ġnew sp
ĠMan ufact
Al ben
Ġel ig
Ġinvest igation
ĠHÃ¶he punkt
Ġredu z
ĠKriegs gefangen
Ġbede uten
ĠnatÃ¼r liche
kathol ische
Ġcompar e
Ġintens iv
Ġdetermin ed
ĠSoph ie
ipend ium
ĠAlk ohol
Ġinstitut ions
H il
M any
ie bt
Ġp asst
ĠF I
ĠF L
ĠF ortun
ĠG ul
ĠK ann
ĠH altung
ĠVer leger
âĢĻ ,
ĠÃ¼ber le
ĠLand s
fe ier
ĠChr ys
Un garn
ĠAt las
ĠEhe mann
Ġenter tain
ĠĠĠĠĠĠĠĠ ĠĠĠĠ
Ġgraph ics
spar tei
Ġabgeb rochen
ĠmaÃŁ geblich
Ġunterr ichtete
ĠShang hai
F Ã¼gt
T or
w affen
Ġa men
is st
Ġs itzen
Ġb ond
le ans
ĠB ucht
ĠM ort
ĠP ath
eit h
ud a
Ġsch Ã¶nen
Ġ18 14
ler in
nen nung
Ġqu ote
Ġmy th
Ġber ichtete
ĠSte iermark
Ġbesch loss
Ġgu ter
196 2
Ġgrow n
ĠGed icht
Ġaff ected
Ġdeb ut
maler ei
Ġmat ters
Ġarchite cture
Ġgraph ic
Ġmensch lichen
irurg ie
ĠsÃ¤mt liche
Ġermor det
b ringen
h um
k orea
y k
in cl
on isten
or er
ĠS ain
st urm
Ġc able
ĠT ieren
ĠH arb
et ch
Ġk Ã¶rper
ers en
ĠU we
id ance
Ġaus gestellt
ip t
se a
19 47
Ġme at
Ġum gewandelt
uld a
ele kt
Ġgen et
Ã¶l z
ina e
Ġbek leide
ĠEm ail
ĠMotor rad
ĠLu is
ÅĤ aw
Ġdep th
Ġgradu ate
ĠIntern ets
I st
V ier
v org
it Ã©
ĠS amen
Ġb ab
Ġm Ã¶gliche
Ġder selben
ge h
ĠB ien
Ġn utzt
ic um
ĠC R
iv itÃ¤t
Ġaus drÃ¼ck
qu ellen
Ġ18 16
lo gen
ĠFl Ã¼ss
ĠÃľber blick
Ġtr ial
Ġstand ing
ĠPat ent
ĠBed Ã¼rf
ĠErn est
ĠJust ice
onen te
Ġfeed back
Ġschwar ze
D own
W asser
a a
u ages
Ġin ch
as ted
ĠA ur
ĠD ass
Ġp ill
ĠP uerto
ĠG Ã¶r
ent schieden
em m
ed el
ĠJ etzt
ĠV eter
ĠSt ief
ĠSch enk
ard in
Ġ18 13
lie gende
Ġent reprene
Ġman chen
iss a
ĠUnivers al
pro fit
ĠSte ine
ĠStra hl
akes pear
ĠRad rennfahrer
Ġinner en
Ġoper ate
ĠAlbum s
ĠMinister ium
Ġmeisten s
Her r
bas is
ĠReihen folge
Ġausreich end
A tt
F ach
Ġa gencies
ĠK Ã¼r
ĠW ellen
ĠC ab
ver leihung
Ġso fa
ĠÃ¼ber s
Ġ0 2
ĠSpiel ern
ĠZw eite
Ġter rit
Ġdisc ip
ĠAuss agen
Ad d
ĠZe ilen
ES T
Ġbar o
ĠFlor ian
Ġbene f
ĠÃ¼bern immt
Histor ische
in cess
it able
Ġin stitution
Ġv ast
ig ger
ĠK ie
ĠW Ã¼n
ĠL iver
ĠO K
ab schluss
Ġr is
ong o
ĠTr io
ellen ce
ĠReich en
Sp eichert
195 2
ĠKaiser reich
ĠPrem iere
ĠPil ot
kr ise
ĠKob lenz
ĠGelegen heit
r isch
Ġd ust
Ġm useum
Ġm Ã¼s
ĠB ibli
ĠT ank
ĠK us
ĠK ids
ĠI M
ĠJ ury
Ġfor ces
Ġauf zu
ere cht
ag an
ĠSp alte
ĠÃ¼ber all
ĠAr ena
Ġex cess
Ġex pression
Ġunter stellt
St ation
inn ers
ĠCo hen
pro ble
Ġpla te
ĠGra ben
ĠzurÃ¼ck kehr
ĠFre ude
ĠStud ents
ograf ische
196 1
ĠKat hedrale
Ġfact ory
Ġele v
Ġenjoy ing
kathol ischen
Ġdom estic
Ġmil k
Ġfoll ows
I B
c in
on o
or ders
ĠA kten
Ã¤ ck
ig o
de cke
ĠK ond
ĠK han
ĠJ en
la p
ĠAn bau
Ġso ul
ĠAl abama
19 49
ia de
Ġvor be
ĠSe gel
ĠMar ok
ĠNe uer
ograph ischen
Ge gen
193 1
Auf gelÃ¶st
ĠQual ity
ĠAir es
195 3
ĠSa tell
Ġfood s
Ġmir ror
Ġoffen e
zus etzen
Ġspeziel len
Ġbem Ã¼
Ġcabin ets
Ġengag iert
Ġta ught
. ;
1 10
S Ã¤nger
f are
Ġa w
Ġa kadem
ĠM Ã¼hlen
Ġp reis
Ġh Ã¤ngt
Ġein ger
ĠG ol
sch les
ĠV ic
Ġver folgt
ĠIn se
ĠVer arbeitung
ens atz
ĠAb raham
ĠMar sh
olit an
ĠHo uston
ron ics
Ġ0 3
org ungs
ĠZw angs
ĠMen gen
stein er
ĠMed iziner
schl Ã¼sse
ĠAt mosphÃ¤re
ĠKont akte
Ġverm eiden
190 2
Ã¸ r
Ġintrodu ction
ĠPublik ationen
komp lex
abil itÃ¤t
ĠDub lin
Ġphotograph s
ĠGreg or
ĠInstitution en
p ed
t Ã¤
z o
Ġa gr
at ien
ur ist
Ġin frastructure
ĠB ond
il deten
ĠF ein
ĠH eld
and el
eit ern
ĠV II
ĠO bst
ĠEr hebung
ok oll
ĠBer gen
ĠAus gra
ĠEn joy
ogra pher
hol en
Ġbre ath
Ġsign al
Ġaufge teilt
Ġpay ing
Ġprogram me
ĠPrÃ¤ fektur
ĠKrit iker
Ġextre me
pass te
Ã¶p fe
ĠEff ekt
ĠFranzÃ¶s isch
ĠEas tern
Ġpersp ective
N C
R h
v it
Ġs org
Ġf ell
Ã¼ ch
Ã¼ pf
ĠK ok
ĠW isconsin
ten nis
ber eitet
ĠN elson
ers e
os om
ĠU d
Ġfor ec
Ġ18 32
ick y
Ġco ordin
ĠSchw estern
Ġnoch mals
sk op
min der
ĠZw eiter
Ġhier fÃ¼r
ĠMal ays
get rieben
ĠSÃ¼d ost
Ġstand s
Ġfl ash
ĠPer u
Ġsk ill
ĠHil f
195 4
Ġ180 3
ĠTest ament
Ġbedroom s
Ġult imate
ĠnÃ¶t ig
? âĢĿ
V ID
h Ã¶ch
m Ã¶glich
Ġt all
ĠS ix
Ġc ro
ĠL und
ĠL isa
Ġk ennt
Ġdem okrat
Ġ18 37
Ġall eine
ĠBer ichte
18 18
Ġ9 3
Ġlie ben
br unn
Th anks
Ġcons ists
ĠMot oren
ĠJugend lichen
190 6
Ġstehen den
Ġprote in
sprach ige
Ġarg ument
Ġarchite ct
Ã´ ne
Ġconvers ation
Ġperman ent
ĠSingap ore
Merk male
Ġ Ã¤nderte
Ġa part
ĠB utter
il ation
Ġp ic
Ġc orn
ĠF ollow
ber to
ist um
ĠSt u
ĠAn wendungen
Ġwe ap
ens ation
ĠBer ge
rieg s
ĠCl ar
ĠMag d
Ġrest r
ĠStaats ober
Ġperform ing
ĠForsch ungen
Ġorgan ized
ĠKat zen
Ġlist ing
195 6
bÃ¼ ro
ĠStad ium
ĠWahr heit
Ġqualifiz ierte
ĠRober ts
Ġhinzuge fÃ¼gt
E F
R und
p rechen
on c
ein richtung
ĠM ust
ĠP ersÃ¶nlichkeiten
ĠE cke
ĠH els
ĠL iv
ĠL Ã©
ĠZ ert
ah ne
ĠGr Ã¶ÃŁen
mann schaften
ĠAd vis
Ġrec orded
ĠFilm fest
fr ies
Ġgel ingt
ĠCon rad
ĠBre ak
Ġgl ad
ĠMain e
Ġ185 1
ĠSchwar zw
sthe orie
ĠInf os
miss ions
loy ment
Rel ig
E isen
S et
ĠB aut
Ġv ib
ĠC av
ot ische
ĠSp ar
ĠPr ime
Ã¼nd er
ĠRes idenz
Ġausge de
ĠCl ient
ĠHar z
ĠTrans fer
Ġtw ice
Mod us
ĠErschein ung
ĠâĪ Ĵ
Ġdoub t
Ġausgestra hlt
S aison
Ġt oll
Ġin telle
ĠD ess
ĠI owa
ĠO il
ĠSt ufe
th en
ĠEr be
ĠOr leans
ĠFl otte
Ġtra il
stell ungs
gem Ã¤ÃŁ
ĠGesch lecht
iven ess
ĠUr kunde
ĠStand ards
Ġbre ast
ĠAg ent
Welt cup
Ġwid ely
Tra iner
Ġcloth es
Ġgez Ã¤hlt
ĠAufent halt
D enk
S ub
X X
d el
m lich
Ġd ental
il o
Ġk reis
Ġst im
sp itze
âĢĻ .
Ġsp ann
Ġle ichter
Ġor din
ĠCh i
ĠIm plement
Ġad opt
Ġrec ording
ĠPf licht
ĠCar lo
Ġpl Ã¶tz
Ġselbst stÃ¤nd
Ġgra b
spr uchs
Ġdre imal
ĠRos a
Ġricht igen
ĠÃ¼b lichen
ĠExper ten
Ġkrit isiert
Ġviol ence
ctic ut
ĠAdmin istrat
<?<? <?<?
ĠVinc ent
ĠFÃ¤h igkeiten
andin av
1 20
2 50
T op
Ġd rag
ĠW icht
Ġge omet
ac ional
Ġoff ens
ator in
ĠMittel meer
190 8
Exception Constants
Ġfloor ing
Ġgek ennzeichnet
Ġzweit es
ĠÃ¤uÃŁer st
Ġanaly t
ĠBrig ade
Ġhers elf
Krit ik
Ġcir ca
ĠBoch um
ĠMultic ast
ĠGemark ung
Ġd icht
il iate
ĠD ien
Ġc otton
et wa
ĠO ran
ĠSch los
Ġr asch
ste ins
Ġ18 35
ĠBe wertung
ĠLe ader
ĠAus sch
Ġro ugh
ĠJul ia
Ġeinge zogen
Ġgest altete
ĠauÃŁer ord
klÃ¤r t
Ġresearch ers
Ġ180 6
Ġnet works
Reg ion
ĠLaw rence
ĠPrinz essin
ĠGlas gow
nehm ung
Ġpropos ed
ĠVerbesser ung
B este
L uther
Ñ ı
Ġw ies
Ġf ishing
ĠA B
Ã¤ p
Ġh armon
ĠG ib
ĠE sch
ĠH Ã¤uf
ĠJ ama
id al
ĠEr werb
Ġall gemeine
amm ed
ett a
ĠEx pl
Ġgesch ickt
Ġbo ost
ĠGrund schule
ĠWohn haus
ĠEst ate
Ġsignificant ly
Ġverhinder t
Ġpartners hip
ĠGemeinder at
/ *
T urn
r one
an ing
Ġp un
sch Ã¤d
ĠH i
ĠH appy
ĠC ell
ad bach
op ter
ĠEr langen
auf tritt
tem pel
cl ing
Ġob lig
ude d
eth yl
ĠDurch schnitts
Ã¼l le
ĠHeimat stadt
ĠRob in
Ġfinanziel len
ĠDokumentar film
Ġatmosph ere
E p
M al
Ġ {
Ġt ab
ĠK upp
ĠE ichen
ĠO F
la de
ĠSch Ã¼tz
aus o
ĠNach kommen
Ġbes ter
olog ist
ĠVor les
fahr zeuge
Ġgel aden
Ġgeb unden
Ġret ire
Ġlink ed
ĠMer cedes
ĠFrei will
ĠgrÃ¶ÃŁten teils
Ġkont inuier
ĠMary land
national spieler
Ġgeplan ten
ĠOffic er
Ġstain less
Lud wig
A c
Ã ĥ
ĠA gency
Ã¼ tt
Ã¤ le
Ġh idden
ĠR iv
ĠR ights
ĠC onn
Ġer fasst
ĠN AT
Ġre chter
Ġch art
Ġman aging
Ġknow ing
ĠMann es
Ġsol o
ĠHol ocaust
ĠLin col
ĠCont act
ĠText il
ĠTro cken
On ce
ĠDel hi
Med aille
Ġpick ed
Ġprint ing
ĠIdent itÃ¤t
Ġwand te
ĠÃ¶ k
Lin ie
W ar
z ule
Ġa wareness
ĠP aper
ĠI ss
ĠV at
ĠO cean
ag anda
od s
Ġle isten
Ġvor Ã¼ber
ĠTh ai
pt y
ĠDies el
gra ph
Ġinst ance
Ġplan et
ript ion
ĠKom Ã¶die
umb oldt
ĠFrÃ¼ hl
ĠLang haus
Ġged acht
Des cription
Ġbere chnet
Ġerkenn bar
D oppel
G ed
V ideo
us a
ĠD ress
ĠF lex
ĠF unktions
ĠH ahn
ĠC ase
ĠO skar
19 11
ĠCh ap
Ġges ichert
ĠEd itor
Ġpolit ischer
ĠPaul o
stre ifen
ĠEv ans
ĠAir lines
Ġcr im
ĠEt wa
aser ne
Ġcra ck
ĠAtlant ic
Ġbesonder er
L et
M ap
W olf
Ġ1 17
ĠP ear
Ġl Ã¤nd
Ġge fe
Ġ18 44
ĠBe hinder
Ġex tend
Ġex tended
Ġch apter
als ieger
ĠAmer icans
ĠDem onst
Ġvol ler
ĠRen ov
Ġfa iled
Ġindustr ies
Ġhy per
Ġjo ining
ĠBuen os
ĠLincol n
E FA
L S
Ġt we
st het
Ġc erem
ĠI ce
Ġe ar
19 21
ov es
ĠGe fe
Ã¤hr ungs
chn ungs
utz te
ĠOb ject
Ġerw arten
Ġcr usher
Ġcreat es
Ġfal sch
inde x
Ġaccommod ation
fal se
Ġhil ft
ĠErober ung
K reuz
h Ã¼tte
j ing
ĠS ide
Ġin ches
ĠM az
am ic
ĠG T
om y
all o
ĠIn vent
19 48
pr ises
ĠGeb irg
Ġ0 6
An y
ash i
ĠKunst stoff
ĠPart ie
ĠDon ner
wei ÃŁ
195 8
Ġport folio
ĠEmp fehl
Ġintegr iert
ĠWahr scheinlichkeit
Ġkanad ischen
Ġsech sten
ĠKrie ger
Ġrechte ck
Ġappoint ment
Ġdenkmal geschÃ¼tz
B ern
s ort
Ġ Ã¤ndern
le hnung
ge ist
ĠD NA
ĠF okus
ĠH af
ĠW esen
Ġg ent
Ġy es
Ġver f
Ġde fault
og ne
ĠSp enden
nis sen
Ġinter face
eich ern
ĠMo ore
ĠQu art
Ġgef Ã¶rdert
Ġsim pl
ĠEv olution
En gl
195 5
189 7
ĠBol iv
Ġprof iles
ĠHoll and
ĠjÃ¼nger en
! "
L uft
M Ã¶gliche
f uÃŁ
p df
u in
ĠB ug
ĠH IV
ot os
ĠSch Ã¤den
od ing
Ġi OS
ov o
Ġfe hlen
Ã¤d te
ÃŃ k
Ã¤m me
Ġreport ing
ĠStreit krÃ¤fte
cep ts
ĠElect ric
ĠChron ik
ĠerfÃ¼ll en
ĠDist anz
ĠAuseinanders etzung
Ġbayer ischen
penden ce
ĠWrest ling
Ð ¼
ch el
es c
ĠG umm
ĠI ra
Ġan x
ĠSt ark
ĠAn satz
ĠSp ons
ĠAl uminium
Ġcon sequ
ĠÃ ©
bo ards
Ġno ted
ĠOber liga
Ġac id
Ġpubl ish
Ġentsp ringt
Ġcolle cted
Ġcho osing
195 1
ĠSen ioren
Ġtreat ments
Ġfile d
ĠPan el
Ġorganis ierte
nehm ern
ĠÃ¶rt lichen
E ben
R ich
h ten
on ent
Ġm ob
ĠB elle
ĠD ritt
ĠD ritten
am ann
ĠF erner
ĠK ings
ĠE rot
ra hmen
ĠR ight
Ġauf merksam
ĠSch Ã¤fer
Ġde fe
Ġ18 10
Ġcon ver
Ġsh ift
ĠVor runde
ĠSchw Ã¤b
Ġtra fen
Ġind ire
ĠOn kel
ĠVers icherungs
Ġben ch
Ġend s
Ġspe ech
190 3
ros se
Ġrece iving
ĠFernseh film
ĠBaum w
ĠStÃ¤d t
ĠAuft ritte
ĠWalk er
Ġmaxim ale
konstru ktion
Ġproced ures
D uring
F iction
K ur
P ierre
m ain
re z
re chnung
Ġv it
ro se
ĠT alk
ĠT rue
ĠW id
ĠSt ationen
Ġre ader
ĠVer folgung
ĠAb lauf
In halt
Ġ16 00
Ġzusammen gefasst
Ġdire cted
Ġbesch rieb
schl Ã¼ssel
Ġerr ichteten
ĠOs lo
ĠVorsitzen de
Produ ktion
Ġfail ure
Ġeigent lichen
Ġhighl ight
Hein rich
Ġbedeutend sten
Ġdistin ct
E U
F eld
b Ã¤
e xt
k andid
s he
Ġp rÃ¼
ĠF REE
ra ul
ir s
Ġer stellen
ĠEr ik
ant i
ĠSe ch
Ġpr imar
ĠVor bereitung
St art
ĠRo te
ĠAd ams
ĠZw ar
reg ister
Ġsub t
wert ungen
ĠRÃ¼ck tritt
ĠBru ce
ĠIde al
Ġenter prise
Bau denkmal
hers tellung
ĠTat ort
Ġregistr iert
ĠMÃ¶ bel
ĠAnz eige
Ġpow der
D ec
N et
S K
k ologie
k ommission
l ler
Ġa wards
ar ien
ĠB attle
ĠP ommern
sch i
Ġl uck
Ġer ober
Ġge pf
ann els
ĠSch ult
Ġun c
ant a
be teil
pp t
ss ohn
ry pt
Ġcont rast
ĠEx ception
hand lungs
Ġger inge
ĠGew Ã¤sser
ĠPart ners
Ã¶m m
ender t
Ġpay ments
Ġport ion
Ġhei ÃŁen
ĠWeiter hin
sta ats
ĠUs ing
ĠBon us
ĠVan couver
ĠlÃ¤ng ere
ĠCham ber
beam ter
ĠLein wand
ĠScot land
Parameter ID
Ġdipl omat
7 00
N icht
d ienste
m ing
w enn
Ã ®
es p
Ġt iss
an ke
ĠS ri
Ġo lymp
ĠG rant
ĠL etter
ĠC P
ĠN utzen
ĠN OT
Ġe ase
Ġre cover
Ġne ur
Ġ18 33
Ġch icken
amp a
Ã¤ch se
Ġprov en
enk o
ĠBand e
ĠChrist ine
mittel alter
ĠSer b
Ġvis ited
Ġident isch
Ġdeb t
sta ates
ĠAbs ol
ĠAust rag
ĠDrei ÃŁig
ĠSat tel
ĠVort rag
Fo otball
ĠSau di
Lou is
Sonst iges
Ġstattf and
K ont
S ec
b rÃ¤
ar est
ĠS emin
Ġv intage
ro hr
Ġp ussy
ĠP y
ĠT un
ĠT um
ĠF uchs
ent z
ĠH us
ĠC arr
Ġbe grÃ¼ndet
Ġl ists
Ġl iquid
Ġge g
Ġst ring
ce ae
aus chen
for mer
ĠTh rough
ĠSchw erin
mit tag
ĠEx port
ĠOber bÃ¼rgermeister
ĠArbeit geber
rach ten
ĠBundes straÃŁe
ĠArch ive
ĠDr ive
Ġfact or
Ġcr isis
wissenschaft lichen
ĠTre ff
Qu elle
189 3
stud ien
Ġschwed ische
jew itsch
ĠVarian ten
ĠCorn el
mag azin
Ġsitu ations
Ġjem and
Ġbewe gt
verm Ã¶gen
ĠVerstÃ¤nd nis
M as
P osted
es a
Ġt ested
Ġt iny
Ġt asks
Ġs tet
Ġv oc
ig el
ĠF Ã¤lle
ĠK und
ĠR out
Ġbe wegen
Ġer leben
ul ing
ĠSch uss
ĠRe par
ungs ort
Ġwe ak
ĠSe ason
ĠAuf sichts
Ġsow eit
Ġqu adrat
haus e
Ġverm utet
Ġocc as
ĠJahrzehn te
Ġproced ure
ĠJed och
ischÃ¶ fe
Ġehren amt
B lack
R obert
h ost
s l
ar mee
ĠS G
ĠS ib
ĠA sk
Ã¤ nen
ĠD ame
Ġn erv
ĠF res
ir med
ĠN ort
ĠZ auber
ĠIn halts
ĠRe ktor
ĠAn st
Ġsp lit
be an
iss ippi
ieren der
enz el
Ġvers ions
ĠEl f
ĠJohann a
ĠNieder lagen
Ġverl ang
Ġinform iert
Ġregion alen
ĠNamens geber
ĠtÃ¼rk ischen
ynd rom
ĠGeschle chts
Ġenco unter
f indung
k reise
o ÃŁen
Â ·
ĠF itz
ĠG am
om i
ĠC atholic
ĠSch reiber
au be
land o
St ate
ĠGra y
Th ank
Ġsub stant
Be griff
Ġsk y
Ġ% )
ĠOst preuÃŁen
van ced
Ġill ness
Arch Ã¤
ĠSamm lungen
rupt ion
Ġzug unsten
ĠgrÃ¼nd eten
Febru ar
I K
R em
Ġd ad
Ġt or
re lated
ge gangen
Ġc er
sch reiben
ĠR ak
Ġg lo
ĠJ ess
th ese
Ġ18 38
ĠAl th
ĠÃ¼ber rasch
tz t
ĠVor schlag
Ġ10 5
Ġpat io
ĠSol utions
Ġant iken
ĠFluss es
ĠEU R
Ġcook ies
Ġliter ature
wal ts
Ã¶p fer
Bundes liga
ti rol
Ġimplement ation
ĠSak r
Val ue
": "
kurr enten
ĠSams ung
J ean
P okal
S D
m Ã¶
n Ã¼tz
ĠS hel
Ġf ran
Ġh ang
Ġh osted
ĠF iction
sch el
em ester
Ġg un
ul ierung
ĠEr nennung
Ġ18 34
Ġcon vert
ĠDe kor
ĠLe hen
Ġro w
isten ce
ĠProdu cts
Ġspe zif
ĠAnt arkt
ĠDo uble
Ch ina
Dies es
195 7
Ġdefin ed
fa ction
ĠGef Ã¤hr
Ġsicher te
ĠHÃ¶r spiel
ĠMach ine
erkl Ã¤rung
Ġimag ine
kriegs zeit
Ġabgel eitet
ĠErwachsen en
olley ball
ĠStaatsober haupt
A g
L it
S en
T ags
d ro
h ain
j ak
m Ã¤nn
ĠS le
at in
re ide
us er
Ġm ic
il og
ĠD in
ĠG is
ĠK ot
ver w
ĠEr ziehung
ĠMar in
Ġob s
ĠSh akespear
ĠAut os
ĠHand lungs
Ġrest lichen
ĠPal m
ĠRed akteur
ĠWeb prÃ¤senz
plat es
ĠBlÃ¼ te
Ġregul ations
Ġfunktion iert
mot oren
ĠFinn land
ĠVie h
ĠPian ist
ĠDiÃ¶z ese
Ġjun ior
ĠSchÃ¼l ern
O ut
h armon
t ums
u bert
Ġs oph
ter min
ĠP ension
ĠG ibt
Ġg rew
Ġbe ziehen
Ġge arbeitet
ess a
Ġ18 47
Ġ18 39
Ġte ch
ĠSchw ein
Ġste igt
ĠGra ham
let ten
Ġtrans ition
ĠPla yer
ĠFach werk
Ġcond uct
Ġpersonal ity
Ã¤ss ern
Ġsetz ten
ĠAp ostol
zi ologie
Ġqualifiz ierten
Ġbege g
Ġdynam ic
H al
J e
L aut
P ublik
h ielt
r h
Ġt ile
Ġt ube
te e
ĠS v
re de
Ġb io
Ġm otion
Ã¼ ten
Ġh insichtlich
et tet
Ġbe herr
lich ten
Ġun bedingt
Ġwar ten
ĠBe cken
ĠEin z
ĠSe pt
ĠVor gang
omp son
ĠUnter richts
ĠFre unden
ĠPort land
ĠTechn ische
ĠTem ple
Ġmember ship
wor tet
ĠRuss ischen
lÃ¤nd ischer
Ġoft mals
ĠSa arbrÃ¼cken
ĠAngel a
ĠTur ner
ĠLouis iana
Ġaccount ing
iro ler
Mod ell
Ã¤cht nis
ĠNationalsozial isten
wander ung
ÅĦ ski
ĠÃ¤uÃŁ eren
Vol ks
ĠBeaut iful
ĠNiger ia
B ack
k ers
k rat
Ġf erner
Ġc ategories
ĠE y
Ġl ift
Ġk ar
ĠO range
ĠSt reich
Ġfor est
Ġr um
ĠEr lebnis
18 99
ĠVor lage
Ġcomp lic
ĠHer zen
zeit lich
ink i
gl as
Ġges agt
ork ommen
Ġwel chen
Ġweek ly
gemein det
ĠCal c
Ġaufge hoben
ĠHistor ischen
Ob wohl
lÃ¤uf erin
alle tt
ĠRead ing
ĠKÃ¶nigs berg
Ġlok ale
ĠEuropameister schaft
Ġweib lichen
Ġign or
ĠWiederauf bau
verl ust
Z usammen
Ġ Ã¶st
te gie
ĠS ony
ĠM ine
ig r
ig sten
ĠT ry
ĠK ate
ĠH ip
ĠR ace
ĠL Ã¼n
we iger
lo h
omm y
Ġgew orfen
ĠCo le
ĠBo ys
Sch on
ĠĊĊ ĠĊĠĊ
Deutsch es
Ġange kÃ¼nd
yr am
ĠDurch fÃ¼hrung
fra uen
ĠHel den
Ġschn eller
Ġoffic er
hab t
Ġdraw ing
ehm igung
Ġwire less
Ġestim ated
ĠViz emeister
ĠÃĦm ter
Ġcrim inal
C ount
F amilien
S etz
h lich
l uft
Ï ģ
ing ung
ĠT ap
Ġ( #
ĠK Ã¤rn
sch rau
ĠH ack
ĠL iss
Ġg al
Ġg ross
Ġl ady
Ġl ucky
Ġst ated
Ġfor ced
Ġwe alth
rÃ¤ der
rÃ¤ glich
ĠLand rat
inn t
ĠAut omat
ĠMin istry
Ġsho ot
iner y
ĠfrÃ¼ he
ĠWohn ungen
ĠRec ord
Ġimpro ving
ĠJournal isten
Ġwid th
ĠDet roit
ĠVorder grund
ĠMov ie
Ġcandid ate
Ġprincip les
Jose ph
ĠWik ipedia
Ġcrow d
Ġbrill iant
ĠSynag oge
F P
H z
R aum
a er
p in
Ġd iam
Ġin tr
ĠA kte
il ie
ĠD y
ra iner
ĠH ud
ĠH Ã¤nde
ĠR um
ic ted
ĠL ub
Ġge kauft
ver teilung
Ġon going
ĠIn spir
ĠVer k
Ġsp r
Ġme ets
ĠBer Ã¼cksicht
amm ern
Ġper mit
ĠVerb indungs
ĠWer ft
wor ld
ĠFot ografie
ĠerklÃ¤r en
ĠWass ers
Ġmechan ism
Ġmusikal ische
ĠMuse en
ĠSchicks al
M er
Ġn Ã¤chst
im ore
Ġbe an
ul u
if ies
ack t
ĠSo ft
vel and
ĠPh ill
ĠAnd erson
Ġgesch Ã¼tz
Ġbesch rÃ¤nkt
eid ung
ĠTo uch
Ġstar tet
ĠOlymp iasieger
ĠPal ast
Ġworks hop
ĠKommun e
Ġauth ors
Ġrelig ious
Ġchem ical
ĠStan ley
F ield
T ag
V O
r ufen
Ġa warded
it iv
Ġw itness
ĠS EO
ĠB C
ĠB lat
ĠB ody
Ġv end
et o
ĠL A
ĠIn cl
Ġr ies
Ġr Ã¤um
ĠPro cess
ĠUnter k
ĠGra nde
ins eln
Ġtr ib
Ġcre w
laub te
Ġaufge geben
Ġful f
ĠRestaur ants
ĠJob s
uum l
ĠHarr ison
Ġnut rit
Ġbess ere
ĠRett ungs
Ġgg f
P osition
R ichtung
Ġd ent
Ġv illa
ĠM is
ĠK iss
ĠH ung
ĠR ally
ĠC ad
ĠN ations
ĠV ice
Ġal ign
Ġk Ã¼nft
sp olitik
io den
Ġnew ly
ĠTr ip
ĠStud iums
ĠMed ium
Ġdec ade
ĠSchul z
ĠInternational er
ĠBel ast
Ġhealth care
ĠHil de
ĠBeg leit
Ġkon zip
ĠSter ne
Ġhab ilit
ĠWettbewerb s
Absol vent
F R
G l
H D
h all
Ġh ind
ĠP itts
ĠT ed
ent sp
ĠH ydro
ĠL Ã¼b
Ġto urn
Ġan bie
ĠSt Ã¼r
ĠSt Ã¤rke
ith er
ĠVer schw
ou x
Ġ9 4
ĠMus lim
ĠFra ktion
ĠAut on
ĠBau reihe
Mit te
ĠDar stellungen
Ġeng age
Ġeng agement
ĠMor gan
Ġfac ilit
ĠZe ug
AN D
col or
Ġhor se
Ġlay out
ĠMitarbeit ern
ĠHT ML
! âĢĿ
N etz
n ische
n ommen
o iden
el i
ĠF la
ĠN u
ĠN ature
ĠN HL
ul us
Ġan gen
os se
ste her
ĠNach lass
ĠUnter b
ĠFl ach
man ager
Ġvers orgt
Ġgem isch
Ġverb inden
ĠGesch enk
Ġausge geben
Ġfest gestellt
ĠQual ifikations
Ġern st
ĠCla ude
ĠRob inson
Ġcas ual
ĠCons ult
ĠniederlÃ¤nd ische
ĠIll ust
Ġtransport ation
Ġsuppl iers
Ġverg essen
K n
L es
T M
T schech
T ION
k ter
k ok
v all
Ġm a
ĠM endel
ĠP L
Ġc lock
ĠG ard
Ġan gest
Ġge heim
