#version: 0.2 - Trained by `huggingface/tokenizers`
e r
e n
i n
c h
Ġ d
Ġ a
e s
n d
i s
o n
i t
i e
Ġ t
Ġ s
o r
Ġ w
a n
t e
a r
Ġ S
a l
h e
a t
r e
Ġ b
u r
u n
Ġ in
u nd
i ch
a s
e in
e l
Ġ f
u s
Ġd er
Ġ m
Ġ A
Ã ¼
l e
g e
Ġ B
Ġ v
Ġ 1
Ã ¤
Ġ und
Ġ M
i l
Ġ o
Ġ D
Ġt he
s t
in g
un g
r o
t er
Ġ p
i g
i on
d e
Ġ P
Ġ n
Ġ h
o l
â Ģ
Ġ c
Ġ ein
Ġ (
Ġ T
Ġ F
Ġ G
Ġd ie
a m
i m
Ġ K
Ġ E
en t
u t
o m
r a
Ġ z
s ch
Ġ I
e m
Ġ H
e t
Ġ W
Ġa nd
h r
Ġ R
Ġ L
i c
t en
is ch
Ġ g
Ġo f
e d
Ġt o
u m
Ġ C
b er
Ġ 2
a nd
u f
Ġb e
Ã ¶
is t
e it
i r
Ġ1 9
a ch
Ġ N
Ġ l
Ġ er
Ġ V
Ġ J
d en
Ġv on
i er
Ġa l
Ġt h
d er
c k
Ġ k
u l
Ġd es
Ġa n
Ġd en
l ich
er s
i v
Ġ2 0
g en
Ġ im
o t
Ã¼ r
at ion
Ġ e
ĠS t
o w
i k
Ġ O
es t
a b
a d
o s
Ġm it
u ch
Ġ y
Ġ ge
Ã Ł
an n
Ġ âĢ
Ġ re
l a
Ġ U
t s
Ġd as
i es
i f
e b
Ġs t
Ġy o
al l
Ġa uf
es s
Ġf or
Ġ Z
e i
c t
k t
Ġ is
a f
a h
ĠS ch
v er
i en
Ġw ur
Ġz u
Ġv er
ie l
o p
isch en
Ġd em
Ġ ist
i d
Ġ on
u p
a y
Ġal s
c e
Ġf Ã¼r
te l
ĠI n
a hr
t h
ich t
Ġ Ċ
u g
it h
er e
Ġa us
Ġwur de
a g
Ġ un
as s
il l
n e
b en
o g
or t
m en
w e
ĠV er
Ġ r
Ġd e
Ġein e
in d
a v
Ġw ith
er n
Ġw ar
Ġ20 1
a te
0 0
Ġs ich
s p
a u
a k
a p
el l
o d
ĠR e
sch af
a us
z e
Ġw h
l y
Ġp ro
er t
ĠA n
l in
Ġyo u
an g
ĠD ie
ĠE r
Ġth at
Ġ j
Ġn e
) ,
es ch
us t
o ch
ar t
en d
Ġs ein
i b
r an
Ġ i
s te
f f
Ġ it
ung en
âĢ Ļ
Ġa m
Ġa b
r ie
q u
isch e
Ã¼ ber
u d
h n
i p
ig en
Ġbe i
g er
Ġs p
ĠT he
Ġ he
ĠS p
h t
s e
u b
Ġ le
o k
Ġ 3
g r
Ġa s
ut sch
ur ch
s en
Ġ20 0
an t
Ġa re
ar d
Ġs e
Ġa uch
ĠB e
ĠU n
ĠA l
Ġs ch
Ġn ach
m er
ĠJ ahr
Ġs o
âĢ ľ
Ġ1 8
Ġ Ã¼ber
Ġ or
tel l
k s
i a
ĠâĢ ĵ
Ġb is
ung s
l ie
âĢ ĵ
o st
ro m
o v
Ġw ir
1 9
Ġc om
ĠA r
h en
Â ł
i z
iv e
Ġw e
f or
schaf t
it y
i al
m ent
Ġe x
ĠE in
Ã¤ t
Ã¶ r
Ġm e
ol l
is e
Ġa t
Ġz ur
Ġs ie
ĠâĢ ŀ
h er
as t
ĠD e
a in
Ġd ies
r u
on t
h l
or d
Ġ ch
b e
a ge
Ġz um
n en
r it
r Ã¤
ĠP ro
Ġyo ur
et z
Ġein er
h o
Ġal l
Ġw as
Ġw er
Ġ um
Ġz w
av e
ic k
r Ã¼
ch en
te d
o ur
isch er
. .
m e
l and
Ġ ent
en s
Ġn icht
om e
Ġwer den
u re
Ġv or
Ġun ter
Ã¤ r
o b
o nd
Ġd urch
ar k
i ge
Ġ19 9
n er
g el
us s
in e
Ġwir d
h al
Ġ es
Ġb y
ier t
f er
Ġh at
g es
or e
Ã¤ n
Ġf rom
el t
Ġth is
u e
it e
i de
Ġw ie
) .
ter n
er k
D ie
en n
i an
re ich
i o
Ġh ave
ĠT h
p e
Ġs ind
am e
ĠC h
l er
ĠG e
ge b
Ġo der
m al
il d
Ã¤ nd
Ġein em
i re
g t
ĠT e
is ter
Ġ us
p l
ad t
f t
a c
at ur
ĠM it
p er
d u
Ã¶ n
ĠD er
Ġ 4
st en
Ã¼ n
ĠL e
Ġ Ã
ur g
ĠS ie
ch e
lich en
p ar
ĠO r
Ã¼ hr
ĠS e
ĠN e
Ġc an
o c
Ġw ill
a uf
z en
ion s
Ġ en
b eit
Ġw or
ah l
Ġein en
o ut
p h
u ÃŁ
ĠA b
Ġm an
ic e
ul t
ĠB er
2 0
a ck
Ġ19 8
ich te
at z
s s
Ġc on
Ġ 5
ig ht
er v
Ã¼ ck
p t
we ise
j e
Ġ -
ation al
o hn
Ġc o
ig n
ĠA uf
in z
r y
1 8
el n
el e
ĠE n
ĠL and
Ġ Y
Ġn ot
for m
ĠA us
l l
ur n
de m
ch t
lich e
f e
re is
Ġt e
a il
Ġs h
at er
Ġ19 7
i le
l o
ĠG r
ĠM ar
p r
st er
om m
all y
on e
te il
e ar
' s
t ra
ar e
on g
t z
re i
Ġh as
ĠH e
al t
o ok
f en
it ion
Ġdas s
ĠI m
k eit
Ġb es
p en
Ġp r
ĠW e
ĠN ach
u te
l os
iv ers
T he
ĠM e
ab le
em ber
or en
Ġa d
Ã ©
re t
Ã¤ hr
it z
is s
ul d
Ġa r
I n
ber g
r at
ĠD as
b urg
l ass
a ut
am m
ĠV or
c o
Ġ19 6
ier te
Ġ( *
im e
at t
k e
ol og
ation s
de t
ak e
an s
a z
ing s
il m
f ol
Ġwur den
Ġi hr
Ġd o
f l
Ġde utsch
th er
Ġ 9
he it
p p
Ġ 6
ers on
ĠF l
ent s
Ġo ur
al e
ĠUn ter
Ġw o
ĠA m
Ġ1 7
ĠSt adt
Ġ up
ro ÃŁ
Ġs ow
ct ion
eit er
w er
ĠZ eit
at h
Ġcom p
eb en
at en
Ġh er
as e
te t
ĠH er
ein e
Ġg o
it er
iel er
o u
Ġv om
ug h
Ġ "
Ġi h
ĠP l
W eb
Ġr es
Ġf e
am p
Ġo ut
Ġn ur
ĠF or
ol d
lin ks
Ã¤ l
un t
t o
ĠDe utsch
Ġg en
Ġ19 4
an z
Web links
Ġ et
Ġ qu
on s
os e
c c
us e
y s
ch n
Ġme hr
i um
ĠF ran
Ġb ut
ut z
Ġ19 5
ĠM a
ig er
Ġ ro
am il
par am
or s
z eit
ze ich
m it
p ort
l es
ig h
k en
v e
Ġn och
ol it
om p
r en
ic al
ab en
ah n
ik e
Ġge w
Ġ 7
ĠRe g
Ġt ra
ĠP r
Ġthe ir
el d
ĠG em
om men
Ġm ore
re e
Ġm y
Ġl ie
m ann
ier en
ow n
Ã¼ d
ie d
ie t
g an
al s
ar y
Ġon e
Ġb et
te m
f in
ne h
s el
Ġ1 5
ate d
D er
an ce
st and
ĠSch w
ĠP ar
r if
kt ion
is h
le ich
h Ã¶r
ib t
f Ã¼hr
el s
og ra
Ġp er
S t
Ġ 8
Ġsow ie
in n
u en
g lie
ĠI S
E inz
c l
Ġb est
b ar
ol le
Ġ19 3
r ich
b all
Ġ Ġ
e c
Ġa ber
ah re
r ing
Ġ1 6
n et
l d
w a
ach weise
h und
it Ã¤t
Ġals o
a de
la g
n is
eln achweise
Ġab out
Einz elnachweise
ĠI t
es e
esch ichte
Ã¼ nd
Ġc ont
ann t
or n
in k
o ck
B N
.. .
ik er
on n
ier ung
a up
re at
ĠU S
Ġs te
Ġ Q
er en
ĠIS BN
Ġge t
Ġge gen
ĠGem ein
Ġd ar
Ġe v
f ahr
u al
ub l
Ã¤ ch
ĠUn ivers
Ġne w
am men
ie der
Ġthe y
Ġwh ich
y ste
Ġ1 0
h aus
Ġsein er
p ro
o y
m in
ig t
Ġb er
ÃŁ e
etz t
Ġh is
s tell
el le
Ġf in
s k
ur op
Ġin s
u er
âĢ Ŀ
Ġein es
ĠS te
Ġzw ei
o ber
ĠJ ahre
1 7
ig keit
an k
Ã¶ ff
Ġp l
lie ÃŁ
ĠG ra
v el
Ġy ear
ĠC o
Ġbe en
x t
Ġp la
ĠS o
l ung
Ġ &
Ġal le
or f
ĠJahr hund
Ġsein e
ay s
Ġwh o
ik an
a is
g l
o h
is ten
am en
is sen
Ġhat te
00 0
w o
ge ben
ĠG es
m ein
nd e
i ent
m an
ĠP h
Ġg es
m p
a ct
iter atur
ĠB r
Ġj ed
g lich
Ġwie der
re m
it t
ĠD ies
ro w
Ġwor k
et t
Ġof f
Ġt ime
im m
eit e
or y
ĠG eb
Ġdies er
Ã¶ l
Ġzw ischen
Ġk ann
ĠK ir
Ġk n
1 0
n ah
Ġs oll
yste m
1 6
us ammen
ar beit
ĠTe il
ĠA d
an ge
al d
ĠK ar
u le
t on
ĠE s
ie le
Ġf ol
at s
el b
am er
und en
Ġs ome
ĠC hr
in ter
o f
ck e
ĠU m
re d
Ġs eit
ĠW elt
c es
e k
Ġ1 2
id ent
or k
w erk
Ġk Ã¶n
Ġwar en
t t
Ġan y
a w
u de
ĠM us
ĠJahr en
ing en
ĠBer lin
ĠK on
ent lich
Ã¶ s
ĠF ra
Ġo b
f all
ĠB l
in der
Ã¤ hl
i x
ter s
b r
ach t
in a
eit en
Ġp art
1 5
ot t
ie w
ĠK l
D as
ret urn
ĠA nd
if f
ĠâĢ ľ
ent r
rie d
Ġbe g
Ġo ver
ir t
Ġ1 4
os s
Ġd is
ĠÃ ľ
Ã¤ ter
ab e
Ġin ter
w ick
S ch
b au
is te
Ġl ike
Ġzur Ã¼ck
T h
at es
Ġst ud
Ġre c
rie g
ck en
ĠT r
Ġ em
Ġd am
iel t
schaf ten
le d
eit s
g esch
st ra
at ing
is m
Ġs erv
rie b
r es
ver y
o ol
und es
Ġp e
r on
Ġw eiter
1 2
lin e
ĠJ un
ĠNe w
ge w
g te
ra d
ir st
Ġ1 3
ĠE x
aup t
en z
ic t
la ge
s er
ĠSt a
y n
ĠF re
Ġo ther
ar n
hal ten
ar b
Ġpro du
ĠJ an
ĠB es
y p
m a
c om
Ġpro v
glie d
gen d
1 3
un k
en e
ot h
Ġ 0
ĠS h
he im
Ġthe m
s h
o ff
form ation
Ġg roÃŁ
et h
in t
Ġge hÃ¶r
Ġs c
Ġbe k
ĠJ ul
ĠA ug
Ġp h
Ġn o
Ġhe l
ĠSt ra
Ġh aben
ĠO ber
e p
ĠGemein de
sp ieler
a um
en de
Ġ19 2
E r
Ã¤ d
ĠB o
or g
Ġwh en
in s
ell en
ĠF ilm
Ġer sten
am t
Ġj ust
Ġin d
Ġdies e
p f
o us
ĠAr beit
ĠTh is
ĠSp iel
ov e
V er
uÃŁ ball
sch en
A n
Ġp re
I m
Ã¤hr end
Ġk l
Ġs up
Ġth ere
ĠJahrhund ert
1 4
f r
Ġ if
a ir
ĠÃľ ber
G eb
Ġer st
me ister
ĠN ov
ĠZ w
L iteratur
ĠEn t
ÃŁ en
h and
ĠM an
op le
ĠG er
Ġa g
Ġbe im
7 8
l Ã¤
Ġd rei
b le
ra ch
Ġh ow
ra nd
ul l
Ġwh at
u ar
Ġj e
tell t
sch ie
ĠN or
Ġne ed
ic es
al en
Ġv ers
neh men
Ġre g
y m
tern ational
a x
au er
i der
k l
Ġit s
ĠE l
if e
en er
ster reich
A l
Ġ201 8
f ter
ogra ph
ar r
Ġl ook
ĠE urop
a ce
Ġge b
aus e
Ġg r
Ġin cl
Ġin to
ier ten
und e
ist or
ic s
Ġdeutsch er
ĠA ut
Ġsp Ã¤ter
un st
Ġf o
ĠM en
io us
Ġjed och
ĠkÃ¶n nen
Ġm us
il it
uch t
d ay
el y
Ġw ere
Ã¤l t
Ġk onn
ĠAug ust
Ġw el
Ġt r
w ard
ĠB au
Ġh o
es ten
Ġm ost
e ich
Ġh ad
ass en
Ġf r
p iel
as h
Ġwo uld
Ġth an
Geb oren
Ġf Ã¼hr
ĠF amil
u z
ĠSt ud
D e
Ã¶n ig
en k
c ed
ĠC ar
f ess
ĠI nd
Ġer h
ĠB and
ĠAr t
ĠT ra
Ġver b
Ġbe c
ĠZ u
Ġet wa
Ġg esch
elb st
Ġd ann
Ġa pp
ro und
ĠB undes
Ġc l
Ġg el
5 0
in er
Ġih re
ĠH and
it al
tem ber
h ne
Ġa cc
ĠP e
Ġm ake
r ess
Ġf irst
le t
ĠN ord
le x
z ial
un ter
f Ã¼
ĠÃ ĸ
z w
ge mein
ie f
ĠChr ist
Ġpe ople
Ġhel p
je ct
al k
Ġk e
2 00
gr Ã¼nd
b l
b ach
Ġd a
k reis
Ġa c
Ġb el
ur t
n ung
ĠM ed
p or
Ġ ra
Ã¼ t
Ġth ro
Ġa p
and er
ĠDeutsch land
de d
ier e
ul ar
ol f
in ess
pr il
tra g
U n
ĠFran k
rÃ¤ s
eb s
ĠP ol
f ul
Ġh and
ĠM o
ib le
ar m
Ġg ibt
re it
ĠSe p
Ġe very
Ġb u
r icht
Ġkn ow
en den
up pe
v or
ch ts
ĠM on
ru ck
z er
ĠN ational
st adt
ho f
Ċ Ċ
b o
Ġw enn
ĠNov ember
ĠJun i
ĠAl l
k a
Ã ¡
iv er
M ann
schaf ts
Ġw eit
Ġus e
Ġw ell
he l
ch er
s o
je kt
ke hr
ĠVer ein
at ive
R e
Ã¤r z
Ã¶ glich
ion al
we g
ĠSep tember
st it
lich er
. )
ĠP erson
Ġer fol
ĠH o
Ġdes ign
i qu
ow er
Ġi hn
ĠS c
w ohn
u es
uf t
w n
ĠM Ã¼n
v ers
ien ce
op h
' t
ĠĊ Ċ
Ġsein em
Ġ ich
ĠG esch
ĠA pril
ĠG roÃŁ
Ġb ack
hal b
ĠM in
ult ur
ab ei
Ġon ly
a id
Ġsein en
un kt
us iness
ĠM ann
2 1
ĠH aupt
M it
ĠV ol
ĠK Ã¶nig
ir k
ĠP f
a kt
ĠPl atz
ĠB et
a den
Ġ3 0
kt ober
Ġlie gt
ig ung
b ild
if ic
ĠE nde
at or
k er
schie den
uÃŁ er
Ġm o
Ġh ier
t re
ag es
Ġver y
ĠVer b
Ġz usammen
ĠS Ã¼d
Ġf l
Ġ201 7
i ze
Ġa ct
ĠJul i
a ul
et s
ste in
ran s
Ġan ge
ur z
es en
der n
ĠM al
Ġm ay
v en
ran z
ĠI s
on st
iv en
p la
ass er
Ġg leich
ĠOr t
Ã¶ ÃŁ
p s
ĠMa i
is en
ĠGr und
at a
Ġad d
g ang
Ġer ste
ĠB ei
ro l
g est
ic a
a gen
v ent
Ã¶ff entlich
ut ion
it el
Ġ201 6
ar s
Ġg er
Ġcom m
ĠY ou
ien st
ĠQ u
oh ann
an c
sch l
Ġver w
1 1
an y
Ġb o
s atz
Ġb esch
ĠO b
Ġfol gen
Ġ /
ĠO ktober
Ġyear s
a i
al ien
w alt
Ġ19 0
u c
ment s
Ġex per
ar ten
it ed
Ġ201 5
if fer
Ġber eits
hal t
m s
f eld
Ġd ort
Ġund er
N ach
Ġman y
Ġh in
ich ts
Ġh igh
Ġer w
Ġle tz
Ġt wo
b es
Ġs m
af f
G e
ess en
Ġd r
Ġf ind
ein g
st Ã¤nd
= =
ĠP olit
Ġ201 0
eb ru
ĠI I
Ġand eren
Ġ X
âĢ ¦
Ġas s
re g
Ġz e
ust r
as ed
Ġs ol
c ts
Ġe igen
Ġd ire
b ahn
Ġcon s
ais on
Ġb l
ĠF e
Ġl oc
Ġein z
Ġe ben
ĠB ar
Ġs he
ĠR o
isch es
issen schaft
ĠK unst
Ã¤n g
b uch
Ã¼r ger
es ter
z ember
Ġ201 4
Ġdies em
u k
ĠJan uar
u ck
em ent
um ent
vel op
it s
i or
at ch
Ġs ho
m Ã¤
Ã¼ tz
ĠM Ã¤rz
ĠH aus
am s
Ġh ome
ze ug
he mal
ĠH och
or ben
Ġthro ugh
Ġbes te
Ġse hr
Ġst and
Ġsp ec
Ġd own
Ġ201 2
ar ch
ei d
Ġun s
Ġihr er
z ahl
Ġth ese
ut h
l i
De utsch
3 0
Ġk am
ap p
Ġih m
Ġv ier
ĠV ers
Ġkonn te
gr und
Ġbe fin
ein en
olog ie
c ess
f ang
ĠF ebru
Ġ201 3
if t
Ġaus ge
ce pt
Ġ Â
ich er
ing er
Ġv iel
Ġ201 1
Ġte il
Ġk eine
k te
Ġhe ute
la gen
ĠK inder
ĠJ ohann
ion en
ak ing
ĠM et
ĠW h
amer ikan
w ay
ĠLand es
as ch
am es
ra g
zeich net
Ġin v
ĠDe zember
ist r
Ã¶ st
y l
ĠO n
S ie
ĠA mer
Ġ200 9
ĠF ried
il ity
Ġgo od
Ġa kt
ĠW est
os ition
Ġde c
O r
f ach
ic an
r s
ation en
ost en
f te
ranz Ã¶s
op p
ism us
Ã¤n ger
in es
Ġa fter
Ġ200 8
fall s
W e
Ġ2 5
al th
ĠF r
o ugh
ĠW erk
Ġm ed
Ġ18 9
ur s
Ġp ar
Ġg u
Ġ [
Ġar t
Ã¼n st
ĠC on
Ġn ow
m at
ĠF Ã¼r
Ġg reat
use um
Ġs elbst
Ġ1 1
Ġb en
ĠPro du
Ġs uch
ebs ite
Ġm ark
rit t
in al
ĠĊ ĠĊ
ip p
ĠMus ik
Ġw ay
ber t
ge t
ĠB ild
ĠG l
w ahl
Ġm on
gan is
Ġpla y
o ten
ĠKir che
ĠF ol
up pen
ĠL iste
Ġp erson
a ur
g ra
la uf
ĠA s
a j
s etz
for e
ĠPh il
it ies
z ie
sch lieÃŁ
i us
an gen
sch e
rif t
ĠIn ter
Ġw Ã¤hrend
ĠE d
ĠC l
ĠJ u
Ġ2 4
o gen
omm un
Ġm ach
ĠV on
mal s
Ġse c
Ġl ang
A us
Ġb usiness
rie ben
Ġ ,
ĠW il
Ġall er
ig a
stra ÃŁe
Ġver schieden
Ġwh ere
Ġsch w
ur ing
ig te
Ġv is
Ġte chn
Ġ9 78
B e
P ro
Ġs ub
mit tel
ow s
ges tellt
v iew
ĠUnivers itÃ¤t
A r
Ġd el
Ġer sch
ĠG eschichte
ĠR es
he d
ĠG ener
Ġm in
ĠUnivers ity
Ã¼ l
Ġd ay
Ġdam it
ell schaft
s on
Ġ200 7
Ã¶ ch
ĠAl s
sch n
ĠAr ch
los s
c y
ĠS er
Ġs om
Ġin c
Ġand er
ĠDies e
z ug
r ip
Ġw en
Ġbei den
ĠRe ich
ĠMit glied
ĠR om
ĠN ieder
ĠS aison
âĢľ .
Ġe ff
u ge
hr en
Ġ200 6
Ġev en
ĠF ahr
Ġa v
ra ft
Ġsp iel
ĠSt re
ern se
ĠG rÃ¼
Ġqu al
Ġp o
ĠS k
Ġsp e
Ġf ree
Ġ %
ĠO ff
Ġ ele
iv es
h ol
ut en
Ã¤ hn
Ġbec ause
al ter
Ġ .
te te
. ,
Ġgr Ã¶ÃŁ
ĠB uch
Ġim mer
Ġne ue
kt ur
fÃ¼hr t
in nen
19 9
ĠFebru ar
Ġre ad
A m
ĠG o
ĠĠ ĠĠ
a der
om en
ien d
Ġre l
Ã Ń
y r
p ert
ĠH ol
an ts
Ġge f
ut t
e h
ĠD es
ĠâĢ ł
ot her
Ġwor ld
we il
ĠM ark
Ã¤ch st
ĠS al
Th is
Ġst att
ro p
ogra f
il le
Ġo wn
ach sen
ĠMit tel
Ġo hne
Ġg ra
ain t
ĠW ert
Ġsch on
sp iel
Ġ1 00
Ġre m
Ġse e
ĠVer lag
Ġd iffer
ĠE le
ĠF uÃŁball
Ġh ere
Ã¼n f
Ġde velop
z ent
{ @
ĠC he
Ġc ar
ĠM ich
Ġincl ud
Ġz un
ro ss
ed er
Ġf amil
Ġw ant
in ce
ichte t
Ġs ur
un n
Ġco uld
Ġs ystem
ĠD urch
Ġg ab
Ġe hemal
Ã ³
Ġs aid
Ġ end
âĢľ ,
b um
hr er
o hl
is ion
T e
Ġm ade
ch s
lin k
iss ion
Ġf est
ver b
un ktion
ĠN amen
ur es
Ġth en
ĠD r
o te
w ert
iv ing
Ġf ranzÃ¶s
ĠW ien
Ġon line
tel le
Ġs im
Ġin formation
Ġdes sen
ust om
Ã¼ s
ro up
Ġbe f
ĠJ ohn
Ġc re
Ġ200 5
al le
8 0
e te
2 5
neh mer
en ce
ĠD ar
ĠMen schen
h in
el f
Ġar beit
grÃ¼nd et
g leich
Ġ |
Ġerh ielt
p ieler
sch ule
il t
Ġm uch
Ã¤nd er
Ġ ed
ĠMÃ¼n chen
c ted
ĠH am
Ġs Ã¼d
ĠP er
le ase
6 0
re uz
Ġs k
Ġf re
ly mp
ĠP art
ch sel
ik a
ur r
los sen
ĠK reis
Ġre qu
ĠEin e
b t
Ġt ake
Ġus ed
is piel
ĠH Ã¶
ĠW or
pr ess
4 0
f ra
h re
at her
co de
Ġbek annt
ĠK n
ag er
Ġpro gr
w end
Ġihr en
i ra
Ġst ar
ĠCh ar
nah me
ĠU r
z u
ĠK rieg
ĠB as
L e
Ġf rÃ¼
Ġ( âĢ
is k
olog y
ĠL eb
g abe
Ġl ife
geb iet
l en
m ed
ĠÃ Ħ
Ã¤ ude
Ġin st
ater ial
Ġb ook
ot s
f ass
Ġ200 4
ĠMe ister
ĠUnter nehmen
k rieg
ĠK r
Ġre al
Ġp ol
it zen
ig es
2 2
ĠI f
ĠSch l
sp ort
Ġo pt
re cht
Ġne uen
ar i
Ġ20 00
est orben
in en
G eschichte
Ġprov ide
ĠD an
Ġi de
ct or
ĠKar l
om in
Ġd on
ent ly
rÃ¤s ident
p le
de ut
Ġe as
Ġ ur
Ġv al
um ber
ĠL in
ĠY ork
ĠB est
p unkt
all s
o ge
ĠM ill
Ġ201 9
Ã¤hl t
Ġp ubl
he in
ir che
7 0
Ġs ei
Ġn ah
um mer
m ar
Ġch e
iel d
wick lung
in ing
ĠSchw ei
ĠB ay
stell ung
ĠFor m
Ġb zw
as on
Ġste ht
wohn er
ĠA t
uf en
kt or
ĠBer g
ide o
p ubl
Ġder en
w ig
ond er
h ard
sch utz
ak es
im es
L eben
Ġc ol
Ġ2 2
at ure
ĠLand kreis
ie g
in o
Ġp olit
Ġd abei
ĠF in
ar ge
ĠP at
ig ten
u ter
ĠK omp
Ġdeutsch en
ĠB ahn
ug ht
t ag
a e
Ġ2 3
Ġdies es
ann te
ĠOr ts
ip s
ĠW er
Ã¤t z
ĠP aul
u x
f ern
Ġf Ã¼nf
all en
ĠL ei
ĠR ad
Ġb eing
Ġ #
lo ad
Ġsho uld
ĠT o
Ġl a
Ġs u
iqu e
Ġbefin det
Ġr ight
Ġweit ere
k auf
Ġbe fore
gel e
an st
ĠE m
ĠC omp
ĠB re
oll ow
ĠPerson en
ĠAn t
ĠA ss
Ġp ra
fahr en
ĠM ag
ĠD o
ĠG u
G estorben
Ġto p
u gen
Ġ $
Ġ2 1
ĠT od
Ġw rit
ĠR Ã¼ck
Ġen g
schl uss
ĠS an
age ment
as ter
Â Ń
Ġ18 8
ĠSch ul
la ck
k m
Ġof fer
Ġer reich
it Ã¤
ĠH ein
Ġalle m
al er
h a
Ġein ge
Ġa round
Ġbeg ann
Ġb r
Ġent sp
ernse h
Ã¶ m
w are
l ing
tel y
ĠN atur
u ally
id es
ĠFried rich
ath ol
ĠB ere
E in
ol v
ap an
re ib
ĠA uch
Ġg l
Ã¶l ker
ĠL ie
lass e
Ġp ost
Ġwh ile
ir d
tell er
Ġent stand
Ġin ternational
ĠO st
az u
am ent
Ġcomm un
Ġ u
ĠSt and
ĠFamil ie
es ent
Ã¤ us
al b
i den
ĠM ot
aus pieler
Ġl ast
Ġ200 3
Ġ el
4 5
ĠB ra
d orf
g y
w w
glie der
rs g
ĠW ill
ĠB en
out h
Ġs er
irt schaft
st re
ĠLeb ens
re en
ĠW ei
Ġe ach
Ġ =
Ã¶r der
isch of
e y
om mer
ĠF est
Ġ5 0
k ommen
ur m
c on
Ġd id
um e
Ġt rans
ĠJ e
Ġ199 0
ĠD aten
Ġc ustom
it ter
w ays
ru e
ĠW asser
re ch
ĠZ usammen
en der
r ib
Ġag ain
Ġre t
Ġsh ow
ran k
ear ch
omm t
Ġgew ann
ut ter
Ġl ong
A b
Ġav ail
re ad
an ad
ĠW ahl
Ġb ed
ĠP ort
hel m
ĠPolit iker
ĠN ame
iz ed
Ġc le
g or
ĠFra uen
E x
Ġc olle
sch ied
D R
Ġc are
Ġ200 1
Ã¶ sterreich
z t
Ġch ild
ĠL a
c a
Ġge mein
od y
ĠK ap
ĠCo unt
n a
d ings
2 3
sch rift
ck t
en det
ĠDeutsch en
ĠB el
Ġ200 2
N e
Ġs ite
s w
gl isch
Ġzun Ã¤chst
ent en
Ġ2 6
e ct
ich ten
Ġwor den
nd ern
itt le
ra um
ĠS ohn
ĠH ans
Ġer r
Ġgen er
Ġs l
er st
z iel
w ork
ĠS a
Ġth ose
ĠIn ternational
Ġl ove
our n
y ch
Ġs tell
p art
ĠEn g
F or
Ġr est
I t
ĠT itel
Ġwe ek
mÃ¤ ÃŁ
er ts
Ġ18 6
Ġeben falls
le it
ĠPar is
c ial
ĠFran z
te i
pl ic
om b
rip t
Ġserv ice
ĠGe gen
ist s
we en
st off
Ġden en
Ġre ally
f ort
Ġfo und
Ġth ink
Ã¤ uf
an e
Ġf and
ond on
Ġm od
ĠT er
lo ck
ur y
Ġdiffer ent
ĠD re
h ung
ho de
Ġpla ce
h Ã¤lt
Ġb as
ĠW ohn
< /
ĠM ain
a el
Ġb il
ĠC ol
Ġso ndern
Ġand ere
Ġc our
M e
Ġp ass
r i
an a
ard s
ĠM or
t he
ing le
Ġd u
- -
Ã¤nd e
Ġs et
ĠS up
ĠM at
Ġh im
amp f
stit ut
f ilm
st r
ĠD em
sch ul
entr um
ĠL eben
ĠPro v
Ġz ahl
h af
Ġ2 8
7 5
Ġs ign
iv id
Ġf un
E R
F uÃŁball
Ġdo es
Ġ :
Ã¤n ge
i as
ĠGe w
Ġb re
ĠO lymp
ĠS eit
and s
fÃ¼hr ung
j Ã¤hr
en ter
ĠB Ã¼
Ġco unt
rÃ¼ n
ĠM od
ess e
ik t
ang el
ck er
Ġt er
Ġf ollow
Ġr und
ĠS il
Ġg est
Ġne u
rÃ¤ ger
ĠS eite
Ġavail able
Ġn umber
Ġ20 20
ann ten
ĠPe ter
am a
w ei
C h
Ġ199 9
ass e
Ġdar auf
Ã¼ ss
ĠM y
f urt
Ġmark et
il der
Ġander em
Ġver Ã¶ffentlich
Ġat t
n ess
Ġpro cess
ilit Ã¤r
ĠHe im
nis se
Ġje weil
e hen
Ġm ov
Ġk ein
Ġbet ween
Ġab s
Ġp os
le i
pl atz
Ġdeutsch e
Ġ2 7
19 8
Ġexper ience
s am
Ġph ot
ĠBere ich
ges etzt
ĠB i
y d
ch es
ĠH ar
ĠTe chn
ĠB Ã¼rger
Ġv ar
Ġst ill
2 4
im al
Ġsch ool
ĠB ut
Ġsm all
al y
o de
I N
ĠD orf
ĠK ultur
Ġb oth
Ġn or
Ġh istor
Ġst art
ire d
Ġfr iend
is hed
ĠP la
Ġst r
igh ts
Ġp at
as st
Ġver l
Ġn un
ĠVol ks
it ions
gen ommen
iet y
Ġus ing
Ġa ut
ord s
ge d
ab r
gr amm
Ġfamil y
re chen
ĠL ondon
Ġh abe
k ten
Ġpro fess
uÃŁ en
ĠK ont
Ġdies en
Ã¼nst ler
ĠSta ats
ĠS erv
m us
ĠE v
Ġserv ices
lich keit
y pe
Ġ ...
Ġm uss
om as
Ġinclud ing
Ġpr iv
ess er
ar en
min ister
ot he
le y
ĠÃĸ sterreich
p os
ond ere
Ġw icht
Ġhe alth
al es
Ġa uÃŁer
t r
A uf
j ahr
Ġcomp any
Ġ2 9
w est
den s
i am
ap t
) :
is se
ĠJu gend
ĠP re
z ig
Ġim port
iz iel
ur en
on nen
Ġ199 8
Ġad v
E n
v Ã¶lker
Ġro om
ĠM art
ĠT or
Ġv iele
ro om
il ome
Ġbu ild
c i
Ġfe w
Ġ '
av ing
ĠKir chen
Ġst ark
g aben
ĠP ark
Ġletz ten
H rsg
ĠRe chts
haus en
sch w
ĠH el
ne y
Ġsoll te
ies en
ĠT ag
ĠR ich
7 9
e ver
3 5
g ie
Ġc lass
Ġer halten
Ġst ra
Ġsup port
et te
Ġmon th
g ung
h m
Ġnah m
ĠHer r
Ã¼ b
ver n
ĠGrÃ¼ nd
st ru
ĠC ont
I I
Ġspiel te
enn t
ĠSp ort
Ġent wick
Sie he
cc ess
ĠSta aten
Ġv oll
Ġf ast
Ġch ar
4 8
Ġfin den
tra gen
Ġbe zeichnet
iv al
tre ten
amerikan ischer
ct ions
Ġte am
ief ert
.) :
b et
Ġein ige
ĠSch rif
an ten
ĠReg ion
or ge
fol ge
g ar
Ġt rat
Ġfor m
Ġp op
kl Ã¤r
P D
Ġv iew
ir l
Ġle arn
or ts
bild ung
om at
ĠH a
tell ung
ĠM useum
Ġn eben
Ġo pen
um b
2 8
ĠIn s
uch s
ĠAl t
b y
ourn al
2 6
alt ung
p rÃ¤
us ch
ĠgehÃ¶r t
w as
el te
en nen
op f
Ġerfol g
ol ution
ĠS he
Ġs el
Ġ198 0
w or
Ġg ing
cept ion
ĠL ud
f Ã¤
m et
rÃ¤ n
Ġ *
ĠT our
ll en
ĠFl ug
Ġapp ro
ten s
ge ord
Ġc al
Ġcomp le
ĠJahr es
on es
Ġm ember
tern et
Ġin ner
Ġpro m
2 9
ost er
ĠWil helm
ĠGener al
o x
ĠB ro
z og
ĠC or
an zen
Ġg ut
ĠD av
Ġ194 5
ell er
Ġwel che
Ġzahl reich
s ych
Ġ4 0
teil ung
ĠD on
ap pen
ĠA ir
ĠJ ose
I D
Ġor der
ff en
ap er
ĠAmer ican
Ġersch ien
ig ital
um p
Ġb ring
Ġk m
se e
al ten
ur ger
oss ible
nah m
Ġspec ial
ĠUS A
oll en
ĠW ir
ĠH ier
de utsch
o le
an te
s icht
oc i
och en
7 6
U S
ograph ie
ber eich
Ġerst mals
ges amt
3 3
nah men
Ġ <
um en
4 9
ĠGe org
Ġkl ein
l ang
et en
y le
ind ung
Ġ197 0
ĠP al
Ġch o
sp r
Ġih rem
g eschichte
w elt
wer b
Ġc or
den k
Ġauf ge
Ġd i
Ã¤ mp
ĠP ubl
ĠgroÃŁ e
op e
Ġm Ã¶glich
Ġke ep
ĠH il
ĠEin wohner
Ġan n
imm t
d ienst
m m
ĠD a
ĠWelt krieg
Ġincl ude
Ġd uring
Ġl ittle
us h
Ã¤ re
Ġs ame
Ġd et
um s
la u
ĠPro fess
Ġ199 6
Ġth ree
ĠK ais
ĠN ot
Ġdis c
at ter
Ġf ull
af fen
im mer
Ġpart ic
ic ally
B er
Ã¤ ft
Ġfe el
ĠB esch
Ġk ommt
w ort
Ġ199 7
Ġgo ing
ĠBe g
ĠThe y
ograf ie
Ġsch lieÃŁ
Ġw est
l Ã¤nd
o ver
de te
Ġse x
ĠFamil ien
ar ly
ĠF ach
Ġal ways
ĠB ad
n ungen
ver ein
k on
ab el
Ġper fe
th ing
ei den
y er
Ġge grÃ¼ndet
ne te
Ġ199 4
ĠC ity
Ġf ac
ĠFol ge
Ġm en
ĠS ystem
ĠB urg
ĠJ o
Ġein fach
Ġwe gen
Ġzw eiten
Ġlook ing
ĠFra u
ĠCount y
Ġ â
l ess
ĠN o
Ġb rit
Ġw ater
st Ã¼tz
Deutsch er
ap e
ro s
ĠH ow
Ġvis it
Ġqual ity
ĠgehÃ¶r te
at iv
h am
a uch
Ġakt u
Ġare a
ĠMa x
igkeit en
ĠgroÃŁ en
d ition
ĠC al
Ġbeste ht
ĠFor sch
Ġb ig
heit en
Mit glied
g o
Ġhat ten
f ts
lass en
ĠB rÃ¼
ĠJahrhund erts
ĠAn fang
Ġ18 5
ĠA ustr
Ã¼ hl
icht ung
rit ten
ĠTh ere
it u
Ġmehr ere
Ġc ond
9 0
z ogen
Ġb ro
ĠD u
Ġ199 5
Ġg ot
Ġex c
Ġg roup
ail s
ĠS eiten
19 6
la v
in ner
ze pt
st a
z el
Ġto o
uf f
ĠA uss
Ġo per
ĠSch n
P erson
ĠB ern
ĠSp e
Ġ Ð
it es
ver t
Ġper form
ĠMich ael
Ġd azu
Ġan t
id s
H e
ch te
Ġbel ie
Ġacc ess
Ġw ei
re as
Ġ est
== ==
ir on
ier ungs
2 7
es te
Ġc urr
ĠR ah
ĠTh omas
ĠSch auspieler
Ġc los
Ã¤ che
Ġer ne
Ã¶ t
utz t
le tz
Ġd ata
3 6
ĠK at
ĠVer walt
publ ik
c ript
Ġl o
h Ã¤ng
Ã ¨
Ġhe ut
Ġor gan
b ed
m ut
os oph
ĠR u
ate gor
ilome ter
Ã¶r d
i at
Ġb ie
ĠS en
ĠBet rieb
j oy
ar a
3 8
Ġcom e
b el
Ġpro ble
uch te
ub e
Ġind ivid
sch ein
ar te
um an
Ġto day
if iz
ĠG old
il es
sp rÃ¼n
Ġ199 2
Ġsein es
4 4
zeich nung
ĠWor ld
ĠS ol
ar l
h ip
Ã¤t ze
eth ing
Ġl in
ĠR ed
ĠC olle
Ġis s
ĠC om
Ġst ate
Ġme et
d ie
ĠD ire
im a
en a
ĠB ed
ĠfÃ¼hr te
schn itt
im ent
Ġk on
ĠT em
ĠM ay
ra cht
ĠZ e
Ġl ot
b aut
w and
Ġn ational
is iert
ĠW ebsite
Ġher aus
ĠArch ite
Ġm ind
ĠF ot
Ã¶r per
ĠLei p
Ġd re
ond ers
Ġg anz
ĠGra f
lie b
Ġres p
ib li
. âĢĿ
ĠSch ool
Ġp ower
h le
Ġth ings
our s
w issenschaft
ĠR uss
Ġ199 3
ĠF eld
v es
Ġbe h
Ġt yp
z irk
Ġab le
Ġd ating
S p
il y
Ġg row
ĠMe ter
Ġaller dings
Ġbe aut
g al
ĠHe il
3 9
Ġ196 0
ur o
D ies
ten d
s st
ĠW inter
Ġst or
Ġs ay
. âĢľ
ĠG ott
in ation
Ġwith out
ĠMit te
Ġgen annt
Ġs ince
Ġsh ort
ĠHein rich
ĠGr uppe
ĠR aum
Ġev ent
k irche
st ag
Ġcont in
ar z
ĠN r
ĠEin satz
ĠFrank reich
Ġ(âĢ ł
ĠR ei
gr uppe
Ġverw endet
Ġe qu
on y
Ġo pp
ĠIn formation
hn en
atur es
Ġw ebsite
ĠNe u
ĠTe xt
ĠEr n
Ġob ject
for d
Ġimport ant
ĠStra ÃŁe
for der
7 4
Ġk urz
ĠW olf
ĠEr z
G ibt
A d
ĠLud wig
at ten
gr iff
i ents
Ġin t
ĠA lex
ur f
Ġun ser
Ġh ard
omm and
Ġ199 1
ĠRah men
ach en
och ter
Ġt ry
Ġb ra
Ġg ive
Ġ3 1
ĠL auf
d ruck
Ġl and
ain s
ĠEr st
A T
m ark
Ġg ame
Ġqu est
ĠG en
we is
os en
ra che
ol oge
Ġsch n
ĠD is
ĠO l
ĠHam burg
Ġg ar
ĠChrist ian
ĠN eben
Ġstud ents
ent ial
Ġc r
Ġc ost
Ġwe chsel
A N
Ġd ah
Ġs ure
ik en
Ġwith in
ic le
ill s
Ġg ele
sk i
ĠA p
az z
ĠK o
ĠS outh
Ġt ro
Ġval ue
Ġge ht
/ /
e e
ĠGeb iet
Ġsom ething
I S
f el
Ġge m
ĠTe am
Ġ Ã¶sterreich
A S
le ben
Ġ198 9
ĠG ed
F ilm
Ġprodu cts
ĠS Ã¼
4 6
in c
Ġ18 0
Ġne xt
ĠM ont
I f
Ġp ay
unk te
Ġse chs
Ġh inter
ĠZ ahl
ĠB rand
amm lung
ĠW ar
Ġre ce
gan gen
Ġarbeit ete
ĠF er
entr al
ĠNor th
il la
ch ten
Ġall en
ĠR ober
ĠK Ã¶l
j a
B ei
Ġc a
ganis ation
ĠA ward
ist ischen
Ġet was
l ungen
ĠF o
schlieÃŁ end
Ġl ight
Ġt Ã¤t
ĠA g
ers Ã¶n
ĠSte in
Ã ĸ
ĠZ ug
Ġbet ter
r ic
Ġm ain
bes ondere
Ġle ad
ĠQ ual
Ġm ust
one y
f re
Ġd av
en glisch
Ġho use
Ġsec ond
irt schafts
Ġinv est
19 5
Ġ20 21
und s
pl oy
Ġd ays
ĠR hein
p ly
Ġn ame
7 7
Ã¼s sen
Ġl ist
ĠAm t
ĠEurop a
19 0
pe ct
reib ung
um m
ĠE nd
gemein de
ĠM Ã¤n
Ġa ff
le hrer
E s
sel f
Ġerfolg reich
Ġ198 8
st Ã¼ck
if ul
ĠD ort
Ġste hen
Ġle t
ĠS m
ĠfÃ¼hr t
Ġm et
ier s
tell en
ob ei
ĠH istor
la ub
Ġres earch
st Ã¤t
teil t
Ġw Ã¼r
gen den
l am
ein ander
Ġwork ing
ft ware
Ġweiter en
sh ip
Ã¤ m
ĠProv inz
Ġl assen
her r
Ġverschieden en
ĠPl an
Ġf act
ĠBe ispiel
ig inal
ĠS ein
der s
ĠâĢ ¦
ĠO p
Ġloc al
ĠD ienst
Ġex ist
ĠWe g
Ġch ange
heit s
ĠHÃ¶ he
E S
ĠS ommer
ĠGeb Ã¤ude
am b
ge ber
ĠU l
fol g
rÃ¤s ent
Ã¶glich keit
ĠA kt
ĠW ith
ĠAl bum
ĠZ iel
3 4
er in
o in
ĠZw eiten
ĠS oc
ĠS itz
Ġperson al
h ere
O N
ie gel
ĠT ro
ĠL iteratur
Ġs etz
L iefert
: //
co unt
m b
em s
n ame
Un ivers
geb aut
ĠSe e
a he
p end
Al s
pro du
z y
it te
Ġb ele
Ġstud ierte
un ft
ĠFrank furt
Ġ x
ik ation
op s
est s
ĠD en
Ġk omp
Ġhe ad
l ow
Ġn Ã¶rd
8 9
Ġk ommen
ĠL uft
Ġap plic
d o
ĠSp ieler
Ġeas y
ĠSch m
ĠE isen
ist ory
gen de
Ġa ir
ĠM c
Ġbe w
Ã¼ gel
ĠE he
a ar
ig ent
Ġ6 0
ĠW ald
la us
ĠEnt wicklung
ĠV ater
iz ation
Ġ198 7
s weise
ĠH of
ĠT re
7 1
Ġen joy
Ġpra ct
ĠLeip zig
ĠK om
ĠW o
rÃ¤ ge
b and
ir m
t ing
ĠT ochter
h end
Ġt urn
ĠB ischof
Ġcon c
ort un
Ġs ele
ĠGes ellschaft
ĠG ar
ts teller
3 1
Ġw obei
Ġjeweil s
Ġof t
ge geben
3 2
ĠRe gel
Ġd och
b urger
Ġt rue
Ġfo od
ing ton
att ung
! !
w irtschaft
at us
iz in
ĠKl ein
g art
Ġ195 0
Ġfolgen den
Ġt re
Ġw omen
O b
if ied
Ġan other
Ġ198 6
Ġmus ic
Ġerfol gte
Ġeigen en
Ġpubl ic
ut es
ĠF all
Ġc ert
Ġact iv
Ġperfe ct
Ġre p
ra y
ĠH ann
t y
ab l
Ġm aking
Ġo ld
ĠD abei
ĠE p
j et
i os
Ġh och
sch eid
Ġpl an
ra b
Ġg rÃ¼
ka dem
as k
ĠF unktion
ĠP rÃ¤sident
ĠRe c
Ġche ck
3 7
ĠtÃ¤t ig
ĠOb jekt
Ġl Ã¤
ĠRom an
ĠUn ited
Ġmus ste
ĠP reis
ĠK reuz
ach e
Ġj ob
ĠF C
u el
ĠMart in
ĠI hre
richt ung
v ille
Ġv ideo
tel s
ĠBe vÃ¶lker
ĠSt ring
ver kehr
ĠF rÃ¼
Ġh ol
G r
Ġco ver
Ġf ile
th ers
i ol
Ġn ieder
Ġadd ition
ĠU nd
. "
ult ure
A R
gr ess
ĠW Ã¤hrend
ĠHeim at
Ġprogr am
iv ed
ĠG el
Ġchild ren
ĠFuÃŁball spieler
g ten
l iga
ĠS eine
Ġm al
ĠB rit
ĠSchwei zer
ĠThe ater
ĠK ol
ĠR el
d ing
ge f
ĠF ar
ik el
d a
Ġg ilt
Ġl arge
ĠO s
ent al
Ġpro ject
ĠW ind
Ġim pro
ei le
Ġwor ks
Ġ197 2
Ġse ver
y ing
Ġm ight
ĠH en
Ġprodu ct
ran sport
Ġneed s
sch er
it ive
ĠSt utt
7 2
ill ion
8 8
ĠKomp on
ĠB ru
Ġd an
9 9
Ġs w
ĠF il
ĠSch loss
Ġne ver
Ġinner halb
ĠLe ist
Ġdav on
f il
ĠStra ÃŁen
FuÃŁball spieler
ĠD DR
ĠNor den
ĠA pp
Ġde fin
rÃ¤ gt
ĠDeutsch e
a ÃŁ
ab or
op er
we hr
h Ã¶
o un
ĠâĢ ĺ
Ġp ort
ĠK Ã¼
Ġit alien
ĠEr w
Ã¼r k
ĠschlieÃŁ lich
Y ou
E N
f it
E igen
ĠO ur
f le
Ġauf grund
is ierung
ĠK e
ĠMann schaft
ĠKais er
Ġl aw
Ġer n
M ar
Ġm ax
Ġm ult
ĠE is
ul ts
Ġb ased
ok rat
ett be
oc us
f o
ĠI hr
Ġsu ccess
Ġ ident
Ġpro te
Ġc ap
ĠC omm
Ġcons ider
lich es
Ã¤ ss
Ġ198 4
ibli othe
A s
h an
Ġ198 5
O R
Ġp ict
us Ã¤tz
w ie
v iron
and id
uch e
Ġc reat
t il
ber ger
Un ter
Ġwe il
ĠMar ia
ig ur
ag n
ĠPar tei
ure d
ĠMar kt
ĠK ilometer
Ġins gesamt
ic o
ran ken
Ġtra dition
ĠU hr
5 5
ab ility
ag ue
Ã¼r z
ĠSo zial
te gr
ob il
Ġm ar
Ġur sprÃ¼n
Ã¶st lich
" ,
ĠS im
Ġn ord
ĠSt ate
Ġwechsel te
ĠJ apan
ĠW eiter
id ge
itz er
Ġs af
ĠP ost
Ġa uth
ĠI de
Ġp age
zeit ig
Ġse arch
ĠL ang
S o
ĠD i
Ġc all
Ġp ut
wend ung
Ġl ange
fl uss
ĠF rei
Ġcon ne
Ġcommun ity
an ien
ĠA fr
ra u
l ungs
it or
ĠS w
7 3
un ch
ĠP ap
it i
rei ben
Ġb lieb
ĠRober t
Ġl ess
ĠD am
Ġh al
ĠH ome
ĠP ra
ĠTe x
Ð ¾
ĠHol z
il nehmer
ul ation
te chn
Ġap pe
b ei
Ġver fÃ¼
am mer
z ess
Ġz we
ĠK ommun
ge ther
ĠP ass
it ing
Ġm ir
et work
ĠV ier
ĠâĢ Ķ
ĠR olle
Ġ198 3
ĠOlymp ischen
w ald
ĠB ur
row s
Ġme ist
ĠProfess or
f est
b te
ĠK ant
ail le
ĠMill ionen
Ã¶r t
Ġr un
im men
Ġre view
en ze
g lichen
Ġerreich te
8 5
W h
ĠM os
Ġo ber
ok ument
ein t
Ġal ong
Ġunder stand
wa gen
it ten
ĠPr iv
af en
Ð °
ĠF ir
mann schaft
ĠMet hode
if en
is ing
Ġfin det
ĠT yp
ĠJ ust
lich t
Ġ198 2
ser ie
ĠEin zel
ord ing
ill er
Ġas k
Ġunter schied
af Ã¼r
en burg
Ġf lo
ĠSch iff
it chen
ĠArbeit s
4 2
g a
Ġ Ã¶ff
gele gt
is ed
ĠM utter
ĠReg ierung
f ert
ist ische
ĠIn ternet
e x
Ġt em
ĠIn sel
Ġse hen
lÃ¤ uf
Ġl ive
ĠAl ter
Ġex p
8 6
ru ktur
ĠReg ie
W elt
setz ung
z a
om an
i ber
A L
ian s
Ġgegen Ã¼ber
Ġden n
ĠF ernseh
Ġcon f
ĠStutt gart
Ġin sp
ĠM er
ĠEr geb
uch en
ĠH igh
p iele
id ing
Ġinter est
p reis
Ã¤ fts
ĠSta at
Ġmach en
Ġcour se
ĠMin ister
ĠSchrif tsteller
ern er
Ġa way
ĠO per
w Ã¤r
st ieg
ach er
o int
ĠÃ¼ber nahm
Ġgel ang
ĠCh ina
Ġ }
en zen
ĠS and
Ã¤r en
Ġto gether
sche ch
' re
Ġs ingle
4 7
Ġh Ã¤uf
ĠDes ign
D F
' m
, âĢĿ
P h
ĠK ur
s etzt
Ġgeb oren
mb H
Ġof fen
Ġ197 8
ĠO t
J ahr
ge gen
ĠV e
Ġins besondere
ĠE uro
Ġgew Ã¤hlt
ĠBeg inn
arbeit er
i ate
ĠI r
ĠD res
ĠH alb
Ġerne ut
ĠPf arr
Ġre du
Ġl ine
ip l
A C
Ġdire kt
opp el
Ġt reat
ar ing
as es
Ġzw eite
Ġbeaut iful
ĠH or
Ġbel ow
Ċ Ġ
ĠPro ble
ĠKÃ¶l n
deut ung
en g
on a
ĠS am
c er
ĠK Ã¼nstler
geben en
ĠR ichtung
9 5
fahr t
k o
Ġcre ate
Or t
Ġf av
erk e
Ġ198 1
cript ion
L and
ĠEurop e
ĠW ieder
t es
Ex ception
f an
Ġme isten
issen schaften
Ġ197 5
Â ²
ges etz
itÃ¤ ts
al og
Ġdevelop ment
Ġges am
mal e
fe hl
rif ten
ĠB or
ab ly
ĠT al
Ġen ter
ĠDav id
Ġ196 8
c ing
all er
os p
n am
Ġen gl
Ġfe atures
Ġn ahe
Ġpro pert
Ġ197 9
Ġex pl
zeich nungen
Ġ197 4
g ing
Ġ197 1
Ġ197 6
ĠD enk
ĠB eit
ĠW al
eth od
Ġk ind
Ġkonn ten
ir chen
Ġerr ichtet
Ġcont rol
c le
ym n
Ġed uc
ust ry
Ġf ilm
ho cke
ĠVor s
le ist
ĠW esten
con om
ĠM ilitÃ¤r
Ġre la
Ġde v
- ,
ĠIt alien
Å ¡
E D
Ġn atur
ent ion
ĠVer trag
Ġze igt
Ġbest and
Ġz eit
ĠJ ournal
te ile
ĠPro zent
ĠBer uf
Ġbis her
Ġp ast
ĠH inter
Eigen schaft
anst alt
6 5
Ġh aving
Ġoff ers
u h
ru ct
ame ister
Ġfor t
ĠB is
ĠR est
be k
viron ment
o is
Ġwh y
4 3
z Ã¼
ium s
ĠE ner
ok al
Ġbes onders
Ġb rand
Ġl ov
Ġan s
Ġ197 3
olit ik
Ġre le
Ġze hn
ĠS ub
ĠS ong
ĠMot or
ĠB ank
ĠSÃ¼ den
Ġd ra
fer ence
id ay
ĠKrieg s
ĠRe v
eit ung
Ġein mal
ĠC D
ich ter
ĠVer kehr
Ġ ir
r ist
b est
ust rie
l as
Ġ {@
Ġent fern
ĠDies er
Ġeff ect
in i
ĠZw ischen
b an
ĠZ we
Ġ196 9
Ġbeg inn
Ġm aterial
ĠR ock
ue ck
Ġle ben
ĠAuf lage
Ġb ody
ut s
Ġc ity
O n
Ã ľ
ch an
Ġc ase
Ġein gesetzt
Ġf our
ĠT urn
Ġdown load
' ve
Ġer m
Ġan geb
ob ile
Ġmo der
Ã¼t zen
ĠZ ur
ĠZ eich
Ġn ight
Ġ197 7
Ġde ut
Ġkl eine
Ġsever al
Ġsch wer
Ġvor hand
Ver ein
ĠLe hr
v ed
il s
Ġsow ohl
Ġp lease
land s
verb and
Ġg irl
zie h
ĠK ind
ĠG mbH
ll t
Ã¶s ung
Ġdel iver
Ġfollow ing
ĠO sten
if orn
ĠSchwei z
ĠM il
ĠG Ã¶
Univers itÃ¤t
k n
4 1
Ġh tt
und er
Ġn Ã¤ch
ktion en
Ġehemal igen
Ġst amm
ĠVerwalt ungs
Ġf ocus
k an
Ġw eb
ĠI ch
schul lehrer
ĠW hen
ĠA uÃŁer
ĠAn ton
ar ian
Ġke y
ĠF Ã¼hr
Ġopp ortun
V on
ĠGes amt
Ġviel en
F ernseh
ĠK lasse
ĠT V
ak en
ĠOn line
geb Ã¤ude
Ġb ene
ĠK al
ĠL ou
St and
B au
ck s
ĠMal er
ĠSt Ã¤d
ĠAn gel
ĠSch ule
) ;
ĠS icher
Ġso cial
ĠSch utz
je kte
ĠAn zahl
ĠII I
Q u
meister schaft
m on
an ze
Ġm aj
ĠTh ese
wo od
Ġle d
Ġverschieden e
I C
h or
Ã¼ ter
Ġp ack
Ġn on
ĠW ein
Ġr ange
ĠAut or
ĠIn stitut
F Ã¼r
Ġof ten
Re g
ĠS elbst
ĠK or
Deutsch land
z entrum
w ar
Ġpr ice
Ġfolgen der
if fe
Ġle vel
Ġver st
ger ufen
Ġ Ã¤
ĠR ang
Ġagain st
Ġ8 0
Ġ ess
ĠP an
ol a
ĠGer man
Ġac ross
at te
Ġm Ã¼ssen
ab hÃ¤ng
Ġst ory
red it
ĠSt r
ĠBay ern
ĠT age
am ens
Ġl og
b Ã¼
Ã §
Ġd ist
Ġt est
ĠL es
Ġall ow
il en
d es
Ġ196 4
Ġgemein sam
Ġal ten
Ã¤ ischen
te id
ĠT rans
Ġeinz el
p re
ĠOrts teil
Ġb ar
un e
Ġm ot
Ã¼r t
ĠCar l
ichte te
Ġbec ome
b ank
sch lag
Ġe ver
Ġh Ã¶ch
ĠVerein igten
Ġheut igen
P l
Ġp ossible
ĠColle ge
ĠA kadem
f red
v oll
ien s
Ġt imes
ĠI l
Ġ196 7
Ġhin aus
v ious
ĠC as
Ġo cc
ze uge
ĠSup er
ĠM ad
ges ellschaft
amp le
Ġbl og
Ġm akes
Ġpr es
is on
v al
ĠBe deutung
rit te
ĠPr ess
t ain
Ġs ide
ĠN utz
itÃ¤ ten
ĠFl or
he mat
je cts
Ġk ur
Ġun til
Ġsh are
Ġem ploy
ir g
Ġcle an
ĠD iv
Ġbeste hen
ob al
co ver
ĠHer zog
ikan ischen
Ġm oney
Ġto t
Ġkl einen
rach te
ord nung
ab in
ĠW eb
Ã¼ ler
ĠN Ã¤
ĠSt art
iziel le
vern ment
Ġm ein
de ck
b rÃ¼
aff el
al z
ol den
Ġst re
m ie
Ġm ich
Ġth ough
ĠIn n
ĠW ie
ĠW irtschafts
Ġcom es
o o
hocke y
Ġp ot
ĠT ur
ĠPro gramm
ĠR ot
fÃ¼hr er
read y
stell en
S eit
ak ter
ĠD el
ĠP osition
ĠE hren
f asst
Ġm ag
ĠB ach
b ack
Ġdan ach
he ther
ĠGr uppen
ĠAm ts
ĠfrÃ¼ her
m el
Ġv ol
ĠM ore
ĠPro jekt
Ġ3 5
âĢľ )
weg ung
ĠB lack
ĠL Ã¼
zeich en
Ġdire ct
ĠJohann es
Ġele ct
z ir
Ġst arb
Ġqu ick
Ġpo int
g n
Ġver kauf
Ã¤us er
id d
Ġsie he
me e
Ġpr esent
ĠC enter
s ide
Ġh erv
Ġdam als
ĠHo use
ĠH all
Ġser ies
f s
Ð µ
ag o
unn ing
Ġcount ry
et ter
Ã¤ch lich
h ang
y e
ĠS ant
Ġim p
ĠfranzÃ¶s ischen
la w
Ġspec ific
g Ã¤n
as il
c el
ĠR ein
Ġr uss
Ġ196 5
werk e
Ġh app
Ġ(âĢ ŀ
ĠO ne
ib r
row n
Ġ +
up p
A P
ist ik
E ine
i j
Ġs ize
Ġb it
Ġ9 0
an o
Ġl iving
i od
x ik
Ġs og
Ġsie ben
Ġmaj or
Å į
Ġle ft
Ġzahlreich e
ĠTh at
ibliothe k
rich ten
B C
w eit
Ġl ow
Ġdar unter
ro ll
Ġ Å
Ġm om
ĠCl ub
Ġver t
sp e
s uch
ro du
ĠE t
stell t
ell ing
re icht
ĠK urz
ap s
ĠBahn hof
em in
Ġph ys
ĠE ing
Ġth ing
Ġso zial
ĠMit glieder
Ġihn en
au en
Ġlie ÃŁ
Ġso gen
Ġ( )
Ġget ting
ĠverÃ¶ffentlich t
la ger
ĠR ud
Ġcom b
Ġ )
Ġ ens
ĠG ast
9 8
Ġyo ung
anad a
Ġ ung
Ġet c
gesch lossen
ĠPhil osoph
m o
ĠKl oster
ĠGesch Ã¤fts
ic ks
pl an
wo hl
f ried
g ent
ĠD istr
Ġzu dem
ur ity
id a
Ġh inz
ut ions
ĠJ ur
ĠBr on
I T
M us
Ġd afÃ¼r
ĠB aum
ĠM iss
Ġa cht
ispiel sweise
Ġme ans
c is
uf act
ÃŁ t
9 6
c ent
Ġse ason
Ġd ien
Ġc amp
Ġbe vor
Ġind ustry
Ġpriv ate
ĠS aint
ĠMe hr
ĠT op
Ġh om
ac y
it en
hr te
ĠK an
ilit ies
ĠJose ph
Ġprofess ional
ĠGemein den
V or
Ġw all
Ġer klÃ¤r
ant wort
Ġar ch
b ung
ĠSt Ã¼ck
ag s
h men
ĠW ochen
ĠEng land
ĠSil ber
eit ere
Ð ¸
ĠErn st
l ig
s burg
Ġres ult
Ġf ar
Ġ7 0
an ks
Ġdah er
Ġn ie
Ġl im
ĠBevÃ¶lker ung
Ġto ol
ĠD et
ĠIn nen
Ġr Ã¶m
ĠKar r
av en
ĠReich s
Ġdesign ed
Ġfriend s
d in
ĠH ers
ĠR und
am in
ĠSie d
asch inen
m as
Ġsp ace
f a
ĠG od
Ġz usÃ¤tz
Ġl ag
ord in
H och
ge fÃ¼hrt
um er
ĠJ ames
ĠG i
ĠL o
ettbe werb
ut ure
Ġer Ã¶ff
ĠD om
Ġex tra
9 3
6 6
ĠlÃ¤ sst
t ler
it ze
ymn as
re w
it ch
Ġcal led
Ġ Ã¤hn
sp rach
Å Ĥ
tem berg
ĠM Ã¶glichkeit
arbeit en
v est
Ġz og
Ġrequ ire
Ġmember s
h aupt
' ll
ĠZ um
hl er
em b
ier ungen
Ġvorhand en
A mer
Ġcomp an
. :
Ġal ready
itz t
or den
Ġsoll en
Ġhand elt
Ġ196 6
Ġzur ueck
Ġjed er
Ġ196 1
Ġ193 3
Ġcont act
at Ã¼r
Ġe urop
ĠInformation en
Aus wahl
ĠDres den
ute t
Ġwel ches
ĠRich ard
r am
or m
Ġw ind
sch eiden
Ġw a
Ġv an
ung sp
Ġ194 0
Ġentstand en
ĠS yn
ĠM el
ĠhÃ¤uf ig
Ġp urch
ch ter
Ã¤nd ern
Ġ193 9
Ġbie tet
em ents
ĠAn n
ich en
n ach
Ġeigen e
ĠWh at
qu e
ĠEr d
ĠR os
Ã¶ ÃŁe
ak er
H er
v an
Ġoff ic
ĠT ab
ĠÃ¶ff ent
r or
ĠS achsen
âĢ Ķ
r im
ĠAustr al
th rows
ict ion
k el
Ġl at
ast ic
arr iere
ell s
Ġtechn ology
Ã¤ chen
ĠP et
Ã¼r d
Ġkn own
ĠF ort
sch iff
ĠL u
ges ehen
Ġstar ted
etz ung
og le
Ġprov ides
Ġbefin den
Ġp ie
fl ug
ĠAuÃŁer dem
" .
Ġo thers
Ġcol or
k i
ĠkÃ¶n n
G em
un sch
ĠServ ice
ĠK rit
ward s
Ġco up
Ġin n
ĠSe c
f ung
Ġbe ispielsweise
ang er
rie ges
Ġeng ine
Ġd one
Ġerw Ã¤hn
mÃ¤ÃŁ ig
ĠB y
ĠB ot
ĠB Ã¶
ĠBerlin er
Ġzu vor
Ġ193 0
es tern
ĠSt ates
ĠV al
Ġam er
bar en
ab y
Ġl ink
ub le
esten s
geb ung
es ted
Ġbe de
ĠIn stit
ian a
br uch
A nd
ĠAss oci
ĠS u
as er
Ġf al
Ġzw ar
Ġtra vel
te g
Ġ19 20
Ġ193 8
Ġmo dern
ĠP sych
Ä į
Ġinst all
W est
Ġd eb
Ġsich er
b ol
eh men
on en
Ġw oll
Ġwen ig
ĠK ategor
ĠSt ar
r ies
ĠD ruck
el ten
ide os
Ġdisc uss
m ost
s eite
Ġbu y
Ġadd ress
ĠLe ague
ĠEr folg
ĠEn gl
w ind
Ġst yle
er ing
par te
Ġf ield
ĠK raft
og n
fl Ã¤che
ĠA G
ĠKarr iere
a un
r unde
ann e
Ġs en
ĠE mp
ĠDre h
Ġw ahr
im s
Ġide as
z i
Ġt alk
Ġret urn
ĠG re
Ġgen utzt
0 5
le ge
w esen
Ã¼ hle
Ġ196 3
Ġentsp rechen
Ġdam al
M et
Ġchar ac
O S
ĠE igen
we gen
Ġver sch
Ġabs olv
F l
ide d
Ġfol gte
re ibt
ĠBo den
Ġh ours
Ġk itchen
ul a
Ġim age
Ġletz te
Ġb lack
ad urch
al tet
ĠRe al
geb ie
Ġwo hl
Ġsup er
or ie
at ers
k reuz
ĠE ben
ĠZ Ã¼r
Ġh uman
Ġpop ular
Ġte xt
te in
Ã¤l fte
ge m
Ġun ique
ĠSe x
ĠC an
ĠgehÃ¶r en
Ġschn ell
ĠK Ã¶rper
ĠM ac
Ġlie gen
led ge
z us
fl anzen
och e
ĠM aterial
ĠStud ien
Ġ( =
iv il
ern en
Ġstell te
Ġh Ã¶
ish ing
ĠR oy
ic y
ĠF el
o ught
ut or
auf en
ĠSch wer
Ġw atch
Ġm ass
ungs k
ĠFl uss
te xt
ĠDe c
ĠP o
ic ro
Ġbest imm
ĠPol iz
ir c
ik al
Ġen er
onst ru
b ten
om ot
ĠHer mann
Dies e
Ġst ay
Ġwen iger
it a
ĠB ook
Ġbe teil
Ġh istory
Ġre gel
ĠS telle
g re
ĠH in
ĠF ac
Ġk lass
Ġdeut lich
res h
c ome
Ġgef unden
on ne
in ed
ing t
ĠW enn
Ġen vironment
Ā Ā
ar ed
al ys
ĠÂ »
Ġsim ple
ĠRei he
ĠB u
ĠP rÃ¤
ĠP rem
Ġver lie
ĠSal z
ĠVors itzen
ien ces
Ġen ough
ikan er
Ġs ug
ĠB aden
ĠA ben
Ġup d
haf t
Ġor ganis
in ts
Ġt ype
ĠJ ac
fin ale
* *
8 4
ĠT her
part ment
Ġbuild ing
s eit
Ġteil weise
w asser
Ġverb unden
for sch
ĠGe orge
ĠF rie
Ġso ur
i ar
ĠĠĠĠ ĠĠĠĠ
, "
Ġs or
n es
ct ive
rÃ¼ ck
Ã¤l ter
Ġwicht ig
ak te
Ġne ar
P ar
ĠG leich
Ġstud y
ĠT ele
Ġ196 2
ĠG al
ĠZ ust
ĠVerb indung
leit ung
Ġ194 4
ĠAkadem ie
ch ester
ĠL age
Ġme an
ĠMÃ¤n ner
ĠSp iele
Ġw elt
b esch
Ġhe i
ĠUn ion
ĠProdu kt
Ġlin ks
he ira
el eb
ĠKÃ¶nig reich
b are
ĠK ons
enn ung
Ġs tellt
w in
ĠD own
Ġc ent
ĠCh amp
ile d
Ge ographie
Ġw on
S h
ĠEr sten
ĠSp rache
yn am
rol le
Ġ195 6
Ġfolgen de
Ġall es
Ġer reicht
Ġsp an
ĠBes itz
Ġbef and
n ers
it ure
ĠC ommun
Ã³ n
Ġth ought
Ġbes ten
ĠHo tel
Ġloc ated
ĠD ate
Ã¤d ag
A ll
ĠP op
rie ch
Ġinc re
ĠStre cke
Ġb in
ĠBru der
ĠFre und
b st
ang es
s c
is c
aup ts
fass ung
R E
ger icht
Ġ195 9
Ġcont ent
lie ben
ur ance
Ġm ethod
d am
ĠT est
ze hn
ĠNach dem
Ġgleich en
letz t
Ġc ame
ick en
Ġw alk
Ġsom it
Te ilnehmer
Ġvar ious
ra el
Ġf alls
kt r
Ġch allen
pla y
ĠR em
Ã¤t zen
w art
at um
Ã¼s se
rie f
ĠAr ten
5 6
Ġe arly
Ġnach dem
Ġ195 8
Ġtra ining
ĠOt to
ge hen
Ġre port
Ġw onder
ĠB ilder
il er
ier ter
Ġ194 6
Ġcustom ers
Ġc ard
ĠPh ys
geord net
ĠS l
Ã¼rt temberg
Ġw issenschaft
Ġ195 2
ĠA k
ĠG eld
ĠJ azz
Ġrel ations
fra ge
i w
Ġre pr
Ġfr ont
ift ung
Ġsog ar
8 3
nd er
stre cke
ent wicklung
ec ts
Ġevery thing
un c
ig in
Ġcert ain
ĠC amp
ĠSt at
Ġte ach
st ud
Ġproble m
ĠL og
Ġindivid u
r ation
ĠN etz
ag t
Ġj etzt
Ġ rad
Ġin de
an lage
ĠRe publik
ĠHer ren
ĠgrÃ¶ÃŁ ten
ĠSch Ã¼ler
ĠNÃ¤ he
fol ger
ĠWolf gang
b or
ĠH essen
ĠH al
ĠW ol
por ts
Ġp ur
T rÃ¤ger
9 4
Ġgen au
ient en
ĠWill iam
ran ge
Ġm illion
ĠM ass
ay er
ring en
Ġwh ite
Ġdo ing
as en
Ġein igen
k ap
jÃ¤hr igen
Ġcompan ies
g ere
Ġl ik
ach ten
Ġcomple te
v is
itu ation
us ion
Ġl ate
Ġ194 9
ag ing
ĠPolit ik
ĠC le
f Ã¼r
st ant
r al
b ro
b ra
ĠCh or
ĠE U
Th ere
Ġauf genommen
fahr er
Ġn ichts
Ã¼l t
. <
Ġf it
Ġres ults
.. ..
b Ã¼rger
k und
ang s
9 2
Ġs n
C hr
o unt
l ad
arbeit et
E M
Ġpropert y
Ġbei de
ĠG roup
Ãľ ber
ĠGe ist
gel Ã¶st
urn iture
Ġag o
ĠI d
Ġpre par
Ġk amen
if y
fÃ¤ h
e ter
Ġpartic ular
ot ball
Ġd oc
Ġle ader
Ġ195 7
Ġauth or
Ġo p
Ġm ess
hl en
Ġsetz te
ĠW issenschaft
ĠGeb ie
wert ung
Ġinclud es
g liche
ge hend
ĠO ct
ĠJun e
Ġmed ia
ĠK auf
age d
ĠK re
oll ar
Ġm iss
Ġh Ã¤t
ĠSer ie
un ge
Ġent hÃ¤lt
Ġl ar
P S
ĠN ow
Ġac count
ĠIs land
Ġfav or
ĠD eb
Ã¼l ler
os sen
uch er
meister schaften
Ġ195 5
ĠJ es
A M
ĠSie g
b s
ĠJ ack
rit z
ĠE du
8 7
Ġcomp uter
w esten
ĠHil fe
ĠSpiel en
0 6
U m
an ken
Ġrec ommen
tag s
i ro
ĠC ent
ash ington
ĠStadt teil
Ġgele gen
ĠR ob
ĠPro f
be zirk
Ġman agement
Ġakt iv
Ġmonth s
ur ther
ĠPr es
Ġcurr ent
ĠA c
ig ungs
ĠAr m
an ces
ic ation
Ġact ually
ĠB ud
isse ur
u hr
ir es
Ġnew s
Ġentfern t
ĠVer fÃ¼
Ġinv olv
s ie
av a
ĠF Ã¶rder
ens ion
ig lich
Ġe conom
tre ter
Ġf uture
ĠW alter
ut zen
1 00
W hen
Ġperform ance
Ġh ig
ĠMus ic
ĠFrÃ¼ h
ĠF le
ĠL iga
Ġto ok
Ġre chts
ĠI D
ca dem
h inder
k unft
om et
Ã¤hl en
Ġmach te
ĠS old
Ġer ster
Ġon ce
ĠGe f
Ġoff ice
Ġa ud
p rÃ¼
ĠA th
Ġbes uchte
ĠWerk e
Ġvoll stÃ¤nd
ut her
Ġer k
Ġde al
ĠH Ã¤lfte
Ġcomp et
ĠGra nd
Ġam ong
Ġgeb aut
ĠC ap
ĠBÃ¼rger meister
ĠB d
ĠC am
Ġmin utes
ĠauÃŁer dem
Ġ5 00
M ed
S S
p ark
ĠL Ã¶
iv ely
ip ment
ĠN ik
f ten
ĠK ampf
ĠK ing
Ġle g
Ã¶r m
ĠY our
so zial
ã ĥ
ĠA tt
ĠB ack
ĠG est
ĠAl le
amer a
Ġdid n
ges tell
schlieÃŁ lich
ĠSp r
Ġ195 3
p age
ch ie
ĠA st
ĠR iver
Ġab ge
ĠThe ma
Ġman ufact
z iert
ak a
it sch
ĠHann over
S port
ĠW and
hand lung
l ant
p ut
Ñ Ģ
ĠPro t
Ġcl ick
or ies
8 2
ĠM ess
Ġam az
ĠZu ge
v in
==== ====
or ed
press ion
ĠAlex ander
ĠGra b
ful ly
H and
w es
Ġs ett
vent ion
k athol
ow jet
Ġ4 5
d f
m od
k ret
im ate
Ġm atch
6 4
ĠK le
ĠAuf trag
wohn ern
ĠFe uer
S e
ĠB und
Ġz erst
Ã¤ch s
Ġresp ons
ĠS in
ĠMed ien
Ġmod el
ĠT eile
ĠV iel
Ġy et
anc ial
ĠZÃ¼r ich
9 7
ĠB al
ĠM ond
ad s
air s
9 1
Ġrest aur
ĠSt amm
ĠAl b
ad o
Ġre ach
Ġsch rieb
ĠJe an
Gem ein
ĠG et
Ġgew esen
lÃ¤ ss
f rei
in ge
Ġg re
. -
F rau
un s
Ġread ing
ĠC la
Ġer ziel
Ġ194 8
eit her
ww w
Ġg ames
Ġpartic ip
P r
Ġd ate
us st
Ġh ope
et ten
S tra
Ð ½
ich e
ĠI hnen
lie d
ĠKon z
Ġw ent
he t
ĠAn geb
ĠBe zeichnung
ĠUnter such
Ġ195 4
ĠA cadem
Ġv eh
d t
o den
ĠF en
ĠF uÃŁ
ran t
ĠF und
ed en
ste hen
ĠLou is
b ook
c m
en te
ĠC r
ĠA fter
ĠfranzÃ¶s ischer
ĠwÃ¼r de
Ġh old
omm ers
ĠHer aus
ĠSoc iety
Ġf und
ab eth
ĠUnter stÃ¼tz
Ġ194 1
Ġ193 6
ĠArt ikel
Ġcomm on
Ġbre ak
ĠverÃ¶ffentlich te
A D
ĠA ugen
Ġn atÃ¼r
Ġmehr eren
ĠD ay
ĠZ entrum
Ġver m
ĠW irk
ad a
av y
O ur
ĠL ied
ĠMit arbeiter
z we
Ġt able
Ġiss ues
Ġs ays
f ar
h il
y a
Ġan schlieÃŁend
ress e
Ġwrit ing
mit t
Ã¼ss eld
heira tet
ist an
S C
Ġho he
ple ment
g round
l iste
u a
Ġf ert
Ġsome one
ĠKompon ist
at ors
ĠRe ad
imm ung
S etzt
i i
C D
Ã¼ ste
le iter
Ġpr ess
A t
ur a
k r
Ġso ftware
ĠGes etz
nde te
ann ing
u ed
Ġd ivers
ro t
ren g
gew iesen
Ġare as
ĠAr mee
r uf
ho ut
Ġstr ong
g ien
ĠEl tern
Ġc ra
Ġem ail
Ġnatur al
Â »
sta at
f ield
ĠKir ch
ĠZu dem
Ġcom fort
ot te
zie hung
ra chen
end es
aler ie
ĠAl bert
ĠR unde
ne ter
Ġhal f
r ig
il led
ĠKÃ¶nig s
bet rieb
Ġbe deut
Ġle ast
ĠnÃ¶rd lich
ĠL aw
Ġ3 00
Ġ194 3
ĠW all
ame ter
ieren den
w al
ĠF ree
ĠgrÃ¼ ndete
Ġs il
Ġk athol
Ġar r
Ġihr es
Ġann oun
Ġcom par
E T
Ġf ive
ra in
ĠR and
ĠC our
olog ical
Ġehemal ige
g g
ĠD or
ĠW ashington
Ġto ur
Ġge d
be ck
Ġunter stÃ¼tz
Ġpos ted
a at
Ġsoll ten
ï ¿
ĠR at
ĠU p
ĠursprÃ¼n glich
ci ally
Ġth er
Ã ¢
iden ce
e ign
or es
ĠO pen
olog ische
ĠDies es
t ritt
Ġ195 1
Ġt aking
sch riften
ĠW ider
t d
ĠW ild
ze ugen
ĠA uÃŁen
ĠK ranken
Ġdet ails
Ġper iod
Ver lag
Ġherv or
as te
Ġp ick
Ġver d
Ġj oin
Ġr icht
abr ik
wie gend
Ġle icht
Ġquest ions
Â °
Ġre cht
ĠComp any
ï¿ ½
T o
ĠFin anz
Ġprofess ion
m useum
r hein
or te
Ġc la
ĠMo unt
i est
Ġk einen
eb ook
âĢ¦ ]
Ġass ist
Ġsel ben
ĠT im
ĠK unden
Ġev angel
ist ic
gen cy
ĠSt ock
zeug t
ĠEisen bahn
ĠK ommand
sp iele
Ġor iginal
it ar
de ckt
ĠDan ach
Ġ ill
ĠSt ad
Ġex t
olog ischen
w ill
ĠsÃ¼d lich
ĠL eiter
um ents
ĠTr uppen
ict or
r up
ar th
ib ility
ĠNach folger
ĠPol en
zir ks
on ie
Ġp aper
we isen
ĠB ill
0 1
G B
Ġw id
ĠF ern
ell ow
mal er
Ġin tegr
Ġwho le
Ġapplic ation
Ġv o
if ikation
ĠVer l
ific ation
Ġwei ÃŁ
ĠH eid
Ġev ents
ĠAmer ica
er ie
Ġt it
ĠP DF
Ġst aff
Ġne g
v a
Ġre ason
Ġin form
Ġpro b
ĠAus bildung
Ġd iff
le cht
ĠO ut
Ġgemein s
ĠM ein
ĠP il
-- --
Ġstamm t
Ġhe art
ĠPar te
il det
ĠS Ã¤
ĠA ct
ĠnÃ¤ch sten
et y
Ã¶ hn
ĠVerfÃ¼ gung
E L
e ded
ĠA re
ĠA ber
ĠV ideo
Ġaus gest
iz es
Ġch ines
Ġlat est
w an
Ġm acht
k unde
Ġre f
Ã¤t igkeit
ĠStud ium
or ing
eit et
hal ts
ĠL os
ho ben
ĠChar les
M an
Ġa ge
Ġb ad
Ġdoes n
ĠL icht
Ġne un
ret ty
ĠSchl acht
o on
Ġf ra
Ġclos e
ĠS Ã¤nger
Ġse en
Ġgo vernment
20 18
Ġfe ature
Ġsystem s
Ġm Ã¶ch
ot a
ĠZeit schrift
Ġ194 7
ĠHow ever
ĠU K
ite te
ĠLe hrer
ail y
as chen
ĠEle kt
ug hout
mer k
Ġ193 4
h ib
ĠK opf
Ã¶ ll
ab les
Ġpr im
Ġf rei
ran sp
ĠFl ugh
ĠStre et
k or
p ol
Ġr en
Ġen c
b ark
Ġ Ã¤lter
ip le
ĠAl ten
zeit en
Ġcho ose
b ischof
if fen
ĠM ult
ĠVer d
Ġres our
Ġaut omat
ĠDam it
g as
ĠÃ¼ber n
Ġevery one
Ġentwick elt
ĠBrit ish
Ġ Ã¼b
Ġre d
ĠBe k
Ġb i
Ġh air
Ġg iven
ĠPhil ipp
ĠGrÃ¼nd ung
ĠB on
ĠD ach
Ġappro ach
ĠerwÃ¤hn t
ĠK ra
all ow
Ġcolle ction
ĠSt il
Ã ¸
Ġ194 2
ĠD oppel
ĠBe griff
ĠProdu ktion
Ġsch loss
Ġgem acht
Ñ Ĥ
ĠC ons
Ġver ein
ian o
ĠÃĸ ff
Ar ch
is es
Ġh appen
l ern
Ġb reit
hr t
0 2
0 3
ĠMe er
ĠBas is
ĠAssoci ation
G es
Ġv ia
Ġho hen
bo ard
Ġd ue
ĠV en
l Ã¶sung
Ġqu ite
ur al
de ten
ar f
ĠSte uer
Ġpol n
0 9
ĠG arten
Ġbo x
E le
f unk
Ñ ģ
z immer
Fernseh serie
m und
Ġuns ere
âĢ ĺ
6 2
Ġb ath
Ġf ace
ĠGl as
ĠDenk mal
Ġp ain
ĠL im
lin ie
c ar
omm ission
ĠNach t
o id
te ten
6 8
Ġe her
c ol
w irk
Ġn etwork
ĠReg ierungs
ie ger
ra te
ĠMa ÃŁ
Me ter
Ġsp ielt
Ã¤nd ert
ĠfranzÃ¶s ische
il ar
ĠT ier
Ġk osten
ul es
ĠMar ch
p hen
ing les
Ġco ok
Ġp osition
ver walt
amil ie
com ing
Ġabsolv ierte
f ace
au d
Ġd ritten
Ġb le
Ġp ersÃ¶n
Ġcre ated
ĠZw ei
richt ungen
ĠN S
Ġm em
ĠArbeit en
t schaft
à ¤
Ġread y
ĠD Ã©
rÃ¤ fte
Ġger ade
ĠF rom
ĠC up
ot o
gr am
ĠS ym
Ġc op
sch uss
ĠR en
5 3
ĠT on
ĠW ahr
ic les
end orf
Ġab ove
g ers
r ug
w h
ĠB ig
ĠServ ices
Ġener gy
0 7
ĠForsch ungs
0 8
Ġn ull
Ġcl ients
W ir
âĢ ¢
ĠJ ak
ĠVer Ã¶ffentlich
aus ch
ĠGr enze
unter nehmen
ial og
Ġc eleb
ĠL ake
ĠHer z
Ġeben so
ĠKategor ie
Ġex am
Ġide a
af r
ĠAnd reas
M S
ĠR Ã¤
Ġ3 2
Ġknow ledge
u it
Ġt ax
Ġs elf
Ġal most
Ġad min
ĠSp ring
Ġfun ction
ĠG reen
ĠRe gen
Ġt w
re cher
ĠT it
ĠL Ã¤nge
ĠV og
stell ungen
Ġvers ion
ograph y
Ġbesch Ã¤ft
ĠT rad
ĠF Ã¤
ĠErgeb nis
Ġw ide
ĠU s
ĠFran cis
0 4
Ġart icle
6 3
w ell
re publik
ĠK laus
ir th
unk ten
mar kt
F A
f Ã¤l
Ġj Ã¼d
Ã¤nd ig
Ġbelie ve
arbeit ung
ĠMin uten
ĠLin ie
Ġd istr
ĠH u
ĠH y
ĠGes und
por ted
Ã¡ n
z uf
Ġs ale
ĠE st
ze igt
ĠAb s
Ġcon stru
ik um
Ġsch l
pe cially
Ġph one
lichkeit en
Ġz ie
Ġge ben
Ġex ample
ĠGeb urt
ich ert
ĠD okument
Ġj Ã¼n
Ġj Ã¤hr
k y
ĠStand ard
Ġal te
am ed
per atur
Ġeinz ige
Hoch schullehrer
ĠPoliz ei
ĠS ommers
ĠP lease
Ġfin anz
b us
or a
ĠV is
ĠRe cht
gr enz
s erv
z Ã¤hl
in os
Ġs ym
re ise
ĠI ll
ĠH ere
Ġl ater
5 8
ĠW ort
Ġj a
un a
Ġf ul
ĠA v
Ġto wn
ĠNach bar
Ġ193 7
Ġben annt
ĠE ast
Ġwel cher
ĠUm welt
Ġopt ions
ĠD Ã¼sseld
ĠMat hemat
K on
ath let
ĠFol gen
E urop
ess ion
Ġme as
ĠEn ts
b ie
ĠK ern
rei he
ĠK er
ĠAn na
Ġoff iziel
ĠB usiness
af t
h i
n o
Ġs ong
Ġeduc ation
ĠD igital
Ġk ont
amerikan ische
ĠEv angel
Ġad ded
ĠfÃ¼hr en
al a
Ġhe ira
ĠVol k
Ġum fasst
bl ick
ĠVers ion
hÃ¤lt nis
ĠFir ma
ip e
5 1
Ġunser er
Ġf ire
Ġ[ âĢ¦]
Ġj apan
Ġne ues
ĠÂ «
5 7
O T
ct ing
us ive
ĠT urm
6 7
el berg
ĠT om
Ġent ire
fall en
Ġa chie
ĠP unkte
enn is
Ġgesch lossen
ymnas ium
et ing
ĠPr inz
Ġwoll te
K reis
ĠJ er
w urf
Ġ193 5
ĠOff izielle
a ill
f its
neh m
ĠSc ience
iforn ia
E C
ĠK as
Ġde ter
Ġcom mit
Ã¤d chen
istr ation
Ġern annt
idd le
Ġweiter hin
iz ing
a ktion
g arten
Ġs onst
W er
end ing
Ġvar iety
Ġ Ã¤lt
Ġs ales
ĠU N
Ġcurr ently
I ch
ah nen
Ġhtt p
i ally
gr uppen
Ġhe ld
Ġem pf
wissenschaft ler
6 9
iqu es
ĠRoy al
6 1
an ted
Ġpolit ischen
ĠS C
Ġent halten
p ass
En t
ĠPriv at
he ad
Ġf urniture
Ġver heiratet
ell ent
Ġbes itzt
Ġsel ten
Ġindivid ual
( )
ĠGÃ¶ tt
c up
Ġs ens
mus ik
ie ur
ĠI st
qu al
N ational
O M
ĠH an
ĠSt affel
Ġp aint
ĠP flanzen
Ġsim ply
Ġquest ion
ĠR itter
p rÃ¤sident
5 4
ĠS ar
ĠB us
Ġreg ion
ĠSc ott
b aum
ĠVerein s
M od
ien ste
ĠNew s
v on
Ġp le
im um
e ks
re chts
Ġpre vious
Ġthro ughout
ĠPla y
ĠEner gie
h ab
Ġausge zeichnet
Ġd og
at o
et ball
ing ungen
ĠDan iel
8 1
Ġf urther
Ġge pl
Ġun ivers
Ġinternational en
h istor
Ġdes cription
Ġrec ently
ĠKant on
5 9
ers eits
ĠOr d
ĠG as
Ġne uer
ĠVer gleich
sch t
Ġprovide d
Ġcle ar
ĠSchauspieler in
ĠThe men
Le gt
orn ing
Ġp ark
ĠT own
Ġmind estens
ĠRud olf
l ament
ĠSh ow
u age
anst altung
ĠWien er
stÃ¤t te
Ġamaz ing
Ġh ost
ĠK osten
ĠAn schluss
Ġentwick elte
ĠGo ogle
5 2
x is
Ġh ot
Ġe p
ad es
parte ment
Ġdamal igen
S V
z ip
Ġc m
ĠN ic
Ge grÃ¼ndet
Ġk ids
ĠP unkt
ĠPort ug
Ġp sych
Ġsk ills
Ġbil den
Ġbil det
Ġc ur
Ġmit tler
Ġbook s
ĠPart ner
rech end
Ġproble ms
ie fer
etz en
Ġp an
Ġat tra
ĠZeit punkt
Ġint rodu
ĠÃ¶sterreich ischer
Ġc rit
ĠChe m
ĠJose f
ĠSt unden
th ough
spiel en
Ġst ore
ĠRe ise
low ak
sch ei
ĠFest ival
ĠIn c
ĠMan agement
Ġrequ ired
Ġopportun ity
Ġge geben
sp l
ash ion
Ã¼r n
Ġes pecially
ĠD isk
zen e
ĠD ipl
ĠV an
Ġeinzel nen
Ne w
Ġf iel
le gt
Ġp retty
Ġins ide
ren nen
Ġrec ent
Ġspe ziel
Ġd igital
ĠA ust
Ġge hen
ieren de
Ġz ust
ok omot
is ted
un ion
Ġf a
Ġt aken
Ġge k
Ġsh ows
pro chen
Ġl iter
Ġan alys
ĠO f
ĠA ch
ĠRec ords
ĠEngl ish
ĠB ul
ro ffen
ĠL uc
ĠerÃ¶ff net
Z u
Ġ either
Ġw ays
ed ia
Ã¤t ter
sel ves
los e
Ġra te
Ð¾ Ð
ir ch
Ġens ure
it ts
ĠOr gel
geord neter
ic ult
Ġgener al
Ġtot al
w here
Ġw ww
at iven
Ġm at
ĠBe zirk
ĠV oll
Ġver lÃ¤
Ġactiv ities
osp ital
t ime
Ġus er
ĠCar ol
Ġrel ativ
k ur
ĠR Ã¶
g le
y ear
west lich
Ġw es
Ġloc ation
Ġinn ov
ig ner
Ġst ammen
op t
ĠEin wohnern
Ġdar Ã¼ber
Ġs le
ĠS tern
if ik
techn ik
h ing
ĠS ter
ĠR a
ist ent
Ġso on
Ġsec urity
ĠVerkehr s
T V
Ġw hether
Ġpl ans
ĠBre men
Ġcustom er
f alen
men te
Ġne eded
Ġlearn ing
c rib
Ġmit tel
F C
hen s
Ġerreich en
B o
m ot
Ġrel ig
mÃ¤ ler
Ġphot os
Ã¤n gen
ĠUm gebung
on ym
am ing
ok e
chn et
ĠEr fahr
Ã¤hl te
an lagen
Ġp oss
ir it
Ġd Ã¼r
r is
Ġst ruct
ĠHe alth
Ġreg ul
p ielt
ĠSch Ã¶n
Ġass oci
p el
u ary
Ġs we
ĠIn vest
O ber
Ġw anted
ĠT ages
ĠO pt
u hl
ĠInd ustrie
Ġabs ol
denk mal
Ġtreat ment
C ont
o der
ie ÃŁ
ĠH art
Ġs ummer
Ġke hrte
Ġstand ard
s a
Ġt akes
ĠL au
ĠVer t
ĠSchw arz
ĠWh ite
g arn
v els
| }
Ã ½
Ġpart y
Ġpract ice
H ol
u ert
st att
ĠEx per
ĠFin ale
le tt
ĠgrÃ¶ÃŁ te
Ġrela ted
at is
Ã¼ cht
Ġse em
B ahn
I P
I V
M y
l im
ĠW as
ĠI V
ĠNe ub
at form
Ã¶ sen
ĠMar y
fr ast
Ġmarket ing
Ġ19 18
Ġus ers
ĠMed izin
Ġerfol gt
spr uch
ĠW ies
pe cted
ĠHand els
k au
ĠH is
Ġb lo
os ph
ĠUnterstÃ¼tz ung
ĠM Ã¼ller
Ġim ages
wÃ¤r ts
or gen
ĠM as
ĠV ictor
Ġtro tz
Ġgesam te
ĠDiv ision
d y
h ers
Ġbu ilt
we chsel
ell o
hal te
ĠL ife
e kt
ĠL eitung
Ġre pla
Ġbet rÃ¤gt
Ġdec or
Ġequ ipment
Ġhapp y
halt ung
D es
Ġs ites
Ġg riech
Ġpro jects
ho use
Ġro le
Ġ192 8
ĠÃ¶ffent lichen
ĠOct ober
gemein schaft
ĠMÃ¼n ster
Ġled iglich
Ġw ollen
ĠF irst
ĠZeit ung
Ä ĩ
ĠS ign
Ġer he
ĠEnt scheid
Ġlead ing
m Ã¶
ĠB all
ste ad
ĠTra iner
forsch ung
s b
Ã¤ cht
ĠW erner
Ġco ol
od es
Ġcharac ter
S pe
W ith
Ġa ction
Ġerschien en
Ġb em
Ġc as
ĠM em
Ġh on
Ġdr ive
g u
ĠOr ganisation
do or
Ġdiff icult
ĠB onn
we ig
Ġse par
opp ing
omm ern
Ġstud ent
P reis
Ġt ell
g rad
al u
ĠGr enz
ĠBay er
Ĥ ¬
at ic
icher ung
Ġbrit ischen
f igur
iz ier
Ġb lock
st anz
ten ded
Ġal t
all el
id t
Ġ193 2
ĠLie be
Ġfand en
ĠCal ifornia
Ġ Ã¼
Ġyour self
Ġs ix
in den
Ġprov iding
at ory
In ter
Ġpict ures
ver age
Ġerh Ã¶
Ġdien te
ou ver
end s
haus es
ĠMod ell
fer enz
Ġpr int
fra u
ĠAkt iv
Ġl on
Ġper cent
ĠRad io
Ã¤r k
Ġhei ÃŁt
unc il
Ġch em
Ġconc ern
I L
on se
ĠLe icht
ĠZusammen arbeit
Ġest abl
Ġst ock
ve y
Ġzahlreich en
pla te
Ġin fl
Ġs od
ime ter
ĠFra ge
Ġverl oren
g Ã¤nger
k arte
u elle
ĠAcadem y
Ġheira tete
lie gen
t itel
at al
sch au
Ġ19 19
ĠEin fluss
ain ed
ĠHerr schaft
rÃ¤n k
Ġmom ent
Ġschw ed
ĠGott es
S T
ĠG attung
ĠfrÃ¼ hen
Ġreg ular
Ġtry ing
K ultur
Ã¤n n
Ġwo od
ĠRest aur
Ġehemal iger
PD F
t a
Ġk aum
ang ing
g ibt
en ces
ĠS ingle
ĠAn s
mut lich
ĠF eder
ĠhÃ¶ her
Ġd iv
ĠS atur
Ġz entr
ĠH Ã¶r
ĠH alle
Ġstell en
Ġaktu ellen
Ĩ Ĵ
ĠS n
ĠD och
um Ã¤n
aus t
ĠSp rach
Ġfin ancial
zw ischen
in sel
Ġer setzt
Ġjed en
Ġvers te
ĠEurope an
Ġh ab
ain ing
ist in
ĠJ ung
5 00
om a
Ġtra ck
Ġk rit
Ã¼r gen
Ġmed ical
I nd
v ier
nd en
Ġs etzt
at ik
ĠSp ec
rat s
A G
ĠH ei
Ġ19 00
Ġsc reen
Ġo il
ĠSch le
is ierte
Ġex pert
ĠJul y
Ġ192 5
Ġange geben
ĠHoch schule
ĠInstit ute
lin ge
Ġit ems
Ġprodu ction
sch lÃ¤
Ġus ually
ĠEs sen
Pro du
ĠEp is
Ġben Ã¶t
setz en
Ġinsp ir
Ġm ove
Ã¶ ne
ele g
Ġn ice
ĠOr gan
Jahr hund
K l
ĠS und
ĠI nde
ĠM aschinen
Ob jekt
Ġh or
ĠO k
ĠAut o
str ument
Ġsign ific
Ġ19 14
Ġre v
Ġne cess
ade d
ĠBl Ã¼
Ãĸ sterreich
Ġv e
ĠT Ã¼r
Ġzu letzt
ĠAb schluss
h y
ĠW ed
Ġun ver
C l
ĠBes te
Amer ikaner
ĠW ell
ĠDeutsch er
gew icht
ĠInd ian
amerikan ischen
ĠT schech
Ġiss ue
Ġbele gte
ĠM r
ĠW ebs
Ġall ows
ĠAus gabe
uch ten
rei ber
Ġpict ure
Ġs qu
ĠA ud
Ġany thing
Ġerh Ã¤lt
Ġstra teg
l ers
ĠL ive
ĠC lass
Ġr unning
Ġm ix
ud es
Ã¤d t
ĠAl ler
Ġb ott
Ġf resh
um in
Ġcom ing
Ġro ad
Ġ Ã¶stlich
Ġver k
Ġcont ra
wind igkeit
f Ã¶rm
ĠT w
ĠF ass
ot ion
iel ten
ĠAr n
ĠRes earch
ĠChamp ions
Ġd at
ĠJ ag
Ġso und
ĠDÃ¼sseld orf
R uft
ĠG lo
onst ants
Ġrece ive
Ġo ben
ed s
Ġbeginn t
ĠSch les
Ġwir tschaft
ho od
Ġ192 9
y es
b i
f unktion
v ing
ur er
hockey spieler
Ġst ation
sp ro
ĠEx p
Ġpolit ische
bark eit
Ġw Ã¤re
teil en
Ġn immt
ĠF arb
ne w
sw Ã¼rd
ĠE th
Ġze igen
fass te
c ement
ct ors
ar tet
Ġm er
ĠR ing
Ġzw eit
ĠFen ster
w issenschaften
Ġw ohn
Ġf ix
ĠSp anien
Ã¤nd en
ĠfrÃ¼ h
ĠkÃ¶nn te
Ġa sp
ass el
att le
ĠBr un
lÃ¤nd ischen
p unkte
Ġ ut
ent y
ĠH om
mit glied
ĠspÃ¤ter en
Ġacc ording
S te
Ġ rom
ĠS ur
ĠVer treter
ne e
Ġqual ifiz
Ġst op
erv e
Ġsl ow
ĠW ass
ad y
Ġcho ice
ibr ary
V ers
ĠB il
Ġind ustr
ĠInd ia
Ġgl obal
ĠJ ud
Ġgleich zeitig
Ġpar ts
Ġspiel en
Ġb ald
ig entlich
Ġan z
bl att
ap ie
stand s
Ġeas ily
Ġwe eks
Ġfin al
Ġcoup le
aupts Ã¤chlich
Ġm obile
Ġg ute
Ġ4 00
ĠFl Ã¤che
Ġges tellt
B r
ĠB a
af fe
ĠAn schlieÃŁend
Ġgew orden
h ips
an i
Ġer z
D urch
Ġb us
Ġpr esen
Ġwest lich
verwalt ung
Ġt old
isch em
uf e
Ġl ock
St adt
Ġpre uÃŁ
Ġfavor ite
me hr
tra iner
ĠGer ichts
Ã¤ ten
ĠD ann
Ġwar m
ant as
E is
d s
Ġt ele
Ġer baut
reich en
Ġrece ived
ĠC ast
ĠHer bst
Ġreg ard
Ã £
Ġal tern
Ġam ount
ĠIm m
Ġtra in
W enn
Ġd adurch
Ġin dem
as c
T ra
j or
Ã¶ ss
end ung
Ġdo or
ĠFamilien name
p ret
ind ungen
rÃ¼ cken
Ġho tel
ĠS ome
Ġl aut
yste me
Ġbie ten
b it
Ġvor her
ĠBo x
ĠPres ident
Ġ1 20
ĠFried hof
p ose
ĠI T
ĠSt reit
ĠAr ts
Ġc enter
zeich nis
ĠS onder
Ġwen ige
ĠF ritz
ĠW eitere
heim er
B ut
n itz
Ġd ro
ic ago
Ġem er
ĠAut om
ĠG ro
Ġins urance
at in
ĠN ur
k ra
il i
U N
ĠM erk
z entr
ge hÃ¶r
ver fahren
ĠVer wendung
hol z
Ġwrit e
ĠDem okrat
Ġkn app
ĠIs rael
ĠEle ment
Ġext rem
E O
ĠL ager
Ġ192 7
schein lich
Gr uppe
r as
Ġb ud
ĠM acht
ĠM Ã¤dchen
ĠF ischer
ĠW el
aut or
ink el
med aille
ĠBest and
Ġnor mal
an walt
ĠS y
ut n
ĠVorsitzen der
it ial
Ġp df
Ġz uf
ond s
se qu
Ġc ann
ad el
h te
p ossible
rie be
ĠFac ebook
Ġprob ably
l or
u ell
ĠK lass
Ã¶ p
hl t
ĠRel ig
allow ed
Ġout side
Ġb rachte
or th
ill ing
la f
ĠBe im
O C
b ased
n amen
ĠMo der
ĠPart y
_ _
Ġrepr esent
er o
om s
ipp ing
pend ent
Ġfal se
Ġ Î
at tet
ĠP C
Ġans wer
Ġhinz u
W Ã¼rttemberg
ĠDe partment
Ġco de
Ġinter ess
S Ã¼d
ĠW issen
Ġ15 0
ĠEng ine
Ber lin
ĠJ os
ĠEr k
ĠM ur
ĠSchw ar
w itz
Ġb esser
Ġap art
N ieder
Ġf all
ed ule
Ġsol utions
ger ichtet
Ġ192 4
mittel t
Ġsour ce
Ġm orning
Ġmeet ing
ch ron
W Ã¤hrend
k raft
Ġt ransport
ĠS um
Ġsim ilar
ĠE ss
ĠL ove
au x
fl Ã¤chen
Ġhow ever
b rit
Ġall gemein
org ung
W erke
Ġin j
Ġto uch
ma ÃŁ
Ġbeh ind
swÃ¼rd igkeiten
k omp
ĠB ol
ĠG reat
Ġst at
ĠSold aten
Gemein de
Met hode
Ġm atter
Ġge fÃ¼hrt
ĠD rei
ann er
ĠAn lage
ĠWe hr
Ġhigh ly
ĠFÃ¼r st
T ype
es h
Ġk ennen
s m
Ġis n
P olit
b is
ĠG Ã¼n
Ġc y
ĠO x
ĠFre ib
h auer
ĠG ut
Ġex act
Ġdra w
ĠG olden
ĠGr Ã¶ÃŁe
Ġapp ly
ĠKont akt
Ġaktu elle
Ġbeteil igt
ig uren
ĠSp Ã¤ter
Ġsk in
k ampf
ĠH ill
ic ated
ĠSt ruktur
ub s
ĠAus wahl
l ingen
ĠFra gen
gent in
Ã¼ ge
Ġp orn
Ġb al
Ġth ird
Ġst reng
schaf ter
pl es
Ġerziel te
ĠM ail
Ġh und
ĠLe g
ĠTex as
k lasse
ĠL Ã¤ndern
Ġge prÃ¤
Ġex pect
Ġc aus
Ġr isk
ĠRo ad
Ġinclude d
ĠRev olution
ĠN Ã¼rn
wer ks
Ġtyp es
Ġble ibt
w en
Ġc ut
Ġdes halb
Ġent w
anc y
k unden
im ar
b ul
ie ÃŁen
Ġla unch
ĠM ach
Ġver lieÃŁ
Ġch anges
ĠTeil nehmer
Ġaddition al
Ġt rÃ¤gt
ĠR ennen
Ġde ep
Verein igte
ĠDown load
ĠD azu
Ġg lass
ĠUnternehmen s
erke hr
Å Ļ
Ġun mittel
Ġph il
Ġp rem
ic kt
ĠBau ern
ĠS owjet
Ġc apt
om ie
g ab
ĠK lav
ĠR am
av es
Ã© e
f ur
ĠD at
Ġh auptsÃ¤chlich
sch auspieler
au te
spr ung
M L
el a
Ġcont rib
Aus zeichnungen
ĠI P
ĠZ usch
V erkehr
G er
an ischen
Ġm m
ĠN icht
Ġl ives
b orn
Ġd ed
Ġm Ã¶
ĠK op
Ġfor ward
ĠZ uf
ĠgroÃŁ er
m ission
Ġwir k
rif f
ĠPerson al
ĠKn oten
w el
Ġs yn
Ġle bt
fass ungs
Ġpubl ished
Ġexc ellent
I s
au ber
Ġappe ar
Ġsp ort
r ang
ar ts
Ġbe ach
ĠÃ¼bern ommen
Ġ1 000
Ġausge tragen
jÃ¤hr ige
s berg
ot ing
Ġm ilitÃ¤r
ver lag
Ã© s
K arriere
b a
ĠS S
ĠP a
Ġcom mer
Ã¶l f
le gen
hal le
Ġsignific ant
b re
Ċ ĠĊ
Ġn omin
ir n
ct ic
ĠB ob
Ġent lang
Ġrec ord
Ġlook s
Ġdec ided
Ġflo or
T r
au ern
Ġ3 6
Ġbo ard
irg in
ĠFr iday
ĠK olle
ĠN amens
ak s
ens ive
ĠWe ise
ren ch
Ġany one
ĠMon ate
ĠvollstÃ¤nd ig
D P
ic ip
ul en
ain er
ultur al
ĠPhilosoph ie
I M
f on
w ir
er er
ick et
20 15
Ġste p
ie gen
ĠM aster
ĠAngel es
Ġoffic ial
d aten
ul pt
Ġdes t
ks am
asch ine
ĠM ik
ĠH ard
ic ient
ĠLe on
C H
Ġd ress
Ġin tern
se hen
ĠHeil igen
Ġp ers
ĠK omb
zie hen
ouver ne
Ä ±
reich e
Ġgen ommen
Ġdis cover
Ġrec ogn
Ġgleich nam
ĠDar stellung
Ġel se
B A
ĠC y
Ġsie ht
ĠMar c
ĠRuss land
m ont
ĠRe p
itt ing
ĠTrad ition
Ã£ o
v o
Ġne hmen
Ġverb reit
Ġgra du
N ame
c ast
h och
w Ã¼r
anstalt ungen
Ġincre ase
Ġse ems
age gen
Ġ193 1
ĠStud enten
ĠChrist oph
ĠDreh buch
ĠAn gaben
ĠBl ick
P f
ach im
for men
Ġch rist
Ġges etzt
Ġfol gt
Ġpo ints
ĠWer te
ĠS atz
ien en
Ã¤hr t
Ġsug gest
ĠSicher heit
ĠE ff
Ġdar f
ĠFlugh afen
H ow
Ġso fort
sel ben
Ã¶st lichen
h Ã¤user
p aper
s ystem
ĠBe zirks
Ã¤dag og
A uch
ĠHaupt stadt
Ġd ur
Ġw oman
Ġm el
Ġup on
ĠM and
Ġem p
Ġrecommen d
ĠS ammlung
ĠStÃ¤d te
Ġsogen annten
ĠT ar
Ġ192 1
stÃ¤nd e
ĠDÃ© partement
ĠS V
ist rat
od or
Ġphot o
Ġerm Ã¶glich
Ġbet rieben
Ġitalien ischer
ĠJak ob
e ff
ĠA T
ov ers
Ġall ein
ied lung
Ġfl ow
o od
um n
ĠY ear
ĠR oll
ĠT ransport
ut ive
ĠSte fan
Ġzun ehmen
Ġprogr ams
is abeth
ĠRe publ
Ġbet re
ikan ische
ĠJan uary
Ġ192 3
Ġbed room
Ġimpro ve
Ġc redit
ist ry
ĠZusammen hang
Ġcare er
Ġpurch ase
ĠAben d
Ġw ords
ot es
Ġmaterial s
a ign
Ġ19 12
ĠGegen satz
p erson
Ġm aint
ĠK enn
Ġ192 6
lÃ¤uf er
A F
ĠW agen
ĠL ab
Ġl if
ĠOr iginal
ĠDire ktor
Ġsaf e
ĠP fer
ĠL ieder
Ġle ave
Ġpl atform
Ġcontin ue
Ġ( ,
ĠCh in
ĠEnt wick
Ġmus sten
ĠNational sozial
Ġrele ased
s telle
Ġs ent
ck len
Ġ- -
Ġexper ien
Ġd aily
ĠT Ã¤tigkeit
ĠEurop ameister
Ġbrit ischer
ĠP ier
ĠL i
ĠCh urch
Ã¤ um
ĠP rom
ĠEin s
Ġmov ie
ĠS ing
Ġc irc
Ġwelt weit
iti ative
Wh at
Ġtool s
Ġpie ce
V D
ĠH off
ĠL ux
ist isch
lie der
Ġnot wend
Ġopt im
em e
Ġver z
ĠCh icago
ĠFahr zeug
B S
Ġinter ested
ĠverlÃ¤ uft
Ġ19 10
aly se
aller y
ĠGÃ¶tt ingen
Ġw ed
Ġk anad
B l
Ã º
it ur
Ġb ere
pr ise
ĠNatur schutz
he m
ĠBen utz
Ġf ig
ĠG ust
ĠV ize
ĠBrand enburg
ĠF al
iv ity
Ã ±
ĠSt ahl
Ġ192 2
ĠAustral ia
Ġs ave
aut en
200 8
Ġsol ution
Ġcor re
Ġgesam ten
i h
Ġt un
Ġs ah
Ġc oll
ĠW ork
Ġnot hing
ĠAn g
20 17
Ġgo al
Sch w
Ġpra kt
Ġf il
il a
rech te
Ġverl or
ĠH ab
Ġaus schlieÃŁlich
r Ã¤t
Ġb and
ig ungen
Ġan im
Ġde f
ĠJu den
ĠQ ue
ĠArchite ktur
le ger
alle y
Ġst ieg
Ġ3 4
Ġgesch rieben
Ġgu ide
z o
ĠA f
ĠPf lege
k rit
Ġw ider
le b
Ġask ed
g ner
ĠBer eits
ĠAl so
Ã¶rder t
ĠzusÃ¤tz lich
Ã¤ te
ĠT Ã¼rk
Ġpl ant
Al bum
ĠGo od
S c
ar io
Ġre lease
Ġcom ment
Ġsh op
Ġjeweil igen
ĠPubl ic
K omp
Ġin ternet
ĠZeich en
Ġd omin
ĠC anada
Ġdurch gefÃ¼hrt
ian ce
Ġwrit ten
Ġg anze
our ce
l Ã¤nder
p olitik
ð Ł
ĠVer teid
ĠÃ ī
Ġapplic ations
ĠS Ã¶
ĠD enn
Ġex pla
ĠReg ional
ĠGer hard
ĠChrist mas
Ġgrow th
ĠM un
ow a
Ġre fer
Ġbesch rieben
ar ter
ik o
Ġle bte
gr Ã¶ÃŁ
ph one
ha ber
pos ed
lau ben
Ġc ross
Ġg round
Ã¼hr en
Ġplay ing
Ġcond ition
ĠVier tel
un ts
Ġv ari
Ġwieder um
Ġide al
Ġpot ential
m acht
denk mÃ¤ler
Ġlik ely
Ġsod ass
Ġr ather
lo ud
los en
Ġsaf ety
zieh ungen
Ġbest Ã¤t
fr ont
E l
b ibliothek
Ġd unk
âĢ ŀ
ĠGroÃŁ en
ren z
bo x
sie he
Ġs al
ue ber
ys elf
Ġrem ember
ohl en
Ġme chan
ho den
ĠNe uen
ĠHeid elberg
Ġw in
ĠL oc
ot ten
Ġwe ight
ĠS om
gew and
Ã¤hn ung
ĠhÃ¤t te
Ã¤ ische
st all
ĠR et
Ġpr ices
Ġwork ed
em pl
Ġdarauf hin
k etball
v ors
st attung
Ġp rÃ¤sent
Ġbe ge
ĠAuf gaben
lei ben
Ġresour ces
Ġd ise
Ġprom ov
E hemal
k irchen
ĠMen sch
ĠS us
ĠP ers
ak ers
ĠS icht
ro at
Ġver treten
ĠBild ung
Ġopt ion
cklen burg
Ġun bek
Ġimp act
Ġbede utet
on ial
ĠL ind
ĠL ong
Ġpro f
ĠKinder n
deutsch en
ĠSatur day
ĠN et
ĠPar lament
ĠMus iker
Ġcond itions
k om
Ġt en
zeich nete
reit ung
Ġbe ein
Sch wei
Ġag re
ĠHome page
s achsen
ĠS amm
ĠM att
ĠL aur
Ġde ath
ĠMain z
Ġpos itive
Ġquick ly
Ã ´
ã Ĥ
Ã¼n ft
ĠForsch ung
ĠVerwalt ung
u den
Bau werk
Ã¼t te
p a
u gend
ar es
Ġdes crib
ĠĊĠĊ ĠĊ
w ide
Ġ Ä
ul y
ĠO h
20 10
az in
tr al
wei le
Ġpat ients
stru ktur
ĠBe ach
Ġfe ed
por ary
al m
ĠP or
Ġweiter er
Ġlon ger
t i
ad rat
ĠBes atz
Ġgra ph
o ÃŁ
Ã¤ her
ĠW issenschaften
Ġim m
Ġfor mer
Ġzerst Ã¶rt
ch em
Ġf uer
eb e
ĠPe ters
Ġ >
kt ions
Ġsei en
ĠOp fer
ĠWind ows
C on
d ar
h op
ĠV iew
ce p
din and
ĠJac ob
kret Ã¤r
F e
b as
ĠBr asil
Ġc ause
U R
le gung
ei der
inn ing
Ġv ac
ĠBas el
Ġveh icle
B and
Ġh ielt
ra uch
Ġje de
Ġregel mÃ¤ÃŁig
utn ant
F in
P ol
n ummer
Ar t
A ug
c ont
Ġv ideos
Ġp rÃ¤
II I
ĠEd ition
d r
i ant
ĠD arm
ĠBeit rÃ¤ge
Ġw r
O L
Ġro t
Ġsu it
ĠFr ont
B undes
r id
ĠH on
Ġab ility
ĠHe ute
Ġpl us
ĠCo uncil
Ġeurop Ã¤ischen
Ġb ank
kt iv
Ġ3 3
ĠÂ £
utt ing
umen te
Ġwonder ful
E P
and a
uf fer
Ġ3 8
Ġorgan ization
Ġb leiben
Ġh uge
be wegung
Ġw ord
ĠL y
ĠCont in
Ġhig her
Ġst aat
Ġpro t
Ġdevelop ed
m ine
ĠA cc
ĠV iol
zahl en
as ten
Ġpr ior
Ġpl anning
m esser
or ial
Ġein st
Ġmo unt
Ġpar ents
N eben
Ġlang uage
Ġarbeit en
Z ur
ĠSt rom
gemein den
Ġful ly
F rank
g ut
n y
r ick
Ġd ig
Ġg ives
ess el
ind est
lin es
19 45
ĠSchw ester
le g
em ble
th ur
we chs
ĠOrt schaft
ĠAt lant
Ġâ ĨĴ
Ġtradition al
Ġl os
Ġerst es
Ġhistor ischen
ĠW irtschaft
ĠArbeit er
Ġverkauf t
v ant
Ġm yself
il ien
ĠG Ã¼ter
ĠHen ry
d as
ch ange
ĠE re
ir ge
Ġle gal
) )
or et
le icht
ĠSt atus
ĠPro zess
Ġhand s
ĠIs lam
ĠWh ile
O ne
gen er
Ġon es
Ġse ek
ĠFe hler
ĠBÃ¼ cher
Ġbring en
ĠBron ze
k rieges
Ġander er
Ġcommer cial
Ġs end
Ġb irth
Ġfol gten
Ġtr ip
ĠDe velop
Ġcomp lex
br idge
Ġl Ã¤nger
ab il
Ġ7 5
Ġdis play
ĠMeister schaft
ĠProble m
Ġl angen
ĠÃ Ĺ
chn ung
ĠsÃ¼d lichen
ĠHÃ¶ hen
Ġinterest ing
ed y
k le
ĠE very
Ġver hinder
Ġver mutlich
ug s
ĠEn gel
ĠSpe zial
h agen
j ust
Ġb ul
ach ts
Ġle gte
ĠEin fÃ¼hrung
ĠHo hen
ĠQu ellen
ipp ed
Ġd ient
ĠN etwork
ĠSch lag
Ġgeb racht
Ġplay ers
ĠComp uter
ĠAuss tellung
Ġanalys is
D o
R ad
in de
is ation
Ġf irm
Ġc at
ĠG ran
Ġre fle
ĠZ immer
ĠAb teilung
Ġmehr fach
ige m
pf lich
ĠKarl s
xik on
Ġd om
ĠMat th
Ġbene fits
ĠKlav ier
ĠD Ã¶r
ĠChar akter
ĠE igent
Ġk or
Ġver antwort
Ġro und
Ġatt ention
Ġeffect ive
zieh ungs
j i
Ã¼ gen
ate ur
Ġex tens
Ġwicht ige
ĠAustr alien
ger ichts
Ġch arge
ĠSpiel zeit
Ġaus gew
ag ne
Ġ ult
ĠD omin
ĠN ummer
Ġgesch affen
ven ue
ĠVer fahren
urn ier
hil fe
Ġbath room
Ġe arn
ĠNe ue
Ġ6 5
ĠTechn ik
ĠWo od
it ation
Ġent scheiden
ĠWill i
gebie te
Ġfert ig
os ted
ĠS on
Ġl ok
la p
Ġch ance
ĠGra fen
Ġpart ners
Ġs ort
Ġs aw
ĠVer lauf
Qu ellen
ĠT at
Ġ4 8
ĠverfÃ¼ gt
brit ann
k opf
Ġm eine
ver trag
Ġle itete
Ġh um
ĠJ ob
if ts
Ġgew innen
Ġinc reas
ĠHein z
Ã¤ss er
ĠEdu c
Ã¤ ger
Ġent ry
Ġje dem
ĠÃĸ l
Ġstar tete
u ber
ĠU rs
Ġun abhÃ¤ng
ĠKreis es
laub t
m ond
g ree
t um
el la
reg ierung
For mat
ĠBeit rag
r enn
ĠW ettbewerb
N A
ĠH D
ĠH it
ĠSt immen
Ġwer de
Ġar g
Ġpart ner
er es
at i
ĠD ro
Ġg iving
ĠAl fred
Ġin tens
ig an
Ġer inn
Ġex ec
oh le
S piel
a ber
d ire
ĠM ission
St ud
ĠEl isabeth
ĠBesch reibung
Mus ik
or der
ĠunterstÃ¼tz t
G ener
ĠS ach
ĠP ower
az on
ĠBl ue
st he
ĠR od
se x
akt iv
m y
ĠD ra
Ġe igentlich
minister ium
Ġwall paper
r Ã©
un i
ĠW ach
Ġl au
20 16
ĠgehÃ¶r ten
Ġh alten
ĠTurn ier
ĠSommers piele
ĠV om
Ġerw arb
Ġsuccess ful
F re
d om
w eite
Ġd ritte
ap pe
rit e
ĠUnivers itÃ¤ts
ĠMÃ¤n n
Ġinvolv ed
L iste
ĠS at
ĠS av
20 13
ĠGel Ã¤nde
ĠSant a
ĠSund ay
B esch
s itz
Ġt hr
ĠS eb
ĠW ander
ĠW oche
ran ch
ĠSp an
ĠBes uch
ĠBetrieb s
Ġzw Ã¶lf
ĠGrÃ¼ n
Ġpol icy
Ġarch ite
Ġconstru ction
. ),
ĠA C
Ġl isten
ĠLand schafts
gang s
ĠBar bar
ĠSer ies
ĠKap elle
Ġw ish
te gra
ĠD iss
Ġp ath
ĠWei ÃŁ
Ġatt ack
ĠCent re
R es
h old
ĠT ok
ĠH aut
ĠL et
ĠV arian
ib el
Ġwor th
Ġcolle ge
ĠPap st
ĠDec ember
Ġverlie hen
Ġl ower
ul s
Ġor igin
ĠReg isseur
Ġjed es
ron ic
ĠRich ter
Ġaktu ell
Ġmult iple
Ġgirl s
ĠB la
Ġaus tral
ĠFl Ã¼gel
Ġheut ige
ĠGe h
Ġreg ister
Ġcount ries
Ã¼ss el
ĠNutz ung
ber e
Ġer f
sp er
ĠY o
Ġg ift
Ġl ux
gr enze
ichte ten
Ã¼ ll
ei en
Ġle bten
Ġgo es
glieder t
Ġstor age
ĠErgeb nisse
Ġfinanz iel
Ġd agegen
20 12
p ers
ĠS un
ru it
Ġdec ision
unsch weig
Z eit
i Ã¨
and en
Ġse ction
ar ischen
ĠS uche
ĠÃ¼ber wiegend
ĠOr dens
ĠBeruf s
or ten
an ced
Ġrequire ments
Ġrelations hip
e es
ĠVer kauf
ĠOr te
Ġbet rug
Ġ190 8
Ġerw eit
Ġter ms
ĠAward s
Ġh it
Ġoffer ing
Ġest ate
Ġreview s
l uss
Ġh a
ĠSch rift
glie dern
Ġbest immt
ĠS onn
ag te
ĠFran ce
ĠFar be
Ġangeb oten
ig ation
Ġl ost
ff er
por ate
ĠStre cken
ĠSchm idt
Ġstreng th
" :
u ted
ĠM icro
and ers
Ġ19 13
ĠSt ation
Ġstor ies
ĠmÃ¶ch te
g ment
n ational
ĠW omen
sp rache
ĠFebru ary
ĠErz Ã¤hl
I A
Ġt Ã¼rk
ĠM ost
Ġein gestellt
Ġlie fert
ĠEurop Ã¤ischen
Ġsol che
i Äĩ
ĠR is
ac es
ĠAd olf
ĠMann schaften
Â ®
ĠAut oren
ĠNieder land
Ġf lex
Ġgew onnen
ĠKon zept
Ġele kt
j o
ĠOr ganis
imm el
Ġw uchs
ĠS em
Ġm id
ct ure
Ġro ck
un te
Ġver gleich
ĠTh Ã¼r
ĠKr im
Ġg reen
Ġl Ã¤ng
20 11
ĠPr ies
ock ey
Ġa k
ĠD ub
ĠF isch
ĠAr zt
rat es
ĠFer dinand
Ġunmittel bar
D a
ĠE hr
ĠR y
amer ika
200 5
Ġentsp richt
Ġpat tern
gef Ã¤hr
em a
et ts
20 14
ĠPh ot
s dorf
if er
Ġsp Ã¤t
ĠAuf stieg
ĠSo ftware
Ġger ne
Ġsele ction
brÃ¼ cke
Ġcann ot
st ation
ĠR og
Ġfin ish
Ġpla ces
ĠLeist ung
B is
Ġauf gerufen
id ents
eiter te
ĠFo und
Ġc ulture
Ġg old
ĠN omin
geb racht
Ġ4 2
ĠOb jekte
ĠgrÃ¶ÃŁ ere
ĠFot os
Ġdirect ly
re form
ĠIn tern
ĠAl pen
ĠNach richten
f amilie
Ã¼ st
Ġer forder
Ġgel ten
ĠKrit ik
P re
Ġo l
ĠP od
ĠL Ã¤nder
ĠPro gram
wer be
ĠZu kunft
ĠÃ¼ br
Ä ģ
Ġb aby
ĠT ore
ĠV illa
Ġsch edule
Ġschw ar
O lymp
Ġbe gan
A utor
Ã¶ gel
200 9
ĠSied lung
Ġa verage
Ġn ature
ĠL ine
Ġsch Ã¶n
ost on
T yp
Ð º
Ġt ar
ĠK up
Ġun ten
Ġent h
co very
Ġno te
Ġser ious
S ystem
Ã¼ hm
ĠGe heim
Ġenc our
G ra
Ð »
is er
on ist
Ġf ashion
Ġc ases
ĠâĢ ļ
Ġbestimm ten
rich ter
ĠPol y
am ous
ĠC entral
Ġbe hand
Ġl oss
Ġun be
res p
ĠId ent
ĠFreib urg
f abrik
ick er
ĠStud io
ĠVerb and
West falen
n ot
ĠL eit
ĠSchrif ten
Ġcamp aign
ĠH uman
rif ft
Ġklein er
ĀĀ ĀĀ
y ond
ĠL ig
Ġ3 7
Ġindividu als
âĢ¢ âĢ¢
us te
ĠR osen
ĠL ast
Ġge gebenen
ver treten
ov a
ĠKar ten
or fer
Ġb ase
ol o
Ġle vels
Ġent deckt
Ġdo uble
Er baut
Ġmach ine
m Ã¼hle
ĠH ub
ist a
Ġan aly
Ġber eit
ĠStand ort
is tet
ĠAn teil
Ġstart ing
Ġmess age
C om
Ġd auer
Ġf air
ĠK ammer
ĠMe tern
pf licht
ĠHinter grund
I ON
o oth
Ġs old
ĠE ck
Ġg alt
ĠWe chsel
d essen
or dens
ĠB lock
Ã¤ ste
ĠD ah
ĠK urt
ima tely
ĠFlor ida
c ies
k re
el and
ĠG alerie
ei ht
Ġver lassen
gele gen
ĠBern hard
Ä Ľ
ar o
ĠF ak
ĠZ entral
ĠErz bischof
ĠS PD
Ġp ool
im me
Ġdesign s
Ã¼hl en
ĠA rab
ĠP S
ĠT H
ĠC ho
ap ter
ĠThe ologe
d ate
or al
ĠA R
ĠW Ã¼rz
ĠC at
ho fen
anz er
Nach dem
ch ner
ar kt
Ġf arm
Ġth ous
Ġ3 9
ĠEn ter
Ġfamil ies
' d
ĠM Ã¶
unn el
ĠT agen
ĠR aj
Ġbeen dete
grÃ¼nd ete
ĠInter view
Ġsub ject
ĠSm ith
g au
Å ¾
at ives
ro id
ĠT ime
ĠL ib
ĠC ra
ĠZ us
Ã¤n gt
vers ammlung
ĠFar ben
Ġannoun ced
ĠÃĸff entlich
D ate
N ord
b aden
Te chn
ĠFrancis co
britann ien
w ander
ik i
erk unft
stoff e
Ġter m
Ġroom s
Ġdistr ib
ĠAller dings
ĠT iere
ĠEin heit
ĠLe op
ic ed
ĠAn th
lin ien
Ġdar in
pro gramm
Ġbec ame
ĠWei hn
Ġcreat ing
k ord
Ġd Ã¤n
ahr en
ĠBundes republik
Ġcons ult
ĠArchite kt
ĠÃ¤ uÃŁer
Ġdoc ument
ĠH und
ĠH ir
ĠAb schnitt
fel der
ĠProble me
te uer
ĠR enn
Ġso uth
200 6
geordnet en
i ot
ein s
Ġv iol
Ġc abin
ab et
ĠâĢ ¢
Ġthem selves
Ã¤chs ischen
Ġtit le
ĠWebs eite
ã Ģ
Ġs us
ĠW appen
Ġ19 17
ph an
lieÃŁ t
Ġhelp s
ÃŃ n
ĠCol umb
Ġgroup s
ĠAngeb ot
Ġexperien ced
T S
m ore
Ġv irt
ist ics
ĠO ver
Ġor ient
geb nisse
Ġinter view
arch iv
ĠauÃŁer halb
I d
ĠArch iv
fan ter
ĠrÃ¶m isch
ĠT y
our ney
ĠAuf t
ĠAd am
Ġlar gest
r d
gra f
as ing
ĠInd ustr
Ġrep air
al ing
ip pe
Ġrequ est
ĠPat ienten
ĠZust and
p olit
Ġs un
ĠW in
ier n
ĠSt an
Ã¼ck sicht
ĠÃľ berg
lowak ei
ĠD ir
Ġp et
Ġl ic
ap el
ernse hen
baut en
Ġgar den
Ã¼ m
ĠT a
ei ge
ĠBe zug
ĠFlug zeug
ĠMond ay
l an
as ons
ĠJ on
ath on
ĠGust av
C A
ã ģ
ĠB ass
ĠG ene
ĠK os
Ġ19 11
Ġk om
Ġ4 4
ĠOff ice
Ġweek end
g Ã¼lt
at oren
ĠW affen
ek te
H L
ĠM auer
Ġn et
ĠTem peratur
g ern
il ian
Ġre in
Ġj unge
ĠLauf e
d urch
l ike
re l
ĠC a
ĠV irgin
ree k
200 7
vers e
Ġsur round
ouverne ur
z ell
ĠV o
Ġge halten
az ine
ĠSpec ial
ic ate
fr iend
Ġmax imal
C O
Ġd ark
ĠK och
ĠRe chte
olle y
Ã¼tz t
Ġeng ag
Ġcomple tely
ĠjÃ¤hr lich
ĠJ Ã¼rgen
ib ly
Ġum fang
hand lungen
ĠJes us
P er
Ã¤ ne
Ġh ous
ĠT hr
ĠSt off
ken nen
ĠAnd ers
gra ben
Ġbrit ische
ĠCour t
Ġnecess ary
ow l
ĠBo ard
stÃ¤t ten
D on
ĠR ap
ĠL ink
Ġl ay
Ġim med
ont o
ĠMar ie
ende te
ĠĊĊ ĠĊ
eng th
ĠA S
ĠP rÃ¼
ĠP rag
Ġge ts
Ġne igh
ĠMar ine
ĠgrÃ¶ÃŁ eren
Ġgrow ing
Stra ÃŁe
Ġwir kte
ĠPro p
ĠBrÃ¼ cke
ĠerklÃ¤r t
ĠW estern
Ġg as
ĠEin trag
Ġvers ucht
ĠhÃ¶ch sten
W ie
m and
ĠA ff
ĠUn garn
ĠTeil en
ĠFÃ¼hr ung
ĠG irl
ĠH istory
Ġg rand
Ġl es
Ġan ges
ĠQ uer
Ã¤uf er
ĠnÃ¶rd lichen
Ġzu gleich
Ġver pflich
Ġde pend
Ġrem ov
G roÃŁ
Ġs an
ĠL ord
Ġor d
Ġerst re
Ġhom es
ter e
leist ungen
ĠFrÃ¼h jahr
w ach
ĠG ele
Ġex cl
Ġwichtig sten
n ungs
Ġf ine
ĠR ath
ĠAuf grund
ĠEre ign
r est
Ġb ein
Ġn ied
Ġres pect
Ġbele gt
ĠLeist ungen
g on
k lass
Ġin zwischen
ĠN av
Ġj ungen
Ã¶r en
ĠFor st
Ġentsp rechend
ĠB an
em ed
rie chen
Ġfo ot
hol t
ĠPrem ier
os a
Ġle er
gr iffen
iz iert
ret t
stit ution
ĠMet all
f Ã¶rder
ĠBe wegung
Ġwest lichen
Ġcost s
ar ische
ĠB ist
ĠNÃ¼rn berg
i xt
Ġt ats
Ġwahr scheinlich
F L
Ġn ov
ĠF lo
ĠK andid
ĠIn form
ff ee
hn t
ĠGrund lage
is ions
ĠB rown
Ġbusiness es
ĠEle ct
h orn
p ack
Ã ¥
ad or
ĠBe ck
ĠDar Ã¼ber
t or
it ely
Ġder zeit
ĠD amen
ĠP enn
je w
c ul
Ã «
Ġde p
isten z
ĠMed ia
wahl en
ĠInter esse
al te
Ġer fÃ¼
ord net
Ã© n
ugh ter
is at
ĠF ert
ĠVer halten
ĠOber st
Ġorgan iz
Z w
Ġm ention
ĠSt iftung
ĠÃĦ nder
rup t
zip lin
A fter
u an
ĠPr im
xik o
merk ungen
ĠF rem
Ã¶r ung
u he
Ã¤nd ler
Ġsow jet
hÃ¶r den
pla ce
Ġ190 5
ĠDaten bank
h ow
Ã Ħ
Ġs on
ĠS qu
Ġsom et
klÃ¤r ung
Ġdev ice
M ail
ĠC O
omm iss
fin den
Ġpre fer
D S
s et
ow ski
Ã¤r t
ĠSie ger
Ã© r
oper ation
b ungen
ro ph
Ġein gesch
Ġsup pl
ĠUl rich
Ġhtt ps
Ġwirk lich
Ġwed ding
ĠS oph
ein er
Ġein gel
ĠDeutschland s
d i
m l
in y
Ġf Ã¤
au b
Ġat tend
Ġbek annten
ĠMan ager
ĠHistor iker
d own
p m
ĠD ol
ĠR oss
ĠO ld
ĠBl ut
ĠKl ost
Ġcl oth
m ir
ann a
mittel n
Ġschool s
Ġbl ue
M ark
Ġh Ã¤lt
ra k
ra ted
Ġmit tels
se ud
ĠGes prÃ¤
ĠAut ob
ĠRhein land
re al
gel d
Ġfr ame
Ġt im
us al
ĠIn gen
ĠBra unschweig
Ad resse
ĠPra xis
ĠfrÃ¼her en
ĠM ah
rÃ¤ ume
Ġtra gen
ĠKon stru
Ġinternational e
Ġthink ing
Ġ2 50
Ġ19 15
qu es
uck y
ĠÂ §
forder ungen
ĠR ost
Ġopportun ities
Ġb all
Ġweit gehend
Ġcomfort able
Ġt al
ĠS el
Ġm Ã¼nd
Ġh our
ĠT hen
io de
Ġout door
N S
ĠK rieges
ĠC are
Ġ5 5
ĠKon fl
ĠDire ctor
ĠÃ¶sterreich ischen
Â «
Ġamer ikanischen
ĠÃĸffentlich keit
ĠS onnen
ir us
ei ÃŁ
Ġpro per
tell ungen
ĠÃĦ r
ĠSoc ial
ĠMos kau
a dem
Ġ elf
ĠR eb
Ġprov ider
Ġsm art
ĠSim on
ĠZeit en
uar ante
ĠProdu kte
2 000
h aps
ĠSch Ã¤
ĠAuf gabe
wer te
ĠSchw eden
Ġcons um
ĠBild ungs
la h
ĠCommun ity
Z um
w aren
em ark
ad d
Ġad vert
stell er
com es
ĠMittel alter
ĠgeprÃ¤ gt
o z
im ents
Ġz Ã¤hlt
Ġaus geb
ran ce
ĠNord osten
ĠFir men
D r
st amm
ĠK ult
Ġre ve
anc ing
ĠParte ien
B ild
ore a
Ġbil dete
ersÃ¶n lichkeiten
Ġsen se
ĠGeburt stag
F ra
Ġg ro
Ġ19 16
tain ment
frast ruktur
a ction
Ġk ommun
Ġk Ã¤mp
ĠAb t
olog ies
Ġd ry
ĠS ir
ĠP unkten
ĠH Ã¤user
Ġg ingen
ĠSÃ¼d westen
Ġhin gegen
ĠWeltkrieg s
ĠnatÃ¼r lich
W eitere
ĠR ol
ĠL aut
ill on
âĢĿ .
ĠArchite kten
zÃ¼ ge
p al
ĠR ay
Ġgleichnam igen
n icht
Ġn amens
Ġum ben
ĠAll gemein
Ġarbeit et
ĠM iner
ĠT anz
ent um
id ae
Ã¶r ter
Ġunter s
ĠCon ne
ĠJo achim
Ġlin ken
ĠJur ist
ĠWider stand
D A
ĠG rÃ¤
ĠJahr zehn
ov en
Ġspe ed
Ġgef Ã¤hr
unn y
Ġerhe b
l og
Ġd ir
Ġs and
ĠG h
ĠCh ild
ilit ary
so ft
ain e
pe kt
Ġphys ical
Ġ ;
Ġe ye
ik on
Ġbet rach
Ġcl ient
Ġcar ry
Ġdeliver y
gem eine
is l
it o
ĠZ ent
ĠH orn
ĠL am
Ġge mÃ¤ÃŁ
ĠIn strument
ĠVor der
Ġlim ited
Ġverbreit et
ing u
Ġ190 6
Ġben ach
Ġbas ic
ro te
sch loss
ĠwÃ¼r den
ĠK rank
Ġz eich
Ġsp ent
Ġwe ar
Ġher gestellt
Ġcreat ive
ĠSch aus
ĠGl Ã¼ck
wor ks
ĠTex te
a iled
as ion
im p
ert ation
ĠBe ziehungen
ĠZw eit
Ġs ell
Ġw ife
he ute
Ġb orn
Ġp en
Ġto wards
Ġer gÃ¤n
ĠV ort
Ġal bum
ĠAl tern
Ġwe ather
ĠhÃ¶ch ste
Ġcla im
ĠM Ã¶n
Ġsp ot
eld ung
Ġob tain
Ġac qu
Ġwen igen
I G
Ġst ress
Ġch urch
Ġbek am
Ġmus ikal
ĠFot o
Ġunderstand ing
Ġsogen annte
re a
Ġp assen
Ġg ere
ug ies
Aug ust
H aupt
Ã¤ b
ĠT el
Ġso ft
Ġdeutsch sprach
Ã¤l de
Ġown ers
ĠSin ne
ĠP ak
ic on
ill y
Ġdar an
Ġersch eint
fur ter
v ision
Ġitalien ischen
k osten
ĠF rench
ĠK assel
Ġr Ã¼ck
Ġit self
omm od
Ġob wohl
ĠCD U
Ġgen annten
fr ist
Ġact ive
Ġplay ed
Ġess ay
ĠS tellen
re u
il lage
ĠC ross
ĠAd els
Ġ190 7
c ape
ĠSo und
Ġin stead
ĠG ru
icht lich
ĠAuf bau
mann s
Er ster
200 4
ĠTer min
at r
at ung
ff ic
Ġen dete
Ġup load
ĠChr on
Ġresp onse
Ġdah in
inc ip
leist ung
ĠLeicht athlet
a ug
h ai
or b
Ã¶ der
ĠIn tegr
ob by
ĠTe ams
Ġsc ience
ĠInternational en
Ġ Ã¶ffentlich
ur b
Ġp ages
ĠIn ner
auf hin
Ġste ts
ĠFranz Ã¶s
Ġm other
t l
ĠR icht
Ġhe ar
Ġus es
pp ed
ĠBr ig
Ġprodu ziert
ĠChar l
k unst
is a
Ġg uten
lin ik
ĠB Ã¤
ĠF ind
ĠK ath
ĠE ber
Ġim plement
ind ustrie
ĠEr de
ick ets
oc ol
ĠFor men
ĠKar te
Ġplay er
Ġpolit ical
arl ier
ĠP ot
ĠC op
Ġhealth y
ĠDistr ikt
ĠBlÃ¼ ten
ĠOx ford
ĠSowjet union
ĠLeop old
n etz
ĠS et
ĠM ike
ĠP en
Ġh ar
Ġk Ã¼nstler
ĠEr b
ast ian
ĠBild hauer
gy pt
Ġtrans fer
ĠKom ment
ĠIde en
bÃ¼ cher
Ġo w
Ġc ell
ra gen
Ġbe ob
ĠBl og
ĠGroÃŁ britannien
fang s
IN G
Ġober en
iw od
? ?
L a
g ory
ĠAus druck
Ġsup ply
Ġann ual
Ġess ential
Ã¼ mer
Ġh y
Ġse ch
ĠAd min
Ġhol iday
K lasse
b u
re ci
Ġat tem
Ġunter st
ĠGesund heit
S er
at re
gen s
Ġeigen stÃ¤nd
Ġt Ã¤
ĠA P
ĠC all
ĠEr inner
ĠMe cklenburg
Ġges pielt
ĠTr ump
ader s
Ġpass ion
ĠMuseum s
Ġverantwort lich
D em
D igital
Ġw ild
ĠD ichter
ard o
t liche
den burg
Ġver kehr
bau er
ĠNord westen
ĠSÃ¼d osten
ĠSchul en
ĠHel mut
k ammer
Ġ id
te gy
Ġn utzen
end ar
k rÃ¤fte
Ġst age
Ġex hib
ĠVor gÃ¤nger
Ġconsider ed
ĠGeist licher
ĠC orn
Ġex pected
Ġfin ally
Ġ189 0
fra gen
Ġwei b
ĠAst ron
Ġexact ly
k ultur
ĠS ab
hard t
S P
ap y
ĠAn wendung
ĠBe w
O P
ĠB oston
ĠP ed
Ġg ese
ab ase
Ġso c
ĠNord rhein
ĠKap it
kathol ischer
y les
ĠS uch
ĠA M
ĠL ar
ĠN ap
schul en
Ġnor th
ĠGrÃ¼nd en
C he
s es
Ġl ots
ĠO pp
ĠIn f
piel en
Ġlet ter
wÃ¤r t
B est
Ġ ueber
ĠL ight
ĠTod es
Ġpur pose
ĠA sp
st ern
ĠP ok
Ġsp end
Ġdar gestellt
ĠChe ck
ĠNik ol
ar ies
ĠV alley
ak ed
Ġsp orts
ĠDe v
ĠIt al
ennt nis
ĠWies baden
ĠB ibliothek
iz en
tem porary
reit en
Ġed ition
It alien
Europ ameister
in det
as ts
ĠT imes
ĠH afen
tell igen
Ġ6 4
Ġgeb ildet
ĠMen ge
olley ball
in ks
ĠH arr
ĠL okomot
Ġzu erst
ĠUn abhÃ¤ng
be w
Ġstell vertreten
k in
il den
ĠW ater
Ġre ported
Ġauf gelÃ¶st
Ġwe ist
Ġmen sch
ĠÃ¤hn lich
ĠW es
Ġde gree
ell i
ru he
ick e
Ġe yes
vers ion
ĠEhe frau
Ġengl ischen
ĠEduc ation
ĠD Ã¤n
Ġn umer
be g
Ġbek annte
Ġ190 4
Ġche ap
Ġpos it
ĠYo ung
r ik
sch m
Ġg anzen
ab elle
ann el
erk l
Ver b
E G
M on
Ġb atter
ĠW M
Ġan erk
Ġent stehen
Ġtem per
S ehen
or ganisation
Ġp red
ell schaften
ĠAuf nahme
Ġuns eren
Ġactiv ity
k g
ion e
lÃ¤nd ische
Ġunterschied lichen
C omp
ĠC re
ate gory
ikan ischer
ĠPortug al
A B
M in
Ġv Ã¶ll
ĠT ennis
Ġun it
Ġprogr ess
Ġsomet imes
Ġw and
te x
ic ations
Ġco ach
In s
bl Ã¤tter
Ġlov ed
g han
Ġc andid
Ġhe at
Ġhe ll
Ġrela x
Ġblo od
Ġf ight
Ġz Ã¤hlen
ĠV ar
est ra
Ġvor gesehen
Ġnah men
Ġaff ord
B Ã¼rger
ur ts
ell y
her zog
ĠMe x
Ġbeg in
Ġs em
Ġs ingles
ĠK athol
ĠSch iffe
Sch riften
ĠLin ien
ĠBahn strecke
ĠPre uÃŁen
ĠWirk ung
U T
l ast
u um
ĠEr Ã¶ff
Ġhe ard
ĠCo de
akt or
Ġsub mit
======== ========
ĠEnts te
Ġr ights
ĠEn s
ĠCol or
ĠTro tz
y t
Ġ Ã¶
en kt
Ġh arm
ĠK ab
ĠK Ã¼nst
ĠH eb
rat h
ĠUnd er
al led
Ġan gelegt
ĠPro ject
ĠFilm s
ĠEr satz
Ġprodu z
wes ome
P olitik
ĠW it
Ġst ates
Ġab geschlossen
Ġstud ies
weg s
Welt meisterschaft
D ollar
is ieren
ĠB art
ent in
um pf
up s
ident ial
Be vÃ¶lker
lÃ¤ss lich
ĠbeschÃ¤ft igt
b ilder
z if
ing ly
ĠG ymnasium
ay a
ĠfÃ¼hr ten
ĠTra ining
Ġass ess
ĠRo ute
zug s
Ġfre qu
urf Ã¼r
Ġt schech
ĠS af
Ġpro ced
Ġ18 70
ke y
ĠT Ã¼b
Ã¼nd ung
Ġtr ug
Ġinvest ment
ĠHers teller
Ġwr ong
s ur
v ement
ein d
Ġpro fit
ĠAm azon
Ġkomp lett
ĠS T
al bum
ĠN eb
Ġst uff
ĠGeb Ã¤
ĠKon gress
Er folge
m ess
el ine
ĠP fe
Ġaus z
ĠWelt krieges
ĠEle mente
r ennt
ĠL en
gesch rieben
Ġele ktr
ĠA achen
ĠG le
Ġ8 00
Ġpre vent
Ġeinge fÃ¼hrt
Ġview s
Besch reibung
ĠBarbar a
ĠB rief
st ad
ul i
Ġge eign
ĠOrt es
ĠBas ketball
ĠDistr ict
b aus
an geb
Ġm iles
st on
Ġh op
ic ine
Ġg ave
Ġl ands
ĠAn griff
yl van
Ġart ist
Ġend gÃ¼lt
ĠGew inn
Polit iker
J an
k ts
z one
ĠS P
us ed
Ã¶ nen
ĠEin ige
ĠHe ft
Ġweiter es
ĠHand el
ĠJuni oren
ĠJuli us
Ã¤us ern
es is
ĠS ho
st uhl
Ġver ur
ĠProdukt ions
Ġregard ing
m ag
Ġl Ã¶
ĠÃ¼ber geben
ĠLand wirtschaft
ĠAd d
let ter
Ġac cept
Ġback ground
ĠBei de
ĠApp le
ĠDate i
Ġsle ep
Ġerweit ert
en se
he bung
ĠD iffer
ĠW a
Ġch at
Ġfe et
ĠChe mie
ĠN ahr
ĠV iele
Ġfriend ly
ifiz iert
ĠDevelop ment
Ġgese hen
S a
er ung
Ġw he
Ġw inter
Ġc amera
Ġadv ant
ĠVerÃ¶ffentlich ung
in zen
ic ing
ten ance
Ġre ports
ste chn
Ġwe g
Ġbek ommen
Ber g
ĠPfarr kirche
Ġentw eder
N o
ĠB oy
Ġre chten
ĠHer bert
ĠGl obal
Ġwa it
Ġc lin
ĠI ran
Ġdem and
ag a
Ġcont ains
Ġkl ar
Ġhigh est
Ġview ed
S k
Ġ uk
ĠE ll
Ġj ud
Ġschw arz
stÃ¼ck e
Ġmot or
Ġdivers e
Ġmittler weile
Ġinfl uen
m osph
ĠM ol
ed ition
ĠThe odor
ht t
ĠLe e
ĠHe ad
sk y
ĠÃľber setzung
Ġcl ub
Ġ190 3
Ġverst Ã¤r
nes day
ĠCarol ina
on ien
ĠT able
Ġze igte
Ġcomple ted
V P
ĠAm ster
ues day
Ġinst ru
ĠM ov
ĠD ialog
ĠF inn
ĠK ey
ĠI hren
ĠV el
sp rÃ¼
Ġstand en
ĠWo iwod
c are
Ġa im
Ġf elt
os is
ĠVer hÃ¤ltnis
lie genden
ĠMe xiko
ous ly
ĠBar th
urs day
Ġdise ase
o e
Ã ł
Ġer kennen
ron en
Ġtr uly
ĠVerlag s
krieg s
ĠPrÃ¤sident en
C ode
k onstru
il ing
ĠE ach
Ġsch le
ĠHand buch
d ach
ie b
Ġs atis
ĠH aft
lie fer
ĠĠ Ġ
ĠHam burger
ĠEben e
Chr ist
Ġm aster
Ġcomp on
ĠNieder sachsen
ĠQual itÃ¤t
Ġkur ze
ĠEntscheid ung
ĠSchles wig
B ad
m es
Ġt ips
an en
ĠS ituation
ĠL abor
Ġl ines
Ġle it
ĠNe ust
min ton
Ġmod els
Ġphot ograph
Ġbeh av
ĠFo otball
afr ika
ĠTÃ¼rk ei
k ont
Ġ @
ar zt
re gel
Ġf abr
ĠG ame
ĠU ser
af el
ly ing
Ġsp irit
ĠJag d
ro chen
ĠP orn
ĠG reg
art ige
ĠÃ¼ber tragen
Ġber ufen
son sten
ĠDeb Ã¼t
p o
er a
er weise
ch mal
Ġoffer ed
ĠWÃ¼rz burg
Ġd ich
ro ck
et he
ĠTh anks
hÃ¶r de
ĠChe f
ĠQual ifikation
Ġp aar
Ġ4 3
Ġlie f
pf lege
ĠCon c
itte e
Ġbene fit
on ia
Ġm ission
ĠF igur
ab s
lin der
Ġex press
Ġded icated
B ar
ĠS ig
ol ge
Ġver schw
ste ht
ho ff
ĠOr ient
Ġbeginn ing
c ia
ĠA ktion
Ġfor der
ĠAus land
Ġeff ects
ĠMod el
ar in
ĠD rit
pl Ã¤tze
Ġro ll
yd ro
H o
m aterial
ĠK en
ĠK ong
Ġde ad
Ġher r
St ring
ĠIn fanter
Ġbeg onnen
Ġf ail
ĠK ard
ug el
Ġaus gel
ly wood
ĠReg ister
Ġ190 9
asil ian
tegra ted
L age
f Ã¤lt
Ġa f
st ock
Ġz er
Ġcan cer
Ġgu ys
ĠFÃ¶rder ung
C C
Ġc ards
ĠC ost
ĠZ ahn
Ġpro p
ry pt
The ater
Ġ6 00
Ġfe hl
ĠStra ÃŁ
Ġdefin itely
Ġentsprechen den
ĠRe form
ĠRÃ¼ck kehr
Me ister
ĠAfr ica
Ġwes entlich
ĠermÃ¶glich t
B es
D N
t im
ĠG olf
ĠE ich
ĠThe ologie
Ġent gegen
erv ice
Ġapp reci
200 1
ylvan ia
Ġf em
ĠE M
ĠR ab
Ġim ag
Ġ4 1
Ġappro x
Ġruss ischen
g Ã¤nge
m auer
Ã¶ die
Ġex er
ĠBundes liga
200 3
bahn hof
Ġumben annt
D E
g ol
el er
Ġf unktion
le m
Ġv ierten
mer ksam
Ġra ce
Ġbeein fl
B i
B y
ĠG ames
Ã¶ se
Ġk auf
Ġste el
Ġerh ielten
Ġ190 2
Ġclass ic
kra ine
w ise
it ude
ĠT isch
ĠF ire
ĠW ag
ss on
Ġsh opping
ĠBund est
Ġc ru
ĠE as
ĠW ohl
ann ter
Ã¤n ner
ĠLeist ungs
Ġcoll abor
z te
ĠB ell
Ġge zeigt
ste dt
se c
arb on
ĠBre ite
Ġbro ught
Ġpower ful
Ġmoder nen
ĠSalz burg
Ġeconom ic
ĠFak ult
E hr
Å «
Ã¤ st
ĠW alk
ĠW etter
Ã¶ pf
ver stÃ¤nd
ĠEr ich
werk en
ograph ische
bild ungs
ĠVers uch
ĠSan kt
Ġmov ing
Unter nehmen
ĠHeraus geber
resp ond
ĠS inn
ĠA u
ĠL iter
Ġan gesehen
id o
Ġcon cept
Jahrhund ert
m Ã¶glichkeit
un ehmen
Ġv ict
ĠP ast
Ġsp ring
Ġben utzt
Ġab gerufen
iz iner
rit er
ĠQ uar
bo gen
Ġmax im
emin ar
ĠAutom obil
ĠDarm stadt
ĠFound ation
Ġ1 10
Ġn ation
ĠH ause
la den
ia tely
Ġges etz
gangen en
Ġmean ing
Î ±
Ġb oy
ĠT ob
ĠK in
ers ey
od urch
Ġbes ondere
ĠFahr zeuge
Ġsett ing
M ich
ĠT ief
ĠDie t
Ġcon ven
ĠAus nahme
ĠBron z
je kten
Ġsc ient
Ġcontin u
Ġexp and
Ġextrem ely
v i
ĠT ax
ĠR oth
ist ischer
aus schuss
Ġhe im
ĠChr is
Ġserv e
ĠBes ucher
Er st
Ġin itial
Ġand ers
ĠR h
ce ed
ahr t
f al
Î ¿
Ġd ynam
Ġf ung
burg h
Th ese
ĠTer rit
ĠIns gesamt
ĠPfarr er
Ġcorre ct
I R
l ings
Ġein gerichtet
ĠBe handlung
Ġeas ier
Ġbud get
v ard
Ġf ant
ĠK Ã¼n
ul f
Ġfor get
ug u
ĠVer dienst
gr enzen
ĠZeit raum
ĠTeil nahme
Ġbeaut y
ĠJournal ist
L E
Ġs av
ein anders
ĠT ay
ĠK ommission
ĠW ho
rie den
gew Ã¶hn
Sehen swÃ¼rdigkeiten
w ettbewerb
Ġw odurch
Ġf ans
ĠM om
ĠK anz
ĠO tt
est yle
we ge
ĠLe xikon
ĠStra f
ĠTra in
Ġcol ors
Ġemploy ees
ĠRund funk
ĠPries ter
ĠVirgin ia
em ann
Ġl ength
fl Ã¼gel
ĠdÃ¼r fen
ĠP ack
ĠK a
ĠN ight
Ġsp rach
ĠFÃ¼r sten
lam ents
r t
ie fe
Ġm il
ĠB om
ĠD im
ik ationen
sp ar
ĠDie ter
ip fel
ub a
ĠAb itur
ĠAnd erson
ĠHoch schullehrer
Ġur kund
ĠRÃ¼ck en
ĠCam bridge
an er
al ed
Ġj ourney
ĠSp iegel
Ġwel come
Ġstra ight
T A
ĠI N
Ġwas n
ĠSc iences
ĠC ustom
Ġl ern
ĠSch lieÃŁ
it is
Ġf amous
ĠJ ena
ĠSp orts
ons erv
W erk
us ter
Ã¤ nen
ĠL ate
Ġl ack
Ġe igent
ann en
ug os
Ġover all
Ġexist iert
Ġassoci ated
ĠS tellung
Ġm ill
ĠD ata
im en
ste iger
Ġ190 1
ĠDurch messer
ĠRei hen
r iss
ĠG riechen
ĠR io
ĠMon at
ĠLauf bahn
akte ur
histor iker
j en
ir ing
ild ing
ĠUnter nehmer
Ġber Ã¼hm
P la
ĠT uesday
ĠH em
ĠAuf lÃ¶sung
onn a
R ep
c ise
ar ia
Ġb rach
ĠP ow
ĠK anada
ic ious
ul in
Ġre ich
uss ion
âĢĿ ,
vors itzen
f ast
Ġs agte
Ġm iddle
ab teilung
ze p
Ġit em
Ġacc ommod
ĠPf ar
ĠMag de
Ġdet ail
lÃ¤nd ischer
Ġexist ing
Ġbestimm te
p pe
ĠEx empl
Ġsur face
ĠMor gen
Ġjob s
Jahr en
Ġhund red
Ġthous ands
Ġs icht
Ġin f
ĠK y
Ġunser em
Ġrestaur ant
ĠSchaus piel
v olle
or ph
Ġf iles
ol i
Ġg uarante
ĠC ard
ĠVer Ã¤nder
Ġeff ort
ĠSa ar
zept ion
ĠWeiter en
ĠHers tellung
zus tellen
H ier
Ã Ĺ
am i
ĠV ie
ĠV aters
Ġne arly
co unts
stand ing
Ã¤hl ten
ĠFamil y
Ġturn ed
Ġpie ces
Ġnomin iert
s ylvania
Ġt ritt
ung er
ĠMe yer
Ġtra de
igkeit s
Ver Ã¶ffentlich
Ġinc red
Ġdev ices
ĠFrie den
ĠUntersuch ungen
Ġricht ig
fÃ¤l le
ĠBayer ischen
ĠWed nesday
H istor
Ġb ill
ĠP in
Ġge z
cl ient
Ġthan ks
Or ganisation
Ġprogr amm
ĠErw eiter
ĠÅ ł
Ġcent ury
Ġsym bol
ĠB ert
ĠF arm
Ġth ank
ĠVer anstaltungen
aus stellung
stand en
Ġâ Ĥ¬
Ġmethod s
Ġtar get
p et
re y
Ġm Ã¤nn
Ġer le
Ġvers ehen
Ġhelp ing
Ġdiffer ence
ĠSm art
Ġdien en
lig isten
G u
J ohann
t rue
w ord
Ġt ried
ĠT rieb
ĠF inal
Ġr ates
ĠBÃ¼ ro
ĠIns eln
Ġbro ad
Ġsetz en
Ġgelegen en
Ġestabl ished
ĠD ur
Ġre li
ĠIn halt
ĠGe walt
ĠSystem s
ĠA N
ĠD ist
Ġr ich
ĠTh ursday
lei hung
Ġhistor ische
r ast
Ġ ign
ĠB ab
ĠH ockey
ĠC ook
ĠN ie
ÃŁ ig
ĠEr folge
atur ing
Ġsuch en
verkehr s
ĠComm ittee
bere cht
B el
l ar
al ity
ĠB os
ĠH Ã¼
Ġab geb
Ġhe il
ia ge
ĠMit arbeit
Ġ4 9
act ive
Ġadv ice
Ġgemeins amen
K urz
n ing
Ġ Ã¶stlichen
er te
ĠP aar
Ġn ar
ĠThe orie
Ġbeg leit
kl us
ĠPe ople
ĠTechn ology
ĠWoiwod schaft
ra p
Ġbe yond
ĠSch ach
ĠAn ne
zeit ung
Ġdire ctor
iforn ien
ĠH ell
Ġk ulture
Ġauf z
Ġ189 5
Ġprofession als
ĠjÃ¼d ischen
Ġt Ã¶
ĠM ord
ĠF air
Ġev alu
m ail
on i
an th
ĠJ ones
Ġbest ritt
Ġvisit or
ĠAmster dam
ch ip
an ch
Ġn amed
ĠE vent
Ġinter ior
Ġvers uchte
200 2
icher ungs
ĠOrd nung
Ġm ap
ĠF alls
rom e
hÃ¶ he
Ġchallen ge
r ight
ro ugh
ĠK amer
ĠE ven
Ġer stellt
ĠZ ivil
ĠPr esse
ĠWelt meisterschaft
ĠMan y
ĠKonz ert
o und
ĠL it
ĠL ittle
ĠSp ann
gel assen
teil s
ĠBl att
Ġappro pr
Ġdeter min
K irche
ĠI hrer
ĠL iber
ach tet
ĠBe ge
rÃ¤sent anten
Ġs ession
ĠRe view
ÃŃ a
ĠgegrÃ¼ndet en
- )
ĠH um
Ġro b
reg ion
Ġpar allel
ĠIde e
Ġzwe imal
M ot
ĠW unsch
Ġfor mat
iz enz
ĠBro ad
Ġsele ct
aill en
o ire
ĠB M
Ã¤ ure
ĠH oll
Ġgo als
ĠAnton io
Ġstruct ure
Ġow ner
e ur
ĠVer antwort
sen z
Ġfeel ing
hy th
ĠWilli ams
ĠvÃ¶ll ig
ĠTÃ¼b ingen
g ant
p ite
w all
ĠO bl
20 19
Ġger ing
ĠEm il
Ġbring t
gestell ten
K irchen
b ad
Ġc ast
ĠR ail
Ġl isted
men s
ĠEin richtungen
fÃ¼hr te
Ġmay be
deutsch e
Ġausgest attet
ĠVictor ia
P art
f ree
en ken
Ġt ruck
ĠA le
ĠH ay
Ġge ist
grÃ¼nd er
bed ingungen
W ert
n ow
or fen
ro llen
ol ar
Ġan hand
gen Ã¶ss
ĠGener ation
O W
k urs
ĠP M
ĠT Ã¶ch
Ġk aufen
ĠZ y
setz ungen
Ġpol ice
ĠBevÃ¶lker ungs
Ġcap ital
ĠS ud
al om
Ġin fo
el or
Ġm icro
Ġr ent
ĠAr thur
Ġple as
o ben
r us
re hens
Ġb la
ĠBe ziehung
utz te
ĠKon zer
ĠMon aten
ĠArch Ã¤
Ġchange d
Ġoffiziel l
Ġs ituation
ol en
ol es
ĠV ill
Ġcon ference
Ġfind ing
Ġopen ing
Pf alz
R A
b ahnen
or gan
an ische
ĠH aup
ĠBe teil
Ġ4 6
haf te
Ġatt ach
Ġnor weg
ĠVog el
Ġc old
ĠR ena
âĢľ ).
ĠGer icht
ĠMax im
D isk
J uni
l le
ĠD auer
ĠF iguren
hn ung
ĠSp rachen
amil ien
ĠEnt wurf
S G
st Ã¤d
ĠF ro
ĠF ernsehen
ĠH ong
ĠV Ã¶lker
Ġ189 8
D ar
G o
Ġauf gebaut
our ne
fÃ¼hr ten
Ġra p
Ġverw and
ĠDan eben
ĠCont rol
ĠComm ission
ĠInde x
ĠPier re
ĠRath aus
Ġbenach bar
3 00
in ted
is piele
Ġw ants
Ġdurch schnitt
att form
Ġcour t
Ã¤mp fer
Ġpresen ted
fol gt
ĠFor um
ĠPar laments
ĠGes ang
Ġbas is
ĠKranken haus
H g
i ation
z in
ĠB ord
ĠD VD
ĠN ick
ĠVor aus
Ġut il
ol z
ĠL ot
ĠRo ten
Ġ189 9
denk male
Ġstre et
re in
Ġn ut
ĠL or
Ġste ps
vers icherung
ĠProdu zent
Ġocc ur
ĠMÃ¶glichkeit en
fÃ¤h igkeit
Ġkosten los
k op
Ġf ather
Ġe arlier
Ġex cept
ĠPro te
Ã© t
Ã¤hr ung
ĠBar on
ĠJo e
vier tel
C o
V ol
d auer
Ġm is
ĠM id
ĠL td
Ġg olden
ers te
ĠWe imar
Ġverw enden
ĠWahl kreis
sta aten
ĠSong s
ĠE ur
em burg
eb urg
ĠAn y
Ġ18 80
Ġ18 60
ĠFre unde
ĠBes itzer
Ġdr ink
Ġpress ure
g ot
aus gabe
ĠLand schaft
stra hl
fÃ¼ hl
ĠLin ks
ĠPre uÃŁ
Ġstark en
Ġpop ul
Ġprim ary
zÃ¤hl ung
ĠBrasil ien
h aben
ĠH av
zen en
Ġco ffee
Ġac adem
Ġexper iences
ĠZahl en
Ġport ugies
Ġb ot
ĠM und
ĠG ang
ĠBe wohner
Ġ18 48
iert es
pe z
ĠLand tags
Ġeben da
Ġrespons ible
Ġim press
Ġst Ã¤r
Ã¤nd igen
ĠOr chester
Ġdam age
Ġf an
ĠL ook
ĠC ur
ĠRe is
omb in
ĠSÃ¶ hne
ĠN a
Ġkein er
F ranz
S eine
al o
ĠB ett
ĠnÃ¤ch ste
ĠÃ¶ffent liche
m iss
al tete
as che
ĠM ake
ĠK Ã¶
ver anstaltung
ĠHalb finale
ĠMatth ias
an ie
Ġad vent
Ġres olution
ĠMon te
schn itts
weil er
Ġelect ric
sch te
ĠW ay
ug o
Ġbes itzen
im b
ĠL Ã¶sung
Ġen h
Ġte ams
Ġconne ct
C ar
c z
st al
Ġstra tegy
---- ----
ĠM i
ĠM ig
ĠW end
ap ers
ĠAuf l
Ġ189 6
ĠÃ¤lt este
ĠKomb ination
l it
ĠO ther
af ft
ze igen
Ġj ur
ĠStud ies
stre cken
Ġmet al
N ov
S A
Ġh us
Ġc ars
ĠK iel
ent hal
ĠH as
Ġmit einander
ĠAr men
Ġen glisch
Ġuse ful
stÃ¤nd en
ĠForm el
w s
ĠSch on
Ġ4 7
lo ok
fl anz
Ġhand le
ĠFrei heit
Ġphil osoph
p at
Ġe he
ĠEin heiten
ĠWir ken
Ġgepl ant
ĠÃ¼br igen
c u
in ischen
Ġs itu
ĠE P
ib e
ĠKon rad
E d
it ness
ar ily
ĠB lo
ĠK u
Ġl it
Ġse ven
Ġprodu ce
ĠgroÃŁ es
ĠInter essen
ĠFakult Ã¤t
m or
Ġa head
ĠA gr
ic ul
Ġ5 2
ĠSte phan
uz z
fÃ¼ gt
por ation
ĠSchl uss
ĠSa al
Ġsay ing
ĠAfr ican
ĠEpis ode
f assen
he il
ir urg
ĠSp eich
pl atte
ĠSh op
ĠHar ry
ĠNationalsozial ismus
ĠOh io
k Ã¶rper
iz eit
rÃ¤ gen
ĠFor ce
Ġet abl
Ġstate ment
M ax
ĠS her
Ġan schlieÃŁ
ins on
Ġtechn ical
Ġdi agn
G esch
ol is
Ġer l
Ġver legt
ĠLand tag
Ã¤ng nis
ĠMark eting
ĠBÃ¼ hnen
F unktion
ĠA qu
ĠU kraine
ais er
Ġob serv
ĠFrank furter
ĠGrÃ¼nd er
ĠFrie dens
Ġteach ing
Ġchines ischen
L C
h u
en gl
ph y
ĠBer icht
ĠMar ien
Ġmed izin
Ġunterschied liche
ĠfÃ¤ llt
D en
H aus
W irtschaft
or ia
Ġb lieben
Ġc ash
ĠN och
men d
ob l
Ġprote ction
Ġunterschied lich
Ġkur zen
** **
Ġcertain ly
z iger
Ġb ur
Ġh ers
ĠFil me
Ġwind ow
aka dem
ĠN ar
Ġe uch
ĠCh allen
ĠEd ward
ĠBrÃ¼ der
Ġcover ed
ĠBek annt
Ġrelig i
D I
N r
p ommern
Ġt ief
ĠS tell
ing ham
Ġp aid
ĠU R
ĠAn frage
end o
ĠPro fil
ĠAuf ent
Ġfin ished
Ġeff icient
Ġaufge fÃ¼hrt
Ġfac ilities
b rand
is ierten
ĠG il
ĠL as
rÃ¼ cke
land es
ĠÃ ł
Ġserv ed
ĠDo ug
Ġupd ate
Ġmeas ure
Ġzust Ã¤ndig
ĠS onne
ĠJ a
ĠVer fassung
Ã¤r ke
Ġsol id
Ġsec ure
Ġnational en
ĠFernseh serie
Ġengl ischer
Ġnahe zu
Hol stein
Ġbott om
F ried
w uchs
Ġa wesome
ĠS ender
ĠB ier
ĠG all
um a
ir at
ĠV iet
ĠIn t
ĠRe fer
ĠRe port
Ġab z
ĠOr der
form ance
ĠFl Ã¼cht
ath an
Ġverschieden er
V al
u ellen
an ke
ein heit
ber s
id ung
ag ers
ĠEr schein
hn te
ied elt
ĠhÃ¤t ten
ĠSeb astian
A ut
re me
Ġsp richt
ĠPl us
Ġbet rieb
ĠAs ien
ĠÃ¤ uÃŁ
B et
im in
ak i
sk a
ĠOs car
iate ilnehmer
D AP
ip end
Ġprote ct
Å Ħ
Ġa ward
ĠH ot
ĠL ibrary
Ã¶ z
Ġver geben
ĠEin richtung
Ġum geben
our g
ac ity
Ġbut ton
199 9
K rit
Ġt a
el ess
ĠH erkunft
kt ar
N ot
W il
Ġg Ã¼nst
Ġab ger
zie ht
Ġnumber s
ĠerklÃ¤r te
Ġhig hl
Ġ ?
ro ad
ĠF lag
Ġe at
ĠGroÃŁ e
fÃ¤ ll
Ġland wirtschaft
Ġentsprechen de
Ġkathol ischen
ust ain
ĠWe ge
ĠPr ince
ator ium
Ġdr iving
Ã¶m isch
ĠErfahr ungen
ĠMicro soft
e v
ĠT sch
ĠR oh
Ġauf gestellt
Ġr ank
ĠBe ob
ĠGra d
so ap
k ul
p osition
ĠA x
Ġal ter
Ã¼r en
Ġzu geordnet
Ġwh ose
oc al
ĠMar gar
olog ischer
Ġdis k
ĠMet hoden
Te xt
ĠBen ed
ĠIngen ieur
f alt
ĠD adurch
grÃ¼nd ung
ĠSer ver
ĠLie fer
Film ografie
ĠBenutz er
ĠB ang
ro nd
ĠW ett
ann ed
ob el
ĠGe gner
Ġart ists
Ġmot iv
Ġwa iting
ĠNic ol
Ġunterst Ã¼tzen
r uss
Ġb row
ĠWor ks
Ġadv anced
ĠFunktion en
Arch ite
Ġswe et
ĠDah er
J ahre
L ist
P ort
ĠBr es
Ġsm ooth
ĠOff izier
mar sch
ĠPubl ikum
8 00
c ious
Ġs y
ĠF red
ĠL at
ĠAn spruch
arbeit ete
Ġinst r
M A
O st
Ġt ransp
Ġw ine
ĠT wo
Ġpro ud
Ã¤l le
Ele ment
r in
ĠN ag
tet t
Ġeven ing
ĠZug ang
ĠStÃ¤d ten
M ill
Ġc it
ĠL etz
ot ional
ies s
ern s
ĠOr ch
ĠAnd rew
bl ing
ĠAfr ika
J e
Ġd ining
ar ina
ĠS ak
ĠP R
ĠBau werk
let te
ĠSicher heits
ĠGerman y
Ġachie ve
Ġzunehmen d
chip karte
4 00
p pen
Ġb ag
ĠP ay
ĠK art
ĠUn s
Ġsch eint
ĠGra z
Ã¶s ungen
ĠMed ical
Ġmov ed
mitt lung
or ien
Ġw ert
Ġm aÃŁ
ĠMan fred
Ġcommun ication
Ġret ail
Ġmov ies
ĠPass ag
ĠElekt ro
Ġp al
ĠR E
ĠZ erst
teil ungen
part ner
Ġs uffer
Ã¼ gt
ĠT onnen
Ġbel g
ĠMann schafts
eh m
ĠGegen wart
g ow
w is
ĠM ap
ĠR ose
ad ies
se kretÃ¤r
ĠAl k
dem okrat
ĠGrÃ¼nd ungs
verein s
ĠGraf schaft
produ ktion
Ġchallen ges
Eis hockeyspieler
D DR
Ġf ish
ĠU fer
ĠĊ Ġ
ĠAn gehÃ¶r
Ġstand ards
199 0
p an
as p
ĠC anad
In stitut
urop a
ĠMich el
Ġsl ight
Ġhim self
ĠSchwer punkt
c raft
Ġvor bei
ĠSÃ¼d west
ĠAir port
Ġexpl ore
ĠjÃ¼n ger
R el
g Ã¤ng
h ar
h ire
ĠH ig
Ġg ather
ĠC ru
ste uer
geb irge
ĠMar i
gesch lagen
ĠQu elle
Ã³ w
Ġincre ased
Ġinnov ative
Ġc entral
ik as
we ist
Ġr ules
ate ver
Ġsp read
ĠGesch le
Ph one
ĠKarls ruhe
ĠKÃ¼n ste
w ater
er em
ĠR uf
ĠL abel
Ġ5 1
cy cl
ĠJohn son
Ġmain tenance
prÃ¼ ft
Ġaltern ative
Ġt ag
Ġg ren
Ġunter en
ĠMet al
ĠDem oc
ĠSchn eider
ĠMount ain
r amm
ed om
Ġch air
ĠNe um
Ġman age
fÃ¼hr en
Ġber uf
reg isseur
ĠDon au
ĠÃ¶sterreich ische
Ġpropert ies
Hand lung
C onstants
de cken
ĠK im
ĠR ollen
os ed
ĠPar ameter
Ġausge fÃ¼hrt
ĠBereich en
schlÃ¤ ge
ĠP av
ĠK urfÃ¼r
Ġk o
od a
Ġsch ied
Ġges pe
An merkungen
ĠFahr er
ĠTo de
ĠFo od
Ġcompet ition
v ol
ĠC irc
Re chts
Ġtre ffen
Å Ł
ĠB aus
Ġo st
et ze
Ġon to
ĠÃ¼ber haupt
Ġsh ape
Ġhelp ed
ĠCor ps
ĠNeub au
ĠColumb ia
ĠTÃ¶ch ter
ber n
iv als
Ġredu ce
ĠMaÃŁ nahmen
ĠChin ese
ĠP os
pt ion
iss ance
fÃ¼hr ungen
Ġhel fen
bach er
ĠCon ference
ĠEigen schaften
Î ¹
ĠS ul
Ã¶ ÃŁen
ans as
Ġgu ests
Ġklein ere
gangen heit
ĠverfÃ¼ g
ĠJust iz
ĠrÃ¶m ischen
usal em
L in
ĠW Ã¼r
Ġfor ms
In ternational
gesch windigkeit
ĠBundes staat
ĠGesch ichts
ĠMich igan
zÃ¼ glich
ĠbenÃ¶t igt
T H
ĠS ince
Ġget rennt
ĠGeb urts
Ġreg ional
fÃ¼ ll
199 6
ĠSchn ell
Ġbra in
Ġrele vant
Ġs ets
Ġf ill
ut ing
Ġbes aÃŁ
Al le
sw ald
ĠAlt stadt
Ġrad io
ĠArn old
ĠRost ock
st aben
de gang
ĠN ah
ĠIn frastruktur
ĠEr l
Ġj ournal
Ġ18 71
ĠVor stand
Ġ15 00
Ġlook ed
Ġap pl
ĠBro ok
Ġsen ior
Ã¤dag oge
Ġmittel alter
Vers ion
j an
Ġf uhr
ĠB aby
ĠF ord
ent ur
ĠV I
Ġ20 22
Ã¼r zt
Ġun gefÃ¤hr
ap h
Ġsur v
ĠL ist
ĠL inz
ĠGr amm
Ġpe ace
ĠGew icht
> <
l ife
Ġs agt
ĠK amp
ber eit
Ġge kommen
ann i
hand el
ĠFe hl
ĠArm y
e ch
Ġs hel
om y
Ġge grÃ¼ndete
ĠVer fassungs
bes itz
Ph il
ĠS yd
ĠA z
ĠD J
Ġseit dem
icher heit
!! !
M ilitÃ¤r
k Ã¼ste
Ġin iti
ĠA L
ol ogen
Ġer laubt
ĠJe ff
Pl atz
Ġvo ice
H ere
f ranzÃ¶s
n i
ĠG lauben
Ġal one
Ã¤nd ige
oren z
Ġange gebenen
ĠOb wohl
Ġaut om
rÃ¤n kt
ĠKommun ikation
Ġcharac ters
ĠWeihn achts
ĠPenn sylvania
Zw ischen
ugos law
U r
Â ³
Ġd rop
Ġn ames
ĠK urs
ĠH immel
ed ig
and e
Ġab gel
je kts
rat en
ĠHoch zeit
Ġmon itor
ĠKommun al
Wh ile
Ġtats Ã¤chlich
\ /
in us
Ġfor ce
ce an
ĠAus einanders
anz ig
St re
ĠzurÃ¼ck ge
Ġprodu ced
Ġexper ts
ĠMet rop
lauf en
ĠInstit ution
ĠTay lor
. ).
C S
k ow
k rÃ¤
w ing
w ith
Ġf allen
ĠGe werk
Ġcon stant
Ġ5 6
ign ed
Ġtra f
ĠAd el
Ġerr ichtete
akadem ie
M useum
S PD
Ġw ebs
ĠP ac
ĠO d
Ġ8 5
ĠMo dern
Ġgra de
Ġ188 9
ĠAlex and
H ein
b al
Ġh ospital
ĠSch ritt
th aus
ĠMc C
ĠGebie ts
ĠDiss ertation
Ġw issen
le hre
eben e
pro fess
D an
b und
c en
z ust
at on
ĠR ub
ĠC ro
aus end
Ġunter sch
wer den
ring t
Ġfl at
Ġpol y
Ġel ements
ĠRu hr
a tely
u tely
ĠK eller
ĠH ospital
ĠJ ord
Ġst atus
ĠSch ne
be zogen
Ġent steht
Ã¤r m
ack er
Ġschw ier
Ġtechn iques
Ġspiel ten
ĠKais ers
Ġorganiz ations
E W
v ater
ess ions
qu est
qu enz
Ġstr ug
Ġexc ited
Ġconne ction
ĠAustral ian
Ġklass ischen
k at
Ġw rote
Ġb illion
ĠE ind
Ġcom ments
ĠBes etzung
ĠEnt fern
ĠWohn ung
Ġrelations hips
B ere
ĠE conom
Ġsc en
ĠInd ivid
Ã¼t ten
Ġexc iting
Ġimmed iately
Ġs amm
if el
ĠOr ten
ĠGemein der
ĠAnd roid
ĠLÃ¼ beck
Ġep is
ĠJos Ã©
ĠSt ift
ad ing
ĠAn lagen
Ã¼t ze
Ġav oid
wend ungen
Ber eits
wirk ungen
Ġ ðŁ
al is
ĠM ak
ĠJ ed
ĠSt urm
Ġre icht
iel le
ĠIn itiative
yn ast
Ġsec ret
Ã¤mp fe
Ġinvest ig
Ġsele cted
ĠZwe ck
ĠGebie te
ziehungs weise
Digital isat
ĠBronz emed
ĠM ath
ĠM assen
ĠD atum
Ġer hoben
Ġhe avy
ĠAr ray
Ġent schied
Ġunter halb
ĠSer ien
ĠOff ic
Ġel ement
ĠTab elle
Ġtalk ing
Ġt ree
Ġs Ã¤m
or i
ĠS ele
Ã¼ p
ĠB Ã¤nde
ic ien
ran che
gr iffe
ĠEin sch
Ġsh own
Ġcomp rehens
Ġpl enty
hol m
Ġheraus gegeben
Ġerz Ã¤hlt
Ehemal ige
Ġerstre ckt
K o
P lease
b ein
ĠB uck
ĠT rÃ¤ger
ĠK ost
Ġam t
ĠBe aut
Ġ5 4
les en
Ġber ichtet
Ġtr ust
Ġbr asilian
Ġverur teilt
F alls
Ġf eder
ĠM P
st ab
ĠV ideos
ĠBe am
Ġbis lang
pl atten
ĠGr enzen
aut hor
fin ition
199 8
ĠÃ¤lter en
Olymp iateilnehmer
Ġfant astic
p her
in u
Ġ18 50
Ã¤r ung
ĠMit gliedern
ĠAb d
ĠWelt cup
ĠÃĦ g
o ter
w Ã¤l
Ġf uck
ĠSch laf
ĠWieder auf
Ġinde pendent
kur renz
Ġ !
ch ern
ter m
Ġre asons
ĠKr ist
ĠGest altung
ĠGlo cken
n ab
v as
an bul
ĠLe arn
Ġlov ely
ĠZusch auer
b ury
h art
p ool
re te
ĠSch e
Ġcom pl
Ã¼n fte
Ġres ist
ĠMa jor
ix el
Ġsc ene
ĠGesch ichten
setz te
kon om
Ġdenn och
Ġeinzel ne
renn fahrer
Ġ ille
ļ Ń
at ische
le ment
ĠD ynam
ĠG ouverneur
ĠC lin
ĠZ entr
stell te
Ġho her
Ġbesch reibt
Ġfre ien
ĠKup fer
ĠMagde burg
Ġhus band
F ahr
Ġd ish
ie den
ĠAn wesen
lin ois
Ġletz ter
Ġgu y
Ġpay ment
Ġerm Ã¶
ĠDet ails
Ġbedeut end
k arten
l Ã¤nge
Ġk g
ass au
Ġte acher
ĠEng agement
ĠAlt ar
ĠEing ang
ĠEdu ard
Ġdig it
T C
Ġ Ã¶rt
Ġg ran
ber eitung
ab ilities
ĠEr ste
Ġsh aring
wer tet
ĠFran ken
Ġ189 3
ĠCount ry
produ zent
Frank reich
B ook
S he
U L
om er
em p
id den
ĠVer gangenheit
fe ct
Ġverb indet
Ã¡ s
wor th
umm ern
M B
ch or
Ġt rop
un ction
ĠP ots
ĠG att
ĠR on
ĠSt ory
ik ing
ĠU t
we ich
ĠVer letz
ip es
ock en
gra de
Ġpat ient
ĠHor st
Ġpres ident
ĠAktiv itÃ¤ten
S yn
m i
Ġp air
ĠR ies
ier er
Ġzw eiter
ĠNach richt
ĠFl ucht
ĠInd ien
ĠBot schafter
Ġspan ischen
ĠUntersuch ung
ĠSÃ¤nger in
ĠDÃ¤n emark
F rom
S up
] ,
k Ã¼nd
us en
Ġj em
Ġco unter
ĠReg ionen
Ġteil s
Ġappropr iate
s ichts
y o
ĠL ip
sen de
An t
Ġreg istr
schei det
Ġunbek annt
! )
Ġf lieÃŁt
ĠD ial
Ġk new
ste igen
wer ben
stra ÃŁen
Ġadd ing
Ġmult i
National mannschaft
mot or
Ġapart ment
Ġerinn ert
Ġsoc iety
Ġgeeign et
S erie
Ġb ess
Ġc ategory
ĠW urz
Ġer zeugt
if ying
Ġ5 8
Ġsh ip
Ġser ver
ĠWei b
ĠKont rolle
ĠKlost ers
A A
z ur
or ation
sch le
ĠC apt
ĠJ ersey
Ġst ick
ĠVer st
Ġsh ared
ĠBel gien
Ġparticular ly
y ers
or row
Ġm ail
ĠK Ã¤
ow e
iz z
In sel
ĠFl Ã¤chen
gest altung
Ġvol unte
far ben
Ġcop y
Ġt rifft
an ia
ĠM isch
ĠT ake
ĠZ un
ver teid
ĠNational mannschaft
ĠHaus es
ĠCl ick
199 7
ĠmÃ¶glich st
Ġwissenschaft lichen
ĠermÃ¶ glichen
k ar
ĠS ens
Ġb ayer
ĠZ ul
sp recher
ub il
sen s
iz er
ĠAm ateur
Ġdre am
deck ung
Ġsozial en
Ġupd ated
ĠVerÃ¶ffentlich ungen
f ir
ĠZ oll
ind ing
ĠSte ve
alen der
Ġkon zentr
ungsp ro
ĠDipl omat
k es
l itz
u ern
ĠT en
id el
Ġun er
ens is
Ġviel leicht
ĠPat rick
ĠBra un
b ell
f els
v ar
ĠA ction
ĠM io
ĠT i
ic us
Ġbe ziehungsweise
iel len
inn es
Ġverb ess
Ġ189 1
Ġinc ome
Ġclass es
ennt nisse
Ġbig gest
Ġir gend
I F
u ver
Ã ª
ĠM Ã¤r
ĠC H
Ġun ge
Ġr at
ial s
ack en
Ġres erv
Ġop in
ĠCla ud
Ġren ov
N or
c onstants
u ct
st rom
ĠL angen
ĠSp ace
Ġ189 7
ĠMark us
Ġwissenschaft liche
Ï Ħ
Ñ ĥ
ĠM ir
Ġp ull
ĠP el
Ġh il
ĠR umÃ¤n
ĠOr den
ĠPl atten
sh ire
Ġcould n
Ġstor es
ĠBook s
ĠÄ Į
Ġelekt ron
f ue
ĠM ut
ĠSch reib
ag ra
igt es
Ġsur pr
Ġcol our
ĠGu ide
Ġfollow ed
ĠKal ifornien
gre if
ĠFÃ¤ llen
Ġnumer ous
J ohn
k amp
n oten
Ġh alb
ĠK lassen
Ġsch ott
Ġsch reiben
Ġus w
Ġ5 7
fol gen
ĠQu adrat
Ġ188 5
Ġcompar ed
k Ã¼rz
w Ã¤hnung
Ġf ahren
Ġunter scheiden
zeich nen
Ġclean ing
ĠGesund heits
Ġnotwend ig
ĠbestÃ¤t igt
ĠContin ue
S ep
T ube
Ġin kl
Ġer fahren
ĠV ari
art igen
Ġsh ot
ĠAug sburg
ĠSpring er
er ien
Ġw ire
re ht
ĠR al
ĠC ert
for scher
geb lich
ĠAus zeichnung
Ġte en
Ġda ughter
Ġ189 4
haf ten
n ight
it ors
ĠB rem
ĠF ield
ĠL isten
Ġbe grenz
Ġcon vers
Ġnot ice
ĠTr ib
ĠBes ter
ĠBre mer
ĠBed ingungen
ĠursprÃ¼n glichen
Ġmein er
K an
s ol
ĠA D
le ide
Ġc overs
ĠG ot
Ġer lang
Ġacc ur
best and
besch reibung
Ġol der
rond iss
m ack
it ag
ĠB le
ĠD og
Ġst Ã¤dt
ver l
ĠMar burg
Ġeigen es
Ġpost s
geord nete
ĠDon ald
ĠOper ation
ĠProt est
ĠFeuer wehr
ĠÃ¤lt esten
is her
or ff
Ġn Ã¤her
ĠH ess
ic ians
Ã¶ ck
ac ing
fen ster
Ġbrand s
ĠAtt rib
ĠViel zahl
Ġveh icles
st ift
ĠK am
Ġpr incip
Ġoff izielle
ĠEurop as
Ġdr ug
Ã¤nder te
Ġengine ering
j u
an ischer
ĠS A
ic ans
ĠJ im
Ġver fasste
ĠSp itze
ĠSie ben
ester day
Ġpriv aten
Ġgriech ischen
b ay
ĠS yr
ĠK rie
Ġbe zeichnete
ist rÃ¤ger
Ġl auf
ĠSp itzen
ĠPro pert
Ġgo vern
Ġges ellschaft
aj a
Ġinc or
Ġsex ual
fa ult
D aten
H ome
r um
ĠB em
stell ig
Ġ/ >
Ġdeter mine
Ġwebs ites
i Ã³n
m eldung
Ġb urn
ĠB ir
ĠWe gen
iss es
ograph ic
Ġmed ium
Ġverst arb
EM ail
ĠEntwick lungs
Ġnied r
Q L
W el
o or
ĠUn fall
Ġpl ants
Ġfo otball
Ġdr iver
Ġbisher igen
Ġdist ance
Ġoffiziel len
r ix
Ä ĥ
ĠP ian
ĠR he
la ted
Ġrec ords
Ge w
ĠDav is
verband es
Ġgemeins ame
antas y
d is
it at
Ġs ter
ĠM ang
Ġc ore
ĠI C
ĠAn h
Ġzum indest
Ġbeen det
Ã§ ois
wirk ung
i ang
ĠD rag
ĠI ts
Ġre chte
ĠU se
gr Ã¶ÃŁe
ond eren
auf tra
pt on
ĠGem Ã¤lde
Ġwel chem
199 2
Ġpoln ischen
J ust
Ġm ut
il de
Ġan genommen
Ã¶r ungen
Ġunter r
ĠCo ver
Ġdevelop ing
Ġant i
Ġinsp ired
R uss
c or
d rÃ¼ck
Ġv en
ĠSc ot
Ġcrit ical
L auf
Ġa uÃŁen
ĠB ah
ĠW atch
ap est
gel t
ĠKÃ¼ sten
ĠFÃ¤ h
ĠDipl om
ĠSonn tag
Date i
Ġbetrach tet
c ient
ĠV ul
os ite
ĠSch ild
ĠVer anstaltung
ĠAl ters
her ren
ĠLe hre
ĠAb geordneter
Ġper haps
unter richt
Ġbestehen den
Ġve get
fÃ¶rder ung
ĠUnabhÃ¤ng igkeit
O D
P R
S pieler
te am
Ġh aven
ĠG Ã¤ste
ĠN ote
rÃ¼ st
Ġman ager
ĠFre izeit
Ġeinz igen
Ġvis ion
Ġgener ally
Ġkeep ing
Ã¤m lich
mÃ¶glichkeit en
u ters
x x
Ġm ilitary
Ġthe me
af e
ĠBe weg
ĠMar s
olog isch
Ġspe ct
ĠKomp osition
ĠErw achsen
ĠTw itter
Ġadvant age
p asst
Ġw eder
ĠK alk
th a
ok er
Ġsch uf
ĠDe ck
ĠWe ek
Ġgef ert
ĠRestaur ant
M en
Ø §
ur ers
iv ision
Ġad just
lieÃŁ en
spieler in
ĠBar cel
ĠPort rÃ¤t
Ġdet ailed
Ġlar ger
ĠPrinz ip
ĠpreuÃŁ ischen
b on
r ia
ÃŁ er
sp rÃ¤sident
ĠRe de
ial e
wer ten
Ġtra ffic
fahr zeug
For m
Ġpop ulation
Ġcas ino
Schwei z
E B
T E
Ġw achsen
al i
ĠP ul
Ġn am
ol t
iz ien
Ġber Ã¼cksicht
199 5
Ġbr ings
ĠFÃ¼hr er
adel ph
h es
n ieder
Ä Ļ
Ġt ask
Ġc e
fol genden
Ġget Ã¶
Ġbeg innen
ĠGar den
Ġfav our
p ot
ĠC ott
ach us
Ġvor aus
fol gung
zeit schrift
Ġart icles
Welt meisterschaften
Ġlim it
ĠSec ret
. /
P aul
z esse
Ġf le
ĠM Ã¼hle
Ġein iger
Ġme x
Ġum fasste
Ġman chmal
Ġbes onder
ĠMus ical
ĠWh y
ĠTod ay
Ġlo an
unds Ã¤tz
ĠMik ro
ĠB och
ĠK ron
ĠH yp
Ġse eing
ho u
ĠHand ball
ĠWerk en
ĠMy th
ĠTor onto
Ġmoder ne
Ġcomb ination
Ġverhinder n
p ost
u is
or gt
ĠP ir
ow itz
Ġaus ges
be am
Th at
Ġcommun ities
Ġcor ner
Ġgre ater
ĠBestand teil
B en
re pr
ĠP ic
ĠH ild
ĠN Y
ĠV it
Ġe ight
ĠAr gentin
Ġ188 8
Land kreis
H inter
om it
ĠSe arch
ĠAb geordneten
ĠEn glisch
bau te
Ġange hÃ¶r
ĠGed anken
zuf Ã¼hren
ĠChampions hip
Ġindustr ial
ĠErÃ¶ff nung
T od
o ir
Ġc atch
ĠW ales
Ġl ab
ier end
Ġal though
ĠSch ei
ia c
Ġres idents
ĠGra ph
hÃ¤lt nisse
Ġpaint ing
Ġprof ile
B uch
te au
ĠD ank
ig s
ĠP red
ĠP anzer
ip per
inz ip
ĠPh ase
Ã¤mp fen
Ġs agen
ĠG ab
ĠE sp
ĠO R
ĠBer nd
rat ing
Ġdar aus
Ġbu ying
Ġshow ing
Ġcor porate
Ġvert rat
ĠerÃ¶ff nete
Ġt aste
Ġin g
ĠE arth
ĠN ation
sp ur
geb nis
ĠIm p
Ġar en
acht ung
esent lichen
Ġfact ors
ĠgrÃ¼ nd
ĠBur gen
Ġsqu are
Ġbehand elt
T R
m aschinen
v ens
or ient
ĠA ster
ĠD C
Ġc row
ĠF ox
ra uf
sch wer
ĠH op
The y
Ġqu arter
Ġinter pret
ĠStud ie
Ġerw orben
Ġneigh bor
ĠSyd ney
K arl
N atur
h Ã¤ndler
sch ild
Ġdes k
ĠCh am
iqu id
ĠsÃ¼d westlich
Ġpass ed
Ġgest altet
Ġseek ing
ĠC EO
ĠSt ill
Ġ9 9
Ġper man
Ġpl astic
gesch oss
Ġleader s
g s
ĠM oh
ĠT ats
Ġbe coming
ĠSe kunden
ĠNor wegen
Ġtrans form
ĠCas ino
Ġsong s
ĠRelig ion
Ġafford able
ĠInfanter ie
p aar
Ġ iron
re h
ĠK Ã¶r
ĠH ugo
Ġgew Ã¤hr
Ġbet roffen
arr iage
ĠVerein igung
Ġresp ond
ĠMehr heit
Ġprepar ed
= "
i ben
o ul
r ical
ĠS auer
ĠM use
Ġp ush
ber icht
Ġst yl
Ġsch reibt
ĠGe gend
ĠOn ce
K unst
k B
ĠF Ã¼nf
ĠW en
ĠSch aff
ĠBe fehl
Ġad ult
ĠWelt meister
ĠBesch Ã¤ft
fre und
E nd
k ern
st il
ĠN ationen
ad i
Ġex ter
Ġqu ant
Ġev idence
Ġvisit ors
ĠGi ov
ĠMathemat ik
ĠmÃ¼nd et
C ol
h as
n g
ĠL ike
est ic
os ing
ĠCh ief
ĠEx pl
Te il
ĠPlan ung
ĠGef angen
ĠjÃ¼n g
bie ter
P ubl
ie ht
Ġf inn
ĠSch ott
... ]
Ġmov ement
Ġallow ed
Ġzie hen
Ð ²
ch o
as ien
ĠM ans
am at
ĠSt imme
od ies
esch oss
Ġdo ub
Ġvis ual
ĠMark e
Ġrequ ires
ĠKap ital
ĠRu h
Ġlaw s
ĠEis hockeyspieler
G et
Ġn Ã¤mlich
ĠK rÃ¤
Ġaus reich
ĠVer eine
ak u
ly n
Ġ18 79
ĠAr rondiss
Ġwas te
me er
H S
T er
g in
Ñ ĭ
Ġs ucht
ar p
ĠT u
Ġer mittelt
ies e
Ġver Ã¤ndert
schaf fen
Ġsh ipping
Ġreal ity
ĠLandkreis es
ĠInternational e
ĠHil fs
ĠmÃ¶ch ten
Ġmaint ain
ĠCanad ian
adelph ia
E m
S ein
ĠT enn
ĠF our
ĠK Z
ĠR Ã¶m
Ġre ag
ĠVer wand
alt y
ĠJapan ese
Ġsn ow
Ġkathol ische
re ck
Ġf at
em it
ĠL ein
Ġden k
Ġver g
ind ungs
ap elle
art ier
Ġle ather
be cken
ĠPro jekte
ĠGe fahr
Ġen able
An halt
setz er
ĠHol lywood
med izin
ĠAss ist
rech ung
Ġbas iert
aly t
ĠEngine ering
dire ktor
P e
P eter
b Ã¼t
c ore
ie fen
Ġf ear
ĠB at
ĠB rad
uf er
ĠN iger
Ġre form
ĠWe ber
ual itÃ¤t
ĠWelt meisterschaften
Ġsw itch
Ġapprox imately
un ted
sch el
sch uld
ĠH Ã¶ch
all iga
ĠAuf nahmen
Ġ189 2
ĠNieder lage
Ġpo or
ĠSk y
Ġexist ieren
Ġschwer en
Ġverkauf te
Ġaud ience
Ġis land
ip ps
Ġsch affen
Ġitalien ische
Ġzeit weise
ĠJer usalem
t w
ur ies
ik ations
ĠZ o
Ġde partment
Ġse a
ungs gebiet
cl ub
ĠMark et
ĠColor ado
N ow
ĠR ett
Ġman ual
irt y
ĠBes onder
ĠspÃ¤ter e
Ġeff orts
Ġhoch wert
ĠVarian te
Ġverpflich tet
it age
Ġz Ã¤hlte
Ġbes etzt
onst ant
arch ite
Ġcour ses
Ġmem ory
Ġpark ing
Ġanim als
Erster wÃ¤hnung
achus etts
J apan
ter t
ent lichen
Ġbe we
Ã¶ tz
ĠSp ielt
mit glieder
ĠSte phen
ĠBundes ver
199 4
ĠsÃ¼d Ã¶stlich
Ġbegann en
ĠWei ÃŁen
Ġprot est
ĠNeust adt
ĠBronzemed aille
g entlich
Ġs ing
st at
ĠJ enn
Ġe arth
Ġsp Ã¤ten
Ġ9 5
ĠGemein schaft
ĠUnivers itÃ¤ten
Ġverb rachte
Be im
verb indung
ĠBÃ¼ hne
Ġoper ations
Ġrun s
ĠInn ov
Cont ent
ĠEpis oden
umin ium
ĠThÃ¼r ingen
ĠR och
ĠTh or
out s
Ġrem ove
ĠBarcel ona
O G
ĠB io
ĠM ix
ĠK Ã¶n
ĠE qu
ik es
Ġzu ge
Ġrem ain
ĠUr laub
ĠKant ons
Ġbus y
ĠUR L
c ause
Ġ ĠĊ
un es
Ġc ivil
ĠW itten
Ġr ing
ĠAl te
teil te
St affel
Er gebnisse
ĠGesch windigkeit
Ġdort igen
ĠJu an
Ġhinz uge
ĠVen edig
sb ruck
T L
T our
s ite
eb all
ĠVer tra
Ġtop ic
Ġfac ility
ĠEing abe
kap elle
Ġfig ure
B B
M aler
r Ã¶
Ġein gew
Ġein deut
ĠK ent
av or
ran e
ĠSe hen
Ġ5 3
ĠWahl en
usÃ¤tz lich
ĠFel ix
P C
â Ĥ¬
Ġt on
us k
im ir
im ens
ass ung
lie f
ĠTh ank
fe uer
Ġfe aturing
ĠFre ien
Ġsol chen
sw ers
Ġinde x
ĠJack son
gestell te
ĠMein ung
ctic ut
Ġbatter y
Ġfem ale
Ġcomprehens ive
t own
w irtschafts
un ters
el en
ĠD ampf
ĠC ond
ver zeichnis
ĠAn trag
ĠSp itz
Ġ18 74
Ġen det
ĠPl Ã¤tze
ĠkÃ¶n ne
Ġact ual
Te am
Ġstark e
Ġcent re
Ġdoc uments
ĠObl ast
Â ´
Ġs elling
ar ma
Ġb aute
Ġin stitut
us es
ĠA ar
ĠL ady
gr Ã¼
Ġqu er
ĠX X
kauf t
Ġbr ight
ĠBrÃ¼ cken
Ġsepar ate
Ġdeutschsprach igen
ĠG it
Ġg allery
Ġer gibt
Ġde te
ĠEr m
Ã© d
Ġletz t
Pro zent
obil ien
ĠSec ond
Ġspan ischer
ĠRegen sburg
hoch schule
Ġbein hal
ĠRol and
a wa
ĠK un
ĠC A
ĠZ iele
ĠCh a
ĠHe er
let scher
ĠBet on
ĠVerb reitung
Ġbo ught
Ġeinz ig
ĠmÃ¶glich erweise
Ġn Ã¶t
Ġh ieÃŁ
ĠE ugen
Ġde ck
ĠMin ute
ĠMag n
Ġeinge tragen
Ġtrat en
Ġoper ating
ĠKÃ¼ ste
Ġengl ische
Ġinstall ation
Ġpan el
Sep tember
b ody
in ken
Ġc loud
ĠL ag
ĠN az
ĠV ent
Ġi Phone
Ġpart ies
ĠMeister schaften
Ġval id
ĠKan al
Ġpromov iert
re ten
ĠK il
Ġan lÃ¤sslich
ste ig
ĠBe f
ĠEin z
ĠSchw ier
St iftung
formation en
ĠNetz werk
Ġinj ury
ĠS z
us sen
ĠK ohl
ĠE xt
ĠL ow
ĠVer n
Ġr ental
Ã¤nd ers
Ġro of
ĠInd ones
ird s
gor ith
Ges ellschaft
ĠAutob ahn
B M
G en
g asse
le ute
Ġh Ã¶ren
ach ing
Ġdo ctor
ĠFre der
199 1
Ġ186 6
M o
ur i
ro d
ĠT aschen
Ġg one
Ġyo uth
Ġne ck
gr Ã¤
rit ts
ĠAus bau
ĠGed ichte
Ġenvironment al
ĠGal ax
Ġagre ement
Ġattem pt
O ff
h Ã¼ter
z ern
ĠP y
Ġvor wiegend
ĠCh ile
ĠNach folge
ĠGroÃŁ teil
Ġaff ect
ĠMad rid
Ġwalk ing
F est
a al
g roÃŁ
el be
Ġaus gebaut
ĠNe ur
Ġmehr erer
akt oren
Ġfocus ed
Ġadmin istrat
ĠK amera
ĠH Ã¤
ĠN R
lieder ung
w ich
Ġn ennt
sch icht
iv a
ot ograf
Ġst one
tel n
sp ann
ĠEr richtung
Ġsp rechen
fen se
ĠBl ues
ĠKl ima
opp elt
ĠBen j
Ġtest ing
seit ig
Par ameter
ĠTschech ien
ĠViet nam
E FA
k al
und le
Ġf uel
Ġp ow
Ġun its
Ġum fass
Ge ografie
app y
Ġbelie bt
Ã¨ s
Ġgele gentlich
A cc
n or
Ġc ells
ut ch
ĠN avy
Ġzu k
ĠSe en
Ã¤ch er
ĠTra um
jÃ¤hr iger
ĠOs nab
Ġverst orben
ĠSar ah
ĠQue en
R ock
u v
u y
ĠW ord
erk ennung
br onn
ĠBo ot
Ġknow s
Ġ188 2
Ġ186 7
Ġest im
Ġwatch ing
Ġzentr alen
F amilie
g i
g Ã¤
as is
ĠB am
Ġo d
ĠD ob
ĠP oint
ĠW aren
lass ung
Ġworld wide
Ġâ ļŃ
Ġcap acity
ĠInstitut s
u ers
z ens
ĠP seud
ĠL ock
ach te
ĠJ ava
ot ic
Ġj o
ĠMe chan
Ġcont ain
aw n
ĠCon gress
ĠMot iv
mus iker
ĠHerr n
ĠTab ellen
Ġprevious ly
ĠHit ler
ĠtÃ¤ glich
A pp
U p
Ã ¦
am o
os h
Ġde als
ĠBe hÃ¶rden
20 20
Ġspe ak
Ġpract ices
ĠgetÃ¶ tet
R o
i op
È Ļ
ĠW art
Ġg ain
ĠC reek
ag on
ste ine
Ġse at
Ġcon temporary
Ġval ues
ĠBi ograph
ĠGott fried
kn own
ĠSilber medaille
ĠGleich zeitig
ĠPhys ik
ĠBul gar
c ap
ĠV iz
ĠÃ¼ber nehmen
act ions
ape ut
ĠKo ordin
ĠIl linois
itar re
K inder
ĠP L
ol er
ĠC S
ib l
Ġent schieden
Ġent lassen
Ġgleich e
ĠAs ia
Ġtechn ischen
Ġoffen en
Ġneg ative
Ġasp ects
Ġsuit able
k ins
n itten
he ater
Ġf rag
ĠB R
ĠM iddle
Ġein geb
ĠE arl
Ġwork ers
Ġnord Ã¶stlich
Ġwind ows
ĠAlb recht
ĠWeib chen
or ney
ĠK ul
ess in
Ġfor mal
Ġle gend
ĠÃ¼ber setzt
ĠGroÃŁ herzog
Ġbesch lossen
ĠRo om
iam i
d h
is p
ro y
ĠP ie
ĠH amm
Ġg Ã¼lt
od ox
ĠSp recher
be zeichnung
ĠNe ck
ĠAnd rÃ©
Ġbesch Ã¤d
ĠMark en
Dies er
Ġthough ts
ĠAre a
ĠErfahr ung
hers teller
ĠGriechen land
Ġfeder al
A pril
S ee
k ind
k ov
al ia
Ġf la
ĠM inder
Ġein schlieÃŁlich
ĠE mer
Ġse ctor
iz ont
fahr ts
Ġapp oint
ĠMann heim
ĠKÃ¶nig in
ĠEd el
Ġoper ation
ĠFer ien
ĠDort mund
Ġpack age
Ġrestaur ants
Ġchem ical
Ġcontra ct
o ted
Ġs it
or ganis
un en
ĠA sh
ĠM obil
ĠW Ã¼rttemberg
ĠThe atre
Ġ18 00
Ġex change
Ġserv ing
ĠStra nd
ĠSÃ¼d ost
abin ett
Ġruss ische
Ġeconom y
ĠpersÃ¶n lichen
Ġzie ht
obl enz
F F
a ver
e g
u i
ĠA ccess
Ġc ities
ĠT oten
ĠVer zeichnis
ĠAn im
Ġbes onderen
Ġpla ced
Ġmin ute
Ġspe zial
Ġbef Ã¶rdert
Ġcolle ct
ĠGed enk
ĠKol onial
ĠKÃ¼ che
ĠkÃ¶nn ten
Ġautomat isch
b ase
e f
al and
ĠB Ã¼nd
ĠL uther
ic ian
if orm
Ġver n
og a
lin s
qu is
auf trag
ĠOff en
Film schauspieler
ĠlÃ¤ uft
iar den
ĠGÃ¼n ter
ĠGesprÃ¤ ch
d on
k urr
ĠB ade
ungs ver
Ġch amp
Ã¤r ten
hÃ¶r igkeit
ĠGes ell
ĠGrund lagen
Ġexper iment
Ġersch einen
Ġbirth day
ĠEntste hung
F r
M ag
ĠP az
ĠH rsg
Ġver letzt
lie gt
ast rop
Ã¼ck en
Ġsh all
Ġra in
Ġdire ction
Ġinst ant
ĠCor poration
ĠInn sbruck
ĠSym bol
ĠerhÃ¶ ht
M P
l ight
z z
er d
Ġd oll
ĠB it
ĠF a
ĠG uts
ĠAn at
Ġ6 3
ĠJuni or
Ġfre ie
Ġerreich ten
Ġdist in
Ġgelegen e
ĠDenkmal schutz
K Ã¶nig
is or
as i
Ġre ference
ĠAl ph
Ġum ge
ĠGo vernment
Ġdiscuss ion
mÃ¶ gen
ĠItal ian
ĠPots dam
P al
W ill
ĠC oll
qu elle
lie ger
ens es
Ġ6 6
ĠBo gen
ĠVerb indungen
glieder ung
ĠPolitiker in
Ġ186 1
wor fen
Ġrecommen ded
mod ell
Ġjapan ischen
ĠSchwar zen
Ġgren zt
b ur
Ġ ice
Ġd ipl
ol ph
ent wick
ĠO ster
Ġr ide
Ġsch rift
ac o
imm ing
Ġange zeigt
Sie g
Ġentwick eln
ĠOl iver
Film titel
ĠAkt ien
Ġauth ent
e xt
u j
Ġp ul
Ġk ombin
ei he
ges ellschaften
ĠAb st
ĠTra g
ĠGrund stÃ¼ck
uck s
ĠNieder Ã¶sterreich
Ġstar ts
Ġaut o
Ġwicht igen
jahr es
Ġcontin ued
Ġjoin ed
": "
icien cy
R Ã¶misch
c les
und et
st one
Ġp urs
Ġn av
ĠF ast
ĠF ore
ĠL Ã³
ĠSt aff
ow ohl
Ġj u
Ġum fassen
our i
Ġvor gestellt
ai wan
ĠÂ ·
Ġ188 4
ĠIst anbul
Ġabsol utely
Ġinspir ation
Ġbenachbar ten
b Ã¶
ie ten
Ġn annte
ĠH aupts
ĠR up
Ġr ub
ĠAn f
ĠCo ast
pf ul
Ġele gant
Ġprocess es
Ġlog o
F ol
k ommand
w ish
an isch
le te
ĠL em
Ġl iber
eb ens
ĠWe il
ma jor
Ġstatt finden
Ġnational e
ĠSchiff s
gÃ¤n glich
ĠSec urity
Ġexpert ise
ĠNomin ierung
Ġing red
s ing
Ġb on
ĠM Ã¼hl
st reit
ĠP ur
Ġc ir
ĠT rom
est and
int age
ĠDes halb
Ġrep rÃ¤sent
ĠComm on
rim in
Ġlux ury
H T
K at
k Ã¶nig
m acher
r asch
ĠM ul
ĠM aschine
Ġc ry
ĠT ony
ĠK el
Ġl esen
ow itsch
ĠAn gabe
Ã¶r g
be hÃ¶rde
imm ungen
Ġap par
Ġopen ed
ĠRegel n
Ġtre ten
ĠBach elor
Ġfa ith
Ġnov el
t ten
ĠB auer
ĠT ransp
Ġk id
ab geordneter
ĠSch we
ĠLe vel
Ġ7 2
Ġind ic
Ġsour ces
B ox
J ose
l iteratur
r un
t al
Î ½
ein heiten
ĠD ollar
ĠR olf
au ert
ĠSp er
ĠAus gang
ĠFor ts
Ġstud io
Ġag ree
ĠMil ch
Ġextens ive
Ġlok alen
ĠAllgemein en
D ata
e ister
Ġs ister
ĠS zene
Ġv s
Ġn ennen
ĠO S
jahr en
sprÃ¼n glich
Mus iker
Ġhappen ed
Inter ior
ĠGÃ¼n ther
ĠLÃ³ pez
Ġc ultural
ĠW hether
ers dorf
ab end
ĠZ iegel
ĠSch atten
Ġum gebaut
ult y
Ġverb oten
ruct ure
BevÃ¶lker ungs
ĠKard inal
M Ã¤rz
ar ett
el ing
ĠB ald
Ġc up
ĠN un
Ġl i
Ġsp ons
Ġ18 75
Ġch anging
ss el
ret ung
ĠBr ian
ĠKl ub
ĠYou Tube
ĠGef Ã¤ngnis
Ġaud io
ĠStad ion
b lock
v et
z ert
ĠS ummer
Ġso unds
ac ter
arb y
Ġloc ations
Ġgeboren e
Ġleader ship
una tely
M art
m aschine
ĠH Ã¼gel
ĠL anc
la de
Ġsch lecht
rÃ¤ cht
me ter
Ġ5 9
bes itzer
ÃŃ o
198 9
ĠHel m
", "
iller ie
ĠGebie ten
ifik ations
Ġlau tet
ĠWag ner
ĠBened ikt
H i
b n
i ors
z um
ie hen
he w
Ġb itte
st ar
ĠIn v
iz abeth
Ġad apt
ĠFor mat
ĠFran ces
ĠBr uch
ĠOff iz
ĠEinwohner zahl
ĠSen ior
Ġunivers ity
ĠunabhÃ¤ng ig
Ġsicht bar
innes ota
ĠB alt
Ã¤ ll
yste men
licher weise
schn itte
prÃ¤ senz
ĠTour ismus
ategor ies
ĠSchriftsteller in
Ġmass ive
Ġzuf olge
H el
is burg
ĠM B
ĠL ad
Ġbe comes
ab ul
Ġeigen er
Ġtechn ologies
ĠSk ulpt
Ġ188 7
ĠKÃ¶l ner
Ġtem plate
Ġmat hemat
ĠNaturschutz gebiet
Gener al
Ġacadem ic
ch a
Ġd inner
Ġs inn
ĠM etz
ĠF RE
Ġer ober
iz ierte
ec utive
ĠFre ist
Ġfl ight
ĠPla ce
Ġmax imum
Ġcommit ted
__ __
ãĢ Ģ
ĠEns emble
m ans
s ein
us se
Ġc alls
ak on
19 18
me te
gel n
Ġthere fore
ĠHo tels
Ġ188 6
Ġnord westlich
ĠPap ier
ĠzusÃ¤tz liche
Ġsatis f
Ġs ustain
Ġver ab
Ġr u
Ġum s
tern al
Ġdo ors
Or ts
Ġbuild ings
bed ingt
spe kt
emb ly
ĠCast le
c omp
z ul
Ġw under
ro h
im er
ĠJ ungen
Ġan fangs
Ġar m
Ġke pt
ĠVerb esser
ĠAnt wort
go ing
Ġspeziel l
Ġreli able
H alb
R oman
c os
Ġa th
ĠM es
Ġp or
isch Ã¶
ĠEr ic
Ġ6 8
Ġapp s
ĠChrist us
ĠFahr t
Ġ186 4
Ġassist ance
Ġstrateg ies
Ġurkund lich
s Ã¤tze
v y
Ã¤ s
ĠG U
op her
Ġaus ger
che ck
ĠHe ktar
ĠDar aufhin
Ġclos ed
Ġtre es
Ġteach ers
k w
w eiten
ut y
sch iffe
ĠR av
Ġl ights
ĠSt ol
ĠSt ab
men ge
ĠAl ben
utz ung
ĠPf ad
Ġbeh aup
Ġvol ume
Wer degang
Ġbal ance
E A
Y our
le ar
ĠB erk
ĠP as
Ġdie t
Ġg ay
ĠSch all
ĠFor der
ĠMa ur
Ġpl atz
ende ten
199 3
ĠPer formance
Ġsmall er
ilome tern
bÃ¼rger meister
Ġadvert ising
Ġleit et
ĠBres lau
v inz
Ī Ĵ
Ã¼ h
ĠN on
Ġer b
ĠSt ore
ei ro
ail and
ĠRo hr
Ġdec ide
ĠLei den
ĠSyn chron
Jahrhund erts
ĠBesatz ungs
Ġis ol
Ġver teid
art ig
Ġwir kt
ĠStud ent
unkt ions
str umente
Ġprom ote
B ay
i y
re land
ĠF unk
ic ies
Ġdes igner
ĠAus zeichnungen
pen den
ĠPr ix
Ġlearn ed
Ġenjoy ed
ĠSam uel
Ġruss ischer
Ġlaunch ed
ĠOrganis ationen
ynast ie
Z eich
Ġw inning
et on
ĠL ED
Ġan geschlossen
âĢľ -
Ġhel pful
Ġgr undsÃ¤tz
Ar beit
ĠLie b
ĠDire kt
ĠAf ghan
Ġfertig gestellt
o use
ĠS oll
sch ung
Ġge Ã¤ndert
we ight
ĠSp irit
ĠLe h
auf t
ĠNach wuchs
ĠGem ark
ĠGemeinde gebiet
Ġter min
Ġconne cted
Ġmittler en
ĠendgÃ¼lt ig
ĠArrondiss ement
F il
Ġa ware
Ġbe ant
lich em
Ġwir ken
Ġsh ap
Ġ7 00
ĠPf alz
ĠAnt rieb
Ġlight ing
ĠRog er
Z e
c al
Ġm ist
ĠB Ã¼r
Ġr ule
ĠSp Ã¤t
ob jekt
ret ch
trag ung
ĠMÃ¼n chner
ĠSchn itt
ĠTele fon
ĠChild ren
c an
k as
p ra
Ġauf treten
St ar
man agement
ma ÃŁen
Ġ0 4
ĠGeorg ia
weis ung
Ġzentr ale
Ġpromov ierte
BevÃ¶lkerungs entwicklung
b indung
w Ã¼rd
Ġs am
el em
ĠL ern
Ġk os
Ġver anst
Ġad ults
ĠUm setzung
ĠAut hor
ĠPhil adelphia
Ġklein es
Ġschl ug
E very
S ervice
Ñ ı
Ġa rab
an alyse
ĠR ie
ul ate
Ġdem onst
hen den
ingen ieur
mÃ¤ÃŁ ige
Ġperform ed
Ġpract ical
Ġzeit genÃ¶ss
maÃŁ nahmen
iÃ¨ re
ĠMex ico
A kt
R ud
al ition
Ġf unds
ĠB urn
ĠM ind
isch t
ĠIn halte
ĠThe ir
ĠLe o
ĠVor stands
ĠNor mal
ĠEurop Ã¤ische
ĠRes te
Ġinst alled
Ġ188 1
ĠColle ction
ĠNorth ern
Ġexp ensive
ĠAmts zeit
ĠInform ations
ĠS ax
Ġm einen
ĠB ou
st ritten
ĠW Ã¤r
Ġg elb
Ġl abel
ik te
ĠEr ster
Ġle aving
Ġ18 73
Ġbes etz
Ã¶ff net
Ġkann st
gesch Ã¤ft
Ġopt ional
Ġdefin iert
ĠEis hockey
Ġclick ing
ĠZus atz
ĠPac ific
M ain
z ant
Ġa gency
ar ks
un nen
ĠM d
ĠG n
ĠG allery
ach s
gen ossen
ĠVor bild
Ġgu est
Ġcre am
ĠUr ban
stag ram
ĠOl denburg
Ġtradition ellen
Ġsozial e
isc ons
Ġfabr ic
Fried rich
F ran
k olle
Ġ1 15
Ã¤ fte
qu er
sen der
Ġ18 72
iz ens
Ġco ast
ĠBr ust
Ġob vious
ĠFr iend
Ġgener ation
Ġallow ing
Ġprepar e
ĠLÃ¶ wen
ĠGest alt
Ġcaus ed
M C
ĠA venue
ĠM S
ĠM obile
Ġn a
Ġc art
Ġ( ;
ĠH T
ĠL yr
Ġl abor
up pert
19 33
Ġcon cl
ĠAus fÃ¼hrung
Ġ6 1
Ġvisit ing
ĠSpe ed
ĠSouth ern
ĠMinister prÃ¤sident
bro chen
Ġmention ed
ĠPak istan
Nov ember
in stitut
Ġs izes
ot al
Ġge tragen
ver lauf
Ġver haf
Ġr umÃ¤n
ĠÃ¼ber sch
ĠEin t
ĠhÃ¶her en
ĠNikol aus
ĠS W
ĠB alk
ĠP yr
ĠK itchen
ĠI h
Ã¶ scht
og el
ap os
Ġcontin ues
Ġtro cken
ĠGiov anni
$ $
E E
Ġd ein
st um
st ate
ĠP ad
and o
Ġe ating
ver treter
och em
Ġab gesch
gew inn
Ġtr uth
Ġhier bei
ĠTer r
Ġkomp lex
Ġcomb ined
ĠJac ques
" )
H Ã¶r
M ai
P at
d atum
Ġs ample
Ġf rem
ĠD ark
ĠD ance
ĠG Ã¶r
ĠG ipfel
ĠK oll
ĠH als
ĠL okal
ĠV f
ens us
Ġsh ower
Ġ6 2
ĠWissenschaft ler
ĠAth let
ĠjÃ¼d ische
ĠmÃ¶ glichen
ĠBist um
b org
c in
Ġd Ã¼n
ĠB in
ĠF ull
ĠH alt
ĠEin kauf
Einz el
ĠBes onders
kl ar
Ġtop ics
fort unately
Ch ar
198 4
Ġsel ber
ĠBern ard
ĠKommand o
spl atz
Ġb rief
ĠP ommern
ĠF ein
ĠW ik
Ġer richten
ĠSch uld
ĠAr g
rÃ¼ ckt
Ã¤hl er
Ġra ised
ĠEner gy
ĠJes u
ĠNiederland en
ĠConne cticut
Ġslight ly
p ie
} ,
Ġan swers
ĠSt ach
Ġver f
ill en
Ã¤r n
ph ase
ĠAb stand
Ã© l
ĠUnter schied
ĠAd ler
ĠÃľber nahme
Ã¤nger ung
ĠWil son
ĠMod elle
ĠDis ziplin
ĠNiederland e
ĠPfar rei
ĠDoug las
L S
Ġl ibrary
Ġde fe
ĠAn forderungen
ac ts
Ġman aged
form at
vers orgung
Ġval u
ĠAnt i
ĠDorf es
Ġklein eren
herr schaft
Ġcover age
Ġspecific ally
Ġdamal ige
Ġorganis iert
ĠEth n
Ġerforder lich
B I
z ed
Ġt ickets
ĠL ok
Ġl ose
Ġdes ire
Ġan zu
men ted
Ġle aves
Ġet hn
Al t
ĠMin i
Ġ188 3
ĠSup port
far be
Ġexcl usive
repr ene
E X
W ien
d ung
ĠB ag
ĠB ele
Ġdie d
ot yp
uss y
fol io
Ã¤ch te
ĠAll en
Ge org
Ġfest gelegt
ĠfÃ¼nf ten
ĠAuss age
Ġaccess ories
gebie ten
ĠCharl otte
Ġd ance
or p
re ffen
ĠK ohle
gen cies
ĠO m
ien ne
ill o
ak et
ĠAl though
Ġqu iet
Ġtra ding
verein igung
Ġident ify
ĠFass ung
Ġwirtschaft lichen
ĠModer ne
Ġexer cise
N ode
ĠJ en
ĠSt unde
ĠZ Ã¼ge
sp ir
ĠAn z
ĠÃ¼ber w
iz za
ĠIm age
Ġfe e
Ã¡ r
ĠHoch schul
ĠKr one
Ġur ban
minister iums
ĠTem plate
Ġschwed ischer
Ġflow ers
Ġincreas ing
Ġconven ient
Ġabger issen
us ted
ĠR ats
kt op
rit ing
ĠAb out
ĠBr idge
Ġany where
br id
ĠAnd rea
Ġtr end
anc er
orge ous
Ġwei ÃŁen
/ >
J ugend
c ase
w ird
ĠS endung
am ts
ic i
ier mark
Ġab ges
ĠTr ier
Ġbek ommt
Ġ186 9
Ġern annte
Ġbestehen de
A p
c ard
o es
â Ħ
in yl
ĠP ick
ol ve
ĠK ino
om pl
Ġver gangenen
Ġwh atever
Ġsch aff
auf nahme
Ġqu e
oh ne
yp ten
Ġmark ets
Ġpo et
Ġpolit isch
Ġpriv acy
pos es
ĠFrei herr
Ġerm or
ĠBud apest
ĠMail and
Jan uar
endo ktor
g un
r ale
v ollen
ĠR ess
ad ow
Ġge zogen
sp art
ell es
alt ar
ĠAm b
ĠReg iment
ĠgrÃ¶ÃŁ er
ĠMittel punkt
ĠSam stag
ĠMÃ¤nn chen
E nde
P A
T itel
re uth
ĠD ick
ĠH ave
ĠC ob
Ġbe wohn
ĠEin en
elt a
Ġsc ale
Ġgeb lieben
ias ieger
Ġlead s
Ġeduc ational
ĠSyn ag
ĠKolle gen
J uli
g reg
w inkel
an teil
ĠS ed
Ġb auen
Ġm outh
ĠM ember
ach ter
ĠZ wer
fin der
ĠUm bau
Ġmost ly
Ġapp lied
ĠKo operation
ĠMaterial ien
CD U
ĠErweiter ung
ĠBenj amin
l u
v Ã¶gel
Ġ </
Ġm ale
ĠF un
ĠG un
ĠH aw
ip edia
19 80
ĠMar sch
Ġgel angen
deutsch land
ĠTem pel
qual ity
Ġrom ant
- /
t op
x y
x id
Ġd ank
ĠB ein
ĠL ange
ider s
Ġacc ident
Ġakt iven
Ġerr or
ĠMaler ei
Ġmajor ity
ĠHei de
ĠMerk male
ĀĀĀĀ ĀĀĀĀ
ĠRaj on
P ersÃ¶nlichkeiten
l ein
ĠD B
Ġp m
Ġver urs
Ġges te
ĠKl im
ism ar
Ġviel fÃ¤lt
Ġed ge
Ġvorhanden en
iscons in
ĠS zenen
ĠG abr
Ġz ul
sch irm
ĠC os
ul ations
ĠGe fe
Ġfe ierte
ĠKon stant
Ġpar ent
Ġtechn ische
ĠÃĸsterreich ischen
Ġbestand en
Ã§ a
Ġkor re
] .
t ario
on line
ĠK redit
ĠSt ich
Ġ18 77
ĠDe kan
Ġunter gebracht
ĠAus stattung
Pro gramm
ĠSa tell
ĠPre ise
He ute
ĠErw Ã¤hnung
ĠMass achusetts
prÃ¼ fung
Ġhon est
ĠÃĦnder ungen
Q ual
S m
d ner
h Ã¼tte
Ġthe oret
Ġp oll
ĠW y
Ġsch eiterte
pos it
ĠStÃ¼ck e
ĠlÃ¶ ste
ĠBege g
L o
W or
h ops
op Ã¤d
sp iegel
tern oon
ph il
ital ien
ĠRes erv
ĠKn ow
Ġsex y
Ġeinfach e
Ġpers pect
ĠDrehbuch autor
Schwei zer
Ġs um
em an
Ġst unning
we et
Ġ3 50
ĠBer ge
ĠOber Ã¶sterreich
Ġverw endete
opp ed
ĠSchlag zeug
A ss
P rÃ¤sident
R ed
W ird
ĠSch nee
od ie
ĠRe f
ĠLe ute
pp ing
ĠFahr rad
Ġbef ind
ĠMill iarden
Ġ186 5
ĠMathemat iker
ĠLate in
u ben
Ġd okument
on om
it iat
Ġb attle
ĠB ase
Ġthe ory
ĠW Ã¶rter
ack s
ĠHe y
Ġ186 3
198 8
ĠFot ograf
fre ie
Ġsearch ing
Ġans Ã¤ss
On line
Ġocc asion
Ġdur fte
Ġtemper ature
Ġlern te
B re
ĠE ver
Ġre pe
Ġne ut
ust on
Ġ18 78
19 70
hen de
Ġ8 8
gesch lecht
kehr t
ĠInter pret
Ġwrit er
Ein wohner
Ġill ustr
ĠKrim inal
ĠverstÃ¤r kt
ĠDiet rich
> ,
s l
Ġa u
ĠG a
ĠG oth
ĠC it
Ġwe isen
ĠEin er
Ġme ant
utz ten
ock et
ĠLux emburg
ĠPremier minister
e ck
es k
ĠS low
ĠG ieÃŁen
sch ten
sch Ã¼tzen
Ġzu gÃ¤nglich
ĠBer gen
20 21
ile y
Ġmar ried
Ġgelang te
ĠKauf mann
Ġregister ed
Ġcompon ents
J Ã¤hr
ie ck
le un
hr ten
ĠV ikt
ĠZ ell
Ġ3 000
hl on
Ġ9 2
Ġgew Ã¼n
ĠkÃ¶n ig
aw ay
ĠEx press
Ġakt ual
Ġlang sam
ĠRes erve
Ġfun ctions
ĠRegion alliga
Ġstamm te
Ġbreak fast
Ġsym pt
ĠDÃ¶r fer
ĠGele gen
b in
es heim
Ġv illage
ĠL ed
ĠL ov
Ġst ars
od ge
ant on
Ġch arm
ele y
unt ing
oh ol
ĠX ML
Ġben annte
Ġsur ger
ĠSil ver
Ġwicht iger
bereich e
gesetz ten
ĠSied lungs
ĠSpr int
Ġdat abase
Ġemer gency
beg inn
Ġbegleit et
ĠEntfern ung
L A
O K
Ġin nen
ĠM uss
um ps
ann y
se y
lie fert
tem peratur
ĠCl ark
iges etzt
wor ten
ĠWehr macht
ĠZent imeter
ĠVerÃ¤nder ungen
ĠverfÃ¼g bar
rÃ¼st ung
c our
p es
t te
Ã °
ĠF abrik
Ġfor eign
ĠGe werbe
ĠCo up
bo den
ĠÃĦ m
ĠSchl Ã¼ssel
ĠLebens mittel
ournal ist
ĠSen at
Ġexam ples
Ġintern al
' ,
as sten
ĠB rie
ĠM u
ig ration
ĠT ho
ĠC in
ond e
Ġdar stellt
ĠAd v
stra te
amt es
Ġmin imum
ĠBed arf
forder ung
ĠIr ish
Pl an
Ġamer ikanische
Ġbreit en
Ġestabl ish
Ġschwed ischen
Ġschwar zen
D ire
U C
p oint
v ideo
Ñ Į
Ġin ne
ĠM au
ĠP ict
ĠstÃ¤r ker
ĠHÃ¶ch st
ĠIh rem
S ome
r ian
ĠL iv
In nen
ĠPol ice
ĠGu ard
ĠBad minton
ĠStraÃŁen bahn
Ġmein em
Ġsurround ing
ĠEreign isse
ĠergÃ¤n zt
p per
Ġm ort
ot ton
Ġcomp let
ĠBr enn
arb rÃ¼cken
Ġgu ess
Ġfamil iar
ĠRechts anwalt
ĠIr land
ĠHalb insel
Ġrap id
6 00
H C
c s
k la
in ne
Ġa st
Ġf arb
Ġnach gewiesen
ĠOr igin
Ġges ucht
Ġges prochen
ĠMan uel
Ġprocess ing
198 5
Ġgele gt
Amer ican
Ġupd ates
Ã¤dagog ik
ĠProm otion
vorsitzen der
p unkten
am ik
ĠVer w
Ġ18 76
rÃ¤ umen
etz ungen
ec ted
Ġger iet
yl on
the ater
met hode
ĠAth en
Ġparticip ants
Pr iv
Ġresour ce
Ġkont roll
Ġrepla cement
waren ess
E t
O ktober
S im
v arian
Ð ´
ĠW itt
Ġbe zieht
Ġst yles
rit ter
amm ern
Ġgen ug
Ġgen annte
amil ton
Ġ0 9
zw ungen
Ġsur vey
Ġpresen ce
ĠIntegr ation
Ġbehav ior
ĠRena issance
b il
n ern
ĠB BC
ig ra
ĠT auf
ĠF ab
ĠW arn
ic z
Ġst ir
ru gen
port al
Ne u
198 7
Ġimport ance
ĠKirchen gemeinde
ĠMotor rad
Ġcla ims
Ġwes halb
ĠSing ap
V A
ĠB Ã¶r
ent ially
ĠN ad
ĠSie gen
ĠBer atung
Ġlie ÃŁen
ĠMill er
Ġhistor ical
Ġmanufact uring
Ġintrodu ced
Ġallgemein en
reu ung
Ġenh ance
ĠTi rol
D ur
U l
V I
p op
Ġf illed
Ġ( ),
ĠN in
ab schnitt
Ġnot es
igh ted
ett ing
ĠOber liga
ced es
ĠVerb reit
ĠBel g
ĠPriv ate
Ġdiscover ed
eme ister
ĠMÃ¤nn ern
Ġt ail
ar isch
ĠE C
ĠW ellen
ĠC ommer
Ġge e
la y
auf nahmen
ĠHe art
ĠBl Ã¤tter
uk i
Ġown ed
Ġpat io
ĠschlieÃŁ en
ĠDi Ã¶z
pre uÃŁen
Ġhapp ens
gebie ts
Ġwid mete
ĠErk rank
ĠLeichtathlet ik
B rite
a ktionen
r ischen
u ine
er ei
in ent
ch i
ĠM iami
st ers
ĠG on
et a
19 74
pr int
ilit ation
ĠKrieg sende
Ġcho ices
forder t
Ġtot ally
cep ts
ĠKrank heit
âĦ ¢
z ellen
Ġ 00
ĠD orn
ĠK av
ber ge
ĠO der
ĠSch aden
ĠAn st
ĠBe at
iz ona
igh ter
ĠEx ecutive
ĠSta ates
arr ier
Ġmin or
Ġ% .
ĠBuch staben
ĠDaten schutz
ĠDis ney
Komp onist
ĠDenn och
ĠLokomot iven
K W
nd orf
al ters
ĠI reland
ĠH agen
ĠIn stall
tell ers
ian ischen
geb oren
Ġ6 7
Ġ7 7
bau en
Ġsc ore
Ġhand elte
Ġbo ys
ĠSk i
ĠGo ethe
athol ic
Ġadv ance
Ġbring ing
ĠAben teuer
Ġsil ver
c op
l ist
n s
te en
ĠD uring
ĠW ester
Ġbe auftra
Ã¼r f
Ġj ava
ant a
Ġ18 30
ĠEx istenz
ĠBundes wehr
Ġspec ies
Ġdel icious
ĠTer ror
Ġocc up
Ġfield s
n ull
ah a
ĠIn stagram
Ġse qu
ren ce
ĠUm fang
ĠEl izabeth
ĠAs ian
ĠReich es
Ġsor gen
ĠImm obilien
Ġkanad ischer
ĠBesatz ung
Ġstellvertreten der
Ġheil igen
Ġverhaf tet
M ore
ar ischer
Ġh ook
Ġc utting
ĠG Ã¼
ĠZ er
old ing
Ġag ent
Ġvers etzt
Ġschw ere
Ġander es
ĠschlieÃŁ t
Ġmen u
ĠAngeb ote
ĠTschech os
v olution
en hagen
Ġm ental
ĠL aus
ĠC ivil
ĠJ Ã¤ger
Ġ18 40
ĠAuf ruf
Ġbes ie
ific ations
ĠAmer ika
Ġverl Ã¤ng
dienst kreuz
ĠursprÃ¼n gliche
Ġzwe ier
ĠRÃ¤ ume
ĠBrun nen
wechs elt
mir al
B rand
H A
le gte
ĠL yn
Ġy esterday
ok us
ĠCh ance
ĠPr ior
fahr ten
Ġbef re
196 8
haupt stadt
ĠPfer de
p in
Ġ icon
Ġs itting
Ġv ieler
ent h
ĠH ang
Ġan imal
ok u
Ġ9 6
min a
ĠSo zi
Ġ186 2
Ġober halb
Ġther apy
Ġdog s
Disk ografie
S an
e ist
j ahre
n ischen
Ä ħ
ĠB arn
ig ers
ĠI O
ĠDie go
Ġab hÃ¤ng
ĠEin stellung
ĠUnter richt
Ġlang er
ĠCom ic
Ġvac ation
ĠRumÃ¤n ien
g age
Ġt utor
Ġin fe
Ġf ly
ĠD eleg
ĠG ymnas
ĠW eit
ĠR ain
ĠR ome
ĠL uz
ĠC er
ĠV i
ĠZ usÃ¤tzlich
ĠSch la
ĠSch Ã¼l
oh an
rol og
Ġchar akter
Ġmag net
C up
G l
b art
Ġv ul
ĠL iving
ĠC her
ĠV inc
ill es
ĠAn erkennung
ĠSp aÃŁ
Ġle ider
reis en
Ġcomp la
Ġges und
Ã¼t ter
Ġsub s
198 6
ĠRein hard
Ġcompet itive
Ġappear ance
Mot or
kÃ¼rz ung
F irst
W as
b ut
n ik
or ium
ĠA y
Ġv ent
ĠD id
ĠO ze
ĠBe cause
Ġex tre
Ġcon text
ĠFor est
Ã¼nd en
ĠNord west
Ġgl ob
ĠLie bes
ĠTechn ischen
Ġfilm s
âĢ¢âĢ¢ âĢ¢âĢ¢
strahl ung
m ade
Ġm ine
Ġan sonsten
Ġaus fÃ¼hr
Ġj ump
tell ungs
Ġpre gn
ĠParis er
ĠNutz er
ĠKons erv
Ġfeature d
Ġflex ible
Tod ay
V ert
ĠK inos
ĠL eder
ĠSch mal
ĠAn lass
ĠUS D
ĠSh ort
Ġrem ains
Ġshow ed
ifiz ierung
Ġbevor zug
ĠInnen stadt
stud ium
ĠBrun o
wel ry
Ġinstr ument
J o
Ġ1 14
ĠD all
st ances
ĠK Ã¼r
ĠK iss
Ġer geben
ul ated
rÃ¤ ft
ĠLe wis
ĠHe eres
ĠMax well
Ġbefand en
Ġmanufact urer
v iel
ar film
ĠB ene
sch reibung
ĠW els
Ġauf gel
ĠRe kord
ĠKl eine
Ġ13 0
ĠCar los
Ġevery day
ĠVerb ands
ĠLin den
ĠDo ktor
Ġgewann en
ĠhÃ¶ here
ĠTher es
ĠTher apie
ĠMult ic
ĠAng st
ĠÃľberg ang
Fra uen
Ġbeinhal tet
G H
Ġm arriage
ĠM aus
ĠP ont
ĠE b
Ġk it
ot ions
âĢľ ),
ĠGemein sam
fahr zeuge
ĠMill ion
ament al
ĠSm all
lad ung
Ġlif estyle
ĠprÃ¤sent iert
ĠKÃ¼nst lern
Ġkauf te
VerÃ¶ffentlich ungen
B aden
F o
S en
S onst
f rÃ¼
ĠB iele
ĠN assau
Ġth ick
ĠEr werb
Ġvor der
Ġen ded
Ġwor ry
Ġlie genden
Ġbel ief
Mit tel
mÃ¤ÃŁ igen
Ġ186 8
ĠBu ilding
ĠunterstÃ¼tz te
ĠKommand eur
aud i
ĠmilitÃ¤r ischen
telligen ce
Ġgefert igt
K ar
de cke
Ġc os
ger Ã¤t
iz ei
ute te
Ġar range
ogra pher
ĠMag azine
ĠPosition en
ĠHir sch
ĠBoch um
f ix
is tern
ĠP age
Ġre aders
ĠVer g
fahr ens
ĠGeb rauch
Ġrec ipe
Ġho tels
Ġacc ompl
ĠOn ly
ĠFr ucht
Ġsur f
Ã¤tz t
ole on
ĠOp ern
Ġged reht
ĠKonfl ikt
ĠAltern ative
A ccess
v ia
y ard
ĠK G
ĠK linik
Ġe gg
ĠMar g
ĠFran Ã§ois
ĠBl umen
Sch ule
ĠzurÃ¼ck gegeben
ĠMag azin
Auf grund
Ġcond uc
ĠVerd ienste
Ġhundred s
Ġdisk ut
F B
T ro
U P
à ¥
Ġt end
un fts
Ġein heit
im ension
sch ritt
Ġam b
19 75
Ġsie gte
ac ional
Ġup coming
Ġkomp on
Ġwoll ten
ĠVert rieb
Ġincred ible
Hinter grund
Å Ľ
or um
Ġf oll
ĠM Ã©
Ġo k
ent liche
ĠL izenz
Ġis lam
ien te
ĠVer z
Ġunter lag
ĠSchw anz
Ġpl ug
org ungs
ĠHand werk
ĠAll tag
Ġphot ography
ĠVolks zÃ¤hlung
ĠRy an
ĠKonstru ktion
ĠKurfÃ¼r st
Ġneighbor hood
Ä Ł
ĠF la
ĠF ans
ĠG ross
Ġth us
la ce
ud ing
Ġnach halt
ĠSe a
ĠMar cel
Ġgew eiht
imm y
ĠQu ell
anc en
Ġerw eiterte
ĠPort al
ĠEben falls
Ġmeas ures
Ġposs ibly
ĠMem orial
Ġrev olution
Ġprem ium
H ans
f i
g ast
l at
Ġd anger
at ischen
Ġv eter
ro it
Ġp ump
ĠJ am
Ġk irch
ĠSt one
Ġzum eist
St at
tt ing
EN T
deck te
Ġfil ter
ĠSpan ish
L ebens
k anz
k ette
l ation
w eiter
ur st
Ġf ruit
ĠH ind
ĠW Ã¤l
um es
and y
ĠN erv
Ġk onserv
if ff
Ġj ack
Ġch ocol
Ġ0 8
ĠSal v
ĠEv a
ÅĤ aw
ĠPers pekt
ĠTok io
ĠNahr ungs
ĠDrit tel
Ehr ungen
g ard
or ough
st rÃ¤ger
Ġdes selben
19 39
elb ourne
Ġgesch Ã¼tzt
ĠĊĊ Ġ
gra fen
Ġnor m
Ġrep ut
Ġarr ived
ĠSum me
wÃ¼r fe
ĠViertel finale
tl ere
stechn ik
zep te
Ġeingew eiht
B ra
b Ã¤
and em
Ã¶ ner
Ġpro min
Ġ18 49
Ġor ange
ost ol
Ġ9 00
els on
ĠFre itag
Ġfl u
Ġhin ten
ĠNatur al
plic ations
Ġsign ed
Ġlo ad
Ġelect ronic
ĠKategor ien
ĠStock holm
D av
l isten
ĠH ad
ir ts
ĠJ ar
ver lÃ¤ss
tel finale
Ġ18 15
Ġdies mal
ans ion
Ġ8 7
ĠUm gang
lex ikon
ĠAss istent
iden z
Ġbro ther
oin ted
ordin ate
Ġdeb Ã¼t
ĠFel der
Ġcabin et
ĠSehen swÃ¼rdigkeiten
D is
H P
re iter
ĠF alle
ĠK ohlen
Ġg rat
ow o
enn zeichnet
ĠIm per
Ġet h
Ġ7 6
Ġother wise
ĠOber flÃ¤che
Ġmo de
reg on
ari at
ĠRuss ian
gÃ¤n z
M Ã¼n
d ra
l Ã¶
ĠS M
Ġm ur
ĠB orn
Ġh off
am ar
ent le
ĠW W
ĠL Ã¤nders
ĠEn vironment
az itÃ¤t
ĠStadt gebiet
ĠHand lung
Ġhin ein
arch ie
Ġdec isions
sport ler
ĠCont ent
rim inal
book s
Ġevangel ischen
ĠRÃ¶ mer
Ġdescrib ed
zust and
Ġopin ion
M erk
it ate
ĠS K
ĠA er
ĠB arb
ig ar
ĠR ent
ĠL ob
Ġvor kommen
geb ra
ĠPr int
St a
ĠAnd ere
Ġwould n
ĠMo de
ĠĊĠĊ ĠĊĠĊ
Ġeinfach en
Ġnieder lÃ¤ndischen
ĠDokument ation
ĠOsnab rÃ¼ck
ĠGabr iel
ĠB row
ĠB eth
ĠK ader
ĠJ ens
19 30
Ġch ain
ĠSe g
man uel
Ġsho es
ĠTechn ologie
hÃ¶ fe
Ġceleb rate
Ġverste hen
r ische
Ġa fr
is is
ĠS or
he ber
ĠK ro
ast ik
Ġgleich er
198 3
apt op
ĠRu der
Ġappe ared
Ġask ing
Ġpresent ation
ĠEt appe
ĠTown ship
Ġspeziel le
cycl op
k Ã¤
Ġf er
ĠF Ã¼
hr ung
Ġl ernen
Ġge p
ĠAn alyse
Ġj en
Ġum stritten
Ã¶n t
lo aded
rat or
ĠSchw ein
ĠEs c
ek ing
Ġ0 1
ĠZw angs
Ġcl imate
ÃŃ k
Ġsign s
ĠHerr scher
Ã¨ re
ĠZwe ig
ĠKonz entr
ĠEvangel ischen
Ġclin ical
fal se
Ġepis ode
ĠZun Ã¤chst
h ut
ĠM innesota
Ġ( ).
ĠT ool
ĠL P
Ġg olf
ĠC R
ĠGes icht
Ġinter face
Ġdel la
verb indungen
alle utnant
ategor ie
ĠÃ¤lter e
Ġpoln ischer
frast ructure
Ġaf ternoon
U M
Ġd iss
Ġs ink
el in
Ġf lag
ĠB enn
Ġp fle
ĠP iet
Ġn ine
Ġh ast
ĠT unnel
ĠN y
kt oren
ĠRe aktion
Ġle hrte
Ã¤n zer
fe ktur
Ġmehr mals
Ġmy ster
Ġlie fer
Ġste igen
ĠZu cker
ĠOrt schaften
Ġsol cher
ĠVerl Ã¤ngerung
ĠerhÃ¤lt lich
ĠKath arina
ĠKapit Ã¤n
spar tei
G C
H ar
w id
Ã¼ mm
ĠB reit
Ġp ure
Ġein s
ĠH ills
Ġst imm
ĠIn schrift
Ġr are
ho b
ond a
Ġ7 8
ĠMus ter
Ġ[ ...]
Ġgar age
gef angen
war ded
ĠTest ament
ĠNS DAP
leb nis
merksam keit
e ber
p ur
Ġ rand
Ġm ac
ĠG ur
ĠR ick
Ġto ugh
and t
Ġver tra
ĠSp uren
kreis es
zeug ung
ĠSer b
Ġpol icies
Ġbre ite
Ġoffen bar
Ġangeb racht
ĠFle isch
M ont
S ince
ĠB ret
ĠB ath
ĠD iam
ĠP unk
ĠW inkel
ĠR ic
Ġgeb ra
ĠPol icy
Ġgu itar
esse e
ĠKat zen
Ġsecond s
ĠUl m
ĠBil dern
Ġpattern s
p iegel
Ġv ary
ig o
ĠF ellow
ier endes
gr at
hal ter
Ġgesch ieht
Re zeption
Ġgreat est
Ġcre ation
ĠSa ale
Ġbelie b
IS DN
scheid ung
ĠBot an
Ġadmin istration
ĠRep rÃ¤sentanten
Ġsowjet ischen
ĠMom ent
Ġzuk Ã¼nft
Ġsurger y
a er
c lass
le vel
ĠH ope
th en
aus bildung
ĠBe ispiele
Ġwe aring
Ġunter wegs
geb Ã¤
ĠAuf tritt
Ġad mit
gesch icht
Ġmin im
Ġintegr iert
ĠLim ited
Ġwirtschaft liche
Ġinfluen ce
ĠKonstant in
D u
D atum
L ud
P ass
P okal
Ï ģ
Ġt as
Ġw omit
Ġb Ã¼rger
Ġin tended
Ġm ont
ĠP osten
ĠF ed
ut ors
ĠL az
ĠV as
Ġan f
per iode
Ġ0 5
ĠHaus halts
ommer ziel
ĠFer r
ĠKompon isten
lÃ¤uf e
ĠBot schaft
Ġconcern s
Ġhous es
R eich
T P
Ġd az
Ġd ritt
ĠA uge
ĠK ai
Ġst rip
Ġver arbeitet
Ġpr inted
ivers ary
An fang
Ġreg istration
Ġcle arly
Ġ: )
ĠForsch ungen
Ġerlang te
Ġfavour ite
or able
re z
Ġf aster
ĠA cker
ĠD OC
ol s
ĠF els
ĠR ou
ĠU C
sp ect
ĠAn k
Ġi P
ian e
ĠCh ap
du ate
par tei
ĠPh oto
ĠNord amerika
ĠMon ats
Ġerw artet
ĠHier bei
Ġ185 6
ĠDis c
Ġerfolgreich en
fÃ¤h ig
Ġhund ert
Acc ording
H am
i oren
Ð ¼
on ic
Ġs au
el ement
ĠP i
ĠK ok
et enz
ĠC ass
ĠV il
Ġe hren
ab len
Ġhe ight
ĠAl uminium
Ġbes ucht
amp s
oth ing
Ġdec ades
Ġenter tainment
Ġfund ing
ĠHu bert
gewand elt
Ġfeed back
K om
m os
Ġm anner
ĠM alt
et ime
ĠW ende
Ġk ick
Ġaus gesch
Ġab stra
19 79
Ġbet reibt
ank a
ĠBi ografie
ĠGeneral major
Ġdeliver ed
ĠmilitÃ¤r ische
ĠEigent Ã¼mer
ĠSoph ie
ĠVerantwort ung
g ert
h ungs
it as
le ts
Ġz ogen
ber ry
ĠN am
ĠNe use
Ġro ut
ĠGer Ã¤te
Ġbo und
Ġbre ath
Ġappro ved
Ġperfect ly
Ġmiss ing
ĠMiner al
ĠErinner ung
Ġingred ients
s ub
Ġs ides
ĠD al
ĠP okal
ĠR ÃŃo
Ġk ing
ĠAn sicht
19 20
19 25
ĠY es
ĠHe ck
Ġ8 4
ĠSpiel film
Ġdr ivers
Ġeinge gliedert
ĠFranz osen
198 1
ĠRu he
onstru ction
ĠEnter tainment
ĠAnth ony
P osted
d ies
on te
Ġin tr
ĠD inge
ĠK ub
ĠV Ã¶gel
Ġk Ã¼nd
Ġk aiser
ĠSch reiben
Ġsp aces
Ġdurch aus
Ġ7 4
ĠArbeit geber
ĠGesch Ã¤ft
Ġange ordnet
Ġbekannt esten
Ġ185 8
Ġtyp ically
ĠCamp us
Ġausgest ra
Ġcook ing
ĠbeschÃ¤ft igte
ĠMun icip
ĠBM W
profess or
K lass
ä ¸
ion ier
Ġc red
ĠR ele
Ġbe igesetzt
Ġzu gelassen
ĠIn stanz
ĠRe formation
ĠY am
ĠPl Ã¤ne
own ed
Ġpla ys
ĠChr isten
Ġact ions
app ing
stre am
ĠSol o
zus etzen
Ġfix ed
ĠAT P
ĠPeters burg
Fin ale
A ustr
d orfer
ĠS lowakei
ĠB oth
ĠD I
ĠW i
ul iert
qu ar
ive au
Ġar ts
rat ic
ĠInd iana
ĠVers orgung
Ġgef Ã¤r
Ġehemal s
verb Ã¤nde
ĠDu isburg
ĠTre ffer
ĠVe gas
Ġkur zer
omet imes
Ġevangel ische
ĠsÃ¤m tliche
T ER
m ers
ie u
or ps
ĠB ull
ĠK h
ĠR Ã©
ĠAl les
19 76
ss ystem
Ġdis p
ĠNord ost
Ġger inger
Ġbeste hend
Ġben ch
ĠÃĦ hn
Ġbra ucht
Ġappe ars
Ġcommit ment
Ġdom ain
D T
w riter
Ä «
Ġb rown
Ġv ote
ĠM atch
Ġp utting
Ġh yp
ĠL och
ber uf
ĠV ene
ĠâĢ Ļ
Ġr ise
ĠRe zept
ĠEr furt
art ikel
19 44
iz a
Ġda ÃŁ
uck er
ES CO
Gr und
ĠÃ¼b lich
ĠArgentin ien
M Ã¶
n ord
Ġs umm
Ã¤ hne
st ufe
ĠR ainer
ĠO ak
Ġst Ã¤rk
Ġzu gehÃ¶r
ang o
for ce
ord on
pro jekt
ific ate
ĠWerk statt
ĠEben so
Ġreach ed
Ġak zept
) -
V om
Ġs at
as ka
ĠB itte
ĠT an
ĠO il
Ġst arten
ĠBe cker
19 38
ĠTh ree
ĠSe ele
co hol
Ġget roffen
ĠMan chester
ĠCon f
gele hnt
stoff en
Ġconc rete
Ġrespons ibility
Ġautomat ically
ĠWahr heit
Ġbem erk
ĠFeder al
ĠHei z
fÃ¶rm ig
ĠKandid aten
ĠSpielt ag
B ek
L ook
L isten
Ġa ges
Ġt ast
ĠM asse
ĠK roat
em y
ĠC ann
Ġst Ã¤ndig
Ġsp ending
Ġsch Ã¶ne
Ġ8 3
Ġcount y
Ġimpro vement
ĠTyp s
ĠGeschÃ¤fts fÃ¼hrer
Ã¼ste t
Ġjapan ischer
ĠSchlieÃŁ lich
L og
c as
l ach
un sel
Ġm useum
ĠB ran
ĠP ut
ĠL uk
ĠJ Ã¼n
ĠSt ars
eb au
ens wert
ob i
ĠAus gaben
off izier
eth yl
ĠGer Ã¤t
Deutsch e
ĠBereich e
Ġlo ans
ĠGold medaille
ĠFil men
wh at
Ġlands cape
htt ps
ĠOrch estra
A uss
F S
M at
b ist
Ã ī
ĠD un
Ġc raft
ic ial
ĠC reat
ach el
ĠEr klÃ¤rung
Ġ3 60
ĠAl i
ĠTh ailand
Ġfe els
ĠAd dition
ucht ung
De zember
Ġverb lieben
En g
des ign
Ġparticip ate
Ġchines ische
Ġausgew Ã¤hlt
Ġanerk annt
W ei
d el
e per
h arm
m ach
Ġt ests
Ġf ellow
il st
ra gt
and al
Ġfor ces
Ġver an
ag ert
ĠAuf merksamkeit
ĠPr ice
uer ei
ĠUm feld
Ġmed icine
ĠPat ri
ĠDo zent
film ung
ĠHigh way
ĠVertrag s
ĠAust ausch
ĠFert ig
K ey
S owjet
Ġd ates
ĠD ating
ĠP ersÃ¶n
Ġn ative
ĠN i
Ġth row
ĠSt att
ĠSch icks
ang a
Ġor th
be c
nen nung
Ġbut ter
pro zess
ĠSte ink
por ter
196 6
Ġimpro ved
ĠAutor in
Ġpurch ased
uert o
ĠDemokrat ie
ĠVerteid igung
Ġgespe ichert
ĠViz emeister
k u
Ġs a
Ġ1 13
ol id
im o
sch uhe
Ġst retch
ib ilities
ĠAl an
ĠCh air
ĠPar allel
Ġ8 1
Ġem otional
off s
fÃ¼ llt
ĠMo le
ĠHa ar
ĠWeiter hin
mo der
Fl ug
wir ken
ĠJahrzehn ten
Ġforder te
ĠBeteil igung
ĠBiele feld
U nd
re ens
ĠM esse
ig i
ĠH at
ĠJ Ã¼d
Ġre covery
ĠU d
ĠSp ur
19 29
ĠMar io
Ġber u
gend es
ĠverÃ¶ffentlich ten
ham mer
Ġ185 7
ĠKat alog
ĠRuss ia
Ġdistr ict
Ġencour age
Ġproduz ierte
Kirchen gebÃ¤ude
ĠdebÃ¼t ierte
B Ã¼
z ing
sch rank
Ġg orgeous
Ġdem on
ĠAb stieg
Ġour selves
gesch Ã¼tz
ĠÃľber leben
Ġmus ical
ĠFest ung
Ġsupport ing
fÃ¤ llen
Ġlate in
grenz ung
Ġexpla in
ĠFrem d
Ġbeeinfl usst
ĠAnh Ã¤nger
D okument
er ten
Ġs ang
Ġh yd
ĠK abel
ĠH us
ĠL Ã¶sungen
ĠC N
ĠN FL
Ġre ichen
ok oll
ĠÃ¼ber gebenen
Ã¤n glich
ose x
ĠBr ut
Ġwieder holt
Ġ14 0
Er zeugt
Ġele ction
zy kl
Reg iment
ĠAc count
ĠCons erv
ĠEuropameister schaft
ĠDir igent
frist ig
ĠKomment ar
Ġfung ierte
ĠberÃ¼cksicht igt
D C
Ġs ad
un ks
ĠM ie
ĠSch Ã¤d
tel ier
aus geber
Ġent worfen
Ġcon v
bar ung
elle d
ble iben
Ġshe et
Ġmin i
wend ungs
Ab sol
Ġkind s
Ġposit iv
ĠMaxim ilian
ĠSpeich er
T it
h aven
o ÃŁen
Ġf ro
Ã¤ h
âĢ ĭ
Ġc able
ĠF ame
Ġg rÃ¼n
Ġth reat
ĠRe isen
gel Ã¤nde
hal f
ĠOr th
ĠNe ues
ĠAb b
ĠAus bildungs
Ġad s
Ġseit her
res te
Ġstatt dessen
gele gten
ĠHar vard
Ġworks hop
Verein igtes
Ġconsum ers
ĠeigenstÃ¤nd ige
Ġschaff te
A uÃŁer
F ebru
K S
W ell
w affe
ĠS G
st ens
Ġl ived
Ġge fallen
Ġdem okrat
Ġne arby
ger Ã¤te
Ã¶r dern
pro ble
sk irche
ĠStud ios
Ġerfol gen
Ġange passt
Ġcons ist
Ġbr ill
ĠJugend liche
ĠHil f
schein lichkeit
Fernseh film
zir ke
Ġvert rieben
Ġfra uen
ĠVize prÃ¤sident
Ġscient ific
K e
w ein
it als
Ġt ur
Ã¤ p
ĠF usion
ĠV olleyball
ĠAr me
ĠCh i
Ġen co
fe ier
berg s
ĠVor teil
Ġ8 2
Ġbeg ins
ĠFre il
stit ute
ĠEd in
ĠUr teil
ĠProfess ional
Ġhold ing
Ġcandid ates
Ġadvent ure
L P
} .
Ġw Ã¼n
ĠM ethod
Ġto ward
Ġver teilt
19 14
19 78
our cen
ys ik
ĠOb ama
Ġend lich
Ġter ror
ĠHin weise
ĠPrem iere
ĠClass ic
Ġerheb lich
1 10
b ing
o fen
Ġf lav
us hed
ĠB enz
ĠB uk
ĠT s
ĠG anz
ĠW isconsin
ier bar
we ar
sp h
19 21
ĠEin zugs
Ġres idential
Ã¶l z
akes pe
ĠGu y
Ġredu ziert
ĠCost a
F ranzÃ¶s
on er
Ġs essions
ĠS amen
ĠS eminar
Ġm ent
Ġl agen
Ġpro pos
Ġj ung
Ġj ener
ip t
tra ck
Ġsug ar
Ġbedeut ende
Ġtrotz dem
figur ation
Ġcaus es
Ġstaat lichen
Ġhous ing
BÃ¼rger meister
Mich ael
ĠÃĦg ypten
Ġdenk mal
ĠGemark ung
R S
a ult
al in
ein st
Ġm ic
ĠM ust
Ġp il
ĠP A
ĠG az
ĠR eiter
ĠC laus
Ġl aufen
ĠAl ice
Ġch annel
par atur
ĠTr in
196 5
rÃ¤sent ation
ĠKe vin
ĠRis iko
Ġsuppl ies
ĠgrundsÃ¤tz lich
h ome
ch ar
ĠD unk
ĠL ust
ĠZ eile
Ġj oint
end el
ud a
ip pen
gr Ã¼n
19 71
ĠAr izona
Ġunter scheidet
oc ation
ĠEn kel
Ġtra il
ĠUS B
Ġ10 1
Ġ12 5
pf alz
ace ae
ĠOn tario
ĠfrÃ¼ here
Ġhealth care
US A
ĠAnfang s
fre ien
Ġerfolgreich e
ĠKaiser reich
ĠFreund in
Ġzerst Ã¶r
ĠMeer es
Ġprovider s
ĠmaÃŁ geblich
ĠAfghan istan
I st
O p
W ind
c ers
d ienste
or ded
or chester
Ġw al
an on
ĠD S
Ġh ire
Ã¶ te
iel l
ĠVer stÃ¤nd
sp unkt
lin ed
Ġ5 000
Ġinter ests
schie de
Ġfre uen
ĠVe ter
Ġlov es
ĠVerl ust
Ãĸsterreich er
ĠStruktur en
Ġengag ierte
ĠPast or
ĠTrain ings
A lex
h Ã¤usern
l alom
in fo
ĠS ei
ĠB od
Ġaus gewiesen
ĠBer ater
stra fe
ĠBand s
Ġra ise
ĠHen ri
Ġfort an
aun us
ĠSom it
Ġuk rain
ugu ay
jen igen
D enk
F i
y ll
ĠD ak
ĠE N
ĠR ak
ĠU we
ĠU rauf
ass o
Ġsch Ã¼tzen
ĠSal es
ĠAt om
Ġbil deten
west lichen
ĠFlor ian
Ġmensch lichen
ĠHig hl
ĠBundesver dienstkreuz
y nd
z lich
z usammen
ĠS yl
ĠS ingles
Ġin ch
Ġf Ã¼hl
ĠK Ã¼hl
ĠC urr
ĠJ Ã¶rg
id met
ass te
19 72
ain less
ĠLand gemeinde
Ġte a
Ġ6 9
Ġout standing
ĠBau reihe
iven ess
Ġger ingen
Ġbo at
ĠBerg bau
Ġcall ing
ĠStÃ¤d t
lad imir
Ġpleas ure
D oc
F eld
it tel
it Ã©
ĠH arb
ĠSt ipend
Ġre ar
ĠDe f
ĠSe gel
rei hen
Ġ9 3
Ġher um
ict ions
Ġ0 7
An gabe
Ġverb esser
Ġbef est
Ġcare fully
sta ates
ĠKompon enten
Ġfit ness
Ġabsol ute
Ġcloth es
ĠÃĦr zte
Ġguarante e
? )
F Ã¼hr
L ast
O ver
w irt
ch nen
or ges
Ġm oral
ter min
ol y
ĠK oblenz
ĠH amilton
ĠN est
Ġk Ã¼rz
Ġdes pite
ab ad
ĠHe x
ĠVor stellung
Ġper mit
Ġdire kten
ĠHa wa
Ġbro ken
Ġstre am
Ġmag azine
Vor pommern
Ġsor gt
ĠSpr ung
ĠEnts p
ĠDisk ussion
Ġmount ain
erkl Ã¤rung
Î¿ Ï
Franz ose
D i
E hren
R C
ĠH enn
ĠJ r
ad bach
Ġge fe
ĠBe frei
ia e
19 34
ĠNe ug
ĠFl otte
Ġgen e
ĠTra de
Ġcons umer
ĠGrÃ¼ nen
Ġequ ipped
Ġhol te
gre es
ktr um
Ġchines ischer
ĠerfÃ¼ llt
Ġuntersch rieb
L ou
c ons
k reise
te ine
re ifen
ĠW ars
ĠC ab
Ġbe at
ĠSch Ã¶ne
19 22
Ġwe chs
land schaft
ure au
fl anze
ĠBl u
ĠMon ument
ĠBar ock
ĠIns besondere
ĠHÃ¶he punkt
Ġair port
ĠpersÃ¶n lich
Ġgradu ate
Ġcirc um
Ġexec utive
Ġarchite cture
Ġdepend ing
Ġausgeb ildet
Ġproced ures
K ilometer
O per
Ã ®
ĠS ac
Ġder selben
ĠB auten
Ġ( "
ĠF L
ĠK orea
ĠC hal
Ġbe her
ĠJ ugoslaw
ĠJ ubil
ĠSt reich
ab ama
ĠVer tre
ĠVer handlungen
hn er
19 50
Ġfe es
ĠSte el
Ġpla te
Ġstand ing
Ġel imin
rue ft
198 2
Ġcal cul
Ġbew usst
ĠLes er
Ġpur poses
ĠSn ow
Ġaktuell es
ĠErzÃ¤hl ungen
ixt ure
Ġproper ly
h Ã¤
Ġb at
Ġp apers
ĠP u
ĠG ert
ĠK ore
ĠR iv
Ġver p
ĠDe ad
ĠDe ath
Ġent reprene
ac ious
ĠMit be
Ġ8 6
ĠEl f
ĠReich stag
ĠKn ochen
ĠÃĸsterreich s
Ġ185 9
ĠAlbum s
ĠMer cedes
Ġeurop Ã¤ische
aun a
wh ile
ĠAust in
G rÃ¼
H il
O l
R ec
z it
in th
ĠB ow
ĠB atter
ĠD afÃ¼r
ĠH arm
Ġan grenzen
ĠO regon
Ġsch mal
rÃ¤ um
ĠSie ge
Ġar gentin
Ġgen et
An n
Ġed itor
ĠAir lines
ĠHeil bronn
Ġevent ually
ĠLoc al
ĠgewÃ¤hr le
k rank
Ġb an
Ġin folge
ĠM ort
Ġein gest
ĠG au
ra gende
ĠH inz
ĠH Ã¼l
ĠC P
ist ungs
ĠSt or
Ġauf t
ok es
Ġum gewandelt
pl ant
ong s
ĠWe is
amm elt
ĠGeb irg
gemein det
Ã¤nger in
Pro jekt
Ġrem ote
ĠHam mer
the t
ĠZe ilen
ĠGraf ik
ĠIde as
ĠKre bs
Ġenth us
Ġdistrib ution
ĠEber hard
Ġproced ure
ĠExempl are
ĠGit arr
' .
I O
s he
Ġ ..
ie ber
ĠB ond
ĠK affe
19 36
ĠCh rom
par ks
Ġ7 3
ett i
Ġmach ten
Me hr
ĠLeip ziger
ĠSqu are
ĠFinn land
fir ma
ĠRuh estand
1 12
Ġb owl
ein richtungen
ĠD ich
Ġl unch
ov o
19 40
ĠDe cken
auf lÃ¶sung
cl ing
ĠAd vent
Re ad
ĠVers icherungs
stre ifen
Ġ180 6
ĠFrei will
bÃ¼ ro
ĠSchwer in
Ġerk enn
frei heit
Ñģ ÑĤ
ĠPropert y
k orea
n isch
en ters
Ġn erv
Ġein erseits
ĠT ank
ĠR acing
ul der
ver k
ib et
Ġex tend
Ġus ual
ĠEx c
ep ing
Ġkeep s
ĠAustr ia
Ġgrow n
Ġ180 3
ĠverfÃ¼ gen
ĠStat istik
ĠUN ESCO
Ġinnov ation
ĠpreuÃŁ ischer
Ġtele vision
ĠZuf luss
ĠEuropameister schaften
ĠtÃ¼rk ischen
ĠSchott land
2 50
Ġw Ã¤chst
us ste
Ġein gebaut
ĠW at
ĠW uppert
Ġbe er
ach se
Ġan gel
Ġge Ã¶ffnet
qu ir
iss a
co uver
15 0
Ġsol o
Ġgood s
Ġcar ried
ĠSa arbrÃ¼cken
plic ation
wei ÃŁ
ĠSol ar
ĠBÃ¶ hmen
ĠMult i
Ġlic ense
Ġnet works
F uÃŁ
Ã¼ g
ĠB ibel
Ġv ierte
ĠG or
ĠSp ark
ian z
Ġsh ops
ĠMar x
ĠMar sh
ĠTur ner
Ã¤chs ische
konstru ktion
Ġa gencies
Ġs alt
Ġb ike
ĠB ibliothe
ĠD ok
Ġh osted
ĠF abr
ĠG ib
ic ts
Ġg ifts
ĠZ auber
ver letz
ĠAn gelegen
Ġall gemeine
als ieger
Ã¤ch se
ĠTr ust
Ġtr ends
ĠChrist opher
ĠMo z
Ġverw endeten
Ġteil nehmen
Ġgar ant
Ġnieder lÃ¤ndischer
leist ungs
ĠRegierungs bezirk
Ġchrist lichen
Ġunters ucht
ĠGebÃ¤ udes
ĠEas tern
ĠabhÃ¤ng ig
p il
s burger
Ã ĥ
ĠS ite
Ġv it
ĠD ame
ĠF A
ĠE g
ĠL av
ĠC ommand
Ġbe ar
ĠO N
Ġro ute
ĠSte iermark
man ischen
ude d
ĠKl ang
ĠEx tra
Ġsup ported
Mit te
Ġstatt f
ĠTre ffen
ĠBahnhof s
Ġseem ed
ĠAtlant a
ĠJord an
F rÃ¼
g io
h aut
k ing
k ers
Ġs in
Ġ1 12
ĠM A
ĠM all
ĠD NA
ĠF as
ĠN AS
Ġk illed
af Ã©
Ġhe ft
ial en
Ġwill ing
ĠAd resse
ĠKon kurrenz
Ġem ph
ĠSpiel ern
ĠPart ners
Ġstell ten
ĠBrÃ¼ ssel
ĠverfÃ¼ gte
ĠLehr stuhl
zentrum s
ĠPhys iker
ĠmÃ¶ gliche
ĠVerteid igungs
Ġbege ister
D own
H z
V iew
r unden
ĠS v
Ġin tegrated
ĠA B
le utnant
Ġp ink
ĠF an
ĠF uchs
ĠI gn
ĠW iesen
Ġun gewÃ¶hn
Ġr uh
Ġat mosph
rit ion
ite e
gl ing
Ã¶l be
ĠSpiel klasse
Ġvers uchen
buch autor
asch a
Ġsur prise
ĠZe aland
Ġcert ified
Ġreturn ed
ĠVarian ten
ĠCirc uit
ĠGemeinder at
H ello
l ov
ĠA ge
le ten
ro vers
ĠK han
ĠL aden
ition en
Ġup per
ĠÃľber sicht
grÃ¼nd en
Ġmach ines
Ġnational sozial
Ġeffect ively
ĠExp edition
Ġaustral ischen
ĠAdmin istration
Ġvalu able
Ġchocol ate
i u
Ġf unny
am ents
ĠC ase
Ã¶ ger
ĠN ull
Ġver zeichnet
19 35
me yer
lo gen
igh ten
ren ner
sh ips
Ġgr undle
Ġtr ial
ĠEv alu
Ġmonth ly
ĠFrÃ¼ hl
kan al
Ġmot ion
Ġherv orge
ĠPsych ologie
ĠAcc ording
ĠOpp osition
sprÃ¼ che
O B
Ã¼ re
ier re
Ġk reis
ĠEr be
ĠUn ser
ho fer
Ġum gesetzt
ens ed
St ation
ĠJun ge
Ġgel esen
ĠAmer icans
ĠGo vern
Ġorder s
ĠPra kt
Ġvirt ual
ĠGle is
Ġbegrenz t
F ach
J azz
M ost
R und
i ago
v ements
Ð ¹
Ġt ables
ĠS ams
he ben
Ġy ellow
Ġver grÃ¶ÃŁ
ag an
Ġr an
ste iner
19 73
fl ow
stell erin
Ġreal ize
196 7
ĠMiss ouri
Ġintens iv
Ġbeob achtet
ĠAstron om
Ġappreci ate
ĠInstitution en
ĠÃ¶rt lichen
Ġsympt oms
f ted
h ain
l och
Ġf ach
ĠK ond
ĠSch uhe
art a
19 12
Ġch osen
Ġcon fl
Ġsh ares
ĠJul ia
Ġakt ive
Ġsub t
ĠMor itz
ĠDire ct
ĠGre if
ĠSym ph
ĠHoff mann
ĠTH E
! âĢľ
A re
P an
b ringen
t aus
y ou
Ġt or
ĠS end
ĠB usch
ĠI ron
Ġbe zÃ¼glich
Ġwh om
Ã¶r n
Ġch ron
ĠTe en
ĠWe iler
Ġher unter
Ġ7 1
bar er
Ġac counts
Sie ger
Ġmain ly
Ġfinanziel len
htt p
ĠTschechos lowakei
b ring
f ers
Ġ ==
in ations
Ġm Ã¤cht
ĠA ra
Ã¤ den
ĠT oy
ĠE gypt
ed el
Ġbe zogen
ir al
Ġmit tlere
id ays
ĠNe uer
ĠIS O
net en
Ġges p
ett a
ĠfÃ¼hr enden
ĠAs yl
ĠLu is
kathol ischen
Ġregular ly
ĠStreit krÃ¤fte
Ġwhe el
ĠKonzer te
Ġappoint ment
Ġermor det
Ġconduc ted
b oy
Ġw alls
Ġf ran
ĠG ard
Ġg estorben
Ġk inder
sp itze
Ġj oy
19 77
ĠLand s
Ġtra ined
eld ungen
rif tsteller
gew alt
ĠChrist ine
ĠHaupt rolle
Ġstand s
ĠWar schau
gress ive
ĠRos a
Ġmanufact urers
Ġofficial s
ĠPfer d
Ġeigent liche
Mart in
L uther
N ummer
a a
d itions
l ia
le hnung
Ã¤ ÃŁ
Ġp ic
Ġein gemeindet
ĠF ly
ĠK abinett
ĠW ird
ĠC ant
ach es
ĠJ ay
ĠZ DF
id ad
Ġab gest
Ġbei der
ht ml
ahl en
ĠBer ger
ong o
olit an
Ġsup ports
ata illon
ĠWohn haus
ĠDem onst
lÃ¤nd ern
Ġca ught
Ġconf idence
ĠSieg fried
Ġintrodu ction
Ġrecogn ized
Ġgraph ic
ĠIndustr ial
ĠÃĦnder ung
ĠGelegen heit
D ialog
S zene
Ġd eine
Ġa wareness
Ġs ac
Ã¤ mm
ĠD ienste
Ġc ute
ver halten
ĠRe ktor
19 26
mann schaften
rich ts
Ġ16 0
sk ar
ĠUm satz
rieg s
ĠJan e
Ġbesch loss
Nach bar
zahl t
ĠUr sprung
Ġentwick elten
196 9
Ġlist ing
ĠÃ¤hn liche
Ġfa iled
Ġorigin ally
ĠHarr is
ĠBom ben
inu ier
Ġaccur ate
ĠstÃ¤dt ischen
ĠVerbesser ung
L aut
Ġa men
Ġa gr
ĠT ran
ĠK ugel
est on
af eln
ĠBe cken
19 60
19 46
ĠGr upp
cc a
Ġhistor ic
ĠEv ents
Ġaufge geben
Ġ185 4
ĠSen ioren
ĠSchm uck
ĠKind heit
Ġelect rical
ĠDet roit
wh ich
Ġdom estic
elem ente
ĠverlÃ¤ng ert
E U
R aum
us ing
ĠA h
ĠB uen
Ġh all
ĠF ell
ĠC onn
ĠSch er
Ġne ur
ied s
stell ungs
ĠPart ien
ĠKap itel
ĠAuss tellungen
Ġricht ige
Ġprint ing
Ġkanad ischen
abet es
liefer ung
Ġperman ent
O V
O h
O ut
l uft
p ap
Ġd t
Ġt icket
Ġ1 18
ĠM elbourne
Ġh idden
ĠK ay
ĠSt ark
ĠAl f
19 23
ine a
Ġ9 8
ĠArbeit sk
bild ungen
ĠSer ge
ĠMill imeter
deutsch er
chten stein
Ġworks he
Welt meister
ĠWochen ende
Ġleg isl
Ġrepla ce
ĠLeg isl
ĠFal ken
Krit ik
Ġfoll ows
l s
Ġt ank
Ġ1 17
ra it
Ġg rad
Ġbe it
la im
19 31
Ġvor ne
ob s
ĠMit tler
Ġco ck
ĠPl ant
Ġro ten
Ã¶s er
rach ten
ĠBet reiber
Ġinv ited
ĠHar ald
ole an
Ġaufge teilt
ĠPubl ishing
auch en
Ġmess ages
Ġple ased
ĠRelig ions
ĠMÃ¶ bel
ĠSchÃ¤ den
Ġreve aled
ĠIO Exception
S il
b ett
ĠB og
Ġk Ã¼nst
iv ia
op ran
ĠEr mitt
ĠAr ena
Ġex tended
att an
ĠIt aly
ĠTra vel
ĠGesch mack
yr ight
Ġgef angen
fil me
ĠHerzog tum
ĠCons ult
P ress
T ime
Ġt arge
or ne
an es
ĠS ort
ĠS ache
Ġin vent
ĠM Ã¼hlen
ĠE ro
oy al
Ġgesch lagen
ĠOb st
Ġsol ar
Ġfre und
ĠBut ton
wor tet
ĠGirl s
================ ================
Wil helm
ĠbeschÃ¤d igt
Ġrand om
t est
u hren
Ġ ).
un er
ĠK em
id i
ok a
Ġ18 18
19 19
19 37
ĠDe finition
land e
ĠAus schuss
ĠMar in
als o
Ġdar um
inter est
ott a
ĠVerb indungs
Auf gelÃ¶st
Ob ject
Ġconf irm
Ġredu z
zÃ¼ gen
pass te
ĠdÃ¼r fte
ĠAud io
Vol ks
L ink
h av
is lav
ie m
Ġv ib
ĠD M
st het
Ġp Content
ĠG y
ĠH allen
ĠR as
Ġk ommerziel
ĠÃ ©
Ġres ume
ĠSÃ¼d afrika
mÃ¤ cht
ĠCon rad
Ġmon at
Ġmin imal
Ġander erseits
Ġgest artet
Ġverl ang
Ġsuccess fully
ĠDrei ÃŁig
ĠKop enhagen
Ġabgeb rochen
ĠEdin burgh
k ol
Ġv ital
Ã¤ ts
ĠM ilit
ĠD opp
Ġc ake
Ġein ger
ĠF unde
ĠC ell
ĠC hen
ab a
ess a
Ġis rael
op ath
Ġpro posed
for mer
ĠTe uf
ĠPar ks
ĠMo on
ĠPat ent
Ġgl Ã¼ck
Ġaccess ible
Ġpay ing
Ġaff ected
ĠEmp f
Ġpick ed
Ġhor se
national spieler
rupt ion
Ġgez Ã¤hlt
ĠChallen ge
O s
T rans
b aid
m Ã¶glich
u der
ie bel
ĠB apt
ĠB uff
st art
ĠT am
ĠG la
ĠG Ã¶t
ra ut
ĠC ow
ĠSt ationen
all ing
ver Ã¶ffentlich
ver hÃ¤ltnis
Ġle gen
Ġvor ber
ĠSe kretÃ¤r
ĠMar co
Ġbes uchen
ĠMa j
ĠMa de
Ġ7 9
ĠKon text
ĠĠĠĠ Ġ
ĠDr ama
ĠDres dner
ĠGreg or
n isses
Ġa chten
it able
Ġs ud
ĠS itze
ge tragen
Ġh Ã¤ngt
ĠH ed
Ġfor ec
Ġwar um
ĠAn bieter
ĠBe fest
19 48
old t
ron ik
ĠFre ude
Un garn
uc lear
ĠEmp ire
Ġricht igen
UN G
cep ted
Ġpartners hip
ĠWit we
Ġcit izens
L et
L ied
S K
S aison
c us
k inder
k irch
Ã ¯
ĠA uÃŁ
ĠD oc
ĠF ont
ĠK lin
ĠR eit
od ing
Ġ18 20
inn ers
Ġber ichtete
ĠDurch schnitts
ĠHow ard
Ġspan ische
Ã¤rt ner
mosph Ã¤re
Ġspirit ual
Ġdetermin ed
ĠPreuÃŁ ischen
ĠWÃ¤r me
opÃ¤d ie
t rieben
Ġt ight
re ll
ĠB our
ing ers
ĠR un
Ġan cient
ug by
ip er
Ġ18 13
me ier
ĠZeit schriften
Ġ8 9
gesch ichten
ĠSh akespe
ĠMon uments
Ġgra b
Ġfest ival
ĠZug riff
Ġmeisten s
brÃ¼ cken
ĠpersÃ¶n liche
ĠDemokrat ischen
ĠHon or
Ġbewe gt
ĠBam berg
M M
w ass
Ï ĥ
ĠS au
al teten
Ġin frastructure
Ã¼ pf
ĠT ol
ĠT ype
sch rau
um ann
ĠJ immy
Ġan gew
Ġr iver
ak ten
Ġle gt
Ġso ul
19 32
lo yd
los igkeit
Ã¤hr en
Ġbek leide
Ġgel ingt
Ġbo ost
hol en
ĠFranz isk
Ġpass iert
Ġturn s
ĠWissen schafts
Ġarg ument
ĠThr on
ĠSchÃ¤ fer
angeb ot
E v
K reuz
S chn
v org
es er
ĠB ibli
ing o
ĠF reis
ĠF ile
la ut
Ġfor med
th al
Ġab gelÃ¶st
Ã¤r er
ĠSte ine
br unnen
hel ms
Ġass ign
reg ister
ĠKer amik
Rel ig
Ġausgestra hlt
Ã¤p st
C al
P op
T or
c io
f iel
r ations
Ġt om
Ġt oll
Ġw ies
us in
ĠP ersÃ¶nlichkeiten
ĠG P
ĠR af
ĠC urt
Ġk ol
19 10
19 24
old s
ĠSchw Ã¤b
Ġsc ript
hand elt
Ġfre edom
Ã¤tz ung
leit ungen
Ġ185 1
ĠAp othe
ĠBru ce
ĠÃ¼b lichen
Ã¶p fe
Ġletzt lich
Merk male
M er
P rÃ¼
z ucht
or ders
Ġf f
Ġf ell
sch Ã¤d
ĠW esentlichen
ĠR hyth
ĠL atin
ĠN u
Ġer stellen
ck te
Ġme al
Ġvor genommen
ĠSe ch
ĠNe apel
Ġtra v
elb ach
Ġob jects
ellen ce
Ver walt
ĠÃĸ k
ĠGesch lecht
Ġmo le
ĠGener alleutnant
Ġeff iciency
Ġqual ified
ĠSand stein
Ġsett ings
Ġschedule d
tor hÃ¼ter
kriegs zeit
franzÃ¶s isch
O U
b rÃ¤
f amilien
Ġp ed
Ġp reis
ĠF I
ĠK rÃ¤fte
Ġbe wegen
Ġl ayer
Ġe ar
op en
ag u
Ġle ichter
ĠMar athon
fl Ã¼sse
ĠTr ennung
ĠSh ang
Ġfl ash
Ġtechn ique
Ġopt imal
Ġcol umn
ĠLei b
Ġ185 5
ĠDi agn
Bo ot
Ġremov ed
Ġmaxim ale
ĠPow iat
Ġinkl usive
Fo otball
baid sch
J J
m Ã¼nd
z es
ĠS ysteme
ĠB ible
ĠM iet
st es
ĠK Ã¤rn
ra iner
ra ucher
ab schluss
Ġge h
Ġaus geschlossen
ian er
Ġ9 4
eiter ten
Ġlie be
ĠUnivers al
gew Ã¤chse
Ġgel aden
ĠChar ts
Ġfound ed
Ġerfolg ten
196 4
ĠBed Ã¼rf
gef asst
Ġpres ents
Ġarch Ã¤
ĠEU R
Produ ktion
fÃ¶rm ige
ĠPrÃ¼ fung
Ġexhib ition
Ġconstant ly
ĠEind ruck
ĠScot land
Ġath let
G ed
R ennen
b undes
d ro
h ten
n ur
y pen
Ġ ï¿½
ĠB auch
Ġo h
Ġh l
ĠH P
Ġk Ã¼nft
kt on
ĠSch atz
Ġde grees
ĠAl m
ĠJahr buch
ĠAr z
Ġall eine
Ġcon sequ
fr ies
kehr en
ĠVol ume
ĠSal on
ĠVolks republik
Ġ185 2
Ġiss ued
Dies es
Ġbede uten
Ġdivers en
ĠWass ers
Ġtal ent
Ġaccommod ation
Ġattach ed
verteid iger
ĠMuse en
ĠLein wand
ĠÃĦm ter
g f
ĠB ucht
ĠK orn
ĠK ansas
ent ums
ĠI F
ĠC ape
ts te
Ġhe aring
Ġle isten
Ġvor Ã¼ber
Ġgew idmet
lÃ¤ uter
ĠProv inzen
ĠBi ographie
ĠQual ity
Ġprogram me
Reg ion
Ġemploy ment
sprach ige
gere chnet
kr ise
Ġgek ennzeichnet
Ġdraw ing
Europameister schaft
ĠVie h
Ġta ught
idel ines
Ġdoll ars
k andid
s Ã¼d
es ents
ar mee
ĠB lau
ĠD E
ĠP est
ĠP ixel
ĠR ace
ist ol
ĠVer sch
ĠEr nennung
qu ert
19 28
alt itel
min der
Ġdis pla
Ge gen
zahl ung
ĠAuss agen
Ġtyp ical
Ġfact or
Ġfood s
Ġredu ced
Ġattra ctive
ĠFass ade
Ġbedeutend sten
p fe
Ġw inner
ge k
ĠB ry
ĠN ich
Ġre venue
qu ire
ĠAr k
rÃ¤ der
Ġes c
erv ers
Ġnot iced
Ã¤hr ungs
Ġnoch mals
ikan ten
Sch l
Er stellt
Ġra il
ager ung
Ġfound ation
Ġconsider ing
nehm ung
sm ith
ĠGeschle chts
ĠMÃ¤r chen
ĠSchwier igkeiten
Lud wig
F Ã¼gt
f iguren
in cl
Ġd ick
Ġ1 16
ĠD ien
ĠK la
ĠI wan
Ġst abil
ust ic
ok ing
19 11
Ġfe hlen
ĠGra phen
Ġgel ungen
ĠDes igner
ĠPer u
Ġhouse hold
ĠDienst leistungen
ĠEhe mann
Ġenter tain
Ġmom ents
plan ung
Ġlik es
Ġhold s
sthe orie
wach ung
ĠHoll and
Ġimpress ive
ĠAnz eige
O f
Ġa id
Ġt ube
il ation
ĠR out
ĠC ome
ĠJ ury
Ġk ennt
Ġk onstru
Ġk rÃ¤ft
Ã¼r tel
ĠSch enk
op ing
ĠIn se
ant es
19 13
ru der
ĠCh Ã¢
ign y
ĠAus wirkungen
Ġgew Ã¶hn
yn th
ĠCar lo
ĠMal ays
ĠWest falen
ĠRes p
Ġerr ichteten
Ġkon kre
ĠWinter spiele
195 2
col n
ĠIntern ets
Ġumfang reiche
ĠkÃ¤mp fte
Ġverbess ern
: .
S ub
y c
at sch
ge ist
ĠB ody
Ġv i
ĠD ave
ĠF ortun
ĠH altung
ĠW he
ĠSch Ã¼tzen
Ġr id
Ġsch Ã¶nen
nis sen
ystem s
ĠMed icine
ĠAll gemeine
Ġdisc ip
ĠIll ustr
Ġviol ence
R em
m ing
Ġb undes
Ġp un
Ġg rew
ĠC omb
Ã¶ d
Ã¶ he
ĠJ oy
ĠEr hebung
Ġat tended
Ġch airs
ĠEn cyclop
ium ph
Ġcons ists
Ġfest gestellt
ather ine
ĠZe hn
ĠZeich nungen
ĠdÃ¤n ischen
ĠReihen folge
ĠUns ere
an ing
re b
Ġp our
ĠT iefe
ĠF act
ĠU A
Ġauf w
ver leihung
ĠAl ber
19 27
enn zeichen
olog ien
hand lungs
ĠArt illerie
ĠKunst stoff
ĠPubl iz
Ġorgan ized
Ad d
Ġhard ware
190 9
fried hof
Ġhost ing
Ġkrit isiert
Ġassess ment
ĠZerst Ã¶rung
Ġconvers ation
Ġhinzuge fÃ¼gt
Ġeindeut ig
? âĢĿ
k Ã¼nstler
Ġ Ã¤ndern
te le
Ġb order
un ior
ĠD aily
ĠC hl
and ro
Ġl ift
Ġk Ã¶rper
ĠO berg
Ġst ated
ere cht
Ġde cl
Ġso fern
Ġex port
ĠLe v
co le
Ġdis count
Al so
rÃ¤s id
ĠQu est
Ġspe aking
sta ats
ĠFÃ¼hr ungs
war f
nehm ern
Ġhon or
ĠIdent itÃ¤t
ĠÃ¤uÃŁer st
Lin ie
Ġdipl omat
M any
S E
k ommun
y en
te ger
ĠF erner
et ch
ĠSch acht
op ter
Ġaus gestellt
Ã¤t tern
ens ation
ĠNe xt
ĠDeutsch es
ĠTr io
Er n
ĠPhil ip
Ġerreich bar
ĠIns urance
ĠTour isten
196 2
Ġkont inuier
Ġqualifiz iert
ĠKult urg
Ġdoub t
ĠSynag oge
T em
k ommt
m Ã¤nn
p rechen
it iv
at isch
us her
ĠA ur
ĠP ear
ol as
ĠR ight
ĠC ry
ĠJ ess
Ġr is
ĠUn it
ĠJahr gang
ru cken
Ġqu adrat
ĠAd ress
Ġ0 6
ĠZw eiter
Ġverb inden
ĠHo uston
ĠDr ive
ĠÃĦ l
Ġeinge zogen
Ġfac ing
Ġtre ated
Ġless ons
Ġorganis ierte
Ġrepr esents
SS R
ĠMary land
Verkehr s
ĠlÃ¤ng ere
ĠMitarbeit ern
d ale
h au
ĠS Ã£o
ĠA cht
st urm
ĠL j
ĠV ide
ĠJ eder
up t
og ramm
19 49
ph ones
ĠAb wehr
zeit lich
ĠSchw imm
ĠCo oper
ĠAd l
ĠFra ktion
iste te
Ġserv es
Ġgu id
Ã¤mp fung
Ġoper ate
ĠPlan et
Ġbeteil igte
Ġmat ters
bas is
Ġerinn ern
ĠAuseinanders etzung
W eiter
Z wei
Ġs itzen
Ġm Ã¼s
ol ine
Ġc arbon
ĠF res
ĠG lass
ĠW ettbe
ĠW under
ĠC loud
ĠJ etzt
ĠU EFA
ĠVer leger
Ġsp eich
ĠÃ¼ber liefert
19 43
ĠGr as
amer as
ĠOber bÃ¼rgermeister
bo ot
stÃ¤nd ig
ĠTo uch
Ġbed ient
Ġnun mehr
ĠCont act
bet on
Ġjapan ische
Wel come
ĠFÃ¤h igkeiten
D oppel
L uft
R hein
Ã¼ ch
ĠB elle
ig el
ĠR i
ir r
ir ms
Ġge zwungen
âĢĻ ,
lie gende
Ġunter schieden
mit tag
ĠSpiel s
ĠÃľber blick
Ġtro uble
ES T
ĠĠĠĠĠĠĠĠ ĠĠĠĠĠĠĠĠ
Ġverm eiden
Ġcra zy
Ġill ust
Ġqualifiz ierte
ĠInner en
mag azin
Ġperspect ive
B as
L iter
R enn
a ire
p flanz
z ub
ï ¼
in ary
ĠD ig
Ġein ges
ĠL if
ten nis
ff e
ĠAr sen
co in
ĠStadt rat
Ġrec orded
hed rale
Ġgef Ã¶rdert
ament o
ĠMor gan
ĠQual ifikations
195 9
ĠHistor ic
Ġoffen e
Ġemploy ee
Ġwissenschaft licher
ĠnatÃ¼r lichen
Ġfiel en
Ġschwar ze
ĠPed ro
Ġcollabor ation
Ġbrow ser
1 20
R P
U s
V ideo
on isten
Ġm agn
st oÃŁ
ĠP ink
ĠT C
ĠG ordon
ĠK ann
ĠR it
Ġl iquid
sp reis
Ġunter teilt
ĠEn joy
ĠZw eite
ĠTra ck
Ġgel iefert
Ġger inge
ĠFe ier
Le icht
ĠDo uble
anad ier
ĠBel ast
Ġdre imal
Ġ180 8
ĠHeimat stadt
ĠPop ular
ĠRob in
Ġdest ination
Ġcloth ing
Ġinstru ctions
N icht
u ing
ĠM ale
st yp
ĠF itz
ĠN Ã¶rd
ĠSch alt
Ġun less
ok ol
Ġex cess
Ã¤t igkeiten
ĠPl at
Ġlie fern
ock e
Ġpl anned
Ġ12 00
Ġwel chen
ĠChrist i
Ġdr ugs
ĠEm ail
room s
196 3
fel de
Ġresearch ers
Ġverlie f
Ġsor gte
kathol ische
Ġbess ere
G A
M ay
N etz
W asser
u in
or o
Ġw Ã¤hlen
ĠS emin
ĠA gency
ĠK elly
ĠW id
Ġg aben
ĠC e
ik ern
Ġaus drÃ¼ck
ĠVer schw
19 42
19 41
me chan
ĠAb ra
omm y
Ġsow eit
stein en
Ġsk y
ĠMag net
ĠGew inner
Ġkon zip
Ġkommen den
Ġprote cted
Ġzwe ig
ĠJust ice
ĠVal ent
Ġdeb t
ĠSÃ¤ ulen
Ġfrei will
Ġpoln ische
ĠOk res
ĠErschein ung
Ġausreich end
G ymnasium
e ction
g ott
i ja
k W
w elle
Î µ
Ġw et
te e
ĠA ub
Ã¼ sten
Ã¤ le
Ġc ro
ĠL ichten
Ġg un
ir aten
ĠAuf sichts
amm lungen
ĠStra teg
Ġag ents
ograph ischen
Ã¶st liche
Ġpolit ics
ĠFin ancial
Ġchar ges
ĠGed icht
Ġinvest ors
ĠÃ¼bern immt
ĠChem iker
ĠAsp ekte
Ġmill ions
ĠgrÃ¼nd eten
ĠVerbreit ungsgebiet
ĠMultic ast
S al
m outh
Ġf ein
ro b
ro v
om on
ĠI owa
Ġg la
ĠIn haber
ĠRe ferenz
Ġ18 47
Ġex pos
hand els
Ġcomm ission
Ġerw arten
ĠRes ult
Ġinternational er
Ġel ig
ros se
ĠTem p
ĠPra ct
omot ive
ĠStad ium
Ð¾Ð ²
7 00
l ic
ĠS ain
ĠS ide
Ġin ches
ĠM D
ĠM Ã¼ndung
ĠT ieren
ĠE cke
ĠH ass
ĠH unde
ĠC oc
ĠN umber
ĠO range
ĠSch re
Ġver folgt
ĠIn tegrated
Ġwar n
od s
Ġsp ark
ĠBe hinder
Ġch ief
Ġch icken
ĠPl Ã¤nen
Sch utz
ĠEl s
ĠMot oren
Ġter rit
ĠPla yer
Ġbig ger
Ġperform ing
Ġdefin ed
Ġcamp us
ĠPrÃ¼ f
Ġign or
ĠNeuse eland
E ben
c il
n el
| -
on ent
it ative
ein kommen
el ia
il deten
Ġbe herr
ĠN HL
Ġun c
Ġr ene
ĠAn bau
pe te
ĠGra nde
Ġind ire
Ġpre c
ĠInter ess
ĠStre ifen
ĠLin coln
Ġinner en
ĠSied lungen
Ġleg s
ĠSign al
Ġmix ed
ĠErzÃ¤hl ung
Ġsech sten
ĠOffic er
ĠCapt ain
Ġinstitut ions
Ġatmosph ere
i ierten
m lich
ĠS ale
ĠS ara
ge mÃ¤ÃŁ
Ġv ast
ĠH ud
Ġto urn
est het
Ġfor um
ens burg
Ġtrans ition
druck t
qual itÃ¤t
ĠerfÃ¼ llen
ĠBrig ade
Ġprincip les
1 14
D am
i ologie
k lassen
o i
Ġa kadem
Ġin telle
ĠP ho
ĠT aiwan
hr ingen
ĠN AT
ĠJ g
Ġth read
ap olis
mer z
Ġvor be
ĠAuf stand
Ġfe hlt
ork ommen
ĠEl be
Ġcomm and
Ġgu ter
str Ã¶m
ĠAir es
ĠNeu zeit
Ġschn eller
ĠQual itÃ¤ts
Ġsignificant ly
Ġanaly t
/ *
B rit
l ler
t ums
re chnung
ĠD est
de cker
sch les
Ġg ern
ĠC abin
ĠV irt
ul ing
Ġan x
Ġauf merksam
igen en
ĠNe uk
ail able
ĠSchw estern
schie ÃŁen
bach s
ĠMed iziner
Ġhier fÃ¼r
ĠCl ient
ĠDre am
Ġgest alten
Ġstehen den
Ġfile d
Ġbem Ã¼
ĠMach ine
Ġemp fehl
ĠChron ik
Ġfail ure
Ġeigent lichen
Febru ar
I K
W eiÃŁ
l Ã¼ck
w affen
Ġa w
Ġt iss
Ġs oph
ĠS ib
ĠG lÃ¤
ĠW asch
Ġg lo
Ġzu ges
ne uer
Ġr ig
ĠEr gÃ¤nz
qu ote
Ġbest immen
Ġpl Ã¶tz
ĠGra ben
Ġoff ens
eite te
Ġje welry
stit u
ĠFr ame
ipp i
FuÃŁball trainer
Ġplan et
Her r
fÃ¶rm igen
ĠNR W
P ark
T ag
f ranken
Ġ Ã¤nderte
Ġa wards
Ġf urn
Ã¤ ck
os ion
eb el
Ġwar ten
Ġ18 46
rÃ¤ glich
ĠFl Ã¼ss
utt le
Ġsk ill
Ġcolle cted
Ġident ified
Exception Constants
ĠTurn iers
Ġged acht
Ġevangel isch
Ġneigh b
ĠanschlieÃŁ enden
ĠMargar et
Archite ktur
S et
Ġf asc
ĠP ath
et tet
ĠL ub
Ġvon einander
ĠZ one
Ġsch m
our ces
Ġte eth
amen te
ĠTr ip
ĠMed aillen
ĠVers ionen
ĠDurch fÃ¼hrung
ĠRÃ¼ck tritt
ival ent
ĠDu ke
Ġwei ÃŁe
ĠPan el
ĠEt wa
fa ction
ĠgrÃ¶ÃŁten teils
Ġzweit es
bre ite
Ġprakt isch
Ġengag iert
Ġhers elf
ĠAufent halt
L ie
R om
h Ã¤n
m utter
ar us
Ġb ist
ĠF inger
ĠL Ã¼n
Ġr Ã¤um
sp olitik
âĢĻ .
pl ates
ĠMit ch
Ġ4 50
ĠSe ktion
ult an
ĠVor name
ĠFl ach
ĠStud y
ĠGrund schule
Ġausge prÃ¤
wal de
ĠVan couver
Spe ichert
Ġdat iert
irurg ie
Ġbayer ischen
D ivision
E p
F amilien
K ol
h yd
j Ã¤ger
m ung
p flanzen
u ages
Ñ ĩ
Ġd icht
ĠS le
Ġb ags
ĠM ei
ĠG allen
Ã¶ tt
Ġk roat
if est
ess ed
ĠVer y
ĠLe ader
ĠAb tei
ĠBer at
Ġro w
ĠHand y
vor stand
ĠRad rennfahrer
Ġinvest igation
Qu elle
ĠKrit iker
ĠVorsitzen de
Ġwichtig ste
Ġneg ot
ĠChem nitz
ĠLau b
dar steller
Ġult imate
Ġdep th
ĠTenn essee
ĠFRE E
ĠSlow en
ĠUrauf fÃ¼hrung
L iga
T op
h ier
j j
te or
ein richtung
Ġf Ã¼
âĢ ī
ĠH els
ĠL ett
ed ing
ĠN OT
Ġy es
qu ellen
se a
Ġ18 32
Ġex pression
ĠFl ur
Ġwo oden
ĠPr ime
ins ichtlich
ĠMan ufact
ĠMo ore
Ġrest lichen
spr uchs
ĠSen ator
Ġrece iving
195 3
Ã¤m mer
ĠKol onie
Ġbene f
How ever
Ġgraph ics
ĠVort rag
Ġcandid ate
Ġsitu ations
Ġverab schie
I B
al ben
ein satz
Ġp rÃ¼
ĠP oll
ent schieden
ĠH ugh
ĠR uth
ĠC C
ĠV II
Ġth orough
ĠNach kommen
Ġtra fen
ange hÃ¶r
Th ank
Ġph ase
ĠSaison ende
ĠMittel meer
ĠMain e
ush ing
ĠMc K
hor st
Ġexpect ations
Ġdunk el
ĠProgram me
ĠSak r
Absol vent
S aint
b og
m aking
p ed
s Ã¤chsischen
Ġt ells
Ġv illa
Ġg am
ĠN acional
ĠEr ziehung
Ġsp r
Ġsp ann
Ġme at
pr ises
Ġar ray
Ġob lig
Ġass ets
ĠWh ere
ĠOn kel
Ġsign al
ĠSen ats
ĠHin weis
okomot iven
Ġfrequ ently
Sup er
verl ust
G old
k ilometer
ĠI an
ĠH imm
Ġl as
Ġauf zu
Ġver ring
ĠIn gol
ĠBe arbeitung
be fehl
ome ter
ĠGr Ã¶ÃŁen
ĠPr ize
gl as
Ġrec ording
Ġgesch ickt
ĠWer be
ĠPrÃ¤ fektur
Arch Ã¤
Ġbere chnet
Ġstaat liche
ĠEro ber
B enz
I nde
d ichte
l ik
te ch
ĠS ED
Ġv intage
ĠR ue
Ġbe grÃ¼ndet
ĠO F
ok en
ard in
Ġ18 38
erk irche
ĠGr iff
Ġro ugh
ĠSo f
Ġfol ks
ron ics
Ġeff ekt
ĠKol umb
ĠDel hi
ĠPil ot
Ġbott le
ĠÃ¤uÃŁ eren
Ġjem and
ĠPian ist
P M
V e
W appen
an ter
Ġp in
Ġp ill
ra ul
ĠH ip
ĠN at
ers e
ĠZ ut
ĠSp alte
cht es
ĠGemein schafts
let ten
ĠMed aille
hel ess
Ġenjoy ing
hÃ¶ hung
ĠerklÃ¤r en
ĠCap ital
ĠEigent um
Ġdynam ic
ĠAlk ohol
W M
k ter
Ġa warded
ĠT alk
ĠF Ã¤r
ĠW icht
ĠO K
ag d
ĠVor schlag
ime tern
ĠPl attform
ĠStud ents
Ġacc omp
Ġac cepted
Ġser b
195 6
190 8
Ġfact ory
ĠFlor a
Ġverm utet
ĠGlas gow
ĠNachbar gemeinden
ĠDub lin
Ġerle bte
fÃ¤ll ig
Ġhil ft
D B
M as
U B
g ies
k ore
ĠM ack
ĠM rs
Ġc orn
ĠT um
ĠT ap
la in
Ġde part
aus o
auf lage
ĠLand rat
ĠSte wart
ĠZw ar
ĠBundes straÃŁe
other apie
Ġrem aining
Ġcr ash
ĠSÃ¼ ÃŁ
Ġauth ors
gesetz es
Ġklass ische
ĠInf os
Bi ografie
Ġtas ks
B ack
E ins
Ġt ap
ĠA kte
ĠB rat
ĠP uerto
em er
ĠSt Ã¼r
Ġst im
ĠSch los
ĠVer m
ĠEr ik
In halt
Ġ9 7
ĠFriedrich s
aser ne
Ġsicher te
ĠKing dom
ĠAust rag
Ġtransport ation
ĠTob ias
m ord
w il
w ahr
Ġ {
Ã¤ g
il o
ĠP aper
âĢ ¯
Ġc erem
ĠG ift
ĠH ahn
ĠC av
Ġre ader
Ġre produ
Ġfor ced
ĠSch u
ĠSch uss
ĠIn cl
19 00
Ġcon cepts
ĠBet racht
Ġzusammen gefasst
ĠIs a
Ġbesch rieb
Ġdire kte
ĠBas il
Ġgest altete
Ġmember ship
Ġspecial ist
ĠVorsitzen den
ĠSat tel
stÃ¤d ter
ĠjÃ¼nger en
organis ationen
M al
S pr
S eite
k ons
Ġw Ã¤ren
Ġc ategories
ĠW Ã¶r
ber gen
ĠV illage
ĠSp ain
ĠGe fÃ¼hl
per rt
Ġad opt
ĠVor stellungen
pro fil
Ġdis app
ron om
Ġ0 2
Un s
ĠFe ucht
ograf ische
Ġgl ad
Ġhistor iques
ĠErn est
zy linder
ĠBrit ain
Ġsw imming
ĠMinister ium
kn Ã¼p
ĠBÃ¶ h
gehen de
gehen den
ĠSpr ings
Mod el
Ġstrateg ic
Tra iner
Ġinj uries
ĠBundest ags
Ġcrow d
ĠSchÃ¼l ern
Ġreput ation
1 13
f uÃŁ
t ur
ar is
Ġf ishing
ĠF DP
ĠC art
and in
ir med
ul us
Ã¼r den
Ġge he
ĠVer leihung
ĠBe fore
Ġent stamm
erk raft
Ġbes tellt
amm ed
ĠSo ul
ĠFre unden
ĠTra il
Ġ% )
Ġerr ang
ĠauÃŁer ord
ĠJugend lichen
Ġprote in
ĠAnn ual
Ġsuper ior
Ġcabin ets
ĠSaf ety
Ġb odies
ig r
ol in
ĠT ry
ĠE ier
ĠL isa
if l
Ġch apter
Ġcon ver
ĠFr ies
ĠPubl ikationen
Ġcr ime
190 4
ĠZust Ã¤nd
ĠKÃ¶nigs berg
Ġmem ories
ĠPrinz essin
Ġgepl anten
Ġerz ielt
Ġbul gar
ĠAdmin istrat
Ġmittelalter lichen
ĠFrances co
V ier
k ommission
w enn
y k
z unehmen
Ġs org
Ġs uff
or ter
Ġb io
Ġf emin
ĠP le
ĠP ader
ĠF itness
ĠI ce
ĠH IV
Ã¶ hm
ĠAl abama
ho e
enn ame
St art
Ġspe zif
Ġadv oc
Ġ185 3
195 8
ĠSyn th
Ġdeb ut
Gemeinde auflÃ¶sung
ĠMarc us
ĠTy pen
Ġumfang reich
Ġimag ine
ĠRett ungs
Sonst iges
Dav id
Ġgefe iert
I X
Ġ à¤
Ġa ben
ĠD ess
ĠD amp
ĠT akt
sch reiben
ĠL uf
ic ted
ĠC arr
Ġre cover
id in
19 47
ĠTe ch
ĠY e
Ġad j
rat ive
Ġges ichert
mp ath
Ã¤d te
ĠAut omat
ĠIs lands
Ġbl end
mittel alter
ĠEm ploy
olv ed
ĠFil ter
ĠGesamt wertung
alys is
Ġinform iert
Ã¸ r
Ġcook ies
Ġeingel aden
Parameter ID
ĠForts etzung
ĠHT ML
B u
O t
Ġw Ã¤hlte
ĠS ten
at ible
ĠF antasy
ĠK und
em en
ĠH Ã¤usern
ĠL Ã©
iv itÃ¤t
ĠVer arbeitung
Ġ18 44
iz ieren
ĠAb satz
ĠMa ÃŁe
ĠBra z
ĠKont akte
wor ld
Ġwest liche
195 4
ĠCle ar
Ġprepar ation
ĠHan au
ĠNap oleon
ĠÃ¶ k
ĠFlÃ¼cht linge
MÃ¶ gliche
A K
at iver
ĠB ush
st Ã¤rke
ĠL ith
um me
ers teller
Ġle ts
Ġex ception
ens atz
je ction
je cted
teil ten
pro fit
ĠJohn ny
Ġorder ed
Ġcap abilities
Ġchallen ging
ĠBlÃ¼ te
friend ly
Ġphotograph s
ĠWiederauf bau
K Ã¼nstler
P ost
s or
ĠP ool
ĠT R
ĠH ung
ĠL iver
ĠN ations
Ġal cohol
ei ra
ĠSch ult
ver g
Ġr ies
Ġ18 16
Ġ18 35
Ġex ternal
ĠEin kommen
be hÃ¶rden
Ġwas h
ĠAus bruch
ock el
Ġfin ance
sk Ã½
bau werk
ĠNor bert
ĠMen gen
Ġfl ower
Ġbesch rÃ¤nkt
ĠChar lie
Ġcho osing
Ġfac ilit
190 3
190 7
ĠHistor ischen
ĠBischof s
ĠOper a
Ġmer ch
ĠDat abase
Ġbege g
Ġunterr ichtete
abul ous
K n
K ur
P osition
ĠB owl
ĠP eking
ĠE uch
ber ater
ĠN obel
lich ten
ang riff
ran ty
Ġab gelehnt
ĠAl ois
Ġunter stellt
tz t
Ġnew sp
sh aber
ĠÃľber setzer
li ament
Ġsl ot
En gl
ĠHel den
Ġvoll er
Ġaufge hoben
196 1
ĠErn Ã¤hrung
Ġident isch
ĠCent ury
Ġwid ely
Ġtw ice
ĠSecret ary
ĠEinzugs gebiet
Ġdenkmal geschÃ¼tz
ĠBuen os
E isen
G S
P N
R eihe
T urn
W ar
g ate
k rie
er ed
ĠB B
Ã¤ ischer
Ġl Ã¤nd
ĠSt aub
ik ts
Ġr asch
Ġwe ak
rÃ¤ ts
Ġqu otes
Ġlie gende
ĠPar ad
Ġrec ipes
ĠPol ize
gra b
ĠMag d
Ġpos itions
IN E
ĠKriegs gefangen
Ġgenau e
stehen den
Ġhy per
ĠRal ph
ĠDreiÃŁig jÃ¤hrigen
L AN
Ã¼ se
st an
Ġn utzte
ĠK ie
ĠW Ã¼n
ĠL loyd
Ġg gf
Ġl yr
ĠJ ohan
Ġge arbeitet
Ġst il
Ġver passte
ran ten
Ġdar stellen
ĠAd vis
ĠMan h
ĠGer d
ĠVol ker
ĠUr kunde
ĠOst preuÃŁen
ĠJe wish
ender s
Ġpriv at
ĠDon ner
Ġorgan ic
Fl uss
Med iziner
Ġconcern ed
Ġearn ed
wÃ¤rt igen
ĠGebÃ¤ uden
ĠGlauben s
ĠBeaut iful
ĠBÃ¼nd nis
G E
T ION
f are
i ak
on c
Ġt ub
Ġf Ã¶rdern
ĠB ug
ĠM ine
ĠD iction
Ġn Ã¤chst
ol ith
ĠF lex
ĠG ul
ĠC ad
ber atung
ĠSch ienen
ungs ort
be griff
uld a
rat ch
ĠVor runde
ĠVor bereitung
Ġ9 1
ĠEx il
ĠEx ception
Ġprov en
ĠAut os
ĠĊĊ ĠĊĠĊ
ĠWei h
ey er
ender t
jÃ¤hr ig
van ced
Ġreturn s
Ġgepl ante
ĠInde pendent
Ġarchite ct
Ġmonitor ing
Ġschwier ig
ĠWitten berg
ĠStach ys
A ir
U hr
W o
g les
g alerie
h all
Ġt um
ar ien
re am
ĠE ichen
sch lossen
Ġbe arbeitet
ĠV Ã¶l
la te
sp rechen
ler in
ĠAus richtung
rif fe
ash i
Ġknow ing
ĠHaupt ort
ĠBet riebe
halt ungs
ĠHistor ische
Ġkomp lette
Ð° ÑĢ
lÃ¤uf erin
ĠJournal isten
ĠTur k
Ġverkauf en
Ġyoung er
Ġrelativ ely
ĠBol iv
Ġlok ale
Histor ische
gun sten
H R
R ober
Ġf usion
ĠB att
ĠT Ã¤ter
ĠF ul
ĠF ollow
ĠK ate
ĠH ob
ann els
ĠÃ¼ber zeugen
ens lalom
ac a
oc aust
ĠBer ichte
ĠUnter k
sk op
ĠGra ham
ĠPh arm
schl Ã¼sse
Ġdel ay
ĠBre ak
ĠAnt ike
ĠRed akteur
Ġcr im
Ġlet ters
ĠTro cken
ĠzusÃ¤tz lichen
Ġversch oben
komp lex
ĠWach stum
Verb reitung
ĠAx el
A BC
D uring
re lated
Ġb ab
Ġf if
ĠA V
Ġn utzt
ĠG R
am ic
ĠK ot
ĠH K
ĠH ut
ier ra
ver w
id al
Ġsich ern
sp ring
qu in
ok o
Ġ18 14
19 17
att oo
St ate
gl Ã¼ck
ĠKon stanz
Ġinter active
Ġtr ib
ĠRo te
ĠReich en
uten ant
ĠDr am
alle tt
ĠOst tim
welt meisterschaften
Ġfac ts
ĠAuss tellungs
Ġmeet ings
ĠAp ostol
Ġfour th
Ġsil ber
gram me
Mod ell
Ġrelig ious
rÃ¤nk ischen
ĠSchles ien
Ġmechan ism
ĠDro gen
uum l
Ġnar row
ĠJed och
Ġextre me
ĠVerstÃ¤nd nis
Ġt ab
Ġm ature
ro de
ro se
ĠP ension
im i
ĠI ss
Ġan gen
iss ions
ou v
ren cy
pro of
iff s
ps ych
Ġcons erv
Ġbl ow
Or igin
schlieÃŁ en
Ar ten
reib ungen
klÃ¤r t
ĠFach werk
ĠErz bist
Ġenter ed
ĠHall owe
ĠWand el
Ġlisten ing
Ġfinanziel le
ĠSaal feld
ĠErl angen
S ec
Ġs ed
ar ben
re kord
ig nete
Ġc er
ĠF okus
ir i
if ies
ell and
Ġ18 10
Ġ18 41
ia de
uss ia
amm ad
Ġro les
haus e
Ġges agt
ser ien
ĠJan eiro
ĠMed ik
Ġinst ance
Ġpolit ischer
ros sen
Ġland es
190 6
ask etball
Welt cup
Ġmiss ed
ĠQue ens
Ġspezial isiert
ĠgefÃ¤r bt
f indung
h lich
Ġd iam
re de
ĠT ower
ĠH au
ic ultural
Ġe ast
ĠIn spir
Ġaus gerichtet
ĠRe paratur
ĠBe wertung
ack e
pt y
los ure
Ġ16 00
iker in
Re gie
ĠSc ient
gra ph
ĠLebens raum
ĠSeit dem
ĠStaats anwalt
Ġcal endar
Ġclos er
Ġtradition elle
aller ie
Ġfunction al
Ġhor izont
ĠNationalsozial isten
ĠLi bert
ĠHoff nung
Ġjud ge
Kurz film
ĠWeimar er
Ġehren amt
c ular
n ommen
t yp
z uge
Â §
Ġs aÃŁ
Ġf Ã¤hrt
ĠB j
ol stadt
ĠG ibt
ĠI ra
ĠR auch
Ġg ross
ĠV III
Ġan al
Ġre iste
ĠZ ellen
ag ram
Ġsp l
ĠAl aska
ĠNe ut
ĠAb stamm
ĠIm plement
olog ist
Ġfind s
Ġele v
195 7
Ġturn ing
Ġfocus es
ĠnatÃ¼r liche
Ġempf angen
Ent wicklung
ĠExper ten
dr ama
ĠFranzÃ¶s isch
ĠBeweg ungs
H en
I mp
f und
n acht
Ġd ent
Ġf ur
Ġo lymp
ig ger
ĠT O
ĠI tem
ĠR unden
ĠO cean
Ġzu gunsten
Ġde fault
Ã¤t te
Ġch ose
Ġsh ift
ĠNach lass
ath ers
ĠBand e
akt ions
190 1
flug zeug
Ġfal sch
ĠGesetz es
Ġdescrib e
Val ue
ĠBerk eley
S ign
l ong
t urm
Ġw ander
Ġm orgen
ĠB C
ĠB ent
Ġv end
ro hr
Ġc am
Ġc lock
ĠF u
ĠL oth
ĠC ock
ĠN C
ĠN ature
Ġfor est
ohn t
ele ct
Ġte x
Ġte ch
fin det
ĠCo le
ĠBo ys
Ġsup posed
Ġsm ile
âĢ¦ .
mat ik
Ġsub stant
Ġpost ing
esent liche
ĠHa ag
Ġern st
Ġident ity
Unter nehmer
Ġneg ativ
ĠOpt im
Eis hockey
Ġbedroom s
inde x
ĠUrs ache
Ġerf Ã¤hrt
Ġtal ks
Ġweib liche
A V
k am
he ast
Ġm a
Ġm att
Ġm obil
ĠB anken
ĠM az
et o
ĠW u
ĠC atholic
ir kt
Ġan alog
iv o
os c
ĠSch al
qu artier
Ġwe ap
ake te
ren e
pf arr
ĠAnt arkt
ĠZe ug
Ġcr isis
ĠRel ief
Ġcreat es
Ã¼rz te
Ġzie mlich
lah oma
stad ion
Ġcompon ent
ĠBulgar ien
ĠDall as
Ġmur der
ĠKroat ien
ĠWuppert al
d lich
h ost
n Ã¼tz
t age
ĠP aw
ĠH Ã¤nde
ĠW Ã¤hler
ĠN oten
ab ol
Ġun e
ĠAn pass
ib us
ĠÃ¼ber all
ord nen
ele ge
olog in
ink i
ĠKon ferenz
Ġsup plement
fess ion
ĠHand lungs
ĠFest schrift
ĠMitte le
leben s
Ġmet all
laub nis
ĠSchm id
irm ingham
Ġoft mals
gre ifen
ĠZust immung
iro ler
ĠViel falt
Ġcompar e
fÃ¤l ischen
ĠJob s
Techn ik
ĠMÃ¶n chen
Ġportugies ischen
Ġbesonder er
ĠHild esheim
Ġbon us
1 15
D et
b rechen
f isch
m ol
s y
ch el
Ġd rag
ĠS id
Ġb ron
Ġc odes
ĠK ings
Ġauf einander
ĠSch r
ĠAn satz
ov Ã¡
ĠTe ich
Ġbes ter
ĠSchw ed
ĠDies el
ĠAnd er
Ġgr ass
Ġgel eitet
Ġvis ited
ĠSk la
ĠMeister titel
bet riebe
umb oldt
Ġant iken
Ġclos ely
ube hÃ¶r
ĠTre ff
Ġconne ctions
ĠLÃ¼ den
ĠSold at
Ġregion alen
ĠRepubl ic
Ġfig ures
Ġmusikal ischen
Ġnorweg ischen
beam ter
kurr enten
ĠSchicks al
F ind
F iction
Ġd ental
es c
es telle
te gie
ĠF ig
ĠF ashion
ĠK ids
ĠH appy
ĠL ac
ĠV ik
ĠSt ro
ĠO skar
os se
Ġre ichte
19 15
ast ral
Ġpr icing
Ġout put
ors itzen
Ġste igt
Ġind ones
Ġvers orgt
fra uen
Ġstar ben
Ã¤us ch
Ġdre ams
ĠAg ent
195 5
190 5
Ġconf ident
Med aille
ĠLaur ent
Ġmil k
ĠCru z
Ġincor por
ĠVul kan
ĠPersÃ¶n lichkeit
o be
Ġ Ø
er al
ĠS ix
ĠB ott
ĠD ress
Ġh ang
ĠK amm
et wa
if ter
all o
ess ischen
ob ahn
pl Ã¤tzen
ĠAb hÃ¤ng
Ġman aging
ĠBer Ã¼cksicht
Ġev olution
isten ce
ĠEx port
ĠZu vor
oph on
Ġequ al
ĠGen f
ĠVe ktor
Land es
Ġbedeut enden
Ġdiv ision
Ġindustr ies
ĠGene hm
Ġresist ance
ĠErwachsen en
Ġce iling
B lack
Y es
k ong
ĉ ĉ
ch witz
Ġm ath
ĠD ritt
ĠG T
ĠK au
ĠK ilometern
ra ben
ĠL ess
Ġan gewand
Ġ18 45
ĠTh rough
ĠSe attle
ĠIm pro
ĠWe iss
Ġtra cks
ĠPh Ã¤n
Ġsho ck
Ġsho oting
ĠfranzÃ¶s isch
Ġbef Ã¼r
Ġbed ro
ĠGew Ã¤sser
ĠNeben fluss
195 1
Ġbew aff
Bau denkmal
Ġzurueck gegeben
ĠSchwar zw
ĠMatt hew
ti rol
jew itsch
Ham burg
Ġerkenn bar
Leicht athlet
! "
1 16
B ot
M ap
l inger
p it
ĠS audi
ĠA telier
Ã¼ tt
Ġp hr
Ġp iano
ut a
ĠR ied
ic ulture
Ġge heim
ts piel
we alth
Ġcon vert
ald o
iner y
por ters
ĠKomp lex
Ġeng agement
Ġzahl en
ĠBesch luss
ĠSw iss
ĠLy on
Ġmusikal ische
ĠEas y
ĠVerdienst ordens
Ġille gal
F k
s em
v ik
Î ·
ĠS ob
re ts
Ġin stitution
ge gangen
ĠK rÃ¼
ĠL ay
Ġer fasst
Ġe ase
ik ers
ĠVer f
ĠRe eder
Ġwe alth
Ġdurch setzen
Ġen ables
iss ippi
ĠTr ink
ins eln
ĠKinder garten
Ġend s
schutz gebiet
ĠPat ient
ĠZusammen schluss
ĠPort land
ĠSol utions
ĠFrankreich s
Ġ180 7
ĠKom Ã¶die
ĠEmp fehl
Ġhei ÃŁen
ĠFreund schaft
ĠFinanz ierung
maler ei
mÃ¶ gens
gerichts hof
Juni oren
ĠAssist ant
ĠGesell schafts
Ġguid ance
f onds
Ġ essen
Ġt iny
ĠD IN
st ahl
ĠE rot
Ġg al
Ġl ucky
Ġfor g
ver d
ĠAb lauf
ĠVor gang
Ġmy th
ĠGrund riss
rol ler
ĠEd itor
Ġspe ech
ĠWor ten
Ġstar tet
Ã¤m me
Ġcra ck
Des cription
Ġcapt ure
ĠSamm lungen
ĠdÃ¤n ischer
ĠgefÃ¤hr det
Ġimplement ation
Ġbrow se
Ġrechte ck
archite ktur
! âĢĿ
A rab
P ierre
T ags
y ter
nd ung
Ġw asser
ĠS ony
Ġin k
Ġf lie
ĠF ett
ĠF Ã¤lle
ĠL aser
Ġl ust
ĠSt Ã¤rke
Ġge ar
Ġaus einander
ĠEr finder
ĠSe ver
ĠAuf klÃ¤rung
ĠPl atte
Ġbet Ã¤t
Th anks
An y
schl Ã¼ssel
fÃ¤ llt
herr n
Ġleben s
fred akteur
Ðµ Ð½
ĠGast geber
Ġmass age
Ġtw enty
umin um
Ġverhinder t
sthe ater
ĠDist anz
miss ions
ĠAngehÃ¶r igen
Ġille g
Ġcir ca
Ġstattf and
W olf
i Äį
or er
ĠS uz
us a
ge halten
ĠF iction
ĠH i
ĠVer teilung
au e
Ġsch olar
Ġsie d
be zirks
ĠÃ ģ
Ġco unsel
Ġgew orfen
Ġ7 50
ieren der
fin anz
ish es
Ã¤ch ter
ĠSo ft
ĠFra cht
Ġvers ions
Ġac id
Ġdire cted
ĠPat rim
ĠOlymp iasieger
ĠOs lo
Ġdefin ition
Ġtravel ing
Ġdiscuss ed
ĠLaw rence
Ġspeziel len
ĠSter nen
ĠExper iment
wander ung
Ġfunktion iert
ĠWalk er
ĠHawa ii
B este
b urn
l atz
p ts
p Ã¤dagoge
u eller
Ġd ienten
Ġan gest
ot ter
Ġunter nahm
ob le
ges ted
ĠMe g
Ġnew ly
ator in
Ġdec ade
hol ung
ĠMittel feld
ux e
gele gte
Ã¶m m
mus ter
ĠKÃ¼ chen
Ġerziel en
Ġannoun ce
ĠRen ov
hers tellung
Ġasp ect
ÅĦ ski
ĠnÃ¶t ig
Ġumfass ende
ĠHallowe en
s inn
Ä Ĺ
Ġt all
ĠS ap
ur ist
us er
ĠT ak
ĠT oren
ĠF aktoren
ĠL etter
ĠC B
ĠV ic
ĠVer folgung
ĠIm mer
iger te
ĠBl as
ĠSh are
ĠHaupt bahnhof
icher ten
ĠMat rix
ĠOlymp ic
Ġatt orney
lei hen
ĠEv olution
ĠHa ber
ĠBeg leit
ĠMont ag
ĠAmt es
Ġconc ert
ĠPrem ium
ĠHal te
ĠGef Ã¤hr
ĠRen Ã©
Ġverste ht
abil itÃ¤t
Ġhum or
ĠJon athan
ĠNahr ung
ĠWurz eln
Ġverstorben en
Ġestim ated
ĠFreist il
Ġkorre kt
ĠDiÃ¶z ese
Ġbrill iant
Lou is
H D
S tein
k arriere
Ù Ħ
al p
ĠM ahl
ĠD ass
ĠE k
Ġl uck
Ġer baute
Ġver me
ĠEr sch
ĠUnter richts
alen ted
ĠMed ium
ĠVers uche
ĠAt las
Ġentsp ringt
Ġlist ings
Ob wohl
Ġentire ly
Ġcy cle
Ġcat alog
Ġsubmit ted
E F
Z usammen
h Ã¤ngen
ĠS einen
Ġb lau
ĠB ien
ĠG uten
ut ung
ĠL is
ĠC ir
ĠN an
Ġk ill
Ġst ring
Ġun bedingt
Ġor din
Ġme als
ober flÃ¤che
Ġoff ices
ĠAd ams
lÃ¤ chen
Ġreg ions
Ġhin weg
Ġsol ve
eid ung
Ġausge de
Ġschw ei
ĠChe v
ĠBest immung
Ġavail ability
wissenschaft lichen
ĠKind es
ĠBu y
ĠJahrzehn te
ĠKanz el
Ġbrach ten
Ġexcept ional
Ġverg essen
ĠPseud onym
ĠVinc ent
% .
T F
r isch
È Ľ
is pr
ĠS iz
Ġc otton
ĠF ive
ĠG itarre
Ġ2 20
Ġbe ziehen
Ġer gab
Ġzu verlÃ¤ss
rom an
Ġgesch Ã¼tz
ĠPe er
bo ards
bild ner
So zial
Ġenter prise
ĠFluss es
ĠTim or
Ġinform ed
Ġexpla ined
ĠTemperatur en
Rep rÃ¤sentanten
ĠTrieb wagen
ĠBroad way
Kan al
Listen er
ĠFertig stellung
E vent
S to
m ain
Ġt elling
Ġs Ã¤chsischen
he iz
Ġb read
ge zogen
ĠD ad
ĠT ed
im ore
ĠK ast
ĠL il
ĠL LC
ĠC ulture
est adt
Ġge kauft
ver anstaltungen
ith er
ĠVer k
ib an
Ġen ger
18 99
fe ktion
wer ber
Ġcont rast
ĠOber flÃ¤chen
ĠGesch enk
Ġviel fach
ĠUr sprÃ¼nglich
ĠfrÃ¼ he
ĠOrts teile
ĠStand ards
fest ival
Ġangeb lich
ĠWahr scheinlichkeit
ĠEst ate
mot oren
Ġrefer red
sper re
ĠStan ley
Ġbeob achten
Ġhop ing
Ġabgel eitet
Ġwire less
ĠCott bus
ĠInnov ation
Ġbesetz ten
ĠkÃ¼nd igte
ĠAngelegen heiten
A tt
B ur
T schech
b eben
m Ã¤r
u tel
Ġw itness
ĠS D
ĠD R
ĠF avor
ĠK alender
ĠH end
ĠR um
ĠJ ason
Ġge g
sp rachen
Ġab gegeben
Ġle istungs
ov ed
ĠAb u
ĠLand e
Ġar ms
ĠVor arl
Ġange kÃ¼nd
Ġcre w
Ġbr ush
ĠKe ep
Ġcap able
Ġcommon ly
Ġpain ted
ĠAud i
grÃ¶ÃŁ te
ĠTok yo
ĠkÃ¼nstler ische
Ġweib lichen
Ġkulture llen
Ġvolunte ers
ĠBegeg nung
M ass
N ote
S etz
k ular
s ysteme
y an
Ġs amt
ĠA ktionen
Ġv olle
ĠK ommiss
ĠR ights
ĠL iss
Ġg ast
Ġk ar
ag entur
ĠVer anstalt
Ġ18 37
be teil
enn amen
Ġbes iedelt
Ġpr ide
vel and
Th omas
zent ren
Ġreal isiert
ĠAnt ar
bed ing
ĠErw in
ĠJur a
usst sein
ĠRead ing
spro zess
EMail Adresse
bÃ¼t tel
check EMailAdresse
R ich
V ID
g ro
ĠB ann
ĠB omb
Ġp asst
ĠF unktions
ĠH im
Ġth in
ĠU ll
Ġyo ga
ĠZ en
sp rech
Ġab zu
Ġle hnte
ĠBe eth
ov iÄĩ
Ã¤t t
chn ungs
zeich ner
omp son
ĠGes ichts
Ġem b
Ġ0 3
Ġeinz us
ĠWer ks
ĠRechts wissenschaften
Ġerhalten en
ĠSol id
ĠRuss ischen
ĠMont real
ĠErw art
Ġless on
Ġleben den
On ce
ĠSant iago
omet rie
ÑĢ Ð°
Ġevangel ischer
ĠUs ing
ĠIll ust
Ġregul ations
Ġschwed ische
ĠAtlant ic
Ġstyl ish
C an
T al
ie bt
Ġt ested
at om
Ġb ars
ĠM C
Ġp atch
ĠSch ieds
Ġle ichte
Ġman agers
Ġgen auso
St unden
ĠSpiel zeiten
ĠAt mosphÃ¤re
ĠMot to
Ġweek ly
Ġtreat ments
gesetz te
Hand ball
Ġcompar ison
ĠAbs ol
ĠAR D
Ġobtain ed
ĠBundest ag
Ġcrim inal
Fk EMail
B ern
K al
W hether
c at
Ġd ual
is st
is men
re volution
Ġb ond
ĠB ock
ĠD uch
Ġp od
ĠG is
ĠG ol
ĠH ack
ĠW elle
ĠC rist
ĠV in
Ã¼r ft
ĠSt u
ĠSt Ã¼tz
Ġauf nehmen
ver teilung
ĠIn halts
Ġab use
Ġab gebaut
ac on
Ġseiner zeit
ĠHand eln
Deutsch es
ĠSup reme
rÃ¤n gt
ĠForsch er
Ġsetz ten
fo und
ĠGeh irn
Ġenth ielt
ĠFranzÃ¶s ischen
ĠDrit ter
Ġauthent ic
D ynastie
Ġ á
in strument
Ġin put
le hr
ĠB utter
ĠM uh
st atus
ĠT otal
ra hmen
ĠI M
ĠH ain
ot os
ĠSch aum
Ġun ex
sp ec
ĠMit tw
ĠNe v
auf tritt
Ġprodu cing
Aus gabe
ĠRom a
Ã¤uf e
ĠIns zen
lÃ¤nd isch
Ġpay ments
ĠFernseh film
ĠZwe cke
ĠDiv is
sc rib
kap ital
ĠHart mann
Ġzuf rieden
ĠMov ie
ĠRail way
Ġdurchschnitt liche
9 00
L ear
T est
b ilden
Ġ q
en ix
Ġw ra
Ġb ass
ein trag
ĠB itter
ĠM is
ĠD j
ĠT hal
ĠH C
ir s
ot ische
Ġst opped
ĠZ ag
ub auen
ian ische
ĠGe orges
auf ent
Ġar men
ĠHer zen
Ġqu ote
St r
ĠEl ite
ĠAut on
Ġdr am
schn itten
ĠDurch schnitt
ĠGegen stand
Wh y
kn oten
que z
gien e
ĠMount ains
kor de
Ġachie ved
ĠJos h
Ġdauer te
ĠAN D
Ġlauf enden
Ġjo ining
H O
n ische
ĠS ich
ĠS ad
ĠK it
ĠC amer
Ġbe achten
ĠN elson
os es
Ġfor th
ĠZ it
ĠZ ert
Ġzu gewiesen
Ġr ichtet
Ġsp lit
ĠTh ose
Ġwor st
Ġ10 5
ĠMo or
Ġletz tes
Ġeinz eln
Ã¤nder ung
ĠDo es
Ġeng age
ĠSchrif ts
ĠFlug zeuge
Ġprom ise
ĠRober ts
ĠSozial demokrat
ĠMos k
Ġconf irmed
ĠTal ent
maler weise
Ġhappen ing
Ã¤cht nis
Ġwand te
Sa ale
Hein z
ĠBeaut y
bay ern
Ġenco unter
ynd rom
Ġverbesser te
M Ã¤nner
S ingle
W ahl
f angen
Ġm Ã¼sse
Ġein heim
ĠI X
Ġbe an
Ã¶ hne
ik ten
Ġauf s
av ier
tell te
Ġher o
Ġhand ling
ĠKunst denkmÃ¤ler
Ã¼l le
ĠYork er
ĠPaul o
ĠHar z
ĠTem ple
ĠDen ken
ĠSchloss es
Ġunterschied licher
Ġauthor ity
ĠAth leten
Arch iv
Ġsle e
Ġhighl ight
Ġnorm ally
Sta ats
R itter
h Ã¤ngt
Ġt rugen
Ġb ranch
ĠN BA
Ġl uther
eb t
Ġr ating
ĠEr stellung
Ġj ene
ste her
Ġ18 12
rÃ¤ uch
Ġman chen
18 97
man ager
Ġjust ice
Ġevery where
ĠVers orgungs
ĠMittel alters
plic ated
Ġann iversary
Ġerne uert
Ġcover ing
Ġpres erv
Ġsuggest ions
ĠEins Ã¤tzen
Ġcharge d
Ġlay out
Ser ver
ĠVoraus setzungen
Ġsustain able
ĠInterpret ation
F ield
r und
Î »
ĠS R
Ġp ussy
om ing
ĠH air
ĠR ow
ber gt
ĠV ision
ĠIn spe
ĠVer pflicht
Ġent deckte
fer enzen
ite es
ĠCh at
ac ted
Ġen ge
ign et
ĠFl ash
Ġho le
ĠStud iums
bes te
ĠProdu cts
ĠPart ie
ĠBrit en
ĠKommun ikations
Ġbisher ige
ĠKrit erien
Mod us
Ġbetre ff
Ġplatform s
Bild ung
Ġregistr iert
penden ce
ĠVf L
AuÃŁer dem
ĠDak ota
ĠAbra ham
ĠPader born
R ichtung
V is
b eln
c ra
h Ã¶ch
Ð ±
en ke
ĠS ay
Ġb anks
ĠA mal
ĠB aut
il ang
Ġc um
ĠG B
sch i
Ġon going
ag ues
aus stellungen
Ġ18 25
ue z
ĠVor les
inn t
ĠAnd y
ĠNor m
ĠNational versammlung
ĠAll gÃ¤
ĠMann es
Ġteil te
Ġrel ative
Ġfre ier
Ġlin ke
mark e
Ġimpro ving
ĠhÃ¤uf iger
ĠIl men
Ġlink er
ĠPsych o
Ġarr ive
Ġprim arily
Ġren omm
ĠMas ters
BevÃ¶lker ung
Ġincred ibly
Hein rich
ĠNeck ar
ĠCommon wealth
ĠLiver pool
V C
b ow
m isch
m aster
Ì Ī
Ġf erner
le ans
am ann
ĠE id
ent z
Ġto ile
ĠSt ief
ste tten
Ġ18 36
Ġ18 42
ord ination
ĠSe ason
18 93
ĠMar mor
Ġins zen
gew orfen
ĠVerein ten
Ġmo ist
stÃ¤nd ige
ĠHaus halt
Ġperson s
ĠWer ft
Ġhistor ique
ĠRuss ell
Ġport folio
Ã¤ss ern
Ġstre ets
ĠDokument arfilm
ĠEvangel ische
ĠInvest ment
ĠEntscheid ungen
Ġangegeben e
Bundes liga
ruit ment
spart ner
ĠInse kten
ĠNAT O
ĠBerÃ¼cksicht igung
H ey
N orth
T O
d ays
g irl
h ill
Ġa er
es tet
Ġh rsg
ra ÃŁe
em m
ĠH ag
ĠH eld
ĠV ice
ĠSt imm
ad ron
Ġy ard
kt ive
ĠIn fl
ĠAl p
Ġen han
Ġlie ben
entlich er
Ġem otion
Ġbek annter
Al ben
Ġmin ing
ĠNieder lagen
Ġcommun ications
ĠFlug platz
ĠThere fore
ĠDec or
hab t
Cl ub
Gra f
Ġnied rig
Ġbeauftra gt
Ġsud den
ĠShakespe are
? "
B oden
k Ã¼
l ob
v ie
Ġd ialog
ĠP itts
Ġh ydro
Ġh insichtlich
im il
ĠH amp
ĠR F
ĠC rit
ĠN utzen
ĠV at
ĠJ h
ad os
ct ual
op fer
ĠEr forschung
Ġ18 43
amp a
Ġro se
Ġcont est
Ġste uer
Ġph arm
ĠRes idenz
ĠMitglied s
Ġbr ut
Ã¤uf ig
ĠFot ografie
oin ts
OR E
ĠKommun e
ĠWeb prÃ¤senz
ĠGre y
ĠBill y
Ele kt
ĠVis it
ĠNamens geber
Ġrecogn ize
ĠThÃ¼r inger
Ġnav ig
ĠJugoslaw ien
K ont
b els
z elt
á »
ĠS achen
Ġb ay
ĠB ureau
Ġo s
ĠP om
âĢ ³
iv an
Ġst ainless
Ġde fense
ĠAn to
ov es
St atus
Mann schaft
ĠKÃ¶nig lichen
ĠPf licht
Ġact or
ĠVolks schule
rÃ¤n ke
Ġappe al
Ġliter ature
Ġinteress iert
**** ****
ĠBrook lyn
ĠAuseinanders etzungen
ĠGon z
ĠDok umente
ĠMalays ia
ĠAbstamm ung
f rom
g ger
n immt
r ufen
Ġt iefer
ĠS ource
he orie
ĠD ays
ĠK lagen
ĠK enntnis
ĠW ink
ĠL Ã¤ng
ad ion
ĠZ oo
ei de
ib il
ĠSp ar
ĠBe weis
be y
ĠEn zykl
Ġgen ieÃŁen
mit te
ĠPh ill
Ġmus lim
esen ted
pla in
ĠKunst geschichte
zie her
Ġrem ark
Ġrest r
Ġperfe kt
Ġinstall iert
ĠVis ual
Ġerschienen en
Ġhab ilit
klass igen
ĠElect ric
ĠFlag ge
ĠTats ache
A ch
H op
P res
b ald
r ible
t lichen
en cy
Ġd ust
ĠS tett
at io
ĠB irmingham
ĠM ob
Ġp hen
ĠT au
ĠT rue
et al
ĠR S
ĠC ore
ĠC yr
ann over
ĠIn strumente
ĠAn aly
ste ins
qu et
ĠLe hen
ĠAb schied
ĠAb geordnete
ack t
bar es
rich en
ĠAnd re
Al though
ĠQu art
ĠGrÃ¼ nde
ĠLin ux
Ġwrit ers
olv enz
ĠBel agerung
Ġfac ulty
ĠDu o
ĠMay er
Mar ia
ĠLang uage
Ġlink ed
Ġmatch es
Ġserious ly
Techn ische
Ġvict ory
Ġdistin ct
" -
D ec
I hr
L ang
M ein
ĠS elf
ĠA sk
Ã¤ ule
ĠD ritten
st ance
ĠP ant
Ġh ind
Ġc in
ĠW are
ĠN ort
ĠN ash
Ġl aptop
ĠV alen
ab on
Ġge omet
Ġver standen
ĠIn g
Ġun able
Ġwor aufhin
ĠY outh
ĠZeit ungen
Sch on
Sch ach
ĠEx change
Ġph ones
Ġmark ed
ĠAt tra
ĠnÃ¶rd liche
ĠVe get
Ġjeder zeit
Ġoffic er
ĠKons ul
ĠFuÃŁ gÃ¤nger
wal ts
Ġagre ed
Art ikel
ĠTat ort
ĠAff airs
ĠSab ine
ĠWes er
ĠPassag iere
ĠFriend s
Ġromant ic
ĠEvalu ation
P oint
h on
p ower
Ġs aving
ĠS i
Ġb id
ĠF ix
ĠH unter
Ġal ign
Ġsp acious
ĠAl ger
Ġ18 39
ĠPro zesse
Ġman che
Ġad op
Ġadd s
Ġbl ind
ĠsÃ¼d liche
con ne
Ġbra uchen
Ġstehen de
Ġpersonal ity
gef unden
Ġlaw yer
emb les
Med ien
ĠEins Ã¤tze
Ġframe work
Bad minton
ĠClaud ia
H or
b rief
z ure
Â ·
Ġs tet
ĠG ary
ĠH Ã¶l
ĠL orenz
Ġl ob
Ġl Ã¶sen
ug ar
Ġr um
Ġne ug
be vÃ¶lker
Ġunter brochen
ĠTh read
ĠAuf fÃ¼hrung
18 98
ĠArt ist
Ġ% ,
ĠHol y
ĠLie ben
ĠHel p
ĠTrans fer
ĠCle veland
bra un
Ġstruct ures
Ġerhe bt
Ġqualifiz ierten
Archite kt
Mill ionen
Ko ordinate
ĠBeam ten
ĠZwer g
K ap
x e
er ia
Ġs uc
ĠS ri
us el
st age
ĠK ick
ĠK anten
ĠE D
ĠH Ã¼tte
Ġer lern
Ġth re
Ġpro of
ĠAn wendungen
ĠEin zug
ĠFran co
ĠMed al
ĠQu ick
Ġdown town
ĠWh it
Ġperson ally
fern t
ĠKat hedrale
ĠIde al
Ġentstanden en
ĠBon us
Ġfunction ality
person en
ĠspÃ¤t estens
ĠGru yter
Ġfight ing
Ġveranst altet
ĠWik ipedia
Ġdiskut iert
h ielt
Ġt ile
Ġt alented
re if
ĠA kten
ĠB auf
Ġp oker
Ġh art
ĠT reib
ĠF oss
ĠG ay
ĠH ear
Ġg aming
ĠN om
id as
sp eich
ĠAn nahme
ĠÃ¼ber rasch
ĠPro gr
fe kt
ĠGr ill
ĠHe irat
Ġpr inter
Ġgen der
use ppe
Ġtra g
br unn
Ġgeb unden
ĠNational en
ĠHol ocaust
ĠSan ierung
Ġbre ast
ĠBÃ¼rger krieg
Ã¨ ne
ĠWein sberg
Ġwid th
sequ ent
national mannschaft
icul um
ĠPassag ier
fÃ¼ll ung
ĠKent ucky
Ġkombin iert
Ġcircum stances
H ave
f arb
z essen
Ġd ad
Ġd ele
is i
ĠS alt
ĠS hel
ĠS EO
ur teilung
Ġin halt
Ġf Ã¶rder
ĠT U
ĠG ent
ĠG rant
ĠL an
ĠN as
ĠV es
os er
Ġge gangen
Ġver lauf
Ġun us
hn s
ĠPro tag
uss ball
ĠCh ines
Ġro ot
pro p
Ġhier zu
Ġger ufen
recht lichen
ĠWer bung
Ġtradition ell
Ġess ays
Ġoffic ers
ĠUntersuch ungs
Ġreason able
ĠSchÃ¶n heit
Ġblock s
Ġslow ak
ĠEss ay
Ã± a
Ġprof iles
ĠLearn ing
Rud olstadt
ĠOze an
Setz liste
à ¸
it ations
Ġt ags
il og
ĠF uture
Ġk andid
ik at
est ag
os te
if ier
eb o
ah ne
ver eine
ĠAn walt
Ġi OS
ĠBl um
acht al
ĠTr i
ĠStra hl
ĠBet reuung
Ġcol ours
anst alter
ĠPal m
ĠHil de
ĠRec ord
Ġnieder lÃ¤ndische
Ġmir ror
ĠStr Ã¶m
ĠCle mens
Ġful f
ĠWed ding
Ġimmed iate
ĠGrÃ¤ fin
ĠPok alsieger
-------- --------
ĠSingap ore
> .
C ount
T her
W V
Z ug
p rechung
Î º
en berg
it iert
he ll
ĠB Ã¤r
Ġv irus
st ark
ig ern
ĠR Ã¼
ĠL ion
ic um
ben ennung
Ġr ural
ĠAn other
Ġnach t
ame ters
18 95
ĠAus sch
ĠFl orenz
ĠMus lim
ĠFre y
ĠFre ud
Ġsc reens
Ġind ischen
ĠVerein igte
ĠUr kunden
ĠBere chnung
Ġpass word
Ġkein em
ĠPrÃ¤sident schafts
sprach igen
ĠTele f
rÃ¤nk ungen
schlÃ¤ gen
ĠLeon ard
ĠermÃ¶glich te
leg ungen
Ġmedizin ischen
Jose ph
ĠSkulpt uren
igra ph
ĠShang hai
. ]
A c
V iele
W A
W ein
Ġ 000
ĠB eing
il iate
ĠT un
ĠT all
ĠK rem
ĠH ous
ĠW enz
ĠW rest
gen der
Ġauf weisen
ver hÃ¤ltnisse
Ġr ichtete
Ġso fa
ĠLe gende
ĠSe pt
ĠLand gericht
ĠUnter schiede
Ġgew isse
ott i
Ġstud ying
res ted
ser baidsch
Er ste
ĠEnt deckung
gleich ung
ĠWor te
Ġret ire
ĠPal Ã¤st
ĠWeiter entwicklung
Met al
ĠKÃ¶nigreich s
Ġinde ed
Ġinform ieren
Ġrefle ct
Ġzeich net
Ġsav ings
ReprÃ¤sentanten haus
b ele
Ġs ending
un fall
Ġf t
Ã¤ fen
Ġp a
Ġc ater
Ġz one
em pf
ĠH l
ĠL ese
Ġan bie
ver kauf
Ġ18 21
ĠPl att
ors es
ĠInd ustry
ĠAss embly
Ex per
Ġbas ketball
ĠWohn ungen
ĠStaats bÃ¼rger
AT ION
laub te
Ġdan eben
AL L
ĠÅ ½
Ġceleb ration
ĠEff ekt
Ġbetre ut
Ġlif etime
ĠErinner ungen
ĠNiger ia
Ġpow der
ĠMarsh all
E V
T M
f ig
o ft
re f
un ivers
Ġm ile
ĠM am
ĠL ic
Ġl ists
Ġim per
qu ot
ĠAr mut
Ġ17 0
ĠAd miral
ious ly
ĠArt ik
ĠHaupt mann
ĠVerb raucher
Ġfl ights
ĠVers and
Ġdiffer ences
Ġche ese
gÃ¤n gen
Ġversch le
Ġindividu elle
ĠWol ff
hab ilitation
ĠChampions hips
Don ald
Ġzeich nete
russ isch
Ġeingest uft
FuÃŁ noten
bevÃ¶lker ung
f licht
p rach
z oll
is emit
Ġs hr
st yle
ig sten
ĠG reek
ĠK letter
ra genden
Ġal arm
eb y
og ne
Ġj ahr
ard t
Ġsch lÃ¤
ĠCh apter
ĠY or
co ck
ans k
ĠPr inc
oy a
ĠFilm regisseur
ym met
ĠProdu ct
lauf bahn
ĠEm ma
itu ationen
190 2
Ġlov ing
ĠBaum eister
ĠKre ise
Ġerk ennt
ĠKommand ant
Ġincreas es
Ġstrength en
ĠkÃ¤mp fen
Ġsitu ated
ĠBeob acht
Ġbekleide te
r ud
Ġa ims
us ions
ĠB aker
ĠT Ã¤nzer
ĠT Ã¤tigkeiten
ĠH af
ĠH ydro
ĠW ard
ow ers
Ġst uck
Ġver fasst
ok ko
ĠPro cess
ob a
Ġen orm
ĠAb or
ĠSpiel ers
ĠBau werke
Ġhand eln
ĠSchul z
ĠCont ainer
Ġzahlreich er
amb a
ĠBur k
Land tags
Ġpurch asing
ĠExper ience
ĠRestaur ants
ĠTrotz dem
Ġelektr ische
ĠmÃ¤nn lichen
Ġkulture lle
Ġempfehl en
U V
p g
w ider
is ierungs
Ġt ack
Ġf inger
ĠM other
ĠD in
Ġn one
ĠF F
ĠE ster
ist isches
ik ro
Ġre publ
ĠSch iffen
ĠIn stead
ĠVer ordnung
Ġzw anzig
io den
ult iv
ĠUnter grund
Ġfe iern
Ġro y
ĠCo hen
ĠAll ianz
vent ional
anc a
Ġsho ot
urr ican
Ġret ten
Ch ina
Ġatt rib
lei h
Ġerfolg los
bereich en
ĠÐ ¿
ĠMay a
ĠMay be
ĠText il
Ġ180 4
mel det
ĠFel sen
Ġbeteil igten
ĠWirk lichkeit
Ġautomat ic
serv ice
Ġintrodu ce
Ã¤rk ung
Ġwohn te
ĠGh ana
verstÃ¤nd lich
ĠKrie ger
Ġneut ral
Ġdanger ous
Ġtom orrow
1 18
1 17
D L
P ap
g h
k ommiss
o iden
x ic
ch ild
ar est
Ġb ow
Ġm iner
ĠM Ã¼ll
âĢ ²
ĠF em
ĠG am
ĠE ag
ĠL er
ĠC onstant
Ã¶ ster
Ġim pression
ĠAr te
ord nungen
ĠLe er
ĠSe chs
Ġwor se
Ã¼ck t
lo ÃŁ
ĠNor man
Ġass um
ĠDurch bruch
Ġgem el
Ġocc as
Ġresult ing
ĠDet ail
Ġbuy ers
Ġinvolv es
Ġparticip ation
zwe ck
rup ted
ĠEvangel isch
lim ited
ĠBox er
System atik
Ġharm on
Ġsatis faction
Ġster ben
Russ land
Ġexpos ure
andin av
W issenschaft
m auern
Ġs la
Ġb irds
Ġm angel
st Ã¤dt
ĠF at
ĠF ur
ĠH unger
ĠR umpf
ĠC F
Ġer leben
Ġaus gesetzt
Ġr iding
Ġwh ilst
for um
Ġent rance
ĠCh ange
ĠGr en
ĠVor gehen
Ġ17 00
ĠFrank lin
Ġmin ister
Ġphot ographer
Ġpriv ile
produ kte
ĠBor is
Ġexpl oring
Ġdeliver ing
ĠTÃ¼r ken
Ġnormal en
ĠNÃ¼rn berger
Ġacqu is
ĠGru ben
Bet rieb
ĠEqu ipment
ĠRess ourcen
ĠBrie fe
M el
P O
c am
l Ã¶sen
y st
Ġw eite
ol ia
ra ce
ĠH Ã¤ft
ĠC old
Ġan gle
ĠAn teile
Ġse ats
Ġsch lossen
Ġch annels
ian ischer
ian ces
Ġco ordin
ĠAus gra
ĠAus chwitz
ina e
unk er
ĠJohann a
Ġcolle ctions
lau tern
Ġunser es
Ġair craft
Ġconc ent
bÃ¼ chern
Ġreport ing
ĠGet re
Ġdiv or
Ġdise ases
Ġextens ion
lap pen
ĠGil bert
ĠNicol as
Ġspect ac
Ġelig ible
ĠHels inki
' '
; ;
L ei
M ad
k ok
v illa
w ellen
Ġs ick
ar ius
Ġf ried
Ġf esten
Ġm and
ĠA pos
ĠB innen
ĠM R
ter y
ĠF urniture
ĠG os
ĠE S
sch atz
ĠH S
Ġg entle
ĠV a
ul se
ĠSt ifts
ĠU k
18 79
18 90
ĠAus gleich
utz er
ĠSh ar
Ġtr ick
Ġlang uages
Ġsu ite
ĠDo ctor
ĠPal ast
werb ung
Ġcontrol led
rist all
Stra ÃŁen
Ã¶p fer
Ġsem i
Ġreligi Ã¶sen
izien z
Ġrout ine
D ienst
E st
J a
b ane
p ted
Ġf otograf
ĠA K
ĠA chter
ĠM indest
ĠP end
ĠR au
ul ierung
Ġan onym
os om
kt ors
aus chen
18 92
lo h
att i
fol k
ĠStadt bezirk
Ġcl imb
ĠNieder schlag
Ġgra u
Ġeng aged
ĠBÃ¼ chern
Ġprofess or
Ġclass room
Ġant icip
Ġschn elle
Ġport ion
ĠJust in
ĠMer c
ĠProble men
Ġir re
Ġverlie h
Ġauthor ities
Ġinvolv ing
Ġill ness
Ġrepla ced
ĠRepubl ican
ĠSus anne
ĠKandid at
ĠberÃ¼hm ten
ĠiP ad
A k
B O
d re
r ise
Å ¼
Ġd uty
ar ium
Ġin du
ĠB reiten
ĠD Ã¼
ro tt
ĠF ine
ĠK ran
ĠH ost
ten de
ten se
Ġbe wertet
Ã¶ cke
Ġge teilt
ĠAn ordnung
Ġle iden
Ġ18 33
ast ing
rÃ¤ g
fer ences
atur en
Ġ17 93
iger ung
Ġlie ber
ĠSchw ert
ĠFre ie
Ġvers at
Ġgesch Ã¤tzt
ĠMon ster
sche f
Ã³ r
Ġsk illed
ĠJo in
ĠFot ogra
ĠBaum w
Ġnie mals
parte ments
ĠvollstÃ¤nd ige
ĠSter ne
Ġassoci ation
Nieder lage
ĠKenn edy
ĠBist ums
Ġsuppl iers
Ġpassion ate
cu ador
Ġexter ior
Uns ere
O F
g ium
h um
in haber
es a
Ġt ill
Ġt ip
Ġs itzt
Ġb ild
ĠB attle
ĠB ismar
Ġv inyl
ĠM eine
Ġp itch
ĠP Ã©
ĠN ut
Ġer leich
Ġer zeug
ĠSch ichten
th is
Ġr ib
Ġme ets
Ã¼ck e
fahr ung
Ġins ight
of ern
aw are
Ġtr ips
Ġgel Ã¶scht
ĠSÃ¼d amerika
Ã¶st licher
Ġbook ing
Ġpubl ish
Ã¼ss els
Ġtyp ische
ĠAg ain
AC H
ĠPet rus
Ġverbunden en
Ġcrit ic
ĠMur ray
Ġdur able
krit iker
Ġfair ly
gelegen en
ĠAuft ritte
Ġprogramm ing
ĠLandtags wahl
ĠNeum ann
ĠFreder ick
Ġadministrat ive
Ġangrenzen den
I l
W ald
c amp
j ana
w enden
in cess
ĠS ometimes
re ff
as a
ĠF eind
ĠI L
ĠH unt
ĠW oll
ĠR Ã¼st
ĠL enk
sp ace
Ġle istete
be cker
ire ktor
Ã¼n ster
iss er
heit lich
iet ies
St il
Ġfin est
Ġsup erv
enk te
Ã¡ z
Ġbr idge
23 4
For sch
ĠLondon er
Ġ180 5
fo ot
Ġmar ks
Ġlik ed
Ġslow ly
ĠZusch auern
dis ziplin
Ġberu ht
ĠausdrÃ¼ck lich
D ruck
V O
f aktor
g ymnasium
m ay
u als
Ġb ol
ĠB aup
ĠD ennis
ĠR ib
ist o
ver arbeitung
ĠVer hÃ¤ltnisse
ran ts
ĠÃ¼ber le
ick te
ick el
inz eit
ĠVor jahr
Ġnew est
ule gen
ĠgehÃ¶r enden
Ġno ted
Ġvers uchten
ĠOb serv
Ġsim pl
Ġsk i
ĠFin ance
Ġentstand ene
ER S
Ġhol idays
Ġflo ors
Sh ow
Ġindividu ellen
kap it
Ñģ Ðº
ĠUrs ula
Ġcru cial
ĠZul assung
Ġsurpr ised
Ġchamp ions
Ġconfl ict
A fr
B asketball
C olle
D reh
f ile
h Ã¼gel
t ier
w ed
w alk
â ĪĴ
æ ľ
an alyt
ĠS ierra
un o
ĠM T
Ġo vers
ĠD oll
ro c
ĠK ein
om orph
ist urnier
ah me
ĠSch icht
ĠSch au
ĠSp in
ĠDe part
Ġus age
auf gaben
pr esent
ĠSte ven
ĠAd vanced
ĠTra uer
Ġcl ar
ĠMed ic
Ġger aten
ĠQu ad
ĠBar ry
ĠKomp etenz
Ġla ugh
Ã¤us chen
Ġchild hood
Ġdarauf folgenden
ĠCor p
ĠSen ate
Ġober e
Ġrele v
Ġdeal ing
Ġcas ual
Ġvergleich sweise
ĠBos n
ĠMisch ung
ĠkÃ¶nig lichen
ĠStatt dessen
ĠUd SSR
Ġcerem ony
> -
E ach
H K
I r
b ig
b eing
s i
Ġf ern
us ten
ĠB L
ro ff
ĠK itz
om i
ĠH onda
ĠC V
ĠC rew
ach ed
Ġdes ired
ĠSt auf
ĠO hne
ĠEr lebnis
ĠUn i
ĠAr c
Ġent s
oc ated
Ġgo ogle
sk Ã¤mpfer
Ġfl ach
Ġdel ight
ĠWohn ungs
Ġerhalten e
Ber uf
ĠHeil ige
Ġpublic ation
Ġalong side
ĠWein bau
Ġprepar ing
ĠKirch spiel
Ġposs ibility
ĠerhÃ¶ hen
ĠBil den
zentr ale
ĠStraÃŁ burg
Bere chnet
ĠWurz el
ĠSams ung
. ;
N ur
b ungs
t it
v io
ch sen
Ġb Ã¶hm
ĠA ve
ĠB rÃ¤
il ia
Ġo cean
ĠD irk
ĠP ent
ĠF ron
ĠE i
ra h
sch reiber
ĠH erk
ĠH inder
ĠR iesen
iv ier
ad Ã©
Ġre fin
ĠIn tens
th iop
ug a
Ġde ploy
Ġj unior
Ġsp ir
ĠSp ons
ĠUn gar
mer zen
ĠOr leans
ĠAuf fassung
Ġnur sing
Ã¼nd e
ĠCo ach
Ġbeen den
ĠEx am
ĠgroÃŁ em
ĠHaus halte
istr ikt
Ġvis ible
ĠBro thers
ĠHier zu
Ġcond uct
He il
wissenschaft liche
Ġ180 9
Ġpack ages
Ġpack aging
ĠMiss issippi
stud ien
Ġzuf Ã¤ll
ĠSus an
Ġles b
Ġcarry ing
Ġmedizin ische
ĠAufent halts
Je an
Ġscen es
Ġbrasilian ischer
ĠUt ah
ĠHinz u
A uth
D Ã¤n
g iment
l uther
Ï Ĥ
re c
Ġin telligence
Ġf irms
Ġf abulous
ĠB ast
st Ã¼r
ig ert
ĠF eb
Ġl ib
Ġch art
Ã¼hr t
Ġwor n
ĠAb bau
ĠAus lands
ĠHer itage
ĠPl Ã¤tzen
ĠGra v
bl ings
ĠRo und
ĠEd itions
umb ai
Ġgut es
osoph ie
ĠMc G
Ġzwe if
bÃ¼ hne
Ġrequire ment
ĠErd geschoss
Her ausgeber
Ġstay ing
Ġfund amental
ĠScott ish
Ġcontrib ute
Ġrecommend ations
struktur en
ĠFrem den
ausschuss es
ĠBesonder heit
ĠGefe cht
ĠGoth a
ĠBundesverdienstkreuz es
Verwalt ungs
Leichtathlet ik
M r
i ast
m ic
v ents
} .<
in formationen
on ed
ie in
ĠB arr
ĠF aust
Ġz iv
ĠR ade
Ġl ake
Ġk ap
ul u
Ġy e
ĠSch af
ĠIn fo
ĠÃ¼ber zeugt
be zirke
ĠCh annel
ĠNe ver
dem ann
net te
gl adbach
Ġrec re
fr iger
ĠVerb rechen
icher te
ĠLandes regierung
ĠSchl ange
Ġur auf
ĠPaul us
Ġtrans mission
ĠIns olvenz
ifiz ierte
Sp iele
Ġdav or
ĠApp ro
Ġflo oring
Ġschwer er
ĠSicher ung
pre ise
ĠSex ual
Ġattack s
Ġerl itt
ĠLetz ter
Ġsamm elte
ĠRies enslalom
ĠangehÃ¶r te
astrop he
ĠForder ungen
Tro tz
ĠGreif swald
Relig ion
Ġfasc in
/ -
G O
c ommun
Ð ·
Ġ å
ĠS ind
Ġb omb
ĠM oney
Ġp ocket
Ġh ate
Ġh its
ĠT auch
ra c
ĠH Ã¤ndler
ĠL ost
ĠL ohn
den ken
Ġge folgt
ce ut
Ġwar ranty
sp rechend
hn ten
ĠSp enden
Ġ18 34
iz it
ĠVor lage
Ġexper imen
ĠPhil ippe
ĠInter ior
Ġdevelop ers
Ġreal ized
En tste
ĠHerr schafts
ĠCom par
ĠRegel ung
Ġcheck ed
spe zif
ĠWol ken
Ġrechts ext
Ġapproach es
ĠDenkmal pflege
funktion Ã¤r
Ġexpla ins
Ġtschech ischer
ĠVoraus setzung
ĠDial ekt
Ġaccompl ish
andem ie
ĠKÃ¤rn ten
, ...
F er
g lo
j ing
w ords
Ġd os
at ts
as ar
Ã¼ ÃŁ
le v
ĠB I
st iftung
Ġn ic
Ġn ights
ĠH Ã¼tten
ĠW esen
ĠL oh
ĠC M
Ġdes ktop
ĠSt rat
ĠSt apel
Ġre ception
Ġhe ating
age ments
fin al
Sch ul
ma x
reit et
Ġbo ot
Ġze igten
ĠCl ar
ĠDar stellungen
Ġgener ate
ĠGew ichts
ĠHel en
ĠAuss icht
Ġrep airs
Ġsever e
Ġcreat ivity
ĠLou ise
Ġmag ic
ĠÃ¤hn lichen
Ġaccount ing
Ġregion ale
Des ign
Ġapart ments
ĠEntwick lungen
Ġintens ive
Ġdauer haft
ĠWeihn achten
Ġremov al
ĠTerrit orium
ĠBir ken
Ġbefind lichen
ĠSozi ologie
Ġris ks
. âĢĵ
M a
m ass
o a
ĠF lieger
eit h
ĠO hr
og g
ern t
ĠSp a
Ġsch afft
Ġnach weis
ĠPro jekts
18 94
Ġgen ehm
min ute
ĠBo eing
ĠArbeit nehmer
Ġmus cle
Ġra w
ĠAll ein
ĠHo hl
ĠArch ive
ĠCol lins
Ġhistor isch
ĠSport ler
ID S
He im
bed arf
Ġbeh inder
fle isch
Ġens uring
ĠErd beben
Ġsug gested
ĠRob inson
Ġbox es
ĠAch telfinale
ĠWel come
Ġsyn thet
ĠYear s
ĠbestÃ¤t igte
ĠLaur a
Ġsus p
ĠkÃ¼nstler ischen
Ins eln
Ġstrug gle
Ġliefer te
B ass
B ank
G M
I hre
Ġd ot
Ġd Ã©
Ġt ut
ur l
Ġm ixture
ig ter
ĠF antas
ĠR ates
ĠL enn
ic ide
ir ges
Ġer zeugen
Ġal ph
Ġge gliedert
th at
Ġso il
her it
ĠDe ep
pl ung
Ġpr ison
fl Ã¼ge
ĠIs abel
Ġbo ards
wert ungen
Ġbre iter
ĠNot re
Ġtyp ischen
Ãĸ ff
ĠVors itz
Ġamer ikanischer
ĠWol fr
Ġleg it
ĠErk enntnis
Ġlic ensed
ĠBÃ¤ ume
ĠProduzent en
Ġbelg ischen
ĠDemoc ratic
ĠAster oid
ĠKoordin aten
Wor ld
Ġbesie gte
ĠEnvironment al
ĠManh attan
B elege
F ree
W ohn
w ende
ch ing
ie ge
ĠA sch
ĠA BC
ĠB ird
ĠB GB
ĠD ein
ĠP ionier
ĠH ipp
ĠR ass
ĠL ane
ĠV all
Ġan gebaut
Ġden ken
Ġst able
Ġfor ever
Ġnach folgenden
ĠTh ai
par at
ĠOr n
ĠSe ction
ĠSe kund
ail ing
Ġalle ged
ule tzt
Ġbeg raben
ĠStra tegie
bl og
Mit glieder
ĠOb ject
Ġdr inks
Ġcons istent
Ġbl ank
ĠHoch stift
Ġdevelop er
ĠPer fect
ĠUr heber
Ġpass ing
ĠTag s
Ġeinfach er
ĠKat astral
ĠGed enkt
ĠLuft waffe
AR T
Ġtem por
Kultur denkmal
Ġverk Ã¼nd
Ġrob ust
ĠGebirg s
ĠEncyclop edia
S Ã¶hne
c ut
c ell
j ar
Ġd auert
is ka
Ġt one
he ld
Ġm erk
ge ts
ĠT as
ĠF aktor
ĠE R
ĠH Ã¤nden
Ġg rant
Ġl ip
ĠV iv
ĠSt ufe
Ġhe aling
ĠEin ladung
rÃ¤ gern
Ġvor n
ĠTh ings
ĠTh ompson
18 80
18 88
18 86
ĠMar ion
ĠAm ph
Ġind oor
ĠCar ter
ĠPf le
Ġdr iven
ĠLie chtenstein
str asse
ĠJournal istin
ĠAmts gericht
Ġcomb ine
atÃ¼r lich
ĠZuge hÃ¶rigkeit
wes ens
Ġrelig ion
Ã´ ne
ĠViol ine
ĠWettbewerb s
ĠOrganis ations
ĠVorder grund
Ġdurchschnitt lich
Ġfla vor
ĠGU I
Down load
C la
S ach
h essen
r igen
s endung
Ġ ~
er z
Ġs tem
ĠS N
Ġin itiative
Ġm or
ĠG ute
ut age
sch lagen
ĠH ins
Ġg iant
Ġre chter
ip her
ard i
ĠLe uch
ĠSe gment
fen bein
ĠVor feld
Ġover w
Ġverw altet
ĠRom ans
ĠEle ktr
Te x
ĠRad sport
ĠBra uerei
kon zept
ĠJo int
Ġdeb ate
Ġgre y
ĠAuÃŁen minister
Man ager
ĠjÃ¼n gere
ĠverlÃ¤ sst
ĠGlo cke
verstÃ¤nd nis
Ġguarante ed
Ġcompl iance
imens ional
ebau ung
ĠplÃ¶tz lich
J ul
J ac
L ive
R ek
S Ã¤nger
Ġa rom
ĠS ultan
Ġb acter
ĠB reis
de i
Ġh anging
ĠT Ã¤
ĠT ree
ĠF resh
Ġg ate
ĠC onstruction
ĠC afÃ©
ber ichte
ir en
ĠJ ochen
ck now
ĠVer mÃ¶gen
ĠBe griffe
enn ungs
ĠSe es
18 96
Ġ17 90
Ġber aten
ĠSte iner
orf ul
ĠGes ellschaften
13 5
ĠAll iance
mÃ¤ ss
Ġfre ige
ĠRad i
ĠFest ivals
iat hlon
tend o
ĠRel ations
zÃ¼ g
ĠGi useppe
Ġaddress es
ikal ische
Ġop ens
pol izei
afr ikanischen
ĠLokomot ive
ĠDiffer enz
ĠSauer stoff
arma ceut
ĠTho ugh
J ournalist
M ess
it us
ĠS E
Ġ1 19
ĠW oman
ĠW riting
ĠL ars
Ġto ys
Ġl ady
ĠAn w
Ġab schloss
Ġ18 28
ĠAr range
che f
18 82
ĠPl ug
els berg
sk o
ĠKar oss
ĠAnd r
ĠFre quenz
com mer
alen a
Ġteil en
Ġmark iert
Ġdel ivers
Ġersch lossen
ĠDar steller
Ġ| |
ĠHam let
ĠMor ris
ox id
fre unde
erin tend
ĠTre ppen
fert igt
Ġcra fts
Ġref resh
Ġsens itive
Ġconcern ing
ĠGeheim nis
Ġdrink ing
ĠSele ct
Ġausges prochen
ĠSerb ien
ĠBefrei ung
ĠIngol stadt
M or
e hemal
z k
Å ¯
ig l
ut o
ĠJ Ã¤nner
Ġk Ã¼mm
ik s
Ġver bleiben
aus s
19 16
Ġdurch ge
erk rank
teil ungs
ĠIm pf
ĠMe ilen
ĠArbeit spl
lÃ¤ s
Ġben utzen
ĠSchul ter
Ġfeel ings
ĠMiss ions
Ġoffic ially
ĠPsych iat
zwe if
ĠDor othe
Ġtit les
ĠFeder ation
ĠbenÃ¶t igen
ĠVerhalten s
Ġpassen den
Min ister
ĠChallen ger
ĠAngehÃ¶r ige
ĠBalt imore
Denk mal
Ġamen ities
ĠLÃ¼den scheid
ĠPitts burgh
C lass
H erkunft
L ondon
N ein
k Ã¤mpfe
w iesen
Ġm ob
Ġ1 11
ĠT reat
ĠF onds
ĠG PS
ĠH yd
ĠC hel
Ġl aser
Ġge prÃ¼ft
ĠU V
Ġpro ve
rie t
ĠÃ¼ber arbeitete
Ġ17 89
Ġro te
Ġgew issen
haus er
pro vinz
ĠUm frage
gew Ã¶lbe
Ġsc ulpt
Ġtr enn
ĠGroÃŁ vater
Ġsub jects
Ar ray
Ġgra v
ĠauÃŁer gewÃ¶hn
ĠCont est
ĠFolge zeit
ĠGen re
Ġaff ili
Mar ie
upp el
Ġrespons es
ĠÃ¼b te
gle is
ĠOk lahoma
Ġdisplay ed
Ġincreas ingly
ĠtÃ¼rk ischer
ĠKomment are
ĠKaisers lautern
ĠEinkauf s
ĠKaffe e
incl uding
c ue
r uppe
t Ã¼r
v gl
Ġw ave
ĠS MS
at ar
at ra
Ġm aps
ĠD Ã¼n
ĠF urther
ĠF ulda
ĠK Ã¤mpfe
ĠN ien
Ġl ies
ĠSt au
Ġst ake
Ġj unger
Ġsie bten
Ġunter ird
Ġco uncil
Ġgew alt
ĠUm zug
Ġstud ied
Ġgu ard
uge hÃ¶r
hol der
ĠZe ugen
Ġredu ction
ĠEhren bÃ¼rger
Ġsor b
Ġarr ival
itar ren
ĠOut door
Ġgegeben e
ĠLuc as
Theater schauspieler
Ġpleas ant
ĠMaur ice
ĠInstall ation
ĠvorÃ¼ber gehend
A g
T able
d an
g us
h Ã¤lter
â ĨĴ
ĠS aw
he i
ĠA Z
Ã¤ use
ĠD ag
ĠP rad
Ġh urt
Ġc arr
ĠT SV
ĠG Ã¤rten
ĠW als
ist anz
ang aben
Ġsch eme
Ġ18 17
geb ot
ĠAb fahrt
los ed
Ã© es
ĠAm y
Ġ17 50
Ġup grade
Ġ10 2
ĠUm benennung
ĠBo ots
Ġausge geben
Or dens
Ã¤nder ten
ĠWith out
Ġcontrol s
Ġung arischen
lig as
All gemein
zwe ig
spro gramm
ĠMerk mal
ĠEss ays
ĠFÃ¼rst entum
Ġsah en
ĠVerkauf s
Ġanges iedelt
Ġprefer red
ĠAbd ul
ĠRal f
ĠBiograph isches
ĠLuz ern
ĠInternets eite
K ommand
M ult
l t
w ister
Ð ¿
Ġm i
ĠB red
ĠC ut
ĠC ash
ĠSt ufen
ĠSt orm
ĠSp alten
Ġ18 26
ĠÃ¼ber nahmen
ungs weise
Ġvor lÃ¤uf
ĠLe x
ĠVor sprung
mp os
ĠJul ie
vers uch
Pro fess
weil ig
ĠUr spr
mar ks
Ġfac es
Ġkurz zeitig
urf ten
Ġexist ierte
Ġhead s
Ġworks hops
viron ments
Ġexp ansion
Ġrestaur iert
ĠÃ¼b licherweise
Ġanz ut
Ġrecogn ition
Ġkom ment
Ġinstru ction
ĠClin ton
Ġdish es
Ġschott ischen
Ġgesellschaft lichen
Form ation
ĠCham ber
ĠArg ument
ĠPict ures
B R
B ig
G ott
m g
t ages
Ġs inger
ĠS ag
el ius
le itete
ĠF K
ĠN ummern
Ġan th
Ġe gal
Ġst ren
Ġver mittelt
up e
Ġun klar
Ġ18 24
ia z
for cement
ĠDe kor
io xid
ĠCh art
Ġco at
ĠNach ruf
ĠGra ce
ĠGes am
ĠBr istol
Ġno ise
ĠPe ace
ata ill
Ġdr amat
ĠWerk zeug
ĠPat r
FuÃŁball nationalspieler
ĠPal ace
Ġcor respond
Ġant rat
Ġbele gen
ĠEhren mitglied
ĠrÃ¶m ische
ĠReal itÃ¤t
Ġprior ity
Ġsav ed
ĠWett kampf
Ġsuffer ing
Ġsurpr ising
Ġven ue
G leich
G reat
H F
R Ã¼ck
Z entrum
n ÃŃ
en ne
Ã¼ ten
ĠF alk
Ġbe grÃ¼ndete
ist ung
Ġst ieÃŁ
ver folgung
Ġver e
op ol
Ġaus zu
ĠEr ziehungs
gr en
Ġch a
Ġsh ots
Ã© bec
mit tler
ĠMin istry
ĠRes ources
Ġrem od
Ġbef asste
Ġbas ically
wei he
ĠÐ ²
Ġbeh ielt
AR D
Ġwonder ing
ĠCla ude
Ġhop es
Ġwhe els
ĠAuthor ity
Ġwechs eln
ĠMitbe grÃ¼nder
K irch
L B
S ingles
T wo
X X
h ot
j on
ĠS F
ĠS QL
un z
Ġf ranch
ĠM ira
Ġp it
Ġh aus
Ġh orn
Ġh inger
ĠE il
Ġz entral
ĠW affe
ĠR ange
ĠL oren
and el
ul ator
Ġst ab
ĠSch uh
Ġver mie
tel la
ĠIn vent
qu em
Ġsp oke
.. ...
ond o
ĠGe fÃ¼
Ġ17 98
Ġcomp uters
Ġges ammelt
Ġany way
ĠTr end
sh afen
gra duate
ĠPhil harm
Ġspe akers
dienst es
ĠSchool s
Ġ180 1
ĠKompon ente
ĠOper ations
ĠGeist es
Ġdro pped
Ġstat istics
Ġnotwend igen
Ġkanad ische
Ġtats Ã¤ch
Ġpred ict
ĠProte ction
ĠEconom ic
Ġverbess ert
ĠKav allerie
ifff ahrt
Ot to
) *
M ac
S cript
d orff
p hal
s al
w Ã¶rter
Ð ³
Ġd ei
Ġs yr
Ġw ann
Ġf ru
Ġund ert
ĠD ritte
Ġn ad
ĠF R
ĠK az
ĠE ye
om ed
ĠH ert
Ġk W
Ġdes wegen
ĠSt ick
eb ack
Ġsp ray
ant i
Ġsh ut
ĠReg isse
arbeit ungs
Ġ13 5
ĠBes iedlung
ĠBundes regierung
ĠHoch schulen
ĠWill en
Ġdet aill
Ġbelie ved
ĠWinter spielen
ĠErst ligisten
ĠRev ol
ĠGi ro
Ġbede ckt
ĠHal f
ĠLouis iana
Ġgeschlossen en
ĠOpt ion
wÃ¼r de
Ġmount ains
Ġconsum ption
Ġdigit alen
ĠGatt ungen
Ġniedr iger
ĠSatell iten
Rober t
armaceut ical
B ilder
C ity
D el
N et
S outh
W ork
g aden
j ak
Ġd ump
Ġs uck
ar ent
un ken
ĠA tem
ĠD raft
Ġh ung
ĠR asse
Ġg riff
ist oire
ir ischen
la uch
th on
ap o
ell ers
iz itÃ¤t
be weg
Ġum liegenden
18 71
ĠNach frage
ĠVor teile
ĠReg istr
sk on
Ġsome where
gend a
An other
Ġdesign ing
ĠVerb Ã¤nde
ĠQu in
schl iess
stÃ¤nd igen
Sie ben
40 6
met ter
cript ions
ĠKo alition
ĠZur Ã¼ck
ĠKraft werk
Ġerk annt
Ġtax es
ĠVog t
Ġregul Ã¤ren
Ġprem ier
ĠAP I
ĠRup recht
Ġrapid ly
Ġgebra ucht
Ġverblieben en
schrau ber
ĠHud son
Ġglo be
P ersÃ¶n
S am
d n
r Ã¶m
an as
Ġin tell
ĠB eine
ĠM ilitary
Ġp uzz
ĠP ich
Ġc enters
ra cy
ĠI rak
ĠR iga
ĠC ort
op hen
Ġr ar
sp Ã¤ter
Ġwh oles
Ġ18 11
Ġent warf
ĠTh ink
ĠMe teor
Ġmake up
Ġbesch reiben
ĠKr ise
ĠComp et
rech ten
Ġview ing
ĠBro t
vert retung
ĠTal iban
ĠVerwaltungs sitz
ĠSl alom
ãĥ ¼
ĠDigital isat
nehm lich
ĠSy nd
ĠEreign is
ĠBlo od
ĠMyth ologie
Ġprotest ant
Ã¼h ungen
ĠBapt ist
ĠHimm els
Ġunex pected
K or
L it
P et
T urnier
j ugend
m Ã¼ller
Â ½
Ġs q
al ismus
Ġm as
ĠB irth
ĠP for
ĠT et
ra uchs
ĠR enten
ĠC ON
ĠN ancy
ĠO ft
ah ler
Ġdem ent
ĠRe z
ĠUn fortunately
ks hire
ĠGe is
18 91
pr es
ons o
ĠSchw aben
ĠKir cht
ĠKl einen
oss a
Ġra cing
Ġmo unted
hol ders
Ġpass ende
Ġsign ature
ĠTex ten
ĠZeich ner
Ġgirl friend
Ġnie mand
Ġlim its
seit ige
ĠFle cken
ĠKle idung
Ġcrit eria
ĠHÃ¶r spiel
ĠSur vey
Ġlands cap
Ġevalu ation
ĠStell vertreter
Ġdigit ale
has Access
ĠjÃ¼ng ste
Ġbeher bergt
Ġbegeister t
ĠToy ota
Ġtourn ament
ĠGenehm igung
Ġschwei zer
B ec
D om
s ammlung
in as
ĠS O
ĠB utt
ĠM esser
ĠD utch
st unden
Ġh am
ĠSt op
ab st
Ġge habt
ag anda
Ġor ganisation
ov on
pl o
18 85
ĠMe ier
Ġres ort
ied el
ĠBr ight
ats on
Ġseit ens
Ġcl ip
Ġvis its
ĠChar ter
gebiet es
ĠUl tra
ĠWal ther
Ġdra in
ĠClub s
Ġintegr ation
Ġstation iert
Ã¶ss er
ĠIslam ic
Ġult imately
ĠPhot os
Ġrelax ing
Ġcontinu ing
Ġnut rition
marsch all
ĠKart off
ĠMagn us
Ġpul led
Ã§a ise
Jo achim
ĠangekÃ¼nd igt
ĠMittw och
A uÃŁen
C or
E ff
R est
V org
Z E
b ranche
f onie
i our
m il
n ick
w issen
z usch
in ch
an schluss
Ġf its
Ġm g
ĠB Ã©
Ġv oc
ĠD FB
Ġc ultur
ĠT orn
ĠF ish
am an
ĠH umboldt
ĠR ank
ĠZ Ã¤hne
Ġr ational
ĠAn kunft
Ġsp itz
ges prÃ¤
18 68
ĠLand wirtschafts
Ġfin de
ĠGesch Ã¤fte
Ġtechn isch
link plain
ĠDar in
ĠPer th
Ġcommun icate
Ġmoder nis
Ġocc urs
ĠBud dh
Sport liche
Sport veranstaltung
Ent fernt
ĠerhÃ¶ hte
Ġdepend s
ĠBasketball spieler
Ġhighl ights
Ġgesund heit
Ġbevorzug t
ĠSalv ador
ĠPho enix
A ber
B us
B rig
G ar
H Ã¶
T I
s aison
er os
Ġb ird
ĠB allett
Ġp ad
ig rant
ĠP aint
ĠT ipps
ĠF Ã¶der
ĠG ian
ĠK i
ĠK ies
ĠK ob
ĠK ante
ent urm
ĠI hm
ĠH ur
ĠH aving
ik ale
ĠO w
Ġst amp
men gen
ĠRe x
ĠBe grÃ¼ndung
iz ierten
ĠMe et
Ġout fit
ĠPolit ische
ĠX I
ĠMet ro
ĠGl en
Ġperson nel
Ġentsp rach
ĠTor schÃ¼tzen
!! !!
ĠÃ¶ff nen
Ġredu cing
Ġenter ing
ĠÅ ģ
Ġengine ers
ĠUp date
Ġther apeut
ĠPil oten
Ġemp ower
umn i
Ġmechan ical
Ġlos ing
ĠInner halb
Ġmensch liche
ĠÃ¶ konom
Christ ian
Ġtag ged
ĠðŁ ĺ
ĠHess ischen
Ġunterr ichtet
pop ul
MÃ¼n chen
ĠMoz art
ĠFI FA
Ġanx iety
ĠLiss abon
A ktiv
L ife
h s
on el
Ġw Ã¶ch
ĠS Ã¤chsischen
Ġb ibl
ich i
ĠD ikt
Ġh alt
ĠG ou
ĠK essel
ĠH R
Ġg ig
Ġer setzen
ĠO ste
est one
Ġzu geschrieben
ĠAn sonsten
Ġ18 22
Ġdeutsch es
Ġtra ditions
ĠJul ian
ĠWh ich
Ã¤nder ungen
ĠKn ight
Ġprom pt
less ly
AN D
Ġ180 2
ĠMont ana
ĠZwe ier
Ġnetwork ing
ĠGolden en
Pol en
Ġattend ing
Ġelektr ischen
steuer ung
Bere ich
ĠTaschen buch
ĠOffiz iere
C E
n atur
o ured
Ġd raft
ur u
ĠB ischÃ¶
Ġp Node
Ġn om
sch Ã¼tze
ĠC u
ĠC ord
ĠV A
ĠO P
ĠO z
Ġge pf
Ġst range
ĠZ irk
au c
ial is
ĠCh ore
ĠJahrhund erte
ĠMus l
Ġprodu cer
Ġthem es
Ġgesch ah
fÃ¼ g
ĠComp an
ilder t
Ġmov es
Ġerfolgreich sten
ĠIhr es
Ġhal ben
fehl er
ĠBud get
ĠRand e
Ġqualifiz ieren
ĠImm un
ĠEhr endoktor
ĠKÃ¼nst lers
Ġphilosoph y
ĠGab rie
Ġdokument iert
Origin altitel
? !
C arl
H N
J ames
S ol
m aus
n t
z ien
in ische
on enten
Ġt olle
Ġb old
ge ht
ĠP ause
et ik
ĠW inn
ĠW right
ic ular
ĠC ec
Ġre lief
ĠBe zeichnungen
Ġ18 29
Ã¤nd iger
Ġ4 000
urg ical
ĠNe ed
ĠLand graf
schie bung
ym ph
Ġeinz iger
Ġviel mehr
Ġben annten
ĠProdu kten
pert oire
Ġed it
Ġrequ ests
ĠBra ut
Ġbed s
Ġgemein nÃ¼tz
En glisch
ĠPal Ã¤
Ġoper ated
ĠSpe ktrum
Ġobject ive
do ors
ĠKÃ¼nstler in
Ġvorhand ene
Ġimp ossible
ibr aries
Ġlow est
roll ing
ĠDreh arbeiten
Ġlate inischen
col or
ĠSym pt
Ġcommit tee
Kl ein
mess ung
Ġscient ists
Ġkeiner lei
ĠKÃ¶n ige
Ġvib rant
ĠErober ung
ĠDonner stag
ĠHins icht
L D
L es
N amen
P G
S D
u ous
Ġw eiten
ĠB irk
im ente
ĠW eid
ier i
Ġk reat
ĠSch lÃ¤
tel bach
ĠAn merkungen
ĠAn meldung
art z
ant rieb
ĠBe grÃ¼nder
Ġ18 23
18 75
ĠAus b
use el
ek ten
Ġra us
ĠSc reen
ĠĠĠĠ ĠĠ
mar ine
Ġset up
Ġstr ict
rÃ¤n ken
Ġappro val
Ġprom oting
fel den
Ġpack ed
Ġdirect ory
ĠRem ix
Ġpan els
Nieder lande
Ġunmittelbar er
Europameister schaften
ĠmÃ¤nn liche
ĠSof ia
ĠLoth ar
Ġunus ual
a o
k linik
v ogel
w Ã¤nde
Ġs ight
Ġs olle
Ġb oss
Ġp ics
Ġc ab
Ġc rypt
am as
ĠE llen
ĠE arly
ra f
Ġer a
Ġe c
Ġse gment
Ġ18 31
tell ern
ĠLe gal
los er
olog ists
wer fen
Ġher itage
ĠPr inzen
fÃ¼hr ende
Ġpl ot
Ver band
Ġ24 0
Ġcar pet
Ġgener ated
Ġjeweil ige
Ġpower ed
Ġhinter en
Ġgelang t
Ġdra wn
best immung
ĠLo ire
Ġbede utete
ĠRÃ¤ um
Ġgriech isch
ĠKomb in
Ġumfang reichen
ĠConc ert
ĠGot th
B und
B ud
T ur
U K
W C
g attung
k et
r ent
s wert
w urz
Ġd urften
Ġt reas
ĠS uf
ro u
sch ool
ĠH Ã¤nd
ĠC arn
Ġer re
Ġe if
og o
ĠAn reg
be an
ick ing
Ġent it
ĠLe gend
Ġres idence
ene z
pf el
Ġdesign ers
Ġgu idelines
Ġart work
Be fore
ĠRom ane
ĠHol iday
Ġbef asst
ĠWill y
ĠZusammen setzung
ĠÃĸsterreich ische
Ġprom otion
Ġevent uell
ĠAngel a
ĠKor ps
Pl us
ĠInn ere
ĠRein hold
ĠLu ke
Ġmatch ing
ĠHy per
ĠjÃ¤hr liche
Ð¾Ð ¼
Ehr endoktor
ĠBeweg ungen
ĠKomposition en
ĠSchlagzeug er
ĠVene zu
K ategorie
R h
t Ã¼rk
Ġa cknow
Ġs ank
Ġw ovon
ar isches
ĠS urf
ĠA w
ĠA serbaidsch
ĠM Ã¼l
ĠI van
ĠN athan
os itions
Ġge be
ver gleich
we hren
Ã¶r er
ĠAus sehen
ĠFl Ã¼sse
ĠHer man
ĠDies en
ene ver
ĠNov a
ĠPol ar
Ġschw ach
weil en
Ġbre aking
ĠTechn ical
ĠRed aktion
ĠCom ments
Ġstor ed
ĠMarkt platz
Ġmoder ner
Ġstamm ten
ĠKor re
lager ung
Ġklass ischer
ĠAtt ent
ĠWall fahrts
Ġassist ant
ĠPhilipp inen
ĠSommers pielen
ĠGolden e
ĠMand at
ĠVerteid iger
ĠSem ester
ĠtÃ¶ ten
ĠArchÃ¤ ologie
Ġreligi Ã¶se
ĠSchreib weise
ĠVertra uen
ĠIndones ien
ĠGalax y
Ġumfassen den
ĀĀĀĀĀĀĀĀ ĀĀĀĀĀĀĀĀ
Qual ifikation
ĠKore an
ĠErmitt lungen
H y
H in
Z ent
á º
le idung
ig ne
ĠP iano
Ġein her
sch a
Ġer teilt
ĠSt yle
Ġr ice
Ġwh enever
Ġpro ceed
Ġsch Ã¤tz
Ġor al
ens er
Ġby zant
ĠSe ven
ss itz
Ġges perrt
Ġverb lieb
Ġbel ong
Un ser
ĠIs ol
ĠCon temporary
Aus bildung
Ġinc ident
kon omie
mark et
ĠAp oll
ES S
eint rÃ¤cht
ĠSchiff es
ĠCamp bell
Ġindividu ell
Ð½ Ñĭ
Ġtele phone
ĠElement en
ĠModer nis
Ġrepresent ative
Ger man
Schw eden
ĠAdels geschlecht
Che ck
DE F
Ġdiagn ost
krÃ¤ ften
ĠGitarr ist
Ġworkshe ets
ĠMitch ell
Ġnegot i
ĠSiz ilien
C ons
T Ã¼rk
Ġw esentliche
Ġb att
Ġm ad
ĠT X
ĠT afel
ĠG ig
ĠG ate
Ã¶ ten
ĠV W
ot in
ess piegel
ĠVer mÃ¶gens
Ġam oun
ĠAr gent
ĠEin tritt
Ã¤t igung
ĠDe te
ĠTh om
pl ies
Ġcan vas
ret to
rif fen
Ġpl ane
ĠGes and
ĠUm stÃ¤nden
bo le
ĠPf und
Ġdr ama
Ein ige
ĠRich mond
Ġopp osite
Ġbeautiful ly
ordin ary
Ġmanufact ured
Ġther ap
ĠTit an
ĠPorn o
Ġoccur red
ĠErschein ungs
ĠVerletz ungen
Brand enburg
Ġvorder en
Ġkonzip iert
Ġurauf gefÃ¼hrt
W ol
f lossen
p rem
t ax
Ġa esthet
ĠS ession
he id
le vard
ĠD V
ĠD anzig
ĠG M
ĠE V
ĠL ernen
Ġg lieder
if i
ver ordnung
Ġver letz
Ġsp ots
iz on
our t
enn etz
ĠCh ancen
ĠAb kommen
18 87
ĠY et
Ġsh arp
Ġpr est
Ġro ads
mit gliedern
Ġtra iler
Ã¶l n
rad io
sh ow
ĠÃľber tragung
ĠBundes land
ĠSÃ¼d seite
ĠVers te
ift y
Ġdec re
ĠDre ie
umb ing
Ġant ib
Ġnational er
Ġtro ub
produ ktionen
ĠPoliz isten
ĠProf i
Ġposs ess
Ġgriech ischer
Ġkrit isierte
Ġsuggest s
Ġsort iert
ĠAnth rop
ĠGeschle chter
International e
ĠBesonder heiten
$$ $$
Ġpregn ancy
Ġtiss ue
ĠAbhÃ¤ng igkeit
C hem
S M
b rach
f ly
m essen
p he
as y
ro gen
Ġz Ã¤hlten
sch uh
ĠR an
ĠR ugby
Ġl aden
ers en
Ġre ward
ĠEr neuer
Ġam p
Ġsp iegel
etz te
18 84
ĠGr imm
ĠNach weis
ĠMan ual
Ġcl ubs
Ġacc ord
Ã³ d
ĠRÃ¼ck zug
gar ter
Ġgem essen
ĠWar ner
stÃ¼ck en
fil men
ranken haus
ĠLang haus
ĠLog ik
Â» ,
ĠMaschinen bau
Bundes staat
ĠAltern ativ
Ġsam ples
Ġbewohn t
Bek annte
. [
O pt
R ot
S u
e z
g Ã¼ter
g Ã¤ste
j ord
l on
l ot
w inning
ä º
ch in
Ġd ial
Ġt at
Ġt ired
ĠS L
ro let
om o
ĠL ade
Ġbe zog
Ġre min
ĠZ elle
Ġver laufen
sp anisch
ste il
ant ie
ho le
Ġen vironments
18 89
cht ung
Ġres ident
Ã¼nd er
Ġwork place
wick elt
Ġtr usted
icher ungen
Ġwant ing
ĠKreis stadt
recht liche
leit en
ĠCont ra
Ġschn ellen
Ġgem isch
ĠEnd spiel
ĠBeruf ung
deck ten
BC I
ĠInnen raum
ĠLog o
ĠCy ber
ĠRet urn
ĠDub ai
Ġexcl us
Krit iken
ĠGebiets reform
ĠRÃ¶m ischen
pie ce
ArchÃ¤ ologischer
Ġhabilit ierte
ĠÃ¼berrasch end
F rance
M iss
k os
l Ã¼sse
en ge
es ar
ĠS weet
de en
ĠP ep
ĠT ru
ĠL ater
Ġl adies
ot ischen
ĠO ran
Ġre action
Ġst ages
ĠSch eit
th alter
Ġr ief
Ġch est
ac c
Ġgen Ã¼
Ġgen auer
igh th
Ġgew innt
ĠGem Ã¼se
oh es
Ġseit lich
Sch war
Ġgeb rÃ¤uch
bo und
Ġunder st
ĠFe atures
ĠReich sk
Ġsur ve
ĠMot ors
Ġcheck ing
Ġnatur ally
ĠSalz burger
ĠSum mit
ÅĻ ÃŃ
ĠDÃ¶r fern
ĠVort rÃ¤ge
ĠCook ies
ĠRon ald
ĠKÃ¶r pers
ĠFore ign
ĠVertre tern
ĠArz ne
ĠGlÃ¤ ub
Ġbedro ht
H E
V arian
a ÃŁen
a endert
d ig
k rat
Å ĳ
or ama
ur de
Ã¤ ums
ĠM ater
ĠT ir
ĠL iz
ed a
Ġan treten
ik alen
ĠRe chnung
end ungen
se arch
Ġle ere
Ġvor geschlagen
ob ody
ĠGe fÃ¤
18 70
18 81
pp ich
ied ler
ĠSh aw
kl oster
wohn ung
Ġfl or
anc ement
Be griff
Be wegung
Ġersch ossen
cy cle
ĠChe ft
ĠPer ry
Ġbezeichnet en
iro u
ĠSteuer ung
Ġcontrib utions
ĠLoc ation
wechs eln
Ġhum ans
CA A
ĠKult us
Ġforder t
Ġconven ience
Pla y
Ġinstant ly
ĠKonzentr ations
Ġentreprene ur
, .
N och
W E
W al
n est
r h
s iedlung
Ġt we
Ġb ands
st ationen
ĠP un
ĠP ank
Ġc oc
ĠT ell
ĠF Ã¶r
ĠG ill
ĠK od
ĠR achel
ĠL A
Ġth esis
ck et
Ġmit ten
Ġr Ã©
Ġde kor
od ont
Ġ18 19
ov ice
ĠSie b
ĠSie gel
Ġen de
ster ben
able d
orn o
Ġob s
gew achsen
ĠHaus halten
app ed
ĠCon vention
ĠWil le
Pro vinz
ĠGener ationen
ĠMenschen rechts
ĠTo ul
ĠArchite cture
ĠPra ger
ĠDenk m
ĠTur b
ĠEt appen
ĠEigen schaft
ĠTages zeitung
Ġapply ing
system s
Ġsouth ern
ĠBarth ol
Ġbetroffen en
Ġsinn voll
ĠPerspekt ive
ĠSchwein furt
ĠNAS A
M oll
P sych
W inter
e u
i ov
Ù ħ
Ġ ]
Ġb elt
Ġf iction
Ġh Ã¶r
Ġz weis
em eter
ĠH enk
ĠL arge
um pen
Ġbe ur
og an
aus stattung
ud ium
ov ic
Ġcom plicated
ho ur
ens ions
ian i
ele kt
Ġhas n
Ġover look
Ġ13 00
ĠÃľber reste
Ġverb re
ĠLandes straÃŁe
Ġinv ite
ĠLebens jahr
ĠBel ow
the orie
ĠTechn ische
bereich s
Ġâ ĪĴ
Ġdre hte
ĠHeil ig
azz o
ĠRegel ungen
Ġeinzel ner
Ġamong st
ĠDisk uss
ĠtÃ¼rk ische
Ġsmart phone
Comp uter
ĠMari anne
Ġbess eren
ĠSyr ien
ĠSkulpt ur
HÃ¶r spiel
ĠPiet ro
Look ing
ĠKolumb ien
Ġhinger ichtet
+ +
B urg
B ear
E ss
L Ã¤ufer
f eind
g am
o zi
t iere
w achsen
ĠS Ã©
al itÃ¤t
ur ious
Ġf lying
us che
ĠA part
st lich
st ufen
de p
ĠH Ã¼rden
ĠL amb
Ġ2 30
Ġer setzte
ĠZ ach
Ġwor auf
18 83
az ier
ĠFl u
Ġgen uine
Ã¶ff nung
imm ern
Ġac ts
ĠMon th
Ġact ress
Ġart istic
Ġgener ell
ĠHistor ical
brÃ¼ ck
ĠMaterial s
bra uch
Ġkathol ischer
spl an
Ġdeep ly
Ġgere gelt
ĠPot ential
ĠTisch tennis
ĠAgr ar
wÃ¤l der
spann ung
ĠLaus anne
Ġegg s
Ġausgesch ieden
ĠMÃ¶nchen gladbach
scrib e
S yndrom
b sp
c ro
w Ã¼n
Ġd oppelt
Ġt ran
or men
ĠM essen
ĠD up
ĠP Ã¤dagoge
Ġh az
Ġein fluss
ĠT ommy
ĠG Ã¤
ĠK unde
sch wei
ĠW onder
Ġl okal
ĠRe quest
Ġvor gegeben
18 72
ĠGr ies
ĠVor haben
ĠUnter b
Ġcomp act
ĠSchw ab
ĠBr id
kl ang
ĠSÃ¼d korea
Ge ographische
ĠVers uchs
Ġpar lament
unn els
Ġtrans l
ĠProfess ur
OR D
ĠKurz film
ĠrÃ¶m ischer
Ġwatch ed
ĠFrÃ¼h stÃ¼ck
museum s
Ġselten er
Ġcaus ing
grÃ¶ÃŁ erung
Ġdescrib es
ĠColumb us
ĠÃľberg angs
ĠRay mond
Ins gesamt
Ġaim ed
ĠjÃ¼nger er
ĠPir aten
[...]
