#version: 0.2 - Trained by `huggingface/tokenizers`
e r
Ġ Ġ
e n
c h
i n
Ġ d
ĠĠ ĠĠ
i e
u n
s t
a n
e i
o n
e s
a l
Ġ S
s ch
t e
a r
e in
g e
a u
o r
un d
u r
Ã ¼
a t
Ġd er
i t
Ġ w
Ġ s
i ch
e l
Ã ¤
Ġ und
Ġ v
Ġ A
Ġ B
e t
Ġ b
a s
Ġd ie
un g
Ġ D
Ġ i
Ġ 1
Ġ M
Ġ in
e m
Ġ ein
Ġ (
a m
h r
ĠĠĠĠ ĠĠĠĠ
Ġ m
Ġ n
Ġ z
Ġ K
o l
d e
Ġ F
t en
Ġ G
ĠĠ Ġ
Ġ P
Ġ E
t er
Ġ au
Ġ f
l e
g en
i s
t i
d er
Ġ H
Ġ W
Ġ T
i sch
d en
Ã ¶
Ġ R
Ġ L
t r
a ch
i l
â Ģ
b er
u m
Ġ er
Ġ I
o m
u s
r e
an d
Ġv on
Ġ V
Ġ1 9
c k
Ġ 2
Ġ h
u t
r o
Ġ N
l ich
Ġ J
a b
i on
i er
Ġd en
s e
i g
i r
Ã¼ r
Ġ C
Ġ k
en t
Ġ ge
Ċ ĠĠĠĠĠĠĠĠ
ei t
ĠĠĠĠ ĠĠĠ
Ġd es
in g
Ġm it
Ġi m
Ġ g
Ġ an
) ;
Ġ al
Ã Ł
Ġd as
r a
an n
Ġ2 0
r ei
u l
Ġ O
Ġau f
Ġz u
a d
f t
i st
i k
Ġ t
e st
Ġ Z
Ġ o
ie l
s en
Ġ U
Ġv er
Ġ l
e b
ĠS ch
a hr
Ġi st
a g
Ġ p
f f
el l
Ġf Ã¼r
Ċ ĠĠĠĠĠĠĠ
i c
Ġw ur
e h
Ġ âĢ
Ġd em
ĠS t
Ġ =
Ġ {
s p
v er
h e
at ion
isch en
w ei
a h
i en
ich t
ĠI n
ĠV er
ĉ ĉ
e d
Ġau s
ti on
Ġal s
Ġ st
o t
ĠD ie
r i
Ġein e
o s
e u
Ġ Ċ
e g
Ġ }
Ġs ich
o w
Ġwur de
Ã¤ n
Ġ un
Ġ r
m en
er n
al l
Ġb ei
c e
in d
e w
k t
ĠA n
b en
g er
Ġ c
sch a
s er
Ġw ar
) ,
o ch
ei ch
a p
ĊĠĠĠĠĠĠĠĠ ĠĠĠ
es ch
o p
ĠJ ahr
h n
ĠE r
o g
er t
Ġs ein
ung en
en d
ei l
Ã¼ ber
i m
Ã¼ n
u b
ge t
u f
u ch
e hr
or t
l in
0 0
Ġau ch
Ġw ir
et z
isch e
r ie
( )
st er
e ut
Ġ20 1
a te
Ġb e
ur n
ĠS p
es s
Ġ Ã¼ber
scha ft
Ġn ach
st en
Ġ sch
an g
l er
e c
l a
ung s
ur ch
m er
Ġ j
r an
Ġ am
r u
g t
ĠU n
l ie
i d
Ġb is
as s
o d
ĠE in
âĢ ľ
eut sch
ar t
n en
Ġn icht
au s
Ġ1 8
Ċ ĠĠĠ
Ġ a
ĠA r
Ġs ie
Ġz ur
âĢ ĵ
Ġw er
Ġ20 0
1 9
er s
i z
ĠâĢ ŀ
ol l
Ã¶ r
et urn
ĠA l
ĠS tr
te l
I n
q u
u g
Â ł
e x
Ġz um
Ã¤ t
Ġ 3
e ch
Ġ um
Ġwer den
Ġein er
Ġ es
ch en
Ċ ĉĉ
Ġv or
p e
Ġw ie
ĠâĢ ĵ
a k
t s
ĠS ie
i v
Ã¶ n
am e
Ġun ter
Ġh at
z en
ĠP ro
Ã¤ r
Ġwir d
D ie
st ell
i b
Ġd urch
ge l
Ġs ind
Ġ ab
h l
h al
Ġo der
ĊĠĠĠĠĠĠĠĠ ĠĠĠĠĠĠĠĠ
ter n
or d
Ġ "
ĠE n
isch er
en n
au f
i gen
Ġi hr
u e
Ġ ent
or m
Ġi f
Ã¼ ck
Ġein em
h er
k s
a ge
e p
ul l
ch e
te t
l o
) .
ge b
Ġ tr
eb en
g r
p tion
st e
Ġ re
ar b
ĊĠĠĠĠĠĠĠĠ ĠĠĠĠĠĠĠ
lich en
Ġ Ã
ĠB er
Ġein en
ei ter
el t
ĠM it
ier t
Ã¼ hr
u d
u p
Ġ19 9
er k
ĠD er
/ /
r Ã¤
ub l
Ċ ĉ
l and
n er
o k
E x
e k
ah l
Ġs p
ur g
ĠA us
u st
il d
r it
ti g
o de
e f
o b
( );
p l
i a
i ck
at z
p ar
S tr
ĠA b
il l
i ge
sp iel
us s
h en
r au
ad t
rei ch
el n
ĠG r
e z
ĠO r
ar d
Ġn ew
i f
lich e
Ġ -
ĠM a
o f
Ġdas s
om m
in z
ĠA uf
wei se
at ur
ei ten
a v
p f
e y
o hn
ce ption
Ġn ull
i al
g es
ĠM ar
ĠC h
2 0
Ġr eturn
o v
a st
a y
s s
in al
a c
Ġt he
1 8
Ġ19 8
Ġ 4
Ã¤ l
an z
t h
u ÃŁ
ĠN ach
m al
Ã¤ hr
et er
ĠD as
an t
it z
i p
o ur
Ġz wei
ĠL and
S t
ein e
at en
ab en
l en
ĠĠĠĠ Ġ
at h
Ġo f
m e
ĠV or
ubl ic
Ex ception
l ass
Ġ +
te m
on n
Ġ //
om p
Ġs o
or en
ver s
al t
Ġ( *
ĠI m
b urg
Ġd eutsch
p t
. .
eit s
in e
o c
ĠH er
e v
rei s
Ġ19 7
am m
ro ÃŁ
p r
ich te
ec t
ul t
p er
b j
Ġ 5
Ġn och
Ġb est
p h
Ġn eu
y pe
Ġn ur
( "
on t
f ol
h t
k en
Str ing
ber g
a ck
Ġs ow
Ġm ehr
Ġwur den
Ċ ĠĠĠĠĠ
Ġ 0
at t
ĠF l
f l
der n
i le
Ã ©
s h
ut z
b au
b ar
ĠStr ing
Ġv om
ab le
Ġan der
ach t
ĠB r
l eich
en s
Ġ19 6
a f
etz t
in t
sch en
N ame
it ion
ĠZ eit
ation al
ier te
Ġz w
it Ã¤t
Ġl ie
ei ster
ĠD eutsch
b r
b e
l em
p en
Ġge w
W eb
il m
Ġa ber
par am
ĠA m
om men
ei m
C on
el d
i an
r eturn
k eit
al ue
n et
Ġdie s
ĠSt adt
it er
Ã¤ ch
Ġ19 4
n is
lin ks
D er
E n
Ġ1 7
ier en
Ġm an
a z
ah n
ĠP l
r ich
l ag
Ġw eiter
un k
Q u
Web links
el le
Ġp ro
s k
Ġ et
d u
n e
Ġb er
l os
Ġ e
l ei
a gen
i o
hr ow
o ck
ĠK on
p ublic
Ġ 9
Ġk Ã¶n
ĊĠĠĠĠĠĠĠĠĠĠĠĠĠĠĠĠ ĠĠĠ
Ġsow ie
i re
Ġk ann
Ġb es
ĠR eg
f ten
it y
ĠT he
f er
ĠG em
Ġ19 5
r es
Ã¼ t
Ġd e
m ann
g esch
eh en
f Ã¼hr
m it
ar k
f orm
a in
Ġ 6
Ġ &
d em
ĠF ran
as sen
Ġd ar
Ġ gen
ol it
e gen
ei te
Ã¼ d
ti v
am men
en z
l ung
i te
Ġ le
at er
ol og
ff en
f ahr
Ã¤n d
h und
ch t
g lich
sch ie
as e
r Ã¼
ik er
g lie
ol le
ĠSp iel
E inz
Ã¶ l
et h
p ro
er v
P ro
ei gen
y m
et t
Ġ ex
ĠG esch
ru p
f en
Ġ el
ĠB ei
em ber
i vers
Ġge gen
Ġwie der
w er
z eich
o st
Ġein es
S B
l i
spiel er
at a
ĠJ o
ier ung
ach weise
Ġs oll
t eil
ĠUn ter
ĠM us
ib t
ik an
Einz eln
st an
ĠK l
ĠB au
Ġsein er
lie ÃŁ
T ype
Einzeln achweise
und en
A n
Ġ19 3
Ġ= =
z eit
Ã¶ ff
hund ert
ie der
s b
Ġ1 6
ĠT h
s et
Ġt h
is sen
eh men
Ã¼n d
or g
- -
Ġsein e
a is
Ġ1 5
am en
ie le
ĠU S
ann t
Ġ ich
Ġf or
ÃŁ e
Ġdie ser
ig er
ic e
ge ben
ar l
i um
Ġh aben
SB N
ĠGem ein
an s
u le
in n
ĠI SBN
s el
Ġg es
u te
ĠJahr e
e kt
b all
Ġhat te
ĠG es
us ammen
ĠE s
h eit
at or
b st
ab e
Ġt o
ell en
r ach
e ck
ĠU m
ĠG eb
m ein
y st
Ġge t
Ċ ĊĠĠĠĠĠĠĠ
Ġbe f
bj ect
ers on
w a
Ġ 7
al s
S ch
n ah
al e
in gen
I m
ie s
D as
ĠT eil
ĠJahr hundert
L ist
h Ã¶r
A l
Ġg r
ĠK ir
A r
Ġ 8
og ra
ĠR o
ĠkÃ¶n nen
Ġzw ischen
or f
ie t
Ġb eg
im m
e an
y n
iter atur
on g
ĠB l
ĠJahr en
Ġ !
am er
tr ag
et en
Ġs el
Ġj e
o ff
ĠH au
Ġt hrow
ad d
in ter
Ġwar en
w ar
k l
ĠÃ ľ
t o
ĠS o
w ick
ĠSt a
U n
ei st
on der
ur op
is s
E r
Ġ en
at ch
Ġs eit
p ut
yst em
f all
) )
e qu
ĠEn t
Ġk l
al d
g l
1 7
Ã¶ s
iv e
I N
o un
ar r
() .
Ġ Y
Ġr es
Ġi s
h m
Ã¤ hl
ĠB o
am il
Ġb et
und es
Ġj ed
Ġg roÃŁ
in der
z eu
R es
ĠĠĠĠĠĠĠĠ ĠĠĠĠĠĠĠĠ
en er
Ġ Qu
an k
ol d
Ġf ol
l es
ap p
a il
w erk
t or
te x
Ġdie se
ĠBer lin
ĠW elt
y p
hal ten
Ġzur Ã¼ck
Ġ and
ÃŁ en
er en
" ,
ĠS te
Ġer h
ĠUn ivers
Ġ <
ing s
it t
or e
Ġd rei
at s
Ġbe k
f or
as ser
Ã¤ ter
st r
st ra
ge w
ĠI hr
I d
ĠAr b
or den
o ol
1 0
Ã¤ d
on d
Ġ1 0
" );
m a
scha ften
ti l
m ent
m in
00 0
eh t
V er
Ġer sten
m us
Ġd ann
() )
our ce
i ff
Ġh er
ĠL ist
ĠP h
ti gen
o id
ex t
iel t
rie g
in den
gen d
ĠE x
Ġ1 4
am t
Ġbei m
Ã¤ u
o hl
ĠB e
ei d
t schaft
Ġge hÃ¶r
an gen
ĠW ir
st and
Ċĉĉ ĉ
Ġd am
al en
Ġh eu
z e
Ġer st
r om
ĠÃľ ber
n ung
Ġ :
Ġ! =
la ge
ation en
k e
ĠA d
E R
1 6
tex t
ent lich
stell t
Ġ1 2
Ġal le
Ã¶ glich
l au
an der
fol g
Ġin t
Ã¤hr end
z u
Ġw enn
âĢ Ļ
um ent
el s
w end
Ġg ibt
or n
b t
rie d
ĠF ilm
ĠP ar
Ġdeutsch er
ri v
k er
ĠC hr
il der
() );
glie d
m eister
Ġk onn
hn e
Ġth is
un st
Ġg esch
ĠN eu
an ge
ster reich
Ġan ge
o ber
c tion
Ġ eigen
ĠM en
= =
h aus
Ġihr e
Ġh ier
1 5
ĠO ber
ĠG er
a x
Ċĉĉ ĉĉ
as se
Ġ1 3
ĠB undes
b ild
f Ã¼
r en
e am
de x
ĠSch w
ĠÃ ĸ
Ġaus ge
Ġf inal
ĠL eben
m an
ĠH and
z w
G eb
ĠZ u
Ġjed och
v or
er e
ĠA ut
ist or
ĠGemein de
Ġ ch
ein en
f e
Ġun ser
Ġf Ã¼hr
Ġ19 2
Ġv iel
rie b
au er
sch l
und e
y s
Ã¶n ig
ĠE l
ist er
k tion
L iteratur
uÃŁ ball
ra d
ie d
sp r
1 2
r at
ĠL e
ig n
o u
.. .
Ġ |
1 4
Ġs ehr
re u
ĠA ug
Ġd a
Ġel se
oun t
t on
O N
ri ft
l t
en tr
lich er
it h
Ġsp Ã¤ter
in a
ar ten
C h
f ig
t es
s atz
ru ck
Ġv oid
on e
un i
ab ei
ĠB es
iz e
m ar
b o
Ċ Ċ
7 8
i den
z er
ĠDeutsch land
st adt
ĠJ an
ĠF rau
ind et
Ġw el
ur e
( ),
sch e
au t
a der
iel d
f ach
ĠR e
O r
ĠR ech
ti ge
p ert
ess ion
i x
ĠP f
P ar
ĠF or
te d
Ġet wa
Ġ /
ĠG e
ĠJ ul
ier ten
re ch
Ġi hn
schie den
ra y
Ġg leich
hal b
Ġw as
Ġh in
ĠB and
ĠM in
Geb oren
p on
Ċ Ġ
ĠF amil
1 3
ĠB et
ei g
S p
st ein
at ic
ur t
V alue
i de
ation s
ĠM on
h of
s etz
Ġ ar
au m
Ġin s
Ġ *
b l
ĠM ann
am p
ĠP r
a de
ge mein
ĠGr und
Ġlie gt
ĠK Ã¶nig
s on
Ã¤r z
stell ung
Ġdies em
al er
ĠL u
ur z
en den
ĠPl atz
o sten
un kt
ĠP erson
g ang
Ã¤n ger
ĠN ord
ĠM Ã¼n
en de
Ġber eits
Ġz usammen
Ġg er
ĠAug ust
ĠG roÃŁ
M it
Ġsein em
en k
Ġc on
ien st
Ġw o
Ġsein en
ĠEn de
gt h
ĠS h
Ġ eh
or k
ĠE urop
ist en
ĠFran k
in k
ĠVer ein
ĠW est
rÃ¤ s
u ar
Ġim mer
Ã¤n der
s g
ĠN ov
tern ehmen
w ir
z ial
Ġander en
ĠOr t
Ġb esch
ĠM an
amer ikan
r icht
ol f
al ien
Ġver l
Ã¶ ÃŁ
s uch
issen schaft
r on
rup pe
u ff
2 00
ĠP art
t t
ult ur
) );
eit ung
ber t
Ġver b
Ã ¡
Ã¤ uf
re d
ĊĠĠĠĠĠĠĠĠĠĠĠĠĠĠĠĠ ĠĠĠĠĠĠĠ
ĠJ uni
ĠV ol
C lass
M ann
Ã¶ ch
ĠR ei
ĠS e
Ġsch on
kt ober
ĠM ed
Ġer ste
Ġk eine
[ ]
Ã¤ m
s o
ĠW ei
Ã¶ff entlich
ĠK unst
k ehr
ti k
Ġ )
ĠB ez
tern ational
Ã¤l t
re g
a den
ĠJul i
b ach
Ã¼t z
Ġun s
Ġge l
N ach
Ġihr er
Ġsel bst
tem ber
ĠHau pt
ais on
ĠB ild
ĠC on
Ġkonn te
ĠP olit
la gen
Ġfol gen
Ã¼r ger
2 1
ĠP ol
Ġheu te
ep tember
z ahl
erv ice
in nen
h ann
f inal
ĠH o
ĠH och
omp on
k eiten
ĠĊ Ċ
u ten
gr und
I D
olog ie
o ut
le g
Ġein z
ĠMa i
Ã¼n f
ich er
m Ã¤
Ġl etz
ĠG ew
ĠO ktober
Ã¼ l
5 0
Ġv ier
o ten
an den
st Ã¤nd
Ġp ar
an is
ran z
pr il
ĠVer b
Ã¼n st
k reis
ĠS Ã¼d
ig keit
ie f
Ġt eil
Ġein ge
ier e
ĠH aus
ĠF Ã¼r
ĠG ra
pon se
isch es
ach en
h a
ĠMus ik
r y
ĠSt ud
c c
tr y
Ġs on
ĠPro du
Ġd ort
ti er
mit tel
. )
ĠB est
ĠM Ã¤rz
ing er
l ig
Ġver schieden
ĠF rei
el m
i tel
Ġ19 0
lo ck
Ġ eben
ĠJan uar
Ġk am
S ie
f o
Ã¤n g
w alt
Ġst atic
ĠS eptember
sch lieÃŁ
b uch
Ġi hm
ĠA k
om mer
ĠJ u
de ut
ez ember
ĠF ried
ĠI I
ĠT r
as h
re ate
1 1
Ġ& &
c ode
Ġo hne
Ġw en
ogra ph
Ġdam it
sch n
h au
es sen
Ġal ler
unk tion
ag er
ĠF ol
Ġneu e
os ition
A us
ĠM o
ĠKir che
ch er
op h
ĠA pril
er b
Ã¼ s
ur r
ie b
f eld
or ben
fall s
lin e
ĠW asser
ĠB eg
ĠNov ember
o gen
equ est
r ik
ĠK inder
ĠO l
f ang
n ew
le x
ess age
c on
al is
d r
ĠK omm
-- --
ĠChr ist
zeich net
ĠW erk
ĠUnivers itÃ¤t
ĠLand es
ĠW eb
ro up
Ġ X
b ahn
D eutsch
w ahl
h eim
ern se
Ã¶ st
ĠN ational
Ġer folg
Ġ .
Ġb el
ĠJo hann
a ce
al se
K ey
Ġge f
re cht
es en
ĠStr a
al ter
z ei
Ġw Ã¤hrend
A T
ĠB uch
e um
un ter
m s
Ġ Â
ĠD ezember
Ġbei den
st it
te te
Ġal l
em al
ĠD ar
u tion
ell schaft
ĠN ew
ion en
ĠDie se
č ĊĠĠĠĠĠĠĠ
h ol
Ġst att
eth od
Ġsp iel
hal t
p p
sh all
ĠT ra
Ġer sch
ĠList e
ot t
ĠF ahr
l an
r or
Ġgr Ã¶ÃŁ
ĠGesch ichte
ti m
lem ent
kt u
ĠU r
E N
Ġo b
M ap
ĠV on
ĠĊ ĠĊ
ĠR eich
Ġb en
ĠAl s
Ġ %
c t
Ġ18 9
O bject
is h
ĠS aison
ĊĠĠĠĠĠĠĠĠĠĠĠĠĠĠĠĠ ĠĠĠĠĠĠĠĠ
mal s
t ag
Ġ on
im e
âĢľ ,
ĠZ wei
eb ru
ĠIn ter
ĠF re
ĠW ert
ebru ar
Ã¤ hn
ĠMen schen
Ã¤ch st
w ohn
Ġ3 0
Ġg anz
em ent
E in
h in
ti f
c o
a w
ach sen
ym p
R equest
fÃ¼hr t
kt ur
A m
Ġer n
l auf
Ġneu en
ranz Ã¶s
ĠD urch
č Ċĉ
ool ean
ar n
g leich
ĠEin e
ĠF orm
ei le
ĠâĢ ł
g abe
os s
n ame
Ġ( âĢ
Ġ201 0
Ġm us
ff iz
n eh
ĠD aten
li ent
ĠMit tel
de ck
at iv
ĠUn ternehmen
Ġ it
Ã¤ tig
ar i
âĢľ .
stell er
c ri
ĠG l
ri ff
Ġf est
er st
k on
ĠZ w
ĠA t
ĠF r
ig ung
Ġ201 8
ach e
Ġ '
Ġdies es
v ent
ĠIn d
ĠVer lag
b ew
f te
ire kt
Ġge b
Ġ9 78
v al
ĠN ieder
Ġihr en
stra ÃŁe
Ġd abei
Ġ u
Ġst eht
Ã¤n de
ogra f
ĠT ag
Ġ ur
ĠÃ Ħ
D ata
a ar
ĠG ener
Ġv alue
h and
rÃ¤s iden
am es
los s
G esch
ĠF ebruar
sch utz
Ġh abe
ĠH am
sch ule
eh n
ĠS er
Ġ201 1
stan ce
Ã Ń
A t
de te
ĠMit glied
ĠSch l
ech n
Ġthrow s
Ġz un
ie w
ĠS k
Ġg ab
Ġ qu
Ġk on
rup pen
Ġ201 2
3 0
ĠW ien
Ã¤t z
k ommen
app end
Ġge st
az u
Ġ201 5
Ġ arb
R E
ver b
ĠSch ul
ann te
Ġ200 9
Ġ200 8
ĠW il
zeu g
ĠAr ch
st ru
ti ert
Ġd u
ĠE m
A d
ĠSch wei
Ġk omm
Ġb ew
Ġ201 6
ĠM al
19 9
ĠN amen
ro w
ech s
it zen
Ġdes sen
a kt
Ġb zw
ĠH al
lin k
s ol
len gth
Ġ >
Ġ201 3
M ar
Ġf rÃ¼
il it
tr Ã¤
ĠR om
o ub
Ġw ei
Ġ201 4
eu er
as k
ĠH Ã¶
ar ch
i der
Ġs ei
ĠVer s
i us
le gen
Ġ2 5
ten t
oll en
p unkt
h ein
wick lung
rei chen
ĠMÃ¼n chen
ich tig
u er
Ġ201 7
sch ul
tr ib
Ġs Ã¼d
ie g
F ile
p el
s st
nah me
u ilder
ĠR ep
Ġweiter e
Ġder en
uch t
ubl ik
S T
th is
ei den
ĠF uÃŁball
ÃŁ er
Ã¤u de
Ġn ot
Ġer reich
Ġ200 7
Ã¼nd et
Ġl ang
Ġbes onder
ĠE d
Par am
est er
Ġ200 6
Ġc atch
is k
ĠPh il
an st
ĠAr t
in en
los sen
T o
oub le
nis se
o te
ĠW ohn
wei l
Ġdeutsch en
c es
O ver
Ġtr ue
qu est
fahr en
Ã¤hl t
Ġerh ielt
rie ben
ĠG egen
ĠK arl
ĠD u
riv ate
schl uss
ĠA uch
Ġ1 1
z ug
ge stellt
um en
geb iet
d orf
ri de
Ã¼ ss
schie d
Ġn ah
B y
N ode
uf en
L eben
Ġg ut
P ath
ĠPro f
ĠR Ã¼ck
h o
Ġf inden
ĠK rieg
ĠSch au
Ġ18 8
Ġein fach
S et
ĠZ usammen
ech sel
Â Ń
w eg
Ġson dern
Ġal lem
Ġ at
Ã¼ b
f ra
em en
f ern
ĠC o
ĠB ew
Ġh and
Gesch ichte
p s
ĠN atur
ra ft
sch er
Ġp ublic
Ġf ranzÃ¶s
ĠS c
Ġeh emal
ig t
al ten
Ġst ell
z ent
y l
k ir
us e
Ġ or
ow n
ar e
reu z
al if
Ġtr y
mÃ¤ ÃŁ
ĠFried rich
w as
ĠS al
k rieg
a i
ĠB ahn
Ġ2 4
Ġf alse
w e
ĠK n
A b
w est
is mus
ĠArb eit
ein er
im mer
ĠK r
ran k
urr ent
ĠPolit iker
Ġn un
Ġm uss
Ġh o
Ġb ie
p ort
at ive
ĠH ol
stell en
ĠFrau en
Ġbef indet
ĠM eister
ĠT itel
Ġander e
ti gt
Ġb r
ĠL ehr
Ã¶ m
ĠPerson en
ad em
A R
h ard
at us
ĠD an
Ġge mein
ĠS ystem
Ġ200 5
ĠI l
ĊĠĠĠĠĠĠĠĠ Ġ
au l
Ġf Ã¼nf
Over ride
ur s
Ġv iele
ĠDie s
Ġer w
o ge
Ġd i
ĠB ay
rei b
ernse h
amerikan ischer
A L
c om
en nen
Ã ³
ĠReg ion
G est
am pf
T ra
ur m
d ings
in er
ĠD i
ĠR es
Ã¤n ge
e ad
pert y
O R
k te
z iel
Ġbek annt
v en
sp ort
ĠH ein
ĠBer eich
re chen
Ġ18 7
ĠI s
glie der
2 5
ch n
ei tet
ĠBer g
el e
Ġp er
ĠW er
gr amm
ĠM ich
ĠWeb s
ĠSp ort
hn en
er g
ĠFl ug
4 0
ol um
Ġden en
ĠIn form
ar m
ges etzt
ĠS eite
on s
Ã¤ ft
tr agen
ĠK ap
le gt
s am
ĠB Ã¼
ĠS tel
ĠM od
Ġres ult
ra g
Ã¶r der
ie h
Ã¶l ker
Ġa ktu
j ahr
ĠLeben s
Ġw orden
ri d
j ekt
ĠD es
Ġ y
ĠSt and
ich ten
Ġ20 00
Ġ [
2 2
h Ã¤lt
w ig
as st
ĠK reis
em a
Ġsoll te
Ġ200 4
ĠF est
ĠM ill
. ,
Gest orben
E lement
p rÃ¤
Ã¤ h
Ġbeg ann
s icht
ec tion
ĠM et
Ġ Ð
pl atz
h elm
zen tr
ĠL in
Ã¶ sterreich
Ġ18 6
a ff
f r
Ġeben falls
ĠB el
Ġr und
ĠR ad
eite te
ĠB Ã¼rger
neh mer
Ġm Ã¶glich
kl Ã¤r
ĠFamil ie
Ġer halten
gl isch
ĠEin wohn
j Ã¤hr
ĠG ef
ĠL ei
Ã¼nst ler
Ġje weil
Ġb oolean
Ġzun Ã¤chst
g or
b um
isch of
Str eam
ĊĠĠĠĠĠĠĠĠĠĠĠĠĠĠĠĠ ĠĠĠĠĠĠĠĠĠĠĠĠĠĠĠĠ
sch rift
ĠS a
ri te
ĠA uÃŁ
Ġb y
ut t
et te
ĠDeutsch en
er y
Ġz ahl
up er
l y
l u
ĠS ohn
ĠO n
ĠJu gend
ar s
g te
Ġa k
ĠB en
Ġdeutsch e
M od
ir k
ont ain
Ġdie sen
Ġ te
uff er
re ck
ab el
ĠP er
ĠD r
Ġau ÃŁer
Ġletz ten
Ã¼ hl
Ġwel che
g aben
ĠE is
Ġ ,
ĠL ie
w ort
ov e
w and
c lass
ann ten
ĠN ame
b lem
Ġb eh
tr eten
Con text
Ġet was
tiv e
ĠG en
+ +
f ilm
Ġ ro
Ġ200 1
Ġ1 00
Ġ201 9
sp rach
Ã¤ re
ĠF ra
w ert
č Ċĉĉ
Ġ em
ar y
== ==
e e
Con fig
ur en
ĠS ommer
bild ung
us er
ap an
A N
iss ion
ĠO st
o se
st ag
at es
ĠFran z
G e
in o
ĠS an
8 0
le hr
la y
A uf
ĠF ach
Ġein ige
k auf
p or
ĠAn d
Ġh ei
Ġver Ã¶ffentlich
om b
gen ommen
h Ã¶
ĠHer z
alt ung
ĠH ier
den k
v e
ĠK ultur
ess or
Ġ200 3
Ġ end
enn t
fol ge
r sg
u ck
in s
f urt
ĠSp rach
ĠM ag
ĠO bject
in de
U til
z t
ĠW eiter
ath ol
ĠÃĸ sterreich
Ġander em
et s
Ċ ĊĠĠĠĠĠĠĠĠĠĠĠ
Ã¼ck e
ut ter
Ġkomm t
Ġge ht
ĠIhr e
ĠB ar
ĠP at
au lt
ĠG el
Ġsch w
Ġin ter
M an
Ġ| |
ig ht
Ġd azu
ĠF ot
ĠS eit
Res ponse
a j
am ent
Ġge gr
ĠW ahl
ĠT od
ĠB as
eth ode
och en
ran s
is e
Ġ ev
Ġn eben
Ġgew ann
Ġin ner
H and
st off
Ġent wick
Ġ200 2
Ġsch n
il ter
tor y
ĠO bj
Ġ199 0
ĠC ar
In dex
4 5
S S
Ġ2 2
Ġs et
b ei
o ver
on nen
Ġ x
U R
M essage
g ument
ĠC l
ĠHer r
č Ċ
č ĊĠĠĠĠĠĠĠĠĠĠĠ
arb eit
Ġk ommen
d ruck
Ġ2 1
ĠSch n
e er
an ce
Ġver m
P D
f Ã¤l
rau m
it ter
ĠH eim
B ei
in anz
rÃ¤siden t
ĠKir chen
Ġab ge
6 0
ic a
S ervice
rit er
n a
Ġ2 3
Ġre g
ĠgroÃŁ e
ĠVol ks
ĠK ar
se e
o und
M E
ĠH ans
ot or
ĠgehÃ¶r t
ilit Ã¤r
In fo
Ġdar auf
k m
D R
sch ein
d ate
Ġauf ge
Ġm ir
ĠJ ohn
Ġf rei
St ate
che ck
ĠW ie
hr en
ĠgroÃŁ en
Ġw ill
able d
et ter
ĠB esch
ĠPro v
ĠGr Ã¼n
ĠT er
h af
ĠL a
al itÃ¤t
B uilder
ĠK o
ur ger
Ġk ein
ĠH il
imm t
ber eich
ĠS el
Ġver wend
nah men
st Ã¼tz
L E
ĠIn tern
ĠSch iff
b ez
u k
u es
ser v
R eg
Ġv oll
an ten
ĠOl ymp
Ã¤ che
b et
en der
ĠP eter
2 3
Ġihr em
sch w
Ã¤ ten
rei che
ĠJahr es
Ġl assen
l ang
Ġge m
ĠN e
ek te
F uÃŁball
re uÃŁ
h le
sp iele
d ig
lo se
< /
ĠAl l
Ġals o
F ield
gesch ichte
ĠEr z
h ei
ĠD a
ell er
ti c
icht ung
ĠT eam
ges amt
d ienst
r em
O Exception
ind ung
7 0
nah m
un ft
av a
Ġ5 0
Ċ Ċĉ
all s
ĠLand kreis
I T
ĠW ill
ĠWil helm
Ġbe zeichnet
op f
Ġm al
ĠF er
Ġ2 6
min ister
W ir
Ġent sp
ĠM or
19 8
ut h
Ġnah m
ĠI ch
b y
Ċ ĊĠĠĠ
Ġd och
h eits
ĠB ern
p rivate
ĠFol ge
z el
il om
bau t
is ion
ig es
ĠFamil ien
D E
ĠS eiten
ri m
ev Ã¶lker
ffiz iel
ot he
ĠSch rift
Ã¶r per
Ġm ich
T ime
e ader
w ard
or s
Ġg ing
T he
ĠSta aten
a el
Ġst ehen
ip p
Ġm o
an c
Ġb rit
um s
I I
an zen
Ġm Ã¼s
Sie he
v alue
Ġhat ten
sch eid
om in
Ġ(âĢ ł
ver ein
Ġ2 8
Ġ199 9
n ungen
Ġher aus
H rsg
Ġ20 20
lo ster
ti me
ge ord
ĠR ah
st a
sch au
ĠMar k
ĠB urg
schn itt
Ġp olit
ĠPart ei
re ak
Ġre ch
y ch
il t
Ġal len
eich t
ing t
. âĢľ
ĠZ entr
ĠA u
ĠD orf
4 8
ĠB i
ti schen
ĠEr n
es se
w elt
ach te
Ġbest eht
E s
Ar ray
Ġst ud
.) :
Ġsch lieÃŁ
ĠO b
z ig
Ġn e
o int
t hrow
O f
19 3
IN G
Ġzwei ten
h Ã¤ng
fÃ¼hr ung
a e
et ten
ĠD em
Ã¤t ze
ĠI t
is se
Ġerst mals
k a
ust r
Ġver st
G roup
Ġersch ien
fÃ¼ g
Ġspiel te
ĠE ur
En try
ĠRech ts
ĠUnivers ity
Ġw Ã¼r
Ġin ternational
ater ial
h eiten
ĠSchau spieler
Ð ¾
y r
arr iere
ar en
ĠHam burg
ig it
ĠIn stit
Ġ2 7
s w
ĠAn fang
ne te
setz ung
d ie
es onder
om it
s ion
ĊĠĠĠĠĠĠĠĠĠĠĠĠĠĠĠĠĠĠĠĠĠĠĠĠ ĠĠĠ
ef in
Ġh och
F orm
Ġin d
ĠG u
rÃ¤ ger
el te
ograph ie
Ġc ase
Ġver w
ĠC omp
w w
um mer
ĠEin satz
Ġre quest
Ġaller dings
Ġ199 8
ĠSta ats
ti sch
Ġw e
ĠT echn
ĠR u
ar a
utz t
ĠG o
for der
ak e
ei gt
Ġh inter
equ als
Ġmehr ere
En abled
ĠK ais
Ġ194 5
ĠH istor
ers Ã¶n
rit ten
> >
ic al
ĠW or
r et
wir tschaft
ĠD re
ĠGener al
ĠVer walt
U S
at ten
ĠY ork
Ġm achen
Ġn ame
ier ungs
Ġden n
t lich
all en
oc ol
ĠJahrhundert s
Ġw egen
ik a
Ġ ?
2 4
ĠRah men
ĠIn ternational
ei sten
ĠT or
teil ung
ĠBet rieb
ern e
l ist
ol e
Ġ( !
En t
Ġst ark
l ungen
ograf ie
ĠOr g
ĠAl t
kir che
lie b
ach ten
ĠArb eits
Ġh istor
Ġk urz
ar get
ĠWir tschaft
sch ung
ĠZ iel
ah er
l og
t ocol
Ġ2 9
ĠA p
an ad
Ġverwend et
ra k
l ow
Ġs ol
ie sen
Ġc reate
Ġo ft
ĠG ruppe
ĠWelt krieg
ĠR aum
i as
ĠS itz
ĠZ ahl
an gel
* *
ĠGe org
Ġl og
av on
trib ute
Ã¤ ss
Ġr el
Ġw ith
g angen
B er
Ġum f
P erson
ĠU hr
Ð °
Ġo bject
es ser
it te
ĠJo se
ein ander
am mer
m l
o x
Ġm ax
om at
ĠLu ft
ĠL auf
ĠR ich
ĠSpiel er
ĠB ad
ĠD ienst
ĠH of
ri ften
ĠPar is
ok en
ig ten
ĠS il
ock ey
uch s
ĠD ort
ĠMann schaft
s weise
ompon ent
Ġ18 5
ĠM art
Res ource
b ack
2 8
Ġsein es
ĠN eben
A C
Ġk ey
ĠF ir
lich es
Ã¤m pf
l ing
I ON
{ @
ĠgehÃ¶r te
Deutsch er
19 6
ser ie
ĠO t
z ep
ĠA mer
eg t
2 9
ĠZ ug
ĠHein rich
2 6
ĠW eg
rit t
Ġ198 0
ilom eter
spr Ã¼n
Ġtr at
stan den
Ġverschieden en
ĠWebs ite
ich tet
at Ã¼r
ĠK Ã¶l
ate gor
Ġ Ã¶sterreich
ic s
an a
ti sche
ĠEinwohn er
d es
Ġf and
ĠBei spiel
4 9
am b
um ber
esonder e
h il
sk i
af Ã¼r
ĠR ef
Ġbe de
Ġ199 6
olum n
g n
le ben
Ġgen annt
k ten
ĠB eh
och ter
un n
s ize
Ġc a
or y
âĢ ¦
ĠG eh
ur ation
Ã¼nd ung
wei ter
b el
la st
19 7
ĠF eld
ĠF unktion
us Ã¤tz
Mit glied
ĠGra f
ĠP aul
ĠL ud
ĠW inter
a ÃŁ
o ot
Ġs pe
ĠAl ter
ĠEurop a
unk te
ge f
qu e
ĠEn g
tt p
Ġw eil
amm lung
Al s
s eite
Ġ199 4
Ġs etz
ĠB ed
Ġk m
ĠK ont
Ġein mal
ĠUS A
Ġ â
Ġ199 7
Ġ add
F or
ti eren
ĠT em
om e
av e
ĠB ru
icht s
ĠI hnen
Ġst and
ĠH ar
c a
ĠM Ã¤n
utt g
et r
19 5
tik el
Ġs echs
ĠMus eum
ĠK Ã¼
] ;
ĠW olf
hau sen
ĠMit te
ĠfÃ¼hr te
am a
Ġweiter en
ĠEnt wicklung
m b
au en
om as
ĠfÃ¼hr t
lig a
ĠP reis
ig a
ond on
w ehr
ĠR hein
ĠĠĠĠ ĠĠ
ĠM eter
ĠT re
att ung
sb esondere
am s
Ã¶r d
ol oge
ĠS ti
ĠE igen
ĠUn d
2 7
ĠK ur
---- ----
au r
Ġf ast
ck er
Ã ĸ
ĠT our
om pl
ĠH eil
ob il
w issenschaft
ck en
ĠSta at
ig te
cc ess
Ġin stance
k ey
Ġg ilt
ro t
ĠEr st
il le
E D
A s
ĠT ext
Ġ199 5
ĠGes ellschaft
Ã ¨
l d
Ã¼ck en
f ass
onn ection
te ger
ĠD at
Ġeigen en
ĠGeb Ã¤ude
ĠP al
ĠVer tr
u ter
ie gel
Ġl ange
schlieÃŁ end
Ġw eit
Ã¤ sst
ĠD abei
ic ation
Ġ Ã¤l
9 0
Ġ199 2
du z
Ġo ut
D es
ob ei
Ġw est
Ġj etzt
ĠF all
ĠRe gel
ĠF rÃ¼
Ġ4 0
Ġ _
Ã¼ gel
G ibt
Ð µ
ĠS Ã¼
um e
ge ber
Ġbesonder s
reib ung
ĠD on
l Ã¤nd
l et
ar te
ul d
ĠHÃ¶ he
Ġ197 0
F ilm
i at
lehr er
ĠD is
gen den
w ie
f el
al k
ge st
ĠSch m
c l
eu te
ĠH a
s ych
Ġjeweil s
arb eiter
E m
Ġ #
S er
19 0
ĠK at
res se
ĠMich ael
o ok
i ver
ĠA lex
Ġ18 0
Ġd avon
ĠN o
Ġsch wer
os it
w Ã¼r
I C
m ed
ei er
ĠAn t
j a
Ġl in
4 3
Ġd irekt
ĠArch ite
ĠLei p
Ġ199 1
Ġ @
ĠV ater
ĠL eist
l ungs
Ã¤t te
V ers
ĠA ss
Ġl a
j ect
lich t
Ġs ehen
eck e
ĠProv inz
ĠT ochter
ief ert
S h
ĠS ol
Ġ199 3
auf en
s etzt
Ġf indet
uch en
Ġunter schied
ĠL ondon
ĠW ald
ĠKl ein
n ot
ĠmÃ¼s sen
zei tig
richt ung
F ac
anis ation
ĠP ort
ist ischen
ĠHol z
) :
ĠSt uttg
ĠStra ÃŁe
ĠN r
ef ault
Ġinner halb
Ġw h
au ch
Ġ( (
Ġkl ein
ĠFrank reich
olle ction
z ogen
shall er
en glisch
pt y
Ġ198 9
E vent
ĠGeb iet
ĠK Ã¼nstler
ĠM Ã¶glich
ĠR est
Ġab sol
ik ation
J ahr
C lient
an e
ĠE le
ĠFrank furt
wend ung
ĠK loster
ĠE v
lei st
fahr t
Pro perty
Ġn ieder
n ehmen
ĠEur o
ĠI OException
ra un
ib li
op pel
to String
m Ã¶glich
Ã¼r z
ĠEr geb
Ġal les
stan ts
ĠkÃ¶n n
a ffen
ak tion
ĠGesch Ã¤ft
trÃ¤ ge
3 5
d s
Ġfolgen den
iz in
' s
4 7
ch es
it ten
Ġmus ste
Ġstud ierte
sp ro
ĠB ef
ĠSte in
O G
ĠA s
urn al
Ġw obei
ĠD e
pr ession
Ġan geb
Ġ20 21
S E
g ar
W ith
Ġt ype
ig h
Ġgegr Ã¼ndet
4 6
ĠP ap
V al
Ġn Ã¤ch
a he
ĠH e
ĠCh ar
et ers
Ġm eist
m od
ĠEin zel
ot s
leg al
b urger
Ã¤uf ig
k o
it u
ol ution
ĠC omm
ĠMa x
sch iff
st ieg
ĠM at
le ch
t ler
ĠBer uf
S c
k au
z immer
Ġf rom
L iefert
ĠPro jekt
war z
Ġd o
age ment
Ġbie tet
Ġm eisten
Ġf l
Ġarb eitete
eh l
ĠLud wig
Un ivers
la v
Ġb lei
Mar shaller
ĠW Ã¤hrend
ges etz
ge geben
Ã¼ ler
ĠW e
Ġ( )
rei se
ĠAl bum
a ir
ĠPro blem
ĠSchwei zer
ig inal
den t
ĠN utz
ĠPl an
g lichen
ĠS icher
az z
Ġ196 0
Ġl ist
ĠPro zent
ĠObj ekt
s l
Ġw echsel
c y
g o
ĠKomm un
Ġer rich
ĠSch loss
ĠU l
le y
o den
i ent
st elle
sch lag
Ġ Ã¶ff
Ġins gesamt
ap pen
ĠR ev
g ruppe
ro s
Ġent fern
ĠZwei ten
Å į
ek tr
ib le
n ull
C ode
it s
ir st
Ġviel en
sten s
ett bew
in es
ĠRech t
s itzen
ĠB ischof
ĠL iteratur
ĠD en
Ġsich er
R ef
Ġgr Ã¼n
ĠKais er
E igen
wei s
ĠMar kt
ĠP ark
Ġje der
adem ie
Ġt Ã¤tig
Ar gument
Ġm ein
ĠK ompon
Ã¤r en
Ġkl eine
L oc
ĠReg ierung
ĠInform ationen
w Ã¤r
M ethod
Ð ¸
ĠB evÃ¶lker
f ter
Ġd an
Ġd eut
ate d
ĠF C
den s
Ã¤n dern
ĠT yp
Ġunser e
Ġauf grund
Ġkonn ten
ĠS eine
her e
Ġit alien
ĠR olle
tocol Marshaller
an te
w agen
ĠMill ionen
ĠStuttg art
Ġk ur
Ġf ile
Ġd afÃ¼r
Ġv al
Ġz eigt
ech t
Ġ198 8
gemein de
Ġerfolg te
3 3
st eil
ĠC or
Ġn Ã¶rd
Ã¼t zen
ĠM ath
s burg
Ġkl einen
verb and
Ġp ol
sch t
ĠH ann
ide o
ĠAm t
ĠThe ater
< ?
ĠD o
Ġm Ã¶ch
ĠT age
Ġp l
ĠS ein
ec ord
Ġ as
in dex
ĠE p
rei ben
ĠR el
ber ger
Ġges am
S ize
h anden
Ġw ichtig
ĠK ant
Ġk n
F Ã¼r
ĠschlieÃŁ lich
Ġex ist
ĠS en
ak ter
Ġ198 7
ĠG ast
č ĊĠĠĠ
Ġgegen Ã¼ber
war e
ĠT el
en gth
pert ies
Ã¤ chen
L og
M us
os oph
O ut
ĠHeim at
ĠN orden
b es
ust rie
ĠRom an
9 9
ik en
f an
Ġo p
c ess
in ner
ĠAr ray
Ã¤ f
ĠEis en
ĠF il
b ed
ĠTh omas
deut ung
ge h
or ge
Res ult
uch e
Ġ3 1
y d
Ġn atÃ¼r
Ġo ber
ĠKÃ¶l n
ĠK reuz
ĠSchrift steller
ac t
Ġle ben
ĠM ap
ĠM aler
ĠM utter
eu ch
B au
ĠG old
Al l
fl uss
ĠAut or
art s
Ġb lieb
ĠK ilometer
u ft
z ie
ĠW ieder
ĠD am
ot h
ĠI de
Ġur sprÃ¼n
ĉĉ ĉĉ
ran ken
Ã ľ
Ġverschieden e
m o
w or
fÃ¼hr er
Ã¶s ung
4 4
g s
S C
ag es
Ġo ffen
ĠAnd re
ge gen
Ġver such
ĠFuÃŁball spieler
" )
ĠVer trag
Ġst ar
ĠSo zial
ĠProdu ktion
es e
re p
Form at
Ġschn ell
ĠR ichtung
erst Ã¶r
ĠB is
arb eiten
R O
T ext
7 5
ĠIn s
cri pt
k unft
it Ã¤ten
ern er
k ung
Ġ up
b est
und er
lau b
ĠEn erg
Ġbis her
ĠH inter
s ystem
ĠPf arr
Ġd ouble
ĠV ier
tr itt
O ption
3 6
ĠN Ã¤
Ġl Ã¤sst
il den
ĠHo tel
er dem
ĠW ar
Ġk osten
Ġn ie
Ġ Ã¼b
A P
Ġin sbesondere
lich keit
am ens
I tem
FuÃŁball spieler
Ġd ata
Ġst r
put Stream
a sch
Ġerreich te
al z
im ent
- ,
her r
mb H
ĠSp r
ĠC lass
ĠBes itz
te c
ĠT urn
b ank
ĠChrist ian
ion s
V or
ĠM c
ĠSch utz
Ġhin aus
O n
ĠD av
he f
ĠM ethode
al y
++ )
ing le
j et
ĠLeip zig
Ġinstance of
ti ger
ĠDie ser
pro du
ĠH in
ĠBeg inn
eck en
ĠStra ÃŁen
ĠJ ur
Ġp rÃ¤
st reck
ĠW enn
en ce
an de
gen t
ĠOr ts
Ġs og
Ġwechsel te
Ġsow ohl
Ġgel ang
h as
ic an
get C
Ġw ohl
Ġern eut
Ġbest en
iz ed
Ġunser er
ĠK omp
un ction
Ġb ed
Ã¤uf er
ĠOlymp ischen
issen schaften
ĠF arb
mann schaft
R ep
Ġz usÃ¤tz
rau ch
geben en
ist r
Ġsch Ã¶n
ĠMar ia
m et
E ine
ĠM ehr
Ġ198 4
tier te
ĠA c
ĠDeutsch e
stell ungen
Ġwen ig
ro p
r Ã¤n
3 8
gen de
Or t
ev el
ĠSchwei z
Ġvor handen
I ch
Ġer klÃ¤r
N ull
ĠSel bst
is iert
Ã¶st lich
ĠM il
em at
A G
ĠM ont
om en
omm and
St and
f ert
at te
re ad
w asser
in ation
ĠO per
ff set
ĠIn nen
Ġn ord
ĠIt alien
lo b
ack age
ĠZ ur
Ġz ehn
ĠF ernseh
ĠReg ie
anst alt
s ub
Ġ198 6
Ġgemein sam
eich en
In ter
ĠT Ã¼r
ĠMart in
ĠT ab
ver kehr
yn ch
Ġd ien
stÃ¤nd ig
i am
Ã¼ ter
f est
an ken
ĠS tim
ĠW ochen
ĠSt Ã¤d
enz e
ĠT ex
Ġl ong
Ġak tiv
ĠH ei
Man ager
ĠG ed
ĠR ed
eil nehmer
M et
Ġgeb oren
ÃŁ t
zeu ge
de b
val id
eg ung
e der
Ġf ort
Ġent stand
ĠD ruck
Ġal ten
Ġh erv
ĠB ilder
f s
au se
Ġf orm
ym b
ĠIl legal
9 5
ĠAn g
k tr
Ġn o
Param eter
ĠC ount
ĠR uss
Ã¶ ÃŁe
ord nung
Ġbest ehen
k n
ĠW ind
op er
lin gen
Ġ Q
mÃ¤ÃŁ ig
Ġmit tel
Ġw ahr
sen d
Ġ195 0
Ġw ich
ri x
Ġb in
ent lichen
Ġgew Ã¤hlt
an ien
ĠZw ischen
ab hÃ¤ng
8 8
od y
z ess
os sen
in c
ĠAn geb
ĠF Ã¼hr
Ġm ar
w ay
al le
ĠPro gramm
gr ess
ol on
i ft
ĠD enk
Ġzwei te
F ernseh
w ald
ĠSt art
ĠGes amt
Ċĉĉĉĉ ĉ
ĠR en
g Ã¤n
Ġb reak
C ount
ĠG mbH
ĠKl asse
Ġ198 5
A S
ĠBe deutung
Ġz eit
eich nung
6 5
ĠD res
ge hen
ĠG eld
4 2
O bj
geb aut
Ġ{ @
fl Ã¤che
fÃ¼ l
L and
ĠG ut
re e
3 7
ĠK unden
ĠS ex
Ġw oll
or gen
f Ã¼r
3 2
Ġge legen
p art
ĠG est
Ñ Ĥ
Ġh Ã¶ch
eg r
ĠÃ¼ber nahm
sch ech
m m
uch te
ibli othe
y le
ĠHerz og
ĠMin ister
Ġerrich tet
Ġ Ã¤
Ġ org
Ġein gesetzt
ontain er
on en
Univers itÃ¤t
z y
sch eiden
hr ead
( (
ĠL ang
inz u
ĠRo bert
ĠSÃ¼ den
ut zen
ĠSch Ã¼ler
Ġihn en
Ġehemal igen
ĠSch ule
ĠBo den
u h
u ild
ĠK in
Er ror
ĠE t
ern en
Ġ198 3
ĠO s
T yp
ĠT ri
ĠMa in
Ġ6 0
ĠF ort
ĠS til
Ã¤ ischen
ri gen
atur e
tem berg
te chn
Ġj a
Util s
Ġm ethod
Ġs ub
Ġen gl
lo ad
V on
Ġd aher
op p
Ġ197 2
Ġerfolg reich
d i
Ġs h
all y
bar en
c reate
Ġzw ar
Ġgen au
ĠP ost
Ġso zial
Ġges p
Ġm acht
ger ufen
um m
ĠO p
schul lehrer
ĠM otor
se hen
W elt
te gr
Ã¤n den
ue ck
meister schaft
k el
spiel sweise
gesch lossen
ĠOt to
z Ã¼
hau pt
en zen
Ã¤ s
Ġ ...
Ã¤ch lich
ĠS im
g ra
p reis
ĠW issenschaft
Ã¼r t
ist ische
ĠA ir
ĠIntern et
bar e
fra ge
ein t
ĠA ben
l as
ĠAn zahl
Eigen schaft
S ystem
den burg
Ġbe vor
Ġsoll en
8 5
ĠZ um
riv at
ĠT al
Ġbes ser
ĠfrÃ¼ her
N A
te st
ish ockey
L o
Ġn ahe
ĠH el
ĠÂ »
ĠF ile
b ek
t her
Ġp ath
ĠP ass
G r
w ohl
al tet
ĠIn sel
ĠK ind
Ġ198 2
ant wort
ĠP osition
ger icht
ĠHal b
In stance
ĠP or
ĠO sten
ĠL es
K l
ĠF euer
Ġver sch
Ġ acht
ĠM ilitÃ¤r
Ġc m
Ver ein
Ġ ad
ĠG Ã¶
Ġi d
Ġnicht s
ĠverÃ¶ffentlich t
m Ã¶
ĠVer fÃ¼g
ĠEr folg
ĠII I
ĠSch Ã¶n
Ġbest imm
ĠTh ema
Fac tory
b Ã¼
ok rat
Ġpro tocolMarshaller
och e
Ġ198 1
Â ²
Ġem pf
ĠK or
ĠS am
ĠK urz
Ġ197 8
ĠD ok
Ġre gel
ol ler
ĠKrieg s
u hr
S eit
w eit
ĠZ Ã¼r
Ġdeut lich
ĠVerwalt ungs
A ut
ĠH or
schaft s
ym n
Ġb ild
ĠD DR
b te
b eh
Ġm od
Ġin dex
get Name
Con tent
Ġso gen
mal e
Ġst amm
ĠEn d
ĠBay ern
ĠA ward
geb Ã¤ude
ag t
ettbew erb
ĠP rÃ¤
Ġf ield
Ġ Ã¤hn
U T
ĠW al
t c
Å ¡
ĠSt u
un ge
Ġeigen e
Ġh Ã¤ufig
Ġent standen
ĠP fl
Ġ197 9
Ġ196 8
al og
ĠStud ien
EN T
ĠN or
ow er
ĠSp iele
iz ei
st ehen
Ġentsp rechen
u al
ak te
Ġsie ben
ĠOn line
ĠG ot
throw s
in i
Ġzu dem
8 9
ĠAm ts
net en
Hand ler
ul ar
v oll
f il
n ach
olit ik
ĠAuÃŁ erdem
ok al
ail le
F l
U N
fol gt
ĠProf essor
B uffer
ol or
3 9
ĠBes uch
8 6
ist ik
ag s
ium s
ĠS ek
m ark
st Ã¼ck
Ġfolgen der
ĠB us
St atus
Ġlie ÃŁ
ĠH en
Ġgef unden
ĠWest en
H er
Ð ½
ĠC arl
ĠErn st
Ġdan ach
ichte te
Ġwel ches
ĠMit glieder
geb ung
f re
Ġs c
Ġheu tigen
3 1
ad urch
Ġ197 4
ikan ischen
ĠT est
o od
Ñ Ģ
il la
. :
ten s
ĠgehÃ¶r en
it i
ĠE ing
Ġhand elt
P l
t eid
Ġwen iger
Die se
u el
Ġs omit
get S
tec ted
Ġbei spielsweise
h Ã¤
ĠInstit ut
ĠAn ton
im al
z i
a un
le ge
Ġr Ã¶m
Ġo ffiziel
ge fÃ¼hrt
U r
Ġge ben
itz t
ĠCount y
Deutsch land
ĠS oc
ĠL og
Ġn ational
re f
Ġdam als
N ot
ĠS ong
ĠG ar
Ã¤hl en
f rei
ĠR und
Vers ion
cri ption
ĠB ur
ĠM er
Ġlie gen
Ġsog ar
ar ben
At tribute
ĠDre h
ĠK Ã¶rper
ĠAuf lage
ĠVer kehr
yn c
ont in
4 1
> ();
an ischen
Ġsie he
U p
Ġst art
n o
ge m
h ang
ĠN etz
ĠV iel
Ġzahl reiche
ich ter
en ter
ĠF rie
ĠB ran
ĠZ ust
werk e
la den
Ġ check
Ġth at
Ġ197 5
ĠG re
Ġletz te
Ġr uss
IN D
Å Ĥ
lei d
Ã¤d ag
ĠS ervice
ĠSt ad
ges ellschaft
s um
Ġm in
Ġ197 3
zeich en
ti tel
Ġdar unter
it or
ĠAr tikel
F A
r acht
ĠM os
w rite
an o
ĠS achsen
ĠEr w
oc ument
==== ====
and id
Ġbef inden
Ġc urrent
Ġ196 9
ĠH om
ĠBahn hof
ĠT o
ĠL o
Ġre cht
ser t
Ġf r
A p
Ġgen utzt
C O
pr int
Ġstell t
ĠD om
d o
Ġ197 1
ĠD rei
ĠVer l
Ġh Ã¶
ir t
ĠRei se
Ġ197 6
ĠJohann es
iv al
ĠM y
Con stants
bl ick
t ype
ynch ron
ĠM aterial
ĠG i
ĠMit arbeiter
ĠwÃ¼r de
ĠW ein
ĠR ein
iz iert
irekt or
efin ition
Em pty
P E
ĠL age
ĠG ruppen
ĠFre und
C E
b and
ĠT rans
eh ler
Ġ ung
Ġ(âĢ ŀ
ĠMÃ¤n ner
sch inen
ĠL au
sp l
ĠR ud
ĠT on
Ġerw Ã¤hn
l ad
ĠF el
F rau
ĠB ot
L ine
Ġein igen
Ġ us
Ã¤ te
ĠR ot
tr e
ĠMed ien
D at
rei te
ac tion
fl ug
et ail
d a
Ġc lass
I S
ie ten
ol a
k ungen
ĠE ben
âĢľ )
ĠSal z
i j
im a
deb ug
ier s
af en
ungs k
itz e
Ġger ade
ĠAr me
C omponent
ĠC om
it ial
l eitung
ĠEr d
ĠFor sch
iv id
deck t
L A
Ġz og
ĠBr and
re v
ĠRei he
f ried
n ext
Ġst arb
Ġl ag
pl ate
ges ehen
w ind
ĠF inal
Ġgem acht
7 6
ĠP o
ot z
ativ en
K on
ĠA ber
Ġw elt
ĠB ro
Ġe urop
Ġ197 7
end et
arb eitet
ĠF en
ĠWor ld
Ġp ersÃ¶n
P ackage
sp rech
Ġk lass
U m
r ist
Ġi r
Ġver fÃ¼
: //
ĠH off
Ġabsol v
u x
M L
Ġb rach
ĠK raft
Aus wahl
ĠVerfÃ¼g ung
ei der
Ġw es
ul ti
C all
tr a
st all
her ap
" .
rei fen
Ġzu vor
ain er
rei bt
ĠP rÃ¤sident
Ġ196 7
G em
c urrent
ĠJo urnal
schlieÃŁ lich
Ġbie ten
ĠVerein igten
Ã¤u ft
an y
ĠStel le
ĠK ategor
P er
Ġer k
pl an
ĠgrÃ¶ÃŁ ten
F rom
Ġer Ã¶ff
ĠNÃ¤ he
Ġres ource
u tet
ab il
Sp iel
č ĊĠĠĠĠĠĠĠĠĠĠĠĠĠĠĠ
id th
ĠOrt steil
ag ue
Ġ Å
ymb ol
H och
Ã¼ hle
ĠHer ren
3 4
Ã¶ hn
ĠS onn
ĠBevÃ¶lker ung
i os
ĠGes etz
an lage
ĠK auf
18 9
ect or
au p
A D
f ield
ei ger
ĠG eist
ĠG ott
ĠC D
ĠW el
ach er
B r
ĠV al
ĠG leich
Ġh inzu
de d
ĠGemein den
h am
Ñ ģ
br uch
b esch
M ail
Ġau t
eil en
An d
ĠBru der
p le
en e
ĠK an
] .
ĠHil fe
teil t
Ġerreich t
ĠS in
ĠN ot
Ġmit tler
ik e
ĠSch wer
en te
ĠB aden
Ġzur ueck
f Ã¶r
ĠT V
Ġsoll ten
h an
ck e
Ġteil weise
ĠS and
ro ss
ik t
ikan er
Ġd el
Ġ196 5
Ã¼rt temberg
T oken
arl ament
ĠSer ie
ĠfranzÃ¶s ischen
Ġ196 6
T able
Ġentfern t
ĠEl tern
ĠRep ublik
Ġn ode
Ã¤l fte
" ;
enn ung
ĠCh arl
Ġverb unden
ĠF inanz
ĠIn n
z z
as ste
Ã¤t ten
it al
Argument Exception
Ġd r
ie te
ĠAus bildung
W est
ĠP ra
Ġres ponse
ĠA f
zentr um
or a
Ġs of
Ġ196 4
Ġd ir
ar ian
St art
Ġg ar
Ã¼ss el
lie ben
ĠEnerg ie
Ġf re
ĠT ran
T rans
ft ung
rich ten
ĠW and
l am
Ã §
P age
ĠGr ab
ĠÃĸ ff
arb eitung
ĠNach t
f red
is p
ĠT a
Ġc omp
7 9
ex ik
zeich nungen
Ġbet eil
la ck
Ġ193 3
ra p
ĠCh em
stru ktur
Ġw ollen
ĠW h
ibliothe k
s ie
ĠT ier
tr ue
form at
ĠSprach e
Ġte chn
Ġ( =
ĠEle ktr
isse ur
ĠK osten
ĠR egen
C H
ã ģ
ĠD ep
z ehn
ĠB Ã¶
jÃ¤hr igen
ĠArray List
spiel en
ĠR ang
âĢ Ŀ
ĠG arten
st at
ĠFl uss
R e
Ġherv or
ur f
ĠI r
6 4
F I
ĠVor sitzen
Un ter
En d
wei sen
Ġfol gte
ĠPr ess
ĠV o
ier ungen
Ã¤t zen
ĠZÃ¼r ich
ymn as
d ien
w esen
Â »
Ġl eicht
ĠBeg riff
P ol
ĠT ro
Ġ reich
ut es
ĠD ist
ĠAl le
ord in
ĠB al
Tra ce
Ġver s
ow s
ĠAk ademie
Ġwh ile
. <
ei en
ĠK arriere
E T
ĠK ampf
ik al
rei ten
Ġ193 8
Ġbei de
mar shall
as en
ĠR ock
u sch
eu e
ĠAuf trag
Ãľ ber
Ġ194 4
D ate
ĠA G
ĠM el
Ġam er
Ġk ompl
Ġ193 9
5 5
ĠJ azz
ann el
ĠEr fahr
ĠDav id
p ol
Ġch ar
W erk
Ġ195 6
en a
Ġge hen
ort h
us st
ĠSie g
ĠGeschÃ¤ft s
am eister
ĠJ apan
pf er
ud em
ĠSie d
7 7
Mod el
op e
ĠAn ge
ĠVerb indung
ch ester
ol den
Ġh al
ĠM ein
ĠT op
ien s
tiv en
Ġby te
ec ted
fol ger
m ut
ĠBerlin er
Ð¾ Ð
f ile
Ġr em
an ger
Ġm on
ĠJose ph
t z
Ġwir k
rit te
f Ã¤h
Ġw issenschaft
T h
ĠDres den
Ġer ster
Ã¼ss eld
re c
ĠK om
Ġgew esen
Ġel ektr
pr Ã¼
Ġeh er
Ġz ul
Ġl oc
d am
ĠF Ã¶rder
ĠnÃ¤ch sten
list e
em b
ĠB ank
ĠB ach
ĠB ek
ĠM ad
List ener
Ġgleich en
C D
ĠMin uten
ĠA pp
Ġp r
Sp ort
6 6
Ġstell te
ĠSa int
ĠW ol
Ġeinz el
in ge
as il
Ġver lie
Ġ196 1
ĠJ e
rÃ¤s ent
Ġk amen
ey er
Ġpar am
it en
B IND
ĠS uper
ĠS ub
ĠE hren
ĠCh or
ĠNach dem
C omp
Ġent hÃ¤lt
m on
od es
č Ċĉĉĉ
ĠFrÃ¼ h
ter s
iv en
x is
k eits
v est
Ġk einen
ivid u
ag n
BIND ING
U L
c m
ĠD ach
Ġen g
ĠUnter stÃ¼tz
gel n
Ġ8 0
J o
ĠC ity
eh len
> (
Ġ196 3
ĠSpiel en
ĠH Ã¤
f ord
h ung
ĠHann over
M ed
O per
Ã¼ ch
Ġm ed
ĠP sych
Ġauf genommen
ĠStr ecke
hl et
sh ip
Ġdam al
re am
Ġ193 0
Ġfolgen de
n am
ĠH an
geh end
Ġm achte
ut ton
Ġbest and
Ġnach dem
o is
ing ton
ĠDam it
ĠÃ¼ber n
ĠAn der
ende te
c le
Ġge tr
our ces
Ġ194 0
ĠI D
g ien
rit z
ĠUnter such
inn t
Im pl
ĠMÃ¶glich keit
Ġje den
ĠDies es
ĠMa ÃŁ
Ġpro duz
olog ische
Ge ographie
ĠS u
Ġd Ã¼r
ĠL icht
ĠRich ard
. -
ĠauÃŁer dem
ĠBas is
A mer
Ġn orm
itz er
g liche
ĠL Ã¶
zeu gen
Ġon line
ĠDes ign
per atur
ĠM e
lo at
ĠK rit
op y
ĠErgeb nis
Ġs er
In ner
Ġd ire
Ch ar
i que
on es
us h
T Y
ell a
M P
S o
ĠA ch
Ġar e
Ġ scha
E S
z uf
ĠD el
Ġf er
N ames
aler ie
Ġunter stÃ¼tz
ĠPolit ik
gel Ã¶st
at tern
ĠJ ung
Ġ3 5
so zial
kau ft
ĠIllegal ArgumentException
ier ter
ĠAr ten
on a
ĠH Ã¤lfte
ft ware
Ġver tr
par k
ĠW all
it a
ĠR os
ann e
ĠSe e
Ġson st
Ä į
ĠP op
o o
Ġ196 2
G ener
a ile
ĠkÃ¶nn te
Ċ ĊĠĠĠĠĠĠĠĠĠĠĠĠĠĠĠ
Ġge k
eh ens
R el
c ase
ĠM Ã¼l
t liche
tern al
Ġk ehr
F C
ĠK opf
f ung
ĠD och
Ġ195 7
A ccess
Ġwei ÃŁ
ĠC ms
ĠEng land
C hr
Ġho hen
W enn
ĠV en
ĠAuÃŁ en
Ã¡ n
Ã¤tig keit
ĠB rit
ang s
Ã¤ um
Ã¼s se
hÃ¤lt nis
Ã¤d chen
final e
streck e
hei ra
o der
lag er
Ġsetz te
L O
Ġre ad
pr ess
ĠAmer ican
Ġ7 0
ĠFra ge
ab rik
ĠC as
Ã³ n
sch riften
ĠF uÃŁ
ĠPhil osoph
ĠVers ion
fÃ¶r m
c tor
Ġz ie
T r
V iew
ĠEr sten
Ġbede uten
m und
r uf
ĠAl b
ĠfÃ¼hr en
T rÃ¤ger
ĠHer mann
ĠGes und
ĠâĢ ¦
ing ungen
v el
ĠHer aus
ĠBau m
ĠP rivat
8 4
ĠW alter
8 7
ay er
Ġsp ielt
Ġ194 9
Ġ195 8
ĠTag es
Ġspe ziel
ĠAlex ander
0 5
amerikan ische
k omm
ĠB or
Ġaus gew
im men
P r
ele te
Ġ19 20
U ser
ĠH essen
S ub
Ġ195 9
Ġst ellen
m el
ĠS Ã¤nger
ĠB all
Ġm eine
R I
or ie
z ip
ĠC al
is ierung
Ġver z
u ster
ĠD enn
D F
Ġ ra
Ġg ute
Ġ195 2
Ġeben so
str ing
Ġf alls
Ã¤t ter
Ġ194 2
ĠSil ber
L e
S ON
get D
d ata
g ten
ĠW ort
Ġmehr eren
ontain s
ĠF ig
setz en
rie ges
olog ischen
re quest
ic o
Ġinter ess
ĠWolf gang
ĠS em
ĠS tern
Ġj apan
H ol
S V
mar kt
ĠWerk e
T eilnehmer
ĠSt Ã¼ck
K ir
Ġentwick elt
or te
ĠPol izei
N o
ĠD oppel
ĠL iga
Ġg erne
ial og
ĠGeb urt
l Ã¤ss
Ġw Ã¤re
kt or
r hein
Ġg l
ĠSt unden
Ġcon fig
zeu gt
Ã¤nder t
Ġwoll te
Ã¤ch s
5 9
rie ch
Ġsch l
ĠSc ien
I f
k i
er r
Ġbes uchte
fahr er
ĠD eb
ĠPr em
ĠÃ¤ uÃŁ
C T
om an
N ext
ick en
it sch
Ġr et
Qu ery
Ġ195 5
Ġb as
ent wicklung
el ten
le b
tem ent
ĠStud ium
Ġgemein s
Ġsch rieb
tig ung
z eiten
ĠP unkt
ĠPart ner
sch uss
ĠZu ge
Ġo ben
hal te
en g
ĠW ider
v is
Ã¤ gt
sta at
Ġ194 8
zep t
Fernseh serie
Ġ194 6
Ġt yp
E L
ĠS old
Ġge d
ite d
v iew
Ġer reichen
c lient
l assen
st ant
Ent ity
k ap
k rÃ¤
au sch
ien ten
ĠÃ¤l ter
w egen
ar f
ĠZ udem
ĠÂ «
Gem ein
Ġer f
ag o
ru g
o ben
ĠN ik
er ror
Ġs uper
ir ks
ĠBr on
ĠLe ague
ĠBÃ¼rger meister
B C
st art
ĠJ ac
west en
N umber
l l
Ġ );
ig keiten
ĠB row
ĠP ublik
rik a
ĠKompon ist
eh m
ĠD Ã¼sseld
meister schaften
Ġs ex
Ġz eigen
ĠP il
zei gt
anst altung
Ġben Ã¶
Ġbeg r
ĠQu alitÃ¤t
ĠT ruppen
ition s
O T
wei g
ĠM eer
ut ure
Ġv an
Ġihr es
ĠHau p
ĠKont akt
Ġver f
ĠVol k
ĠAu gen
Ġpol n
ĠFen ster
k reuz
ĠSt amm
ĠSp ez
ĠT eile
ĠGl as
t um
Ġer ziel
ĠMod ell
Ġtr ans
ĠB und
ĊĠĠĠĠĠĠĠĠĠĠĠĠĠĠĠĠĠĠĠĠĠĠĠĠ ĠĠĠĠĠĠĠ
F ilter
Ġsel ten
y a
Ġal t
Ġl and
Ġst ate
Ġspiel en
P art
ĠDenk mal
pro tected
H eader
ĠP arlament
Ġer r
i ol
den tif
l Ã¶sung
S e
ĠR itter
wie gend
ĠB raun
ĠL ou
Ġer z
tag s
ĠLehr er
ĠR unde
Ġ9 0
Ġdar Ã¼ber
ĠBez eichnung
ĠâĢ ľ
he ck
ĠArb eiten
Ġaktu ellen
Ex ec
ieh ung
i ber
s c
au sen
Ġver ein
Ġ194 1
l ern
G es
Ġin put
Ġal te
Ġz entr
Ġev ent
ab r
ĠReg ierungs
ĠK ranken
ap e
ĠA g
Ġtr otz
Ex pression
ĠW o
la f
6 7
etz ung
Ġan schlieÃŁend
20 18
ĠR at
ir m
ĠCl ub
Ġge pl
ĠCh ina
Ġne un
l ar
ĠR ecord
Ġk athol
w art
Ã¤ ger
Ġbet rÃ¤
S te
ĠKon z
ĠFra gen
ĠStand ard
á ĥ
ĠVer gleich
C ms
ĠDan ach
ĠTh emen
le cht
ĠEx ception
ĠP an
Ġerh Ã¤lt
Ġ ap
ug h
Ġer weiter
ĠOr gel
ĠR em
rei sen
Ġstamm t
ĠA ust
iv ision
ĠT im
d in
st eh
entr y
ĠArme e
au b
Ġent halten
inde stens
ĠnatÃ¼r lich
ĠForsch ungs
Ġel ement
S ource
ĠL eiter
Ġ+ =
Ã¼ st
ĠerwÃ¤hn t
ĠV ideo
Ġk omp
E X
O S
ĠI f
Ver lag
it ch
ĠSte uer
= "
t lichen
in fo
gr Ã¼n
ĠZentr um
k athol
ĠE he
Ġl Ã¤nger
ĊĠĠĠĠĠĠĠĠĠĠĠĠĠĠĠĠĠĠĠĠĠĠĠĠĠĠĠĠĠĠĠĠ ĠĠĠĠĠĠĠĠĠĠĠĠĠĠĠĠ
fass ung
Ġehemal ige
ot te
ĠP reuÃŁ
In teger
ha ft
m ap
ĠB ud
ĠWill iam
Ã¤n gen
ĠverÃ¶ffentlich te
s ei
ĠO ffiziel
eich er
kl us
Ġorg anis
Ġm indestens
ĠV oll
Ġc all
Ġ195 4
Ġ194 7
ĠC olle
ĠA ustr
stra hl
ĠKÃ¶nig s
ĠUnterstÃ¼tz ung
Ġd ritten
Ġ195 3
ĠProdu kt
z og
ĠStadt teil
Ġgen er
ĠL Ã¤nge
ub e
Ġ194 3
au ber
ĠF ern
rie f
ĠNach folger
ĠSta ff
Ġs e
ĠEnt scheid
ĠFir ma
T ag
ver walt
ĠInd ustrie
ĠPfl anzen
Ġf inanz
eig ht
s a
ĠS onder
0 1
ĠS et
heira tet
W er
j o
u a
Ġge geben
Ġho he
Ċ ĠĠĠĠ
ĠKÃ¶nig reich
Ġbesch Ã¤f
Ġn ehmen
ĠBl ick
S etzt
ĠB d
ĠH all
ĠFol gen
Ġeinzel nen
st ud
ĠL Ã¼
land s
is Empty
Ġz erstÃ¶r
rÃ¤siden ten
Ġweiter hin
Ċ ĊĠĠĠĠĠ
ĠS w
ĠH eid
ad ata
6 9
C onnection
ĠJ er
8 3
Ġge baut
la ce
ĠGr Ã¼ndung
Ġneu es
ĠS m
Ġre c
Ġrech ts
w ork
Ã¶ sen
Z u
c ing
ic es
Ġwirk lich
z a
te ten
Ġm essage
om o
deut sch
ĠP unkte
un time
lich keiten
ĊĠĠĠĠĠĠĠĠ ĠĠĠĠ
fall en
ĠRud olf
d k
lin ie
J ob
M ax
ĠursprÃ¼n glich
I ter
ĠKon tr
Ar ch
ĠAk tiv
l n
n eter
hal le
g arten
In t
ĠNach bar
den ten
ĠAus wahl
Ġd at
Ġhei ÃŁt
bet rieb
S el
Ġabsolv ierte
w ill
ĠPh ys
en ten
Ġun ver
ĠAn ti
Ġev angel
ĠL ied
Ġk aum
Ġ17 9
Ġl o
mus eum
ate in
richt ungen
Ġmo der
Ġt arget
Ġbes itzt
L evel
Ġj Ã¤hr
Ġunser en
ĠB y
Ġex ten
ĠBay er
ĠR a
ass ung
Pro du
d aten
j e
dr ess
ĠsÃ¼d lich
b ischof
sp h
S up
icher ung
b ef
k or
amil ie
7 1
s m
unk ten
imm ung
eh mer
Ġen try
ĠL ab
ul a
Ġinternational en
Ġumf asst
Ġ tem
Ġj Ã¼n
0 9
ĠDok ument
ff er
ahr en
ĠKant on
ieren den
Ġle dig
Ġwel cher
ĠBr un
res ult
ie ben
Ġsel ben
Ġp ass
ĠH elm
Ġerh Ã¶
aile d
ĠDi pl
ĠG al
ĠAb schluss
Ġcon text
F F
ĠZeit schrift
Config uration
ĠD ann
ay s
rem ove
ĠgrÃ¼n dete
ĠPol en
âĢ ŀ
L ink
Ġgleich zeitig
ĠfranzÃ¶s ischer
Ġge stellt
end es
M eter
ĠS yn
ĠP e
ĠC ol
âĢ ĺ
ĠT urm
ĠAn schluss
s dorf
Ġn ext
NA ME
al es
oss ible
tig keit
Ġbild et
l eiter
y al
Ġledig lich
M S
mit t
A ction
zen e
ĠPr inz
C ON
be ck
Ġmo dern
not ation
Ġd efault
ĠSt at
ĠB ab
ĠT e
Ġsch loss
Ġneu er
ĠSchauspieler in
lie gen
t he
ĠE lement
ĠVerein s
ĠK op
O L
Ġs b
ĠVerb and
ĠReich s
ĠAn n
ie ur
tr aum
ĠSch warz
f in
ĠK al
Ġk ennen
ĠIn teger
ĠSch lag
b eg
h istor
ĠW as
ĠÃ¶sterreich ischer
ĠK ern
im it
Ġeinz ige
k an
Â °
ĠSt ock
ĠmÃ¶ch te
ah nen
ĠKl aus
ĠL eitung
ĠEnt wick
ei sen
zie hen
P h
Ġ5 00
7 3
ĠLie be
ĠKategor ie
ĠH um
Ġt c
ĠUm welt
z us
b ten
Ċĉĉĉĉ ĉĉ
ĠM ass
Ġgew orden
p ath
ĠUm gebung
ĠIhr en
spr uch
Ġsie ht
br acht
k und
Ã¼r k
ĠL ager
ĠOr iginal
ĠZusammen arbeit
As ync
ĠnÃ¶rd lich
<? >
T H
T em
Ġp h
Ġvor her
par tement
v ider
Ġern annt
M on
ĠS ow
ĠBest and
ĠAndre as
st o
Ġverl oren
ĠgrÃ¶ÃŁ te
Ġh as
ĠJ ust
ic tion
Ġ4 5
r c
Ġb ilden
ĠW ahr
ow ed
Ġtr ad
ĠWirtschaft s
in ts
ell es
ekt or
. ");
ers eits
ĠZeit punkt
D urch
b us
olog y
6 2
i w
ĠB arb
et a
ĠAl bert
d at
ĠVer such
Ã¤n n
ĠUn ion
ĠBl Ã¼
ĠLin ie
ĠD isk
ĠP lay
ĠL Ã¤nder
Ġer folgt
Ġ195 1
L ength
ĠR and
ĠOffiziel le
0 2
ĠW oche
il ler
f alen
ĠAb geord
Ġbek annte
Ġblei bt
ĠEisen bahn
7 4
ĠM Ã¤dchen
Ġst ammen
b ie
ĠGr Ã¶ÃŁe
k ra
7 2
Ġein ger
iv il
Ġhei ra
au pt
Ġ193 6
M A
ĠAl ler
ĠC ap
8 1
ou ver
wÃ¼r dig
D ec
N ew
bau ten
q l
eig net
oc i
fl Ã¤chen
ĠÃ¤l te
8 2
A uch
ei s
ĊĠĠĠĠĠĠĠĠ ĠĠĠĠĠ
Ĥ ¬
hal ts
ĠSchl acht
eg ment
tig te
u c
ĠWien er
st att
Ġje de
denk mal
ĠL OG
iz er
Ġmar shall
au tor
Hoch schullehrer
ch ar
bar keit
ĠM ess
ĠAus gabe
mus ik
ĠbetrÃ¤ gt
c ontains
ab l
ĠHer bst
Ġent spr
leich t
ĠQu alif
s itz
un ternehmen
ire d
B lock
st anz
ĠZeit ung
yn am
ĠB on
ri ck
ĠJ ean
bez irk
ĠE U
rid ge
ĠSt ar
ĠTra in
Ġkn app
am in
S I
i i
i or
au ern
Ġbe ein
Ġb l
and lung
Ġp assen
Ġeigen tlich
egr Ã¼ndet
ĠGot tes
Ġbeg innt
ĠJose f
ak tiv
k arte
Ġ Î
get Message
Ġ193 7
Ã¼nd eten
Ġbel eg
ĠKir ch
eren ce
Ċ Ċĉĉ
C olumn
ĠDÃ¼sseld orf
ĠAn gel
ĠPhil ipp
Ġgesch lossen
ĠAut o
0 6
t a
ĠD ir
atch er
ven tion
Ġausge zeichnet
ĠZu kunft
rech ts
ĠP et
ra el
Pro perties
Ġex ec
** **
' t
ĠFor schung
Ġarb eiten
Ġp rom
ĠA ktion
0 3
a at
ti en
Ġk rit
ungs ver
Ġdar f
B e
i men
Ã¤hl te
h eb
ill en
ĠBes onder
ie ÃŁen
ĠH u
tern ehmer
Ã¼hr en
ot al
ĠAr m
ĠM erk
Ġpro f
Ġ> =
5 6
Ġw ohn
Ġpolit ischen
D a
ĠH Ã¶r
Ġp aar
form ation
ref ix
" ))
ut her
Ġver k
Ġbef and
anad a
o us
tr ainer
zw ischen
halt ung
ĠfranzÃ¶s ische
y th
Ġwer de
ĠAl ten
alif orn
ĠB ack
and elt
ĠD Ã©
ĠIhr er
pro chen
Ġ193 4
all el
Ġj ava
A ss
an lagen
ĠJ ames
Ġc om
Ġgesam te
s Ã¤tze
ĠN S
ĠJ ak
Ġp rak
ĠH igh
ie ÃŁ
ĠE hr
M in
f ekt
und le
Ġentwick elte
Ur l
ĠhÃ¶ her
Ã¶ pf
ver tr
les en
ĠC amp
ĠStr u
Ġ3 2
B ean
W eiter
Ã ¸
eu cht
! !
st attung
on y
Ġf ind
ĠAr n
m p
ĠT rad
ĠSt ate
zeich nis
-------- --------
d et
ez ep
Ch ild
ĠVer Ã¶ffentlich
k raft
ĠP fer
Ġver kauf
oll ar
Ġd adurch
Ġ text
ter ie
ĠBr emen
end ar
wÃ¤r ts
Q L
Ġwir tschaft
Ad dress
0 4
Ġ- >
wissenschaft ler
lin ge
ĠÃ¶ff entlichen
ishockey spieler
ĠWei se
Ġ time
au st
P f
m eld
ari able
g Ã¤nger
ĠMar c
ĠF und
W riter
ek ten
ĠHoch schule
g ibt
ĠOrg anisation
N ational
Ġst Ã¤r
ĠTeil nehmer
Ġjed em
rep ublik
b ase
v ille
ĠD ek
pl ication
Ġh alten
ep age
ĠMed izin
Ã¤dag og
k ampf
er m
an ische
Ġkehr te
on om
ti al
Ġqu alif
Ġh ol
ĠAngeb ot
ĠAben d
Ġi de
ĠN orm
Ġt Ã¤
0 8
et ern
Ġj Ã¼d
Ġbrit ischen
r am
ĠS ant
Ġdes halb
gemein schaft
Ġbrit ischer
L egt
Ġc an
f unk
ie ger
Ġb ald
ĠK amer
ra ph
Ġf iel
l Ã¤ufer
ĠAn na
L ong
_ _
hol z
m ehr
Ġer war
Ġo ption
w ord
Ġver heiratet
ĠCh amp
ĠVer wendung
ĠS Ã¤
ĠRev olution
g arn
ĠT ur
Ġh Ã¤tte
iel ten
f unktion
ĠB onn
ro chen
org ung
ĠEinwohn ern
Ġzahl reichen
schein lich
stit ut
O ffset
s es
ĠD azu
ĠGer man
PD F
Ġzul etzt
r is
ĠGr enze
Ġunser em
Ġbr ingen
C ache
ic ate
ĠAuf gaben
trib utes
V erk
j ekte
on ie
ĠEin fluss
Ġlin ks
ĠEv angel
Ġs ervice
get Value
ĠfrÃ¼ h
Ġind ividu
ann ot
ĠBild ung
el berg
Ã¤n gt
Ġs etzt
sp art
rau cht
Ġup date
Ã¼ ste
ĠL eg
inde st
at ers
ĠO pen
ks am
Ãĸ sterreich
ent liche
ĠfrÃ¼ hen
k unde
um p
g ut
at hlet
ĠO ut
lo c
anstalt ungen
Ġganz e
ĠG ran
ĠBei trag
z ub
Ġb em
Ġer mÃ¶glich
ĠEr k
ĠOr d
ĠHerr schaft
D I
G egrÃ¼ndet
Ġm ap
ĠC ollection
Ġp reuÃŁ
ĠW ander
ĠW erner
ĠzusÃ¤tz lich
Ġ ;
st Ã¤tte
ab eth
rei ber
ce pt
b Ã¼rger
get R
Ġwen ige
haf en
r unde
ĠH ash
ig ungs
ĠEs sen
ma ÃŁ
Ġ19 19
ĠprÃ¤ sen
n amen
Ġh ab
ic t
T ER
qu es
lo sen
Amer ikaner
Ġent scheiden
1 00
P oint
Ġn immt
ek tion
Ä ĩ
Ġp osit
jÃ¤hr ige
6 8
er tif
Ġh el
ĠC hef
Ġun mittel
ĠJ ack
etz en
ĠN icht
Ä ģ
sch ine
Ġm en
ic y
Ġh ave
ĠN ur
if e
Ġange geben
Ġdien te
ĠFinal e
ge legt
ĠW ild
] ,
r ess
E d
Ġd efin
stell te
pf lich
Ġbede utet
U E
ĠK re
kl asse
for schung
Ġheira tete
ĠStr af
6 3
l eit
Ġ user
ĠTra iner
ĠG Ã¤
auf trag
Im age
Ã¼r n
Ġerschien en
u hl
Ġ rei
wer ks
W ie
O ber
n der
ĠMÃ¼l ler
b is
ĠSch les
z Ã¤hl
ĠGe orge
ur a
ĠMa c
l s
ĠR Ã¶
ĠL ong
ĠEm pf
ĠBen utz
ĠFot os
5 3
Ġaktu elle
S ession
Ġf irst
ĠI V
D efinition
Ä ±
ĠProdu kte
N eu
ĠMus ic
Ġnot wend
verwalt ung
v o
ist in
Ġkosten los
ymnas ium
n ungs
ĠP ri
ĠJ es
Ġschw ed
ĠVerwalt ung
Ġ193 5
Ġjeweil igen
ma x
ĠBez irk
west lich
Ġblei ben
ĠH y
Ã© r
0 7
A M
R o
u gen
Ġd ich
ĠS uche
ĠP rÃ¼
ĠMa schinen
Ġpolit ische
em ann
red it
Ġgesam ten
P ort
ie gen
ĠK ab
ĠK omb
ĠF e
og le
Ġ192 8
By tes
ĠSch war
ver t
Ġf anden
5 2
p ed
ĠB lack
ĠR h
An y
herap ie
in sel
ge g
ĠT hr
ab ase
() ))
der s
ĠO ffiz
ĠSch ool
Ġaus schlieÃŁlich
ĠChar akter
ĠS l
ech net
Ġsof ort
ĠAb st
Ġs ize
T ree
iz ation
ĠG attung
Ġa c
ĠB eim
ĠCharl es
gew iesen
ĠS V
ĠFl Ã¤che
K ultur
v on
Ġin dem
tr ieb
ĠStÃ¤d te
6 1
g a
ti st
la w
Service Response
ie fer
ĠR ennen
res ource
()) );
id a
Ã¼ck s
Ġdamal igen
Ġer setzt
5 8
f ace
g ie
Ġ euch
ĠM acht
is D
Jahr hundert
ĠF ehler
Typ es
ĠSold aten
ter t
Ġf unktion
ĠAn lage
ieren de
Ġtr Ã¤gt
ock en
ĠBau ern
Ġnieder lÃ¤nd
c up
ĠG et
um Ã¤n
ĠV ic
Ġo bj
ww w
E urop
I L
itu ation
or gt
Ã¼ gen
zahl en
Obj ekt
A c
W Ã¼rttemberg
c is
C o
g ruppen
\ "
ad o
Ġl aut
Ġben annt
ĠEp is
ĠV iz
Ċ ĠĠ
Ġ* /
u he
wÃ¼rdig keiten
ĠF ischer
Ġl ine
Ġl angen
ag te
iff er
ĠWeiter e
qu ar
Ġgen ommen
Ġd est
Ã¼r gen
ad a
ag d
er ei
Ġf in
mittel t
sprach e
techn ik
I V
č ĊĠĠĠĠĠ
Ġw or
ul en
Ã¼ ge
ĠW ehr
ir g
ĠZ ei
ĠAn schlieÃŁend
ĠgroÃŁ er
igit alis
Ġtrad ition
t d
Ġall gemein
Ġumf assen
ĠD amen
ĠStr om
ib r
spr ung
Ġge prÃ¤
P osition
ĠFried hof
By te
. "
ĠS up
bau m
C om
k r
w urf
Ġver d
Ġstatt f
I t
ra f
lie fert
imm el
haus es
ehens wÃ¼rdigkeiten
9 3
ĠHal le
ver se
ĠÃ¼bern ommen
Ã¤hr t
ĠUnternehmen s
stru ktion
Ġ19 18
ĠN av
rei he
ib el
st ate
le hn
Ġbek ommen
ĠMon ate
Ġb ein
it ts
ĠH art
ohl en
tier ten
at ik
il es
ian a
Ġges etzt
lau ben
schl Ã¤
Ġbrach te
ĠK olle
ĠBr Ã¼
Ġangeb oten
p os
Ġs od
Ġunter st
w echsel
ĠA uff
Ġl au
b ung
m ung
Ġ19 00
ĠAut om
ĠspÃ¤ter en
c tory
g yp
p unkte
ĠS ingle
Ġm Ã¶
Ġk or
F e
Ġ193 2
Ġkl einer
ĠMÃ¼n ster
| }
ĠR ob
R eader
h te
Ġm m
Ġm ark
ig i
Ġwelt weit
ul ation
Ġmus sten
ĠE ich
ĠR enn
ĠMen sch
ĠZentr al
M ill
k ur
ĠF ernse
ist isch
Ã¶l f
Ġregel mÃ¤ÃŁig
ĠStu denten
n ey
ĠM ik
Ġre st
C l
C ase
h auer
ĠÃĸ l
5 7
Ġsei en
ri ffen
Ġzw eit
ĠBez irks
ĠG ro
Ġvoll stÃ¤ndig
O P
Ð »
ĠVer kauf
u z
ĠIn str
Ġex tr
ĠHand el
hil fe
ĠÃĸff entlich
ĠSp anien
pf el
Ġall ein
T V
g ab
ink el
Ġb au
Tra cing
UR L
ĠF ac
ĠF ritz
iet y
ĠGÃ¶ tt
b s
ĠAb s
ĠArb eiter
ĠN amens
h och
Ġ ag
ĠT om
ick t
lau bt
Ġgel ten
Val id
5 4
ĠZ immer
Ġl eich
or ien
ri ge
ĠIm m
ĠRad io
Ġverm ut
ĠFamilien name
Ġ ed
Ġs ah
Ġn utzen
ĠK er
ĠFl or
A pp
r el
ĠG Ã¼ter
ĠW es
Ġge fÃ¼hrt
vers ion
R uft
w issenschaften
age gen
ĠMa inz
ĠunterstÃ¼tz t
ĠGegen satz
ĠBrow n
m acht
ĠS ar
Ġ3 00
Ġh ttp
x y
un e
Ġdurch gefÃ¼hrt
ĠM ul
amerikan ischen
w en
Ã¤l lt
lav ier
ĠStaff el
ĠP aar
ĠO ff
B est
G et
Ġk aufen
ĊĠĠĠĠĠĠĠĠ ĠĠĠĠĠĠ
ay out
ge d
mÃ¤ ler
ĠDÃ© partement
ĠG ust
ĠWei hn
ĠSchm id
etail s
Ð º
Ġi tem
ra w
ĠBran denburg
H el
ĠVer br
bl att
op s
ĠDan iel
ĠComp uter
ĠVorsitzen der
ĠStru ktur
an sp
low ak
Ser ver
ĠSicher heit
eb ug
A B
on ym
arr y
Ġin tegr
Ġan s
Ġvermut lich
z ur
om ent
ĠBÃ¼ cher
ĠFarb e
Ã ±
ĠA v
Ġreg ion
aup ts
y pen
In put
ĠZust and
C omm
h or
un ion
Ġre p
leg ung
ĠZusammen hang
h el
ĠB il
stell ten
ĠFahr zeug
cript or
un sch
rot z
5 1
er in
ie ts
ĠLeist ung
ĠK enn
H ttp
rei tet
end orf
n ant
ĠP au
Ġer forder
wei le
Ġerh eb
ĠS ing
M ethode
W Ã¤hrend
an walt
Ġm ilitÃ¤r
ĠFÃ¼r st
serv ice
Ġbeleg te
ĠD or
ĠâĢ ļ
eich ert
Con tr
is c
ĠK u
ĠMus iker
ĠRef orm
ĠerÃ¶ff net
ĠB ill
re en
fol gen
ĠRo sen
Ġw rite
Ġbest e
kir chen
m esser
Ġk anad
ĠAus stellung
ikan ische
G B
P S
ĠGr and
ommer ce
Ġbel ieb
Ġd ah
ur ity
Ġer inn
Ġ192 9
Z ur
ach ts
ser e
ĠS icht
Ġj unge
zeich nung
ĠKin dern
TY PE
ro ffen
ĠC an
ger s
Or g
ret Ã¤r
Ġg uten
ĠU N
ĠDeutsch er
umen te
Ġh Ã¶r
enz t
c omp
uf e
ĠFrei burg
ĠVertr eter
Ã¤s ser
ĠS ammlung
ĠM ot
ĠK olon
ĠL ink
scha fter
ĠDar stellung
ĠFot o
ĠRuss land
ĠH ir
Ġent lang
Ġfer tig
C ollection
und s
Ġr ichtig
ass el
ash ington
ĠS on
isch em
eil t
ĠTechn ik
Ċ ĠĊ
ges p
ĠU p
Ġun ten
Ġjed es
ĠF Ã¤l
ĠChrist oph
( '
ĠL Ã¤ndern
ĠHinter grund
Ġver br
all owed
eth oden
Ġwest lich
ĠArchite ktur
ĠM un
Ġfol gt
K arriere
Ġd igit
sh eim
Ġpar ent
n ern
à ¤
ĠS onnen
Ġbesch rieben
Ġexten ds
Ġz eig
ĠK lass
Ġg roup
ed ia
tier ung
Ã¶rder t
ler s
gew icht
setz ungen
p ossible
Ġh aupts
stÃ¤nd ige
Ã¼hl en
Up date
ĠR ek
par se
ĠY ou
Ġentsp rech
Lo ader
Ġsogen annten
ĠHeil igen
B ase
re st
ĠRecord s
ĠTrad ition
K E
ĠS or
Ġver gleich
Ġzun ehmen
Ġehemal iger
g ing
ĠAuf stieg
Ġrel ativ
ĠK ammer
Ġent st
Ã© s
hÃ¤ user
Ġ19 10
ĠEx per
mittel n
O l
iter ator
Ġpar se
ĠNutz ung
ĠD ro
Werk e
w in
ber n
Ġd unk
ri b
Ġ} );
ver lag
ĠIn ner
ĠReg isseur
b rit
Ġge bracht
Verein igte
R ad
o tion
Ġ1 000
rei g
Ġweiter er
fer enz
j or
w o
ĠMath emat
ĠerklÃ¤r t
ĠLou is
ĠB ig
rie ster
ĠWer te
lu ster
p oint
Ġs ource
ĠW ach
ĠÃĦ r
ĠverfÃ¼ gt
ĠGeburt stag
B and
ĠM Ã¶
ĠE vent
Ġgesch rieben
ĠT agen
ĠL im
ĠL eicht
um er
Ġver lieÃŁ
c lose
Ġver treten
ĠBer eits
Ġkl ar
schau spieler
Ġaut omat
c i
ĠD irektor
iel le
ri a
ĠPar am
AT ION
n itz
ĠS ec
Ã¤ ische
sub string
d ar
h i
ĠG it
it ur
ĠD ank
ti scher
ĠR iver
ĠN a
ind ungen
ran t
omm ern
G er
h emal
Ġander er
ĠProblem e
Gemein de
Tracing Enabled
Ġer ror
zeich nete
E l
in put
or der
ot a
H ier
an i
ist ent
ĠSt ahl
get Class
ĠSchw e
Ġd ec
Ġle bt
C ontainer
ĠK up
Ġg riech
ĠSo ftware
reu en
Ġbeteil igt
lie fer
Ġgew innen
ieh ungs
Ġf uer
ĠZ eichen
Ġr ich
sel ben
schul en
Ġlog ger
wind igkeit
ĠN orth
ett ings
ĠRo yal
at ung
ĠLand schaft
ĠSo uth
ĠVer teid
Ġex p
ĠGes prÃ¤
ĠHaupt stadt
Ġin form
ĠColle ge
Ġein st
Ġ19 14
ĠString Builder
ĠNational sozial
fass ungs
ĠErgeb nisse
ĠT schech
ĠNatur schutz
ĠJak ob
r ing
Ġn ied
ĠKomm and
ĠK arten
klÃ¤r ung
UL T
is Any
Ġo ther
ĠHand els
Ġ192 7
N eben
b a
Ġj ungen
Ġtr agen
Ã¶st lichen
ĠM and
ĠZ uf
Ã¼hr ung
Ġsod ass
I P
ĠG Ã¼n
Ġl ength
Ã¼n dete
ehr t
ĠUr s
i ar
ĠP a
Ġst ieg
F unction
Ġd ur
Ġber eit
9 8
ĠB ra
d or
ĠDreh buch
st Ã¤nde
Ber lin
ĠHom epage
em er
n ess
ĠP la
ĠJ SON
Ġdar an
isAny TracingEnabled
Ġs k
Ġitalien ischer
Ġ ass
Ġver kauft
ien en
ĠVor stand
Sch wei
st rÃ¤ger
ĠZ eich
sp ir
gel assen
Ġbet rieben
Ġausge tragen
Ġhistor ischen
ĠE lem
ĠAn gaben
ĠGer icht
I s
ĠT Ã¤tigkeit
ra te
ĠVerkehr s
ĠL ok
ĠL ive
Ġt ats
ask et
ĠJ ob
print ln
D ep
sp ann
sh of
Ã ½
U M
Ġgleich nam
N ieder
Ġdar in
Ġ Ã¶stlich
ĠI st
ĠC ast
ĠQu ellen
Loc al
ĠW ettbewerb
ver trag
c er
ĠM as
anz e
ĠInter esse
ĠIde en
F ol
T arget
ĠKrit ik
K reis
f alse
ĠH ab
t op
Ġhaupts Ã¤chlich
p ace
Ã¼ m
Ã¶ nen
se x
lei tet
ĠHau t
ĠNeu e
ĠPerson al
Option s
n ummer
er o
Ġverl or
ĠSoc iety
P olit
urn ier
ĠMa y
ĠSpez ial
ad rat
c ed
ĠSchw ester
d essen
ĠS erv
Ġh ielt
Ġt un
Ġun abhÃ¤ng
e ar
p o
aly se
B undes
m at
Ã¤n e
ĠS atz
el ement
ĠAl fred
ĠMo dern
gef Ã¤hr
d as
ĠG lock
ĠS Ã¶
Ġl ast
er te
ĠBo x
forder ungen
Ġwich tige
V AL
gen er
Ġver antwort
geb racht
P reis
ĠS amm
Ġs uchen
ĠL os
gr am
d f
ĠW etter
ĠPra xis
T P
Ġ1 20
ĠF in
lin ik
Ġ193 1
cc ount
Un it
r and
r ig
w al
ed t
ĠK as
Aus zeichnungen
c ar
ĠT at
ĠSp Ã¤ter
Ġ192 4
II I
par e
ond s
ĠMittel alter
ĠAller dings
Ġentsprech end
f ilter
ĠM ount
il dete
ĠIn f
rech te
deut schen
Ġ192 5
S Ã¼d
b as
ter e
iz ierte
Ġgesch affen
ha ber
own load
ieh ungen
ĠS at
ĠB a
Ġm einer
ĠNach richten
ĠVor der
Ã¤nd ig
O D
Ġeurop Ã¤ischen
k g
ĠC re
ĠAn teil
Ġet c
Ġch ild
mar y
s berg
ĠK ey
Ġwichtig sten
Ã¤ den
ĠK a
Ġun bek
ĠÃ Ĺ
T R
v a
¿ ½
ach im
ĠHau se
er er
le d
ĠW ashington
ist ry
ĠDat ei
l igen
ĠAuf gabe
ĠWebs eite
ĠStand ort
ĠPat ienten
Verk ehr
l Ã¤nder
Ġw ww
le ger
ĠStr eit
ĠEl is
ust om
ĠB eck
Ġl ok
Ġtr e
9 2
Ã ¢
Ġs ynchron
Ġsch war
ĠHo hen
ĠR ec
ĠO ption
reg ierung
l ong
Å Ļ
ĠG olden
ĠL ig
iel len
erk unft
vers ammlung
ĠM ur
ĠM ission
ĠH eute
ess el
ĠBew egung
g y
p osition
ken nen
br Ã¼cke
Ġausge stat
ĠDem okrat
Ã¤ ume
ĠH eer
geb iete
wert ung
st ern
es h
Ġqu ery
ĠGel Ã¤nde
ĠVer fahren
Ġwieder um
R ule
ĠD auer
Bau werk
Call back
od or
Ġdi ent
ĠBeruf s
ĠG alerie
Ġge bild
ep ar
Ġ192 6
ï ¿½
Ġp art
rik t
we der
fr ist
M ark
Ġ row
un t
op tion
Ġ4 00
Ġch ines
bo gen
Ġsol che
f ort
Ġo ffset
Â «
ĠW affen
gang s
ĠBetrieb s
ĠRel ig
g g
ĠM iss
ĠF ak
ĠO pfer
wei te
Ġum fang
ĠTem peratur
L S
ĠS uch
P os
o ugh
r ats
ĠGroÃŁ en
Ġunmittel bar
pro gramm
ĠVier tel
9 6
a ster
ĠBes atz
gemein den
ĠHeid elberg
ĠB u
Ġan zu
Ġlie fert
9 4
d ouble
ĠL ieb
Ġerziel te
S ec
Ġr ein
t eile
ec ts
ĠAuf bau
ĠN Ã¼rn
ĠSpiel zeit
Ref erence
ĠS PD
Or der
B ahn
ĠIs land
ĠSti ftung
Ġb uffer
ĠÃ¼ber wiegend
ĠRech te
Ġverl Ã¤uft
ĠFest ival
Ġm ag
Ġbest immt
Ġle bte
ĠDar m
G ruppe
H E
g ern
v an
ĠV ort
S a
an geb
Ã¼ hm
ĠW agen
ĠSt atus
ĠGr enz
Ġerst es
ĠHÃ¶ hen
ĠB ist
ĠÃĦ nder
Ġbestimm ten
H T
Ġp ort
ĠĊĠĊ ĠĊ
echs eln
asket ball
S k
S erv
ĠRich ter
ĠK lavier
Mus ik
v olle
ĠT enn
ĠSch ne
ĠPro zess
Ġent deckt
Ġverl assen
Z eit
in ar
Ġ3 6
Ġunterschied lichen
ĠB lock
ĠW eil
Ġg Ã¼nst
ĠFÃ¼hr ung
c el
Ġ19 12
ro und
Ġg anzen
Ġ{ }
ĠMa ster
ĠAd olf
Ġeinz eln
dr Ã¼ck
ĊĠĠĠĠĠĠĠĠĠĠĠĠĠĠĠĠĠĠĠĠĠĠĠĠĠĠĠĠĠĠĠĠ ĠĠĠĠĠĠĠĠ
ĠM Ã¤r
and a
Ã¼n der
R L
Ġ ti
Ġd agegen
ĠAut ob
ĠK ol
Ġbe an
ok e
ichte ten
ĠÃľ berg
ĠAc adem
f rie
st Ã¤d
st echn
ĠG ir
ĠW echsel
ĠSt off
ĠMeister schaft
ĠGew inn
mit glied
Ġer fÃ¼l
Ġaus ger
Ġaus geb
rap per
ĠGust av
h agen
off iz
ĠKomm ent
B l
az in
ĠmÃ¶ch ten
Ġ ter
is on
ĠBez ug
M ode
ĠF arben
Ġzw Ã¶lf
Trace Component
ĠB at
Ġf e
ĠHoff mann
T ask
ĠMa il
by te
ĠVer m
Ġ192 1
Ġbr eit
ĠW issenschaften
Ġ192 3
R ec
ei ben
Ã© n
ĠBeh andlung
v ier
ver l
pr et
fig ur
fra gen
ĠN ic
ad el
Ġst ets
Ġst aat
av en
Ġval id
ĠT ype
um pf
Ġo per
alis iert
f ur
Ġ Ã¶
Ġer baut
for men
Ġentspr icht
F uture
Ġv Ã¶l
Ġin zwischen
tr Ã¤t
ab s
Ġver fÃ¼g
on ik
al a
ĠFran cis
brit ann
E hemal
d el
Ġw ider
D ire
m ission
ot o
ĠTel ef
ĠS ach
ent al
ĠEurop Ã¤ischen
ĠDar Ã¼ber
Ġbesonder e
Ġir gend
ĠSin ne
s age
z ern
ĠS ign
lin ien
Ġle gte
Sp ec
Ġar ch
Ġprom ov
B is
i Äĩ
ech te
d t
ĠS ib
ur y
ut or
sie he
ĠS S
ĠZ eiten
Qu ellen
ĠSchwe den
c r
ĠH oll
us ion
Ġher r
ĠMann schaften
d urch
Ġw issen
eim ar
Ã¤nd ler
ĠPf lege
weg s
de st
ĠE reig
sp er
Ġsch warz
ĠAut oren
ĠBesch reibung
ĠWider stand
krÃ¤ fte
s ein
st il
ĠF al
ĠW erb
ĠArch iv
minister ium
at is
ĠIn fan
af el
wer te
ĠC up
gangen en
ontin ue
leid ung
au x
sp rÃ¼
Ġr ule
geb nisse
Ġ< =
ĠMen ge
ĠMet all
ĠwÃ¼r den
Ġer l
lob al
Ġbe z
D ir
ĠW Ã¼rz
ĠLand wirtschaft
Ġgew onnen
Ġd ep
om et
ĠIn vest
ue ber
ev ent
ĠScien ce
bo x
I G
o ffen
ĠEin fÃ¼hrung
St adt
Pro vider
ĠDeutschland s
ĠTurn ier
West falen
Ġm atch
ĠBlÃ¼ ten
ĠE ck
Ġein gesch
Ġp rivate
Ġc olumn
Î ±
ĠT isch
Ġt op
ĠGer hard
Val ues
Ã º
ĠKon fl
ĠOrg anis
P o
V D
Ġh Ã¤lt
art h
ĠAng riff
ĠzerstÃ¶r t
ĠKarl s
F rank
Ġo ff
Ġa v
.. ..
ĠFir men
B esch
w ander
Ġges ehen
ĠHam burger
Ġversuch t
A X
b i
b uild
Ġdarauf hin
ĠPap st
F r
T E
ach tet
ard s
ĠFeuer wehr
din and
AT E
ĠStel len
ĠC entr
Ġ192 2
hol t
g rad
ĠK ult
Ġge halten
20 17
Ġpro perty
l v
z un
lie der
Ġvor bei
P AR
ĠW appen
Ã¼t te
ĠauÃŁer halb
omin iert
Ġw uchs
ĠD E
O b
ĠT iere
Ġer fahren
equ ence
ĠdÃ¼r fen
Iter ator
ĠH ard
az on
Ġersch eint
or et
Ġs agte
il ian
ĠJu den
leist ung
k osten
ĠD ivision
ĠR is
ess ages
Ġle bten
Ġmus ikal
ĠSer ver
R em
ar tet
ĠJ os
la zz
Ã© e
ĠBr Ã¼cke
ĠBei trÃ¤ge
u til
an ischer
ĠS end
sch m
ĠV om
Ġt Ã¼rk
ĠZ en
ĠÃ ī
ab les
Ġmehr fach
Ã Ħ
ĠH und
Ġgesp ielt
ĠB rief
Ġbet rach
Ġfol gten
Client Exception
R ecord
st Ã¤r
sb ach
rie be
Ġkompl ett
ĠH afen
ĠEn gel
app ing
g roup
č Ċĉĉĉĉ
Ġin tens
ud es
ohn er
ht t
ĠPhilosoph ie
em pl
hr e
Par ent
Ġinternational e
ĠStim men
======== ========
9 7
T echn
Ã £
ol s
Ġbe endete
Ġbek annten
ĠSchn itt
ĠPort ug
n ode
Ġb uilder
ĠU ser
ĠLe on
oper ation
s ied
ĠV is
ĠLu x
Ġeinge stellt
g au
m t
u ell
de f
Ġauf gerufen
ver fahren
rau en
I OException
m atch
ĠD Ã¶r
ĠV arian
O p
Ġw eg
Ġs w
el and
ĠAr zt
osit ory
Oper ation
z ul
ir ge
ĠAb teilung
ĠOr tschaft
ĠAn wendung
amer ika
Ad resse
T hread
ver stÃ¤nd
ĠBl att
j ava
Ġd re
ĠT ar
Ġ19 13
ĠBl ut
Ã¤hn ung
ĠFlug hafen
gn ore
ĠMat th
ĠT ir
ath ar
gew Ã¶hn
ĠLauf e
ĠermÃ¶glich t
et ing
fer ence
Ġmittel s
Ġd ritte
Ġl os
Ġp lan
Ġarb eitet
gent in
Ġwahr scheinlich
I M
ĠP rom
Z um
w ood
med aille
u gend
Ġ( ,
Î ¿
ĠS C
ge fÃ¼
at o
ĠWei ÃŁ
Nach dem
p ack
ĠgehÃ¶r ten
ĠMÃ¶glich keiten
ĠElis abeth
s achsen
sch weig
ĠA ud
ir d
In putStream
zip lin
Ã ´
us ern
ĠBundes liga
lan de
Ġstar tete
Ġausgestat tet
j i
o sen
Ġn eg
ĠUn ited
19 45
Ġsow jet
amil ien
Ġval ues
In d
Ġent stehen
alis ierung
S P
Å «
om a
ĠSchul en
ĠsÃ¼d lichen
S ti
ĠVer halten
Ġle er
Ġwen igen
ĠIde e
ĠTran sport
Ã ¥
ch em
ĠA sp
Ġver pflich
ĠIn gen
] );
et work
ĠL eit
Ġbrit ische
ol er
ĠE ss
ĠEr inner
glieder t
S U
gr Ã¶ÃŁ
ĠKap elle
ĠBesuch er
ĠE st
Ġf lieÃŁ
produ ktion
ĠG ru
ĠSicher heits
ĠW issen
ff e
20 11
List e
ĠE du
ĠSie ger
20 13
ĠVor gÃ¤nger
Ġgen annten
ĠEntscheid ung
ĠSow jet
< >();
Ġb lock
ĠHer steller
oot ball
as p
ĠN ummer
ĠRe al
ĠFranz Ã¶s
Aut or
ĠR ing
ĠL ieder
mÃ¶ gen
Ġamer ikanischen
p rÃ¤sident
ĠK iel
F irst
f abrik
s or
Ġdar gestellt
leg te
B ild
ie m
ĠS dk
ten d
Ġab geschlossen
Ġpro cess
ĠInform ation
sch te
Ġc lient
Er baut
R ead
T op
w es
20 12
ĠInter view
à ¦
ĠFl Ã¼gel
Ġverlie hen
L ock
Ġd Ã¤n
gesch oss
Ġbet re
ĠGrund lage
britann ien
H istor
N O
em e
ĠK ron
ĠP orn
20 14
Ã¼l tig
Ġsetz en
Ġout put
P attern
ĠP ubl
ĠH on
Ġheu tige
ĠHistor iker
P RO
er be
Param eters
Ġ Ä
Ġwei b
ĠjÃ¤hr lich
20 10
ĠgrÃ¶ÃŁ ere
Exec ution
o y
p a
ĠG roup
ĠP resse
arb e
ac ter
Ġher gestellt
ouver ne
5 00
l uss
Ġge gebenen
ick s
Ġeng ag
Ġp riv
ĠOr te
if ied
20 16
H ash
k omp
Ġg alt
gr enze
zu stellen
ĠVo gel
W idth
b orn
au d
Ġin itial
ir che
ĠEin trag
ard inal
ĠW unsch
Ġform at
Ã¶ ss
Ġl ock
ĠIn iti
Ġges etz
exik on
ĠSdk ClientException
al te
it le
ide os
ĠKn oten
sprach igen
ĠOb serv
Ġhel fen
) {
L in
Ġ eb
Ġs agen
se k
Str a
teil en
D B
Ġs ession
Ġk ultur
co ver
ĠS n
ĠP ier
tr at
ĠVer lauf
og n
pl y
ĠKl assen
ĠSte fan
c od
ĠTh Ã¼r
ĠBild ungs
ĠDaten bank
Ġer gÃ¤n
ĠEn gl
ĠAuf grund
20 15
Ġcon tent
z ell
denk mÃ¤ler
D en
get eilt
In valid
If c
f amilie
an en
ei ÃŁ
Ċĉ ĠĠĠ
oren z
. ),
ĠG rÃ¤
tr ans
ig r
Ġur l
ĠAll gemein
ĠGra fen
ĠGl Ã¼ck
ĠTÃ¼r k
h orn
ĠD Ã¤n
ow ski
ĠNik ol
G ER
Ġ3 4
Ġz eich
ĠP riester
ĠMar ine
ĠHo use
Met adata
c as
ar re
ar ischen
ĠR ath
ĠL i
Ġsp ec
u id
un c
Ã¤ her
ĠK rÃ¤
Ã¤l de
ĠKar te
ĠWir kung
ĠRef er
unn el
Ġunterst Ã¼tzen
c ol
Ñ ĥ
ĠGÃ¶tt ingen
Ġs icht
ĠVer hÃ¤ltnis
ĠEr satz
ĠNeu en
ĠMon at
Ã¼tz t
oci ation
B ox
S G
Ġ Ã¶ffentlich
Ġw id
as er
Ġp ost
Ã¶r de
arch iv
an isch
âĢ¦ ]
m ord
ĠG all
Ġc ount
p end
ĠM em
ist enz
Ġex ception
Ol ymp
k y
Ġs ec
ĠG as
Ġer kennen
mer ksam
rÃ¤ ume
Ġ15 0
G roÃŁ
L abel
l Ã¤uf
Ġ one
io us
neh m
hei mer
fel der
Ġg ingen
ĠEr b
Ġviel leicht
ĠT ime
ĠAus druck
ĠĊĊ ĠĊ
b ul
ch mal
Ġverw enden
ĠjÃ¼n ger
it hm
ĠE ber
sp iegel
op old
Ġbek am
ennt nis
ian o
ĠKonz ert
Out put
p hen
ĠS eb
Ġn amens
onn e
bild ungs
ĠÃ¶sterreich ischen
D P
ĠK rim
ĠV iele
ĠO x
Ġc omm
ĠUn garn
ĠAb t
olum b
n etz
in ess
ĠH it
Ġre qu
Ġar gument
Ġob wohl
ĠrÃ¶m isch
ĠS ituation
Ġh eil
ul es
len burg
ĠCar ol
ĠFer dinand
ĠgeprÃ¤ gt
st uhl
on ischen
tig ten
ĠgrÃ¶ÃŁ eren
D ouble
ã Ĥ
it es
ĠI N
Ġ190 8
omb in
ĠFrÃ¼h jahr
Ġproduz iert
z eigen
in ce
ĠG eg
Ġb lau
ĠSchiff e
Ġsch lech
2 000
ĠA str
Ġan ges
ĠZ us
ind ustrie
ren nen
bo ten
ĠObj ekte
ĠK rank
ĠP ots
ĠC oun
Ġbe ob
ĠGew icht
ĠMax im
Weiter e
N r
at oren
ĠK urt
ĠG rad
im ple
por ted
ĠHen ry
r Ã¼ck
++ ;
UR I
S O
Ġder zeit
Ġge zeigt
Ġzu erst
par ator
Ġat tr
Ġsogen annte
Ġander s
con fig
Ġmax imal
ĠComm un
ĠhÃ¶ch sten
z te
ĠT her
Ġge z
Ġc o
Ġ3 3
L OG
ĠN ode
200 8
T im
k tiv
ĠM ol
ĠZ erstÃ¶r
Ġweiter es
ĠThe ologe
mit h
ĠH aar
Ġl etzt
th ur
glie dern
ĠMet ern
h men
sch auer
ĠM ir
Ġzu gleich
A ug
Ã¶ der
ik ations
Ġp erson
Ġkann st
ar tige
ĠE hef
ip s
St ack
k lass
ab teilung
200 7
reg ion
ĠPol y
mÃ¶glich keiten
v ir
in ander
gel d
ĠBern hard
ĠJur ist
Ã¤chs ischen
G en
R A
ĠC enter
ot her
anz er
son sten
ĠLin ien
ĠArchite kt
B A
ĠT ore
Ġent weder
z ust
at rix
ĠK och
is ierte
deck en
ĠErz Ã¤hl
Ã£ o
ĠK os
ĠOr chester
Ġbest Ã¤
ÃŃ n
ĠRhein land
Ġre duz
gesch rieben
ĠMc C
Ġfin ally
r aten
Ġw under
ĠG rie
re a
ĠVer anstaltungen
ind ing
ĠJahr zehn
ĠEr de
ĠEin heit
Ġ3 8
tig es
Ã¼r f
Ġk Ã¼nstler
ĠTeil en
ĠMan agement
Ġerw arb
ĠErfahr ungen
g Ã¤nge
ĠD ev
Ġh eim
ĠC a
Ã¶r den
ĠAb schnitt
ĠAd el
leist ungen
sum er
W arn
ĠNeu bau
Ã¤mpf en
m ir
ĠE ro
Ġst anden
ĠAl pen
hÃ¶ he
ĠLeist ungen
Ġerweiter t
Ã¼ mer
Ġ19 11
ck s
up pen
Ġsp rach
č ĊĠĠĠĠĠĠĠĠĠĠĠĠĠĠĠĠĠĠĠ
st ift
ĠK andid
ak er
igitalis at
9 1
M atch
il en
ĠEr weiter
// //
stoff e
čĊ čĊĠĠĠĠĠĠĠ
n ational
ĠP unkten
ĠVer Ã¤nder
ech ts
sk y
ĠErz bischof
Kl asse
h u
st ation
al b
ĠÃ¼ber tragen
ĠEin ige
ss ystem
Des criptor
Ġ( "
Ġf ehlen
ĠL aut
ĠSchau spiel
Group Name
Ġf ra
ĠJ Ã¼rgen
ĠSh ow
ä ¸
Ġz Ã¤hlt
ĠBei de
ĠBas el
b ilder
ĠL oc
Ġl eitete
ĠSch riften
men sion
Ġitalien ischen
k opf
ik on
ĠNord rhein
Ġy ou
200 6
200 9
m aterial
w Ã¤l
et on
ĠD ate
Ġf ilter
ĠHein z
ĠL ad
ĠPart y
ĠStud io
' )
k ultur
l Ã¶
wahl en
ĠVers icher
Ġâ Ĥ¬
FA ULT
k rieges
ĠF ein
ĠR eb
ĠRe aktion
ĠTod es
Ġwir kte
enn e
ĠAus land
se ud
ĠZ ivil
Ġunter such
pl Ã¤tze
C heck
h em
r t
ut nant
orden s
alis mus
ĠKomm ission
ĠIl l
Ġverst Ã¤r
Ġbestimm te
ĠÃ¤hn lich
ĠS um
ĠS ab
ĠD ichter
Ã¤hr ung
ĠGrÃ¼n den
ĠMor gen
ĠGeh eim
It alien
C al
D ocument
w an
Ġf ound
ĠT own
ĠWohn ung
ĠH ill
bl Ã¤tter
Ġwes entlich
isD ebug
ei tern
ĠF eder
ĠT Ã¼b
Ġan ti
ĠSp ann
ĠBundes republik
p aar
rei ter
ak a
enn fahrer
trÃ¤ ger
Ġmittler weile
ĠS ur
th eit
Ã¶ff nung
Ã¤hl ten
Param s
Ġlin ken
ĠQualif ikation
Ġ old
ĠH ttp
St ore
ĠRes erv
N on
ĠH ell
Ġbek omm
Ġhin gegen
dien ste
em ark
Al bum
stÃ¤nd igen
ĠKap it
ĠSommer spiele
Ġkur ze
D ef
k Ã¼nf
sch loss
Ġm Ã¤nn
ĠF le
ĠEn s
Ġar gs
Ġro ot
ĠVic tor
i od
ur es
ĠC at
Ġ7 5
ĠfrÃ¼her en
ĠD rit
ĠL y
ot ten
ĠGre en
Ġau str
ĠIn halt
arr en
Wir tschaft
ĠnÃ¶rd lichen
ĠSied lung
c essor
ĠS ym
ĠT rotz
ack en
int on
prÃ¤ sen
ĠBraun schweig
p olitik
Ġd auer
kon om
ĠPfarr er
p olit
Ġs ystem
Ġv is
Ġm ass
ĠN un
Ġt able
Ġwest lichen
ĠTex te
Ġf loat
Ġver sion
ag ne
Ġverb reitet
ĠUl rich
ĠSch laf
eck lenburg
ĠFr ont
F ound
Ġj em
ock et
ĠBild hauer
Ġaktu ell
ĠLie fer
Ġsynchron ized
l or
ord s
arb urg
Ġbel egt
ĠWÃ¼rz burg
S A
au ff
ck t
Ġp os
Ġvor gesehen
fra struktur
Ġentsprechen den
b ad
Ġf Ã¤llt
uch ten
org anisation
i tem
u it
Ġh il
get Key
ill on
stit ution
ĠTeam s
Ġmoder nen
i ro
ĠB ord
Ġl en
Ġfor der
Ġbet rug
ĠLeist ungs
ĠUnter richt
Ġrech ten
Ġober en
ĠSalz burg
O K
ĠI P
ru he
ĠHaup tr
ĠSchmid t
Ġverantwort lich
w ach
ĠSonn tag
ĠAustr alien
re form
ĠBr asil
Ġ6 5
ĠPrem ier
J uni
ho ben
ĠvÃ¶l lig
D isk
ite inander
P an
den ken
Ġent gegen
Ġgef Ã¤hr
ĠElem ente
V ER
Ġ ehr
ĠM auer
Ġh Ã¤tten
Ġr en
Ad d
fÃ¤l le
Ã ł
Ä Ľ
ĠE ff
200 5
ĠUr laub
ĠEhef rau
ĠÃ¼ber geben
Ġrem ove
ĠGesund heit
T I
pf lege
bau er
ersÃ¶n lichkeiten
er ben
ĠK anada
ul ts
ĠArch Ã¤
ĠT anz
ri p
ĠSprach en
et ts
Ġm ust
ob ile
Ġd isk
Ġs agt
rei f
wei ht
Ch ange
H L
get Type
ĠD ien
ĠK anz
eit ag
ist an
end s
ĠAl tern
ĠSÃ¼d westen
ar zt
ed ig
Ġr Ã¼ck
ap ter
att form
ĠFer ien
untime Exception
ĠP eters
ĠR ezep
ver treten
ank e
Par ser
ĠStra ÃŁ
akt or
d b
ĠB ol
ten sion
ĠSch lieÃŁ
iz enz
Ġer stellt
ĠZ ahn
ĠIhr em
ĠEd ition
ĠFlug zeug
ĠGo ogle
Ġloc al
O M
Å ¾
ĠS ter
ro at
Ġ/ *
Reg iment
Ġmen sch
al ia
ĠD aher
ĠT ok
ĠT rau
Ġp sych
In s
Ġz Ã¤hlen
ĠW M
ĠV an
ĠOr dens
An notation
ho uld
isDebug Enabled
y t
Ġ q
Ġw eist
ĠF ass
Ġgebild et
H aupt
W ork
or weg
ĠW Ã¶r
zen en
Ġ190 9
Ã¤h ler
ĠRest au
Ġdah in
Ġar ray
gest altung
m ack
ĠL Ã¶sung
> ,
K omm
Ġ190 5
ĠInter essen
geord net
G ew
g u
m ethod
Ï Ħ
Ċ ĊĠĠĠĠĠĠĠĠĠĠĠĠĠĠĠĠĠĠĠ
ĠP DF
ĠUn abhÃ¤ng
Ġbr ingt
Ġf al
ĠSti ft
Ġweit gehend
w ischen
ĠPro te
ĠhÃ¶ch ste
gem eine
M o
w itz
Ġ use
er weise
ĠR au
Ġge eignet
ĠÃ¼ber ra
ĠVor aus
Ġeinge fÃ¼hrt
ĠRegion al
ĠGesund heits
Ġzeig te
P ER
ĠR oll
ĠI ter
ĠZ ul
ĠÃ¼ber haupt
ĠFahr zeuge
e et
n s
st ad
ĠUn ternehmer
ĠCh ic
ĠÃ¼b rigen
heb ung
Hel per
zun ehmen
Ġs up
ĠVer d
Ġeinger ichtet
B ound
Ġb ildete
ĠW in
ug in
Ã¤m lich
ĠArchite kten
ĠSchles wig
al ys
ic ro
U ID
v ed
ei fen
ĠB rau
ĠB reite
Ġb i
Ġm einen
Ġk einer
ĠLe opold
Ser ie
F unktion
S egment
j en
Ã¼ cht
Ġm et
ĠGroÃŁ britannien
ĠnÃ¤ch ste
ĠbeschÃ¤f tigt
z iger
is Entry
ĠJac ob
isEntry Enabled
Ġw ert
iel l
os a
ĠEm il
Ġ[ âĢ¦]
ĠIns gesamt
exik o
ĠFernse hen
n icht
an er
ĠK ing
Ã¤n ner
op en
her zog
Ġerst reck
ĠfÃ¼hr ten
con text
emb le
ĠAcadem y
ĠM ak
Ġan erk
ĠIn dex
rech er
ĠBest e
hand el
bÃ¼ cher
ĠGeist licher
D ollar
Ġge mÃ¤ÃŁ
Ġunterschied liche
ĠFrie den
Ã¤ st
Ġlie f
st ream
el se
Ġb itte
ĠW a
ĠL ind
rich ter
ĠBez iehungen
bew egung
ĠZei traum
B utton
C ommand
ĠC lau
Ġsch eint
iz ieren
Ġ190 7
hand lungen
B ack
Ġp re
ser ver
Ġnah men
Ġkur zen
ĠJournal ist
Ġf ac
ĠH ub
ĠR ost
ĠHoch schullehrer
Ġkomm un
ĠWeltkrieg s
Ġengl ischen
j ew
ĠPreuÃŁ en
ĠMaÃŁ nahmen
ĠBron z
a ber
lie genden
ick e
ĠBÃ¼ ro
ĠWe ge
ĠS inn
ist e
ik o
zÃ¼ ge
B evÃ¶lker
Ġk o
D el
L ayout
ei sch
ĠB ett
ĠD ouble
ĠEr ich
mal er
ĠJo achim
Ã¼s sen
Ġexist iert
Ġentsprechen de
Ġw riter
Ġg o
ri an
ĠAuf nahme
ip her
Ġsel ber
ĠDarm stadt
t al
ĠK ul
ĠL iter
il s
haf te
il ien
Ã¤n en
B oolean
Ġs ech
Ġf reuen
le utnant
Ġver sehen
ĠSo und
IN E
Ġbet roffen
ĠLeicht athlet
ĠParam eter
i Ã¨
ig ner
Ġ18 48
ĠKon zept
ain ing
Ġprof ession
d ach
st eigen
Ġb uf
ĠE g
ĠBy te
Ġtre ffen
k unst
Ġn utz
tr ack
ĠO k
Ġver p
ĠSt urm
ĠFil me
is en
ĠKon gress
ĠInternational en
ĠPublik um
Ġtats Ã¤chlich
fur ter
D ist
f ind
ĠW Ã¤r
ĠSch r
ow a
The ater
ĠErfahr ung
Besch reibung
Ã¼ h
Ġs ucht
Ġn um
ĠW ett
wend ungen
ĠZw eit
Ġgleichnam igen
M en
N S
R ow
p ft
p erson
Ã ĥ
ĠB ibliothek
Ġ4 8
ĠQu er
ĠNord osten
Welt meisterschaft
D oc
z in
Ġ ueber
ĠS us
wei ler
hrow able
wir kungen
Ġhoch wer
B ad
M eister
st he
Ã¶ ÃŁen
Ġge h
sp ar
kathol ischer
ĠVerÃ¶ffentlich ung
b oolean
n ers
Ġl Ã¶
ĠBahn strecke
ĠKomb ination
Î ¹
ĠIn tegr
all er
ĠAn frage
hÃ¶ rigen
ĠWh ite
in zen
Ġs hould
Ġge kommen
ran ge
aus schuss
ĠMos kau
En g
lei s
L age
R oot
s ur
ur l
ĠHÃ¤ user
al bum
ar ische
ĠW eimar
ĠR ap
ber ech
ĠSim on
ĠR ab
ĠAd els
Ĩ Ĵ
ĠB ir
ab elle
ul pt
ĠZ eu
ohn t
ĠMar ien
ĠEurop ameister
Ġn Ã¤mlich
B erg
D A
k op
st em
ĠV ik
av or
Ġen dete
A uth
J son
n y
Ġ19 17
Al le
ĠHand buch
Ġch rist
st Ã¼cke
st Ã¤tten
or age
Ã¤ umen
ĠF ield
Ġtr ug
Ġber Ã¼hm
ĠTeil nahme
ÃŃ a
st euer
st eiger
ĠC r
mer kungen
ord net
sicht lich
Ġzu ge
ĠHer bert
mar sch
ĠMin er
ĠComp any
akte ur
ĠEben e
N ord
k ammer
ĠVer anstaltung
pf licht
ial e
ip pe
ĠDeb Ã¼t
H aus
at i
hl en
Ġbeg onnen
ĠSm art
Tem plate
Ġbeein fl
tr oll
Ġsp richt
ĠLand tag
ĠFilm s
Ġange legt
ĠBrit ish
ie fe
if ft
sb aden
ĠRo ten
ĠFor men
ĠBet eil
ĠGÃ¤ ste
P ool
h aben
Ġs ign
ĠVer antwort
ate ur
ĠSp itze
ĠAl lt
Ġsp ort
log ger
T eam
c ause
Ġ rad
ĠL am
ab geord
Ġben utzt
gra f
Ġ3 7
ant as
Ġm sg
ber eitung
Ġver wand
ĠUS S
ĠRei sen
" ).
Ð ²
Ġm el
and te
ell schaften
stell ungs
ĠKon k
fen ster
n um
ĠP en
ĠW ag
ges sen
ite ktur
ĠFor st
aliforn ien
ĠWir k
ĠIs rael
ĠFÃ¶rder ung
as on
ann er
ver ter
ĠLand tags
Ġ190 6
- )
c lu
ie den
ĊĠĠĠĠĠĠĠĠĠĠĠĠĠĠĠĠ Ġ
Er ster
werk en
ĠGew alt
ĠBenutz er
ĠB ass
ĠD adurch
id ae
ak et
ĊĠĠĠĠĠĠĠĠĠĠĠĠĠĠĠĠ ĠĠĠĠ
ĠMar ie
Ver Ã¶ffentlich
ĠRÃ¼ck kehr
ĠIntern al
ĠBayer ischen
ĠNÃ¼rn berg
ĠH immel
ell o
vor sitzen
i ode
in os
ein s
Ġn umber
Ġver h
ĠSch ritt
ment s
ĠPfarr kirche
iw od
d is
Ġ19 15
ert ung
aus stellung
deut sche
Ġmod el
Ġaustr al
lie d
ĠMon aten
ĠSÃ¼d osten
Ġd or
ei se
Ã¤ ÃŁ
ĠE ind
ĠV ar
ĠU RL
Ġl ern
Ġj ob
od urch
ma schinen
ĠFre unde
ĠWeihn achts
k Ã¶rper
ĠP rag
up pert
Ġ4 2
ĠFak ult
Ġauf gelÃ¶st
get Id
ĠOber st
Ġger ing
au th
ob by
lÃ¤ss lich
Pf alz
B ar
W rapper
ĠThe ologie
ĠgroÃŁ es
Ġend g
t arget
ur ts
ĠM isch
Ġer laubt
eg al
Ã¶s ungen
ĠDurch messer
ouverne ur
Ġum ben
oun ter
Ġexec ute
Ġl esen
ĠAn h
Ġbes itzen
Ch annel
ĠInfan terie
v ar
ĠG ang
il er
Ġl eider
Ġel f
ail able
cri be
ĠmÃ¶glich st
bez ogen
L ast
\ \
st edt
Ġverb esser
Ġersch einen
steh ung
ach bar
ra ys
ann ter
ss on
alen der
Ġoffiziel l
ĠF isch
ĠJ agd
eu ert
ĠFig ur
cod ing
r ang
it ies
Ġeinz ig
Out putStream
ex ec
K urz
b lock
p reuÃŁ
Ġd ein
Ġw odurch
ol ogen
Ġf ahren
H o
ã ĥ
ar ray
or es
ĠH ockey
Ġp ri
ak u
Er st
t x
y e
z one
Ã¤ us
ĠH erkunft
ĠSch on
fÃ¼hr en
tiv ity
Ġdenn och
ĠLauf bahn
ĠK aff
ti z
Ġp o
Ġp ubl
Ġon ly
sp ek
Ġc ontinue
end a
mÃ¶ glichen
ĠTÃ¼b ingen
Ġsch reiben
Ġtr itt
wer den
Ġgepl ant
ĠV iew
Ġber uf
gesch Ã¤ft
S ehenswÃ¼rdigkeiten
ĠSch reib
scha ffen
ikan ischer
ĠWelt meisterschaft
ĠFr em
D em
f rom
ei de
ĠM Ã¶n
ĠR am
At tributes
ĠZahl en
Loc ation
bie ter
w ith
ist s
Ġ3 9
ĠÂ §
Hol stein
ei ert
Ġn Ã¶
ann en
gr aben
St yle
Sch riften
ĠMed ia
ĠMod el
ĠChic ago
ĠD ol
Ġc onnection
ĠBer icht
Ã¼t ze
ĠRo hr
zug s
fÃ¼r st
ĠSchwer punkt
ĠInstr ument
P olitik
Ġm iteinander
ĠF ar
ĠEin richtung
P T
Ã¶ die
om ain
St ud
Ã¼nd ungs
ĠFÃ¼r sten
ĠDon au
ĠGesprÃ¤ ch
Ġab geb
ĠLe der
Polit iker
eh e
Ġc al
vers icherung
ĠNord westen
Ġmein em
Ġmed izin
ĠbenÃ¶ tigt
D ar
p ers
ch est
ĠD ata
ĠV illa
Ã¼r en
rup p
Ġpar ams
Org anisation
t au
v ol
ur i
Ġruss ischen
ĠÃĸffentlich keit
D S
V ol
er ung
he ute
eu ten
ph an
Ġbef ore
ĠForm el
Ġdien en
C reate
ĠK athol
Ġschw ier
Ġstr ing
ĠUntersuch ungen
ĠObserv able
Ġs org
ĠVer gangen
ĠBr enn
ĠAf rika
htt p
W ind
ĠG lauben
ĠBo ol
o ks
ĠL eiden
ĠGes ang
ĠZug ang
ĠCD U
meld ung
V P
m as
Ġan hand
Ġt schech
ograph ische
ĠHe ft
ĠK athar
ist ischer
ĠStr ecken
Ġ189 0
Ġor iginal
E ishockeyspieler
ĠR ollen
ĠHer stellung
ĠInstit ute
part ner
Ġnahe zu
schlÃ¤ ge
D efault
ĠR od
Ġh eader
ĠC O
ag a
ĠAr ts
auf hin
krieg s
ĠSÃ¶ hne
l eiten
Ġf eier
ĠSp iegel
ĠSer ien
H ost
z um
un a
ĠK rie
ĠT au
ĠL aw
ĠL ove
B Ã¼rger
Z E
m inton
ĠM ethoden
ĠAuf ent
lei hung
tif ication
Ġengl ischer
ĠImm obil
Warn ings
k Ã¼nd
En um
ĠÂ ·
hard t
al om
Ġdurch schnitt
200 2
ĠRÃ¼ck en
ĠWill i
ĠH orn
ĠW ik
ĠT rÃ¤ger
se qu
Ġber ufen
Ġ190 4
ĠEd ward
Ġro t
Ġreg istr
Ġs amm
ĠB M
il a
Ġt ief
ĠAuf lÃ¶sung
ĠBl og
ĠBool ean
ĠK rieges
iz iner
ĠMar ken
fÃ¼hr te
ĠSib Tr
ĠAb itur
ĠThe odor
L iter
k rit
u elle
ie fen
ĠL ake
ont o
f on
ĠK assel
Ġan y
Ġp op
fÃ¼hr ten
200 3
ĠDan eben
ĠStel lung
ĠEng agement
V ariable
Ġm aÃŁ
ĠP res
ĠV it
ĠHash Map
ĠW ohl
af rika
ĠZu schauer
read y
ĠOper ation
ĠBund est
ĠNationalsozial ismus
ĠPots dam
Ġin stall
ĠK urs
ĠN ahr
ĠJ ed
se d
gr ab
ĠÃľber setzung
ĠJuli us
Ġur kund
e en
Ġ19 16
ĠAn spruch
me er
Ġges ellschaft
Ġerh oben
ĠX ML
value Of
ĠBed ingungen
ĠA st
ĠP u
vers orgung
fer tigt
ĠKÃ¼ che
V is
c ia
Ġor der
Met a
ĠDist rikt
rÃ¤sent anten
Ġerinn ert
ig keits
lin der
gel eitet
ĠMar y
ekt ar
ĠAngel es
S yn
ĠD eck
ĠD ialog
ĠP C
and t
aff el
Ġhistor ische
k om
Ġb ut
ĠF Ã¼nf
id d
lo h
pl atte
200 4
ĊĠĠĠĠĠĠĠĠĠĠĠĠĠĠĠĠĠĠĠĠĠĠĠĠĠĠĠĠĠĠĠĠ ĠĠĠ
tre ffen
Spiel er
fÃ¤h igkeit
Ġgemeins amen
ĠWo iwod
Ġmodern e
ei he
ĠR aj
Ġp osition
ap pe
gel t
fl Ã¼gel
tim eter
ĠSonn e
ped ition
z ung
war n
ĠWie sbaden
B i
ĠR ett
Ġt Ã¶
nis sen
ett o
ĠRei hen
prÃ¼ ft
ĠÃ¤lte ste
ĠA R
ĠC orn
Ġg eist
Ġab gerufen
up date
Ġne ed
ĠOrg an
Ġop ti
g reifen
k ern
ĠJ ud
ild et
ĠEx empl
ĠBen ed
lie s
ĠGroÃŁ e
F inal
g as
ĊĠĠĠĠĠĠĠĠ ĊĠĠĠĠĠĠĠ
ĠKon s
reu de
ĠBew ohner
Ġscha ffen
Aug ust
L I
ĠW it
Ġver gangenen
ĠAn f
Ġ190 1
ĠSchl uss
ĠSam stag
ĠK art
ĠT Ã¶ch
Ġh ast
ĠO ffen
ĠIn g
Ġent ity
Ġzwei mal
ĠHelm ut
p ass
Er folge
Id s
ĠBew eg
Ġby tes
ĠGrÃ¼n der
at ing
Ġv ierten
Ġf ein
ĠW Ã¼r
ib il
if ic
lig isten
ĠSan kt
State ment
scheid et
A uÃŁ
b indung
s in
ĠB asketball
ĠK Ã¼n
Ġt au
Ġc ode
ĠEr l
Un able
man agement
ĠGener ation
Ġunterschied lich
lad ung
mitt lung
P lan
c en
tr o
ĠV aters
Ġst ream
utz ung
Ġet abl
ĠBevÃ¶lker ungs
ĠerklÃ¤r te
KE Y
t ur
t ok
z wei
Ġw ork
ĠP rÃ¤sidenten
ĠT it
Ġp f
Ċĉĉĉĉ ĉĉĉĉ
ĠS aar
or fen
el ine
Ġzum indest
ĠGr enzen
ĠBereich en
ĠFernseh serie
ĠMatth ias
E G
u age
aus gabe
igen t
ĠAss ociation
sert ation
ĠFig uren
b aus
ti ere
ac es
Ġber ichtet
Element s
P ost
Å Ħ
Ġin nen
ĠL iv
ĠI d
ahr t
ĠDie ter
ĠOr den
Ġen glisch
ĠJuni oren
ĠAutom obil
B undle
E M
E Object
Ġunter en
ix el
umen ten
gor ithm
d ner
ĠR icht
ĠI T
ĠTh is
hil osoph
Ġn ominiert
Ġ2 50
ĠN och
Ġ5 5
Un ternehmen
ĠWeiter en
zÃ¤hl ung
l Ã¤nge
sch irm
ĠB an
Ġb ar
id s
rÃ¼ st
Ġbet rieb
ĠLin ks
ĠVergangen heit
w uchs
Ġver kehr
iz ierten
ĠGemein schaft
Ġerh ielten
Ġend lich
ĠAs ien
Ġstar ken
} ,
Ġ Ã¶stlichen
Ġst Ã¤d
ĠTer min
ĠKommun ikation
ĠUntersuch ung
ĠFÃ¤l len
O C
or ten
le bt
ĠC amb
Ġan gesehen
setz te
ĠStaat sb
Ġversuch te
isp lay
ĠBrÃ¼ der
) ");
m Ã¼hle
au g
uss ion
Sch w
ĠOp ern
ĠEdu ard
Ġs an
il ber
Ġauf gestellt
ĠMon ument
Inter face
ĠStÃ¤d ten
ĠOffiz ier
ĠSeb ast
X ml
w riter
Ġw achsen
el en
ĠD ef
ĠPro z
ĠPro jekte
J an
W as
ap el
ĠSp itzen
ĠEnt fern
str om
Ġ187 0
Ġmax im
ĠRath aus
ĠGeg ner
B o
h eil
Ġn Ã¤her
20 19
ĠDaten schutz
Ġgest altet
Ġreich t
o e
p ul
ĠP ok
ort s
ĠSp ec
ĠHeraus geber
r iss
ĠP ed
ĠL at
ĠC ode
ĠSt ation
Ġsp Ã¤t
res ponse
ĠBo ok
ĠzurÃ¼ck ge
amp le
ĠÃ¶ff entliche
ĠSowjet union
B ody
w ettbewerb
ĠS mith
ĠM r
Ġeigen es
At om
St at
ĠPartei en
ĠkÃ¶nn ten
s eit
ĠS ig
ig ungen
Ġzu geordnet
Ġver legt
ĠEr folge
gr enzen
Ġre f
ĠReg ister
ĠBl au
Ġbesonder en
ĠschÃ¶n e
ĠSong s
ĠL it
sp ez
ĠNieder sachsen
Ġentst eht
Ġl Ã¤ng
hal ter
Ġtr ansp
Ġbeg innen
denk male
ĠPap ier
ĠTenn is
at om
de u
gen Ã¶ss
ĠW Ã¼rttemberg
ul gar
hand lung
ĠKr ist
ennt nisse
ĠGel egen
C olor
b ody
d auer
et ch
ĠM und
ĠP reise
ĠW egen
Ã¶ z
ĠOb wohl
ĠFunktion en
rÃ¤n kt
S eine
r ession
ei ge
ĠB re
Ġunter sch
ĠKl ima
Ġstell vertreten
Ġho her
verein s
ĠPor trÃ¤t
ĠpersÃ¶n lichen
Stra ÃŁe
y c
ĠM exiko
() ).
ĠUn fall
In ternal
ip ps
ma schine
D C
h ar
ĠG ymnasium
ĠL en
Ġt otal
ĠBez iehung
Ġ190 3
Ġr un
ĠEin heiten
Qu eue
Ã¤tz lich
Ġs Ã¤m
ĠP ir
ber eit
ĠEr schein
ĠSchl Ã¼ssel
Ġeinzeln e
ļ Ń
ĠMar i
ĠNutz er
ĠIns eln
ĠAngeb ote
iffer enz
ĠM ulti
ĠJ on
ĠEin richtungen
sb ez
200 1
ĠStud ie
Ġverschieden er
Sup press
Ġumben annt
ĠL abel
ĠSt unde
ĠSchn ell
ĠAktiv itÃ¤ten
M essages
r amm
Ġd eine
Ġv ar
Ġt ag
Ġst at
Ã¤ng nis
Pol icy
S H
S um
Ġn atur
ige m
ov a
ĠKap itel
ĠÃ¶sterreich ische
c ul
m otor
ar kt
Ã¼ pf
Ġein geb
ell i
ator s
S ettings
m ag
o z
ich tigt
ĠT ode
Ġman chmal
hol m
ĠMag de
ĠIngen ieur
c al
Ġv ari
ĠB art
et he
ĠM ach
Ã¶ t
Ġl Ã¤uft
Ġletz ter
Ġsozial en
ver anstaltung
schlieÃŁ en
Ġentwick eln
dentif ier
ĠtÃ¤ glich
Europ ameister
ĠFakult Ã¤t
A F
B el
Ġb uild
Ã¶ tz
ing u
Ġver schw
ĠAus einander
ĠRo ute
ĠGer ichts
histor iker
ĠW urz
ĠL exikon
zie ht
ĠMein ung
M ath
ĠP re
ĠE ast
get P
Ġbest ritt
Ġgew Ã¤hr
Ġe ff
Ġ190 2
Ġstark e
Kir che
N um
s f
Ġ4 4
Ġausge fÃ¼hrt
Kir chen
D u
ĠL etz
Chr ist
B as
Ð ´
Ñ ı
tr ich
ĠMÃ¼n ch
ĠErw achsen
par ent
ĠAd am
Ġklein ere
Ġgelegen en
klus ive
ĠOx ford
D aten
J ul
z if
Ã¼ gt
ol o
ĠF alls
qu ery
age d
ĠkÃ¶n ig
gesch lagen
Ġkathol ischen
B et
R ange
j ob
ĠH ow
ber icht
ĠEd el
we ge
E hr
al tete
ĠV Ã¶lker
Ġver geben
ĠgrÃ¶ÃŁ er
Ġrel igi
Ġser ver
ĠjÃ¼d ischen
ar in
ĠD omin
Ġz er
Die ser
ĠGesch ichten
teil ungen
Ġch em
c ast
t Ã¼mer
u en
Ñ ĭ
ĠK redit
ĠN at
ks h
ĠAm ster
Pro ject
ore a
k arten
st re
tr ee
iel en
ĠFl Ã¤chen
br ingen
ĠZw eck
cl ub
F rei
er ten
Ġd is
ĠC am
Ã¼n den
Ġtr af
rit or
Des cription
vir on
m auer
ein heit
ol z
le te
Ġun gefÃ¤hr
ĠBeg r
ĠNetz werk
ĠWoiwod schaft
Suppress Warnings
ĠB ade
em it
us en
Ġk auf
Field s
Ġerz Ã¤hlt
ĠstÃ¤r ker
m es
ĠM ond
Ġan gew
sen de
Ġpar allel
d irektor
Ġzu stÃ¤ndig
he d
trÃ¤ gen
ĠProf il
ĠHistor y
ĠHotel s
' );
D AP
Ġ Ã¼
ĠT ats
re gel
Ġum geben
sh ausen
sk a
arm on
ĠBÃ¼ hnen
Ġgegr Ã¼ndeten
ĠSant a
c ount
ar o
or tiert
ĠT ief
ĠT hread
ĠL eute
la in
Ġent schieden
hÃ¶ rige
ĠSÃ¤nger in
M B
g i
m essage
Ã «
on st
at alog
ĠD ampf
ru e
ex it
gr Ã¶ÃŁe
ied elt
usÃ¤tz lich
ĠEigen schaften
ĠAnt wort
ĠM ecklenburg
ĠF Ã¤h
re den
Ġl ernen
ĠAn lagen
Ġc annot
ex p
ĠOr tes
if ication
ĠLand schafts
ĠPh ot
bahn hof
Ġnotwend ig
ĠGrie chen
m sg
sch i
Ġau ÃŁen
sp ace
Ġun ge
Ġc lose
tel s
elt a
Ġ189 5
cle ar
Ġautomat isch
st eine
ĠN omin
ĠSp aÃŁ
ak en
Ġ app
ĠS ymbol
te uer
ĠO tt
Ġab ger
icher heit
lehr e
haf ten
ĠGest altung
ĠTelef on
Ġb ot
ĠZ y
asser t
Ġgemeins ame
Serv let
F ran
ei r
ĠJ a
Ġbis lang
Ġper f
B eim
D e
ĠM au
hen tic
Ġle ft
Ġw a
ĠO der
sen der
Ġc ache
Ġbe cause
Ġ189 8
lowak ei
N E
n g
ĠN eum
Ġt oken
ĠZ un
ĠU kra
ĠQu elle
N ON
d own
f ft
Ã¤ b
eich e
reg ister
ĠEntwick lungs
T A
k Ã¼rz
er ber
ch ip
ĠS ender
ĠA ktu
ĠSch ach
ub il
ĠEn glisch
Ġsp rechen
Reg ion
ĠEing ang
Ġzunehmen d
F ahr
W il
n ov
ĠK am
ĠR uf
ul f
ĠâĢ ¢
ĠBuch st
ĠbestÃ¤ tigt
Ð ¼
zen ten
ĠMar ke
ĠEx tr
E P
anz ig
< >(
x ml
ĠM assen
arb eitete
wor ten
M etr
ĠM obil
ĠBau werk
ĠGra z
has Next
ĠGed anken
ĠDipl om
ĠM ech
ĠM eyer
eb el
ĠNach richt
ais er
ĠGegen wart
ĠMag n
mod ell
ch or
ĠS oph
Ġgen ug
ĠverfÃ¼g bar
Ġf ung
eh lt
ak ademie
ĠKon zer
Ġ6 4
ĠWelt krieges
ĠÃĦ gyp
199 9
Ã³ w
Ã¤dag oge
Ġs rc
ĠK alifornien
ĠP ast
Ġf Ã¼n
ĠW aren
wei st
iz ierung
our s
ĠWir ken
Ġ188 0
Ġparam eter
Jo hann
ĠChamp ion
Ġb ase
ĠT raum
ĠBe am
ER R
Ġ189 7
Ġkon zentr
Ġor ien
ĠAutob ahn
C ap
Î ½
ĠDat um
R Ã¶m
g ung
y an
ar rei
ĠM is
ĠC all
wei ÃŁ
ĠStr and
ĠGeb urts
Ġbesch reibt
ĠEm p
ĠRund funk
Ġbekomm t
E Class
b ro
b reak
e arch
Ġs orgen
Ġf lie
ĠVer dienst
ĠEr ste
ix ed
ieb el
Ġer mÃ¶glichen
ĠO ne
sp rechen
ob j
ĠUm setzung
trag ung
Ġben achbar
sprach ige
K o
ĠK y
Ã¶ se
bo ard
ĠKÃ¶nig in
Ġsol chen
ĠKomp osition
fre und
ĠOrd nung
ar io
ĠL ast
mus iker
k u
ung er
ra in
Ġl auf
eb ook
sp f
eich ern
ĠBesitz er
Ġoffiziel len
spl atz
ur o
ĠP red
ĠT rieb
ĠR oss
af e
ĠViel zahl
s up
Ã Ĺ
in us
Ġo ver
ĠStr eet
ĠFl Ã¼cht
)) );
akt oren
ĠChem ie
W h
s ource
Å Ł
ĠK Ã¶r
Ã¶ ck
ĠPro p
mann s
Ġdar aus
ĠFrei zeit
ĠMil ch
ĠKontr olle
ĠP as
ach ed
iert es
Sch ema
ĠQu adrat
DE FAULT
Mus eum
ĠBestand teil
ak es
iehungs weise
gram me
l ot
sch ef
ab end
so ap
ontin u
est amp
Ġver urs
Con stra
ĠFor um
ĠTab elle
Ġklass ischen
Ġjapan ischen
F alls
H ein
ĠM ethod
ob el
res ent
olog ischer
ĠGeb rauch
F ailed
d ung
g on
Ã¶ gel
Ġauf gebaut
sh aus
Ġpr int
P ass
c s
st Ã¤nden
ĠB ert
Ã¤mpf e
ĠÃ¤lter en
L a
h et
v as
ĠH em
Ġl iter
Ġmittel alter
maÃŁ nahmen
ĠTÃ¶ch ter
ĠS of
Ġb lieben
am at
ĠR Ã¶m
ĠU fer
Ġl es
âĢľ ).
olog isch
ĠVertr ieb
ĠBarb ara
ĠM ord
ĠP ower
acht ung
ĠCon tent
Ġbeh andelt
R ed
s em
in ne
eil er
Un d
fÃ¶rm ig
S ign
ĠL inz
ĠSt Ã¤r
Ġun er
ug o
Ġbes etzt
sb ruck
ĠQ ue
ig ger
ver zeichnis
ĠIn halte
Ġwir ken
ĠEin sch
ĠKon rad
ry pt
ĠDort mund
ĠEpis oden
viron ment
t ums
ĠB om
de gang
ĠâĢ Ķ
ay a
ĠTab ellen
Ap plication
Dat ei
Ġparam eters
ĠTrain ing
f els
m and
ĠT u
ĠMan fred
leg ten
Ġwe der
ĠrÃ¶m ischen
Trans action
ĠL or
In nen
ĠThe orie
ĠGem Ã¤lde
ais s
Ã¶rder ung
iat eilnehmer
Pl atz
Ġspeziel l
Ass ign
ĠS oll
ar tigen
Ġw Ã¼n
ĠK le
ĠG rau
ĠG reg
ĠLebens mittel
ĠzusÃ¤tz liche
ĠP ian
re ht
Ã¼n n
Ġre ag
ĠUnivers itÃ¤ten
wir kung
lÃ¤nd ischen
ĠprÃ¤sen tiert
P re
T itel
Ġd ank
ĠD B
Ġan genommen
ĠAus nahme
zeich nen
ĠSk i
au ert
ĠD inge
ĠL ib
ech ten
pf l
Mill is
ĠW uppert
Ġange gebenen
Ġeinz igen
ĠKamer a
D i
c opy
ĠB ein
ĠF F
ĠF inn
ĠP ath
ĠT sch
tr ies
ier end
Ġc l
Ġfrei en
ĠTa schen
Ġeb enda
ad or
ard o
itÃ¤t s
ĠFr eitag
ĠInd ian
ĠKÃ¼ sten
ĠPlan ung
Ġnational en
ĠKup fer
L en
ge tr
ĠD igit
Ġsch reibt
Ġvor aus
Ġtr ain
our t
Ġgew Ã¼n
eite ten
Ġ189 9
Ġ187 1
zuf Ã¼hren
ĠDipl omat
Ġbez iehungsweise
or ph
ĠStr ate
for scher
ĠDes halb
Ġaufge fÃ¼hrt
Reg istry
Ġsh ort
Ġus w
Ġlo ad
F re
b und
f ranzÃ¶s
Ã¤ use
ĠA achen
is a
ĠH Ã¼gel
il de
Ġsch rift
ĠC heck
la c
ĠK ob
ir n
Ġbes aÃŁ
inder t
un nen
Ġi l
ĠZ it
Ġseit dem
ĠInform ations
ĠKommun al
Ġsw itch
M ich
k in
us sen
Ġtr ifft
Ġ4 7
til ler
ĠPortug al
ar tig
Ġn orweg
ĠF abrik
is ation
ĠT w
rei strÃ¤ger
yn ast
ĠGer Ã¤te
Ġklein es
B eg
b or
ĠK e
ĠG olf
ĠL ife
tern e
ges prochen
Ġ6 00
eig h
Ġ189 6
ĠFot ograf
ĠInstit ution
Film ografie
Ġwich tigen
ĠMeer es
ĠhÃ¶r en
" ));
u i
ĠS ak
Ġein schlieÃŁlich
ĠK eller
ĠW is
ger Ã¤t
ĠStim me
ĠKarls ruhe
P O
b ahnen
ĠSt att
Ġunter scheiden
ĠWelt cup
Ġwel chem
ĠInd ien
echs elt
ĠBel gien
b uffer
v ollen
ie ck
em s
Ġm y
ĠF la
ĠZ oll
ug ies
ĠGr amm
ĠWieder auf
ĠKranken haus
r Ã¼cken
ĠL ine
ĠIn frastruktur
Ġst ill
ĠÃ¼ber w
land es
Ġsp anischen
**** ****
ĠBist um
F ried
ich ert
Ġf uhr
ĠÃ ł
urr enz
Ġverst ehen
ĠMuseum s
n itten
Ñ Į
ĠB ell
ĠF ell
ig ade
ĠVer w
Ġ4 9
urop a
ĠSte phan
Ġspiel ten
ĠMich el
ĠGef angen
ĠJust iz
K n
al m
Ġ( ;
Ġm e
ĠK ub
ĠVer fassungs
Ġvor gestellt
ok ument
ek tiv
Ġrequ ired
chip karte
U I
f euer
ĠJ Ã¤ger
ab et
etz ten
In stitut
ĠBÃ¼ hne
Ġland wirtschaft
k ul
ĠS zene
und ert
Ã¤ fer
Ġ4 3
Ġpro p
ĠursprÃ¼n glichen
Ġhervor ra
S equence
in ken
ĠW en
ĠBundes wehr
ĠBes etzung
val ues
ĠAlex and
K ompon
i y
k al
Ġc omponent
inz ip
ack er
ĠHalb finale
Ap i
> <
k as
est en
reg isseur
Ab sol
ĠSchn eider
Ġd ate
ĠE arl
ĠSt ich
Ġ18 50
ĠReg ionen
ĠKl ub
ĠBe ob
Ġda ÃŁ
Ġreg ul
check ed
Ġgetr ennt
Ġbedeuten d
. /
F L
S pr
en gl
ĠV il
zeit ung
ĠTra g
ĠLehr e
t able
Ġver ur
Ġ4 6
ĠBr Ã¼cken
ĠBesch Ã¤f
Ġtechn ischen
ĠTÃ¼rk ei
] [
Ġb ad
Ġein iger
Key s
V I
Ġan t
ay ern
hin dern
Ġhand le
hÃ¤lt nisse
Ġend et
ĠKais ers
EX T
sei tig
Ġerforder lich
ĠAmster dam
F ranz
h off
ĠG au
ĠR equest
sp unkt
ĠQu ar
ĠHaus es
ĠIs lam
verband es
Ġpoln ischen
T erm
d y
l im
an ie
ĠAn dr
Ġgr unds
ĠMann heim
ĠHa ft
sph Ã¤re
z n
Ä «
sch rank
ĠP od
il i
ĠVerb esser
ĠAt hen
ĠWind ows
ĠThÃ¼r ingen
H e
R echts
m ie
ch ten
ĠPl atten
fahr zeug
199 0
ĠRes ult
Ġbas iert
h art
k Ã¼ste
Ã¤ udes
Ġ1 10
ĠM d
ĠO z
est e
ap h
Ġwir kt
rup ted
ĠGemein der
orben en
jahr es
Not Found
National mannschaft
Ġbetrach tet
ĠflieÃŁ t
ĠS ud
ĠS auer
Ġs inn
ĠK amp
ier er
Ġunter wegs
gel s
ĠFl ucht
az if
mÃ¤ÃŁ ige
D ialog
r ol
u ay
ĠW ell
se c
og t
Ġsch ot
ste te
ov en
ator ium
ĠÃľ b
ĠGer Ã¤t
ĠFer tig
ĠLok omo
vier tel
O F
b raun
t urm
Ġf allen
ĠN ull
Ġp age
Ã¶r g
Ġunter halb
Ġ" ,
ĠVerein igung
Ġbel g
sw ald
Ber eits
ĠDis sertation
zÃ¼ glich
ĠWol ff
ertif icate
ĠS ir
it o
ĠP oten
Ġer lang
ĠJ ava
Ġver Ã¤ndert
lass ung
ĠHer zen
ĠFran ken
Ġwissenschaft lichen
asil ian
ĠCas ino
ĠCamb ridge
S PD
ĠR umÃ¤n
tr op
pl atten
ĠRu h
v in
ch te
ch ange
at ter
ĠPf arrei
ĠerhÃ¶ ht
stechn ik
ĠImmobil ien
I FC
T L
b an
h ost
ĠK alk
ĠE ishockeyspieler
ĠEin kauf
ĠGesch lech
ĠMo tiv
Ġâ ĨĴ
V ar
f rau
v oke
st um
al th
ĠA ction
Ġab gesch
Ġar g
schn itts
ĠNational mannschaft
aj a
Ġbestehen den
M ilitÃ¤r
O st
ĠA fr
ĠB it
ĠJ etzt
se y
ap s
Ġunbek annt
D igitalisat
ĠL ust
Ġer zeugt
Ã¼r zt
Ġt ask
Ġ/ >
ĠSchriftsteller in
ĠMinister prÃ¤sident
ĠB itte
ĠM ah
ĠÃ¼ber nehmen
Ġsch eiter
if y
ĠAug sburg
ĠFahr er
AG E
B ew
Ġb raucht
ĠAn trag
ĠBer atung
ial izer
ip pen
ĠAk tien
ĠStel l
ĠGed ichte
ĠZus atz
d ition
v ater
an sport
sch wer
Ġn ennen
ĠK ino
ĠO ster
ĠGes icht
ĠFrank furter
ĠInn sbruck
ĠParlament s
> )
p ost
ĠS eg
Ġn on
ol i
ĠP oint
mit glieder
Ġviel fÃ¤l
ĠMik ro
Pan el
P refix
um b
ess ern
Ġsch ied
ĠAr r
fl ow
ĠEurop ean
Ġerstreck t
C A
y er
lo ud
ĠGew erk
leb nis
Ġverkauf te
ĠMount ain
Ehemal ige
ĠIniti ative
sch Ã¶n
Ġn ennt
Ġzu g
ĠĊ Ġ
Ġsp ann
ĠMar gar
ite kt
199 8
Ġverf asste
U ri
u ccess
on ische
ĠD et
isch Ã¶
Ġp rev
Ġbe zeichnete
onn ect
Ġeh e
Ġzie hen
k mal
st atus
Ġb ayer
ĠAn forderungen
ĠBundes staat
fang s
sta aten
ordin ate
Ġverpflich tet
m lich
m ont
sch ten
au ten
Ġs epar
um in
ro h
Ġber Ã¼cks
deck ung
Hand lung
index Of
ĠLÃ¼ beck
v es
eh end
ĠIn tel
Ġdeutsch sprachigen
ĠY o
fekt ur
Ġstattf inden
Olymp iateilnehmer
N ov
ĠL iber
ĠN ow
ĠN ationen
ĠZ iele
iss ement
P I
m ond
el a
ol ver
ĠBr es
teil s
ĠIf c
VAL UE
Dire ctory
B ez
ĠB ier
ĠB os
ĠM icro
ĠL ar
ĠHand ball
Ġ189 3
ĠpreuÃŁ ischen
A ccount
E lem
p ool
p ommern
on i
ĠD VD
he ad
Ġ8 00
char At
Ã¤dagog ik
ĠDÃ¤n emark
K an
ĠB Ã¤nde
em burg
am i
ĠUn sere
atur es
Ġat tribute
Ġte st
Ã¤mpf er
ĠBru st
ĠerhÃ¤lt lich
ĠMagde burg
t yp
ed ule
Ġj ahr
fahr ts
ĠBet reu
Ġrech te
M Ã¤rz
ĠM io
ut s
ĠC lient
get Property
ess in
ĠAus zeichnung
hof en
ĠLu c
ĠInternational e
ĠHor st
def ault
Ġpriv aten
ĠKÃ¼n ste
G raph
M atrix
Ġk ombin
geb lich
Ġpro perties
ĠKon struktion
folg ung
Ġ189 2
Ġschwer en
LA SS
Ġbein hal
B uch
D DR
ĠA re
ĠB och
ĠE ugen
ĠT ob
re h
Ġge tragen
Ġt hr
Ġnach hal
Ex p
pro f
Ġspe zial
Jahr en
ĠBot schafter
s cription
ĉ ĠĠĠ
Ġs orgt
ig in
Ġ20 22
20 20
Ġpro blem
Ġerr ichtete
f arbe
i Ã³n
Ì Ī
in ia
Ġaus zu
ri z
ĠKo operation
st ab
ĠP enn
ĠAr thur
sb urger
Ġhier bei
bed ingt
besch reibung
> ()
f alt
Ġw idth
Ġver hindern
ĠkÃ¶n ne
stra ÃŁen
abil ity
ĠRelig ion
g round
h old
at her
Ġh ell
Ġh Ã¤uf
bau te
setz er
ĠmÃ¶glich erweise
ĠHil fs
ĠKÃ¼ ste
ĠNor wegen
sprech end
R W
a illen
Ġw echseln
ab t
end el
sh ot
Einz el
State Exception
ĠArn old
Ġd elete
al em
ĠK ardinal
ĠP S
ent um
ger Ã¤te
Ġzwei ter
be am
ĠBl ues
umm ern
X ML
ĠB io
aus bildung
Ã¤r ung
ĠReg iment
Ġteil s
Ġeinge tragen
ĠP ie
Ġim pl
ĠVer fassung
ri ver
Ġc or
Ġheraus gegeben
ĠAlt ar
ĠÃ¤lte sten
Ġd ef
Ġb rau
Ġn am
ĠK Ã¶n
ĠT oten
ĠSt ates
rÃ¤ f
ens ion
Ġpro du
Ġ189 4
bed ingungen
streck en
M O
ĠD ub
ĠL ew
Ġle hr
ĠWei ÃŁen
uck et
ĠBar on
Ġcreate Ifc
ĠPier re
ĠRost ock
s Ã¤nger
ĠM arburg
Al t
z lich
ĠM ode
erk ennung
ĠPl Ã¤tze
ĠAward s
K inder
k ow
Ġ iter
ĠR ol
Ġo st
ĠOr chest
Ġpl atz
Ġorganis iert
Ġph ys
K rit
Ī Ĵ
ĠD etails
ĠV iol
Ġan schlieÃŁ
Ġver n
Ġl atein
ĠVer eine
Ġr oman
her steller
ĠMar s
Ġ4 1
bo den
anc en
ĠOs car
sprech er
ĠjÃ¼n g
A v
f arben
t l
Ġb ack
ut sch
ĠBundes ver
lay er
Jahr e
ande ur
ĠPrinz ip
( _
S ingle
h Ã¤ndler
| |
Ã ª
or ter
de hn
ti a
ĠL ot
ĠN az
ÃŁ ig
ek or
gesch windigkeit
ĠHoch zeit
ĠMark eting
Ġoffen en
ĠBrasil ien
ĠFÃ¼hr er
Ġwissenschaft liche
W ert
w el
ĠM oment
ĠR untimeException
ĠL eb
Ġent schied
ĠGes am
stru ctor
ĠMet al
dat um
K W
Ġf ot
ĠH ektar
ak i
ark e
Ġbesch lossen
verb indung
lu ft
ĠBesonder s
R un
ĠD ownload
ĠR ay
Ġver anst
ĠEr Ã¶ffnung
Ġsch uf
ĠHoch schul
Ġbegann en
ĠBi ograph
ĠMathemat ik
H inter
K unst
ro ot
ĠSch aden
Ġc ol
Ġsp Ã¤ten
min ist
Ġange zeigt
ĠFra ktion
Schwei z
M ember
M apping
P ri
n t
or ity
ĠB ob
ĠI dent
ĠV I
Ġdurch aus
Ġab zu
Ġtr eten
ct ure
ĠKÃ¶l ner
ĊĠĠĠĠĠĠĠĠĠĠĠĠĠĠĠĠĠĠĠĠĠĠĠĠĠĠĠĠĠĠĠĠĠĠĠĠĠĠĠĠĠĠĠĠĠĠĠĠ ĠĠĠĠĠĠĠĠĠĠĠĠĠĠĠĠ
F iles
s ession
ĠV ari
Ġh a
con stants
ĠFahr t
Mod ule
Ġhal b
g riffen
n i
p asst
r un
y b
Ġd ist
ĠA ff
ĠB Ã¼r
as i
Ġbeg leitet
ĠNieder l
Ġbisher igen
ĠMaterial ien
Ġmittler en
ĠPfer de
Frank reich
w ell
te am
ĠB em
em ed
ĠRo h
val u
Ġkomp lex
g al
h ler
à ¸
ch ern
on str
sch uhe
el or
Ġin fo
Ġm er
ĠL ein
ĠL egen
Ġer gibt
ob ject
ĠMa jor
ĠGesch mack
tt ps
ĠFrei heit
fr ont
ĠGraf schaft
ĠGleich zeitig
in ischen
Ġb it
ĠM B
Ġm ore
ĠG att
ĠVer mÃ¶gen
Ġst atus
ph a
ĠUm gang
ĠWerk en
wohn er
IT Y
ĠBus iness
rÃ¼st ung
I l
k unden
r ingen
ĠD ial
lich em
Ġbe endet
ĠOr ten
Ar t
Ġhin ein
199 6
med izin
ĠHei z
ĠSend ung
ĠSebast ian
m or
n ap
p re
ĠD iv
ĠR ie
ĠN ap
tet t
ick er
ĠGr Ã¼ndungs
Pro cess
ĠBo ot
ĠForm at
J apan
m os
ur ren
ĠH ey
Ġr ight
af ft
Ġ187 4
With ServiceResponse
Ġbau te
WithServiceResponse Async
E le
R eturn
Ã¤ ure
Ġm ay
ir urg
etz te
ĠCh ance
pro cess
ĠBo gen
Ġdo es
bes itz
ĠAbgeord neten
ĠFrancis co
l it
ei ern
ĠS QL
ĠF unk
gen ossen
ĠL ag
Ġst ation
ĠspÃ¤ter e
ĠMod elle
ĠFrie dens
Ġchines ischen
E Mail
S ein
j an
ĠB ase
end o
ph ase
form ationen
Ġ< <
Not Null
Ġtechn ische
ĠDir igent
ĠS T
ĠN u
ir es
eb urg
sp lan
Ġwar um
lie ger
br and
ma ÃŁen
schn itte
Ġkon k
ĠBeh Ã¶rden
Ġruss ischer
ĠGi pfel
P RE
st arts
ĠD ire
ĠK Z
ĠR iesen
ing ung
stell ig
Ex tension
Ġ5 2
Ġfre und
ĠEpis ode
4 00
h es
Ġ Ã¶r
Ġst ru
ang es
ĠMit gliedern
An halt
ĠGe denk
Ã¤nder te
ko hol
Ges ellschaft
C ar
Ġ est
ie ht
ent in
Ġc le
In sel
ĠAm ateur
igh ts
Ġwich tiger
Produ ktion
m eter
r oll
Ġim age
Ġr uh
get String
spieler in
Ã¼l l
Ġgegr Ã¼ndete
ĠAnh Ã¤nger
ĠBened ikt
Z wischen
ar ia
Ġh um
all iga
ĠBest ell
Ġsicht bar
Ġ5 1
ĠAm azon
Ġange hÃ¶r
rat es
ĠMan ager
ĠhÃ¶her en
J Ã¤hr
f angen
m ine
ir c
ger ichts
Ġ" /
ahl en
(" \
ĠFl ag
ĠGrund stÃ¼ck
Ġeinfach e
ĠAp ost
Ġitalien ische
o ire
w all
ĠM inn
ĠSie ben
Ġander es
Ã¤ch er
sk l
ĠTour ismus
E C
ĠS au
Ġw eb
em pf
us k
ĠAr men
ĠWe ber
ĠSpr inger
deutsch land
S uch
r ennfahrer
em als
ĠK Ã¶
ĠH ome
ĠAn gabe
ĠEin en
ĠStr eam
her ren
geb nis
ĠAus gang
ant eil
imm ungen
ĠNieder lage
ĠBef ehl
Ġoffiziel le
Ġvertr at
ĠMÃ¼nch ner
NotFound Exception
" :
T hrowable
i h
l itz
ã Ģ
Ġ orden
em ie
is ieren
ĠL okal
ĠVer zeichnis
ĠAus bau
Ã¶l z
amer a
asse d
ĠKloster s
ĠGeschÃ¤fts fÃ¼hrer
| -
ĠH ess
ĠSch ott
ĠSt Ã¶r
ĠSp eicher
fig uration
ĠRe de
Ġwei ÃŁen
ĠVers and
: :
V ector
ĠF ootball
ĠG anz
ĠP ublic
Ġf arb
Ġt mp
ep p
ĠAuf nahmen
ond issement
ĠRes ource
Ġtrotz dem
ĠunabhÃ¤ng ig
clu de
K arl
ĠS ens
est and
be cken
fahr ten
ive au
ĠBe geg
Ġgleich e
Ġbesch Ã¤d
Ġverl Ã¤nger
ĠMat rix
. ).
ĠE h
ĠV el
se g
ech er
Ã¤r ten
Ġverb indet
Ġgest alten
OR T
/ *
ĠS zenen
te sten
ĠP ow
ĠN ick
ir chen
ĠC ru
ri min
id o
qu em
geb irge
out h
ĠGef ahr
ĠKo hle
ĠInn ov
Ġzie ht
ĠBrun nen
Ġurkund lich
L auf
sch icht
Ã¤ fte
Ġt hen
Ġj son
qu elle
Ġget Ã¶
Ġher um
199 2
Ġdi ver
Ġsozial e
ĠBud ap
ĠÃĦr zte
ĠÃĦnder ungen
omet ry
Ġein deu
is ierten
Ġer mittelt
Ġal tern
ath on
off set
ĠAd ler
Ã¡ s
199 4
mod el
Ġnational e
s ign
Ø §
st ock
ir ch
ĠÃ¼ber sch
ill ing
ĠGeb iete
itt le
ĠMittel punkt
ĠRes earch
Ġjem and
M aler
W or
l ein
ĠR ub
ent s
ĠVer wand
ĠUnter schied
An merkungen
ĠPf ad
Ġ188 9
ĠB ibel
ĠH Ã¶ch
ra xis
ien z
Ġa ction
Ġvor ge
riff e
Ġ188 8
jÃ¤hr iger
Land kreis
Ġgar an
ĠIll ustr
ĠSmart ph
ĠWag ner
h Ã¼ter
w ner
Ġb ist
ĠP ul
ĠH av
Ġal ready
Ġst ren
ĠEr ster
bau en
Ã¼t ten
ĠLÃ¶ wen
iar den
ĠErweiter ung
I gnore
Ã¤ ub
ĠA gent
Ġh ieÃŁ
ĠJ ena
Ġdes cription
Ġent h
licher weise
wir t
Ġerreich ten
tisch es
R est
p pen
in stitut
ĠB ull
hr op
ro b
ĠJ ungen
ĠVer k
im eter
Ar b
ĠMin ute
ĠpersÃ¶n lich
Ġdisk u
G o
N e
r al
ĠAl te
ĠFl eisch
Ã¼t t
ĠEnt stehung
ĠArr ondissement
H eight
ĠS ache
ĠD ay
Ġt here
ĠVer n
ĠAus stattung
Ġscha ff
ĠBron ze
frie den
c tr
m d
w h
Â ®
et enz
Ġein zu
Ġg olden
Ġan geschlossen
Ġex pl
ĠGrÃ¼n en
Ġaktiv en
gÃ¤n glich
F amilie
L ang
k amp
ĠH yp
ĠL ibr
ver teid
ĠNach wuchs
ĠSpiel tag
pro jekt
Ġges und
ĠWei b
ĠInstitut s
D an
f u
v inz
ĠS qu
Ġb auen
ĠR al
Ġver boten
ĠBr emer
ĠGeb iets
ĠFre e
ST R
ĠGest alt
ynast ie
n ieder
Ġd omin
ĠP seud
ĠH Ã¼
Ġdar um
Ġeinfach en
ĠAlt stadt
ĠVen edig
strahl ung
D is
M ulti
ĠM inder
ir ma
Ġge zogen
ĠSch ild
Ġc ommand
min istr
Ġerwar tet
ĠEns emble
r olle
s agen
w Ã¤hnung
ĠAng st
Ġzentr alen
hoch schule
ĠAllt ag
und et
ig an
ik i
ĠSp itz
ok us
af r
Ġverst arb
ĠSek unden
stud ium
N atur
N LS
b ein
ĠĠĠĠĠĠĠĠ ĠĠĠ
ĠH arr
ĠOber flÃ¤che
ĠCon c
ĠFir st
B ef
E B
b ibliothek
ĠL ev
ĠC olor
ent wick
auf nahme
ĠSchw ier
ĠPass ag
Ġposit iv
h s
Â ´
un es
Ġm ulti
Ġk inder
Ġaus reich
In ternational
ĠNach folge
ip al
br Ã¼
Ġbes uchen
Ġgr enzt
Ġbeg eist
ĠÐ ¿
ĠMark us
p al
ĠM ei
ĠF reude
ĠC ro
Ġum ge
ial en
ĠGegen d
Ġ187 5
Ġengl ische
ĠVerbr eitung
T er
T est
t w
au te
Ġn ames
Ġf inn
ĠH rsg
ĠN ah
Ġge Ã¤ndert
Ġg ern
Ġ15 00
ĠGroÃŁ herzog
ĠDon ner
spart ei
aiss ance
ĠS un
ĠD ra
ĠM uss
ĠE sp
tr im
sp olitik
ver lÃ¤ss
ĠAn zei
Ġtr aten
ĠBl Ã¤tter
ĠNeu stadt
ĠSc ott
verkehr s
ĠSoc ial
preuÃŁ en
A bst
b egr
t ml
in str
ĠF ans
ĠG ab
ĠV ideos
of en
form ance
ĠLe e
ĠEurop Ã¤ische
Ġverl etzt
ĠSa al
bereich e
ĠTem pel
Ġgelegen e
ĠVarian te
at in
Ġ( ),
ĠV i
Ġzu folge
ĠÃľber sicht
ĠGroÃŁ teil
ĠMad rid
ĠPrÃ¼ f
Ġverbr achte
Cal endar
B en
M ain
d h
f unction
at al
ĠB ast
Ġc ap
Qu alif
Ġ188 5
schiff e
Ġrich tige
C P
C or
I F
c an
ĠAn im
Pro zent
ĠEnt wurf
ied lung
ĠsÃ¼d westlich
ĠHerr n
Ġbestehen de
s ver
ĠĠ Ċ
id es
unter richt
Ġgeb lieben
ĠRegel n
ĠS av
ĠG ame
Ġp oint
Ġp assed
amm ern
con tent
A k
c olumn
n es
in ett
Ġs ymbol
ĠM uster
ĠH ugo
ann i
ĠSt ab
for mer
bach er
Ġ188 6
Ġerw orben
Ġbeh aup
ĠÅ ł
ĠChampion ship
W ei
b Ã¶
Ã¤ ck
ĠW art
ĠW ork
Ġt hread
eb e
ĠSt an
ver k
Ġsch Ã¶nen
Ã¤r t
Ġbest ell
Ġher unter
199 5
ĠAben teuer
P eter
P air
o ul
r ight
Ġd ro
ĠC ross
ra gen
ĠEr richtung
Ġ5 6
low en
ĠKolon ial
S ymbol
on ien
as ien
ĠC le
Ã¤ch t
forder t
rep lace
ĠAnton io
ĠAbgeord neter
ĠFac ebook
F est
H eute
â Ĥ¬
ĠD ich
ĠZ auber
ran denburg
tel n
IN T
ĠMor itz
Log ger
ĠMehr heit
ĠHei de
Ġdunk el
ĠVort eil
C R
F lag
g reg
w s
ĠF ro
ĠH as
ĠJ son
Ġc opy
ost on
ĠWelt meisterschaften
ĠHal te
rag ment
ĠBur gen
agn ost
M ai
ie bt
ge legen
it ation
el emen
ĠD J
ol ve
Ġsch lecht
Ġeigen er
ĠNew s
EN D
tif y
Ġ186 0
ĠTer r
ĠErk rank
ĠZen timeter
d ire
st on
ĠV irg
Ġaus fÃ¼hr
ow itsch
mal en
St affel
ĠFor der
ĠMo der
ĠBed Ã¼rf
weis ung
ĠMotor rad
ĠWissenschaft ler
ĠJos Ã©
I A
M M
S cript
d ia
k urs
Ä Ļ
ĠM ut
Ġin spir
Ġ( ).
ti ver
âĢľ -
Ġre ader
teil te
ĠSer ies
ĠWel tr
ĠDenkmal schutz
ĠPhys ik
Ġgriech ischen
ĠIter ator
in ten
in ary
Ġw Ã¤hlen
le ute
ĠW Ã¼n
ĠC he
Ġst eigen
Ġunter b
iden t
ĠSchwar zen
ĠKolle gen
ĠNic ol
E t
v ard
Ġw hen
Ġm ake
ĠSch le
In itial
ĠAuf tr
ĠBl umen
ĠsÃ¼d Ã¶stlich
Ġexist ieren
way s
Ġlau tet
Ġkor re
n chen
Ï ģ
Ċ Ċĉĉĉ
ol t
Ġf Ã¶r
om er
sp reis
tion en
end ing
ĠAl les
Ġ5 4
ĠKon zentr
bo ok
AC T
ĠGott fried
- /
B it
S pe
c z
v m
y k
ĠS ynchron
ĠB rie
ĠB utton
ĠH ig
Ġh ttps
Ġk Ã¶rper
Ġge legt
ĠAn alyse
ĠEr f
ĠÃ¼ber setzt
ĠMar x
org anis
jahr en
F B
or men
Ġs erv
ĠD rag
arb eitern
ĠOr der
Mus iker
y ball
Ġn annte
le un
Ġj ur
19 18
ĠUm bau
Ġ189 1
ĠNieder lande
gn or
ĠAllgemein en
J ava
u ellen
in it
st atic
al in
ĠK un
tr ol
Ġauf treten
ĠSch mer
he ber
ĠSp Ã¤t
ĠEin s
ht ml
ĠDi Ã¶z
Ġvorhanden en
ĠAmts zeit
Ġpromov iert
I dentifier
K Ã¶nig
Ġ assert
Ġan lÃ¤sslich
Ġp orn
ĠVer z
ib l
Pro gramm
Er gebnisse
ail ure
ĠPolitiker in
ĠJugend liche
irt ual
O B
e ber
r ein
ĠR io
re b
ĠAn wesen
sb ed
uff ix
mÃ¤ÃŁ igen
SE T
ĠMont ag
LO W
Ġtem plate
ĠBil dern
Ġkanad ischer
Ġlok alen
' ,
Ã¼ mm
Ġein s
Ġst arten
Ã¤n k
ild es
ast rop
199 7
Ġlang sam
Ġâ ļŃ
ĠMaler ei
ĠVerÃ¤nder ungen
abgeord neter
ERR OR
Ġw eite
et ung
ĠD ec
ĠP riv
ĠZ o
ate ll
Ċĉĉ Ċĉ
ĠWahl kreis
Fe ature
ĠEreig nisse
Ġheil igen
in f
ĠA ster
em in
ĠP anzer
ĠR ess
ĠO pp
ĠSch los
sp ur
sp itze
he dr
rie s
reich er
ĠMa schine
res sen
Ã¤nd ige
Pro cessor
sprÃ¼n glich
Ġkur zer
ĠerÃ¶ff nete
ĠDenn och
Ġfunktion iert
Ġdor tigen
M ehr
pro perty
ĠschlieÃŁ en
Ġumf asste
ĠDo ktor
ĠKategor ien
lehn t
ĠKrim inal
T our
at tet
ĠZ usÃ¤tzlich
pro zess
Class Name
starts With
d elete
j ust
ĠM att
ĠT ak
ĠT unnel
ĠIn stall
iz ont
199 3
vertr eter
---------------- ----------------
dor fer
prÃ¤sen z
M ag
k ar
ð Ł
ĠA x
Ġan gen
Ġver ab
ĠAl li
Ã¡ r
send ung
( ...
J ose
Î µ
Ġm ech
Ã¶ ger
ap i
Ġj ust
ĠKon zep
ĠChr on
ĠFr ucht
Null able
ĠIllegal StateException
Ġzeit weise
Ġjapan ischer
ĠK ost
ĠP rim
ĠR eiter
our cen
Ġber ech
Ġy our
ĠEntfern ung
b ett
ï ¼
Ġs im
ĠD irekt
ĠD afÃ¼r
Ġn ow
ĠL aden
men ge
ug os
war en
ĠScien ces
ĠRek ord
igr ation
ĠKathar ina
Ġpop ul
c ore
l iteratur
r ic
Â ³
ĠL izenz
ro id
ĠO ri
wei ten
Ġc lazz
ges ellschaften
Ġbest anden
ĠFran Ã§
Ġges ucht
Ġunser es
ĠFrei en
Ġ186 7
Ġwh ich
ĠRegen sburg
C urrent
em ory
le bte
ĠAn th
lo ÃŁ
li as
gefÃ¼ gt
b uf
ĠM Ã¼hl
ĠK Ã¼r
ĠE ishockey
ĠL ande
Ġauf zu
Ġzu kÃ¼nf
sen s
Ġl eitet
Ġamer ikanische
Ġspeziel le
ĠmÃ¶ glichen
f irst
p c
Ä ħ
ie be
ĠT eu
Ġk g
geb ieten
ĠAm b
ĠKant ons
Ġwoll ten
Ñģ ÑĤ
Ġgetr offen
Ġans Ã¤ss
BevÃ¶lker ungs
ĠBudap est
p ap
ar isch
Ġm Ã¼ndet
ĠK linik
all o
Ã¼t ter
ĠKl im
ĠVerlag s
ST AN
ele ase
Ġkathol ische
ĠNikol aus
RÃ¶m isch
k B
l isten
ĠR ail
ĠSt Ã¼cke
Ġbe zieht
Ġent lassen
lei ben
Ġ188 7
Ġ186 6
ĠBed arf
wor fen
Ġdefin iert
er z
it is
is burg
ĠEin z
ĠAuf sicht
ĠGemein sam
ĠSo zi
ĠPh ase
Sie g
auth or
Ġgrunds Ã¤tzlich
Z one
p at
t licher
ĠA ar
ĠF els
ĠF ilter
ro y
Ġg rau
ĉĉ ĉ
eu ern
ĠBr Ã¼ssel
hÃ¶r igkeit
gesetz ten
yd ro
produ zent
Ġgelegen tlich
B U
J SON
Q U
v oc
Ġ ol
Ġbe auftrag
ĠAb stand
ĠSh op
ĠArbeit geber
On ly
Se arch
ĠGlock en
Wil helm
m acher
Ã ¦
ĠE uch
ĠT onnen
Ge ografie
ĠJes u
Contr ol
ĠÃĦgyp ten
P L
b al
ch ild
ĠM essage
Ġc as
Ġ// $
ĠJo e
ĠHand werk
Ġch ange
ĠStad ion
Header s
Ġbeinhal tet
S uper
W ien
ĠM ang
ion e
ĠGrund lagen
[] )
Ġteil nehmen
Ġwei sen
riter ien
Ġspe zif
ĠBM W
z ellen
Ġd t
ĠT ay
Ã¶ff net
ĠEurop as
Ġ188 4
urs or
Ġper fekt
ĠTre ffen
Ġendg Ã¼ltig
s ing
sch wei
ĠT ax
ĠUn ser
ĠAl ben
gesch icht
eck t
ha i
unn ing
Ġklein eren
Non Null
N OT
ĠT herapie
ĠL orenz
ĠN ation
Ġp asst
aus o
schie de
Sc ope
Ġintens iv
Erster wÃ¤hnung
Jan uar
ĠUkra ine
c all
un checked
Ġm achten
ĠL angen
Ġer ober
Ġk om
Ġver teid
ĠAn s
Ġle gen
ĠHam mer
Array List
Ġrec ord
ĠErinner ung
P al
l at
Ġ hr
ar ed
ĠT en
Ġge fallen
ĠO f
ĠZ ehn
eh Ã¶r
get Instance
qu al
ĠGem ark
ĠSte u
code d
AC E
Loc ale
herr schaft
contains Key
ĠBronz emed
Eng ine
ĠgetÃ¶ tet
st ritten
ach ter
Ġl ei
Ġ18 78
ĠPro j
ant a
ĠFran ce
wer ten
ĠGef Ã¤ngnis
ĠPort al
Ġlist ener
ĠDrehbuch autor
tiller ie
H Ã¶r
M otor
T ags
it alien
Ġf Ã¼hl
Pro xy
Ġbeh and
ĠBach elor
ĠApp le
ĠAlb recht
ĠHum an
ĠUnabhÃ¤ng igkeit
a wa
d ing
i ques
on ia
ĠK G
ĠW itt
Ġer folgen
ĠI ran
Ġmehr erer
Ġbes ucht
ĠTer ror
ĠverfÃ¼ gen
Ġzie mlich
ĠWuppert al
Ġ Ã¤ndern
ĠK Ã¼hl
Ġ} ;
Ġre al
zeit schrift
Ġviel er
ĠRu hr
Ġruss ische
sto ÃŁ
Schwei zer
ĠKomment ar
ĠBres lau
M e
im ir
ac ity
ĠBr uch
ĠBau er
Ġbef Ã¶rdert
Ġgr und
ĠNieder Ã¶sterreich
druck t
ĠKonfl ik
ĠKonfl ikt
S QL
t ot
Ġd eb
Ġan sonsten
sk on
ĠBl ue
Ġgel b
ĠRu he
atÃ¼r lich
Fl ug
e ff
r eit
ch a
erk l
me te
zeug ung
ĠMet rop
ĠFel ix
K omp
S an
c ap
ĠA hm
is m
ĠR et
and o
ent ity
oll ow
geb iets
ĠAd resse
ĠLab or
Ä ĥ
un s
ĠM esse
ĠP age
ĠH T
Ġal ter
os h
ĠAn sicht
Ġdi verse
jahr e
ĠPer spek
Ġnord Ã¶stlich
ĠMathemat iker
G E
z ut
č ĊĠĠĠĠĠĠĠĠ
Ġi dentif
ĠL em
Ġst Ã¤ndig
Ġsch Ã¼tzen
ĠGraf ik
Ġwes halb
Ġchar akter
Ġschwed ischen
Ġrich tigen
Sti ftung
zust and
W asser
m ach
u y
} .
an ia
ĠS omit
ĠF red
ĠSch reiben
Ġvor wiegend
Ġ5 3
ma jor
amt es
ĠMon ats
ĠSe en
Ġ187 9
ĠLOG GER
ĠÄ Į
' :
Ñ ĩ
ĠB iele
ĠM eg
ĠK il
Ġf ach
Ġer stellen
ot oren
Ġerfolg reichen
ĠDis ziplin
wor tet
ĠWehr macht
ĠAstr onom
S eptember
Z wei
c ape
ĠS ul
Ġb reiten
ĠM es
ver lauf
ind ungs
ĠAn bieter
ungs gebiet
if est
ĠGemeinde gebiet
ĠPol iz
Ġoffen bar
Wer degang
angeb ot
BevÃ¶lkerungs entwicklung
. _
S ow
Ä Ł
Ġd b
es p
ĠS P
Ġz Ã¤hlte
ĠF ast
Ġf rem
Ġnach fol
qu alitÃ¤t
Ġ188 2
not ations
Ġjeder zeit
Ġnorm al
ĠVerÃ¶ffentlich ungen
ĠPrÃ¼ fung
Ġ reichen
ĠB uffer
ol en
ĠE th
ĠW ed
ĠC ass
ĠSch aff
etz ungen
Ġ18 00
bar er
199 1
Ġkommen den
ÅĤ aw
Ġzentr ale
Ġextr em
OD O
offiz ier
ĠPremier minister
C N
C up
F OR
c u
m etr
ĠB rot
Ġp attern
men s
ĠGesch windigkeit
isten ce
ommer ziel
ĠLie bl
ĠBern d
Film schauspieler
Ġversuch en
ĠSpr ing
Ġfre ie
ĠMÃ¶ bel
ĠBesatz ungs
Ġport ugies
ĠB am
Ġzu gÃ¤nglich
qu enz
dem okrat
Ġgen annte
ĠRo ad
add All
ĠAd d
ĠJu an
mo sphÃ¤re
ĠWochen ende
ĠWilli ams
T O
k ov
n ames
s ite
ĠD unk
ĠV f
rau t
ĠNe ur
eucht ung
Jahrhundert s
ĠGelegen heit
r uss
or fer
ĠD ollar
ĠG ames
Ġf inde
ĠH arry
ĠT ick
isch t
ent hal
im um
Ġ- -
En de
ĠPf alz
ĠMill iarden
ĠAutor in
Ð¾Ð ²
Ã¼st et
ĠergÃ¤n zt
ĠWÃ¶r ter
f a
r as
v iel
ĠK ader
Ġg uter
Ġl ink
ĠAus bildungs
amm elt
Ġbef ind
ĠÃľber blick
wir k
ĠpersÃ¶n liche
Com parator
ĠKapit Ã¤n
kÃ¼rz ung
S ocket
n eu
Ġb raun
od a
up p
ob ald
ĠzurÃ¼ck gegeben
Ġhin ten
ĠVerb indungen
ĠSÃ¼d west
AT A
yl van
ĠGef Ã¼hl
Wir d
ĠTechn ologie
ĠFrÃ¼ hl
Ġdamal ige
ĠGal ax
Ġehr en
Ġbenachbar ten
O ktober
at tr
Ġin to
ĠSch atten
Ġbe en
lo k
ĠAuf tritt
ĠIm age
ĠSk ulpt
ĠKr one
ĠMeister schaften
fÃ¶rm igen
zus etzen
ĠF u
Ġan fangs
Ġverb essern
lÃ¤nd ische
Ġgeboren e
haupt stadt
spann ung
ĠKrank heit
C ommerce
D on
R ezep
ĠM Ã©
ĠF assung
Ġk ost
ĠSch all
Ġst abil
ĠAl p
ĠBar ock
CD U
komm t
rupted Exception
U B
b it
an dern
ĠS ei
ĠN et
Ã¤nd igen
ĠBei spiele
ĠRo se
bild ungen
ĠAt om
gef angen
ĠPrÃ¤ fektur
ĠHeer es
olumb ia
hentic ation
i oren
ĠF ehl
ĠE M
Ġer geben
ĠJ ubil
ann a
ver gleich
Ã¼ck t
ĠAuf l
ĠMar g
af eln
port al
ĠGÃ¼n ter
Ġhil ft
Kompon ist
A pril
D ay
b n
c or
i pe
Ġv iew
ĠP el
Ġst imm
eben e
ĠVor bild
Ġ5 9
ĠQu ery
Ġgel ungen
Ġkon troll
ĠOb last
ĠCor por
Ġfertig gestellt
Ġdur fte
ĠRestau rant
/ >
un sten
Ġin nov
ĠH Ã¶l
ĠT ol
Ġh ost
ĠVer stÃ¤nd
ed y
ĠAuf merksam
Ã¤l ter
Ã¤nger ung
fÃ¼l lt
stant in
ĠExper ten
ĠSchlieÃŁ lich
Ġv oller
ĠG ouverneur
ĠZ er
Ġl aufen
ĠSp ir
Ġvor ber
Ġent deck
land schaft
onn a
Ġth an
Ġbew usst
ĠBar cel
198 9
ĠTex til
Ġverkauf en
M Ã¼n
] )
ur er
am ik
ĠH ay
re uth
ĠN eck
Ġk Ã¼rz
Ġp ers
Ã¤r m
ĠMar in
Ã¤u den
minister iums
Ġsol cher
Ġober halb
Ġausgew Ã¤hlt
ĠGÃ¼n ther
Fried rich
ĠYo ung
ĠNiederl anden
" ),
f rÃ¼
et ti
de p
ĠO h
ĠAn erkennung
Str ate
br unnen
Ġdies mal
ĠOrt schaften
ĠÃĦ hn
Ġbr asilian
aktion en
ĠInnen stadt
Ġschwar zen
ĠIntegr ation
ĠOz ean
M er
T hr
ein heiten
Ġin it
ĠK Ã¼nst
Ġk re
Ġl eist
ĠAn k
ingen ieur
Ġgesp eichert
ĠhÃ¶ here
F O
m ess
Ã¶ scht
Ġver teilt
ĠDie trich
enn y
ĠCh urch
Ġdar stellt
Ġher e
so ft
Ġgel angen
hau se
Ġbew egen
ĠBab y
Ġintegr iert
frist ig
8 00
B oot
k ont
ĠS ehenswÃ¼rdigkeiten
ar me
Ġb reite
ĠD ynam
ĠH agen
ĠR on
Ġk ont
ul iert
St ar
tem peratur
)) )
stand s
ĠSchw ein
Ã¤tig keiten
198 8
ĠschlieÃŁ t
ĠFil men
ĠdÃ¼r fte
Ġgl Ã¼ck
ĠmilitÃ¤r ischen
ĠA C
ĠL as
ce p
gew inn
ĠProf ess
ĠGi ov
M ENT
v arian
Ġd ok
ĠF ab
Ġ" );
Res ources
ĠHand lung
ĠKat alog
ĠKan al
ĠÃ¤lter e
Ġerwar ten
V om
ĠP ers
ĠE ier
ĠV inc
urn e
ĠEin er
ĠAus zeichnungen
ev ice
arr ier
ichtig ung
Ġ186 9
verein igung
Ġpolit isch
ĠEt hn
opp elt
dar steller
ĠGriechen land
A ME
B S
N odes
g roÃŁ
am burg
ĠH ex
Ġg ros
gel Ã¤nde
Ġ5 7
lei der
Ġle hn
Id x
arch ie
Ġschwer e
Ġempf ehlen
Ã¤te stens
Ġtradition ellen
Ġ{} ",
ĠBuchst aben
Ã¤ ser
tr ieben
ĠAn ne
ap elle
ĠChrist us
ĠAt lan
scheid ung
Ġschl ug
ĠniederlÃ¤nd ischen
jen igen
c ard
Ġd oc
ĠK el
ĠH eck
sp rÃ¤sident
ĠAl so
ĠMit tler
li ver
wa ffe
Ad apter
ĠSystem s
ĠPat rick
hÃ¤ng ig
ĠKommand o
sek retÃ¤r
ĠEber hard
ĠZun Ã¤chst
) -
U P
Ċ ĠĠĠĠĠĠ
ei ro
ol ph
ĠG Ã¶r
ion ier
Ġk ennt
op Ã¤d
rau cher
ategor y
ĠAndre a
Dat abase
ĠDÃ¶r fer
B us
ur al
ĠL evel
Ġtr ocken
Ġ+ +
ĠFahr rad
ĠMittel meer
Ġ187 7
Ġnord westlich
ĠAust ausch
ĠDokument ation
ĠCollection s
ĠfÃ¼n ften
D o
n abr
or chester
ĠW ood
ser ien
Ġum gesetzt
gesch Ã¼tz
olog ical
ĠKl eine
ĠMon te
deut scher
Ġallgemein en
C lose
P C
z o
ĠO m
hl on
Str u
Ch ain
ĠKunst stoff
legen heiten
ĠRechts anwalt
Film titel
ĠÃ¼b lich
Welt meisterschaften
ĠTest ament
Ġoption s
T eil
g ier
st Ã¶r
ĠB Ã¶r
ĠF aust
ĠC hl
ĠSp uren
od ie
ĠPro perty
ĠCo ver
glieder ung
ĠMaxim ilian
f amilien
k w
ĠR ainer
ĠSch uhe
Ġst op
ĠFor ce
out put
ĠX X
Ġ186 4
Ġ186 8
ĠÃĸsterreich ischen
fÃ¤l len
kn own
ĠBek annt
ĠverstÃ¤r kt
a o
sch reibung
ĠD iff
ĠW inkel
Ġk Ã¼nf
Ġzu frieden
Ġo ur
ĠVer arbeitung
Ġst rate
bÃ¼rger meister
ĠLieb es
Ignore Case
W R
Ġm orgen
ĠK im
Ġwar ten
ĠJahr hund
zen s
att le
Con sumer
ĠQu ell
Ġgesch Ã¼tzt
ÃŃ o
Ġangeb racht
rÃ¤sent ation
Ġprof it
ĠModern e
ĠProm otion
F S
G C
c il
s an
ar tikel
ĠZ ell
Ġl anger
ĠSt ol
he ader
Ã¼n de
org an
Un sere
Ġ< /
ĠBereich e
stag s
ilom etern
ĠEinwohner zahl
ĠOrganis ationen
A cc
R ock
n oten
ĠW under
Ġl ive
Ġst yle
ass au
âĢľ ),
Ġ18 49
Ġum gebaut
iv als
ĠAus sage
ĠAb stra
atur en
ant es
eier mark
ĠDep art
ĠRett ungs
D est
H alb
b old
s v
ĠM Ã¼hle
ĠP av
ĠZ eilen
19 80
ĠAus fÃ¼hrung
hen den
wir d
Ġ187 6
ylvan ia
nabr Ã¼ck
W ill
an iker
Ġt ot
ĠAus sicht
ĠAuf ruf
ĠInter pret
Ge org
Ġzeit genÃ¶ss
Gr und
ĠVerl ust
ĠNaturschutz gebiet
mir al
umin ium
ĠBronzemed aille
k ette
s rc
Ġd on
es ota
Ġn a
re y
ĠN ight
ĠJ eder
ĠJ Ã¶rg
ig tes
ĠVer dienste
Ġun bedingt
Ġunter scheidet
rau ff
20 21
Ġex per
ĠGeb ieten
ĠAd vent
AN D
ĠEben so
ĠOption al
Ġfe ature
(... )");
T ran
sch end
le ft
ik ationen
Ġver setzt
ĠPro tocolMarshaller
Ġlie ÃŁen
br eitung
AR T
Ġ187 3
ĠDorf es
ĠTechn ischen
ĠursprÃ¼n gliche
prÃ¼ fung
strahl t
Ġwirtschaft lichen
Ġpromov ierte
P ersÃ¶nlichkeiten
st ar
ei be
or o
Ġin klusive
ĠG ymnas
ĠP ack
ĠH als
ĠSt ief
gr enz
Ġre v
Ġgen ieÃŁen
Ġbef est
ĠBe ach
ĠReich en
Ã¤tz t
ĠAp othe
spro zess
Ġpass iert
ĠVersicher ungs
k ommand
v ey
Ġv ia
ĠK ell
ĠP on
is l
Ġl imit
sp or
ri o
Ġzum eist
ath an
alt ar
br onn
zeu ger
lauf en
Ġ188 1
Ġ187 2
uld a
hÃ¤ usern
spl it
Sel ect
exec ute
: "
m Ã¤ch
p lay
s inn
st ufe
Ġi den
ĠU A
ĠSt ory
ow o
ĠCh allen
ĠSpiel s
ĠMin i
Ã¼l le
yl l
ĠnatÃ¼r lichen
ĠLes er
spez if
v ideo
al it
Ġw omit
Ġs end
ĠD ur
ĠK oll
ĠL Ã¶sungen
Ġh e
ab len
Ġge g
19 20
ĠBer ge
res p
for dern
Mit tel
Ġall eine
deck e
ĠRep ar
ĠverÃ¶ffentlich ten
Ġged reht
kap elle
ĠÃľberg ang
ĠTir ol
Ġerlang te
i op
Ġs ur
ĠEr klÃ¤rung
ĠEin stellung
up le
ĠAus wirkungen
ĠUm fang
ĠInd ust
ĠVers orgung
ĠKirchen gemeinde
ĠKo al
ĠHalb insel
ĠKu gel
ĠVerantwort ung
V ari
d oc
ĠB la
Ġge eig
ĠSt aub
Ġj en
Ġ18 40
Ã¶n t
ĠEx pedition
Ġgleich er
fÃ¤l lig
ĠOlymp ia
Ġdire kten
ĠM aur
ĠG rim
Ġzu gelassen
Ġver gessen
ĠAn trieb
Ġnach gewiesen
19 30
ĠDar aufhin
193 9
di mension
ĠNav y
M al
e get
r in
ĠS ed
ĠB ang
ĠR ow
Ġent f
Ġges agt
Ġges prochen
ĠÃľber nahme
ĠMag azin
tic ast
ĠZug riff
Ġpl Ã¶tz
ĠFreund in
Ġerweiter te
ĠDrit tel
Ġverur teilt
Ġ ).
ĠM ig
um l
re te
ech ter
Ġhand ler
Time out
part ei
Ġtem p
ĠEind ruck
k olle
s aison
s ylvania
in ing
ĠB lo
Ġein heit
Ġh off
ir us
ĠC onn
Ġk Ã¼nd
ĠSch lei
Ã¤n glich
19 70
geb oren
gr Ã¼ndung
ĠMar sch
Ġlie b
wa ffen
ond ition
Ste p
Ġposit ive
ĠViz ep
option s
ĠCarol ina
ĠsÃ¤m tliche
ĠAufmerksam keit
P ers
k rank
l ings
w idth
ĠB oston
ĠF as
ĠE UR
ĠW Ã¤l
ĠJ Ã¼n
ĠAn lass
Ġsch wei
Ġvor ne
auf nahmen
ĠBer ech
ĠGesch ichts
ĠPf licht
ĠWest ern
kehr t
ĠUniversitÃ¤t s
hol en
Ġerrich ten
Ġpoln ischer
Ġse arch
ĠDokument ar
Î¿ Ï
{ }
en se
em p
ĠF a
ĠAl kohol
Ġ5 8
Ġ6 2
Ġ6 6
Ġmeisten s
ĠMerk male
B eh
F ra
d ist
m ol
w Ã¶r
ĠM ov
der e
ĠT an
ĠR av
ĠL atein
Ġan n
wei ch
ĠSie gen
ĠTr ier
Ġverwend eten
anc el
ar ischer
Ġh Ã¤ngt
ĠJ ones
Ġo s
ĠSch icks
Ġp refix
Ġaus gebaut
stell ers
enn zeichnet
eld et
Pro jekt
ost a
yn th
Ġhier fÃ¼r
wir ken
Ġgewann en
Fernseh film
UN D
ĠBrun o
vorsitzen der
Ġdok umen
B es
D ezember
N etwork
c omm
ĠG od
ĠE ch
ĠR ey
ĠC op
Ġk irch
ĠEr gÃ¤n
Ġunter gebracht
iden z
dienst kreuz
193 3
ĠStad tr
Ġfeier te
st immen
ĠS he
ĠB Ã¼nd
ĠB ridge
as sten
Ġver ste
os ite
Ġ18 15
ĠFranz isk
ĠKur fÃ¼rst
ĠElektr o
sto ffen
ĠTrain ings
AB LE
ĠerfÃ¼l len
ĠMail and
Nov ember
ĠBarcel ona
M art
Ġ achten
at sch
ĠM i
ĠK ann
ĠP etr
is er
ĠN ote
ab schnitt
ĠC olumbia
ul k
uf er
Ġsch m
ĠFl ora
ĠUm feld
ĠWerk statt
ĠMÃ¤n nern
ĠRest e
Ġgelang te
ĠPsych ologie
ĠJes us
Ġlern te
Ġabger issen
Ġausreich end
Z entr
m y
ĠL eucht
est ern
Ġa ct
Ġthe oret
Ġbef anden
tif act
Ġreduz iert
ĠKandid aten
h y
n ik
ĠM alt
ĠO ver
iel ler
Ġp ut
ĠBr ut
amen te
ĠSchw anz
Ġger iet
ĠStud ies
lex ikon
ĠĊĠĊ ĠĊĠĊ
frei en
ĠCom ic
Contr oller
A gent
g ard
w ein
er ing
ĠL ern
ĠN RW
ĠÃ¼ber all
Ġex tra
ĠTh or
ĠZu cker
Sp ace
ĠFrei will
ĠRumÃ¤n ien
R uss
W E
d om
or i
ti ment
ĠVer f
burg h
Ġger inger
ĠTex as
ĠEing abe
ĠLeichtathlet ik
rÃ¤sentanten haus
Ġstellvertreten der
! âĢľ
N orm
h ammer
k Ã¶nig
r iger
ĠK ohlen
ĠP rak
Ġo pen
Ġsow eit
Ġhand elte
ĠBad minton
ĠmÃ¶ gliche
A ktu
J ugend
R oman
a ver
ar g
Ã¼ ÃŁe
ĠD efault
ĠK ohl
Ġf ehlt
ir ke
Ġaus einander
og ramm
Ġbe achten
Ġj o
Die ses
ĠGr Ã¶ÃŁen
Ġzwei er
ĠKo ordin
best and
ĠAustr al
D r
g f
st ahl
ein richtung
ĠL och
ĠSp ur
ac y
Ġlie ben
ĠGew erbe
Per mission
SI ZE
ĠHir sch
nap shot
n orm
Ġk aiser
ĠO R
Ġp reis
zw ungen
z ert
Ã¶ tt
Ġst il
ĠBau ch
ĠProdu zent
Ġ188 3
ĠTem plate
ĠBeteil igung
b eu
f ot
ĠM etz
ĠM aus
Ġm Ã¤ch
ĠF antas
ĠH op
ĠT auf
ĠSp ar
Con verter
ĠIntern ets
ĠEng ine
Ã¨ s
ĠFel der
Le ft
C onn
an ik
ich tigen
Ġ( _
ĠK rei
ĠC er
ĠAr gentin
ator in
ĠWelt meister
ĊĠĠĠĠĠĠĠĠĠĠĠĠĠĠĠĠĠĠĠĠĠĠĠĠĠĠĠĠĠĠĠĠ ĠĠĠĠĠĠĠ
ĠGo ethe
ĠBesatz ung
Ġsowjet ischen
c at
ĠS achen
sch rau
Ġge weiht
ĠSch Ã¤den
Ġaus drÃ¼ck
iss ing
ĠY or
gend es
ĠfÃ¼hr enden
Ġcon vert
Ġbel iebt
Ġak tive
ĠbenÃ¶ tigen
Ċĉĉĉĉĉĉ ĉ
Ġwid mete
m essen
Ġd ocument
el y
ber uf
Ġer leben
ĠN eb
ĠN erv
ĠZ DF
ĠZ Ã¼ge
Ġpro ject
ĠWir d
entry Set
Jul i
B Ã¼
S onst
s ort
sch ritt
ĠR ats
Ġun gewÃ¶hn
Ġgesch ieht
ĠKrieg sende
ĠWahl en
Ġreg ister
ĠSchiff s
ĠAu ge
Ġverw endete
ektr um
ĠRed aktion
ĠPosition en
ĠÃ¼bern immt
ĠAnder e
ĠHÃ¶ch st
l Ã©
n d
en kt
ĠH eb
ĠN am
ian ischen
Ġ8 5
Ġres ources
ĠVolks zÃ¤hlung
ĠAmer ika
ĠEigen tÃ¼mer
ĠLeip ziger
system e
frei heit
ĠMiner al
ĠG a
ĠR Ã¤ume
âĢ ¢
ro ck
ĠAb stieg
ĠMor ris
ĠArm y
ĠBiele feld
( @
G ET
Ġ ~
Ã¤ le
ĠB ow
Ġh ash
Ġl eisten
ĠIn sbesondere
enn bar
lo gen
Ġ6 1
Ġbet reibt
ĠEx ec
ĠRegion alliga
Ġschn eller
ĠStock holm
ĠDisk ussion
ĠDemokrat ie
Ġscheiter te
ĠDonner stag
ugos law
ĠS z
Ġn Ã¤chst
ĠJ unge
ien te
scha ff
ĠVor bereitung
Sch iff
wend ungs
ĠLe o
Lo ad
Ġfield s
Frau en
ĠIr land
fÃ¤h ig
ĠerfÃ¼l lt
ĠTok io
Kirchen gebÃ¤ude
o zi
t oken
ĠS E
ĠD ein
ĠM asse
ĠR oth
ĠL ange
ab els
Ġk Ã¤mpf
ik at
Ġsich ern
ers dorf
ohn e
az itÃ¤t
olle ctor
ett ing
eig ung
forder ung
Ġerinn ern
ĠnÃ¶ tig
Ġschaff te
B E
al u
ĠS v
ĠD orn
em an
ĠF ound
ĠP ot
ĠH ang
ĠV iet
ĠC y
Ġgesch lagen
Ġfest gelegt
ĠKreis es
Ġro ten
ĠHin weis
ĠpreuÃŁ ischer
C LASS
b ist
k ind
m ethode
Ã¼ re
ĠW asch
ĠJ ens
ĠC ra
Ġa fter
Ġum s
Ġum gew
if er
ĠIm pl
sh ire
pro p
ĠBo oks
ĠPar allel
ĠDres dner
stehen den
ĠSied lungs
Ġwirtschaft liche
Ġschwar ze
Disk ografie
ĠVerbesser ung
voc ation
Ġb Ã¼rger
ĠD ick
ĠF res
Ġge fertigt
ĠEr ic
Ġbest ehend
ack e
ens ure
buch autor
OR D
Auf grund
ÑĢ Ð°
fÃ¶rm ige
ĠHaup ts
ĠTim es
Ġprak tisch
Ġbrau chen
tw och
W el
f eier
Ġd rit
sch Ã¼tzen
Ġver arbeitet
ĠOl d
Ġben annte
ĠBew ertung
UL L
abr iel
ĠDro gen
ĠWeib chen
R equ
er tet
Ġin ne
ĠG riff
ĠE cke
ti le
ĠR olf
Ġh undert
Ġp oten
ru st
ep pe
up pe
ĠPar ad
ĠNeu zeit
Ã¼l ern
Ġeinge st
ĠTre ffer
usst sein
ĠSpec ial
E p
b uilder
c ache
d ir
m Ã¤r
Ġf ehl
he ater
ed o
rie den
Ġj ener
Ġ6 3
Ġ6 8
Ġdar stellen
Ġle gt
ĠEx istenz
use eland
bÃ¼ ro
ĠSem inar
B M
B aden
T S
b in
f uÃŁ
o h
w eb
Ġ1 15
ĠK ast
ĠR E
ĠN ep
lie gt
ĠAus schuss
gesch lecht
Ġgen auso
ĠÃĦ m
Sh ort
urnal ist
ĠOs nabrÃ¼ck
ĠMy th
Ġausgew iesen
aliforn ia
ĠEvangel ischen
ĠVerteid igung
D enk
D elete
L uft
R ennen
r ise
ĠA ct
ĠB R
ĠK reu
os se
rÃ¤ umen
ĠVor stellung
Ġex pression
zahl t
ĠÐ ²
ĠJohn son
ĠKÃ¼ chen
Rep ository
ĠerklÃ¤r en
Exec utor
MA X
Ġuntersuch t
Bound s
ĠAnzei ge
B ek
ĠF an
ĠP ant
ĠT ank
ĠL inden
ach us
ĠC ur
ĠKon text
ĠMed ik
ĠHier bei
sw issenschaft
ĠAss istent
O ne
ti us
ĠL ock
Ġr umÃ¤n
Ã¤t tern
ak on
ĠNord amerika
Ġ186 2
Ġstar tet
ĠHin weise
B B
O pen
e ep
ol is
ĠG etr
ĠP osten
and om
Ġp df
Ġgew Ã¶hn
ĠGesch enk
Ã¤uf e
ĠWohn zimmer
fil me
ĠJer us
E ishockey
K or
ein richtungen
Ġb undes
ĠG h
is st
ĠH Ã¤ft
ĠW alt
ĠC ent
Ġk ompon
ĠAus stellungen
if iziert
ay load
ĠDeutsch es
Ġkon stru
ĠTschech ien
g in
ar c
ĠA gr
ĠG il
us se
ion al
ĠZ eile
op ran
spr uchs
ĠGra ph
Ġ' "
ĠJugend lichen
ĠHerr scher
schau en
ĠRu der
ĠEben falls
No tification
Ġbegr enzt
R ev
k anz
w inkel
ĠP ader
Ġauf w
Ġlie genden
Ġ7 2
ign ment
ĠLu zern
Ġ186 1
193 8
ĠPfer d
Ġoption al
ĠFÃ¤h igkeiten
ĠGemark ung
rauff Ã¼hrung
ĠM id
Ġm obil
ĠK abel
ber atung
Ġer o
ĠN ad
ab or
Ġk rÃ¤f
ĠO d
Ġver g
eg er
ĠEr wer
198 2
ĠÃ¤hn liche
national spieler
r Ã¶
r ufen
il me
ĠZ ub
Ġver haf
icht lich
ob jekt
ĠKl ang
man ager
alis ieren
stit u
Ġern annte
stru ction
ĠAmer ica
spro gramm
Ġid x
Ġproduz ierte
Ġconfig uration
A ber
Ã¼ ÃŁ
ĠD al
ien ce
eich nungen
Ġbest immen
pro blem
ĠWei ss
ĠFre der
Ġabge st
ĠKompon enten
fre ie
O ff
c ontainer
en hagen
ĠM ike
ĠP ersÃ¶n
ĠSp enden
lo v
stan bul
ĠUm satz
Sch on
ĠPh o
hol ung
Ġbew eg
ĠEv a
ĠHoff nung
abil itÃ¤t
ĠRuh estand
D oppel
R ender
c p
or um
ĠA ccess
ĠF ire
ĠP oll
ĠN i
ab schluss
Ġden kmal
Ġst ra
ĠCh a
du ktion
los igkeit
ata illon
Ġ8 8
Ġange passt
ĠOber Ã¶sterreich
Or iginal
Ġgest artet
čĊ čĊĉ
Ġverm eiden
ĠÃ¤uÃŁ erst
Ġinform ieren
A V
C C
sch ungs
ĠA cht
ĠF len
ĠF inger
ĠW ellen
ĠW ende
Ã¤n omen
ĠBer ater
ph y
lau be
198 4
wÃ¼r fe
ĠErw Ã¤hnung
liefer ung
ĠVorstand s
H ans
Ġs um
el be
Ã¤ hne
ĠM u
ĠG n
ĠT ipps
ĠR ott
ach s
ber to
Ġauf merksam
ist a
Ġt olle
ic z
ĠMar qu
ip edia
ition en
Ġ9 5
ĠSpiel ern
Ġwel chen
Ġwei ÃŁe
ĠKompon isten
Ġeurop Ã¤ische
Ġmittler e
Ã¤chs ische
Ġbem erk
Ġausgeb ildet
Ġbeob achtet
Stack Trace
ĠVik tor
Hinter grund
Ġdeb Ã¼
Ġ ep
Ġv ol
re qu
ĠC reate
ra hmen
ĠKon ferenz
Pro p
kl ar
Ġ186 5
Ġem pty
hÃ¶ fe
valid ate
ĠÃĦnder ung
sied lung
VerÃ¶ffentlich ungen
n isch
p il
ĠS ession
ich en
ĠM ans
Ġr ies
tel l
ok ens
Ġpro tected
Ġex pr
lau ch
aler weise
red icate
ĠFrei herr
ativ es
ĠRom a
AL L
ĠSen ioren
ĠBot schaft
ĠKauf mann
ĠPreuÃŁ ischen
ĠKop enhagen
ĠNS DAP
h Ã¼tte
Ä Ĺ
st eig
ĠP ool
ĠR ac
ĠN ich
ĠIn schrift
enn er
par ks
ĠBr em
stan ces
Ġstatt dessen
Ã¤tig te
Ġresource GroupName
ĠVerband s
================ ================
//// ////
ĠAltern ative
b il
m i
st es
ĠG ard
ĠR eh
Ġr u
oc us
Ã¶l l
ĠSam uel
Ġbild eten
Ġerheb lich
ĠSchott land
Abst ra
ĠF uchs
Ġver an
ĠSp e
19 14
Ġab w
ĠIm mer
ĠZeit schriften
ish ing
ĠFre unden
com pare
ĠKont akte
ĠRest aur
ĠSek tion
Ġanerk annt
endo ktor
ĠfÃ¶r dern
u an
st eile
an th
al o
Ġin vest
ĠW arn
ĠC H
ra gt
Ġtr op
Ġlie fer
Ã¤d t
Ġfrei will
197 5
197 6
Ġdire kte
ĠVarian ten
R S
W e
es er
Ġge Ã¶ffnet
Ġwieder holt
ĠBet on
198 6
Ġstamm te
ĠLau b
Ġinform iert
TI ME
ĠBoch um
d ay
g ast
Ġi gnor
ĠH Ã¤nde
Ġh eight
ĠC alifornia
Ã¤n zer
ler in
ĠAl uminium
arch itektur
Ġat om
cy cl
Ġevangel ische
ĠlÃ¶ ste
B rite
f loat
i qu
j ection
p age
r d
Ġ ei
ĠD efinition
Ġin tern
ĠK Ã¤r
ĠW ater
ow itz
Ġvor genommen
Ġlie fern
ĠRes ponse
ĠRegierungs bezirk
ĠSchne e
ĠtÃ¼rk ischen
z usammen
an on
sch reiben
Ġw asser
ĠF alle
ĠP ur
Ġk ommerziel
Ġdes selben
eb au
Ġaus gesch
ĠMit arbeitern
hof er
ĠEurop e
sprach en
ĠHan se
Ġoff ens
ĠAsp ekte
Ġforder te
achus etts
o ter
r n
u v
Ã¤ g
ĠK alender
ĠV ill
ĠPl Ã¤ne
Ġgef Ã¶rdert
Ġfest ge
aff e
Ġrel ev
197 9
Ġklass ische
ĠjÃ¼d ische
Ġleich ter
Ġfung ierte
H il
j Ã¤ger
j amin
un ken
ĠA qu
ĠB anken
ĠM iet
Ġge arbeitet
Ġver grÃ¶ÃŁ
ungs mittel
iv es
Sch n
Sch ule
ĠSchw imm
ĠFer r
193 4
ĠHu bert
G u
J ohn
a al
Ï ĥ
ĠF o
Ġan b
og a
Ġ" '
oph on
ĠUr sprung
Ġur i
Ġak zep
film ung
ĠAlter s
ĠKont in
195 8
ĠBef est
Ġop tim
ĠRein hard
ĠCre ek
Sec urity
ĠBundesver dienstkreuz
Ġdiver sen
an ch
sch ild
at isch
ĠA kt
ti als
ist et
ĠSp recher
19 44
ĠBer ger
Ġnoch mals
Ã¶l be
org ungs
bo ot
Ġverl ang
ĠAt trib
ĠAt mosphÃ¤re
ĠKap ital
ĠOn kel
ĠTre e
Ð½ Ð¸
ĠVerl Ã¤ngerung
spart ner
ĠRol and
Ġ $
Ġein erseits
Ġz ogen
ĠL ED
ĠU d
ver hÃ¤ltnis
ĠIn stanz
19 78
Ġtr afen
Ġ7 6
ĠHo sp
ĠVers ionen
equals IgnoreCase
ĠHar ald
Ġfort an
ĠKult urg
ĠKÃ¼nst lern
ĠGiov anni
g asse
st einen
it iert
Ã¤ p
ĠK en
ĠE N
is hed
Ġge lesen
ic i
Ġ3 000
ose x
ĠkÃ¶nn t
ĠThr on
ĠHit ler
ĠSoph ie
ĠKonzer te
G egen
Ġ tim
at iver
Ġc tx
Ġab hÃ¤ngig
ĠFl otte
olle yball
ĠEx pl
ĠfrÃ¼ here
ĠÃĸsterreich s
198 5
ĠSen at
ĠFel sen
Ġjapan ische
Ġged acht
ĠSchlaf zimmer
sch Ã¤d
sch lagen
ach se
ĠU we
Ġc ontainer
ĠBer gen
ĠMit twoch
Ã¼hr t
ant ast
olog ien
Un ser
Ġaktu elles
ĠBel ast
ĠSitz e
ĠDienst leistungen
ĠMun ic
ĠMinn esota
ĠTay lor
. ",
K lass
M I
M sg
b le
b art
Ã¼ se
ĠA le
Ġm ex
ĠEr hebung
ant on
sk irche
ĠGeb Ã¤udes
ĠDu isburg
198 3
Item s
ĠWahr heit
Dec imal
verstÃ¤nd lich
ĠSum me
ĠAufent halt
S ER
it ness
ich e
ĠP ac
ĠR ÃŃo
get T
aus geber
ĠAl len
Ġvor kommen
hl t
ige st
St ad
Pro f
Ġel eg
Ġch ron
On line
CT ION
Ġbeeinfl usst
ĠGreg or
ĠverlÃ¤nger t
on line
Ġh ef
Ġg ra
ĠSt au
ĠEr furt
ĠÃ¼ber gebenen
Ġum stritten
anz eigen
len z
ph ys
eck er
ĠIhr es
ĠSe ele
Ġern st
ĠInd ividu
ĠCo ok
ĠHÃ¶he punkt
ĠJac ques
ĠNorm al
ĠVerstÃ¤nd nis
D etails
S Ã¤nger
Ð ¹
ĠH ot
ĠC ab
Ġbei der
aus stattung
qu ellen
Ġmehr mals
Ġander erseits
Ġgew id
Ã¼l len
Ġstell ten
AC K
Ġrest aur
ĠSym ph
B atch
b lau
Ġs itzen
Ã¶ te
ĠN umber
fahr ens
ĠEx pression
Ġeh emals
Ġerfolg reiche
ĠReich es
Ein wohner
Ġhei ÃŁen
SC O
ĠJur y
ĠWes entlichen
ĠLux emburg
Ġperson en
Ã¤cht nis
ĠF A
Ġf unction
Ġbe zÃ¼glich
ran ts
ĠTr ink
ele ge
Ġentwick elten
Ġevangel ischen
ĠÃ¶ k
Po inter
ĠdebÃ¼ tierte
k at
Ã °
Ġ ðŁ
sch el
ĠM eld
ĠW omen
Ġg lob
ĠO liver
Ġbe zogen
Ġa cc
ens is
ĠPl attform
Ġseit her
UR CE
ĠnatÃ¼r liche
Gener al
ĠSilber medaille
Ġgepl anten
ĠLink ed
ĠErzÃ¤hl ung
F low
P aul
ein satz
at ische
ĠK etten
Ġf ix
ĠT y
ĠI tem
omm el
ack t
ĠKon f
res erv
ĠBau ten
197 2
evel op
Ãĸsterreich er
ĠReform ation
? ?
S im
U UID
l ach
Ġd ella
am o
ĠH altung
Ġg u
enden cy
ĠKomm andeur
Ġgef angen
Ġ% .
by tes
Ġherv orge
ĠMot to
ĠJahrzehn ten
n ischen
Å Ľ
an ier
it ro
ĠG on
ĠJ ord
gl as
Ġx ml
ompl et
wÃ¼r d
leist ungs
Ġbesser e
ĠSieg fried
ĠCorn el
ĠberÃ¼cks ichtigt
Rezep tion
de pen
ĠG ross
ĠL ob
us ste
ĠAn satz
lin es
ip eline
Ġber u
ĠFran ces
Ġ186 3
Ġte le
tic a
Group s
ĠInf os
lieder ung
ĠbeschÃ¤d igt
Ġverhaf tet
( !
F rÃ¼
M Ã¶
f ailed
k ab
ĠE w
ed a
Ã¤n ke
ok a
Ġbest ellen
Ġ9 6
ĠEl l
Ġgut es
197 4
Ġ180 6
ĠRegierung schef
ĠFlor ida
ĠVerbr eit
Ġmensch lichen
ĠWÃ¤r me
ĠmaÃŁ geblich
E CT
F ranzÃ¶s
h ain
al teten
ĠK ro
ĠH enn
tr oller
ir a
Ġ18 30
Ã© t
Ġber aten
ĠFest ung
Ġzahl en
bez eichnung
leist et
Gener ator
Ġindividu ell
ĠKonk urrenz
ĠIdent itÃ¤t
C ol
N onn
d lich
ĠD ass
ĠV ide
ak eten
ĠSpiel klasse
Ver tex
Ġben utz
Ġak adem
ĠPhys iker
Ġhol te
ĠGit arr
ĠRefer enz
ĠNomin ierung
u den
Ġin kl
ĠF ulda
ĠT iefe
19 19
19 29
Ġunter lag
ĠSpiel film
Ġres p
ĠLehr stuhl
ĠSol o
Ġbekannte sten
Fol der
Ġstaat lichen
ĠCentr al
STAN CE
J a
k ter
l ik
ei ra
Ġin folge
ĠK lin
ĠG ep
ĠC ann
ĠU rauffÃ¼hrung
get Resource
Die s
ant ie
ĠOber flÃ¤chen
red akteur
ĠBerg bau
ĠErn Ã¤hrung
itu ationen
Ġarch Ã¤
Final e
S aison
y o
em eister
ĠG abriel
ĠP ic
Ġr aus
get Parent
ĠAus gaben
ph il
ĠPl us
Ġ7 00
List en
Er n
ĠBe at
ĠProduktion s
FI LE
ĠKrÃ¤ fte
B inding
W ord
n ur
ĠS y
ĠM ie
ĠW ay
ad i
ĠAr rays
ĠVor trag
ĠÃĸ k
Ġch annel
Ġeinge laden
ĠHaus halts
ĠGeneral major
ĠSchm uck
ĠKat zen
Ġspeziel len
beg inn
ĠMÃ¤r chen
3 00
F ot
P op
P AT
Ġd oppel
st het
ĠH ildes
om aten
ĠV orm
rei ft
ĠÃ ģ
ĠAb b
Ġeigen tlichen
sol e
198 7
193 1
196 8
ĠDo ug
ĠRen aissance
ĠRaj on
ĠMicro soft
C luster
D am
h eben
ĠB ulgar
ĠG lei
ĠH allen
Ġer mord
ĠO berg
ĠSp ren
bar ung
fahr zeuge
yp ern
ĠGrÃ¼n de
sta ates
Med ia
ĠWach stum
Ġkauf te
ĠAndr Ã©
ĠFranÃ§ ois
W rite
f ul
Ġs ame
ĠK roat
ĠL ord
En tries
Ġen ger
Ġis lam
bo urg
ĠOl denburg
ement s
ĠZw angs
196 7
ĠGre at
ĠDel eg
Ġcall back
ĠRob in
Ã± a
ĠTown ship
S zene
Ġ Ñģ
en ke
ĠP last
ĠL et
ĠV eg
Ġan grenzen
Ġt iefer
ĠSch Ã¼lern
Ġp rÃ¼
ĠVer handlungen
rie t
ĠAr ab
19 60
ĠAb lauf
if orm
ov ed
per iode
berg s
Ġ9 9
Ġ6 7
ĠVerb raucher
Map per
ĠProv inzen
Ġ185 4
Ġwichtig ste
ĠUp date
ĠAud io
ĠDien ste
BÃ¼rger meister
T C
U RE
Ð ·
Ġder selben
il lo
ĠC ob
omp eter
ĠStadt gebiet
Pro tocol
ĠGesch lecht
Ġu kra
klÃ¤r t
197 1
ĠKaiser reich
ĠPeters burg
Ġbegeist ert
Ġstrate g
Abstra ct
V ideo
ar es
Ġv ierte
ĠE ver
ĠL eich
Ġan f
Ġl agen
Ġbei gesetzt
St a
ĠKon serv
Ġgr atis
ĠBet reiber
ĠGel ehr
Ġoft mals
ĠTyp s
Ġindividu elle
ĠUrs ache
Ehr ungen
O t
s ql
er d
ation Exception
ern ame
od ox
An notations
man uel
Class Loader
ari at
Mod ell
ĠAll ein
ĠBi ografie
Ġ180 3
ĠSek retÃ¤r
ĠVal id
iÃ¨ re
Ġuntersch rieb
F OL
N icht
an alyse
ei tig
al ing
Ġan g
Ġaus geschlossen
19 40
fÃ¼hr ungen
ĠMan uel
Ġeinge gliedert
ĠEle ctr
ĠHash Set
ĠVort eile
Ġlehr te
# #
M erk
S ION
á »
ĠS I
Ġge liefert
ag on
ver halten
id x
ok er
ite e
Ġis rael
tik eln
ĠGo od
Ġ185 6
Option al
ĠSpr ung
ĠStat istik
Ph one
ĠBuffer ed
C I
G H
R eihe
u is
ie u
tr ace
ĠC oll
Ġr ange
ĠPro ject
res pon
li ff
ĠUnter schiede
An fang
ĠNeu er
ĠNeu es
Ġverb lieben
ĠSk y
ĠSystem e
193 2
End point
ĠVerteid igungs
C ell
æ ľ
ch i
in ternal
Ġd ynam
et tet
Ġf u
ro hr
Ã¼r mer
Ġl ook
ĠAn aly
be auftrag
li de
bl Ã¼
Ġgel ingt
197 3
ĠMÃ¤n nchen
ĠGÃ¶ t
beh Ã¶rde
ĠCharl otte
ĠSyn ag
ĠDek or
ĠRÃ¶ mer
ĠPenn sylvania
I hr
K ilometer
f al
ar ter
ĠA TP
Ġf lex
ĠR eit
ĠL eh
ĠL ittle
ber ge
um a
ran che
Ã¶n e
Ġ" +
Ġsp anischer
ĠLand gemeinde
pr es
ĠFor scher
Ġoffen e
ĠStim m
ĠKin os
Ġhinzu gefÃ¼gt
Ġsof ern
Ġloc ation
Ġbedeuten de
ĠPublik ationen
gesp ielt
Ġmaxim ale
S til
k orea
s d
ĠP okal
ĠH ong
Ġauf gel
ĠAb wehr
mit tag
ute te
Ġstehen den
des ign
ĠBeh inder
ĠKind heit
& &
Ġw Ã¤chst
ĠB ald
ach el
ul er
ĠAn bau
gesch ichten
wer fen
Er zeugt
Ġange kÃ¼nd
schul d
ĠRep ort
196 9
FI X
ĠunterstÃ¼tz te
Rel ation
ĠstÃ¤r k
Ġqualif izierte
ĠHauptr olle
pfl anz
w ur
Ġ Ø
ĠK av
ier endes
ĠVer sch
ed s
tel finale
In formation
Ġent worfen
Ġlie ber
Ġ9 8
sb et
ĠRo ger
str eit
ĠMin dest
Ġbew egt
Dat um
mut able
loc al
Ġletzt lich
ĠPast or
ĠVirg inia
D okument
i ologie
y wood
Î ·
ar gs
ĠK ai
ĠL Ã¼n
urn ee
ĠAr k
Ġ" ";
pro fil
ĠChr is
ren ten
Deutsch e
ĠUr teil
ĠDurch fÃ¼hrung
ĠDek an
ĠstÃ¤d tischen
J e
P A
P at
V ier
W S
W ar
m utter
ĠD own
ĠM eine
ĠK ie
ĠT ieren
ĠJ Ã¼d
Ġge laden
Ġt oll
ri pt
ĠAn wendungen
19 27
Ġunter schieden
pl es
ĠAb kommen
ĠMill imeter
Ġinter pret
Ġ185 9
ĠDat abase
ĠVertrag s
ĠDok umente
ĠFinanz ierung
ĠMul ticast
ĠmilitÃ¤r ische
ĠViertel finale
P okal
U l
V O
Ġ []
ĠA z
ĠV in
Ġk Ã¼nst
Ġp rivat
lin ois
19 25
ĠMar io
Ġbesch loss
ron en
ĠGew erb
Ġeinge weiht
ĠPader born
p rÃ¤sidenten
ĠS om
or ia
ĠJ ar
ĠO bst
Ġauf einander
Ġt our
ĠÃ¼ber zeugt
19 42
Ċĉĉ ĠĠĠ
ill es
ĠFl Ã¼ss
Ġ13 0
man ischen
ĠOl iv
ook ie
Ġus ed
Ġbem Ã¼
Ġengag ierte
) ).
F uÃŁ
L ehr
g Ã¤ng
an ts
ĠS ax
ĠF ord
ĠW itten
ĠT am
ĠIn putStream
op le
ert ungen
etz e
Ã¤r er
Ġman chen
verb indungen
ategor ie
Ã¨ re
ĠHen ri
ĠVorsitzen de
Ġgek ennzeichnet
ĠEmpf eh
ĠFranzÃ¶s isch
ĠTats ache
ber gen
Ġc onn
ĠEin kommen
19 26
ĠVor name
Ġpro v
fer en
olit h
ett a
ĠSta ates
ĠPart ie
tik a
ott om
Ġit s
ĠWohn haus
ĠDi am
ĠPrem iere
PRO PER
ĠStraÃŁ burg
ĠBetreu ung
ĠSmartph one
ĠJerus alem
p unkten
Ġs ilber
Ġm ain
ĠR up
ĠL A
Ġg gf
he et
19 21
Ġpro te
ĠTer ritor
Ġser ial
Ġrei ste
ĠWerb ung
Ġehren amt
m ech
in stance
ĠS yd
au ft
el er
ĠV ogt
ĠĊ ĊĠ
ĠPro test
ĠPl at
Method s
kn Ã¼pf
CO L
ĠGeist es
rib ution
Ġvalid ate
ĠdÃ¤n ischen
ĠVictor ia
ĠPow iat
x id
ĠG allen
ĠP in
Ã¶ he
Ġh l
Ġzu verlÃ¤ss
ver eine
ĠEn kel
ill y
Ã© d
sh ow
unk er
str asse
Ġzusammen gef
Ã¤tz ung
ĠauÃŁer gewÃ¶hn
Ġinner en
193 5
zy kl
gra fen
ĠFreund schaft
Ġkompl ette
ĠFrem d
Wind ow
ĠAuseinander setzung
ĠSchwier igkeiten
A ustr
d rom
v org
Ã ī
ĠA cc
Ġh om
Ġan alys
ĠSp ace
enn zeichen
Ġbest er
ock el
ĠThe at
Ġle vel
An gabe
fe ature
ĠPr int
Ġgeb unden
ĠWie sen
Ġ185 7
ĠWinter spiele
Ġerziel en
ĠZeu g
S ing
st immung
Ġw Ã¤ren
ĠT ypen
ĠSch u
Ġ6 9
ÃŃ k
ĠWohn ungen
ĠBern ard
ĠBef rei
LO C
Dec lar
ĠStruktur en
Ġfal sch
Ġumgew andelt
L ower
Ġein gebaut
ĠR auch
Ġg aben
ad es
ĠSch Ã¤d
Ã¤t t
zeit lich
Ar tikel
str Ã¶m
ĠChr isten
ĠGrund schule
ĠWor te
Inter val
ĠGed icht
ĠAnder son
Names pace
ĠSign al
rue ft
sup ported
ĠLein wand
F eld
a ft
o ice
r ichtete
Ġan notation
Ġl it
ger t
() ),
Ġunter teilt
auf lÃ¶sung
fl Ã¼sse
ou v
ĠBet racht
trÃ¤ glich
we en
ĠFach werk
ĠSti pend
UN G
ĠverfÃ¼ gte
Ġpoln ische
Child ren
lehn ung
ĠWeil er
sper re
ontinu ier
Ġstru ktur
L aut
R und
j son
Ġw and
ĠD ocument
ĠR iv
Ġver lei
ĠIn t
Ġ18 47
Ġdrei mal
Ver walt
Ġar ab
ĠGew Ã¤sser
ĠRep ubl
Ġerreich bar
Ã¤mpf ung
itu de
ĠComm and
ĠBischof s
Ġnie mand
CON T
ĠEich en
1 20
st unden
ĠA L
ĠD un
ĠM ilit
ĠK orn
Ġer leich
ĠU til
ĠEin tr
Ver b
Ġeigen stÃ¤ndige
ĠBel ager
Ġpl us
ĠZust immung
ĠCap t
ĠKer amik
Fr ame
ĠPubl iz
ĠAbt ei
ĠInternal X
K ind
L ie
k ins
o ÃŁ
å ı
or er
Ġs en
am ts
ĠF eier
ach ing
ehr ung
be an
ĠPar tien
ĠUl m
Ġbevor zu
fried hof
Ġumfang reiche
ĠgÃ¼nst ig
Lin ie
Ġren ov
B O
E hren
L imit
T schech
b ell
m Ã¤nn
ĠB j
ĠF okus
ĠP ek
ĠSch Ã¼tzen
Ġp hil
19 46
ian s
ĠEurop Ã¤
ĠBen jamin
ĠauÃŁer orden
ĠAnder s
Meta Data
ĠhÃ¤uf iger
I st
P hil
Ġ append
st reifen
al i
Ġi gnore
ĠG ol
ĠW esen
ĠI ron
Ġg Ã¼l
ĠU RI
ok u
Ã¤hr ungs
ĠKon stanz
ĠBl u
schl Ã¼ssel
chn ik
Ġaufge geben
ĠJe ff
ĠbeschÃ¤f tigte
ĠOrchest ra
Nonn ull
c onnection
Ġ att
Ã¼ sten
at tribute
it ing
ĠA S
ĠB ut
ĠD etail
ĠM atch
ĠW lad
ĠL ow
ĠV alue
ĠIn haber
19 22
ĠÃ ©
ĠFl ach
urt stag
ĠWest falen
ĠÐ ½
ĠMag az
195 5
alle d
Ġempf angen
ĠForsch ungen
ĠGesetz es
kor ean
the ater
Ġpassen de
A rea
y cle
ĠB Ã¤
ĠB enz
em pty
ĠW end
ic on
eil ung
ĠAr zn
hl eten
Ġgen utz
vor stand
ĠBuch t
Ġkon serv
kir ch
Ġschn elle
Ġ185 5
Comm on
Ġnied riger
ĠInstitution en
E v
in as
ĠA tel
ĠM esser
ĠE i
Ġf eiern
ĠC ell
gr Ã¤
ĠGesch w
Ġth emat
Sch l
ĠOber liga
Ġausge strahlt
ĠBand s
wohn ung
Ġkon f
west lichen
ĠFranz osen
wirtschaft s
ĠKriegs gefangen
ĠBahnhof s
ĠKab ar
ĠniederlÃ¤nd ischer
ĠFlor ian
ĠCentr e
ĠMisch ung
B ro
F amilien
c enter
Ġd icht
st urm
ĠA cker
ĠP ommern
eh er
ĠSt eiermark
En coding
Sch utz
off s
rÃ¤s id
ĠSÃ¼d afrika
Ġbew aff
ĠNe useeland
ĠAll gemeine
Ġindividu ellen
ĠDigit al
Mich ael
C oun
ç ļ
ĠS K
ur ist
it as
Ġs m
ĠK und
ĠK arn
ĠE P
Ġver dien
Ġdem okrat
ĠAus sagen
ĠAb d
ĠVor stellungen
lem ens
Ġgew isse
add ing
rech nung
ĠSe gel
Ġnun mehr
ĠGen f
gesetz es
zÃ¼ g
ĠWal es
ĠSchlag zeug
ĠVersuch e
elemen te
cycl op
A tt
O UT
c os
Ġk Ã¼mm
esch ichte
ub a
ev or
Ġlie be
ĠAut os
ĠBuch en
ĠWohn ungs
Hand le
193 6
ias ieger
Ġ185 2
ĠKat hedr
ĠSing les
ced es
ĠCommun ity
ĠFass ade
Ġinstall iert
urren cy
" -
D omain
a ire
b ayern
et ische
Ġn utzt
ĠH D
ĠN ag
Ġge leitet
Ġdes ign
Ġver standen
ĠEin ladung
nen nung
Ġtr ee
pf lan
eren zen
ĠGew inner
ĠProdu kten
Ġgest orben
sport ler
ĠWeiter hin
EL D
ĠInner en
ĠFal ken
ĠAbstra ct
d ater
f ac
et ik
ĠF ett
ĠZ iegel
Ġst eigt
Ġsie gte
19 50
ĠStr eich
Ġverm utet
197 7
ĠDep ression
Ġkrit isiert
Ġschwed ische
ĠExempl are
B I
G it
K ur
n ord
È Ļ
Ġs or
ĠB recht
tr Ã¤ch
Ġh or
ic us
get Field
ord nen
Ġger ingen
Ġerfolg ten
ace ae
193 7
Ġerk ennbar
ungsver fahren
opÃ¤d ie
! =
F ootball
P rÃ¼
g leis
Ð ±
st amm
sch lossen
le der
ig ation
ĠZ e
ĠSch enk
op her
Ã¤hr en
ans as
Tra iner
ĠTor onto
Ġ185 1
Vor pommern
Ġwissenschaft licher
Char acter
ĠKab inett
resource GroupName
ĠTschech os
angeb ote
Ġchrist lichen
Ġsorg te
Sum mary
pflan zen
G ymnasium
L AN
s wert
Ð ¿
ĠR ektor
ĠI stanbul
ĠZ wer
Ġl eiden
Ġbe ant
19 23
qu ote
Ġges ichert
Er stellt
Ġben utzen
Ġfest gestellt
ĠTre ff
ĠTri b
Ġmon at
Ġvertr ieben
C re
L ud
R hein
w enn
Î º
ĠD est
ĠM Ã¼ndung
Ġf indest
ĠH ead
ĠO hne
ĠSt ars
ran ten
rÃ¤ der
ĠCh ines
ĠCh arts
Ġ0 1
Ġ7 7
ĠTr ennung
ĠSchul ter
ĠWil son
anst alter
196 3
Ġpassen den
dis ziplin
Ġdenkmal geschÃ¼tz
k k
à ¥
in iti
or ges
ĠF eu
Ġf ull
ĠH amm
ĠL aus
tr olle
ber ts
ad s
ĠSch atz
ver kauf
Ġj ene
ĠStr eifen
ĠLand rat
ph abet
ĠPar ks
such t
anis mus
lock en
euer ung
ĠOst preuÃŁen
Verein igtes
ĠViel falt
ĠReserv e
Ġverh indert
wh ile
Ġexper imen
Ġpersonen bezogen
F ull
s eiten
č ĊĠĠĠĠĠĠĠĠĠĠĠĠĠĠĠĠĠĠĠĠĠĠĠ
Ġs egment
ĠP rix
ĠC el
ad bach
sp ec
ver Ã¶ffentlich
Ġbe ziehen
ĠBer at
ĠCh annel
br unn
res ources
Ã¼t tel
ingen d
eid ung
Ġall gemeine
ĠGen e
ĠzusÃ¤tz lichen
ĠStil l
Ġnational sozial
ehm igung
Arch Ã¤
nehm ern
ĠFinn land
ĠArgentin ien
au e
it tel
ĠG ieÃŁen
ĠP unk
re ste
lich ten
Ġp e
19 24
19 28
Ġ0 4
Ġ0 9
schen den
los er
ĠKon stantin
ĠHaus halt
gra de
ĠViz emeister
Tim estamp
ĠOpp osition
n ten
z it
ei mer
on te
ĠA ur
ĠP ersÃ¶nlichkeiten
ĠL uther
Ġg ro
get Path
19 12
sk o
ong ol
Ġeigen tliche
schl Ã¼sse
zentr ums
ĠPat ri
ĠAu ft
ĠBed ien
ĠÃ¼b lichen
Welt meister
ĠHan au
zub auen
Ac tivity
ĠVorder grund
ĠGolden en
ĠErzÃ¤hl ungen
ĠEro ber
ï¼ Į
N a
ĠS ind
ĠS atell
ĠB ibliothe
Ġf iles
and in
Ġge pf
ĠZ ellen
get Attribute
ĠÃ¼ber tr
aus s
Ġ18 20
sh ut
eid et
ĠGeneral leutnant
ĠParis er
196 6
ĠHerzog tum
grÃ¼n den
Ġfinanz iellen
ĠjÃ¼nger en
tok oll
ĠNap ole
N ummer
b undes
r ollen
z eits
Ġd ekor
ĠF erner
ĠH Ã¤nden
ĠC our
Ġl Ã¤nd
ĠSch i
Ġbis schen
Ġ18 46
Ġ" .
ens wert
ĠPl Ã¤nen
schie ÃŁen
Ġbeg leiten
tag on
hand els
ĠBew erb
Ġ185 8
195 6
Ġerz ielt
ĠSyn th
ĠJack son
ĠDemokrat ischen
ĠTemperatur en
Ġsech sten
Ġhochwer tige
Ġeindeu tig
ĠFrÃ¼hl ing
F ebruar
l ige
n Ã¼tz
ĠS ED
Ġs auber
Ġs ql
se Exception
Ġauf s
ĠJahr gang
Ġsp anische
pf en
ail and
ober flÃ¤che
ĠHand lungs
ĠRech nung
ĠNord west
Ã¼l ler
ĠDr ama
ĠCar los
ake te
ĠSim ple
stud ien
Ġweib lichen
ĠÃ¶r tlichen
R ichtung
T or
h aut
st one
ĠS amen
ĠS Ã¤u
ge wer
it ive
ĠP y
ĠP ixel
Ġf Ã¤hrt
Ġf rauen
om etr
Ġauf nehmen
ĠZ war
Ġver zeichnet
ĠSch uss
Ġj ung
ĠAr g
ĠNach kriegs
ĠVor lage
amm lungen
Pro gress
Ġ12 5
spr icht
ĠRe ad
Ã¶st liche
ĠErz bist
Ġverst eht
Sh ow
Ġbed ient
Ġra sch
ĠRis iko
Ġfac tory
Ġabgeb rochen
Vol ks
Ġgewid met
et o
ĠM ex
Ġf f
ĠR och
ĠC af
Ġk ontinuier
Ġge kauft
Ġp Content
ot herapie
ĠEin zugs
pl ic
tem p
Qu elle
Class es
ĠMed iziner
ĠWei s
Ġteil en
ĠChrist i
ĠSk la
Ġkon zip
ĠAnd roid
196 2
Ġkosten lose
ĠSand stein
usch el
kur renten
ĠZeich nungen
verl ust
ĠGemeinder at
D ienst
H ar
p Ã¤dagoge
ĠF I
ĠL eut
ber s
ber ater
ĠN etwork
eh le
ver g
ĠEr lebnis
la fen
mer k
ex ception
Ġ3 50
Con stant
rich tet
Ġ14 0
Ġind ustr
euch ten
ĠWar schau
ĠStraÃŁen bahn
ĠJer sey
Ġleich te
bas is
ĠLad y
Metr ics
Ġbedeutend sten
D igit
H z
S ol
p op
ĠB ean
ĠM Ã¼hlen
Ġf ailed
ert o
ĠEin fach
Ġ5 000
lei tete
ĠEx p
Ġhin sichtlich
zahl ung
ĠSÃ¼d ost
bed arf
zy linder
ĠKrit iker
ĠOff ice
Ġregion alen
ĠSamm el
Sa int
ĠplÃ¶tz lich
K at
ĠM all
Ġge ograph
ver arbeitung
ĠIn c
Ġbe geg
Ġ18 13
Ġ8 4
Ġbeg rÃ¼
min a
ĠBest er
At tr
ĠHar z
eta ill
sprÃ¼ che
ĠPian ist
l Ã¶sen
č Ċĉĉĉĉĉ
es k
ĠK ok
ĠF usion
ĠL il
ĠDie sel
ĠEn tert
br Ã¼ck
sk ar
ĠBe arbeitung
ĠAd ministr
ĠJuni or
Nach bar
ĠKinder garten
ĠSport s
ĠMill ion
SS R
fÃ¤l lt
Rep ort
anstalt ungs
ĠErwachsen en
franzÃ¶s isch
ĠRess ourcen
G ra
M ont
t ax
t mp
ĠB reis
ti ker
ĠT Ã¤tigkeiten
Ġh aus
Ġden ken
ĠSp ark
19 11
19 49
Ex pr
if ier
ĠMus een
kl assen
Ġange ordnet
ĠEl s
Ġverb inden
ĠAt hlet
ĠSchul d
ĠCar lo
inc ipal
Pol y
Ã¤um t
hor st
Ġdigit alen
Ġmusikal ische
stad ion
idd le
A ch
J J
T ool
an es
an ter
ĠD M
ĠE valu
ĠH at
ĠT afel
ĠR un
ĠL av
ĠJ im
Ġbe arbeitet
Ã¶r n
ak ten
pf alz
ĠFl orenz
Ġ8 2
Ġgesch ickt
ĠÃĦ l
ĠWeiter lesen
ka sten
195 2
bes itzer
Stand ard
ĠWand el
ĠRos a
prof essor
çļ Ħ
F ach
K ar
T urn
T ube
w id
ĠB od
ĠK ompl
ĠG rupp
tr ansport
ĠEr m
ĠÃ¼ber zeugen
Ġa ccess
ĠVor les
Ġres ul
ĠMeister titel
196 5
190 7
ĠCor ps
ĠChem iker
ĠStreit krÃ¤fte
ĠKaff ee
Ġgaran tiert
h ten
l och
ĠB ag
ĠB arn
Ġf lag
ĠW id
ier bar
sp ark
lie gende
Ġsp Ã¤testens
ĠAb satz
St orage
Al gorithm
IN STANCE
ĠZw ecke
Ġgeb raucht
Ġbesonder er
ĠRÃ¼ck tritt
198 1
190 5
ĠErw art
ĠNachbar gemeinden
ĠEntwick lungen
ĠZerstÃ¶r ung
ĠLew is
verteid iger
H g
S L
Ġs eiten
den kt
ĠR unden
ĠN utzen
ĠN HL
ah me
Ġent decken
ac c
St ation
ĠAm ph
az ar
agen tur
stra te
ĠSchw estern
zw eck
con f
ĠLandkreis es
andid ate
plan ung
Ġland es
ĠBayer ische
Ġschwed ischer
Ġrest lichen
stÃ¤r ke
B ig
B uild
M D
h ers
i able
s Ã¼d
ĠS ymp
ĠĠĠĠĠĠĠĠ ĠĠĠĠĠĠĠ
ĠG az
Ġer b
Ġk ar
wei he
ĠVer leihung
br Ã¼cken
io den
gew Ã¤ch
lau tern
Ġgem Ã¼t
Time Millis
190 2
ĠComm on
ĠGold medaille
ĠDist anz
Hol der
Arch itektur
Kurz film
ĠBeweg ungs
C ertificate
M a
R ole
c olor
t Ã¤u
v ia
Ġd iff
ĠA T
ĠT ask
wei chen
ĠIn valid
19 10
Ġ16 0
ĠGener ationen
Auf gelÃ¶st
ĠÃ¶ff nen
ĠRel ief
iction ary
ĠPorn o
ĠHildes heim
H A
h ou
ge stellten
ĠD Ã¼r
ĠG reif
ĠN est
Ġst et
ĠSp rech
Ġj eg
ĠAuf klÃ¤rung
ges prÃ¤
Ġle g
ĠHand werks
alis ierte
ĠZwei g
Ġkanad ischen
ĠGir l
Ġav ailable
ĠmÃ¤nn lichen
ĠDrit ter
ĠVoraus setzungen
ĠGlauben s
Ġperf ekte
Ġspezial isiert
Strate gy
C opy
S eite
c lazz
Ï Ĥ
ĠF unde
is her
Ġh art
ĠC in
Ġk reis
Ġg raph
ist ics
Ġl eiten
Ġvor Ã¼ber
auf gaben
omm un
mal erei
Ġber echnet
ĠRo te
ĠSte ve
ĠBundes regierung
Ġausge st
Ġger ufen
ĠMo z
By Comparator
g alerie
Î »
ĠD eine
ĠK han
ĠF unc
ĠF aktoren
Ġst erben
eil le
Ġ18 18
Ġre form
sh afen
mann schaften
ĠHand y
Mit te
ĠCon fig
ĠSÃ¼d ti
hand elt
Ã¼b ung
Ġbeh err
system s
Ġinteress iert
ĠDenkmal pflege
kathol ischen
ĠAktion en
ĠKomment are
cover y
H ome
w ahr
le vel
ĠL eu
ĠL ap
ĠV ul
ul ator
Ġr ichtet
ĠEr stellung
im o
19 41
qu ert
ĠPro perties
ĠzurÃ¼ck kehr
ade d
ĠSaison ende
hÃ¶ hung
ender t
ĠBi ographie
195 9
Land es
aun a
Ġerr ichteten
Cl ub
Ġdigit ale
Ġentst amm
Ġregistr iert
ĠBeam ten
ĠHig hl
Sow jet
ĠÃĦm ter
F Ã¼gt
P ack
m ain
on omen
ĠB og
ĠB uck
Ġb ody
ĠP os
Ġver folgt
Ġst ep
Ġc olor
ĠEr ik
bau werk
pro perties
Ã¤m me
ask a
ĠFlug zeuge
Ġtrans action
ĠHon or
Hash Map
Ġgez Ã¤hlt
ĠWeimar er
M IN
R eich
b ur
l Ã¤ndern
st yle
ĠF ox
ĠF air
ĠG R
ĠR ag
ĠR ic
Ġt itle
ĠVer st
Ġst ore
ĠEr be
ehr en
ĠSie ge
Ã¤ch te
fahr ung
Ġ7 1
ĠAk adem
erg ie
omb ard
gesetz te
Ġsicher te
ĠschÃ¶n sten
Ġorganis ierte
Ã¶pf e
leit ungen
ĠKrie ger
AuÃŁ erdem
FOL LOW
B und
l abel
u ste
ĠB ug
Ġein gemein
ĠK ra
ol in
ĠG or
Ġau th
ĠH us
ĠV ieh
ĠâĢ ĺ
ĠEr halt
im age
ĠAus grab
als ieger
EN G
ĠKn ochen
Hand ball
beh alten
ĠÅ ½
Rel ig
Ro ute
Bundes liga
ĠProz esse
ĠInstall ation
ĠZub ehÃ¶r
B Y
D ur
O W
g Ã¼r
n acht
r s
Ġd auert
ĠA N
et sch
ĠW ich
ĠR eu
ĠN atÃ¼rlich
ĠC row
Ġge folgt
ate way
ang o
ĠUn der
19 43
ex ists
ĠAus sehen
ĠMus ical
Un garn
ied s
DE F
Ġ180 8
Ġelement s
ĠSÃ¤ ulen
Ġdur ften
ĠRezep t
Ġnutz te
Ġdisku tiert
L P
M T
N etz
f ast
g Ã¤
l ess
p ri
ĠS ehr
Ġb undle
param s
Ġausge prÃ¤
ĠJul ia
Ġar gentin
rim inal
Des c
ĠStim mung
PT ION
ĠLeiden schaft
Ġbehand eln
K rieg
S D
at hlon
ĠB enn
ĠD IN
ol ine
ra ÃŁe
ern t
ĠAn walt
00 00
Ġa fr
Ã¤r bt
ac o
param eter
ren ce
kreis es
195 4
ĠlÃ¤nger e
Ġevangel isch
Ġstaat liche
ĠZerstÃ¶r er
ĠNahr ung
ĠErl angen
akes pe
V iele
f ranken
z esse
ĠS her
ĠB ecken
ĠK leidung
ĠT Ã¤ter
ier re
Ġge p
ag ing
Ġp or
Ġp ool
Ġc ollection
ip per
ult an
ph ia
ĠzurÃ¼ck zu
Ġcon f
ĠSal v
ĠprÃ¤sen tieren
Ġengag iert
ĠStÃ¤r ke
s ieg
Ġs ens
ĠK enntnis
Ġf ree
ab ilit
Ġun it
ben e
her stellung
ĠAb hÃ¤ng
ĠMa ÃŁe
av ax
ĠCh ile
ain ment
ĠSte ine
Ġhin weg
Ġhand eln
ins eln
leid et
laf zimmer
Ġdat iert
ĠLeg isl
ĠPri or
ĠErinner ungen
ĠArchÃ¤ ologie
ĠKoal ition
A lex
P resent
l iger
ge ht
ĠH af
Ġvon einander
ĠZ ut
eg g
Ġbei ge
Ġsch ul
art a
ĠAr tillerie
qu alif
pl Ã¤tzen
Ġis ol
ĠOber bÃ¼rgermeister
Ġger inge
ĠSh ort
Ã¤tig ung
Ġeinfach er
Bau denkmal
produ kte
ĠVorsitzen den
ĠHÃ¤ usern
ĠPrinz essin
Ġide en
ĠCoun try
ĠReihen folge
ĠBom ben
M ein
t temberg
in itial
un ks
Ġs a
Ġs itzt
et isch
Ġb ound
ĠG leis
ĠH ass
ĠN iger
Ġge zwungen
ĠSt ationen
ĠJahr buch
ĠSp alte
Ġunter nahm
auf lage
ĠAb sol
Ġman che
ĠEx il
ĠAut omat
ĠDurch schnitt
over n
ĠBro ad
rec ated
ĠSat tel
ĠBam berg
G ef
I hre
u der
Å ¼
Ġw ord
et ischen
ĠP est
ĠP azif
ĠSch alt
Ġaus gel
19 00
ĠPro gramme
mit ive
ĠEs c
ĠSchw Ã¤b
Sie ger
ograf ische
Ġqu adrat
Ġat tributes
195 3
ĠTour isten
ĠVertr auen
UT F
Ġvers orgt
SO URCE
ĠFound ation
Ã¤p st
D ivision
J azz
P ap
m uster
Ġ egal
ĠS yr
at ra
at ischen
ĠB usch
ĠP ay
se kten
ĠC olon
eg ate
ĠÃľber setzer
Sp eichert
Ġcon s
mittel alter
ĠWerk zeug
verb Ã¤nde
anc er
ĠDon ald
ll ustr
funktion Ã¤r
IV E
ĠZuf luss
ilen ame
wach ung
Franz ose
M as
S l
h ier
Ġ ec
ĠS erb
Ġs aÃŁ
Ã¤ uÃŁ
ĠD rach
ĠD ecken
Ġin iti
Ġm or
uch er
19 48
ek ord
ĠMar co
Sch we
aw s
Ġ> >
ament o
190 9
ĠMinister ium
ĠAmts gericht
ĠBÃ¶ hmen
kathol ische
ĊĠĠĠĠ ĊĠĠĠ
ĠBon us
ĠHoll ywood
Ġmusikal ischen
Techn ische
Ġschwier ig
Ġzusammengef asst
K Ã¼nstler
W olf
w ender
å Ī
Ġd einen
ĠR ez
ĠN oten
Ġt ut
ĠZ ertif
ver leihung
Ġst re
Ġc ur
Ã¼t zer
ĠSte phen
ĠMed aille
zentr ale
Ġabge lehnt
196 1
ÑĢ Ðµ
ĠWit we
exp ected
beam ter
ĠVizep rÃ¤sident
c ms
d on
z iele
ge mÃ¤ÃŁ
de fin
le hen
ĠH Ã¤ndler
ĠW ettbew
ĠJ ag
Ġ18 45
Ġ18 42
lo hn
Ġre alisiert
Ã© b
lei sten
ĠEnt ity
ĠBild schirm
ĠBÃ¼rger liches
ĠPer formance
ĠAnfang s
ĠgrÃ¶ÃŁten teils
ĠEntwick ler
Ġtime out
ĠMay er
Ġbestell t
Mart in
F ernse
M emory
Â ¼
as ks
Ġm oment
ĠK ein
and s
ĠO ch
ok ol
ĠSte ink
ron om
ĠAt las
riter ia
ĠWor ksh
Ġpol y
ĠKomp etenz
emat ik
Ġnorm alen
ĠBlÃ¼ te
Ġfiel en
ĠWeihn achten
ĠBeck er
ĠEreig nis
wander ung
imple Name
ĠJahrzehn te
A U
B al
G raf
Ġ Ã¤nderte
Ã¼ g
Ġs ingle
am ing
Ġauf geteilt
Ġre ference
ob ahn
ine a
ee ded
ĠSeit dem
196 4
dent ity
Ġgepl ante
Ġmoder ner
Ġide al
Ġservice Callback
ĠGit arre
Ġexp ected
Ġzeich net
ĠCoun cil
ĠViet nam
Ġermord et
B ag
Â §
Ġ iterator
ĠA tem
ĠL ichten
mit tler
Un ternehmer
amil ton
ank a
gÃ¤n gen
ĠPfl anze
sei tige
ĠStief el
R h
b org
h ash
k le
k reise
en ge
ch annel
ĠS ech
el f
ĠE y
ĠJ un
Ġl aden
ĠSch icht
Ã¼n ster
Ġ18 44
Ġunter stellt
ĠAb ra
vers icher
ev in
Ġber ichtete
ock e
heit lich
Ġ7 4
ĠCon rad
ĠInter ess
++ ]
bet eil
ĠNe apel
sl alom
ĠTex ten
Ġbeteil igten
Ġerf asst
ĠerhÃ¶ hen
Ġbeob achten
Ġsamm eln
Ġmittelalter lichen
ĠLokomo tiven
Ġgrund legen
evelop ment
T enn
w issen
an ti
te le
it iv
Ġs in
Ġ1 17
ĠG ibt
ĠH ahn
ĠL oth
ĠN eg
ir ca
ot ter
lin s
ak tive
av y
ant in
Ġ8 7
Ġausge stellt
zw ald
Ġabsol ut
Ġloc ale
ĊĠĠĠĠĠĠĠĠĠĠĠĠ ĉĠĠĠ
Ġumfassen de
ĠServ ices
Ġbayer ischen
ĠEh emann
Merk male
S am
m atcher
o ÃŁen
u ge
es a
ĠS A
Ġz z
ĠR Ã©
Ġh alt
Ġan ger
Ġl at
men te
ĠEin blick
ĠAb schied
war f
Ġres ults
ĠVol ker
ĠSe eh
ffiz ienz
zentr en
ĠLei b
Ġaufge hoben
rem e
ĠAnti ke
Ob wohl
ĠRestau rants
Ġverbesser t
ÅĦ ski
ĠanschlieÃŁ enden
Ġiden tisch
R aum
S pl
W issenschaft
ĠK riterien
ĠH ind
ĠH els
um pe
ĠV ector
ĠEr nennung
In f
ĠMa j
ĠVor gehen
Ġpro b
form ed
sb ahn
ina e
omb ination
Ġangeb lich
ĠGast geber
ĠBrit en
Ġweib liche
Constra ints
d ichte
l aus
v oid
Ġ echt
un er
ĠB ibli
ĠG ute
Ġf ilm
Ġge gangen
ĠZ ypern
ĠU s
Ġp hilosoph
ff ekt
ĠEin sÃ¤tze
auf tritt
ĠAuf stand
Con f
Ġe ach
ĠUnter kunft
Ġ8 1
IN TER
Ġeinge zogen
ĠZwei ter
ĠSÃ¼ ÃŁ
ĠFrÃ¼h stÃ¼ck
ĠÃ¤uÃŁ eren
Ġerr ang
ĠMass achusetts
ĠJed och
Ġkombin iert
ĠSchicks al
c omponent
m inal
w n
Ġ ul
ĠB in
ĠG ord
ĠSch iller
os m
ĠAr tist
if iers
per rt
(" /
ĠY am
ĠSh akespe
Ġbesch rÃ¤nkt
ĠWer ft
itte e
Ġadd ress
ĠJournal isten
ĠBaum w
Ġausger ichtet
kÃ¼nf te
ĠGeschlech ts
ĠWÃ¼n sche
ĠDoug las
K ap
v i
á ¸
at io
ĠF uss
ĠG un
ĠT able
sp eicher
ver ordnung
ĠVer mut
ĠEr mitt
ĠEn cyclop
lo y
Ġpro vider
olog in
ĠKl ar
fig uren
Ġger aten
rÃ¤siden tschaft
ĠmÃ¼s se
istr ict
Ġbeteil igte
ĠEntscheid ungen
Ġdest ination
Ġzweit es
Ġlok ale
Po ints
AX B
Histor ische
Constra int
Requ ired
Lud wig
C ounter
O wner
S w
o on
ein trag
it Ã©
Ġw ann
Ġm ember
ĠK Ã¤
ĠP yr
ĠE mer
ĠC ard
im b
ib us
ĠVor gang
Ġ0 7
ens ive
Con dition
ian er
ĠGesch icht
sb ild
ond itions
ĠFilm fest
ash i
ĠDes igner
ĠSa arb
ĠBesch luss
Ġ185 3
ĠHar vard
ĠSol ar
Ã¼rz te
Ã¤s se
Ġversch oben
ĠErw in
ĠFÃ¤l le
ĠEro tik
ĠBestell ung
ĠChl or
B ot
H om
H eil
M ass
e o
n immt
Ġm erk
Ġm ode
se h
rei tete
Ġab ges
if ikation
ĠNach lass
ĠLand gericht
Ġ7 3
Res ults
ĠProblem en
agn ose
ĠÃ¤uÃŁ er
ĠWett kampf
ĠMargar et
A lias
K reuz
f aces
l Ã¼ck
al ts
ĠS G
Ġin halt
ĠK i
ĠT ODO
ĠC ustom
Ġbe quem
ang riff
ĠBer ichte
Ã¤l lig
Ġgen ehm
Ġgesch Ã¼tz
ober t
ĠDar steller
Ġqu er
Ġheraus ra
ĠDienst ag
flug zeug
current TimeMillis
FI ELD
komm iss
ĠKÃ¶nigs berg
ĠFranzÃ¶s ischen
ĠMonument s
Ġkorre kt
= '
A fter
Z usammen
a int
o a
st op
ĠS ob
ĠS ev
sch in
te in
ĠM ix
ĠK ilometern
der en
um pen
and al
Ġh Ã¶lz
ir ken
ul ationen
Ġl ust
Ġl abel
Ġ18 41
hen de
th ers
ĠVor schlag
rich en
tor hÃ¼ter
Ã¤m m
ĠFot ografie
Ġkein em
195 7
ĠSpr int
Ġverlie f
ĠEff ekt
ĠEuropameister schaft
ĠAR D
ĠWiederauf bau
P rÃ¤sident
s ich
z ule
} );
st im
ĠB auf
Ġin tel
ĠT oren
ent schieden
ed el
Ġ18 43
Ã¶r t
pl ier
off er
ĠBe eth
ĠBet riebe
dr ama
ĠWeiter entwicklung
othe k
Ġgenau e
stehen de
Date Time
ĠAust rag
Mon itor
Column s
Ġregion ale
Ã¢ te
frie s
adel phia
Ġneg ative
U sage
b rief
u cc
z ucht
as y
as ure
ĠD I
ĠT SV
ĠC loud
Ġl iber
Ġst ack
ĠAn meldung
ru der
Ġe ffiz
eig n
ĠAt tribute
ĠInd ustr
ĠfranzÃ¶s isch
Ent wicklung
wÃ¤r tigen
ĠHel den
Sup port
Top ic
zell an
ĠVerÃ¤nder ung
ĠErschein ung
A gg
H eim
m achen
n ommen
te ste
or ff
ĠB eine
ĠB orn
Ġm ath
ĠK ent
ĠH ed
ĠW ichtig
ir en
id ad
Ġ18 37
stell ern
geb ot
res h
An im
als o
hÃ¶r en
ĠBo y
ĠEl f
ĠGrund riss
ĠHaupt darsteller
bew eg
Ġgest ern
ĠArbeit nehmer
ĠSan ierung
fel de
ĠService Future
Ġclass Name
ĠChem nitz
ĠRem ote
ĠMagn us
Krit ik
Ġveranst altet
Sonst iges
ĠSyd ney
P riv
g ot
k Ã¤mpfe
o i
t ask
st ore
ĠS D
Ġs ome
ĠB utter
ĠB ande
ĠD ark
em m
em ar
ĠG lobal
ĠH ain
Ġk lin
ĠâĢ Ļ
ĠSt ufe
ĠOr ien
ĠCh ancen
Ar g
Ar ten
ĠProdu zenten
schn itten
ĠDurch schnitts
Ġro te
ĠEv olution
Ġentfern en
ĠFort setzung
Ġrem ote
ĠSauer stoff
B ud
d l
e j
Ġ arr
Ġv irt
ĠC la
ĠC osta
ĠO S
ĠVer g
Ġst euer
ĠAl f
ĠCh am
sh aber
Ġgew issen
Ã¤ch ter
Ġ8 3
RE D
ĠLebens raum
ĠOn lin
190 1
ĠHeimat stadt
ĠDav is
ĠRed akteur
Ġtyp ischen
ĠSec urity
track ing
sthe orie
ĠWurz eln
Ġzug unsten
ĠApost ol
ĠausdrÃ¼ck lich
MÃ¶ gliche
w il
er a
al ben
ĠD ritten
ĠP ension
ĠW Ã¤hler
ĠN iveau
ĠVer leger
ĠVer pflicht
ĠEr sch
Ġvor ange
Ġsp aren
ĠAus sch
Ġgen auer
Ġgr Ã¼ndeten
Ġpolit ischer
ĠDat eien
lÃ¤nd ischer
ĠStu dent
Page Link
Ġtradition ell
Ġletzt es
ĠTrotz dem
ĠIntel ligen
C L
R itter
h Ã¤nge
un en
un ch
ge x
ĠB Ã¤r
Ġ1 13
ĠH ut
ĠH obby
Ġg ere
ĠVer anstaltungs
im s
Ġ18 16
19 13
Ġab gel
ste ck
lieÃŁ en
ĠÃľber ra
ĠChrist ine
ĠÐ ¸
Ġabge geben
ĠHil f
ĠGeh irn
ĠWar um
ĠZÃ¼r cher
Ġfinanz ielle
ĠAbst amm
ĠTar if
Metr ic
ischÃ¶ fe
ĠangekÃ¼nd igt
M AT
W eiÃŁ
h Ã¶ch
m ass
w enden
ĠS Ã£o
Ã¼ ben
ĠB ie
ĠP ionier
ĠR as
Ġer gab
se arch
ĠSch um
19 47
ĠAl an
Ã¤nd igkeit
Ġbef Ã¼r
Im port
imm ern
Ġbesch rieb
ĠAk te
ĠTr end
SS ION
Reg istr
schw itz
Ġverst orbenen
Ġsetz ten
ĠĠĠĠĠĠ ĉĉĉĉ
ĠAlbum s
zÃ¼ gen
ĠKind es
ĠMer cedes
ĠWall er
Ġbetre ffen
ĠGrÃ¤ fin
Ġanti ken
Vis ible
Ġopti mal
andin av
H allo
L INE
z elt
Ġd own
an aly
ĠF unction
ten nis
ĠW orm
ĠZ one
Ġl Ã¶sen
ĠIn spir
get Data
iz en
Ġ9 00
-- ;
Ġhistor isch
ĠMitte le
ĠRev iew
Obj ects
Gener ic
reden tials
Ele ktr
ĠCorpor ation
R et
S ite
W ohn
a schen
k am
s Ã¤
v enz
ĠA D
ĠP RO
ĠH ip
Ġer lebte
ĠC ontainer
Ġver mittelt
ru le
Ġ18 14
Ġwie s
br ig
ĠPh Ã¤nomen
Ġausge dehn
ĠTra ck
sw itch
ĠWor ten
Sc reen
ĠFernseh film
ĠEt wa
Ġgener ate
ĠRh yth
ibil ity
ĠBegeg nung
D isp
H in
M atcher
T AG
V E
o ti
w ich
al ity
Ġw here
ĠM P
Ġm ac
ĠP ak
ĠH aw
Ġer for
Ġg rid
Ġver Ã¤ndern
ĠEin zug
Ġab geleitet
ĠAus bruch
ov iÄĩ
Ġ8 9
ĠY our
ĠVerein ten
ĠPhil ip
ĠKommun ikations
ĠJur a
Ġbed ro
Ġevangel ischer
quar tier
Ġumfang reich
lÃ¤uf e
organis ationen
ĠOh io
F ont
W o
b ol
Ġd ritt
on ic
ĠK rÃ¼
ĠF arm
tr ei
ĠJ en
Ġver sen
Ġunter richtete
ĠGr aben
ĠNach kommen
Ġet hn
Ã¶s ser
Ġ12 00
ĠChr onik
iden ce
ĠMann es
Ġ) :
ĠMod ul
jÃ¤hr ig
lu ste
sta ats
ĠTechn ology
ĠBetrieb ssystem
ĠTre ppen
Ġmethod s
komm ission
Ġerf Ã¤hrt
beg riff
ĠHum bold
Ã¤rt ner
D iff
x x
au ens
et al
ĠD ead
ĠD FB
Ġf rag
ĠH ad
ĠC arn
Ġdes wegen
Ġt ags
Ġ18 36
iz z
ĠAl i
ord neten
bar es
ĠRo y
ĠBe au
mÃ¤ ss
Ġteil te
Deutsch es
Ġem otion
ĠMag d
ĠRen ov
Ġsh ow
Ġdire ctory
Ġbedeuten den
ĠSem in
cept or
ĠStrate gie
F iction
H amburg
L ou
T ab
T ri
V A
b on
u uml
Ã ¯
Ġd Ã¼n
an trieb
Ã¼ pft
et tist
Ġm s
ĠZ ens
ĠSt or
Ġc luster
Ġ18 35
ĠBer Ã¼cks
ĠAus flug
Ġbesch rÃ¤n
ĠHoch schulen
Ġ% )
ĠVolks republik
let on
Ġnie mals
ĠTon y
ĠEvent s
D ruck
S en
S imple
ĠA gen
ĠF ron
ĠT hal
ber ichte
Ġdurch ge
ĠAus richtung
ac ional
ym metr
sb es
stra fe
ĠÃľber leben
ĠBundes straÃŁe
sg ruppe
Ġgef eiert
ĠSchul z
ps ych
ĠGu ide
anad ier
tieren den
Parameter ID
ĠDrei ÃŁig
Ġerk ennt
Oper ator
ĠMarc us
Ġqualif iziert
ĠFertig stellung
erkl Ã¤rung
ĠNeck ar
Ġleist ungs
Ġeingest uft
ebau ung
ĠAtel ier
B ern
M ac
R ot
h lich
Ð ³
ein kommen
Ã¼ ÃŁen
Ġs l
ĠB uk
ĠD Ã¼n
ĠU K
Ġp ack
ĠEin tritt
Ã¼hr ungen
ĠChrist opher
row ser
ĠDu o
25 6
ĠBÃ¼ chern
190 8
Ġumfassen den
Ġstattf and
ĠMot oren
Ġzeig ten
Ġgesetz lichen
ĠKaff e
ĠErschein ungs
Ġprev ious
Ġbeauftrag t
Ġanb ieten
L eicht
b rech
p rev
it im
ten ts
ĠL ight
ĠV II
ĠN ie
ĠSch uster
ĠVer stÃ¤r
Ġ18 10
ĠBer eit
ĠIm pul
Ġ0 8
ain s
wohn ungen
ĠÃĦ uÃŁ
ĠPhil h
ĠHistor ic
Ġwest liche
ĠNor bert
ĠKom Ã¶die
So zial
schlÃ¤ gen
ĠYou Tube
drÃ¼ck t
ĠTob ias
ĠkÃ¼nd igte
N ur
P reuÃŁ
W M
d re
f Ã¶rderung
i ja
Ġd auern
ĠB lei
Ġm uÃŁ
ĠK au
ĠP ause
Ġf as
re ader
and ie
ĠVer ordnung
Ġr Ã¤um
ĠAn kunft
get Request
ok raten
Ã¤l le
olle ct
Ġges ammelt
Ã¤m mer
ĠVerb indungs
alse k
ĠInter ruptedException
verb rauch
ĠZusammen schluss
Ġâ ĪĴ
gehen de
ĠOp tim
ĠTal ent
Her r
ĠkÃ¼nstler ische
Ġdauer te
ĠSter nen
Absol ute
ĠSQL Exception
C ollector
G el
P lay
l inger
s Ã¤chsischen
st Ã¼cken
te or
ĠB akter
ĠD ritt
Ġf amil
Ġver t
ran ch
Ġ18 21
ĠMit tag
rÃ¤ um
ĠVor feld
ite es
set Attribute
Ġ7 9
Res olver
ĠBundes land
Ġqu eue
ĠSport ler
Mod us
fÃ¤l ischen
190 3
ĠAnge legenheiten
Med ien
ĠniederlÃ¤nd ische
Rec ei
Men u
Ġdurchschnitt lich
ĠQue en
J B
T M
h aven
Ã¶ ten
ĠR ied
Ġer baute
om os
ĠSt Ã¼tz
Ġsch ema
ok o
ĠAus stellungs
ĠNach frage
ĠVor jahr
vers ation
be cker
sel ect
new Instance
arm onie
ĠGef Ã¤hr
ĠAuÃŁ er
Ber uf
ĠLuft waffe
ĠAnt worten
Ġdien ten
gehen den
Ġverbunden en
ĠVen ez
ĠMarc el
Ed ge
ĠFlen sburg
Ġeingemein det
a dern
k es
ge gangen
ĠA tt
am ann
ĠP ut
re al
re ct
ĠSt ufen
ĠStr Ã¶m
Ġab gelÃ¶st
Ġre port
ĠIm per
ĠSo ft
ĠUnivers al
ĠEx port
ĠRad rennfahrer
Ġinteress ante
Ġevent uell
Juni oren
ausschuss es
ĠDokumentar film
G etter
W appen
h Ã¤ngen
ĠB Ã¤ume
ĠD og
ist isches
wei lig
Ġaus gesetzt
id ar
In halt
ĠString Buffer
Ġ9 2
ĠBau reihe
schau ern
ĠKommun e
laub nis
ĠWes er
ĠTat ort
Ġoper ation
Rem ote
komp lex
ĠLoc al
BevÃ¶lker ung
ĠMÃ¶n chen
Ġcas ino
ĠkÃ¤mpf te
Listen ers
D b
I O
S oll
T rotz
g eist
s uper
Ġin sert
ol as
le ep
ĠR ug
ĠO ran
Ġauf weisen
Ġaus gesprochen
Ġst ein
String Utils
Ġgew orfen
wer fer
ĠKl etter
ĠMen gen
Ġhier zu
ĠZu vor
ĠMÃ¼n zen
ĠCon s
AT OR
Ġor igin
ĠIl linois
arbeit ungs
LE D
ĠSicher ung
print StackTrace
Ġus ing
Ġirgend wie
gefÃ¼ hl
Ġsec ond
Bi ografie
ĠAhm ad
ĠRepar atur
ĠSynag oge
ĠK ass
ĠF lex
Ġf erner
ĠR Ã¤
ir men
ĠBr igade
lei dete
ais e
to Array
bo und
ĠDr amat
ĠEigen tum
ĠFÃ¼hr ungs
CO DE
Ġbrach ten
ĠHigh way
Ġmet adata
Il legal
A f
A ud
T ex
k ischen
w Ã¤nde
Ċ ĊĠĠĠĠĠĠĠĠĠĠĠĠĠĠĠĠĠĠĠĠĠĠĠ
ein d
au ben
et wa
ĠP eer
ĠI gn
Ġal ias
Ġsch lagen
id den
ĠStr ahl
Ġab gew
her it
vers uch
Ġlie gende
ĠGer ade
ĠLe ber
ĠBet roffen
Ã¤nder ung
Ã¼l lt
190 4
Ġlin ke
Ġbesser en
Ph ys
ĠGran de
Ġgesellschaft lichen
Ġreligi Ã¶sen
requ ire
F in
G old
H S
H ead
M C
P ark
sch les
ĠD oc
Ã¶ hne
ĠL Ã©
ĠC irc
ĠAr mut
av ior
aut omaten
schutz gebiet
schein lichkeit
Ġgem essen
Ġhistor iques
Client Execution
Ġdan eben
ĠStad trat
Max im
Ġdat abase
sph ase
Ġangegeben e
ĠSchwar ze
ĠGet rei
Ġmark iert
Gemeinde auflÃ¶sung
ĠGeheim nis
Ġbefore ClientExecution
ĠOberg esch
dater es
F ragment
R C
l on
ur ed
ĠD ame
ĠK essel
ĠH ert
ĠW y
ĠR Ã¤um
sp olit
ĠVer hÃ¤ltnisse
Ġr ichtete
ĠAr te
Ġes sen
Ġre prÃ¤sen
ĠAus rÃ¼stung
inz uf
Ġbes iedelt
Ġgen Ã¼
ĠList en
ĠVol ume
ĠStud iums
Ġ% ,
Ġinternational er
back tracking
ĠKont o
ĠÃ¤hn lichen
ĠEvangel ische
ĠÃĸffentlich es
ĠNationalsozial isten
marsch all
ĠKob lenz
ĠAuftr itte
T RI
sch ema
ĠF ur
ate l
ĠEn zykl
ay r
ĠVor runde
iker in
Pro file
ĠBo hr
ĠBet rag
Ġzusammen ge
con s
Ġerhalten en
Rep rÃ¤sentantenhaus
Assign able
skl asse
ĠInnov ation
Z ug
n ow
r unden
u dent
ĠA quar
Ġ1 14
Ġz us
ĠK lagen
ĠT ib
ĠU t
enn ame
geb ra
pl omat
ĠZeit ungen
Ġher zlich
ĠFilm regisseur
ĠUr kunde
tic al
ĠErn est
ĠTem p
ĠComm ittee
Ġfl Ã¼ch
fÃ¼l lung
krÃ¤ ften
ĠGottes dienst
esh old
Ġumfang reichen
ĠMem or
ĠPed ro
ĠAuseinander setzungen
ĠLetz ter
B ank
b om
m isch
ĠB ian
ĠK h
Ġj unger
ĠFre ie
Ġfest en
com e
Ã¤ss ern
ĠFrÃ¼ chte
ĠTurn iers
ĠLang haus
ĠrÃ¶m ische
ĠPau li
ĠKolon ie
Ġdec ode
Ġthr ough
ĠSkulpt uren
H or
c ent
c ommerce
d ocument
f irma
u de
ĠS einen
sch eibe
ĠD irk
Ġi Phone
ĠG ei
Ġf icken
ĠH unde
ĠT ap
ĠN ev
ab a
Ġp at
ĠIn sekten
ĠÃ¼ber liefert
Ġab out
Ġthe y
Ġth em
ĠLe er
ĠMo tive
ĠDar stellungen
ĠAt l
ĠCl aus
Ġvoll kommen
welt meisterschaften
ĠDem onstr
Ġstar ben
ĠSec ret
VAL ID
sthe ater
ĠWurz el
schi ffen
ĠEinkauf s
Lang uage
STR ING
ĠBrie fe
gewÃ¤ch se
E qu
n ische
p pe
ä º
in voke
sch reiber
Ġs ang
ĠA ven
ĠF Ã¤hr
ĠG uten
Ġf a
ĠN assau
Ġauf geb
eb all
ĠSch ichten
Ġsch auen
Ġsp iegel
Er ste
Ġern euert
kon stru
unn able
kn oten
Ġcomp ute
!! !
Ġsah en
aller ie
ĠKroat ien
ĠTschechos lowakei
1 15
J ECT
W ein
j ar
Ê ¿
ĠS i
ĠD oll
lo ym
18 0
String Builder
Ġ8 6
Ġverb leiben
Mann schaft
co der
ĠMich igan
ĠErz iehung
ĠMont age
ĠBran chen
rev olution
ĠÅ Į
getD efault
ĠNamens geber
Ġbetre ut
ĠSym pt
Ġrechte ck
ĠDiÃ¶z ese
ĠVerbreit ungsgebiet
ĠBerÃ¼cks ichtigung
C ustom
H erkunft
b anken
o use
p Ã¤dagogik
ĠB rian
ĠH amilton
om on
ro g
ad ron
Ġo cc
Ġp rim
ĠAn reg
get X
ov ice
ĠGesch Ã¤fte
Ġviel fach
ide en
ĠLu is
ĠHaupt ort
ĠWeb prÃ¤senz
ĠNieder schlag
Ġkey s
ĠHeil bronn
Ġleben den
ĠInf ektion
Ġkeiner lei
ĠberÃ¼hm ten
Ġenth ielt
ĠHumbold t
E E
ĠD istrict
ĠG lo
ĠH eu
ĠL aur
ĠJ am
ĠC arr
Ġge prÃ¼ft
rie ge
ĠMit begr
pl ung
En glisch
Ġbesch reiben
File Name
ĠRes idenz
tic s
Ġrel ation
ĠKomp lex
ĠTÃ¼r en
ĠVal ley
ĠStern e
Ã¼st ung
Ġitem s
ĠKanz el
ĠPseud onym
ĠEins Ã¤tzen
+ "
B ER
E isen
G rid
H C
V oid
z weig
Ġ eignet
ĠS echs
Ġs amt
ĠA y
ĠR ain
ĠO v
Ġver mitteln
Ġc ause
end em
ang le
Ġ18 38
Ġ18 32
zen ierung
of ern
ĠLand s
ĠReg isse
ĠGeb Ã¤uden
Ġbek annter
Ver breitung
ĠVerb rechen
hand le
Ġjeweil ige
Ġvoll stÃ¤ndige
Ġhistor ique
ĠPal ast
lÃ¤nd isch
ĠDo zent
Aut o
Ġmod ule
Fl uss
CO MP
ĠSalz burger
ĠTro cken
ausen de
ĠkÃ¼nstler ischen
Ġmedizin ischen
Denk mal
F k
Ñ ħ
Ġs enden
ĠT Ã¤nzer
ĠV Ã¶gel
ĠC hal
Ġk r
Ġmit ten
ver anstaltungen
ster s
arb eits
ick te
pro ject
ĠHaupt mann
Ã¶m m
wort h
ĠWissenschaft s
Pl ugin
ĠLog o
Ġzurueck gegeben
Ġamer ikanischer
So ftware
Ġentspr ingt
ĠLux us
Ġkultur ellen
stift ung
ĠBrau t
B ook
L ied
T urnier
p x
p hal
s orge
z ien
st yp
Ġb reiter
ĠG ul
re z
ĠV ize
ir gs
ĠC ock
ĠO hr
Ġr etten
ĠSp er
rÃ¤ uch
Ġzw ang
Ġen ge
ĠEx press
neh mung
Ġmo tiv
ĠTel ek
Welt cup
getS impleName
Ġerk annt
Ġbeein druck
Ġnotwend igen
Ġren omm
Ġentdeck te
ĠKathedr ale
, "
E LE
S al
S dk
h um
l ic
Ġb atch
de v
ĠR ast
ĠL ook
ĠN au
ĠN Ã¶rd
Ġk ap
ĠIn tr
ess ischen
Ġ18 39
Ġvor an
ib m
18 99
ip io
ark tischen
Ġbeg in
ĠBo ard
inder te
ink i
ĠWest er
sol venz
Tra ck
ĠLie ben
ĠRechts wissenschaften
gef unden
Des ign
fÃ¼l l
ĠStu hl
Ġgeh abt
ĠDunk el
ĠTol edo
c ur
v Ã¶gel
w elle
ĠP s
ĠE b
ĠL ip
Ġer zeugen
ir l
Ġg eile
rei hen
Ġo k
ĠIn halts
Ġ18 33
ĠKon stru
ĠGem Ã¼se
Ġle gend
ĠUnter halt
Ġerst mal
Mit glieder
ĠMo h
ĠUr heber
Ġgest altete
ĠEm ail
ĠEd gar
ĠKreis stadt
Ġind ischen
Ġstand ard
Ġbisher ige
ĠÃ¤ gyp
UT E
Ġreich te
ĠKonz ern
ĠBesonder heit
Ġhol en
ĠRelig ions
omet rie
wes ens
Ġbetroffen en
Europameister schaft
ĠAgent ur
f rauen
h ut
u ver
č ĊĠ
Ġ Ù
Ġ ord
Ġd avor
ĠB ock
Ġb ill
de z
ĠW ho
ĠL iss
Ã¼r zen
ing ham
Ġan spruchs
wei len
Ġbe enden
Ġdurch setzen
ĠUm stÃ¤nden
Ġ7 8
ĠSo ul
Ġen orm
ĠJohann a
Ġunterschied licher
Ġelektr ische
Ġkultur elle
Ġverbesser te
ĠFantas y
L it
R T
T el
w Ã¼n
Ġ echte
ĠK ay
ĠL ehn
om s
rei fer
ien e
Ġtr ace
Ġneu tr
Ġpro ps
ator y
ĠPh arm
Or gel
ĠSitz ung
ĠBeh and
ĠPal Ã¤
ĠSchloss es
ĠMil ler
vis it
kan al
ĠCamp us
Ġerschienen en
Byte Array
ĠÃ¼berra schend
ĠVoraus setzung
ĠAbstamm ung
. ;
B ilder
S ong
T x
r inger
Ġb rauch
Ġf Ã¼hlen
ĠT ool
tr act
eu x
scha f
ek tive
ĠAb fahrt
En c
ĠGer d
Ġviel mehr
Ã¤m pft
ĠUr sprÃ¼nglich
ĠMittel feld
kon ferenz
Ġinner e
ĠHistor ischen
Hein rich
ĠFF DC
ĠAlli anz
arme e
f arb
w Ã¤
Ġs Ã¤chsischen
ol stadt
ĠF DP
ĠH inzu
ĠW ies
ĠL ack
Ġc re
Ġsie d
atz e
wer ben
Ġres olve
ond a
Ġgel Ã¶scht
ĠHoch zeits
reib ungen
Ġ[ "
ĠHil de
Kl ein
189 7
ĠAnge hÃ¶rigen
ĠTe en
parse Int
ĠZul assung
Ġol ymp
Ġkost et
O s
b reite
k Ã¼hl
m auern
p ern
ur laub
ĠM am
ĠH ef
ĠH ob
ĠH ost
ber feld
ro d
ĠC ott
ĠVer folgung
ĠAr gument
qu er
Ġvor n
rÃ¤ g
pr esse
ĠRei fen
aw t
ĠSer ge
ĠPer u
ĠSchiff es
Ġstehen de
ĠBeruf ung
Ġfl ach
ĠTri o
ĠCal c
Ste in
ĠErk enntnis
ĠSar ah
Bild ung
C ategory
S ach
S etz
S ql
g han
n utzung
s eits
s ammlung
un ivers
st age
st etten
ur teilung
ĠĠĠĠĠĠĠĠ Ġ
ĠG ros
Ġf ern
ir kt
ĠC av
eh me
rie gen
ĠAr min
iv a
ĠPro tot
ac tive
ĠBau meister
Ġange messen
ĠSh ar
deck er
ĠsÃ¼d liche
ĠPhil adelphia
ĠWebs eiten
Ġschn ellen
wissenschaft lichen
Ġsicher lich
AS K
ĠSchÃ¼ler innen
Ġnorm alerweise
H op
W id
c ies
d io
w ende
ĠK rak
ĠG T
ĠT s
ĠT un
ĠL td
ĠI wan
Ġh y
ĠO skar
ak s
ĠBest immungen
ĠReich sk
ĠNieder lagen
ĠSc reen
ĠÐ ¾
ĠStaats anwalt
Ġmein t
ĠAndre w
Ġvorhanden e
ĠEt appe
Â» ,
Ġverf asst
sa al
ĠSl alom
Co uld
ĠgewÃ¼n schten
JÃ¤hr ige
Ġlehn te
Dam it
ĠBelager ung
ĠBreis gau
alsek retÃ¤r
1 10
? )
D isplay
G leich
L uther
Ġv olle
ĠB ah
ĠD ob
Ġf ik
ti ce
ĠI b
ĠV Ã¶l
ĠJ AXB
ab wehr
ien ne
og o
Ġ18 29
iz a
ĠOr th
amm ad
ĠTh ailand
ĠgroÃŁ em
ign y
Ġger echt
Ein ige
ĠLei der
Ġ180 9
Ġober e
fre unde
Ġfr isch
ĠHart mann
ĠLibr ary
ĠAufsicht s
ĠPek ing
S K
U uid
h Ã¤ngt
r ath
Ï Ģ
Ġd etaill
Ġw andte
ol es
Ġf ran
ĠH app
Ã¶ ster
ĠR Ã¤umen
ĠL esen
ĠN on
ien d
ĠDie go
Ġum liegenden
ak tiven
ction s
ĠJul ian
tif ic
Leben s
ĠKn ow
AR D
AR N
Ġerhalten e
bereich en
ĠRu ine
ĠDe ath
fÃ¼r sten
Ġentstanden en
ĠSek und
Ġsc ope
ĠFluss es
Ġqualif izierten
ĠNa gel
ĠKommand ant
ĠStaatsb Ã¼rger
ĠKonzentr ations
Ġbevorzu gt
> .
G lobal
i Äį
Ġs ure
ĠĠĠĠĠĠĠĠ ĠĠ
ĠG ur
Ġf il
Ġf uture
Ã¶ pfer
ĠVer teilung
ĠDie sen
ungs weise
id ak
Ġvor stellen
enn te
18 90
En vironment
ĠUnter grund
stein er
ĠÂ °
Mar kt
Ġwei ss
check EMail
Ent fern
Format ter
bÃ¼ hne
funktion en
ĠKomb in
Auth or
ĠAx el
Ġnachfol genden
Ġtele fon
Ġprote stan
Lower Case
checkEMail Adresse
d ates
m eier
č ĊĠĠĠĠĠĠĠĠĠ
Ġd ick
ĠS ams
or p
gen s
ĠW eit
ĠL Ã¤ng
um fang
ĠJ Ã¤nner
Ġge teilt
ist ern
Ġl as
ang aben
id t
qu is
ĠAus gleich
ob e
ia e
ard in
ON E
tag es
ĠPlan eten
Ġklass ischer
ĠBrow ser
ĠPil ot
Ġrec ei
ĠAuff assung
ĠInner halb
Change d
Hein z
ĠwÃ¼n schen
ĠAre al
C hef
D och
R K
R ows
U hr
W a
a ktu
o or
Ġm a
ĠF lo
ĠF our
ĠE con
ĠT eich
ann over
Ġzu gewiesen
ĠZ oo
ver teilung
ind lich
ĠEr forschung
id sch
Ġ18 25
ĠAr ena
19 15
ĠNach weis
lei b
Sch lag
ĠUr ban
ĠZwei te
ĠAs yl
Met al
ĠPor zellan
189 2
ĠerhÃ¶ hte
ĠChamp ions
Cl ick
verstÃ¤nd nis
ĠFein d
Ġaustral ischen
Ġdurchschnitt liche
Absol vent
irurg ie
ĠFlag ge
Fk EMail
B ind
D reh
P ublik
sch atz
ĠB reiten
ĠD ag
Ġ1 12
ĠK iss
ĠK unde
ĠK leid
ĠH alt
ĠL an
re port
ĠC ourt
Ġnach weis
ĠStr als
Ġtr ugen
ud a
ian ischer
Ġ9 3
Ar gs
Ġ10 1
Ver band
ĠNational park
ĠFest schrift
Ġbeh erber
ĠGu y
Ser ial
ĠFrankreich s
gericht shof
rist all
ikal ische
Part ei
Valid ation
Ġtats Ã¤ch
db c
Liter al
lac ement
Ġhum an
pap ier
Ġhr sg
Ġvorber eitet
Ot to
ĠSchi ffen
N un
i u
k ompon
in th
un te
ĠS ier
Ġs ee
ĠD ritte
ĠF iction
Ġer lern
ĠC onnection
Ġge gliedert
ik ro
ĠAn sonsten
Ġsch ein
Ġ18 17
ĠPro tagon
ac cept
ĠY ear
ĠCon text
ĠAt tr
key Set
ĠOffiz iere
Ġtradition elle
ĠLiebl ings
B asketball
b rechen
m u
v ik
} ;
Ġ 00
Ġw ind
Ġw Ã¤hlte
Ġv en
Ġ1 16
ĠF avor
ĠP rivate
le k
ĠW DR
ĠZ ar
ĠU SB
ĠSch mal
ĠAn leitung
ĠAn zeigen
lie hen
pro vis
ĠOrt steile
Reg ie
ĠHistor ische
ĠZahl ungs
ĠKurz film
struktur en
ĠSied lungen
Ġinteress ant
ĠSold at
Ġzentr al
bef ehl
ĠUrs achen
auff ol
ĠTrau er
Bad minton
Servlet Request
Ġverurs acht
ĠSaarb rÃ¼cken
( -
1 12
G eh
M aster
V ID
W IT
a sten
g ow
in formationen
an schluss
or ed
et scher
am azon
ĠK Ã¤l
ĠH ers
ĠH Ã¼tte
ĠW Ã¤nde
ĠI dentif
ier tem
ir r
ĠSch Ã¤fer
ahr er
ef el
ob a
our i
ieren der
Ġbes ieg
ĠSpiel ers
Ġins zen
ĠPr inc
AT O
ĠfrÃ¼ he
Ġbeh alten
ĠGen re
aj ew
ĠBas il
ĠSchlag zeuger
Techn ik
Ġforder t
person en
ĠNeum ann
Ġdokumen tiert
ĠTrink wasser
K om
L iga
M at
m ethoden
o j
st al
it us
Ġw Ã¶ch
ĠF rom
Ġf all
ĠV ektor
ck et
ĠC anada
Ġk ul
Ġan im
ĠIn tens
Ġun ivers
ĠSp ektrum
lo ok
ob i
Ġgew innt
Ġ9 1
Ġdar auffol
ĠAt hleten
ĠFlug platz
ĠErz iehungs
ĠGeh Ã¤use
ĠgrÃ¼n en
ĠSchÃ¶n heit
ĠSchwer in
ĠPartner schaft
Ġerl Ã¤u
ĠOk res
sbez irk
ĠEdel stahl
feuer wehr
ĠBedÃ¼rf nisse
P G
S ee
m il
z oll
Ċ ĊĠĠĠĠĠĠĠĠ
ĠS ac
ĠD igitalisat
ĠF Ã¤r
Ã¶ d
il ation
ĠI SO
ab on
Ã¼r den
Ġk roat
ĠZ ech
Ġl et
Ġ18 12
ss itz
gew achsen
mar ine
ĠKunst denkmÃ¤ler
ĠHaupt bahnhof
ĠFr isch
Ġhei ÃŁ
195 1
sl etter
Ġmethod Name
Ġung laub
ĠErd geschoss
189 8
ĠDist rik
Th is
Comp uter
ĠPrem ium
Ġtyp es
Kultur denkmal
Ġco uld
Bet rieb
ĠForder ungen
FuÃŁ noten
ĠEntert ainment
ĠDreiÃŁig jÃ¤hrigen
loym ent
I X
L ayer
e ars
ĠS eh
ĠS ven
Ġs u
Ġs uch
ĠW alk
ĠO ft
Ġt x
Ġt her
get Time
ĠGr en
ip er
oc aust
Ġ0 5
ogra fen
ĠRep rÃ¤sentanten
yl on
ĠKÃ¼nstler in
asch inen
ĠRen Ã©
Arch iv
ĠGÃ¤ sten
ĠUrs ula
ĠSab ine
ĠKart off
ĠRiesen slalom
A g
A BC
L ei
L ive
Z eich
k W
k Ã¼nstler
Ġd st
ie de
Ġm ach
ĠF uture
ĠG umm
ĠH imm
ĠV III
ĠC lemens
ul ierung
19 17
auf ent
ĠVor haben
ens ystem
Ġverl ieren
Mod ified
opp ing
steh er
ĠSteuer ung
ĠHy per
Ġanges iedelt
jew itsch
Ġfot ograf
ĠJubil Ã¤um
ĠBerech nung
o iden
v oller
Ġ ew
ĠB uild
ĠF ind
ĠT T
ĠR ut
Ġsch lossen
ĠAuf wand
fl anzen
ĠPl Ã¤tzen
sk e
fer tigung
ĠSpiel zeiten
âĢĻ .
leg ungen
ĠFest ivals
Ġfrei er
ĠNo Such
ĠhÃ¶ch st
Ġeurop Ã¤
ĠBal kon
emb ran
ĠermÃ¶glich te
Ko ordinate
minist rat
F u
F loat
P ubl
Q UE
b ury
g riff
k tive
â ĪĴ
un z
ĠS eil
ĠS af
ĠB ey
le ted
ĠH C
ĠW ith
ĠT U
ĠT elt
Ġge lo
Ġ18 19
Ġ18 24
sk Ã½
wa it
Al ben
ymb ole
mark e
irt y
Block ing
ĠGerman y
Ġerheb t
ĠBundest ag
ĠErwachsen e
ĠStatt dessen
ĠFell ow
ĠKoordin aten
ĠKÃ¤r nten
Setz liste
P ierre
b evÃ¶lker
c ell
f onie
h ab
u alitÃ¤t
æ ĸ
ĠB our
ĠM Ã¼
ĠF itness
ĠP le
Ġf liegen
ĠT ai
ĠJ ugoslaw
rei z
Ġbe deckt
ĠSp err
Ġneu esten
Ġe ver
ĠReg istr
enz el
ĠHand eln
ĠAk k
ĠAk ten
ĠGegen stand
Event s
ĠQualif ikations
ĠSchles ien
ĠCast le
Verkehr s
Ġmedizin ische
Ġunterb rochen
ĠInterpret ation
grenz ung
ĠErober ung
ĠAbhÃ¤ng igkeit
A ir
E O
F INE
H O
m otoren
å ¤
Ã¼ bt
ĠA rea
ĠB eu
ĠF ont
is emit
ĠH old
ĠW ink
ĠI rak
ĠC ipher
ĠU hren
ĠSch uh
ver d
Ġc irca
och em
end ung
ep pen
ĠBr eit
Ġviel es
icher heits
recht lichen
ĠRitter gut
Ġhol z
Ac tive
ĠInstr umente
Ġverp asste
ĠBundest ags
ibil itÃ¤t
ĠlÃ¤ng st
ĠFlÃ¼cht linge
******** ********
ĠKÃ¶n ige
ĠLegen de
F K
a a
g io
k inder
k loster
s n
Ġs ite
ĠF lieger
ĠG ent
ap pt
ap ply
Ġ18 31
az ier
mit te
ĠEnt deckung
ĠMÃ¼n z
Ġ' \
emen tierung
ele ted
Ġtyp ische
ĠBu en
ĠFrances co
feren ces
F ailure
N ein
g Ã¤u
p oten
sch lies
ĠM eilen
ĠV eget
ir bt
Ġk Ã¤mpfen
ĠSch uppen
ĠAn st
Ġsch lafzimmer
Ġ18 27
Ġ18 34
ĠAl ice
che f
ĠCh i
18 89
Exception Constants
Ġzw anzig
Ã¶ff entlichen
ĠUm frage
Ġgesch Ã¤tzt
ĠZu schauern
rech ten
reg on
Ġgef ragt
use el
ĠRegel ung
ĠAust ria
Ġpass word
meld et
match es
Ã´ ne
Ġaustral ischer
Ġendg Ã¼l
Jose ph
ĠWalt her
ĠRac ing
ĠEinzugs gebiet
ĠBeeth oven
W ieder
w achsen
Ġd einer
Ã¼ che
Ġm etr
Ġn odes
ĠR aketen
tr echt
ĠSch af
Ġp ur
iz it
enn ungs
Ġre d
18 83
res et
fÃ¼hr ende
teil ungs
ĠPf eil
ĠFamil y
ĠĊĊ ĠĊĠĊ
ĠSÃ¼d seite
ĠSÃ¼d amerika
schn eiden
ĠDar in
kon zept
ĠRÃ¼ck seite
ho use
ĠWill en
geord nete
leben s
tieren de
ĠDen ken
ontin ental
Med iziner
Ġhab ilit
ĠEuropameister schaften
Ġlauf enden
ĠQuadrat k
C lau
M AP
c ommand
n umber
p assen
in sp
ĠM ind
ĠK enntnisse
ten ded
Ġf ahr
Ġer setzen
ĠV olleyball
ist o
ĠStr ess
arb on
ĠAb bau
Ġnoch mal
aut omat
eig ern
tik um
ĠDurch bruch
ĠWer ks
ĠHier zu
ĠRechts an
cl us
Ġerfolgreich sten
ĠBek ann
ĠPil oten
Ġtem por
aust ausch
Ġchines ische
Ġplan en
ĠSpann ung
Ġvis it
ĠErm land
Ã¢te au
C S
G ateway
H P
I r
L es
k andid
Ġ art
ein g
ĠB ak
ĠM ust
Ġf ail
ĠV ision
Ġden ke
ra pp
Ġver ring
ahr ung
os is
op fer
og ne
eut zut
âĢľ :
ek e
ont act
lieÃŁ t
Ġsel ect
Geb iet
ĠEl be
Ch arl
Ġverl auf
ĠHoch wasser
lauf bahn
ĠWer be
FuÃŁball trainer
ĠDis c
ĠDreh arbeiten
Per iod
Ġbegr Ã¼ndet
Ġlo op
Ġprak tische
dor ff
ĠPubl ishing
ĠBegr Ã¼ndung
Kan al
ĠGatt ungen
ĠfÃ¼hl t
ĠglÃ¼ck lich
resp ond
ĠUd SSR
eutzut age
D isc
F T
I B
M y
c am
k ong
Ñ Ĩ
ĠA sh
ĠK evin
ĠP aket
Ġau st
ĠW oll
ĠT ast
Ã¶ hm
Ġt wo
Ġun regel
Ġdeutsch es
ian ce
ĠUm zug
Ġbet ont
ĠSte el
bo urne
ĠBez eichnungen
con sin
Data Type
40 6
ĠÐ ´
Ġem p
190 6
Sc ale
rÃ¤n kungen
Ġung arischen
Ġtechn isch
ĠlÃ¤nger en
Ġwor auf
Ġleich ten
Ġsk ip
ĠBeweg ungen
ĠInternets eite
ĠprÃ¼ fen
ĠAbra ham
H as
N et
P OS
j u
p reise
p lain
al ische
ĠS id
ĠS ix
ĠS tif
au scht
ĠĠĠĠĠĠĠĠ ĠĠĠĠ
Ġm ol
ĠP ad
ĠI X
Ġan zeigen
ĠZ Ã¡
Ġdem nach
im i
ess a
ĠEin stellungen
Ġ" \
ep s
Ġex klus
ĠGemein schafts
Ġbet reiben
ĠVers orgungs
ĠhÃ¤ufig sten
ĠViel leicht
ĠSamm lungen
Ġchild ren
Rem ove
Ġstation iert
Relig ion
J vm
k lag
k arriere
n ing
Ï Į
sch Ã¼ler
Ġw eiten
Ġw enden
ĠB ap
ĠK reise
de uten
ĠF Ã¶der
ĠL ade
ĠC anad
rei en
ĠIn solvenz
ot es
ĠAn liegen
Ġent sprach
St Ã¤d
tem pel
Ġbeg leitete
iss a
ĠSchw ert
mar ken
ĠStud ios
ĠAp i
Ber eich
ĠrÃ¶m ischer
Ġkanad ische
ĠWettbewerb s
stÃ¤d ter
ĠTw itter
zule gen
ĠMitbegr Ã¼nder
amazon aws
R M
S uccess
h eight
v ari
Ġv ariable
ĠD atein
ĠM igration
ĠT um
ĠR in
ĠL ehen
tr ansp
ĠSch ult
get Max
la ster
ord nungen
rom an
Or ts
new Line
Ġgef Ã¤llt
ĠInd ones
ĠMag net
ĠWeiter bildung
ĠHeil ige
ĠKat astrop
ĠPark platz
ĠZur Ã¼ck
sie ht
Ġverlie h
mel den
vis or
Ġbegr Ã¼ndete
imen sion
alys is
Ġlei stete
MÃ¼n chen
PROPER TY
6 00
A K
A ktiv
g h
g ei
m all
Ġd ruck
st isch
ĠB alk
ĠE id
re de
Ġsp eichern
ĠCh ief
utz er
ĠBo ots
kon struktion
Ġro b
(( (
Gr Ã¼n
ĠVerl etzungen
Ġwes entliche
ĠVerkauf s
Lin ks
Ġdauer haft
Ġsamm elte
mag azin
ĠTerr asse
ĠProj ekten
Ġbefind lichen
Dest ination
Ġoffens ichtlich
Ġrestaur iert
Ġberu ht
D etail
c onn
c ole
sch mer
Ġw eich
ĠE sch
ĠT oken
ĠR y
ĠN as
ĠC oc
Ġk unst
Ġan treten
eb t
ri fft
get Node
ĠSp alten
Ġ18 28
19 16
ult ure
Ġ0 2
ĠFl y
Sch Ã¶n
ĠSchw anger
ktion en
such e
Ġeinz iges
Ġbel egen
Ġqu alit
ĠInform atik
ĠVolks schule
Ġkein es
anc ed
Ġbed ingt
do or
Ġelektr ischen
ĠJe de
Part ition
ĠNachbar n
ĠSow ohl
ĠDisk uss
ĠNorm andie
ĠImm un
Ġverbr ingen
ĠSor timent
Ġnied rig
Ġter m
LOG GER
Ġchem ische
ĠVerdienst ordens
ĠMd L
Ġcle ar
Ġangrenzen den
7 00
> -
A A
B oden
ĠS ich
Ġs erb
el ektr
ĠD ynastie
ĠL Ã¶s
Ġk op
ad Ã©
Ġt ollen
ĠIn put
Ġbe zahlen
ĠCh at
Ã¤l en
ĠĠĠĠĠĠĠĠĠĠĠĠĠĠĠĠ ĠĠĠĠĠĠĠĠĠĠĠĠĠĠĠĠ
Ã¤u ber
Ã¤nder ungen
ĠMan che
gra ph
Ġempf ohlen
189 3
ĠEhr enz
loc ation
wal ts
ĠRal f
Leicht athlet
D abei
E W
L eist
N av
S Ã¶hne
T ax
h essen
st ationen
ĠS lowen
sch ub
ur b
ĠB innen
il o
ĠJ ew
ĠC ord
ĠC ON
ri um
ĠAn ordnung
her z
ĠFl ur
ĠGe orges
ĠBest immung
Aus gabe
zei tige
hol ungs
ĠProf i
Ġzahl reicher
Ġabsol ute
ĠKre bs
rel ation
ĠNÃ¼rn berger
ĠKrank heiten
Ġwunder schÃ¶n
VER SION
ĠOrgan ist
ĠkÃ¶nig lichen
ĠStan ley
ĠErf inder
Ġprofit ieren
Ġschwei zer
ĠBÃ¼nd nis
ĠLoth ar
bevÃ¶lker ung
D evice
F er
F ER
R ight
k eln
m ail
p es
y ter
Ã ®
on er
ar z
ĠA B
ĠB ul
ĠD ifferenz
ĠF ri
ĠP rÃ¤sidentschaft
and ro
ĠC A
ist urnier
ah ler
eg a
ew ork
ĠEin trÃ¤ge
Ġa f
ĠEn try
ian ische
ĠPl atte
ock er
Ġbes etzten
amen ten
Sch edule
iss ionen
ĠSte ck
amp a
ĠGra phen
ĠFahr zeugen
ĠFre quenz
ĠGl Ã¤ub
Mar ia
Man aged
ĠTurn er
ĠRuss ischen
ĠGesetz e
orth odox
ĠHÃ¶r spiel
Ġprak tiz
onom ie
ĠHoll and
Ġzeich nete
ĠBasketball spieler
ĠSteu ern
ĠHÃ¤ft linge
B esonder
D rei
H ex
R ich
T itle
f inanz
g riech
p us
p red
en ix
ĠS ain
hr ingen
Ġm iss
Ġm eta
ĠH Ã¼tten
ĠW eid
ĠR i
ĠR Ã¼
Ġer led
ĠV as
Ġ2 20
ĠN ak
ĠJ ochen
Ġge fahren
ĠZ ag
ĠVer schw
ĠVer mittlung
Ġber ichten
lei h
lei den
bach s
ĠLin ux
Ser ializer
ĠGlock e
ĠHarr is
Ġfas zin
C an
H Ã¶
V arian
n on
w Ã¤hlen
å ®
ar is
et tel
ĠM obile
ĠG y
ĠG Ã¼
ĠW ord
ĠL aser
ĠJ g
ĠU E
ĠSch ein
ĠAn schlag
St unden
Ã¤nd ischen
Ġ16 00
ĠGes and
Al low
ĠBl um
ĠÃľber tragung
ĠGer tr
Ġselbst verstÃ¤ndlich
stÃ¤nd iger
Ġho hem
ĠLebens jahr
Ġte uer
ĠDre ieck
Ã¨ ne
sprech ung
Ġscha fft
Ġgl Ã¤n
Ġqualif izieren
wal de
Ġneg ativ
ĠKandid at
ĠHow ard
ĠDiv is
Ġhor izont
ĠHels inki
P ublic
b ilden
l is
l ia
m eyer
p ause
á º
å Ĳ
un fall
ge laden
ur st
Ã¤ ge
ĠB urn
ĠD igitalis
Ġm u
Ġm ut
ĠP ick
Ġmit hilfe
Ġl ib
eb r
ĠSt Ã¼rmer
iz abeth
ech tigkeit
Ġvor s
zen sion
ill i
fl Ã¼ge
An ti
kl ang
ĠÃĸ konom
Sp iele
ĠMenschen rechte
ĠHÃ¶ hlen
Ã¤h ern
Ġgem isch
ĠMc L
test et
ĠGot ha
getD ec
Ġerf uhr
Ðº Ð°
stÃ¤d te
ĠBade zimmer
Ġverab schied
B R
P UT
h all
s ame
Ġ Âł
Ġs uchte
as et
ĠD y
ĠM uh
Ġz ivil
ĠF oss
ĠH eld
ĠL ohn
Ã¼r me
Ġc p
up dateres
ĠAm tes
Ġ9 7
pro vinz
stan zen
ĠTh ese
iet z
ĠNord ost
ĠUr kunden
Ġbesonder es
ĠBew usstsein
Ġgemein nÃ¼tz
Ġâ Ī
ĠSti ck
mod elle
ÑĤ Ðµ
Ġcm d
Her ausgeber
189 1
189 6
ĠBall ett
Ġschl Ã¤gt
ogn ition
ĠgefÃ¤hr det
Ġmel den
Ġopti male
ĠMagd alen
H tml
I Z
b og
m obil
r eten
s ingle
Ġ \"
ĠS und
is Assignable
ĠH ung
ĠW eich
tr es
ra c
ĠfÃ¼r s
os c
18 95
ober haupt
out ube
ĠMittel n
Ã¤ft s
dienst es
Ġ180 4
Ġleben s
Up per
ĠHeraus forderungen
Mon th
__ __
ĠMainz er
ĠPaar e
ĠgÃ¼nst igen
ĠKons ul
ĠMei ÃŁen
1 16
L L
f ell
s icherheit
ge halt
at form
Ġs olle
ĠA gn
ĠB BC
et tern
Ġin formation
ĠK ad
ĠT R
ro de
ent z
Ġver mein
rit able
ahn e
Ġpro gress
Sch rift
gl adbach
ĠGe denkt
Ġar men
Ġur auf
ĠMark graf
ĠBru ce
Ġhal ben
Sport veranstaltung
ĠdÃ¤n ischer
ĠergÃ¤n zen
ĠBrau erei
Ġangen ehm
âĢ¢ âĢ¢
B urg
c d
ie ber
ĠS ultan
ge stell
Ġw on
Ġs yn
ĠA mal
ĠF lieÃŁ
ĠE cht
ĠVer anstalter
iz itÃ¤t
Ġunter e
ĠNach mittag
ym ph
teil ten
ong o
Or dens
ĠFrank lin
ĠFrei stil
Ġqu e
ĠSan ti
ĠTor ped
sl eiter
ĠnÃ¶rd liche
ĠOs lo
System atik
Ġad ap
ĠUntersuch ungs
Ġsinn voll
genossen schaft
Russ land
ĠArzn eim
ĠBerat ungs
Ġdarauffol genden
T al
W ahl
c atch
d an
it Ã¤n
ĠD C
ĠD avon
ĠJ h
ul us
Ġauf zunehmen
Ġver stÃ¤nd
ĠSch ieds
ver hÃ¤ltnisse
ĠIn fo
Ġwar m
ĠEin stieg
Ġsp lit
ill ons
av ed
eten zen
gl Ã¼ck
riv e
Ġausge geben
ĠRe alitÃ¤t
ĠSe a
ĠBeg leitung
Ġverw altet
Sc ore
ĠTel ev
ĠAnge hÃ¶rige
Sub scription
ĠjÃ¤hr liche
ĠInner e
Serv ices
Ġausger Ã¼stet
Ġspec ified
ĠTaschen buch
Ern st
ĠShakespe are
C ast
E SCO
a er
b eln
u ti
Å ¯
Ġ ^
Ġd ay
ĠB arth
ĠK Ã¼nd
ĠG itter
ĠH ohl
ĠL j
ĠL is
ĠL etter
ach ment
ĠO den
ic er
he w
Ġr eine
ĠAus lands
ĠGr Ã¶n
18 80
ilder t
bild ner
ĠÐ º
reck en
Ġstud ieren
ĠWinter spielen
Ġangeb aut
ĠPlan ungs
ĠInnen raum
ĠGar antie
ĠFrie der
Med aille
Pr int
lÃ¤ufer in
ĠKlass iker
ĠBist ums
Ġschlech ten
SH A
Ġbelg ischen
riz ona
ĠJahrhund erte
ĠInternalX base
B ass
g ru
r one
z ieh
ĠG is
Ġg laub
ĠIn itial
ap ur
Ġvor gegeben
ov Ã¡
ĠVor gaben
ev al
stan de
ĠGeb irge
Ġgesch m
ĠEurop ar
ĠDar unter
ĠGen ehmigung
ĠFolge zeit
SE CON
ĠPass au
Ġsc ale
sei tigen
ĠKÃ¶nigreich s
ĠExper iment
Ġunmittelbar er
ĠmÃ¤nn liche
ĠByte Array
ĠSus anne
ĠEmp ire
Ġseiten s
/ {
m ode
Ã ²
Ñ ĸ
Ġd one
ĠS ockel
el in
Ġein iges
ĠK ran
ĠK Ã¤mpfe
ol ved
ĠF lie
ĠR TL
Ġge be
ul arb
ad ow
la k
mer s
lie f
Ġab gebaut
Ġ- =
Ã© es
Ġ9 4
ĠJo han
to LowerCase
Ġher an
ĠHaus halte
ĠTr in
ĠMo or
ces sed
ĠGen au
ĠPaul us
Ġra w
Ġgener ell
Ġvergleich sweise
Stud ien
Arb eits
ĠObergesch oss
L im
P ane
t age
w ise
ĠS ag
le p
ĠR aub
il ang
re as
Ġt ab
ĠU eber
ĠSt ore
Ġbe ur
Ġa ccount
ep t
be arbeitung
to ine
ĠZu hause
ĠfÃ¼hr ende
Aus bildung
RE AD
Ġbew ertet
ĠProf ession
list ener
go ogle
ĠAf rik
ĠStraf recht
vo gel
ĠMand at
PAR AM
ĠgewÃ¤hr leistet
Cap acity
Ġregul Ã¤ren
C annot
D ynastie
d ro
sch Ã¼tze
Ġs equence
ĠA ri
ĠB olog
ĠB arr
ĠB ond
ĠB ilden
ĠD anzig
Ġein gew
ĠF reis
is pr
ĠW ars
ĠT ru
ĠV all
ĠC her
Ġver folg
ĠSch ienen
Ġvor erst
if izierung
ĠVor trÃ¤ge
ĠVor schriften
Ġ17 0
Ġges endet
ĠTeil nehmern
Ġres erv
ĠBe weis
ĠSe el
ĠZusammen setzung
ĠNatur park
ĠPat rim
Man agement
ĠPop ular
ĠHeraus forderung
Ġbegr aben
ĠMittelalter s
ĠSn ow
Ġattr aktiv
klass igen
Stat istik
ĠZy linder
Ġreag iert
ĠBem erk
seg ment
ĠErkrank ung
ĠBundesverdienstkreuz es
depen dent
Agg reg
Sdk Internal
N och
i ation
an as
on de
ĠS ucht
ĠS eiden
ĠD eut
he orie
ap o
aus wahl
18 85
th iop
ĠVor arl
ĠKl einen
An t
stÃ¤nd igkeit
heim ischen
ĠEd mund
>> >
aur er
wissenschaft liche
Ðµ Ð½
Sh op
ĠAir port
aun us
Th omas
prÃ¼ fen
krÃ¤ f
ĠKa sten
ĠGolden e
grÃ¶ÃŁ te
ĠGru yter
ĠKaisers lautern
ĠBiograph isches
ĠVinc ent
! )
F ollow
I ST
Z ahl
m aus
Î ¯
sch reiten
Ġs ank
Ġin ternal
ĠK anten
ĠR um
ĠR ange
ĠL ith
ĠNach hal
Ġbest Ã¤tigte
ĠBr y
Ġbef asst
Er z
ĠNational versammlung
AL OG
ĠOst see
Ġinter nen
Ber echnet
ĠHin sicht
ĠAir es
Ġabsolv iert
ĠBegriff e
ĠDÃ¼sseld orfer
vertr etung
ĠZeich ner
ĠThÃ¼r inger
ĠLi bert
edig lich
ĠClau de
Meister schaft
ĠKreu zer
isAssignable From
SdkInternal List
N or
W ald
h Ã¤n
l uther
v ens
x ff
es is
ĠM ost
Ġh ead
ĠEr ror
ungs zeit
fl ush
for um
ĠRe eder
Ġgef Ã¤rbt
ĠStuttg arter
ĠSen ior
bÃ¼ chern
ĠLog istik
ĠhÃ¶r t
ĠHab ilit
ĠSchr Ã¶der
ĠPerspek tive
ĠkÃ¼nf tig
B itte
D D
Z en
c us
Ġ ten
an os
Ġs ave
Ġs uccess
ĠM ake
ĠH end
ĠR eim
re geln
ĠJ ungs
ig o
Ġver Ã¶ffentlichen
he ft
ĠAn nahme
get Parameter
ib Package
pl ibPackage
ard t
mit ten
sb l
ĠAd v
ograf ien
ius eppe
ĠKn ie
ĠKap azitÃ¤t
ĠPat tern
ĠBur k
Start seite
Ġverz wei
Ġselten er
Ġcom pare
ĠHess ischen
Ġmath emat
Ġgere gelt
F ix
H of
r und
å ħ
ĠD j
ĠP all
ĠH uss
ĠR ande
Ġer lebt
and ra
ĠO swald
ĠZ ier
ĠZ wick
ĠSch e
Ġp ossible
op hen
get Next
Ġvor geschlagen
ov o
18 88
sh o
ĠBau werke
rach ten
ĠGer ichte
fÃ¼ gt
ĠEl ite
Ġverl iert
Ġeinz iger
ĠLandes regierung
ĠVers ammlung
ĠGegen stÃ¤nde
čĊĉĉ čĊĉ
ipp ing
IC E
ĠgrÃ¼n den
ĠÃ¼b te
ĠEing angs
ĠVerl etzung
ĠRein igung
mon at
ĠSem ester
BC I
Ġgeschlossen en
ĠEvangel isch
Ġbein ahe
Ðº Ð¸
ĠVerteid iger
Ġfra gen
Ġprofession elle
ĠLandtags wahl
Ġgesund heit
ĠWÃ¶rter buch
ĠJÃ¼n ger
ĠAustral ian
Verwalt ungs
B randenburg
H it
I R
N amen
es ie
ĠD evelopment
ĠK ante
ĠL isa
re q
Ġauf bew
Ġwir st
Pro ps
sel f
ĠGrund stein
ĠSe ef
ĠMed aillen
Ġerfolg los
ĠReich weite
ĠCo us
ĠDan ce
Ã¶rder te
ĠFer tigung
Ð¾ ÑĢ
ĠPlan et
Ġgelang t
aile y
ĠGall ery
ĠLy rik
Ġschot tischer
ĠGewerk schaft
Av ailable
F G
er ial
st itel
sch alten
sch eiben
ĠB ann
ĠD ing
ĠD eh
ĠM S
ĠK rau
ĠW affe
ĠL ub
ĠC os
Ġl Ã¤dt
ĠSch rau
ĠVer pack
ang a
id i
gr ammen
rÃ¤ fte
reich t
Ġ0 6
ĠKon sequ
Pro vinz
Ġges perrt
ĠQu art
ĠQu artet
ĠRÃ¼ck zug
Ġerw achsen
Ġrech ter
ĠAnt eile
Ġversuch ten
produ kt
ĠSin fonie
ĠWol ken
ĠVolk es
ĠRem ix
ĠBud get
Ġgegeben e
ĠKenn zeichen
ĠGesprÃ¤ che
ĠdÃ¤n ische
ĠjÃ¼nger e
ĠClau dia
ĠWik ipedia
Ġil leg
ĠTeu fel
schaff ung
ĠCaf Ã©
Ġkonzip iert
T e
h ielt
st imm
sch ers
Ġs ince
ĠD ahl
Ġ1 18
am as
le ck
ĠT ee
Ġre q
ĠHau st
Ġen coding
ĠKunst geschichte
ĊĠĠĠĠĠĠĠĠĠĠĠĠĠĠĠĠĠĠĠĠĠĠĠĠ ĠĠĠĠ
row s
fra gt
ĠMod ule
Ġkurz zeitig
ĠAp pl
ĠLauf zeit
Ġlin ker
ĠÃ¼b licherweise
ĠOper a
ĠSchÃ¶n e
CE SS
ĠBrand o
189 4
Ġ179 8
Ġprak tischen
word s
ĠSec ond
ĠGir ls
Ġeingesch rÃ¤nkt
ĠZeu gen
array copy
ĠMÃ¶n ch
ĠFÃ¤h igkeit
Ġnorweg ischen
Bew egung
ĠSozi ologie
ĠHosp ital
ĠBulgar ien
ĠgenÃ¼ gend
M Ã¤nner
S epar
f ehler
w iesen
Î ¼
Ġ reisen
Ġ echten
al p
Ã¤ be
Ġb o
Ġm ache
Ġan gesch
ul ieren
Ġl ohnt
ĠEr ben
get Local
rÃ¤ u
ĠAuf stellung
18 82
tem pt
Ġres et
Ġgesch ah
Ġteil t
Ġdort hin
ĠMo on
ĠLandes amt
pp s
ĠHol ocaust
Ġschw ach
ĠTechn ische
ĠMannschaft s
ĠEigen schaft
fel den
spro blem
alle e
rec onditions
ĠLou ise
Ġstammen de
ĠDor othe
ĊĠĠĠĠĠĠĠĠĠĠĠĠĠĠĠĠĠĠĠĠĠĠĠĠĠĠĠĠĠĠĠĠĠĠĠĠĠĠĠĠ ĠĠĠ
ĠFle cken
ĠJed es
Ġjahr el
ĠProfess ur
feature ID
ĠSÃ¤u ge
N UM
S tel
T ick
f z
m ak
s ent
} .<
ei ste
sch ungen
ar ing
Ġs onn
ĠB attle
ĠT hrowable
den berg
ro duktion
ent ums
Ġan stelle
ĠZ irk
ot yp
Ġr ole
im pl
Ġbe zeichnen
ĠSp eyer
ĠStr ei
ĠKon sum
Ġwieder her
Ġbef reit
ĠgroÃŁ zÃ¼g
ander s
Ã¤nder ten
Ã¶ch er
druck s
ME SS
US A
ĠNeben fluss
herr n
getC urrent
ĠGesamt wertung
ĠWel che
Ġap i
ĠAustr alia
Ġnotwend ige
Ġwor aufhin
ĠAuff Ã¼hrung
ĠÃ¶ fter
tau send
LI ST
ĠPok er
ĠStell vertreter
ĠErkrank ungen
ĠEngine ering
T re
W F
f la
p refix
r h
t zen
ä »
Ġ eig
ĠS lowakei
ĠB reak
Ġdie jenigen
ĠK it
ĠF utter
ĠP rÃ¤sentation
ĠL ov
Ġer werben
ĠN ATO
Ġg lobal
ĠIn vas
Ġst irbt
Ġr ender
ĠEin nahmen
Ġ18 22
gr en
ĠNach ruf
ĠVor sprung
ev oll
ĠFl Ã¼sse
fl eisch
ian i
ikan ten
add ress
Ġange kommen
[] {
schn ell
EN ER
Ein en
echs lungs
ĠBay reuth
ĠGen ossen
ĠGu ard
ĠGeorg ia
herap eu
pol izei
Ġkathol ischer
Ġap plication
ĠAbgeord nete
ĠÃ¶ konom
Ġbeeinfl ussen
ĠKÃ¶r pers
ĠjÃ¼ng ste
ĠRav ens
ĠJord an
PAT H
ĠGord on
C AC
S or
r v
in sert
st ich
it r
Ġs enk
Ġs obald
ĠD opp
ĠK ick
ĠSch ritte
wei tern
ĠÃ¼ber region
ru h
ĠVor bereit
ĠIm mutable
ĠStadt bezirk
ĠWir bel
ĠMitglied schaft
ĠEd itor
anc y
Ġschwer er
ĠHe art
Land tags
ĠBot aniker
ĠZuge hÃ¶rigkeit
ĠbeschÃ¤f tigen
ĊĠĠĠĠĠĠĠĠĠĠĠĠ ĉ
Ġexten sion
Ġerl itt
ĠLeon hard
Ġmensch liche
Christ ian
Bag Constraints
B ur
P rÃ¤
Y ear
st uf
ĠS yl
ĠD sch
ĠF ame
ĠL Ã¤ufer
ĠJ imm
Ġk ub
ing hausen
Ġan wes
Ġzu geschrieben
Ġc ustom
Ġbe zahlt
ug ins
Ġ3 60
pl ates
ition al
Ã¤ch ern
ett y
sb rauch
bst off
Ġbet rifft
ĠSchw ed
fach e
ĠEurop ap
ief ern
ĠAt tent
verb ot
ĠOn t
Ãĸ ff
ĠKompon ente
ĠMaler in
ĠBur schen
ĠAch ter
ĠBill y
sprÃ¼ fung
ĠEngl ish
ĠÃ¼brigen s
ĠWirk lichkeit
cul ate
ĠMars eille
ĠGÃ¶t ter
ĠLÃ¼n eburg
Austr alien
ĠWlad imir
Ġbeherber gt
B L
D ER
I con
P N
R untimeException
v gl
x i
Ã¤ uren
ĠM Ã¤
Ġau to
ĠT H
Ġg lauben
ger echnet
get In
Ġj etz
ĠUn i
up s
ez eit
ss ue
18 71
br em
Ġle ere
werk statt
ĠFor est
stein s
ĠKunst historiker
ĠSk el
Ġkon kr
ĠsÃ¼d korean
ĠBew ertungen
utt a
Content Type
Ġnorm ale
Ġverz ichten
ĠStandard s
ĠKontr oll
Ġverd ient
ĠKult us
ĠAusgang spunkt
ĠBegeg nungen
lok omo
ĠGon z
ĠKav allerie
ĠErzbist um
E ben
M issing
P reistrÃ¤ger
R obert
l ernen
Ø ±
Ġ che
st ufen
ĠD au
ter ung
Ġf ur
tr itts
ĠI sol
ent urm
Ġge testet
Ġan halten
Ġzu stÃ¤ndigen
ad ier
Ġc ms
iz za
ĠStr eicher
Ġab stra
par ser
tem por
ĠMus kel
Al b
ĠBl as
ĠgehÃ¶r enden
ĠSchw ieger
stru ct
ĠDu ke
ox id
ĠChar lie
verband s
ĠSen ats
ĠRuss ell
Pl us
Ġwes entlichen
Ð¾Ð »
Pr ice
grÃ¼n de
Ġdest o
Mill ionen
ced ure
Ġdre hte
Ġhil f
schrau ber
Declar ation
R Ã¼ck
b ing
f ull
n ÃŃ
s ide
ĠS uhr
Ġi ran
ĠE k
ĠL agen
ist oire
ell ow
ĠAn wender
op ol
aus stellungen
fl Ã¼ss
Con structor
Pro blem
set s
Ġen gen
... ]
Ġverschieden sten
Ã¶st licher
ĠDis play
Ġexist ierte
âĢĿ ,
ĠPublik ation
Ġerz Ã¤hlen
Ġorien tiert
ĠAster oid
ENG TH
? âĢľ
V B
h end
Ġd oppelt
sch lei
ar est
ĠM ahl
ĠG ib
ĠV amp
ĠV ariable
Ġge he
sen kirchen
ĠSt anis
Ġ} ,
Ġun be
Ġab schloss
Ġtr ag
tig ungen
ĠGr as
ĠGr em
18 86
sb uch
Ġbek leidete
Ch em
ĠRei s
ĠMed ium
ĠLandes liga
ho tel
čĊ čĊĠĠĠĠĠĠĠĠĠĠĠ
ĠBeh Ã¶rde
med ien
ĠAnt arc
All gemein
ĠGed Ã¤chtnis
ĠJournal istin
ĠTran sp
rec ord
grÃ¼n der
ĠKirch spiel
Ins gesamt
krit ik
ĠAnth ony
Ġkom fort
ĠPetr us
ĠErwart ungen
ĠEncyclop edia
G ruppen
O FF
T okens
d ies
ĠA V
ĠB rad
Ġb ilder
ĠF K
ĠG Ã¤rten
ĠP M
ĠT Ã¤
Ġer setzte
Ġh armon
ro ad
Ġunter ird
Ġunter richtet
Ġent tÃ¤u
ac iÃ³n
anz eige
eter min
Ġget an
ĠPar ti
spr ingen
ĠGroÃŁ vater
Ġmus st
ST ART
ĠKr ise
Ġabge halten
Ġwill kommen
Ġhinter lassen
Ġ180 2
has Access
ĠHei rat
Ġeinzel ner
Amer ican
Ġap ply
stud io
ĠPlay er
ĠKre ativ
ĠUN ESCO
ĠExper imen
steuer ung
Ġstren g
Vari ables
Ġhoff e
ArchÃ¤ ologischer
ĠLiss abon
. âĢĵ
j ap
l io
o ir
en ken
ge stellte
em i
ĠP un
Ġf und
Ã¶ konom
ĠV og
ĠC ant
ĠSt urz
ed uler
ĠAn notation
Ġsch icken
la de
ĠSte iner
Ġverm ehrt
IT E
Ġhinter en
ĠSen ator
SC H
ĠKom fort
Ġdefault Value
Tem p
Ġposit iven
ĠTir oler
Ġzeich nen
ĠgewÃ¤hr leisten
ĠQue ens
Ġrev olution
ĠExpl os
Sing les
ĠSkla ven
ĠBuen os
W ol
W inter
_ .
k Ã¤
ĠS alt
am ar
ĠR eturn
ĠR umpf
ĠI hm
ĠV iv
ĠN ar
Ġg Ã¼ltig
Ġver folgen
Ġl ux
Ġp al
wei ger
ĠAn wendungs
Ġc ontains
ĠEr haltung
Ġsie bten
Ġent s
rÃ¤ te
ĠGr ill
En gl
ĠSchw aben
Ġpar ser
ĠBeg leit
ari us
ĠPhil ippe
ĠDu sche
Ġdazu ge
mÃ¶glich keit
Ġnational er
ĠJazz musiker
ĠTages zeitung
ĠChef redakteur
ĠGÃ¼ter s
Comm ent
ĠKa stell
Ġschlech te
Ġtschech ischer
F E
Z iel
b Ã¼r
f aktor
t in
ĠB ailey
ĠE C
ĠL yr
ĠC ad
Ġt at
Ġp our
Ġc ommerce
get M
uf a
ĠÃ¼ber prÃ¼ft
od ore
erk rank
Ġsp ace
ĠMa st
St op
Ġe G
stan ti
Ġth eir
ĠRech er
Ġverl Ã¤sst
ĠWei h
RE SOURCE
ĠCo up
geord neter
Ġ180 7
ĠProjekt s
Ġexist ing
ĠClass ic
Ġdr auf
ĠMe teor
Ġverz ichtet
ĠCamp ing
Ġsowjet ischer
ĠEngl ischen
ĠLiefer ung
sÃ¤nger in
1 14
L ENGTH
g le
g Ã¼nst
in ische
ich i
Ġb at
ĠG overn
Ġver sp
Ġver eint
Ġver legte
ic it
ver schluss
Ġst ieÃŁ
ert al
get E
get Text
Ġent scheidet
ĠZeit ungs
ĠGemein det
gew Ã¶lbe
Ġverb lieb
ĠSe arch
ĠVerb ot
ograph ischen
zei tigen
ott a
Ġfest e
zeug te
Ġdi plomat
ĠSohn es
ipp i
ĠGesellschaft s
ĠVertr etern
Ġ180 1
ĠGut schein
gien e
jo in
dat ei
ĠKlass ische
ĠElem enten
ĠVerhalten s
ĠAdels geschlecht
ĠPok alsieger
ĠBeschÃ¤f tigung
ĠangehÃ¶r te
sbed ingungen
wÃ¶r ter
Ġact ual
ĠGitarr ist
ĠAusgrab ungen
K loster
P or
S R
b ranche
f acht
k ranken
el ung
Ġv ideo
ĠD raft
Ġein fluss
Ġm obile
ĠK eine
ĠF aktor
ter nen
Ġf ehler
ĠW arm
us sten
Ġh ielten
ĠJ enny
Ġl uther
ĠSch ub
sp an
ĠIn sp
Ġr Ã¶
ĠÃ¼ber ein
qu en
Ġvor zu
Ġent w
ĠCh ild
ĠVor sitz
Ar ab
stra int
ide d
ĠWest seite
Ġverb reitete
con vert
recht liche
ĠUr spr
ĠCl ark
ĠCl arke
Reg ister
Ġ180 5
ĠKlein stadt
Sport ler
aktiv iert
ĠTur in
Ġac tive
Fol gende
national mannschaft
Theater schauspieler
ĠTrieb wagen
Ø§ Ù
beteil igung
J ean
S napshot
p Ã¤dagog
r ut
ĠS we
Ã¤ he
ĠK ings
ĠF uk
ĠF euch
ti zen
ĠV ie
ag i
Ġr ief
Ġum gest
pe z
arb eiteten
18 87
mit gliedern
ĠKl arin
Ġen den
)) ))
ĠJan eiro
ĠPlatz ierung
ĠVerb rauch
ĠDi mension
ĠLuft fahrt
ĠRegel ungen
mod us
ĠRel ation
ĠBro ok
ĠEhe paar
Ġ179 3
Ġvorher igen
Ġexec ution
Ð» Ð°
sex tr
produktion en
ĠMol ek
Ã¼h ungen
stem on
AuÃŁ en
ĠPriv ile
ĠHex en
ouv elle
ELE MENT
ĠEcon om
ĠTelt ow
ĠBolog na
! ");
C le
G ed
P R
W ettbewerb
r um
Ġ ..
Ġw ander
ĠM ey
Ġein setzen
ĠR id
ĠL ediglich
us a
re fer
Ġge hei
Ġaus ges
Ġsch mal
pe kt
ĠMar ÃŃa
18 79
Ġzwischen zeitlich
Ġgesch afft
ĠHoch stift
ĠmÃ¼s ste
ĠTour en
Ġwahr genommen
Ġbl Ã¼
Ġkrit isch
ĠSup port
Nieder lande
Ġargument s
Ġanges ichts
ĠDebÃ¼t album
ĠKrist all
Pass word
ĠPassag iere
Ġstet ig
ĠStrals und
1 17
a endert
f inder
j Åį
k reisen
w etter
et her
ĠD ecke
am el
Ġm atcher
ĠH i
ĠH Ã¤r
ĠR uth
Ġh igh
Ġge form
ĠZ ig
ĠSt op
sp unkte
ĠAn merkungen
rie ve
ĠÃ¼ber arbeitete
Ġsch ar
Ġsch ien
Ġsp ont
ĠAb bruch
Ġ0 3
ĠBau arbeiten
ĠGes ell
Sch ul
add Content
Ġeigen em
fÃ¼ hl
ĠCon stants
link plain
ĠBÃ¼ ch
Ġabge legt
ĠWill y
oot h
ĠLondon er
ĠKreuz es
Ġdr amat
ĠBÃ¶ den
Hol z
Ġwohn en
Ġhab t
Ġrep rÃ¤sent
ĠBil anz
ĠRezep tion
Bek annte
ĠâĪ ŀ
D av
G S
G alerie
H y
N C
S u
U se
l Ã¼sse
Ġw olle
ĠK em
ĠF loat
ĠG os
ĠG iuseppe
ĠW ern
ĠL ars
ĠN an
Ġg riff
ad ap
Ġver wirk
Ġp red
ed es
ĠAn sprÃ¼che
ĠJahr est
geb rauch
up per
uss ia
ac ters
Ġ17 00
eigen en
Ar rays
gew orfen
spr inger
Ch unk
ĠVol umen
ĠCon serv
ĠFre y
ĠStand orten
uck er
Ġkurz fristig
ĠGar den
ĠAf ghan
ĠTa sche
Ġausgew Ã¤hlten
rug uay
annot ation
Ġcolumn s
Ġporn o
Ġbefest igt
ĠPersÃ¶n lichkeit
ĠSpe ed
ĠPazif ik
ĠMÃ¶nchen gladbach
G RO
P ORT
U LE
f ers
g ium
j on
u in
un ternehmer
Ġs cript
ĠB ruck
ĠM A
ĠG iebel
ĠP t
ĠL ernen
ĠI C
ĠO regon
ad os
Ġl an
ah a
os k
ew ald
Ġc ar
Ġbe deut
ĠPro cess
Ġtr ock
18 70
18 81
(" ,
Ġbes ei
res den
pro jekte
ĠUnter haltung
Ġbeg inn
ĠzurÃ¼ck zufÃ¼hren
ĠMon ster
ĠMan usk
dr unde
Ġersch lossen
ĠfÃ¼nf te
ĠBÃ¼rger krieg
not Null
ĠKreuz ung
ĠProduktion en
kn Ã¼pft
ĠGot th
UN K
Ã¶pf en
ĠInterview s
ĠAufent halts
Ġverschw unden
ĠSoll te
Ġgros se
Tran sport
Ġtrop ischen
ĠPac ific
Entfern t
B enz
b inding
f onds
w appen
z onen
Ġd Ã©
al tern
al ign
et or
Ġb Ã¶hm
ĠD ak
ĠK ru
ĠG lob
ĠI an
Ġg Ã¤ng
sen z
Ġp Node
Ġc urr
op ter
la sten
Ġ4 50
br achte
Ġpro xy
Al tern
ĠJan e
hand werk
Ġor ient
ĠKr em
ĠBesch werden
bez irks
ĠOlymp iasieger
zep te
ĠGraf iker
ĠAnt hrop
Ġregel mÃ¤ÃŁige
ĠPo sen
Ġrem aining
Ġtrans form
Ġlau tete
ĠÃ¼ brig
ĠWis consin
HÃ¶r spiel
ĠVerf asser
ĠYor ker
Lou is
Ġurauf gefÃ¼hrt
h Ã¼gel
m esse
Å ĳ
Ñ Ī
Ġ Ã¤ndert
ĠB lech
ĠK leider
re ut
Ġg Ã¤n
Ġzu geteilt
Ġr om
Ġc ool
ĠEr reichen
Ġ18 26
av ier
18 76
vers uche
ĠPl ate
Ġseiner zeit
amer ik
ĠBo urg
Ġerst aun
ĠEl izabeth
ĠNov a
Ġeinz us
tim etern
ĠRom ane
Ã³ r
ĠFach bereich
ĠAu schwitz
ĠKommun en
ĠÃ¶ff net
ĠCms Resource
ĠErk enntnisse
Ġnied rigen
ĠStoff e
verl etzung
Komm un
ĠMari anne
frÃ¼ her
F all
F IN
M or
R en
S ection
c zy
f isch
ĠS ey
ar isches
Ġs au
ĠK olumb
ĠF reg
ĠH eiden
ĠW ick
um i
ir ges
Ġk alt
Ġg raf
Ġaus reichen
Ġun weit
Ġun klar
ind el
get Absolute
la ve
ĠAuf hebung
18 78
Ġber lin
gew ehr
wend et
schlieÃŁ t
ograph y
stit ute
Ġgeb rÃ¤uch
ĠAp oll
iat rie
ĠMehr ere
ĠÅ ģ
Pol en
Ġelektr onische
Ġverlie bt
zus ehen
ĠpreuÃŁ ische
Ġentscheiden d
Ġrep lace
wÃ¤l der
ĠZweit ligisten
berech tigt
ĠPen stemon
Ġberuf lichen
Ġfein d
ĠColor ado
kont akte
ĠBÃ¤ cker
) }
C as
N eue
j ugend
Ġ Ã¶stliche
Ġd ra
Ġin f
ĠK ette
re w
ĠV alen
ĠC amer
Ġg lieder
ed onien
ĠÃ¼ber legen
lie ss
lie be
Ġ18 23
ia de
ĠAuf trÃ¤ge
ohn ern
ĠMar athon
ac tor
ip el
sb ek
ĠGes ellschaften
Sch au
ĠTeil ung
ĠSÃ¼d korea
ĠEd in
Ġfrei gegeben
ĠInternational es
<? >>
Ġkn ow
ĠschÃ¶n er
Obj ekte
Ġmin im
spl Ã¤tze
Sel bst
ĠStat ue
ĠtÃ¤ glichen
Ġtop ic
ĠCa es
Ġschot tischen
Bef ore
ĠGroÃŁherzog tum
ĠAns ichten
ĠSyr ien
Schwe den
ĠMittele uropa
D ATA
G ast
O der
T en
k Ã¶r
n ien
w ider
in stall
ĠS ource
sch ew
ĠB ien
ĠD iss
ĠG UI
ĠP ont
ut able
Ġge heim
ver antwort
Ġsch licht
Ġtr eu
ok ko
tig ungs
par ed
dem ar
Ã¶l n
ĠBundes kanz
ĠKÃ¶nig lich
ĠGra ham
ĠMusik ern
ĠMo ore
AT ED
ĠDu ft
ĠwÃ¼r ttemberg
IC ATION
spro jekt
ĠWe ek
Ġexist s
tre al
Sport liche
Ġvergleich bar
Ġprofession ellen
chten stein
ĠGeschlech ter
ĠMunic ipio
ĠPlast ik
ĠBefrei ung
Ġnationalsozial istischen
ĠBakter ien
1 18
1 13
P redicate
R ei
S onder
s ow
v all
in herit
ĠS ituationen
Ġs ettings
ĠB E
ĠB un
et ic
ĠM eier
Ġm em
Ġz Ã¤hlten
ĠK all
ĠF ull
ĠP fe
il f
and emie
ĠV at
ĊĠĠĠĠĠĠĠĠ ĠĠ
Ġp Ã¤dagog
ĠSt apel
ĠVer einen
Ġsch Ã¤tz
ĊĠĠĠĠĠĠĠĠĠĠĠĠĠĠĠĠ ĠĠĠĠĠ
Ex tr
of ilm
omm ission
fl Ã¤ch
ĠKon vention
Ã¶l ler
enden cies
ĠNew sletter
ĠBel euchtung
ĠGel b
Ġgem eldet
Ġsol ange
ĠStaat lichen
ĠErst aus
schiff s
ĠBus h
ãģ ®
ĠPil ger
Job s
ĠHu ber
ĠEhr endoktor
DI ALOG
ĠAbst immung
kr ise
ĠJSON Object
Nieder lage
ĠtÃ¼rk ischer
Ġblau en
Beg riff
ĠQuar tier
ĠHanse stadt
WIT H
X X
k linik
p an
Â ¤
Ġd ownload
ĠS cript
au to
Ã¤ tigen
ĠA ccount
ĠB iel
ĠB ib
em atic
Ġn s
ĠP Ã©
le uten
ĠL ingu
Ġh Ã¤ngen
ro th
ĠSch ema
ass istent
iz es
Ġ" "
ĠEn ter
ĠMar ch
Ġ17 50
Ġ17 89
Ġe qu
Sch ach
Un known
Ã¤m men
ĠCon test
lig ht
ĠFrei heits
PD efinition
uk i
ĠPal ais
weis ungen
AP I
ĠVerwaltungs sitz
Jo urnalist
ĠPhilipp inen
ĠprÃ¤sen tierte
Best and
ĠLig asp
Ġarch itekt
ĠtÃ¼rk ische
Ġsup ported
PRE FIX
ĠUE FA
K as
R ud
b ungen
sch ichten
ĠB aus
ĠD ess
Ġein her
ĠP ode
ĠP kw
le ktu
den z
Ġh erk
ab b
ig ers
ĠO ste
Ġauf wend
Ġver schl
Ġl ike
ĠSch orn
sp anisch
men gen
ort on
Ġ" ]
enn amen
ĠAb frage
ast ral
18 74
St aat
Ġgew Ã¤hlten
Ã¶ff nungs
wick elt
ĠBo ys
Ġgesch eiter
Ġch ars
ĠNord seite
ĠAugust in
ha ar
ĠMusik pÃ¤dagoge
ĠLandes hauptstadt
hand ler
ST AT
OR Y
Ġper man
med ia
Ð½ Ð°
ĠLau ra
ĠTro ck
pol icy
ĠClub s
ĠAktiv itÃ¤t
ĠPe ople
ĠRand om
Min ister
ĠSchwar zwald
ĠverlieÃŁ en
Ehemal iges
cas Type
Gew Ã¤sser
ĠKomposition en
Ġmittelalter liche
Ġgolden en
ĠPassag ier
ĠLegisl atur
B inary
I dentity
M aterial
k os
k ologie
u tive
w oche
Î ¬
Ġ ĊĠĠĠĠĠĠĠĠĠĠĠ
in haber
ie ge
sch Ã¤den
Ġw ant
Ġb ud
ĠK uchen
ĠP ict
ĠW at
ĠT auch
ĠT iefen
Ġer mitteln
om eter
re gen
and el
ĠC ow
Ġo hn
ĠSt one
Ġaus gelÃ¶st
Ġun zÃ¤hl
Ġc ell
im an
get Status
ĠÃ¼ber nahmen
ak ul
Ġdeutsch sprachige
Ġwieder hol
Sch warz
aut obahn
ĠHo he
ID s
ha elt
ograph ien
zei le
Ġben annten
ĠPat ent
uk le
ĠStaats oberhaupt
Fac tor
ĠUl l
Ġmein es
ĠDruck er
ĠAir lines
oo ks
ĠOrd ner
Bundes staat
Sa ale
Bl ank
Ġko ordin
hilosoph ie
ĠExtr em
ĠPoliz isten
Sta ats
Spl it
Ġfran Ã§
B uf
D O
G V
M ore
R andom
f inden
k ompl
w ann
Ġ à¤
or is
Ġb itten
ĠM ent
Ġein gel
ĠH unger
ĠR aff
tr ad
Ġge fordert
Ġp ackage
Ġun voll
Ã¼ber tragung
ex pression
Ġvor l
18 72
mal t
int Value
sk rise
schie bung
eth yl
Ġ: )
Ġange griffen
15 0
Ġch ain
eig ten
ĠLu z
Ġzusammen gestellt
ĠBest en
hau ser
aw n
wand lung
Ge ographische
hÃ¶ fen
ĠTechn iken
Person en
Jo achim
ĠBor is
Ã¸ r
meld ungen
Ġhochwer tigen
Ġschrift lich
ĠvorÃ¼ber gehend
L ook
R ing
b Ã¶r
z ahn
Ġ ),
sch ne
ar us
Ã¤ ule
ĠB eth
ĠD il
Ġn eeded
ĠP Ã¤dagoge
ĠT omm
tr aining
Ġer laub
re k
Ġg laubt
Ġan dern
Ġan sehen
sp rÃ¤sidenten
ĠAl ois
ĠAb kÃ¼rzung
if c
18 75
pr ise
ĠUnter lagen
gew Ã¤sser
ĠPh asen
ĠNeu tr
sche e
ĠMed al
fr em
ĠZahl reiche
ĠVertr etung
ĠProjekt es
ĠEnd spiel
aun en
Ġclass es
eiger t
Ġelektr onischen
ĠPan el
Ġprom inen
ĠMerk el
Ġgleichnam ige
Ġgez ielt
VerÃ¶ffentlich t
kÃ¼nd igung
krit iker
ĠProp ag
instr ument
ĠHT ML
Ġliefer te
Inf os
< <
B ayern
G i
I K
R ules
g ger
n itro
Ġ ensure
ĠS zen
de utet
ĠP erg
Ġer weitern
ĠC ache
Ġim port
Ġg eil
ĠZ in
ĠZ Ã¤hne
ĠSch a
Ġp ush
ot to
get Method
ĠSp ons
ru pt
Ġunter einander
pf arr
ath ie
Ã¤nd iger
geben den
ĠAd miral
ĠStand orte
ĠNutz ungs
Ġmein te
ĠIns zenierung
ĠProgramm s
ĠNot wend
Ġzul Ã¤ss
komm un
Ġstate ment
Ġfinanz iert
ĠWahr scheinlichkeit
ony me
iffer ent
Ġpart ition
ĠDE FAULT
Ġsowjet ische
ĠJon athan
Jose f
Ġverteid igen
ĠFreiwill igen
ĠLeut nant
, -
B rit
f uhr
h us
t itle
ĠS ah
Ã¼ cher
ĠA fter
ĠB uff
ol y
ĠG aler
Ġf etch
ĠH its
Ġ2 30
ut ing
ĠN Ã¤hr
ĠN OT
Ġg ast
ĠDie t
Ġ18 11
Ġent warf
Ġtr ansport
ĠMa z
18 73
lag ert
sb eg
ĠUS D
Al so
Ġ10 5
meister s
50 9
Ġ> >>
ĠJohn ny
ĠTer mine
Ġbezeichnet en
ĠSil v
rÃ¤n kung
ĠHerzog s
ĠErfolg s
uel a
ĠTrans action
ĠQualitÃ¤t s
trans form
polit iker
ĠNahr ungs
Ġtransp ortiert
ĠÃľb ungen
ĠChallen ge
ĠMyth ologie
ĠBelast ung
Pointer Exception
ĠMagaz ine
grÃ¤ ber
ĠEdin burgh
D own
F ort
L y
U K
z up
Ġv iert
ĠB GB
as ar
Ġi llustr
ĠH ugh
ĠW angen
ab y
Ġg iven
ĠZ ucht
ag ert
Ġst eigern
ĠSp anier
Ġvor deren
stell ungsk
rit ing
ĠAuf lagen
ev en
ĠZeit alter
Ġgew erb
Ġpro gramm
ĠTh em
Ar n
Un ion
app ed
Ġausge legt
ĠBeg leiter
ĠBuch es
ĠÃĸsterreich ische
Ġaufge f
FuÃŁball nationalspieler
ĠErst ligisten
ĠRen ten
fil es
LA Y
Â» .
Ð¾Ð ´
Jo in
Pr ess
Ġtyp isch
Ġfind By
kraft werk
ĠÃī d
ĠKron en
ĠHaar e
Komm ission
ĠAster oiden
ĠIndust ri
Fra ktion
ĠMov ie
ĠÐ½ Ð°
H K
M el
h allen
l eister
o es
w ochen
å Ń
en code
ie hen
te ams
as List
ĠM Ã¶rder
Ġm at
ĠP for
ĠP lace
ĠH ack
ĠL utz
ber eiten
Ġge ehrt
Ġan al
ĠSch eiben
ran e
geb urtstag
ek und
ĠMa ck
able Future
br ingung
Ġweiter entwick
ĠÃĸ st
ĠMon itor
ĠWei den
gleich en
Ge ometry
anc ouver
Ġbede utete
Ġentfern ten
MP TY
ĠbenÃ¶ tigte
yth ing
ĠEmpf Ã¤nger
Fe atures
Best e
ĠBeob acht
ĠAfr ica
ĠCru z
Ġfinn ischen
Ġverblieben en
ĠPubliz ist
R G
R om
T uple
d n
f ix
g ieb
l Ã¶s
ie ÃŁer
Ġs il
Ġund er
ĠD um
em on
Ġm is
ĠE qu
Ġf ried
ĠH arb
ĠL P
Ġer inner
ĠN om
ier n
Ġk Ã¼r
ĠZ elle
ĠIn vent
Ġun b
Ġj ugend
ĠEin bau
Ġvor nehm
18 77
az wischen
Ġex akt
Type Reference
Sch m
Ġ12 8
els on
ĠGer Ã¤ten
ĠSchw immer
bl ut
ĠVerb und
ĠFol k
Ġall mÃ¤
Ġfest stellen
RE S
Ġbew ohnt
iat ischen
ĠDis ney
ĠDam als
Ġad ded
beh Ã¶rden
Ġentstanden e
lad ungen
ĠJust in
ĠstÃ¤r ken
ĠLim burg
Ġgriech ische
ĠÃ¼bergeben e
Ġnachhal tig
Ġnames pace
ĠVeg as
ĠZut aten
ĠGetrei de
StÃ¤d te
Ġverabschied et
A ff
C odes
b eben
h on
k asse
o hle
s i
es i
ge zogen
Ġs ortiert
ĠA M
Ġin tr
Ġin clude
Ġein genommen
Ġein gesetzten
Ġn at
ĠL enk
Ġge fÃ¼llt
Ġg arten
Ġzu stande
Ġst Ã¶r
Ġst immt
ben ennung
ĠAr tikeln
In stances
ĠPro ph
auf bau
pl us
An ton
ĠÃľber wachung
ĠHaus halten
ĠTr ump
ĠGener alsekretÃ¤r
Ġlang jÃ¤hrigen
Ġverst orben
Ġfile Name
Ġpl ugin
ĠNÃ¤ gel
Ġaktiv iert
ĠBran che
ĠSied ler
Ġproduz ieren
Ġbegr enz
Byte Buffer
Ġextr act
ĠHauptr ollen
ĠKanz lei
ĠSound track
initi ative
ĠJAXB Element
ĠSams ung
ĠUrspr ungs
ĠgÃ¤n zlich
D Ã¤n
E U
P od
R ichter
T F
V irtual
h ing
s feld
s cri
w urz
ie in
on isch
or ger
Ġs am
Ġf usion
ach tete
ĠN O
ĠN ieren
Ġun mÃ¶glich
Ġr s
Ġr uft
ser tion
Ġsch malen
mer kung
ss l
18 84
az it
ĠJo urn
Ġbef re
Ġverl aufen
Aus stattung
ĠGener als
ĠNatur al
Ġte sten
Ġbeh ielt
geord neten
Ġrech nen
ĠZug leich
ĠTage buch
Ġwichtig es
ĠBesitz ungen
fest ival
ĠPor sche
Aut hentication
Her steller
tra it
ĠElektr onik
ĠBÃ¶ hm
fÃ¤h ige
ĠEhren mitglied
ĠSw iss
sto ÃŁen
Ġwor ld
ĠJob s
ĠunabhÃ¤ng ige
ĠBox er
ĠAud i
Tim er
ĠKanz ler
Ġangew endet
Ġbelg ischer
ĠSchmer zen
ĠPerspek tiven
ĠKabar ettist
ĠNapole on
Alex ander
Ġbedro ht
Maxim ilian
ĠHimm els
C arl
R oll
t as
Ġd isplay
Ã¤ ums
ĠA er
ĠM aul
ĠE if
ĠE cken
Ã¶ cke
ĠR og
us el
ĠV es
ĠJ i
ĠC urt
Ġan trat
Ġauf steigen
Ġt iefen
kt oren
Ġunter hÃ¤lt
par at
Ġ17 90
los ure
ĠTh at
Ġkl are
Ver wendung
Ã¤u schen
ĠLu ck
ĠRei fe
ĠSe es
ĠDar aus
ĠBel ieb
ĠBel grad
ĠPat ient
amb a
aur us
fil men
Ġung arischer
Re al
ĠAuftrag s
Ġchar acter
lar ed
Dec l
Ġkrit isierte
ĠFund platz
Ġbelieb ten
Ġdah inter
ĠSon st
Spec ification
ĠFass aden
clu ded
Ġdein em
ĠRett ung
ĠOffen bach
ĠGefangen en
ĠGebiets reform
ĠCha os
Stad ion
Einwohner entwicklung
ĠEintr acht
Ġbesieg te
Leichtathlet ik
) ),
> </
D N
L Ã¤ufer
M ir
S ynchron
e te
f i
m ans
p assung
s im
ç Ķ
Ġd Ã¼nn
ĠS tett
ar fs
Ã¤ ften
ĠA hn
ĠB eute
ĠB Ã¤ren
Ġb al
Ġi v
ĠF asch
ĠF eiert
ĠP ia
ter en
ĠN adel
ra ck
ist ers
ĠIn stand
kt op
ger Ã¤ten
og ie
Ġvor geschrieben
ac cess
Ġgew achsen
sk op
ĠKon figuration
stan ten
ĠSta de
inder ten
Ġwo uld
ĠWei ÃŁe
gebiet es
Ġper iod
ĠMich ail
ĠBÃ¼rger schaft
ĠKultur en
ĠGel senkirchen
uk a
Ġcreate d
Ð¾Ð ¼
ĠKop ie
Ġwohn te
ends With
ĠtÃ¶ ten
Ġeff ektiv
ĠKamp agne
russ isch
Pers istence
ĠMalt a
Ġkaiser lichen
gÃ¤ ste
ĠRug by
Wid get
J S
P rev
s zene
w ache
Ñ İ
Ġ 000
en gt
ei a
ge mÃ¤
au me
ĠM E
ĠK orea
ĠG am
ĠP eng
der ich
ĠW are
ĠR ade
ĠL ug
ĠL yn
us z
ĠN acional
ist iken
Ġo wner
Ġver glichen
Ġl ayer
ed lin
Ġsich ere
ĠEin nahme
Ġunter zeichnet
Ġsp ir
Ã¼nd ungen
Ar tifact
ĠRo berts
ĠPol ar
alis ierten
ĠZwei fel
Ġbew ohn
ĠHÃ¶ hle
ĠSchm etter
gar de
lech ts
met adata
ĠStad ium
ĠAf plibPackage
ĠMel bourne
Ġbas ierend
ĠPan or
Ġwohn zimmer
ĠPau lo
htt ps
ites pace
ĠReaktion en
Ġverwand t
Ġpubl iziert
Sign ature
ĠansÃ¤ss ig
ĠKonflik ten
ĠVf B
ĠWÃ¤l der
Ġverste ckt
ĠRott weil
ĠMemor ial
ĠSier ra
S lot
T abelle
g able
j ak
ĠM ahn
ĠM AX
Ġein sch
Ġein richten
Ġf low
ĠH Ã¤ufig
tr ompeter
ro tt
Ġg laube
ic um
ĠSt all
ver mÃ¶gen
Ġc r
ĠEr hÃ¶hung
Ġsch arf
Ġ" )
ov on
acht al
Ġgegen einander
wa der
IN VALID
str and
ĠBundes staates
ren e
Ġwo hin
[] []
Ġgel Ã¶st
ĠInd iana
Ġarb eiteten
Ġlang jÃ¤hrige
ĠBel g
ĠGen res
ĠBas eball
45 3
ĠKar ib
med i
yd rau
ĠKor re
Ð½ Ñĭ
ĠWh it
ĠApp s
Ġkehr t
Ġpassen d
Ġide ale
ĠGerman istik
zub ringen
Rad io
ĠTisch tennis
ĠRis ik
Italien er
Ġpo ints
ĠRÃ¶m ischen
eigh ts
ĠWell ness
Ġidentif iziert
Ġdrit ter
ĠGeschw ister
ĠEnzykl opÃ¤die
ĠKlagen furt
? ,
I p
M AN
R echt
t hen
w alter
al and
ĠS age
ĠB evor
ĠD ez
ĠD ikt
ĠM eist
ĠF itz
ĠP Ã¤dagog
lich ung
Ġk rei
Ġver tritt
ĠSch ei
ff end
Ã¤n ze
Ġr unden
get User
ĠSie b
Ġunter halten
Ġsp itz
Ã¤l z
eim ate
Ġman geln
gesch ritten
Ġel e
set Property
kl ein
ĠEnt z
Ġgesch w
fe der
ĠKÃ¶nig lichen
ĠKomm iss
ĠDar auf
ct x
ĠMal ays
ĠÃĸff nung
ĠPet ra
led ge
ĠIngen ie
Stra ÃŁen
ĠTher es
ĠVermÃ¶gen s
ĠRal ph
G ar
V ors
a ine
c raft
d al
g Ã¤rten
ĠS ten
ĠS ap
sch ritte
Ġm ul
Ġm apping
Ġn Ã¼tz
ĠG rid
ĠG ary
ut down
ĠC z
Ġk rank
eh in
ĠâĢ º
os hi
ust on
St atic
ev o
ĠAd olph
gemein schaften
son st
Ġcon sumer
Ġimmer hin
ĠArch ive
hei de
ĠZahl ung
Ġerfolgreich er
Ġruss isch
fÃ¤h igen
ĠMÃ¼l l
ĠVerband es
sex amen
ĠTelef onn
ĠHund ert
Ġetabl ierte
ischÃ¶ f
ĠLibr etto
ĠSchmer z
ĠHaupts itz
ĠPho enix
ĠGreif swald
ĠSerb ien
ĠBekann theit
E V
J Ã¼rgen
b ig
l yn
n ick
Ġd ei
an us
ar gument
Ġw Ã¤r
Ġv iol
ĠA uer
ĠB ischÃ¶fe
ĠF ren
ĠF Ã¼ÃŁe
ĠE ag
is ierungs
ĠW iel
ĠR ib
ĠL ac
om orph
ro hung
ĠC hen
Ġg ot
Ġg rib
Ġl ob
ĠSch acht
ĠSch affen
Ġaus sehen
Ġsich eren
ĠAn gl
esch en
ub s
Ġj avax
ĠEin es
In tern
ĠAb bildung
ĠAb bildungen
rau ÃŁen
anz a
ĠPl att
rik e
ĠX V
ĠsÃ¼d afr
ĠPhil ologie
ĠCl ara
čĊ čĊĠĠĠ
ĠDorf kirche
Ġsol ches
Ðµ ÑĤ
ĠBef rag
fan terie
ĠprÃ¤ z
ĠTri um
Ġstamm ten
ĠGott lieb
ĠWh at
emb les
ĠFund ament
Europ a
Ġrow s
ĠDien sten
ĠrÃ¼ck te
arkt is
ĠMountain s
minist ers
ĠVf L
Ġkirch lichen
Ġbewaff neten
Ġverdien en
ĠkÃ¼mm ern
ĠErmitt lungen
inherit Doc
K S
f g
l ib
á ¹
Ġd isc
ar Access
Ã¤ hm
ĠA rizona
Ġz iel
ol der
ĠT il
ĠR asse
ĠL od
um me
ĠSch okol
os er
ster ben
ang liste
aus gaben
ĠAr c
ĠAl ess
In tegr
Ġunter nehmen
St ats
ĠVor lÃ¤ufer
Ġbest attet
Ã© rie
sh ort
br ach
Ġange trieben
fach en
ĠRech en
ĠGe o
such ung
aw i
oss a
Ġ24 0
Ġaktu alisiert
ĠGef ahren
ĠKur se
Ġwahr en
Ġsc an
ĠOrtsteil en
Produ ct
ĠEdu c
wÃ¤l te
Ġsup port
Ġmel dete
Ġchem ischen
ĠHandwerk er
Ġkont ak
ĠAgr ar
TRI B
Ġhabilit ierte
) (
B all
D V
E ner
G A
H en
L ab
P rivate
V oll
W N
p attern
x FF
Ð ¶
in formation
un o
or ca
or iginal
Ġw ild
ĠD all
ĠD egen
ĠK Ã¤ufer
ĠE leg
Ã¶ ser
Ġver gangen
Ġr hein
ĠUn it
od on
ĠMa ine
ĠLand schaften
ire ct
Er mittelt
til le
man gel
ĠHand lungen
Ġcon trol
ĠgrÃ¶ÃŁ erer
ĠFr Ã¶
Ġarb eits
ĠÐ ¼
ĠRad i
AN S
ĠAmer ikaner
ĠPal Ã¤st
ĠHa ag
IC HT
ĠPort o
ĠTab l
ĠMinister prÃ¤sidenten
ĠPass wort
ĠErd beben
ĠHum or
Valid ator
Ġerheb liche
config uration
Europameister schaften
sem ester
ĠBÃ¼r gern
ĠChallen ger
ĠMaur ice
Ġaufgel istet
L egen
L exikon
P ersÃ¶n
b zw
c ial
f uÃŁball
k Ã¤mpfen
p ush
s z
s ack
t ail
à §
ĠS Ã¤chsischen
ein igt
ĠA hr
Ġein setz
ĠW urm
ĠV eter
ĠC rist
Ġc ontain
ap olis
op ing
Ġnach zu
qu eue
ĠAb teilungen
omm e
our en
vers ionen
be er
gesch Ã¤fte
wer tet
Sp anien
such en
oph ys
ĠSchl ange
ĠGef Ã¼hle
ĠDre am
ĠSchm el
Ġfl Ã¼ss
ĠKreuz fahrt
ĉĉĉĉ ĉ
Ġregel mÃ¤ÃŁigen
ĠBesuch ern
ĠWein bau
ĠAch telfinale
ĠFuÃŁ gÃ¤nger
leb nisse
EX CE
bef est
ĠLab our
Ġstattf indet
po ints
ĠLy on
ĠAltern ativ
vol umen
Ġliter arischen
sec urity
ãĢ ģ
Ġbrasilian ischer
varian te
ĠErgÃ¤n zung
Ġakadem ischen
Ġrenov iert
ĠAmph ib
inzuf Ã¼gen
ĠJugoslaw ien
T B
k etten
l imit
r ong
it at
ĠA ps
ĠB ehr
ĠD in
ĠH asen
ĠR ent
ĠR af
ĠR app
ĠL und
Ġh aupt
ut o
ĠC ir
ul ierte
ag ramm
ic ode
he er
im iter
ĠAr sen
ĠEn ts
lo yd
fl anz
sh op
Ġbef asste
ĠQu ad
str ument
ĠPf and
schieden e
ĠMon ika
ĠCon figuration
Ã¤ng ern
dr Ã¤ngt
Ġbel ast
Mar ie
Ġbeh eimate
ĠBern er
ĠRu inen
ĠNor weg
ĠGlas gow
ĠEntscheid ungs
Ġ179 4
CON NE
the orie
ĠWahr nehmung
ibr ary
Ġbetrach ten
Ġmass iv
Ġabgeb ildet
ĠProp st
Ġlatein ischen
Ġruh ig
ĠNicol as
ĠDepart amento
wirtschafts lehre
ĠSÃ¼dti rol
schmer zen
Ġkonkr eten
C ost
D ann
K ern
S il
e urop
g ro
r Ã¶m
ĠM inden
ĠF loh
ĠP i
is es
ĠL ynch
ĠJ r
Ġver tik
ĠAn atom
ĠÃ¼ber fÃ¼hrt
ec tic
ĠUn gar
ef er
if tet
ĠVor lagen
ĠBr Ã¼ck
ĠKl ick
inder ung
Ver fahren
ĠMen Ã¼
12 8
ĠBet ten
ĠMon treal
ĠMan chester
ĠCon ference
ĠReich stag
ĠSchul den
ĠKr Ã¶n
ĠRad sport
uck en
bet rag
23 4
fass ade
wÃ¼r de
Ġfl achen
azz o
AS A
ĠDok umenten
Ġfr ame
ĠKraft werk
ĠAnge la
Ġsonst igen
Le ague
Ġrep ository
cr ement
IG HT
Ġreduz ieren
ĠAllt ags
Ġcle an
BU G
ĠKel ch
stÃ¶r ungen
Zentr um
bil dern
ĠMeld ung
ĠTheat re
Ã©b ec
ĠUt ah
Publik ationen
ĠReprÃ¤sentanten hauses
Ġlan dete
P ad
g ott
m Ã¼n
} -
å ¹
ĠB org
ĠM Ã¶r
ĠK um
ĠF rag
ĠP ep
ti enne
ĠN obel
eu ter
Ġun bew
ĠAn ruf
Ġdurch fÃ¼hren
Ġre den
ĠAb riss
amm ler
Ġbest es
(" <
be eren
sk rit
schie ben
zeit lichen
sb ew
Ġher ab
ou x
bo y
enk te
ĠGl anz
ĠEm ma
Path s
Ġev alu
ĠHerr mann
Ġhistor y
ĠFil ial
ĠHin dern
Ġzeit gleich
ĠTo uch
ĠTrans fer
Ġfre ut
Re gel
Arch itekt
ĠNachbar schaft
ĠMaschinen bau
ĠRap per
DA Y
Ġtau send
Ġimpl emen
Qualif ikation
Ġpopul Ã¤r
Ġabw echslungs
Ġmoment an
H ER
K r
M ul
T EXT
W A
d amer
k urz
k alk
o tr
on struktion
au ÃŁ
Ġs ort
Ã¤ user
ĠB ody
ĠM ore
ĠP aw
ĠH urr
Ġge handelt
ul in
ĠO fen
Ġauf ger
ĠSch al
sp Ã¤ter
ĠVer luste
end eten
ĠAr range
pr inzip
ĠFl u
ĠTh om
ĠBl itz
Er folg
Ġen c
ĠAd ress
ĠFilm produzent
ĠPar ag
schl usst
Ch arts
ĠLu ise
Ġgemein t
class Name
best imm
ther ap
Ġfield Name
Ġkompl etten
ĠÃ¤lter er
Ġ179 7
Ġbelieb testen
ĠGru ben
Ã¼h ler
ĠFla schen
Ġinspir iert
ĠSanti ago
ĠGÃ¼ters loh
D uration
K ult
N am
U s
b Ã¼ttel
c ts
c ted
s ig
v ing
Ġ om
st ed
ĠM ale
Ġ( );
ĠR ass
ĠL iver
ĠJ enn
Ġg old
Ġauf weist
ad resse
Ġl isten
ag ten
os serie
Ġr untime
im es
ĠPro gress
rit zen
ĠAb sicht
ĠAuf treten
ĠVor wort
Ġbest ritten
Ġ17 80
ahn sinn
Ã¼nd lich
ton a
Ġersch ossen
ement ation
bet on
ision s
welt meisterschaft
ĠWirtschaft sw
uttg art
ĠChar acter
ĠMarkt platz
ĠFil iale
ĠHin blick
Ġfre ue
ĊĠĠĠĠĠĠĠĠĠĠĠĠ ĊĠĠĠĠĠĠĠĠĠĠĠ
Ġvergleich en
gener ate
ĠWissen s
ĠBol iv
Dist ribution
Dar Ã¼ber
kom Ã¶die
ĠFotograf ien
Ġproblem los
Wor ld
Ġbehaup tet
ĠForder ung
ĠSchaff ung
ĠOR F
ĠWorm s
m ake
p aket
an kt
ĠB ebauung
Ġin v
ĠF ix
ĠR ick
ĠN ebel
Ġk reuz
ĠSt eiger
ĠSp o
ru hen
iz ismus
Ã¤t sel
gr au
ĠAm ate
gesch nitten
Sch wer
ank er
Ġbesch leun
ĠPolit ische
Ġeinz uf
ĠWer ten
ĠLin ke
FuÃŁball torhÃ¼ter
Es sen
ĠStaats sekretÃ¤r
ĠAss istenz
ÑĢ Ð¸
ĠFrie s
ĠMos k
Ġwissenschaft lich
museum s
Ġstammen den
Ġentscheiden den
ĠZimmer mann
ĠVerm ess
durch schnitt
ĠAngriff e
ĠDÃ¶r fern
oler anz
ĠSchreib weise
Ġlandwirtschaft lich
ĠAfr ican
ĠStÃ¶r ungen
gelegen en
ĠOri ent
Ġgeg ner
Ġverlang t
Ġinterpret iert
Ġkontinuier lich
Ġintel ligen
ognition Exception
b ruck
j ana
r ier
Û Į
Ġd iv
st urz
ĠB ac
Ġb ox
ĠM auern
Ġin neh
am me
ĠK ansas
ĠP reisen
ĠW ass
ĠW att
Ġver teilen
ĠAn stieg
ĠAn sprech
Ġc oun
Ġbe arbeiten
Ġbe zog
ĠÃ¼ber prÃ¼fen
id as
Ġum welt
ĠKon g
mar ck
ry ption
ĠFre undes
ĠGl etscher
ĠEd itions
isk unst
aj or
ĠLa ien
Ġstark er
ategor ien
ĠschÃ¶n es
met a
Ġorganis ieren
ynam ic
ĠRis iken
ĠKathol ische
PO ST
ĠungewÃ¶hn lich
PrÃ¼ ft
ĠOrien tierung
Allow ed
' .
G L
P seud
S ender
Z eichen
g attung
j ekten
s eller
u gel
y en
ch tet
al ischen
ge hr
Ġm essen
Ġn ad
ĠK ot
ĠK id
ĠK lo
ĠP ab
ĠW LAN
ĠT herap
Ġer teilt
Ġk W
Ġk andid
ĠSch o
Ã¤n gel
ĠAus lÃ¤nder
rit ter
av i
Ġneu em
ĠKon figur
ĠUnter k
Ch ina
ĠRe ader
ĠCon trol
unter schied
Ġhistor ischer
Ġrel ative
ĠHa wa
wÃ¼r fen
Ġwh at
Argument s
wÃ¤r tig
valid ator
prÃ¼ f
ĠHeid el
ÅĻ ÃŃ
Ġanzu zeigen
Ġbean trag
Ġfal sche
Ġsport lichen
Ġlern t
ĠInstrument al
ĠLit auen
Term inal
ĠDub lin
Ġcap t
ĠRail way
Hil fs
ĠHong kong
ĠAlf ons
ĠRÃ¤um lichkeiten
ĠCanad ian
EXCE PTION
C enter
D enn
f aden
x e
st ack
ge kommen
Ġder er
ĠK alten
ĠK Ã¤mpfen
Ġf Ã¶rdert
ĠW arte
ĠT ot
ĠT uch
ĠL ahn
Ġh ome
Ġan gewiesen
icht ungen
Ġaus ser
Ġr ichten
Ġbei tragen
end igung
schaft lichen
ĠEin wei
ĠAl ger
ech en
av el
18 67
Ã¤l ern
anz ahl
wer pen
Ġges ungen
iet ung
Ġseit lich
tex te
Ġ14 00
ĠÃľber reste
lau t
Ġ/ **
ĠVerein igte
Sie ben
ĠReich stags
kon zert
Ġkon vention
Ġgest iegen
ĠKr ampf
Ġem er
Ġwill st
bet reiber
Ġ(! (
ĠPal m
mod ule
ĠEben en
AD ER
Sel ected
kor de
Ġregion al
Http Request
option al
jen ige
Ġaustral ische
getr iebe
Ġhervorra gend
varian ten
Mas uren
PreuÃŁ en
g it
k re
l ab
m asse
p in
y i
ĠS O
und eten
it on
Ġw eichen
Ġv s
Ġb ibl
ĠM ats
ĠG riech
ĠE L
ter ungen
ti mer
ĠH ydro
ĠC old
eit h
Ġl v
ĠSch ol
mer kt
Ã¶r ung
ĠEn th
geb Ã¤udes
ĠAb fall
ĠOr din
ack te
ens eits
Type Name
set Value
IN FO
ĠQu in
stand ort
dr Ã¼cken
AR Y
reib ungs
Ġy ear
uck ets
Reg ierung
ĠZentr ale
ĠIde al
Ġjeden falls
ĠHeraus gegeben
áĥ Ĳ
ĠBy z
Ð» Ð¸
Ġinitial ize
Dist ance
italien isch
ĠGrim m
ĠIntelligen z
zoll ern
ĠÂł ĠÂł
ĠSuhr kamp
ĠErstaus strahlung
; "
P sych
S eiten
a ÃŁen
u denten
or de
et in
ĠH Ã¤m
ĠT wo
ĠI F
ĠV ancouver
ent wurf
ĠO hren
ĠO range
Ġzu zu
ad et
ĠZ elt
Ġc ounter
ec tive
ĠEin flÃ¼sse
iv alen
enn ten
ĠOr n
ĠAuf sÃ¤tze
pf ad
Ġdeutsch land
fahr zeugen
geben e
tor wart
iff ern
Ġher ange
ĠBes iedlung
uff ers
ĠVerb Ã¤nde
ĠSchl Ã¶sser
por tiert
bez iehung
ĠRef lex
ĠHeil ig
Sh ape
Ġdo i
ĠFort schritt
ordin ates
Ges amt
ĠLÃ¼ becker
ĠMess ages
Ã¶pf ung
ĠCharakter e
Ġti le
Ġdre hen
ĠHub raum
ĠKub a
brÃ¼ che
ACT ION
ĠLiebl ing
ĠFreder ick
ĠAuft akt
ĠNachkriegs zeit
ĠVorles ungen
ĠArzneim ittel
D T
E ach
J eder
P andemie
c luster
f ire
n ote
Ċ ĠĊĠĊ
Ġ ×
Ġd ek
Ġw ovon
ĠA j
ĠB einen
Ġb ulgar
ĠF un
ĠR asen
ĠR anger
ĠL euten
ĠV ent
ĠN oth
Ġk B
est ion
ot ti
Ġdurch zufÃ¼hren
her ine
Ġre par
Ġzwei geschoss
ĠStadt verwaltung
az y
Ġbeg ab
ĠBl an
ĠBo ote
ĊĊ Ġ
so ftware
stÃ¤nd iges
recht lich
Ġkomm e
legen heit
ĠRep ository
ĠPer f
Ġvoll stÃ¤ndigen
schw ung
ĠSil ver
ĠBef Ã¶rderung
Ġpl ant
ĠAng reifer
ĠAngeb oten
Sel ector
ĠEhr e
Ġherr scht
NO DE
rip pen
Ġgesellschaft liche
Ġetabl iert
Fran ce
Ġreag ieren
Ġmer ge
International e
ĠMetrop olit
mess ungen
ĠJahrhund erten
ĠKohlen stoff
Ġkompon ierte
ĠTerritor ium
ĠCapt ain
ĠGene alog
ĠOnt ario
E CD
T Ã¼rk
W ild
a q
b els
m aurer
p n
p raxis
Ġ ess
Ġ achte
ie se
ĠS inger
ĠS egment
or b
at ro
Ġs om
ĠD ah
Ġin cl
Ġm otor
ĠK lem
ĠG uer
ĠG ift
ĠW elle
ĠN iem
ĠC V
ĠO pf
ist ic
ĠSt abilitÃ¤t
sp ekt
Ġst orage
ĠAn ker
ger ichte
rie le
stell bar
Ġre konstru
par l
ĠBr ett
enz eit
stan te
Ġkl icken
ĠÃľber lieferung
ĠSh ang
ĠStud ierenden
ĠTra ce
Ġmus lim
ĠIs a
ĠLebens weise
ĠPat ron
ĠTÃ¼r ken
iam i
field s
ĠVal entin
ĠMel odie
ĠJazz trompeter
ĠCal endar
Kir ch
Ġret val
kap ital
Se q
Ph ase
Ġag ain
ĠFÃ¼rst entum
Ġbreit es
Ġfra gt
OK EN
ĠEff ekte
Ins eln
NS DAP
ĠCO VID
ĠJud ith
Krit iken
mos is
ĠvergrÃ¶ÃŁ ert
ĠlÃ¤nd lichen
ĠVul kan
ĠJimm y
getAbsolute Path
w ellen
st ep
ĠS M
ĠS iz
ur ing
Ġs i
Ġs ingen
Ġs lot
Ġv ollen
ol et
ĠP uppen
Ġau ton
ĠT rei
ĠT epp
Ġl iv
ĠSch aum
ĠSch irm
sp uren
ed back
get First
Ġ" \"
gr Ã¶ÃŁen
ĠBer kel
Ex per
ĠAuf satz
18 60
18 62
Pro zess
ĠUnter seite
ĠUnter brech
hÃ¶r er
Ġher z
ohl t
ĠAd ams
ister zien
bl Ã¤ttern
Ġverb reite
ĠKunst akademie
Ġbew erten
ĠSal on
ĠGel ieb
ĠTem po
lech te
Sc an
Ġdeut liche
Format Exception
ĠRot ter
ĠBal ken
Ġmon tiert
ĠPil z
ous ine
ĠKrÃ¤ uter
ĠWÃ¤r m
ĠBir ken
ĠKathol iken
ĠBegr Ã¼nder
ĠContent Type
typ es
ĠBenedikt iner
Ġ"/ "
gelegen e
ĠAnwesen heit
ĠKonzep te
ĠDisziplin en
ĠRestaur ierung
ĠOliv ier
Ġlit au
uver Ã¤n
ĠMagdalen a
isterzien ser
F ast
M G
T otal
b usch
n ummern
z iehung
Ġ eis
un it
st Ã¤tigkeit
au schen
Ġw ay
Ġs sl
el i
ĠK eil
ĠG ay
ĠP ist
is Log
ĠT akt
ĠL E
ĠL Ã¼b
ĠV W
Ġh Ã¼b
ĠC P
ing ten
Ġg reift
Ġauf zubauen
ist ing
ik ern
Ġt ak
Ġl ayout
ow sk
och rom
Ġnach ts
ĠAl m
Ġtr aum
Ġnew Value
set Text
Ġbeg angen
ĠChr ys
rech ter
ĠLu kas
Ġ) ?
ĠÂ £
ĠgrÃ¶ÃŁ ter
ĠDurch gang
Ġqu asi
ĠEm otion
ĠVers icherung
ĠFriedrich s
Ġper mission
ĠMod us
ĠLie dern
>> ()
ĠLo ire
Br Ã¼cke
ĠMel od
Sel ection
ĠHy b
Ġumfassen d
ĠMul tim
zur Ã¼ck
Ġanzu treffen
ĠNikol ai
Ġtschech ischen
Assign ment
Ġnam entlich
Wor ker
ĠAtlan tik
ĠKonf ession
ĠSatell iten
Ġentstamm te
Ã¤pst lichen
ectic ut
D imension
K anada
M ad
S Y
S ound
g Ã¼ter
i ak
Ġ ÏĦ
ie hlt
ĠS equ
ar tement
ĠD ichtung
ĠD ave
Ġm atrix
ĠG eiger
ĠP ent
ĠE X
ĠL ep
ĠL ey
ach rich
il fe
Ġh inger
sen den
ĠVer fahrens
Ġr as
Ġr ufen
ap fen
ĠEr Ã¶ffnungs
Ġwir ft
Ġtr eiben
ek tiven
ĠGesch wind
wer de
Ġgesch ehen
ĠBundes ministerium
ĠRe zension
ĠRech nungs
buch t
Ġlang uage
klÃ¤r ungs
Ġletzten dlich
uck y
ĠDem o
Ġhinter lieÃŁ
lav a
ĠgrÃ¼n e
gem Ã¤lde
Access Exception
vel ope
Ġparse d
ĠEst land
Back up
Ġpubl izierte
ĠIndian er
ĠPoten tial
ĠBÃ¶r sen
gÃ¤ng ig
ĠMex ico
ĠBehand lungs
clus ive
B elege
J ar
M ask
W al
o ine
p ur
ĠM TV
ĠG E
ĠG eister
Ġh ex
Ġge zeichnet
ĠZ ip
ĠAn arch
och t
get Bytes
iz id
Ex port
ĠMar ion
ĠVor gÃ¤nge
fl ossen
lag ern
ekt oren
ĠUm benennung
ĠTr asse
ktur en
ĠGener ald
ĠArbeit splatz
ĠDi agnose
sicht s
Bei spiel
ĠIt al
Ã¨ res
Ġfort gesetzt
Ġrecht zeitig
ĠCom ics
orien tierte
ĠBig Decimal
Ger man
ĠStudio album
ĠLaw rence
ĠRicht ungen
Bel gien
leun igung
ĠAfghan istan
p la
en burg
Ġd ran
Ġd elta
Ġin haf
ĠP ank
ĠE R
ti co
Ã¶ geln
ĠL ipp
ĠL ippe
Ġh eutzutage
ro it
ĠJ ess
Ġan statt
ĠSch ar
eu gen
ĠAn lehnung
Ġwar tet
ĠEr mord
ĠEr laubnis
18 59
pt on
ĠÃľber legungen
ĠSh in
ĠMed ical
ĠWohn en
ĠGegen zug
ĠNatur e
Ab kÃ¼rzung
sam keit
ĠBi ologie
Ġkurz em
fel dern
ymn ast
ĠTest s
ĠFel dern
Um welt
ĠEhren bÃ¼rger
ĠJung frau
ĠWall fahrts
ĠStern bild
Ġerziel ten
ĠgeprÃ¤ gten
ĠWiderstand sk
ĠTime Unit
ĠVerd acht
Ġeingeb unden
dehn ung
ĠVari ablen
names pace
ĠSymph ony
E qual
P rem
S M
S ommer
W egen
d ampf
sch ach
Ġs ehe
ĠK lage
ĠK rypt
ĠP rest
ĠH ipp
ĠH MS
ĠR eck
Ġh ind
ut in
Ġal li
ul i
Ġo u
sp ol
ow ina
esch t
ĠÃ¼ber lassen
ungs ort
ru ption
Ġ" ."
ste ckt
ĠAb sch
ac a
Ġber uh
Ã¤nd ischer
rÃ¼ che
ĠTeil s
ĠPr ince
Ã¤m ter
ĠX I
ĠX II
Ġlang frist
ĠTitel verteidiger
ĠGrÃ¼n e
igit te
ĠHof mann
ĠKat astral
ĠOrts name
Ġklass isch
ĠAuÃŁen minister
ĠEmpf ang
ĠKolon ien
ĠCre w
ĠMiss ouri
ĠPir aten
Ġkonzentr iert
zens ionen
ĠFuss ball
ĠInvas ion
B ond
C redentials
D ot
H ub
K A
e ffiz
k olon
p zig
Ġ ĊĠĠĠĠĠĠĠ
in ischer
ar ien
it ischen
ĠA pfel
ĠP reconditions
den burger
ro v
ir i
Ġge boten
ad miral
sp itzen
ert h
() ];
Ġtr ennen
ĠAb weich
ĠGr ube
ĠLand graf
leich en
ĠBe endigung
ĠRech ner
ĠSe elen
Ġern euten
Ġkon sequ
ĠCo ach
ĠMet s
jÃ¤hr iges
ĠGeh alt
ĠStaat sexamen
haupt mann
ĠSchÃ¶n berg
Pr incipal
verwalt ungs
jo urnalist
rick et
Ġwirtschaft lich
ĠSor ten
ĠÃľberg angs
ĠHard ware
ĠZen timetern
Ġwert volle
ĠAnf Ã¤ngen
Ġwa it
Ã¶nt gen
beu tel
swissenschaft ler
ĠgewÃ¶hn lich
Ġerlern te
Ġvornehm lich
ĠBerkel ey
= \"
C ard
C ookie
H alle
N AL
b ieren
j apan
j agd
j urist
t hal
un ten
st ill
ĠS ymbole
it ar
it Ã¤r
ĠB amb
Ġb md
ĠD Ã¶
Ġi ds
ĠM ehl
ĠM ixed
ĠP Ã¤dagogik
ĠP rÃ¤sid
ĠT in
ĠL ungen
Ġh ellen
ĠC ond
Ġt iefe
sp ath
ĠVer trÃ¤ge
Ġsch me
iz able
In gen
tern ehm
Ġmehr heitlich
att an
bau meister
ĠPl ant
fÃ¼hr ungs
ĠSpiel betrieb
10 1
Ġ10 2
ĠAd j
Ġgesch icht
12 5
Ġcon structor
mittel bar
Ġfest genommen
mÃ¤ÃŁ iger
ĠBas ic
ĠHeim spiel
schein end
Ġne useel
ĠTo urnee
Table Name
ĠÃ¤uÃŁ ere
ĊĠĠĠĠ ĉ
Ġunver Ã¤ndert
tere o
Ġgebild eten
Ġsorg fÃ¤l
Ġtau cht
ĠJon as
Ġstill gelegt
Ġkomplex en
Ġbit tet
gewinn ung
ĠErgÃ¤n z
ĠgÃ¼l tigen
ĠWorksh ops
ĠAtl anta
ĠHers feld
ĠMuh ammad
Ġohn ehin
A qu
P arts
s al
w angen
ie tet
ĠS ummer
ge fahr
ĠB ienen
ol ge
Ġf ilename
le v
ĠT as
ĠT enden
ĠR eut
ab kommen
ul s
Ġzu fÃ¤llig
ad in
ĠAn ger
ĠAn fÃ¼hrer
schaft liche
ĠSie gel
ov ision
fl ikt
Ġsel f
Ġsel ected
old s
ĠList ener
stand es
orn o
ĠPr ice
ogen e
ĠWerk zeuge
ish i
kon k
ote chnik
fra ktion
ĠEis ernen
ĠGen fer
Ġinter face
ĠHerr schafts
bez irke
ĠOlymp ische
ĠDem oc
ĠGraf iken
ĠWieder vereinigung
ÑĤ Ð°
Ġsub sp
mÃ¶ bel
ĠSek unde
ĠRot ten
Ġdr ingend
Tr igger
ĠDenn is
ĠÃ¤uÃŁ erte
áĥ ĺ
Ġverkauf ten
Ġerforder t
ĠgÃ¼nst iger
ĠLeit ungs
ĠbestÃ¤ tigen
Ġzuge hÃ¶rigen
Ġeinzig artige
Ġreligi Ã¶se
Ġtrain iert
ĠEinz eln
ĠMig uel
' re
B AD
R ein
R ate
T ile
W eimar
Z un
j n
k ular
ĠD NA
ĠM ob
ĠG Ã¼r
ĠG eis
ĠP air
ĠP reistrÃ¤ger
Ġf lei
ĠW Ã¤
ĠT ell
ĠT all
ĠI ce
ĠI van
ut mosis
ĠN ase
ĠN ummern
ĠSt ack
ah m
Ġst eil
Ġst iegen
ger echt
Ġsch ritt
qu et
ib ir
ib ia
enn etz
rÃ¤ ge
Ex t
18 64
ip se
ĠVor ort
Ã¶l ln
Ġ7 50
Un ique
ail y
ĠBe ein
ĠAug uste
ĠVerein barung
ĠBez ahl
Ġvier mal
ash ion
ĠNational en
ĠNational rat
Set s
ĠMod ellen
ĠObj ekten
haf ter
DE X
ĠWinter thur
resse d
ĠKÃ¼nstler s
ĠPlan ungen
ĠEnerg ien
Ġwahr e
ĠHerzog in
ĠHel fer
Ġbestimm ter
Ġgl att
ĠDeb atte
ĠjÃ¤hr lichen
Ġwohn t
Ed it
Ġfunktion ieren
Ġbelieb te
Ġdunk len
ĠMas ken
ĠÄ °
ĠZul etzt
Team s
Ã« l
ĠBem Ã¼hungen
Qualif ied
agnost ik
ĠAlli ierten
ĠErwer b
ĠGep Ã¤ck
ĠRepubl ikanischen
ĠStif ter
ĠDiskuss ionen
ĠWeih bischof
C ur
E valu
F ilme
H al
S achsen
V C
V ert
W alter
g uss
t otal
u ktion
Ġ æ
ei bt
Ã¼ ster
Ġs uche
ĠD amm
Ġm ask
ĠR ates
Ġge druckt
ad y
Ġo g
ell ung
Ġr einen
ap plication
ĠÃ¼ber gab
ran ke
ĠUn supported
Ġzum al
Ã¤r chen
auf wand
ĠÃ ħ
Ġsp iele
Ġlie bt
Ġ17 95
fer enzen
Ã¤nd ische
ĠSpiel feld
ĠUnter scheidung
ĠGeb irgs
Ġbek amen
ĠEl fen
Ġall owed
ĠFr acht
ĠRep ert
ĠCo ast
[...]
